!
"
#
##0
##1
##10
##11
##12
##13
##14
##15
##16
##17
##18
##19
##2
##20
##21
##22
##23
##24
##25
##26
##27
##28
##29
##3
##30
##31
##32
##33
##34
##35
##36
##37
##38
##39
##4
##40
##41
##42
##43
##44
##45
##46
##47
##48
##49
##5
##50
##51
##52
##53
##54
##55
##56
##57
##58
##59
##6
##60
##61
##62
##63
##64
##65
##66
##67
##68
##69
##7
##70
##71
##72
##73
##74
##75
##76
##77
##78
##79
##8
##80
##81
##82
##83
##84
##85
##86
##87
##88
##89
##9
##90
##91
##92
##93
##94
##95
##96
##97
##98
##99
$
%
&
'
(
)
*
+
,
-
.
/
0
00
000
001
0019127
002
0022
00345
006
00601
008
01
013
018
02
03
030
0302
032
04
05
050979
0527
055
06
07
079
08
09
1
10
100
1000
1001
1006
1007
101
1016
102
1024
1028
103
1037
104
1046
105
106
1066
107
108
1080
109
1092
1093
11
110
1100
111
1111
112
113
1139
1139189
114
115
1155
116
117
1177
118
1185
1186
119
12
120
1200
1201
1204
121
122
1226
123
1233
1234
124
125
126
127
128
1289000
129
13
130
1300
1305
131
132
133
134
135
136
137
138
1383
139
14
140
1400
141
142
143
144
1443
145
1452
1453
146
147
1470
1475
148
1483
1487
149
15
150
1500
1504
1507
151
1513
1516
1517
1519
152
1524
153
1530
1533
1534
1537
154
1540
1541
1546
15489
155
1550
1555
1558
156
1560
1564
157
1570
1572
1573
1578
158
1582
1583
159
1596
1598
16
160
1600
1601
1608
161
1610
1610471
1612
1616
162
1620
163
1630
1636
164
1640
1645
16494711
165
1650
1652
1653
1655
1656
166
1667
167
1670
1672
1674
168
1680
1688
169
1693
1697
17
170
1700
1701
1703
1707
171
172
1727
1729
173
1730
174
1743
1745
1746
1748
1749
175
1750
1754
1755
1756
176
1760
1762
1763
177
1773
1775
1776
1778
1779
178
1780
1781
1782
1784
1786
1787
17888068
179
1790
1792
1793
1795
1796
1797
1798
1799
18
180
1800
1801
1805
1806
1809
181
1810
1812
1813
1814
1815
1816
1817
1818
1819
182
1820
1821
1823
1827
1828
1829
183
1830
1831
1832
1833
1834
1835
1836
1837
1838
1839
184
1840
1842
1843
1844
1845
1846
1847
1848
1849
185
1850
1851
1852
1853
1854
1855
1856
1857
1858
186
1860
18607597
1861
1862
1863
1865
1866
1867
1868
1869
187
1870
1871
1872
1873
1874
1875
1876
1877
1878
1879
188
1880
1881
1882
1883
1884
1885
1886
1887
1888
1889
189
1890
1891
1892
1893
1894
1895
1896
1897
1898
1899
19
190
1900
1901
1902
1903
1904
1905
1906
1907
1908
1909
191
1910
1911
1912
1913
1914
1915
1916
1917
1918
1919
192
1920
1921
1922
1923
1924
1925
1926
1927
1928
1929
193
1930
1931
1932
1933
1934
1935
1936
1937
1938
1939
194
1940
1941
1942
1943
1944
1945
1946
1947
1948
1949
195
1950
1951
1952
1953
1954
1955
1956
1957
1958
1959
196
1960
1961
1962
1963
1964
1965
1966
1967
1968
1969
197
1970
1971
1972
1973
1974
1975
1976
1977
1978
1979
198
1980
1981
1982
1983
1984
1985
1986
1987
1988
1989
199
1990
1991
1992
1993
1994
1995
1996
1997
1998
1999
2
20
200
2000
2001
2002
2003
2004
2005
2006
2007
2008
2009
201
2010
2011
2012
2013
20131231001457
2014
2015
20151231
2016
2017
2018
2019
202
2020
2021
2022
2024
203
204
205
205198
206
207
208
209
21
210
211
212
213
215
217
21782070
218
219
22
220
221
222
224
2244
225
226
227
2271
228
229
2290
23
230
231
2314
232
2321
233
2332
2338
2339
234
235
2354
236
237
238
2387
239
23905941
24
240
241
242
243
244
245
246
247
2478
249
25
250
2500
251
252
25250318
25295134
253
254
255
256
257
25742226
258
259
26
260
261
262
263
264
265
266
267
268
269
27
270
271
273
274
275
2760
277
278
279
28
280
284
285
286
2861
287
288
289
29
290
292
294
295
296
297
298
299
3
30
300
3000
301
302
303
304
305
306
307
308
309
3098
31
310
3100
311
312
313
314
315
316
3166
317
318
319
32
320
3201
321
3210
322
3237
324
3245
325
326
327
329
3291398
33
330
331
332
333
334
335
336
337
338
339
34
340
343
344
346
347
348
35
350
351
3528
353
3534
355
35610310
357
3581
36
360
3606
361
362
364
365
366
3666
367
3672
3673
368
3681
369
3699
37
370
371
375
375285
376
377
378
38
380
3801
382
383
3836
384
385
388
389
39
390
391
392
395
396
397
398
399
4
40
400
4000
402
403
404
405
407
408
41
410
411
413
414
415
4164514
4164551
417
418
419
42
420
421
422000
423
425
427
428
429
43
430
431
433
434
438
4387
439
44
440
442
445
446
447
448
45
450
451
452
453
46
460
462
463
4648
466
467
468
469
47
470
471
472
473
476
48
480
48000
481
483
485
49
490
491
497
499
5
50
500
5000
500000
501
505
506
507
51
510
517
518
519
52
520
525
53
530
533
5347
538
54
540
543
544
547
5489
55
550
56
560
565
567
569
57
570
573
575
577
578
58
580
582
585
587
588
589
59
593
594
599
6
60
600
601
603
607
6095
61
6109
612
613
6141
615
617
62
621
625
626
63
630
631
632
63400
635
636
64
6470
65
650
6500
66
662
67
672339
679
68
69
697
7
70
700
702
709
71
72
73
730
7309
735
737
74
744
747
75
750
76
768
77
777
778
779
78
780
787
79
793
8
80
800
80113
802
809
81
82
821
83
837
84
846
85
850
856
86
87
88
89
9
90
900
901
91
912
92
922564
929
93
94
947
95
9568
96
964
968
97
978
9781561592630
98
99
990
993
995
999
:
;
<
=
>
?
@
\
^
_
`
a
aa
aag
aaker
aarbakke
aaron
ab
aba
ababa
ababaleki
ababalelwa
ababaluleke
ababalulekile
ababamba
ababambe
ababambiqhaza
ababanakekelayo
ababandakanyeka
ababaziwa
ababebalekele
ababebekwe
ababebhekene
ababeboshiwe
ababefihla
ababefunda
ababehlala
ababehlanganyela
ababekhona
ababekhonza
ababelwa
ababelwe
ababeneminyaka
ababengafuni
ababengothisha
ababephikisana
ababeqashwe
ababeqeqesha
ababesebenza
ababeyibiza
ababhala
ababhali
ababhalisile
ababhekana
ababhekene
ababhekiswe
ababhekwa
ababhikishi
ababhishobhi
ababi
ababika
ababiki
ababili
ababizelwe
ababizwa
ababona
ababoshiwe
ababoshwa
ababuke
ababukeli
ababulalayo
ababulali
ababulawa
ababusi
abacebile
abacha
abacishe
abacula
abaculela
abaculi
abacwaningi
abadabuka
abadala
abadali
abadayisi
abade
abadia
abadidiyeli
abadikoni
abadinga
abadla
abadlala
abadlale
abadlali
abadlidliza
abadlula
abadume
abadumile
abadwebi
abae
abafa
abafaka
abafake
abafakizicelo
abafakwe
abafana
abafanayo
abafayo
abafazi
abafelokazi
abafika
abafike
abafileyo
abafisa
abafowabo
abafowethu
abafudukayo
abafuduki
abafuna
abafunda
abafunde
abafundela
abafundi
abafundile
abafundindalo
abafundisa
abafundisi
abafuni
abafushane
abafuyi
abagcwalisa
abagibeli
abagijimi
abagqamile
abagqekezi
abagqugquzeli
abagulayo
abaguqukayo
abaguquli
abagxeka
abagxeki
abahamba
abahambisa
abahambisana
abahlala
abahlali
abahlangabezana
abahlangana
abahlanganyela
abahlanganyeli
abahlanu
abahlaziyi
abahle
abahleli
abahlinzayo
abahlinzeki
abahloli
abahlomile
abahlonishwayo
abahlukahlukene
abahlukene
abahlukumezi
abahlukunyezwayo
abahluleka
abahluleli
abahluphekile
abahola
abaholi
abahumushi
abahwebi
abajabulayo
abajwayelekile
abakaze
abake
abakha
abakhetha
abakhethelwe
abakhethi
abakhethiwe
abakhiqizayo
abakhiqizi
abakhishwe
abakhohlisi
abakholelwa
abakhomba
abakhona
abakhongi
abakhonjwa
abakhonzi
abakhubazekile
abakhulelwa
abakhulelwe
abakhulu
abakhululiwe
abakhuluma
abakhuluphele
abakhuthele
abakhwetha
abakubiza
abakubona
abakufanele
abakwa
abakwaclick
abakwamuppets
abakwanandi
abakwanet
abakwatelkom
abakwazanga
abakwazi
abakwenzayo
abala
abalahlekelwa
abalala
abalaleli
abalandela
abalandelayo
abalandeli
abaleke
abalelwa
abalesi
abalessa
abaletha
abalimi
abalingana
abalinganayo
abalingani
abalinganiselwa
abalingisi
abalingiswa
abalobi
abalukhethayo
abaluleke
abalulekile
abalulimi
abalwa
abalwela
abalweli
abamangalelwa
abamba
abambalwa
abambe
abamele
abameli
abamhlophe
abammangalelwa
abammeli
abamnyama
abampofu
abamthola
abamukela
abamukeli
abanakekeli
abanakho
abanaleli
abanalo
abanamabele
abanamakhono
abanamalayisense
abanamandla
abanayo
abancane
abancintisanayo
abandakanya
abandakanyeka
abandayo
abane
abanebala
abanecala
abanegama
abanekhono
abanemibala
abaneminyaka
abanemizimba
abanenani
abanesibongo
abanesifo
abanesikhumba
abanesimo
abanesithembu
abanethemba
abanethonya
abanezimpawu
abanga
abangaba
abangabantu
abangabazi
abangabonakali
abangafundile
abangahambisani
abangakaze
abangakholelwa
abangakholwa
abangakhulumi
abangakwazi
abangakwemukela
abangalungile
abangama
abangamajuda
abangamakhaladi
abangamakristu
abangamanguni
abangamaqaba
abangamashumi
abangamasulumane
abangamaxhosa
abangane
abangani
abangaphakathi
abangaphandle
abangaphansi
abangaphezu
abangasekho
abangashadile
abangasohlangothini
abangasokile
abangazange
abangaziwa
abangcwele
abangekho
abangela
abangele
abangelwa
abangena
abangenacala
abangenalo
abangenalwazi
abangenamakhaya
abangenele
abangewona
abangochwepheshe
abangu
abanguni
abanikazi
abanikeli
abaningana
abaningi
abanjalo
abanjelwe
abanjengo
abanjengohenry
abanjengojean
abanjengopamela
abanolwazi
abanqunu
abansundu
abantu
abantulayo
abantwana
abanye
abapendi
abaphakathi
abaphambili
abaphansi
abaphatha
abaphathi
abaphawulekayo
abaphenduli
abaphenyi
abaphephela
abaphethe
abaphethwe
abaphezulu
abaphikisana
abaphikisi
abaphila
abaphilayo
abaphinde
abaphostoli
abaphothule
abaphuma
abaphumelela
abaphumelele
abapristi
abaprofethi
abaqala
abaqambi
abaqambimanga
abaqanjiwe
abaqaphelekayo
abaqashi
abaqashwe
abaqeqeshi
abaqeqeshiwe
abaqhuba
abaqokelwe
abaqondisi
abaqorow
abaqwayizi
abasabalalisa
abasafufusa
abasakazi
abasanda
abase
abasebancane
abasebasha
abasebenza
abasebenzi
abasebenzisa
abasebenzisi
abasebrithani
abaseduze
abasekeli
abasele
abasemagunyeni
abasemelika
abasenandaba
abasengozini
abasenineve
abasesikhundleni
abasesodoma
abasespain
abasezingeni
abasha
abashadayo
abashade
abashadile
abashayeli
abashicileli
abashiya
abashona
abashonile
abashushisi
abashutha
abasindile
abasokile
abasola
abasolwa
abasubathi
abasuka
abasuke
abasunguli
abaswele
abathakathi
abathanda
abathandana
abathandanayo
abathandayo
abathandekayo
abathandi
abathatha
abathathu
abathathwa
abatheleleka
abathelelekile
abathembekile
abathengi
abathengisa
abathengisi
abathenwa
abathi
abathile
abathintekayo
abathintekile
abathola
abatholakala
abathole
abatholi
abathunyelwe
abathuthukisi
abathwali
abathwebuli
abathweswe
abatshalizimali
abatshuzi
abavakashi
abavali
abavame
abavamile
abavangeli
abavela
abavelele
abavikeli
abavimbela
abavubukuli
abavuma
abavumelana
abavumele
abavuthiwe
abawu
abawukhethile
abaxhumana
abay
abaya
abaye
abayeni
abayi
abayimilutha
abayimizulane
abayiqamba
abayishumi
abayisikhombisa
abayisishiyagalolunye
abayisishiyagalombili
abayisithupha
abayitholile
abayizi
abayizigidi
abayizitabane
abayizithonjana
abayizithulu
abazali
abazalwa
abazalwane
abazalwayo
abazama
abazange
abaze
abazi
abazibulalayo
abazimele
abazingeli
abazinikele
abaziphethe
abaziwa
abaziwayo
abazizwa
abazoba
abazohlala
abazothumela
abazukulu
abba
abbay
abbayaa
abbe
abbes
abbey
abc
abdelhamid
abdelkader
abderrahmane
abducted
abdul
abdullah
abdurahman
abe
abebhale
abed
abefundisi
abehlukene
abehluleka
abeka
abeke
abekho
abekhona
abekwa
abekwe
abela
abelaphi
abelethe
abelokhu
abelungu
abelusi
abelwe
abengaphansi
abenguni
abenza
abenze
abenzi
abergele
aberrant
abesabi
abese
abesebenzisa
abeshge
abesifazane
abesilisa
abesuthu
abethuli
abeza
abezindaba
abezombusazwe
abhala
abhale
abhalise
abhaliwe
abhalwe
abheka
abhekana
abhekane
abheke
abhekene
abhekise
abhekiswe
abhekwe
abhenyiwe
abhisheka
abhululwe
abi
abicah
abichuna
abid
abigail
abika
abikiwe
abilisiwe
abim
abingdon
abiodh
abiza
abizayo
abize
abizwa
abizwe
abo
abobo
abokufika
abomdabu
abomndeni
abomnyango
abomvu
abona
abonakala
abonakale
abone
abongameli
abonisa
abonisane
abonwa
abophiki
abophiko
aborn
aboshwa
aboshwe
abote
abou
about
above
abraham
abrahama
abrahams
abrams
abraw
abreha
abs
absa
absalom
abstract
abtal
abu
abucayi
abudwak
abufunayo
abukeka
abukho
abuko
abulala
abulale
abulawa
abulawe
abulewe
abumanga
abuna
abuse
abuye
abuyele
abuyisele
abuyiselwa
abuyiselwe
abuze
abyei
ac
acacile
academia
academic
academy
acar
acashe
access
accessdate
accessed
accident
according
account
accountability
accounting
acdp
ace
acebile
acekelwa
acela
acele
aces
acetate
acf
achacha
achaza
achazwa
achebe
achefer
achievement
acid
acids
acishe
ackermans
acorn
acornhoek
acoustic
acres
act
acta
acting
actinidia
action
active
activist
activities
actor
actress
acts
actua
acule
acun
acute
ad
ada
adaabaa
adaama
adaami
adado
adale
adalwa
adam
adams
adamu
adaptations
adayiswe
add
addas
adderly
addi
addiction
addis
addison
addition
addo
address
ade
adekar
adelaide
adelaideunited
adelana
adelescents
aderawa
adet
adhaoura
adhesives
adi
adichie
adinga
adingekayo
adiyabo
adjorlolo
adjumani
adla
adlala
adlale
adlalela
adlalele
adle
adlula
adlule
adlulisa
adlulisele
adluliswa
administratif
administration
administrative
admiral
adola
adolescence
adolescents
adolph
adonsela
adonswa
adopt
adp
adrar
adrenal
adriana
adspersus
adubula
adult
adume
adumile
advanced
advances
adventure
adventures
advice
advocate
adwa
ae
aerobic
aerosol
aesthetic
afabet
afaka
afake
afakiwe
afakwa
afakwe
afambo
afana
afanayo
afane
afanele
afanelekele
afar
afcon
afdem
afder
afdera
afe
afela
afeshum
afeta
afeze
affair
affairs
affirmative
affroun
afganistani
afghanistan
afghanistani
afgooye
afiidevithi
afika
afike
afinyelela
afinyelele
afinyelelwe
afl
aflou
afmadow
afp
africa
africainikezela
african
africanist
africans
africaopendata
africas
afrika
afrikaans
afrikaanse
afrikaner
afritude
afrixalus
afro
afroasiatic
afrotainment
after
aftermath
afudumele
afuna
afunda
afunde
afundise
afweyn
afza
ag
aga
agaarfaa
agadez
agago
again
against
agalo
agaram
agareb
agaro
agast
agasti
agcina
agcine
agcinwe
agcotshiwe
agcwele
age
aged
agency
agenda
agent
ages
agew
aggleton
agnes
agnosticism
ago
agobile
agonie
agos
agostinho
agqoka
agqoke
agqugquzela
agreement
agricultural
agriculture
agubha
aguila
aguilar
aguilera
aguirre
agujwa
agulhas
agunyaziwe
aguqulwa
agweme
agxeka
agxile
ah
ahamba
ahambe
ahambele
ahambisa
ahambisana
ahambisanayo
ahammad
ahashiveroshi
ahl
ahlakaniphile
ahlala
ahlale
ahlalisane
ahlangana
ahlangane
ahlanganisa
ahlanganise
ahlanganisiwe
ahlanganiswa
ahlanganiswe
ahlanganyele
ahlangene
ahlanzekile
ahlanziwe
ahlasela
ahlekisayo
ahlela
ahleliwe
ahlelwe
ahlinzeka
ahlinzeke
ahlobene
ahlonipha
ahloniphe
ahloniphekile
ahloselwe
ahlukahluka
ahlukahlukene
ahlukana
ahlukanise
ahlukanisekayo
ahlukaniswa
ahlukaniswe
ahluke
ahlukene
ahlukile
ahlukumeza
ahlukunyezwa
ahlulekile
ahlulwa
ahlupheke
ahmad
ahmed
ahmet
ahola
aholela
aholelekile
ahras
ahumusha
ahumushe
ahunyushwe
ai
aid
aids
aimee
ain
aioun
air
aira
airborne
airbus
aircraft
aires
airey
airlines
airplay
airport
airtime
airways
aisha
aissa
ait
ajax
ajcc
aje
ajenda
ajim
ajoyina
ajoyine
ajulile
ajwayele
ajwayelekile
ak
aka
akademia
akademie
akakaze
akaki
akakwazanga
akakwazi
akaky
akamuva
akanamali
akanye
akasoze
akatholakali
akayona
akazange
akaze
akazi
akbou
akc
ake
akekho
akenzanga
aketi
akha
akhandelwa
akhangayo
akhanyayo
akhawunti
akhdar
akhe
akhetha
akhethekile
akhethiwe
akhethwe
akhipha
akhiphe
akhiqiza
akhiqize
akhiqizwa
akhiqizwe
akhishwa
akhishwe
akhiwa
akhiwe
akhmim
akho
akhohlwe
akhokha
akhokhe
akholelwa
akholelwe
akhomba
akhombisa
akhombise
akhona
akhonjiswa
akhonjiswe
akhula
akhule
akhulela
akhulisa
akhulu
akhulule
akhululwa
akhululwe
akhuluma
akhulume
akhulunywa
akhumbule
akhuthaza
aking
akira
aklanyelwe
akleh
akleliswe
aklil
akobo
akoko
akouda
aksoy
akubhekwa
akubiza
akubona
akubonisi
akubonwa
akucaci
akudala
akudingeki
akufanele
akufani
akuhlali
akuhlobene
akujwayelekile
akukaze
akukho
akukhona
akuleli
akulona
akulula
akulungile
akumele
akunabufakazi
akunakwenzeka
akunandaba
akunankinga
akunasidingo
akunjalo
akuphoqelekile
akusadingeki
akusekelwa
akushilo
akusho
akusikho
akusiyo
akusiyona
akusona
akutholakali
akutholanga
akuvamile
akuvinjelwa
akuvumelekile
akuvuni
akuvunyelwe
akuwona
akuyona
akuzange
akuzona
akwamapulana
akwazi
akwazulu
akwenza
akwenze
akwenzeki
akwenzi
akwenziwa
al
ala
alaa
alaba
alabe
alabo
alactasia
alahleka
alahlekelwe
alahlekile
alahlwa
alai
alain
alaje
alala
alalele
alam
alamata
alamein
alan
alandela
alandelanayo
alandelayo
alandele
alandelwa
alaotra
alaska
alawula
alayense
albacore
albania
albert
alberta
albertina
alberto
albhamu
albie
albrecht
albuginea
album
alcasar
alces
alchemy
alcohol
aldai
aldershot
aldrin
ale
alebtong
alec
alefa
aleister
alejandro
aleksandr
aleli
aleltu
aleph
aleppo
alesi
alethe
alex
alexa
alexander
alexandra
alexandria
alexandrowich
alexis
alf
alfabhethi
alfred
algae
algebra
algeria
algiers
algonquin
algorithm
algorithms
ali
alia
alibavumeli
alibhamu
alibri
alice
alicho
alicia
alick
align
aligned
alikaze
alikho
alikhulumi
alikwazi
alimala
alimaze
alimele
alinaso
alinde
alindele
aline
alingana
alinganayo
alinganisa
alinganiselwe
alistair
alive
aliye
alizange
aljeriya
alkaline
alkaloid
alkaloids
all
alla
allafrica
allah
allan
alleged
allemande
allen
allergy
alleug
alliance
allied
allison
allium
allmusic
allophones
alloys
allure
alma
almora
almoravid
alo
alondoloze
alone
alongside
alonso
alouane
alpha
alphabet
alphanumeric
already
als
alsaadi
also
alt
alta
altar
altare
alternative
although
alto
alubandlu
aluhlaza
alukho
alula
alulame
aluminium
alumni
alunabo
alunankinga
alungele
aluthola
alutholanga
aluthole
alutsheku
aluyilutho
aluzange
alveolar
alwa
am
ama
amaalbhamu
amabane
amabanga
amabarkapella
amabele
amabhaca
amabhande
amabhange
amabhangi
amabhangqa
amabhanisi
amabhasi
amabhayibheli
amabhayisikobho
amabhayografi
amabhendi
amabhethri
amabhizinisi
amabhodi
amabhodlela
amabhokisi
amabhola
amabhomu
amabhondi
amabhubesi
amabhuku
amabhulukwe
amabhungane
amabhunu
amabi
amabili
amabizo
amablesser
amabombo
amabuddha
amabuddhist
amabutho
amacala
amacebo
amachadaza
amachembe
amachwe
amachweba
amaciko
amacitizen
amaconsi
amaculo
amadala
amade
amadigri
amadili
amadivayisi
amadivaysi
amadlelo
amadlozi
amadoda
amadodakazi
amadodana
amadokodo
amadolo
amadolobha
amadolobhana
amadrama
amadumbe
amafa
amafalcons
amafayela
amafest
amafilimu
amafomethi
amafomu
amafu
amafula
amafulegi
amafushane
amafutha
amafuthetshe
amagalelo
amagama
amagatsha
amagceke
amagciwane
amagciwanyane
amagesi
amageyimu
amageza
amagilebhisi
amagobolondo
amagoli
amagqabha
amagqwetha
amagranti
amagremu
amagrikhi
amagriquas
amagu
amagugu
amagumbi
amagundane
amagunya
amahadiths
amahebezi
amahembe
amahemuhemu
amahhashi
amahhotela
amahhovisi
amahindu
amahlamvu
amahlandla
amahlanu
amahlathi
amahlaya
amahle
amahlebezi
amahlelo
amahlo
amahloni
amahlumela
amaholide
amaholo
amahora
amahubo
amajaji
amajalimane
amajapane
amajazi
amajesuit
amajikijolo
amajuba
amajuda
amajwabu
amakalenjin
amakamelo
amakati
amakha
amakhadi
amakhala
amakhaladi
amakhalenda
amakhambi
amakhamera
amakhanda
amakhasi
amakhasimende
amakhasino
amakhathuni
amakhava
amakhaya
amakhaza
amakhekhe
amakheli
amakhemikhali
amakhemisi
amakhilogremu
amakhilomitha
amakhodi
amakhoisan
amakholishi
amakholomu
amakholwa
amakhomanisi
amakhomishani
amakhompiyutha
amakhompyutha
amakhondomu
amakhono
amakhonsathi
amakhonteyina
amakhophi
amakhosi
amakhosikazi
amakhowe
amakhoyisani
amakhrestu
amakhulu
amakhulukazi
amakilabhu
amakilasi
amaklayenti
amakleleba
amakolishi
amakoloni
amakrestu
amakristu
amakuraysh
amalahle
amalanga
amalayisense
amalebhu
amalebula
amalembe
amallunga
amalokishi
amaloli
amalulwane
amalunga
amalungelo
amalungiselelo
amalungu
amaluthela
amama
amamaki
amamasonic
amaminerali
amamitha
amamodeli
amamojula
amamormon
amampondo
amanandi
amanani
amancane
amancoko
amanda
amandebele
amandiya
amandla
amandwandwe
amane
amanethiwekhi
amanfo
amanga
amangaphandle
amangisi
amangqamuzana
amanguni
amaningana
amaningi
amanita
amanje
amanothi
amanoveli
amanqaku
amantombazane
amantongomane
amanyala
amanye
amanyuvesi
amanzi
amapaneli
amapasi
amapayipi
amaphampu
amaphasela
amaphatho
amaphayona
amaphela
amaphepha
amaphephandaba
amaphesenti
amapheshana
amaphethelo
amaphethini
amaphiko
amaphilisi
amaphoyisa
amaphrojekthi
amaphupho
amaphutha
amaphuzu
amapiano
amaproducer
amaprofeshini
amaprojekthi
amaprotheni
amaprothestani
amaprovinsi
amapulaki
amapulana
amapulatifomu
amapulazi
amapuleti
amaqabane
amaqabunga
amaqanda
amaqathi
amaqembu
amaqhawe
amaqhinga
amaqhugwane
amaqiniso
amaqoqo
amaquaker
amar
amarandi
amareferensi
amarekhodi
amaribhoni
amaro
amaroma
amasaladi
amasampula
amasango
amasatanist
amaseli
amasende
amasentimitha
amaseva
amasevisi
amasha
amashadi
amashaji
amashalofu
amashayina
amashebhini
amasheya
amashidi
amashubhu
amashumi
amasi
amasiddi
amasignali
amasiko
amasimpson
amasimu
amasistimu
amasizini
amasondo
amasongo
amasonto
amasoseji
amasosha
amasu
amasudi
amasulumane
amasuthu
amaswati
amaswazi
amaswenka
amaswishi
amasybia
amataliban
amatende
amateur
amathambo
amathanga
amathani
amathathu
amathaveni
amathe
amathemba
amathempeli
amathenda
amathikithi
amathini
amathole
amathoni
amathonya
amathoyizi
amathrekhi
amathuba
amathuluzi
amathumbu
amathwasa
amatilosi
amatoho
amatshe
amatswana
amava
amavanga
amavenda
amavesi
amavidiyo
amavidyo
amaviki
amavithamini
amavolontiya
amavoti
amawashi
amawebhusayithi
amawele
amawikhethi
amawundlu
amaxhosa
amaxhoxho
amaya
amayintshi
amayunithi
amaza
amazambane
amazarma
amazinga
amazinyo
amazon
amazuba
amazulu
amazwe
amazwekazi
amazwi
amazwibela
ambalavao
ambalwa
ambanja
ambassador
ambassel
ambatofinandrahana
ambatolampy
ambatomainty
ambatondrazaka
amber
ambient
ambilobe
ambitiouz
ambo
amboasary
ambohidratrimo
ambohimahasoa
ambositra
ambovombe
ambrose
ambulelwe
ambulensi
ambuyat
amdar
ame
amehlo
amelana
amele
amelio
amemezele
amen
amenas
amendment
america
american
americans
amersfoort
amesh
ameur
amfilohije
amfune
amhara
amhlophe
ami
amibara
amici
amicus
amid
amile
amina
amino
aminuis
aminyaa
amir
amiret
amisa
amise
amiswe
amithayi
amittai
amizour
amkhanuke
amman
ammari
ammi
ammonia
ammonium
amnandi
amnesty
amnyama
amoeba
amolatar
among
amongst
amor
amora
amore
amoron
amos
amose
amoucha
amp
ampallang
ampanihy
amparafaravola
amphora
amputation
amra
amrane
amri
amria
amrit
amrita
amsterdam
amudat
amukela
amukele
amuria
amuru
amvikele
an
ana
anabantu
anaerobic
anal
analalava
analamanga
analanjirofo
anally
analo
analog
analogue
analysis
anama
anamafutha
anamandla
anamanzi
anamazinga
anamuhla
anamulenge
ananassa
anand
anant
anastomosis
anatoliy
anatomic
anatomical
anatomy
anc
ancer
anchar
anchietae
anchor
ancibilika
ancient
ancike
ancintisana
ancintisane
anciphisa
anciphise
ancishisiwe
ancoma
ancwl
ancyl
and
andalous
andaman
andapa
anderacha
andere
anderson
andilamena
andile
andise
andorra
andrade
andramasina
andre
andrea
andreas
andrefana
andrew
andrews
androgen
android
androl
andrology
androy
andy
ane
anecdotal
anecdotes
aneded
anele
anemia
anemibala
anemibono
aneminyaka
anempilo
anesici
anesthesia
anesthetic
anezimpawu
anezitho
anezwi
anfillo
angaba
angabamba
angabanikeza
angabantu
angabaze
angabhekana
angabhekisa
angabizwa
angabonakala
angabonakali
angabulaleki
angacha
angadlala
angafaka
angafakwa
angafaneleka
angafani
angagwetshwa
angahlala
angahlanekezeli
angahlangene
angahlatshwa
angahle
angahlotshaniswa
angahlukaniswa
angahluziwe
angaholela
angajwayelekile
angakha
angakhokhisa
angakhula
angakhulumi
angakwazi
angama
angamadoda
angamagay
angamakhulu
angamakristu
angamalungu
angamaluthela
angamangisi
angamaphesenti
angamaqaba
angamashumi
anganikela
anganyakazi
angaphakathi
angaphambili
angaphambilini
angaphandle
angaphansi
angaphatha
angaphezu
angaphezulu
angaphumi
angaqashwa
angaqondakali
angar
angase
angasebenzisa
angasetshenziselwa
angasetshenziswa
angashadile
angasho
angasinikanga
angasoki
angathathi
angathi
angathola
angatholakali
angavalwa
angavela
angaxhashazwa
angaze
angazi
angazibandakanya
angcolile
angcono
angcwatshwa
angcwele
angeke
angekho
angel
angela
angeles
angelo
angempela
angemuva
angena
angenakuqhathaniswa
angenakususwa
angenalutho
angenasawoti
angenawo
angenayo
angene
angenele
angeniswe
angenza
angenzeka
angenziwa
angeziwe
anggun
angikaze
angikwazi
angiography
angiosperms
angisoze
angiyena
angiyiboni
angizange
angle
anglican
anglo
ango
angoche
angola
angolalla
angomakhelwane
angry
angu
angus
anh
ani
anic
anika
anikela
anikele
anikeza
anikeze
anikezela
anikezelwe
anikezwa
anikezwe
anikwe
anilingus
animal
animalia
animals
animated
animation
animators
anime
anion
anisakiasis
anita
anjalo
anjenge
anjozorobe
ankara
ankasha
ankazoabo
ankazobe
ankober
ann
anna
annaba
annals
annan
anne
annie
annobo
announce
announces
annual
anod
anomdlavuza
anomeric
anomumo
anongwe
anonile
anorgasmia
anorgasmic
anosawoti
anosibe
anosy
another
anqabe
anqoba
anqobe
anquma
anqume
anseba
ansongo
ant
antalaha
antalya
antanambao
antananarivo
antanifotsy
antar
antarctica
antatika
antenna
anthem
anthology
anthony
anthrax
anthropologist
anthropology
anthropomorphic
anti
antibiotic
antimony
antoine
anton
antonio
antony
antsalova
antsirabe
antsiranana
antsohihy
antsokiyana
antwerp
anuak
anus
anwar
anwebekayo
any
anyamalale
anyanisi
anzima
ao
aokas
aouana
aouf
aougrout
aoulef
aoun
ap
apa
apac
apache
apadravya
apart
apartheid
apex
aphakathi
aphakeme
aphambili
aphansi
aphatha
aphathe
aphatheke
aphathwe
aphekiwe
aphekwe
aphelele
aphendule
aphenyisise
aphesheya
aphethe
aphetheyo
aphethwe
aphezulu
aphikisa
aphikisana
aphikisayo
aphikise
aphilayo
aphile
aphili
aphinde
aphindwe
aphothula
aphrodites
aphukile
aphula
aphule
aphulukisiwe
aphuma
aphume
aphumelele
api
apocalypse
apocrypha
apollo
aposthia
apozion
app
apparatus
appeal
appeals
appears
apple
application
applied
applique
apprentice
approach
apps
apreli
april
aptera
apula
aq
aqable
aqala
aqale
aqanjiwe
aqanjwe
aqaphela
aqaphele
aqeda
aqede
aqedele
aqhamuka
aqhamuke
aqhelelene
aqhube
aqhubeka
aqhubekayo
aqhubeke
aqhutshiwe
aqine
aqinile
aqinise
aqinisekisa
aqinisekise
aqinisekisiwe
aqokelwe
aqokwa
aqokwe
aqonde
aqondene
aqondile
aqoqa
aqoqwe
aqoshiwe
aqoshwe
aqua
aquaculture
aquinas
aqukatha
aqukethe
ar
ara
araarso
arab
arabhu
arabia
arabic
arabiki
arabs
arada
aramaic
aramu
aran
arandis
aranos
arap
araucanian
arba
arbaaz
arbitration
arbor
arca
arcana
arch
archaeological
archaeology
archbishop
archimedes
architect
architecture
archive
archived
archivedfrom
archives
arctic
ardussi
are
area
areas
arena
areola
areopagus
arero
arewa
arewaci
arewanci
areza
argentina
argobba
argoub
argus
ari
ariana
aricha
arise
arish
arisitotile
aristophanes
arithmetic
arivonimamo
arizona
arjentina
arjo
arkay
arlington
armachiho
armagh
armed
armenia
armenian
arminia
arminian
armor
armored
arms
armscor
army
arnat
arnold
aroni
around
arous
aroussa
arpanet
arre
arrest
arrested
arris
arrow
arrows
ars
arsel
arsenal
arsenic
arsi
arssi
art
arta
artemisinin
arterial
artery
artes
arthroleptis
arthur
article
articles
artificial
artillery
artiodactyla
artist
artiste
artists
arts
artuma
aru
arua
arusha
arzew
arzu
as
asa
asabi
asagirt
asakazwa
asakhula
asala
asalla
asanda
asathuthuka
asatshalaliswa
asayine
asayinwe
asayita
asbestos
ase
aseafrika
asebalkan
asebekhulile
asebenza
asebenzayo
asebenze
asebenzela
asebenzelana
asebenzisa
asebenzisana
asebenzise
asebephenduke
asebethathe
asebevele
asebhange
asebhayibhelini
asebrithani
asebukhosini
asebutswana
aseduzane
aseduze
asegauteng
asegibhithe
asehlobo
asehungary
asejalimane
asejapane
asekapa
aseke
asekela
asekele
asekhaya
asekhona
asekuseni
asele
aselesotho
asemaceleni
asemadagasika
asemalawi
asemalokishini
asemasorete
asemelika
asemiddelburg
asemnambithi
asemngceleni
asemozambiki
asempuma
asempumalanga
asemthethweni
asemtubatuba
asenamibhiya
asendaweni
asendiya
asendle
asendulo
asengozini
asenigeria
aseningizimu
asentshonalanga
asenyakatho
asenze
asepheresiya
asepolokwane
asepotchefstroom
aserichards
aserussia
asescotland
aseshayina
asesifundazweni
asesiswini
asesodoma
asesudan
aseswazini
asethekwini
asethohoyandou
asetiberiya
asetibet
asetshenziselwa
asetshenziselwe
asetshenzisiwe
asetshenziswa
asetshenziswe
aseturkey
asevele
aseyekile
aseyurophu
asezimbabwe
asezindaweni
asezingeni
asezweni
asgede
ash
ashada
ashade
ashaye
ashes
asheshe
ashisa
ashisayo
ashiwo
ashiya
ashiye
ashley
asho
ashoka
ashone
ashonela
ashton
ashukumisayo
ashumayela
asia
asian
asibhala
asidi
asifani
asigcini
asihlukaniswanga
asikho
asikisela
asikwazi
asinazo
asinda
asindise
asinikezi
asip
asiriya
asisekho
asiya
asiza
asizange
asize
ask
asked
asker
askoo
asla
asmal
asmara
aso
asogwini
asokile
asolwandle
asondelene
asongekayo
asosa
asp
aspirin
aspx
assa
assassination
assault
assaults
assel
assembly
assessment
assist
assistant
associate
associated
associates
association
assurance
asthma
aston
astra
astro
astronaut
astronomy
astv
asuka
asuke
asukela
asule
asuman
asungula
asungule
asuselwa
asuswe
aswan
asylum
asymptomatic
asyut
at
ata
atacama
atatu
atbara
atchaar
ate
ater
ath
athambile
athanda
athandana
athandwa
athandwayo
athandwe
athatha
athathe
athathelwe
athathwa
athathwe
athe
athen
athene
athenge
athengisa
athengiswa
athengwa
athens
athi
athiki
athikili
athile
athinta
athintekile
athiwa
athize
athletic
athola
atholakala
atholakalayo
atholakale
athole
athomu
athosiwe
athumela
athumele
athunjwa
athunyelwa
athunyelwe
athuthukile
athuthukise
atkinson
atlanta
atlanthiki
atlantic
atlas
atm
atom
atomic
atrium
atropine
atsbeha
atsbi
atshele
atsimo
atsinanana
attacks
attaf
attia
attitudes
attoh
attrition
attwood
atypical
au
auch
audi
audience
auditor
auf
augmentation
august
auguste
augustin
augustine
aura
aureus
aurum
aus
ausla
austin
australia
australian
austria
austrian
author
authority
auto
autoamputation
autobiographical
autobiographies
autobiography
automne
automotive
autonomous
autshumato
autumn
autumnal
auxerre
av
available
avakashele
avale
avaliwe
avalon
avame
avamile
avamise
avaratra
avatar
avela
avele
avelele
avenue
aveza
avezwe
avikele
avinjelwe
avinjiwe
avios
aviv
avn
avril
avulekile
avuma
avume
avumela
avunyelwe
avuse
avuselelekayo
avuthiwe
avuthwe
awa
awabel
awaday
awahlali
awakholelwa
awangaphumelela
award
awards
aware
awasa
awasavaliwe
awasebenzi
awash
awasungula
awavamile
awavamisile
away
awazange
awb
awbare
awdal
aweil
awekho
awhum
awi
awina
awindor
awine
awo
awokuthakatha
awsi
awu
awufani
awugujwa
awuhambisani
awuketshezi
awukho
awukwazi
awulaelo
awunawo
awusebenzi
awutholanga
awuzange
axhase
axhaswa
axhumeka
axhumene
axhunywe
axillary
axis
axon
axoxa
axube
aya
ayabiza
ayabonakala
ayachitheka
ayadliwa
ayafana
ayahlukahluka
ayakwazi
ayaludla
ayana
ayanda
ayatholakala
ayaye
ayaz
ayazamazama
ayazi
ayaziwa
aydın
aye
ayebhalwe
ayedlala
ayefana
ayefisa
ayefuna
ayefundisa
ayehlala
ayehlangana
ayekade
ayeke
ayekholelwa
ayekhona
ayekubona
ayekuso
ayelawula
ayemi
ayenalo
ayenesithembu
ayengama
ayengamaqembu
ayengamele
ayengenalwazi
ayengumnikazi
ayenikezwa
ayenqaba
ayenza
ayenzi
ayenziwa
ayephambana
ayesebenza
ayesebenzisa
ayesetshenziswa
ayesha
ayevame
ayeyisebenzise
ayeziphathe
ayi
ayibhala
ayibiza
ayibukelwa
ayicaciswanga
ayidingi
ayidlala
ayidlalile
ayifaki
ayifani
ayigugu
ayihambisani
ayihlatshwa
ayiholeli
ayihumusha
ayijwayelekile
ayikaze
ayikho
ayikhulu
ayikwazanga
ayikwazi
ayilandi
ayilendi
ayilungile
ayinakho
ayinambala
ayinaphunga
ayinaso
ayinayo
ayindlela
ayingozi
ayingxenye
ayinikeza
ayinkimbinkimbi
ayiqediwe
ayisebenzi
ayishumi
ayishuminambili
ayishuminanye
ayisi
ayisihlanu
ayisikhilimu
ayisikhombisa
ayisinkwa
ayisisekelo
ayisishagalolunye
ayisishagalombili
ayisishiyagalolunye
ayisishiyagalombili
ayisithupha
ayisungula
ayitholakali
ayithole
ayitholi
ayittey
ayivamile
ayiveli
ayiyona
ayizange
ayizi
ayizicaba
ayizigidi
ayizilwane
ayizinkulungwane
aynabo
ayo
ayoba
ayodlalela
ayofuna
ayoni
ayosebenza
ayoun
ayra
ays
ayun
ayyat
az
azakhele
azale
azalwa
azalwe
azama
azame
azana
azange
azania
azanian
azariya
azawad
azazga
azcona
aze
azebo
azel
azenza
azerbaijan
azerbaijani
azeri
azernet
azi
azibandakanye
azidingi
azigcinele
azihlanganisa
azikaze
azikhawulelwanga
azikhawulelwe
azikhethele
azikho
azikwazi
azimele
azinayo
azinikele
aziphatha
aziphendulele
aziswa
aziswe
azithathwa
azithola
azivamile
azivunyelwe
aziwa
aziwayo
aziwe
aziz
azizia
azizwe
azo
azokwazi
azonikeza
aztec
azteca
azungeze
azungezile
azwakala
azzaba
azzouz
b
ba
baartman
baatuu
bab
baba
bababhali
babafundi
babalandeli
babalekela
babalelwa
babalingani
babamba
babambe
babambisane
babandakanya
babandakanyeka
babanjwa
babantu
babantwana
babati
babaziwa
babcock
babe
babebheka
babebizwa
babebona
babebuthene
babecabanga
babefuna
babegqoka
babehlala
babeka
babeke
babekholelwa
babekhona
babekwazi
babekwe
babelana
babelane
babelwe
babenabafazi
babenamadodana
babenamalungelo
babenecala
babenephutha
babengabantu
babengafundile
babengamalungu
babengamukelwa
babengavumelani
babenze
babephelelwa
babephethe
babes
babeshade
babethatha
babethi
babevame
babevumelana
babezoshada
babhala
babhale
babhaliswa
babhalwa
babheka
babhekana
babhekane
babheke
babhekene
babhekisa
babhekwa
babika
babike
babikezele
babikwa
babille
babiza
babizwa
babo
babona
babonakala
babonakale
babone
babonisa
babopha
baboshwa
baboshwe
babouche
babu
babuke
babulala
babulawa
babumba
babungeyona
babuthana
babuthathwa
babuya
babuye
babuyela
babuyele
baby
bacabanga
bacele
bach
bachaza
bachelor
bachitha
back
backbone
background
backing
backs
bacteria
bacula
bacule
baculum
bad
badabuka
badakwe
badalwe
badari
badawacho
baddiel
badinga
badis
badji
badla
badlala
badlale
badle
badlule
badr
badrashein
badumazeka
bafa
bafaka
bafake
bafana
bafazi
bafeyila
bafeze
bafika
bafike
bafinyelele
bafisa
bafudukela
bafuna
bafunda
bafunde
bafundise
bafune
bagcina
bagcine
bagginsi
bagour
bagqoka
bagqoke
bagqunywa
bagrut
bagweme
bagwetshwa
bagxila
bagxile
baha
bahamba
bahambe
bahambela
bahbah
bahir
bahlala
bahlale
bahlali
bahlangabezane
bahlangana
bahlanganisa
bahlanganise
bahlanganiswe
bahlanganyela
bahlanganyele
bahlasela
bahlaselwa
bahlela
bahlele
bahlinzeka
bahlinzekwa
bahlonipha
bahlukana
bahlukanisa
bahlukaniswa
bahlukaniswe
bahlukile
bahlukumeza
bahlukunyezwa
bahlukunyezwe
baholi
bahr
bahri
baikonur
bailey
bainen
bajabule
baji
bajoyina
bajoyine
bajwayele
baka
bakagwayi
bakahulumeni
bakajehova
bakajesu
bakaknigge
bakakrestu
bakakristu
bakaloti
bakamongameli
bakamuva
bakanandi
bakankulunkulu
bakasathane
bakazuma
bake
baker
bakeware
bakha
bakhala
bakhe
bakhetha
bakhethe
bakhethwa
bakhipha
bakhiphe
bakhiqiza
bakhiqize
bakhishwa
bakho
bakhokhelwa
bakholelwa
bakholwa
bakhomba
bakhombisa
bakhombise
bakhona
bakhonjiswe
bakhonza
bakhule
bakhululwe
bakhuluma
bakhulume
bakhuluphele
baki
bakool
baku
bakubakaki
bakubheka
bakubiza
bakugxekile
bakuleli
bakuqala
bakwa
bakwamanye
bakwanandi
bakwaroblox
bakwazi
bakwazile
bakwazulu
bakwenza
balaba
balabo
balahlekelwa
balala
balale
balandela
balanitis
balanoposthitis
balawo
bale
baleka
balesifunda
baletha
balethe
balezi
balfour
balimala
balinga
balinganiselwa
ball
ballantyne
ballet
ballroom
balls
balo
balungele
balwa
balwe
balyana
bama
bamabanga
bamabhizinisi
bamafilimu
bamagama
bamagrikhi
bamajuda
bamakhaladi
bamakhatholika
bamakhemikhali
bamaloli
bamamormon
bamanga
bamanye
bamaqembu
bamaquaker
bamasha
bamasheya
bamasoni
bamatekisi
bamatende
bamathambo
bamatsonga
bamavidiyo
bamazinyo
bamazuba
bamazulu
bamazwe
bamba
bambalwa
bamchaze
bame
bamele
bamemeza
bamemezela
bami
bamisa
bammangalelwa
bamthathile
bamukela
bamukele
banaadir
banamathuba
banamuhla
banana
banayo
banciphise
band
banda
bandisa
bandla
bands
bane
banelungelo
banev
bang
banga
bangaba
bangabanikazi
bangabantu
bangabi
bangabizwa
bangachazwa
bangafuna
bangafunda
bangagcini
bangahlala
bangahlangana
bangahle
bangakhuluma
bangakubo
bangakwazi
bangaleso
bangalore
bangama
bangaphakathi
bangaphambi
bangaphambili
bangaphambilini
bangaphandle
bangaphezu
bangaphinda
bangaqambi
bangase
bangasebenza
bangasebenzisa
bangasebenzisani
bangashada
bangashadi
bangathenga
bangathola
bangayi
bangayithola
bangazuza
bangempela
bangena
bangene
bangenela
bangenele
bangesaba
bangeze
bangladesh
bango
bangonandi
bangu
banguyise
banikela
banikele
banikeza
banikeze
banikezwa
baningi
banio
banja
bank
banks
banned
banner
banqoba
banqobe
banquma
banqume
bansi
bantam
bantamweight
bantu
banxxx
banyana
banza
banzi
baobab
baoki
baphakamise
baphawula
baphenduka
baphethe
baphika
baphikelela
baphikisana
baphikise
baphila
baphilayo
baphile
baphinde
baphoqeleka
baphule
baphuma
baphuze
bapristi
baptism
baptist
baptiste
baqala
baqale
baqanjwe
baqaphela
baqasa
baqeda
baqede
baqhubeka
baqhubeke
baqinisekisa
baqoka
baqokwa
baqonde
baqopha
baqukethe
baquliswa
bar
barack
baragwanath
barangay
barbara
barbecue
barbell
barbells
barbosa
barcelona
barclays
bardo
bargaa
bari
baringo
barka
barker
barmalel
barnabas
barnard
barney
barng
barolong
barraba
barrani
barrett
barros
barud
bas
basa
basal
basaloid
basayine
base
baseball
basebantu
basebenza
basebenze
basebenzela
basebenzele
basebenzisa
basebenzise
basebhrazili
basebrithani
based
basedayak
basefrance
basefulansi
basegauteng
basegibhithe
basehausa
basejalimane
basejalimani
basejapan
basejaphani
basekela
basekele
basekenya
basekhanada
basekhaya
basel
baselibya
basemadolobheni
basemakhaya
basemalawi
basemapulazini
basemelika
basemexico
basemilesian
basemjondolo
basemoyeni
basemphakathini
basempumalanga
basemunich
basenandi
basendiya
basendulo
basenew
basengozini
basenigeria
basenilotic
baseningizimu
basentshonalanga
basenyakatho
baserashiya
baserussia
baseshayina
basesibhedlela
basesouth
basesoweto
basespain
basespeyini
basesudan
baseswazini
basetibetan
basetshenziselwe
basetsonga
baseturkey
baseyuropha
baseyurophu
basezimayini
basezimbabwe
basha
bashada
bashade
bashadikazi
bashaya
bashaye
basheshe
bashicilela
basho
basic
basicism
basigxeka
basikisela
basin
basis
basiswar
basize
basketball
basketo
baso
bass
basset
bassett
basuka
basuke
basungula
basuswa
basutoland
bat
bath
bathabile
bathambekele
bathanda
bathatha
bathathe
bathathwa
bathe
batheleleke
bathembeke
bathembisa
bathenga
bathenge
bathi
batho
bathola
batholakala
bathole
batholwa
bathumela
bathumele
bathunjwa
bathunyelwa
bathuthela
bathuthukisa
bathuthukise
bathwala
batna
batra
batshale
batsman
battalion
battan
batter
battersby
battle
batty
batuman
batusa
bauchi
bauer
baumann
bausanci
bavakashela
bavakashele
bavame
bavamise
bavarian
bavela
bavele
baveze
bavezwa
bavie
bavikele
bavikelekile
bavula
bavulela
bavuma
bavumelana
bavumelane
bavunyelwa
bavunyelwe
bavuswe
bawo
baxhumane
baxoshwa
baxoxa
baxter
baxwayisa
bay
baya
bayadh
bayafa
bayakhuthazwa
bayakwazi
bayanxuswa
bayashintsha
bayazi
baye
bayeke
bayibhendi
bayingxenye
bayiswa
bayo
bayoba
bayohlala
bayomsebenzela
bayonikezwa
bayoquliswa
bayothola
bazali
bazalwa
bazama
baze
bazi
bazibiza
bazibophezela
bazilungiselele
bazinakekele
baziphathe
baziphilise
bazithatha
baziwa
bazo
bazoba
bazobe
bazohlala
bazokwazi
bazokwenza
bazoyenza
bazuze
bazwakalise
bbc
bbs
bc
bce
bclr
bcm
bcn
bcom
bcr
bdsm
bdud
be
beach
bead
beagador
beagle
beamer
bean
beans
bear
beard
bearden
bearinger
beast
beat
beatles
beaufort
beauty
beba
bebalekela
bebandla
bebanga
bebehluleka
bebeka
bebelokhu
bebengakwazi
bebengathenjwa
bebengazimisele
bebengenawo
bebesikhokhela
bebhala
bebheka
bebhekene
bebhikisha
bebhikishe
bebhola
bebona
bebonke
bebukisa
bebulawa
bebuya
bebuyela
becabanga
because
bechar
bechir
beck
become
becomes
becula
bed
bedele
bedla
bedlala
bee
beef
been
beer
befc
befika
before
beforensiki
befuna
befunda
begazi
begcotshwa
begi
begin
beginning
begqoka
begqoke
beguines
behamba
behavior
behaviour
beheira
behind
behlala
behlangana
behlanganyela
behlikihla
behlise
behluleka
behlushwa
behola
bei
beida
beige
beijing
bein
being
beitra
bejaia
bejoyina
bejwabu
beka
bekeksa
beketanga
bekhaya
bekhetha
bekhilikithi
bekhula
bekhulu
bekhuluma
bekubandakanya
bekufanele
bekukholelwa
bekukhona
bekulindeleke
bekulokhu
bekumele
bekungaba
bekungajwayelekile
bekungamamaki
bekungeke
bekungenzeka
bekungokokuqala
bekungokwesikhashana
bekungu
bekuqukethe
bekuvame
bekuwuhlelo
bekuwukubeka
bekuyindlela
bekuyingxenye
bekuyisiteshi
bekuzoba
bekwazi
bekwenza
bel
bela
belafonte
belashwa
belatter
belaventura
belessa
belgian
belgium
believe
beligi
belinabathunywa
belinde
belize
bell
belladonna
bellas
belly
belt
belungisa
belutak
belwa
bemashela
bembla
bemboze
bemdc
bemibhalo
bemidlalo
beminyaka
bemisipha
bemithi
bemivubukulo
bempilo
bemukela
bemvelo
bemvume
ben
bena
benani
bench
bencwadi
bendabuko
bendalo
bendawo
bendawonye
bendoda
benduku
bendunu
benecala
benedict
benedictus
benefit
benefits
bengakwazi
bengal
bengali
benganecala
bengaqala
bengasebenzisanga
bengashadile
bengathatha
bengayi
benghazi
bengo
bengqondo
bengqukuhlu
benguela
benhlangano
benhliziyo
beni
benin
beningizimu
benishangul
benjamin
benkolo
benkomo
benkonzo
benkosi
benkululeko
benn
beno
benoni
benqaba
benqoba
bensimbi
benson
bentela
bento
bentsha
benyoub
benyunyana
benz
benza
benze
benziwa
benzuba
bepenisi
beperk
bephawula
bephephandaba
bephethe
bephikisana
bephothula
bepipi
beqala
beqembu
beqhubeka
beqhutshwa
beqiniso
ber
berber
berbere
berd
berda
berea
berenta
beret
berger
berhan
berichterstattung
berkeley
berlin
berlusconi
berners
beroblox
berry
bertram
besaba
besabela
besaphila
besayensi
bese
besebenza
besebenzisa
beselula
besenzo
beshaya
besho
besibhedlela
besibonelelo
besicikizi
besidunu
besifazane
besifo
besifunda
besifundazwe
besigaba
besigxile
besijaphani
besikhaphela
besikhashana
besikhathi
besikole
besilisa
besilokhu
besimame
besimanje
besimi
besimila
besimo
besingavikelwe
besingisi
besisebenza
besisho
besisu
besitayela
besiteshi
besithathu
besithembu
besitho
besitumbuka
besivumelwano
besizini
besizulu
besizwe
besonto
besplatan
bessem
best
besuka
besuke
besuku
bet
beta
betactical
betel
beth
bethanda
bethandana
bethanien
bethatha
bethelevishini
bethi
bethola
bethu
bethula
bethule
betrugs
betrunken
betsiboka
better
between
bevala
bevangeli
bevela
bewayini
bewikipidiya
bey
beya
beyah
beyan
beyers
beyimindeni
beyond
beza
bezama
bezazi
bezemidlalo
bezempilo
bezenhlalakahle
bezenhlalo
bezenkolo
bezenzo
bezepolitiki
bezezimali
bezibalo
bezifundazwe
bezigqila
bezihlukaniswe
bezikole
bezilimi
bezilokhu
bezilwane
bezimoto
bezincwadi
bezindaba
bezindawo
bezindiza
bezingane
bezingoma
bezinhlamvu
bezinhlanga
bezinhlanzi
bezinhlobo
bezinkamp
bezinkanyezi
bezinkomo
bezinqubomgomo
bezinsimbi
bezinsiza
bezinsizakalo
bezinsuku
bezinto
bezinye
beziphinde
bezisebenza
bezitabane
bezitho
bezithombe
bezizukulwane
bezobuchwepheshe
bezobuciko
bezocansi
bezohwebo
bezokuphepha
bezokwelapha
bezolimo
bezomthetho
bezothando
bezoziphatha
bezwa
bezwakalisa
bezwe
bha
bhala
bhande
bhani
bhar
bharat
bheka
bhekafuthi
bheki
bhekokuhle
bhekumuzi
bhekuzulu
bhengu
bhikkunis
bhikkus
bhiliyoni
bhishobhi
bhizinisi
bhonsle
bhubhane
bhuku
bhukwana
bhurundi
bi
bibcode
bibi
bible
biblical
bibliotheken
bicarbonate
bichet
bicknell
bid
biden
bie
bieber
biel
bielefeld
biennale
biennial
big
bigamy
biggest
bigne
bijapur
bika
bikho
biko
bila
bilbilo
bilingual
bill
billboard
billion
billions
billy
bilo
biltong
bin
bing
bingen
bio
biodiversity
biographical
biography
bioko
biological
biology
biomed
biomedical
biometric
biopsy
bioreactor
biosand
biotechnology
biotoxin
bir
bira
bird
birds
birkenhead
birmingham
birolli
birth
birthday
bis
biscuit
bisexual
bishop
bishops
biskra
bismuth
bit
bitcoin
biti
bitini
bits
biwott
bizerte
bizo
bizwa
bl
bla
blaauwberg
black
blackout
blackwell
blair
blakely
blanc
blando
blatter
bleeker
bleu
blf
blica
blida
bling
bliss
bloc
block
blockbuster
blockchain
bloemfontein
blog
blogger
blogspot
blood
bloom
bloomberg
bloomington
blowjob
blue
blues
bluetooth
blum
bmj
bmw
bo
board
boarding
boats
bob
bobabili
bobathathu
bobby
bobubi
bobudoda
bobugebengu
bobukhulu
bobulili
bobungqingili
bobuzwe
bode
bodies
bodwa
body
boeing
boeny
boer
boerewors
bogota
bohlakahlisombulu
bohlelo
bohlobo
boit
boji
bokhokho
bokholo
boko
boksburg
bokubhala
bokubi
bokudala
bokuhlasela
bokulwa
bokuphila
bokuqala
bokuqeqeshwa
bokuqondisa
bokuqukethwe
bokusebenza
bokuthi
bokuthola
bokuxhumana
bokuzala
bokuziphatha
bokuzitika
bokwaziswa
bold
bolimi
bollywood
boloso
bolton
bombe
bombuso
bomculo
bomdabu
bomdlalo
bomet
bomhlaba
bomis
bomkhankaso
bomlando
bomlilo
bomlingani
bomlomo
bomndeni
bomngako
bomnotho
bomphakathi
bomshado
bomthondo
bomuntu
bomyeni
bomzimba
bona
bond
bondle
bonds
bones
bonginkosi
bongo
bongolava
bonke
bonkoungou
bonnie
bonobos
bonsack
bonus
bonyaka
book
bookcraft
booklet
books
booksellers
boom
boot
booty
borabu
border
bordj
borena
borg
boring
boris
borma
born
borno
borosilicate
boru
bosa
bose
boshi
bosiu
bosna
bosnia
boss
boston
bosuku
bot
botanical
botany
both
botha
botma
botor
bots
botswana
bottle
bottom
botulism
bou
bouaghi
boubekeur
boucif
boucomont
boudouaou
bouenguidi
bouenza
bougara
boughrara
bouhadjar
bouhouche
boui
bouihi
boukhari
boulevard
boume
boumerde
bounce
boundaries
bouni
bourguiba
bourne
boussaid
boussidi
bouzelfa
bouziane
bouzid
bovidae
bowers
bowl
bowling
box
boy
boyle
boys
boyz
bp
br
bra
braai
bradley
brady
brahim
brak
bran
brance
branch
brand
brandes
brandhoek
brandon
brands
brash
brasil
braun
braunschweiger
brazil
brazzaville
bread
breadstuffs
break
breaking
breast
brebner
breed
breede
breedekloof
brenda
brendan
breve
breviceps
brew
brian
bricktop
brics
bridge
bridgit
brief
briefing
briefly
brigade
brigades
brigham
brighton
brikolo
bring
brink
brit
britain
britannica
british
britney
brive
broad
broadband
broadcast
broadcasting
broadway
broccoli
brock
brockett
brodie
broederstroom
broken
brook
brooke
brooklyn
brooks
brother
brothers
browde
brown
brubeck
bruce
bruderhof
brunei
bruneian
bruno
brunswick
brussels
brutality
bryan
bryce
bt
bu
buari
bubanza
bubble
bube
bubekwa
bubhekisela
bucace
bucatshangwe
bucayi
buch
buchazwa
budaka
budala
budapest
buddha
buddhism
buddhist
bude
budedengu
budget
budlelwano
buds
buduq
buenos
bufakazi
bufana
bufanele
buffalo
bufushane
bugcinelwe
buggery
bugiri
buhlale
buhlanganisa
buhlukaniswe
buhlungu
buikwe
building
buildings
bujumbura
buka
bukajesu
bukamandela
bukamormon
bukanandi
bukankulunkulu
bukanomkhubulwane
bukedea
bukhoma
bukhona
bukoba
bukomansimbi
bula
bulawayo
bulb
bulbourethral
bulee
bulgaria
bulgarian
buliisa
bull
bulldogs
bulletin
bullies
bullough
bulls
bully
bullying
buluq
bundesliga
bundibugyo
bundl
bundle
bungaba
bungahluka
bungamakhilomitha
bungei
bungoma
bunny
buno
buonarroti
buphakamisa
buqamama
burbot
bure
bureau
bureaucracy
burg
burger
burgess
burgh
buri
burji
burke
burkina
burlingame
burn
burnett
burns
burritos
bursa
burton
burundi
bururi
bury
bus
busekela
busetshenziswa
busetshenziswe
bush
bushelelezi
bushenyi
bushman
busho
busi
busia
busiholela
business
businesses
businesslive
busisiwe
busiswa
buso
buss
busta
busuka
but
butaleja
butcher
buthaka
buthakathaka
buthe
buthelezi
buthi
butho
buthuntu
butler
butnan
butswana
butt
butterfield
butterfly
buur
buvame
buwa
buye
buyende
buyindlela
buyisela
buyocansi
bxo
by
bya
bypass
byu
byzantine
bɛ
c
ca
caano
cabanga
cabinda
cabinet
cable
cabo
cacosternum
cactus
cadet
cafe
caffeine
caiphus
cairo
cakebaker
cala
calcaneus
calculus
cale
calendar
cali
california
caliphate
call
called
calligraphy
calling
calories
cals
calvin
camaldine
cambridge
cameron
cameroon
camp
campaign
campbell
camping
campo
campus
can
canada
canadian
canal
cancer
candabija
candida
candidates
canis
cankuzo
cannabidiol
cannabis
cannes
cannibals
cannon
cannot
canon
cantillation
canvas
cap
cape
capensis
capi
capital
capitalism
capreolinae
capreolus
capuchino
car
carbineers
carbohydrate
carbon
carbonate
carbonbrief
carbonic
carcharias
carcinoma
carcinomas
card
cardinal
care
career
carens
cargo
caribbean
carl
carlos
carnivora
carol
carolina
caroline
carota
carotene
carotenes
carpark
carpenter
carpenters
carroll
carrot
carruthersi
carrying
cartafina
carthage
cartilage
cartoon
casa
case
cases
cash
casing
casings
castle
castles
castro
cat
catch
catechism
categoria
category
catfish
cathay
cathedral
catherine
catholic
cato
cats
cattle
catus
caucus
caudal
caulk
causa
causes
cavaliers
cavernosa
cavernosum
cavernous
cayenne
cb
cbd
cbs
cc
ccc
ccs
cct
cd
cda
cdc
cdf
cdot
ce
cecil
cel
cele
celebration
celebrity
celestial
cell
cellar
cello
cellophane
cellulose
celsius
celtic
celulari
cemetery
cena
censorship
census
cent
centennial
center
centers
central
centre
centres
centro
centurion
century
ceo
cepa
ceramic
cerebral
ceremonial
cervidae
cesaro
cessna
cet
cetera
cetshwayo
cev
ceviche
cf
cfd
cfm
cgi
cgp
ch
cha
chaabane
chabad
chabane
chache
chain
chair
chairperson
chake
chaker
challenge
chama
chamber
chamekh
champion
champions
championship
championships
chan
chance
chancellor
chandra
chang
change
changed
changes
chanka
channel
channels
chant
chapel
chapter
char
character
characteristics
charge
charged
charges
charity
charles
charli
charlotte
charouine
chart
charter
charts
chase
chasez
chassis
chastity
chatara
chauke
chavchavadze
che
cheaters
chechnya
cheddar
cheese
chefe
cheikh
chekorsa
chelagat
chele
chellala
chem
chemabwai
chemical
chemistry
chennai
cheong
chepkosgei
cheri
cheria
cherono
chess
chewa
chhang
chhatrapati
chi
chiang
chicago
chicken
chief
chiefs
child
childhood
children
chile
chili
chilli
chillies
chimamanda
chimurenga
china
chinese
ching
chioukh
chip
chips
chir
chiro
chiromantis
chlamydia
chlef
chloride
chlorine
cho
chobe
chochenyo
chocolate
chofoza
choice
choices
choir
choirs
choke
chokorsa
cholera
choma
chomen
chomsky
chong
chordata
chordee
chorizo
chorizos
chorus
chott
chouhada
chouneche
chow
chowdhury
chows
chris
christ
christen
christiaan
christian
christianity
christians
christina
christine
christkind
christmas
christoph
christopher
chrome
chromosome
chromosomes
chronicle
chueu
chung
chungechunge
church
churches
ci
cia
cibitoke
cicatrix
cid
cigar
cigarette
ciguatoxine
cinci
cinema
cinematography
circa
circle
circumcision
cisamus
cishe
cissie
cit
citation
cited
citeseerx
cities
citizen
city
citypopulation
citytv
ciudad
civet
civic
civil
civilization
civilizations
cj
ck
ckd
cl
claim
clams
clan
clark
clash
class
classic
classical
classics
classification
classless
claus
clay
clean
clegg
clement
click
climate
climbing
clin
clinical
clinics
clinton
clio
clippers
clitoral
clitoris
clitoromegaly
cloaca
close
clostridium
cloud
club
clubs
cluster
clyde
cm
cmos
cms
cnbc
cnn
co
coach
coagula
coalition
coast
coastal
cobar
coca
cocaine
coco
cod
code
codes
codesa
codex
coe
coelestia
coetzee
coffee
cohen
coitus
cojutepeque
cola
cold
cole
colin
colitis
collaboration
collaborations
collagen
collection
collections
college
collins
colloquially
colocasia
cologne
colon
colonel
colony
color
colors
colour
coloured
columbia
columbian
columbus
column
columns
com
comair
combat
combination
combs
come
comedies
comedy
comfort
comic
coming
command
commanding
commando
commence
commentary
commerce
commercial
commission
commitment
committe
committee
commodities
common
commonly
commons
commonwealth
commun
communalism
communication
communications
communism
communist
community
como
compact
companies
companion
company
comparative
compare
comparison
competition
complete
complex
composer
compounds
compton
compulsory
computer
computing
comscore
con
concepcio
concept
concepts
concerned
concert
conclusions
concupiscence
condemns
condition
condon
conducted
conference
confidence
confirmation
conflict
confluent
congenital
congo
congress
conjugal
connect
connecticut
connection
connector
connery
connie
connor
conoco
conquest
consciousness
consequences
conservative
considered
consistory
consolidate
consortium
constabulary
constantine
constantinople
constituencies
constituency
constitution
constitutional
constraints
construct
construction
consultants
consulting
consumer
contact
containing
contemporary
content
contested
context
continent
continental
continue
contra
control
convention
convergence
coogan
coogler
cook
cool
cooper
cop
cope
copenhagen
copernicus
copiapo
copied
coppa
copperbelt
copyright
corac
coral
corbin
cordovero
core
coriander
corisco
corke
cornell
corner
corona
coronal
coronavirus
coroner
corpora
corporate
corporation
corps
corpus
corpuscle
correctional
corruption
cortex
cosafa
cosag
cosatu
cosmetics
cosmology
cosmos
costa
costanzo
cotton
could
council
countdown
counter
counties
counting
countries
country
countryballs
county
coupage
coupe
courage
courier
course
court
couscous
cov
coven
covenant
covenants
coventry
cover
coverage
covid
cow
cowdery
coyote
cps
cpsa
cpu
cr
craig
cranach
crane
crash
craz
crazy
creates
creative
creator
credit
creek
creighton
creme
crest
crew
cricinfo
cricket
crime
crimson
crisis
crisp
crispy
critical
crkva
croco
cropped
crosby
cross
crossed
crossing
crossover
crossroads
crowley
crown
cruise
cruiserweight
crus
crusaders
cruz
cry
crypto
cryptoapi
cryptocurrency
cryptographic
cryptography
cs
csa
csg
csp
css
ct
ctor
ctv
cu
cuaj
cuando
cuanza
cuba
cuban
cubango
cuboid
cudi
cuisine
culinary
culo
cult
cultivars
cultural
culture
cultures
cum
cumberland
cunene
cunnilingus
cunningham
cup
cups
curiae
curitiba
currency
current
currie
curry
curvature
curved
cusano
custody
cut
cutecircuit
cuthbert
cuvette
cv
cwaningo
cybatar
cyber
cyclic
cyprian
cyril
cyrillic
cytoplasm
cytoskeleton
cytosol
cz
czech
d
da
daba
dabaa
dabi
dabula
dacha
dadhi
dadoo
dagga
dahar
daichi
daily
dailymaverick
dailysun
daimyo
dairy
daisy
dakahlia
dale
dali
dalindyebo
dallas
dalsgaard
dam
dama
damanhur
damazin
dame
damietta
damole
damot
damu
dan
dana
dance
dandala
danger
dangerous
daniel
daniels
danish
daniyeli
dannhauser
dano
daourouch
dar
darfur
dark
darkness
dartos
darwaza
darwin
das
dassenhoek
dassie
dastile
data
database
date
dated
datura
daughter
daughters
daura
dauranchi
dauranci
david
davidson
davies
davis
davydov
dawa
dawe
dawn
dawro
dawwar
day
dayak
days
dba
dbe
dc
dde
de
dead
deaf
deafsa
deal
dealing
dean
death
debagh
debate
debian
debora
deborah
debra
debre
debretsehay
debub
debubawi
debut
dec
decathlon
deceased
december
decide
declaration
decoder
dee
deen
deep
deepin
deepingnome
deepinscreenshot
def
defamation
defence
defense
deferens
defiance
deficiency
define
defined
defines
definition
definitions
definitivos
defla
dega
degache
degli
degree
degrees
deheb
dehghani
dehydration
dei
deir
del
deldoul
delengat
delgado
delhi
delicatus
deliriant
delivery
delta
delusion
dem
demand
demba
demi
demirezer
democracy
democratic
democrats
den
denied
denies
denis
denkalya
denmark
dennis
densa
dental
department
depot
dept
deputy
der
derby
dermatitis
derna
dernie
derrick
des
description
deseret
desert
design
designer
desire
desiree
desktop
desmond
desperate
dessie
destiny
detail
details
detective
deuba
deuterocanonical
deutsch
deutsche
deutschen
deutschland
developers
development
devi
device
dey
dhabi
dhagax
dhalaa
dhankayre
dharmic
dhawa
dheere
dhl
dhlomo
dhs
dhu
dhul
dhuuggoo
di
dia
diablo
diagnosis
diagram
dialect
dialogue
diamond
diamonds
diana
diaphragm
diary
dias
diaspora
dicello
dick
dictionary
did
didaye
die
died
diego
dienne
diepkloof
dies
dietrich
different
difficult
dig
diggers
digital
digitizer
dignity
digri
dikhil
dila
dildo
dildos
dillner
dimension
dimtu
din
dingane
diocese
dion
dioxide
dipaleseng
dipendra
diphtheria
diphthongs
diphyllobothrium
diploma
diplomat
dir
dirashe
dirco
dire
direct
directing
direction
director
directory
dirmaji
dirty
dis
disaccharide
disaccharides
disambiguation
disaster
disc
discharge
disciples
disco
discography
discogs
discourses
discovery
discrete
discrimination
discussed
discussion
disease
diseases
disemba
dish
disk
disney
disneyland
disorder
dispatch
display
dissertation
dissident
distal
distance
distribution
district
districts
distruction
ditfurth
divayisi
diversity
divine
diving
divinity
divinorum
divisie
divisio
division
dixerim
dixon
dj
djamaa
djamel
djanet
djasser
djd
dje
djebel
djelfa
djellal
djellil
djem
djemaa
djendel
djerba
djezzar
djibloho
djibouti
djillali
djir
dkt
dl
dladla
dlala
dlame
dlamini
dlomo
dlozi
dm
dmusic
dna
do
doba
dobie
dock
dockers
doctor
doctorate
doctors
doctrine
doctrines
document
documentary
documentation
documents
dodoma
doesn
dog
dogs
doi
dokolo
dola
dollar
dollo
dolobha
dolobhakazi
dolphins
dom
domain
domestic
domingo
dominus
domoic
don
donald
donaldson
donegal
dongoro
donsa
donut
donuts
doo
doors
dora
dore
dorkay
dorning
doro
dorothy
dorsal
dosso
douala
douar
douard
double
douglas
douz
douzaine
down
downarrow
downing
download
dp
dr
draa
draft
dragon
draham
drakenstein
drama
dramatic
dramolett
drawing
drawings
drc
dream
dreamworks
dress
drink
driss
drive
driver
drivers
drm
droe
droge
drone
drop
drug
drum
drupon
dryden
dsc
dsd
dss
dstv
dtt
du
dual
duarte
duas
dubai
dube
dubin
dublin
duct
dudu
duduza
due
duet
dugda
dukam
duke
dulce
dulecha
duma
dumas
dumisa
dumisani
dung
duo
duplex
durban
during
dust
dutch
duteronomi
dutton
dv
dvd
dvi
dwarf
dweba
dydoe
dyer
dynamo
dynamos
dynasty
dysfunction
dysgenic
dysuria
dzeliwe
dzonga
e
ea
eafrica
eafrika
eagle
eagles
eames
eaner
eangola
ear
earlier
earliest
early
earth
easpaig
east
easter
eastern
eastman
easy
eat
eb
eba
ebabazekayo
ebala
ebalelwa
ebaluleke
ebalulekile
ebalwa
ebamba
ebambe
ebambekayo
ebandakanya
ebandakanyeka
ebandla
ebandleni
ebanga
ebangela
ebangelwa
ebangeni
ebanjiswene
ebanjwe
ebantwaneni
ebantwini
ebanzi
ebarangay
ebarberton
ebarraba
ebasiza
ebattalion
ebavaria
ebeaufort
ebeijing
ebeka
ebekelwe
ebekiwe
ebekwa
ebekwe
ebelgium
ebella
ebenat
ebenin
ebenoni
ebergville
eberkeley
eberlin
ebese
ebethal
ebhadla
ebhala
ebhalela
ebhaliwe
ebhalwe
ebhange
ebhapathizwa
ebhayibheli
ebhayibhelini
ebheka
ebhekana
ebheke
ebhekele
ebhekene
ebhekise
ebhekiswe
ebhekwa
ebhema
ebhentshini
ebhenyiwe
ebhenywa
ebhethri
ebhikawozi
ebhilidini
ebhizinisi
ebhizinisini
ebhodi
ebhodini
ebhokisini
ebhola
ebholeni
ebhurundi
ebibanjelwe
ebibizwa
ebika
ebikade
ebirmingham
ebiyelwe
ebiza
ebizana
ebizelwa
ebizwa
ebloemfontein
ebodleian
ebola
ebolekiswe
ebomvu
ebona
ebonakala
ebonakalayo
ebonga
ebonisa
eboniswa
ebonwa
eborneo
eboshelwa
eboshelwe
eboshiwe
eboshwa
eboshwe
eboston
ebotswana
ebrahim
ebramley
ebrazil
ebreedekloof
ebrigham
ebrithani
ebritish
ebrooklyn
ebruma
ebucayi
ebuchosheni
ebuckeye
ebudaleni
ebudapest
ebudlelwaneni
ebudodeni
ebufakazini
ebufazini
ebugqilini
ebuhlotsheni
ebuhlungu
ebuhlungwini
ebujudeni
ebuka
ebukeka
ebukekayo
ebukhali
ebukhoma
ebukhoneni
ebukhosini
ebukristwini
ebulala
ebulawa
ebulgaria
ebulilini
ebumbene
ebumnyameni
ebuncaneni
ebuntwaneni
ebuntwini
eburkina
ebursa
eburundi
ebusayo
ebushelelezi
ebusheni
ebusika
ebusosheni
ebusuku
ebusweni
ebuthweni
ebutswana
ebuya
ebuye
ebuyela
ebuzwa
ec
eca
ecabanga
ecacile
ecairo
ecaleni
ecalifornia
ecameroon
ecanada
ecansini
ecape
ecaphuna
ecapitec
ecarpark
ecashile
ecato
ecaucasus
ecclesiastical
ecebe
ecebile
ecela
eceleni
ecelwa
ecentral
ecevit
echaza
echazwa
echazwe
echibini
echicago
echile
echina
echitha
echoes
echotshoziwe
ecindezela
ecindezelwe
ecishe
eclipse
ecmwf
eco
ecology
ecolorado
ecolumbia
ecommerce
ecomoros
economic
economics
economist
economy
ecopenhagen
ecovid
ecuba
ecula
ecumenical
ecw
ecwaninga
ecyprus
eczacıbas
ed
eda
edala
edallas
edalule
edar
edaveyton
edayiswa
edd
edda
eddie
eddine
ede
ededelwe
edelhi
edema
edemocratic
eden
edendale
edene
edenmark
edequar
edfu
edgar
edge
edidiyelwe
edijithali
edinburgh
edinga
edingeka
edingekayo
edirne
edishini
edison
edit
editha
editing
edition
editions
editor
editorial
editors
edits
edku
edl
edla
edlala
edlalela
edlalwa
edliwa
edliwayo
edlula
edlule
edmunds
edo
edolobha
edolobhaneni
edolobheni
edomi
edonsa
edonswa
edrc
edriefontein
eds
edson
edu
edubai
edublin
educ
education
educational
educum
edume
edumele
edumile
edurban
eduzane
eduze
edwala
edward
edwards
edweba
edwin
ee
eeastern
eenhana
eerste
eextra
efaka
efake
efakiwe
efakwa
efakwe
efana
efanayo
efanele
efanelekile
efasiteleni
efektri
efesu
efeyenoord
eff
effect
effective
effects
efihliwe
efika
efilimini
efinland
efinyelela
efinyelele
efinyelelwe
efisa
eform
efort
efraim
efrance
efratana
efree
efrijini
eft
efulansi
efulethini
efuna
efunda
efundela
efundisa
efushaniswe
egabhoni
egabon
egama
egameni
egatsheni
egaul
egauteng
egayiwe
egazi
egazini
egcina
egcinwe
egcizelela
egculisayo
egcwele
egeneva
egeorgia
egerman
eghana
egibele
egibhithe
egijima
eglucose
ego
egoba
egodini
egoli
egolide
egqamile
egqamisa
egqoka
egqoke
egqokekayo
egqugquzelela
egqumeni
egrahamstown
egreat
egrisi
egu
eguezou
egugulethu
eguinea
egujarat
egula
egumbini
egunyaziwe
eguqa
eguqula
eguquliwe
egwalior
egwinywe
egxeka
egxila
egxile
egypt
egyptian
eh
ehamba
ehambayo
ehambisa
ehambisana
ehamlet
ehammarsdale
eharare
eharbin
eharvard
ehawaii
ehealdtown
eheha
ehembe
ehholo
ehhovisi
ehilela
ehlaba
ehlakaniphile
ehlala
ehlale
ehlane
ehlangabezana
ehlangana
ehlangane
ehlanganisa
ehlanganisiwe
ehlanganiswa
ehlanganiswe
ehlanganyelwe
ehlangene
ehlanzeni
ehlaselayo
ehlaselwa
ehlathini
ehlazisayo
ehlaziya
ehle
ehlekisayo
ehlela
ehlelekile
ehleliwe
ehlelwe
ehlezi
ehlobene
ehlobo
ehlola
ehlongozwayo
ehlonipha
ehlonishwayo
ehlose
ehlosiwe
ehlotshaniswa
ehlukahlukene
ehlukanisa
ehlukanisiwe
ehluke
ehlukene
ehlukile
ehlukumeza
ehluleka
ehluleke
ehlulekile
ehlulwa
ehola
eholela
eholwa
eholy
ehong
ehouston
ehre
ehuis
ehungary
ehwanzi
eichstaedt
eid
eidelman
eideneier
eiffel
ein
eine
eines
einfu
einstein
einwanderer
ej
ejabulela
ejabulisayo
ejaculate
ejaculation
ejaculatory
ejalimane
ejalimani
ejamaica
ejapan
ejapane
ejaphani
ejective
ejectives
ejele
ejensi
ejenti
ejeppe
ejerie
ejersa
ejerusalem
ejerusalema
ejibhuthi
ejoe
ejohannesburg
ejoyina
ejulile
ejwayele
ejwayelekile
ek
eka
ekagiso
ekamelweni
ekamu
ekapa
ekarelia
ekasi
ekatlehong
ekavango
ekd
ekenya
eketuvim
ekhala
ekhaleni
ekhanada
ekhanda
ekhandwe
ekhangayo
ekhankasela
ekhanseliwe
ekhanyayo
ekhanyisa
ekhashelwe
ekhasini
ekhasino
ekhaya
ekhayelitsha
ekhemisi
ekhempasini
ekheniwe
ekhenya
ekhethekile
ekhethiwe
ekhethwe
ekhipha
ekhiphe
ekhiqiza
ekhiqizwa
ekhiqizwe
ekhishini
ekhishwa
ekhishwe
ekhokhelwa
ekhokhelwayo
ekhokhwa
ekholelwa
ekholwa
ekhomas
ekhomba
ekhombisa
ekhombise
ekhompyutha
ekhona
ekhoneni
ekhongo
ekhonjiswe
ekhonjiwe
ekhonjwe
ekhono
ekhonsathini
ekhubazekile
ekhula
ekhulayo
ekhulelwe
ekhuliswe
ekhulu
ekhululekile
ekhuluma
ekhulunyaka
ekhulwini
ekhungathekiswe
ekhuthaza
ekhuthazayo
ekhuthazwa
ekilabhini
ekilasini
ekimberley
eking
ekipsigis
ekipsoboi
ekirtland
eklanyelwe
ekleyimiwa
ekolishi
ekomidini
ekomkhulu
ekondleni
ekosovo
ekrethe
ekreuzberg
eksisi
eksodusi
eku
ekubalulekeni
ekubambezeleni
ekubeni
ekubhaceni
ekubhakeni
ekubhaleni
ekubhalweni
ekubhekaneni
ekubhobozeni
ekubiliseni
ekubonakaleni
ekubonisweni
ekuboshweni
ekubukekeni
ekubukeni
ekubukweni
ekubulaweni
ekubunjweni
ekubuseni
ekubuyiselweni
ekucabangeni
ekuchazeni
ekuchumeni
ekucindezelweni
ekudakweni
ekudalweni
ekudayiseni
ekude
ekudingisweni
ekudlaleni
ekudleni
ekufakweni
ekufeni
ekufinyeleleni
ekufundeni
ekufuneni
ekugcineni
ekuguqukeni
ekuguquleni
ekuguqulweni
ekugxileni
ekuhambeni
ekuhlanganiseni
ekuhlanganisweni
ekuhlaseleni
ekuhlaselweni
ekuhleleni
ekuhlolweni
ekuhlonipheni
ekuhlukaneni
ekuhlukanisweni
ekuhlukunyezweni
ekuhlulekeni
ekuhlulweni
ekuholeni
ekuhumusheni
ekuhwebelaneni
ekuhwebeni
ekujuleni
ekukhanyeni
ekukhetheni
ekukhiqizeni
ekukhiqizweni
ekukhishweni
ekukhohlisweni
ekukhulelweni
ekukhuleni
ekukhuliseni
ekuklameni
ekulahlekelweni
ekulandiseni
ekulawuleni
ekulesi
ekuletheni
ekulethweni
ekulimaleni
ekulindeni
ekulingiseni
ekulungiseleleni
ekulungiseni
ekulweleni
ekulweni
ekulwiseni
ekumangalelweni
ekumeni
ekunakekelweni
ekunciphiseni
ekunene
ekungeneni
ekungeniseni
ekungezeni
ekunqobeni
ekunwetshweni
ekunyakazeni
ekuphakameni
ekuphakamiseni
ekuphakanyisweni
ekuphangeni
ekuphatheni
ekuphathweni
ekuphazamisweni
ekuphekeni
ekupheleni
ekuphenduleni
ekuphileni
ekuphingeni
ekuphishekeleni
ekuphumeni
ekuphuzeni
ekuqabuleni
ekuqaleni
ekuqaliseni
ekuqashweni
ekuqedeni
ekuqhubekeni
ekuqhubeni
ekuqinisekiseni
ekuqokweni
ekuqondeni
ekuqothulweni
ekurhuleni
ekusakazeni
ekusakazweni
ekusatshalalisweni
ekusebenzeni
ekusebenziseni
ekusekeleni
ekuseni
ekusetshenzisweni
ekushayeni
ekushintsheni
ekushiseni
ekushoneni
ekushumayeleni
ekusindisweni
ekusizeni
ekusokeni
ekusunguleni
ekusungulweni
ekususweni
ekusweleni
ekuthandweni
ekuthathweni
ekuthelelekeni
ekuthengeni
ekuthengisweni
ekutheni
ekuthini
ekutholeni
ekuthuthukiseni
ekuthuthukisweni
ekuvakasheni
ekuvezeni
ekuvikelekeni
ekuvikeleni
ekuvimbeleni
ekuvinjelweni
ekuvinjweni
ekuvulekeni
ekuvulweni
ekuvuseleleni
ekuvusweni
ekuweni
ekuwineni
ekuxazululeni
ekuxhakaxholo
ekuxhaseni
ekuxhumaneni
ekuzalweni
ekuzameni
ekuzibandakanyeni
ekuzingeleni
ekuziphatheni
ekuziphindiseleni
ekuzivocavoca
ekuzuzeni
ekuzweleni
ekwakhekeni
ekwakheni
ekwakhiweni
ekwamukelweni
ekwandeni
ekwandiseni
ekwandisweni
ekwazi
ekwazini
ekwazisweni
ekwazulu
ekwehliseni
ekwekwe
ekwelapheni
ekwelashweni
ekwenqabeni
ekwenzela
ekwenzeni
ekwenziweni
ekwi
ekwindla
ekwisifundazwe
ekyiv
ekzn
el
ela
elaba
elabe
elabekwa
elabhalwa
elabizwa
elabulala
eladakh
elagos
elahlekile
elahlwa
elahore
elaine
elakhiwa
elakhiwe
elala
elalaziwa
elale
elalela
elalibizwa
elaliholwa
elalikhona
elalikwisifundazwe
elalisanda
elalisetshenziswa
elalitholakala
elalivela
elaliyi
elaliyiyugoslavia
elalizoqhudelana
elandani
elandayo
elandela
elandelanayo
elandelayo
elandelwa
elangeni
elapho
elaqala
elaqedwa
elas
elase
elasendiya
elaseningizimu
elashicilelwa
elasungula
elasungulwa
elathola
elatin
elawula
elawulwayo
elayne
elaziwa
elaziwayo
eldalo
eldama
elder
elders
eldon
ele
eleanor
elected
election
elections
electoral
electric
electrical
electrochemical
electromagnetic
electron
electronegativity
electronic
electronics
electrostimulation
elekthronikhi
elektroni
elektroniki
elele
element
elemental
elementary
elements
elenza
elenziwa
elenziwe
elephant
elesotho
elethwa
elethwe
elevation
elfata
elgeyo
elgon
eli
elias
elibabayo
elibalulekile
elibambile
elibandakanya
elibangise
elibanjwe
elibanzi
elibekwe
eliberia
elibhalisiwe
elibhalwe
elibheke
elibhekele
elibhekisa
elibhekisela
elibhiya
elibi
elibilile
elibiza
elibizayo
elibizwa
elibomvana
elibomvu
elibonakalayo
elibuhlungu
elibukhali
elibusayo
elibuyiselwe
elibuyisiwe
elibuyiswe
elibya
elichaza
elichazayo
elichazisa
elichazwe
elicura
elidala
elidar
elidayiwe
elide
elidinga
elidingekayo
elidlala
elidle
elidume
elidumile
elif
elifakwa
elifana
elifanayo
elifanele
elifishane
elifushane
eligcwele
eligobile
eligujwa
elihamba
elihambisana
elihlanganisa
elihlanganisiwe
elihlangene
elihlanzekile
elihle
elihleliwe
elihlobene
elihlomile
elihlose
elihlukahlukene
elihlukile
eliholwa
elihunyushwe
elijutshiwe
elijwayelekile
elijwayelekilea
elikhanyayo
elikhethekile
elikhethiwe
elikhiqizwe
elikhona
elikhulu
elikhulukazi
elikhulukhulu
elikhululekile
elikhuluma
elikhuthaza
elikhuthele
eliki
eliku
elikwazulu
elikwisifunda
elikwisifundazwe
elilahlwayo
elilandelayo
elilawula
elilingana
elilinganayo
elilinganiselwa
elilinganiselwe
elilodwa
eliluhlaza
elim
elimanzi
elimaphakathi
elimele
elimhlophe
elimise
elimnandi
elimnyama
elimpopo
elinabantu
elinamabala
elinamandla
elinamathelayo
elincane
elindelwe
eline
elinemibala
elinemigqa
elinezindaba
elingaba
elingadliwayo
elingakanani
elingama
elingamakhilomitha
elingana
elinganiselayo
elinganiselwa
elinganiselwe
elinganisene
elingaphakathi
elingaphandle
elingaphansi
elingaphekiwe
elingaphezu
elingasetshenziswa
elingasetshenziswanga
elingasho
elingaziwa
elingcono
elingcwatshiwe
elingcwatshwe
elingcwele
elingeyona
elingezansi
elingisa
elingu
elingukhiye
elinikeziwe
elinikezwa
elinikezwe
eliningi
elinjalo
elinocezu
elinokunambitheka
elinomoya
elinomsokama
elinongwe
elinsundu
elinye
elinyeni
elinzima
eliot
eliphakathi
eliphakeme
eliphakwa
eliphambili
eliphansi
eliphas
eliphelele
eliphethe
eliphethwe
eliphezulu
eliphikisana
eliphikisayo
eliphindwe
eliphuma
eliphumayo
eliphuzi
eliqanjiwe
eliqanjwe
eliqinile
eliqonde
eliqondile
eliqoshiwe
eliqotshiwe
eliqukethe
elisabambele
elisanda
elise
elisebenza
elisebenzayo
elisebunyeni
eliseduzane
eliseduze
elisefuleyisitata
elisekelayo
elisele
eliselimpopo
elisempumalanga
elisemthethweni
eliseningizimu
elisentshonalanga
elisenyakatho
elisesifundazweni
elisesifundeni
elisetshenziselwa
elisetshenziswa
elisetshenziswe
elisezansi
elisezingeni
elisezweni
elisha
elishaya
elisheshayo
elisho
elishumi
elisikiwe
elisobala
elisokiwe
elisondelene
elisuka
elisuselwa
elite
elithambile
elithandwa
elithengiswa
elithi
elithile
elithize
elitholakala
elithuania
eliud
elivaliwe
elivame
elivamile
elivela
elivele
elivelele
eliverpool
elivikelayo
elivulekile
elivundlile
elivuthiwe
elixhumanisa
elixhumene
eliya
eliye
eliyezeri
eliyi
eliyingqophamlando
eliyingxenye
eliyinhloko
eliyisifunda
eliyisiqalo
eliyisiqongo
eliyisisekelo
eliza
elizabeth
elizimele
elizinze
elizodlala
elizodlalela
elizophinde
elizungeze
elizwekazi
ella
ellil
elliot
elliott
elliptical
ellis
elmas
elokhu
elokishini
elokuqala
elomile
elon
elonakele
elondon
elos
elosiwe
elouisiana
elowaye
elsie
elton
eluanda
eluhlaza
elukhuni
elula
elulekayo
elungile
elungu
elupane
elusaka
eluthuli
elvira
elvis
elwa
elwandle
elwela
elyon
elysistrata
em
ema
emaasai
emabandleni
emabangeni
emabhange
emabhayisikobho
emabhodini
emabhokisini
emabuthweni
emacaleni
emachibini
emachopheni
emaculweni
emadagasika
emadlelweni
emadodeni
emadolobheni
emadolweni
emadrid
emafikeng
emafilimini
emafutheni
emagama
emagameni
emagatsheni
emagcekeni
emagumbini
emaharashtra
emahayana
emahhadlaweni
emahhotela
emahhovisi
emahlathini
emahlombe
emahoreni
emahostela
emakethe
emakhaleni
emakhanda
emakhasini
emakhasino
emakhaya
emakhazeni
emakhishini
emakhoneni
emakhulwini
emakilabhini
emakimono
emakliniki
emalahleni
emalawi
emalaysia
emali
emalini
emalokishini
emalungwini
emamelodi
emampondweni
emanchester
emandaba
emandleni
emandulo
emankayane
emanuel
emanxiweni
emanyuvesi
emanzini
emapaki
emaphakathi
emaphaketheni
emaphandleni
emaphashini
emapheleni
emaphephandabeni
emaphesentini
emaphethelweni
emaphethini
emaphoyiseni
emapulazini
emapuletini
emaputo
emaqenjini
emarket
emarseilles
emasendeni
emashadini
emashumini
emasikweni
emasimini
emasisweni
emasondweni
emasontweni
emassachusetts
ematasa
ematebeleland
emathafeni
emathanjeni
emathempelini
emathuneni
emathunjini
ematsheni
emauretania
emavesini
emavikini
emayelana
emayini
emayunivesithi
emazingeni
emazisa
emazulwini
emazweni
emazwini
embakasi
embalwa
embewini
embhalweni
embhedeni
embi
embikweni
embonini
embonweni
emboze
embozwe
embu
embukisweni
embusweni
embuthweni
emc
emcabangweni
emcimbini
emculweni
emdansweni
emdlalweni
emeadowlands
emedia
emehlweni
emele
emelela
emelelwa
emelelwe
emelene
emelika
emelrose
emelwe
ememezela
emergencies
emergency
emerging
emeritus
emerson
emerton
emesopotamiya
emesopothamiya
emet
emetropolitan
emexico
emfanekisweni
emfuleni
emfundiso
emfundisweni
emfundo
emfundweni
emfushane
emgodini
emgqeni
emgudwini
emgungundlovu
emgwaqeni
emgwaqweni
emgwen
emhlabathini
emhlabeni
emhlane
emhlanganweni
emhlophe
emhumeni
emi
emibhalweni
emibi
emibili
emibonweni
emibusweni
emibuthanweni
emibuzweni
emicabangweni
emicimbini
emidala
emiddle
emide
emidlalweni
emifino
emifushane
emigodini
emigoqweni
emigqeni
emigqonyeni
emigwaqo
emigwaqweni
emihlanganweni
emihlanu
emihle
emijahweni
emijondolo
emikhakheni
emikhiqizo
emikhiqizweni
emikhosini
emikhubeni
emikhulu
emikhunjini
emiklomelweni
emilan
emile
emily
emincane
emincintiswaneni
emindeni
emindenini
emine
emingceleni
emini
eminingana
eminingi
emininingwaneni
eminyaka
eminyakeni
eminye
emiphakathi
emiphakathini
emiphumeleni
emiqhudelwaneni
emiqondweni
emir
emirates
emirog
emisa
emisakazweni
emise
emisebenzi
emisebenzini
emisha
emishado
emishadweni
emishini
emisipheni
emission
emissions
emissouri
emithandazweni
emithanjeni
emithathu
emithetho
emithethweni
emithi
emithini
emitholampilo
emithonjeni
emithwalweni
emizameni
emizamweni
emizweni
emjahweni
emjondolo
emkhakheni
emkhandlwini
emkhankasweni
emkhathini
emkhosini
emlandweni
emlazi
emlenzeni
emlinganisweni
emlonyeni
emma
emmanuel
emmerson
emmy
emnambithi
emnandi
emncintiswaneni
emndenini
emnene
emngceleni
emngcwabeni
emnikeza
emnothweni
emnyama
emnyango
emnyangweni
emnyuziyamu
emontreal
emontreux
emoordale
emorocco
emoscow
emotinua
emotinwek
emotion
emotions
emotweni
emount
emovies
emoyeni
emozambiki
emozambique
empahla
empahleni
empandeni
empangeni
empeleni
emperor
emphakathini
empi
empilo
empilweni
empini
empire
employment
empofu
empowerment
empress
empucukweni
empuma
empumalanga
empumelelweni
empunga
emqhekezweni
emqhudelwaneni
emqoka
emrys
emsakazweni
emsamo
emsebenzini
emshadweni
emshinini
emsulwa
emtatsheni
emthanjeni
emthata
emthatha
emthethwandaba
emthethweni
emtholampilo
emthondweni
emthonjeni
emtshela
emu
emukelwa
emumbai
emunich
emuva
emva
emvelo
emvelweni
emvezo
emzabalazweni
emzameni
emzamweni
emzansi
emzantsi
emzilikazi
emzimbeni
emzini
emzuliswaneni
en
enabafazi
enabantu
enairobi
enakekelwa
enaledi
enalo
enamadoda
enamagama
enamakhanda
enamakhasi
enamakholomu
enamalayisense
enamandla
enamathiselwe
enambitheka
enamibhiya
enamibia
enanda
enandi
enanini
enarj
enatal
enatali
enational
enawga
enbise
enca
encane
encazelweni
encenga
enchi
enchini
encike
enciklopedik
encwadi
encwadini
encyclopaedia
encyclopedia
encyclopedic
encyclopædia
end
endabeni
endabuko
endala
endalweni
endaweni
endawo
ende
endegagn
endenini
enderta
endimeni
endiya
endizeni
endja
endle
endlebeni
endleleni
endlini
endocrine
endodeni
endogenous
endometriosis
endondeni
endoskeleton
ends
endulo
endunu
endweni
ene
enebraska
enecala
enedumela
enegama
enegazi
eneji
enelson
enelspruit
enemali
enemay
enemibala
enemies
enemininingwane
eneminyaka
enemorina
enempilo
enenani
enengxoxo
enenkani
enenkinga
enenzuzo
enepal
energy
enese
enesibopho
enesihloko
enetherlands
enethonya
enew
enewport
enews
enezimpawu
enezingane
enezingoma
enezinhlelo
enezinto
enezinwele
enezinyanga
enfidha
eng
engaba
engabandakanyi
engabonakali
engadalulwanga
engadini
engafakwa
engafakwanga
engafanele
engafani
engafezi
engafuni
engaged
engahambelani
engahambisani
engahle
engahlobene
engajwayelekile
engakashadi
engakaze
engakhokheli
engakwazanga
engakwazi
engalingani
engalungile
engama
engamakhilomitha
engamakhulu
engamashumi
enganele
enganeni
engaphakathi
engaphambili
engaphandle
engaphansi
engapheli
engaphezu
engaphezulu
engaqinisekisiwe
engaqondakali
engaqondile
engase
engasetshenziswa
engashadile
engasolwandle
engathandeki
engathandi
engathatha
engavamile
engavumelekile
engavunyelwe
engazange
engazi
engazinaki
engaziwa
engcobo
engcolile
engcono
engcupheni
engcwele
engeke
engekho
engela
engelhardt
engemihle
engemuva
engena
engenacala
engenakuphazamisa
engenakuqhathaniswa
engenalo
engenawo
engenayo
engenhla
engenwa
engenzeka
engenzi
engesona
engewona
engeyona
engeza
engezansi
engeziwe
engikuyona
engilandi
engilazi
engine
engineer
engineering
engineers
england
english
engodadewabo
engokomfanekiso
engokomzwelo
engokoqobo
engokwemvelo
engokwenhlangano
engokwenkolo
engomeni
engomunye
engonyameni
engozini
engqalabeni
engqondweni
engqungqutheleni
engu
engukaputeni
engukhokho
engulube
engumakhelwane
engumashiqela
engumbhali
engumdlali
engumfelokazi
engumfundisi
engumhleli
engumholi
engumlobi
engumongameli
engumphathi
engumuntu
engumuzi
engungqongqoshe
engunobhala
enguqulweni
engusihlalo
enguthisha
engxabanweni
engxenyeni
engxoxweni
enhlamvu
enhlanganisweni
enhlangano
enhlanganweni
enhlanzini
enhle
enhliziyweni
enhlokodolobha
enhlonhlweni
enhlwa
eniger
enigeria
enika
enikela
enikeza
enikeze
enikezela
enikezwa
enikezwe
enikwa
enineve
eningi
eningini
eningizimu
enjalo
enjenge
enjoloba
enkabazwe
enkabeni
enkambisweni
enkampanini
enkandla
enkantolo
enkathini
enkazimulo
enkingeni
enkolelweni
enkolo
enkolweni
enkomo
enkondlweni
enkonzweni
enkosi
enkosini
enkulisa
enkulu
enkulukazi
enkululekweni
enkulumweni
enkumbulweni
enkundleni
enlightenment
eno
enobuchwepheshe
enobudlova
enobungozi
enobuthi
enoch
enoke
enokuthula
enokwethenjelwa
enombolweni
enomfazi
enomlando
enomlelesa
enomswakama
enophawu
enophephela
enopopayi
enorth
enorway
enos
enosawoti
enough
enqaba
enqabelo
enqabeni
enqabile
enqatshelwe
enqoleni
enqubweni
enquma
enqunu
enqunywe
enquthu
ensaro
ensemble
ensimbi
ensimini
ensizeni
ensizweni
ensomi
ensure
entaba
entabeni
entanyeni
entengo
enterprise
entertainment
entheogens
enticho
entry
entsha
entsheni
entshona
entshonalanga
entuthuko
entwasahlobo
entweni
enugu
enuresis
environment
environmental
enwebeka
enwetshiwe
enyakatho
enyakeni
enyama
enyameni
enyanga
enyangeni
enye
enyelle
enyuvesi
enza
enzalweni
enze
enzeka
enzelwe
enzeni
enzima
enziwa
enziwe
enzo
enzyme
eorlando
ep
epaki
epakistan
epanama
epanini
eparis
eparken
eparkettes
epcp
epeni
epenis
epersia
eperth
eperu
ephakanyiswe
ephakathi
ephakeme
ephalamende
ephambili
ephansi
epharadesi
ephathekayo
ephathelene
ephawula
ephawuleka
ephawulekayo
ephawulwe
ephefumulelwe
ephekiwe
ephele
ephelele
ephelezelwa
ephendula
ephenya
ephenywa
ephephabhukwini
ephephandabeni
ephepheni
ephephile
ephetha
ephethe
ephethwe
ephezulu
ephikelelayo
ephikisana
ephila
ephilayo
ephilippines
ephindaphindayo
ephindaphindwayo
ephindelela
ephindwe
ephoenix
ephoqa
ephoqelelayo
ephoqelelwe
ephraim
ephreli
ephrintiwe
ephukile
ephulwayo
ephuma
ephumelelayo
ephuzi
epic
epidemic
epidemiology
epididymis
epigastric
epilogue
epipi
episcopal
epistemology
epithelial
epithelium
epitoli
epitori
eplumtree
epoland
epolokwane
epopayi
eport
eportugal
eprague
epreli
epretoria
eprussia
epstein
epudf
epukiro
epulasitiki
epulatifomu
epulazini
epuletini
epune
epunjab
epupa
eqa
eqabulayo
eqala
eqale
eqamba
eqandeni
eqanjiwe
eqanjwe
eqapha
eqeda
eqede
eqediwe
eqembu
eqenjini
eqeqeshwa
eqhamuka
eqhathaniswa
eqhuba
eqhubeka
eqhubekayo
eqhubeke
eqhubekela
eqhumayo
eqhutshwa
eqhwa
eqinile
eqinisekisiwe
eqinisekiswe
eqinisweni
eqokelwe
eqokwa
eqokwe
eqonde
eqondene
eqondile
eqondisa
eqondiswa
eqondiswe
eqopha
eqophelweni
eqoqa
eqoqiwe
eqoqweni
eqoshiwe
eqoshwe
equality
equator
equatoria
equatorial
equebec
equeenstown
equiapo
equinox
equity
equkethe
equkethwe
equnu
equran
er
era
erashiya
erasmus
ereality
erebti
erectile
erection
erections
eredivisie
ereiger
erer
erhode
erhodes
eric
erichards
erigavo
erik
erin
eringini
eriphabhulikhi
eriphabliki
eritrea
ermelo
ernest
erobben
erogenous
eroma
eromania
erome
erongo
eroodepoort
erotic
erotica
eroyal
errol
erussia
eruwanda
erythrina
es
esa
esaba
esabe
esadl
esafunda
esagcina
esahlukweni
esaint
esakaza
esakazwa
esake
esakhiwa
esakhiwe
esakhiweni
esakhula
esakhulelwe
esalandela
esalt
esan
esanda
esandisiwe
esandleni
esandton
esanele
esangweni
esanikezwa
esankondlo
esaphila
esarawak
esasaziwa
esasebenza
esasibekezelelwa
esasilwa
esasingenamuntu
esasiphethwe
esasungulwa
esathathwa
esayina
esayine
esayinwe
esaziwa
esaziwayo
eschatology
escotland
ese
eseattle
eseba
esebekwa
esebenza
esebenzayo
esebenze
esebenzela
esebenzisa
esebenzisana
esebenzise
esebokeng
esebuyela
esebuza
eseceleni
esedlala
esedlule
esedlulela
eseduzane
eseduze
esefunda
esejele
esejoyina
esekela
esekelwa
esekelwe
esekhipha
esekhona
esekhule
esekudingisweni
esekwe
eselahlekelwa
eselashiwe
esele
eselibe
eselimpopo
eselokishini
eselula
esemaphethelweni
esemdala
esemncane
esempumalanga
esemqoka
esemthethweni
esemusha
esendaweni
esendleleni
esenele
eseneminyaka
esengeziwe
esengozini
eseningizimu
esenqatshelwe
esentshonalanga
esenyakatho
esenza
esenzeka
esenziwa
esenziwe
esenzweni
eseqedile
eseqhubeka
eseqokelwa
eseqokwa
eseseka
eseshadile
esesibhedlela
esesikhundleni
esesikoleni
esesimweni
esesungula
esethatha
esethathe
esethathwa
esethulwe
esethulweni
esetshenziselwa
esetshenzisiwe
esetshenziswa
esetshenziswayo
esetshenziswe
eseya
eseyi
esezikhulile
esezikhundleni
esezingeni
esezinze
eshada
eshadile
eshadini
esharpeville
esharpville
eshawela
eshaya
eshayela
eshayelwa
eshayina
eshaywa
esheffield
esheshayo
eshibhile
eshicilelwa
eshicilelwe
eshintsha
eshisa
eshiselweni
eshisiwe
eshiwo
eshiya
eshkode
esho
eshona
eshonile
eshowe
eshubile
eshukunyiswa
eshumayela
eshumini
esi
esiba
esibaluleke
esibalulekile
esibandakanya
esibangelwa
esibayeni
esibekiwe
esibelethweni
esibhakabhakeni
esibhaliswe
esibhaliwe
esibhedlela
esibhemayo
esibhibhayo
esibi
esibiza
esibizwa
esibolayo
esibomvu
esibona
esibonakala
esibonakalayo
esibonisa
esibonwa
esibucayi
esibuhlungu
esibulalayo
esibuthakathaka
esicacile
esichazwa
esicijile
esicikizini
esicishe
esicongweni
esicwebile
esidala
esidalwa
esidalwe
eside
esidi
esidimeni
esidinga
esidingekayo
esidla
esidlala
esidlangalaleni
esidliwayo
esidlule
esidonswe
esidume
esidumile
esierra
esifaka
esifakwe
esifana
esifanayo
esifanele
esifinyelelekayo
esifishane
esifubeni
esifunda
esifundazwe
esifundazweni
esifundeni
esifundisweni
esifundweni
esifushane
esigabeni
esigcwele
esigodini
esigodlweni
esigrekini
esigulini
esigungwini
esigxile
esigxishwe
esigxotsheni
esihamba
esihambisana
esihambisanayo
esihlahleni
esihlala
esihlalweni
esihlanganisa
esihlanganyelwe
esihlangene
esihlasela
esihlathini
esihle
esihlinzeka
esihloko
esihlokweni
esihloselwe
esihlukanisayo
esihlukile
esiholela
esijulile
esijwayelekile
esikalini
esikhaleni
esikhalisa
esikhanyayo
esikhathi
esikhathini
esikhethekile
esikhiqizwa
esikhishwe
esikhism
esikhokhelwayo
esikhomba
esikhombisa
esikhona
esikhulayo
esikhulu
esikhulukazi
esikhuluma
esikhulunywa
esikhumba
esikhumbeni
esikhumbuzweni
esikhumulweni
esikhundleni
esikhungweni
esikhunjeni
esikhwameni
esikisela
esikole
esikoleni
esikrinini
esiku
esikunikeza
esikwatini
esikwazi
esikweletu
esikweni
esikwilectures
esikwisifunda
esikwisifundazwe
esilandela
esilandelayo
esilatini
esilawula
esilawulayo
esilawulwa
esiletha
esilingana
esilinganayo
esilinganiselwa
esilinganiselwe
esiliva
esiluketshezi
esilula
esilwa
esilwane
esilwaneni
esimabhadubhadu
esimaphakathi
esimboza
esime
esimele
esimeme
esimeni
esimhlophe
esimila
esiminyene
esimise
esimisweni
esimnyama
esimweni
esinagogeni
esinamandla
esinamanzi
esincane
esincanyana
esincelisayo
esindayo
esine
esineminwe
esinempilo
esinencazelo
esinesiseko
esinesithembiso
esingaba
esingabamba
esingaguquki
esingajulile
esingajwayelekile
esingalapheki
esingama
esingamahora
esingangeni
esingaphambili
esingaphandle
esingaphansi
esingapheli
esingaphezu
esingapore
esingaqondakali
esingatheni
esingavamile
esingavela
esingayiqeda
esingaziwa
esingcwatshiwe
esingekho
esingelona
esingemuva
esingemva
esingena
esingenakuqhamuka
esingeqile
esingezansi
esingihlukanisa
esingisi
esingisini
esingu
esingumjuda
esingumkristu
esinikela
esinikelwe
esinikeza
esinikezwe
esiningana
esiningi
esinjalo
esinkwa
esinokwethenjelwa
esinolaka
esinqeni
esinqobe
esinquma
esinqumile
esinqumweni
esinqunyelwe
esinqunyiwe
esinsundu
esintu
esintwini
esinye
esinzima
esipendiwe
esiphakathi
esiphakeme
esiphambanweni
esiphansi
esiphathelene
esiphathwayo
esiphelele
esiphethe
esiphethwe
esiphezulu
esiphikisana
esiphikisayo
esiphuthumayo
esiphuzi
esiqale
esiqandisini
esiqavile
esiqeshini
esiqhingi
esiqhingini
esiqhubekayo
esiqinile
esiqiwini
esiqondile
esiqongweni
esiqukethe
esisakaza
esisanda
esisayiniwe
esise
esisebenza
esisebenzayo
esisebenzisa
esiseduze
esisekelwe
esisekelweni
esisele
esisempumalanga
esisemthethweni
esisendaweni
esiseningizimu
esisentshonalanga
esisenyakatho
esisetshenziselwa
esisetshenziswa
esisezingeni
esisha
esishayamthetho
esishe
esisheshayo
esishisayo
esisho
esishubile
esishukumisayo
esisikiwe
esisizayo
esisodwa
esisogwini
esisuka
esisulu
esisuselwa
esiswini
esitatimendeni
esiteji
esiteshini
esitezi
esithambile
esithandwa
esithandwayo
esithangamini
esithatha
esithathe
esithathelwana
esithe
esithelelanayo
esithelweni
esithembisa
esithembu
esithendeni
esithi
esithile
esithintwayo
esitholakala
esithombeni
esithwala
esithweni
esithwetshulwe
esitimeleni
esitokisini
esitolo
esitsha
esitshalweni
esitsheni
esitshenziswa
esitumbuka
esivala
esivaliwe
esivame
esivamile
esivela
esivele
esivelele
esivezwa
esivimbela
esivinjelwe
esivivinyweni
esivulekile
esivumela
esivumelekile
esivumelwaneni
esivusa
esiwombeni
esixhosa
esixhunywe
esiya
esiyi
esiyigcagcane
esiyiminyaka
esiyindilinga
esiyingozi
esiyingqayizivele
esiyingxenye
esiyinhloko
esiyisicaba
esiyisisekelo
esiyizinyanga
esiza
esizayo
esizeni
esizimele
esizini
esizinikele
esizinze
esizithandayo
esizukulwaneni
esizulu
esizulwini
esizwakalayo
esizwe
esizweni
eskom
esky
esna
esobho
esoho
esokiwe
esokuqala
esola
esolwa
esomaliland
esomaliya
esomile
esonakalisiwe
esonakele
esondo
esondweni
esongelwa
esonto
esontweni
esophiatown
esoteric
esouth
esouthern
esoweto
espain
espanhol
espeyini
espn
espoo
esprings
esri
essa
essay
essays
essef
essex
esso
essop
est
established
estampa
estanford
estate
estati
este
estellenbosch
ester
esteri
estevenson
esther
estiano
estimates
estonia
estoniya
estrogen
estuaire
estudiyo
esub
esudan
esuka
esuke
esukela
esula
esule
esungula
esunguliwe
esungulwe
esurrey
esuselwa
esuselwe
eswabia
eswatini
eswazini
esweden
eswelumuntu
esweni
eswitzerland
esydney
esyn
et
eta
etabernakele
etafuleni
etaganrog
etahiti
etaiwan
etanakh
etanzania
etayi
etc
etempe
eternal
etestamente
etestamenteni
etexas
eth
ethaba
ethabang
ethabong
ethafeni
ethailand
ethambile
ethanda
ethandana
ethandekayo
ethandwa
ethandwayo
ethangeni
ethanjeni
ethanzaniya
ethatha
ethathe
ethathwa
ethathwe
ethe
ethekwini
ethembuland
ethempelini
ethengisa
ethengiswayo
etheni
ether
ethi
ethics
ethile
ethinta
ethinteka
ethintekayo
ethiopia
ethize
ethnic
ethokoza
ethokozisayo
ethola
etholakala
etholakalayo
etholakele
etholwa
etholwayo
etholwe
ethonya
ethu
ethula
ethule
ethulile
ethulwa
ethuneni
ethuniziya
ethunjiwe
ethunyelwe
ethusa
ethusi
ethuthela
ethuthukisa
ethuthukisiwe
ethwala
ethweni
etienne
etihad
etokyo
eton
etoonz
etoronto
etoumbi
etranskei
etransvaal
etshalwe
etsheni
etshile
etshwane
ettadhamen
etten
etuam
etumbuka
etunisia
etuny
eturkey
etv
etvs
etymological
etymology
eu
euclid
eugene
eukaryotes
eulma
eunice
eunited
euniversity
euphoric
eurasia
eurasian
euro
europa
europe
european
ev
eva
evakashele
evala
evalelwe
evame
evamile
evamise
evangelical
evangelization
evans
eve
evela
evelayo
evelele
evelyn
even
evenice
evening
event
events
ever
everest
every
everyday
everyone
everything
eveza
evezwe
evic
evictoria
evidence
evidiyo
evienna
evietnam
evikela
evikelekile
evimba
evimbela
evinjelwe
eviyetnami
evod
evolution
evryburg
evula
evulekile
evuma
evumayo
evumela
evumelekile
evumile
evundlile
evunguza
evusa
evuselelwe
evuswa
evuswe
evuthayo
evuthiwe
ewa
ewan
ewashington
ewayo
ewela
ewembley
ewentworth
ewest
ewestern
ewilhelmsbad
ewilliams
ewina
ewine
ewinterveld
ewitbank
ewits
ewitwatersrand
ewn
ewo
ewolintshi
ewonderboom
ewoodsreef
eworcester
eworld
ewuchungechunge
ewuhan
ewuketshezi
ewusizo
ex
exakile
exaltation
example
examples
excellence
excelsior
exceptionalism
exchange
exclusive
execution
executive
exhuma
exhumene
exhunywe
exoskeleton
exoxa
experience
experiences
experiential
experiment
explanation
explosives
expo
express
expression
ext
extended
extent
external
extra
extraliga
extreme
exubile
exutshwa
exxon
eya
eyaba
eyabanjelwa
eyabanjwa
eyabazali
eyabe
eyabekwa
eyabhalwa
eyabizwa
eyagcina
eyahlanganisa
eyahlukahlukene
eyahlukene
eyaholela
eyake
eyakha
eyakhe
eyakhelwe
eyakhishwa
eyakhiwa
eyakhiwe
eyala
eyalandela
eyalela
eyamaniswa
eyamukela
eyamukelekayo
eyamukelwa
eyandulela
eyanele
eyanikezwa
eyanqoba
eyanyatheliswa
eyaphinde
eyaqala
eyaqalwa
eyaqanjwa
eyasetshenziswa
eyashicilelwa
eyashisa
eyashona
eyasungula
eyasungulwa
eyathola
eyatholwa
eyathunyelwa
eyawina
eyayaziwa
eyayenziwa
eyayibhalwe
eyayibizwa
eyayibusa
eyayidlala
eyayigxile
eyayihamba
eyayihanjelwe
eyayihlala
eyayihlanganisa
eyayihlelwe
eyayiholwa
eyayikleyima
eyayikuthungatha
eyayilwa
eyayinama
eyayine
eyayingumfazi
eyayiphethe
eyayiphethwe
eyayiphikisana
eyayisebenza
eyayisebenzela
eyayisele
eyayiseningizimu
eyayisesifubeni
eyayisetshenziselwa
eyayisetshenziswa
eyayithi
eyayivame
eyayiyicommonwealth
eyaziwa
eyaziwayo
eye
eyebiwe
eyed
eyedlule
eyedlulele
eyedwa
eyehlukene
eyengane
eyengeziwe
eyenza
eyenzeka
eyenzelwa
eyenzelwe
eyenziwa
eyenziwayo
eyenziwe
eyeqile
eyeqisayo
eyesibili
eyethulwa
eyethulwe
eyeve
eyeziwa
eyi
eyibhalela
eyigugu
eyiheberu
eyikhaya
eyikhomanisi
eyikhulu
eyilungu
eyimeya
eyimfihlo
eyimpumelelo
eyinala
eyindilinga
eyindodana
eyindumezulu
eyingozi
eyingqayizivele
eyingqophamlando
eyingxenye
eyinhloko
eyinkimbinkimbi
eyinkosi
eyinkulungwane
eyiphini
eyiphutha
eyishumi
eyisi
eyisikhombisa
eyisimanga
eyisisekelo
eyisiseko
eyisishagalolunye
eyisishiyagalolunye
eyisishiyagalombili
eyisishoshovu
eyisitabane
eyisithupha
eyiyo
eyizi
eyizibulo
eyizigidi
eyizinkulungwane
eyl
eyla
eyodwa
eyofunda
eyofundela
eyokugcina
eyokuhweba
eyokuqala
eyokwenza
eyomile
eyomisiwe
eyosiwe
eyuganda
eyunivesithi
eyurobhu
eyuropha
eyurophu
eza
ezabe
ezacile
ezafakelwa
ezahlangana
ezahlanganiswa
ezahlukahlukene
ezahlukene
ezahlukile
ezaholela
ezaire
ezake
ezakha
ezakhe
ezakhelwe
ezakhiwa
ezakhiwe
ezakhiweni
ezakhiwo
ezalandela
ezalwa
ezama
ezamabhizinisi
ezambia
ezambiya
ezamukelwa
ezandleni
ezanele
ezangaphandle
ezansi
ezaqala
ezase
ezasentshonalanga
ezasolwandle
ezasungulwa
ezavela
ezayo
ezazenzelwe
ezazidinga
ezazihlala
ezazilwa
ezazinakekelwa
ezazingavunyelwe
ezazisa
ezazithathiwe
ezazithengwe
ezaziwa
ezaziwayo
ezazixoxwa
ezbet
eze
ezebiwe
ezedlule
ezehlukene
ezehlukile
ezejwayelekile
ezekiel
ezelwe
ezemfundo
ezemidlalo
ezempi
ezempilo
ezemvelo
ezengeziwe
ezengezwe
ezengqondo
ezenhlalo
ezenkolo
ezentengiselwano
ezentengiso
ezenza
ezenzakalelayo
ezenzakalweni
ezenze
ezenzeka
ezenzekayo
ezenzelwe
ezenziwa
ezenziwayo
ezenziwe
ezenzo
ezenzweni
ezepolitiki
ezesabekayo
ezethula
ezethulwe
ezezimali
ezha
ezi
eziba
ezibalelwa
ezibaluleke
ezibalulekile
ezibalwe
ezibambekayo
ezibandakanya
ezibandakanyeka
ezibandayo
ezibangela
ezibangelwa
ezibanzi
ezibeka
ezibekiwe
ezibhakiwe
ezibhalela
ezibhaliwe
ezibhalwa
ezibhalwe
ezibhedlela
ezibhedlelal
ezibhekana
ezibheke
ezibhekiswe
ezibhekwa
ezibiza
ezibizayo
ezibizwa
ezibomvu
ezibona
ezibonakala
ezibonakalayo
ezibonisa
ezibonwa
ezibucayi
ezibuhlungu
ezibukhoma
ezibukwa
ezibukwayo
ezibukwe
ezibulalayo
ezibumbene
ezibushelelezi
ezicacile
ezicashile
ezicebe
ezichaza
ezichazwe
ezicini
ezicubu
ezicutshini
ezicwebile
ezicwiyiwe
ezidakayo
ezidaliwe
ezidalwa
ezidayisa
ezidijithali
ezidinga
ezidingekayo
ezidingwa
ezidla
ezidliwayo
ezidlule
ezidumile
ezidwetshwe
ezifaka
ezifakiwe
ezifakwe
ezifana
ezifanayo
ezifanele
ezifihle
ezifihliwe
ezifika
ezifile
ezifinyelela
ezifuna
ezifunda
ezifundazweni
ezifundeni
ezifundisayo
ezifundiswe
ezifundweni
ezifuneka
ezifuywayo
ezigabeni
ezigcinwa
ezigcwele
ezigidini
ezigijima
ezigodini
ezigoqekayo
ezigqame
ezigqileni
ezigula
eziguli
ezigulini
eziguqukayo
eziguqula
eziguquliwe
ezigxile
ezihamba
ezihambahambayo
ezihambelana
ezihambisana
ezihambisanayo
ezihlahleni
ezihlakaniphile
ezihlala
ezihlangane
ezihlanganisa
ezihlanganise
ezihlanganisiwe
ezihlangene
ezihlayiziwe
ezihlekisayo
ezihlelekile
ezihlelelekiwe
ezihleliwe
ezihlobene
ezihlobo
ezihlokweni
ezihlongozwayo
ezihlosiwe
ezihlotshaniswa
ezihlotsheni
ezihlubuki
ezihluka
ezihlukahlukene
ezihlukanisayo
ezihlukanisiwe
ezihlukene
ezihlukile
ezihlukumezayo
ezihlukumezekile
ezijezisweni
ezijulile
ezijwayele
ezijwayelekile
ezikabhoqo
ezikanye
ezikhanga
ezikhathini
ezikhemisi
ezikhethekile
ezikhethiwe
ezikhethwe
ezikhiqiza
ezikhiqizwa
ezikhishwe
ezikhokhelwayo
ezikhona
ezikhonjwe
ezikhothane
ezikhubazeke
ezikhula
ezikhululekile
ezikhuluma
ezikhulunywa
ezikhulunywayo
ezikhuluphele
ezikhundleni
ezikhungweni
eziklanyelwe
ezikole
ezikoleni
eziku
ezikude
ezikulezi
ezikumavesi
ezikwazi
ezilahlekile
ezilandela
ezilandelayo
ezilandelwayo
ezilawulwa
ezilimaza
ezilimi
ezilimini
ezilingana
ezilinganiselwa
ezilinganiselwe
ezilinganisiwe
ezilishumi
ezilondolozayo
eziludingayo
eziluhlaza
ezilula
ezilungile
ezilungiselelwe
eziluntinti
ezilwa
ezilwandle
ezilwaneni
ezilwela
ezimakethe
ezimayini
ezimbabwe
ezimbalini
ezimbalwa
ezimbi
ezimbili
ezimbonini
ezimele
ezimeni
ezimfanelweni
ezimfishane
ezimfundisweni
ezimfushane
ezimhlophe
ezimile
ezimise
ezimisele
ezimisiwe
ezimisweni
ezimnandi
ezimnyama
ezimpandeni
ezimpawu
ezimpilweni
ezimpini
ezimpundu
ezimqoka
ezimvu
ezimweni
ezinabantu
ezinaloluhlobo
ezinama
ezinamafutha
ezinamagama
ezinamandla
ezinamehlo
ezincane
ezincanyana
ezincelisayo
ezincike
ezincikene
ezincintisanayo
ezincomekayo
ezincomeni
ezincomweni
ezincwadi
ezincwadini
ezindabeni
ezindala
ezindaweni
ezindayini
ezinde
ezindebeni
ezindizayo
ezindlebeni
ezindlekweni
ezindleleni
ezindlini
ezindongeni
ezine
ezinekhono
ezinelayisense
ezinemibala
ezinemibono
ezinemininingwane
ezineminyaka
ezinemizwa
ezinempilo
ezinendawo
ezinengqondo
ezinephunga
ezinesifo
ezinesimo
ezinesistimu
ezinesithembu
ezinethuba
ezinezifo
ezinezingxenye
ezinezinjini
ezinezinsuku
ezinezinyanga
ezinga
ezingaba
ezingabantu
ezingabizi
ezingadalwa
ezingafanele
ezingafani
ezingajwayelekile
ezingakhubazeki
ezingalungile
ezingama
ezingamagugu
ezingamahlalakhona
ezingamakrestu
ezingamaluthela
ezingamamormon
ezingamanga
ezingamaprothestani
ezingamashumi
ezingane
ezinganekwaneni
ezinganeni
ezingangeni
ezingaphakathi
ezingaphandle
ezingaphansi
ezingaphazamisa
ezingapheli
ezingaphezu
ezingaphezulu
ezingaphumelelanga
ezingase
ezingasekho
ezingasetshenziswa
ezingasokile
ezingathandeki
ezingavamile
ezingavunyelwe
ezingavuthiwe
ezingazibandakanyi
ezingaziwa
ezingcolile
ezingcono
ezingcwele
ezingcwepheni
ezingeke
ezingekho
ezingenalutho
ezingenantambo
ezingenazo
ezingeni
ezingenza
ezingenzeka
ezingenzi
ezingeyona
ezingezansi
ezingezinye
ezingezona
ezingi
ezingokomoya
ezingokoqobo
ezingokwemvelo
ezingoma
ezingomakhelwane
ezingomeni
ezingozini
ezingqungqutheleni
ezingu
ezingumangqamuzana
ezinguqulweni
ezinguxeni
ezingxabanweni
ezingxenyeni
ezingxoxweni
ezinhlakeni
ezinhlamvu
ezinhlangano
ezinhlanganweni
ezinhlangothini
ezinhlanu
ezinhlanzi
ezinhlanzini
ezinhle
ezinhlelweni
ezinhlobo
ezinhlobonhlobo
ezinhlosweni
ezinhlotsheni
ezinigi
ezinikele
ezinikeza
ezinikezana
ezinikezwa
ezinikezwe
eziningana
eziningi
ezinjalo
ezinjengalezo
ezinjengama
ezinjenge
ezinjengo
ezinkalweni
ezinkambisweni
ezinkampani
ezinkampanini
ezinkantolo
ezinkanyezi
ezinkathini
ezinkingeni
ezinkolelweni
ezinkolweni
ezinkomeni
ezinkomo
ezinkudlwana
ezinkulu
ezinkulumweni
ezinkulungwane
ezinkulungwaneni
ezinkundleni
ezinkunzi
ezinobungozi
ezinobuthi
ezinocansi
ezinokhahlo
ezinokuxhumana
ezinokuziphatha
ezinombala
ezinomgogodla
ezinomlelesa
ezinomswakama
ezinomthelela
ezinophephela
ezinopopayi
ezinqa
ezinqala
ezinqatshelwe
ezinqeni
ezinqubweni
ezinqunyelwe
ezinsizeni
ezinso
ezinsuku
ezinsukwini
ezintabeni
ezintanjeni
ezintathu
ezintini
ezinto
ezintsha
ezintungweni
ezintweni
ezinwebeka
ezinwele
ezinweleni
ezinwetshiwe
ezinyakazayo
ezinyangeni
ezinyathelweni
ezinyaweni
ezinyawo
ezinye
ezinyoni
ezinze
ezinzile
ezinzima
ezinzwa
eziphakamisa
eziphakathi
eziphakeme
eziphambene
eziphambili
eziphangiwe
eziphansi
eziphathekayo
eziphathelene
eziphathwayo
eziphawuleka
eziphawulekayo
eziphekwe
eziphelele
eziphendulela
eziphephe
eziphephile
eziphezulu
eziphikisana
eziphikisayo
eziphila
eziphilayo
eziphili
eziphindwe
ezipholile
eziphoqelekile
eziphrintiwe
eziphuma
eziphumelelayo
eziphumelele
eziphuthumayo
eziqala
eziqale
eziqanjiwe
eziqanjwe
eziqavile
eziqeqeshiwe
eziqhakazayo
eziqhamuka
eziqhubekayo
eziqinile
eziqinisa
eziqondene
eziqondile
eziqopha
eziqoqwe
eziqoshiwe
eziqoshwe
eziqukethe
eziququdayo
ezisafufusa
ezisakazwa
ezisamuntu
ezisanda
ezisathuthuka
ezise
ezisebenza
ezisebenzayo
ezisebenzisa
eziseceleni
eziseduze
ezisekelwe
ezisekelweni
ezisele
ezisemadolobheni
ezisematheni
ezisemqoka
ezisemthethweni
ezisencane
ezisendaweni
eziseningizimu
ezisentshonalanga
ezisenyakatho
ezisetshenziselwa
ezisetshenzisiwe
ezisetshenziswa
ezisetshenziswayo
ezisetshenziswe
ezisezikhundleni
ezisezingeni
ezisha
ezisheshayo
ezishicilelwe
ezishisayo
ezishiwo
ezishonile
ezisikiwe
ezisindayo
ezisindisayo
ezisiza
ezisogwini
ezisolwa
ezisondelene
ezisuka
ezisukela
ezisuselwa
ezisusiwe
ezisuswe
eziswelumuntu
ezitabane
eziteketiso
eziteshini
ezithaka
ezithakazelisayo
ezithambile
ezithandwa
ezithandwayo
ezithatha
ezithathe
ezithathelwana
ezithathiwe
ezithathwa
ezithathwe
ezithe
ezithelelanayo
ezithelo
ezithelweni
ezithengiswayo
ezithenjisiwe
ezithi
ezithile
ezithinta
ezithintekayo
ezithintekile
ezithize
ezithokozisayo
ezithola
ezitholakala
ezitholwe
ezithombe
ezithombeni
ezithunyelwa
ezithunyelwe
ezithuthukile
ezithuthukisiwe
ezithwala
ezithwalwa
ezithweni
ezitolo
ezitshalweni
ezitsheni
ezivame
ezivamile
ezivela
ezivelayo
ezivelele
eziveza
ezivezwa
ezivimbela
ezivinjelwe
ezivivinyweni
ezivulekile
ezivusa
ezivuthayo
ezivuthiwe
eziwayo
eziwugwadule
eziwuhhafu
eziwusizo
ezixhasa
ezixhuma
ezixhumene
ezixubekile
ezixubile
eziya
eziye
eziyi
eziyimfihlo
eziyindida
eziyindilinga
eziyingozi
eziyingqayizivele
eziyingxenye
eziyinhloko
eziyinkimbinkimbi
eziyinkulungwane
eziyinqaba
eziyishumi
eziyisi
eziyisigidi
eziyisihlanu
eziyisikhombisa
eziyisipesheli
eziyisisekelo
eziyisiseko
eziyisishagalolunye
eziyisishiyagalolunye
eziyisishiyagalombili
eziyisithupha
eziyize
eziyizi
eziyizicaba
eziyizigidi
eziyizinkulungwane
eziyizithulu
ezizalwa
ezizayo
ezizimele
ezizindeni
ezizinzile
ezizosetshenziswa
ezizungeza
ezizungeze
ezizungezile
ezizwe
ezizwelayo
ezizweni
ezobuchwepheshe
ezobuciko
ezobulili
ezobunhloli
ezobuthununu
ezocansi
ezokuhlinzwa
ezokuphepha
ezokusubatha
ezokuthutha
ezokuthuthukiswa
ezokuvakasha
ezokuvikela
ezokuxhumana
ezokuzijabulisa
ezokwazi
ezokwelapha
ezokwenza
ezola
ezolimo
ezombangazwe
ezombusazwe
ezomisiwe
ezomlando
ezomnotho
ezomphakathi
ezomthetho
ezonakele
ezoqhubeka
ezoqinisekisa
ezosusa
ezothando
ezra
ezulu
ezulwini
ezungeza
ezungeze
ezungezwe
ezwa
ezwe
ezwekazini
ezwela
ezweni
ezwenikazi
ezwini
ezzahra
ezzit
ezzouhour
eǁkaras
eɪ
f
fa
face
facebook
faces
facilities
fact
factbook
facto
factor
factory
facts
faculty
fafan
fahs
fails
failure
fair
faith
faiyum
faka
fakroun
faku
falcarindiol
falciparum
falcon
fall
fallatio
falling
fallopian
falls
falnama
false
fame
famer
familia
family
famous
fango
fanny
fantasia
fantasies
fantasy
fantena
fao
faq
far
faracho
fare
fares
farley
farm
farmer
farta
faruk
fas
fascia
fasciatus
fasher
fashion
fashn
faso
fassie
fast
fat
fate
father
fathers
fatima
fatty
faubion
fbi
fc
fda
fe
fear
fears
feat
feature
featured
features
featuring
feb
febhuwari
february
februrwari
februwari
federal
federation
fedjoudj
fedsaw
feeder
feesmustfall
feet
fekan
felidae
felipe
felis
fellatio
fellow
fellowship
female
femu
fenoughil
fenoulheti
fentale
ferdinand
ferguson
fermented
ferna
fernanda
fernandes
fernandez
fernando
ferrari
ferraz
ferreira
fertilization
festival
festivals
festschrift
fet
fetishism
feud
fever
feyenoord
ff
fi
fiat
fiber
fibre
fibroblast
fibrous
fibula
fichardtpark
fiche
fiction
fidel
field
fielding
fields
fiesta
fifa
fight
fighters
fighting
figure
figures
figuris
fiji
fikela
file
files
filimu
filipe
filipino
filipovski
fillers
filling
film
filmography
films
filter
fin
fina
final
finalist
finally
finals
finance
financial
findi
findings
finds
fine
finfinne
finland
finnish
finweek
fire
first
fish
fishbase
fisher
fisheries
fishing
fistula
fit
fitovinany
fitzgerald
fivb
five
fjalor
fk
fl
flaccid
flag
flap
flared
flares
flash
flat
flatbread
flats
flavour
fleming
fletcher
flick
flight
flip
floor
flora
florence
flores
florida
florins
flow
flower
flu
fluid
fluorine
flying
fm
fmri
foam
focus
focused
fodda
foie
fold
folkloric
following
fontsize
food
foot
football
footballer
footprint
for
forbes
force
forceps
forces
ford
fore
forecasts
foregen
foreign
foreman
forensic
foreplay
foreskin
foreskins
forest
forestier
forever
form
formal
format
formation
former
forms
formula
fornasini
fort
fortress
fortune
forum
forums
forward
fos
foster
fot
foto
fouchana
fouche
foulane
found
foundation
founder
foundry
four
fourchette
fourie
fourth
fox
fr
fra
frac
fracture
fragaria
frameless
framework
framing
franc
france
frances
francesco
franchise
francis
francisco
francois
frandernal
frank
frankfurt
frankish
franklin
fraser
fraud
frauen
frazier
fred
frederick
free
freedom
freeman
freemasonry
freiherr
fremde
fren
french
frene
frenulum
frenulumpiercing
frenum
frequency
frequently
frere
fresh
freud
friday
friedrich
friends
fringe
frisian
froese
frogs
from
froneman
front
frot
frottage
frotter
fructofuranose
fructopyranose
fructose
fruit
fsaw
ft
fu
fudukazi
fuel
fuels
fugu
fuji
fulani
fulansi
fuleyisitata
full
fulness
fumiko
funa
functions
fund
funda
fundamentalist
fundamentalists
funding
fundraising
funds
funeral
fursi
furth
further
fusion
futhi
futhu
future
futuresex
fw
fyomnyango
g
ga
gaananci
gabe
gabes
gabhoni
gabi
gable
gabon
gabriel
gaddafi
gadzhiyev
gaelic
gafsa
gag
gaga
gagasi
gagnon
gait
galan
galaxy
galbeed
gale
galguduud
galilei
galileo
gallagher
gallery
galway
gama
gambela
game
gamela
games
gamete
gametes
gaming
gamma
gamo
ganachakra
gandhi
gaous
gardane
gardee
garden
gardens
garissa
garlic
garmani
garnet
garrett
gary
gas
gasa
gases
gasgar
gash
gashamo
gastroenteritis
gatana
gates
gateway
gatwa
gauge
gauging
gaul
gauteng
gay
gayint
gaza
gazera
gb
gcina
gcis
gciwane
gcwalisa
gcwensa
gdp
ge
gear
gebreal
gedebano
gedeo
gedo
geiger
geita
gelan
gele
gemza
gen
gender
gene
general
generally
generation
generator
geneseo
genesis
genesise
genet
genete
geneva
genge
genital
genitourin
genji
genocide
genome
genomic
genotype
genre
gente
geocentric
geoffrey
geographic
geographical
geographies
geography
geohive
geometry
geopostcodes
george
georgia
gera
geral
gerald
german
germanic
germany
gert
gerwel
geschlechterkampf
gest
get
gets
gezira
ghair
ghamr
ghana
ghanaian
ghanayem
ghandi
ghar
gharbi
gharbia
ghardai
ghat
ghazal
ghbalou
ghedir
ghenif
gheraba
ghetto
ghibli
ghicha
ghost
ghosts
ghozlane
gi
giant
gibbs
gibhithe
gibson
gida
gideon
gidi
gidim
gift
gilber
gilgamesh
gilles
gillian
ginde
gingindlovu
gini
ginko
ginwala
giolla
girl
girls
girth
gishu
gitega
giuseppe
given
gives
giyani
giza
gje
gland
glandis
glans
glass
glen
glitoral
global
globaldatalab
globalization
globe
globo
gloria
glory
glow
glucose
gluteus
glycogen
glycosidic
gmbh
gmt
gne
gnome
gnu
go
goal
goals
goat
gobir
god
godal
godfrey
godi
godrich
gods
goes
gofa
gojjam
gokwe
gola
gold
goldberg
golden
goldiya
goldman
goldstein
golf
goli
golide
gololcha
gomba
gomera
goncha
gondar
gone
gonorrhea
gonza
good
goodman
goods
goodwill
goodwin
goody
google
gool
gordhan
gordon
gore
gorilla
goro
gorowa
gospel
got
gothic
gotta
gouga
gould
goulette
goussa
gov
govan
governance
government
governments
governor
gp
gpu
gqom
gquma
gr
grac
grade
graduate
graft
graham
grahamstown
grains
grammar
grammy
grand
grande
granite
grant
grants
graphs
grappler
grapplers
gras
graset
grave
graves
gravy
gray
grazing
great
greater
greco
greece
greek
green
greg
gregg
grey
greyville
gridcolor
griddle
grisar
grocery
groff
ground
group
groups
growing
growth
gru
gs
gt
gtunnel
gu
guagusa
guard
guardian
guba
gudaya
gudduranci
gudina
guduru
guelma
guergour
guerilla
guest
guettar
guevara
guezzam
guglielmo
gugulethu
guhyasamaja
guiche
guidance
guide
guides
guido
guild
guilty
guinea
guitar
guji
gulbenkian
guled
gulele
guliso
gulu
gum
gumede
gumuz
gun
gundam
gunners
gunz
guptaleaks
gura
gurage
gursum
guru
gutenberg
guthrie
guto
guttatus
gutturalis
gutu
guy
gv
gwala
gwalior
gwede
gwen
gwillim
gyakhipha
gyatso
gymnasium
gymnastics
gymnix
gypsy
h
ha
haben
habib
habitac
hacksaw
had
hadaik
haddada
hadebe
hadejanci
hadejiya
hadith
hadiya
hadjadj
hadjar
hadjel
hadjira
hafada
haffouz
hafiz
hagalo
hagayi
hager
hagere
haggard
hai
haidt
haifa
haiku
hainan
hair
hajimete
hajla
hakimia
haktanir
hale
half
halfa
hall
hallucinogens
hallux
halpern
ham
hamada
hamadia
hamam
hamba
hambisa
hamburg
hamed
hamel
hamid
hamill
hamilton
hamma
hammadi
hammam
hammamet
hammer
hammond
hamool
hanau
hand
handball
handbook
handjob
hands
hani
hanks
hans
hansen
hanson
haoua
haouaria
haoussa
happy
hara
haram
haramaya
harare
hararghe
harari
harbin
harbor
harcourt
hard
hardap
hardcore
harding
hardware
hardy
hare
harewa
hari
harissa
hark
haro
harold
harrach
harriche
harrington
harris
harrison
harrisson
harrouch
harry
hart
harvard
harvest
harvey
has
hasaasa
hasegawa
hassan
hassasna
hassen
hassi
hassine
hat
hataley
hate
hatfeild
hatoyama
hausa
haut
haute
have
haven
having
hawas
hawkins
hawo
hayaa
hayes
hayya
haß
hc
hcards
hch
hco
hd
hdi
he
head
headman
heads
healey
healing
health
healthcare
healthy
hearken
heart
heat
heathen
heaven
heavy
heavyweight
hebrew
hedberg
hedges
heemskerck
heffer
heidelberg
heideman
heights
heimat
heinrich
heirs
helen
helena
helet
helicopters
heliocentrism
hell
hellal
helmet
help
helsinki
hematoma
hemisphere
hemisus
hemorrhagic
hemra
hencha
hennessey
henri
henry
hentai
heon
hepatitis
hepburn
her
herald
heraldry
heraldsun
herbert
herd
here
heritage
hermann
hermaphrodite
hero
herodas
heroes
heroin
herpes
herring
herzegovina
hess
heteroatom
heteroflexibility
hexosa
hezekeli
hfs
hhayi
hhovisi
hi
hicher
hidi
hier
hieroglyphs
higglety
high
higher
highest
highlands
highway
hiiraan
hildebrandtia
hill
hillenburg
hills
him
hina
hinckley
hindi
hindu
hinduism
hip
hira
hiran
hirane
hironmoy
hiroshige
his
hisham
histo
histological
historia
historian
historical
history
hit
hitachi
hits
hitz
hiv
hiwix
hl
hlaba
hlabisa
hlaka
hlala
hlalisana
hlangana
hlangothi
hlekane
hlela
hlelo
hleze
hlobo
hlongwa
hlongwane
hlu
ho
hoa
hoc
hochzeitsmahl
hockey
hoe
hoek
hofmeyr
hogan
hoima
holbein
holdings
hole
holide
holland
hollande
hollis
hollywood
hollywoodbets
holmes
holomisa
holonym
holy
homa
home
homeland
homes
homoerotic
homoeroticism
homologous
homosexuality
honda
honey
hong
honor
honorary
honoris
honors
honourable
honoured
honours
hood
hook
hop
hopa
hope
hopes
hopeschamps
hopi
hopkins
hor
horaa
horenblas
hormone
horn
horo
horr
horror
horse
horwitz
hoseini
hoseya
hosni
hosokawa
hospital
hossein
hosseini
hosting
hot
hotel
hotels
hotspur
hottest
houamed
houari
houghton
houmt
hound
house
houses
housewives
housing
houston
how
howard
howe
however
hoya
hp
hpv
hq
hrairia
hrsg
hrung
htm
html
htmlhttp
http
https
hu
huac
huambo
hub
hubble
hubs
huddleston
hugh
hugo
hui
huisgenoot
human
humanism
humanities
humanity
humans
humera
hummingbird
hummus
hundred
hungary
hunger
hunsinger
hunt
hunter
hurghada
hurt
hurwitz
husband
husky
hussein
husseiniya
hvut
hybrid
hyde
hydie
hydrazine
hydrocarbon
hydrogen
hydrolysis
hydroponics
hymen
hyomin
hyoscine
hyoscyamine
hype
hypercube
hyperolius
hyperplasia
hypersensitivity
hypogonadism
hypolactasia
hypopituitarism
hypospadias
hypothalamus
i
iaaf
iaea
iafrika
iag
iakora
ialbhamu
ian
ianc
iarlaithe
iatrogenic
ib
iba
ibab
ibabati
ibadan
ibafana
ibagrut
ibala
ibalazwe
ibalelwa
ibalula
ibalule
ibaluleke
ibalwa
ibamba
ibambe
ibambezelekile
ibanda
ibandakanya
ibandakanye
ibandla
ibane
ibanga
ibangacuphi
ibangela
ibangele
ibangelwa
ibangelwe
ibanjelwe
ibanjwa
ibanjwe
ibantu
ibara
ibarberton
ibarclays
ibaringo
ibaros
ibarraba
ibatna
ibava
ibay
ibe
ibechem
ibeeld
ibefotaka
ibeka
ibeke
ibekwa
ibekwe
ibelarusi
ibele
ibembla
iben
ibeni
iberetta
iberia
iberlin
iberomaurusian
iberry
ibest
ibethlehem
ibf
ibha
ibhaktheriya
ibhalisele
ibhaluni
ibhalwe
ibhande
ibhange
ibhanoyi
ibhayibheli
ibhayisikili
ibhayisikobho
ibhayografa
ibhayografi
ibhayoloji
ibheka
ibhekane
ibheke
ibhekele
ibhekene
ibhekisa
ibhekise
ibhekwa
ibhendi
ibhentshi
ibheyili
ibhilidi
ibhizinisi
ibhodi
ibhodlela
ibhokisi
ibhola
ibhomu
ibhosniya
ibhotela
ibhubesi
ibhuku
ibhukwana
ibhuloho
ibhulukwe
ibhululu
ibhurundi
ibi
ibibambe
ibig
ibika
ibikade
ibike
ibikhona
ibikiwe
ibilokhu
ibincipha
ibinda
ibinga
ibingenye
ibinzana
ibioko
ibiqondiswe
ibir
ibisebenzisa
ibisiphethe
ibiskra
ibitholakala
ibivame
ibiza
ibizerte
ibizo
ibizwa
ibizwe
iblack
iblackburn
iblaqboy
iblida
ibloemfontein
iblue
ibm
ibn
ibo
iboko
iboland
ibomet
ibona
ibonakala
ibondo
ibone
ibongani
ibonisa
ibonwa
ibonwe
iborder
ibordj
iboshwe
iboston
ibotswana
ibou
ibougara
iboui
ibrahim
ibratislava
ibrazili
ibraziliya
ibreedekloof
ibrigade
ibrithani
ibritish
ibsheway
ibu
ibubanza
ibujumbura
ibukeka
ibukoba
ibukwa
ibulala
ibulawayo
ibulgariya
ibulilima
ibumba
ibuprofen
iburundi
ibururi
ibusia
ibutho
ibutswana
ibuye
ibuyela
ibuyiselwe
ic
icacise
icaf
icala
icalifornia
icalouse
icankuzo
icansi
icape
icapuchino
icarbon
icardiff
icasa
icatechism
icc
icd
ice
icebo
icekelwe
icela
iceland
icentral
icenturion
ich
ichasisa
ichaza
ichaze
ichazwa
ichazwe
iche
ichembe
ichibi
ichief
ichiefs
ichippa
ichirundu
ichlef
ichmoul
ichopho
ichurin
ichwane
ichwe
ichweba
icilongo
icindezelwe
icishe
icity
icommercial
icommunity
icon
icongress
iconography
iconostasis
icons
iconstantinople
iconvent
icoventry
icoyote
icps
icsi
icu
iculo
icwecwe
icwilisa
icybatar
id
ida
idada
idaho
idaily
idala
idaladala
idale
idalwa
idalwe
idam
idamot
idar
idatha
idatura
idauranci
ide
idea
idebre
idebub
idegehabur
idejen
idemba
idemo
idemocracy
idemocratic
idemoni
idenimaki
identita
identities
idethi
ideutsche
idibaya
idigri
idikhil
idikoni
idilidi
idinga
idiofa
idiopathic
idiot
idiploma
idire
idisco
idivayisi
idivaysi
idiyoloji
idizayini
idjebel
idjerba
idjibouti
idjwi
idla
idlala
idlale
idlanzana
idle
idlinza
idliwa
idliwe
idlozi
idlula
idlule
idluliselwe
idluliswa
idodola
idodoma
idokhumentari
idokodo
idolo
idolobha
idolobhakazi
idolobhana
idols
idondo
idonsa
idonsela
idouz
idraa
idrama
idrayivu
idris
idrissia
idrubchen
idrum
idstv
idube
idugda
idume
idumela
idun
iduna
idunn
idurban
idutchess
idutshulwa
idutywa
idwa
idwala
idwi
ie
iebc
if
ifa
ifacebook
ifaka
ifake
ifakelwe
ifakwa
ifakwe
ifana
ifanadiana
ifane
ifasitela
ifayela
ifc
ife
ifektri
ifenerbahc
ifenisha
ifenoarivo
iferguson
iferhoune
ifianarantsoa
ifika
ifile
ifilimu
ifilm
ifilosofi
ifinlandi
ifinyelela
ifinyelele
ifomethi
ifomu
ifonetiki
ifonoloji
ifort
ifoundation
ifp
ifree
ifu
ifulansi
ifulegi
ifuleyisitata
ifuna
ifunda
ifundeka
ifundisa
ifundwa
ifuthi
igaananci
igabes
igabhoni
igaborone
igafsa
igagasi
igalari
igalatasaray
igalelo
igalofu
igama
igambela
iganga
igarissa
igatsha
igaul
igauteng
igazi
igcina
igcine
igcinwa
igcinwe
igciwane
igcizelela
igcokama
igcwaliswa
igcwele
igebe
igembe
igeneral
igenerations
igenevan
igeorgies
igermiston
igesi
igetafe
igeyimu
ighana
ighetto
ighil
igibhithe
igijima
igimbi
igini
iginir
igitega
igli
igo
igogo
igokwe
igolden
igoli
igolide
igomora
igonnema
igoro
igquma
igqwetha
igrafu
igrand
igreat
igreki
igrisi
igroot
iguba
igubha
igugu
igumbi
igundane
igunya
igwababa
igwema
igxathu
igxila
igxile
igxiliswa
ihaba
ihabhu
ihafada
ihai
ihalata
ihamba
ihambe
ihambisa
ihambisana
ihambisane
ihambise
ihammam
ihandeni
ihange
iharare
ihassi
ihaut
ihawu
iheha
iheidelberg
ihelsinki
ihembe
ihhohho
ihholo
ihhotela
ihhovisi
ihighlanders
ihistory
ihlaba
ihlala
ihlale
ihlamvu
ihlandla
ihlangana
ihlanganisa
ihlanganise
ihlanganiswa
ihlanganiswe
ihlasela
ihlaselwa
ihlathi
ihlaya
ihlazo
ihlehliswe
ihlela
ihlele
ihleli
ihlelo
ihlelwe
ihlinzeka
ihlinzeke
ihlobene
ihlobo
ihlola
ihlole
ihlolwe
ihlombe
ihlose
ihlotshaniswa
ihlukane
ihlukanisa
ihlukanise
ihlukaniswa
ihlukaniswe
ihluke
ihlukene
ihlukile
ihluzo
ihola
iholandi
iholele
iholide
ihollywoodbets
iholo
iholwa
ihoma
ihora
ihoro
ihorombe
ihosy
ihouston
ihr
ihubo
ihumusha
ihunter
ihunyushwa
ihunyushwe
ihwange
ihwanzi
ihwelanga
ihype
ii
iii
iiia
iiib
iimfundo
ijaji
ijalimani
ijapan
ijapane
ijaphani
ijele
ijendouba
ijerusalema
ijetro
ijezi
ijibhuthi
ijika
ijimma
ijografi
ijomo
ijordani
ijuba
ijubane
ijuluka
ijusi
ijwabu
ijwayele
ijwayelekile
ikafr
ikahama
ikairouan
ikaizer
ikajiado
ikakhulu
ikakhulukazi
ikala
ikalaat
ikalamavony
ikalawa
ikamaboko
ikamela
ikamu
ikapa
ikapoeta
ikarasburg
ikasai
ikasi
ikasongo
ikassala
ikasserine
ikati
ikatima
ikazungula
ikebili
ikebri
ikeetmanshoop
ikef
ikela
ikenya
ikersa
iketanga
ikhabethe
ikhadi
ikhala
ikhalenda
ikhambi
ikhamera
ikhampasi
ikhanada
ikhanda
ikhaneli
ikhange
ikhansela
ikhartoum
ikhasethi
ikhasi
ikhasimende
ikhava
ikhaya
ikhefu
ikhekhe
ikheli
ikhemistri
ikhempasi
ikhenya
ikhepi
ikhetha
ikhibhodi
ikhilikithi
ikhipha
ikhiphe
ikhiqiza
ikhiqize
ikhiqizwa
ikhiqizwe
ikhishwa
ikhishwe
ikhodi
ikhofi
ikholelwa
ikholomu
ikhomba
ikhombe
ikhombisa
ikhombise
ikhomishana
ikhomishani
ikhomishini
ikhompyutha
ikhona
ikhondomu
ikhonferense
ikhongo
ikhonjiswa
ikhonjiswe
ikhonjwa
ikhonjwe
ikhono
ikhophi
ikhosi
ikhula
ikhule
ikhulelwe
ikhulu
ikhuluma
ikhulume
ikhuphuke
ikhuthaza
ikhwalithi
ikhwaya
ikiambu
ikibwezi
ikigoma
ikilabhu
ikilasi
ikilifi
iking
ikirundo
ikisumu
ikitui
ikitutu
ikiyevi
iklabhu
ikole
ikolishi
ikolombiya
ikoloni
ikomidi
ikomiti
ikomkhulu
ikomo
ikongo
ikontraki
ikopenhageni
ikorogwe
ikota
ikroonstad
ikrowati
iksar
iksibet
iksour
iku
ikubeka
ikugxekile
ikuphi
ikusasa
ikwaito
ikwaya
ikwazi
ikwazulu
ikwekwe
ikwenza
il
ila
ilaas
ilabhorethri
ilabour
ilaghouat
ilahlekelwe
ilaikipia
ilala
ilamu
iland
ilanda
ilandela
ilandelana
ilandelwe
ilandisa
ilanga
ilapho
ilarbaa
ilas
ilatin
ilatviya
ilawu
ilawula
ilay
ilayisense
ilayisensi
ilayisi
ile
ileaseweb
ilebhu
ilebo
ilebula
ilebuli
ilele
ilembe
ilemela
ilesotho
iletha
ilethe
ilhan
ilia
ilig
iligdheere
iligi
ilimmu
ilimpopo
ilindi
ilingana
ilinganise
ilinganisela
ilinganisele
ilinge
iliphi
ilisboa
ilitha
ilithuwaniya
ilizwe
illa
illegal
illinois
illizi
illuminati
illuminatus
illumine
illustrated
ilobolo
ilogo
ilokishi
ilona
ilondolo
ilondon
ilower
ilu
iluanda
ilubombo
ilukuluku
ilundazi
ilunga
ilungelo
ilungiselelwe
ilungu
iluphi
ilusaka
ilutheran
ilwa
ilwe
im
ima
imac
imaccabi
imachakos
imadagasika
imadzhakandila
imagawa
image
images
imaging
imagisterium
imahajanga
imahdia
imahikeng
imai
imaji
imakamba
imakethe
imalaba
imalakal
imalawi
imali
imalimboleko
imalta
imaltose
imam
imamelodi
imananara
imandera
imane
imani
imanica
imanifesto
imanouba
imansourah
imanti
imanzini
imaphi
imaputo
imariental
imaritzburg
imarsa
imary
imashi
imashonaland
imasindi
imasipala
imassachusetts
imastastas
imasters
imasvingo
imayelana
imayini
imbala
imbale
imbali
imbangela
imbangi
imbarara
imbewu
imbeya
imbi
imbibe
imbobo
imbokodo
imbongi
imbongolo
imboni
imbozwa
imbozwe
imbulunga
imbuzi
imc
imdb
imdc
ime
imedenine
imedina
imegillot
imele
imelika
imemezele
imendi
imenenja
imenti
imenz
imenzel
imephu
imercedes
imeru
imeta
imetro
imeya
imeyili
imfanelo
imfashini
imfezokade
imfihlakalo
imfihlo
imfiva
imfucumfucu
imfucuza
imfundiso
imfundo
imfundondalo
imfuneko
imfushane
imfuyo
img
imi
imibala
imibandela
imibhalo
imibhangqwana
imibhikisho
imibhoshongo
imibiko
imibikombani
imibono
imibukiso
imibuso
imibuthano
imibutho
imibuzo
imicabango
imicamelo
imichilo
imicibisholo
imicikizo
imicimbi
imicrosoft
imicu
imidanso
imidiya
imidlalo
imidlwane
imidondoshiya
imidumba
imidwebo
imifanekiso
imifeketho
imifelandawonye
imifino
imifudlana
imifula
imigcanso
imigexo
imigidingo
imigomo
imigoqo
imigqa
imigubho
imigwaqo
imihlaba
imihlahlandlela
imihlambi
imihlangano
imihlobiso
imijaho
imijondolo
imikhakha
imikhankaso
imikhawulo
imikhaya
imikhiqizo
imikhizo
imikholezima
imikhombe
imikhondo
imikhosi
imikhuba
imikhumbi
imiklamo
imiklomelo
imilando
imilayezo
imile
imilenze
imililo
imilingo
imillennium
imills
imilolozelo
imilomo
imimoya
imincintiswano
imindeni
iminderheiten
iminerval
imingcele
iminikelo
imininingo
imininingwane
imininingwano
iminotho
iminski
iminwe
iminyaka
iminyakazo
iminyango
imiphakathi
imiphetho
imiphumela
imiqaziyelo
imiqhinqo
imiqhudelwano
imiqondo
imiqongo
imiqulu
imirab
imisa
imisakazo
imisebe
imisebenti
imisebenzi
imishado
imishanguzo
imishayanguzo
imishini
imisho
imishumanqa
imishwana
imisindo
imisindvo
imisipha
imisraq
imiswe
imit
imitapo
imithalakazi
imithambo
imithelela
imithente
imithetho
imithethonqubo
imithethosivivinywa
imithi
imitholampilo
imithombo
imithondo
imithwalo
imixube
imiyalelo
imiyalezo
imiyalo
imiyonzi
imizabalazo
imizamo
imizekelo
imizi
imizila
imizimba
imizulane
imizuzu
imizuzwana
imizwa
imizwelo
imlumile
immunodeficiency
imodeli
imodi
imoja
imonako
imonastir
imontenegro
imormonism
imorobha
imorocco
imorogoro
imorrill
imoshi
imoskwa
imosop
imoto
imount
imoyale
imozambiki
imozambique
impact
impacts
impahla
impair
impambano
impanda
impande
impandla
impaphamo
impatho
impekumpeku
impela
impendle
impendulo
impepho
imperator
imperial
imperialism
impesheni
impfondo
impi
impikiswano
impilo
impisi
impophoma
importance
important
impova
imprisonment
impucuko
impucuzeko
impumalanga
impumelelo
impumulo
impumuzo
impungushe
ims
imtn
imtwara
imuhanga
imultichoice
imumbuni
imumias
imuphi
imuramvya
imusoma
imuyinga
imvama
imvamisa
imvelaphi
imvelo
imvimba
imvu
imvubelo
imvubu
imvukuzane
imvula
imvulamlomo
imvume
imvunulo
imwanza
imwaru
imwingi
imyuziyamu
imzansi
imzilikazi
imzinyambo
imzinyombo
in
ina
inabantu
inabeul
inakuru
inala
inama
inamalungu
inamandla
inamaphethelo
inamathiselwe
inamba
inamibhiya
inampula
inanda
inandi
inani
inanna
inarcotics
inarok
inatalspruit
inational
inauguracion
inauvoo
inc
incane
incasiselo
incazelo
incaziso
inceku
inch
incike
inciphile
include
including
inclusive
incoma
increased
increment
incultization
incwadi
indaba
indabuko
indalo
indandatho
indawo
indayi
indebe
indela
indeni
independence
independent
index
india
indian
indiana
indianapolis
indians
indidane
indie
indigenization
indigenous
indigo
indikimba
indima
indinganiso
indiva
individuals
indiya
indiza
indlala
indlalifa
indle
indlebe
indlela
indlondlo
indlovu
indlovukati
indlovukazi
indlu
indlulamithi
indlunkulu
indlwabu
indo
indoda
indodakazi
indodana
indodo
indolobha
indondo
indoneshiya
indonesia
indonsa
inductees
induduzo
induku
induna
indunankulu
indunu
indus
industrial
industry
indwabu
indwangu
indy
ine
inedbank
inegele
inelesi
inelson
inemvelaphi
inenani
inendawo
inenketho
inenkokhelo
inenzuzo
inequality
inert
inesibopho
inesigqoko
inesikhathi
inesikole
inesilinganiso
inesisindo
inetha
inetherlands
inethiwekhi
inethonya
inew
inezifunda
inezifundazwe
inezikhungo
inezilimi
inezingxenye
inezinhlelo
inezinhlobonhlobo
inezitolo
infantry
infection
infectious
inferno
inflorescence
influenza
info
infobox
information
ing
ingaba
ingabe
ingabhekisa
ingabi
ingabuye
ingachazwa
ingadi
ingadla
ingafaka
ingahlanganyela
ingahle
ingahlolwa
ingahlotshaniswa
ingahluka
ingahlukaniswa
ingaholela
ingakho
ingakwazi
ingalawulwa
ingalo
ingamamitha
ingamunceki
inganciphisa
ingane
inganeko
inganekwane
ingaphakamisa
ingaphakathi
ingaphambili
ingaphandle
ingaphansi
ingaphazamisa
ingaphezu
ingaphezulu
ingaqala
ingase
ingasebenzisa
ingasetshenziselwa
ingasetshenziswa
ingasuswa
ingathatha
ingathengiswa
ingathokozisa
ingatholakala
ingavela
ingavumi
ingavuzwa
ingawe
ingaziwa
ingcebo
ingcindezelo
ingcindezi
ingculaza
ingculazi
ingekho
ingelashwa
ingelinye
ingelosi
ingemuva
ingena
ingenakwenzeka
ingene
ingenisa
ingenxa
ingenye
ingenza
ingenzeka
ingenziwa
ingesinye
ingeyesimila
ingilandi
ingilazi
ingobamakhosi
ingokomoya
ingolstadt
ingoma
ingomunye
ingoni
ingono
ingonyama
ingosi
ingozi
ingqalaba
ingqalasizinda
ingqamuzana
ingqatho
ingqikithi
ingqondo
ingqophamlando
ingqoqelolwazi
ingqungquthela
ingquza
ingu
ingubo
inguinal
ingulube
ingumhlinzeki
ingumkhiqizo
ingumnikazi
ingumphumela
ingumsebenzi
ingumthombo
ingumzila
ingunaphakade
inguquko
inguqulo
inguxa
ingvil
ingwe
ingwenya
ingxabano
ingxenye
ingxibongo
ingxoxo
ingxube
inhambane
inhlabathi
inhlakahlo
inhlalakahle
inhlama
inhlamba
inhlamvu
inhlanganisela
inhlangano
inhlansi
inhlanzeko
inhlanzi
inhlayiyana
inhlekelele
inhleleleko
inhleleliso
inhliziyo
inhloko
inhlokodolobha
inhlolokhono
inhlonipho
inhloso
inhlupheko
inhlwa
ini
iniger
inigeria
inihwe
inika
inikela
inikeza
inikeze
inikezwa
inikezwe
inineve
iningi
iningizimu
initiative
inja
injabulo
injelwane
injini
injoloba
injombe
injongo
injulalwazi
injuries
injury
ink
inkaba
inkabazwe
inkabi
inkambiso
inkambo
inkambu
inkampani
inkantolo
inkanuko
inkanyezi
inkatha
inkathi
inkawu
inkayi
inkazimulo
inkece
inkecesomane
inkemba
inketho
inkimbinkimbi
inkinga
inkinsela
inkohlakalo
inkohliso
inkokheli
inkokhelo
inkolelo
inkolelombono
inkolo
inkomba
inkomfa
inkomishi
inkomo
inkondlo
inkontileka
inkonzo
inkosana
inkosazana
inkosi
inkosikazi
inkukhu
inkulu
inkululeko
inkulumo
inkumbulo
inkundla
inkunzi
inkwenkwezi
inla
inland
inn
inner
innings
innocent
innovation
inobel
inoble
inobudlelwano
inohlelo
inoki
inoma
inombala
inombolo
inomthamo
inongo
inongwe
inoqweqwe
inorth
inorthern
inosy
inothi
inoveli
inoviciate
inqaba
inqanyulwe
inqoba
inqobe
inqobo
inqola
inqolobane
inqubekela
inqubo
inqubomgomo
inquiry
inqume
inqwaba
ins
insalela
insangu
insebenzo
inselele
inselelo
inside
insider
insikazi
insimbi
insimu
insindiso
insipho
insiza
insizakalo
insizwa
inso
inspired
instagram
instance
institut
institute
institutes
institution
instituto
instrument
insular
insurance
int
intaba
intambo
intamo
intandelo
intando
intanethi
intare
intatheli
integrated
integration
integrity
intel
intela
intelligence
intengiso
intengo
intention
inter
intercontinental
intercourse
interface
interferon
interim
intermediate
internal
international
internationale
internazionale
internet
interpretation
interruptus
intersex
intervention
interview
interviews
intestines
inthanethi
intimate
into
intombazane
intombazanyana
intombi
intontela
intoxicants
intracytoplasmic
intraepithelial
introduction
intsha
intshi
intshisekelo
intshonalanga
intshukumo
intukuthelo
intulo
intuthu
intuthuko
invasion
inventing
invention
investigation
investigative
investment
investments
invictus
invitational
involvement
inxanxathela
inxenye
inxoza
inxuba
inxusa
inyakanyaka
inyakatho
inyala
inyama
inyamazane
inyanga
inyangatom
inyanza
inyeri
inyoka
inyongik
inyongo
inyoni
inyosi
inyumbazane
inyunyana
inyuse
inyuvesi
inzalo
inzima
inzondo
inzuba
inzululwazi
inzuzo
inzwa
io
iol
iomega
ion
ios
iowa
ip
ipa
ipakistan
ipalm
ipan
ipani
ipapa
iparadise
iparisi
ipasi
ipayipi
ipek
ipemba
ipeni
ipenile
ipenisi
ipensela
ipentateuch
ipeople
iphakamisa
iphakathi
iphakethe
iphalamende
iphansi
ipharadesi
iphatha
iphathe
iphathelene
iphathi
iphathwa
iphathwe
iphawule
iphayona
iphazamise
iphazili
iphedi
iphehlwa
iphekwe
iphela
iphele
iphenathi
iphendula
iphenye
iphenyisise
iphepha
iphephabhuku
iphephandaba
iphephile
iphere
iphesenti
ipheshana
iphethe
iphethini
iphethwe
iphezulu
iphicamvelo
iphikisana
iphiko
iphile
iphilippines
iphimbo
iphinda
iphinde
iphini
iphoenix
iphone
iphothugali
iphoyisa
iphrojekthi
iphuma
iphume
iphunga
iphupho
iphutha
iphuzu
ipipi
ipirates
ipitoli
ipiyano
ipl
iplanethi
iplatinamu
ipod
ipolandi
ipolari
ipolitiki
ipornhub
iport
iposi
iposihhovisi
iprage
ipraha
ipremier
ipretoria
iprince
iprovinsi
ipswich
iptv
ipudding
ipulangwe
ipulatifomu
ipulazi
ipuleti
ipumas
iqakala
iqala
iqale
iqanda
iqanjwe
iqede
iqembu
iqhathaniswa
iqhawe
iqhaza
iqhinga
iqhubeka
iqhubeke
iqhubekela
iqhubekile
iqhwa
iqine
iqinile
iqinisekisa
iqinisekiswe
iqiniso
iqokwe
iqondakala
iqonde
iqondile
iqondiswe
iqoqo
iqoshwe
iquakenbru
iquartz
iqueen
iqukethe
iqula
iqulu
iquran
ir
irabawi
iradio
iraki
iran
irand
irandi
irani
iranian
iraq
iras
irashiya
irathen
irayisi
irb
ired
irehoboth
irekhoda
irekhodi
ireland
iresiphi
irgir
irhodes
irhomani
irhythm
irichmond
iriga
irina
iringa
iringi
iringithoni
iriphabhulikhi
iriphabhuliki
iriphabliki
irish
iriyunion
irma
irob
irobhothi
iroblox
irome
iron
iroyal
irregularly
irs
irumbek
irumonge
irundu
irutana
iruwanda
iruyigi
irwanda
is
isa
isaac
isaacson
isaarland
isabalalisa
isabatha
isabc
isabella
isabelle
isabelo
isabelomali
isadl
isaga
isahluko
isahlulelo
isaiah
isaka
isakaza
isakaze
isakazekile
isakazwa
isakhamuzi
isakhi
isakhile
isakhiwo
isakiet
isakkwatanci
isakramente
isaladi
isale
isalokhu
isalt
isalumbe
isamba
isambulo
isamburu
isampula
isan
isancinza
isanda
isandla
isandulela
isango
isanlam
isanqante
isantiago
isapref
isaqhubeka
isara
isarafina
isasasa
isassa
isauro
isaya
isayensi
isayithi
isazi
isaziso
isaziwa
isb
isbn
iscamtho
iscandal
isced
ischemic
ise
isebenza
isebenze
isebenzela
isebenzisa
isebenzisana
isebenzise
isehlakalo
isehlo
isehlukaniso
iseke
isekela
isekelwe
isekhona
isekhukhune
isele
iselesele
iseli
iseluleko
iselusi
isembozo
isemien
isen
isencane
isendaweni
isendlalelo
isennar
isenzakalo
isenzo
iserbiya
isesame
isethembiso
isethi
isethulo
isethwe
isetshenziselwa
isetshenziselwe
isetshenziswa
isetshenziswe
isevisi
isex
isexwayiso
isezingeni
isfax
ish
isha
ishadi
ishaja
ishanghai
isharks
ishaya
ishaye
ishayina
isheikh
isheke
ishicilelwa
ishicilelwe
ishidi
ishilavo
ishintshe
ishinyanga
ishiya
isho
ishowe
ishumi
isi
isib
isibabuli
isibalizinsuku
isibalo
isibambo
isibani
isibantoyidi
isibantu
isibaya
isibazi
isibe
isibeletho
isibhakabhaka
isibhakela
isibhalwa
isibhamu
isibhedlela
isibhonqi
isibhunu
isibikezelo
isibili
isibindi
isibonakaliso
isibonakude
isibonelelo
isibonelo
isibongo
isibopho
isiboshwa
isibuko
isibungu
isibunu
isibusiso
isicabango
isicanucanu
isicelankobe
isicelo
isichazamazwi
isichewa
isichuse
isici
isicibazulu
isicikizi
isicoco
isidakamizwa
isidakwa
isidalwa
isidangazela
isidashi
isidenishi
isidi
isidingo
isidla
isidlakalasi
isidlaliso
isidlangala
isidledlwa
isidlidlizi
isidlo
isidoda
isidore
isidumbu
isifanekiso
isifinlandi
isifinyezo
isifiso
isifo
isifuba
isifulansi
isifulentshi
isifunda
isifundazwe
isifundiswa
isifundo
isifungo
isiga
isigaba
isigameko
isigamu
isigaxa
isigidi
isiginci
isigingci
isignali
isigodi
isigodlo
isigqayi
isigqila
isigqoko
isigreki
isigubhu
isigugu
isiguli
isigungu
isiguquli
isigwebo
isigwinqa
isihausa
isihebheru
isihidanisi
isihlabani
isihlabelelo
isihlahla
isihlakahli
isihlakala
isihlalo
isihlangu
isihlanzandaba
isihlawumbiselo
isihloko
isihluku
isihogo
isiholandi
isihungary
isijalimane
isijalimani
isijapane
isijapani
isijaphani
isijeziso
isijobelelo
isikazwa
isikebhe
isikele
isikelo
isikhala
isikhalazo
isikhalo
isikhangiso
isikhashana
isikhathi
isikhohlakali
isikhombisa
isikhomorosi
isikhothane
isikhuhluzi
isikhulu
isikhulumeli
isikhulumi
isikhumba
isikhumbuzo
isikhumulo
isikhundla
isikhungo
isikhunta
isikhutha
isikhuthazi
isikhuthazo
isikhwama
isiko
isikole
isikolo
isikongo
isikotilandi
isikrini
isikwa
isikwati
isikwazi
isikwele
isikweletu
isilatini
isilatviya
isilawuli
isilekeleli
isiliana
isililo
isilingala
isilinganiso
isilingo
isilithuwaniya
isiliva
isilo
isilogeni
isilonda
isiluthe
isilwane
isimalta
isimanga
isimangalo
isimanje
isimemezelo
isimemo
isimila
isimilo
isimiso
isimo
isimongotho
isimungumungwana
isina
isinana
isinandiso
isincihleke
isincithelo
isincithinye
isindebele
isindiyane
isine
isinengiso
isingatha
isingathe
isingathekiso
isingathwe
isingeniso
isingida
isingiro
isingisi
isinguni
isinkwa
isinodi
isinqe
isinqumo
isintaliyane
isintu
isinxephezelo
isinxibi
isinyathelo
isinye
isiolo
isipedi
isipelingi
isiphakamiso
isiphambano
isiphandla
isiphathanzuba
isiphathimandla
isiphepho
isiphequluli
isipheresiya
isiphetho
isiphethu
isiphi
isiphili
isipho
isipholisi
isiphoqi
isiphuzo
isipiliyoni
isipinashi
isipingo
isipolineshiya
isipolish
isipolo
isiprofetho
isipuni
isiputukezi
isiqa
isiqalile
isiqalo
isiqephu
isiqhingi
isiqinisekiso
isiqiniseko
isiqondiso
isiqongo
isiqophi
isiqoshwa
isiqu
isiqubulo
isiqungo
isiraphu
isirashiya
isiroma
isisa
isisebenzi
isisekelo
isiseyisheli
isishayamthetho
isishayina
isishemi
isisho
isishomo
isishona
isishoshovu
isisikwa
isisindo
isislaviki
isislovaki
isisombululo
isispeyini
isistimu
isisu
isisulu
isisulumane
isisuthu
isiswahili
isiswati
isiswazi
isiswidi
isitabane
isitambu
isitashi
isitatimende
isitayela
isitebhisi
isiteji
isiteketiso
isiteleka
isiteshi
isitha
isithabathaba
isithako
isithathu
isithelo
isithembiso
isithembu
isithixo
isithiyo
isitho
isithombe
isithomiyana
isithonjana
isithuko
isithununu
isithunywa
isithunzi
isithupha
isithuthi
isithwebuli
isitifiketi
isitimela
isitokwe
isitolo
isitoreji
isitrobheli
isitsha
isitshalo
isitsheki
isitshopolonco
isitshulu
isitsonga
isitsotsi
isitswana
isitudiyo
isitwi
isivalo
isivele
isivenda
isivinini
isivivinyo
isiviyetnami
isivumelwano
isivuno
isixakaxo
isixazululo
isixegisiwe
isixhosa
isixhumanisi
isiyabizo
isiyonke
isiyoruba
isiyurophu
isiza
isizalo
isizathu
isize
isiziba
isizinda
isizindalwazi
isizindalwebu
isizini
isizofaka
isizukulwane
isizulu
isizungu
isizwe
iskhathi
isky
islam
islamic
island
islands
isle
isles
isloveniya
islovo
isma
ismackdown
ismai
ismail
ismailia
iso
isoccer
isocial
isodo
isodoma
isofthiwe
isoftware
isohwe
isoka
isokhanya
isokoto
isolezwe
isoma
isomaliland
isomaliya
isomisi
isomiso
isondelene
isondlo
isondo
isongea
isono
isonto
isoonto
isorozat
isoseji
isosha
isoso
isotho
isouk
isoul
isousse
isouth
isouthern
isoviet
isowetan
isoweto
ispain
ispanish
ispanishi
ispeyini
ispice
isplit
ispsis
israel
israeli
israyeli
isreyili
issn
isso
issue
issues
ist
istanbul
istandard
istokholmu
istrict
istudiyo
isu
isudan
isudi
isuka
isuke
isumbawanga
isumitra
isunday
isundowns
isungule
isungulwe
isuper
isupersport
isurah
isusa
isuse
isuselwa
isuselwe
isuswe
iswidi
iswisi
it
itabora
itafula
itahtay
itakalani
itala
italia
italian
italiana
italic
italini
italiya
italmud
italy
itamanrasset
itanakh
itang
itanga
itanganyika
itanzania
itasy
itataouine
itay
ite
iteherani
itelecel
itelkom
itende
itest
itestamente
itezhi
ithaba
ithabong
ithafa
ithala
ithalente
ithambo
ithanda
ithande
ithandwa
ithanga
ithanzaniya
ithatha
ithathe
ithathwa
ithathwe
ithawula
ithayiga
ithe
ithebhulethi
ithekhi
itheki
itheku
ithelevishini
ithemba
ithembisa
ithempeli
ithemu
ithenda
ithenge
ithengise
ithenisi
ithi
ithidi
ithimba
ithinta
ithiphu
ithisisi
ithiyori
ithola
itholakala
itholakale
ithole
ithoni
ithonya
ithoyizi
ithrafikhi
ithrekhi
ithuba
ithule
ithuluzi
ithuna
ithuniziya
ithusi
ithuthukise
ithuthukiswa
ithuthukiswe
ithwala
itiaret
itibia
itiger
itilosi
itimimoun
itiye
itiyopiya
itizi
itko
itlemcen
itoamasina
itobruk
itoho
itokyo
itoliara
itonj
itopsport
itoyota
itozeur
itrace
itransnet
itruth
its
itshe
itshedi
itsheki
itshela
itshelo
itshile
itshitshi
itshopi
itshwane
itsotsitaal
itswayi
itu
itulo
itumeleng
itunes
ituri
iturkana
iturkey
itv
iui
iuui
iv
ivala
ivaldi
ivale
ivalelwe
ivaleta
ivaliwe
ivame
ivamise
ivan
ivana
ivancouver
ivangeli
ivanovski
ivela
ivele
ivelvet
ivelvets
ivenus
ivereeniging
ivesi
ivesti
iveza
iveze
ivezwe
ivf
ivictoria
ivideo
ividiyo
ivihiga
ivilnyusi
ivindo
ivinjelwe
ivirginia
iviyena
iviyo
ivohibe
ivoire
ivongo
ivory
ivoti
ivulekile
ivulvar
ivulwa
ivuma
ivumela
ivumelane
ivumele
ivuse
ivuselana
ivuselela
ivuselelwa
ivutshiwe
ivuzu
ivy
ivyson
iwadi
iwajir
iwalerosi
iwallmannsthal
iwalvis
iwarshawa
iwashi
iwayini
iwebhusayithi
iwebuye
iwela
iwele
iwelisi
iwest
iwestern
iwigi
iwikipedia
iwikipidiya
iwindhoek
iwindi
iwine
iwits
iwitwatersrand
iwombe
iwona
iwonga
iworld
iwuchungechunge
iwuhlelo
iwuhlobo
iwukugcwalisa
iwumthombo
iwuphawu
iwwe
ix
ixazululwe
ixega
ixhasa
ixhaswe
ixhunyaniswe
ixias
ixoxa
ixoxo
iya
iyadingeka
iyafana
iyahlonishwa
iyahlukahluka
iyakwazi
iyakwenqabela
iyalahla
iyale
iyalutha
iyaphikiswa
iyaqhubeka
iyasebenza
iyashintsha
iyatholakala
iyaye
iyazigxeka
iyazwela
iye
iyehluka
iyekwa
iyemen
iyenziwa
iyi
iyibhendi
iyidolobha
iyifilimu
iyigama
iyikhaya
iyilokishi
iyilungu
iyimali
iyimifino
iyimongameli
iyimpahla
iyincwadi
iyindawo
iyindiza
iyindlela
iyingozi
iyingxenye
iyinhlanganisela
iyinhlangano
iyinhlayiyana
iyinhlwa
iyinkampani
iyinkimbinkimbi
iyinkondlo
iyinoveli
iyinyuvesi
iyiphi
iyiqembu
iyirol
iyisenzo
iyisifunda
iyisifundazwe
iyisikhungo
iyisiqongo
iyisiteshi
iyisizwe
iyithoyizi
iyizwe
iyoba
iyodwa
iyona
iyuganda
iyunithi
iyunivesithi
iyurobhu
iyurophu
iza
izaba
izabelo
izaga
izaghouan
izahluko
izahlulelo
izakhamizi
izakhamuzi
izakhamzimba
izakhi
izakhiwo
izalwa
izama
izambane
izambezi
izambia
izambiya
izambulo
izandiso
izandla
izando
izanzibar
izaouiet
izaqathe
izaqathi
izazi
izaziso
ize
izee
izeerust
izehlakalo
izehlo
izelamani
izeluleko
izelwe
izembe
izembozo
izenzakalo
izenzo
izesekeli
izethameli
izibalo
izibazi
izibhakela
izibhalwa
izibhamu
izibhebhe
izibhedlela
izibhonqi
izibikezelo
izibilini
izibindi
izibonelelo
izibonelo
izibongo
izibopho
iziboshwa
izibukeli
izibuko
izibulala
izibungu
izibusiso
izibuyekezo
izicabango
izicathulo
izicelo
izichibiyelo
izici
izicikizi
izicoco
izicubu
izidakamizwa
izidalwa
izidingo
izidingongqangi
izidlidliza
izidubedube
izidumbu
izifanekiso
izifebe
izifiki
izifiso
izifo
izifunda
izifundazwe
izifundiswa
izifundo
izifungo
izigaba
izigameko
izigaxa
izigcawu
izigcoyi
izigebengu
izigelekeqe
izigidi
izigidigidi
iziginci
izigodi
izigqayi
izigqila
izigqoko
izigubhu
iziguli
izigwebo
izigwegwe
izigwinqa
izihambeli
izihambi
izihasho
izihibe
izihlahla
izihlakala
izihlalo
izihlandla
izihlanganisi
izihlangu
izihlobo
izihloko
izihlwele
izihwebi
izijeziso
izika
izikele
izikhala
izikhalazo
izikhali
izikhangiso
izikhathi
izikhindi
izikhomba
izikhombo
izikhotha
izikhothane
izikhuhluzi
izikhukhula
izikhulu
izikhulumi
izikhumbuzo
izikhundla
izikhungo
izikole
izikolo
izikothane
izikronike
izikweledu
izikweletu
izilaleli
izilawuli
izilekeleli
izilimi
izilimo
izilimu
izilinganiso
izilonda
izilungiselelo
izilwane
izilwanyana
izimakethe
izimali
izimangaliso
izimangalo
izimayini
izimbabwe
izimbali
izimbangela
izimbangi
izimbaza
izimbewu
izimbobo
izimbongi
izimbongolo
izimboni
izimbuzi
izimemezelo
izimemo
izimfanelo
izimfene
izimfihlakalo
izimfihlo
izimfiva
izimfundindalo
izimfundiso
izimfuno
izimila
izimilo
izimisele
izimiso
izimo
izimoto
izimpahla
izimpande
izimpawu
izimpendulo
izimpi
izimpikiswano
izimpilo
izimpondo
izimpucuko
izimuncagazi
izimvimba
izimvu
izimvubu
izimvula
izimvume
izinambuzane
izincasiselo
izincazelo
izincithinye
izincomo
izincwadi
izincwana
izindaba
izindandatho
izindatshana
izindawo
izindebe
izindela
izindikimba
izindima
izindinganiso
izindiza
izindlala
izindlebe
izindleko
izindlela
izindlelasu
izindlovu
izindlu
izindondo
izindonga
izinduku
izinduna
izindwangu
izinelesi
izinga
izingadi
izingalo
izingane
izinganekwane
izingathekiso
izingcaphuno
izingcezu
izingcingo
izingcwecwe
izingcwephe
izingelosi
izingilazi
izingoma
izingono
izingozi
izingqalaba
izingqandavu
izingqapheli
izingqikithi
izingqimba
izingqinamba
izingqwembe
izingubo
izingudla
izingulube
izinguquko
izinguqulo
izinguxa
izingwe
izingwenya
izingxabano
izingxenye
izingxoxo
izinhlaka
izinhlamvu
izinhlanga
izinhlanganisela
izinhlangano
izinhlangothi
izinhlanzi
izinhlawulo
izinhlayiya
izinhlayiyana
izinhlekelele
izinhleleliso
izinhlelelo
izinhlelo
izinhliziyo
izinhlobo
izinhlobonhlobo
izinhlokodolobha
izinhlolovo
izinhlonipho
izinhloso
izinhlu
izinhlungu
izinhlwa
izinja
izinjini
izinjongo
izinkakha
izinkalankala
izinkambiso
izinkambo
izinkampani
izinkantolo
izinkanuko
izinkanyezi
izinkathazo
izinkathi
izinkawu
izinkemba
izinkemfe
izinkentezi
izinketho
izinkinga
izinkinobho
izinkokhelo
izinkolelo
izinkolo
izinkomba
izinkomishi
izinkomo
izinkondlo
izinkontileka
izinkonzo
izinkosa
izinkulumo
izinkulungwane
izinkumbulo
izinkundla
izinkuni
izinkunzi
izinombolo
izinongo
izinqa
izinqe
izinqinamba
izinqola
izinqubo
izinqubomgomo
izinqumo
izinsalela
izinsana
izinselele
izinselelo
izinsika
izinsimbi
izinsipho
izinsiza
izinsizakalo
izinsizakusebenza
izinsizwa
izinso
izinsolo
izinsongo
izinsuku
izinsumpa
izintaba
izintambo
izintatheli
izintelezi
izintengo
izinto
izintombi
izintshisekelo
izintshumayelo
izintuthukiso
izinungwana
izinwele
izinxanxathela
izinxushunxushu
izinyanga
izinyathelo
izinyawo
izinyembezi
izinyoka
izinyoni
izinyosi
izinyunyana
izinyuvesi
izinzalamizi
izinze
izinzuba
izinzuzo
izinzwa
iziphakamiso
iziphaqulo
iziphathanzuba
iziphathimandla
izipheko
iziphi
iziphili
iziphilincinci
izipho
iziphoqi
iziphuzo
iziqa
iziqalo
iziqapho
iziqephu
iziqhingi
iziqholo
iziqongo
iziqoshwa
iziqu
iziqukathi
izisebenzi
izisekelo
izishayamthetho
izisho
izishoshovu
izishukumi
izisindo
izisulu
izitabane
izitatimende
izitayela
iziteleka
iziteshi
izitha
izithakazelo
izithako
izithameli
izithandani
izithelo
izithembiso
izithembu
izithenjwa
izithixo
izithiyo
izitho
izithokelo
izithombe
izithombo
izithukuthuku
izithulu
izithununu
izithunywa
izithuthi
izithuthuthu
izithwebuli
izitimela
izitini
izitolo
izitsha
izitshalo
izitshopolonco
izitshudeni
izitudiyo
izitudyo
izivakashi
izivimbelo
izivivinyo
izivumelwano
izixazululo
izixhumanisi
izixuku
iziyabizo
iziyalezo
iziyalo
iziyaluyalu
izizathu
izizinda
izizindalwebu
izizukulwane
izizwe
izoba
izobe
izobona
izofakelwa
izofakwa
izokhishwa
izokhokhela
izokwenza
izola
izomisi
izoncipha
izoni
izono
izoqhubeka
izoshiya
izoso
izulu
izungezwe
izwakala
izwe
izwekazi
izwi
iðunn
j
ja
jabal
jabulani
jack
jackson
jacob
jacques
jae
jafara
jagadish
jahre
jai
jail
jailed
jali
jalis
jalq
jam
jama
jamaican
james
jamison
jan
janata
jane
janeiro
janet
janin
january
januwari
japan
japanese
jarar
jare
jarecki
jarlath
jarso
jarte
jason
jasper
jawaharlal
jawwi
jay
jayanti
jazeera
jazmee
jazz
jazzmee
jb
jc
je
jean
jebel
jeex
jeff
jefferson
jeffrey
jegonfoy
jehovah
jel
jele
jelimo
jelly
jelqing
jemil
jendouba
jenna
jenner
jennifer
jeremiah
jeremiya
jeremy
jersey
jerusalem
jerusalema
jesolo
jessica
jessie
jesu
jesus
jet
jewel
jewelry
jewish
jgp
jho
ji
jibhuthi
jibril
jijel
jika
jikelele
jim
jimma
jimmie
jimmy
jiru
jive
jk
jl
jm
jo
joachim
joan
jobe
jobs
joburg
jocelyn
joe
joel
johan
johane
johann
johannes
johannesburg
johannessburg
john
johnny
johns
johnson
johnston
join
joins
joint
jon
jona
jonas
jonathan
jones
jong
jonglei
jonny
jordan
jorge
jose
josef
joseph
josephsmithpapers
joshua
joshuwa
journal
journalism
journalist
journalists
journey
joy
joyce
joyina
joyous
jozini
jp
jpeg
jpg
jr
js
jse
jsp
jst
jstor
juan
jub
juba
jubilees
juda
judah
judaism
judas
judge
judgement
judges
judicial
judith
jufra
juice
jul
julayi
julia
julien
julius
juluka
july
jump
jun
junction
june
jungle
juni
junichiro
junior
junod
jupiter
jurisprudence
just
justice
justified
justin
juta
jvc
k
ka
kaabong
kaap
kaba
kababa
kabach
kabale
kabanzi
kabaria
kabataan
kabataang
kabatuman
kabbe
kabela
kaberamaido
kabhebhe
kabhekuzulu
kabhiya
kabhontshisi
kabi
kabieber
kabili
kabiti
kablum
kabrigham
kabudha
kabusha
kabza
kacalvin
kacameron
kacetshwayo
kachakdor
kacharles
kachris
kadalie
kadaniel
kadavis
kaddour
kade
kadesmond
kadinizulu
kadisemba
kadj
kadokotela
kadonaldson
kadumas
kafaro
kafergie
kafr
kafrank
kafunani
kafushane
kagadi
kagenesise
kagera
kagesi
kagilgamesh
kagiso
kagoodwin
kagumede
kaguvi
kagwayi
kaharry
kahle
kahlongwa
kahulumeni
kai
kairouan
kaizer
kajacob
kajama
kajames
kajerry
kajesu
kajiado
kajobe
kajohane
kajohn
kajohnny
kajona
kajoseph
kajoshua
kajude
kajulayi
kakade
kakamega
kakenan
kakhisimusi
kakhkulu
kakhongolose
kakhonkolo
kakhudlwana
kakhulu
kakhumalo
kakiymet
kakkhulu
kaknigge
kaknu
kakristu
kakumiro
kala
kalaa
kalaat
kalahari
kalanga
kalangala
kalenjin
kalevitikusi
kaliro
kaliti
kallenbach
kaloti
kalou
kaltenecker
kalula
kalungu
kalya
kama
kamaboko
kamabonakude
kamacide
kamagazini
kamage
kamageba
kamahlangu
kamakoti
kamakura
kamalandela
kamama
kamandela
kamapulana
kamas
kamashi
kamasikandi
kamasipala
kamaskandi
kambongeni
kamel
kamelek
kamengameli
kamenzi
kameyi
kamichelangelo
kamiss
kamjokwane
kamo
kamomoni
kamongameli
kamormon
kamormoni
kamoroni
kamose
kamoya
kampala
kampande
kamqomboli
kamsakandi
kamuffin
kamufi
kamuli
kamuva
kamvulane
kamwenge
kamxenge
kan
kanambambili
kananci
kanandi
kancane
kancwaba
kandaba
kandi
kandinsky
kandlela
kandunankulu
kane
kaneave
kanehemiya
kanelson
kanembeza
kangaka
kangakanani
kangako
kangangoba
kangangokuba
kangangokuthi
kangcono
kangomane
kangwane
kani
kaningana
kaningi
kanjalo
kanjani
kanje
kanjena
kankosi
kankosikazi
kankulunkulu
kankwelo
kano
kanobel
kanokusho
kanomkhubulwane
kanomvula
kanovemba
kant
kantara
kanti
kanungu
kanya
kanyaka
kanye
kanyekanye
kanzima
kapa
kapapa
kaparekh
kapchorwa
kaphethiloli
kapoeta
kapriest
kara
karababa
karabo
karan
karaoke
karapınar
karasburg
karate
karayorgis
kared
karen
karim
karimia
karl
karlovna
karmayogi
karobert
karol
karoo
kaross
kartenhaus
karuth
karuzi
karzai
kas
kasai
kasathane
kasenzangakhona
kasese
kashaka
kashivaji
kashmir
kashukela
kasi
kasipul
kasishiyagalombili
kasisulu
kasmith
kasolomon
kasompisi
kassala
kassel
kasserine
kassina
kaswami
kasze
katag
katagum
katakwi
katanga
katavi
kate
katete
kathabo
kathathu
kathembi
katheodore
katherine
kathixo
kathleen
kathrada
kathy
katiktok
katima
katobit
katolika
katorga
katsina
katsinanci
kau
kaunda
kavango
kaveysel
kavithamini
kawebb
kawilliam
kawonkewonke
kawoyela
kaxaba
kay
kayamini
kayanza
kayes
kayiphikiswa
kayise
kayunga
kazakhstan
kazakwenu
kazeynep
kazibuthe
kazingelwayo
kaziqu
kazulu
kazuma
kazwelonke
kazwide
kb
kc
ke
kebbi
kebe
kebili
kebir
kebira
kebri
kechra
keel
keene
keep
keeping
kef
keffa
kei
keine
keino
keith
kelam
keller
kelly
kembata
kemekem
kempton
ken
kennedy
kenneth
kenny
kent
kentucky
kenya
keokuk
keorapetse
kepha
kept
keranio
kericho
kerma
kermes
kersa
kesem
keskin
kesteren
ketema
ketshezi
keve
kevin
key
keya
keyes
keyh
keyid
kg
kgalagadi
kgalema
kgatleng
kgorong
kgositsile
kgs
kha
khadra
khaled
khalled
khalori
khams
khan
khanna
khanyile
khanyisa
khartoum
khasi
khaya
khayamiya
khayreya
khayyam
khe
khechna
khedache
khedda
khedival
khei
kheima
khelifa
khemis
khenchela
khenya
khesi
khetho
khiar
khoi
khomas
khona
khonamanjalo
khongo
khoriya
khoza
khrestu
khroub
khukwini
khula
khulu
khulukuthu
khulula
khuluma
khumalo
khumbula
khuzani
khuzwayo
khwela
ki
kia
kiambu
kibaale
kibaha
kibbe
kiboga
kick
kickoff
kid
kids
kie
kiefer
kiełbasa
kigali
kigo
kigoma
kikuyu
kilabhu
kilbet
kile
kilifi
kilimanjaro
killed
killer
killers
killing
kilograms
kim
kimball
kimberley
kimi
kindle
kindo
king
kingdom
kingdoms
kings
kingsmead
kini
kinnot
kinsey
kinshasa
kinship
kip
kipchirchir
kipchoge
kipketer
kipruto
kipwambok
kiramu
kirina
kirinyaga
kiruhura
kirundo
kirwa
kiryandongo
kisii
kisoro
kiss
kissamos
kisumu
kiswahili
kitchen
kitgum
kithi
kithina
kittin
kitui
kitutu
kiva
kivu
kiwi
kiwifruit
kiya
kjv
kleinig
klerk
kleyimi
kliptown
kloof
klub
km
knigge
knight
knights
knockout
know
knowledge
knowles
known
ko
koala
kobaba
kobandlululo
kobe
kobedi
kobhubhane
kobisi
koboko
kobuchopho
kobuchwepheshe
kobuciko
kobudlelwano
kobudoda
kobufakazi
kobugebengu
kobugqila
kobuhlakani
kobuhlanga
kobuhle
kobuhlungu
kobuholi
kobujuda
kobukhulu
kobukristu
kobulawo
kobulili
kobumanzi
kobumsulwa
kobungcweti
kobungqingili
kobunguxa
kobunikazi
kobuntu
kobuntwana
kobuso
kobusuku
kobuthi
kocansi
koch
kochungechunge
kochwepheshe
kocwaningo
kodlala
kodlame
kodonga
kodumo
kodwa
koech
kofford
kofi
kofifi
kofunda
kofuzo
kogwayi
kohambo
kohl
kohlaka
kohlanga
kohlelo
kohlobo
kohulumeni
koizumi
koje
koketshezi
kokhetho
kokhokho
kokstad
kokuba
kokubalwa
kokubamba
kokubanjwa
kokubekwa
kokubeletha
kokubhaliselwe
kokubhekiswa
kokubhema
kokubhoboza
kokubhujiswa
kokubili
kokubona
kokubonisana
kokuboniswa
kokubonwayo
kokuboshwa
kokubukeka
kokubulala
kokubulawa
kokubusa
kokubuya
kokubuyela
kokuchitha
kokudala
kokudalwa
kokudinga
kokudla
kokudlala
kokudliwa
kokudlula
kokudlwengulwa
kokudonsa
kokufa
kokufakelwa
kokufakwa
kokufika
kokufinyelela
kokufuduka
kokufunda
kokufundisa
kokugcina
kokugcotshwa
kokugeleza
kokuhamba
kokuhambela
kokuhambisa
kokuhlala
kokuhlangana
kokuhlangenwe
kokuhlanu
kokuhlasela
kokuhlaselwa
kokuhlela
kokuhleleka
kokuhlelwa
kokuhlinzwa
kokuhlolwa
kokuhlonipha
kokuhlukana
kokuhlukaniswa
kokuhluleka
kokuhlulwa
kokuhweba
kokujoyina
kokujwayelekile
kokukhanya
kokukhethwa
kokukhipha
kokukhishwa
kokukholelwa
kokukhonjiswa
kokukhothama
kokukhula
kokukhulelwa
kokukhululwa
kokukhushulelwa
kokuklinywa
kokulahleka
kokulahlekelwa
kokulalelwa
kokulandela
kokulawulwa
kokulimala
kokulungisa
kokumenyezelwa
kokumiswa
kokunamathiselwa
kokunamathiselwe
kokungalungile
kokungaphakathi
kokungasebenzi
kokungena
kokungenelela
kokungenwa
kokungezwani
kokunikeza
kokunikezwa
kokunqamuka
kokunqoba
kokunqotshwa
kokunye
kokuphakama
kokuphakelwa
kokuphanga
kokuphansi
kokuphathwa
kokuphazamiseka
kokuphefumula
kokuphela
kokuphikisana
kokuphindukuzalwa
kokuphothula
kokuphuma
kokuphumelela
kokuqala
kokuqamba
kokuqeda
kokuqeqeshwa
kokuqhathanisa
kokuqina
kokuqokwa
kokuqondisa
kokuqukethwe
kokuquliswa
kokuqulwa
kokusabalala
kokusakazwa
kokusayina
kokusebenza
kokusebenzisa
kokusebenzisana
kokusetshenziswa
kokushaya
kokushaywa
kokushintsha
kokushiya
kokushona
kokusula
kokusungulwa
kokuthambekela
kokuthandwa
kokuthatha
kokuthathu
kokutheleleka
kokuthengiswa
kokuthengwa
kokuthi
kokuthile
kokuthinta
kokuthintana
kokuthola
kokutholakala
kokutholwa
kokuthomba
kokuthona
kokuthula
kokuthuthela
kokuthuthuka
kokuthuthukiswa
kokuthweswa
kokutshala
kokuvakashela
kokuvalwa
kokuvela
kokuveza
kokuvikelwa
kokuvinjelwa
kokuvuka
kokuvukela
kokuvula
kokuvuleka
kokuvulwa
kokuvuma
kokuvusa
kokuvuselela
kokuvuselelwa
kokuvuswa
kokuwa
kokuxhashazwa
kokuxhaswa
kokuxhumana
kokuya
kokuyalelwa
kokuyeka
kokuyekethisa
kokuzala
kokuzalwa
kokuzibamba
kokuzimela
kokuziphatha
kokuzwa
kokwakhiwa
kokwala
kokwamukela
kokwazi
kokwaziswa
kokwehluleka
kokwenyuka
kokwenza
kokwenziwa
kokwesaba
kokwethulwa
kokx
kolayini
kolbe
kole
kolimi
koloni
kolunye
kolwandle
kolwazi
kolwelwesi
kom
koma
komasipala
kombala
kombandela
kombhalo
kombolcha
kombungu
kombusi
kombuso
komcabango
komchamo
komcimbi
komculo
komdlalo
komdlavuza
komfelokazi
komfula
komfundi
komgogodla
komgomo
komgwaqo
komhlaba
komhlabathi
komhlangano
komholi
komkhandlu
komkhathi
komkhawulo
komkhiqizo
komkhosi
komlando
komlilo
komlingiswa
komlomo
komndeni
komngcele
komnotho
komnyango
komnyondo
komo
komongo
komoya
komphakathi
komphimbo
komqeqeshi
komqondo
komsebenzi
komsebenzisi
komshado
komsindo
komsoco
komthambo
komthetho
komthethosisekelo
komtholampilo
komthondo
komuntu
komunwe
komunye
komuthi
komuzi
komuzwa
komyalelo
komyalo
komyeni
komzimba
komzuliswano
kona
koneba
kong
kongo
konkamisa
konke
konkulunkulu
konongo
konrad
konso
konta
kontanga
konyaka
konyawo
kooluu
kophenyo
kophiko
korahe
koran
koraro
kordofan
korea
koricha
korinte
korten
kosa
kosala
kosana
kosayizi
kosgei
kosgey
koshade
kosizi
kosizo
kososayensi
kosuku
kotane
kothando
kothile
kotido
kotshwala
kou
kouga
kouif
kouilou
koumou
kounta
koushik
kowamanqamu
kowe
kowesifazane
kowesilisa
kowezi
kowokuqala
koyedwa
koysha
kozakwethu
kpac
kraemer
kram
krestu
krib
krimi
krishna
kristu
kritik
kroeber
kroeger
krok
krsnayamari
kruger
ks
ksar
kseur
ksiba
ksibet
ksour
ku
kuba
kubaba
kubabaza
kubabhalisi
kubabukeli
kubabusi
kubaculi
kubadlali
kubafana
kubafundi
kubagxeki
kubahlali
kubaholi
kubakhiqizi
kubalaleli
kubalandeli
kubalingani
kubalingiswa
kubaluleke
kubalulekile
kubalwa
kubandakanya
kubandla
kubanga
kubangela
kubangele
kubangelwa
kubangelwe
kubanikazi
kubanjwe
kubantu
kubantwana
kubanzi
kubaphathi
kubapheki
kubasebenzi
kubasebenzisi
kubasubathi
kubathengisi
kubay
kubazali
kube
kubeka
kubekwa
kubekwe
kubhakwa
kubhalwe
kubheja
kubheka
kubhekisa
kubhekiselwa
kubhekiselwe
kubhekiswa
kubhekiswe
kubhekwa
kubhekwe
kubhishobhi
kubhoboza
kubika
kubikwa
kubikwe
kubiza
kubize
kubizwa
kubizwe
kubo
kubona
kubonakala
kubonakale
kubongelwa
kubonisa
kubonise
kuboniswa
kuboniswe
kubonwa
kuboshwa
kubra
kubuchwepheshe
kubuciko
kubuhindu
kubukeka
kubukrestu
kubulawa
kubungazwa
kubuprothestani
kubushiqela
kubuthakathaka
kubuye
kubuyekezwe
kubuyisa
kubuyiselwe
kucace
kucashunwa
kucatechism
kucatshangwa
kucatshangwe
kuch
kuchaza
kuchaziwe
kuchazwa
kuchazwe
kuchithwa
kuchithwe
kucishe
kuckei
kudaba
kudala
kudale
kudalulwe
kudalwa
kudalwe
kude
kudidaniswe
kudilidi
kudinga
kudingeka
kudingeke
kudisemba
kudisney
kudistrict
kudla
kudlala
kudlale
kudlalwa
kudlalwe
kudlame
kudlangile
kudliwa
kudliwe
kudlula
kudlule
kudlulela
kudlulele
kudokotela
kudstv
kueksodusi
kufacebook
kufaka
kufakazelwa
kufakwa
kufakwe
kufana
kufane
kufanekisela
kufanele
kufaneleke
kufanelekile
kufc
kufe
kufebhuwari
kufebrurwari
kufeza
kufezwa
kufihliwe
kufika
kufike
kufinyelela
kufinyelele
kufinyeleleke
kufinyelelwe
kufomethi
kuformula
kufox
kufra
kufremantle
kufuduka
kufunda
kufundiswa
kufundwe
kufuneka
kufutha
kugcina
kugcine
kugcinwa
kugcinwe
kugcizelelwa
kugcizelelwe
kugenesise
kugqugquzele
kugujwa
kuguquka
kuguqula
kuguqulwa
kuguqulwe
kugwayi
kugwenywa
kugwenywe
kugxekwa
kugxila
kugxile
kuhamba
kuhambisana
kuhambisane
kuhambo
kuhanjiswa
kuhhavini
kuhilela
kuhileleke
kuhlala
kuhlale
kuhlalwe
kuhlamvu
kuhlangana
kuhlanganisa
kuhlanganise
kuhlanganisiwe
kuhlanganiswa
kuhlanganiswe
kuhlanganwe
kuhlangene
kuhlanzekile
kuhlaselwa
kuhlatshwe
kuhle
kuhlelo
kuhlelwe
kuhlinzwa
kuhlobene
kuhlobo
kuhlola
kuhlolwa
kuhlolwe
kuhlonyiwe
kuhlose
kuhloselwe
kuhloswe
kuhlotshaniswa
kuhlu
kuhlukaniswa
kuhlukaniswe
kuholela
kuholele
kuhukkum
kuhulumeni
kuhunyushwa
kuiertyd
kujantshi
kujanuwari
kujesu
kujona
kujoseph
kujulayi
kujule
kujwabu
kujwayele
kujwayelekile
kuka
kukababa
kukabiti
kukachristina
kukadeveli
kukaduke
kukagesi
kukagwayi
kukahani
kukahulumeni
kukajacob
kukajames
kukajean
kukajesu
kukajona
kukajoseph
kukajulayi
kukakayla
kukakhisimusi
kukakhumalo
kukaknigge
kukakonnor
kukakristu
kukakubheka
kukaleanne
kukalwa
kukamama
kukamandela
kukamanetsch
kukamapulana
kukamashi
kukamfundisi
kukamjae
kukamongameli
kukanandi
kukandlovu
kukaneave
kukanelson
kukangqongqoshe
kukanina
kukankulunkulu
kukaphethiloli
kukapremiya
kukasathane
kukaselisa
kukasepthemba
kukashaka
kukashivaji
kukasmith
kukawebb
kukaweishaupt
kukawoyela
kukayise
kukazuma
kukazwelonke
kuke
kuketshezi
kukhala
kukhawulelwe
kukhetho
kukhethwa
kukhipha
kukhiqiza
kukhiqizwa
kukhishwa
kukhishwe
kukho
kukholakala
kukholamu
kukholwa
kukhombisa
kukhona
kukhonjisiwe
kukhonjiswa
kukhonjiswe
kukhonjwe
kukhula
kukhulisa
kukhuliswe
kukhulu
kukhulunywa
kukhulunywe
kukhunjulwa
kukhunjulwe
kukhuphuka
kukhuthaza
kukhuthazwa
kukhuthazwe
kukodwa
kukuhle
kukwenza
kula
kulaba
kulabo
kulalelwa
kulandela
kulandelana
kulandele
kulandelwa
kulandelwe
kulandisa
kulandwe
kulapho
kulashwa
kulawa
kulawo
kulayini
kule
kuledolobha
kulele
kuleli
kulelo
kulemicimbi
kulendawo
kulenyuvesi
kulesi
kulesifunda
kulesifundazwe
kuleso
kulethe
kuleyo
kuleyofilimu
kuleyondawo
kulezi
kulezo
kuligi
kulimala
kulimaza
kulimaze
kulindeleke
kulindelwe
kulingana
kulinganiselwa
kulinganiselwe
kulinganiswa
kulo
kulokho
kulokhu
kuloki
kulolo
kulolu
kulomkhakha
kulomuzi
kulona
kulondolozwe
kulotshiwe
kulowo
kuluhlaza
kulula
kulungile
kulungisa
kulungiswa
kulusizo
kulwazi
kulwesihlanu
kulwezi
kuma
kumabakaki
kumabhayisikobho
kumabhizinisi
kumabhodi
kumabhokobhoko
kumabonakude
kumacrown
kumadivayisi
kumafilimu
kumafutha
kumagama
kumagazini
kumajenali
kumajor
kumajunior
kumakhasethi
kumakhasimende
kumakhulu
kumalungu
kumama
kumamiliyoni
kumamitha
kumamukeli
kumanani
kumanational
kumandela
kumandulo
kumanethiwekhi
kumaphephandaba
kumaphesenti
kumaphrojekthi
kumarekhodi
kumasayithi
kumasemishi
kumaserene
kumaseva
kumasevisi
kumashadi
kumasiko
kumasingana
kumasipala
kumasizini
kumasoseji
kumasulumane
kumathegi
kumathelevishini
kumathenda
kumathewu
kumatop
kumavidiyo
kumavolontiya
kumawebhusayithi
kumayelana
kumayunithi
kumayunivesithi
kumazulu
kumazwe
kumba
kumbala
kumbasa
kumbe
kumbhalo
kumbiko
kumbono
kumbusi
kumbuso
kumbuthano
kumchazampilo
kumchazandalo
kumchazazibalo
kumculi
kumculo
kumdali
kumdlali
kumdlalo
kumdlavuza
kumele
kumelwe
kumenyezelwa
kumeyi
kumfanekiso
kumfumfu
kumfundiso
kumgomo
kumhla
kumhlaba
kumhlaka
kumhlinzeki
kumholi
kumi
kumidlalo
kumikhiqizo
kumiswa
kumiswe
kumkhakha
kumkhandlu
kumkhankaso
kumkhathilibe
kumkhiqizo
kumklomelo
kumlamuli
kumlingani
kummeleli
kummeli
kumnandi
kumncintiswano
kumndeni
kumngane
kumngani
kumnikeli
kumnotho
kumnyango
kumonakalo
kumongameli
kumongo
kumormonism
kumoroni
kumose
kumoyambulunga
kumqhudelwano
kumqondo
kumsebenzisi
kumshwalense
kumsize
kumsuka
kumthambo
kumthetho
kumthethosisekelo
kumthondo
kumtv
kumuntu
kumuvhango
kumyeni
kumzabalazo
kumzansi
kun
kuna
kunabantu
kunabanye
kunabesifazane
kunabesilisa
kunabo
kunakho
kunakuqala
kunalapho
kunalawo
kunaleyo
kunalezo
kunalokho
kunama
kunamadoda
kunamagama
kunamahlebezi
kunamanye
kunandi
kunanoma
kunasesimweni
kunational
kunawo
kunayo
kunazo
kunazozonke
kuncane
kuncike
kunciphisa
kunciphise
kuncishisiwe
kuncishiswa
kunconywa
kunconywe
kuncwaba
kundasa
kune
kunemibono
kuneminyaka
kuneminye
kunemiphumela
kunempikiswano
kunempumalanga
kunenani
kunendaba
kunene
kunengozi
kunengxabano
kunenkolelo
kunenye
kunesidingo
kunesiphoqi
kunesithangami
kunesizathu
kunetechnical
kunetflix
kunethiwekhi
kunezici
kunezidingo
kunezifo
kunezifundo
kunezigaba
kuneziguli
kunezikole
kunezimbangela
kunezimo
kunezimpikiswano
kunezincazelo
kunezindawo
kunezindlela
kunezinhlobo
kunezinhlobonhlobo
kunezinketho
kunezinkinga
kunezinsolo
kunezinwele
kunezinye
kunezitolo
kunezono
kunga
kungaba
kungabalwa
kungabandakanya
kungabangela
kungabangelwa
kungabantu
kungabekwa
kungabhekiswa
kungabhekwa
kungabi
kungabikho
kungabizwa
kungabonakala
kungabonisa
kungabuye
kungacaci
kungachazwa
kungadala
kungadalwa
kungadlulela
kungafaka
kungafakwa
kungagcwala
kungagqokwa
kungahambelani
kungahle
kungahlolwa
kungahluka
kungahlukaniswa
kungaholela
kungakadluli
kungakapheli
kungakhathalekile
kungakhathaliseki
kungakhuphula
kungalandelwa
kungaletha
kungalimaza
kungama
kungamalungu
kunganciphisa
kungani
kunganqunywa
kungaphansi
kungasa
kungase
kungasebenza
kungasebenzi
kungasebenzisana
kungasetshenziselwa
kungasetshenziswa
kungashiwo
kungasho
kungashukumisa
kungasiza
kungathatha
kungathathwa
kungathinta
kungatholakala
kungavamile
kungavela
kungavimbela
kungavinjelwa
kungavumela
kungavunyelwa
kungavunyelwe
kungavusa
kungaziwa
kungcono
kungebona
kungehlisa
kungeke
kungekho
kungekudala
kungenakwenzeka
kungene
kungenjalo
kungenxa
kungenye
kungenza
kungenzeka
kungenzeki
kungenziwa
kungenziwanga
kungeyakho
kungeyona
kungezelwe
kungezona
kungobo
kungokomfanekiso
kungokwemvelo
kungokwesiko
kungowakwami
kungowesifazane
kungu
kungukubhoboza
kungukulimala
kungukuthi
kungukwehluka
kungumkhiqizo
kungumkhuba
kungumphumela
kungumqondo
kungumsebenzi
kungxenyekazi
kunhlaba
kunhlangulana
kunhlolanja
kunikeza
kunikeze
kunikezwe
kunina
kuningi
kunjalo
kunjulalwazi
kunkosikazi
kunkulumo
kunkulunkulu
kunobudlelwano
kunobufakazi
kunokuba
kunokuhlangana
kunokuhlasela
kunokungaqiniseki
kunokusebenzisa
kunokuthi
kunokuya
kunokuzixazulula
kunokwehla
kunoma
kunombolo
kunomehluko
kunomkhuba
kunomkhubulwane
kunomlando
kunomuntu
kunosawoti
kunotshezi
kunoveli
kunovemba
kunqunywa
kunqunywe
kunst
kuntulikazi
kunwetshwe
kunxande
kunyaka
kunyanya
kunye
kunyuka
kunyuke
kunzima
kunzululwazi
kuphakamisa
kuphakanyisiwe
kuphakathi
kuphakeme
kuphambene
kuphansi
kuphawuliwe
kuphawulwe
kuphazamisekile
kuphela
kuphele
kuphelile
kuphendula
kuphenyisiso
kuphethini
kuphi
kuphinde
kuphindwe
kuphula
kuphuma
kuphumele
kuphumelele
kupipi
kupope
kuqala
kuqale
kuqalwa
kuqalwe
kuqashelwe
kuqedwa
kuqedwe
kuqhakambiswa
kuqhamuke
kuqhathaniswa
kuqhubeka
kuqhubeke
kuqhutshwa
kuqinisekisa
kuqinisekiswe
kuqiniswa
kuqokwa
kuqokwe
kuqondile
kuqondwe
kuqubuka
kuqukethe
kurashi
kurdi
kurdistan
kure
kurfey
kurhwayanci
kuroda
kurpfalz
kurzprosa
kusabc
kusakazwa
kusanta
kusarafina
kusathane
kusayensi
kusayinwa
kusayithi
kusebenza
kusebenze
kusekela
kusekelwe
kusemthethweni
kusenesikhathi
kusengaphambili
kusenze
kusenziwa
kusethi
kusetshenziswa
kusetshenziswe
kusevisi
kusezinhlelweni
kusha
kushada
kushaft
kushavuot
kushicilelo
kushicilelwa
kushicilelwe
kushisa
kushiwo
kushiywe
kusho
kushona
kushone
kushumi
kusidingo
kusigaba
kusigcinamlando
kusigowet
kusihlwa
kusikhumbuza
kusikisela
kusiko
kusimulcast
kusisekelo
kusiteshi
kusiza
kusize
kusizini
kusmith
kuso
kusobala
kusolakala
kusolwa
kusouth
kusporttv
kust
kusuka
kusuke
kusukela
kusulumane
kusungulwa
kusungulwe
kusupersport
kususelwa
kususke
kususwa
kususwe
kutaye
kutcher
kutendwa
kuthambekela
kuthandwa
kuthatha
kuthathe
kuthathwa
kuthathwe
kuthe
kuthebula
kuthelawayeka
kuthelevishini
kuthengiswa
kuthengwa
kuthenjiswe
kuthi
kuthina
kuthinta
kuthinte
kuthiwa
kuthiwe
kutholakala
kutholakale
kutholakele
kutholwa
kutholwe
kuthonywa
kuthoswa
kuthunyelwe
kuthuthukisa
kuthuthukiswa
kuthuthukiswe
kuthwala
kutisha
kutshalwa
kutshelwe
kutshengisa
kutsi
kutwitter
kuvalwa
kuvalwe
kuvame
kuvamile
kuvamise
kuvela
kuvele
kuveza
kuveze
kuvezwa
kuvezwe
kuvidiyo
kuvikelwe
kuvimba
kuvinjelwe
kuvukelwa
kuvulwa
kuvulwe
kuvumela
kuvumelana
kuvumele
kuvumelekile
kuvuna
kuvunyelwa
kuvunyelwe
kuvusa
kuvuswa
kuvuswe
kuwa
kuwe
kuwebhu
kuwebhusayithi
kuweishaupt
kuwo
kuwona
kuwuhlobo
kuwumdlali
kuwumkhuba
kuxazulule
kuxazululwe
kuxhakaxholo
kuxhumene
kuxoshwe
kuxoxwe
kuya
kuyababa
kuyabonakala
kuyacaca
kuyacasula
kuyadingeka
kuyafana
kuyahluka
kuyahlukahluka
kuyalahleka
kuyamthokozisa
kuyanconywa
kuyaphezulu
kuyaqabukela
kuyaqhubeka
kuyasetshenziswa
kuyashesha
kuyathembiswa
kuyatholakala
kuyavunywa
kuyaye
kuyaziwa
kuye
kuyefana
kuyehluka
kuyeka
kuyena
kuyenzeka
kuyi
kuyicala
kuyifilimu
kuyigugu
kuyilapho
kuyilayisi
kuyimanje
kuyimbangela
kuyimpikiswano
kuyimpoqo
kuyincwadi
kuyindima
kuyindlela
kuyingozi
kuyingxenye
kuyinkimbinkimbi
kuyinkinga
kuyinkomba
kuyinqubo
kuyinto
kuyinzuzo
kuyiqembu
kuyiqiniso
kuyise
kuyisenzo
kuyisibonakaliso
kuyisici
kuyisidingo
kuyisidlidlizi
kuyisifo
kuyisihloko
kuyisinengiso
kuyisitho
kuyisono
kuyivelakancane
kuyizithombe
kuyo
kuyolandwa
kuyona
kuza
kuzalwa
kuzanywa
kuze
kuzethameli
kuzibandlela
kuzinhlelo
kuzinkundla
kuzinqubo
kuziphatha
kuziphathimandla
kuziqu
kuzmanoski
kuzo
kuzoba
kuzobe
kuzodingeka
kuzodlula
kuzoholela
kuzokongeka
kuzokwenza
kuzokwenzeka
kuzona
kuzosibhebhethekisa
kuzovimbela
kuzuma
kuzungezohlelo
kuzungu
kuzwelonke
kw
kwa
kwaba
kwababhalisile
kwababhekele
kwabaculi
kwabadlali
kwabafileyo
kwabafundi
kwabahlali
kwabaholi
kwabakhona
kwabakwa
kwabalandeli
kwabalingani
kwabalingisi
kwabamhlophe
kwabamnyama
kwabancane
kwabanga
kwabangaphandle
kwabangela
kwabangewona
kwabangu
kwabaningi
kwabanjwa
kwabanqathuzi
kwabantu
kwabantwana
kwabanye
kwabaphenyisisi
kwabaphostoli
kwabase
kwabasebenza
kwabasebenzi
kwabasekorinte
kwabasendulo
kwabaseroma
kwabasha
kwabashadile
kwabathakathi
kwabathandi
kwabathengi
kwabaxhasi
kwabayishumi
kwabazali
kwabe
kwabefundisi
kwabesifazane
kwabesilisa
kwabezindaba
kwabhalwa
kwabikwa
kwabizwa
kwabo
kwabobulili
kwabomdabu
kwabomnyango
kwabonakala
kwabonwa
kwaboshwa
kwabulawayo
kwabuye
kwacaca
kwachazwa
kwadala
kwadalwa
kwadingeka
kwadukuza
kwafakelwa
kwafakwa
kwafika
kwafinyelela
kwagauteng
kwagcina
kwagxekwa
kwagxilwa
kwahamba
kwahlala
kwahlanganiswa
kwahlelwa
kwahlolisiswa
kwahlukaniswa
kwaholela
kwahuha
kwaito
kwakamuva
kwake
kwakha
kwakhala
kwakhe
kwakheka
kwakheke
kwakhethwa
kwakhishwa
kwakhiwa
kwakhiwe
kwakho
kwakhona
kwakhululwa
kwakuba
kwakucatshangwa
kwakudala
kwakudingeka
kwakufanele
kwakugcwele
kwakuhambisana
kwakuhlanganisa
kwakukhombisa
kwakukhona
kwakukhula
kwakumele
kwakunezinye
kwakungabantu
kwakungabesifazane
kwakungafanele
kwakungakaze
kwakungamampunge
kwakungcono
kwakungekho
kwakungekhona
kwakungelona
kwakungeyena
kwakungeyona
kwakungoba
kwakungokokuqala
kwakungu
kwakungujohann
kwakungumary
kwakungumasipala
kwakungumsebenzi
kwakungunkosikazi
kwakunjalo
kwakunzima
kwakuphakathi
kwakusemthethweni
kwakusetshenziswa
kwakushiwo
kwakusho
kwakususelwa
kwakuthandwa
kwakuthi
kwakuthiwa
kwakuvame
kwakuwuhlelo
kwakuwulimi
kwakuwumsebenzi
kwakuyi
kwakuyibaptist
kwakuyidolobha
kwakuyifilimu
kwakuyigama
kwakuyimbangela
kwakuyindawo
kwakuyinkosi
kwakuyinkulumo
kwakuyinto
kwakuyisenzo
kwakuyisifunda
kwakuyisifundazwe
kwakuyisiko
kwakuyisimo
kwakuyisinqumo
kwakuyisishayamthetho
kwakuyiyona
kwakuyizi
kwakuyizincwadi
kwakuyizindaba
kwakuzoba
kwakuzofinyelelwa
kwakuzokwenziwa
kwakwenza
kwakwenziwa
kwakwenziwe
kwala
kwalaba
kwalabo
kwalandela
kwalandelwa
kwalanga
kwalapho
kwalawa
kwale
kwaleli
kwalesi
kwaletha
kwaleyo
kwalezi
kwalezo
kwaliwa
kwalo
kwalokho
kwalokhu
kwalolu
kwalomcabango
kwalowo
kwama
kwamabandla
kwamabele
kwamabhange
kwamabhikawozi
kwamabhomu
kwamabhunu
kwamabili
kwamabuddha
kwamabutho
kwamacala
kwamadivayisi
kwamadoda
kwamadolobha
kwamafinyila
kwamafutha
kwamagama
kwamagatsha
kwamagciwane
kwamagugu
kwamahhala
kwamahlanu
kwamahlaya
kwamahlelo
kwamahomoni
kwamahora
kwamajuda
kwamakhala
kwamakhambi
kwamakhasi
kwamakhemikhali
kwamakholoni
kwamakhompyutha
kwamakhondomu
kwamakhono
kwamakhophi
kwamakhosikazi
kwamakhulu
kwamakilasi
kwamalahle
kwamalambu
kwamalayisense
kwamaloli
kwamalunga
kwamalungelo
kwamalungu
kwamamitha
kwamamormon
kwamanani
kwamandla
kwamane
kwamanethiwekhi
kwamangqamuzana
kwamanje
kwamanoveli
kwamanye
kwamanzi
kwamapasi
kwamaphekula
kwamaphesenti
kwamaphethini
kwamaphoyisa
kwamaphrojekthi
kwamaprotheni
kwamapulana
kwamaqembu
kwamaseli
kwamasemishi
kwamasende
kwamasheya
kwamashu
kwamashumi
kwamasiko
kwamasipala
kwamasizini
kwamasondo
kwamasonto
kwamasoseji
kwamasosha
kwamasu
kwamasulumane
kwamathambo
kwamathathu
kwamathebhu
kwamathenda
kwamathoyizi
kwamathumbu
kwamavesi
kwamavidiyo
kwamaxhoxho
kwamazinga
kwamazinyo
kwamazulu
kwamazwe
kwamazwi
kwamehlo
kwamenyezelwa
kwamenza
kwami
kwamiswa
kwamondi
kwamthethwa
kwamukelwa
kwamunye
kwanamuhla
kwanconywa
kwanda
kwande
kwandisa
kwandise
kwanezelwa
kwangama
kwangaphakathi
kwangaphambi
kwangaphambili
kwangaphambilini
kwangaphandle
kwangempela
kwangemva
kwangena
kwango
kwangu
kwanikeza
kwanikezwa
kwanoma
kwanongoma
kwansuku
kwanyusa
kwaphakade
kwaphawulwa
kwaphela
kwaphinde
kwaqala
kwaqalwa
kwaqeda
kwaqedwa
kwaqhamuka
kwaqhubeka
kwaqinisekisa
kwaqinisekiswa
kwaqiniswa
kwaqondana
kwaqondwa
kwaqoshwa
kwasabc
kwasakazeka
kwasakazwa
kwasala
kwasamhs
kwase
kwasebabiloni
kwasejapan
kwasekhaya
kwasekuqaleni
kwasekuthi
kwasemelika
kwasemgwaqweni
kwasendaweni
kwaseningizimu
kwasentshonalanga
kwasetshenziswa
kwashicilelwa
kwashintsha
kwasho
kwashona
kwasizwa
kwaso
kwasolwa
kwasolwandle
kwasungulwa
kwasusa
kwathatha
kwathathelwa
kwathathwa
kwathi
kwathiwa
kwatholakala
kwatholwa
kwathunyelwa
kwavalwa
kwavela
kwaveza
kwavezwa
kwavimbela
kwavotelwa
kwavula
kwavulwa
kwavumela
kwavunyelwa
kwavunyelwana
kwavunywa
kwavuzwa
kwawo
kwaxhosa
kwaxoxwa
kwaye
kwayenza
kwayi
kwayishumi
kwayisikhombisa
kwayo
kwaze
kwazise
kwaziwa
kwaziwe
kwazo
kwazulu
kwe
kwebagrut
kwebandla
kwebest
kwebhande
kwebhayibheli
kwebhilidi
kwebhizinisi
kwebhodi
kwebhokisi
kwebhomu
kwebhuloho
kwebrithani
kwecala
kwedatha
kwedijithali
kwedolobha
kwedolobhakazi
kwefilimu
kwefilosofi
kwefomu
kweformula
kwefreemasonry
kwegagasi
kwegama
kwegazi
kwegciwane
kwegesi
kwegolide
kwegunya
kwehla
kwehle
kwehlisa
kwehlise
kwehliswe
kwehlobo
kwehluka
kwehlukaniswa
kwehlukile
kwehora
kwejapan
kwejerusalema
kwejwabu
kwekhabhoni
kwekhanda
kwekhaya
kwekhefu
kwekholomu
kwekhomishana
kwekhomishini
kwekhompyutha
kwekhulu
kwekoloniyali
kwela
kwelakubo
kwelanga
kwelase
kwelashwa
kwelayisense
kwelayisensi
kwelebula
kwelebuli
kwelenovoemc
kwelesi
kwelilodwa
kwelinye
kwelithi
kwelizinga
kwelungu
kwemakethe
kwemali
kwemaphutsa
kwembewu
kwemboni
kwembula
kwembulunga
kwemfundo
kwemfuyo
kwemibhalo
kwemibhangqwana
kwemibhikisho
kwemibono
kwemibukiso
kwemibuso
kwemicrosoft
kwemidiya
kwemidlalo
kwemigomo
kwemigwaqo
kwemihlanu
kwemijondolo
kwemikhakha
kwemikhiqizo
kwemikhuba
kwemilenze
kwemindeni
kwemingcele
kwemininingo
kwemininingwane
kweminwe
kweminyaka
kweminyango
kweminye
kwemiphakathi
kwemiphumela
kwemisebenzi
kwemishado
kwemishini
kwemisindo
kwemisipha
kwemithambo
kwemithathu
kwemithetho
kwemithi
kwemithombo
kwemiyalo
kwemizamo
kwemizi
kwemizwa
kwemormonism
kwemoto
kwempahla
kwempi
kwempikiswano
kwempilo
kwempucuko
kwempumulo
kwemsm
kwemukelwa
kwemvelo
kwemvume
kwenandi
kwenani
kwenational
kwencazelo
kwencwadi
kwendaba
kwendabuko
kwendalo
kwendandatho
kwendawo
kwendebe
kwendima
kwendle
kwendlela
kwendlu
kwendoda
kwendodana
kwenduku
kwendunu
kwenefertiti
kweneng
kwenethiwekhi
kwengama
kwengamashumi
kwengane
kwenganekwane
kwengcindezi
kwengculaza
kwengezwa
kwengoma
kwengozi
kwengqalasizinda
kwengqondo
kwengu
kwenguxa
kwengxabano
kwengxenye
kwenhlabathi
kwenhlangano
kwenhlanzi
kwenhlekelele
kwenhliziyo
kwenineve
kweningi
kweningizimu
kwenjoloba
kwenkampani
kwenkantolo
kwenkanyezi
kwenkathi
kwenkokhelo
kwenkolo
kwenkontileka
kwenkosana
kwenkosazana
kwenkosi
kwenkululeko
kwenkulumo
kwenkulungwane
kwenkundla
kwenombolo
kwenqaba
kwenqubo
kwenqubomgomo
kwenqwaba
kwensimbi
kwentaba
kwentambo
kwentela
kwento
kwentsha
kwentuthuko
kwenu
kwenyama
kwenyanga
kwenye
kwenyoka
kwenza
kwenzalo
kwenzeka
kwenzekani
kwenzeke
kwenzelwa
kwenziwa
kwenziwe
kwepali
kwepenile
kwepenisi
kwephalamende
kwephephandaba
kwephethini
kwephiko
kwephulwe
kwepipi
kweprince
kwepulanga
kwepuleti
kweqembu
kweqiniso
kwerussia
kwesabatha
kwesabelomali
kwesakhiwo
kwesambulo
kwesandla
kwesango
kwesathelayithi
kwesayensi
kwesazi
kwesenzo
kweshaft
kweshell
kweshumi
kwesibalo
kwesibazi
kwesibeletho
kwesibhakela
kwesibhedlela
kwesibhunu
kwesibili
kwesibindi
kwesicelo
kwesici
kwesidingo
kwesidoda
kwesiduli
kwesidumbu
kwesifiso
kwesifo
kwesifuba
kwesifunda
kwesifundazwe
kwesifungo
kwesigaba
kwesigameko
kwesigamu
kwesigaxa
kwesigcawu
kwesigidi
kwesiginali
kwesigqi
kwesigwebo
kwesihloko
kwesikhashana
kwesikhathi
kwesikhumba
kwesikhungo
kwesiko
kwesikole
kwesikrini
kwesilisa
kwesimanje
kwesimemezelo
kwesimila
kwesimiso
kwesimo
kwesingisi
kwesinkwa
kwesinqumo
kwesintu
kwesinye
kwesipho
kwesiprofetho
kwesiqu
kwesisa
kwesisekelo
kwesisindo
kwesisodwa
kwesistimu
kwesisu
kwesitayela
kwesiteshi
kwesithathu
kwesithembu
kwesitho
kwesithunzi
kwesitimela
kwesitofu
kwesitolo
kwesitshalo
kwesivumelwano
kwesiyingi
kwesiyoni
kwesizathu
kwesizini
kwesizulu
kwesizwe
kweso
kwesobunxele
kwesodoma
kwesoftware
kwesohwe
kwesokudla
kwesokunxele
kwesonto
kwesoseji
kwesouth
kwesoweto
kwesta
kwethambo
kwethe
kwethelevishini
kwethempeli
kwethiphu
kwethoni
kwethu
kwethulwa
kwethulwe
kwethuna
kwetorah
kwevangeli
kwevidiyo
kweviki
kwewebhu
kwewebhusayithi
kwewwe
kweyodwa
kweza
kwezabasebenzi
kwezakhamizi
kwezakhi
kwezakhiwo
kwezamabhizinisi
kwezamasiko
kwezandla
kwezazi
kwezehlakalo
kwezemali
kwezembozo
kwezemfundo
kwezemidlalo
kwezempi
kwezempilo
kwezemvelo
kwezenhlalakahle
kwezenhlalo
kwezenkolo
kwezentengiselwano
kwezentengiso
kwezenzo
kwezepolitiki
kwezezibhangqiwe
kwezezimali
kwezezimboni
kwezi
kwezibalo
kwezibhamu
kwezibhedlela
kwezibonelelo
kwezicelo
kwezici
kwezicubu
kwezidakamizwa
kwezidingo
kwezifiso
kwezifo
kwezifundazwe
kwezifundo
kwezigaba
kwezigidi
kwezigidigidi
kwezigodi
kwezigqila
kweziguli
kwezigwegwe
kwezihlahla
kwezihlobo
kwezihloko
kwezihlwele
kwezikhalazo
kwezikhali
kwezikhathi
kwezikhulumi
kwezikole
kwezilimi
kwezilingo
kwezilwandle
kwezilwane
kwezimakethe
kwezimali
kwezimbabwe
kwezimboni
kwezimfihlakalo
kwezimilo
kwezimiso
kwezimo
kwezimonyo
kwezimoto
kwezimpahla
kwezimpawu
kwezimpi
kwezincwadi
kwezindaba
kwezindawo
kwezindinganiso
kwezindleko
kwezindlela
kwezindlovukazi
kwezindlu
kwezine
kwezinga
kwezingama
kwezingane
kwezinganekwane
kwezingelosi
kwezingoma
kwezingono
kwezingqalasizinda
kwezingqamuzana
kwezingqimba
kwezingu
kwezingxenye
kwezingxoxo
kwezinhlamvu
kwezinhlanga
kwezinhlangano
kwezinhlangothi
kwezinhlanu
kwezinhlanzi
kwezinhlelo
kwezinhlobo
kwezinhloso
kwezinhlwa
kwezinkanyezi
kwezinkinga
kwezinkolelo
kwezinkolo
kwezinkomo
kwezinkondlo
kwezinkulungwane
kwezinkunzi
kwezinqa
kwezinqubo
kwezinqubomgomo
kwezinqumo
kwezinsana
kwezinsimbi
kwezinsiza
kwezinsizakalo
kwezinsizwa
kwezinso
kwezinsolo
kwezinsuku
kwezintathu
kwezinto
kwezinwele
kwezinyanga
kwezinye
kwezinzwa
kwezinzwi
kweziqhingi
kweziqoshwa
kwezitabane
kwezitende
kweziteshi
kwezithembu
kwezitho
kwezithombe
kwezithununu
kwezithunywa
kwezitolo
kwezitshalo
kweziyi
kweziyishumi
kweziyisishiyagalolunye
kweziyisithupha
kwezizukulwane
kwezizwe
kwezobuchwepheshe
kwezobuciko
kwezobunhloli
kwezocansi
kwezohwebo
kwezokuphepha
kwezokuthutha
kwezokuthuthuthukiswa
kwezokuvakasha
kwezokuxhumana
kwezokwelapha
kwezokwelashwa
kwezolimo
kwezombusazwe
kwezomculo
kwezomhlaba
kwezomnotho
kwezomthetho
kwezono
kwezulu
kwezwe
kwezwi
kwi
kwibest
kwibritish
kwicala
kwideskithophu
kwidrama
kwifilimu
kwifilosofi
kwiformula
kwifox
kwigesi
kwihuman
kwikhabhinethi
kwikhomishana
kwikhomishini
kwikhonferense
kwikomiti
kwilikhwideshini
kwilu
kwilungu
kwimamelodi
kwimelika
kwimfundiso
kwimfundo
kwimibhalo
kwimibhikisho
kwimidiya
kwimidlalo
kwimikhiqizo
kwiminyaka
kwiminyango
kwimishini
kwimpilo
kwinani
kwinational
kwindawo
kwindebe
kwindlela
kwingoma
kwingxoxo
kwinhlangano
kwinkampani
kwinkomfa
kwinkulumo
kwinqubo
kwipan
kwiphotfoliyo
kwipremier
kwiprovinsi
kwirejista
kwiriphabhuliki
kwisakhile
kwisayensi
kwiseli
kwisi
kwisifo
kwisifundazwe
kwisiguli
kwisihlandla
kwisimo
kwisiqephu
kwisishayamthetho
kwisitayela
kwisivumelwano
kwisixazululo
kwisizini
kwisouth
kwitalmud
kwithe
kwivangeli
kwivarsity
kwivodacom
kwizakhiwo
kwizambulo
kwizembozo
kwizenzo
kwizihumusho
kwizikhulu
kwizikhundla
kwizinga
kwizinhlangano
kwizinhlelo
kwiziqu
kwizizalo
kwizwekazi
kyegegwa
kyenjojo
kyknet
kyku
kynodesme
kyo
kyotera
kyu
kzn
l
la
laan
laas
lab
laba
lababhali
labaculi
labadala
labadlali
labafana
labafileyo
labafuduki
labafundi
labaholi
labalandeli
labalindi
labalingani
labamba
labamhlophe
labaneminyaka
labangaphansi
labangcwele
labanikeza
labantu
labaphathi
labaphostoli
labasebenzi
labe
labekwa
label
labesifazane
labesilisa
labezindaba
labhujiswa
labia
labiaplasty
labiza
labizwa
labo
labonakala
labor
laboratories
laboratory
labour
labret
labuthakathaka
labuyiselwa
lac
lacela
lachapelle
lactase
lactose
laden
ladies
ladjel
ladl
ladlula
lado
laduma
lady
ladysmith
laevis
lafanako
lafika
lafinyelela
lafoo
lafto
laga
lagat
lagcina
laghouat
lagos
lagujwa
lagxekwa
lahlakazwa
lahlala
lahlangana
lahlanganiswa
lahluleka
lahmar
lahore
lai
laikipia
laing
lakamuva
lake
lakes
lakhdar
lakhe
lakhipha
lakhiwa
lakhiwe
lakho
lakhuluma
lakkhe
lakubo
lakuleli
lakwa
lakwazulu
lala
lalaba
lalabo
lalahla
lalawa
lale
lalela
laleli
lalesi
lalezi
laliba
lalibonisa
laligxeka
lalihlanganisa
laliholwa
lalilinganiselwa
lalinabantu
lalingama
lalingu
lalinokuqukethwe
lalisetshenziselwa
lalisho
lalivame
lalivela
lalivele
lalizihlela
lalo
lalowo
lama
lamabhasi
lamabuddha
lamabutho
lamacala
lamadigri
lamadoda
lamadolobha
lamafilimu
lamafutha
lamagama
lamagoli
lamahausa
lamahhovisi
lamahindu
lamahlelo
lamajuda
lamakatolika
lamakhaladi
lamakhatholika
lamakhomanisi
lamakomanisi
lamakrestu
lamakristu
lamalungelo
lamalungu
lamaluthela
lamandla
lamangisi
lamanje
lamantombazane
lamanye
lamanyuvesi
lamanzi
lamaphesente
lamaphoyisa
lamaprothestani
lamaqembu
lamaqhawe
lamareformed
lamaroma
lamashumi
lamasoseji
lamasosha
lamasouth
lamasulumane
lamathoyizi
lamavolontiya
lamavoti
lamawayini
lamaweseli
lamaxhosa
lamayunithi
lamaza
lamazulu
lamazwe
lamazwi
lambert
lame
lami
lamiswa
lamola
lamont
lamu
lana
lanamuhla
lancet
land
landa
landau
landing
landscapes
lane
lang
langa
langakwesokudla
langalibalele
langaphakathi
langaphambili
langaphambilini
langaphandle
lange
langempela
langemva
langenhoven
langesonto
langley
lango
language
languages
lanka
lanqoba
lanquma
lanxa
lap
lapha
laphinde
lapho
laptops
laqala
laqanjwa
laqeda
laqhamuka
laqhubeka
laqopha
lara
larbaa
larbi
large
larrington
larry
larson
larue
las
lase
lasebenza
lasebotswana
lasebrithani
lasebronville
lasechepalungu
lasecojutepeque
lasedenmark
lasefrance
lasegauteng
lasegeneseo
lasegeorgia
laseghanaian
lasegoli
lasejalimane
lasejalimani
lasejapan
lasejohannesburg
lasekapa
lasekhaya
lasekolishi
lasekorea
laselesotho
laseluthela
lasemelika
lasemexico
lasemfuleni
lasemlazi
lasemorocco
lasemosop
lasempumalanga
lasenatali
lasendiya
lasendlini
lasendulo
lasenew
lasenigeria
laseningizimu
lasentshonalanga
lasenyakatho
lasephakathi
lasepitoli
lasepitori
lasepresbyterian
laser
laserivonia
lasesalt
laseshayina
lasesihlabathini
lasesouth
lasesoweto
lasespain
lasest
laseswazini
lasesweden
laseswitzerland
lasethekwini
lasetogo
lasetshenziswa
lasetshile
laseturkey
lasevarsity
lasevietnam
lasewelkom
lasewestminster
lasewilhelmsbad
laseyurophu
lasezihlahleni
lasezimbabwe
lasezulwini
lashicilelwa
lashintsha
lashintshwa
lashiyelwa
laso
last
lasungulwa
lat
late
later
lateral
latex
lathatha
lathi
lathola
latholakala
latholwa
latin
latoyah
latter
laude
launch
launched
laura
lauren
lauri
lausanne
lavela
lavey
laveza
lavulwa
lavuma
law
lawa
lawina
lawler
lawo
lawrence
laws
lawyers
lay
laya
laye
layo
layperson
laze
laziwa
lazo
lb
lc
lct
lds
le
lead
leader
leaders
leadership
leading
league
learning
leaves
lebagaka
lebambatha
lebandla
lebanon
lebese
lebhethri
lebhizinisi
lebhodi
lebhokisi
lebhola
lebizo
leblack
lebo
lebutho
lecentral
lechiakh
lechibi
lecture
led
ledatha
ledijithali
ledivosi
ledolobha
ledumahadi
ledwaba
lee
leeane
left
leftarrow
leftrightarrow
leg
legacy
legal
legaleshewe
legat
legatsha
legciwane
legend
legendary
legends
legeneral
legislature
legumbi
lehe
lehigh
lehle
lehmann
leilani
leisure
lejaji
lejwabu
lekhabhinethi
lekhava
lekhilikithi
lekhomishini
lekilabhu
lekoma
lekomidi
lekota
lekovski
lekucabanga
lekwa
leli
lelidolobha
leligama
leliqembu
lelizwe
lelo
lelokishi
lelungu
lemali
lemangaung
lembede
lemboni
lembulwa
lemdc
lemeya
lemfundo
lemibuzo
lemicimbi
lemigulukudu
lemihlaba
lemikhiqizo
lemimoya
leminerval
leminyaka
lemithetho
lemmy
lemo
lemon
lempi
lempilo
lemvelo
lemvula
lena
lenani
lenational
lencasiselo
lencwadi
lendabuko
lendawo
lendebe
lendiza
lendlela
lendlovu
lendlu
lendoda
lenganekwane
lengilazi
lengqondo
lengulube
lengxenye
lenhlakanipho
lenhlangano
lenhlanzi
lenhliziyo
lenin
leningizimu
leninist
lenkambiso
lenkampani
lenkantolo
lenkathi
lenkohlakalo
lenkolo
lenkomo
lenkosi
lenkululeko
lenkulumo
lenkunzi
lennon
lenombolo
lenong
lenoveli
lenqubo
lens
lensindiso
lent
lento
lentsana
lentsha
lentuthuko
lenyama
lenyanga
lenye
lenyoka
lenyuka
lenza
lenze
lenzeka
lenziwa
lenziwe
lenzubawonga
lenzululwazi
leo
leon
leonard
leonardo
leone
leopards
lepapaya
lephalamende
lephepha
lepipi
leposi
leptopelis
lepulazi
leqembu
leqhawe
leqiniso
lerato
leregiment
lerole
leroyal
lerumo
les
lesa
lesandla
lesandulela
lesayensi
lesbi
lesbian
lesedi
lesekondari
leselula
lesenzo
leshumi
lesi
lesibili
lesidlaliso
lesidoda
lesifulentshi
lesifunda
lesifundazwe
lesigaba
lesigingci
lesigodi
lesigreki
lesigungu
lesiheberu
lesihlanu
lesihloko
lesikhathi
lesikhombisa
lesikhumba
lesikhumbuzo
lesikhundla
lesikhungo
lesikole
lesikwele
lesilatin
lesilatini
lesilayidi
lesilisa
lesilungu
lesilwane
lesimanje
lesimo
lesindebele
lesine
lesingisi
lesiqhingi
lesishayamthetho
lesishiyagalolunye
lesitayela
lesiteji
lesiteshi
lesithathu
lesitho
lesithupha
lesixhosa
lesizinda
lesizukulwane
lesizulu
lesizwe
leslie
lesnar
leso
lesonto
lesotho
lesouth
lessons
leswo
let
letalmud
letha
lethe
letheku
lethu
leting
letransvaal
letrent
letta
letter
letters
leur
levator
level
levels
levi
levin
levita
levitikusi
levy
lewis
lewundlu
lexicon
lexus
leyi
leyo
leyofilimu
leyomali
lez
lezakhamizi
lezazi
lezemfundo
lezempi
lezempilo
lezenkolo
lezepolitiki
lezezimali
lezi
lezibalo
lezibhamu
lezicubu
lezigelekeqe
lezihlobo
lezikhali
lezikhathi
lezikhundla
lezilimi
lezilwane
lezimbabwe
lezimemezelo
lezimoto
lezimpawu
lezincwadi
lezindaba
lezindawo
lezindiza
lezinelesi
lezingane
lezingubo
lezinhlanzi
lezinhlelo
lezinhlwa
lezinkanyezi
lezinkomo
lezinkondlo
lezinsimbi
lezinsizakalo
lezinsizwa
lezinto
lezinyanga
lezinyawo
lezinye
leziphili
lezisulu
leziteshi
lezithombe
lezitolo
lezitshalo
lezizwe
lezo
lezobunhloli
lezocansi
lezombusazwe
lezomthetho
lezotshwala
lezwe
lgbt
lgbtq
lh
li
lia
liam
liba
libaluleke
libambe
liban
libanos
libe
liben
liberal
liberation
liberia
liberty
libhalwe
libheke
libhekene
libhekisa
libhekisela
libhekisele
libhekisise
libhekwa
libhiya
libido
libika
libike
libizelwe
libizwa
liboleka
libonisa
libor
library
libu
libuye
libuyiselwe
libya
lica
licences
license
licensing
lichaza
lichazwe
lichen
lichume
liculo
lide
lidinga
lidlala
lidlula
lidlule
lidume
liebe
lieberson
liebesgedichte
lies
lieske
lieutenant
lif
lifa
lifaka
lifake
lifakwe
lifana
life
lifestyle
lifetime
lifihliwe
lifuna
lifundisa
liga
ligama
ligcina
ligcwele
ligeleze
light
lignin
ligujwa
ligxile
lihlala
lihlale
lihlanganisa
lihlanganiswe
lihlobene
lihlukaniswe
lihluleka
liholwa
lihoxiswe
lihumusha
lika
likabobby
likachris
likagwayi
likahulumeni
likajesu
likajoshua
likaknigge
likakristu
likamapulana
likamasipala
likamathewu
likamengameli
likamongameli
likamose
likanandi
likandunankulu
likangqongqoshe
likankulunkulu
likanobhala
likanobhutshuzwayo
likanomkhubulwane
likasathane
likasavoy
likasihlalo
likathishanhloko
likayise
likazwelonke
like
likely
likhaya
likhipha
likhiphe
likhiqize
likhishwe
likholelwa
likhomba
likhona
likhula
likhule
likhulu
likhuluma
likhuthaza
likhuthaze
likhuthazwe
likouala
likuphi
likwazi
lil
lila
lilahlekelwe
lilandela
lilandele
lilawulwa
lili
lilinganiselwa
lilinye
lilith
lilizela
lille
lillian
lilondolozwe
lilungiswe
limba
lime
limele
limelela
limemezele
limestone
limey
limi
limited
limmu
limpopo
lin
linabafundi
linabantu
linamalungu
linamaphethelo
lincane
lincike
lincoln
linda
lindela
lindi
line
linegrey
linemingcele
linencazelo
liner
lingaba
lingabhekisa
lingabhekisela
lingabuyiseki
lingacwilisa
lingafisi
lingamile
lingaphansi
lingaqukatha
lingase
lingasetshenziswa
lingasho
lingasungula
lingathola
lingelinye
lingene
lingenye
lings
lingu
lingubuciko
linguistics
lingumlutha
linikeza
linikeze
linikezwa
link
links
linnaeus
linqobe
linqume
linux
linye
linzima
lion
lionel
lions
liopolis
lip
liphakathi
liphansi
liphathelene
liphawula
liphefumulelwe
liphezulu
liphikisa
liphikisana
liphikise
liphinde
liphinyiselwe
lipped
lipstick
liqanjwe
liqede
liqhamuka
liqhubeka
liqine
liqinile
liquid
liqukethe
liquor
lira
lis
lisa
lisalwa
lisasetshenziswa
lisboa
lise
lisebenza
lisebenze
lisebenzisa
lisebenzise
lisendaweni
liseningizimu
lisetshenziselwa
lisetshenziswa
lisetshenziswe
lishaya
lishayeke
lishisa
lisho
lisikhumbuza
list
listening
lisu
lisuka
lisuke
lisungule
lisungulwe
lisusele
lisuselwa
lisuselwe
lisuswa
lit
literacy
literary
literature
literatures
lithanda
lithathe
lithathelwa
lithathwa
lithi
lithograph
lithola
litholakala
lithole
lithuanian
lithumele
lithwala
litoral
little
liu
livame
live
livela
livele
liver
livery
lives
livikela
living
livingstone
livumela
liwine
liwuhlobo
liwuphawu
liya
liyafana
liyahlukahluka
liyakhuphuka
liyakwazi
liyaqhubeka
liyasetshenziswa
liyasilahla
liyasuswa
liyazenqabela
liyazilahla
liye
liyenqaba
liyi
liyikhaya
liyinani
liyindawo
liyingxenye
liyinhlanganisela
liyinhlokodolobha
liyinhlwa
liyinsimbi
liyisilwane
liyisiqongo
liyizwe
lize
lizoba
lizokhula
lizolandela
lizwe
lizwekazi
ljude
ljupco
ll
llb
llc
lle
ller
lli
llm
lloyd
lmen
ln
lner
lo
lobandlululo
lobe
lobu
lobuchwe
lobuchwepheshe
lobuciko
lobudoda
lobudokotela
lobufakazi
lobugebengu
lobukhosi
lobukristu
lobulili
lobumsulwa
lobungqwangqwa
lobunikazi
lobuntatheli
lobunxele
lobunye
lobunzima
lobupristi
lobuqhawe
lobuqhebeqhebe
lobuso
local
locansi
location
lochwepheshe
lock
lockdown
loculo
locwaningo
lodge
lodlame
lodumo
lodwa
lofuzo
log
loga
logan
logic
login
logiya
logo
lohlamvu
lohlelo
lohlobo
lohowo
lohulumeni
lokho
lokhokho
lokhozi
lokhu
lokhuni
lokishi
loku
lokuba
lokubala
lokubambisana
lokubandlululwa
lokubhala
lokubheja
lokubhoboza
lokubhoma
lokubuka
lokubulala
lokubulawa
lokubusa
lokubuyisana
lokucabanga
lokuchibiyela
lokudakwa
lokudala
lokudla
lokudlala
lokudlalayo
lokudlwengula
lokufa
lokufaka
lokufuna
lokufunda
lokugcina
lokugcizelela
lokugoma
lokugqoka
lokuguqula
lokuhlakanipha
lokuhlala
lokuhlangana
lokuhlanganisa
lokuhlekisa
lokuhlela
lokuhlelelisa
lokuhlola
lokuhlonipha
lokuhlukaniswa
lokuhlukumeza
lokuhlukunyezwa
lokuhweba
lokuhwebelana
lokujeziswa
lokukhangisa
lokukhanya
lokukhiqiza
lokukhishwa
lokukhokha
lokukhonza
lokukhula
lokukhulelwa
lokukhuluma
lokukhwabanisa
lokuklinyeka
lokulahlekelwa
lokulala
lokulinganisa
lokulutha
lokulwa
lokulwela
lokumiswa
lokunakekelwa
lokundiza
lokungasebenzi
lokungena
lokungenelela
lokungezwani
lokuphatha
lokuphathwa
lokuphela
lokuphila
lokuphuka
lokuqala
lokuqalisa
lokuqamba
lokuqaqulula
lokuqeqesha
lokuqinisekisa
lokuqoka
lokuqonda
lokuqondisa
lokuqopha
lokuqukethwe
lokusabalalisa
lokusakaza
lokusebenza
lokusebenzisa
lokusebenzisana
lokushada
lokushaya
lokushintshwa
lokushisa
lokushisekela
lokushushisa
lokushushumbisa
lokusoka
lokuthatha
lokutheleleka
lokuthenga
lokuthengisa
lokuthengiswa
lokuthi
lokuthola
lokutholwa
lokuthuthukisa
lokuvikela
lokuvikelwa
lokuvota
lokuvukela
lokuvula
lokuvuselela
lokuwa
lokuwina
lokuwisa
lokuxazulula
lokuxhasa
lokuxhumana
lokuxoshwa
lokuxwayisa
lokuya
lokuzala
lokuzalwa
lokuzama
lokuzibophezela
lokuziphatha
lokuziqeqesha
lokuzivikela
lokuzivocavoca
lokuzwa
lokuzwana
lokwahlulela
lokwakha
lokwakhiwa
lokwaneliseka
lokwehlukanisa
lokwelashwa
lokwenqabela
lokwenza
lokwephula
lolimi
loliwe
lolo
lolu
loludaba
loluhlanga
loluhlobo
lolulimi
lolwandle
lolwazi
loma
lomami
lomasipala
lombardo
lombhalo
lombhede
lombhoxo
lombiko
lombono
lombukelo
lombukiso
lombuso
lomcalahle
lomchazazibalo
lomcimbi
lomculi
lomculo
lomdlalo
lomdwebo
lomfana
lomfazi
lomfowabo
lomfula
lomgogodla
lomgwaqo
lomhlaba
lomhlane
lomhlangano
lomholi
lomjaho
lomkayo
lomkhandlu
lomkhiqizo
lomkhonto
lomkhosi
lomkhuba
lomkhumbi
lomkhuzi
lomlahlankosi
lomlando
lomlilo
lomlingo
lomlomo
lomncintiswano
lomndeni
lomnikazi
lomnotho
lomnqakiswano
lomnyango
lomnyondo
lomoya
lomphakathi
lomqondo
lomsakazo
lomsebenzi
lomshado
lomsindo
lomtheshwana
lomthetho
lomthethosisekelo
lomthondo
lomuntu
lomunwe
lomunye
lomuthi
lomuzi
lomvikeli
lomzabalazo
lomzila
lomzimba
lomzulane
lona
londinium
london
loneliness
long
longaniza
longer
longganisa
longitudinal
longman
lonke
lontamolukhuni
lonyaka
loo
look
looks
loome
loop
loose
lop
lopez
lophiko
lopopayi
loqobo
lor
lorch
lord
lore
lorenz
lorenzo
lorum
los
loss
lost
losuku
lot
lothando
lothimba
lotho
lotshwala
lotus
lou
louetsi
louis
louisville
love
lovedale
loveland
loveshow
lovesounds
lovin
low
lower
lowesifazane
lowesilisa
lowezi
lowo
lowry
loxhoxho
loyo
lozakwethu
lozalo
lp
ltd
lu
lualaba
luanda
luapula
lubalulekile
lubandakanya
lube
lubhekwa
lubhekwe
lubizwa
lubone
lubonisa
lubricant
lubrication
lubumbashi
lubuye
lubuyela
lucas
lucia
luciano
lucky
lucutshungulwe
ludlala
ludlow
ludlulele
ludlulisa
lufana
lugasel
lugujwa
lugxile
luhlala
luhlale
luhlanganisa
luhlaza
luhlezi
luhlobene
luhlobo
luhlola
luhlose
luhlukanisa
lui
luijk
luis
luka
lukagwayi
lukahulumeni
lukajesu
lukakomisaruk
lukamandela
lukamandelbrot
lukamongameli
lukangqongqoshe
lukankulunkulu
lukanomkhubulwane
lukasathane
lukashaka
lukawonkewonke
lukazwelonke
lukhombisa
lukhombisile
lukhula
lukhululekile
lukhulunywa
lukhuni
lula
lulandelwe
lulwimi
lumayelana
lunchtime
lunda
lunga
lungaba
lungasetshenziswa
lungelo
lungisa
lungiselelo
lunikeza
lunikezwa
lunolimi
luphakamisa
luphela
luphethe
luphethwe
luphinde
lupus
luqala
luqale
luqhubeka
luqhutshwa
luqukethe
lusaka
lusakazwe
lusetshenziswa
lushintshele
lusithi
lusizo
lusukela
luther
lutheran
luthi
lutho
luthola
lutholakala
lutholakale
luthole
luthuli
lutuli
luv
luvame
luvela
luvele
luveza
luveze
luweero
luwumugqa
luxor
luxuria
luya
luyadingeka
luyafana
luyaqhubeka
luyatholakala
luye
luyinto
luzomelana
lv
lwa
lwaba
lwabafundi
lwabakwa
lwabantu
lwabasebenzi
lwabazongenela
lwabesifazane
lwabesilisa
lwabo
lwadlalwayo
lwagasel
lwaholela
lwakamuva
lwakha
lwakhe
lwakhiwa
lwakho
lwakwazi
lwaleli
lwalesi
lwalesimo
lwalezozifunda
lwalezozifundazwe
lwalo
lwalunenhloso
lwaluvame
lwama
lwamabanga
lwamadolobha
lwamafinyila
lwamafutha
lwamahhala
lwamahlaya
lwamajuda
lwamakhosi
lwamalayisense
lwamalungelo
lwamanani
lwamanje
lwamaphoyisa
lwamaqembu
lwamasiko
lwamasonto
lwamasoseji
lwamavidiyo
lwamazinga
lwamazulu
lwamazwe
lwami
lwamukelwa
lwanamuhla
lwangaphakathi
lwangaphambili
lwangaphambilini
lwangaphandle
lwangasese
lwangempela
lwangemuva
lwango
lwangomeyi
lwangomhla
lwaphakade
lwaphakamisa
lwaqala
lwaqhubeka
lwasakazwa
lwase
lwasebrithani
lwasebusuku
lwasekenya
lwasekhaya
lwasekuqaleni
lwasemelika
lwasendaweni
lwasenileb
lwaseningizimu
lwasentshonalanga
lwasesoweto
lwasezimbabwe
lwashicilelwa
lwasisuthu
lwaso
lwasolwandle
lwasungulwa
lwasusa
lwathatha
lwathola
lwatshelwa
lwavela
lwawo
lwaya
lwayo
lwazi
lwaziwa
lwaziwe
lwazo
lwe
lwebala
lwebele
lwebhizinisi
lwecala
lwediploma
lwedivayisi
lwedrama
lweforbes
lweforensiki
lwegama
lwegolden
lwegrand
lwegugu
lwekhorona
lwelanga
lwelekelela
lwemali
lwemfundo
lwemibala
lwemibhalo
lwemifino
lwemindeni
lwemininingo
lweminyaka
lwemisebenzi
lwempilo
lwemvelo
lwemvuselelo
lwenani
lwendaba
lwendabuko
lwendawo
lwendlu
lwendoda
lwendodakazi
lwendunu
lwenganekwane
lwengilazi
lwengo
lwenhlangano
lwenhlonzabuso
lwenkampani
lwenkolo
lwenkosi
lwenkululeko
lwenqolobane
lwentando
lwentengiso
lwento
lwentsha
lwenyanga
lwenza
lwenzeka
lwenziwa
lwenziwe
lwenzululwazi
lwephethini
lweqembu
lweqiniso
lwesandla
lwesayensi
lweshumi
lwesi
lwesibalo
lwesibantu
lwesibhedlela
lwesibhunu
lwesibili
lwesicikizi
lwesidlo
lwesifo
lwesifulentshi
lwesifunda
lwesifundazwe
lwesigodi
lwesihausa
lwesiheberu
lwesihlahla
lwesihlanu
lwesijalimane
lwesikhathi
lwesikole
lwesilatini
lwesimo
lwesindebele
lwesine
lwesingisi
lwesinguni
lwesishayina
lwesisu
lwesiteshi
lwesithathu
lwesithelo
lwesithende
lwesitho
lwesitsonga
lwesitumbuka
lwesiturkic
lwesixhosa
lwesiyoruba
lwesizulu
lwesizwe
lwesobunxele
lwesokudla
lwesokunene
lwesoseji
lwespanishi
lwethelevishini
lwethoni
lwethulwa
lwewebhu
lwezandla
lwezemfundo
lwezempi
lwezempilo
lwezenhlalo
lwezenzo
lwezepolitiki
lwezezibhangqiwe
lwezi
lwezibalo
lwezidakamizwa
lwezifunda
lwezifundazwe
lwezifundo
lwezigaba
lwezigidi
lwezihloko
lwezikolo
lwezilimi
lwezilwane
lwezimboni
lwezimpawu
lwezincwadi
lwezindaba
lwezindlela
lwezingane
lwezinganekwane
lwezingxoxo
lwezinhlanzi
lwezinhlelo
lwezinhlobo
lwezinkampani
lwezinkanyezi
lwezinkulumo
lwezinqumo
lwezinsuku
lwezinto
lwezinzwa
lweziteshi
lwezithombe
lwezithunywa
lwezitshalo
lwezocansi
lwezokuphepha
lwezokushushisa
lwezokuxhumana
lwezokwelapha
lwezolimo
lwezondlo
lwezwe
lyantonde
lydia
lydnevi
lyman
lymph
lymphangitis
lymphatics
lymphedema
lymphodema
lyndon
lynette
lynn
lynx
lyricist
lyrics
lysistemon
lysistrata
m
ma
maa
maarohanye
maasai
mabandla
mabaso
mabhida
mabi
mabili
mabuza
mac
macala
macedonia
machakos
machel
macheso
machi
machine
machte
mackerel
mackey
macmillan
macoba
macos
macron
macropus
maculatus
madagascar
madagasika
maddox
made
madher
madhi
madiba
madie
madikizela
madivayisi
madna
madoda
madonsela
madow
madrid
maduzane
maduze
madzhakandila
mae
maekel
maekelay
maeve
mafa
maffin
mafia
mafika
mafikeng
mafikizolo
mafojane
mafube
mag
magama
magashule
magazine
magazinebezuza
magazini
magciwane
mageba
magharibi
maghrib
magic
magna
magnesium
magnetic
magona
magotsi
magubane
magwaza
mah
maha
mahajanga
mahakala
mahalla
maharaj
mahatma
mahdia
mahdjoub
mahhala
mahi
mahikeng
mahlangu
mahlathini
mahmoud
mahogany
mahoney
mahoota
mahotella
mai
maichew
mail
maimane
main
maine
maint
maintenance
mairie
maite
maj
maji
majola
major
majora
majority
makamba
makaqalekiswe
make
makeba
makes
makgoba
makhlouf
makhoba
makhosi
makhura
making
makoni
makua
makueni
makwanyane
makwetla
mal
malabuyo
malah
malaki
malan
malanje
malaria
malawi
malaxiano
malaysia
malcolm
male
malegapuru
malema
malhac
mali
malima
malinga
malini
mall
mallawi
malorum
maltase
maltose
malu
malunga
malungelo
malusi
maluti
malwandla
mam
mama
mamba
mambazo
mame
mammalia
mammals
mammary
man
mana
manafwa
management
manager
manampotsy
manatsa
mancane
mandatory
mandela
mandeni
mandera
mandla
mandulo
mane
maneri
manga
mangaung
mangoro
mangosuthu
manhole
manhood
mania
manica
manicaland
maniema
manifesto
manila
manimba
maningi
manje
mann
manna
mannya
manor
manouba
manque
mans
mansion
manson
mansour
mansoura
mansourah
mansouriah
mantashe
mantegazza
mantombazane
manual
manuel
manufacture
manufacturing
many
manyara
manzala
manzi
manzini
mao
maouche
map
maphakathi
maphepha
maphorisa
maphumulo
maphutha
mapisa
maplandia
mapping
maps
mapulana
mapungubwe
maputo
maqembu
maqiniso
maqondana
maqondananabo
mar
mara
marabi
maradi
maragha
marakwet
marathi
marathon
marc
march
marchese
marconi
marek
margaret
marginalised
mari
maria
mariam
mariamna
mariannhill
marie
marilyn
marin
marinated
marine
marino
mario
marital
maritime
maritzburg
marj
marjan
marjorie
mark
market
marketing
markos
marks
marku
marmoratus
maroodi
maroon
marques
marquez
marriage
married
mars
marsa
marsabit
marseille
marsupial
marsupialia
marti
martial
martin
martins
marty
martyrology
marvel
marx
marxist
marxists
mary
maryknoll
maryland
masaba
masaka
masasi
mascara
masculinity
mase
masekela
masenate
masha
mashanhliziyo
mashi
mashinini
mashonaland
masikandi
masilela
masindi
masinga
masingana
masipa
masipala
masisi
mask
maskandi
maskew
masks
mason
masondo
masonic
masonto
mass
massachusetts
massacre
massager
master
masters
masuku
masvingo
matabeleland
matamir
matanzima
matareya
matasa
match
matches
mateelong
mateo
material
math
mathematical
mathematics
mathewu
mathieu
mathosa
mathrm
mathu
mathupha
matmar
matmata
matomela
matric
matrix
matrouh
matruh
matsiatra
matsunaga
matter
matthew
matthews
maurice
mauritius
mausoleum
maverick
mawas
max
maxeke
maximus
maxwell
may
maya
mayathula
maychew
mayelana
mayfair
mayflower
mayor
mayuge
mazar
mazinga
mazwai
mazwe
mb
mba
mbabane
mbale
mbali
mbalula
mbandela
mbane
mbanjwa
mbaqanga
mbarara
mbasa
mbatha
mbe
mbeki
mbete
mbeya
mbhalo
mbhangqwana
mbhashe
mbiko
mbili
mbira
mboa
mboleko
mbombela
mboni
mbono
mboweni
mbukiso
mbulu
mbumbulu
mc
mcbride
mccartney
mcclain
mcconkie
mccormick
mcdonald
mcdonnell
mcduck
mcgee
mcgraw
mcgregor
mcherga
mchunu
mcimbi
mckenna
mclaren
mcm
mcmahon
mcq
mcs
mculi
mculo
md
mda
mdaki
mdala
mdc
mdlali
mdlalo
mdlalose
mdletshe
mdr
mdu
me
mean
meaning
means
measure
meatus
mec
mecha
mechanics
mechanised
mechanized
mechraa
med
medal
medea
medenine
medes
media
medial
medical
medicine
medien
medieval
medina
mediouni
medium
medjez
meer
meet
meeting
megillot
megrahi
mehluko
meijer
mein
meiner
meinit
meintjes
mekor
mel
melaky
melanani
melh
melika
melilla
melliz
melton
member
members
meme
memorial
memory
memphis
men
mena
menabe
menards
mendes
mendler
menge
menia
meningitis
menouf
mental
menz
menzah
menzel
menzi
merane
mercury
mercy
merdes
meredith
merged
merguez
merit
merkel
meronym
merouane
merriam
mers
meru
meshi
messaa
messaoud
messenger
met
meta
metal
metastasis
metatarsal
metatarsus
metathronos
metekel
meteora
methanol
method
methodist
methyl
methylphenidate
metro
metropolitan
metto
mexican
mexico
meya
meyersdal
meyi
meyiwa
meyra
mezghiche
mezhenger
mf
mfanekiso
mfaz
mfumfu
mfumo
mfundiso
mfundo
mfushane
mg
mgomo
mgqolozana
mh
mhla
mhlaba
mhlaka
mhlangano
mhlawumbe
mhlongo
mhlophe
mi
miami
mibhalo
mibono
mibukiso
mibuso
mic
michael
michel
michelangelo
michelle
michigan
michiko
micimbi
mickey
micro
microformats
micropenis
microscopic
microsoft
mid
mida
middle
midir
midlalo
midlands
midnight
midoun
midrash
midvaal
mie
mier
mieso
migori
migos
migration
mika
mikhakha
mikhawulo
mikhiqizo
mikhuba
mikkey
mil
mila
milan
milburn
mile
miles
milf
milia
miliana
military
miliyino
miliyoni
milky
millbrae
millennial
millennium
miller
millet
million
mills
milos
milton
mime
mimi
mimoun
min
mina
minced
minch
mind
minder
mindset
mine
mines
mingcwabo
minh
minhas
mini
miniature
mining
miningi
minister
ministers
ministry
minitt
minn
minnesota
minor
minora
minority
mint
minute
minutes
minya
minyaka
miphakathi
miqulu
mir
mirab
miracle
miranda
miriam
mirimichi
miro
mirror
mis
misau
misebenzi
misery
misihairabwi
misipha
misoy
misraq
misraqawi
misrata
miss
missing
mission
missionaries
missionary
missouri
mistaken
mit
mite
mithetho
mithombo
mitigation
mitooma
mitosis
mitropolit
mittelalter
mityana
mixed
mixhaso
mixtape
mixtapes
miyazaki
mizan
mizwa
mj
mjini
mk
mkhakha
mkhambathini
mkhandlu
mkhankaso
mkhari
mkhiqizo
mkhize
mkhondo
mkhosi
mkhuba
mkhulu
mkhwanazi
mkhwebane
mklomelo
mkoani
mkuruva
ml
mlaba
mlambo
mlando
mlangeni
mlilo
mlindo
mlingisi
mls
mlungisi
mm
mnandi
mnangagwa
mncane
mncintiswano
mndeni
mnet
mngambi
mngomeni
mnguni
mngxitama
mnihla
mnikelo
mntwana
mnu
mnyama
mnyango
mnyele
mo
mobil
mobile
moc
mochta
mocratique
mode
model
modem
modern
modernization
modernizations
modifier
modise
module
moeketsi
moeti
mofokeng
mofutsanyana
mogoeng
moh
mohamad
mohamed
mohammad
mohato
mohlala
moiloa
moishe
moja
mokadem
mokgoro
mokhtar
mokonyane
mokotjo
mokrani
mol
molasses
molecule
molefe
molema
molluscs
molo
moloi
mombasa
moments
mommy
momoko
mompati
mon
mona
monaghan
monakali
monakalo
monastics
monastir
mondah
monde
monetary
money
mongala
mongameli
mongo
monica
monitoring
monkey
mono
monogamy
monogatari
monosaccharide
monosaccharides
monotheism
mons
monson
monte
monthly
months
montre
monufia
monument
moon
moonchild
moore
moosa
moral
morales
morddeich
morde
more
moreno
morens
moretna
morgan
mormon
mormonism
mormons
morning
morobe
morocco
morogo
morogoro
moroka
moronga
moroni
moroto
morphine
morphology
morra
morris
morrison
mortality
morton
mos
moscow
moseneke
moses
moshe
moshesh
moshi
mosiholiq
mosovce
mosque
mossambica
mossambicus
most
mostaganem
mota
mother
motile
motion
motlanthe
moto
motor
motorized
motorsports
mots
motsoaledi
motsoeneng
motto
mouchent
moulay
mount
mountain
mountaineers
mountains
mounted
mourad
mourouj
mouse
moussa
mouth
movement
movie
movies
moving
mowbray
moxico
moya
moyale
moyen
moyenne
moyo
mozambiki
mozambique
mp
mpa
mpahla
mpale
mpanda
mpande
mparanyana
mpatho
mphahlele
mpharanyana
mphathiswa
mpho
mphumela
mpi
mpigi
mpikiswano
mpilo
mpo
mpofana
mpofu
mposhi
mpp
mpuma
mpumalanga
mpumelelo
mpungose
mqhudelwano
mqondo
mr
mrbeast
mri
mrubata
ms
msakazi
msakazo
msds
msebenzi
msholozi
msinga
msm
msunduzi
mtc
mthatha
mthembu
mthetho
mthethosisekelo
mthethwa
mthokozisi
mthonjaneni
mthunzi
mtintso
mtn
mtshali
mtshengiseni
mtubatuba
mtv
mtwara
mu
mubarak
mubende
much
muchinga
mucosa
mucous
mudaytu
mude
mudug
muelleri
muffin
muffins
mufudza
mugabe
mughals
mugirango
muhammad
muhanga
muhle
muizenberg
mukherjee
mukono
mukwevho
mulilo
multi
multichoice
multidrug
multimedia
multiple
muluqo
mumbai
mumps
muni
munich
municipal
municipality
munteanu
muntu
munye
muramvya
murang
muranga
murasaki
murata
murder
murdered
murphy
murqub
murray
murzuq
musa
muscaria
muscle
muse
museum
museums
museveni
mushonga
music
musical
musician
musicians
musik
musina
musk
muslim
musoma
must
mustafa
mustang
musume
mut
mutai
mutant
mutasa
muti
mutilated
mutilation
mutual
muva
muyinga
muzi
muzsika
mvp
mvs
mvuyelwa
mwanza
mwaro
mwingi
mxenge
my
mya
myalelo
myalo
myers
myllyvirta
myocn
myspac
myspace
mystery
mystics
myths
mytv
mzabalazo
mzamo
mzansi
mzantsi
mzila
mzilikazi
mzimba
mzolo
mzungu
mzuzu
n
na
naa
naacp
naagin
naama
naamane
naanawa
naannoo
nababalulekile
nababambiqhaza
nababhali
nababulali
nabaculi
nabadala
nabadayisi
nabadidiyeli
nabadlali
nabafana
nabafarisi
nabafazi
nabafowabo
nabafundi
nabafundisi
nabahamba
nabahlabeleli
nabahlinzeki
nabahlukile
nabaholi
nabahwebi
nabakhiqizi
nabakwa
nabalandeli
nabalimi
nabalingani
nabalingisi
nabalingiswa
nabama
nabamhlophe
nabamnyama
nabangane
nabangani
nabangaphezu
nabangewona
nabangqingili
nabangu
nabanikazi
nabantu
nabanye
nabaphansi
nabaphathi
nabaphostoli
nabaprofethi
nabaqashi
nabase
nabasebenza
nabasebenzi
nabasebenzisi
nabasekeli
nabasekhanani
nabaseningizimu
nabasepoland
nabashadile
nabasizi
nabasunguli
nabathandi
nabazali
nabe
nabefundisi
nabenkampani
nabenzi
nabesifazane
nabesilisa
nabesimame
nabeul
nabezibhedlela
nabezindaba
nabezinye
nabo
nabobulili
nabomdabu
nabongameli
nabudlelwano
nabulungisa
nabulungiswa
nach
nacht
nacional
nada
nadsa
nahume
naicker
nairobi
naka
nakakhulu
nakancane
nakanjani
nakapiripirit
nakasongola
nakho
nakhona
nakhu
nako
naku
nakuba
nakubantu
nakuchungechunge
nakulabo
nakuluka
nakuma
nakumabonakude
nakumafilimu
nakumavidiyo
nakumlingani
nakuru
nakusaaf
nakuwo
nakuzo
nakuzwelonke
nakwabanye
nakwabashadile
nakwabezindaba
nakwamanye
nakwazulu
nakwe
nakweminye
nakweyabasekolose
nakwezinye
nakwezomthetho
nakwi
nakwifilimu
nakwinqunu
nakwisayensi
nala
nalaba
nalabo
nalapho
nalawa
nalawo
nale
naledi
naleli
nalesi
naleso
naleyo
nalezi
nalezifundazwe
nalezo
nalo
nalokho
nalokhu
nalolu
nalowo
nalut
nalutho
nam
nama
namabanga
namabele
namabhayisikobho
namabhizinisi
namabhodlela
namabhunu
namabutho
namacala
namadivayisi
namadodakazi
namadodana
namadolobha
namadolobhana
namadrama
namafasilithi
namafilimu
namafutha
namagama
namagatsha
namagciwane
namagugu
namahhovisi
namahlaya
namahlelo
namahloni
namahlumela
namaholidi
namahora
namajuda
namakhala
namakhaladi
namakhambi
namakhasi
namakhasimende
namakhemikhali
namakhemisi
namakhoba
namakholwa
namakhomanisi
namakhono
namakhosi
namakhosikazi
namakhulu
namakliniki
namakomidi
namakrestu
namalebula
namalunga
namalungelo
namalungu
namamartinists
namanani
namandebele
namandiya
namandla
namangisi
namanje
namanoveli
namantombazane
namantongomane
namanye
namanzi
namapasi
namaphakeji
namaphethelo
namaphethini
namaphoyisa
namaphrojekthi
namaphuzu
namaposi
namaprotheni
namaqabane
namaqabunga
namaqanda
namaqembu
namaqiniso
namarijini
namaroma
namasende
namasentimitha
namasevisi
namashanhliziyo
namashebhini
namashumi
namasiko
namasonto
namasoseji
namasosha
namassevisi
namasu
namasulumane
namatelenovelas
namatemu
namathambo
namathebulethi
namathoni
namathuba
namathuluzi
namathuna
namatshe
namatuareg
namavesi
namaweseli
namaxhoxho
namayingo
namayunithi
namayunivesithi
namaza
namazinga
namazinyo
namazulu
namazwe
nambili
name
named
namehlo
names
namhlanje
nami
namibe
namibhiya
namibia
nampula
namsoco
namuhla
namuntu
namutumba
nan
nanamuhla
nancy
nandi
nane
nangabantu
nangakwesokudla
nangama
nangapha
nangaphakathi
nangaphambi
nangaphandle
nangaphansi
nangaphezulu
nange
nangegama
nangekhono
nangemifanekiso
nangemithamo
nangemuva
nangemva
nangendlela
nangenxa
nangesikhathi
nangesingisi
nangesonto
nangezikhathi
nangezilimi
nangezimpelasonto
nangezinhlelo
nango
nangohlobo
nangokobulili
nangokomoya
nangokomzimba
nangokomzwelo
nangokuqondile
nangokuthi
nangokuzimela
nangokwengqondo
nangokwethula
nangonyaka
nanhlanu
nani
nanini
nanjengo
nanoma
nantathu
nanye
nap
nape
naphakade
naphakathi
naphansi
naphezu
naphezulu
narcotic
narok
narration
narrative
narratives
narrow
naruhito
nas
nasa
nasal
nascar
nase
nasebangladesh
nasebhayibhelini
nasebronville
nasebusheni
nasecanada
nasecentral
nasechad
naseco
naseduze
nasefranconia
nasegauteng
nasegoli
nasegumbini
nasehaoussa
nasekapa
nasekenya
nasekhaya
nasekufeni
nasekufundiseni
nasekuhlakuleleni
nasekukhulumeni
nasekulahlweni
nasekulimaleni
nasekupheleni
nasekuphumeni
nasekuqaleni
nasekusebenziseni
nasekusetshenzisweni
nasekuthuthukiseni
nasekuvikeleni
nasekuvikelweni
naselimpopo
nasemabhokisini
nasemakhaya
nasemakoloni
nasemandleni
nasemanzini
nasemasontweni
nasemazweni
nasemelika
nasemelkisedeki
nasemhlabeni
nasemicimbini
nasemikhosini
nasemishadweni
nasemphakathini
nasemphefumulweni
nasempumalanga
nasemsebenzini
nasemshinini
nasemunich
nasemva
nasemzimbeni
nasenamibia
nasendiya
nasenew
nasenigeria
naseningizimu
nasenkabeni
nasentshonalanga
nasenyakatho
nasephalamende
nasepuritan
naseqenjini
naserhodesia
naserussia
nasescottish
nasesherpa
nasesifundeni
nasesikhathini
nasesikoleni
nasesimweni
nasesithathu
nasesizindeni
nasest
naseswaziland
nasetanzania
nasethekwini
nasevajrayana
nasewoga
naseyurophu
nasezambia
nasezenzweni
nasezibhedlela
nasezifweni
nasezilwaneni
nasezimbabwe
nasezimbonini
nasezindaweni
nasezinganeni
nasezingeni
nasezingxenyeni
nasezinhlanganweni
nasezinhlwini
nasezintweni
nasezinyaweni
nasezinyonini
nasezitolo
nasezwenikazi
nasionale
nasir
naso
naspers
nasr
nassab
nasser
nat
natal
natalensis
natali
nath
nathan
nathaniel
nathi
nathori
nation
national
nationalisation
nationalism
nationalist
nations
nationwide
native
nato
natrun
natural
nature
naude
navigation
navy
nawe
nawo
nayar
naye
nayo
nazi
nazo
nba
nbc
nca
ncamashi
ncane
ncazelo
nchez
ncia
nciza
ncov
ncube
ncwaba
ncwadi
ncwane
nd
ndaba
ndasa
ndawo
ndawonye
ndawozonke
nde
ndebele
nden
nder
ndez
ndim
ndima
ndlambe
ndlela
ndlovu
ndlovukazi
ndoda
ndodana
ndombe
ndondo
ndtv
ndumiso
ndwandwe
ndwedwe
ne
neafrican
neafrika
neal
near
neave
nebandla
nebanga
nebbi
nebeghards
nebest
nebha
nebhalansi
nebhali
nebhande
nebhange
nebhayibheli
nebhendi
nebhodi
nebhola
nebig
neblack
nebloxcon
nebo
nebotswana
nebp
nebrithani
nebritish
nebronville
nebutho
nec
necala
necanada
necape
necash
necdet
nechina
necps
necrosis
nedatha
nedayimane
nedef
nediploma
nedlanzana
nedolobha
nedolobhakazi
nedstv
nedumela
nedynamos
need
needed
needham
needs
nefa
nefakhalthi
nefantasy
nefc
nefertiti
nefilimu
nefilosofi
nefomethi
nefomu
nefrance
nefreedom
nefungal
nefutho
neg
negagasi
negalelo
negama
negative
negauteng
negazi
negciwane
negesi
neglobecast
negold
negolden
negoli
negolide
negomora
negrito
negritos
negro
negumbi
negunya
nehemiya
neherzegovina
nehhovisi
nehlamvu
nehlazo
nehlelo
nehlo
nehlobo
nehoma
nehouston
nehru
nehwanzi
nehwelanga
neil
nejalimane
nejohannesburg
nejwabu
nek
neka
nekananci
nekerdon
neketuvim
nekhanda
nekhansela
nekhodi
nekhofi
nekhono
nekhulu
neking
nekomidi
nekusasa
nekutfutfuka
nekwazulu
nelanga
nelase
nelaveyan
neleeds
nelenhlalo
neleningrad
nelesi
nelinye
nelithi
nelizwe
nelokishi
nelson
nelspruit
nelunga
nelungelo
nelungu
nem
nemade
nemagazini
nemahabharata
nemali
nemamelodi
nemashonaland
nembewu
nembongi
nemboni
nemelika
nemephu
nemercedes
nemeya
nemfashini
nemfihlo
nemfundiso
nemfundo
nemibandela
nemibhalo
nemibhikisho
nemibiko
nemibono
nemibukiso
nemibuso
nemibuzo
nemicabango
nemicimbi
nemidlalo
nemidwebo
nemifanekiso
nemifino
nemigomo
nemigwaqo
nemijikelezo
nemijovo
nemikhakha
nemikhankaso
nemikhawulo
nemikhiqizo
nemikhosi
nemikhuba
nemikhumbi
nemiklamo
nemiklomelo
nemimoya
nemincintiswano
nemindeni
nemininingo
nemininingwane
neminyaka
neminyango
neminye
nemiphakathi
nemiphumela
nemiqulu
nemisakazo
nemisebentathu
nemisebenzi
nemishini
nemisindo
nemisipha
nemithambo
nemithelela
nemithetho
nemithi
nemithombo
nemithwalo
nemixube
nemiyonzi
nemizabalazo
nemizamo
nemizuzu
nemizwa
nemizwelo
nemolapo
nemormonism
nemoto
nemozambique
nempahla
nempekumpeku
nempendulo
nempepho
nempi
nempikiswano
nempilo
nempumalanga
nempumelelo
nempunga
nemvelaphi
nemvelo
nenamibia
nenani
nenational
nencazelo
nencwadi
nendaba
nendatshana
nendawo
nendebe
nendima
nendiya
nendlala
nendle
nendlela
nendlondlo
nendlovukazi
nendlu
nendlunkulu
nendlwana
nendoda
nendodakazi
nendodana
nendondo
nenduna
nene
nenethiwekhi
nenew
nengama
nengane
nenganekwane
nengaphakathi
nengaphandle
nengcebo
nengcindezelo
nengcindezi
nengculazi
nengcwele
nengoma
nengozi
nengqikithi
nengqondo
nengulube
nenguquko
nenguqulo
nengxenye
nengxoxo
nenhlalakahle
nenhlangano
nenhlanhla
nenhlanzeko
nenhlanzi
nenhlekelele
nenhliziyo
nenhloko
nenhlokodolobha
nenhlonipho
nenhloso
nenhlupheko
neniger
neningi
neningizimu
nenjabulo
nenjulalwazi
nenkambiso
nenkampani
nenkanuko
nenkatha
nenkathi
nenkazimulo
nenketho
nenkinga
nenkohlakalo
nenkolelo
nenkolo
[...]
