!
"
#
##0
##1
##10
##11
##12
##13
##14
##15
##16
##17
##18
##19
##2
##20
##21
##22
##23
##24
##25
##26
##27
##28
##29
##3
##30
##31
##32
##33
##34
##35
##36
##37
##38
##39
##4
##40
##41
##42
##43
##44
##45
##46
##47
##48
##49
##5
##50
##51
##52
##53
##54
##55
##56
##57
##58
##59
##6
##60
##61
##62
##63
##64
##65
##66
##67
##68
##69
##7
##70
##71
##72
##73
##74
##75
##76
##77
##78
##79
##8
##80
##81
##82
##83
##84
##85
##86
##87
##88
##89
##9
##90
##91
##92
##93
##94
##95
##96
##97
##98
##99
$
%
&
'
(
)
*
+
,
-
.
/
0
00
000
001
0032
01
013
0140
019
02
0294
03
04
05
06
07
08
09
1
10
100
1000
1002
1007
101
1016
102
103
1038
104
105
106
107
108
1080
109
1093
1097
11
110
1100
111
1111
112
113
1136
114
115
116
117
1177
118
1185
1186
119
12
120
1201
121
122
123
124
125
1254385523
126
127
128
129
13
130
13002
131
133
134
135
137
138
139
14
140
143
144
145
1453
146
1464
147
148
149
15
150
1500
151
1519
153
154
155
1550
156
157
158
1582
16
160
1600
161
162
163
1640
1645
165
1652
166
167
1674
1676
168
1680
17
170
1700
1707
171
172
173
174
1743
1745
175
1750
176
1763
177
178
1780
1781
1787
179
18
180
1800
1805
181
1816
182
1820
1823
1827
1828
1829
183
1830
1831
1832
1833
1834
1835
1836
1837
1838
1839
1840
1842
1843
1844
1845
1849
185
1850
1852
1856
1857
186
1860
1861
1863
1868
1870
1871
1872
1873
1874
1875
1876
1877
1878
1879
1880
1881
1883
1884
1885
1886
1887
1888
1889
1890
1891
1892
1893
1895
1896
1897
1898
1899
19
190
1900
1901
1902
1903
1904
1905
1906
1907
1908
1909
1910
1911
1912
1913
1914
1915
1916
1917
1918
1919
192
1920
1921
1922
1923
1924
1925
1926
1927
1928
1929
193
1930
1931
1932
1933
1934
1935
1936
1937
1938
1939
194
1940
1941
1942
1943
1944
1945
1946
1947
1948
1949
1950
1951
1952
1953
1954
1955
1956
1957
1958
1959
196
1960
1961
1962
1963
1964
1965
1966
1967
1968
1969
1970
1971
1972
1973
1974
1975
1976
1977
1978
1979
1980
1981
1982
1983
1984
1985
1986
1987
1988
1989
199
1990
1991
1992
1993
1994
1995
1996
1997
1998
1999
2
20
200
2000
2001
2002
2003
2004
2005
2006
2007
2008
2009
201
2010
2011
2012
2013
2014
2015
2016
2017
2018
2019
202
2020
2021
2022
203
205
209
21
210
211
213
215
217
219
22
220
225
226
229
2290
23
230
2307
231
238
24
240
24112015
243
245
24502140
246
25
250
252
253
256
257
26
260
261
268
27
270
271
275
277
279
28
280
285
287
29
290
292
3
30
300
303
305
306
309
30914047
31
311
313
315
319
32
320
321
322
324
325
327
329
33
330
333
34
340
343
344
346
348
35
350
352
36
360
365
368
369
37
370
375
38
380
39
4
40
400
402
405
407
41
410
413
414
415
42
420
425
429
43
430
433
439
44
448
45
450
452
46
47
470
471
473
48
480
481
48205
49
499
5
50
500
5000
501
51
517
52
53
530
54
540
544
55
552
56
57
58
587
59
5910
6
60
600
61
6109
62
620
6202613
63
64
65
66
67
6736
68
69
7
70
700
71
72
73
74
75
76
77
78
79
8
80
800
81
82
83
84
85
86
87
879602
88
89
9
90
900
91
92
93
94
95
96
97
978
9780199340378
9780621413885
979
98
99
:
;
<
=
>
?
@
[
\
]
^
_
`
a
aa
aafp
aarbakke
aaron
ab
aba
ababa
ababaleki
ababalelwa
ababalulekile
ababamba
ababambiqhaza
ababandakanyeka
ababehlala
ababekhona
ababesebenza
ababhala
ababhali
ababhalisile
ababhishobhi
ababili
ababizwa
ababoshwa
ababukeli
ababulali
ababulawa
ababusi
abacebile
abacha
abacula
abaculi
abacwaningi
abadala
abadidiyeli
abadla
abadlali
abadume
abadumile
abafakizicelo
abafana
abafayo
abafazi
abafika
abafileyo
abafowabo
abafuna
abafunda
abafundi
abagibeli
abaguquli
abagxeki
abahamba
abahlala
abahlali
abahlangabezana
abahlanganyeli
abahlanu
abahlaziyi
abahleli
abahlinzayo
abahlinzeki
abahloli
abahlukahlukene
abahlukene
abahluleli
abahola
abaholi
abahumushi
abake
abakhiqizi
abakhohlisi
abakholelwa
abakhomba
abakhona
abakhubazekile
abakhulu
abakhuluma
abakhuthele
abakwa
abakwazi
abala
abalahlekelwa
abalala
abalaleli
abalandela
abalandeli
abaleke
abalelwa
abalimi
abalinganayo
abalingani
abalinganiselwa
abalingisi
abalingiswa
abalobi
abalulekile
abalwa
abamangalelwa
abamba
abambalwa
abambe
abamele
abamhlophe
abamnyama
abampofu
abanamakhono
abanayo
abancane
abandakanya
abandayo
abane
abanegama
abanekhono
abaneminyaka
abanesifo
abanga
abangaba
abangama
abangamajuda
abangamakristu
abangamashumi
abangamasulumane
abangane
abangani
abangaphansi
abangaphezu
abangashadile
abangcwele
abangena
abangewona
abangochwepheshe
abangu
abanikazi
abanikeli
abaningana
abaningi
abanjalo
abanjengo
abansundu
abantu
abantulayo
abantwana
abanye
abaphakathi
abaphambili
abaphathi
abaphawulekayo
abaphenyi
abaphezulu
abaphikisana
abaphikisi
abaphila
abaphothule
abaphuma
abapristi
abaprofethi
abaqambi
abaqeqeshiwe
abaqondisi
abasafufusa
abasakazi
abasanda
abase
abasebancane
abasebasha
abasebenza
abasebenzi
abasebenzisa
abasebenzisi
abasekeli
abasezingeni
abasha
abashadile
abashayeli
abashona
abashonile
abasindile
abasolwa
abasunguli
abathanda
abathandana
abathandanayo
abathathu
abathathwa
abathengi
abathengisa
abathengisi
abathi
abathile
abathintekayo
abathola
abatholakala
abavamile
abavangeli
abavela
abavubukuli
abawu
abaya
abayi
abayishumi
abayisikhombisa
abayisithupha
abayizi
abayizigidi
abayizitabane
abayizithulu
abazali
abazalwa
abazalwane
abazama
abazimele
abazingeli
abaziwa
abaziwayo
abbe
abc
abdelkader
abderrahmane
abdul
abdullah
abe
abed
abefundisi
abehlukene
abeka
abeke
abekwa
abekwe
abel
abelaphi
abelungu
abenza
abenzi
abergele
aberrant
abesifazane
abesilisa
abesuthu
abezindaba
abezombusazwe
abhala
abhale
abhalwe
abheka
abhekane
abheke
abicah
abid
abigail
abim
abingdon
abiza
abizwa
abizwe
abo
abomdabu
abomndeni
abomvu
abona
abonakale
abone
abonisa
aborn
aboshwe
about
abraham
abrahama
abrahams
abraw
abs
absa
abstract
abu
abukho
abulawe
abuse
abuye
abuyele
abuyisele
abyei
ac
academia
academic
academy
acar
access
accessdate
accessed
accident
according
account
ace
acebile
acele
aces
achaza
achazwa
achievement
acid
acids
ackermans
acoustic
acquired
act
acting
action
active
activist
activities
actor
actress
acts
acun
acute
ad
ada
adale
adalwa
adam
adams
adamu
addi
addis
addison
address
adelaide
adi
adinga
adiyabo
adjumani
adlala
adlale
adlalele
adle
adlule
administratif
administration
administrative
adolescent
adolescents
adp
adrar
adriana
adult
adultery
adults
adume
adumile
advanced
adventure
adventures
advertising
advice
advocate
ae
af
afaka
afake
afakwa
afakwe
afana
afanayo
afar
afder
affairs
afghanistan
afika
afike
afinyelela
afinyelelwe
afl
aflou
afp
africa
african
africanist
africans
africaopendata
afrika
afrikaans
afrikaner
afrique
afrixalus
afro
afrobarometer
after
afuna
afunda
afunde
afundise
afza
ag
again
against
agast
agasti
agcina
agcine
agcinwe
agcwele
age
aged
agency
agricultural
agriculture
aguirre
agxile
ah
ahamba
ahambe
ahambisana
ahlala
ahlale
ahlangana
ahlangane
ahlanganisa
ahlanganisiwe
ahlanganiswa
ahlanganiswe
ahlanzekile
ahlelwe
ahlinzeka
ahlobene
ahlukahlukene
ahlukaniswa
ahlukaniswe
ahlukene
ahlukile
ahmad
ahmed
ahras
ahumushe
ai
aid
aids
ain
air
aircraft
aires
airey
airlines
airport
airways
ais
aisha
aissa
ajax
ajoyina
ajoyine
ajwayele
ajwayelekile
ak
aka
akakaze
akakwazi
akazange
ake
akekho
akha
akhawunti
akhdar
akhe
akhetha
akhethekile
akhethiwe
akhethwe
akhiphe
akhiqiza
akhiqizwa
akhishwe
akhiwa
akhiwe
akhokhe
akholelwa
akhomba
akhombisa
akhona
akhula
akhulela
akhuluma
akhulume
aklanyelwe
akucaci
akufanele
akukaze
akukho
akukhona
akulona
akumele
akunakwenzeka
akunjalo
akusho
akusikho
akusona
akuvamile
akuvumelekile
akuwona
akuyona
akuzange
akwazi
akwazulu
al
ala
alabo
alahlekelwe
alalele
alamein
alan
alandela
alandelayo
alandele
alaotra
alaska
albania
albert
alberta
albertina
albhamu
albie
albuginea
album
alchemy
aldai
ale
alebtong
alesi
alex
alexa
alexander
alexandra
alexandria
alfabhethi
alfred
alge
algeria
algiers
algorithm
algorithms
ali
alibhamu
alice
alikho
alinganiselwe
aljazeera
aljeriya
alkaloid
alkaloids
all
allafrica
allah
allan
alleged
allemande
allen
allergy
alliance
allied
allium
allmovie
allmusic
allocine
almora
alo
alone
alonso
alpha
alphabet
also
alt
altare
alternative
although
alto
aluhlaza
alukho
alula
alumni
alwa
am
ama
amabane
amabanga
amabarkapella
amabele
amabhaca
amabhande
amabhange
amabhasi
amabhayisikobho
amabhizinisi
amabhokisi
amabhola
amabhuku
amabhulukwe
amabhungane
amabhunu
amabi
amabili
amabizo
amabutho
amacala
amacebo
amachembe
amachwe
amaconsi
amaculo
amadala
amade
amadivayisi
amadlozi
amadoda
amadodakazi
amadodana
amadolo
amadolobha
amadrama
amadumbe
amafasitela
amafayela
amafilimu
amafomethi
amafomu
amafu
amafushane
amafutha
amagama
amagatsha
amagciwane
amagesi
amageza
amagoli
amagremu
amagu
amagugu
amahhashi
amahhovisi
amahlamvu
amahlandla
amahlanu
amahlathi
amahlaya
amahle
amahlelo
amahloni
amahora
amahubo
amajaji
amajalimane
amajikijolo
amajuda
amajwabu
amakamelo
amakati
amakha
amakhadi
amakhala
amakhaladi
amakhambi
amakhanda
amakhasi
amakhasimende
amakhaya
amakhekhe
amakheli
amakhemikhali
amakhilomitha
amakhodi
amakholomu
amakhomanisi
amakhompyutha
amakhondomu
amakhono
amakhonsathi
amakhophi
amakhosi
amakhosikazi
amakhowe
amakhulu
amakilasi
amakoloni
amakrestu
amakristu
amalahle
amalayisense
amalokishi
amalulwane
amalunga
amalungelo
amalungu
amaminerali
amamitha
amamodeli
amamormon
amampondo
amanani
amancane
amanda
amandebele
amandiya
amandla
amandwandwe
amane
amanethiwekhi
amanga
amangisi
amangqamuzana
amanguni
amaningana
amaningi
amanothi
amanoveli
amantombazane
amantongomane
amanyala
amanye
amanyuvesi
amanzi
amapayipi
amaphayona
amaphepha
amaphephandaba
amaphesenti
amaphethini
amaphiko
amaphilisi
amaphoyisa
amaphrojekthi
amaphupho
amaphutha
amaphuzu
amapiano
amaprotheni
amaprothestani
amaprovinsi
amapulatifomu
amapuleti
amaqabunga
amaqanda
amaqembu
amaqhawe
amaqhinga
amaqhuzu
amaqiniso
amaqoqo
amar
amarandi
amarekhodi
amaroma
amasampula
amaseli
amasende
amasentimitha
amaseva
amasha
amasheya
amashumi
amasi
amasiko
amasimpson
amasimu
amasistimu
amasondo
amasongo
amasonto
amasoseji
amasosha
amasu
amasulumane
amaswazi
amateletubby
amatende
amathambo
amathanga
amathani
amathathu
amathe
amathemba
amathikithi
amathole
amathoni
amathoyizi
amathuba
amathuluzi
amathumbu
amatilosi
amatoho
amatshe
amava
amavesi
amavidiyo
amaviki
amavithamini
amavolontiya
amavoti
amawashi
amawebhusayithi
amawikhethi
amaxhosa
amaxhoxho
amayunithi
amaza
amazambane
amazinga
amazinyo
amazon
amazuba
amazulu
amazwe
amazwi
ambalwa
ambassador
ambassadors
ambitiouz
ambrose
ame
amehlo
amelio
amendment
america
american
ameur
amhara
amhlophe
ami
amicus
amid
amir
amiret
amise
amnesty
amnyama
amolatar
among
amor
amoron
amos
amose
amp
ampallang
amra
amri
amrita
amsterdam
amukela
amukele
amuria
amuru
an
ana
anabantu
anal
analamanga
analanjirofo
analog
analysis
anama
anamafutha
anamandla
anamuhla
anamulenge
ananassa
anatomical
anatomy
anc
ancestry
ancient
ancwl
ancyl
and
anderson
andile
andre
andrea
andrefana
andrew
androgen
android
androy
andy
ane
anele
aneminyaka
anesthesia
angaba
angabantu
angabhekana
angabhekisa
angahle
angahluziwe
angakha
angakwazi
angama
angaphakathi
angaphandle
angaphansi
angaphezu
angaphezulu
angase
angasetshenziswa
angathola
angcolile
angeke
angel
angela
angeles
angena
angenalutho
angene
angenza
angenziwa
angikaze
angle
anglican
anglo
angola
angomakhelwane
angu
ani
anikeze
anikezwe
anilingus
animal
animated
animation
animators
anime
anjalo
anjenge
ankara
ann
anna
annaba
annals
anne
annie
annobo
announced
announces
annual
anosy
another
anqoba
anqobe
anseba
answer
antananarivo
antenna
anthony
anthropology
anti
antibiotic
anton
antonio
antsirabe
antsiranana
anus
any
anyanisi
aouf
aougrout
aoulef
aoun
ap
apac
apartheid
aphakathi
aphakeme
aphansi
aphekiwe
aphelele
aphesheya
aphethe
aphezulu
aphikisana
aphikisayo
aphilayo
aphile
aphili
aphinde
aphume
api
apozion
app
appeal
appendix
apple
application
applications
applique
appoints
approach
apps
apreli
april
aptera
apula
aqala
aqale
aqeda
aqede
aqhamuka
aqhubeka
aqhubeke
aqinile
aqinisekise
aqokwa
aqonde
aqondile
aquaculture
aquinas
aqukethe
ar
arab
arabhu
arabia
arabic
arada
aramu
arap
arch
archaeological
archaeology
archbishop
architect
architecture
archive
archived
archives
arctic
are
area
areas
argentina
argobba
argus
ari
ariana
arise
arish
arizona
armachiho
armagh
arme
armenia
armored
army
arnold
around
arous
arousal
arre
arrested
arris
arrows
ars
arsenal
arsi
art
arta
arterial
artery
arthroleptis
arthur
article
articlerender
articles
artid
artificial
artillery
artist
artiste
artists
arts
aru
arua
arusha
arzu
as
asa
asathuthuka
asbestos
ase
asebekhulile
asebenza
asebenzayo
asebenze
asebenzisa
asebenzise
asebrithani
asehlobo
asejalimane
asekapa
asekele
asekhaya
asele
asemaceleni
asemelika
asempumalanga
asemthethweni
asendaweni
asendiya
asendulo
aseningizimu
asentshonalanga
asenyakatho
aserussia
aseshayina
asetshenziselwa
asetshenziswa
asetshenziswe
aseturkey
aseyurophu
asezindaweni
asezingeni
asezweni
ash
ashade
ashisayo
ashiya
ashiye
asho
ashoka
asia
asian
asidi
asikho
asikwazi
asinazo
asiza
asla
asmara
aso
asosa
asp
aspx
assa
assault
assembly
assessment
associate
associated
association
assurance
astro
asuka
asuke
asukela
asungula
asungule
asuselwa
asuswe
aswan
asyut
at
ater
ath
athanda
athandana
athandwa
athatha
athathe
athe
athene
athengiswa
athi
athikhili
athikili
athile
athletes
athletic
athletics
athola
atholakala
atholakalayo
atholakale
athole
athomu
athumele
athuthukile
athuthukise
atlanta
atlantic
atlas
atm
atsimo
atsinanana
attitudes
au
audi
audio
august
augustine
aura
aureus
aus
austin
australia
australian
austria
author
authority
authors
autobiography
av
available
avame
avamile
avamise
avaratra
avela
avele
avenue
avikele
avk
avn
avume
avumela
avunyelwe
award
awards
away
awdal
aweil
awhum
awo
awukho
axillary
axon
aya
ayanda
ayatholakala
ayaye
ayaz
ayaziwa
aydın
aye
ayedlala
ayefundisa
ayehlala
ayekade
ayeke
ayenza
ayesebenza
ayesebenzisa
ayevame
ayi
ayibhala
ayifani
ayigugu
ayijwayelekile
ayikaze
ayikho
ayikwazi
ayilandi
ayilendi
ayinayo
ayinkimbinkimbi
ayisebenzi
ayishumi
ayisihlanu
ayisikhombisa
ayisikwele
ayisisekelo
ayisishiyagalolunye
ayisishiyagalombili
ayisithupha
ayiyona
ayizange
ayizi
ayizigidi
ayizilwane
ayo
ayoun
az
azalwa
azama
azame
azange
azania
azawad
azcona
aze
azerbaijan
azerbaijani
azeri
azi
azikho
azikwazi
azimele
azithola
azivamile
aziwa
aziwayo
aziwe
aziz
azo
aztec
azungeze
azzouz
b
ba
bab
baba
babamba
babambe
babanjwa
babantu
babe
babecabanga
babefuna
babehlala
babelana
babelane
babephethe
babevame
babhala
babheka
babhekana
babhekane
babheke
babhekwa
babika
babike
babiza
babizwa
babo
babona
babone
baboshwa
babuke
babulala
babumba
babuye
babuyela
baby
bacabanga
bacele
bach
bachaza
bachelor
back
background
bacteria
bacula
bad
badinga
badji
badlala
badlale
bafa
bafaka
bafana
bafika
bafinyelele
bafuna
bafunda
bafunde
bafundise
bagcina
bagcine
bagqoke
bagrut
bagweme
bagwetshwa
bagxile
baha
bahamba
bahambe
bahlala
bahlale
bahlangana
bahlanganisa
bahlanganyela
bahlanganyele
bahlela
bahlukana
bahlukanisa
baholi
bahr
bahri
bailey
bajwayele
bakahulumeni
bakazuma
bake
bakha
bakhe
bakhetha
bakhipha
bakhiphe
bakhishwa
bakho
bakholelwa
bakhomba
bakhona
bakhuluma
bakhulume
bakool
baku
bakuleli
bakwa
bakwazi
bakwenza
bala
baladiyah
baladiyat
balahlekelwa
balanitis
balanoposthitis
bale
balesifunda
ball
ballantyne
ballet
balls
balo
bama
bamagama
bamatende
bamazinyo
bamazuba
bamazwe
bambalwa
bami
bamukela
banaadir
banamuhla
band
bandla
bang
bangaba
bangalore
bangama
bangaphambi
bangaphambili
bangaphandle
bangase
bangasebenzisa
bangathola
bangempela
bangena
bangene
bangladesh
bango
bangu
banikela
banikele
banikeze
banikezwa
baningi
bank
banqobe
bantamweight
bantu
banyana
banza
banzi
baobab
baphikise
baphila
baphile
baphinde
baqala
baqale
baqhubeka
baqhubeke
baqoka
baqonde
baqukethe
bar
barbara
barbell
barcelona
barclays
bari
baringo
barka
barker
barraba
bas
basa
base
baseball
basebantu
basebenza
basebenze
basebenzisa
basebenzise
based
basegibhithe
basekhaya
basel
basemadolobheni
basemelika
basemjondolo
basempumalanga
basendiya
basendulo
basenigeria
baseningizimu
baseshayina
basesoweto
baseturkey
baseyurophu
basezimbabwe
bashada
basheshe
basho
basic
basikisela
basketball
baso
bass
basuke
basungula
bat
bathanda
bathatha
bathathe
bathe
bathenge
bathi
bathola
batholakala
bathole
batholwa
bathumele
bathunjwa
bathunyelwa
bathuthela
bathuthukise
batna
battalion
batter
battersby
battle
batuman
bavakashela
bavame
bavamise
bavela
bavele
bavie
bavunyelwe
bawo
baxoshwa
bay
baya
bayadh
bayakhuthazwa
bayakwazi
baye
bayeke
bayibhendi
bayo
bayoba
bayohlala
bazalwa
bazama
baze
bazi
baziwa
bazo
bazokwenza
bbc
bc
bce
bclr
bcn
be
beach
beagador
beagle
bean
bear
beatles
beaufort
beautiful
beauty
bebelokhu
bebhekene
bebonke
because
bechar
beck
become
becomes
bed
bedlala
bee
been
beetle
before
befuna
begazi
begin
beginning
beginnings
behamba
behavior
behaviors
beheira
behind
behlala
behlangana
behlise
bei
beida
being
bejaia
bekhetha
bekhula
bekhulu
bekhuluma
bekufanele
bekukhona
bel
belafonte
belief
believe
bell
bemibhalo
beminyaka
bemisipha
bempilo
bemvelo
ben
bench
bendabuko
bendawo
bendunu
benedict
benefits
benghazi
bengo
benguela
beni
benin
benishangul
benjamin
benkolo
benqaba
benqoba
bento
bentsha
benz
benza
benze
bephikisana
beqala
beqembu
beqhubeka
berber
berlin
bert
bese
besebenza
besebenzisa
besicikizi
besifazane
besifo
besigaba
besikhathi
besikole
besilisa
besimanje
besithathu
besitho
besizwe
besonto
bessem
best
besuka
bet
beta
bethi
bethola
bethu
bethula
betsiboka
better
between
bevela
bewayini
bey
beya
beyers
beyond
beza
bezama
bezempilo
bezenhlalakahle
bezenhlalo
bezenkolo
bezepolitiki
bezezimali
bezindaba
bezindawo
bezindiza
bezingoma
bezinhlanga
bezinkomo
bezinsizakalo
bezinsuku
bezinto
bezithombe
bezobuchwepheshe
bezocansi
bezokwelapha
bezomthetho
bezoziphatha
bezwe
bhala
bhande
bheka
bheki
bhekuzulu
bhengu
bhonsle
bhubhane
bhurundi
bi
bibcode
bibi
bible
bicarbonate
bicornis
bie
bieber
biel
biennale
big
biggest
bikho
biko
bilingual
bill
billboard
billion
bin
bingen
bio
biodiversity
biographical
biography
bioko
biological
biology
bir
bira
bird
birth
birthday
biscuit
bisexual
bishop
bishops
biskra
bit
biti
bizerte
bizo
bju
black
blackwell
blakely
blank
bleeker
blica
blida
bling
bliss
block
blockbuster
bloemfontein
blog
blogger
blogspot
blood
bloom
bloomberg
blue
blues
bluetooth
blum
bmj
bn
bo
board
bob
bobabili
bobby
bobulili
bobungqingili
bodwa
body
boeing
boeny
boerewors
bogota
bohlakahlisombulu
bohlelo
bokhokho
bokulwa
bokuqala
bokuthi
bokuthola
bokwaziswa
bollywood
bombuso
bomculo
bomdabu
bomdlalo
bomet
bomhlaba
bomlando
bomlilo
bomlomo
bomndeni
bomphakathi
bomshado
bomthondo
bomuntu
bomzimba
bona
bond
bone
bongo
bongolava
bonke
bonyaka
book
books
boom
booty
bordj
borg
born
bose
boshi
bosnia
boss
boston
bosuku
bot
both
botha
bots
botswana
bou
bouaghi
bouenza
boui
boumerde
bounce
boundaries
bourguiba
bouzid
bowl
box
boy
boys
boyz
bp
br
bra
braai
brahim
brain
branch
brand
brasil
braun
brazil
brazzaville
break
breast
breedekloof
brenda
brendan
breve
breviceps
brew
brian
brief
briefing
brigade
brigham
brighton
brikolo
bring
britain
britannica
british
britney
brive
broad
broadcast
broadcasting
broadway
brooks
brother
brothers
brown
bruce
bruno
bu
bubanza
bube
buchazwa
buddhism
buddhist
budget
buffalo
building
buildings
bujumbura
buka
bukajesu
bukankulunkulu
bukhoma
bulawayo
bulb
bull
bulldogs
bulletin
bulls
bullying
bungamakhilomitha
bungoma
bunny
buqamama
burden
bureau
burg
burger
buried
burke
burkina
burundi
bururi
bus
buschmann
bush
busi
busia
business
busisiwe
but
buthelezi
butler
butnan
butswana
butt
butterfly
buur
buvame
buye
buyisela
by
byu
c
ca
cabinda
cabinet
cabo
cacosternum
cafe
cairo
cala
cali
california
call
called
calligraphy
calories
cambridge
cameron
camp
campaign
campbell
campus
can
canada
canadian
cancer
canis
cankuzo
cannabidiol
cannabis
cannes
cannibals
cannon
canon
cape
capital
car
carbohydrate
carbon
carbonate
carbonic
carcharias
carcinoma
card
care
career
carl
carlos
carol
carolina
carota
carotene
carpenter
carrot
cartilage
cartoon
casa
case
cases
cash
casings
castle
castro
cat
catalog
category
catholic
cato
cattle
causa
cause
causes
cavernosa
cavernosum
cb
cbd
cbs
cc
cd
cda
cdc
cdf
cdm
cdot
ce
cel
cele
celebration
celebrity
celestial
cell
cellar
cells
cellulose
celtic
cemetery
cena
censo
census
center
centers
central
centre
centro
century
ceo
ceramic
ceratotherium
cesaro
cetshwayo
cf
cfd
cgi
cgp
ch
cha
chache
chain
chair
challenge
challenges
champion
champions
championship
championships
chan
chance
chancellor
change
changed
changing
channel
chapter
char
character
characteristics
charge
charles
charli
chart
charter
charts
chase
chat
che
cheaters
check
cheddar
chellala
chemical
chemistry
cheria
chess
chewa
chi
chicago
chief
chiefs
child
childhood
children
chile
chimurenga
china
chinese
chioukh
chip
chips
chiromantis
chlamydia
chlef
chocolate
choice
choir
chomsky
chordee
chorizo
chow
chows
chris
christ
christiaan
christian
christianity
christine
christmas
christopher
chromosome
chronicle
chronological
chung
chungechunge
church
churchofjesuschrist
ci
cia
cibitoke
cinci
cinema
cinematography
circle
circumcision
cishe
citation
citations
cite
cited
cities
citizen
city
citypopulation
civic
civil
ck
cl
class
classic
classical
classics
classification
clean
clear
clegg
click
climate
clinical
clinics
clinton
clitoral
clitoris
clitoromegaly
closed
cloudy
club
cluster
cm
cn
cnbc
cnn
co
coast
coco
cod
code
codesa
coetzee
coffee
cohen
coitus
cola
cold
collection
college
collins
colony
colour
columbia
com
comair
come
comedy
comfort
coming
command
commentary
commerce
commercial
commission
committee
common
commons
commonwealth
commun
communication
communications
communism
communist
community
compact
companion
company
comparative
comparison
competition
complete
complex
composer
compounds
compulsory
computational
computer
computing
con
concept
concepts
concert
concourt
condition
conference
conflict
congenital
congo
congress
connection
connor
consciousness
consequences
conservative
considered
consortium
constantine
constantinople
constituencies
constituency
constitution
constitutional
construction
consulting
consumer
contact
contemporary
content
contentdm
context
continental
contra
control
convention
cool
cop
copenhagen
copperbelt
copy
core
corner
corona
coronal
coronavirus
coronaviruses
corpora
corporate
corporation
corps
corpus
corresponding
corruption
cortex
cosafa
cosatu
cosmology
cosmos
costa
could
council
councils
countdown
counter
counties
countries
country
countryballs
county
coupage
courage
court
cov
covenants
covid
cow
coyote
cps
cpu
craig
crash
created
creates
creative
credit
creek
crest
crew
cricinfo
cricket
crime
crisis
critical
crosby
cross
crossover
crowley
crown
cruz
cry
crypto
cryptocurrency
cryptographic
cs
csa
ct
ctitle
ctv
cuando
cuanza
cubango
culo
cultivars
cultural
culture
cultures
cum
cunene
cunnilingus
cup
curiae
currency
current
curry
cuvette
cwaningo
cyprian
cyril
cytoplasm
czech
d
da
daba
dadoo
dagga
daily
dailymaverick
daimyo
dakahlia
dam
dame
damietta
damot
dan
dance
danger
daniel
danish
dar
darfur
dark
dartos
darwin
das
dassenhoek
data
database
date
dated
david
davidson
davies
davis
dawa
dawn
day
days
dba
dc
de
dead
deaf
deafsa
deal
dean
death
deaths
debate
debian
debre
debub
debut
dec
december
declaration
decoder
dee
deen
deep
deepin
default
defence
defense
defiance
define
defined
definition
definitivos
defla
degree
degrees
dehghani
del
delgado
delhi
delivery
delta
dem
demand
demirezer
democracy
democratic
democrats
demography
den
denies
dennis
density
department
dept
deputy
der
derby
dermatitis
derna
des
description
deseret
design
desire
desktop
desmond
destination
details
deutsche
deutschen
development
devices
dey
dhalaa
dhl
di
dia
diagnosis
dialogue
diamond
diana
diao
diary
diaspora
diceros
dictionary
did
die
died
dies
different
difficult
dig
digital
dikhil
dildo
dildos
dilk
dingane
diocese
dioxide
dipaleseng
diploma
dir
dire
direct
direction
director
directory
disaccharide
disaccharides
disambiguation
discography
discogs
discourses
discovery
discrete
discussion
disease
diseases
disemba
disk
disney
disorder
disorders
dispatch
dispatches
dispatchno
display
displaystyle
dissatisfied
distance
distribution
district
districts
distruction
diversity
division
dj
djd
djelfa
djellal
djibloho
djibouti
djillali
dkt
dl
dladla
dlame
dlamini
dna
do
dobie
doctor
doctrine
documentary
documents
dodoma
does
dog
dogs
doi
dollar
dolobha
dolobhakazi
dolphin
dolphins
domain
don
donald
doo
door
dorothy
dorsal
double
douglas
douzaine
down
downarrow
download
dr
draa
draft
dragon
drama
dramatic
drawings
dreamworks
dress
drive
driver
drug
drugs
drum
dsd
dstv
dtt
du
dube
due
duma
dumas
dumisani
duo
durban
during
dutch
duvalle
dvd
dwarf
dx
dynamics
dysfunction
dz
dzeliwe
e
ea
eafrika
eagle
eagles
eames
ear
early
earth
east
eastern
eat
eb
eba
ebala
ebaluleke
ebalulekile
ebambe
ebambekayo
ebandakanya
ebandleni
ebangeni
ebantwini
ebanzi
ebarraba
ebavaria
ebeka
ebekiwe
ebelgium
ebella
eberlin
ebese
ebethal
ebhadla
ebhala
ebhaliwe
ebhalwe
ebhange
ebhayibhelini
ebhekana
ebheke
ebhekene
ebhekise
ebhekwa
ebhentshini
ebhilidini
ebhizinisi
ebhizinisini
ebhodi
ebhodini
ebhokisini
ebhola
ebholeni
ebhurundi
ebikade
ebiza
ebizwa
ebloemfontein
ebola
ebomvu
ebonakala
ebonakalayo
eboshelwe
eboshiwe
eboshwe
eboston
ebotswana
ebrahim
ebrazil
ebrithani
ebritish
ebrooklyn
ebucayi
ebuchosheni
ebudlelwaneni
ebufakazini
ebuhlotsheni
ebujudeni
ebukhoma
ebukhoneni
ebukhosini
ebulala
ebumbene
ebuntwaneni
eburkina
ebusayo
ebusheni
ebusika
ebusuku
ebusweni
ebutswana
ebuya
ebuye
ebuyela
ec
ecabanga
ecacile
ecairo
ecaleni
ecalifornia
ecanada
ecansini
ecape
ecaphuna
ecaucasus
ecebile
eceleni
ecentral
echaza
echazwe
echibini
echicago
echile
echina
ecishe
ecolorado
economic
economics
economist
economy
ecuatorial
ecula
ecw
ecwaninga
ed
edala
edallas
eddie
edelhi
edemocratic
edene
edenmark
edgar
edijithali
edinburgh
edinga
edingekayo
edirne
edison
edit
editha
edition
editions
editor
editors
edits
edla
edlala
edlalela
edlula
edlule
edo
edolobhaneni
edolobheni
edonsa
eds
edu
education
educational
edume
edumile
edurban
eduzane
eduze
edward
edwards
edwin
ee
eextra
efaka
efakwe
efana
efanayo
efanele
efanelekile
efektri
efesu
eff
effect
effective
effects
efihliwe
efika
efilimini
efinland
efinyelela
efort
efrance
efree
efulethini
efuna
efunda
efundisa
egabhoni
egama
egameni
egatsheni
egauteng
egayiwe
egazi
egazini
egcina
egcizelela
egcwele
egeorgia
eghana
egibhithe
ego
egoli
egolide
egqamile
egqoke
egqumeni
egrahamstown
egrisi
egula
egumbini
eguqa
eguquliwe
egxile
egypt
ehamba
ehambisa
ehambisana
eharare
eharvard
ehawaii
ehhovisi
ehlala
ehlangana
ehlanganisa
ehlanganisiwe
ehlanganiswe
ehlangene
ehlathini
ehlelekile
ehlelwe
ehlezi
ehlobene
ehlobo
ehlonipha
ehlonishwayo
ehlose
ehlukahlukene
ehlukanisiwe
ehlukene
ehlukile
ehlulwa
ehola
eholwa
ehungary
ein
einstein
ejaculate
ejaculation
ejalimane
ejalimani
ejapan
ejele
ejensi
ejenti
ejerusalema
ejibhuthi
ejohannesburg
ejulile
ejwayele
ejwayelekile
ek
eka
ekamelweni
ekapa
ekatlehong
ekenya
ekhaleni
ekhanda
ekhangayo
ekhanyayo
ekhasini
ekhaya
ekhenya
ekhethekile
ekhethiwe
ekhipha
ekhiphe
ekhiqiza
ekhiqizwa
ekhiqizwe
ekhishwa
ekhishwe
ekhokhelwa
ekhokhelwayo
ekhomba
ekhombisa
ekhona
ekhoneni
ekhongo
ekhonjwe
ekhonsathini
ekhula
ekhulayo
ekhulelwe
ekhululekile
ekhuluma
ekhulwini
ekilasini
eking
ekirtland
eklanyelwe
ekolishi
ekomkhulu
eksodusi
eku
ekubeni
ekubhaleni
ekubukekeni
ekubulaweni
ekubunjweni
ekucabangeni
ekuchazeni
ekudalweni
ekude
ekudingisweni
ekudleni
ekufeni
ekufinyeleleni
ekufundeni
ekugcineni
ekuguqukeni
ekuguqulweni
ekuhambeni
ekuhlanganiseni
ekuhlaselweni
ekuhleleni
ekuhlolweni
ekuhumusheni
ekujuleni
ekukhanyeni
ekukhiqizeni
ekukhishweni
ekukhuleni
ekulandiseni
ekulimaleni
ekulingiseni
ekulweni
ekunciphiseni
ekungeneni
ekunqobeni
ekuphakameni
ekuphatheni
ekuphathweni
ekupheleni
ekuphenduleni
ekuqaleni
ekuqedeni
ekuqhubekeni
ekuqondeni
ekurhuleni
ekusakazeni
ekusakazweni
ekusebenzeni
ekusebenziseni
ekuseni
ekusetshenzisweni
ekushiseni
ekusokeni
ekusungulweni
ekutheni
ekutholeni
ekuthuthukiseni
ekuthuthukisweni
ekuvikeleni
ekuvuseleleni
ekuzalweni
ekuziphatheni
ekwakheni
ekwakhiweni
ekwandeni
ekwazi
ekwazulu
ekwelapheni
ekwelashweni
ekwenzeni
ekwindla
ekwisifundazwe
el
elaba
elabe
elabhalwa
elagos
elahlekile
elakhiwa
elakhiwe
elalibizwa
elaliholwa
elalisetshenziswa
elaliyiyugoslavia
elandani
elandela
elandelayo
elandelwa
elangeni
elapho
elase
elaseningizimu
elasungulwa
elatin
elawula
elaziwa
elaziwayo
elder
elected
election
elections
electoral
electric
electromagnetic
electron
electronic
electronics
elekthronikhi
elektroniki
elele
element
elementary
elements
elenza
elenziwa
elenziwe
elephant
elesotho
elgeyo
eli
elibalulekile
elibandakanya
elibanzi
eliberia
elibhekele
elibhiya
elibi
elibizwa
elibomvu
elibonakalayo
elibusayo
elichaza
elichazayo
elidala
elide
elidlala
elidume
elidumile
elif
elifana
elifanayo
elifanele
elifishane
elifushane
eligcwele
elihamba
elihlanganisa
elihlangene
elihle
elihlobene
elihlukile
eliholwa
elijwayelekile
elikhethekile
elikhethiwe
elikhona
elikhulu
elikhulukazi
elikhulukhulu
elikwazulu
elikwisifunda
elikwisifundazwe
elilandelayo
elilinganiselwe
elilodwa
eliluhlaza
elim
elimaphakathi
elimayelana
elimele
elimhlophe
elimnandi
elimnyama
elimpopo
elinabantu
elinamandla
elincane
elinemigqa
elinganiselwa
elingaphandle
elingaphansi
elingcono
elingcwatshiwe
elingcwele
elingisa
elingu
elinikeziwe
elinikezwe
eliningi
elinye
eliphakathi
eliphakeme
eliphambili
eliphansi
eliphelele
eliphethe
eliphezulu
eliphikisayo
eliqinile
eliqondile
eliqoshiwe
eliqukethe
elisabeth
elise
elisebenza
eliseduze
elisefuleyisitata
eliselimpopo
elisempumalanga
elisemthethweni
eliseningizimu
elisentshonalanga
elisenyakatho
elisesifundazweni
elisetshenziselwa
elisetshenziswa
elisezweni
elisha
elisho
elishumi
elisuka
elisuselwa
elite
elithambile
elithi
elithile
elivamile
elivela
eliyinhloko
eliyisifunda
eliyisiqongo
eliyisisekelo
elizabeth
elizimele
elizodlala
elizodlalela
elizwekazi
elliot
elliott
ellis
elmas
elokishini
elondon
elos
elsevier
elsie
eluhlaza
elula
elungile
elusaka
elvis
elwa
em
emabangeni
emadagasika
emadodeni
emadolobheni
emadrid
emagameni
emagatsheni
emagcekeni
emahlombe
emahoreni
emakethe
emakhaleni
emakhaya
emakhulwini
emalahleni
emalawi
emali
emalini
emalokishini
emampondweni
emandleni
emandulo
emanyuvesi
emanzini
emaphakathi
emaphashini
emapheleni
emaphethelweni
emaphoyiseni
emapulazini
emaqenjini
emashumini
emasikweni
emasimini
emasontweni
emassachusetts
emathempelini
emathuneni
emathunjini
emayelana
emazingeni
emazweni
embakasi
embalwa
embhalweni
embhedeni
embi
embikweni
embonini
embonweni
embu
embukisweni
embusweni
embuthweni
emc
emcabangweni
emcimbini
emculweni
emdlalweni
emedia
emedicine
emehlweni
emele
emelene
emelika
ememezela
emergency
emerging
emet
emexico
emfuleni
emfundisweni
emfundweni
emfushane
emgodini
emgudwini
emgungundlovu
emgwaqeni
emgwaqweni
emhlabathini
emhlabeni
emhlane
emhlanganweni
emhlophe
emi
emibhalweni
emibi
emibili
emibonweni
emicimbini
emidala
emiddle
emide
emidlalweni
emigqeni
emigwaqo
emigwaqweni
emihlanganweni
emihlanu
emihle
emijondolo
emikhakheni
emikhiqizweni
emikhubeni
emikhulu
emiklomelweni
emile
emily
emincane
emindenini
emine
emini
eminingana
eminingi
eminyaka
eminyakeni
eminye
emiphakathi
emiphakathini
emiqhudelwaneni
emir
emirates
emirog
emise
emisebenzi
emisebenzini
emisha
emissouri
emithanjeni
emithathu
emithethweni
emithini
emitholampilo
emithonjeni
emizamweni
emjahweni
emjondolo
emkhakheni
emkhandlwini
emkhankasweni
emkhathini
emlandweni
emlazi
emlonyeni
emma
emmanuel
emmerson
emmy
emnambithi
emnandi
emncintiswaneni
emndenini
emngceleni
emnothweni
emnyama
emnyango
emnyangweni
emorocco
emoscow
emotweni
emovies
emoyeni
emozambiki
emozambique
empeleni
emperor
emphakathini
empi
empilweni
empini
empire
employment
empowerment
empty
empuma
empumalanga
emqhudelwaneni
emsakazweni
emsamo
emsebenzini
emshadweni
emthanjeni
emthatha
emthethweni
emumbai
emuva
emva
emvelo
emvelweni
emzabalazweni
emzansi
emzantsi
emzimbeni
emzini
emzuliswaneni
en
enabantu
enamandla
enamibhiya
enamibia
enanini
enatal
enatali
enca
encane
encazelweni
encike
encwadini
encyclopaedia
encyclopedia
encyclopædia
end
endabeni
endabuko
endala
endaweni
endawo
ende
endenini
endimeni
endiya
endleleni
endlini
endodeni
endondeni
endulo
endunu
ene
enecala
enegama
eneminyaka
enempilo
energy
enesihloko
enetherlands
enew
enezingane
enezingoma
eng
engaba
engadini
engafanele
engafani
engahambisani
engahle
engajwayelekile
engakaze
engakwazi
engalungile
engama
engamashumi
enganeni
engaphandle
engaphansi
engapheli
engaphezu
engaphezulu
engaqondakali
engaqondile
engase
engashadile
engavamile
engazange
engaziwa
engcono
engcupheni
engcwele
engeke
engekho
engemihle
engemuva
engena
engenacala
engenayo
engenhla
engenzi
engeyona
engezansi
engilandi
engilazi
engineer
engineering
england
english
engokoqobo
engokwemvelo
engomeni
engomunye
engonyameni
engozini
engqondweni
engqungqutheleni
engu
engumholi
engumongameli
enguqulweni
engusihlalo
engxenyeni
engxoxweni
enhlangano
enhlanganweni
enhle
enhliziyweni
enhlokodolobha
enhlonhlweni
enhlwa
enigeria
enikeza
enikezela
enikezwa
enikezwe
eningi
eningizimu
enjalo
enjoloba
enkabazwe
enkabeni
enkampanini
enkandla
enkantolo
enkathini
enkazimulo
enkingeni
enkolo
enkolweni
enkonzweni
enkosini
enkulu
enkulukazi
enkulumweni
enkundleni
enlightenment
enoch
enophawu
enorth
enorway
enough
enqaba
enqabeni
enqubweni
enqunu
ensemble
ensign
ensimini
ensomi
entabeni
entanyeni
enter
enterprise
entertainment
entheogens
entry
entsha
entshonalanga
entwasahlobo
entweni
enugu
environment
environmental
enwetshiwe
enyakatho
enyama
enyameni
enyangeni
enye
enyuvesi
enza
enze
enzelwe
enzima
enziwa
enziwe
enzyme
ep
epakistan
eparis
ephakathi
ephakeme
ephalamende
ephambili
ephansi
ephathekayo
ephathelene
ephelele
ephenduka
ephendula
ephephandabeni
ephephile
ephethe
ephethwe
ephezulu
ephikisana
ephilayo
ephilippines
ephoqelelayo
ephreli
ephrintiwe
ephukile
ephuma
ephumelelayo
ephuzi
epic
epidemic
epidemiology
epigastric
episcopal
epitoli
epitori
eport
epreli
epukiro
epulazini
epune
eqa
eqala
eqale
eqanjiwe
eqeda
eqembu
eqenjini
eqhubeka
eqhubekayo
eqhutshwa
eqinile
eqinisekisiwe
eqinisweni
eqondile
eqondiswa
eqoqweni
eqoshwe
equator
equatoria
equity
equkethe
equran
er
era
erasmus
ereality
erectile
erhodes
eric
erik
eringini
eriphabhulikhi
eriphabliki
eritrea
ermelo
ernest
erobben
erogenous
eroma
erongo
erotic
erotica
eroyal
error
erussia
eruwanda
es
esa
esabe
esadl
esafunda
esake
esakhiwa
esakhiwe
esakhula
esalt
esan
esanda
esandleni
esanele
esangweni
esanikezwa
esaphila
esasilwa
esayina
esaziwa
esaziwayo
escotland
ese
esebenza
esebenzayo
esebenzela
esebenzisa
eseceleni
esedlule
eseduzane
eseduze
esekela
esekelwe
esekudingisweni
esekwe
esele
esemaphethelweni
esemncane
esempumalanga
esemqoka
esemthethweni
esemusha
eseneminyaka
esengeziwe
eseningizimu
esenqatshelwe
esentshonalanga
esenyakatho
esenza
esenziwa
esenziwe
esenzweni
eseqokwa
esethathe
esethulwe
esetshenziselwa
esetshenzisiwe
esetshenziswa
esetshenziswayo
esetshenziswe
eseyi
esezingeni
eshadile
eshadini
eshaya
eshayela
eshayina
esheshayo
eshicilelwe
eshintsha
eshiselweni
eshiya
esho
eshona
eshowe
eshumini
esi
esibalulekile
esibayeni
esibelethweni
esibhakabhakeni
esibhedlela
esibi
esibizwa
esibomvu
esibonakalayo
esibonwa
esibucayi
esibuhlungu
esibuthakathaka
esidala
eside
esidimeni
esidlangalaleni
esidliwayo
esidlule
esidume
esidumile
esifana
esifanayo
esifanele
esifishane
esifubeni
esifunda
esifundazwe
esifundazweni
esifundeni
esifundweni
esifushane
esigabeni
esigcwele
esigodini
esigodlweni
esigrekini
esigungwini
esigxile
esihamba
esihlahleni
esihlala
esihlalweni
esihle
esihloko
esihlokweni
esihlukile
esijwayelekile
esikalini
esikhaleni
esikhanyayo
esikhathi
esikhathini
esikhethekile
esikhishwe
esikhona
esikhulu
esikhulunywa
esikhumba
esikhundleni
esikhungweni
esikhunjeni
esikhwameni
esikole
esikoleni
esikrinini
esikwatini
esikwisifunda
esikwisifundazwe
esilandelayo
esilinganiselwe
esilula
esimaphakathi
esimeme
esimeni
esimhlophe
esimisweni
esimnyama
esimweni
esinamandla
esincane
esincelisayo
esindayo
esine
esingaba
esingajwayelekile
esingama
esingaphambili
esingaphandle
esingaphansi
esingaphezu
esingapore
esingaziwa
esingekho
esingemuva
esingena
esingezansi
esingisi
esingisini
esingu
esinikeza
esiningi
esinjalo
esintu
esinye
esiphakathi
esiphakeme
esiphansi
esiphathelene
esiphelele
esiphethe
esiphethwe
esiphezulu
esiphuthumayo
esiqeshini
esiqhingini
esiqhubekayo
esiqinile
esiqondile
esisakaza
esise
esisebenza
esisebenzayo
esiseduze
esisekelwe
esisekelweni
esisele
esisempumalanga
esisemthethweni
esiseningizimu
esisentshonalanga
esisenyakatho
esisetshenziselwa
esisetshenziswa
esisha
esishayamthetho
esisho
esisodwa
esisulu
esiswini
esitatimendeni
esiteji
esiteshini
esithambile
esithandwa
esithatha
esithelelanayo
esithi
esithile
esitholakala
esithweni
esitokisini
esitolo
esitsheni
esitshenziswa
esitumbuka
esivame
esivamile
esivela
esivele
esivelele
esivezwa
esivulekile
esivumela
esivumelwaneni
esivusa
esiyiminyaka
esiyindilinga
esiyingqayizivele
esiyinhloko
esiyisicaba
esiyisisekelo
esiza
esizayo
esizeni
esizimele
esizulu
esizulwini
esizwe
esizweni
eskom
esola
esomaliland
esomaliya
esonto
esontweni
esophiatown
esoteric
esouth
esouthern
esoweto
espain
espoo
esri
essay
est
establishment
estate
estati
este
esteri
esther
estiano
estimates
estuaire
esudan
esuka
esukela
esungulwe
eswatini
eswazini
eswelumuntu
esyn
et
etafuleni
etanzania
etc
etestamente
etestamenteni
etexas
ethabang
ethambile
ethanda
ethandana
ethandwa
ethandwayo
ethangeni
ethanzaniya
ethatha
ethathwa
ethathwe
ethe
ethekwini
ethempelini
ethengisa
ether
ethi
ethics
ethile
ethinta
ethiopia
ethize
ethnic
ethnobiology
ethnomedicine
ethola
etholakala
etholakalayo
etholwa
ethu
ethula
ethuneni
ethuniziya
ethuthukisa
ethuthukisiwe
etihad
etoonz
etranskei
etransvaal
etshwane
eturkey
etv
etymology
eu
euniversity
eurasia
euro
europa
europe
european
eva
evakashele
evaluation
evame
evamile
evans
eve
evela
evelele
evelyn
evening
event
events
ever
every
everyone
everything
eveza
evidence
evienna
evimbela
evod
evryburg
evula
evulekile
evumela
evundlile
evusa
ewashington
ewestern
ewits
ewn
ewuchungechunge
ewusizo
ex
example
excellence
exchange
exclusive
executive
exist
experience
experiences
express
external
extra
extraliga
eya
eyaba
eyabanjelwa
eyabe
eyabhalwa
eyabizwa
eyahlukahlukene
eyahlukene
eyaholela
eyake
eyakha
eyakhelwe
eyakhishwa
eyakhiwa
eyakhiwe
eyalandela
eyamukelekayo
eyamukelwa
eyandulela
eyanele
eyaqala
eyashicilelwa
eyasungulwa
eyayaziwa
eyayibizwa
eyayiholwa
eyayisebenza
eyayithi
eyaziwa
eyaziwayo
eye
eyedlule
eyedwa
eyehlukene
eyengeziwe
eyenza
eyenzeka
eyenzelwe
eyenziwa
eyenziwe
eyeqile
eyethulwe
eyi
eyikhulu
eyilungu
eyindilinga
eyingozi
eyingqayizivele
eyingxenye
eyinhloko
eyinkimbinkimbi
eyinkosi
eyinkulungwane
eyishumi
eyisikhombisa
eyisisekelo
eyisishiyagalolunye
eyisishiyagalombili
eyisishoshovu
eyisithupha
eyiyo
eyizinkulungwane
eyodwa
eyokuqala
eyomile
eyuganda
eyunivesithi
eyurobhu
eyurophu
eza
ezabe
ezahlukahlukene
ezahlukene
ezake
ezakha
ezakhelwe
ezakhiwe
ezakhiweni
ezalwa
ezama
ezambia
ezambiya
ezandleni
ezansi
ezayo
ezaziwa
ezaziwayo
eze
ezebiwe
ezedlule
ezehlukene
ezemfundo
ezemidlalo
ezempi
ezempilo
ezemvelo
ezengeziwe
ezenkolo
ezentengiselwano
ezenza
ezenzeka
ezenzelwe
ezenziwa
ezenziwe
ezenzweni
ezepolitiki
ezezimali
ezi
ezibaluleke
ezibalulekile
ezibandakanya
ezibandayo
ezibangela
ezibangelwa
ezibanzi
ezibhaliwe
ezibhalwe
ezibhedlela
ezibheke
ezibhekiswe
ezibhekwa
ezibiza
ezibizayo
ezibizwa
ezibomvu
ezibonakala
ezibonakalayo
ezibonisa
ezibucayi
ezibulalayo
ezicacile
ezichazwe
ezicini
ezidakayo
ezidayisa
ezidinga
ezidingekayo
ezidla
ezidliwayo
ezidlule
ezidumile
ezifakiwe
ezifakwe
ezifana
ezifanayo
ezifanele
ezifile
ezifuna
ezifunda
ezifundazweni
ezifundeni
ezifundweni
ezifuywayo
ezigabeni
ezigcwele
ezigidini
ezigodini
ezigxile
ezihamba
ezihambisana
ezihambisanayo
ezihlala
ezihlanganisa
ezihlanganisiwe
ezihlangene
ezihlelekile
ezihleliwe
ezihlobene
ezihlokweni
ezihlukahlukene
ezihlukene
ezihlukile
ezijwayele
ezijwayelekile
ezikhathini
ezikhethekile
ezikhethiwe
ezikhiqizwa
ezikhishwe
ezikhona
ezikhula
ezikhululekile
ezikhuluma
ezikhulunywa
ezikhundleni
ezikhungweni
ezikoleni
eziku
ezikude
ezikwazi
ezilandelayo
ezilawulwa
ezilimini
ezilula
eziluntinti
ezilwa
ezilwaneni
ezimakethe
ezimayini
ezimbabwe
ezimbalwa
ezimbi
ezimbili
ezimbonini
ezimele
ezimeni
ezimfishane
ezimfundisweni
ezimfushane
ezimisweni
ezimnyama
ezimpawu
ezimpilweni
ezimpini
ezimweni
ezinamandla
ezincane
ezincelisayo
ezincike
ezincwadini
ezindabeni
ezindala
ezindaweni
ezinde
ezindleleni
ezindlini
ezine
ezineminyaka
ezinezinyanga
ezingaba
ezingabizi
ezingafani
ezingajwayelekile
ezingama
ezingamanga
ezingamashumi
ezingane
ezinganekwaneni
ezinganeni
ezingangeni
ezingaphandle
ezingaphansi
ezingaphezu
ezingaphezulu
ezingase
ezingavamile
ezingavunyelwe
ezingcolile
ezingcwele
ezingekho
ezingeni
ezingezona
ezingokoqobo
ezingomeni
ezingqungqutheleni
ezingu
ezingxenyeni
ezingxoxweni
ezinhlakeni
ezinhlamvu
ezinhlanganweni
ezinhlanu
ezinhle
ezinhlelweni
ezinhlobonhlobo
ezinhlotsheni
ezinikezwe
eziningana
eziningi
ezinjalo
ezinjenge
ezinjengo
ezinkampanini
ezinkantolo
ezinkingeni
ezinkomeni
ezinkomo
ezinkulu
ezinkulungwane
ezinkundleni
ezinobungozi
ezinqala
ezinqeni
ezinso
ezinsuku
ezinsukwini
ezintabeni
ezintathu
ezinto
ezintsha
ezintweni
ezinyakazayo
ezinyangeni
ezinyaweni
ezinye
ezinze
ezinzima
eziphakathi
eziphakeme
eziphansi
eziphathelene
eziphathwayo
eziphawulekayo
eziphelele
eziphephile
eziphezulu
eziphikisana
eziphila
eziphilayo
eziphuthumayo
eziqanjiwe
eziqhakazayo
eziqhubekayo
eziqinile
eziqondene
eziqondile
eziqukethe
eziququdayo
ezisanda
ezise
ezisebenza
ezisebenzayo
ezisebenzisa
eziseduze
ezisekelwe
ezisele
ezisemadolobheni
ezisemqoka
ezisemthethweni
ezisencane
ezisenyakatho
ezisetshenziselwa
ezisetshenziswa
ezisetshenziswayo
ezisezingeni
ezishisayo
ezisiza
ezisogwini
ezisuka
ezisukela
ezisuselwa
eziswelumuntu
eziteshini
ezithambile
ezithandwa
ezithandwayo
ezithatha
ezithathelwana
ezithathwa
ezithelelanayo
ezithengiswayo
ezithi
ezithile
ezithinta
ezithintekayo
ezitholakala
ezitholwe
ezithombe
ezithombeni
ezithweni
ezitolo
ezitshalweni
ezivame
ezivamile
ezivela
ezivelele
ezivezwa
ezivimbela
ezivulekile
ezivusa
ezixubile
eziya
eziyi
eziyingozi
eziyingqayizivele
eziyinhloko
eziyinkimbinkimbi
eziyinkulungwane
eziyishumi
eziyisi
eziyisihlanu
eziyisikhombisa
eziyisisekelo
eziyisiseko
eziyisishiyagalolunye
eziyisishiyagalombili
eziyisithupha
eziyizi
eziyizigidi
eziyizinkulungwane
ezizayo
ezizimele
ezizinzile
ezizungeze
ezizungezile
ezizwe
ezizweni
ezobuchwepheshe
ezobuthununu
ezocansi
ezokuphepha
ezokuthutha
ezokuxhumana
ezokuzijabulisa
ezolimo
ezombangazwe
ezombusazwe
ezomnotho
ezra
ezulwini
ezungeze
ezwa
ezweni
ezwenikazi
ezwini
ezzouhour
f
fa
face
facebook
faces
fact
factbook
facto
factor
factors
facts
faculty
fair
faith
faiyum
fall
fallatio
falling
falls
false
fame
family
fantasy
fao
far
fare
farley
farm
farmer
fashion
faso
fassie
fast
fate
father
fatty
fbi
fc
fcgi
fda
fe
feat
feature
featured
features
feb
febhuwari
february
februwari
federal
federation
fedsaw
fela
fellatio
fellow
fellowship
female
fene
ferguson
fernandez
fernando
ferraz
fest
festival
feud
fever
fi
fiat
fiber
ficeb
fiction
field
fielding
fifa
fig
fight
fighters
figures
file
files
filimu
film
filmaffinity
films
filter
fin
final
finance
financial
findi
fine
finger
fire
first
fish
fishbase
fisher
fitovinany
five
flaccid
flag
flat
flavour
flight
florence
florida
flow
floyd
flu
fluid
flying
fm
focus
foie
folk
following
food
foot
football
footballer
for
forbes
force
forces
ford
foreign
forensic
foreplay
foreskin
forestier
form
formal
formation
former
formula
fort
forum
forward
foster
found
foundation
founder
four
fourchette
fourie
fourth
fowler
fox
fr
fra
fracture
framework
franc
france
francesco
franchise
francis
francisco
francois
frank
franklin
fraser
fraud
fred
frederick
free
freedom
freeman
freemasonry
french
frene
frenulum
frenum
fresh
friday
friends
frisian
frog
frogs
from
front
frot
frottage
fructopyranose
fructose
ft
fu
fuel
fuleyisitata
full
function
fund
funda
fundamentalist
fundamentalists
funding
funeral
further
futhi
future
futuresex
g
ga
gabe
gabhoni
gabon
gaelic
gafsa
gagasi
gait
galaxy
gale
galguduud
galilei
galileo
gallery
gama
gambela
gambling
game
games
gaming
gamma
gandhi
garci
gardee
garden
gardens
garissa
gary
gas
gasa
gash
gatsha
gauteng
gay
gaza
gazera
gb
gcina
gcis
gciwane
gcumisa
gcwensa
gdp
ge
gedo
geita
gen
gender
gene
general
generation
genesis
genesise
genetics
geneva
genital
geoffrey
geographic
geographical
geographies
geography
geohive
geopostcodes
george
georgia
geral
german
germany
gert
get
gets
getting
gezira
ghair
ghana
ghar
gharbi
gharbia
ghardai
ghazal
ghetto
gi
giant
gibhithe
gibraltar
gida
gift
gilber
gillian
gini
ginwala
girl
girls
gishu
gitega
given
giza
gl
glans
glass
global
globaldatalab
globaux
globe
globo
glory
glucose
gluteus
glycosidic
gmbh
gnome
gnu
go
goals
god
godi
godrich
goes
gofa
gold
goldberg
golden
golf
gondar
gonorrhea
gonza
good
goodwill
goodwin
google
gool
gordhan
gordon
goro
gospel
got
gov
govan
governance
government
governorates
governors
gpu
gqom
gr
graham
grammy
grand
grande
grant
grants
grave
great
greater
greco
greece
greek
green
grey
gross
ground
group
groups
growing
growth
grubb
gtunnel
gu
guard
guardian
guduru
guelma
guerilla
guezzam
gugulethu
guide
guild
guinea
guitar
gulf
gumede
gumuz
gutenberg
gwala
gwillim
h
ha
habib
habitac
habitat
had
haddada
hadjar
haffouz
hai
haifa
haiku
half
hall
ham
hamadia
hamba
hamed
hamilton
hamma
hammam
hand
handbook
hands
hani
hanks
hans
hansen
hanson
happy
hara
harare
harari
hard
hardap
harding
hardy
hare
harold
harris
harrison
harry
hart
harvard
harvey
harvnb
has
hassen
hassi
hat
hausa
haut
haute
have
having
hayaa
haß
hco
hd
hdi
hdr
he
head
headman
heads
healing
health
healthcare
healthy
heart
heaven
heavy
heavyweight
hebrew
heights
heiko
helena
hell
hellal
helm
help
hemisus
henri
henry
hepatitis
her
herald
herbert
here
heritage
hermann
hero
heroes
herzegovina
hhayi
hi
hidi
high
higher
highest
highway
hiiraan
hill
hills
him
hindi
hindu
hip
hiran
his
histo
historical
history
hit
hits
hiv
hl
hlaka
hlangana
hlanganisa
hlangothi
hle
hlela
hlelo
hlobo
hlongwa
hlu
ho
hockey
hoe
hoek
hogan
holbein
holdings
holide
holland
hollywood
hollywoodbets
holmes
holy
homa
home
homosexual
honey
hong
honor
honorary
honoris
honors
honours
hood
hop
hope
hopkins
hormone
horn
horo
horror
horse
hospital
hospitals
hot
hotel
hottest
house
housing
houston
how
however
hpv
htm
html
http
https
hu
huambo
hub
huddleston
hudson
huffington
hugh
hui
human
humanities
hunger
hunt
hunter
husband
hussein
hut
hvut
hybrid
hydie
hydrogen
hyomin
hyperolius
hypogonadism
hypolactasia
hypospadias
i
iaaf
iafrika
ian
iarlaithe
ib
iba
ibab
ibadan
ibafana
ibala
ibaluleke
ibamba
ibambe
ibanda
ibandakanya
ibandla
ibanga
ibangacuphi
ibanjelwe
ibarraba
ibe
ibeka
ibekwe
iben
ibeni
ibest
ibf
ibhalwe
ibhande
ibhange
ibhanoyi
ibhayibheli
ibhayisikili
ibhayisikobho
ibhayografa
ibheka
ibhekane
ibheke
ibhekene
ibhekisa
ibhekise
ibhekwa
ibhendi
ibheyili
ibhilidi
ibhizinisi
ibhodi
ibhodlela
ibhokisi
ibhola
ibhomu
ibhotela
ibhubesi
ibhuku
ibhuloho
ibhulukwe
ibika
ibikade
ibike
ibilokhu
ibinda
ibinzana
ibir
ibiza
ibizo
ibizwa
ibizwe
iblack
ibloemfontein
ibn
ibona
ibonakala
ibonwa
ibordj
ibou
ibreedekloof
ibritish
ibulala
ibutho
ibutswana
ibuye
ibuyiselwe
icala
icansi
icape
icapuchino
icasa
ice
icentral
ichaza
ichaze
ichazwa
ichazwe
ichembe
ichopho
ichwe
icishe
icon
icongress
icons
icu
iculo
icybatar
id
ida
idada
idaho
idala
idale
idar
idatha
ide
idebre
idemocratic
identity
idethi
idinga
idiot
idiploma
idivayisi
idiyoloji
idizayini
idlala
idlale
idlanzana
idle
idliwe
idlula
idolo
idolobha
idolobhakazi
idolobhana
idols
idraa
idrama
idstv
idube
idume
idumela
iduna
idunn
idutywa
idwala
idwi
ie
iebc
if
ifa
ifacebook
ifaka
ifake
ifakwe
ifana
ifane
ifasitela
ifc
ifektri
ifenisha
ifilimu
ifilosofi
ifinyelele
ifomethi
ifomu
ifonetiki
ifonoloji
ifp
ifsubst
ifulansi
ifuleyisitata
ifuna
ifundisa
igalelo
igalofu
igama
iganga
igatsha
igaul
igauteng
igazi
igciwane
igcizelela
igebe
igembe
igenerations
igesi
ighil
igibhithe
ignored
igolden
igoli
igolide
igrisi
igugu
igumbi
igundane
igunya
igxila
igxile
ihamba
ihammam
ihassi
ihaut
ihhashi
ihhohho
ihholo
ihhotela
ihhovisi
ihlala
ihlandla
ihlangana
ihlanganisa
ihlanganiswe
ihlasela
ihlaya
ihlelwe
ihlinzeka
ihlobene
ihlobo
ihlola
ihlose
ihlotshaniswa
ihlukaniswe
iholele
ihollywoodbets
iholwa
ihora
ihorombe
ihubo
ihwanzi
ihwelanga
ii
iii
ijaji
ijalimani
ijaphani
ijele
ijimma
ijuba
ijubane
ijusi
ijwabu
ijwayele
ikafr
ikaizer
ikajiado
ikakhulu
ikakhulukazi
ikalawa
ikamelo
ikapa
ikati
ikhala
ikhalenda
ikhambi
ikhanada
ikhanda
ikhansela
ikhartoum
ikhasi
ikhaya
ikhefu
ikhekhe
ikheli
ikhepi
ikhibhodi
ikhilikithi
ikhipha
ikhiphe
ikhiqiza
ikhiqize
ikhiqizwa
ikhishi
ikhishwa
ikhishwe
ikhodi
ikhofi
ikholelwa
ikhombisa
ikhomishana
ikhomishini
ikhompyutha
ikhona
ikhongo
ikhonjiswe
ikhono
ikhophi
ikhukhamba
ikhula
ikhulu
ikhuluma
ikhulume
ikhwalithi
ikilabhu
iking
ikisumu
ikitui
iklabhu
ikolishi
ikomidi
ikomkhulu
ikota
iksar
ikuphi
ikusasa
ikwazi
ikwazulu
il
ila
ilabhorethri
ilahlekelwe
ilandela
ilanga
ilapho
ilarbaa
ilatin
ilawu
ilawula
ilay
ilayisense
ilayisensi
ile
ileaseweb
ilebula
ilebuli
ilele
ilembe
ilesotho
iletha
ilia
iligdheere
iligi
ilimpopo
ilinganisela
ilitha
ilithuwaniya
ill
illinois
illizi
illuminati
illumine
illustrated
ilokishi
ilondon
ilu
iluanda
ilubombo
ilukuluku
ilunga
ilungelo
ilungu
im
image
images
imaging
imahdia
imahikeng
imakethe
imalakal
imalawi
imali
imalta
imaltose
imam
imamelodi
imandera
imani
imanzini
imashi
imasipala
imayini
imbali
imbangela
imbewu
imbobo
imbongi
imbongolo
imboni
imbozwe
imbulunga
imbuzi
imdb
ime
imele
imelika
imemezele
imenti
imenzel
imephu
imetro
imeya
imeyili
imfashini
imfezokade
imfihlo
imfucumfucu
imfundiso
imfundo
imfuyo
img
imi
imibala
imibandela
imibhalo
imibhangqwana
imibhikisho
imibiko
imibono
imibukiso
imibuso
imibuzo
imicabango
imicibisholo
imicimbi
imicrosoft
imidlalo
imidlwane
imidwebo
imifanekiso
imifino
imigcanso
imigomo
imigqa
imihlaba
imihlahlandlela
imihlambi
imihlangano
imikhakha
imikhiqizo
imikhosi
imikhuba
imikhumbi
imiklamo
imiklomelo
imilando
imilayezo
imile
imilenze
imilomo
imimoya
imincintiswano
imindeni
imingcele
iminikelo
imininingo
imininingwane
iminwe
iminyaka
iminyango
imiphakathi
imiphumela
imiqhudelwano
imiqondo
imiqulu
imirab
imisebe
imisebenzi
imishado
imishanguzo
imishini
imishumanqa
imisindo
imisipha
imisraq
imitapo
imithalakazi
imithambo
imithelela
imithetho
imithi
imithombo
imixube
imiyalelo
imiyalezo
imiyalo
imiyonzi
imizamo
imizi
imizila
imizimba
imizulane
imizuzu
imizuzwana
imizwa
imizwelo
imodeli
imormonism
imorocco
imoto
imount
imozambiki
imozambique
impact
impacts
impahla
impekumpeku
impela
impendulo
imperial
impesheni
impi
impikiswano
impilo
impisi
importance
important
impova
impucuko
impumalanga
impumelelo
impumulo
impungushe
imultichoice
imuphi
imvama
imvamisa
imvelaphi
imvelo
imvimba
imvu
imvubu
imvula
imvume
imzilikazi
in
inabantu
inama
inamibhiya
inanda
inandi
inani
inarok
inational
inc
incane
incasiselo
incazelo
incaziso
inceku
inches
including
incoma
inconsistent
increased
increasingly
incwadi
indaba
indandatho
indawo
indebe
indela
indeni
independent
index
india
indian
indiana
indigenous
indikimba
indima
indiva
indiya
indiza
indlala
indlalifa
indle
indlela
indlovu
indlovukazi
indlu
indlulamithi
indlunkulu
indlwabu
indo
indoda
indodakazi
indodana
indondo
indonesia
induna
indunu
indus
industrial
industrie
industry
ine
inedbank
inege
inesisindo
inethiwekhi
inew
inezifunda
inezifundazwe
infantry
infected
infection
infections
infectious
influence
influenza
info
infobox
information
ingaba
ingabe
ingabhekisa
ingadi
ingafaka
ingahle
ingahlukaniswa
ingaholela
ingakho
ingakwazi
ingalawulwa
ingalo
ingane
inganeko
inganekwane
ingaphakathi
ingaphambili
ingaphansi
ingaphezu
ingaphezulu
ingase
ingasetshenziselwa
ingasetshenziswa
ingatholakala
ingcebo
ingcindezi
ingekho
ingelinye
ingelosi
ingemuva
ingene
ingenye
ingenziwa
ingilandi
ingilazi
ingoma
ingono
ingonyama
ingozi
ingqalasizinda
ingqamuzana
ingqikithi
ingqondo
ingqoqelolwazi
ingqungquthela
ingquza
ingu
ingubo
ingulube
ingulule
ingumnikazi
ingumthombo
inguquko
inguqulo
inguxa
ingvil
ingwe
ingwenya
ingxabano
ingxenye
ingxibongo
ingxoxo
ingxube
inhabitants
inhambane
inhlalakahle
inhlanganisela
inhlangano
inhlanzeko
inhlanzi
inhlayiyana
inhleleliso
inhliziyo
inhloko
inhlokodolobha
inhlonipho
inhloso
inhlwa
ini
inigeria
inihwe
inika
inikela
inikeza
inikeze
inikezwa
inikezwe
iningi
iningizimu
initiative
inja
injabulo
injini
injongo
inkaba
inkabazwe
inkambiso
inkambo
inkampani
inkantolo
inkanuko
inkanyezi
inkatha
inkathi
inkawu
inkazimulo
inkece
inketho
inkinga
inkohlakalo
inkohliso
inkokhelo
inkolelo
inkolo
inkomba
inkomishi
inkomo
inkondlo
inkontileka
inkonzo
inkosana
inkosi
inkosikazi
inkulu
inkululeko
inkulumo
inkumbulo
inkundla
inkunzi
inla
inland
inn
innocent
innovation
inombolo
inorth
inorthern
inoveli
inqaba
inqobo
inqubo
inqubomgomo
inqwaba
insangu
inselelo
inside
insider
insimbi
insimu
insindiso
insipho
insiza
insizakalo
insizwa
instagram
institut
institute
institutes
institutional
instituto
instrument
insurance
int
intaba
intambo
intando
intanethi
intatheli
integrated
integration
intel
intela
intelligence
intengo
intention
interactive
intercontinental
interface
internal
international
internet
intersex
interview
interviews
inthanethi
into
intombazane
intombi
intraepithelial
introduction
intsha
intshisekelo
intshonalanga
intukuthelo
intulo
intuthu
intuthuko
invalid
invasive
investigation
investigative
investment
investments
invitation
inxenye
inxusa
inyakatho
inyama
inyamazane
inyanga
inyoka
inyoni
inyunyana
inyuvesi
inzalo
inzuba
inzululwazi
inzuzo
io
iol
iomega
ion
ios
iowa
ip
ipa
ipasi
ipayipi
ipemba
ipeni
ipenile
ipenisi
ipentshisi
iphakamisa
iphakathi
iphakethe
iphalamende
iphansi
iphatha
iphathi
iphele
iphendula
iphepha
iphephabhuku
iphephandaba
iphesenti
iphethe
iphethini
iphethwe
iphicamvelo
iphikisana
iphile
iphimbo
iphinde
iphini
iphone
iphothugali
iphoyisa
iphrojekthi
iphuma
iphume
iphunga
iphupho
iphutha
iphuzu
ipipi
ipitoli
ipiyano
ipl
ipolandi
ipolitiki
iport
iposihhovisi
iprage
ipremier
ipulatifomu
ipulazi
iqala
iqale
iqanda
iqanjwe
iqembu
iqhathaniswa
iqhawe
iqhaza
iqhinga
iqhubeka
iqhubeke
iqhwa
iqiniso
iqonde
iqoqo
iqukethe
iquran
iran
irandi
iranian
iraq
iras
irashiya
ired
irekhodi
ireland
irhythm
irina
iringa
iringi
iriphabliki
irish
irobhothi
iron
iroyal
irs
is
isaac
isaacson
isabc
isabella
isabelo
isadl
isahluko
isahlulelo
isaiah
isaka
isakaza
isakazwa
isakhamuzi
isakhi
isakhiwo
isakiet
isakramente
isaladi
isale
isamba
isambane
isambulo
isan
isandla
isandulela
isango
isanlam
isanqante
isaqhubeka
isaya
isayensi
isayithi
isazi
isb
isbn
iscamtho
iscandal
isced
ischemic
ise
isebenza
isebenzisa
isebenzise
isekela
isekelwe
isele
iseluleko
isembozo
isenzo
iserbiya
isethi
isetshenziselwa
isetshenziselwe
isetshenziswa
isetshenziswe
isevisi
isfax
ishadi
ishanghai
ishaya
ishayina
ishicilelwa
ishicilelwe
ishintshe
ishiya
isho
ishowe
ishumi
isi
isib
isibalo
isibani
isibantu
isibaya
isibe
isibhakabhaka
isibhakela
isibhalwa
isibhamu
isibhedlela
isibhunu
isibili
isibindi
isibonakude
isibonelelo
isibonelo
isibongo
isibopho
isibusiso
isicelo
isichazamazwi
isici
isicikizi
isicoco
isidi
isidingo
isidlakalasi
isidlaliso
isidlidlizi
isidlo
isidoda
isidore
isidumbu
isifanekiso
isifinyezo
isifiso
isifo
isifuba
isifulansi
isifulentshi
isifunda
isifundazwe
isifundiswa
isifundo
isifungo
isiga
isigaba
isigamu
isigaxa
isigidi
isiginci
isigingci
isigodi
isigodlo
isigreki
isigrikhi
isigubhu
isiguli
isigungu
isigwebo
isigwinqa
isihausa
isihebheru
isihlahla
isihlalo
isihlawumbiselo
isihloko
isiholandi
isijalimane
isijalimani
isijeziso
isikebhe
isikele
isikhala
isikhalazo
isikhashana
isikhathi
isikhiye
isikhuhluzi
isikhulu
isikhulumi
isikhumba
isikhumbuzo
isikhumulo
isikhundla
isikhungo
isikhunta
isikhwama
isiko
isikole
isikolo
isikotava
isikotilandi
isikweletu
isilekeleli
isililo
isilingala
isilinganiso
isiliva
isilo
isilonda
isilwane
isimangalo
isimemezelo
isimemo
isimila
isimilo
isimiso
isimo
isimongotho
isina
isinana
isindebele
isinengiso
isingathekiso
isingeniso
isingiro
isingisi
isinkwa
isinqe
isinqumo
isintu
isinxephezelo
isinyathelo
isiolo
isipedi
isipelingi
isiphakamiso
isiphathanzuba
isiphepho
isipheresiya
isiphetho
isiphi
isipho
isipholisi
isiphoqi
isiphuzo
isipiliyoni
isipontshi
isiprofetho
isiputukezi
isiqa
isiqephu
isiqhingi
isiqinisekiso
isiqiniseko
isiqongo
isiqophi
isiqoshwa
isiqu
isiqubulo
isirashiya
isisebenzi
isisekelo
isishayamthetho
isisho
isishona
isishoshovu
isisindo
isisolresol
isispeyini
isisu
isisulu
isisuthu
isiswahili
isiswazi
isiswidi
isitambu
isitatimende
isitayela
isiteleka
isiteshi
isitha
isithako
isithathu
isithelo
isithembu
isithiyo
isitho
isithombe
isithomiyana
isithununu
isithunywa
isithunzi
isithupha
isitifiketi
isitimela
isitolo
isitsha
isitshalo
isitshopolonco
isitsonga
isitsotsi
isitswana
isitudiyo
isityap
isivalo
isivenda
isivinini
isiviyetnami
isivumelwano
isivuno
isixazululo
isixhosa
isixhumanisi
isiyabizo
isiyonke
isiyoruba
isiza
isizathu
isizinda
isizindalwazi
isizini
isizukulwane
isizulu
isizungu
isizwe
islam
islamic
island
islands
islovo
ismackdown
ismail
ismailia
iso
isofthiwe
isoftware
isohwe
isoka
isokhanya
isolezwe
isondo
isono
isonto
isoseji
isouk
isoul
isousse
isouth
isouthern
isoweto
ispeyini
ispice
israel
israeli
israyeli
isreyili
issn
issue
issues
ist
istanbul
isu
isudan
isuka
isunday
isungulwe
isuse
isuselwa
isuswe
it
itafula
italian
italiya
italy
itanzania
itasy
itataouine
ite
itende
itestamente
ithabong
ithalente
ithambo
ithanda
ithanga
ithatha
ithathe
ithathwa
ithathwe
ithayiga
ithe
itheku
ithelevishini
ithemba
ithempeli
ithemu
ithengise
ithenisi
ithi
ithimba
ithiyori
ithola
itholakala
itholakale
ithole
ithoni
ithonya
ithoyizi
ithuba
ithule
ithuluzi
ithusi
itiye
itiyopiya
itizi
its
itshe
itshwane
itulo
itunes
ituri
iturkana
iuui
iv
ivame
ivamise
ivangeli
ivela
ivelvet
ivesi
iveza
iveze
ivictoria
ivideo
ividiyo
ivindo
iviyo
ivoire
ivory
ivumela
ivuzu
ivy
ivyson
iwadi
iwajir
iwashi
iwayini
iwebhusayithi
iwele
iwest
iwestern
iwikipedia
iwindi
iwine
iwona
iworld
iwuchungechunge
iwuhlobo
ix
ixoxo
iya
iyahlukahluka
iyaphikiswa
iyaqhubeka
iyatholakala
iye
iyi
iyibhendi
iyidolobha
iyifilimu
iyigama
iyikhaya
iyilokishi
iyincwadi
iyindawo
iyindlela
iyingozi
iyingxenye
iyinhlangano
iyinhlayiyana
iyinhlwa
iyinkampani
iyinyuvesi
iyiphi
iyisifunda
iyisifundazwe
iyisigcino
iyisiqongo
iyisiteshi
iyizwe
iyona
iyunithi
iyunivesithi
iyurophu
iza
izaga
izahluko
izakhamizi
izakhamuzi
izakhamzimba
izakhi
izakhiwo
izama
izambane
izambiya
izandiso
izandla
izaouiet
izaqathe
izaqathi
izazi
ize
izehlakalo
izeluleko
izembozo
izenzakalo
izenzo
izethameli
izibalo
izibhamu
izibhebhe
izibonelelo
izibonelo
izibongo
izibopho
iziboshwa
izibuko
izibusiso
izicathulo
izicelo
izici
izicikizi
izicoco
izicubu
izidakamizwa
izidalwa
izidingo
izidumbu
izifiso
izifo
izifunda
izifundazwe
izifundiswa
izifundo
izigaba
izigcawu
izigcoyi
izigebengu
izigidi
izigodi
izigqila
izigqoko
iziguli
izihambi
izihlahla
izihlalo
izihlobo
izihloko
izikhala
izikhalazo
izikhali
izikhangiso
izikhathi
izikhotha
izikhothane
izikhuhluzi
izikhulu
izikhulumi
izikhundla
izikhungo
izikole
izikolo
izikronike
izikweletu
izilekeleli
izilimi
izilimo
izilinganiso
izilonda
izilwane
izilwanyana
izimali
izimangalo
izimbabwe
izimbali
izimbangela
izimbangi
izimbongi
izimboni
izimbuzi
izimfanelo
izimfene
izimfihlakalo
izimfihlo
izimfundindalo
izimfundiso
izimiso
izimo
izimoto
izimpahla
izimpande
izimpawu
izimpendulo
izimpi
izimpikiswano
izimpilo
izimpondo
izimvimba
izimvu
izimvula
izinambuzane
izincasiselo
izincazelo
izincomo
izincwadi
izindaba
izindandatho
izindatshana
izindawo
izindebe
izindela
izindikimba
izindima
izindinganiso
izindiza
izindleko
izindlela
izindlovu
izindlu
izindondo
izindonga
izinduku
izinduna
izindwangu
izinga
izingalo
izingane
izinganekwane
izingcezu
izingcingo
izingcwecwe
izingcwephe
izingelosi
izingilazi
izingoma
izingono
izingozi
izingqikithi
izingqinamba
izingubo
izingulube
izinguquko
izinguqulo
izinguxa
izingwenya
izingxabano
izingxenye
izingxoxo
izinhlaka
izinhlamvu
izinhlanga
izinhlangano
izinhlangothi
izinhlanzi
izinhlawulo
izinhlayiya
izinhlayiyana
izinhlelo
izinhliziyo
izinhlobo
izinhlobonhlobo
izinhloso
izinhlu
izinhlungu
izinhlwa
izinja
izinjongo
izinkambiso
izinkambo
izinkampani
izinkantolo
izinkanuko
izinkanyezi
izinkathi
izinkentezi
izinketho
izinkinga
izinkokhelo
izinkolelo
izinkolo
izinkomba
izinkomo
izinkondlo
izinkonzo
izinkulumo
izinkulungwane
izinkundla
izinkunzi
izinombolo
izinongo
izinqa
izinqe
izinqubo
izinqubomgomo
izinqumo
izinsalela
izinselelo
izinsimbi
izinsiza
izinsizakalo
izinsizwa
izinso
izinsolo
izinsuku
izinsumpa
izintaba
izintambo
izintatheli
izinto
izintombi
izintuthukiso
izinwele
izinyanga
izinyathelo
izinyawo
izinyoka
izinyoni
izinyosi
izinyunyana
izinzuba
izinzuzo
izinzwa
iziphakamiso
iziphathanzuba
iziphathimandla
iziphi
iziphili
iziphilincinci
iziphuzo
iziqa
iziqephu
iziqhingi
iziqholo
iziqoshwa
iziqu
izisebenzi
izisekelo
izishayamthetho
izishoshovu
izishukumi
izisulu
izitatimende
izitayela
iziteshi
izitha
izithako
izithelo
izithiyo
izitho
izithombe
izithununu
izithunywa
izithwebuli
izitimela
izitolo
izitsha
izitshalo
izivakashi
izivivinyo
izivumelwano
izixazululo
izixhumanisi
izixuku
iziyabizo
izizathu
izizinda
izizukulwane
izizwe
izoba
izobe
izono
izulu
izwe
izwekazi
izwi
iðunn
j
ja
jabal
jack
jackson
jacob
jaha
jai
jail
jali
jam
jama
james
jan
jane
janeiro
january
januwari
japan
japanese
jarlath
jarso
jason
jay
jazeera
jazmee
jazz
jean
jebel
jeex
jeff
jendouba
jenkins
jenna
jenner
jennifer
jeremiya
jeremy
jerusalem
jessica
jesus
jet
jewel
jewish
ji
jibhuthi
jijel
jikelele
jim
jimma
jimmy
jo
joan
joburg
joe
johan
johane
johannesburg
john
johnny
johns
johnson
johnston
join
joins
joint
jonathan
jones
jonglei
jordan
jose
joseph
joshua
journal
journalism
journalist
journals
journey
joy
joyce
joyina
joyous
jp
jpg
jr
jse
jsp
jstor
juan
jub
juba
judge
judges
judgment
judith
jufra
juice
julayi
julius
july
jun
june
jungle
juni
junior
just
justice
justified
justin
k
ka
kaap
kaba
kababa
kabanzi
kabhebhe
kabhekuzulu
kabi
kabili
kabudha
kabusha
kabza
kade
kadinizulu
kafr
kafushane
kagadi
kagenesise
kagera
kagesi
kagiso
kagumede
kaguvi
kagwayi
kahle
kahulumeni
kai
kairouan
kajama
kajesu
kajiado
kajobe
kajohn
kajona
kajoshua
kakade
kakamega
kakenan
kakhongolose
kakhudlwana
kakhulu
kakhumalo
kaknu
kakristu
kakumiro
kala
kalanga
kalangala
kalenjin
kalula
kamabonakude
kamacide
kamageba
kamama
kamandela
kamashi
kamasikandi
kamasipala
kamaskandi
kamelek
kamengameli
kamomoni
kamongameli
kamormon
kamormoni
kamose
kamoya
kampala
kamuva
kanambambili
kanandi
kancane
kandaba
kandi
kane
kaneave
kanelson
kangaka
kangakanani
kangako
kangangoba
kangangokuba
kangangokuthi
kangcono
kani
kaningana
kaningi
kanjalo
kanjani
kanje
kanjena
kankosi
kankulunkulu
kanobel
kanomkhubulwane
kant
kanti
kanye
kanyekanye
kanzima
kapa
kara
karabo
karim
karoo
karuzi
kasai
kasathane
kasenzangakhona
kashaka
kashivaji
kashukela
kasi
kasmith
kasolomon
kassala
kasserine
kassina
katanga
katavi
kate
kathabo
kathathu
katherine
kathrada
kathy
katolika
kavango
kawoyela
kay
kayanza
kayes
kayise
kaziqu
kazulu
kazuma
kazwelonke
kazwide
kb
kc
kcg
ke
kebili
kebira
kechra
kef
keith
kelly
kennedy
kenneth
kent
kenya
kepha
kericho
keskin
kevin
key
kg
kgatleng
khadra
khaled
khams
khan
khartoum
khasi
khaya
khayamiya
khe
khelifa
khemis
khenchela
khenya
khiar
khomas
khona
khonamanjalo
khongo
khoza
khulu
khumalo
khuzani
khuzwayo
khwela
ki
kiambu
kibbe
kick
kid
kids
kie
kiefer
kigali
kigoma
kiir
kilifi
kilimanjaro
killer
kilograms
kilometres
kim
kimball
kimi
king
kingdom
kingdoms
kings
kinshasa
kirinyaga
kirundo
kisii
kissamos
kisumu
kiswahili
kitchen
kithi
kithina
kitui
kiva
kivu
kiwifruit
klerk
kloof
klub
km
knight
knockout
know
knowledge
known
ko
kobaba
kobandlululo
kobuchwepheshe
kobuciko
kobudlelwano
kobuhlakani
kobuholi
kobukristu
kobulili
kobungqingili
kobunikazi
kocansi
kochungechunge
kocwaningo
kodwa
kofuzo
kohambo
kohlaka
kohlelo
kohlobo
kohulumeni
kokhetho
kokuba
kokubeletha
kokubhoboza
kokubili
kokubona
kokuboshwa
kokubulala
kokubulawa
kokubusa
kokubuya
kokubuyela
kokuchitha
kokudla
kokudlala
kokufa
kokufakwa
kokufika
kokufunda
kokugcina
kokugeleza
kokuhamba
kokuhlala
kokuhlangana
kokuhlangenwe
kokuhlinzwa
kokuhlonipha
kokujoyina
kokukhethwa
kokukhipha
kokukhishwa
kokukhulelwa
kokukhululwa
kokulandela
kokungena
kokunikeza
kokunqoba
kokunye
kokuphela
kokuphothula
kokuphuma
kokuphumelela
kokuqala
kokuqeda
kokuqokwa
kokuqukethwe
kokusayina
kokusebenza
kokusebenzisa
kokusetshenziswa
kokushaya
kokushona
kokusungulwa
kokuthatha
kokuthathu
kokutheleleka
kokuthi
kokuthola
kokuthomba
kokuthuthela
kokuvalwa
kokuvela
kokuvuka
kokuwa
kokuya
kokuyeka
kokuzalwa
kokuziphatha
kokwakhiwa
kokwenza
kolayini
kolimi
koloni
kolunye
kolwandle
kolwazi
kom
komasipala
kombhalo
kombuso
komchamo
komculo
komdlalo
komdlavuza
komfundi
komgogodla
komgwaqo
komhlaba
komkhandlu
komkhathi
komkhiqizo
komlando
komlilo
komlomo
komndeni
komnotho
komnyango
komo
komongo
komoya
komphakathi
komqondo
komsebenzi
komshado
komthetho
komthethosisekelo
komuntu
komunye
komuthi
komzimba
kong
kongo
konkamisa
konke
konrad
konyaka
kophenyo
kordofan
korea
korinte
kosizo
kosuku
kotane
kotapedia
kotshwala
kouilou
koumou
kowamanqamu
kowe
kowesifazane
kowesilisa
kowezi
koyedwa
kozakwethu
kraemer
krestu
krishna
kristu
kroeber
kruger
ksar
ksour
ktua
ku
kuba
kubabukeli
kubaculi
kubafundi
kubagxeki
kubaholi
kubalandeli
kubaluleke
kubalulekile
kubalwa
kubandakanya
kubangela
kubangele
kubangelwa
kubantu
kubantwana
kubasebenzisi
kubazali
kube
kubeka
kubekwa
kubhalwe
kubheka
kubhekiselwa
kubhekiswa
kubhekiswe
kubhekwa
kubhekwe
kubhoboza
kubikwa
kubikwe
kubiza
kubizwa
kubo
kubonakala
kubonakale
kubongelwa
kubonisa
kuboniswe
kubra
kubuciko
kubukeka
kubungazwa
kubuye
kucashunwa
kucatshangwa
kuchaza
kuchazwa
kuchazwe
kucishe
kudaba
kudala
kudale
kudalwa
kude
kudidaniswe
kudinga
kudingeka
kudingeke
kudistrict
kudla
kudlala
kudlalwa
kudliwa
kudlula
kudlule
kudokotela
kufaka
kufakazelwa
kufakwa
kufakwe
kufana
kufane
kufanele
kufe
kufebhuwari
kufika
kufike
kufinyelela
kufinyelele
kufunda
kufundwe
kugcina
kugcine
kugcinwa
kugcinwe
kugenesise
kugujwa
kuguquka
kugxile
kuhamba
kuhambisana
kuhambisane
kuhhavini
kuhilela
kuhlala
kuhlangana
kuhlanganisa
kuhlanganise
kuhlanganiswe
kuhlangene
kuhle
kuhlelo
kuhlelwe
kuhlobene
kuhlobo
kuhlonyiwe
kuhloswe
kuhlotshaniswa
kuhlu
kuholela
kuholele
kuhulumeni
kujanuwari
kujulayi
kujwayelekile
kuka
kukabiti
kukagwayi
kukahani
kukahulumeni
kukajesu
kukajulayi
kukakhisimusi
kukakristu
kukamandela
kukamashi
kukamongameli
kukaneave
kukankulunkulu
kukasathane
kukasepthemba
kukashaka
kukasmith
kukawoyela
kukayise
kukazuma
kukhetho
kukhethwa
kukhiqizwa
kukhishwa
kukhishwe
kukho
kukholakala
kukhombisa
kukhona
kukhonjisiwe
kukhula
kukhulisa
kukhulu
kukhulunywa
kukhulunywe
kukodwa
kulaba
kulabo
kulandela
kulandelana
kulandele
kulandelwa
kulandelwe
kulandwe
kulapho
kulawa
kulawo
kule
kuledolobha
kuleli
kulelo
kulendawo
kulesi
kulesifunda
kulesifundazwe
kuleso
kuleyo
kulezi
kulezo
kulindeleke
kulinganiselwa
kulo
kulokho
kulokhu
kulolu
kulotshiwe
kulowo
kulula
kulwesihlanu
kulwezi
kuma
kumabhayisikobho
kumabonakude
kumacrown
kumafilimu
kumagazini
kumajor
kumakhasimende
kumalungu
kumama
kumamitha
kumandulo
kumanethiwekhi
kumaphesenti
kumashadi
kumasiko
kumasingana
kumasipala
kumathewu
kumavidiyo
kumawebhusayithi
kumazwe
kumbasa
kumbono
kumchazampilo
kumchazandalo
kumculo
kumdlali
kumdlalo
kumele
kumeyi
kumfumfu
kumhla
kumkhathilibe
kumlingani
kumnyango
kumongo
kumormonism
kumqhudelwano
kumthethosisekelo
kumuntu
kumzansi
kunabantu
kunabanye
kunabo
kunakho
kunaleyo
kunalokho
kunama
kunamanye
kunanoma
kunational
kunawo
kunayo
kunazo
kuncane
kuncike
kunciphisa
kunciphise
kunconywa
kuncwaba
kundasa
kune
kunenani
kunene
kunenkolelo
kunenye
kunesidingo
kunezici
kunezindlela
kunezinhlobo
kunezinhlobonhlobo
kunezinye
kungaba
kungabandakanya
kungabangelwa
kungabi
kungabizwa
kungabonakala
kungacaci
kungadala
kungafaka
kungahle
kungaholela
kungakapheli
kungakhathalekile
kungakhathaliseki
kunganciphisa
kungani
kungaphansi
kungase
kungasebenza
kungasetshenziselwa
kungasetshenziswa
kungashiwo
kungasho
kungasiza
kungathathwa
kungatholakala
kungavela
kungavimbela
kungcono
kungekho
kungekudala
kungenjalo
kungenxa
kungenye
kungenza
kungenzeka
kungenziwa
kungu
kungumphumela
kungumsebenzi
kunhlaba
kunhlangulana
kunhlolanja
kunikeza
kunikezwe
kunina
kuningi
kunjalo
kunkulunkulu
kunobufakazi
kunokuba
kunokuthi
kunoma
kunombolo
kunomkhubulwane
kunomlando
kunovemba
kuntulikazi
kunyaka
kunye
kunzima
kuphansi
kuphela
kuphele
kuphi
kuphinde
kuphuma
kuqala
kuqale
kuqhathaniswa
kuqhubeka
kuqhubeke
kuqhutshwa
kuqinisekiswe
kuqubuka
kuqukethe
kusabc
kusebenza
kusebenze
kusekelwe
kusenesikhathi
kusetshenziswa
kusetshenziswe
kushaft
kushiwo
kusho
kushone
kusigcinamlando
kusihlwa
kusikisela
kusiza
kusizini
kuso
kusolwa
kusuka
kusuke
kusukela
kusungulwe
kususelwa
kususwe
kuthatha
kuthathwa
kuthathwe
kuthe
kuthelevishini
kuthengiswa
kuthi
kuthinta
kuthiwa
kuthiwe
kutholakala
kutholakale
kutholwe
kuthuthukiswe
kutwitter
kuvame
kuvamile
kuvamise
kuvela
kuvele
kuveza
kuveze
kuvezwa
kuvulwa
kuvumela
kuvumele
kuvunyelwa
kuvunyelwe
kuwo
kuwumkhuba
kuxhakaxholo
kuya
kuyacaca
kuyadingeka
kuyafana
kuyahluka
kuyahlukahluka
kuyaqabukela
kuyaqhubeka
kuyasetshenziswa
kuyaye
kuyaziwa
kuye
kuyenzeka
kuyi
kuyicala
kuyilapho
kuyimanje
kuyimbangela
kuyindlela
kuyingxenye
kuyinqubo
kuyinto
kuyiqiniso
kuyisici
kuyisono
kuyo
kuyona
kuza
kuzalwa
kuze
kuzibandlela
kuzo
kuzoba
kuzoholela
kuzona
kuzuma
kuzwelonke
kw
kwa
kwaba
kwabafileyo
kwabafundi
kwabalingisi
kwabamhlophe
kwabancane
kwabangela
kwabangu
kwabaningi
kwabantu
kwabanye
kwabasebenzi
kwabayishumi
kwabazali
kwabe
kwabesifazane
kwabesilisa
kwabezindaba
kwabikwa
kwabo
kwabobulili
kwabonwa
kwaboshwa
kwabulawayo
kwabuye
kwadala
kwadingeka
kwadukuza
kwafakwa
kwafika
kwafinyelela
kwahlelwa
kwaholela
kwaito
kwakamuva
kwakha
kwakhe
kwakheka
kwakheke
kwakhiwa
kwakhiwe
kwakho
kwakhululwa
kwakucatshangwa
kwakudingeka
kwakufanele
kwakukhona
kwakumele
kwakungekhona
kwakungeyona
kwakungu
kwakungumasipala
kwakunjalo
kwakusetshenziswa
kwakusho
kwakuyi
kwakuyidolobha
kwakuyigama
kwakuyisifundazwe
kwalabo
kwalandela
kwalandelwa
kwalanga
kwalapho
kwale
kwaleli
kwalesi
kwaletha
kwalezi
kwalezo
kwalo
kwalokho
kwalokhu
kwalolu
kwalowo
kwama
kwamabele
kwamabili
kwamacala
kwamadoda
kwamagama
kwamagciwane
kwamahora
kwamajuda
kwamakhambi
kwamakhasi
kwamakhemikhali
kwamakhono
kwamalungelo
kwamalungu
kwamamitha
kwamandla
kwamanje
kwamanye
kwamanzi
kwamaphekula
kwamaphesenti
kwamaphoyisa
kwamaqembu
kwamasende
kwamashu
kwamashumi
kwamasiko
kwamasipala
kwamasonto
kwamasoseji
kwamasosha
kwamasu
kwamasulumane
kwamathambo
kwamavidiyo
kwamaxhoxho
kwamazinga
kwamazwe
kwamenyezelwa
kwamenza
kwami
kwamiswa
kwangama
kwangaphakathi
kwangaphambilini
kwangaphandle
kwangempela
kwangemva
kwangena
kwango
kwangu
kwanikeza
kwanoma
kwanongoma
kwansuku
kwaphela
kwaqala
kwaqalwa
kwaqedwa
kwaqhubeka
kwase
kwasekhaya
kwasekuqaleni
kwasendaweni
kwaseningizimu
kwashona
kwaso
kwasolwandle
kwasungulwa
kwathathwa
kwathi
kwathiwa
kwatholakala
kwavela
kwavumela
kwawo
kwaxhosa
kwaye
kwayi
kwayo
kwaze
kwazise
kwaziwa
kwazo
kwazulu
kwe
kwebhayibheli
kwebhokisi
kwecala
kwedatha
kwedijithali
kwedolobha
kwedolobhakazi
kwefilimu
kwegama
kwegazi
kwegciwane
kwegunya
kwehla
kwehle
kwehliswe
kwehlukile
kwejwabu
kwekhabhoni
kwekhanda
kwekhulu
kwela
kwelanga
kwelebuli
kwelinye
kwelithi
kwemali
kwembewu
kwemfundo
kwemibono
kwemibuso
kwemidlalo
kwemigwaqo
kwemijondolo
kwemikhiqizo
kwemilenze
kwemingcele
kwemininingo
kweminyaka
kweminye
kwemiphakathi
kwemiphumela
kwemisebenzi
kwemisindo
kwemisipha
kwemithambo
kwemithetho
kwemithi
kwemithombo
kwemizamo
kwemizwa
kwempahla
kwempi
kwempilo
kwempumulo
kwemvelo
kwemvume
kwenani
kwencazelo
kwencwadi
kwendaba
kwendabuko
kwendawo
kwendle
kwendlela
kwendoda
kwenduku
kweneng
kwengama
kwengane
kwengoma
kwengqondo
kwengu
kwengxenye
kwenhlangano
kwenhliziyo
kweningi
kweningizimu
kwenkampani
kwenkantolo
kwenkanyezi
kwenkathi
kwenkosi
kwenkululeko
kwenkulungwane
kwenqubo
kwenqwaba
kwento
kwentsha
kwenyama
kwenyanga
kwenye
kwenza
kwenzalo
kwenzeka
kwenzekani
kwenzeke
kwenziwa
kwenziwe
kwepenile
kwepenisi
kwephethini
kwepipi
kweqembu
kweqiniso
kwesakhiwo
kwesandla
kwesayensi
kweshumi
kwesibalo
kwesibili
kwesibindi
kwesidoda
kwesidumbu
kwesifo
kwesifunda
kwesifundazwe
kwesigaba
kwesigameko
kwesigidi
kwesihloko
kwesikhashana
kwesikhathi
kwesikhumba
kwesikhungo
kwesiko
kwesikole
kwesimemezelo
kwesimo
kwesingisi
kwesinye
kwesiqu
kwesisekelo
kwesistimu
kwesisu
kwesiteshi
kwesitho
kwesitshalo
kwesivumelwano
kwesizathu
kwesizini
kwesizwe
kweso
kwesobunxele
kwesoftware
kwesokudla
kwesokunxele
kwesonto
kwesta
kwethe
kwethu
kwethulwa
kwethulwe
kweyodwa
kwezakhiwo
kwezembozo
kwezemfundo
kwezemidlalo
kwezempi
kwezempilo
kwezemvelo
kwezenhlalo
kwezenkolo
kwezentengiselwano
kwezentengiso
kwezenzo
kwezepolitiki
kwezezibhangqiwe
kwezezimali
kwezi
kwezibalo
kwezibonelelo
kwezici
kwezicubu
kwezidakamizwa
kwezifo
kwezifundazwe
kwezifundo
kwezigidi
kwezigidigidi
kweziguli
kwezigwegwe
kwezihlobo
kwezikhathi
kwezikhulumi
kwezikole
kwezilimi
kwezilwandle
kwezilwane
kwezimali
kwezimilo
kwezimo
kwezimpahla
kwezimpawu
kwezincwadi
kwezindaba
kwezindawo
kwezindleko
kwezindlela
kwezindlu
kwezinga
kwezingane
kwezingu
kwezinhlanga
kwezinhlanu
kwezinhlanzi
kwezinhlelo
kwezinhlobo
kwezinkanyezi
kwezinkomo
kwezinkondlo
kwezinkunzi
kwezinqa
kwezinsana
kwezinsizakalo
kwezinso
kwezinsuku
kwezintathu
kwezinto
kwezinwele
kwezinyanga
kwezinye
kwezinzwa
kweziqoshwa
kweziteshi
kwezitho
kwezithombe
kwezitolo
kwezitshalo
kweziyishumi
kweziyisishiyagalolunye
kwezizwe
kwezobuchwepheshe
kwezobuciko
kwezocansi
kwezokuphepha
kwezokuxhumana
kwezokwelapha
kwezokwelashwa
kwezolimo
kwezombusazwe
kwezomnotho
kwezomthetho
kwezwe
kwezwi
kwi
kwicala
kwifilimu
kwifilosofi
kwikhabhinethi
kwikhomishini
kwikhonferense
kwilu
kwimfundo
kwiminyaka
kwindebe
kwinhlangano
kwinkampani
kwinqubo
kwipremier
kwiprovinsi
kwisifundazwe
kwisitayela
kwisivumelwano
kwisizini
kwisouth
kwithe
kyknet
kyku
kyle
kzn
l
la
laan
lab
laba
labaculi
labadlali
labafana
labafundi
labalandeli
labamba
labangcwele
labantu
labasebenzi
labe
labesifazane
labesilisa
labia
labo
laboratories
laboratory
labour
labret
lac
lacey
lactase
lactose
laden
lado
lady
ladysmith
lafika
lafto
laghouat
lahmar
laikipia
lake
lakes
lakhdar
lakhe
lakhiwa
lakhiwe
lakho
lakubo
lakuleli
lakwa
lakwazulu
lala
lale
laleli
lalezi
lalinabantu
lalo
lama
lamacala
lamadoda
lamafilimu
lamafutha
lamagama
lamajuda
lamakatolika
lamakhatholika
lamakhomanisi
lamalungu
lamaluthela
lamandla
lamantombazane
lamaqembu
lamaroma
lamasosha
lamasulumane
lamaweseli
lamayunithi
lamazwe
lami
lamiswa
lamu
lanamuhla
lancet
land
lane
lang
langa
langalibalele
langaphakathi
langaphambili
langempela
langley
language
languages
lanka
lapha
laphinde
lapho
laqala
lara
larbaa
larbi
larry
larson
las
lase
lasebrithani
lasejapan
lasekapa
lasekhaya
lasemelika
lasemfuleni
lasemlazi
lasempumalanga
lasenatali
lasendiya
lasendulo
laseningizimu
lasentshonalanga
laser
laseshayina
lasesihlabathini
lasesoweto
laseswazini
lasethekwini
lasetshenziswa
lasetshile
laseturkey
laseyurophu
lasezimbabwe
lashintsha
lashintshwa
laso
last
lasungulwa
late
later
lateral
latest
lathi
lathola
latin
latter
laude
launched
launches
laura
lauren
lavela
lavulwa
law
lawa
lawo
lawrence
laws
lay
laya
layo
laziwa
lazo
lb
lct
lds
le
lead
leader
leaders
leadership
leading
leaf
league
learners
learning
leave
lebhizinisi
lebhodi
lebhola
leblack
lebutho
lechibi
lecture
led
ledolobha
lee
leeane
left
leg
legacy
legal
legend
legends
legislature
leilani
lejwabu
lekhilikithi
lekomidi
lekwa
leli
lelidolobha
leligama
lelizwe
lelo
lemali
lemboni
lemdc
lemfundo
leminyaka
lemmy
lemvelo
lena
lenani
lenational
lencwadi
lendabuko
lendawo
lendlela
lendlu
lengxenye
lenhlangano
lenin
leningizimu
lenkampani
lenkantolo
lenkolo
lenkomo
lenkosi
lent
lento
lentsha
lentuthuko
lenyama
lenza
lenze
lenziwa
leo
leonardo
leone
leopards
lephalamende
leqembu
leqiniso
les
lesandulela
lesayensi
lesbian
leshumi
lesi
lesibili
lesidlaliso
lesidoda
lesifulentshi
lesifunda
lesifundazwe
lesigaba
lesigodi
lesigreki
lesigungu
lesiheberu
lesihlanu
lesihloko
lesikhathi
lesikhombisa
lesikhumba
lesikhumbuzo
lesikole
lesilatini
lesilisa
lesimo
lesine
lesingisi
lesiqhingi
lesishayamthetho
lesiteji
lesithathu
lesithupha
lesixhosa
lesizulu
lesizwe
leslie
lesnar
leso
lesotho
lesouth
lessons
let
lethu
letter
letters
level
levels
levine
levita
lewis
leyi
leyo
lez
lezemfundo
lezempi
lezepolitiki
lezezimali
lezi
lezigelekeqe
lezilimi
lezilwane
lezimbabwe
lezindaba
lezingane
lezinhlelo
lezinhlwa
lezinkanyezi
lezinto
lezinyawo
lezo
lezocansi
lezombusazwe
lezomthetho
lezwe
lgbt
lh
li
lia
liability
liam
lib
liba
libe
liben
liberal
liberation
libhalwe
libhekene
libhekisa
libhekisela
libhekisele
libhiya
libike
libizwa
library
libro
libuye
libya
licences
lichaza
lichen
lidlala
lidlule
lidume
lieberson
lieutenant
lif
lifaka
lifana
life
lifestyle
lifetime
lifundisa
ligama
ligcwele
light
lihlala
lihlanganisa
lihlukaniswe
liholwa
lihumusha
lii
lika
likahulumeni
likajesu
likakristu
likamengameli
likamongameli
likandunankulu
likangqongqoshe
likankulunkulu
likanobhala
likanobhutshuzwayo
likasathane
likasihlalo
likayise
likazwelonke
like
likely
likhiphe
likhona
likhule
likhulu
likhuluma
likouala
lila
lilandela
lili
lilian
lille
limayelana
limba
lime
limi
limited
limmu
limpopo
linabantu
lincane
lincike
lincoln
linda
lindberg
lindi
line
linencazelo
lingaba
lingabhekisela
lingaphansi
lingasetshenziswa
lingu
linguistics
linikeze
link
linux
linye
lion
lions
lip
liphakathi
liphansi
liphinde
liqhamuka
liqukethe
liquor
lira
lisa
lisebenza
lisebenzisa
lisendaweni
lisetshenziselwa
lisetshenziswa
lisetshenziswe
lishaya
lisho
list
listen
lisuka
lisuke
lisuselwa
lisuselwe
lit
literacy
literary
literature
lithi
litholakala
lithole
litoral
little
livame
live
livela
liver
lives
living
liya
liye
liyi
liyinhlokodolobha
liyisiqongo
lize
lizoguqubala
lizwe
ll
llb
lloyd
ln
lo
lobandlululo
lobu
lobuchwe
lobuchwepheshe
lobuciko
lobudoda
lobudokotela
lobugebengu
lobukristu
lobungqwangqwa
lobunikazi
lobuqhawe
lobuso
local
locansi
location
lock
lockdown
locwaningo
lodge
lodumo
log
logements
logic
logo
lohlelo
lohlobo
lohulumeni
lokho
lokhu
lokishi
loku
lokuba
lokubala
lokubhala
lokubhoboza
lokubulala
lokubusa
lokudla
lokufa
lokufunda
lokugcina
lokugoma
lokuhlakanipha
lokuhlala
lokuhweba
lokukhiqiza
lokukhuluma
lokukhwabanisa
lokulwa
lokungena
lokuphatha
lokuphila
lokuqala
lokusebenza
lokusebenzisa
lokushaya
lokushisa
lokuthi
lokuthola
lokuvota
lokuvukela
lokuya
lokuzala
lokuzalwa
lokuziphatha
lokwenza
lolimi
loliwe
lolo
lolu
loluhlobo
lolwandle
lomami
lomasipala
lombhalo
lombhede
lombhoxo
lombuso
lomculo
lomdlalo
lomfula
lomgwaqo
lomhlaba
lomholi
lomkhandlu
lomkhiqizo
lomkhonto
lomkhosi
lomlando
lomlilo
lomlomo
lomndeni
lomnyango
lomoya
lomphakathi
lomsakazo
lomsebenzi
lomshado
lomthetho
lomthethosisekelo
lomthondo
lomuntu
lomunye
lomuzi
lomzabalazo
lomzimba
lona
london
long
longitudinal
lonke
lonyaka
look
loop
lopez
lor
lord
lorenzo
los
loss
lost
lot
lotus
lou
louis
love
lovesounds
low
lower
lowesifazane
lowo
lozalo
lp
ltd
lu
lualaba
luanda
luapula
lubandakanya
lube
lubhekwa
lubizwa
lubombo
lubonisa
lubuye
lucas
lucia
lucky
lugasel
lugujwa
luhlobo
luka
lukahulumeni
lukamandela
lukamongameli
lukankulunkulu
lukazwelonke
lukhombisa
lula
lunda
lunga
lungaba
lungisa
luphinde
luqale
luqukethe
lusaka
lusetshenziswa
lusithi
luther
lutho
lutholakala
luthole
luthuli
luv
luvame
luxor
luyatholakala
luye
lv
lwaba
lwabantu
lwabasebenzi
lwabesifazane
lwabo
lwagasel
lwakhe
lwalesimo
lwalezozifunda
lwalezozifundazwe
lwama
lwamafinyila
lwamahlaya
lwamalungelo
lwamanani
lwamaqembu
lwamasiko
lwamazwe
lwanamuhla
lwangaphakathi
lwangaphambili
lwangaphandle
lwangempela
lwangemuva
lwango
lwaqala
lwase
lwasekhaya
lwasemelika
lwaseningizimu
lwathola
lwawo
lwayo
lwazi
lwaziwa
lwazo
lwe
lwebele
lwedrama
lwelanga
lwemali
lwemfundo
lwemvelo
lwendabuko
lwendawo
lwendunu
lwenhlonzabuso
lwenkolo
lwentando
lwentengiso
lwentsha
lwenza
lwenziwa
lwenziwe
lweqembu
lweqiniso
lwesayensi
lweshumi
lwesi
lwesibantu
lwesibhunu
lwesibili
lwesicikizi
lwesifundazwe
lwesigodi
lwesikhathi
lwesimo
lwesindebele
lwesingisi
lwesinguni
lwesithathu
lwesitho
lwesizulu
lwesizwe
lwethelevishini
lwezandla
lwezemfundo
lwezempi
lwezempilo
lwezenhlalo
lwezepolitiki
lwezezibhangqiwe
lwezi
lwezibalo
lwezifunda
lwezifundazwe
lwezihloko
lwezilimi
lwezimpawu
lwezincwadi
lwezingane
lwezinhlelo
lwezinto
lwezinzwa
lweziteshi
lwezocansi
lwezokwelapha
lyman
lymph
m
ma
maa
mabaso
mabhida
mabuza
mac
machakos
machel
machine
macmillan
madagascar
madagasika
made
madhi
madikizela
madoda
madonsela
maduzane
maekel
maffin
mafika
magama
magashule
magazine
magazini
magciwane
magharibi
magic
magnesium
magnetic
magona
mah
mahalla
maharaj
mahdia
mahhala
mahlangu
mahlathini
mahogany
mahotella
mai
mail
maimane
main
maint
mairie
maite
majola
major
makamba
make
makeba
makes
makgoba
makhlouf
makhura
making
makueni
makwanyane
malan
malanje
malaria
malawi
malaysia
male
malema
malformed
mali
malinga
maltose
malungelo
mama
mamba
mambazo
mammary
man
management
mandela
mandeni
mandera
mandla
mandulo
mane
manga
mango
mangoro
mangosuthu
mania
manica
manicaland
maniema
manifesto
maningi
manje
mann
manor
manouba
mansoura
mansourah
mantashe
manual
manuel
many
manyara
manzini
map
maphakathi
maphorisa
mapping
maps
maputo
maqembu
maqondana
mar
mara
marakwet
marathi
marathon
march
mari
maria
mariannhill
marie
marine
mario
maritime
marj
marjorie
mark
market
marks
marmoratus
maroodi
marriage
mars
marsa
marsabit
marsupial
martin
marxist
mary
mascara
mase
masekela
masenate
mashi
mashinini
mashonaland
masilela
masinga
masingana
masipala
mask
maskandi
masks
mason
masondo
masonto
mass
massachusetts
massacre
massimo
massive
master
masters
masuku
masvingo
matabeleland
matanzima
match
mateo
mathematical
mathematics
mathewu
mathosa
mathupha
matmata
matomela
matric
matrouh
matsenjwa
matsiatra
matter
matters
matthew
matthews
maurice
mauritius
mausoleum
maverick
max
maximus
maxwell
may
maya
mayelana
mayfair
mayor
mazwe
mb
mba
mbasa
mbatha
mbe
mbeki
mbete
mbeya
mbhalo
mbhangqwana
mbiko
mbombela
mboni
mbono
mboweni
mbukiso
mbulu
mbumbulu
mcbride
mcconkie
mcgee
mchunu
mcimbi
mckenzie
mcmahon
mcs
mculi
mda
mdala
mdc
mdlali
mdlalo
mdletshe
me
mean
meaning
meatballs
mec
mechanized
med
medal
medenine
media
medical
medicine
medien
medieval
medina
medium
meer
meet
meeting
mehluko
mel
melaky
melh
melika
member
members
meme
memorial
memory
memphis
men
mena
menabe
mendes
mentally
menzel
menzi
mercury
meredith
merit
merriam
meru
message
messenger
met
meta
metacritic
metal
metastasis
method
methodist
metro
metropolitan
mexico
meyi
mf
mfumfu
mfushane
mg
mgqolozana
mgungundlovu
mhla
mhlaba
mhlaka
mhlawumbe
mhlongo
mhlophe
mi
miami
mibhalo
michael
michel
michigan
michiko
mickey
micropenis
microsoft
mid
mida
middle
midir
midlands
migori
mikhakha
mikkey
mila
miles
milf
miliana
military
miliyoni
miller
million
mimoun
min
mina
mind
minds
mine
minecraft
mines
mini
mining
miningi
minister
ministers
ministry
minnesota
minora
minority
mint
minutes
minya
minyaka
mirab
miracle
miriam
miro
mirror
misraq
misrata
miss
missing
mission
missionaries
missionary
mit
mithetho
mizan
mjini
mk
mkabayi
mkhakha
mkhankaso
mkhiqizo
mkhize
mkhondo
mkhuba
mkhulu
mkhwanazi
mkhwebane
mklomelo
mkuruva
ml
mlambo
mlando
mlangeni
mls
mlungisi
mm
mnandi
mnangagwa
mncane
mncintiswano
mndeni
mngomeni
mnyama
mnyango
mo
mobile
mocratique
model
modern
modise
moeketsi
mofokeng
mogoeng
mohamed
mohato
mohlala
mojo
mokhtar
mokonyane
mol
moldova
molecular
molecule
molefe
mombasa
moments
momoko
mompati
mona
monastir
monetary
money
mongala
mongameli
mongo
monica
monitoring
monkey
monosaccharides
month
monthly
montre
monufia
moon
moonchild
moore
moral
morality
more
morgan
mormon
mormonism
mormons
morning
morocco
morogoro
moroka
morphine
morris
mortality
mos
moses
moshe
mosque
mossambicus
most
mostaganem
mother
motion
motlanthe
moto
motor
motorized
motorsports
motsoaledi
mouchent
mount
mountaineers
mounted
mouse
moussa
mouth
move
movement
movie
movies
moxico
moyen
moyo
mozambiki
mozambique
mp
mpa
mpanda
mpande
mpharanyana
mpi
mpikiswano
mpilo
mpo
mpofu
mpumalanga
mpungose
mqhudelwano
mqondo
mr
mrs
ms
msakazi
msebenzi
msm
mthembu
mthetho
mthethwa
mtintso
mtn
mtshali
mtshengiseni
mtv
mtwara
mu
much
muchinga
mucosa
mudug
muffin
mufudza
mugabe
mugirango
muhammad
muhle
mukono
mulilo
multichoice
multimedia
multiple
muni
municipalities
municipality
munteanu
muntu
munye
muramvya
muranga
murphy
murqub
murray
murzuq
musa
muscle
museum
museveni
music
musical
musician
muslim
must
mutilation
mutual
muva
muyinga
muzi
mwanza
mwaro
mxenge
my
mya
myers
myspace
mystery
mzansi
mzilikazi
mzimba
mzungu
n
na
naa
nababhali
nabaculi
nabadlali
nabafazi
nabafowabo
nabafundi
nabaholi
nabalandeli
nabalingani
nabalingisi
nabamhlophe
nabamnyama
nabangane
nabangani
nabangewona
nabantu
nabanye
nabaphansi
nabaphathi
nabasebenza
nabasebenzi
nabasekeli
nabasepoland
nabazali
nabesifazane
nabesilisa
nabeul
nabezindaba
nabo
nabobulili
nacional
nairobi
nakanjani
naked
nakho
nako
naku
nakuba
nakubantu
nakuma
nakuru
nakwabanye
nakwamanye
nakwazulu
nakweminye
nakwezinye
nakwi
nalabo
nalapho
nale
naledi
naleli
nalesi
naleso
naleyo
nalezi
nalezifundazwe
nalezo
nalo
nalokho
nalokhu
nalolu
nalowo
nalut
nama
namabutho
namacala
namadodakazi
namadodana
namadolobha
namafilimu
namafutha
namagama
namagciwane
namagugu
namahlelo
namahora
namakhaladi
namakhomanisi
namakhono
namakhosikazi
namakhulu
namalungelo
namalungu
namanani
namandiya
namandla
namangisi
namanje
namantombazane
namanye
namanzi
namaphoyisa
namaqembu
namaroma
namasende
namasevisi
namashumi
namasiko
namasoseji
namasosha
namasu
namasulumane
namathambo
namathuba
namatshe
namayunithi
namaza
namazinga
namazinyo
namazulu
namazwe
nambili
name
named
names
namhlanje
nami
namibe
namibhiya
namibia
nampula
namsoco
namuhla
nanamuhla
nandi
nane
nangaphakathi
nangaphandle
nangaphansi
nangaphezulu
nangemuva
nangemva
nangenxa
nangesikhathi
nango
nangokomoya
nangokuthi
nanhlanu
nani
nanoma
nantathu
nanye
naphakathi
naphansi
naphezu
naphezulu
narcotic
narok
nas
nasa
nasal
nascar
nase
nasebusheni
nasecanada
nasegauteng
nasekapa
nasekuqaleni
nasemazweni
nasemhlabeni
nasemicimbini
nasempumalanga
nasenew
nasenigeria
naseningizimu
nasenyakatho
naseyurophu
nasezambia
nasezibhedlela
nasezindaweni
nasezingeni
nasionale
naso
naspers
nasr
nasty
natal
natalensis
natali
nathan
nathi
nation
national
nations
native
natural
nature
naude
navy
nawe
nawo
naye
nayo
nazo
nba
nbc
ncamashi
ncane
ncazelo
ncbi
ncia
ncov
ncube
ncwaba
ncwadi
nd
ndaba
ndasa
ndawo
ndawonye
ndebele
ndez
ndima
ndlela
ndlovu
ndombe
ndwandwe
ne
near
neave
nebanga
nebest
nebhola
neblack
nebotswana
nec
necala
necdet
nedolobha
nedumela
need
needs
nefilimu
neg
negalelo
negama
negciwane
negoli
negolide
negomora
nehlobo
nejwabu
nekhanda
nekhono
nekhulu
neking
nekomidi
nekwazulu
nelanga
nelinye
nelithi
nelson
nelspruit
nelungelo
nelungu
nem
nemali
nembongi
nemelika
nemfashini
nemfundo
nemibhalo
nemibiko
nemibono
nemibukiso
nemibuzo
nemicimbi
nemidlalo
nemidwebo
nemifino
nemigomo
nemikhankaso
nemikhiqizo
nemikhuba
nemindeni
nemininingwane
neminyaka
neminyango
neminye
nemiphakathi
nemiphumela
nemiqulu
nemisebenzi
nemisindo
nemithambo
nemithetho
nemithi
nemizamo
nemizuzu
nemizwa
nemoto
nempahla
nempendulo
nempi
nempilo
nempumelelo
nemvelaphi
nemvelo
nenani
nenational
nencazelo
nencwadi
nendaba
nendawo
nendebe
nendima
nendlela
nendodakazi
nendodana
nendondo
nene
nenew
nengama
nengane
nengaphakathi
nengcebo
nengcindezi
nengoma
nengqikithi
nengqondo
nengxenye
nenhlangano
nenhloko
nenhloso
neningizimu
nenja
nenkambiso
nenkampani
nenkanuko
nenkathi
nenkinga
nenkohlakalo
nenkolo
nenkosi
nenkosikazi
nenkululeko
nenkulumo
nenkundla
nenombolo
nenqubo
nenqubomgomo
nentatheli
nentombazane
nentsha
nentshisekelo
nentshonalanga
nentuthuko
nenyama
nenyanga
nenye
nenyuvesi
nenzalo
nenzuzo
neo
neoplasia
nephi
nephini
nepipi
neplatinum
neqembu
neqhaza
nerve
nes
nesakhiwo
nesandla
nesara
nesayensi
nesazi
nesenzo
nesi
nesibalo
nesibhunu
nesibopho
nesidoda
nesifiso
nesifo
nesifunda
nesifundazwe
nesigaba
nesigaxa
nesihloko
nesikhathi
nesikhombisa
nesikhulu
nesikhumba
nesikhunta
nesiko
nesikole
nesimo
nesingisi
nesinqumo
nesiphambano
nesishiyagalolunye
nesishiyagalombili
nesishoshovu
nesisindo
nesisuthu
nesiteshi
nesithembu
nesitho
nesithunzi
nesithupha
nesitifiketi
nesixhosa
nesizulu
nesizwe
nesohwe
nesono
nesonto
nesouth
net
netflix
nethe
netheku
nethelevishini
netherlands
nethi
nethimba
nethonya
nethuba
nethumimi
network
networks
neu
never
nevidiyo
new
newman
news
newspaper
newspapers
newsroom
newton
next
neyokugcina
nezakhi
nezakhiwo
nezambulo
nezazi
neze
nezemidlalo
nezempilo
nezenhlalo
nezenzo
nezepolitiki
nezibalo
nezibopho
nezici
nezicubu
nezidakamizwa
nezidingo
nezifo
nezifundazwe
nezifundo
nezigaba
nezikhali
nezikhathi
nezikhulu
nezikhungo
nezikole
nezilimi
nezilwane
nezimali
nezimbabwe
nezimbangela
nezimboni
nezimfundiso
nezimiso
nezimo
nezimoto
nezimpahla
nezimpawu
nezincazelo
nezincwadi
nezindaba
nezindatshana
nezindawo
nezindela
nezindikimba
nezindinganiso
nezindiza
nezindlela
nezindlu
nezindondo
nezinga
nezingane
nezinganekwane
nezingubo
nezinguquko
nezingxabano
nezingxenye
nezingxoxo
nezinhlamvu
nezinhlangano
nezinhlanzi
nezinhlayiya
nezinhlelo
nezinhlobo
nezinkampani
nezinkanyezi
nezinkinga
nezinkolo
nezinkomo
nezinkonzo
nezinkulumo
nezinongo
nezinqubo
nezinqubomgomo
nezinsimbi
nezinsiza
nezinsizakalo
nezinsolo
nezinsuku
nezinto
nezinwele
nezinyanga
nezinyathelo
nezinye
nezinyoni
nezinzuzo
neziphathimandla
neziphuzo
neziqu
nezishoshovu
neziteshi
nezithakazelo
nezithelo
nezitho
nezithombe
nezitolo
nezivumelwano
nezocansi
nezokuphepha
nezomnotho
nezwe
nezwi
ng
nga
ngabadlali
ngabafundi
ngabakwa
ngabalandeli
ngabalingisi
ngabaningi
ngabantu
ngabanye
ngabasebenzi
ngabazali
ngabe
ngabesifazane
ngabesilisa
ngabezindaba
ngabo
ngakho
ngakolunye
ngakusasa
ngale
ngaleli
ngalesi
ngaleso
ngaleyo
ngalezi
ngalezo
ngalinye
ngalo
ngalokho
ngalokhu
ngalolo
ngalolu
ngalowo
ngalunye
ngama
ngamabele
ngamabomu
ngamacala
ngamadoda
ngamafayela
ngamafuphi
ngamagama
ngamagciwane
ngamahora
ngamakhemikhali
ngamakhilomitha
ngamakhono
ngamalengiso
ngamalungelo
ngamalungu
ngamamitha
ngamanani
ngamandla
ngamanye
ngamanzi
ngamaphesenti
ngamaphoyisa
ngamaqembu
ngamashumi
ngamasiko
ngamasonto
ngamasu
ngamathuba
ngamatshe
ngamazinga
ngamazuba
ngamazulu
ngamazwe
ngamazwi
ngamehlo
ngamunye
ngandlela
ngangokunokwenzeka
nganoma
ngaphakathi
ngaphambi
ngaphambili
ngaphambilini
ngaphandle
ngaphansi
ngaphesheya
ngaphezu
ngaphezulu
ngase
ngasekupheleni
ngasekuqaleni
ngaseningizimu
ngasentshonalanga
ngasenyakatho
ngasese
ngasikhathi
ngasinye
ngaso
ngasogwini
ngasohlangothini
ngathi
ngawo
ngaye
ngayinye
ngayo
ngazinye
ngazo
ngcobo
ngcono
ngcuka
ngculaza
nge
ngebhendi
ngebheyili
ngecala
ngefomethi
ngegalelo
ngegama
ngegazi
ngegciwane
ngegolide
ngehora
ngejubane
ngeke
ngekhanda
ngekhulu
ngelika
ngelinye
ngelokuthi
ngema
ngemali
ngemfundo
ngemibono
ngemibuzo
ngemicimbi
ngemidlalo
ngemikhiqizo
ngeminwe
ngeminyaka
ngemiphumela
ngemisebenzi
ngemithambo
ngemithetho
ngemithi
ngemiyalo
ngemizuzu
ngemomozi
ngemoto
ngempela
ngempi
ngempilo
ngempumelelo
ngemuva
ngemva
ngemvelaphi
ngemvume
ngenaliti
ngenani
ngencazelo
ngencwadi
ngendaba
ngendawo
ngendima
ngendiza
ngendlela
ngendlu
ngendoda
ngendondo
ngendwangu
ngengoma
ngengqondo
ngenhla
ngenhloso
ngenjabulo
ngenkani
ngenkathi
ngenkolo
ngenkulumo
ngenkuthalo
ngenqubo
ngensimbi
ngensipho
ngentando
ngento
ngentuthuko
ngenxa
ngenyama
ngenyanga
ngenye
ngephutha
ngeqhaza
ngesandla
ngesi
ngesibhunu
ngesicelo
ngesidoda
ngesifo
ngesifulentshi
ngesiheberu
ngesihloko
ngesihluku
ngesikhathi
ngesikhumba
ngesiko
ngesilinganiso
ngesimo
ngesingisi
ngesinqumo
ngesinye
ngesisekelo
ngesisindo
ngesisuthu
ngesitayela
ngesivinini
ngesixhosa
ngesizathu
ngesizini
ngesizulu
ngeso
ngesonto
ngethemba
ngethuba
ngeviki
ngezandla
ngezansi
ngezehlakalo
ngezenzo
ngezezibhangqiwe
ngezi
ngezici
ngezifo
ngezifundo
ngezigaba
ngezigidi
ngezihloko
ngezikhali
ngezikhathi
ngezilimi
ngezimali
ngezimo
ngezimpawu
ngezincwadi
ngezindaba
ngezindawo
ngezindlela
ngezinga
ngezingoma
ngezingxoxo
ngezinhlamvu
ngezinhlelo
ngezinhlobo
ngezinhloso
ngezinjongo
ngezinkinga
ngezinombolo
ngezinsizakalo
ngezinsolo
ngezinsuku
ngezinto
ngezinwele
ngezinyawo
ngezinye
ngeziqu
ngezitayela
ngezithombe
ngezizathu
ngezwi
ngicabanga
ngisho
ngithi
ngiyabonga
ngo
ngob
ngoba
ngobubanzi
ngobuchwepheshe
ngobuciko
ngobude
ngobugebengu
ngobuhlakani
ngobuhle
ngobukhulu
ngobulili
ngobumba
ngobungqingili
ngobuningi
ngobusuku
ngocansi
ngochungechunge
ngodaba
ngodisemba
ngodlame
ngodongoyi
ngofebhuwari
ngofebruwari
ngogesi
ngohlangothi
ngohlelo
ngohlobo
ngohulumeni
ngojanuwari
ngojulayi
ngojuni
ngokobuhlanga
ngokobulili
ngokocansi
ngokokuqala
ngokombono
ngokomfanekiso
ngokomlando
ngokomoya
ngokomqondo
ngokomthetho
ngokomthethosisekelo
ngokomzekelo
ngokomzimba
ngokomzwelo
ngokoqobo
ngokuba
ngokubaluleka
ngokubamba
ngokubambisana
ngokubandakanyeka
ngokubeka
ngokubhala
ngokubona
ngokubuka
ngokubulala
ngokubulawa
ngokucindezela
ngokucophelela
ngokudla
ngokudlala
ngokufa
ngokufaka
ngokufana
ngokufanayo
ngokufanele
ngokufanelekile
ngokufika
ngokugcina
ngokugcwele
ngokugqugquzela
ngokuhamba
ngokuhambisana
ngokuhlangana
ngokuhlanganisa
ngokuhlanganiswa
ngokuhlanganyela
ngokuhlela
ngokuhlinzwa
ngokuhlola
ngokuhlukile
ngokuhweba
ngokujulile
ngokujwayelekile
ngokukhetha
ngokukhethekile
ngokukhipha
ngokukhula
ngokukhululeka
ngokukhululekile
ngokukhuthaza
ngokulandela
ngokulandelana
ngokulandelayo
ngokulingana
ngokulinganayo
ngokulingisa
ngokulwa
ngokumelene
ngokunembile
ngokungafanele
ngokungafani
ngokungajwayelekile
ngokungalingani
ngokungaqondile
ngokungekho
ngokungemthetho
ngokungena
ngokungeziwe
ngokunikeza
ngokunjalo
ngokunqoba
ngokuphambene
ngokuphathelene
ngokuphathwa
ngokuphawulekayo
ngokuphelele
ngokuphepha
ngokuphikisana
ngokuqala
ngokuqhathanisa
ngokuqhubeka
ngokuqhubekayo
ngokuqinile
ngokuqondene
ngokuqondile
ngokusebenza
ngokusebenzisa
ngokusebenzisana
ngokusekelwe
ngokusemthethweni
ngokusetshenziswa
ngokushada
ngokushaya
ngokushaywa
ngokushesha
ngokushintsha
ngokushintshana
ngokusho
ngokushona
ngokusobala
ngokusoka
ngokusungula
ngokususa
ngokususelwa
ngokuthatha
ngokuthengisa
ngokuthi
ngokuthinta
ngokuthola
ngokutholakala
ngokuthula
ngokuvamile
ngokuvumelana
ngokuvundlile
ngokuwina
ngokuxhaswa
ngokuxoshwa
ngokuya
ngokuyikhulisa
ngokuyinhloko
ngokuzalwa
ngokuzayo
ngokuzenzakalela
ngokuzenzekelayo
ngokuzimela
ngokuziphatha
ngokuzithandela
ngokuzumayo
ngokwabo
ngokwakha
ngokwakhe
ngokwalo
ngokwamasiko
ngokwanda
ngokwanele
ngokwaphezulu
ngokwaso
ngokwawo
ngokwayo
ngokwazo
ngokwe
ngokwebala
ngokwehlukana
ngokwemvelo
ngokwenani
ngokwencazelo
ngokwengeziwe
ngokwengqondo
ngokwengxenye
ngokwenkolo
ngokwenza
ngokweqile
ngokweqiniso
ngokwesaba
ngokwesibonelo
ngokwesigaba
ngokwesiko
ngokwesilinganiso
ngokwesimo
ngokwethula
ngokwezimali
ngokwezinga
ngokwezwi
ngolimi
ngolunye
ngolwazi
ngolwesibili
ngolwesihlanu
ngolwesithathu
ngolwezi
ngoma
ngomandulo
ngomashi
ngomasingana
ngomasingane
ngombala
ngombasa
ngombaso
ngombono
ngombuso
ngomculo
ngomdlalo
ngomeyi
ngomfanekiso
ngomfumfu
ngomgqibelo
ngomhla
ngomhlaka
ngomhlane
ngomkhuba
ngomkhumbi
ngomklomelo
ngomlando
ngomlilo
ngomlomo
ngomnyaka
ngomoya
ngomqondo
ngomsakazo
ngomsebenzi
ngomshado
ngomshini
ngomshoshaphansi
ngomsombuluko
ngomthetho
ngomuntu
ngomunwe
ngomunye
ngomyalo
ngomzabalazo
ngomzamo
ngomzimba
ngomzuzu
ngoncwaba
ngondasa
ngonhlaba
ngonhlangula
ngonhlangulana
ngonhlolanja
ngonkulunkulu
ngonovemba
ngontulikazi
ngonyaka
ngosawoti
ngosayizi
ngoseptemba
ngosepthemba
ngosizo
ngosuku
ngounie
ngowe
ngowesifazane
ngowezi
ngowokuqala
ngoxhakaxholo
ngoyi
ngozi
ngozibandlela
ngqa
ngqo
ngqongqoshe
ngu
nguanand
ngubane
ngubani
ngudj
ngudokotela
nguhulumeni
ngujohn
ngujoseph
ngujoshua
ngukuthi
ngulinda
ngumama
ngumartin
ngumasipala
ngumbhali
ngumbuso
ngumculi
ngumdlali
ngumdlalo
ngumec
ngumengameli
ngumenzi
ngumfundisi
ngumhla
ngumhleli
ngumholi
ngumichael
ngumlingisi
ngumlobi
ngummeli
ngumndeni
ngumngani
ngumnu
ngumnyango
ngumongameli
ngumpetha
ngumphakathi
ngumphathi
ngumphostoli
ngumqeqeshi
ngumqondisi
ngumsebenzi
ngumsebenzisi
ngumshayeli
ngumsunguli
ngumthetho
ngumuntu
ngumzila
ngumzulane
ngundunankulu
ngunelson
ngungqongqoshe
nguni
ngunkulunkulu
ngunobhala
ngunozinti
ngunyaka
ngupatrick
ngupeter
nguprofesa
nguqulo
ngusihlalo
ngusmith
ngusopolitiki
nguthisha
ngutshane
nguye
nguyena
nguyise
nguzwid
ngwane
ngwenya
ngxenye
ngxoxo
nh
nha
nhlaba
nhlangano
nhlangulana
nhlanhla
nhleko
nhlobo
nhlolanja
ni
nia
niagara
niari
niassa
nice
nick
nickelodeon
nicotine
nie
niet
niger
nigeria
night
nih
nile
nina
nine
nineteenth
ninfa
ningizimu
nini
ninja
nipple
nippon
nithi
nitrate
nitric
nitrite
nitrites
nitrogen
nja
njalo
nje
njengabalingani
njengabantu
njengabanye
njengabaprofethi
njengabesilisa
njengabobulili
njengaku
njengalezo
njengama
njengamanje
njenganoma
njengazo
njenge
njengegama
njengejaji
njengekhansela
njengelungu
njengemeya
njengencwadi
njengendaba
njengendawo
njengendlela
njengendoda
njengendodana
njengengane
njengengoma
njengengxenye
njengenhlangano
njengenhloko
njengenkampani
njengenkinga
njengenkosi
njengentatheli
njengento
njengenye
njengephini
njengeqembu
njengeqhawe
njengesekela
njengesenzo
njengesibonelo
njengesikhathi
njengesikhungo
njengesisekelo
njengesiteshi
njengesono
njengethuluzi
njengezilwane
njengezimpawu
njengezindawo
njengezinto
njengezinye
njengezwe
njengo
njengoba
njengobuciko
njengobufakazi
njengobungqingili
njengodokotela
njengohlobo
njengokaputeni
njengokudla
njengokujwayelekile
njengokusho
njengokuthi
njengokuya
njengokuziphatha
njengolimi
njengombhishobhi
njengomculi
njengomdlali
njengomeluleki
njengomengameli
njengomfundi
njengomfundisi
njengomhleli
njengomholi
njengomkhakha
njengomkhiqizo
njengomkhuba
njengomkhuzi
njengomlingisi
njengommeleli
njengommeli
njengomongameli
njengomphathi
njengomphumela
njengomqondisi
njengomsebenzi
njengomshayeli
njengomsizi
njengomthombo
njengomuntu
njengomunye
njengomvikeli
njengomxhumanisi
njengondunankulu
njengongqongqoshe
njengonkulunkulu
njengonobhala
njengophawu
njengoshukela
njengosihlalo
njengosotswebhu
njengothisha
njengowesifazane
njll
njombe
njongo
nkabazwe
nkabinde
nkambule
nkampani
nkandla
nkathi
nkayi
nkinga
nkomo
nkosazana
nkosi
nkosikazi
nkqubo
nkulu
nkululeko
nkulumo
nl
nlm
no
nobaba
nobandlululo
nobe
nobel
nobhontshisi
nobhubhane
noble
nobubanzi
nobuchwepheshe
nobuciko
nobudala
nobude
nobudlelwane
nobudlelwano
nobufakazi
nobufazi
nobufebe
nobugebengu
nobuhle
nobuhlungu
nobukhulu
nobulili
nobulungiswa
nobungozi
nobungqingili
nobunikazi
nobuningi
nobunjiniyela
nobuntu
nobunye
nobunzima
nobusika
nobuso
nocansi
nochungechunge
nochwepheshe
nocwaningo
nodaba
nodadewabo
node
nodesmond
nodixie
nodj
nodlame
nodokotela
nogesi
nogogo
nogwayi
nohambo
noharry
nohhafu
nohlangothi
nohlelo
nohlobo
nohlu
nohowo
nohulumeni
nojames
nojesu
nojohn
nojoseph
nojustice
nokhetho
nokho
nokuba
nokubaluleka
nokubeka
nokubhala
nokubhoboza
nokubi
nokubona
nokubukeka
nokubukwa
nokubulala
nokubulawa
nokubusa
nokubuyisana
nokubuyiselwa
nokudangala
nokudla
nokudlala
nokufa
nokufaka
nokufakwa
nokufinyelela
nokufunda
nokufundisa
nokufundwa
nokugcina
nokugcinwa
nokugijima
nokugqoka
nokugxila
nokuhamba
nokuhlala
nokuhlangana
nokuhlanganiswa
nokuhlanza
nokuhlela
nokuhlelwa
nokuhlolwa
nokuhlonipha
nokuhlonishwa
nokuhlukahluka
nokuhlukaniswa
nokuhlukunyezwa
nokuhumusha
nokukhanya
nokukhathazeka
nokukhethwa
nokukhipha
nokukhiqizwa
nokukhishwa
nokukhula
nokukhulisa
nokukhuthaza
nokulahlekelwa
nokulawula
nokulawulwa
nokulimala
nokulinganisa
nokulwa
nokuma
nokunakekelwa
nokuncipha
nokunciphisa
nokungabi
nokungalingani
nokungena
nokunikeza
nokuntuleka
nokunyakaza
nokunye
nokuphatha
nokuphathwa
nokuphefumula
nokuphela
nokuphikisana
nokuphikiswa
nokuphila
nokuqeda
nokuqedwa
nokuqeqeshwa
nokuqhubeka
nokuqina
nokuqinisa
nokuqinisekisa
nokuqonda
nokuqukethwe
nokusakaza
nokusakazwa
nokusatshalaliswa
nokusebenza
nokusebenzisa
nokusetshenziswa
nokushaya
nokushisa
nokusiza
nokusoka
nokusungulwa
nokuthatha
nokutheleleka
nokuthengisa
nokuthengiswa
nokuthi
nokuthola
nokutholakala
nokutholwa
nokuthungwa
nokuthuthukiswa
nokuvela
nokuvikela
nokuvikeleka
nokuvikelwa
nokuvimbela
nokuvinjelwa
nokuvuvukala
nokuwa
nokuxhashazwa
nokuxhumana
nokuxoshwa
nokuya
nokuyilapho
nokuzala
nokuzalwa
nokuzama
nokuzibandakanya
nokuzijabulisa
nokuzingela
nokuziphatha
nokuzivocavoca
nokwakha
nokwakheka
nokwakhiwa
nokwamukelwa
nokwanda
nokwaziswa
nokwe
nokwehla
nokwelashwa
nokwenza
nokwenzeka
nokwenziwa
nokwethembeka
nokwethulwa
nolimi
nolwandle
nolwazi
nom
noma
nomaddie
nomakhelwane
nomama
nomandela
nomasipala
nombala
nombhali
nombhishobhi
nombolo
nombono
nombukiso
nombuso
nomcimbi
nomculi
nomculo
nomdidiyeli
nomdlali
nomdlalo
nomdlavuza
nomelek
nomeluleki
nomengameli
nomfazi
nomfowabo
nomfula
nomhlaba
nomhleli
nomhlophe
nomholi
nomichael
nominationa
nominations
nominees
nomkakhe
nomkhankaso
nomkhiqizi
nomkhonto
nomkhuhlane
nomkhulu
nomklomelo
nomlando
nomlingani
nomlingisi
nomlobi
nomlomo
nommeli
nomndeni
nomngani
nomngcele
nomnotho
nomnyango
nomongameli
nomoya
nompetha
nomphakathi
nomphathi
nomphumela
nomqambi
nomqeqeshi
nomqondisi
nomqondo
nomrepha
nomsebenzi
nomshado
nomsunguli
nomthelela
nomthetho
nomthethosisekelo
nomuntu
nomunye
nomuzwa
nomyeni
nomzabalazo
nomzala
nomzimba
non
nona
nonelson
nongqongqoshe
nonina
nonischemic
nonkosi
nonkosikazi
nonkulunkulu
nonobhala
nonyaka
nophawu
nophenyo
noprofesa
nord
norobert
norse
norte
north
northern
norway
norwegian
nos
nosawoti
nosayizi
nose
noshintsho
noshukela
nosihlalo
nosomabhizinisi
nosopolitiki
nostalgic
nosuku
not
note
notes
nothabo
nothando
nothemba
nothisha
noticia
notre
nova
novel
novelas
noveli
novemba
november
novgorod
now
nowakwakhe
nowe
nowesifazane
nowesilisa
nowinnie
noxolo
noyedwa
nozakwabo
np
npr
nqubo
nsa
nsakey
nsal
nsuku
nsundu
nsw
ntambama
ntem
nto
ntombela
ntsebeza
ntshonalanga
ntuli
ntulikazi
nucleus
nugal
number
numbered
numbers
numeri
nupedia
nuqat
nutrition
nwa
nxa
nxazonke
nxt
nxumalo
ny
nyaka
nyakatho
nyamira
nyandarua
nyandeni
nyanga
nyangatom
nyathi
nyda
nyembezi
nyeri
nyovest
nytimes
nyuvesi
nzas
nzima
nzoia
nzuzo
o
oakland
oasis
obadiya
obaigbena
obala
obaluleke
obalulekile
obama
obambe
obambile
obanzi
obe
obesebenza
obhalwe
obhejane
obhekele
obhekene
obisini
obituary
obizwa
object
obock
obomvu
obonakala
obonisa
observatory
obturator
obubili
obubodwa
obude
obudedengu
obufana
obufanayo
obufanele
obugebengu
obuhle
obuhlukahlukene
obuhlukile
obujwayelekile
obukhulu
obulalayo
obuncane
obungu
obuningi
obuntu
obuphakathi
obusha
obusondelene
obuthile
obuvela
obuye
ocacile
ocansi
ocansini
occupation
ocean
oceania
ocebile
ochungechungeni
ochwepheshe
oclc
oct
october
ocwaningweni
oda
odabeni
odabuka
odadewabo
odala
oddtoed
odi
odlala
odlalela
odlalwa
odlula
odlule
odokotela
odongeni
odume
odumile
oecd
of
ofakazi
ofana
ofanayo
ofanele
ofeleba
off
office
officer
official
officially
offset
often
ofuna
ogama
ogcine
ogcwele
ogla
ogooue
ographique
ogu
ogulayo
ogwini
ogxile
oh
ohamba
ohambweni
ohangwena
ohio
ohlala
ohlanganisa
ohlange
ohlangene
ohlangeneyo
ohlangothini
ohlelweni
ohlinzeka
ohlobo
ohlone
ohloniphekile
ohlonishwa
ohlonishwayo
ohlukanisa
ohlukile
ohlwini
ohola
oholayo
ohulumeni
oil
ois
ojulile
ojwayelekile
okanye
okba
okhalweni
okhanyayo
okhethekile
okhethiwe
okhethwe
okhethweni
okhiye
okhokhelwayo
okhokho
okhombisa
okhona
okhubazekile
okhulelwe
okhululekile
okhuluma
oklahoma
okokugcina
okokuqala
okokusebenza
okotshani
okthoba
oku
okuba
okubaluleke
okubalulekile
okubalwa
okubandakanya
okubangela
okubangelwa
okubanzi
okubhala
okubhalwe
okubi
okubili
okubizwa
okubonakala
okubonakalayo
okubulala
okucacile
okucatshangwa
okudala
okude
okudinga
okudingekayo
okudla
okudlula
okufaka
okufakiwe
okufana
okufanayo
okufanele
okufunda
okugcina
okugcwele
okugoma
okuguquguqukayo
okugxilwe
okuhamba
okuhambisana
okuhlala
okuhlanganisa
okuhlanganisiwe
okuhlangenwe
okuhle
okuhlelekile
okuhlobene
okuhloswe
okuhlukahlukene
okuhlukile
okuholela
okuholele
okujulile
okujwayelekile
okukhethekile
okukhethiwe
okukhombisa
okukhona
okukhulu
okukhulunywa
okukhulunywe
okukodwa
okulandelayo
okulapho
okulingana
okulinganayo
okuluhlaza
okulula
okulungile
okulungiselelwe
okumbalwa
okumele
okumnandi
okumnyama
okunamandla
okuncane
okunempilo
okungaba
okungafanele
okungajwayelekile
okungama
okungapheli
okungaphezu
okungaphezulu
okungaqondakali
okungavamile
okungazelelwe
okungekho
okungena
okungenani
okungenzeka
okungewona
okungeyona
okungeziwe
okungezona
okungu
okungukuthi
okuningana
okuningi
okunjalo
okunoshukela
okunye
okunzima
okuphambene
okuphansi
okuphatha
okuphawuleka
okuphawulekayo
okuphefumula
okuphelele
okuphezulu
okuphuzi
okuqala
okuqhubekayo
okuqinile
okuqondile
okuqukethe
okuqukethwe
okusakaza
okusanhlamvu
okusebenza
okusebenzayo
okusekelwe
okusemthethweni
okusetshenziswa
okusha
okusheshayo
okushisa
okushiwo
okusho
okusobala
okusolwa
okususelwa
okuthi
okuthile
okuthiwa
okutholakala
okutholakele
okutholwe
okuvame
okuvamile
okuvela
okuvelele
okuveza
okuvumela
okuwukuphela
okuye
okuyenza
okuyi
okuyigama
okuyilapho
okuyindawo
okuyingozi
okuyingxenye
okuyinhlangano
okuyinhloko
okuyinkampani
okuyinto
okuyisisekelo
okuyiwona
okuyiyona
okuzala
okuzalwa
okuzama
okuzimele
okwaba
okwabangela
okwabe
okwadala
okwagcina
okwaholela
okwakuthiwa
okwalandela
okwalandelwa
okwamanje
okwamenza
okwandayo
okwanele
okwathi
okwazi
okwaziwa
okwe
okwedlule
okwelapha
okwengeziwe
okwenza
okwenzeka
okwenziwa
okwenziwe
okweqanda
okwesibhakabhaka
okwesibili
okwesikhashana
okwesithathu
okwisifundazwe
ol
ola
olandelayo
old
olimi
olimini
olimpiki
oliver
oloibiri
olokun
olowokandi
olubandakanya
olubanzi
olubhekiswe
olubi
olubizwa
olubonakala
olucacile
olude
oludlala
oludumile
olufana
olufanayo
olufushane
oluhlaza
oluhle
oluhlukile
olujwayelekile
olukhethekile
olukhona
olukhulu
olukhulunywa
olula
olulandelayo
olulodwa
oluncane
olungangeni
olungavikelekile
olungenambala
olungezansi
oluningi
olunye
olunzulu
oluphakathi
oluphakeme
oluphelele
oluphephile
oluqhubekayo
oluqinile
oluqukethe
olusakazwa
olusebenzayo
olusekelwe
olusemthethweni
olusenyakatho
olusetshenziswa
olusha
olususelwa
oluthile
oluvame
oluvamile
oluvela
oluya
oluyinhloko
oluzimele
olwa
olwandle
olwaziwa
olwenziwa
olwenziwe
olympic
omabili
omagazini
omaheke
omakadebona
omalley
omama
oman
omana
omar
omasikandi
omasipala
ombo
ombudsman
ombuso
omculo
omdala
omega
omele
omhlaba
omhlophe
omile
omisiwe
omkhulu
omkhulukazi
omnandi
omncane
omndeni
omningi
omnyama
omo
omongameli
omoya
omphakathi
ompompi
omrane
omsakazo
omthetho
omubi
omude
omuhle
omuntu
omunye
omusati
omusha
omzimba
on
onamandla
onan
once
oncology
ondangwa
one
onekhono
oneminyaka
ongaphansi
ongasekho
ongashadile
ongaziwa
ongcolile
ongcono
ongcwele
ongena
ongenawo
ongene
ongeyena
ongezansi
ongokoqobo
ongomunye
ongqongqoshe
ongu
ongumculi
ongumlingisi
ongumongameli
ongumsunguli
ongumuntu
ongungqongqoshe
ongwaqa
ongwediva
onjalo
onjiniyela
onkamisa
onke
onkulunkulu
online
only
onnerie
onobuhlakani
onogada
onqenqemeni
ons
onsundu
ontario
ontuhlambili
onu
onyakeni
onyawo
op
open
opening
openview
opera
operation
operations
operator
ophahleni
ophakathi
ophakeme
ophambili
ophansi
ophathelene
ophelele
ophethe
ophethwe
ophezulu
ophikayo
ophikisana
ophiko
ophilayo
ophindwe
ophuma
ophumelele
opinion
opium
opuwo
oqanjwe
oqeqeshiwe
oqhamuka
oqinile
oqondile
oqoshiwe
oqukethe
or
oral
oran
orange
orchestra
order
orders
ordinance
oregon
orewa
org
organisation
organization
orgasm
orgasms
ori
oriental
oriented
orifice
origin
original
orisha
orkney
orkoiyot
orlando
oromia
orthodox
os
osanda
osayizi
osaziwayo
oscar
osebenza
osebenzayo
osebenzisa
osekhulile
osemncane
osemthethweni
osemusha
osenyakatho
osesifundazweni
osethathe
osetshenziswa
osezingeni
oshade
oshadile
oshaka
oshakati
oshana
osheshayo
oshikoto
oshisayo
osomabhizinisi
osopolitiki
ososayensi
osotho
ostreliya
ostriya
osuka
osuselwe
othambile
othanda
othandekayo
other
others
othi
othile
othisha
otholakala
otholayo
otis
otjozondjupa
otto
ottoman
ouargla
oued
ouest
ouled
oum
ounces
our
out
outbreak
outercourse
ouzou
ovame
ovamile
ovce
ovela
ovelele
over
overseas
overview
ovulekile
ovumayo
owaba
owabe
owabhala
owabulawa
owadalwa
owadlalela
owaduma
owagcina
owake
owakhiwa
owakhiwe
owamukelayo
owaqala
owasebenza
owashicilelwa
owashona
owasungula
owasungulwa
owathatha
owathi
owathola
owawaziwa
owawina
owawubizwa
owayebizwa
owayekade
owayengu
owayengumdlali
owayengumengameli
owayengumongameli
owayengundunankulu
owayengungqongqoshe
owayengunkosikazi
owayengusihlalo
owayephethe
owayesebenza
owayeyilungu
owayeyinhloko
owazalelwa
owazalwa
owaziwa
owaziwayo
owedlule
owemukelayo
owen
owenza
owenziwa
owenziwe
owesifazane
owesilisa
owezalwa
owine
owinile
own
owodwa
owokugcina
owokuqala
owuchungechunge
oxford
oxhoxho
oxhoxhweni
oxygen
oxytocin
oya
oyam
oyedwa
oyi
oyilungu
oyimfihlo
oyindilinga
oyinhloko
ozakwabo
ozakwethu
ozalwa
ozelwe
ozimele
ozone
ozow
ozungezohlelweni
oʊ
p
pa
pablo
pac
pacific
page
pages
pain
painting
paintings
pair
pakistan
palace
palamende
paleolithic
palgrave
palmer
pan
pandemic
panel
panorama
panther
paolo
paper
papers
papillomavirus
para
parabola
parade
paradise
parameter
paraphimosis
paris
park
parliament
part
participation
particle
partners
party
pasa
pass
past
pasteur
pastor
pat
pathologic
pathological
pathology
patient
patients
patricia
patrick
pattern
patterns
paul
paula
paulo
pawston
pay
pays
paz
pc
pcr
pdf
pe
peace
peach
peacock
peak
pearl
pec
pediatric
pediatrics
pedro
pelvic
pemba
pen
penectomy
penguin
penile
peninsula
penis
pennsylvania
pennywhistle
people
peoples
per
percent
perfect
performance
performed
performer
perineum
period
pers
persian
person
personal
personality
persons
perspective
perspectives
peter
petersburg
petru
peyronie
pf
pg
pgp
ph
phaka
phakade
phakathi
phalloplasty
phallus
phama
phambi
phambili
phambilini
phansi
phd
phecelezi
phela
phesheya
phezu
phezulu
phiko
phil
philadelphia
philani
philip
philippines
phillips
philosophical
philosophy
philty
phimosis
phimotic
phlyctimantis
phoenix
phone
phonetic
phosphorus
photo
photography
php
phrynobatrachus
physical
physician
physics
physiologic
physiological
physiology
piano
pibor
picsou
picture
pictures
pid
pienaar
piercing
pierre
pietermaritzburg
pieterson
pillay
pink
pinkfong
pioneer
pirates
pistorius
pitje
pius
pixley
pk
pl
plaatje
place
places
plain
plan
planet
plant
plastic
plateaux
platform
platinum
plato
play
player
players
playoffs
plc
pleasure
plug
plugs
plural
plus
pm
pmc
pmcentrez
pmid
pneumonia
png
poblacio
podcast
poe
poetry
point
points
pokot
poland
polandball
pole
police
policy
polio
polish
political
politicians
politics
poll
pollution
polyandry
polygamy
polygyny
polymer
pomme
pool
poor
pop
pope
poppy
populac
popular
population
por
porn
pornhub
pornography
pornopedia
port
portail
portal
portfolio
portrait
position
positive
post
posthitis
potassium
potato
potential
potter
poverty
powder
power
pp
ppen
ppv
pr
practice
practices
pradesh
prague
pratt
pre
preez
pregnancy
preliminary
premier
premiere
premium
prentice
prepuce
preputial
preputioplasty
pres
present
presentation
presenter
presidence
presidency
president
presidential
presley
press
pressreader
pretoria
pretty
prevalence
prevention
preview
priapism
price
prima
primary
primates
prime
prince
princess
princeton
principle
principles
print
printing
prison
private
prix
prize
pro
probe
problem
problems
process
produced
producer
product
production
productions
products
professional
professor
profile
program
programme
programmes
programming
progre
progress
progressive
project
projects
pronunciation
prop
propagation
properties
prophet
prosecuting
prospects
prostate
protection
protein
protest
proto
protocol
provi
provided
provides
province
provinces
provincial
ps
psychedelic
psychiatric
psychology
pt
pty
ptychadena
pub
pubic
pubis
public
publication
publications
publique
published
publisher
publishers
publishing
pubmed
pubmedcentral
punk
pure
purity
purposes
pvr
pwani
q
qabula
qadarif
qala
qalyubiyya
qanater
qaphela
qedani
qembu
qena
qi
quantum
quarter
quarterly
quateur
quatro
que
queen
queens
queenstown
question
quinn
quote
quoting
qur
quran
r
ra
race
rached
racing
radebe
radical
radio
rai
rail
rain
rajaram
ral
rale
rally
ralph
ramadan
ramaphosa
rand
randall
range
rap
rape
rapper
ras
rashid
rasu
rat
rate
raw
ray
raymond
rayy
rd
rdda
re
reach
reaction
read
reading
ready
reagan
real
reality
rebellion
recenseamento
recensement
recent
reconciliation
reconstruction
record
recorded
recording
records
rectum
red
reddit
reducing
reed
ref
reference
references
reflections
reform
reformation
refs
reggae
regiment
reginald
region
regional
regions
registration
regulations
rehoboth
reilly
related
relations
relationship
release
released
religion
religions
religious
relizane
remarks
remix
renaissance
rene
rentiel
report
reported
reporter
reports
representative
represents
reprint
reproductive
repu
republic
requires
res
research
reserve
residence
resigns
resistance
resistant
resolution
resource
resources
respiratory
response
responsibility
rest
restoration
resultados
results
retief
retrieved
return
reuters
rev
revascularization
revealed
reveals
reverence
reverse
review
revolution
revolutionary
rey
rgc
rgph
rgpl
rhinoceros
rhinos
rhodes
rhythm
ri
ria
rice
rich
richard
ridge
ridj
rie
riflemen
rift
rigdon
right
rightarrow
rights
rihanna
rin
ring
rio
risa
rise
rising
risk
risks
river
rivonia
rk
rm
rn
rnb
ro
road
robben
robbie
robert
roberts
robinson
roblox
robot
robux
rock
roger
rogers
rohnert
role
roll
rolling
rollins
roman
rome
ron
ronald
room
roots
rose
ross
rotten
rotterdam
rough
roulette
round
rousseau
route
routledge
roux
rowling
roy
royal
rskool
rtl
ru
rub
rugby
rukwa
rule
rules
ruling
rumonge
run
running
runway
rural
rush
russell
russia
russian
rutana
ruth
ruvuma
ruwanda
ruweng
ruyigi
rwanda
ryan
rzel
s
sa
saa
saad
saba
sabafundi
sabantu
sabar
sabc
sabcnews
sabe
sabelo
sabesifazane
sabieh
sabizwa
sabo
sabuye
sachs
sacp
sacred
sadat
saf
safa
safe
safety
saflii
saga
sahara
saharan
sahil
sahistory
sai
said
saint
saints
sakamuva
sakha
sakhe
sakhishwa
sakhiwe
sakho
sakiet
sakubo
sakwa
sakwazulu
sala
salaam
salah
salam
salem
sales
salesifunda
salesifundazwe
salman
salmon
salo
salokho
salokhu
salt
salvador
sam
sama
samabanga
samabhasi
samahhala
samakhemikhali
samalungelo
samandebele
samanje
samanzi
samaphaphu
samaphoyisa
samasosha
samazuba
samazulu
samazwe
samburu
same
sammartino
sampson
samsung
samuweli
san
sanaag
sanamuhla
sand
sandf
sandile
sandra
sandton
sanelly
sang
sangaphakathi
sangaphambi
sangaphambilini
sangaphandle
sangasese
sangempela
sanger
sangha
sango
sangweni
sanitation
sankara
sankuru
sanlam
sannc
sanskrit
santa
santam
sap
sapa
saps
saqala
saqhubeka
sarah
sarhadi
sars
sase
sasebrithani
sasecapricorn
sasegauteng
sasegert
sasejele
sasekapa
sasemelika
sasemini
sasempumalanga
saseningizimu
sasentshonalanga
sasenyakatho
saseromania
sasetransvaal
sasezimbabwe
sash
sashintsha
sasinabantu
sasl
saso
sassa
sasungulwa
satanism
satellite
sathathwa
sathi
satma
saunders
sausage
sava
save
savela
savulwa
sawo
sawubona
saxon
say
sayensi
sayo
says
saziwa
sazo
sbu
sc
sca
scale
scandal
scene
schaik
schmidt
scholar
scholarship
school
schools
schuster
schwab
schwarze
sci
science
sciences
scientific
scissors
sclerophrys
sclerosus
scoan
score
scotland
scots
scott
scottish
screen
scrooge
scrotal
scrotum
sculpture
se
sea
sealed
sean
search
season
seasons
sebhayibheli
sec
second
secondary
secret
secretary
section
secular
security
sedijithali
see
seed
seeiso
sefilosofi
segama
segolide
sekube
sekupheleni
sekuyisikhathi
sekwedlule
selassie
selection
self
selibe
selokhu
semali
semanticscholar
seme
semen
semenya
semfundiso
semfundo
semi
semiconductor
seminyaka
sempi
sempilo
semthethweni
semvelaphi
semvelo
sen
sencwadi
sendabuko
sendak
sendawo
senegal
senegalensis
sengane
sengathi
sengozini
sengqondo
senguquko
senhlalo
senhliziyo
seningizimu
senior
senkantolo
senkolo
senkosi
senkulumo
sennar
senqubo
sensation
sense
sensimbi
sensory
sentambo
sentsha
senyakatho
senyama
senza
senze
senzeka
senzelwe
senziwa
senzo
senzuba
senzubawonga
senzuko
sephalamende
sephepha
september
septhemba
septuagint
septum
seqembu
serial
serie
series
sers
service
services
sesame
sesayensi
sesibili
sesifikile
sesifunda
sesifundazwe
sesikhashana
sesimanje
sesithathu
sesitimela
sesizini
sesonto
sesotho
set
sethelevishini
sethu
sethulwa
sethulwe
seu
sevanga
sevangeli
seven
sevens
severe
sex
sexo
sexual
sexuality
sexually
seychelles
sezakhi
sezempi
sezempilo
sezepolitiki
sezezibhangqiwe
sezibalo
sezifunda
sezifundo
sezikole
sezindaba
sezindebe
sezindela
sezindiza
sezingane
sezingeni
sezingubo
sezinkanyezi
sezinkomo
sezinwele
sezinzwa
sezithombe
sezokwelapha
sezombusazwe
sezomnotho
sezomthetho
sezulu
sezwe
sfax
sfn
sg
sha
shabalala
shabelle
shades
shafak
shaft
shah
shaka
shakespeare
shall
shapefiles
shareit
shark
sharks
sharqia
shatii
shayina
she
sheamus
sheet
sheikh
shell
shellfish
shepstone
sheridan
shewa
shezi
shibin
shield
shin
shintsho
shinyanga
shirt
shivaji
sho
shona
shongwe
shooter
shop
short
shosha
shot
shots
should
show
showcase
shows
shrek
shu
shubra
shuga
shuter
si
siaya
siba
sibanda
sibande
sibe
sibi
sibiya
sibizwa
sibona
sibongile
sibu
sibusiso
sibuye
sicaphuno
sicela
sicelo
sici
sidama
side
sidi
sidinga
sierra
sifaka
sifana
sifo
sifunda
sigaba
sigameko
sign
signal
signs
sigorta
sigwebo
sigxile
sihlahla
sihlala
sihlanganisa
sihlinzeka
sihloko
sika
sikacameron
sikahulumeni
sikamabonakude
sikamongameli
sikankulunkulu
sikapeyronie
sikashukela
sikazwelonke
sikelel
sikhathi
sikhombisa
sikhona
sikhula
sikhulu
sikhuluma
sikhulunywa
sikhundla
sikhungo
siko
sikole
sikwazi
sila
silence
silent
siliana
silicone
silinga
silk
silver
simiyu
simo
simon
simone
simons
simple
simulation
simum
sinai
sinamaphethelo
sincane
since
singaba
singabala
singaphansi
singapore
singene
singer
singh
singida
singing
single
singulimi
singumdwebo
sinqumo
sinye
siphinde
sipho
siqu
siqukethe
sir
sirte
sisakaza
sise
sisebenza
sisebenze
sisebenzisa
siseduze
siseka
sisekelo
sisetshenziselwa
sisetshenziswa
sisho
sister
sisters
sisuka
sisulu
sitcom
site
sites
siteshi
sithi
sithola
sitholakala
sithole
sithombe
sitrobheli
situ
sivame
sivela
sivumelwano
siwuhlobo
siwulimi
six
siya
siyabonga
siye
siyikhaya
sizathu
size
sizoba
sizwe
sjava
sk
skateboarding
skikda
skills
skin
skweyiya
sky
slang
slate
slimane
slit
slovo
sm
sma
smackdown
small
smart
smartphone
smartphones
smile
smith
sms
smuts
snake
snnpr
snork
snow
so
soapie
sobala
sobandlululo
sobuciko
sobukhosi
sobukwe
sobulili
sobungameli
sobungqingili
sobuso
socansi
soccer
soccerway
social
socialist
society
sod
sodium
sodo
sodomy
sofala
sofia
softkenya
software
sofuba
sohag
sohlangothi
sohlelo
sohlobo
sohudo
soil
sokhetho
sokholo
sokuba
sokubusa
sokudla
sokudlala
sokudlulisa
sokufa
sokufakwa
sokufunda
sokugcina
sokuhlala
sokukhula
sokukhulelwa
sokukhuluma
sokulawula
sokulingisa
sokulwa
sokumiswa
sokuphatha
sokuphikisa
sokuphila
sokuphumula
sokuqala
sokusakaza
sokusebenza
sokushaya
sokushona
sokusoka
sokuthi
sokuthola
sokuthomba
sokuthula
sokuxhumana
sokuya
sokuzala
sokuzalwa
sokuzijabulisa
sokuziphatha
sokwakha
sokwakhiwa
sokwenza
solar
solid
solimi
solo
solomon
solutions
solwazi
soma
somali
somalia
somalias
somaliland
somalireview
somaliya
sombukiso
sombuso
somchamo
somcimbi
somculo
somdlalo
somdlavuza
some
somers
somhlaba
somhlangano
somlilo
somndeni
somnotho
somnyango
somoya
somphakathi
somsakazo
somsebenzi
somshado
somthetho
somthethosisekelo
somtholampilo
somuntu
somuthi
somzabalazo
somzimba
son
sona
song
songs
songwe
sonke
sons
sontonga
sony
sonyaka
sool
sophia
soqobo
sore
sotashe
sothando
souk
soul
sound
sounds
source
sources
sousse
south
southafrica
southern
soviet
sowesifazane
sowesilisa
sowetan
sowetanlive
soweto
sp
space
spain
span
spanish
speak
speaker
speaking
speaks
spears
special
species
speech
speed
spencer
spenish
sperm
spice
spike
spirit
spiritual
spongiosum
sport
sports
spot
spp
spread
spring
springbok
springboks
springer
spy
sq
squad
squamous
square
src
sri
ss
ssa
ssrn
st
stability
stackrel
stadium
stadoids
staff
stage
stanbul
stand
standard
standards
stanford
stanley
star
stars
start
started
state
statement
states
static
station
statistics
statistique
statistiques
statoids
statue
status
steenhuisen
stellenbosch
stem
stenosis
step
stephen
steps
steroids
steve
steven
stevenson
stewart
sti
stica
still
stimulation
stock
stone
stop
store
story
straight
strait
strap
strategies
strategy
strawberry
street
structure
struggle
stub
stuck
student
students
studies
studio
studios
study
style
su
sua
sub
subcontinent
subdivision
subject
submit
subregions
substances
suburb
success
such
sucrose
sucuk
sud
sudan
sudanese
sudantribune
suef
suez
suggested
suite
suku
sul
sulcus
sullivan
sultas
sum
summary
summer
sumo
sun
sunday
sundowns
super
supersport
supper
suppl
supply
support
supporting
supreme
sur
surgeons
surgery
surgical
suricata
surveillance
survey
survivor
susan
sustainable
sutherland
sw
swa
swab
swahili
swallows
swazi
swaziland
swazini
swedenborg
swedish
sweet
sweets
swiggy
switzerland
sworn
sydney
symbols
symptoms
syndrome
syndromes
system
systematic
systems
t
ta
table
tables
taboo
tabora
tadjourah
tafelberg
tag
tags
taibu
tail
tailor
taita
taiwan
taka
take
takealot
tale
tales
talk
talks
talwar
tamanrasset
tambo
tana
tanaka
tanakh
tanga
tanganyika
tank
tanzania
taproot
taraz
taref
task
tataouine
tatenda
taveta
tawana
tax
taxi
taxonomy
taylor
tb
tcm
te
teacher
teachers
teaching
teachings
teal
team
tebessa
tech
technical
technique
technologies
technology
teen
teeveetee
telecel
telegraph
telenovelas
television
telkom
tell
tempera
temperature
template
temple
tempo
ten
tendai
tennessee
term
terminal
terms
terra
terrestrial
territorial
territory
test
testis
testosterone
tete
texas
text
textrm
th
thabang
thabet
thabethe
thabo
thabong
thailand
thames
than
thanda
thando
thank
thanzaniya
tharaka
that
thatha
the
theatre
theft
their
them
thema
themba
thembi
then
thenjiwe
theology
theory
therapy
there
these
thesis
thesouthafrican
they
thi
thile
thimothewu
thina
things
think
thinking
third
this
thisday
thizeni
thokozani
thomas
thompson
thomson
thought
thousand
three
through
thuba
thula
thuli
thuniziya
ti
tiaret
tibetan
tie
tif
tiffany
tiger
tigers
tigray
tiktok
till
timberlake
time
timeline
times
timeslive
timimoun
timothy
tin
tindouf
tipaza
tissemsilt
title
titles
tito
tizi
tlemcen
tnt
to
tobacco
today
togdheer
tokyo
tola
tom
tomatoes
tomopterna
ton
tonder
tone
tongue
tonight
tony
too
tool
top
topics
torah
toronto
torsten
torture
toub
touch
touggourt
tour
tourism
tournament
towards
tower
town
towns
township
tozeur
tr
track
tracks
traction
trade
tradition
traditional
traffic
trailer
train
training
trans
transformer
transgender
transition
transkei
translate
translated
translation
translations
transmission
transmitted
transport
transvaal
trauma
travail
travel
trc
tre
treason
treatment
tree
tresor
trevor
tri
trial
tribune
tripoli
trophy
tropical
trouble
true
trump
trust
truth
try
ts
tshabalala
tshela
tshopo
tshuapa
tshumbe
tshwane
tsotsi
tsotsitaal
tsvangirai
tswana
tu
tuam
tumbuka
tuna
tunica
tunis
tunisia
tunisian
tunisieindustrie
tunisienne
turk
turkana
turkey
turkic
turkish
turning
turns
tutu
tv
tvsa
twenty
twitter
two
type
types
u
ua
uasin
uba
ubaba
ubach
ubala
ubalule
ubalwa
ubamba
ubambe
ubandakanya
ubandlululo
ubangi
ubani
ubantu
ubarbara
ubari
ubarnard
ubarros
ubatuman
ube
ubedard
ubefa
ubehlala
ubeka
ubekade
ubekwe
ubela
ubelokhu
ubemele
ubengomunye
ubenjamin
ubenyu
ubephethe
ubesebenza
ubeyilungu
ubeyingxenye
ubezalwa
ubhadane
ubhala
ubhale
ubhalwe
ubhanana
ubhatata
ubhedu
ubhejane
ubheka
ubhekane
ubheke
ubhekene
ubhekise
ubhiya
ubhontshisi
ubhubhane
ubisi
ubiti
ubiza
ubize
ubizo
ubizwa
ubizwe
ublum
ubona
ubonakala
ubonakale
ubos
uboshi
uboshiwe
ubotha
uboya
ubrenda
ubrendan
ubrigham
ubrown
ubruce
ububanzi
ububi
ububuddha
ubuchopho
ubuchwepheshe
ubuciko
ubucwebe
ubudala
ubude
ubudha
ubudlelwane
ubudlelwano
ubudoda
ubufakazi
ubufebe
ubugebengu
ubugombelakwesakhe
ubuhlakani
ubuhlalu
ubuhlanga
ubuhle
ubuhlobo
ubuhlungu
ubuholi
ubujuda
ubukhazikhazi
ubukhomanisi
ubukhona
ubukhosi
ubukhulu
ubukrestu
ubukristu
ubulala
ubulili
ubulongwe
ubulungiswa
ubulungu
ubumba
ubumbano
ubumnandi
ubumsulwa
ubuncane
ubungako
ubungane
ubungani
ubungozi
ubungqingili
ubunikazi
ubuningi
ubunjalo
ubunjiniyela
ubunkulunkulu
ubunqunu
ubuntombi
ubuntu
ubunye
ubunzima
ubuphofu
ubuqhawe
ubuqiniso
ubusathane
ubushoshovu
ubusi
ubusika
ubuso
ubusuku
ubuthelezi
ubuthi
ubuye
ubuyela
ubuyele
ubuzwe
uc
ucabanga
ucaiphus
ucameron
ucansi
ucaptain
ucarl
ucele
ucetshwayo
ucezu
uchampion
ucharles
ucharli
uchatara
uchaza
uchaze
uchazwa
uchazwe
uchithe
uchris
uchung
uchunge
uchungechunge
ucingo
uclement
ucoyote
ucrosby
uct
ucwaningo
ucyril
ud
udaba
udade
udadewabo
udaniel
udavid
udavis
ude
udesmond
udf
udilikajele
udinga
udingane
udingiswayo
udj
udkt
udla
udlala
udlale
udlalela
udlame
udlamini
udlule
udokotela
udonaldson
udonga
udoti
udube
uduma
udume
udumo
ue
uefa
ufaith
ufaka
ufake
ufaku
ufebhuwari
ufika
ufike
ufikile
ufrank
ufudu
ufuna
ufunda
ufunde
ufundeka
ufundise
ugabriel
ugalileo
uganda
ugaul
ugazuyeva
ugcina
ugcine
ugeneral
ugenesise
ugeorge
ugesi
ugo
ugodo
ugogo
ugoodwin
ugovan
ugqozi
ugu
ugumede
ugumpende
uguqa
ugwayi
ugwetshwe
ugxile
uhabib
uhamba
uhambe
uhambo
uhamilton
uhani
uharry
uhelen
uhenry
uhezekeli
uhhafu
uhla
uhlaka
uhlakahlisombulu
uhlala
uhlale
uhlamvu
uhlanga
uhlangane
uhlanganisa
uhlangothi
uhlela
uhlelo
uhlobo
uhlsport
uhlu
uhlukanisa
uhlukaniswe
uhola
uhowo
uhudo
uhugh
uhulumeni
uhunsinger
uhuru
ui
uitenhage
uj
ujacob
ujakobe
ujali
ujama
ujames
ujane
ujarlath
ujay
ujean
ujeff
ujerry
ujesu
ujim
ujoe
ujohane
ujohn
ujohnson
ujona
ujoseph
ujoshua
ujoyine
uju
ujub
ujudith
ujulius
ujuni
ujusi
ujustin
uk
ukadalie
ukaputeni
ukarabo
ukassina
uke
ukent
uketshezi
ukevin
ukhabzela
ukhan
ukhaya
ukhayyam
ukhetho
ukhethwa
ukhiphe
ukhiqiza
ukhishwa
ukhiye
ukholelwa
ukholo
ukhombisa
ukhombise
ukhozi
ukhula
ukhule
ukhulele
ukhuluma
ukhulume
ukhumalo
ukhuni
ukhunjulwa
ukhuzani
ukhuzwayo
uking
uknigge
ukolweni
ukoma
ukonakala
ukonga
ukopha
ukraine
uku
ukuba
ukubala
ukubaluleka
ukubalwa
ukubamba
ukubambezeleka
ukubambisana
ukubandakanya
ukubandakanyeka
ukubanga
ukube
ukubeka
ukubekwa
ukubhala
ukubhalisa
ukubhalwa
ukubhebhetheka
ukubheja
ukubheka
ukubhekana
ukubhekisa
ukubhekiswa
ukubhekwa
ukubhema
ukubhoboza
ukubhobozwa
ukubhukuda
ukubika
ukubikezela
ukubingelela
ukubiza
ukubizwa
ukubona
ukubonakala
ukubonakaliswa
ukubonisa
ukuboniswa
ukubonwa
ukubopha
ukuboshwa
ukubuka
ukubukeka
ukubukwa
ukubulala
ukubulawa
ukubusa
ukubuyekezwa
ukubuyela
ukubuyisa
ukubuyisana
ukubuyiselwa
ukubuyiswa
ukubuza
ukucabanga
ukucaphuna
ukuchaza
ukuchazwa
ukuchithwa
ukucikiza
ukucindezela
ukucindezeleka
ukucindezelwa
ukucondoza
ukucubungula
ukucula
ukucwaswa
ukudala
ukudalwa
ukudansa
ukudideka
ukudla
ukudlala
ukudlidliza
ukudliwa
ukudlula
ukudlulisa
ukudluliswa
ukudlwengula
ukudlwengulwa
ukudonsa
ukuduma
ukudweba
ukufa
ukufaka
ukufakelwa
ukufakwa
ukufana
ukufeza
ukufihla
ukufika
ukufikela
ukufinyelela
ukufisa
ukufuduka
ukufuna
ukufunda
ukufundela
ukufundisa
ukufundiswa
ukufundwa
ukugaya
ukugcina
ukugcinwa
ukugcizelela
ukugcotshwa
ukugcwala
ukugcwaliswa
ukugeleza
ukugeza
ukugidinga
ukugijima
ukugobeka
ukugoma
ukugqamisa
ukugqoka
ukugqokwa
ukugqugquzela
ukugqwayiza
ukugubha
ukugula
ukuguquguquka
ukuguquka
ukuguqula
ukuguqulwa
ukugwema
ukugxeka
ukugxekwa
ukugxila
ukuhamba
ukuhambela
ukuhambisana
ukuheha
ukuhlakanipha
ukuhlala
ukuhlanekezela
ukuhlangana
ukuhlanganisa
ukuhlanganiswa
ukuhlanganyela
ukuhlanza
ukuhlanzwa
ukuhlasela
ukuhlaselwa
ukuhlaziya
ukuhlaziywa
ukuhlehliswa
ukuhlela
ukuhleleka
ukuhlelwa
ukuhlinzeka
ukuhlinzekwa
ukuhlinzwa
ukuhlola
ukuhlolwa
ukuhlonipha
ukuhlonishwa
ukuhlonza
ukuhlotshaniswa
ukuhlubuka
ukuhluka
ukuhlukahluka
ukuhlukana
ukuhlukanisa
ukuhlukaniswa
ukuhlukumeza
ukuhlukumezeka
ukuhlukunyezwa
ukuhlulwa
ukuhlupheka
ukuhola
ukuhoxa
ukuhoxisa
ukuhoxiswa
ukuhumusha
ukuhunyushwa
ukuhweba
ukuhwebelana
ukujoyina
ukujula
ukukhala
ukukhangisa
ukukhanya
ukukhanyisa
ukukhathazeka
ukukhetha
ukukhethwa
ukukhipha
ukukhiqiza
ukukhiqizwa
ukukhishwa
ukukhokha
ukukhokhela
ukukhokhelwa
ukukholelwa
ukukhomba
ukukhombisa
ukukhonjiswa
ukukhonza
ukukhonzwa
ukukhubazeka
ukukhula
ukukhulelwa
ukukhulisa
ukukhuliswa
ukukhulula
ukukhululwa
ukukhuluma
ukukhulunywa
ukukhuluphala
ukukhumbula
ukukhuphuka
ukukhuthaza
ukukhuthazeka
ukukhuthazwa
ukukhwabanisa
ukukhwehlela
ukukhwentuza
ukuklama
ukukwenza
ukulahleka
ukulahlekelwa
ukulahlwa
ukulala
ukulalela
ukulanda
ukulandela
ukulandelana
ukulandisa
ukulawula
ukuletha
ukulethwa
ukulima
ukulimala
ukulingana
ukulinganisa
ukulingisa
ukulondoloza
ukulungisa
ukulungiselela
ukulungiswa
ukulwa
ukulwela
ukuma
ukumboza
ukumbozwa
ukumela
ukumelana
ukumelwa
ukuminyana
ukumisa
ukunaka
ukunakekelwa
ukunakwa
ukunamathela
ukunambitheka
ukuncela
ukuncintisana
ukuncipha
ukunciphisa
ukunemba
ukungabekezelelani
ukungabi
ukungacaci
ukungafani
ukungaguquguquki
ukungakwazi
ukungalingani
ukungaqondakali
ukungasebenzi
ukungashadi
ukungathembeki
ukungaziphathi
ukungcola
ukungena
ukungenela
ukungenelela
ukungeniswa
ukungezwani
ukungondleki
ukungqubuzana
ukunika
ukunikela
ukunikeza
ukunikezwa
ukunqoba
ukunquma
ukuntuleka
ukunweba
ukunwebeka
ukunwetshwa
ukunyakaza
ukupela
ukuphakama
ukuphakanyiswa
ukuphatha
ukuphathwa
ukuphawula
ukuphazamiseka
ukuphefumula
ukupheka
ukuphela
ukuphendula
ukuphenya
ukuphepha
ukuphika
ukuphikelela
ukuphikisa
ukuphikisana
ukuphila
ukuphinda
ukuphinga
ukuphinyiselwa
ukuphoqa
ukuphoqelelwa
ukuphuka
ukuphuma
ukuphumelela
ukuphumula
ukuphuza
ukuqabula
ukuqabulana
ukuqagela
ukuqala
ukuqamba
ukuqapha
ukuqaphela
ukuqasha
ukuqashelwa
ukuqashwa
ukuqeda
ukuqedwa
ukuqeqeshwa
ukuqhanyelwa
ukuqhekeka
ukuqhuba
ukuqhubeka
ukuqhuma
ukuqina
ukuqinisa
ukuqinisekisa
ukuqinisekisile
ukuqinisekiswa
ukuqiniswa
ukuqokwa
ukuqonda
ukuqondisa
ukuqondiswa
ukuqopha
ukuqoqa
ukuqoqwa
ukuqoshwa
ukuqubuka
ukuqulwa
ukusabalala
ukusabalalisa
ukusabela
ukusakaza
ukusakazeka
ukusakazwa
ukusatshalaliswa
ukusayina
ukusebenza
ukusebenzela
ukusebenzisa
ukusebenzisana
ukusekela
ukusekelwa
ukusetshenziselwa
ukusetshenziswa
ukushada
ukushaya
ukushayela
ukushesha
ukushicilela
ukushicilelwa
ukushintsha
ukushintshaniswa
ukushintshwa
ukushisa
ukushiya
ukusho
ukushoda
ukushona
ukushukuma
ukushushiswa
ukusika
ukusikeka
ukusikwa
ukusiza
ukusoka
ukusondelana
ukusuka
ukusukela
ukusungula
ukusungulwa
ukususa
ukususwa
ukuswela
ukutadisha
ukuthambekela
ukuthanda
ukuthandana
ukuthandwa
ukuthatha
ukuthathwa
ukutheleleka
ukuthenga
ukuthengisa
ukuthengiswa
ukuthengwa
ukuthi
ukuthini
ukuthinta
ukuthintana
ukuthobela
ukuthola
ukutholakala
ukutholwa
ukuthula
ukuthumela
ukuthunyelwa
ukuthutha
ukuthuthuka
ukuthuthukisa
ukuthuthukiswa
ukuthwebula
ukutolika
ukutshala
ukutshalwa
ukuvakasha
ukuvakashela
ukuvala
ukuvalwa
ukuvela
ukuvelela
ukuveza
ukuvezwa
ukuvikela
ukuvikeleka
ukuvikelwa
ukuvimba
ukuvimbela
ukuvinjelwa
ukuvivinya
ukuvota
ukuvukela
ukuvula
ukuvuleka
ukuvulwa
ukuvumela
ukuvumelana
ukuvusa
ukuvuselela
ukuvuselelwa
ukuvuswa
ukuvuthwa
ukuvuvukala
ukuwa
ukuwela
ukuwina
ukuwohloka
ukuxazulula
ukuxazululwa
ukuxhasa
ukuxhashazwa
ukuxhaswa
ukuxhumana
ukuxilonga
ukuxilongwa
ukuxoshwa
ukuxoxa
ukuxubana
ukuya
ukuyeka
ukuyenza
ukuyofunda
ukuzala
ukuzalwa
ukuzama
ukuze
ukuzibandakanya
ukuzibona
ukuzibophezela
ukuzibulala
ukuzijabulisa
ukuzila
ukuzimela
ukuzimisela
ukuzingela
ukuzinikela
ukuziphatha
ukuzitholela
ukuzivikela
ukuzivocavoca
ukuzivumelanisa
ukuzulazula
ukuzwa
ukuzwela
ukwabelana
ukwahluka
ukwahlulela
ukwakha
ukwakheka
ukwakhiwa
ukwamukela
ukwamukelwa
ukwanda
ukwandisa
ukwaneliseka
ukwanga
ukwazi
ukwazile
ukwazisa
ukwaziswa
ukweba
ukwedlula
ukwehla
ukwehliswa
ukwehluka
ukwehlukana
ukwehlukanisa
ukwehluleka
ukwelapha
ukwelashwa
ukwelula
ukwengeza
ukwengezwa
ukwenqaba
ukwenza
ukwenzeka
ukwenzela
ukwenziwa
ukwephula
ukweqa
ukwesaba
ukwesekwa
ukwethembeka
ukwethuka
ukwethula
ukwethulwa
ukzn
ulahlekelwe
ulaka
ulandisa
ulanga
ulasandra
ulayini
ulayishe
ulebo
ulele
uletta
ulevitikusi
ulimi
ulingisa
uliv
ulm
ulouis
ulster
ultimate
ultrasound
uluka
ulungisa
ulusifa
uluthando
ulwaluko
ulwandle
ulwangu
ulwazi
ulwebu
ulwelwesi
ulwezi
um
uma
umabuse
umabuza
umacheso
umaddox
umadikizela
umadonsela
umagazini
umageba
umahir
umahlangu
umahlatsi
umahluko
umajola
umakgoba
umakhalekhukhwini
umakhelwane
umakhoba
umakhura
umakoti
umalaleveva
umalume
umalusi
umam
umama
umamazane
umamukeli
umandela
umandisa
umandla
umani
umann
umanswininiza
umanzini
umapulana
umaria
umark
umartin
umary
umasekela
umashego
umashi
umasilela
umasinga
umasipa
umasipala
umason
umatikuletsheni
umax
umaxwell
umbala
umbasa
umbeki
umbel
umbels
umbhali
umbhalo
umbhishobhi
umbhoxo
umbiko
umbikombani
umbono
umboweni
umbukiso
umbusi
umbuso
umbuthano
umbutho
umbuzo
umcabango
umcalahle
umcbride
umchamo
umchaza
umchazampilo
umchazandalo
umchazatho
umchazazibalo
umcimbi
umculi
umculo
umcwaningi
umdali
umdanso
umdidiyeli
umdiki
umdlali
umdlalo
umdlavuza
umdlwane
umdwebi
umdwebo
umehluko
umele
umelek
umelo
umeluleki
umemezela
umemezele
umengameli
umenzi
umete
umethuli
umeyi
umfana
umfanekiso
umfazi
umfefenyeko
umfelandawonye
umfolozi
umfowabo
umfula
umfundaze
umfundi
umfundisi
umfutho
umgadli
umgibeli
umgijimi
umgodi
umgogodla
umgomo
umgqagqa
umgqugquzeli
umgungundlovu
umgungungundlovu
umgwaqo
umhlaba
umhlabathi
umhlahlandlela
umhlakahlo
umhlalaphansi
umhlambi
umhlangano
umhlaziyi
umhleli
umhloli
umhlophe
umholi
umholo
umi
umichael
umikami
umike
umiriam
umjaho
umjikelezo
umjovo
umkabayi
umkakhe
umkhakha
umkhandlu
umkhankaso
umkhathi
umkhathilibe
umkhawulo
umkhiqizi
umkhiqizo
umkhombo
umkhondo
umkhonto
umkhosi
umkhuba
umkhuhlane
umkhulu
umkhulukhulwana
umkhulumeli
umkhumbi
umkhuzi
umkhwenyana
umklamo
umklomelo
umlando
umlayezo
umlelesa
umlenze
umlilo
umlindo
umlingani
umlingisi
umlingiswa
umlobi
umlomo
umlotha
umlutha
umm
ummangalelwa
ummbila
ummeli
umncintiswano
umndeni
umngane
umngani
umngcele
umngcwabo
umnikazi
umnikeli
umnikelo
umnotho
umnqobi
umntwana
umnu
umnuz
umnyango
umnyombo
umnyondo
umoba
umogoeng
umohlala
umoiloa
umonakalo
umongameli
umongo
umorobe
umoroni
umose
umoses
umosia
umoya
umoyo
umpetha
umphakathi
umphathi
umphimbo
umpho
umphostoli
umphumela
umpofu
umpristi
umprofethi
umqambi
umqangqo
umqeqeshi
umqhubi
umqhudelwano
umqondisi
umqondo
umqophi
umqulu
umsakazi
umsakazo
umsebenzi
umsebenzisi
umshado
umshayeli
umshayi
umshicileli
umshini
umshumanqa
umshumayeli
umsindo
umsizi
umsubathi
umsuka
umsunguli
umswati
umtapo
umtawarira
umthambo
umthelela
umthengisi
umthetho
umthethosisekelo
umthethosivivinywa
umthethwa
umthombo
umthondo
umthwalo
umtintso
umugqa
umuhammad
umumo
umuntu
umunwe
umusa
umusho
umuthi
umuzi
umuzwa
umvelinqangi
umvikeli
umxenge
umxhwele
umxube
umyalelo
umyalezo
umyalo
umyeni
umzabalazo
umzali
umzamo
umzekelo
umzila
umzilafasimbe
umzilikazi
umzimba
umzukulu
umzulane
umzungu
un
unamandla
unandi
unasty
unathi
uncapayi
uncwaba
und
undaba
undasa
undebele
under
underground
understanding
undlovu
undp
undunankulu
undwandwe
une
uneave
unecdet
unelson
unemade
uneminyaka
unene
unesco
unezingane
uneziqu
unfit
ungaba
ungakwazi
ungasetshenziswa
ungcobo
ungena
ungene
ungenele
ungomunye
ungongqongqoshe
ungowaseningizimu
ungowesibili
ungowesifazane
ungqimba
ungqongqoshe
ungubane
ungubani
unguhlabeleli
unguja
ungulates
ungumama
ungumbhali
ungumculi
ungumdlali
ungumdwebi
ungumethuli
ungumfowabo
ungumholi
ungumlingisi
ungumlobi
ungummeli
ungumnikazi
ungumongameli
ungumpetha
ungumphathi
ungumqondisi
ungumshayeli
ungumsunguli
ungumuntu
ungumzulane
ungungqongqoshe
ungunkulunkulu
ungusihlalo
ungusomabhizinisi
ungusopolitiki
ungwenya
unhlaba
unhlangulana
unhlanhla
unhlolanja
unicef
unikele
unikeza
unikeze
unikezwe
unina
union
unions
unique
unisa
unit
unite
united
units
unity
universal
universe
universita
universite
university
unjani
unjiniyela
unkk
unknown
unkosazana
unkosi
unkosikazi
unks
unkululeko
unkulunkulu
unkulunkulukazi
unobhala
unochoko
unokhwezi
unolundwa
unomakhekheba
unomaxhama
unomcebo
unomjubane
unompempe
unomphela
unomvula
unongo
unosipho
unotshezi
unowa
unozinti
unqobe
unqobile
unqume
unrecognized
untando
untombela
untoni
untuli
unveiled
unxantathu
unyaka
unyanda
unyandla
unyawo
unyembezi
up
upa
upapa
upatricia
upaul
upaula
upawulu
update
updated
updates
upelepele
upeter
uphakamisa
uphakamise
uphatha
uphawu
uphawula
uphayinaphu
uphehlukwayo
uphenyo
uphethe
uphethiloli
uphethwe
uphiko
uphila
uphinde
uphiwa
uphuma
uphumelele
uphungashe
upiyano
upon
upondo
upopayi
upper
uprising
uprofesa
uqabula
uqala
uqale
uqambe
uqanjwe
uqaphele
uqayiso
uqeda
uqedani
uqede
uqhekeko
uqhiwu
uqhubeka
uqhubeke
uqhubekile
uqhudelane
uqobo
uqokelwe
uqokwe
uqonde
uqukatha
uqukethe
uqukethomagama
ur
urabi
uradebe
urajaram
uramaphosa
uray
uraymond
urban
urdu
urethra
urethral
urichard
urimi
uriri
url
urobert
uroblox
urogenital
urol
urological
urology
uruth
us
usa
usabelo
usana
usandile
usankara
usanta
usathane
usawoti
usayine
usayizi
usb
uschumacher
use
usebenza
usebenze
usebenzisa
usebenzise
used
usedlale
useke
usekela
usen
usenzangakhona
usepub
user
usetshenziselwa
usetshenziswe
ushada
ushade
ushafak
ushaka
ushaya
ushaye
ushevu
ushicilele
ushintsho
ushivaji
ushivangi
ushivanya
ushiye
ushizi
usho
ushokoledi
ushone
ushongwe
ushonile
ushukela
ushwele
usibusiso
usihlalo
usilinga
usimon
usimons
using
usipho
usisi
usisulu
usiyabonga
usize
usizo
usizwe
usl
uslovo
usmith
usobhuza
usoklele
usolomon
usolwazi
usomabhizinisi
usomagwebu
usomahlaya
usophia
usopolitiki
usosayensi
usotashe
ust
usteve
usteven
usuke
usuku
usungule
ususan
utah
utaibu
utaku
utamatisi
utambo
utariro
utawana
utaylor
utc
utelkom
utendai
uthabang
uthabo
uthandana
uthando
uthango
uthatha
uthathe
uthathwa
uthe
uthemba
uthembi
uthi
uthimba
uthisha
uthishanhloko
uthixo
utho
uthola
utholakala
uthole
uthomas
uthuthuva
uthweswe
utito
utolika
utom
utshalomali
utshani
utshela
utshele
utshwala
utumi
uuthi
uvame
uvan
uvela
uvele
uvete
uveysel
uveza
uveze
uvilakazi
uvusi
uwalter
uwalus
uwc
uwebb
uweishaupt
uwessels
uwikipedia
uwilliam
uwine
uwinnie
uwoyela
uxhakaxholo
uxhaso
uxhoxho
uxhumana
uxolani
uxolo
uxoxa
uya
uyabhala
uyajola
uyakwazi
uyaqhubeka
uyazi
uyaziwa
uye
uyena
uyi
uyilungu
uyincwadi
uyindodakazi
uyindodana
uyingxenye
uyinhlwa
uyinkosi
uyise
uyoung
uzakariya
uzakwethu
uzalelwe
uzalo
uzalwa
uzama
uzandile
uze
uzibandlela
uzimele
uzimisele
uzoba
uzobe
uzola
uzoleka
uzophinde
uzulu
uzuma
uzungezohlelo
uzungu
uzuze
uzwelakhe
uzwide
v
va
vaccination
vaccine
vaccines
vacuum
vaginal
vakinankaratra
valley
value
values
van
varsity
vatovavy
ve
vedhi
vegas
velar
velvet
ventral
venture
venturebeat
venus
verb
verlag
veronica
version
verster
versus
vertebrate
very
vessels
vhs
vi
via
vibrator
vice
victor
victoria
vida
video
vidiyo
vienna
vietnam
view
viewers
views
vihiga
vii
viii
vilakazi
village
ville
vin
vincent
vinci
violence
violent
vir
virgin
virginia
virginity
virtual
virus
viruses
visa
visible
vision
visit
visual
vitamin
vivekananda
vivica
vladimir
vlamertinge
vo
vocalist
vodacom
voice
voices
vol
volcano
volleyball
volume
vom
von
vos
vote
vr
vre
vs
vulva
vulvar
vusi
vuzu
w
wa
waba
wabaculi
wabadlali
wabafundi
wabahlali
wabaholi
wabaleka
wabalingisi
wabalingiswa
wabamba
wabambisana
wabamhlophe
wabandakanyeka
wabanjwa
wabantu
wabasebenzi
wabasunguli
wabe
wabeka
wabekwa
wabelana
wabesifazane
wabesilisa
wabhala
wabhalela
wabhalisa
wabhalwa
wabheka
wabhekana
wabika
wabikezela
wabiza
wabizwa
wabo
wabona
wabonakala
wabonisa
wabonwa
waboshelwa
waboshwa
wabulala
wabulawa
wabusa
wabuya
wabuye
wabuyela
wacela
wacelwa
wachaza
wachazwa
wachitha
wacula
wadala
wadedelwa
wadi
wadingiselwa
wadl
wadla
wadlala
wadlalela
wadlalwa
wadlula
wadlulela
wadlulisela
waduma
wadutshulwa
wafa
wafaka
wafakwa
wafika
wafinyelela
wafl
wafuna
wafunda
wafundela
wafundisa
wafundiswa
wafungiswa
wagcina
wagcotshwa
wagomela
wagqama
wagqunywa
wagula
wagwetshwa
wagxeka
wagxekwa
wagxila
wahamba
wahambela
wahat
wahlabana
wahlala
wahlangana
wahlanganiswa
wahlaselwa
wahlela
wahlonishwa
wahlukanisa
wahlukunyezwa
wahola
wajapani
wajaphani
wajir
wajoyina
wakamuva
wake
wakha
wakhe
wakhetha
wakhethwa
wakhipha
wakhiqiza
wakhishwa
wakho
wakhombisa
wakhona
wakhonza
wakhula
wakhulela
wakhulelwa
wakhulisa
wakhuliswa
wakhulula
wakhululwa
wakhuluma
wakhushulelwa
wakhuthaza
wakleliswa
waklonyeliswa
wakubo
wakudala
wakuleli
wakumabonakude
wakwa
wakwahaktanir
wakwazi
wakwazulu
wakwenza
walahlekelwa
walala
walandela
walandelwa
wale
waleli
wales
waletha
wali
walimala
walingisa
walk
walker
wall
wallet
walo
walolu
walowo
walsh
walt
walter
walther
walus
walwa
walwela
wama
wamaculo
wamadoda
wamafilimu
wamahlaya
wamajuda
wamalungelo
wamalungu
wamamitha
wamandla
wamanje
wamanoveli
wamanqamu
wamanzi
wamaphoyisa
wamaprotheni
wamaqembu
wamaroma
wamasiko
wamasosha
wamasulumane
wamazinyo
wamazuba
wamazulu
wamazwe
wambona
wamela
wamemezela
wamenyezelwa
wamenywa
wamfundisa
wami
waminyaka
wamisa
wamiswa
wamnika
wamtshela
wamukela
wamukelwa
wanamuhla
wancintisana
wanezela
wangaleso
wangaphakathi
wangaphambi
wangaphambili
wangaphambilini
wangasese
wangcwatshwa
wangempela
wangena
wangenela
wango
wanikela
wanikeza
wanikezela
wanikezwa
wanikwa
wanqoba
wanquma
want
wants
waphakade
waphakamisa
waphatha
waphawula
waphela
waphenduka
waphendula
waphetha
waphezulu
waphika
waphikisana
waphinda
waphinde
waphoqeleka
waphothula
waphuma
waphumelela
waqala
waqamba
waqanjwa
waqaphela
waqashwa
waqeda
waqeqeshwa
waqf
waqhubeka
waqinisekisa
waqoka
waqokelwa
waqokwa
waqondisa
waqopha
war
ward
warfare
warrap
warren
warrior
wars
was
wasayina
wasayinwa
wase
wasebenza
wasebenzela
wasebenzisa
wasebenzisana
wasebhayibhelini
wasebhrazili
wasebrazil
wasebrithani
wasebukhosini
wasecanada
wasechina
wasefrance
wasefuleyisitata
wasegauteng
wasegert
waseghana
wasegibhithe
wasejalimane
wasejapan
wasekapa
wasekela
wasekenya
wasekhaya
wasemelika
wasemexico
wasempumalanga
wasemuva
wasendiya
wasendle
wasendulo
wasenew
wasengilandi
wasenigeria
waseningizimu
wasentshonalanga
wasenyakatho
wasenyuvesi
waseroma
waseromania
waserussia
wasesiswini
wasespain
waseswazini
waseturkey
waseyunivesithi
wasezimbabwe
wasezulwini
washada
washaya
washayela
washeshe
washicilela
washington
washintsha
washiya
washo
washona
washonela
wasiza
waso
wasola
wasolwa
wasuka
wasula
wasungula
wasungulwa
wasuswa
wat
watch
water
waters
wath
wathatha
wathembisa
wathi
wathola
watholakala
wathumela
wathunyelwa
wathuthela
wathweswa
watshela
watson
wavakashela
wavalelwa
wavalwa
wave
wavela
wavele
waves
waveza
wavikela
wavula
wavuma
wavumela
wawina
wawo
wawuhlanganisa
wawunabantu
waxoshwa
waxwayisa
way
waya
wayala
wayalelwa
wayazi
wayaziwa
wayback
waye
wayebandakanyeka
wayebhekwa
wayebizwa
wayebona
wayebuye
wayedlala
wayefisa
wayefuna
wayefunda
wayehlala
wayeka
wayekade
wayekholelwa
wayekwazi
wayemele
wayeneminyaka
wayengeyena
wayengomunye
wayengu
wayengumbhali
wayengumbusi
wayengumculi
wayengumdlali
wayengumfundi
wayengumholi
wayengumlobi
wayengummeli
wayengumongameli
wayengumphathi
wayengumpristi
wayengumqondisi
wayengumuntu
wayengundunankulu
wayengungqongqoshe
wayengunobhala
wayengusihlalo
wayengusopolitiki
wayephinde
wayesebenza
wayesevele
wayeshade
wayevame
wayeyi
wayeyilungu
wayeyindodana
wayeyingxenye
wayeyinkosi
wayeyintatheli
wayeyisazi
wayeyisishoshovu
wayezimisele
wayo
wayohlala
wayu
waza
wazakhela
wazala
wazalelwa
wazalwa
wazama
waze
wazi
wazibandakanya
wazibulala
waziswa
wazithola
waziwa
wazo
wazuza
wcw
we
wearable
wearing
weather
web
webandla
webanga
webb
webbed
webele
webest
webhasikidi
webhayibheli
webhizinisi
webhola
website
webster
webutho
wecala
wedding
wedlanzana
wedolobha
wedwa
week
weekly
wefilimu
wegama
wegatsha
wegazi
wehla
wehluleka
weight
wekhilikithi
wekhulu
wekomidi
wekwaito
welcome
welcomes
wele
welega
weligi
well
welsh
weluleka
wemali
wemdc
wemelika
wemfanelo
wemfezokade
wemfundo
wemibukiso
wemidlalo
weminyaka
wempi
wempilo
wemvelo
wena
wenational
wencwadi
wendabuko
wendawo
wendebe
wendlela
wendlu
wendoda
wengcindezelo
wengeza
wengoma
wenhlangano
weningi
weningizimu
wenkaba
wenkampani
wenkantolo
wenkolo
wenkosi
wenkululeko
wenqaba
wenqubo
wensimbi
wentando
wentsha
wentuthuko
wenyama
wenyanga
wenyunyana
wenyuvesi
wenza
wenze
wenzeka
wenziwa
wenzubawonga
wepenisi
wephalamende
wephule
weprovinsi
weqembu
weqiniso
were
wesandla
wesayensi
weshashalazi
wesi
wesibeletho
wesibhakela
wesibili
wesidoda
wesifazane
wesifunda
wesifundazwe
wesigungu
wesihlanu
wesihloko
wesikhashana
wesikhathi
wesikhumba
wesiko
wesikole
wesikrini
wesilisa
wesimanje
wesimo
wesine
wesingisi
wesintu
wesitayela
wesiteshi
wesithathu
wesithembu
wesithombe
wesithupha
wesitimela
wesitolo
wesizini
wesizulu
wesizwe
wesley
wesonto
wesouth
west
western
westville
wesula
wet
wetheku
wethelestiyali
wethelevishini
wethimba
wethu
wethula
wethule
wethulwa
wevidiyo
weza
wezabasebenzi
wezamaphoyisa
wezangaphandle
wezasekhaya
wezemfundo
wezemidlalo
wezemisebenzi
wezempi
wezempilo
wezenhlalakahle
wezenkolo
wezepolitiki
wezezibhangqiwe
wezezimali
wezi
wezibalo
wezidakamizwa
wezifo
wezifundazwe
wezifundo
wezigidi
wezikhali
wezilimi
wezilwane
wezimali
wezimbabwe
wezimoto
wezincwadi
wezindaba
wezindlu
wezinga
wezingane
wezingoma
wezinhlamvu
wezinhlangano
wezinhlelo
wezinkomo
wezinsimbi
wezinsuku
wezinto
wezinwele
wezinyunyana
wezithombe
wezizwe
wezobuciko
wezobudlelwano
wezobulungiswa
wezocansi
wezokubusa
wezokuphepha
wezokuthutha
wezokuthuthukiswa
wezokuvikela
wezokuxhumana
wezokwelapha
wezolimo
wezolo
wezomculo
wezomnotho
wezomthetho
wezwe
what
when
where
which
while
whip
white
who
why
wicket
wide
wife
wiki
wikibooks
wikimedia
wikipedia
wikipidiya
wikisource
wiktionary
wilaya
wild
wiley
will
willem
william
williams
williamson
wilson
win
wind
window
windows
wine
winger
wings
winner
winners
winnie
winning
wins
winter
wisdom
with
within
without
witness
wits
witwatersrand
wo
wobandlulo
wobandlululo
wobuciko
wobukhosi
wobulili
wobumbano
wobumsulwa
wobungqingili
wobuningi
wocansi
wodumo
wohlelo
wohlobo
wohulumeni
wokuba
wokubhoboza
wokubuyisana
wokucwaninga
wokudla
wokudlala
wokufunda
wokugaya
wokugcina
wokugoma
wokuhumusha
wokukhanya
wokulingisa
wokulwa
wokuma
wokungena
wokuphila
wokuqala
wokuqamba
wokuqeda
wokuqopha
wokuqukethwe
wokusebenza
wokusebenzisa
wokushada
wokushaya
wokusoka
wokuthi
wokuthola
wokuthula
wokuvula
wokuxhumana
wokuya
wokuzivocavoca
wokwakha
wokwenza
woleu
wolfgang
wolimi
wolwazi
womabili
woman
womasipala
wombuso
womchamo
womculi
womculo
womdanso
womdlalo
women
womfana
womhlaba
womkhandlu
womkhiqizo
womkhonto
womlando
womlingani
womlomo
womndeni
womnyango
womnyondo
womoya
womphakathi
womqambi
womsakazo
womsebenzi
womshado
womthetho
womthethosisekelo
womuntu
womunye
womzimba
won
wona
wonder
wonkana
wonke
wonyaka
wood
woodman
woodruff
wophiko
word
wordpress
words
woreda
woredas
work
worker
workers
working
works
workshop
world
worldwide
wosuku
would
woza
wrestlers
wrestling
wright
writer
writers
writing
written
wrong
wu
wuhan
wuhlelo
wuhlobo
wukuthi
wulimi
wwe
wwf
www
wwwf
x
xa
xaxa
xbiz
xcas
xenopus
xew
xhamster
xhosa
xi
xirho
xlv
xolani
xrco
xuma
xv
y
ya
yaba
yabadala
yabafundi
yabamba
yabamnyama
yabanjelwa
yabantu
yabanye
yabasebenzi
yabasebenzisi
yabazali
yabe
yabesifazane
yabesilisa
yabezindaba
yabhalwa
yabika
yabizwa
yabo
yabona
yabuye
yadalwa
yadl
yafaka
yafakwa
yafika
yafinyelela
yagcina
yahia
yahlala
yahlanganiswa
yahlela
yahlelwa
yahlolwa
yahlukaniswa
yahoo
yakamuva
yake
yakha
yakhe
yakhetha
yakhipha
yakhiqiza
yakhiqizwa
yakhishwa
yakhiwa
yakhiwe
yakho
yakhona
yakhula
yakhululwa
yakudala
yakuleli
yakuqala
yakwa
yakwazulu
yalandelwa
yale
yaleli
yalezi
yalo
yalokho
yalokhu
yalolu
yalowo
yam
yama
yamabanga
yamabutho
yamacala
yamadoda
yamafilimu
yamagama
yamagreki
yamagrikhi
yamahhala
yamahindu
yamahlaya
yamajuda
yamakhemikhali
yamakhomanisi
yamakhosi
yamakrestu
yamalungelo
yamamormon
yamandiya
yamandla
yamanje
yamanzi
yamaphoyisa
yamaprothestani
yamaqiniso
yamaroma
yamasiko
yamasosha
yamasulumane
yamatekisi
yamathoyizi
yamazinga
yamazuba
yamazulu
yamazwe
yamemezela
yamenyezelwa
yami
yaminyaka
yamisa
yamiswa
yamukelwa
yamuva
yanamuhla
yanda
yang
yangaleso
yangaphakathi
yangaphambi
yangaphambili
yangaphambilini
yangaphandle
yangaphansi
yangasese
yangempela
yangemuva
yangemva
yangena
yangesonto
yango
yangonyaka
yanikeza
yanikezwa
yanoma
yanqoba
yanquma
yansuku
yaphawula
yaphinde
yaphuma
yaqala
yaqanjwa
yaqhubeka
yaqinisekiswa
yas
yasakaza
yasakazwa
yasatshalaliswa
yase
yasebhange
yasebrithani
yasebusuku
yasecanada
yasefort
yasefrance
yasegibhithe
yasegoli
yasejalimane
yasejapan
yasekapa
yasekhaya
yasekuqaleni
yasemadolobheni
yasemakhaya
yasemelika
yasemgungundlovu
yasemhlabeni
yasenatali
yasendaweni
yasendiya
yasendle
yasendulo
yaseningizimu
yasentshonalanga
yasenyakatho
yasenyuvesi
yasepitoli
yaserussia
yaseshashalazini
yasesiteji
yasespain
yasethekwini
yasetshenziswa
yaseturkey
yaseviyetnami
yasewitwatersrand
yaseyurophu
yasezimbabwe
yasezulwini
yashicilelwa
yashintsha
yaso
yasungula
yasungulwa
yath
yathatha
yathathelwa
yathengiswa
yathengwa
yathi
yathola
yatholakala
yathuthuka
yatshala
yavalwa
yavela
yavula
yawina
yawo
yaya
yayijwayele
yayikhona
yayiqukethe
yayisetshenziswa
yayiyi
yayiyingxenye
yayo
yazalwa
yaze
yaziwa
yaziwe
yazo
yazuza
ye
year
years
yebandla
yebest
yebhayibheli
yebhizinisi
yebhola
yebo
yechwe
yedijithali
yedimokhrasi
yedolobha
yedwa
yefifa
yefilimu
yegama
yegazi
yegciwane
yegoli
yegolide
yehhovisi
yehlisa
yehlukile
yehora
yekhilikithi
yekhodi
yekhulu
yelanga
yelatter
yeligi
yem
yemali
yemfanelo
yemfundiso
yemfundo
yemibhalo
yemidiya
yemidlalo
yeminyaka
yemiphakathi
yemiphumela
yemisebenzi
yemisipha
yemithetho
yemizamo
yemoto
yempi
yempilo
yempumelelo
yempumulo
yemvelo
yemvume
yena
yenani
yencwadi
yendabuko
yendalo
yendawo
yendlela
yenew
yengoma
yengqondo
yengulube
yenhlangano
yenhliziyo
yenigeria
yeningi
yeningizimu
yenja
yenkampani
yenkolo
yenkomo
yenkosi
yenkukhu
yenkululeko
yenkulumo
yenqubo
yensimbi
yentando
yentsha
yenyama
yenza
yenze
yenzeka
yenzeke
yenzelwe
yenziwa
yenziwe
yenzubawonga
yephalamende
yeprayimari
yepremier
yeqembu
yeqhaza
yeqiniso
yes
yesahara
yesandla
yesayensi
yesevisi
yeshashalazi
yeshumi
yesi
yesibili
yesibonelelo
yesicikizi
yesidoda
yesifo
yesifunda
yesifundazwe
yesigaba
yesiheberu
yesihlanu
yesihloko
yesikhashana
yesikhathi
yesikhulumi
yesikhumba
yesikhumbuzo
yesiko
yesikole
yesilisa
yesiliva
yesimanje
yesimanjemanje
yesimo
yesimodeni
yesine
yesingisi
yesinkwa
yesintu
yesishiyagalolunye
yesishiyagalombili
yesitayela
yesiteshi
yesithathu
yesithembu
yesitho
yesithupha
yesitshalo
yesitudiyo
yesizulu
yesizwe
yesonto
yesouth
yet
yetestamente
yetheku
yethelevishini
yethimba
yethu
yethula
yethule
yethulwa
yethulwe
yethusi
yetimu
yetzer
yevanga
yevidiyo
yeyurophu
yezangaphandle
yezemfundo
yezemidlalo
yezempi
yezempilo
yezenhlalakahle
yezenhlalo
yezenkolo
yezenzo
yezepolitiki
yezezibhangqiwe
yezezimali
yezi
yezidakamizwa
yezifo
yezifundazwe
yezifundo
yezilimi
yezilwane
yezimali
yezimboni
yezimo
yezimoto
yezimpande
yezincwadi
yezindaba
yezindawo
yezindiza
yezindlela
yezindlu
yezinga
yezingane
yezingoma
yezinhlamvu
yezinhlelo
yezinkanyezi
yezinkinga
yezinkomo
yezinsizakalo
yezinsolo
yezinsuku
yezinto
yezinwele
yezinye
yezinzwa
yezithelo
yezitho
yezithombe
yezithunywa
yezitolo
yezitshalo
yezizwe
yezobuchwepheshe
yezocansi
yezohwebo
yezokuvakasha
yezokuxhumana
yezokwelapha
yezombusazwe
yezomnotho
yezomthetho
yezwe
yezwekazi
yezwi
yfm
yi
yibamba
yibandla
yibo
yibona
yibuphi
yicala
yidolobha
yidolobhakazi
yidolobhana
yifilimu
yigama
yiholide
yikho
yikhomishini
yikuphi
yilabo
yilapho
yile
yileli
yilesi
yileso
yilezi
yilezo
yiliphi
yilo
yilokho
yilokishi
yilolu
yilona
yilowo
yilunga
yilungu
yiluphi
yimali
yimaphi
yimboni
yimeya
yiminyaka
yimiphi
yimisipha
yimithetho
yimpumelelo
yimuphi
yinational
yincwadi
yindawo
yindlela
yindlovukazi
yindoda
yindodana
yinduna
yingakho
yingoba
yingxenye
yinhlangano
yinhloko
yinhlokodolobha
yini
yiningi
yinkampani
yinkantolo
yinkosi
yinoma
yinombolo
yinqubo
yinto
yintsha
yinxusa
yinyanga
yip
yiphini
yiqembu
yirecording
yisabc
yisakhamuzi
yisazi
yisekela
yiselesele
yishumi
yisifo
yisifunda
yisifundazwe
yisigaba
yisigodi
yisihloko
yisikhathi
yisikhulu
yisikhungo
yisiko
yisikole
yisimo
yisiphi
yisiqhingi
yisiqongo
yisisekelo
yisishoshovu
yisisu
yisiteshi
yiso
yisona
yisono
yisonto
yisouth
yiyo
yiyona
yize
yizi
yizigidi
yizilwane
yizincwadi
yizindaba
yizinhlangano
yizinkampani
yizinto
yiziphathimandla
yiziphi
yizithombe
yizo
yizona
yizwe
yku
yo
yobandlululo
yobisi
yobuchwepheshe
yobuciko
yobudala
yobudlelwano
yobugebengu
yobuhlanga
yobukhosi
yobukristu
yobulili
yobungcweti
yobungqingili
yobunikazi
yobuningi
yobunzima
yobusha
yocansi
yochungechunge
yocwaningo
yodwa
yohlelo
yohlobo
yohulumeni
yokhetho
yoku
yokuba
yokubhala
yokubhema
yokubhoboza
yokubuyiselwa
yokudla
yokudlala
yokudlela
yokudlulisa
yokudluliswa
yokufa
yokufaka
yokufinyelela
yokufunda
yokufundisa
yokugcina
yokugoma
yokugqoka
yokugula
yokuguquka
yokuguqula
yokuhamba
yokuhambisa
yokuhlala
yokuhlangana
yokuhlela
yokuhlobisa
yokuhlola
yokuhlonipha
yokuhlukanisa
yokuhumusha
yokujezisa
yokukhangisa
yokukhetha
yokukhiqiza
yokukhokha
yokukhula
yokulethwa
yokulimala
yokulingana
yokulingisa
yokulondolozwa
yokulungiselela
yokulwa
yokuncintisana
yokungena
yokuphatha
yokuphathwa
yokuphikisana
yokuphila
yokuqala
yokuqeda
yokuqopha
yokuqukethwe
yokusabalalisa
yokusakaza
yokusebenza
yokusebenzisa
yokusetshenziswa
yokushaya
yokushintsha
yokusiza
yokusoka
yokutheleleka
yokuthengisa
yokuthi
yokuthola
yokutholwa
yokuthuthuka
yokuthuthukisa
yokuvikela
yokuvuma
yokuxazulula
yokuxhasa
yokuxhumana
yokuxoxisana
yokuzala
yokuzalwa
yokuzikhethela
yokuziphatha
yokuzivikela
yokwakha
yokwakheka
yokwakhiwa
yokwelapha
yokwelashwa
yokwenza
yokwenziwa
yolimi
yolwandle
yolwazi
yoma
yomama
yombango
yombhalo
yombuso
yomcimbi
yomculi
yomculo
yomdabu
yomdlalo
yomdlavuza
yomgodi
yomgomo
yomgwaqo
yomhlaba
yomibili
yomkhandlu
yomkhankaso
yomkhiqizo
yomlando
yomlilo
yommbila
yomndeni
yomnotho
yomnyango
yomoya
yomphakathi
yomsebenzi
yomshado
yomshoshaphansi
yomthetho
yomthethosisekelo
yomthondo
yomuntu
yomunye
yomzabalazo
yomzimba
yona
yonkana
yonke
yonyaka
yophenyo
york
yorker
yoruba
yosizo
yosuku
yothando
yothisha
you
youcef
young
younger
your
youth
youtube
youtuber
youtubers
yowe
yowesifazane
yowezi
yoxolo
yu
yuganda
yunivesithi
yurophu
yusuf
z
za
zaba
zabafundi
zabamhlophe
zabamnyama
zabantu
zabasebenzi
zabathengi
zabe
zabesifazane
zabesilisa
zabo
zacc
zaghouan
zahara
zahlanganiswa
zaholela
zaire
zakamuva
zakha
zakhe
zakhiwa
zakhiwe
zakho
zakhona
zakudala
zakuqala
zakwa
zakwamanye
zakwazulu
zale
zalesi
zalezi
zalo
zalolu
zama
zamabanga
zamafilimu
zamagama
zamahlaya
zamamormon
zamandla
zamanje
zamanzi
zamaphethini
zamaphoyisa
zamarandi
zamasiko
zamasosha
zamasulumane
zamazuba
zamazwe
zambezi
zambezia
zambia
zambiya
zami
zanamuhla
zangaphakathi
zangaphambi
zangaphambili
zangaphandle
zangaphansi
zangasese
zangempela
zango
zanikezwa
zanzibar
zaouia
zaouiet
zaqala
zar
zasca
zase
zasegibhithe
zasejalimane
zasejapan
zasekhaya
zasemadolobheni
zasemakhaya
zasemandulo
zasemelika
zasempumalanga
zasendaweni
zasendiya
zasendle
zasendlini
zasendulo
zaseningizimu
zasentshonalanga
zasenyakatho
zaserussia
zaseswazini
zaseturkey
zaseyurophu
zasezulwini
zasolwandle
zathola
zavela
zawiya
zawo
zayo
zazithathwa
zazivame
zaziwa
zazo
ze
zealand
zebachelor
zebandla
zebantu
zebhayibheli
zebhizinisi
zebhola
zedijithali
zefilosofi
zegolide
zeit
zejwabu
zemali
zemfundiso
zemfundo
zemibhalo
zemidlalo
zemifino
zeminyaka
zemisebenzi
zemishini
zemisipha
zempi
zempilo
zemvelo
zencwadi
zendabuko
zendawo
zengqondo
zenhlalo
zenkolo
zenkosi
zenkulumo
zensimbi
zentsha
zenyama
zenza
zenze
zenzeka
zenziwa
zenziwe
zenzo
zenzuba
zepolitiki
zeqembu
zer
zero
zesayensi
zesi
zesibili
zesicikizi
zesifazane
zesifo
zesifunda
zesikhathi
zesiko
zesikole
zesilisa
zesimanje
zesimo
zesingisi
zesinguni
zesintu
zesizulu
zesmackdown
zesonto
zethelevishini
zethu
zevanga
zevangeli
zezemfundo
zezempilo
zezenhlalo
zezenkolo
zezenzo
zezepolitiki
zezezibhangqiwe
zezezimali
zezibalo
zezigodi
zezilimi
zezilimo
zezilwane
zezimali
zezimboni
zezimpawu
zezincwadi
zezindaba
zezindawo
zezingane
zezinhlanzi
zezinhlelo
zezinhlobo
zezinkanyezi
zezinkinga
zezinkomo
zezinkondlo
zezinto
zezinwele
zezinye
zezinzwa
zezithombe
zezitolo
zezitshalo
zezokwelapha
zezombusazwe
zezomnotho
zezulu
zezwe
zi
ziba
zibalwa
zibandakanya
zibandlela
zibangela
zibe
zibizwa
zibonakala
zibonakale
zibonisa
zibuye
zichaza
zichazwa
zici
zidinga
zidla
zidliwa
zidliwe
zifaka
zifakwe
zifana
zifunda
zifunde
zifundo
zigcinwa
zihlala
zihlanganisa
zihlanzekile
zihlelwe
zihlobene
zihloko
zihlukaniswa
zihlukaniswe
ziholele
zika
zikagesi
zikagwayi
zikahulumeni
zikalala
zikamasipala
zikankulunkulu
zikazwelonke
zikhathi
zikhiqiza
zikhombisa
zikhona
zikhula
zikhule
zikhundla
zikhungo
zikode
zikwazi
zili
zilimi
zille
zimbabwe
zimbabwean
zimbalwa
zimiso
zimo
zimpawu
zimurinda
zincane
zincwadi
zindawo
zinde
zindlela
zindondo
zine
zinga
zingaba
zingabandakanya
zingabonakala
zingafaka
zingahlukaniswa
zingakwazi
zingama
zinganekwane
zingaphansi
zingase
zingasebenza
zingasetshenziswa
zingu
zinhlangano
zinhlobo
zinikela
zinikeza
zinikeze
zinikezwa
ziningi
zinkinga
zinkulu
zinsolo
zinsuku
zintathu
zinto
zip
ziphinde
ziqala
ziqale
ziqhubeka
ziqukethe
zisakazwa
zisebenza
zisebenzisa
zisebenzise
zisetshenziselwa
zisetshenziswa
zisetshenziswe
zisiza
zisuka
zisuke
zisuselwa
zisuswe
ziteshi
zithatha
zithathwa
zithi
zithola
zitholakala
zitholakale
zithole
zithombe
zithunywa
zivalwe
zivame
zivamise
zivela
zivele
ziveza
zivumela
ziya
ziyahlukahluka
ziyakwazi
ziyatholakala
ziyaye
ziye
ziyi
ziyingxenye
ziyisi
zizoba
zobandlululo
zobuchwepheshe
zobuciko
zobudokotela
zobugebengu
zobuhle
zobulili
zobumba
zobungozi
zobungqingili
zobuso
zocansi
zocingo
zocwaningo
zodlame
zodwa
zofuzo
zohlelo
zohlobo
zohulumeni
zokuba
zokubala
zokubhala
zokubhoboza
zokudla
zokudlela
zokudlwengulwa
zokufunda
zokufundisa
zokugcina
zokugqoka
zokugqwayiza
zokugula
zokuhamba
zokuhlala
zokuhlinza
zokuhlola
zokuhlukunyezwa
zokukhiqiza
zokukhula
zokukhulisa
zokukhuthaza
zokukhwabanisa
zokulawula
zokulethwa
zokulima
zokulungisa
zokulwa
zokungena
zokuphatha
zokupheka
zokuphela
zokuphepha
zokuphila
zokuqala
zokuqeqesha
zokusebenza
zokusetshenziswa
zokusika
zokusoka
zokutheleleka
zokuthenga
zokuthi
zokuthola
zokuthumela
zokuthuthukisa
zokuvikela
zokuvimbela
zokuxhumana
zokuya
zokuzala
zokuzijabulisa
zokuziphatha
zokuzivocavoca
zokwakha
zokwaziswa
zokwelapha
zokwelashwa
zokwenza
zokwenziwa
zola
zolimi
zoma
zomato
zombili
zombo
zombuso
zomculo
zomdabu
zomdlavuza
zomgwaqo
zomhlaba
zomkhathi
zomlando
zomlilo
zomlingani
zomndeni
zomnotho
zomphakathi
zomsakazo
zomsebenzi
zomthetho
zomuntu
zomunye
zomvikeli
zomzabalazo
zomzimba
zona
zone
zones
zonke
zonyaka
zoo
zosaziwayo
zothando
zotho
zu
zulu
zululand
zuma
zundert
zungu
zuria
zw
zwane
zwe
zwelakhe
zwelithini
zwide
{
|
}
~
¡
£
¥
§
©
«
¬
®
°
±
²
´
·
»
×
ø
ı
ŋ
ǁkaras
ɑ
ɒ
ɓ
ɔ
ɗ
ə
ɛ
ɜ
ɡ
ɣ
ɨ
ɪ
ɽ
ʃ
ʉ
ʊ
ʰ
ʲ
ʷ
ʹ
ʻ
ʼ
ʾ
ʿ
ˈ
ˌ
ː
̀
́
̂
̃
̄
̆
̇
̈
̉
̌
̓
̔
̛
̣
̧
̨
̩
̯
̰
̱
͡
α
β
γ
ε
ι
λ
ν
ο
πιθυμε
ς
ω
в
и
н
с
у
ְ
ִ
ֵ
ֶ
ַ
ָ
ֹ
ּ
ׁ
א
ב
ד
ה
ו
ז
ח
ט
י
ים
כ
ל
מ
נ
ס
ע
פ
ק
ר
ש
ת
״
ا
البلديات
البلدية
الكشف
اللجنة
الله
المجالس
المرفق
المركزية
الوزراء
ب
با
بقرار
ح
د
ر
رقم
س
ط
لانتخاب
لسنة
م
مجلس
ميلادي
ن
نشاء
ه
و
َ
ُ
ِ
ّ
ْ
ٓ
ٔ
ٕ
ܐ
ܘ
ܚ
ܰ
ܳ
ज
द
मह
र
व
श
स
ा
ि
ी
्
চ
ড
ল
া
্
ા
ด
ม
ว
ศ
ั
ิ
ี
ุ
์
​
‌
‎
‐
–
—
‘
’
“
”
„
†
•
…
′
″
₂
€
←
↑
→
↓
↔
↷
⇌
−
∗
∧
∨
⋅
⋯
③
④
⑦
●
☉
♂
⟨
⟩
⯓
ⴰ
ⴱ
ⵉ
ⵍ
ⵎ
ⵏ
ⵓ
ⵔ
ⵖ
ⵜ
⺀
⺄
⺆
⺈
⺊
⺌
⺕
⺝
⺸
⺼
⿰
⿱
⿲
⿳
⿴
⿵
⿶
⿷
⿸
⿹
⿺
⿻
〢
う
け
こ
さ
と
な
ひ
ふ
ゆ
り
ん
゙
゚
ア
オ
コ
シ
ス
ニ
フ
メ
ユ
ラ
リ
ー
㇁
㇂
㇄
㇇
㇈
㇉
㇓
㐁
㐄
㐅
㐌
㐫
㐬
㐭
㐮
㐱
㑒
㒵
㒸
㒼
㓁
㓞
㔾
㕛
㕣
㖾
㘝
㚅
㚇
㚔
㚘
㝉
㝡
㝴
㝵
㞋
㞢
㞷
㠩
㠭
㠯
㡀
㡭
㡿
㢲
㢴
㣇
㣺
㥯
㪅
㫄
㫐
㫒
㫺
㬅
㬎
㬥
㬰
㲋
㳄
㷠
㸒
㸚
㸦
㼌
㼲
㽞
㿟
䀠
䂞
䍃
䏍
䒑
䖍
䖒
䖝
䖵
䙴
䚻
䜌
䝿
䡛
䧹
䪞
一
丁
丂
七
丄
丅
丆
万
丈
三
上
下
丌
不
与
丏
丐
丑
专
且
丕
世
丘
丙
业
东
丞
丢
丣
两
严
並
丨
丩
个
丫
丬
中
丮
丰
丱
串
丵
丶
丷
丸
丹
为
主
丽
丿
乀
乂
乃
久
乆
乇
么
义
之
乌
乍
乎
乏
乐
乑
乔
乖
乗
乘
乙
乚
乛
乜
九
乞
也
习
乡
乳
乾
亀
亅
了
亇
予
争
事
二
亍
于
亏
亐
云
互
亓
五
井
亘
亚
亜
亞
亟
亠
亡
亢
交
亥
亦
产
亨
亩
享
京
亭
亮
亯
亰
亲
亳
亶
亷
人
亻
亼
亾
仁
今
介
仌
从
仐
仑
仒
仓
仕
他
付
仝
代
令
以
任
企
伊
伏
伐
休
会
传
伯
但
位
何
佘
余
作
佥
使
來
侈
侌
侖
侯
侵
便
保
俞
信
修
倉
倍
候
倠
備
僉
僕
儿
兀
允
兂
元
兄
充
兆
兇
先
光
兊
克
兌
免
兑
兒
兓
兔
党
兜
兟
入
全
兩
兪
八
公
六
兮
兰
共
关
兵
其
具
典
兹
兼
冀
冂
冃
冄
内
冈
冉
冊
冋
册
再
冎
冏
冐
冒
冓
冖
冗
冘
军
农
冝
冡
冥
冫
冬
冷
几
凡
凢
凵
凶
凷
凸
凹
出
函
凾
刀
刁
刂
刃
刄
刅
分
切
刍
刑
刕
刖
列
刘
则
初
別
利
别
到
制
刺
則
削
剌
前
剡
剽
劉
力
功
加
劦
助
劫
劳
劵
勃
勇
勉
勒
動
務
勞
勤
勹
勺
勻
勾
勿
匀
匂
包
匆
匈
匊
匋
匍
匕
化
北
匚
匝
匡
匪
匱
匸
匹
区
医
匽
匿
區
十
卂
千
卄
卅
卆
升
午
卉
半
卌
华
卑
卒
卓
单
卖
南
卜
卝
卞
占
卡
卢
卣
卤
卦
卩
卪
卬
卯
印
危
即
却
卵
卷
卸
卻
厂
厃
厄
历
厈
厉
厌
厓
厘
厚
原
厤
厥
厨
厭
厲
厶
厷
厸
去
厼
厽
叀
参
參
叅
又
叉
及
友
双
反
叐
发
叒
叔
叕
取
受
叚
叜
叟
口
古
句
另
叩
只
召
可
台
叱
史
右
叵
号
司
叹
吂
各
吅
合
吉
吊
吋
同
名
后
吏
向
吕
君
吝
吞
否
含
启
吳
吴
吹
吾
呂
呆
呈
告
员
呙
周
命
咅
和
咎
咠
咢
咨
咸
咼
哀
品
哉
員
哥
哲
唐
商
啇
問
啚
啬
啻
善
喜
喬
單
喿
嗇
噩
嚴
囊
囗
囘
囙
囚
四
回
囟
因
囧
囬
困
囱
囷
固
国
圂
圅
國
圍
圓
土
圡
圣
圥
在
圭
地
圶
圼
坐
坒
坚
坴
垂
垔
垚
埀
埋
埶
執
基
堂
堅
堆
堇
堯
塞
墨
壘
士
壬
壯
声
壳
壴
壹
壺
壽
夂
处
夅
夆
备
夊
夋
夌
复
夏
夒
夕
外
夗
夘
多
夜
夢
大
夨
天
太
夫
夬
夭
央
失
夲
头
夷
夸
夹
夻
夾
奂
奄
奇
奈
奉
奎
奏
奐
契
奓
奔
奚
奞
奠
奢
奥
奭
女
奴
奻
好
如
妄
妙
妟
妥
妻
妾
姑
委
姜
威
娄
婁
婴
嬰
嬴
子
孑
孔
孕
孖
字
存
孚
孛
孝
孟
季
孤
学
孫
孱
學
宀
宁
宂
它
宅
宇
守
安
宋
完
宏
宓
宗
官
定
宛
宜
宝
客
宣
室
宮
宰
害
家
容
宾
宿
寄
寅
密
富
寒
察
寧
審
寫
寬
寮
寸
对
寺
寻
寽
対
寿
封
尃
射
将
將
專
尉
尊
尋
尌
對
小
少
尒
尓
尔
尖
尗
尚
尞
尢
尣
尤
尧
尨
尭
就
尸
尹
尺
尻
尼
尽
尾
尿
局
居
屈
屋
屎
屏
屑
展
屖
屚
属
屠
屡
屬
屮
屯
屰
山
屵
屾
岁
岂
岑
岡
岩
岳
岸
峯
島
崇
崑
崔
崖
崙
崩
嵬
嶲
巂
巛
川
州
巟
巠
巢
巤
工
左
巧
巨
巩
巫
差
己
已
巳
巴
巷
巸
巽
巾
巿
帀
市
布
希
帚
帛
帝
带
師
席
帶
常
干
平
年
幵
并
幷
幸
幺
幻
幼
幽
幾
广
広
庄
床
底
店
庚
府
度
庫
庭
庶
康
庸
廉
廌
廛
廣
廩
廴
延
廷
建
廾
廿
开
弁
弃
弄
弇
弋
式
弓
弔
引
弗
弘
弜
弟
弥
弦
弱
張
強
强
彊
彌
彎
彐
彑
当
彔
录
彖
彗
彡
形
彥
彦
彧
彭
彳
役
彼
往
待
律
徒
得
徙
從
復
微
徵
心
忄
必
忌
忍
志
忝
忠
忩
快
念
忽
忿
思
怠
急
怱
恆
恒
恩
恭
息
悉
患
悤
悲
悶
惠
惡
惢
愁
愈
意
愛
感
慈
慧
慮
憂
憲
應
戀
戈
戉
戊
戋
戌
戍
戎
成
我
戒
戔
或
戚
戠
戢
截
戲
戶
户
戹
戼
戾
房
所
扁
扇
手
扌
才
打
托
执
承
折
拉
拜
拿
掌
推
提
摇
摩
播
支
攴
攵
收
攸
改
放
政
敄
敏
敕
敖
敗
敝
敞
敢
散
敦
敫
敬
数
敷
數
斂
文
斉
斊
斗
斤
斥
斩
斬
斯
新
方
於
施
斿
旁
旋
族
无
旡
既
旣
日
旦
旧
旨
早
旬
旱
旲
时
旾
昆
昇
昌
昍
明
昏
易
昔
昗
昜
星
春
昬
是
昱
昴
昷
時
晃
晋
晏
普
景
晶
智
暑
暴
曇
曩
曰
曲
曳
更
曷
書
曹
曼
曾
替
最
朁
會
月
有
朋
服
朔
朕
朗
望
朝
木
朩
未
末
本
札
朮
术
朱
朵
朶
朿
杀
杏
杜
束
条
来
東
杲
杳
松
析
林
枚
果
枝
枲
枼
某
柔
查
柬
柰
柴
栗
桀
桑
桼
梁
條
梟
梨
棘
棠
棥
森
楚
業
楽
榮
樂
樊
欠
次
欣
欮
欲
欶
欽
款
歆
歇
歛
止
正
此
步
武
歨
歪
歮
歯
歰
歲
歴
歷
歸
歹
歺
死
殳
段
殷
殸
殹
殺
殻
殿
毋
毌
母
每
毒
比
毕
毚
毛
毳
氏
氐
民
气
氣
水
氵
氶
氷
永
氺
氾
求
汝
汞
江
沃
沓
沙
沝
泉
法
波
泣
泥
泰
洛
洪
洲
活
派
流
浦
浪
浮
淡
淮
清
渚
渠
湯
滚
滿
漸
火
灬
灭
灰
灵
灷
炅
炎
炏
炗
炙
炭
為
烈
烏
烝
焉
無
焦
焱
然
煞
熊
熏
燕
營
燮
爪
爫
爭
爯
爰
爱
爲
爵
父
爻
爽
爾
爿
片
版
牙
牚
牛
牜
牟
牢
牧
牪
牽
犀
犬
犭
犮
狂
狄
狊
独
狺
猋
猒
猪
献
獒
獻
玄
率
玉
王
玟
玨
珎
班
琴
瑟
瑩
瓜
瓦
甘
甚
生
産
用
甫
甬
田
由
甲
申
电
甶
男
甸
甹
画
甾
畀
界
畏
畐
留
畜
畟
畢
畧
畨
番
畫
異
畱
當
畺
畾
疊
疋
疌
疑
疒
疾
癶
癸
癹
登
發
白
百
皀
皃
的
皆
皇
皋
皐
皕
皮
皷
皿
盃
盆
盇
盈
益
盍
盎
监
盒
盖
盛
盡
監
盤
盧
目
直
相
盾
省
眇
眉
看
眔
眞
真
眷
眼
眾
着
睘
睪
睿
瞏
瞢
瞿
矍
矛
矞
矢
矣
知
矦
短
石
破
碎
磊
磨
示
礻
礼
社
祟
票
祭
禀
禁
禸
禹
禺
离
禽
禾
禿
秀
秃
秉
秋
科
秝
秦
移
稟
穀
穌
穴
究
穹
空
穿
突
窄
窒
立
竒
竜
竝
竟
章
童
竹
笑
笠
筆
等
答
箕
算
箴
節
篤
篭
米
粉
粛
粟
粤
粦
粲
糞
糸
糹
系
約
納
素
索
紫
累
細
絜
絫
絲
維
綿
縣
繇
纍
纟
统
缶
网
罒
罔
罕
罗
罙
罡
罢
罪
署
罷
羅
羊
羌
羍
美
羔
羕
羗
羞
羡
羣
群
義
羲
羸
羽
翁
翏
習
翕
翟
翠
翼
老
耂
考
者
耆
而
耎
耑
耒
耳
耴
耶
耷
聂
聊
聖
聚
聶
聿
肀
肃
肅
肉
肖
肙
肥
肩
肯
育
肴
胃
背
胡
胥
能
脊
脩
膚
臣
臤
臧
自
臬
臭
臯
臱
至
致
臺
臼
臽
臾
臿
舀
舂
舄
與
興
舉
舌
舍
舛
舜
舞
舟
般
艮
良
色
艸
艹
艾
芒
芔
芬
芮
花
芳
芺
芻
苔
苗
苟
若
苦
英
茶
茸
荅
草
荒
荣
荼
莆
莉
莧
莫
莽
菆
菊
菐
華
萬
落
葉
著
葛
董
葵
蒙
蒦
蒼
蓋
蓬
蓺
蔑
蔡
蕉
蕭
薄
薛
薦
薰
藍
藏
藥
蘭
虍
虎
虐
虒
虔
處
虖
虗
虘
虚
虛
虜
虞
虫
虽
蚤
蚩
蜀
蜜
蟲
蠡
血
行
衍
衛
衣
衤
表
衮
衰
袁
袞
褭
褱
襄
襾
西
覀
要
覃
見
規
覓
覧
親
覽
见
角
解
言
訁
訇
計
詹
誩
諸
讠
谷
豆
豈
豊
豐
豕
豖
豙
象
豦
豩
豪
豸
貇
貝
貞
貟
負
貢
貧
貪
貫
責
貳
貴
買
費
賁
資
賈
賏
賓
賔
賛
賞
賢
賣
質
賴
贊
贝
贡
责
贯
贲
贵
赖
赞
赤
赦
走
越
足
路
蹇
身
躬
車
軍
軎
軟
輦
车
辛
辜
辟
辥
辰
辱
農
辵
辶
边
达
过
近
连
迷
追
退
送
逆
逐
通
速
造
逢
連
逮
進
遀
遂
過
道
達
遣
適
遷
遺
邊
邑
邕
那
邦
邪
郎
部
郭
都
鄉
酉
酋
配
酓
釆
采
里
重
野
量
金
釒
錢
钅
長
镸
长
門
閃
閉
開
閏
閑
閒
間
閔
閵
閻
闌
门
间
闷
阑
阜
阝
阿
降
陳
隆
隊
隋
隡
隨
隱
隶
隹
隺
隻
隼
隽
难
雀
雁
集
雈
雋
雍
雐
雔
雙
雚
雜
雝
離
難
雨
雩
雪
雲
零
雷
需
霍
霜
霝
霞
霸
靈
靑
青
非
靡
面
靣
革
韋
韦
韭
韯
韱
音
頁
頃
項
須
頗
頡
頻
顛
页
風
风
飛
飞
食
飠
養
饣
首
香
馬
馮
駦
马
骨
高
髟
鬥
鬯
鬲
鬼
魚
魯
鮮
鱼
鲁
鳥
鳳
鸟
鹵
鹿
麃
麗
麥
麦
麻
黃
黄
黍
黎
黑
黒
黨
黹
黽
黾
鼎
鼓
鼠
鼻
齊
齋
齐
齒
齿
龍
龙
龜
龟
龠
龰
龱
龴
龵
龶
龷
龸
龹

者
艹
﻿
？
￼
🜨
𠀁
𠀃
𠀆
𠀉
𠀎
𠀐
𠁁
𠁣
𠂆
𠂇
𠂈
𠂉
𠂊
𠂋
𠂎
𠂒
𠂔
𠂛
𠂡
𠂢
𠂤
𠂬
𠂭
𠂹
𠃊
𠃋
𠃌
𠃍
𠃎
𠃑
𠃓
𠃔
𠃜
𠄌
𠄎
𠄠
𠄢
𠆢
𠆥
𠇍
𠈌
𠌵
𠓜
𠔉
𠔥
𠔼
𠔽
𠔿
𠕀
𠕁
𠕋
𠘧
𠘨
𠙻
𠙼
𠚏
𠚒
𠚤
𠚪
𠣏
𠤎
𠤕
𠥓
𠦄
𠦑
𠦝
𠧒
𠧗
𠧪
𠩺
𠪚
𠫓
𠫔
𠫤
𠬛
𠬝
𠬞
𠬢
𠬤
𠬶
𠮛
𠮦
𠮷
𠯑
𠱠
𠳮
𠷎
𡈼
𡉀
𡉵
𡌥
𡍮
𡏳
𡕒
𡕩
𡕰
𡖅
𡗗
𡗜
𡘆
𡘤
𡧱
𡨄
𡩧
𡬠
𡭽
𡰣
𡰥
𡰪
𡰯
𡰱
𡷈
𡸁
𡿨
𡿩
𡿪
𡿺
𢀖
𢀛
𢀩
𢁙
𢆉
𢆰
𢆶
𢇁
𢇇
𢉖
𢌬
𢌿
𢏚
𢑑
𢑚
𢖻
𢙣
𢛳
𢦏
𢦒
𢧵
𢼄
𢾕
𣁋
𣄼
𣅀
𣅽
𣍘
𣎳
𣎵
𣏋
𣏼
𣗥
𣥂
𣥖
𣦵
𣦼
𣧄
𣪊
𣪠
𣬉
𣳾
𣶒
𤇾
𤊽
𤐫
𤓰
𤔔
𤕨
𤣩
𤰇
𤰔
𤰞
𤴓
𤴔
𤽄
𥁑
𥁕
𥃦
𥃩
𥃭
𥇡
𥑟
𥘅
𥘈
𥝢
𥫗
𥱡
𦈢
𦉪
𦉬
𦉼
𦍌
𦍒
𦎧
𦐇
𦓔
𦔮
𦘒
𦙃
𦚏
𦣝
𦣞
𦣻
𦥑
𦥔
𦥯
𦨉
𦭝
𦰩
𧆞
𧈧
𧘇
𧰨
𧴪
𧴮
𧵩
𧾷
𨸏
𨾴
𩙿
𩠐
𩫏
𩵋
𪉷
𪜀
𪟽
𪠲
𪩲
𫇦
𫔭
𫜸
𫝀
𫠣
𫠩
𫢉
𫥞
𫩏
𫩠
𫪡
𫲽
𫶧
𬀷
𬐘
𬗌
𬙙
𬛸
𬜯
𬟩
𬯁
𬴘
𬺻
𬼉
𬼖
𭀰
𭁈
𭁨
𭅰
𭑈
𭕄
𭗼
𭤨
𭥫
𭻾
𮅕
𮊿
𮍌
𮍏
𮓗
𮥼
𮧮
廾
𰀁
𰀄
𰀈
𰀉
𰀕
𰀠
𰀡
𰀢
𰀪
𰁜
𰃮
𰆊
𰆘
𰋙
𰕎
𰢴
𰧭
𰯲
00--
15--
18--
20--
22--
33--
39--
40--
41--
43--
53--
60--
70--
92--
978--
a--
aa--
ab--
aba--
ababe--
abaj--
abak--
abanga--
abaph--
abaq--
abase--
abath--
abav--
abavumel--
abe--
abese--
abha--
abhe--
abi--
abo--
abu--
ac--
ad--
ada--
adi--
adlu--
ae--
aest--
af--
ag--
agqo--
agx--
ah--
ahlo--
ahlu--
ai--
air--
ak--
aka--
akhi--
akhu--
akhulu--
ako--
aku--
akubo--
akud--
al--
ala--
ale--
ali--
all--
am--
ama--
amab--
amagq--
amak--
amakho--
amaph--
amath--
ambo--
ambu--
ammo--
amo--
an--
ancint--
ancip--
and--
ane--
ang--
anga--
angafa--
angahl--
angc--
ange--
angi--
ango--
ano--
anos--
anq--
anta--
anthrop--
anto--
any--
ao--
ap--
aphe--
aphi--
app--
aq--
aqanj--
aqi--
ar--
ari--
art--
as--
ase--
ash--
asin--
asu--
asy--
at--
ath--
au--
auto--
av--
awase--
awu--
ax--
ay--
aya--
aye--
ayi--
ayidl--
az--
azi--
azo--
b--
ba--
bab--
baba--
babe--
back--
bacu--
bad--
bag--
bahl--
bahlan--
bahlu--
baja--
bak--
bakhi--
bakhu--
baku--
bakwa--
bal--
bali--
balu--
bam--
bama--
ban--
bang--
banq--
baph--
baq--
bar--
bas--
base--
bat--
bav--
bava--
bavi--
bavu--
bavumel--
bax--
bay--
bazi--
be--
bebu--
begqo--
behl--
beku--
bekuyi--
bel--
ben--
ber--
bese--
besi--
bet--
bez--
bezi--
bezin--
bha--
bho--
bhu--
bi--
bio--
bir--
bo--
bok--
boku--
bokuq--
bom--
bon--
bot--
bou--
br--
bro--
bu--
bufa--
buhlu--
buka--
bund--
bunga--
bur--
but--
by--
byzan--
c--
ca--
can--
capt--
car--
cass--
cat--
ce--
centu--
cere--
ch--
cha--
che--
chi--
chlor--
cho--
ci--
cl--
clo--
cn--
co--
cogni--
collabo--
com--
compli--
con--
const--
coo--
cor--
cra--
cre--
cri--
cro--
cru--
cu--
cur--
cy--
d--
da--
dam--
daugh--
de--
dec--
del--
deli--
des--
develo--
dha--
dhe--
dhl--
di--
dia--
diffe--
disc--
dj--
dl--
do--
dome--
dr--
du--
dy--
dyna--
e--
ea--
eb--
eba--
ebha--
ebhe--
ebu--
ec--
ed--
edu--
ee--
efa--
efi--
efu--
eg--
ega--
egi--
eguqu--
eh--
ehe--
ehl--
ehlan--
ehlase--
ek--
ekha--
ekhe--
ekho--
ekhon--
ekhu--
ekhutha--
eku--
ekuhlu--
ekulung--
ekuph--
ekuq--
ekux--
ekwand--
el--
elali--
ele--
eli--
elihl--
elihlots--
elik--
elili--
elinge--
elizu--
em--
emab--
emabha--
emac--
emah--
emak--
emap--
emat--
embe--
embo--
emel--
emer--
emi--
emiss--
emo--
emp--
emph--
emth--
emza--
en--
enama--
end--
ene--
eng--
engo--
engokwe--
engu--
eni--
eno--
enobu--
enq--
ents--
ep--
epha--
ephe--
ephi--
ephindaphind--
ephu--
epid--
eq--
eqini--
eqon--
equa--
er--
es--
esa--
ese--
esedl--
eshib--
esi--
esidi--
esihl--
esikhu--
esili--
esimab--
esin--
esine--
esinike--
esinq--
esiphiki--
esiq--
esivi--
eso--
eson--
esu--
esun--
et--
eth--
etha--
ethno--
etho--
ety--
eu--
ev--
eva--
eve--
evike--
ewe--
ex--
exhu--
exo--
expl--
ey--
eya--
eyath--
eyayi--
eye--
eyi--
eyind--
eyo--
ez--
eza--
ezazi--
eze--
ezi--
eziba--
ezibo--
ezibu--
ezigq--
eziguquk--
ezihl--
ezik--
ezili--
ezin--
ezind--
ezindle--
ezine--
ezinga--
ezinge--
ezinh--
eziny--
eziph--
ezise--
ezith--
ezithuthuk--
f--
fa--
fal--
fami--
fan--
fe--
fer--
fern--
fi--
fin--
fo--
foot--
for--
fouc--
fr--
fre--
fu--
fur--
g--
ga--
gang--
gau--
ge--
gh--
gha--
ghe--
gho--
gi--
gib--
gir--
gl--
go--
gou--
gq--
gr--
gu--
guer--
gwe--
gy--
gym--
h--
ha--
haj--
ham--
hao--
har--
hard--
hay--
he--
hed--
hen--
her--
hete--
hi--
high--
hilde--
hin--
histo--
hl--
ho--
holi--
homo--
hono--
hoss--
hu--
hy--
hydr--
i--
ib--
iba--
ibar--
ibe--
ibha--
ibhe--
ibhu--
ibo--
ibra--
ibu--
ica--
ice--
ich--
ichi--
ici--
id--
ida--
ide--
idi--
idj--
ido--
if--
ifa--
ig--
iga--
igc--
igci--
igi--
igo--
igu--
igwe--
iha--
ihambi--
ihe--
ihl--
ihlu--
iho--
ihuny--
ij--
ija--
iji--
ik--
ika--
ike--
ikha--
ikhe--
ikho--
iki--
iko--
ikon--
ikro--
iku--
il--
ila--
ile--
ili--
ilib--
ilil--
ilin--
ilinga--
ilip--
ill--
ilo--
im--
ima--
imac--
imah--
imaka--
iman--
imas--
imbo--
ime--
imfu--
imi--
imiq--
imo--
imon--
imor--
imoro--
imos--
imp--
impa--
imu--
imur--
imzi--
in--
inc--
indi--
ine--
inequa--
inezi--
ing--
inga--
ingcu--
inge--
ingu--
inhl--
inj--
injo--
inke--
ino--
inq--
inse--
int--
inter--
inyu--
ip--
ipa--
ipen--
ipha--
iphe--
ipu--
iq--
iqi--
iqini--
iqu--
ir--
ira--
iriphab--
iru--
is--
ise--
isha--
ishi--
isi--
isihl--
isijo--
isik--
isinci--
isiph--
isk--
iso--
ist--
isu--
it--
ite--
ith--
iti--
ito--
itrans--
its--
iv--
ivi--
ivoh--
iwa--
iwe--
iwu--
ix--
iya--
iye--
iyi--
iyo--
iz--
iza--
ize--
izi--
izib--
izibu--
izig--
izihl--
izik--
iziko--
izimb--
izimp--
izin--
izind--
izinh--
izinhle--
izinse--
izo--
izof--
izu--
j--
ja--
jel--
jer--
ji--
jo--
jon--
ju--
jud--
judi--
k--
ka--
kab--
kafu--
kak--
kalu--
kama--
kan--
kar--
kara--
ke--
ken--
ker--
kg--
kh--
kha--
khay--
kho--
khu--
ki--
ko--
kobu--
kok--
koku--
kokuhl--
kokuph--
kokuq--
kokuth--
kokuv--
kokux--
kokwe--
kom--
kon--
kra--
kri--
ku--
kuba--
kubu--
kufo--
kufu--
kugwe--
kuhl--
kuj--
kuk--
kuka--
kukhu--
kule--
kuli--
kulo--
kulu--
kum--
kuma--
kumth--
kun--
kuncis--
kune--
kunezi--
kunga--
kunge--
kungu--
kuni--
kunq--
kuny--
kuph--
kuq--
kuqini--
kus--
kusa--
kuse--
kusu--
kuth--
kuthu--
kuts--
kuv--
kuwu--
kuxa--
kuya--
kuyi--
kuzo--
kwa--
kwaba--
kwabase--
kwaku--
kwakuyi--
kwama--
kwase--
kwayi--
kwe--
kwekhomi--
kwemi--
kwend--
kwesi--
kwez--
kweze--
kwezi--
kwi--
kwizi--
kwizinh--
kyo--
l--
la--
lab--
laba--
labaph--
lak--
lali--
lama--
laq--
lar--
lase--
le--
leba--
led--
leg--
leli--
len--
lend--
lep--
les--
lesi--
lez--
lezi--
li--
lib--
lig--
lihl--
lik--
lika--
likho--
lind--
linga--
lini--
linq--
liq--
lis--
lise--
lit--
liv--
liyi--
ll--
lo--
lobu--
loku--
lolu--
lom--
lomk--
lot--
love--
lu--
lug--
luhl--
luka--
luni--
luph--
luv--
lwa--
lwak--
lwama--
lwas--
lwase--
lwe--
lwemi--
lwesi--
lwezi--
ly--
m--
ma--
mac--
mad--
mafi--
mag--
magh--
mah--
mak--
mal--
man--
manu--
map--
mar--
mat--
mata--
mate--
mats--
may--
mb--
mcc--
mccor--
mcd--
me--
meas--
mec--
med--
mel--
memo--
mer--
mero--
meta--
mf--
mfund--
mg--
mi--
mic--
micro--
mid--
mik--
mill--
mise--
mit--
mix--
mk--
ml--
mo--
moham--
mok--
mon--
mono--
mor--
mos--
mou--
mp--
mr--
ms--
mu--
mv--
mw--
my--
mya--
n--
na--
naba--
nabad--
nabahl--
nabe--
nad--
naka--
naku--
nakuma--
nakwi--
nama--
namaph--
nan--
nango--
nar--
nase--
nasema--
nasezi--
nd--
ne--
neb--
nec--
nef--
nefi--
neg--
neh--
nek--
neke--
nem--
nen--
nend--
nenh--
nenko--
nenq--
neo--
neph--
neq--
nes--
nesi--
nesihl--
net--
neu--
neuro--
new--
news--
neye--
nez--
neze--
nezi--
nezin--
nezinh--
neziny--
neziq--
ng--
nga--
ngama--
ngase--
nge--
ngemf--
ngemi--
ngen--
ngesi--
ngezi--
ngi--
ngiya--
ngo--
ngob--
ngoku--
ngokugq--
ngokuhl--
ngokula--
ngokuli--
ngokuph--
ngokux--
ngokwe--
ngom--
ngu--
ngumb--
ngumd--
nh--
ni--
nje--
njenga--
njenge--
njengo--
nko--
nku--
no--
nobu--
noku--
nokuci--
nokudlwe--
nokug--
nokuhl--
nokuk--
nokuli--
nokulu--
nokuna--
nokuph--
nokuq--
nokuth--
nokuv--
nokux--
nokuzi--
nom--
noma--
nomchaza--
nomk--
non--
noph--
nor--
nos--
not--
nove--
now--
nowe--
ntu--
nur--
ny--
o--
obe--
obser--
obu--
obugqo--
obuph--
obus--
ocu--
odi--
of--
ofund--
og--
ogo--
oh--
ohlot--
oj--
ok--
oka--
okho--
okhu--
oku--
okufa--
okufu--
okuli--
okunga--
okunge--
okuph--
okuse--
okuthuthuk--
okuv--
okuyi--
okwa--
ol--
ola--
olin--
olu--
olud--
oluk--
olun--
olunga--
oluni--
olup--
olwa--
olwe--
om--
oma--
omp--
on--
one--
onga--
ongaph--
onge--
ongo--
ongu--
oni--
ono--
op--
oq--
or--
org--
os--
oseb--
oshi--
osi--
osiki--
osin--
ota--
oth--
otji--
oua--
oues--
out--
ova--
ove--
owa--
owawu--
owe--
ox--
oyi--
oyisi--
ozo--
p--
pa--
pan--
pap--
papy--
para--
part--
pass--
pat--
pe--
per--
percept--
ph--
phar--
phi--
phu--
pickersg--
pie--
pier--
pine--
pip--
pl--
po--
pol--
poli--
poly--
pon--
poo--
por--
pr--
pro--
psych--
psycho--
pu--
pur--
pus--
q--
qha--
qop--
qua--
r--
ra--
ran--
rat--
re--
rece--
recog--
recom--
red--
reg--
regu--
ren--
require--
respi--
rev--
rhe--
rhi--
ri--
rig--
ro--
rob--
row--
ru--
s--
sa--
sab--
sahl--
sak--
sakwa--
sam--
sama--
san--
sase--
sasi--
sath--
say--
sc--
se--
seb--
seg--
seku--
sekuq--
sen--
senka--
sept--
ser--
sesi--
sesikhu--
sess--
set--
sezi--
sh--
sha--
she--
shi--
shir--
si--
sibu--
sid--
sig--
sihl--
sihlu--
sik--
sika--
sil--
silo--
simp--
singa--
sini--
siph--
siq--
sisa--
sita--
siyi--
sk--
sla--
sli--
slo--
smart--
smo--
sno--
so--
sobu--
soft--
soku--
sokubu--
sokuhl--
sokuph--
sokuq--
sokuv--
sol--
somk--
soml--
sp--
spel--
st--
stat--
sto--
stra--
su--
sub--
suf--
sun--
supr--
sur--
sw--
sy--
syn--
t--
ta--
tah--
tal--
tan--
tar--
te--
tele--
ten--
ter--
terro--
th--
the--
thri--
ti--
to--
toget--
tou--
tr--
trans--
tri--
ts--
tu--
tur--
tw--
twa--
twe--
u--
ua--
ub--
uba--
ube--
ubedl--
ubhe--
ubi--
ubo--
ubu--
ubungc--
uc--
ucas--
ucon--
ud--
udlu--
udwe--
ufa--
ufe--
ufu--
uga--
uge--
ugr--
uha--
uhe--
uhl--
uhlin--
uho--
uj--
ujo--
ujor--
uju--
uk--
ukhe--
ukhomi--
ukhon--
ukhu--
uko--
uku--
ukubo--
ukubu--
ukuda--
ukufu--
ukug--
ukugq--
ukuhl--
ukuj--
ukuk--
ukukhu--
ukuli--
ukums--
ukun--
ukund--
ukunq--
ukuph--
ukuphu--
ukuq--
ukuqhat--
ukusi--
ukuth--
ukuv--
ukuzi--
ukuzip--
ukwa--
ukwe--
ul--
ula--
ule--
ulet--
uli--
ulind--
ulu--
um--
uma--
umb--
umbha--
umbu--
umfo--
umg--
umhl--
umk--
umli--
umo--
umq--
umsh--
umth--
umu--
umvu--
umzi--
umzu--
un--
uncir--
und--
une--
ung--
unga--
ungo--
ungu--
ungum--
ungumth--
uni--
unka--
uno--
unomk--
unq--
untseb--
up--
upa--
uphe--
uphu--
uq--
uqini--
uqon--
uqop--
ur--
us--
use--
ushe--
usi--
usib--
usim--
usin--
uso--
usu--
uta--
uth--
uti--
uts--
uv--
uva--
uvi--
uvu--
ux--
uya--
uyi--
uyinx--
uyisi--
uz--
uza--
uzi--
uzo--
uzu--
v--
va--
ve--
ven--
ver--
vi--
vo--
vr--
w--
wa--
waba--
wabi--
wabu--
wafu--
wagci--
wahl--
wak--
wakwa--
wama--
wams--
wan--
wanx--
waph--
waphi--
waq--
was--
wase--
wat--
wav--
wawu--
wax--
way--
waye--
wayenge--
wayese--
wayo--
wazi--
we--
web--
webha--
weh--
wekho--
wekhomi--
wel--
welu--
wemi--
wen--
wend--
wep--
wephep--
weriph--
wese--
wesi--
wet--
wez--
wezi--
whe--
wi--
wiki--
wit--
wo--
wobu--
woj--
wok--
woku--
wokuph--
wokuq--
wom--
womk--
womth--
wor--
wu--
x--
xa--
xi--
xia--
y--
ya--
yaba--
yahl--
yakwa--
yam--
yama--
yaph--
yaq--
yas--
yase--
yav--
yayi--
yayinge--
ye--
yeb--
yehl--
yek--
yekho--
yelu--
yem--
yen--
yend--
yeng--
yenh--
yep--
yes--
yesi--
yez--
yezen--
yezi--
yi--
yimi--
yin--
yinh--
yinta--
yisi--
yizi--
yo--
yobu--
yok--
yoku--
yokuhlu--
yokwe--
yom--
yomb--
yoml--
yoms--
yomth--
yu--
z--
za--
zahl--
zak--
zaka--
zama--
zamu--
zase--
zazi--
ze--
zehl--
zek--
zekho--
zemi--
zemp--
zen--
zesi--
zez--
zezi--
zi--
zibha--
zibi--
zibu--
zig--
zihl--
zik--
zika--
zil--
zilu--
zimbo--
zin--
zine--
zinga--
zinh--
zip--
ziq--
ziqhat--
zise--
zith--
zits--
zivi--
ziyi--
zo--
zobu--
zoku--
zokuc--
zokuhl--
zokuk--
zokuph--
zon--
zu--
zwe--
י--
شه--
--0
--1
--10
--2
--3
--4
--5
--6
--61
--7
--8
--89
--9
--a
--aa
--aba
--ability
--able
--ac
--ad
--ade
--adile
--adt
--ae
--age
--ah
--ahla
--ai
--ain
--ak
--akali
--akanya
--akanyeka
--aki
--akubo
--al
--ald
--am
--amba
--ambo
--ambulo
--amente
--amo
--amu
--amvu
--an
--ana
--andla
--andwa
--ane
--anga
--ani
--ans
--ant
--anu
--ar
--ara
--ard
--arian
--ariat
--ary
--as
--ase
--ast
--at
--ata
--ate
--ated
--athwa
--ati
--atic
--ation
--ative
--ator
--atta
--atus
--au
--aw
--awi
--awu
--ay
--ayo
--az
--aza
--b
--ba
--baculi
--bai
--balo
--bambe
--ban
--bana
--bane
--bano
--baza
--be
--beka
--bekela
--bekile
--bekiwe
--bela
--bele
--beni
--benzi
--benzisa
--ber
--berg
--berley
--bhakela
--bhalela
--bhali
--bhalisile
--bhalisiwe
--bhaliwe
--bhalo
--bhalwa
--bhamu
--bhange
--bhasi
--bhayibhelini
--bhedlela
--bhekene
--bheli
--bhethri
--bhini
--bhizinisi
--bho
--bhodi
--bhodlela
--bhokobhoko
--bhomu
--bhu
--bhuku
--bhulethi
--bhunu
--bi
--bia
--bika
--bile
--bili
--bindi
--bisa
--bisana
--bisani
--bise
--biwe
--biza
--bizwa
--ble
--bo
--bonisa
--bopho
--boshwa
--boy
--bre
--brithani
--bs
--bu
--bub
--buddha
--bukhosini
--bula
--bule
--bulili
--bulo
--busuku
--butho
--buya
--buyisana
--buyiselwa
--buza
--buzo
--c
--ca
--cal
--cala
--cat
--ce
--cekela
--celo
--cess
--ch
--chaza
--che
--chechen
--cher
--cho
--chwe
--chwepheshe
--ci
--cikela
--cikizi
--cikizini
--cile
--cimbi
--cised
--ck
--cks
--cky
--cle
--co
--cription
--cs
--ct
--cubu
--cubungula
--cula
--culi
--cy
--d
--da
--dakamizwa
--dal
--dala
--dalwa
--dashi
--day
--ddha
--ddy
--de
--dea
--ded
--deka
--deki
--dela
--delwa
--desi
--dh
--dha
--di
--ding
--dingeka
--dingi
--dingo
--dini
--disa
--dium
--divayisi
--dja
--dla
--dlakalasi
--dlali
--dlalo
--dlangala
--dle
--dlela
--dliwa
--dlo
--dlu
--dlula
--do
--doba
--doda
--dog
--dokodo
--dokotela
--dolobheni
--doma
--dongo
--dow
--dp
--dra
--ds
--dt
--du
--duka
--dume
--dumile
--duzane
--duze
--dwa
--dwe
--dweni
--dy
--e
--ea
--eaksat
--east
--eb
--ebe
--ebenzisa
--ech
--ed
--ef
--efi
--eg
--egal
--eka
--eke
--ekela
--ekelo
--ekhulu
--eko
--ekwi
--el
--ela
--elana
--elanayo
--ele
--elela
--eli
--ell
--elo
--elwe
--elweni
--em
--ema
--ement
--en
--ence
--ene
--eni
--ent
--entation
--ep
--epha
--er
--ere
--ered
--ers
--ert
--ery
--es
--ese
--eshe
--ess
--est
--et
--eti
--ett
--ety
--eur
--eus
--ew
--ex
--ey
--ez
--f
--fa
--faka
--fakelwa
--fana
--fanekiso
--fani
--fe
--fer
--fetho
--ff
--fi
--fika
--fisa
--fm
--fo
--fontein
--ft
--fu
--ful
--fula
--funa
--futha
--futho
--g
--ga
--gaba
--gadi
--gai
--gama
--gana
--gani
--gara
--gate
--gayo
--gazi
--gazini
--gcinwa
--gcoba
--gcoyi
--ge
--geli
--geni
--ger
--ges
--gesi
--gh
--gi
--gic
--gidi
--ging
--gingci
--gisa
--gisi
--giso
--giswa
--gnali
--gne
--go
--gogo
--goli
--golide
--goma
--gomo
--gona
--gqa
--gqila
--gqoka
--graphy
--greki
--grikhi
--gu
--gue
--gugu
--gujwa
--gula
--guli
--gulini
--gulwa
--gunya
--guquguquki
--guquki
--guqula
--guqulwa
--gwa
--gwaqo
--gwe
--h
--ha
--haka
--hala
--halwa
--ham
--hana
--hane
--hathe
--haza
--haze
--hazwa
--he
--heberu
--heke
--hele
--helene
--helwa
--helwe
--heni
--hepha
--hethe
--hethwe
--hezi
--hhala
--hhashi
--hhovisi
--hi
--hic
--hicilelwa
--hile
--hina
--hini
--hip
--hir
--hisa
--hiwa
--hiwe
--hiya
--hizi
--hla
--hlahla
--hlali
--hlamvu
--hlanganisiwe
--hlangano
--hlanganyela
--hlanu
--hlanzeka
--hlatshwa
--hlaya
--hle
--hlelo
--hlinza
--hlinzeka
--hlinzeki
--hlinzwa
--hlisa
--hlo
--hlobisa
--hlobiso
--hloko
--hlonipha
--hlonishwa
--hlose
--hloselwe
--hluka
--hlukahluka
--hluleka
--hlwa
--hn
--ho
--hobhi
--hoek
--hol
--hola
--hole
--holela
--holi
--hombo
--hona
--honi
--hora
--hs
--hu
--hule
--hulwa
--huma
--hungary
--hwa
--hwala
--hwanzi
--hwe
--hweba
--hweni
--hy
--i
--ia
--ial
--ian
--iara
--ic
--ica
--ical
--ich
--ics
--id
--idi
--ie
--ied
--iel
--ien
--ier
--iers
--ies
--ig
--ii
--ik
--ika
--ike
--ikh
--iki
--iktok
--ikya
--il
--ile
--ili
--ilo
--im
--ima
--imo
--imusi
--in
--ina
--inal
--inda
--ine
--ing
--inga
--ingi
--ings
--ini
--io
--ion
--ions
--ipha
--ir
--ira
--iri
--irt
--is
--isa
--isayo
--ise
--ish
--ished
--ishi
--ishini
--ishwa
--isi
--ism
--iso
--ist
--iswa
--iswe
--it
--ita
--ithombo
--iti
--itiki
--ity
--ius
--ival
--ive
--ives
--iwa
--iwe
--iya
--iyo
--iz
--ization
--izations
--ized
--izi
--izo
--izwa
--j
--ja
--jaji
--jalimane
--je
--jel
--jele
--jelwe
--jen
--jeni
--jesu
--jeziswa
--ji
--jo
--job
--jona
--ju
--juda
--jwa
--jwe
--k
--ka
--kahluka
--kahlukene
--kala
--kale
--kalelayo
--kali
--kaliso
--kalo
--kana
--kaniswa
--kaputeni
--kaso
--kathi
--kati
--kayo
--kaza
--kaze
--kazi
--kazwa
--ke
--keka
--kekelo
--kela
--kele
--keli
--kelo
--kelwa
--kene
--keni
--ker
--ket
--keza
--kezela
--kezelelana
--kezo
--kezwa
--kh
--kha
--khala
--khaladi
--khali
--khambi
--khashana
--khathi
--khawulo
--khela
--khelwane
--khemikhali
--khi
--khilomitha
--khiqiza
--khiqizo
--khishwa
--khiwa
--kho
--khokha
--khokho
--kholelwa
--kholwa
--khombisa
--khompyutha
--khondomu
--khono
--khosi
--khosini
--khu
--khula
--khulelwa
--khulu
--khundla
--khungo
--khuphula
--khwa
--ki
--kile
--kimbi
--kisa
--kisana
--kisela
--kiso
--kiswano
--kiswe
--kizi
--ko
--kole
--kolishi
--konzo
--kos
--kozo
--ks
--ku
--kude
--kulimala
--kulu
--kumeza
--kumezeka
--kumo
--kusi
--kuthu
--kwa
--kwane
--kwazi
--kwe
--kweni
--ky
--kya
--kye
--l
--la
--labutho
--lah
--lahlekelwa
--lamvu
--lana
--land
--lani
--lar
--lasizinda
--lawula
--lawulwa
--layisense
--layo
--lberg
--ld
--le
--lebula
--lect
--leka
--leke
--lekela
--lekile
--leko
--lela
--lele
--leleka
--lelekile
--lelwa
--lene
--leni
--ler
--letha
--letho
--lex
--ley
--lf
--li
--lic
--liki
--lil
--lile
--lilo
--lim
--limaza
--ling
--lingani
--linganisa
--lingisa
--lingiswa
--lingo
--lise
--liso
--liswa
--live
--liwe
--ll
--lla
--lle
--lli
--lls
--lly
--lm
--lo
--lodi
--loli
--lon
--ls
--lt
--lu
--lula
--luleke
--lulekile
--lululo
--lunga
--lungelo
--lungile
--lungu
--lusi
--lwa
--lwana
--lwandle
--lwane
--lwazi
--lwe
--lwebu
--lwela
--lweni
--ly
--m
--ma
--mageba
--mal
--mala
--mali
--malta
--man
--mane
--mani
--manye
--mapulana
--mba
--mbabwe
--mbali
--mbangela
--mbe
--mbhali
--mbi
--mbisa
--mbisana
--mbo
--mboleko
--mbongi
--mbono
--mbula
--mbusi
--me
--mela
--mele
--meli
--mende
--meni
--ment
--methuli
--meya
--mezele
--mfana
--mfihlo
--mfundiso
--mfundo
--mfuyo
--mgcinimafa
--mgomo
--mhla
--mhleli
--mhlinzeki
--mi
--mia
--mibono
--mibukiso
--mie
--migomo
--mile
--minster
--misa
--mise
--misipha
--miso
--mitha
--miya
--mizamo
--mizi
--mizwa
--mjuda
--mkhathi
--mkhiqizi
--mlingani
--mlobi
--mn
--mngane
--mnikazi
--mntwana
--mo
--mond
--mondi
--moni
--mora
--mormon
--moun
--moya
--mp
--mpahla
--mpawu
--mpelasonto
--mpeli
--mpetha
--mphathi
--mpi
--mprofethi
--mqoka
--mqondisi
--ms
--msizi
--msulwa
--msunguli
--mu
--mukela
--mukeli
--mukelwa
--mula
--mulo
--muzana
--mvelo
--mvu
--my
--mzali
--n
--na
--nah
--nakala
--nakekelwa
--nakwa
--nal
--nan
--nanda
--nard
--nayo
--nberg
--nc
--nca
--nce
--nci
--nciphisa
--ncy
--nd
--nda
--ndabuko
--ndakanya
--ndakanyeka
--ndakanyi
--ndalo
--ndan
--ndaweni
--ndawo
--nde
--ndebe
--ndela
--ndelana
--ndele
--ndelwe
--ndeni
--ndi
--ndilinga
--ndinganiso
--ndisa
--ndiswa
--ndiwe
--ndiya
--ndiza
--ndla
--ndle
--ndlini
--ndlo
--ndlu
--ndlululwa
--ndo
--ndoda
--ndondo
--nds
--ndu
--ndulo
--nduna
--ndunu
--ndwe
--ne
--nekwane
--nel
--nela
--nele
--neleka
--nelela
--neni
--ner
--net
--new
--ney
--ng
--nga
--ngane
--ngani
--nganiselwa
--ngano
--ngavumelani
--nge
--ngela
--ngelwa
--ngelwe
--ngezwani
--ngi
--ngik
--ngisa
--ngisi
--ngiswa
--ngo
--ngqamuzana
--ngs
--ngu
--ngubo
--ngumbane
--nguquko
--ngwa
--ngwe
--ngxabano
--nhlanzi
--nhlayiyana
--nhle
--nhlobo
--nhloko
--nhlonipho
--nhloso
--nhlwa
--ni
--nia
--nibani
--nic
--nikazi
--nikela
--nikele
--nikeza
--nikezwa
--ning
--ningo
--nipha
--niphile
--nipho
--nisa
--nise
--nisela
--niselwa
--niselwe
--nisi
--nisiwe
--niso
--niswa
--niswe
--nisweni
--nium
--nix
--niya
--njana
--nje
--njiswa
--njiwe
--njulwa
--njwa
--njwe
--nk
--nki
--nkolelo
--nkolo
--nkomba
--nkondlo
--nkontileka
--nkosi
--nkundla
--nn
--nnai
--nne
--no
--nomkhubulwane
--nqaba
--nqe
--nqoba
--nqubo
--nqumo
--nqunywa
--ns
--nse
--nsela
--nsi
--nsimbi
--nsiza
--nsizakalo
--nsizwa
--nsky
--nso
--nt
--nta
--ntaba
--ntal
--ntatheli
--nte
--nteka
--ntekile
--ntela
--nti
--nto
--ntombazane
--nts
--ntshi
--ntu
--ntwa
--ntwana
--nu
--nuko
--nwa
--nwe
--nxele
--ny
--nya
--nyaka
--nye
--nyela
--nyele
--nyiswa
--nym
--nyo
--nyoni
--nyuka
--nywa
--nywe
--nz
--nza
--nze
--nzeka
--nzeke
--nzeko
--nzela
--nzelwa
--nzi
--nzile
--nziselwa
--nziselwe
--nziswa
--nziwa
--nzo
--nzwa
--nzwi
--o
--ob
--oba
--obana
--obi
--obo
--od
--oe
--off
--ofi
--ofu
--ogical
--ogist
--ogy
--oi
--oid
--oids
--ok
--oka
--oko
--ol
--ola
--ole
--oli
--olo
--ological
--ology
--om
--oma
--ome
--omi
--omu
--on
--ona
--ondalo
--ong
--oni
--onisa
--ono
--ont
--ool
--oon
--oot
--op
--opho
--or
--ora
--ord
--ore
--oro
--ors
--os
--ose
--osi
--ot
--ou
--oua
--ouch
--ouine
--oun
--ous
--ov
--ova
--ovo
--ow
--ows
--oy
--oza
--ozi
--ozo
--p
--pa
--palestine
--pare
--pasi
--pe
--ped
--pelini
--ph
--pha
--phalamende
--phandle
--phanga
--phaphu
--phe
--pheka
--pheko
--phele
--pheli
--phenywa
--phepha
--pheresiya
--phesenti
--pheshana
--pheshe
--phethini
--phetho
--phethwe
--phi
--phikisana
--phimbo
--phinda
--phinde
--phindwe
--pho
--phostoli
--phoyisa
--phrojekthi
--phu
--phula
--phulukisa
--phunga
--phuzi
--phuzu
--ping
--pipi
--pitori
--po
--posi
--poti
--pristi
--ps
--pulana
--py
--pınar
--q
--qa
--qabunga
--qamba
--qanda
--qanjwa
--qanjwe
--qapha
--qeda
--qeqesha
--qeqeshi
--qhawe
--qhaza
--qhingi
--qhubeka
--qi
--qina
--qinisekisa
--qiniso
--qiwe
--qiza
--qizo
--qo
--qoka
--qonda
--qondakali
--qondile
--qopha
--qoqa
--qoqo
--qoshwa
--qotho
--qu
--quko
--qula
--qulwa
--r
--ra
--rae
--rah
--ran
--ransvaal
--rator
--rbahc
--rc
--rd
--re
--rekhoda
--rekhodi
--rem
--rey
--rf
--rg
--rga
--ri
--ria
--ric
--riya
--rk
--rn
--rne
--ro
--rol
--roma
--ros
--rp
--rphic
--rr
--rry
--rs
--rt
--rte
--rth
--rty
--rtz
--ru
--rwa
--ry
--s
--sa
--saka
--sakazeka
--sakazo
--sakazwa
--san
--sat
--sazi
--sburg
--sco
--sdorp
--se
--sed
--seka
--seke
--sekela
--sekeli
--sekelo
--sekisa
--sela
--sele
--seli
--selwa
--selwe
--sen
--seni
--ser
--setshenziswa
--sevisi
--sh
--sha
--shadile
--shayamthetho
--shayela
--shayeli
--shayo
--she
--sheya
--shi
--shicilela
--ship
--shisa
--shiwe
--shiwo
--shiya
--shiyagalombili
--shoshovu
--shumi
--shwa
--shwana
--shwe
--si
--sia
--sibhakela
--sibhedlela
--sibopho
--sicaba
--sie
--sifo
--sigqi
--sikhumba
--sikiwe
--siko
--sile
--simo
--simweni
--sinda
--sindo
--sing
--sini
--sintu
--sion
--sipha
--sis
--sisa
--sisebenzi
--sisekelo
--sishiyagalombili
--sisi
--sisindo
--sitayela
--sithunywa
--sitolo
--sivivinywa
--siwe
--siza
--sizinda
--sizini
--sm
--so
--soco
--sokile
--sola
--somlomo
--son
--sonto
--sor
--soseji
--sosha
--sreef
--ss
--ssis
--st
--stein
--stone
--stown
--su
--suka
--suke
--sulu
--sulumane
--sun
--sus
--susa
--suthu
--swa
--swatini
--swe
--sweden
--sweni
--sworth
--sy
--t
--ta
--tabane
--tal
--tan
--tari
--tashi
--tation
--tayela
--te
--ted
--teji
--teketiso
--tela
--tende
--ter
--ters
--tes
--teshi
--th
--tha
--thako
--thama
--thambisa
--thambo
--thameli
--the
--thekiso
--thekwini
--thela
--thelo
--thelwa
--thembu
--thezeka
--thi
--thini
--thiselwe
--thisha
--thiwekhi
--tho
--thola
--thole
--tholi
--thombe
--thondo
--thoni
--thonya
--thosa
--thoyizi
--ths
--thu
--thuko
--thuluzi
--thulwa
--thumbu
--thumela
--thununu
--thunyelwa
--thunywa
--thutha
--thuthukisa
--thuthukiswa
--thwa
--thwala
--thwe
--ti
--tia
--tiago
--tial
--tian
--tic
--tics
--tiki
--tile
--tin
--ting
--tini
--tion
--tive
--tjo
--tla
--tle
--tn
--tna
--to
--tolo
--ton
--tor
--tory
--tra
--tro
--ts
--tsha
--tshala
--tshalo
--tshe
--tsheni
--tshenziselwa
--tshenzisiwe
--tshenziswa
--tshenziswe
--tshi
--tshiwe
--tshwa
--tsi
--tsonga
--tt
--tte
--tus
--ty
--u
--ua
--ub
--ubi
--uch
--ud
--udiyo
--ue
--uel
--ues
--ugal
--ugqa
--uh
--uia
--uk
--uka
--ukisa
--ukiswa
--uko
--ul
--ula
--ulali
--ulana
--ular
--ule
--uli
--uliselwa
--ulo
--ult
--ulu
--ulwa
--um
--umbi
--ume
--umela
--umula
--un
--una
--ung
--unga
--unjwa
--untu
--unwe
--unyelwa
--up
--uq
--ur
--ure
--uri
--uring
--uru
--us
--ushwa
--usi
--uso
--ut
--ute
--uth
--uthuka
--uthukisa
--uthukiswa
--uto
--uu
--ux
--uza
--uzi
--uzo
--v
--va
--vakashi
--val
--vala
--valiwe
--valwa
--vame
--vamile
--vamise
--vanga
--ve
--vela
--vele
--velele
--venda
--ves
--veza
--vho
--viet
--vikela
--viki
--vimbela
--vo
--voci
--voti
--vu
--vuka
--vula
--vulwa
--vumela
--vuna
--vunyelwa
--vunywa
--vuselela
--vya
--w
--wa
--wal
--wana
--wano
--ware
--wayini
--we
--web
--wek
--wekhi
--wela
--weni
--weseli
--west
--wi
--wn
--wo
--ws
--wu
--wula
--wusizo
--x
--xa
--xhoxho
--xhuma
--xo
--xoxa
--xoxwa
--y
--ya
--yana
--ye
--yela
--yelela
--yelele
--yeli
--yelwa
--yeni
--yev
--yi
--yine
--yingo
--yinwe
--yisa
--yise
--yiselwa
--yn
--ynep
--yo
--yori
--ys
--yu
--yutha
--ywa
--ywe
--yweni
--z
--za
--zakhi
--zakhiwo
--zali
--zalwa
--zana
--zandalo
--zane
--zanga
--zathu
--zation
--zayo
--ze
--zeka
--zeki
--zekile
--zela
--zelo
--zelwe
--zeni
--zi
--zibulo
--zidingo
--zig
--zigaba
--zigidi
--zinda
--zini
--zinikele
--zinze
--ziqhenya
--ziqu
--zisa
--zitho
--zithokozisa
--zitolo
--zivikela
--zivocavoca
--ziwa
--ziwe
--ziyo
--zo
--zoba
--zolo
--zonke
--zono
--zrit
--zu
--zukulu
--zukulwane
--zulu
--zulwini
--zuza
--zwa
--zwe
--zweni
--zwi
--а
