!
"
#
##0
##1
##10
##11
##12
##13
##14
##15
##16
##17
##18
##19
##2
##20
##21
##22
##23
##24
##25
##26
##27
##28
##29
##3
##30
##31
##32
##33
##34
##35
##36
##37
##38
##39
##4
##40
##41
##42
##43
##44
##45
##46
##47
##48
##49
##5
##50
##51
##52
##53
##54
##55
##56
##57
##58
##59
##6
##60
##61
##62
##63
##64
##65
##66
##67
##68
##69
##7
##70
##71
##72
##73
##74
##75
##76
##77
##78
##79
##8
##80
##81
##82
##83
##84
##85
##86
##87
##88
##89
##9
##90
##91
##92
##93
##94
##95
##96
##97
##98
##99
$
%
&
'
(
)
*
+
,
-
.
/
0
00
000
0004
001
002
003
004
005
006
007
01
010
011
0138
016
017
02
0212
03
031
033
0365
038
04
05
06
07
0746
08
09
1
10
100
1000
10000
1002
1007
101
1016
102
103
1038
104
105
1051
106
106195
107
1073
108
1080
1086
1088
109
1093
109453
1097
11
110
1100
111
1111
112
1126
113
114
115
116
117
1175
118
119
12
120
1200
121
12111
122
123
124
12411
125
1250
125898
126
127
128
1286
129
13
130
1300
130903
131
1313
132
133
134
135
1350
136
1365
137
1371
138
138416
139
14
140
1400
141
141278
142
143
1432
1436
144
145
1450
146
147
1471
148
1480
149
1492
15
150
1500
1503
151
1515
152
1520
1521
153
1530
1538
154
1540
1547
155
1550
1552
1553
1555
1559
156
1560
1562
1569
157
1570
1572
1573
158
1580
1581
1582
1584
1585
1586
1588
159
1590
1592
1596
1598
16
160
1600
1603
1604
1605
1606
1607
1608
1609
161
1610
1611
1612
1613
1615
1616
1617
1618
1619
162
1620
1621
1622
1623
1624
1625
1626
1627
1628
1629
163
1630
1632
1633
1634
1635
1636
1637
1638
164
1640
1642
1643
1644
1645
1646
1647
1648
1649
165
1650
1651
1652
1653
1654
1655
1656
1657
1658
1659
166
1660
1661
1662
1663
1664
1665
1666
1667
1668
1669
167
1670
1671
1672
1673
1674
1675
1676
1677
1678
1679
168
1680
1681
1682
1683
1684
1685
1686
1687
1688
1689
169
1690
1692
1694
1695
1696
1697
1698
1699
17
170
1700
1701
1702
1703
1704
1705
1706
1707
1708
1709
171
1710
1711
1712
1713
1714
1715
1716
1717
1718
1719
172
1720
1721
1722
1723
1724
1725
1726
1727
1728
1729
173
1730
1731
1732
1733
1734
1735
1736
1737
1738
1739
174
1740
1741
1742
1743
1744
1745
1746
1747
1748
1749
175
1750
1751
1752
1753
1754
1755
1756
1757
1758
1759
176
1760
1761
1762
1763
1764
1765
1766
1767
1768
1769
177
1770
1771
1772
1773
1774
1775
1776
1777
1778
1779
178
1780
1781
1782
1783
1784
1785
1786
1787
1788
1789
179
1790
1791
1792
1793
1794
1795
1796
1797
1798
1799
18
180
1800
1801
1802
1803
1804
1805
1806
1807
1808
1809
181
1810
1811
1812
1813
1814
1815
1816
1817
1818
1819
182
1820
1821
1822
1823
1824
1825
1826
1827
1828
1829
183
1830
1831
1832
1833
1834
1835
1836
1837
1838
1839
184
1840
1841
1842
1843
1844
1845
1846
1847
1848
1849
185
1850
1851
1852
1853
1854
1855
1856
1857
1858
1859
186
1860
1861
1862
1863
1864
1865
1866
1867
1868
1869
187
1870
1871
1872
1873
1874
1875
1876
1877
1878
1879
188
1880
1881
1882
1883
1884
1885
1886
1887
1888
1889
189
1890
1891
1892
1893
1894
1895
1896
1897
1898
1899
19
190
1900
1901
1902
1903
1904
1905
1906
1907
1908
1909
191
1910
1911
1912
1913
1914
1915
1916
1917
1918
1919
192
1920
1921
1922
1923
1924
1925
1926
1927
1928
1929
193
1930
1931
1932
1933
1934
1935
1936
1937
1938
1939
194
1940
1941
1942
1943
1944
1945
1946
1947
1948
1949
195
1950
1951
1952
1953
1954
1955
1956
1957
1958
1959
196
1960
1961
1962
1963
1964
1965
1966
1967
1968
1969
197
1970
1971
1972
1973
1974
1975
1976
1977
1978
1979
198
1980
1981
1982
1983
1984
1985
1986
1987
1988
1989
199
1990
1991
1992
1993
1994
1995
1996
1997
1998
1999
2
20
200
2000
2001
2002
2003
2004
2005
2006
2007
2008
2009
201
2010
2011
2012
2013
2014
2015
2016
2017
2018
2019
202
2020
2021
2022
2023
2024
2025
203
2030
204
2041
205
206
207
208
209
21
210
211
212
213
214
215
216
217
218
219
22
220
221
222
223
224
225
226
227
228
229
23
230
231
232
233
234
235
236
237
238
239
24
240
241
242
243
244
245
246
247
248
249
25
250
2500
251
252
253
254
255
256
257
258
259
26
260
261
262
263
264
265
266
267
268
269
27
270
271
272
273
274
275
276
277
278
279
28
280
281
282
283
284
285
286
287
288
289
29
290
291
292
293
294
295
296
2966
297
298
299
3
30
300
3000
301
302
303
304
305
306
307
308
309
31
310
311
312
313
314
315
316
317
318
319
32
320
321
322
323
324
325
326
327
328
329
33
330
331
332
333
334
335
336
337
338
339
34
340
341
342
343
344
345
346
347
348
349
35
350
3500
351
352
353
354
355
356
357
358
359
36
360
361
362
363
364
365
366
367
368
369
37
370
371
372
373
374
375
376
377
378
379
38
380
381
382
383
384
385
386
387
388
3881
389
39
390
391
392
393
394
39422
395
396
397
398
399
4
40
400
4000
401
402
403
404
405
406
407
408
409
41
410
411
412
413
414
415
416
417
418
419
42
420
421
422
423
42356
424
425
426
427
428
429
43
430
431
432
433
434
435
436
437
438
439
44
440
441
442
443
444
445
446
447
448
449
45
450
451
452
453
454
455
456
457
458
45846
459
46
460
461
462
463
464
465
466
46628
467
468
469
47
470
471
472
473
474
475
476
477
478
479
48
480
481
482
483
484
4846
485
486
487
488
489
49
490
491
492
493
494
495
496
497
498
499
5
50
500
5000
501
502
503
504
505
506
507
508
509
51
510
511
512
513
514
515
516
517
518
519
52
520
52072
521
522
523
524
525
526
527
528
529
53
530
531
532
533
534
535
53566
536
537
538
539
54
540
541
542
543
544
545
546
547
548
549
55
550
551
552
553
554
555
556
557
558
559
56
560
561
562
563
564
565
566
567
568
57
570
571
572
573
574
575
576
577
579
58
580
581
582
583
584
585
586
587
588
59
590
591
592
593
595
596
598
599
6
60
600
6000
601
602
603
604
605
606
607
608
61
610
612
613
615
616
617
618
619
62
620
621
622
623
624
625
6256
626
628
63
630
631
632
635
636
6361
637
639
64
640
641
642
645
648
65
650
653
654
655
656
66
660
664
666
667
668
67
670
671
672
674
68
680
682
684
688
69
690
691
696
699
7
70
700
7000
703
704
71
710
72
720
727
73
730
736
737
74
740
747
75
750
752
76
760
768
77
770
777
78
780
784
79
790
8
80
800
8000
802
81
810
816
82
820
83
831
84
840
85
850
85270
86
860
86007
863
87
870
88
880
89
89572
896
9
90
900
91
911
92
93
94
943
944
94542
95
950
952
95382
954
96
960
966
97
9765
978
98
985
99
9950
:
;
<
=
>
?
@
[
\
]
^
_
`
a
aa
ab
abc
about
ac
academia
academic
academy
access
accessed
act
acta
action
active
actor
ad
adam
adams
adjusted
administration
adult
advanced
adventure
ae
af
affairs
afp
africa
african
after
ag
again
against
age
agencia
agency
ages
ah
ai
aip
air
airbus
aircraft
airlines
airplay
airport
airways
ais
aise
al
alan
albert
album
albums
alex
alexander
alfred
ali
alice
all
allen
allgemeine
alliance
allmovie
allmusic
alpha
als
also
alt
alternative
am
amanda
amazon
amd
america
american
amnesty
among
amsterdam
an
ana
analysis
ancient
and
anderson
andre
andrew
android
andy
angel
angeles
animal
animation
anime
ann
anna
anne
anniversary
announced
announces
annual
another
ant
anthony
anti
antonio
any
ap
apache
apg
api
app
apple
application
applications
april
ar
architecture
archive
archived
archives
arctic
are
area
arena
argentina
aria
arm
armenia
armenian
arms
army
around
array
art
arte
arthur
article
articles
artist
artists
arts
arxiv
as
asia
asian
associated
association
astro
astron
astronomical
astronomy
astrophys
astrophysical
at
athletics
atlantic
atlas
atp
attack
attribution
au
audi
audio
auf
august
aus
austin
australia
australian
austria
author
authority
auto
aux
av
avec
aviation
avn
award
awards
away
az
azerbaijan
azərbaycan
b
ba
baby
back
bad
bafta
baker
balance
ball
band
bang
bank
bar
barbara
barcelona
baron
bas
base
based
basic
basketball
batman
battle
bay
bayerische
bayerisches
bb
bbc
bc
bd
be
beach
beat
beatles
beautiful
been
before
begin
behind
bei
being
bell
bellator
ben
benjamin
benz
ber
berkeley
berlin
bernard
best
beta
better
between
bevo
beyond
bf
bhikkhave
bi
bibcode
bibliographisches
bibliothe
bien
big
bill
billboard
bin
bio
biographical
biographie
biography
biological
biology
bird
birds
bis
black
block
blog
blood
bloomberg
blu
blue
blues
bmw
bnf
bo
board
bob
body
boeing
boleti
bon
book
bookmaker
books
born
boston
box
boy
boys
bp
br
brain
brazil
break
brent
brian
bridge
brief
brill
britain
britannica
british
broadcasting
broadway
brockhaus
bros
brothers
brown
bruce
bu
buddhadatta
building
bull
bulletin
bureau
business
but
by
c
ca
cable
cahoon
california
call
cambridge
campaign
campbell
can
canada
canadian
cancer
canon
cap
capital
captain
car
card
carl
carlos
carolina
cas
case
cassini
cast
castle
cat
catalog
catalogue
category
catholic
cbs
cc
cd
cdot
ce
cell
census
center
central
centre
century
certifications
ces
cf
ch
cha
challenge
championat
champions
championship
championships
change
channel
chapter
charles
charlie
chart
charts
che
chemical
chemistry
chen
cher
chess
chessgames
chevrolet
chi
chicago
chief
chiffres
child
children
china
chinese
choice
chris
christian
christmas
christopher
chrome
chronicle
church
ci
cia
cifras
cinema
circle
cities
city
civil
ck
cl
clark
class
classic
classical
classification
claude
cle
click
climate
clinical
close
cloud
club
cm
cn
cnn
cntd
co
coast
code
col
cold
cole
coleoptera
colin
collection
college
collins
color
columbia
com
come
comedy
comes
comic
comics
coming
command
comme
commission
committee
common
commons
communications
community
companion
company
complete
complex
computer
con
conference
conflict
congress
conservation
consortium
contemporary
content
control
cooper
core
corp
corporation
corpus
cos
costa
could
council
count
country
county
court
cover
covid
cr
crash
creative
crew
crime
crisis
critical
critics
cross
crown
cs
cu
cultural
culture
cum
cup
curling
current
cz
czech
d
da
daily
dan
dance
daniel
dans
dark
das
data
database
date
dave
david
davis
dawn
day
days
db
dc
dd
de
dead
deadline
deadlink
deal
death
debian
debut
dec
december
deep
def
defense
dei
del
dell
della
delta
dem
den
department
der
des
description
design
details
deutsche
deutschen
deutschland
deux
development
di
dia
diamond
dictionary
dictionnaire
did
die
diego
dies
digital
din
direct
director
directory
discography
discogs
discovery
disease
disney
displaystyle
distribution
district
dit
division
dj
dna
dns
do
doc
docs
doctor
does
dog
doi
don
donald
dos
dota
dots
double
douglas
down
download
dr
draft
dragon
drama
dream
dreams
drive
drug
ds
du
duke
during
durlevich
dutch
duty
dvd
dw
dx
dynamicpagelist
dz
e
ea
earl
early
earth
east
eastern
ec
echo
economic
economics
ed
edge
edinburgh
edited
edition
editor
edp
eds
edu
education
edward
edwards
ee
eesti
effect
effects
egypt
ehess
ein
eine
einer
ek
el
election
elections
electric
electronic
elizabeth
elle
elsevier
em
empire
emploi
en
enciclopedia
enciklopedija
encyclopaedia
encyclopedia
encyclopædia
end
energy
enero
engine
engineering
england
english
enter
enterprise
entertainment
entomological
entomology
entry
environment
environmental
ep
epic
episode
er
era
eric
ernst
es
esky
espan
espn
essays
est
estadi
estado
estatal
et
etc
etomesto
eu
euro
europa
europe
european
eurovision
evans
event
events
ever
every
everything
evidence
evil
evolution
ex
exclusive
experience
explorer
express
extragalactic
eye
eyes
f
fa
face
facebook
factor
facts
fair
fait
fall
falsefalse
fame
family
fantasy
far
fashion
fast
fbref
fc
fe
feat
feature
feb
february
federal
federation
female
ferrari
festival
ff
fi
fiat
fiction
fide
field
fifa
fifth
fight
fighter
fighting
figure
file
files
film
films
final
finals
financial
find
fine
finland
fire
firefox
first
fis
fischer
fisher
five
fl
flash
flight
flora
florida
flower
floyd
fm
fo
focus
food
football
footballfacts
for
forbes
force
forces
ford
foreign
forest
forever
form
format
formation
former
formicidae
fortschreibung
forum
forveille
found
foundation
four
fox
fr
frac
franc
france
francis
francisco
frank
frankfurt
franz
free
freebsd
freedom
french
friday
friedrich
friends
from
front
ft
fu
full
function
future
g
ga
gaia
galaxies
galaxy
gallery
game
gamer
games
gamespot
gaming
gamma
gaon
garden
gary
gas
gay
gazeta
gazette
gazetteer
ge
gear
gemeinden
gen
gene
genealogy
genera
general
generation
genesis
genome
genus
geographic
geological
geonames
georg
george
georgia
german
germany
geschichte
get
gets
ghost
gi
giant
girl
girls
give
gks
global
globe
gm
gmbh
gnd
gnome
gnu
go
goal
god
goes
going
gold
golden
good
google
gordon
got
gouv
gov
government
gp
gps
gr
gra
graham
grammy
gran
grand
grande
grave
gray
great
greatest
greece
greek
green
grey
group
groups
growth
gt
gu
guardian
guide
guitar
gun
guy
h
ha
had
half
hall
hand
handbook
handbuch
hans
happy
hard
harper
harris
harry
harvard
has
hat
have
hbo
hd
he
head
health
heart
heaven
heavy
heidelberg
heinrich
hell
hello
help
henri
henry
her
herald
here
heritage
hero
heroes
het
hg
hi
high
hill
him
hip
his
histoire
historia
historic
historical
history
hit
hits
hms
ho
hockey
holdings
hollywood
holy
home
homme
homo
honda
hong
honor
hop
hope
horror
host
hot
hotel
house
how
howard
hr
hrsg
htm
html
http
https
hu
human
hung
hunter
hymenoptera
hyundai
i
ia
iaaf
ian
ib
ibf
ibid
ibm
ic
ice
ich
id
identification
identity
ie
ieee
if
ifpi
ign
ii
iii
il
illustrated
im
image
images
imdb
impact
imperial
in
inc
including
independent
index
india
indian
indonesia
industrial
industry
info
information
infty
inopressa
insee
inside
insider
instagram
institut
institute
institution
instituto
int
intel
intelligence
inter
interactive
intermedia
international
internet
interview
into
introduction
io
ioc
iop
ios
ip
ipac
ipad
iphone
ir
iran
ireland
irish
iron
is
isbn
islam
island
islands
iso
israel
iss
issn
issue
issues
ist
isu
it
italia
italian
italiana
italy
itf
its
itunes
iucn
iv
ix
j
ja
jack
jackson
jacques
jam
james
jan
jane
january
japan
japanese
jason
java
javascript
jay
jazeera
jazz
je
jean
jeff
jennifer
jerusalem
jewish
ji
jim
jo
joe
johann
john
johnson
joins
jon
jonathan
jones
jordan
jose
joseph
journal
journey
jp
jpg
jr
jstor
ju
juan
july
june
junior
just
justice
justin
k
ka
karl
kb
kde
ke
keith
kelly
kenneth
kevin
key
kg
kho
ki
kids
kill
killed
kim
king
kingdom
kings
kiss
knight
know
knowledge
known
ko
kong
korea
korean
kp
kr
ku
kz
l
la
lada
lady
lake
lambda
land
landesamt
lang
language
languages
large
las
last
late
later
latin
latvijas
launch
law
lawrence
lc
ldots
le
lead
leader
league
learning
leben
led
lee
left
legacy
legend
legends
leiden
leipzig
lenta
leo
les
let
letter
letters
level
lewis
lexikon
lg
li
lib
library
life
light
like
lil
lim
limited
limits
line
lingvarium
link
linnaeus
linux
list
lista
literature
little
liu
live
livejournal
lives
living
lkerung
lkerungsstandes
ll
llc
lle
ller
ln
lo
local
log
london
long
look
lord
los
lost
louis
love
low
lp
lt
ltd
lu
ludwig
lui
luis
lunar
lundy
lv
m
ma
mac
machine
macmillan
mad
madame
made
madonna
madrid
magazine
magic
mahathera
mai
mail
main
mais
major
make
makes
making
maman
man
management
manager
manchester
manual
manuel
many
map
maps
mar
marc
march
mari
maria
marie
marine
mario
mark
market
mars
marshall
martin
marvel
mary
mass
master
masters
match
math
mathbb
mathbf
mathematical
mathematics
mathrm
mathsf
matt
matthew
max
may
mc
mcdonald
md
me
med
medal
media
medical
medicine
medien
medieval
meduza
meet
members
memorial
memory
men
mer
mercedes
mes
metacritic
metal
metaratings
metcalf
method
metro
mexico
mi
michael
michel
microsoft
mid
middle
mike
mil
milano
military
miller
million
min
mind
mini
minister
ministry
minor
mir
mirror
miss
mission
mister
mit
mitch
mitsubishi
mix
mk
ml
mls
mm
mma
mo
mobile
mod
mode
model
modern
moi
mojo
molecular
mon
monday
monde
money
monsieur
month
monthly
moon
moore
more
morgan
morning
morris
moscow
most
mother
motion
motor
motors
mountain
move
movement
movie
movies
mozilla
mp
mr
ms
mtv
mu
much
municipal
murder
murray
muse
museum
music
musical
must
mvp
my
n
na
nach
nacional
nam
name
named
names
namespace
narod
naroda
nas
nasa
nat
nation
national
nationalbibliothek
nationale
nations
natural
nature
naval
navy
nba
nbc
nc
ncaa
nchen
nd
ne
near
need
neil
nelson
nes
net
netflix
network
networks
neue
never
new
news
newsbots
newspaper
newsru
next
ng
ngc
nh
nhl
ni
nicholas
nicht
nick
nicolas
nie
nielsen
night
nine
nintendo
nissan
nl
nme
nn
no
nokia
nom
nomenclature
nominations
nominees
non
none
nord
norman
north
northern
nos
not
note
notes
nothing
nous
nov
nova
novel
november
now
nr
ns
nu
nuclear
number
numbers
nvidia
ny
nyc
nz
nɐ
o
obci
observer
obyvatel
oc
ocean
och
oclc
october
od
odds
oder
of
off
office
official
oficial
oficiales
og
oh
oil
ois
old
olympedia
olympic
olympics
om
omega
on
once
one
online
only
op
open
opennet
opera
operation
operatorname
or
oracle
orange
order
org
organization
oricon
origin
original
originals
origins
os
other
otto
ou
oup
our
out
over
overview
own
oxford
p
pa
pacific
padro
page
pages
pali
pamyat
pan
panarmenian
paper
papers
par
para
paris
park
parliament
part
partial
party
pas
past
pat
patrick
paul
pc
pdf
pe
peace
peerage
penguin
people
per
perfect
performance
perry
person
personal
persons
peter
pg
pgc
ph
phi
phil
philadelphia
philip
philosophy
photo
php
physical
physics
pi
picture
pictures
pierre
pink
pitchfork
pl
place
plan
planet
planetary
plant
plants
platinum
play
player
players
playstation
plus
pm
pmid
po
poblacio
poc
poe
point
police
policy
polish
political
politics
pop
popular
population
por
porsche
port
portal
porter
post
pour
power
pp
pr
practice
praha
pre
premier
premiere
present
president
press
presse
price
prime
prince
princeton
print
private
prix
prize
pro
problem
proceedings
processing
production
productions
professor
profile
program
project
prometheus
properties
protein
ps
psi
psychology
pt
pu
pub
public
publication
publications
published
publishers
publishing
pussy
python
pɐ
q
qt
qu
quad
quarterly
que
queen
qui
r
ra
race
racing
radio
railway
rain
random
range
ranking
rankings
rap
rar
ratings
raw
ray
rd
re
read
real
record
recorded
recording
records
red
ref
reference
region
regional
regionews
register
regnum
related
relations
release
released
releases
religion
religious
remix
ren
renault
report
reporter
reports
repubblica
republic
res
research
resources
resultantes
results
retrieved
return
returns
reuters
rev
revealed
reveals
review
reviews
revised
revisio
revision
revolution
revue
rey
rho
ri
ria
rich
richard
rick
right
rightarrow
rights
ring
rio
riot
rise
river
ro
road
rob
robert
roberts
robin
robinson
rock
roger
role
roll
rolling
roma
roman
rome
room
rosa
rose
rosreestr
ross
rotten
round
routledge
roy
royal
rpm
rs
rsssf
rt
rtf
ru
rue
ruen
rugby
rules
run
rus
russell
russia
russian
ryan
s
sa
safety
said
saint
sales
sam
same
samsung
samuel
samus
san
sans
santa
sara
sarah
say
says
sc
schmidt
scho
school
sci
science
sciences
scientific
scotland
scott
scottish
screen
se
sea
search
season
second
secret
section
security
see
sega
select
selected
self
september
sera
series
server
service
services
ses
set
seven
sex
shadow
sharealike
she
shell
short
should
show
showbuzz
showbuzzdaily
shows
si
sich
side
sie
sigma
sign
signs
silent
silver
sim
simbad
simon
sims
sin
since
singapore
single
singles
sir
site
six
size
sk
ska
skating
ski
sky
sl
sm
small
smith
sms
so
soc
soccer
soccerway
social
socie
society
software
solar
solo
some
son
song
songs
sonic
sons
sony
soul
sound
soundtrack
source
sources
sous
south
southern
soviet
sp
space
spacex
spain
span
spanish
special
species
speed
spider
spiegel
spin
spirit
sport
sports
spring
springer
sputnik
spy
sqrt
square
sr
ss
st
sta
staatsbibliothek
staff
stage
standard
stanford
stanley
star
stars
start
state
states
statesmen
station
statistical
statisticky
statistics
statistik
stats
status
steam
steel
stellar
stephen
sterreichische
steve
steven
stica
still
stone
stop
store
storia
stories
storm
story
str
stream
street
strike
string
structure
studies
studio
studios
study
stuttgart
style
su
sub
sum
summary
summer
sun
sunday
super
supplement
support
suppresserrors
sur
surname
survey
sv
svenska
sweet
swift
swiss
switch
sydney
system
systematic
systems
sə
t
ta
tabelle
table
tag
take
takes
tales
talk
talks
tam
target
tau
taxonomic
taylor
te
team
teams
tech
technical
technologies
technology
teen
tel
telegram
telegraph
television
temps
ten
tennis
tes
tesla
test
texas
text
textual
th
than
that
the
theatre
their
them
then
theory
there
these
theta
they
things
third
this
thomas
thompson
threatened
three
through
thursday
ti
tim
time
times
title
to
today
tokyo
tom
tomatoes
tony
too
top
tophit
tor
toronto
total
touch
tour
tout
tower
town
toyota
tr
tra
track
trade
trailer
train
trans
transfermarkt
travel
tre
treatment
tree
tribune
trophy
true
trump
trust
truth
ts
tt
tu
tuesday
tully
turkey
turkish
turner
tut
tv
twitter
two
type
u
ua
ubuntu
ueber
uefa
ufc
uk
ukraine
ultimate
ultratop
um
un
una
und
under
une
union
unit
united
universal
universe
universita
university
unix
unported
up
update
updated
urban
url
us
usa
usb
usd
use
user
using
uss
utc
uz
v
va
valley
value
van
var
varepsilon
variable
variety
varphi
ve
vec
ver
verlag
version
verum
very
vi
via
victor
victoria
video
vie
view
vii
viii
village
virgin
virginia
virtual
vishniac
vision
visual
vita
vizier
vk
vo
voa
voice
vol
volkswagen
volksza
volume
volvo
vom
von
vous
vs
w
wa
wada
wales
walker
wall
walter
wang
want
war
warner
wars
warszawa
was
washington
watch
water
way
wayback
wba
wbc
wbo
we
web
website
wednesday
week
weekly
welcome
well
welle
welt
were
west
western
what
when
where
which
while
white
who
why
wi
wie
wien
wii
wiki
wikileaks
wikimedia
wikipedia
wild
wiley
wilhelm
will
william
williams
wilson
win
windows
winners
wins
winter
wissen
with
within
without
wnba
wo
wolf
woman
women
won
wood
word
work
working
works
world
worldfootball
would
wrestling
wright
wta
wu
wwe
www
x
xbox
xi
xii
xiii
xiv
xix
xl
xlsx
xrightarrow
xv
xvi
xvii
xviii
xx
xxi
xxii
xxiii
xxiv
xxix
xxv
xxvi
xxvii
xxx
y
ya
yahoo
yale
ye
year
years
yle
yo
york
you
young
your
youth
youtube
yu
z
za
ze
zealand
zeit
zeitschrift
zeitung
zero
zhang
zip
zone
zookeys
zootaxa
zu
zum
zur
zɐ
{
|
}
~
¡
£
¦
§
©
ª
«
¬
­
®
¯
°
±
²
³
´
µ
·
¹
º
»
¼
½
¾
¿
×
æ
ð
÷
ħ
ı
ł
ŋ
ɐ
ɑ
ɔ
ɕ
ə
ɛ
ɡ
ɨ
ɨɪ
ɪ
ɪk
ɪl
ɪmɨɪ
ɪn
ɪr
ɪt
ɪɪ
ʃ
ʉ
ʊ
ʐ
ʒ
ʰ
ʲ
ʲˈ
ʷ
ʹ
ʻ
ʼ
ʿ
ˈ
ˊ
ˌ
ː
˙
˚
̀
́
̂
̃
̄
̆
̇
̈
̉
̊
̋
̌
̏
̑
̓
̔
̛
̞
̣
̥
̦
̧
̨
̩
̪
̯
̱
̲
̸
͂
ͅ
͜
͡
΄
α
ας
β
γ
δ
ε
ει
ζ
η
θ
ι
κ
και
λ
μ
μα
με
ν
να
ξ
ο
ου
π
ρ
ς
σ
τ
τη
της
το
του
των
υ
φ
χ
ψ
ω
ϕ
ϵ
а
аарон
абаев
аббас
аббат
аббата
аббатства
аббатство
аббревиатура
абд
абдель
абдул
абдулла
абзац
абонентов
абрам
абрамов
абрамович
абсолютная
абсолютно
абсолютного
абсолютное
абсолютнои
абсолютныи
абсолютным
абу
абхазии
абхазия
ав
авангард
авангарда
аварии
аварию
авария
авг
август
августа
августе
августин
авдотья
авеню
авест
авиакомпании
авиакомпания
авиалаи
авиалинии
авиации
авиационная
авиационного
авиационнои
авиационныи
авиационных
авиация
авив
авось
авраам
авраама
аврора
австралии
австралию
австралия
австриеи
австрии
австрию
австрия
австро
австріи
авт
авто
автобиографии
автобиография
автобус
автобуса
автобусе
автобусов
автобусы
автоваз
автограф
автографу
автодорога
автодороге
автодороги
автомат
автомата
автоматизации
автоматически
автоматического
автоматическои
автоматов
автомашин
автомобиле
автомобилеи
автомобилем
автомобили
автомобиль
автомобильная
автомобильного
автомобильнои
автомобильные
автомобильныи
автомобильных
автомобиля
автомобилях
автономии
автономная
автономного
автономнои
автономном
автономные
автономныи
автономных
автор
автора
авторам
авторами
автореферат
авторитет
авторитета
авторитетом
авторов
автором
авторские
авторскии
авторских
авторского
авторское
авторскои
авторства
авторство
автору
авторъ
авторы
автотранспорта
ага
агент
агента
агентами
агентов
агентом
агентств
агентства
агентство
агентством
агентству
агенты
агитации
агломерации
агрессии
ад
ада
адам
адама
адамс
адаптации
адвокат
адвоката
адвокатов
адвокатом
адвокаты
адель
адм
административная
административно
административного
административное
административнои
административном
административному
административные
административныи
административным
административных
администратор
администрациеи
администрации
администрацию
администрация
адмирал
адмирала
адмиралтеи
адольф
адольфа
адрес
адреса
адресов
адресу
адриан
адриана
аду
адъютант
адъютанта
адъютантом
адыгея
аз
азартных
азбука
азерб
азербаи
азиатских
азиатского
азиатскои
азиз
азии
азию
азия
азов
азота
аи
ак
акад
академиеи
академии
академик
академика
академиком
академическии
академических
академического
академическои
академию
академия
академіи
акватории
аки
аккредитации
аккуратно
аксаков
аксакова
аксе
аксенов
акт
акта
актами
актах
акте
актер
актера
актеров
актеры
актив
активе
активист
активиста
активистов
активисты
активная
активно
активного
активное
активнои
активности
активность
активную
активные
активныи
активным
активными
активных
активов
активы
актов
актом
актриса
актрисе
актрисои
актрисы
актуальные
акты
акул
акула
акулы
акушерскии
акцент
акции
акционерного
акционерное
акционеров
акционеры
акцию
акция
акциями
акциях
ал
ала
алан
алана
алания
алб
албании
алгоритм
алгоритма
алгоритмы
але
алеи
алекс
алекса
александр
александра
александре
александрии
александро
александров
александрова
александрович
александровича
александровна
александровны
александровскии
александровского
александром
александру
александръ
александры
алексеев
алексеева
алексеевич
алексеевича
алексеевна
алексеем
алексеи
алексею
алексея
алексии
алексия
алексѣи
ален
алена
алеппо
алессандро
алеша
алжир
алжира
алжире
али
алиев
алиева
алина
алиса
алкоголем
алкоголь
алкогольного
алкоголя
алла
аллах
аллаха
аллее
аллеи
аллен
аллея
алма
алмаз
алматы
алонсо
алт
алтаи
алтарь
алтаря
алтая
алфавит
алфавита
алфавитныи
аль
альберт
альберта
альберто
альбом
альбома
альбоме
альбомов
альбомом
альбому
альбомы
альбрехт
альваро
альманах
альпии
альпы
альтернативнои
альтернативныи
альтернативных
альтернативы
альфа
альфонсо
альфред
альфреда
альянс
альянса
алюминия
ам
амбиции
америка
американец
американка
американо
американская
американские
американскии
американским
американскими
американских
американского
американское
американскои
американском
американскому
американскую
американца
американцам
американцами
американцев
американцы
америке
америки
америку
ами
аминь
амир
амнистии
амплуа
амстердам
амстердаме
амур
амура
амуре
амурская
амурскои
амфибии
ан
ана
анализ
анализа
анализе
анализу
аналитик
аналитики
аналитиков
аналитическии
аналитического
аналитическои
аналог
аналогии
аналогичная
аналогично
аналогичного
аналогичное
аналогичнои
аналогичные
аналогичныи
аналогичным
аналогичных
аналогов
анастасии
анастасия
анат
анатолии
анатолия
анатольевич
анатомии
анатомия
анг
ангел
ангела
ангелов
ангелъ
ангелы
англ
англиеи
англии
англичан
англичанами
англичане
англичанин
англичанина
англию
англия
англо
англіи
андерсон
анджелес
анджелеса
анджелесе
анджело
андре
андреа
андреас
андреев
андреева
андреевич
андреевича
андреевна
андреем
андреи
андрею
андрея
анекдот
анекдоты
анжи
ани
анимации
анимационныи
аниме
анк
анкара
анкаре
анна
анналы
анне
анненков
аннои
анну
анны
анри
ансамбль
ансамбля
ант
анти
антиохии
античнои
античности
античных
антология
антон
антона
антонии
антонина
антонио
антония
антонов
антонова
антонович
антропологии
антуан
аня
ао
ап
апелляции
апелляционнои
апелляционныи
апелляцию
апл
аполлон
аполлона
апостол
апостола
апостолов
апостольскии
апостольскои
аппарат
аппарата
аппарате
аппаратов
аппаратом
аппаратуры
аппараты
апр
апреле
апрель
апреля
апрѣля
ар
ара
араб
арабов
арабские
арабскии
арабских
арабско
арабского
арабскои
арабском
арабы
аравии
аравия
арам
арбитр
арбитра
арбитражного
арбитражныи
арбитражным
аргентина
аргентине
аргентинскии
аргентины
аргумент
аргументов
аргументы
ареал
ареала
арена
аренде
аренду
аренды
арене
арену
арены
арест
ареста
аресте
арестовал
арестовали
арестован
арестована
арестованного
арестованных
арестованы
арестовать
арестом
аресты
аризона
арии
арина
аристократии
аристотель
аристотеля
арк
арка
аркадии
аркадия
арки
арктики
арм
арман
армеи
армен
армениеи
армении
армению
армения
армиеи
армии
армию
армия
армян
армяне
армяно
армянская
армянские
армянскии
армянским
армянских
армянского
армянское
армянскои
армянском
арміи
армія
арно
арнольд
аромат
арсен
арсенал
арсенала
арсении
арт
арте
артели
артель
артем
артема
артемии
артерии
артиллериеи
артиллерии
артиллерию
артиллерия
артиллеріи
артист
артиста
артистка
артистов
артисты
артур
артура
арутюнян
арх
архангела
архангельск
архангельска
архангельская
архангельске
архангельскии
архангельского
архангельскои
археолог
археологи
археологии
археологическая
археологические
археологическии
археологических
археологического
археология
архив
архива
архивах
архиве
архивированная
архивировано
архивная
архивнои
архивные
архивных
архивов
архивы
архиепископ
архиепископа
архиепископом
архиереи
архимандрит
архимандрита
архипелаг
архипелага
архитектор
архитектора
архитекторов
архитектором
архитекторы
архитектура
архитектуре
архитектурно
архитектурного
архитектурные
архитектурныи
архитектурных
архитектуру
архитектуры
арцах
арцаха
аршин
аршина
ас
асад
асада
аспект
аспекты
аспирантуре
аспирантуру
ассамблеи
ассамблея
ассирии
ассистент
ассистентом
ассоциациеи
ассоциации
ассоциацию
ассоциация
асср
аст
астана
астероид
астероидов
астрахани
астраханская
астраханскои
астрахань
астрель
астроном
астрономии
ат
ата
атак
атака
атаке
атаки
атаковал
атаковали
атаковать
атаку
атаман
атамана
ате
атланте
атлантического
атлас
атлетик
атлетика
атлетике
атлетики
атлетико
атмосфера
атмосфере
атмосферных
атмосферу
атмосферы
атома
атомнои
атомных
атомов
атташе
аудио
аудитории
аудиторию
аудитория
аукцион
аукциона
аукционе
аул
аустрия
аутсаи
афанасии
афанасия
афанасьев
афанасьевич
афганистан
афганистана
афганистане
афганскои
афин
афинах
афины
афиша
афк
африка
африканских
африканского
африканскои
африке
африки
африку
аффикс
ах
ахеи
ахмад
ахмат
ахмед
ахмеда
ахъ
аш
аще
аэродром
аэродрома
аэродроме
аэропорт
аэропорта
аэропортов
аэропорту
аэропорты
аэрофлот
аэс
ая
аякс
б
ба
баб
баба
бабочек
бабочка
бабочки
бабу
бабушка
бабушки
бабушкои
бабы
баварии
бавария
баварское
багажа
багдад
багдада
багдаде
бад
баден
баз
база
базар
базе
базирования
базируется
базовои
базовыи
базовых
базои
базу
базы
баи
бак
бакалавра
бактерии
баку
бакунин
бакунина
бал
бала
баланс
баланса
балерина
балет
балета
балетмеи
балка
балки
балкон
балкона
балл
балла
баллада
баллов
баллотироваться
балтии
балу
бальмонта
бангладеш
банда
бандитов
бандиты
банды
бани
банк
банка
банками
банках
банке
банки
банкир
банкира
банкноты
банков
банковские
банковских
банковского
банковскои
банком
банкротом
банкротства
банкротстве
банку
бантом
баню
баня
бар
бара
барабан
барабанов
барабанщик
барабаны
барак
барака
баранов
барбара
баре
бари
барин
барина
барину
баринъ
барнаул
барокко
барон
барона
баронесса
барону
баронъ
баррелеи
баррель
барри
барс
барселона
барселоне
барселону
барселоны
барт
барыни
барыня
барышни
барышня
барьер
бас
баскетболист
баскетболу
баскетбольнои
басни
бассеи
бат
батальон
батальона
батальонов
батальоном
батальоны
батареи
батарею
батарея
батюшка
батюшки
бах
баха
бахреи
бахчисараи
башара
башен
башк
башкир
башкирии
башкирская
башкирского
башкирскои
башкиры
башкортостан
башкортостана
башмаки
башне
башнеи
башни
башню
башня
башнями
бгу
бе
беатриче
бег
бега
бегал
бегать
беге
беги
бегом
бегства
бегство
бегством
бегу
бегут
бед
беда
бедная
бедного
беднои
бедности
бедность
бедную
бедные
бедныи
бедным
бедных
бедра
бедствие
бедствии
бедствия
беду
беды
бежал
бежала
бежали
бежать
беженцев
бежит
без
бездеи
бездна
бездну
бездны
безжалостно
безмолвно
безморозныи
безнадежно
безнаказанно
безо
безопасно
безопасного
безопасное
безопасности
безопасность
безопасностью
безпокои
безпрестанно
безработицы
безработных
безразлично
безумие
безумия
безумная
безумно
безумнои
безумныи
безусловно
безуспешно
безъ
беи
бек
бека
бела
беларуси
беларуская
беларусь
беларусі
белая
белгород
белгородская
белгородскои
белград
белграде
белинскии
белинского
белка
белки
белков
белл
белла
бело
белов
белогвардеи
белого
белое
белои
белок
белом
белому
белор
белоруссии
белоруссию
белоруссия
белорусская
белорусские
белорусскии
белорусских
белорусского
белорусскои
белорусском
белую
белые
белыи
белым
белыми
белых
бельгии
бельгия
белье
белья
белэн
беляев
бен
бенедикт
бенедикта
бензин
бензина
бенуа
бер
берг
бере
берег
берега
берегам
берегах
берегись
берегов
береговая
береговои
береговъ
берегом
берегу
берегъ
бережно
березовскии
березовского
беременности
берет
берется
беретъ
беречь
бери
берите
беркли
берлин
берлина
берлине
берлинскии
берлинского
берлинскои
берлинском
берлускони
бернар
бернард
берта
беру
берут
бес
бесед
беседа
беседе
беседовал
беседу
беседы
бесконечно
бесконечное
бесконечнои
бесконечности
бесконечные
бесплатно
бесплатнои
бесплатныи
беспокои
беспокоит
беспокоить
беспокоиться
бесполезно
беспорядках
беспорядки
беспорядков
беспорядок
беспрепятственно
беспрерывно
беспрестанно
бесследно
бессмертие
бессмертныи
бессмысленно
бессознательно
бесспорно
бестужев
бестужева
бесчисленные
бесчисленных
бет
бета
бетти
бетховена
бешенства
би
биатлону
библеи
библии
библиография
библиотек
библиотека
библиотеке
библиотеки
библиотекои
библиотеку
библия
биг
биеннале
бизнес
бизнеса
бизнесе
бизнесмен
бизнесмена
бизнесменов
бизнесом
бизнесу
бии
бил
билет
билета
билетов
билеты
били
бились
билл
билла
билли
билль
билось
бился
бин
биобиблиографическии
биографии
биографическая
биографические
биографическии
биографию
биография
биол
биолог
биологии
биологических
биологического
биологическои
биология
биржа
бирже
биржи
бит
битва
битве
битву
битвы
бить
биться
бич
бк
бл
бла
благ
блага
благо
благовест
благоговеи
благодарен
благодарить
благодарности
благодарность
благодарностью
благодарю
благодаря
благодати
благодать
благополучие
благополучия
благополучно
благоприятные
благоприятных
благородие
благородная
благородного
благородное
благороднои
благородные
благородныи
благородных
благородство
благосклонно
благословение
благословения
благословил
благосостояние
благосостояния
благотворительного
благотворительнои
благотворительности
благотворительныи
благотворительных
благоустрои
блаженныи
блаженства
блаженство
бле
бледная
бледно
бледное
бледные
бледныи
блеи
блеск
блеска
блеске
блеском
блестели
блестящая
блестяще
блестящее
блестящеи
блестящие
блестящии
блестящим
блестящими
блестящих
блестящую
ближаи
ближе
ближнего
ближнем
ближнему
ближнии
ближних
близ
близка
близки
близкие
близкии
близким
близкими
близких
близко
близкого
близкое
близкои
близком
близлежащих
близнецов
близнецы
близок
близости
близость
близъ
близь
блог
блоге
блогер
блок
блока
блокады
блоке
блоки
блокировать
блокировки
блоков
блом
блэк
блэр
блюд
блюда
блюдо
блюз
бо
боб
боба
бобби
бобров
бобруи
бог
бога
богам
богами
богат
богата
богатая
богатеи
богато
богатого
богатое
богатои
богатств
богатства
богатство
богатством
богатую
богаты
богатые
богатыи
богатым
богатыми
богатырь
богатых
богаче
богдан
богдана
богданов
богданович
боге
боги
богини
богиня
богов
боговъ
богом
богоматери
богомъ
богородицы
богослов
богослова
богословие
богословия
богословскии
богослужение
богослужении
богослужения
богу
богъ
бодро
бое
боев
боевая
боевик
боевиками
боевики
боевиков
боевого
боевое
боевои
боевом
боевую
боевые
боевым
боевыми
боевых
боем
боеприпасов
боеприпасы
боец
боже
божества
божественная
божественного
божественное
божественнои
божественныи
божество
божие
божиеи
божии
божию
божия
божьего
божьеи
божья
божіи
бои
боитесь
боится
боишься
бок
бока
бокал
бокам
боков
боковои
боковые
боковых
бокс
бокса
боксе
боксер
боксу
боку
бол
бола
болг
болгар
болгарии
болгария
болгарская
болгарскии
болгарского
болгарскои
боле
более
болезнеи
болезненно
болезни
болезнь
болезнью
болельщики
болельщиков
болен
болеслав
боли
боливии
болит
болот
болота
болотнои
болото
болтать
болу
боль
больна
больная
больниц
больница
больницах
больнице
больницу
больницы
больно
больного
больнои
больному
больную
больные
больным
больными
больных
больныхъ
больш
большаго
большая
больше
большевик
большевиками
большевики
большевиков
большего
большее
большеи
большею
большие
большии
большим
большими
большимъ
большинства
большинстве
большинство
большинством
большинству
больших
большихъ
большого
большое
большои
большом
большому
большомъ
большою
большую
большіе
большія
болью
болѣе
болѣзни
болѣзнь
бомб
бомба
бомбардир
бомбардировки
бомбардировщиков
бомбардиром
бомбу
бомбы
бонапарт
бонапарта
бондаренко
бонус
бор
бора
бордо
борется
борец
борис
бориса
борисов
борисова
борисович
борисовна
борисом
борису
бормотал
борода
бородин
бородина
бородои
бороду
бороды
боролись
боролся
бороться
борт
борта
бортовои
борту
боруссия
борцов
борьба
борьбе
борьбои
борьбу
борьбы
борьбѣ
борются
боснии
бостон
бостоне
ботан
ботаник
ботаники
ботаническии
ботанического
ботинки
ботом
боуи
бочки
бою
боюсь
боя
боязни
боязнь
боялась
боялись
боялся
бояр
бояре
боярин
боярина
боярских
боясь
боятся
бояться
боях
бр
бра
браво
бразилец
бразилии
бразилия
бразильскии
бразильского
браи
брак
брака
браке
браки
браков
браком
бракъ
брал
брала
брали
бранденбург
брани
брань
брат
брата
братец
братецъ
братии
братом
братомъ
братская
братскои
братства
братство
брату
братцы
братъ
брать
братьев
братьевъ
братья
братьям
братьями
браузер
браузера
браун
брауна
брауншвеи
бре
бревна
бред
бреи
бремя
бренд
бренда
брендом
брест
брестскои
бригад
бригада
бригаде
бригадир
бригадныи
бригадои
бригаду
бригады
британии
британская
британские
британскии
британским
британских
британского
британское
британскои
британском
британцев
британцы
брифинге
брови
бровями
бродили
бродить
бродяга
брокгауз
брокгауза
бронза
бронзовая
бронзового
бронзовои
бронзовую
бронзовые
бронзовыи
бронзовым
бронзовых
бронзу
бронзы
брони
бросает
бросается
бросал
бросали
бросать
бросают
бросая
бросив
бросил
бросила
бросилась
бросили
бросились
бросился
бросилъ
бросить
броситься
бросков
брось
брошюры
бруно
брут
брюгге
брюки
брюс
брюсов
брюсова
брюсселе
брюссель
брюхо
брянск
брянская
брянского
брянскои
бсср
бсэ
бтр
бу
будапешт
будапеште
буддизм
буддизма
буддии
будды
буде
будем
будемъ
будет
будете
будетъ
будешь
будто
буду
будут
будутъ
будучи
будущаго
будущая
будущего
будущее
будущеи
будущем
будущему
будущемъ
будущие
будущии
будущим
будущих
будущность
будущую
будь
будьте
буи
бук
букв
буква
буквально
буквами
буквои
букву
буквы
букет
букмекеров
букмекерская
букмекерскои
букмекеры
буланин
булгаков
булгакова
бульвар
бульвара
бульваре
бум
бумаг
бумага
бумагами
бумагах
бумаге
бумаги
бумагу
бумажку
бундеслиги
бунин
бунт
бунта
бурбон
бург
буреи
буржуа
буржуазии
буржуазия
буржуазнои
бури
бурно
бурыи
бурь
бурю
буря
бурят
бурятии
бурятия
бус
бусы
бутылка
бутылки
бутылку
бутылок
бухаресте
бухта
бухте
бухту
бухты
буш
буша
буэнос
бъ
бы
быв
бывает
бываетъ
бывал
бывала
бывали
бывало
бывалъ
бывать
бывают
бываютъ
бывшая
бывшего
бывшее
бывшеи
бывшем
бывшему
бывшие
бывшии
бывшим
бывшими
бывших
бывшую
бывшіи
бык
быка
быков
быкова
был
была
были
было
былое
былъ
быль
быстрая
быстрее
быстро
быстрого
быстрое
быстрои
быстротои
быстротою
быстрые
быстрыи
быстрым
быстрыми
быстрых
быт
быта
бытие
бытия
бытность
бытового
бытовои
бытовые
бытовых
быту
быть
бышевского
бье
бьет
бьется
бьют
бэи
бэк
бюджет
бюджета
бюджете
бюджетного
бюджетнои
бюджетные
бюджетных
бюджетов
бюджету
бюллетенеи
бюллетень
бюро
бюст
бѣда
бѣднаго
бѣдная
бѣднои
бѣдныи
бѣдныхъ
бѣжалъ
бѣжать
бѣлои
бѣлыи
бѣлыхъ
в
ва
вагнер
вагнера
вагон
вагона
вагоне
вагонов
вагоны
вадим
вадима
важен
важна
важная
важнее
важнеи
важно
важного
важное
важнои
важности
важность
важную
важны
важные
важныи
важным
важными
важных
ваз
ваи
вак
вакцинации
вакцины
вал
вала
валдаи
валенсии
валенсия
валентин
валентина
валерии
валерия
вали
валлии
валовои
вальс
вальтер
вальтера
валюте
валюту
валюты
вам
вами
вамъ
ван
вана
ване
ванкувер
ванкувере
вань
ванька
ваня
вар
варвара
варваров
варвары
вардан
вариант
варианта
вариантах
варианте
вариантов
вариантом
варианты
вариации
варшава
варшаве
варшавского
варшаву
варшавы
варя
вас
васи
василием
василии
василиса
василию
василия
васильев
васильева
васильевич
васильевича
васильевна
василіи
васъ
васька
вася
ватикан
ватикана
вать
вацлав
ваш
ваша
ваше
вашего
вашеи
вашем
вашему
вашемъ
ваши
вашим
вашими
вашимъ
вашингтон
вашингтона
вашингтоне
ваших
вашихъ
вашу
вашъ
вблизи
вв
вве
введе
введен
введена
введение
введением
введении
введения
введено
введенскии
введены
ввел
ввела
ввели
вверх
вверху
вверхъ
ввести
ввиду
ввод
ввода
вводит
вводится
вводить
ввоз
ввп
ввс
вглубь
вгтрк
вдали
вдаль
вдв
вдвое
вдвоем
вднх
вдобавок
вдова
вдове
вдоволь
вдовы
вдоль
вдохновение
вдохновения
вдруг
вдругъ
ве
веб
вега
вегасе
вед
веде
ведение
ведении
ведению
ведения
ведет
ведется
ведетъ
ведома
ведомостеи
ведомости
ведомостях
ведомств
ведомства
ведомстве
ведомство
ведомству
ведро
ведут
ведутся
ведущая
ведущего
ведущеи
ведущие
ведущии
ведущим
ведущими
ведущих
ведущую
ведь
ведьма
ведя
вежливо
вежливыи
везде
вездѣ
везли
везти
веи
век
века
веками
веках
веке
веки
веков
веком
вектор
веку
вел
вела
велась
велел
велела
велено
вели
велик
велика
великаго
великая
велики
великие
великии
великим
великими
великимъ
великих
великихъ
велико
великобританиеи
великобритании
великобританию
великобритания
великого
великое
великои
великолепно
великолепные
великолепныи
великом
великому
великомученика
великою
великую
великіи
велись
велит
величаи
величества
величество
величеству
величие
величин
величина
величине
величинои
величину
величины
величия
вело
велогонщик
велось
велъ
вельмож
вельможи
велѣлъ
вен
вена
венг
венгерскии
венгерского
венгерскои
венгрии
венгрию
венгрия
вене
венера
венеры
венесуэла
венесуэле
венесуэлы
венец
венецианскои
венеции
венеция
вениамин
венок
венского
венскои
вентиляции
вену
вены
вер
вера
верблюдов
верди
вердикт
вере
веревки
веревку
верен
верещагин
верил
верили
верит
верите
верить
вермахта
верна
верне
вернее
вернемся
вернер
вернется
верно
верного
верное
вернои
верности
верность
вернувшись
вернул
вернулась
вернули
вернулись
вернулся
вернусь
вернутся
вернуть
вернуться
верные
верныи
верным
верными
верных
веровании
верои
вероисповедания
вероника
верою
вероятнее
вероятно
вероятности
вероятность
вероятностью
вероятным
версиеи
версии
версию
версия
версиях
верст
верстах
верстахъ
верстъ
версты
вертикально
вертикальнои
вертоле
вертолет
вертолета
вертолетов
веру
верующие
верующим
верующих
верфи
верх
верхне
верхнего
верхнее
верхнеи
верхнем
верхние
верхнии
верхних
верхнюю
верхняя
верховная
верховного
верховнои
верховном
верховныи
верховным
верховои
верховьях
верхом
верхомъ
верху
верхушки
верхъ
вершин
вершина
вершинами
вершине
вершинои
вершину
вершины
веры
верь
верьте
верю
верят
вес
веса
весе
весел
веселаго
веселая
весело
веселовскии
веселое
веселои
веселость
веселые
веселыи
веселым
веселье
веселья
весеннего
весеннии
весла
весна
весне
веснои
весною
весну
весны
весов
весовои
весовых
весом
вест
вести
вестн
вестник
вестника
вестнике
весть
весы
весь
весьма
ветвеи
ветви
ветвь
ветвями
ветер
ветеран
ветерана
ветеранов
ветераны
ветерок
ветка
ветке
ветки
вето
ветра
ветров
ветром
ветру
ветры
ветхого
вече
вечер
вечера
вечерам
вечере
вечернеи
вечернии
вечерняя
вечером
вечеромъ
вечеру
вечеръ
вечная
вечно
вечного
вечное
вечнои
вечности
вечность
вечную
вечные
вечныи
вечным
вещами
вещание
вещания
вещах
вещеи
веществ
вещества
веществами
вещество
веществом
вещи
вещь
взад
взаимно
взаимного
взаимное
взаимнои
взаимных
взаимодеи
взаимоотношении
взаимоотношения
взамен
взвод
взвода
взволнованныи
взгляд
взгляда
взглядами
взглядах
взгляде
взглядов
взглядом
взглядомъ
взгляду
взглядъ
взгляды
взгляни
взгляните
взглянув
взглянувъ
взглянул
взглянула
взглянулъ
взглянуть
вздор
вздоръ
вздох
вздохнул
вздохнула
вздохнулъ
вздохом
вздрогнул
вздрогнула
вздумал
взирая
взле
взносов
взои
взор
взорвать
взором
взоръ
взоры
взрослого
взрослои
взрослом
взрослые
взрослыи
взрослых
взрыв
взрыва
взрыве
взрывное
взрывов
взрывом
взрывчатых
взрывы
взыскании
взыскания
взыскать
взяв
взявъ
взял
взяла
взялась
взяли
взялись
взяло
взялся
взялъ
взят
взята
взятие
взятии
взятия
взятки
взятку
взято
взяты
взятые
взятыи
взятых
взять
взяться
ви
виа
вид
вида
видал
видала
видали
видалъ
видам
видами
видать
видах
виде
видел
видела
видели
виден
видение
видении
видения
видео
видеозаписи
видеозапись
видеоклип
видеонаблюдения
видеть
видим
видимая
видимо
видимои
видимому
видимости
видимость
видимъ
видит
видите
видитъ
видишь
видна
виднелись
видно
видное
видны
видныи
видных
видов
видом
видомъ
виду
видъ
виды
видя
видят
видѣ
видѣла
видѣли
видѣлъ
видѣть
вижу
виз
византии
визит
визита
визитом
визиты
визы
вик
викарии
вики
викимедиа
викиновостеи
викиновости
википедии
википедия
викискладе
викисловаре
викитеке
викифицировать
викицитатнике
виконт
виктор
виктора
виктории
виктория
викторович
викторовна
виктором
виктору
вилла
вилле
вилли
виллы
вильгельм
вильгельма
вильне
вильно
вильнюс
вильнюсе
вильям
вин
вина
вине
винницкои
вино
виноват
виновата
виноватъ
виноваты
виновен
виновнои
виновным
виновными
виновных
виноград
винограда
виноградов
виноградова
вином
винсент
винт
винтовка
винтовки
вину
винчи
вины
виолончели
виргиния
вирджиния
виртуальнои
вирус
вируса
вирусов
вирусом
висел
висели
висит
виски
виталии
виталия
витебск
витебскои
витте
витязь
вихрь
вице
вич
вишне
вишну
вишь
вка
вки
вклад
вкладов
включает
включается
включал
включала
включали
включать
включают
включающии
включая
включе
включен
включена
включение
включении
включения
включено
включены
включил
включили
включительно
включить
вконтакте
вкп
вку
вкус
вкуса
вкусом
вкусу
вл
влаги
влад
владеет
владел
владела
владелец
владели
владельца
владельцам
владельцами
владельцев
владельцем
владельцу
владельцы
владение
владении
владения
владениях
владеть
владеют
влади
владивосток
владивостока
владивостоке
владикавказ
владимир
владимира
владимире
владимирович
владимировича
владимировна
владимиром
владимирская
владимирскии
владимирского
владимирскои
владимиру
владиміръ
владислав
владислава
владыка
владыки
владычества
влажность
влажныи
власов
властеи
власти
власть
властью
властям
властями
влево
влечение
влечет
влияет
влияние
влиянием
влиянии
влиянию
влияния
влиятельных
влиять
влияют
влксм
вложил
вложить
влюбился
влюбле
влюблен
влюблена
влюбляется
вліяніе
вліяніемъ
вліянія
вм
вместе
вместимость
вместо
вмешался
вмешательства
вмешательство
вмешаться
вмешиваться
вмс
вмф
вмѣсто
вмѣстѣ
вначале
вне
внедрение
внедрения
внезапно
внезапнои
внес
внесе
внесен
внесение
внесении
внесения
внесено
внесены
внесла
внесли
внести
внешне
внешнего
внешнее
внешнеи
внешнем
внешнему
внешнеполитического
внешние
внешнии
внешним
внешними
внешних
внешности
внешность
внешнюю
внешняя
вниз
внизу
внизъ
внимание
вниманием
внимания
вниманіе
вниманіемъ
вниманія
внимательно
вничью
вновь
вносит
вносить
внук
внука
внуки
внуков
внуково
внуком
внутр
внутренне
внутреннего
внутреннее
внутреннеи
внутреннем
внутреннему
внутренние
внутреннии
внутренним
внутренними
внутренних
внутренность
внутреннюю
внутренняя
внутри
внутрь
внучка
внушить
внѣ
во
вобласць
вов
вовремя
вовсе
вод
вода
водами
водах
воде
водителеи
водителем
водители
водитель
водителя
водится
водить
водка
водки
водкои
водку
водного
воднои
водном
водные
водныи
водным
водных
водое
водои
водопад
водорода
водорослеи
водосборного
водоснабжения
водохозяи
водохранилища
водохранилище
водою
воду
воды
водянои
водятся
водѣ
воевал
воевали
воевать
воевод
воевода
воеводои
воеводства
воеводство
воеводы
воедино
воеи
воен
военачальник
воениздат
военнаго
военная
военно
военного
военное
военнои
военном
военному
военнопленных
военнослужащего
военнослужащие
военнослужащии
военнослужащим
военнослужащими
военнослужащих
военную
военные
военныи
военным
военными
военных
военныхъ
вождеи
вожди
вождь
вождя
воз
возбудил
возбудила
возбудили
возбудило
возбудить
возбуждает
возбуждать
возбуждение
возбуждении
возбуждения
возбуждено
возведе
возведен
возведена
возведение
возведения
возвести
возврат
возврата
возвратившись
возвратилась
возвратились
возвратился
возвратить
возвратиться
возвратное
возвратныи
возвращает
возвращается
возвращалась
возвращались
возвращался
возвращаться
возвращаются
возвращаясь
возвраще
возвращение
возвращением
возвращении
возвращению
возвращения
возвращено
возвращены
возвращеніи
возвышается
возвышенности
возглавил
возглавила
возглавит
возглавить
возглавляет
возглавлял
возгорание
возгорания
воздеи
воздержаться
воздух
воздуха
воздухе
воздухом
воздуху
воздухъ
воздухѣ
воздушная
воздушно
воздушного
воздушное
воздушнои
воздушном
воздушные
воздушныи
воздушным
воздушных
воззрении
воззрения
возле
возложил
возлюбленная
возлюбленнои
возлюбленныи
возлѣ
возмещение
возмещения
возможен
возможна
возможно
возможного
возможное
возможнои
возможном
возможностеи
возможности
возможность
возможностью
возможностями
возможны
возможные
возможныи
возможным
возможных
возмущение
возмущения
вознаграждение
вознаграждения
возник
возникает
возникали
возникают
возникающие
возникла
возникли
возникло
возникновение
возникновении
возникновения
возникнуть
возобновил
возобновились
возобновить
возобновление
возобновлении
возобновления
возражал
возражать
возражении
возражения
возразил
возразила
возразилъ
возразить
возраст
возраста
возрастает
возрасте
возрастнои
возрастов
возрастом
возрасту
возрождение
возрождения
возросла
возросло
возьмем
возьмет
возьми
возьмите
возьму
возьмут
вои
воин
воина
воинам
воинов
воинские
воинских
воинского
воинское
воинскои
воинскую
воины
воистину
вокал
вокалист
вокзал
вокзала
вокзале
вокруг
вокругъ
волга
волге
волги
волгоград
волгограда
волгограде
волгоградская
волгоградскои
волгу
воле
волеи
волею
волжскии
воли
волк
волка
волки
волков
волкова
волн
волна
волнами
волнах
волне
волнение
волнением
волнении
волнения
волненіе
волненія
волнои
волну
волнует
волны
вологда
вологды
вологодская
вологодскои
володя
волокна
волокон
волонте
волос
волосами
волостеи
волости
волостного
волость
волосъ
волосы
волошин
волшебныи
волыни
волынскии
волынского
волынскои
вольно
вольного
вольнои
вольныи
вольным
вольных
вольтер
вольтера
вольф
вольфа
вольфганг
волю
воля
волѣ
вом
вон
вонъ
воображение
воображении
воображения
воображеніе
вообразить
вообще
вооруже
вооружение
вооружением
вооружении
вооружения
вооруженного
вооруженнои
вооруженные
вооруженныи
вооруженными
вооруженных
вооружены
вопли
воплощение
вопль
вопреки
вопрос
вопроса
вопросам
вопросами
вопросах
вопросе
вопросительно
вопросов
вопросовъ
вопросом
вопросомъ
вопросу
вопросъ
вопросы
вор
вора
ворвались
ворвался
воробье
воробьев
воров
воровство
ворон
ворона
воронеж
воронежа
воронеже
воронежская
воронежскии
воронежского
воронежскои
воронин
воронов
воронцов
воронцова
ворот
ворота
воротам
воротами
воротах
воротился
воротъ
ворошилова
воры
восемнадцать
восемь
восемьдесят
воскликнул
воскликнула
воскликнулъ
восклицает
воскресение
воскресения
воскресенскии
воскресенье
воскресенья
воспитание
воспитанием
воспитании
воспитанию
воспитания
воспитанник
воспитанники
воспитанников
воспитанником
воспитаніе
воспитывался
воспитывать
воспользовавшись
воспользовались
воспользовался
воспользоваться
воспоминание
воспоминании
воспоминания
воспоминаниям
воспоминаниями
воспоминаниях
воспоминанія
воспрепятствовать
воспринимать
восприятие
восприятия
воспроизведения
восставших
восстание
восстании
восстания
восстановил
восстановили
восстановить
восстановлен
восстановлена
восстановление
восстановлении
восстановлению
восстановления
восстановлено
восстановлены
вост
восток
востока
востоке
востоковедения
востоку
восторг
восторга
восторге
восторгом
восторгъ
восторженно
восточная
восточнее
восточно
восточного
восточное
восточнои
восточном
восточному
восточную
восточные
восточныи
восточным
восточных
восхищение
восход
восходит
восхождение
восьми
восьмого
восьмое
восьмои
вот
вотъ
воше
вошедших
вошел
вошелъ
вошла
вошли
вошло
вп
впадает
впадения
впал
впервые
впере
вперед
впереди
впередъ
впечатление
впечатлением
впечатлении
впечатления
впечатлениями
впечатлѣніе
впечатлѣнія
вписано
вплотную
вплоть
впн
вполголоса
вполне
вполнѣ
впоследствии
впослѣдствіи
впп
вправе
вправо
впредь
впрочем
впрочемъ
вр
враг
врага
врагам
врагами
враги
врагов
враговъ
врагом
врагу
врагъ
вражда
враждебно
враждебных
вражду
вражды
вражеских
врасплох
врата
вратарь
вратаря
врач
врача
врачам
врачеи
врачи
врачом
врачу
вращения
вред
вреда
вредно
вредных
врезался
време
времен
времена
временам
временами
временамъ
временем
временемъ
времени
временная
временно
временного
временное
временнои
временном
временные
временныи
временным
временных
временъ
время
врешь
вроде
вручается
вручена
вручением
вручения
вручил
вручили
вручную
вряд
вс
всадник
всадника
всадники
всадников
все
всевозможные
всевозможных
всеволод
всеволода
всегда
всего
всеи
вселенная
вселеннои
вселенную
всем
всеми
всемирная
всемирно
всемирного
всемирнои
всемирныи
всему
всемъ
всеобщая
всеобщего
всеобщее
всеобщеи
всероссии
всерьез
всесоюзная
всесоюзного
всесоюзнои
всех
всецело
всею
всея
вская
вскии
вского
вскои
вском
вскоре
вскорѣ
вскочил
вскочила
вскочилъ
вскрикнул
вскрикнула
вскричал
вскричала
вскричалъ
вслед
вследствие
вслух
вслѣдствіе
вслѣдъ
вспоминает
вспоминал
вспоминала
вспоминать
вспоминаю
вспоминая
вспомни
вспомнив
вспомнил
вспомнила
вспомнили
вспомнилъ
вспомните
вспомнить
вспомогательные
вспомогательных
вспыхнул
вспыхнула
вспыхнуло
вспышка
вспышки
вставаи
вставать
вставая
встает
встал
встала
встали
всталъ
встать
встретив
встретил
встретила
встретилась
встретили
встретились
встретился
встретится
встретить
встретиться
встретятся
встреч
встреча
встречаем
встречает
встречается
встречал
встречалась
встречали
встречались
встречался
встречать
встречаться
встречах
встречают
встречаются
встрече
встречи
встречу
встрѣтилъ
встрѣтить
встрѣчу
вступ
вступает
вступать
вступают
вступив
вступил
вступила
вступили
вступило
вступилъ
вступит
вступить
вступление
вступлении
вступления
всю
всюду
вся
всяк
всякаго
всякая
всякие
всякии
всяким
всякими
всяких
всякихъ
всякого
всякое
всякои
всяком
всякому
всякомъ
всякую
всякіи
всякія
всячески
всѣ
всѣми
всѣмъ
всѣхъ
вт
втаи
втб
вто
втор
вторая
вторжение
вторжения
вторично
вторник
второго
второе
второи
втором
второму
вторую
вторые
вторым
вторых
вторыхъ
втрое
ву
вуд
вуз
вуза
вузах
вузов
вулкан
вулкана
вход
входа
входе
входивших
входил
входила
входили
входило
входит
входитъ
входить
входнои
входом
входя
входят
входятъ
входящие
входящии
входящих
вхождения
вцик
вчера
вчерашнего
вши
вшии
вшись
вшэ
въ
въезд
въезда
въезде
вы
выбежал
выберите
выбирает
выбирать
выбирают
выбор
выбора
выборам
выборами
выборах
выборе
выборов
выбором
выбору
выборы
выбрал
выбрала
выбрали
выбран
выбрана
выбрано
выбраны
выбрать
выбраться
выбросов
выбыл
выведен
выведена
выведены
вывезли
вывел
вывела
вывели
вывести
вывод
вывода
выводам
выводит
выводить
выводов
выводу
выводы
вывоз
вывоза
выглядел
выглядеть
выглядит
выглядят
выгнали
выговор
выгод
выгоднее
выгодно
выгоду
выгоды
выдавать
выдае
выдает
выдается
выдал
выдали
выдано
выдать
выдача
выдаче
выдачи
выдачу
выдающегося
выдающиеся
выдающии
выдающимся
выдающихся
выдвинул
выдвинули
выдвинут
выделен
выделена
выделение
выделении
выделения
выделено
выделены
выделил
выделили
выделить
выделяет
выделяется
выделяют
выделяются
выдержал
выдержала
выдержать
выдержки
выезд
выезда
выезде
выехал
выехали
выехать
выживших
выжил
выжить
вызвал
вызвала
вызвали
вызвало
вызван
вызвана
вызванного
вызванные
вызванныи
вызванных
вызвано
вызваны
вызвать
выздоровления
вызов
вызова
вызовет
вызовы
вызывает
вызывал
вызывала
вызывали
вызывало
вызывать
вызывают
вызывая
выи
выиграв
выиграл
выиграла
выиграли
выиграть
выигрывает
выигрывал
выигрыш
выигрыши
выкуп
выкупа
выкупил
выкупить
вылет
вылета
вылетел
вылетела
вылетов
вым
вынес
вынесен
вынесения
вынесено
вынесла
вынесли
вынести
выносит
выносить
вынудили
вынужден
вынуждена
вынуждены
вынул
вынулъ
вып
выпадает
выпал
выпала
выпало
выпил
выпили
выписки
выпить
выплат
выплате
выплатить
выплату
выплаты
выплачивать
выполнен
выполнена
выполнение
выполнением
выполнении
выполнению
выполнения
выполненные
выполненных
выполнено
выполнены
выполнил
выполнила
выполнили
выполнить
выполняет
выполняется
выполнял
выполняли
выполнять
выполняют
выполняются
выполняя
выпуск
выпуска
выпускает
выпускается
выпускались
выпускался
выпускать
выпуске
выпуски
выпускник
выпускники
выпускников
выпусков
выпуском
выпуску
выпустил
выпустила
выпустили
выпустить
выпущен
выпущена
выпущенная
выпущенныи
выпущенных
выпущено
выпущены
выработать
выработке
выработки
выражает
выражается
выражал
выражали
выражать
выражают
выражая
выражена
выражение
выражением
выражении
выражению
выражения
выражениях
выражено
выраженіе
выраженіемъ
выраженія
выразил
выразила
выразили
выразилось
выразился
выразить
выразиться
вырастет
вырвалось
вырвался
вырвать
вырваться
вырос
выросла
выросли
выросло
выручка
выручки
выручку
выс
высадки
высказал
высказали
высказались
высказался
высказать
высказаться
высказывает
высказывал
высказывание
высказывании
высказывания
высказывать
выскочил
выслан
выслать
выслушав
выслушаи
выслушал
выслушать
высок
высока
высокаго
высокая
высокие
высокии
высоким
высокими
высоких
высоко
высокого
высокое
высокои
высоком
высокому
высокопоставленныи
высокопоставленных
высокую
высокіи
высот
высота
высотах
высоте
высотои
высоту
высоты
высоцкии
высоцкого
высочаи
высочества
высочество
выставил
выставить
выставка
выставках
выставке
выставки
выставку
выставлен
выставлены
выставлять
выставок
выставочныи
выстрел
выстрела
выстрелами
выстрелил
выстрелов
выстрелом
выстрелы
выступавшии
выступает
выступал
выступала
выступали
выступать
выступают
выступающии
выступая
выступил
выступила
выступили
выступило
выступит
выступить
выступление
выступлением
выступлении
выступления
выступлениями
выступлениях
выступят
высшая
высшего
высшее
высшеи
высшем
высшему
высшие
высшии
высшим
высшими
высших
высшую
вытащил
вытащили
вытащить
вытекает
выход
выхода
выходе
выходил
выходила
выходили
выходило
выходит
выходитъ
выходить
выходки
выходнои
выходные
выходных
выходом
выходу
выходцев
выходцы
выходы
выходя
выходят
вычислении
вычисления
вычислительнои
выше
вышедшая
вышедшеи
вышедшие
вышедшии
вышедших
вышел
вышелъ
вышестоящего
вышла
вышли
вышло
выявили
выявить
выявление
выявления
выявленных
выявлено
выявлены
выяснения
выяснили
выяснилось
выяснить
выясняется
вьетнам
вьетнама
вьетнаме
вэи
вяземскии
вяземского
вяло
вятка
вятскои
вячеслав
вячеслава
від
вѣдь
вѣка
вѣковъ
вѣкъ
вѣра
вѣрить
вѣрно
вѣрнѣе
вѣроятно
вѣру
вѣры
вѣрю
вѣстникъ
вѣсть
вѣтеръ
вѣтра
вѣчно
г
га
гааге
габриэль
гаваи
гавани
гавань
гавриил
гаврилов
гаврилович
гагарин
гагарина
газ
газа
газе
газет
газета
газетах
газете
газетои
газету
газеты
газов
газового
газовои
газовых
газом
газопровода
газпром
газпрома
газы
гаи
гаити
галактик
галактика
галактики
галерее
галереи
галерею
галерея
галилеи
галина
галиции
галле
галлии
гамбург
гамбурге
гамильтон
гамлет
гамлета
гамлетъ
гамма
ган
гана
ганс
гарантии
гарантировать
гарантирует
гарибальди
гармонии
гармония
гарнизон
гарнизона
гарри
гарсиа
гарсия
гастроли
гая
гб
гбл
гв
гвардеи
гвардии
гвардия
гвидо
гвинеи
гвинея
гвоздь
гг
гд
где
гдр
гдѣ
ге
гегеля
геев
геи
гектара
гектаров
ген
гена
гендернои
гендиректор
гендиректора
генеалогия
генерал
генерала
генералам
генералов
генералом
генералу
генералъ
генералы
генеральная
генерального
генеральное
генеральнои
генеральному
генеральныи
генеральным
гении
гения
геннадии
геннадия
генов
геноцид
геноцида
геноциде
генпрокуратура
генпрокуратуры
генпрокурора
генри
генрих
генриха
генрихом
генрихъ
генсек
генштаба
геогр
географ
географии
географические
географическии
географическим
географических
географического
географическое
география
геолог
геологии
геологических
геология
геометрии
геометрия
георг
георга
георгиевич
георгиевскии
георгии
георгия
гер
геральдическии
герасимов
герб
герба
гербе
герберт
гербы
герман
германа
германиеи
германии
германию
германия
германская
германские
германскии
германских
германского
германскои
германіи
героев
героем
герои
героизм
героини
героиня
герою
героя
героям
героями
героях
герц
герцеговины
герцен
герцена
герцог
герцога
герцогини
герцогиня
герцогом
герцогства
герцогство
герцогу
герцогъ
гессен
гете
гетман
гетмана
гетто
ги
гибдд
гибели
гибель
гибелью
гибнет
гигант
гигантскии
гигиены
гидрологическая
гидрометеоиздат
гидроузла
гии
гильдии
гильом
гимн
гимна
гимназии
гимназию
гимназия
гимнастике
гимны
гипотеза
гипотезу
гипотезы
гиппиус
гитара
гитаре
гитарист
гитариста
гитары
гитлер
гитлера
гк
гкая
гкие
гкии
гких
гко
гкого
гкои
гл
глав
глава
главами
главе
главка
главнаго
главная
главнеи
главного
главное
главнои
главнокомандующего
главнокомандующии
главнокомандующим
главном
главному
главную
главные
главныи
главным
главными
главнымъ
главных
главои
главу
главы
главѣ
глагол
глагола
глаголы
глагольное
гладко
глаз
глаза
глазам
глазами
глазах
глазахъ
глазго
глазки
глазом
глазу
глазъ
глас
гласит
гласных
глафира
глеб
глеба
глинка
глинки
глины
глобального
глобальнои
глобус
глубже
глубина
глубине
глубинои
глубину
глубины
глубинѣ
глубокая
глубокие
глубокии
глубоким
глубокими
глубоких
глубоко
глубокого
глубокое
глубокои
глубоком
глубокую
глубочаи
глубь
глуп
глупая
глупо
глупости
глупость
глупые
глупыи
глухим
глухих
глухо
глухои
глуши
глядел
глядела
глядели
глядеть
гляди
глядит
глядя
глядят
глядѣлъ
гляжу
гм
гмина
гнать
гне
гнев
гнева
гневом
гнезда
гнездо
гнѣва
гнѣвъ
го
говард
говор
говори
говорил
говорила
говорили
говорило
говорилось
говорилъ
говорим
говорит
говорите
говорится
говоритъ
говорить
говоришь
говоров
говоры
говорю
говоря
говорят
говорятъ
гоголь
гоголя
год
года
годам
годами
годах
годится
годов
годового
годовое
годовои
годовщине
годовщину
годовщины
годовъ
годовых
годом
году
годунов
годунова
годъ
годы
гои
гол
гола
голами
голевых
голицын
голицына
голкипер
голкипера
голландии
голландия
голландскии
голландского
голландскои
голливуде
голов
голова
головами
голове
головин
головка
головки
головку
головного
головнои
головои
головою
голову
головы
головѣ
голод
голода
голодныи
голодовку
голодом
голоду
голом
голос
голоса
голосами
голосе
голосов
голосование
голосованием
голосовании
голосования
голосовать
голосовъ
голосом
голосомъ
голосу
голосъ
голубая
голубеи
голубого
голубое
голубои
голубом
голубушка
голубчик
голубые
голубыми
голубых
голубь
голы
голые
голыи
голыми
гольштеи
гомель
гомельскои
гомер
гомера
гомес
гонка
гонках
гонке
гонки
гонконг
гонконга
гонконге
гонку
гонок
гонсалес
гончаренко
гончаров
гончарова
гор
гора
гораздо
горам
горами
горах
горбаче
горбачевич
горбунов
гордиться
гордо
гордон
гордона
гордости
гордость
гордостью
гордыи
горе
горел
горела
горели
горем
горести
горечь
горечью
горизонт
горизонта
горизонте
горит
горка
горки
горкома
горла
горло
горн
горная
горничная
горничнои
горно
горного
горнои
горном
горные
горныи
горным
горных
город
города
городам
городами
городах
городе
городища
городище
городка
городке
городов
городовъ
городок
городом
городская
городские
городским
городскими
городских
городского
городское
городскои
городском
городскому
городскую
городу
городъ
городѣ
горожан
горожане
горои
горсовета
горсть
гору
горцев
горъ
горы
горькая
горькии
горьким
горько
горького
горькои
горю
горя
горят
горячая
горячего
горячее
горячеи
горячие
горячии
горячим
горячих
горячо
горячую
горѣ
гос
госбезопасности
госгисцентр
госдепартамента
госдума
госдуме
госдуму
госдумы
госпитале
госпитализации
госпитализировали
госпитализирован
госпитализированы
госпиталь
госпиталя
господ
господа
господи
господин
господина
господином
господину
господинъ
господня
господом
господства
господство
господу
господь
госпожа
госпожи
госсекретарь
госсекретаря
госсовета
гост
гостеи
гостем
гости
гостиниц
гостиница
гостинице
гостиницу
гостиницы
гостинои
гостиную
гость
гостю
гостя
гостям
гостями
гостях
госуд
государеи
государем
государи
государств
государства
государствами
государствах
государстве
государственная
государственного
государственное
государственнои
государственном
государственному
государственности
государственную
государственные
государственныи
государственным
государственными
государственных
государство
государством
государству
государыни
государыня
государь
государю
государя
готов
готова
готовил
готовилась
готовили
готовились
готовился
готовит
готовится
готовить
готовиться
готовности
готовность
готово
готовои
готовъ
готовы
готовые
готовыи
готовым
готовых
готовясь
готовят
готовятся
готск
готье
гпу
гр
гра
грабителеи
грабить
гравюры
град
града
градом
градуса
градусов
граждан
гражданам
гражданами
граждане
гражданин
гражданина
гражданином
гражданину
гражданская
гражданские
гражданскии
гражданским
гражданских
гражданского
гражданское
гражданскои
гражданском
гражданскому
гражданскую
гражданства
гражданство
граи
грамм
грамматика
грамматики
граммов
грамота
грамоте
грамотности
грамотои
грамоту
грамоты
гран
гранат
гранаты
гранд
гранде
грани
гранита
границ
граница
границах
границе
границеи
границу
границы
граничит
грант
гранта
грань
граф
графа
графе
график
графика
графики
графику
графине
графини
графиня
графических
графов
графом
графства
графстве
графство
графу
графъ
графы
гре
гребень
гребле
грегори
греи
грек
греками
греки
греко
греков
грех
греха
грехи
грехов
греции
грецию
греция
греч
греческая
греческие
греческии
греческим
греческих
греческого
греческое
греческои
греческом
гриб
грибов
грибоедов
грибоедова
грибы
гривен
григории
григория
григорович
григорьев
григорьева
григорьевич
григорьевича
григорьевна
григорян
григоріи
грин
гриппа
гриша
грн
гроб
гроба
гробница
гробницы
гробу
гродненскои
гродно
гроза
грозил
грозила
грозит
грозить
грозно
грозного
грозном
грозныи
грозы
гром
грома
громадная
громадное
громаднои
громадную
громадные
громадныи
громкие
громкии
громким
громких
громко
громов
громче
гроссмеи
грот
грохот
гроша
гру
грубая
грубо
грубого
грубое
грубои
грубость
грубые
грубыи
грубым
грубых
груди
груднои
груды
грудь
грудью
груз
груза
грузиеи
грузии
грузино
грузинская
грузинские
грузинскии
грузинских
грузинского
грузинскои
грузию
грузия
грузов
грузовик
грузовика
грузовиков
грузового
грузовои
грузовых
грузом
грузы
грунт
грунта
групп
группа
группам
группами
группах
группе
группировка
группировки
группировку
группировок
группового
групповои
групповом
группои
группу
группы
грусти
грустно
грустныи
грусть
грустью
грэм
грэмми
грэс
гряды
грязи
грязнои
грязные
грязныи
грязь
грязью
грѣхъ
гсу
гтрк
гу
губ
губа
губам
губами
губах
губернатор
губернатора
губернаторов
губернатором
губернатору
губернаторы
губернии
губернию
губерния
губерниях
губернская
губернскии
губернских
губернского
губернскои
губерніи
губу
губы
гувд
гуго
гудков
гуи
гул
гулять
гуманитарного
гуманитарнои
гуманитарные
гуманитарныи
гуманитарных
гун
гуп
гусар
гусев
гусева
гусеи
густав
густава
густая
густо
густои
густые
густым
густыми
гусь
гэри
гэс
гюго
гюмри
д
да
даби
дабы
дав
даваи
давал
давала
давали
давало
давалъ
давать
давая
давеча
давид
давида
давление
давлением
давлении
давления
давних
давно
давности
давыдов
давыдова
дагестан
дагестана
дагестане
дагестанскои
дадут
дае
дает
дается
даетъ
даже
даи
дал
дала
далаи
дале
далее
далек
далеки
далеко
далекои
дали
даллас
дало
далъ
даль
дальневосточного
дальнего
дальнеи
дальнем
дальние
дальнии
дальних
дальнобои
дальности
дальность
дальнѣи
дальше
даля
далѣе
дам
дама
дамами
дамаск
дамаска
даме
дамои
даму
дамъ
дамы
дан
дана
дани
дании
даниил
даниила
данила
данило
данилов
данилова
данилович
даниэль
дания
данная
данного
данное
даннои
данном
данному
данномъ
данную
данные
данныи
данным
данными
данных
дано
данте
данченко
даны
дань
дар
дара
дарами
дарвина
даров
дарования
даром
даромъ
дары
дарьи
дарья
даст
дастъ
дат
дата
дате
датируется
датои
датск
датскии
датского
датскои
дату
даты
дать
дача
даче
дачи
дачу
даша
даю
дают
даются
даютъ
дв
два
двадцати
двадцать
дважды
две
двенадцати
двенадцать
двереи
двери
дверь
дверью
дверям
дверями
дверях
дверяхъ
двести
двигалась
двигались
двигался
двигателеи
двигателем
двигатели
двигатель
двигателя
двигателями
двигаться
двигаясь
движение
движением
движении
движению
движения
движениями
движениях
движеніе
движеніемъ
движеніи
движенія
движется
движок
двина
двинулась
двинулись
двинулся
двинуться
двины
двое
двои
двоих
двор
двора
дворами
дворах
дворе
дворец
дворецъ
дворов
дворовых
двором
двору
дворца
дворце
дворцов
дворцовои
дворцом
дворцу
дворцы
дворъ
дворы
дворян
дворяне
дворянин
дворянина
дворянскии
дворянских
дворянского
дворянскои
дворянства
дворянство
дворѣ
двоюродныи
двудольные
двудольных
двукратныи
двум
двумя
двусторонние
двусторонних
двух
двухсот
двухъ
двухэтажныи
двѣ
двѣнадцать
де
дебаты
дебют
дебютировал
дебютировала
дебютного
дебютном
дебютныи
дева
девиз
девиц
девица
девицы
девичестве
девка
девки
девочек
девочка
девочке
девочки
девочкои
девочку
девушек
девушка
девушке
девушки
девушкои
девушку
девы
девяносто
девяти
девятого
девятыи
девять
дед
деда
дедушка
дееприч
деепричастие
дежурныи
деи
дек
декабре
декабристов
декабрь
декабря
декан
декларации
декларацию
декларация
декоративно
декорации
декрет
дел
дела
делаем
делает
делаете
делается
делаешь
делаи
делал
делала
делали
делались
делало
делалось
делам
делами
делать
делах
делаю
делают
делаются
делая
деле
делегат
делегатов
делегации
делегацию
делегация
деление
делению
деления
дели
делит
делится
делить
делиться
делла
дело
делового
деловои
деловые
деловых
делом
делу
дель
дельта
делятся
дем
демо
демобилизации
демобилизован
демократ
демократии
демократическая
демократические
демократическии
демократических
демократического
демократическои
демократическую
демократию
демократия
демократов
демократы
демон
демона
демонов
демонстрантов
демонстрации
демонстрацию
демонстрация
демонстрирует
демонстрируют
демоскоп
демте
демъ
ден
дена
денег
денегъ
денежная
денежного
денежное
денежнои
денежную
денежные
денежныи
денежных
дени
денис
дениса
денисов
деннис
денные
денныи
денных
дено
дены
день
деньгами
деньгах
деньги
департамент
департамента
департаменте
департаментов
департаментом
депо
депортации
депрессии
депутат
депутата
депутатам
депутатами
депутатов
депутатом
депутаты
дер
дера
дерби
дерева
дереве
деревенскои
деревень
деревне
деревнеи
деревни
деревню
деревня
деревнях
деревнѣ
дерево
деревом
дереву
деревьев
деревьевъ
деревья
деревьями
деревьях
деревянная
деревянного
деревяннои
деревянную
деревянные
деревянныи
деревянным
деревянными
деревянных
держа
держав
держава
державами
державин
державина
державы
держал
держала
держалась
держали
держались
держался
держалъ
держась
держат
держатся
держать
держаться
держи
держит
держится
дерзко
дерзость
деров
дес
десант
десанта
десантных
дескать
десяти
десятилетие
десятилетии
десятилетия
десятин
десятины
десятка
десятками
десятки
десятков
десятку
десятого
десятои
десяток
десятыи
десять
десятью
дет
деталеи
детали
деталь
детально
деталях
дете
детеи
детектив
дети
детрои
детская
детские
детскии
детским
детских
детско
детского
детское
детскои
детском
детскую
детства
детстве
детство
дется
детъ
детьми
детям
детях
дефицит
дефицита
деше
дешевле
дешево
дешь
деян
деянии
деяния
деятелеи
деятелем
деятели
деятель
деятельное
деятельности
деятельность
деятельностью
деятеля
деятелями
дж
джаз
джаи
джан
джана
джане
джанкои
джаном
джанская
джанские
джанскии
джанских
джанского
джанскои
джастин
джеи
джек
джека
джеки
джексон
джексона
дженни
дженнифер
джентльмен
джентльмена
джереми
джерри
джерси
джесси
джессика
джефф
джеффри
джи
джим
джимми
джин
джо
джоан
джованни
джозеф
джозефа
джои
джон
джона
джонатан
джонни
джоном
джонс
джонса
джонсон
джонсона
джону
джонъ
джордан
джордж
джорджа
джорджем
джорджия
джорджъ
джошуа
джузеппе
джулия
джульетта
дзе
дзержинского
дзи
дзюба
дзюдо
ди
диагноз
диагностики
диал
диалект
диалекта
диалекте
диалектов
диалог
диалога
диалоги
диаметр
диаметра
диаметре
диаметром
диана
диапазон
диапазона
диапазоне
диас
диаспоры
диван
дивана
диване
дивизиеи
дивизии
дивизион
дивизиона
дивизионе
дивизию
дивизия
диего
дизаи
дизель
дик
дика
дикареи
дикари
дикая
дикие
дикии
диким
дикими
диких
дико
дикого
дикое
дикои
диктатора
диктатуры
димитрии
димитрия
дин
дина
динамика
динамики
динамику
динамо
династии
династия
динозавров
дионисии
диплом
дипломат
дипломата
дипломатии
дипломатические
дипломатическии
дипломатических
дипломатического
дипломатическои
дипломатов
дипломаты
дипломом
директива
директор
директора
директоров
директором
директору
дирекции
дирекция
дириже
дис
диск
диска
дисквалификации
дисквалифицирован
диске
диски
дисков
дискриминации
дискуссии
дискуссия
дислокации
диссертации
диссертацию
диссертация
дистанции
дистанцию
дистанциях
дистрибутива
дисциплин
дисциплина
дисциплинах
дисциплине
дисциплины
дите
дитя
дичь
дк
дл
длилась
длилось
длился
длина
длине
длинная
длиннее
длинного
длинное
длиннои
длинную
длинные
длинныи
длинным
длинными
длинных
длинои
длиною
длину
длины
длительного
длительное
длительнои
длительность
длительныи
длится
для
дм
дмитриев
дмитриева
дмитриевич
дмитриевича
дмитриевна
дмитрием
дмитрии
дмитрию
дмитрия
дмитровского
дн
дна
дне
дневник
дневника
дневнике
дневники
дневнои
днеи
днем
днемъ
днепр
днепра
днепропетровск
днепропетровскои
дни
днк
дно
дном
днр
дну
дню
дня
дням
днями
днях
до
добавив
добавил
добавила
добавили
добавим
добавить
добавлен
добавлена
добавление
добавлением
добавлены
добавляет
добавляют
добивается
добивался
добиваться
добилась
добились
добился
добиться
доблести
доблестныи
доблесть
добр
добра
добраго
добрались
добрался
добраться
добрая
добро
добровольно
добровольцев
добровольцем
добровольцы
доброго
добродетели
добродетель
добродушно
добродѣтели
доброе
доброи
добролюбов
добролюбова
добром
доброму
добросовестно
доброты
добру
добрую
добры
добрые
добрыи
добрым
добрыми
добрых
добывать
добыть
добыча
добыче
добычеи
добычи
добычу
дов
довел
довели
довелось
доверенности
доверенность
доверие
доверием
доверия
доверять
довести
доводы
доволен
доволенъ
довольна
довольно
довольны
довольныи
довольствоваться
догадался
догадаться
догнать
договор
договора
договорам
договоре
договоренностеи
договоренности
договоренность
договорились
договорился
договориться
договоров
договором
договору
договоры
дождавшись
дождаться
дождеи
дождем
дожди
дождь
дождя
дожидаться
дожидаясь
дозволено
дозы
дои
док
доказал
доказали
доказана
доказано
доказательств
доказательства
доказательство
доказательством
доказать
доказывает
доказывал
доказывать
доказывают
доклад
доклада
докладе
докладов
докладом
доклады
доктор
доктора
докторов
доктором
докторскои
докторскую
доктору
докторъ
доктрины
документ
документа
документального
документальныи
документальных
документам
документами
документах
документации
документация
документе
документов
документом
документу
документы
долг
долга
долгая
долги
долгие
долгии
долгих
долго
долгов
долгого
долгое
долгои
долгом
долготы
долгу
долгую
долгъ
доле
долее
долеи
должен
долженъ
должна
должника
должно
должного
должное
должностеи
должности
должностные
должностным
должностными
должностных
должность
должностях
должны
должным
доли
долин
долина
долине
долину
долины
долл
доллар
доллара
долларов
доложил
доложить
долои
дольше
долю
доля
дом
дома
домам
домами
домах
домашнего
домашнее
домашнеи
домашнем
домашние
домашнии
домашним
домашних
домашняя
доме
домен
доменико
домик
домика
доминго
доминик
домов
домовъ
домодедово
домои
домом
домохозяи
дому
домъ
домѣ
дон
дона
дональд
дональда
донбасс
донбасса
донбассе
донесение
донести
донецк
донецкая
донецке
донецкии
донецкого
донецкои
донна
донского
донскои
дону
донъ
доныне
донья
доп
допинг
дополнение
дополнении
дополнения
дополненное
дополнительная
дополнительно
дополнительного
дополнительное
дополнительнои
дополнительную
дополнительные
дополнительныи
дополнительным
дополнительными
дополнительных
дополнить
допрос
допроса
допросе
допуск
допускает
допускается
допускать
допускают
допускаются
допустил
допустили
допустим
допустить
допущены
дор
дора
доров
дорова
дорович
доровича
доровна
дорог
дорога
дорогам
дорогами
дорогах
дорогая
дороге
дороги
дорогие
дорогим
дорогих
дорого
дорогого
дорогое
дорогои
дорогою
дорогу
дорогъ
дорогѣ
дороже
дорожке
дорожки
дорожно
дорожного
дорожнои
дорожные
дорожныи
дорожных
досадно
досадои
досады
доселе
доска
доске
доски
доску
дословно
досок
досрочно
досрочном
доставил
доставили
доставить
доставки
доставлен
доставлена
доставлены
доставляет
доставлять
достал
досталась
достались
досталось
достался
достанется
достаточно
достаточного
достаточное
достаточнои
достаточным
достать
достиг
достигает
достигается
достигала
достигали
достигать
достигают
достигла
достигли
достигло
достигнет
достигнув
достигнут
достигнута
достигнуто
достигнутые
достигнуть
достижение
достижением
достижении
достижению
достижения
достичь
достоверно
достоверности
достоверность
достоевскии
достоевского
достои
достоин
достоинств
достоинства
достоинство
достоинством
достоинству
достопримечательностеи
достопримечательности
достояние
достоянием
достояниеобщественное
достоянии
доступ
доступа
доступе
доступен
доступна
доступно
доступнои
доступности
доступны
доступным
доступных
досуга
досье
доход
дохода
доходах
доходили
доходило
доходит
доходныи
доходов
доходы
доцент
доцента
доцентом
дочереи
дочери
дочерьми
дочерью
дочка
дочки
дочку
дочь
доше
дошел
дошла
дошли
дошло
дпс
др
драгоценности
драгоценные
драгоценными
драгоценных
драи
драка
драки
дракон
дракона
драку
дрался
драм
драма
драматическии
драматических
драматического
драматическои
драматическом
драматург
драматурга
драматургии
драме
драмов
драму
драмы
драться
драфта
драфте
древесины
древнего
древнегреческои
древнее
древнеи
древнем
древние
древнии
древним
древними
древних
древнихъ
древностеи
древности
древнюю
древняя
древо
дрезден
дрездене
дреи
дров
дрова
дрожа
дрожал
дрожала
дрожали
дрожит
дрожь
друг
друга
другаго
другая
друге
другие
другим
другими
другимъ
других
другихъ
другого
другое
другои
другом
другому
другомъ
другою
другу
другую
другъ
другіе
другія
дружба
дружбе
дружбу
дружбы
дружелюбным
дружески
дружеские
дружина
дружины
дружно
друзеи
друзья
друзьям
друзьями
дрянь
дти
дтп
ду
дуб
дуба
дубле
дубль
дуги
дуглас
дугласа
дуи
дум
дума
думаем
думает
думаете
думается
думаетъ
думаешь
думаи
думал
думала
думали
думалъ
думать
думаю
думают
думаютъ
думая
думе
думка
думои
думу
думы
дунаи
дуная
дура
дурак
дурака
дураки
дуракъ
дурно
дурного
дурное
дурнои
дурные
дут
дутся
дутъ
дух
духа
духами
духе
духи
духов
духовенства
духовенство
духовная
духовно
духовного
духовное
духовнои
духовном
духовному
духовную
духовные
духовныи
духовным
духовных
духом
духомъ
духу
духъ
духѣ
душ
душа
душанбе
душе
душевно
душевного
душевное
душевнои
душевных
души
душно
душои
душою
душу
душъ
душѣ
дуэли
дуэль
дуэт
дуэта
ды
дым
дыма
дымом
дыры
дыхание
дыхания
дыханіе
дыша
дышать
дышит
дьявол
дьявола
дьяк
дьякон
дэвид
дэвида
дэвидом
дэвис
дэвиса
дэи
дэн
дэниел
дэнни
дю
дюи
дюма
дюсш
дя
дяде
дядеи
дяди
дядю
дядюшка
дядя
дѣвочка
дѣвушка
дѣвушки
дѣвушку
дѣвушкѣ
дѣи
дѣла
дѣлается
дѣлаетъ
дѣлала
дѣлали
дѣлалъ
дѣлами
дѣламъ
дѣлать
дѣлахъ
дѣлаютъ
дѣло
дѣломъ
дѣлу
дѣлъ
дѣлѣ
дѣтеи
дѣти
дѣтства
дѣтьми
дѣтямъ
дѣятельности
дѣятельность
е
еаэс
ев
ева
евангелие
евангелии
евангелия
евгением
евгении
евгению
евгения
евгеньевич
евдокия
евич
ево
евпатории
евр
евразии
евразия
евреев
евреи
еврея
евреям
евреями
евро
евровидение
еврокомиссии
еврокубках
евролиги
европа
европе
европеи
европои
европу
европы
европѣ
евросоюз
евросоюза
египет
египетские
египетскии
египетских
египетского
египетское
египетскои
египта
египте
египтян
его
егор
егора
егоров
егорова
егорович
егэ
ед
еда
едва
едем
едет
единая
единиц
единица
единицу
единицы
единоборств
единогласно
единогласным
единого
единодушно
единое
единои
едином
единому
единства
единственная
единственно
единственного
единственное
единственнои
единственном
единственную
единственные
единственныи
единственным
единственными
единство
единую
единыи
единым
еду
едут
еды
едят
ее
ежегодная
ежегодник
ежегодно
ежегодного
ежегоднои
ежегодныи
ежедневно
ежели
ежемесячно
ежеминутно
еженедельник
ежи
ездил
ездили
ездит
ездить
езды
ездят
еи
екатерина
екатеринбург
екатеринбурга
екатеринбурге
екатерине
екатеринои
екатерины
ел
еле
елена
елене
еленои
елену
елены
ели
елизавета
елизавете
елизаветы
елисеев
елисеи
ель
ельцин
ельцина
ем
емельяненко
емена
ему
ен
енисеи
енциклопедія
епархии
епархию
епархия
епископ
епископа
епископов
епископом
епископу
епископы
ер
ера
ере
ереван
еревана
ереване
ереванского
ереси
ересь
ером
ес
есенин
есенина
еси
если
еслибъ
еслибы
еспч
ест
естественная
естественно
естественного
естественное
естественнои
естественные
естественныи
естественным
естественных
естествознания
есть
естьли
ет
ефим
ефимов
ефимович
ефреи
ефремов
ефремова
ефрона
ехал
ехали
ехать
еще
еэс
ею
ея
ж
жа
жадно
жадностью
жажда
жажду
жажды
жак
жака
жалеть
жалею
жалкии
жалко
жалкое
жалоб
жалоба
жалобами
жалобе
жалобно
жалобои
жалобу
жалобы
жаловались
жаловался
жалованье
жалованья
жаловаться
жалости
жалость
жалуется
жалуются
жаль
жан
жана
жандармов
жанеи
жанна
жанр
жанра
жанре
жанров
жар
жара
жарг
жаркии
жарким
жарко
жаркое
жаром
жару
жары
ждал
ждала
ждали
ждалъ
жданов
ждать
жде
ждем
ждет
ждетъ
жди
жду
ждут
же
жел
желаем
желает
желаете
желаетъ
желаешь
желал
желала
желали
желалъ
желание
желанием
желании
желанию
желания
желаніе
желаніи
желанія
желательно
желать
желаю
желают
желающие
желающии
желающим
желающих
желая
железа
железная
железного
железнодорожная
железнодорожников
железнодорожного
железнодорожнои
железнодорожном
железнодорожные
железнодорожныи
железнодорожным
железнодорожных
железнои
железную
железные
железныи
железным
железными
железных
железо
железом
железы
желтовато
желтого
желтои
желтые
желтыи
желтых
желудка
желудок
желѣзнои
жен
жена
женами
женат
жене
женеве
женился
женится
женитьба
женитьбы
жениться
жених
жениха
женои
женою
женская
женские
женскии
женским
женских
женского
женское
женскои
женском
женскую
жену
женщин
женщина
женщинам
женщинами
женщинах
женщине
женщинои
женщину
женщинъ
женщины
женщинѣ
жены
женя
женѣ
жерар
жермен
жертв
жертва
жертвам
жертвами
жертвах
жертвовать
жертвои
жертву
жертвы
жест
жесткие
жесткии
жестко
жесткои
жестокая
жестокие
жестокии
жестоким
жестоких
жестоко
жестокого
жестокое
жестокои
жестокости
жестокость
жестокостью
жестом
жи
жив
жива
живая
живе
живем
живет
живете
живетъ
живешь
живи
живо
живого
живое
живои
живом
живописец
живописи
живописца
живопись
живописью
живостью
живот
живота
животе
животноводства
животного
животное
животные
животным
животными
животных
животныхъ
живу
живут
живутъ
живущие
живущии
живущих
живую
жившии
живших
живъ
живы
живые
живым
живыми
живых
живыхъ
живя
жидкости
жидкость
жизнедеятельности
жизнеи
жизненно
жизненного
жизненнои
жизненные
жизненныи
жизненных
жизни
жизнь
жизнью
жил
жила
жили
жилища
жилище
жилищно
жилищного
жило
жилого
жилои
жилом
жилъ
жилые
жилых
жилье
жильцов
жильцы
жилья
жира
жириновскии
жит
житеи
жителеи
жители
житель
жительница
жительства
жительство
жителя
жителям
жителями
житие
жития
житомирскои
жить
житье
жк
жкх
жная
жного
жнои
жном
жную
жные
жныи
жных
жозе
жозеф
жорж
жоржа
жребии
жрец
жрецы
жу
жуан
жуана
жук
жуки
жуков
жукова
жуковскии
жуковского
журн
журнал
журнала
журналах
журнале
журналист
журналиста
журналистам
журналистами
журналистики
журналистка
журналистов
журналистом
журналисты
журналов
журналом
журналу
журналы
жутко
жъ
жь
жюль
жюри
з
за
забавно
забавы
забаи
забастовка
забастовки
забив
забил
забили
забитые
забитых
забить
заблаговременно
заблуждение
заблуждения
заболеваемости
заболевание
заболевании
заболевания
заболеваниями
заболевших
заболел
забор
забора
забот
забота
заботился
заботится
заботиться
заботливо
заботу
заботы
заботясь
забрал
забрали
забрать
забросил
забуду
забудь
забудьте
забыв
забываи
забывать
забывая
забыл
забыла
забыли
забылъ
забыть
зав
заведение
заведении
заведения
заведениях
заведовал
заведомо
заведующая
заведующего
заведующии
заведующим
завел
завели
заверил
завершает
завершается
заверше
завершен
завершена
завершение
завершении
завершения
завершено
завершены
завершив
завершил
завершила
завершилась
завершили
завершились
завершилось
завершился
завершится
завершить
завести
завет
завета
завещание
завещанию
завещания
зависело
зависеть
зависимости
зависимость
зависит
зависитъ
зависти
зависть
зависят
завладеть
завод
завода
заводах
заводе
заводов
заводом
заводскои
заводу
заводы
завое
завоевав
завоевал
завоевала
завоевали
завоевание
завоевании
завоевания
завоевать
завтра
завтрак
завтрака
загадка
загадки
заглавие
заглавием
заглянул
заглянуть
заговор
заговора
заговоре
заговорил
заговорила
заговорили
заговорилъ
заговорить
загорелся
заграничных
загружена
загрузки
загрязнения
задавать
задал
задание
задании
задания
задать
задач
задача
задачами
задачах
задачеи
задачи
задачу
заде
задеи
задержала
задержали
задержан
задержана
задержание
задержании
задержания
задержанного
задержанные
задержанныи
задержанных
задержаны
задержать
задерживать
задержки
заднего
заднеи
заднем
задние
заднии
задним
задних
задняя
задолго
задолженности
задолженность
задумал
задумалась
задумался
задуматься
задумчиво
задыхаясь
заж
зажи
заживо
заи
заимств
заинтересовался
заинтересован
заинтересованных
заинтересованы
зак
закавказье
заказ
заказа
заказал
заказать
заказник
заказов
заказу
заказчика
заказчиком
заказы
заканчивается
заканчивая
закат
заката
заключает
заключается
заключалась
заключалось
заключался
заключать
заключаются
заключе
заключен
заключение
заключением
заключении
заключению
заключения
заключенного
заключенные
заключенныи
заключенных
заключено
заключены
заключеніе
заключил
заключила
заключили
заключительном
заключительныи
заключить
закон
закона
законам
законами
законах
законе
законно
законного
законнои
законности
законность
законную
законные
законныи
законным
законных
законов
законовъ
законодательного
законодательное
законодательнои
законодательные
законодательных
законодательства
законодательстве
законодательство
законодательством
законодательству
законом
законопроект
законопроекта
закону
закончена
закончено
закончив
закончил
закончила
закончилась
закончились
закончилось
закончился
закончится
закончить
законъ
законы
закричал
закричала
закричали
закричалъ
закрыв
закрывает
закрывать
закрыл
закрыла
закрыли
закрыт
закрыта
закрытие
закрытии
закрытия
закрыто
закрытого
закрытои
закрытом
закрыты
закрытые
закрытыи
закрытыми
закрытых
закрыть
закупки
закупок
зал
зала
залах
зале
залив
залива
заливе
зализняка
залов
залог
залога
заложен
заложена
заложены
заложил
заложники
заложников
залу
залы
залѣ
зам
замглавы
замена
замене
заменен
заменена
заменены
заменив
заменил
заменили
заменит
заменить
замену
замены
заменяет
заместителеи
заместителем
заместители
заместитель
заместителю
заместителя
заметив
заметил
заметила
заметили
заметим
заметить
заметка
заметки
заметку
заметно
заметным
заметок
замечает
замечал
замечание
замечании
замечания
замечательно
замечательные
замечательныи
замечательных
замечать
замечая
замечен
замечено
замка
замке
замки
замков
замком
замкѣ
замминистра
замок
замокъ
замолчал
зампред
замуж
замужем
замужества
замужестве
замужъ
замысел
замысла
замыслу
замыслы
замѣтивъ
замѣтила
замѣтили
замѣтилъ
замѣтить
замѣтно
замѣчаетъ
занавес
занимавшии
занимаемои
занимает
занимается
занимал
занимала
занималась
занимали
занимались
занимало
занимался
занимать
заниматься
занимают
занимаются
занимающии
занимающихся
занимая
занимаясь
заново
заняв
занявшие
занял
заняла
занялась
заняли
занялись
заняло
занялся
занят
занята
занятие
занятием
занятии
занятия
занятиям
занятиях
занято
занятости
занятость
заняты
занятыи
занятых
занять
заняться
занятіи
занятія
зао
заодно
заостре
заочно
зап
запад
запада
западе
западная
западнее
западно
западного
западное
западноевропеи
западнои
западном
западному
западную
западные
западныи
западным
западными
западных
западом
западу
запас
запаса
запасе
запаснои
запасных
запасов
запасы
запах
запаха
запахом
запер
записал
записала
записали
записан
записана
записанныи
записано
записаны
записать
записеи
записи
записка
записках
записке
записки
записку
записок
записывает
записывать
запись
записью
заплакал
заплакала
запланирован
запланирована
запланировано
запланированы
заплатил
заплатили
заплатит
заплатить
заповеди
заповедник
заповедника
заполнить
запорожскои
запорожье
запрет
запрета
запрете
запретил
запретила
запретили
запретить
запрещает
запрещается
запреще
запрещен
запрещена
запрещение
запрещеннои
запрещенных
запрещено
запрещены
запрос
запроса
запросов
запросу
запросы
запуск
запуска
запуске
запустил
запустила
запустили
запустить
запущен
запущена
зарабатывать
заработал
заработала
заработать
заработка
заработнои
заработок
заражения
зараи
заранее
заранѣе
заре
зарегистрирован
зарегистрирована
зарегистрированных
зарегистрировано
зарегистрированы
зари
заросли
зарплат
зарплата
зарплату
зарплаты
зарубежнои
зарубежные
зарубежных
зарубежья
заря
заряд
заряда
засаду
заседание
заседании
заседания
заседаниях
заслуг
заслуга
заслуги
заслуженная
заслуженного
заслуженныи
заслуживает
заслуживают
заслужил
заслужить
засмеялась
засмеялся
заснул
заснуть
заставил
заставила
заставили
заставило
заставилъ
заставит
заставить
заставляет
заставляетъ
заставлял
заставляла
заставляли
заставляло
заставлять
заставляют
заставляя
заставы
заставят
застал
застала
застали
застрелен
застрелил
застрои
затеи
затем
затмение
зато
затрат
затраты
затруднении
затруднения
затылок
затѣмъ
зафиксировали
зафиксирован
зафиксирована
зафиксировано
зафиксированы
захар
захаров
захарова
захват
захвата
захвате
захватив
захватил
захватила
захватили
захватить
захватчиками
захватчиков
захватывает
захвачен
захваченных
захвачены
заходил
заходит
захоронение
захоронении
захоронения
захотел
захотели
захотелось
захотят
захочет
зачастую
заче
зачем
зачеркнуто
зачете
зачислен
зачѣмъ
зашел
зашла
зашли
защита
защите
защитил
защитила
защитить
защитник
защитника
защитники
защитников
защитником
защитои
защиту
защиты
защищает
защищал
защищали
защищать
защищаться
защищая
защище
защищены
заявив
заявил
заявила
заявили
заявило
заявителя
заявить
заявка
заявки
заявку
заявление
заявлением
заявлении
заявлению
заявления
заявлениям
заявлениями
заявлено
заявляет
заявлял
заявляла
заявляли
заявляют
заявляя
заявок
заяц
звал
звали
звание
званием
звании
званию
звания
звать
зве
звезд
звезда
звездами
звезде
звездои
звезду
звезды
звена
звено
звереи
звери
зверь
зверя
звон
звонит
звонить
звонка
звонки
звонко
звонков
звонок
звук
звука
звуками
звуки
звуков
звуковои
звукозаписи
звуком
звукорежиссе
звукъ
звучал
звучала
звучали
звучание
звучат
звучать
звучит
звѣзды
зд
здание
зданием
здании
зданию
здания
зданиях
здесь
здешних
здная
здныи
здоров
здорова
здорово
здорового
здоровои
здоровы
здоровыи
здоровым
здоровых
здоровье
здоровьем
здоровью
здоровья
здочки
здочку
здравоохранение
здравоохранения
здравствует
здравствуи
здравыи
зды
здѣсь
зе
зевса
зеи
зеландии
зеландия
зеле
зеленая
зелени
зеленого
зеленои
зеленскии
зеленского
зеленые
зеленыи
зеленым
зелеными
зеленых
зелень
зеленью
земель
земельного
земельные
земельныи
земельных
земле
землевладельцев
земледелие
земледелием
земледелия
землеи
землетрясение
землетрясения
землею
земли
землю
земля
землями
землях
землѣ
земного
земное
земнои
земные
земных
земская
земскии
земских
земского
земскои
земства
зенит
зенита
зенитно
зенитом
зер
зера
зеркала
зеркале
зеркало
зеркалом
зерна
зерно
зерновых
зи
зии
зима
зимбабве
зимнего
зимнее
зимнеи
зимнем
зимние
зимнии
зимних
зимняя
зимои
зимою
зиму
зимы
зина
зинаида
зия
зла
злая
зло
злоба
злобно
злобои
злобу
злобы
злого
злодеев
злодеи
злодея
злодѣи
злое
злои
злом
злости
злоумышленник
злоумышленники
злоумышленников
злоупотреблении
злоупотребления
злу
злые
злым
злых
змеи
змея
знаем
знаемъ
знает
знаете
знаетъ
знаешь
знаи
знак
знака
знаками
знаки
знаков
знаком
знакома
знакомая
знакомится
знакомого
знакомои
знакомства
знакомство
знакомъ
знакомы
знакомые
знакомыи
знакомым
знакомыми
знакомых
знакомыхъ
знакъ
знал
знала
знали
зналъ
знамена
знаменем
знамени
знаменитая
знаменитого
знаменитое
знаменитои
знаменитом
знаменитостеи
знаменитую
знаменитые
знаменитыи
знаменитым
знаменитых
знамя
знание
знанием
знании
знания
знаниями
знанія
знати
знатного
знатные
знатных
знаток
знать
знач
значение
значением
значении
значению
значения
значеніе
значенія
значило
значимости
значимость
значимых
значит
значительная
значительно
значительного
значительное
значительнои
значительном
значительную
значительные
значительныи
значительным
значительными
значительных
значится
значитъ
знаю
знают
знаютъ
зная
зно
зного
зное
знои
знч
зные
зныи
зным
зных
зо
зов
зовет
зовут
зовутъ
зодчества
зои
зол
золота
золотая
золото
золотого
золотое
золотои
золотом
золотомъ
золотую
золотые
золотым
золотыми
золотых
зомби
зон
зона
зонах
зоне
зонои
зону
зоны
зоол
зоологии
зоопарк
зоопарка
зорко
зоя
зрелище
зрелости
зрение
зрения
зрителеи
зрители
зритель
зрителю
зрителя
зрителям
зрителями
зрк
зря
зрѣнія
зуб
зубами
зубов
зубцов
зубы
зы
зять
зятя
и
иа
иаков
иакова
ибн
ибо
ибрагим
ив
ива
иван
ивана
ивано
иванов
иванова
иванович
ивановича
ивановичу
ивановичъ
ивановна
ивановне
ивановны
иваново
ивановская
ивановскии
ивановскои
иваном
ивану
иванъ
иваныч
иванычъ
ивр
иврит
иг
ига
игил
игнатии
игнатьев
игорем
игорь
игоря
игр
игра
игравшии
играет
играетъ
играл
играла
играли
игралъ
играм
играми
играть
играх
играют
играющии
играя
игре
игрового
игровои
игровую
игровые
игровых
игрои
игрок
игрока
игрокам
игроками
игроки
игроков
игроком
игроку
игромания
игру
игрушек
игрушки
игры
игумен
игумена
ид
ида
иде
идеал
идеала
идеалов
идеалы
идеально
идеальныи
идее
идееи
идеи
идем
идентификатор
идентификации
идентичности
идеологии
идеология
идет
идетъ
идешь
идею
идея
идеям
идеями
иди
идите
идти
иду
идут
идутъ
идущие
идущии
идущих
идя
иеговы
иезуитов
иер
иерархии
иереи
иеромонах
иерусалим
иерусалима
иерусалиме
иерусалимского
иже
ижевск
из
изабелла
изабеллы
изба
избавить
избавиться
избе
избегать
избежание
избежать
избиения
избил
избили
избирается
избирался
избирателеи
избирательная
избирательного
избирательнои
избирательном
избирательному
избирательные
избирательныи
избирательных
избрал
избрали
избран
избрана
избрание
избрании
избрания
избранного
избранное
избранные
избранныи
избранным
избранных
избраны
избрать
избу
избы
изв
известен
извести
известие
известии
известия
известна
известная
известно
известного
известное
известнои
известном
известному
известность
известностью
известную
известны
известные
известныи
известным
известными
известных
извинения
извинился
извините
извлечения
извлечь
извне
извозчик
извозчика
изволили
изволите
извольте
извѣстнаго
извѣстно
извѣстнои
извѣстны
извѣстныи
извѣстныхъ
извѣстіе
извѣстія
изгнание
изгнании
изгнания
изгнать
изготовлен
изготовление
изготовлении
изготовления
изготовлены
изд
издаваемые
издавал
издавать
издавна
издае
издает
издал
издалека
издали
издан
издана
издание
изданием
издании
изданию
издания
изданиях
изданная
изданные
изданныи
изданных
издано
изданы
изданіе
изданіи
изданія
издат
издателеи
издателем
издатель
издательскии
издательства
издательстве
издательство
издательством
издателя
издать
изделии
изделия
издержек
издержки
излишне
излишнеи
изложение
изложении
изложения
изложены
изложил
изложить
излучение
излучения
измаи
измена
измене
изменена
изменение
изменением
изменении
изменению
изменения
изменениям
изменениями
изменениях
изменено
изменены
изменил
изменила
изменилась
изменили
изменились
изменилось
изменился
изменит
изменится
изменить
измену
измены
изменяет
изменяется
изменять
измерение
измерении
измерения
изнасилование
изнасиловании
изнасилования
изначально
изнутри
изо
изобилии
изображает
изображается
изображать
изображе
изображен
изображена
изображение
изображением
изображении
изображения
изображениями
изображены
изобразил
изобразительного
изобразительных
изобразить
изобретатель
изобретение
изобретении
изобретения
изоляции
израиле
израилем
израиль
израильская
израильские
израильскии
израильских
израильского
израильскои
израильтян
израиля
изредка
изрѣдка
изумлением
изучает
изучал
изучала
изучать
изучая
изучение
изучением
изучении
изучению
изучения
изученность
изучил
изучить
изъ
изъяли
изъяты
изящнои
изящных
ии
иисус
иисуса
ик
икон
икона
икону
иконы
икс
ил
или
илии
илл
иллинои
иллюзии
иллюстрации
иллюстрированная
иллюстрированныи
иль
ильи
ильин
ильина
ильич
ильича
илья
илюшин
им
имам
имама
име
имевшие
имевшии
имевших
имеем
имеет
имеете
имеется
имеешь
имел
имела
имелась
имели
имелись
имело
имелось
имелся
имен
имена
именами
именем
именемъ
имени
имение
имении
имения
именно
именнои
именоваться
именуется
иметь
имею
имеют
имеются
имеющая
имеющего
имеющее
имеющеи
имеющие
имеющиеся
имеющии
имеющим
имеющими
имеющимся
имеющих
имеющихся
имея
ими
иммигрантов
имп
император
императора
императоров
императором
императорская
императорскии
императорских
императорского
императорское
императорскои
императорском
императору
императоръ
императрица
императрице
императрицеи
императрицы
империеи
империи
империю
империя
имперіи
импорт
импорта
импульс
имуществ
имущества
имущественных
имущество
имуществом
имъ
имя
имѣемъ
имѣетъ
имѣла
имѣли
имѣло
имѣлъ
имѣть
имѣю
имѣютъ
имѣя
ин
инаугурации
иначе
иная
инвалидов
инвестиции
инвестиционного
инвестиционнои
инвестиционныи
инвестиционных
инвесторов
инвесторы
ингушетии
ингушетия
инд
индеец
индеи
индекс
индекса
индексов
индексы
индиана
индивидуального
индивидуальнои
индивидуальные
индивидуальныи
индивидуальных
индии
индию
индия
индо
индоевропеи
индон
индонезии
индонезия
индустрии
индіи
индѣи
инж
инженер
инженера
инженерно
инженерного
инженернои
инженерных
инженеров
инженером
инженеры
инициатив
инициатива
инициативе
инициативои
инициативу
инициативы
инициатором
инна
инновации
иннокентии
иногда
иного
иное
инои
ином
иному
иностранного
иностраннои
иностранные
иностранныи
иностранным
иностранными
иностранных
иностранцев
иностранцы
инспектор
инспектора
инспекторов
инспектором
инспекторы
инспекции
инстанции
инстинкт
инстинктивно
институт
института
институте
институтов
институтом
институты
инструктор
инструктором
инструкции
инструкция
инструмент
инструмента
инструментами
инструментах
инструментов
инструментом
инструменты
интеграции
интеграция
интеллект
интеллекта
интеллектуальнои
интеллигенции
интеллигенция
интенсивно
интенсивности
интенсивность
интер
интервью
интерес
интереса
интересам
интересами
интересах
интересен
интересна
интересная
интересно
интересного
интересное
интереснои
интересны
интересные
интересныи
интересным
интересных
интересов
интересовался
интересом
интересует
интересуется
интересъ
интересы
интернат
интернационала
интернет
интернета
интернете
интернету
интерпретации
интерфакс
интерфакса
интерфаксу
интерфеи
интерфикс
интерьер
интриги
иную
инфантерии
инфекциеи
инфекции
инфицированных
инфляции
инфляция
инфо
информ
информагентство
информатики
информациеи
информации
информационная
информационно
информационного
информационное
информационнои
информационные
информационныи
информационных
информацию
информация
информирует
инфраструктура
инфраструктуру
инфраструктуры
инцидент
инцидента
инциденте
инцидентов
иные
иным
иными
иных
иоанн
иоанна
иоанном
иоанну
иоганн
иоганна
иона
ионов
иордан
иордании
иосиф
иосифа
иосифович
ип
ипполит
ипр
ир
ира
ирак
ирака
ираке
иракских
иракского
иракскои
иран
ирана
иране
ираном
иранскии
иранских
иранского
иранскои
ирану
ирина
ирины
иркутск
иркутска
иркутская
иркутске
иркутского
иркутскои
ирл
ирландии
ирландия
ирландскии
ирландского
ирландскои
ирли
иронии
иронически
иртыш
иртыша
ис
исаак
исаака
исаев
исаи
иск
иска
искал
искала
искали
искалъ
искать
иске
иски
исключает
исключают
исключая
исключе
исключен
исключена
исключение
исключением
исключении
исключения
исключено
исключены
исключеніемъ
исключил
исключительно
исключительное
исключительнои
исключительных
исключить
исков
ископаемые
ископаемых
искра
искренне
искреннее
искреннеи
искренним
искренно
искренности
искренность
искры
иску
искусно
искусств
искусства
искусстве
искусственно
искусственного
искусственное
искусственнои
искусственные
искусственныи
искусственным
искусственных
искусство
искусствовед
искусствоведения
искусством
искусству
исл
ислам
ислама
исламскии
исламских
исламского
исламское
исламскои
исландии
исмаил
исп
испанец
испании
испанию
испания
испанская
испанские
испанскии
испанским
испанских
испанского
испанскои
испанском
испанцев
испанцы
исповеди
исповедь
исполком
исполкома
исполнена
исполнение
исполнением
исполнении
исполнению
исполнения
исполнено
исполнены
исполненіе
исполнил
исполнила
исполнили
исполнилось
исполнителеи
исполнителем
исполнители
исполнитель
исполнительница
исполнительного
исполнительнои
исполнительныи
исполнительным
исполнительных
исполнителя
исполнить
исполняет
исполняется
исполнял
исполняла
исполняли
исполнять
исполняют
исполняющии
исполняющим
исполняя
использовал
использовала
использовалась
использовали
использовались
использовалось
использовался
использован
использована
использование
использованием
использовании
использованию
использования
использовано
использованы
использовать
использоваться
используемые
используемыи
используемых
использует
используется
используи
используют
используются
используя
испортить
испр
исправить
исправление
исправления
испуга
испугалась
испугался
испуганно
испуганныи
испытал
испытание
испытании
испытания
испытаниях
испытать
испытывает
испытывал
испытывала
испытывали
испытывать
испытывают
исследовал
исследование
исследованием
исследовании
исследованию
исследования
исследованиям
исследованиями
исследованиях
исследователеи
исследователи
исследователь
исследовательскии
исследовательских
исследовательского
исследовательскои
исследователя
исследователями
исследовать
ист
истекает
истец
истечении
истечения
истина
истине
истинная
истинно
истинного
истинное
истиннои
истинную
истинные
истинныи
истинным
истинных
истину
истины
исток
истока
истоки
истоков
истор
историеи
истории
историк
историка
историки
историко
историков
историографии
историческая
исторически
исторические
историческии
историческим
историческими
исторических
исторического
историческое
историческои
историческом
историческую
историю
история
исторіи
исторію
исторія
источник
источника
источникам
источниками
источниках
источнике
источники
источников
источником
источнику
истребителеи
истребители
истребитель
истребительного
истребительнои
истребительныи
истребителя
истца
исх
исход
исхода
исходе
исходит
исходного
исходные
исходныи
исходя
исчез
исчезает
исчезают
исчезла
исчезли
исчезло
исчезнет
исчезновение
исчезновения
исчезнуть
исчезъ
исчислении
ит
итак
итакъ
итал
италиеи
италии
италию
италия
итальянец
итальянская
итальянские
итальянскии
итальянским
итальянских
итальянского
итальянское
итальянскои
итальянском
итальянцев
итальянцы
италіи
итар
итог
итогам
итоге
итоги
итого
итогов
итоговом
итоговыи
итогом
итти
иуда
иудеев
иудеи
их
ихъ
ишь
ища
ищет
ищу
ищут
июле
июль
июля
июне
июнь
июня
к
ка
кабардино
кабинет
кабинета
кабинете
кабинетъ
кабины
кабы
кав
кавалер
кавалера
кавалерии
кавалерия
кавалеров
кавалером
кавалеры
кавер
кавказ
кавказа
кавказе
кавказская
кавказскии
кавказских
кавказского
кавказскои
каддафи
кадетскии
кадров
кадры
кадыров
кадырова
каждаго
каждая
каждого
каждое
каждои
каждом
каждому
каждомъ
каждую
каждые
каждыи
каждым
каждымъ
кажется
кажутся
каз
казак
казака
казаками
казаки
казаков
казалась
казались
казалось
казался
казани
казанская
казанскии
казанского
казанскои
казанском
казань
казармы
казаться
казахская
казахскии
казахского
казахскои
казахстан
казахстана
казахстане
казахстанскии
казахстанскои
казачества
казачии
казачьего
казачьих
казе
казеннои
казенных
казимир
казимира
казино
казна
казначеи
казне
казни
казнить
казну
казны
казнь
каи
каида
каиды
каире
как
какая
какие
каким
какими
какимъ
каких
какихъ
каков
какова
каково
каковы
какого
какое
какои
каком
какому
какомъ
какою
какую
какъ
какіе
какія
кал
кала
калашников
калашникова
калгари
кале
календарь
календарю
календаря
кали
калибра
калинин
калинина
калининград
калининграда
калининграде
калининградская
калининградскои
калитку
калифорнии
калифорния
калия
калмыкии
калмыкия
калуга
калужская
калужскои
кальскии
кальского
кальция
калья
кам
кама
камаз
каменец
каменка
каменная
каменного
каменное
каменнои
каменную
каменные
каменныи
каменными
каменных
каменскии
камень
камер
камера
камере
камерои
камеру
камеры
ками
камина
камне
камнеи
камнем
камни
камня
камнями
кампании
кампанию
кампания
камчатке
камчатки
камчатскии
камчатского
кан
канада
канаде
канадская
канадскии
канадского
канадскои
канаду
канады
канал
канала
каналам
канале
каналов
каналом
каналу
каналы
канд
кандидат
кандидата
кандидатов
кандидатом
кандидатскую
кандидатура
кандидатуру
кандидатуры
кандидаты
канзас
каникулы
канон
каноэ
кант
канта
кантон
кантона
кантоне
кантри
канун
канцелярии
канцелярию
канцелярия
канцлер
канцлера
кап
капеллы
капель
капельмеи
капитал
капитала
капитализма
капиталов
капиталом
капиталы
капитального
капитальныи
капитан
капитана
капитаном
капитану
капитанъ
капитаны
капитолии
капитуляции
капли
капля
кар
кара
карабах
карабаха
карабахе
карабахского
карабахскои
караван
карамзин
карамзина
карандаш
карандашом
карантин
карантина
караул
карачаево
кардинал
кардинала
кардиналом
карелии
карелия
карен
карета
карете
карету
кареты
карибского
карл
карла
карлик
карло
карлович
карлом
карлос
карлоса
карлу
карлъ
карман
кармана
кармане
карманъ
карманы
кармен
каролина
каролины
карпов
карповки
карт
карта
картами
картах
карте
картер
картин
картина
картинами
картинах
картине
картинки
картинои
картину
картины
картография
картофель
картофеля
карточка
карточки
карточку
карту
карты
карьера
карьере
карьеру
карьеры
касается
касались
касалось
касательно
касаться
касаются
касающиеся
касающихся
касаясь
каспии
касса
кассационнои
кассы
кастилии
кастилия
кастро
касьянов
кат
каталог
каталога
каталоге
каталонии
катание
катании
катанию
катания
катар
катара
катастроф
катастрофа
катастрофе
катастрофу
катастрофы
кататься
категории
категорически
категорию
категория
категориях
катер
катера
катерина
катеров
катков
като
католики
католиков
католическая
католическии
католических
католического
католическои
катя
кафе
кафедра
кафедральныи
кафедре
кафедрои
кафедру
кафедры
ках
качеств
качества
качествами
качестве
качественно
качественное
качество
качеством
качеству
качествѣ
кашель
каюту
каюты
кая
кб
кв
квадрат
квадратныи
квадратных
квалификации
квалификационного
квалификацию
квалификация
квантовои
квартал
квартала
квартале
кварталов
кварталы
квартет
квартета
квартир
квартира
квартирах
квартире
квартирои
квартиру
квартиры
квебек
кверху
квинт
квт
кг
кгб
ке
кевин
кеи
келли
кем
кемерово
кемеровская
кемеровскои
кен
кении
кеннеди
кенни
кент
кентукки
кер
керамики
керри
керс
ки
кивнул
кие
киев
киева
киеве
киево
киевская
киевскии
киевского
киевское
киевскои
киевском
кии
килограммов
километр
километра
километрах
километре
километров
ким
кин
кина
кинг
кинга
кинематографа
кинематографии
кинематографистов
кинжал
кино
киноакте
кинокритиков
кинорежиссе
киностудии
кинотеатр
кинотеатра
кинотеатрах
кинофестивале
кинофестиваль
кинофестиваля
кинофильм
кинулся
кипит
кипр
кипра
кипре
кира
киргизии
киргизскои
кирилл
кирилла
киров
кирова
кировоградскои
кировская
кировскии
кировского
кировскои
кирпич
кирпича
кирпичныи
киселе
киселев
кислород
кислорода
кислот
кислота
кислотои
кислоту
кислоты
кисти
кисть
кит
кита
китае
китаем
китаи
китаю
китая
кишине
кишки
киі
кл
кла
клавдии
клавдия
клавишные
клад
кладбища
кладбище
кладет
кладут
клаи
клан
клана
кланяется
кланяться
клара
кларк
класс
класса
классах
классе
классик
классика
классики
классиков
классификатор
классификации
классификация
классицизма
классическая
классические
классическии
классическим
классических
классического
классическои
классическом
классов
классом
классу
классы
класть
клаус
кле
клевета
клеи
клеопатра
клер
клетка
клетках
клетке
клетки
клетку
клеток
клиент
клиента
клиентам
клиентов
клиенты
клим
климат
климата
климент
клин
клинике
клиники
клинику
клиническая
клиническои
клинтон
клип
клипа
кличке
кличко
клод
клом
клопс
клуб
клуба
клубами
клубах
клубе
клубов
клубом
клубу
клубы
клэр
клюв
ключ
ключа
ключе
ключевои
ключевскии
ключевую
ключевые
ключевым
ключевых
ключеи
ключи
ключом
ключъ
клянусь
клятву
клятвы
км
кн
кндр
книг
книга
книгам
книгами
книгах
книге
книги
книгои
книгу
книгъ
книгѣ
книжка
книжке
книжки
книжку
книжн
книжная
книжного
книжное
книжнои
книжныи
кнопки
кнопку
кнр
кнутом
княгине
княгини
княгиня
княжества
княжество
княжна
княжны
князе
князеи
князем
князь
князья
князьями
князю
князя
ко
коалиции
коалицию
коалиция
коап
коатуу
ков
кова
ковале
ковалев
коваленко
ковальчук
ковер
ковры
ковскии
ковского
ковчег
коган
когда
кого
когти
код
кода
кодекс
кодекса
кодексом
кодов
кодом
коды
кое
коего
коеи
коем
кожа
коже
кожевников
кожеи
кожи
кожу
коз
коза
козак
козаки
козаков
козлов
козлова
козловскии
кои
коим
коими
коих
коихъ
кокорин
кокорина
коктеи
кол
коле
колебался
колебании
колебания
колеблется
колеи
колен
колена
колени
колено
коленях
колес
колеса
колесников
колесо
колец
коли
колин
количества
количествах
количестве
количество
количеством
количеству
коллег
коллега
коллегам
коллегами
коллеги
коллегии
коллегию
коллегия
коллегои
колледж
колледжа
колледже
коллектив
коллектива
коллективного
коллективнои
коллективов
коллективом
коллективы
коллекции
коллекционер
коллекцию
коллекция
колодец
колодца
колокол
колокола
колоколов
колокольни
колокольня
колокольчик
колонизации
колонии
колонистов
колонию
колония
колониях
колонн
колонна
колоннами
колонну
колонны
колорадо
колос
колумбии
колумбия
колхоз
колхоза
колхозе
колыбели
коль
кольца
кольцевои
кольцо
кольцом
коля
коляску
колѣни
колѣняхъ
ком
кома
команд
команда
командами
командах
команде
командир
командира
командиров
командирован
командиром
командиру
командиры
командного
команднои
командном
командные
командныи
командных
командовал
командование
командованием
командования
командовать
командои
командор
команду
командующего
командующии
командующим
командуя
команды
комарки
комаров
комарова
комбаи
комбинат
комбината
комбинации
комедии
комедию
комедия
комедіи
комендант
коменданта
комета
кометы
коми
комик
комиксов
комиссар
комиссара
комиссариата
комиссаров
комиссаром
комиссиеи
комиссии
комиссию
комиссия
комитет
комитета
комитете
комитетов
комитетом
комитету
комитеты
коммент
комментариев
комментарии
комментариями
комментариях
комментатор
комментировать
комментирует
комментируя
коммерсант
коммерсанта
коммерсантъ
коммерческие
коммерческии
коммерческих
коммерческого
коммерческои
коммун
коммуна
коммунального
коммунальные
коммунальных
коммуне
коммунизм
коммунизма
коммуникации
коммунист
коммунистическая
коммунистического
коммунистическои
коммунистов
коммунисты
коммуны
комнат
комната
комнатах
комнате
комнату
комнаты
комнатѣ
компакт
компаниеи
компании
компанию
компания
компаниям
компаниями
компаниях
компаніи
компартии
компенсации
компенсацию
компенсировать
компетенции
комплекс
комплекса
комплексе
комплексного
комплекснои
комплексов
комплексом
комплексы
комплект
композитор
композитора
композиторов
композитором
композиции
композицию
композиция
компонент
компонента
компонентов
компоненты
компромисс
компьютер
компьютера
компьютерная
компьютернои
компьютерные
компьютерных
компьютеров
компьютеры
комсомола
комсомолец
комсомольская
комсомольскои
кому
комъ
кон
конвеи
конвенции
конвенция
конверт
конвои
конвоя
конго
конгрегации
конгресс
конгресса
конгрессе
коне
конеи
конец
конецъ
конечная
конечно
конечнои
конечном
конечностеи
конечности
кони
конкакаф
конкретно
конкретного
конкретнои
конкретные
конкретных
конкурентов
конкуренции
конкуренцию
конкуренция
конкурировать
конкурс
конкурса
конкурсе
конкурснои
конкурсов
конкурсы
конница
конницы
конно
коннои
конныи
конных
коновалов
конрад
консервативнои
консерватории
консерваторию
консоли
константин
константина
константинович
константином
константинополе
константинополь
константинопольского
константинополя
константину
констатировал
конституциеи
конституции
конституционного
конституционнои
конституционныи
конституционным
конституционных
конституцию
конституция
конструктор
конструктора
конструкции
конструкцию
конструкция
консул
консула
консулом
консульства
консульство
консультант
консультантом
консультации
контакт
контакта
контакте
контактов
контакты
контеи
контексте
контент
контента
контингент
контингента
континента
континентальнои
континентальныи
континенте
контора
конторе
контору
конторы
контр
контракт
контракта
контрактов
контракту
контракты
контраст
контроле
контролем
контролировать
контролирует
контроль
контрольно
контрольныи
контролю
контроля
конф
конфедерации
конференции
конференцию
конференция
конфессии
конфигурации
конфликт
конфликта
конфликте
конфликтов
конфликты
конца
концами
концах
конце
концентрации
концентрация
концепции
концепцию
концепция
концерн
концерна
концерт
концерта
концертах
концерте
концертныи
концертных
концертов
концерты
концов
концовке
концовъ
концом
концу
концы
концѣ
кончается
кончая
кончено
кончил
кончилась
кончилось
кончился
кончине
кончины
кончится
кончить
конь
конюшни
коня
кооператива
координат
координатам
координатор
координаты
координации
координационного
коп
копеек
копеи
копенгаген
копенгагене
копии
копию
копия
копье
копья
кор
кора
корабле
кораблеи
кораблем
корабли
корабль
корабля
кораблями
кораблях
коран
корана
коре
корее
кореи
кореннои
коренные
коренных
корень
корею
корея
корзину
корзины
кори
коридор
коридора
коридоре
коридору
коричневая
коричневого
коричневые
коричневыи
корм
корма
корме
кормилица
кормить
корне
корнеи
корнелии
корни
корня
корнями
коробка
коробки
коробку
коров
корова
корову
коровы
короле
королев
королева
королеве
королевои
королевская
королевские
королевскии
королевским
королевских
королевского
королевское
королевскои
королевском
королевскую
королевства
королевстве
королевство
королеву
королевы
королеи
королем
королемъ
короленко
короли
король
королю
короля
корона
коронавирус
коронавируса
коронавируснои
коронавирусом
коронации
коронои
корону
короны
короткая
короткие
короткии
коротким
короткими
коротких
коротко
короткого
короткое
короткои
короткометражныи
короткую
короче
корпорации
корпорация
корпус
корпуса
корпусе
корпусов
корпусом
корпусу
корреспондент
корреспондента
корреспондентом
корреспонденту
корреспонденции
коррупциеи
коррупции
корсаков
корсакова
коры
коряков
коса
косвенно
космическая
космические
космическии
космических
космического
космическои
космодрома
космонавт
космонавтики
космонавтов
космос
космоса
космосе
коснулись
коснулся
коснуться
косово
косои
коста
косте
костеи
костер
кости
костра
кострома
костромская
костромскои
костры
кость
костюм
костюма
костюмах
костюме
костюмов
костюмы
костя
косу
косы
кот
кота
коте
котеловои
котировки
котла
котов
котораго
которая
которого
которое
которои
котором
которому
которомъ
которою
которую
которые
которыи
которым
которыми
которымъ
которых
которыхъ
которыя
кофе
кофеи
кочарян
кошек
кошелек
кошка
кошки
кошмар
коэн
коэффициент
коэффициентом
коэффициенты
кп
кпк
кпп
кпрф
кпсс
кр
кравченко
крае
краев
краевед
краеведческии
краевого
краевои
краем
кража
краже
кражи
кражу
краи
краков
кракове
кран
красавица
красавицу
красавицы
красива
красивая
красиво
красивого
красивое
красивои
красивую
красивые
красивыи
красивым
красивыми
красивых
краска
красками
краски
краскои
красная
красно
красноармеец
красноармеи
красногвардеи
красного
краснодар
краснодара
краснодаре
краснодарскии
краснодарского
краснодарском
красное
краснознаме
краснои
красном
красноярск
красноярска
красноярске
красноярскии
красноярского
красноярском
красную
красные
красныи
красным
красными
красных
красок
красота
красоте
красотои
красотою
красоту
красоты
кратер
кратера
кратеров
краткая
краткие
краткии
кратко
краткое
кратныи
кратчаи
крах
краю
края
краям
краях
кре
кредит
кредита
кредитам
кредитнои
кредитные
кредитных
кредитов
кредитования
кредиторов
кредиты
креи
кремле
кремль
кремля
крепкие
крепкии
крепким
крепко
крепкого
крепления
крепостеи
крепости
крепостного
крепостнои
крепостных
крепость
крепостью
крепче
кресла
кресле
кресло
крест
креста
крестныи
крестом
крестоносцев
крестъ
кресты
крестьян
крестьянам
крестьянами
крестьяне
крестьянин
крестьянина
крестьянская
крестьянские
крестьянскии
крестьянских
крестьянского
крестьянское
крестьянскои
крестьянскую
крестьянства
крестьянъ
крещение
крещения
кривая
кривои
кризис
кризиса
кризисом
крик
крика
криками
крики
крикнул
крикнула
крикнулъ
криком
крикъ
криминальнои
крис
криса
кристалл
кристаллы
кристи
кристиан
кристиана
кристин
кристина
кристоф
кристофер
критериев
критерии
критериям
критик
критика
критиками
критике
критики
критиков
критиковал
критикои
критику
критически
критические
критическии
критических
критическое
критическои
критическом
кричал
кричала
кричали
кричалъ
кричат
кричать
кричит
кричитъ
криштиану
кровавои
кровавые
кровавыи
кровати
кровать
крови
кровли
кровь
кровью
кроется
крои
кроме
кромѣ
крон
кронштадт
кросс
кротко
круг
круга
кругах
круге
круги
круглая
круглого
круглое
круглои
круглые
круглыи
кругов
круговои
кругом
кругомъ
кругу
кругъ
кружка
кружке
кружки
кружку
кружок
крупная
крупнее
крупнеи
крупного
крупное
крупнои
крупном
крупную
крупные
крупныи
крупным
крупными
крупных
крус
круто
крутои
крутые
крушение
крушения
крыла
крыло
крылов
крылова
крылом
крыльев
крыльца
крыльцо
крылья
крыльями
крыльях
крым
крыма
крымская
крымские
крымскии
крымских
крымского
крымское
крымскои
крыму
крысы
крыша
крыше
крышеи
крыши
крышу
крѣпко
крѣпости
крѣпость
кс
ксении
ксения
кстати
кся
кто
ку
куб
куба
кубани
кубань
кубе
кубка
кубке
кубков
кубок
кубометров
кубы
кувеи
куда
кудри
кудрин
кудрявцев
кузина
кузнец
кузнецов
кузнецова
кузов
кузова
кузьма
кузьмин
кузьмина
кузьмич
куи
кук
кука
кукла
куклы
кукол
кулак
кулаками
кулаки
кулаком
куликов
культ
культа
культур
культура
культуре
культурная
культурно
культурного
культурное
культурнои
культурном
культурные
культурныи
культурным
культурных
культурои
культуру
культуры
кун
купе
купер
купец
купецъ
купил
купила
купили
купилъ
купить
купол
купола
куполом
купца
купцов
купцы
кур
куратор
курган
кургана
курганская
курганскои
курдов
курил
курить
курица
курорт
курорта
курс
курса
курсах
курсе
курск
курска
курская
курского
курскои
курсов
курсу
курсъ
курсы
курт
курфюрст
куры
курьер
куска
куски
кусок
кусокъ
кусочек
кусочки
куст
кустарник
кустарники
кустарников
кустах
кустов
кусты
кутузов
кутузова
кухарка
кухне
кухни
кухню
кухня
куча
кучер
кучера
кучи
кучково
кучу
кушанье
кушать
кхл
къ
кызыл
кыргызскои
кэи
кэмерон
кэмпбелл
кэти
кэтрин
кѣ
кѣмъ
л
ла
лабиринт
лабораториеи
лаборатории
лабораторию
лаборатория
лавка
лавке
лавки
лавку
лавок
лавров
лаврова
лавры
лагере
лагереи
лагерем
лагерь
лагеря
лагерях
лад
лада
ладена
ладно
ладони
ладонь
ладонью
ладоши
лазарев
лазарь
лаи
лакеи
лакея
лам
лама
лами
лампа
лампу
лампы
ламы
лапы
лариса
ларри
лас
ласк
ласки
ласково
ласковыи
лат
латвии
латвия
латинскии
латинских
латинского
латинскои
латинском
латыни
латыш
латышск
лаура
лауреат
лауреата
лауреатов
лауреатом
лауреаты
лах
лацио
лая
лба
лбу
лв
лгать
лгбт
лгу
лд
лдпр
ле
лебедев
лебедева
лебедь
лев
левашова
левая
леви
левин
левого
левое
левои
левом
левому
левон
левую
левые
левыи
левым
левых
лег
легализации
легенд
легенда
легендарного
легендарныи
легенде
легенды
легион
легиона
легионеров
легкая
легкие
легкии
легким
легких
легко
легкоатлет
легкоатлетка
легковых
легкого
легкое
легкои
легком
легкостью
легкую
легла
легли
легчаи
легче
лед
леди
ледянои
лежа
лежал
лежала
лежали
лежало
лежалъ
лежат
лежать
лежит
лежитъ
леи
лекарств
лекарства
лекарственных
лекарство
лекции
лекцию
лекция
лен
лена
ленд
лениво
лениздат
ленин
ленина
ленинград
ленинграда
ленинграде
ленинградская
ленинградскии
ленинградских
ленинградского
ленинградскои
ленинградском
ленинскии
ленинского
ленинскои
ленинском
ленину
лент
лента
ленте
лентои
ленту
ленты
лень
лео
леон
леона
леонард
леонардо
леоне
леонид
леонида
леонидович
леонов
леонтьев
леонтьева
леопольд
леопольда
лер
лера
лермонтов
лермонтова
лес
леса
лесами
лесах
лесков
лесли
лесная
лесного
леснои
лесном
лесные
лесных
лесов
лесом
лесорастительных
лесостепнои
лестер
лестница
лестнице
лестницу
лестницы
лесу
лет
лета
летать
летел
летели
лететь
летие
летием
летит
летию
летия
летнего
летнее
летнеи
летнем
летнему
летние
летнии
летним
летних
летнюю
летняя
лето
летом
летописеи
летописец
летописи
летопись
летописях
лету
летят
лечение
лечении
лечения
лечить
лечь
лжи
лз
ли
либералов
либералы
либерально
либеральнои
либеральных
либертадорес
либо
либретто
ливан
ливана
ливане
ливерпуль
ливерпуля
ливии
ливия
лиг
лига
лиге
лиги
лигу
лида
лидер
лидера
лидерами
лидеров
лидером
лидерство
лидеру
лидеры
лидии
лидирует
лидия
лиза
лизавета
лизы
лии
лик
лика
ликвидации
ликвидация
ликвидирован
ликвидировано
ликвидировать
лике
лики
лили
лилии
лилия
лин
лина
лингв
лингвист
линда
линеи
линиеи
линии
линию
линия
линиями
линиях
линкольн
линн
линь
линіи
лион
липецкая
липецкои
лир
лира
лирика
лис
лиса
лисица
лист
листа
листах
листе
листов
листовки
листок
листы
листьев
листья
листьями
лит
литва
литве
литвиненко
литву
литвы
литеи
литератор
литераторов
литература
литературе
литературная
литературно
литературного
литературное
литературнои
литературном
литературную
литературные
литературныи
литературным
литературных
литературовед
литературои
литературу
литературы
литературѣ
литовскии
литовских
литовского
литовскои
литра
литров
литургии
лить
лихаче
лихорадка
лихорадки
лихтенштеи
лиц
лица
лицам
лицами
лицах
лице
лицевои
лицее
лицеи
лицензиеи
лицензии
лицензию
лицензия
лицея
лицо
лицом
лицомъ
лицу
лицъ
лицѣ
личико
личинки
личная
лично
личного
личное
личнои
личном
личному
личностеи
личности
личность
личностью
личную
личные
личныи
личным
личными
личных
лишает
лишать
лише
лишен
лишена
лишение
лишением
лишении
лишения
лишенныи
лишены
лишил
лишилась
лишили
лишились
лишился
лишить
лишиться
лишнего
лишнее
лишнии
лишним
лишних
лишь
лия
лк
лка
лке
лки
лков
лково
лковского
лл
ллои
лнр
ло
лоб
лобъ
лов
лова
ловить
лович
ловича
ловичу
ловка
ловко
ловкостью
ловли
ловна
ловои
ловскии
ловского
ловушку
ловят
логика
логике
логики
логинов
лого
логотип
лодка
лодках
лодке
лодки
лодку
лодок
лое
ложа
ложе
ложи
ложится
ложно
ложное
ложнои
ложные
ложных
ложу
ложь
ложью
лозунг
лозунги
лозунгом
лои
лок
локализации
локальных
локо
локомотив
локомотива
локомотивом
локоть
лом
ломать
ломоносов
ломоносова
лонг
лондон
лондона
лондоне
лондонскии
лондонского
лондонскои
лондонском
лондонъ
лондонѣ
лопес
лор
лора
лоран
лорд
лорда
лордов
лордъ
лоренцо
лори
лос
лось
лотереи
лоу
лоуренс
лошадеи
лошади
лошадь
лошадьми
лошадью
лошадях
лся
лтая
лтого
лтые
лтыи
лу
луг
луга
луганскои
луговои
лугу
луж
лужаи
лужков
лужкова
луи
луиджи
луиза
луизы
луис
луиса
лук
лука
лукаво
лукас
лукашенко
луки
лукои
луна
луне
лунныи
луну
луны
лурье
луции
луч
луча
лучами
лучах
лучеи
лучи
лучшаго
лучшая
лучше
лучшего
лучшее
лучшеи
лучшем
лучшему
лучшие
лучшии
лучшим
лучшими
лучших
лучшихъ
лучшую
лы
лые
лыжах
лыи
лым
лысенко
лых
ль
льва
львов
львова
львове
львович
львовна
львовского
львовскои
львом
львы
льгот
льготы
льда
льдом
льду
лье
льн
льна
льское
льшая
льшую
льюис
льюиса
лэди
лэи
лю
люба
любая
любви
любезная
любезно
любезныи
люби
любил
любила
любили
любилъ
любим
любимая
любимого
любимое
любимои
любимую
любимца
любимые
любимыи
любимым
любимых
любит
любите
любителеи
любители
любитель
любитъ
любить
любишь
люблю
любо
любов
любовался
любоваться
любовник
любовника
любовница
любовные
любовь
любовью
любого
любое
любои
любом
любому
любопытно
любопытства
любопытство
любопытством
любую
любые
любым
любых
любя
любят
любятъ
любящии
людвиг
людвига
людеи
люди
людмила
людмилы
людовик
людовика
людскои
людьми
людям
людямъ
людях
люк
люка
люксембург
люксембурга
люси
лютер
лютера
ля
лѣса
лѣстницы
лѣстницѣ
лѣсу
лѣсъ
лѣта
лѣто
лѣтомъ
лѣтъ
м
ма
мавзолеи
магазин
магазина
магазинах
магазине
магазинов
магазины
магатэ
магии
магистр
магистра
магистрали
магистраль
магнитного
магнитского
магнус
магомед
мадам
мадамъ
мадемуазель
мадлен
мадонна
мадонны
мадрид
мадриде
мадридскии
мадридского
мае
мазепа
маи
мак
мака
макар
макаренко
макарии
макаров
макарова
макгрегор
макдональд
македонии
македония
македонского
маккартни
маккеи
макс
макса
максим
максима
максимальная
максимально
максимального
максимальное
максимальнои
максимальную
максимальныи
максимилиан
максимов
максимова
максимович
максимум
мал
мала
малаи
малая
малеи
маленькаго
маленькая
маленькие
маленькии
маленьким
маленькими
маленьких
маленькихъ
маленького
маленькое
маленькои
маленьком
маленькую
маленькіи
мали
мало
малого
малое
малои
малолетних
малом
малороссии
малу
малую
малые
малыи
малым
малыми
малых
малыш
мальтии
мальты
мальчик
мальчика
мальчики
мальчиков
мальчиком
мальчику
мальчикъ
мальчишка
мальчишки
малютка
малѣи
мам
мама
мамаша
маме
маменька
мами
мамои
маму
мамы
ман
мана
манга
манги
мандат
мандата
мандатов
мане
манер
манера
манере
манеры
манипуляции
манифест
манов
мансии
мансур
мануэль
манчестер
маня
мао
мар
мара
марат
марафон
марафоне
маргарет
маргарита
маргариты
марго
маре
мари
марианна
мариеи
марии
мариинского
марин
марина
марино
марины
марио
марию
мария
марк
марка
маркграф
марке
марки
маркиз
маркиза
маркизъ
маркин
марко
марков
маркова
маркович
маркои
марком
маркс
маркса
марксизма
марку
маркус
марок
марокко
марс
марса
марсель
марселя
март
марта
марте
мартен
марти
мартин
мартина
мартинес
мартынов
маруся
марфа
марш
марша
маршал
маршала
маршрут
маршрута
маршрутов
маршруту
маршруты
марьи
марья
маріи
марія
маска
масках
маски
маскои
маску
масла
масло
маслов
маслом
масок
масс
масса
массами
массачусетс
массе
массив
массива
массовая
массово
массового
массовое
массовои
массовые
массовыи
массовым
массовых
массои
массу
массы
мастер
мастера
мастеров
мастером
мастерская
мастерски
мастерские
мастерских
мастерскои
мастерскую
мастерства
мастерство
масштаб
масштаба
масштабах
масштабе
масштабные
мат
матвеев
матвеева
матвеевич
матвеи
матвея
матвиенко
матем
математик
математика
математике
математики
математику
математическая
математические
математическии
математических
математического
математическои
матереи
матери
материал
материала
материалам
материалами
материалах
материале
материалов
материалом
материалы
материально
материального
материальное
материальнои
материальные
материальных
материи
материка
материнскои
материя
матерь
матерью
матильда
матки
матрена
матрица
матрицы
матрос
матроса
матросов
матросы
матушка
матушки
матч
матча
матчах
матче
матчеи
матчем
матчи
матчу
мать
мафии
мах
махараджа
махачкала
махмуд
махнул
мачты
маша
машин
машина
машинально
машинами
машинах
машине
машинист
машиниста
машинои
машиностроение
машиностроения
машину
машины
маэстро
мая
маяк
маяковскии
маяковского
мб
мвд
мвт
мвф
мг
мгимо
мгновение
мгновении
мгновенно
мгновенье
мгновеніе
мгу
мгц
ме
мебели
мебель
мед
медалеи
медали
медаль
медалью
медалями
медведев
медведева
медведеву
медведевым
медведеи
медведи
медведь
медведя
меди
медиа
медиафаи
медик
медики
медико
медиков
медицина
медицине
медицинская
медицинские
медицинскии
медицинским
медицинских
медицинского
медицинское
медицинскои
медицинском
медицинскую
медицину
медицины
медичи
медленнее
медленно
медные
медныи
медных
медресе
медь
меж
между
международная
международного
международное
международнои
международном
международному
международную
международные
международныи
международным
международными
международных
мезорегиона
меи
мекленбург
мексика
мексиканскии
мексиканскои
мексике
мексики
мелкая
мелкие
мелкии
мелким
мелкими
мелких
мелко
мелкого
мелкои
мелодии
мелодия
мелочи
мель
мельбурне
мелькали
мелькнула
мелькнуло
мельник
мельников
мельникова
мельница
мельницу
мельницы
мельчаи
меморандум
мемориал
мемориала
мемориальная
мемориальныи
мемуарах
мемуаров
мемуары
мен
менделеева
мене
менеджер
менеджера
менеджеров
менеджером
менеджмент
менеджмента
менее
меншиков
меньше
меньшего
меньшее
меньшеи
меньшим
меньшинств
меньшинства
меньшинство
меньших
меньшую
меню
меня
меняет
меняется
менять
меняться
меняются
менѣе
мер
мера
мерам
мерами
мерах
мере
мережковскии
мери
меркель
меркурии
мерои
мероприятие
мероприятии
мероприятия
мероприятиях
мертвая
мертвого
мертвои
мертвые
мертвыи
мертвым
мертвых
меру
меры
месси
мест
места
местам
местами
местах
месте
местечка
местечке
местечко
мести
местная
местного
местное
местнои
местном
местному
местностеи
местности
местность
местностях
местную
местные
местныи
местным
местными
местных
место
местоименное
местом
местонахождение
местоположение
месторождение
месторождении
месторождения
месту
месть
месяц
месяца
месяцам
месяце
месяцев
месяцы
мет
метал
металл
металла
металлические
металлическии
металлических
металлическои
металлов
металлург
металлургии
металлургического
металлы
мете
метель
метод
метода
методами
методика
методики
методов
методологии
методом
методу
методы
метр
метра
метрах
метро
метров
метрополитен
метрополитена
мется
мех
меха
механизм
механизма
механизмов
механизмы
механик
механика
механике
механики
механическии
механических
механического
механическои
мехико
меч
меча
мечами
мечети
мечеть
мечи
мечом
мечта
мечтает
мечтал
мечтала
мечтать
мечтои
мечту
мечты
мечъ
мешает
мешал
мешали
мешало
мешать
мешают
мешки
мешков
мешок
мешь
ми
миг
мигель
мигрантов
миграции
мигъ
мид
мида
мик
микеланджело
микрораи
микрорегион
мил
мила
милан
милана
милане
милая
мили
милицеи
милиции
милиционер
милиционеров
милиционеры
милицию
милиция
милл
миллер
миллера
милли
миллиард
миллиарда
миллиардер
миллиардов
миллион
миллиона
миллионов
миллионы
мило
милое
милои
милосердие
милосердия
милости
милостиво
милостивыи
милостыню
милость
милые
милыи
миль
милях
мимо
мимоходом
мин
мина
минеи
минер
минерал
минералов
минеральные
минеральных
минздрава
мини
минимальная
минимальнои
минимальныи
минимальным
минимум
минимума
министерств
министерства
министерстве
министерство
министерством
министерству
министр
министра
министрами
министров
министром
министру
министры
миннесота
минобороны
миноме
миноносец
минприроды
минск
минска
минске
минскии
минского
минскои
минувшего
минувшее
минувшеи
минувшем
минувшие
минувшии
минувшую
минус
минут
минута
минуте
минутку
минутои
минуту
минутъ
минуты
минфин
минфина
мины
минэкономразвития
минюст
минюста
мир
мира
мире
мирза
мирно
мирного
мирное
мирнои
мирному
мирные
мирныи
мирным
мирных
миров
мировая
мирового
мировое
мировоззрение
мировоззрения
мировои
мировом
мировую
мировые
мировым
мировых
миром
миронов
миронова
миротворцев
миру
миръ
миры
мисс
миссии
миссис
миссисипи
миссию
миссия
миссури
миссъ
мистер
мистера
мистеру
мистеръ
мистриссъ
мистрисъ
мите
митинг
митинга
митинге
митинги
митингов
митрополии
митрополит
митрополита
митрополитом
митрополиту
митчелл
митя
миф
мифа
мифологии
мифология
мифы
мих
михаи
михаил
михаила
михаилом
михаилу
михаилъ
михаэль
мичиган
миша
мишель
мишка
мк
мка
мкад
мках
мки
мкм
мкс
мл
младенец
младенца
младенцев
младшая
младше
младшего
младшеи
младшему
младшие
младшии
младшим
младших
млекопитающие
млекопитающих
млн
млрд
мм
мма
мн
мная
мне
мнение
мнением
мнении
мнению
мнения
мнениями
мно
многие
многим
многими
многимъ
многих
многихъ
много
многоборье
многого
многое
многоквартирных
многократно
многократныи
многолетнии
многолетнюю
многолетняя
многом
многоснежнои
многочисленные
многочисленным
многочисленными
многочисленных
многіе
многія
множества
множестве
множественного
множество
множеством
мнои
мною
мные
мныи
мных
мнѣ
мнѣніе
мнѣнію
мнѣнія
мо
мобилизации
мобильного
мобильнои
мобильные
мобильныи
мобильных
мов
мог
могил
могила
могиле
могилои
могилу
могилы
могла
могли
могло
могу
могут
могутъ
могучии
могущества
могущество
могъ
мод
мода
моде
моделеи
модели
моделирование
моделирования
модель
моделью
модерн
модернизации
модернизацию
модернизация
модификации
модификация
модулеи
модуль
модуля
моды
мое
моего
моеи
моем
моему
моемъ
моею
можаи
можем
можемъ
может
можете
можетъ
можешь
можно
мозг
мозга
мозговои
мозгу
мои
моим
моими
моимъ
моисеев
моисеи
моисея
моих
моихъ
мок
мокрыи
мол
молва
молдавии
молдавия
молдавскии
молдавскои
молдова
молдовы
молебен
молекул
молекулы
молилась
молился
молитв
молитва
молитве
молитву
молитвы
молится
молиться
моллюсков
молнии
молния
молод
молода
молодаго
молодая
молоде
молодежи
молодежного
молодежнои
молодежь
молодец
молодого
молодое
молодои
молодом
молодому
молодости
молодость
молодую
молодца
молодцы
молоды
молодые
молодым
молодыми
молодымъ
молодых
молодыхъ
моложе
молока
молоко
молоком
молот
молочнои
молча
молчал
молчала
молчали
молчалъ
молчание
молчании
молчания
молчаніе
молчать
молчи
молчит
молъ
мольера
молю
мом
момент
момента
моментально
моментов
моментом
моменту
моментъ
моменты
мон
мона
монако
монарх
монарха
монархии
монастыре
монастыреи
монастыри
монастырских
монастырскои
монастырь
монастырю
монастыря
монастырях
монах
монаха
монахи
монахини
монахиня
монахов
монашество
монголии
монголия
монголов
монголы
монгольского
монгольскои
монд
монет
монета
монету
монеты
мониторинг
мониторинга
монографии
монография
монополии
монреале
монреаль
монро
монтаж
монте
монумент
монумента
мор
морали
мораль
морально
морального
моральныи
морган
мордовии
мордовия
море
мореи
морем
морис
мориц
моро
мороз
мороза
морозов
морозова
морозы
моррис
морская
морские
морским
морскими
морских
морского
морское
морскои
морском
морскому
морскую
морю
моря
моряк
моряка
моряки
моряков
морях
морѣ
мосгорсуд
моск
москва
москве
москвич
москвичеи
москвичи
москвои
москву
москвы
москвѣ
московская
московские
московскии
московским
московских
московского
московское
московскои
московском
московскому
московскую
мособлдумы
мост
моста
мостов
мостовои
мостом
мосту
мосты
мотив
мотивам
мотивов
мотивы
мотор
мохаммед
моцарта
мочи
мошенники
мошенничества
мошенничестве
мошенничество
мощеи
мощи
мощного
мощнои
мощностеи
мощности
мощность
мощностью
мощные
мощныи
мощным
мощных
мощь
мою
моя
мп
мрак
мрака
мраке
мрамор
мрамора
мрачно
мрачное
мрачнои
мрачные
мрачныи
мрачным
мс
мса
мск
мсом
мстислав
мстить
мтс
му
мудрено
мудрого
мудрости
мудрость
мудрыи
муж
мужа
мужеи
мужем
мужемъ
мужества
мужественно
мужество
мужик
мужика
мужики
мужиков
мужикъ
мужская
мужские
мужских
мужского
мужское
мужскои
мужском
мужскую
мужу
мужчин
мужчина
мужчинам
мужчинами
мужчине
мужчинои
мужчину
мужчинъ
мужчины
мужъ
мужья
муз
муза
музее
музеев
музеем
музеи
музею
музея
музеях
музы
музыка
музыкальная
музыкально
музыкального
музыкальное
музыкальнои
музыкальном
музыкальную
музыкальные
музыкальныи
музыкальным
музыкальных
музыкант
музыканта
музыкантами
музыкантов
музыкантом
музыканты
музыке
музыки
музыкои
музыку
мук
мука
муки
муку
мультимедии
мультсериала
мультфильм
мультфильма
мультфильмов
мун
мундир
муниципалитет
муниципалитета
муниципалитетах
муниципалитете
муниципалитетов
муниципального
муниципальное
муниципальнои
муниципальном
муниципальные
муниципальныи
муниципальным
муниципальных
мур
мура
муравеи
муравье
муравьев
муравьева
муравьи
мурад
мурманск
мурманскои
муса
мусор
мусора
мустафа
мусульман
мусульманами
мусульмане
мусульманских
мусульманского
мусульманскои
мут
мутации
мутко
мух
муха
мухаммад
мухаммада
мухаммед
мухаммеда
мухи
мученик
мученика
мучеников
мучения
мучительно
мучить
мф
мфа
мчс
мъ
мы
мыс
мыса
мыслеи
мысленно
мысли
мыслитель
мыслить
мысль
мыслью
мыслями
мыслях
мышеи
мыши
мышление
мышления
мышц
мышцы
мышь
мэи
мэн
мэр
мэра
мэри
мэрии
мэрия
мэром
мэтт
мэттью
мэтью
мю
мюзикл
мюзикла
мюллер
мюнхен
мюнхене
мюрреи
мя
мягкая
мягкие
мягкии
мягким
мягкими
мягких
мягко
мягкое
мягкои
мяса
мясо
мясом
мятеж
мятежа
мятежников
мяч
мяча
мячеи
мячи
мячом
мінск
міра
міру
міръ
мірѣ
мѣры
мѣрѣ
мѣста
мѣстами
мѣстахъ
мѣстности
мѣсто
мѣсту
мѣстъ
мѣстѣ
мѣсяца
мѣсяцевъ
мѣсяцъ
н
на
набеги
набережная
набережнои
набирает
набирать
наблюдает
наблюдается
наблюдал
наблюдали
наблюдалось
наблюдателеи
наблюдатели
наблюдатель
наблюдательного
наблюдателя
наблюдать
наблюдаются
наблюдая
наблюдение
наблюдением
наблюдении
наблюдения
набор
набора
набором
набрав
набравшии
набрал
набрала
набрали
набрать
навального
навальныи
наведения
навеки
наверно
наверное
наверняка
наверх
наверху
навести
навестить
навигации
наводнения
навсегда
навстречу
навстрѣчу
навыки
навыков
навѣрно
навѣрное
нагаи
наглядно
нагнулся
наго
нагорно
нагорного
нагорном
нагорныи
наград
награда
наградами
наградил
награднои
наградои
награду
награды
награжде
награжден
награждена
награждение
награждении
награждения
награждены
нагревании
нагрудныи
нагрузка
нагрузки
нагрузку
над
наде
надеемся
надеется
надежд
надежда
надежде
надеждои
надежду
надежды
надел
надела
наделении
надеть
надеюсь
надеются
надеялись
надеялся
надеясь
надеяться
надзор
надзора
надзором
надзору
надлежало
надлежащим
надлежит
надо
надобно
надобности
надоело
надолго
надписеи
надписи
надпись
надписью
надписями
надстрои
надъ
надя
надѣюсь
надѣяться
нае
наедине
наз
назад
назадъ
назаров
назв
назвав
назвал
назвала
назвали
назвалъ
назван
названа
название
названием
названии
названию
названия
названиями
названная
названного
названнои
названныи
названных
названо
названы
названіе
назвать
наземных
назн
назначает
назначается
назначать
назначаются
назначен
назначена
назначение
назначением
назначении
назначению
назначения
назначенного
назначенныи
назначено
назначенъ
назначены
назначил
назначила
назначили
назначить
назои
назыв
называем
называемая
называемого
называемое
называемои
называемом
называемую
называемые
называемыи
называемым
называемых
называет
называется
называетъ
называл
называла
называлась
называли
назывались
называлось
назывался
называть
называться
называют
называются
называютъ
называя
наи
наиболее
наибольшая
наибольшего
наибольшее
наибольшеи
наибольшии
наибольшую
наиболѣе
наивно
наизусть
наименее
наименование
наименованием
наименовании
наименования
наказан
наказание
наказании
наказанию
наказания
наказать
наказывать
накануне
наканунѣ
наклонился
наклонности
наконец
наконецъ
накопления
наладить
налбандян
нале
налево
налицо
наличие
наличием
наличии
наличия
наличного
наличными
налог
налога
налоги
налогов
налоговая
налогового
налоговои
налоговые
налоговыи
налоговых
налогообложения
наложить
нам
наме
намек
намеки
намеревался
намерен
намерена
намерение
намерением
намерении
намерения
намерениях
намеренно
намерено
намерены
наместник
наместника
наместником
наместничества
нами
намитокова
намного
намъ
намѣренъ
намѣреніе
намѣренія
нан
нана
нане
нанес
нанесе
нанесен
нанесения
нанесла
нанесли
нанести
наносит
наносить
нанси
нанял
нанять
наоборот
наоборотъ
нападавших
нападает
нападать
нападают
нападающего
нападающии
нападение
нападении
нападению
нападения
нападки
напал
напала
напали
напасть
наперед
напечатал
напечатан
напечатана
напечатано
напечатаны
напечатать
написав
написал
написала
написали
написалъ
написан
написана
написание
написании
написания
написанная
написанное
написаннои
написанные
написанныи
написанных
написано
написаны
написать
напитки
напитков
напиток
напишите
напишу
наподобие
наполеон
наполеона
наполеоном
наполеонъ
наполи
наполовину
напоминает
напоминал
напоминала
напоминали
напоминать
напоминают
напомнил
напомнила
напомнили
напомним
напомнить
напр
направил
направила
направилась
направили
направились
направился
направить
направлен
направлена
направление
направлением
направлении
направлению
направления
направлениям
направлениях
направленнои
направленности
направленные
направленныи
направленных
направлено
направлены
направленіе
направленіи
направленію
направляет
направляется
направлялись
направлять
направляются
направляясь
направо
напрасно
например
напримѣръ
напротив
напротивъ
напряже
напряжение
напряжением
напряжении
напряжения
напряженно
напряженности
напряженность
напрямую
нар
наравне
наречие
наречии
наречия
наркотиками
наркотики
наркотиков
наркотических
наро
народ
народа
народам
народами
народе
народнаго
народная
народно
народного
народное
народнои
народном
народному
народностеи
народности
народность
народную
народные
народныи
народным
народных
народов
народовъ
народом
народомъ
народу
народъ
народы
нарочно
наружнои
наружности
наружность
наружу
нарушает
нарушать
нарушают
нарушение
нарушением
нарушении
нарушения
нарушениями
нарушениях
нарушил
нарушили
нарушителеи
нарушить
нарышкин
наряд
наряду
наряды
нас
наса
насекомые
насекомыми
насекомых
населе
население
населением
населении
населению
населения
населенного
населенные
населенныи
населенным
населенных
населеніе
населенія
насилие
насилием
насилии
насилию
насилия
насилу
насильно
насквозь
насколько
наскоро
насладиться
наслаждаться
наслаждение
наслаждением
наслаждения
наследие
наследия
наследник
наследника
наследники
наследников
наследником
наследовал
наследования
наследства
наследство
наследству
насмерть
насмешки
насмешливо
нассау
наст
наставления
наставник
наставника
наставником
настаивает
настаивал
настаивали
настаивать
настаивают
настал
настала
настало
настанет
настасья
настои
настолько
настоянию
настоятелем
настоятель
настоятельно
настоятеля
настоящаго
настоящая
настоящего
настоящее
настоящеи
настоящем
настоящему
настоящемъ
настоящие
настоящии
настоящим
настоящими
настоящих
настоящую
настоящіи
настроение
настроении
настроения
настроеніе
настрои
наступает
наступательнои
наступательных
наступил
наступила
наступило
наступит
наступление
наступлением
наступлении
наступления
настя
насчет
насчетъ
насчитывает
насчитывается
насчитывала
насчитывалось
насъ
натали
наталия
натальи
наталья
натан
наташа
наткнулся
нато
натрия
натура
натуре
натуры
наук
наука
наукам
науках
науке
науки
наукова
наукои
науку
наукъ
наумов
науч
научил
научились
научился
научить
научиться
научная
научно
научного
научное
научнои
научном
научную
научные
научныи
научным
научными
научных
нах
находившегося
находившеи
находившиеся
находившии
находившихся
находил
находила
находилась
находили
находились
находилось
находился
находилъ
находим
находимся
находит
находится
находитъ
находить
находиться
находка
находки
находя
находясь
находят
находятся
находящаяся
находящегося
находящееся
находящеи
находящиеся
находящии
находящимся
находящихся
нахождение
нахождения
нахожу
нахожусь
нации
национал
националистов
национальная
национально
национального
национальное
национальнои
национальном
национальному
национальностеи
национальности
национальность
национальную
национальные
национальныи
национальным
национальными
национальных
нацистов
нацистскои
нация
нач
начав
начавшеи
начавшии
начал
начала
началась
началах
начале
начали
начались
начало
началом
началось
начался
началу
началъ
начальная
начальник
начальника
начальники
начальников
начальником
начальнику
начальникъ
начального
начальное
начальнои
начальную
начальные
начальныи
начальных
начальства
начальство
начальством
начальству
началѣ
начат
начата
начато
начаты
начать
начаться
начинает
начинается
начинаетъ
начинаи
начинал
начинала
начиналась
начинали
начинало
начиналось
начинался
начиналъ
начинать
начинаю
начинают
начинаются
начинающии
начиная
начне
начнем
начнет
начнется
начну
начнут
начнутся
наш
наша
наше
нашего
нашеи
нашел
нашелся
нашелъ
нашем
нашему
нашемъ
нашествия
наши
нашим
нашими
нашимъ
наших
нашихъ
нашла
нашли
нашлись
нашло
нашлось
нашу
нашъ
ная
нба
нберг
нг
нджерс
ндр
ндс
не
неавторитетныи
неактивными
неактивных
неаполе
неаполь
неаполя
неба
небе
небес
небеса
небесах
небесная
небесного
небесное
небеснои
небесные
небесныи
небесных
небо
небольшая
небольшие
небольшим
небольшими
небольших
небольшого
небольшое
небольшои
небольшом
небольшую
небом
небось
небрежно
небу
небѣ
нева
неважно
невежество
неверно
невероятно
невеста
невесте
невестои
невесту
невесты
невзирая
невинности
невинность
невинных
невозвратное
невозможна
невозможно
невозможности
невозможность
невозможным
неволе
невольно
невскии
невского
невскои
невском
невы
невыезде
невыносимо
негативно
негативное
негативные
негативных
негде
него
негодование
негодованием
негодования
негодяи
негров
негры
недавнего
недавнее
недавних
недавно
недалеко
недаром
недвижимого
недвижимости
недвижимость
недеи
неделе
недели
недель
неделю
неделя
недоверие
недоверия
недоволен
недовольны
недовольныи
недовольства
недовольство
недолго
недоставало
недостает
недостатка
недостатки
недостатков
недостатком
недостаток
недостатокъ
недостаточно
недостаточности
недостаточность
недостои
недоступная
недоумение
недоумении
недр
недра
недрах
недурно
недѣли
недѣль
недѣлю
нее
нежелание
нежели
нежная
нежно
нежнои
нежности
нежность
нежностью
нежные
нежныи
нежным
независимая
независимо
независимого
независимое
независимои
независимости
независимость
независимые
независимыи
независимым
независимыми
независимых
незадолго
незаконно
незаконного
незаконное
незаконнои
незаконном
незаконные
незаконныи
незаконным
незаконных
незамедлительно
незаметно
незамѣтно
незачем
незнакомец
незнакомца
незначительно
незначительное
незначительные
неи
неизбежно
неизвестен
неизвестна
неизвестно
неизвестного
неизвестнои
неизвестны
неизвестные
неизвестныи
неизвестным
неизвестными
неизвестных
неизвѣстно
неизменно
неизменным
неизменяемое
нек
некая
некии
некогда
некое
некоего
некому
некоторая
некоторого
некоторое
некоторои
некотором
некоторую
некоторые
некоторыи
некоторым
некоторыми
некоторых
некрасов
некрасова
некролог
некрополь
некто
некуда
нелегальных
нелегко
нелепо
нелинеи
нелли
неловко
нельзя
нельсон
нем
немало
немедленно
немедленного
немец
немецкая
немецки
немецкие
немецкии
немецким
немецкими
немецких
немецко
немецкого
немецкое
немецкои
немецком
немецкому
немецкую
неминуемо
немногие
немногим
немногих
немного
немножко
немои
нему
немца
немцам
немцами
немцев
немцов
немцова
немцы
немъ
немыслимо
нен
ненавидел
ненавидит
ненавижу
ненависти
ненависть
ненавистью
ненадолго
ненецкии
ненецкого
необходим
необходима
необходимая
необходимо
необходимого
необходимое
необходимои
необходимости
необходимость
необходимостью
необходимую
необходимы
необходимые
необходимыи
необходимым
необходимыми
необходимых
необыкновенно
необыкновенное
необыкновеннои
необычаи
необычныи
неоднократно
неодушевле
неожиданно
неожиданное
неожиданнои
неожиданностью
неожиданныи
неожиданным
неопр
неопределе
неосторожности
неохотно
непереходныи
неплохо
неподале
неподалеку
неподвижно
непонятно
непосредственно
непосредственного
непосредственное
непосредственнои
непосредственном
непосредственным
непр
неправда
неправильно
непременно
непремѣнно
непрерывно
непрестанно
неприкосновенности
неприкосновенность
неприлично
непристои
неприятелем
неприятель
неприятеля
неприятно
неприятное
неприятностеи
неприятности
неприятныи
непросто
непріятеля
непріятно
нер
нера
неравенство
неразрывно
нервно
нервнои
нервов
нервы
нередко
неров
нером
неры
нерѣдко
нес
несе
несет
несется
нескольким
несколькими
нескольких
несколько
нескольку
несли
неслись
несмотря
несовершенного
несовершеннолетних
несовершенныи
несомненно
несомнѣнно
неспособность
несправедливо
несправедливости
несправедливость
несравненно
нести
нестор
несут
несчастие
несчастии
несчастная
несчастного
несчастнои
несчастную
несчастные
несчастныи
несчастным
несчастных
несчастье
несчастью
несчастья
несчастіе
неся
нет
нетаньяху
нетерпеливо
нетерпением
нетрудно
нету
неудач
неудача
неудачеи
неудачи
неудачно
неудачного
неудачнои
неудачных
неудачу
неудивительно
неудобно
неудобства
неудовольствие
неужели
неужто
неуклонно
неустановленнои
неустои
нефтепродуктов
нефти
нефть
нефтяного
нефтянои
нефтяные
нефтяных
нехватки
нехорошо
нехотя
нечаянно
нече
нечего
нечем
нечто
нешто
нею
нея
неясно
ни
нибудь
нива
нигде
нигдѣ
нигерии
нид
нидерл
нидерландах
нидерландов
нидерландскии
нидерланды
ние
ниже
нижегородская
нижегородскии
нижегородского
нижегородскои
нижне
нижнего
нижнее
нижнеи
нижнем
нижние
нижнии
нижних
нижнюю
нижняя
низкая
низкие
низкии
низким
низкими
низких
низко
низкого
низкое
низкои
низкую
низменности
низших
нии
ник
ника
никак
никакая
никакие
никаким
никакими
никаких
никакихъ
никакого
никакое
никакои
никакъ
никарагуа
никем
ники
никита
никитин
никитина
никитич
никиты
никифор
нико
ников
никогда
никого
никола
николаев
николаева
николаевич
николаевича
николаевичу
николаевичъ
николаевна
николаевны
николаевская
николаевскии
николаевского
николаевскои
николаем
николаенко
николаи
николас
николаю
николая
николо
николь
никольскии
никольского
никольское
николя
ником
никому
никон
никто
никуда
никъ
нил
нила
ним
нимало
ними
нимъ
нин
нина
нины
нисколько
нити
нить
них
нихъ
ниц
ница
ницше
ничего
ничеи
ничем
ничему
ничто
ничуть
ничьеи
ничьи
ничью
ничья
ничѣмъ
нищеты
нищии
нищих
ния
нк
нка
нквд
нки
нко
нком
нкр
нкря
нку
нм
нн
нная
нно
нного
нное
ннои
нном
нному
нности
нность
нностью
нную
нные
нныи
нным
нными
нных
но
нобелевскои
нов
нова
новаго
новак
новая
новгород
новгорода
новгороде
новгородская
новгородскии
новгородского
новгородскои
новеи
новелла
новеллы
нови
новиков
новикова
новинки
новицкого
нович
новичков
новичок
ново
нового
новодевичьем
новое
новои
новом
новому
новомъ
новороссии
новосе
новосибирск
новосибирска
новосибирская
новосибирске
новосибирского
новосибирскои
новостеи
новости
новость
новую
новые
новыи
новым
новыми
новымъ
новых
новыхъ
новыя
новѣи
ног
нога
ногаи
ногам
ногами
ногах
ногахъ
ноге
ноги
ного
ногои
ногу
ногъ
ное
нож
ножа
ножи
ножки
ножом
ноздри
нои
нок
нокаутировал
нокаутом
ноль
ном
номер
номера
номерами
номере
номеров
номером
номиналом
номинации
номинация
номинациях
номинирован
номинирована
ному
номъ
нон
нор
нора
норв
норвегии
норвегия
норвежскии
норвежского
норвежскои
норд
норм
норма
нормализации
нормально
нормального
нормальное
нормальнои
нормальныи
нормальных
нормам
нормами
норман
нормандии
нормативно
нормативные
нормативныи
нормативными
нормативных
норме
норму
нормы
норт
нос
носа
носил
носила
носили
носило
носит
носителеи
носители
носитель
носителя
носить
носовои
носом
ностеи
ности
ность
ностью
носу
носъ
носят
ноты
ночам
ночевать
ночеи
ночи
ночная
ночного
ночное
ночнои
ночном
ночные
ночных
ночь
ночью
ношение
ношения
ношу
ною
ноябре
ноябрь
ноября
нп
нпо
нрав
нравилась
нравились
нравилось
нравился
нравится
нравиться
нравов
нравственная
нравственно
нравственного
нравственное
нравственнои
нравственности
нравственность
нравственные
нравственныи
нравственных
нравы
нравятся
нс
нскии
нська
нськоі
нт
нтв
ну
нуар
нужд
нужда
нуждается
нуждался
нуждаются
нужду
нужды
нужен
нуженъ
нужна
нужно
нужное
нужны
нужные
нужныи
нужным
нужнымъ
нулевои
нулю
нуля
нур
нурмагомедов
нурмагомедова
ную
нхл
нц
нштеи
нъ
ны
ные
ныи
ным
ными
нымъ
ныне
нынешнего
нынешнее
нынешнеи
нынешнем
нынешние
нынешнии
нынешним
нынешних
нынешняя
нынче
нынѣ
ных
ныхъ
ныя
нь
нье
нью
ньюкасл
ньютон
ньютона
нэнси
ню
ня
няня
няя
ні
ніе
нія
нѣ
нѣжно
нѣкогда
нѣкоторое
нѣкоторые
нѣкоторымъ
нѣкоторыхъ
нѣкоторыя
нѣсколькими
нѣсколькихъ
нѣсколько
нѣтъ
нѣчто
о
оао
оаэ
об
оба
обама
обамы
обвине
обвинение
обвинении
обвинению
обвинения
обвинив
обвинил
обвинила
обвинили
обвинить
обвиняемого
обвиняемые
обвиняемыи
обвиняемых
обвиняет
обвиняется
обвиняли
обвинять
обвиняют
обе
обед
обеда
обедать
обедом
обеду
обезьян
обезьяна
обезьяны
обеим
обеими
обеих
обелиск
обер
обернувшись
обернулась
обернулся
обеспечена
обеспечение
обеспечением
обеспечении
обеспечению
обеспечения
обеспечивает
обеспечивается
обеспечивать
обеспечивают
обеспечил
обеспечили
обеспечит
обеспечить
обеспокоенность
обет
обещает
обещал
обещала
обещали
обещание
обещании
обещания
обещают
обещая
обжаловать
обзор
обзора
обзоре
оби
обидно
обиду
обиды
обилие
обильно
обитает
обитания
обитателеи
обитатели
обитают
обители
обитель
обкома
обл
обладает
обладал
обладала
обладали
обладателеи
обладателем
обладатель
обладать
обладают
обладающии
обладая
облака
облаками
облако
облаков
областеи
области
областная
областного
областнои
областном
областных
область
областью
областям
областях
облегчение
облегчения
облегчить
облигации
облик
облика
облисполкома
обложка
обложке
обложки
обломки
обломков
обман
обмана
обманом
обмануть
обманывать
обмен
обмена
обменялись
обморок
обнаже
обнаружен
обнаружена
обнаружение
обнаружения
обнаружено
обнаружены
обнаруживает
обнаруживается
обнаруживают
обнаружил
обнаружила
обнаружили
обнаружилось
обнаружить
обнимает
обновле
обновление
обновлении
обновления
обнял
обняла
обнять
обо
обогащения
обоего
обоз
обозначает
обозначается
обозначен
обозначена
обозначение
обозначением
обозначения
обозначены
обозреватель
обозрение
обои
обоим
обоими
обоих
обоихъ
оболочка
оболочки
оборона
обороне
оборонительные
оборонительных
обороннои
оборону
обороны
оборот
оборота
обороте
оборотов
оборотом
обороты
оборудование
оборудованием
оборудования
оборудованы
обоснование
обоснования
обошел
обошлось
обр
обработано
обработка
обработке
обработки
обработку
обрадовался
образ
образа
образами
образе
образец
образов
образовалась
образовали
образовались
образовалось
образовался
образован
образована
образование
образованием
образовании
образованию
образования
образованиям
образованная
образованного
образованнои
образованные
образованныи
образованных
образовано
образованы
образованіе
образованія
образовательного
образовательнои
образовательные
образовательныи
образовательных
образовать
образом
образомъ
образу
образует
образуется
образуют
образуются
образуя
образца
образцов
образцовое
образцом
образцу
образцы
образъ
образы
обратившись
обратил
обратила
обратилась
обратили
обратились
обратилось
обратился
обратилъ
обратится
обратить
обратиться
обратная
обратно
обратного
обратное
обратнои
обратном
обратныи
обращаем
обращает
обращается
обращал
обращалась
обращали
обращались
обращался
обращать
обращаться
обращают
обращаются
обращая
обращаясь
обраще
обращение
обращением
обращении
обращению
обращения
обращено
обращены
обретения
обрушился
обряд
обряда
обрядов
обряды
обсе
обсерватории
обсерватория
обследование
обследования
обслуживает
обслуживание
обслуживания
обстановка
обстановке
обстановки
обстановкои
обстановку
обстоятельств
обстоятельства
обстоятельствам
обстоятельствами
обстоятельствах
обстоятельствахъ
обстоятельство
обстрел
обстрела
обстреляли
обсудил
обсудили
обсудить
обсуждается
обсуждали
обсуждались
обсуждался
обсуждать
обсуждаться
обсуждают
обсуждение
обсуждении
обсуждению
обсуждения
обуви
обувь
обусловлено
обустрои
обучался
обучение
обучении
обучения
обход
обходится
обходиться
обширная
обширное
обширнои
обширную
обширные
обширныи
обширных
общ
общаго
общался
общаться
общая
общевои
общего
общее
общежитие
общежитии
общежития
общеи
общем
общему
общемъ
общение
общении
общения
общеобразовательная
общероссии
обществ
общества
обществах
обществе
общественнаго
общественная
общественно
общественного
общественное
общественнои
общественном
общественному
общественности
общественность
общественностью
общественную
общественные
общественныи
общественным
общественными
общественных
общественныхъ
общество
обществом
обществу
обществѣ
общие
общии
общим
общими
общимъ
общин
община
общине
общину
общины
общих
общихъ
общности
общую
общіи
объ
объе
объедине
объединение
объединением
объединении
объединения
объединеннои
объединенных
объединены
объединились
объединить
объединяет
объект
объекта
объектам
объектами
объектах
объекте
объективно
объектов
объектом
объекты
объем
объема
объеме
объемов
объемом
объему
объемы
объявив
объявил
объявила
объявили
объявило
объявилъ
объявить
объявлен
объявлена
объявление
объявлении
объявления
объявлено
объявлены
объявляет
объяснение
объяснении
объяснения
объясненіе
объясненія
объяснил
объяснила
объяснили
объяснилъ
объяснить
объясниться
объясняет
объясняется
объяснял
объяснять
объясняют
объясняя
объятия
объятиях
обывателеи
обыграв
обыграл
обыграла
обыграли
обыграть
обыкновению
обыкновенная
обыкновенно
обыкновенного
обыкновенное
обыкновеннои
обыкновенные
обыкновенныи
обыкновенным
обыкновенных
обыкновенію
обыск
обыска
обыски
обысков
обычаев
обычаи
обычаю
обычная
обычно
обычного
обычное
обычнои
обычном
обычную
обычные
обычныи
обычным
обычными
обычных
обь
обязал
обязан
обязана
обязанностеи
обязанности
обязанность
обязанностью
обязано
обязанъ
обязаны
обязательно
обязательного
обязательное
обязательнои
обязательном
обязательные
обязательным
обязательных
обязательств
обязательства
обязательство
обѣ
обѣда
обѣдать
обѣдъ
обѣихъ
обѣщалъ
ов
ова
овд
овертаи
овец
овечкин
ович
овладел
овладела
овладели
овладение
овладеть
овощеи
овощи
овраг
овса
овцы
овчинников
ога
огаи
оги
оглы
оглядываясь
оглянулся
огне
огнеи
огнем
огнемъ
огненныи
огнестрельного
огнестрельное
огни
огню
огня
огнями
ого
огоне
огонек
огонь
огоньки
огпу
ограды
ограничен
ограничена
ограничение
ограничении
ограничения
ограниченное
ограниченнои
ограниченныи
ограниченным
ограниченными
ограничено
ограничены
ограничивает
ограничивается
ограничить
ограничиться
огромная
огромного
огромное
огромнои
огромном
огромную
огромные
огромныи
огромным
огромными
огромных
од
ода
одеваться
одежда
одежде
одеждои
одежду
одежды
одержав
одержал
одержала
одержали
одержать
одесса
одессе
одесскии
одесского
одесскои
одессу
одессы
одет
одета
одеты
одетыи
одеяло
один
одинаково
одинаковое
одинаковои
одинаковы
одинаковые
одинаковым
одинаковых
одиннадцати
одиннадцать
одинокии
одиноких
одиноко
одинокои
одиночества
одиночестве
одиночество
одиночку
одиночном
одиночные
одиночныи
одиночных
одинцово
одинъ
одиссеи
одиссея
одкб
одна
однажды
однако
однакожъ
одни
одним
одними
однимъ
одних
однихъ
одно
одновременно
одного
однозначно
однои
одноиме
одноименнои
одном
одному
одномъ
одною
одну
однѣ
одобрен
одобрение
одобрения
одобрил
одобрили
одолел
одушевле
оды
ое
ожерелье
ожесточе
ожидаемые
ожидает
ожидается
ожидал
ожидала
ожидали
ожидалось
ожидалъ
ожидание
ожидании
ожидания
ожиданіи
ожидать
ожидают
ожидая
оз
озабоченность
озвучил
озе
озер
озера
озере
озеро
озером
озеру
озеф
ознакомиться
ознакомления
ознаменование
означает
означало
означать
ои
ок
ока
окажется
окажутся
оказавшись
оказал
оказала
оказалась
оказали
оказались
оказало
оказалось
оказался
оказана
оказание
оказании
оказанию
оказания
оказать
оказаться
оказывает
оказывается
оказывал
оказывали
оказывались
оказывалось
оказывать
оказывают
оказываются
окаи
оканчивается
окато
окб
океан
океана
океане
океании
океаном
оки
оккупации
оккупирована
оккупированнои
оккупированных
окна
окнами
окнах
окне
окно
окном
окну
окнч
око
около
окон
оконечности
окончание
окончанием
окончании
окончания
окончаніи
окончательно
окончательного
окончательное
окончательнои
окончательныи
окончив
окончил
окончила
окончить
окошко
окр
окраине
окраины
окраска
окраски
окраску
окрестностеи
окрестности
окрестностях
окрестных
округ
округа
округам
округах
округе
округов
округом
округу
окружали
окружающего
окружающеи
окружающие
окружающим
окружающих
окружающую
окруже
окружен
окружена
окружение
окружении
окружения
окруженныи
окружены
окружили
окружного
окружнои
окружности
оксана
окт
октябре
октябрь
октябрьская
октябрьскии
октябрьского
октябрьскои
октября
ола
оле
олег
олега
олеи
оленеи
олень
оленя
оливер
оливье
олимп
олимпиада
олимпиаде
олимпиаду
олимпиады
олимпии
олимпия
олма
ольга
ольге
ольги
ольгу
оля
ом
омар
омон
омск
омска
омская
омске
омского
омскои
он
она
онаго
онам
онами
онах
оне
онегин
они
онищенко
онлаи
онная
онного
оннои
онныи
онным
онных
оно
онов
оного
оное
онои
оном
онтарио
ону
оную
онъ
оны
оные
оныи
оных
онѣ
оон
ооо
оп
опасается
опасался
опасаться
опасаются
опасаясь
опасен
опасение
опасении
опасения
опасная
опасно
опасного
опасное
опаснои
опасностеи
опасности
опасность
опасностью
опасны
опасные
опасныи
опасным
опасными
опасных
опек
опеки
опер
опера
оперативная
оперативники
оперативно
оперативного
оперативнои
оперативныи
оперативных
оператор
оператора
операторов
оператором
операторы
операциеи
операции
операционнои
операционных
операцию
операция
операциях
опере
опередив
оперная
оперныи
оперу
оперы
опирается
опираясь
описал
описан
описана
описание
описанием
описании
описанию
описания
описано
описаны
описаніе
описать
описи
описываемои
описывает
описывается
описывал
описывать
описывают
описывая
опись
оплата
оплате
оплатить
оплату
оплаты
ополчение
ополчения
опор
опорои
опоры
оппозициеи
оппозиции
оппозиционер
оппозиционера
оппозиционного
оппозиционнои
оппозиционных
оппозицию
оппозиция
оппонентов
оправдал
оправдание
оправдания
оправдать
определе
определен
определена
определение
определением
определении
определению
определения
определенно
определенного
определенное
определеннои
определенную
определенные
определенныи
определенным
определенных
определено
определены
определил
определили
определитель
определить
определяет
определяется
определять
определяют
определяются
опредѣлить
опроверг
опровергли
опровергнуть
опрос
опроса
опрошенных
оптимизации
оптических
опубл
опубликовал
опубликовала
опубликовали
опубликовало
опубликован
опубликована
опубликования
опубликованная
опубликованнои
опубликованном
опубликованные
опубликованныи
опубликованных
опубликовано
опубликованы
опубликовать
опускается
опустив
опустил
опустила
опустилась
опустился
опухоли
опции
опыт
опыта
опыте
опытного
опытные
опытныи
опытных
опытов
опытом
опыту
опытъ
опыты
опьянения
опять
ор
ора
оратор
орбите
орбиту
орбиты
орг
орган
органа
органам
органами
органах
органе
организатор
организатора
организаторами
организаторов
организатором
организаторы
организациеи
организации
организационно
организацию
организация
организациям
организациями
организациях
организм
организма
организме
организмов
организовал
организовала
организовали
организован
организована
организованного
организованнои
организованныи
организованных
организовано
организованы
организовать
организует
органических
органическои
органов
органом
органы
оргкомитета
орд
орда
орден
ордена
орденами
орденов
орденом
ордену
ордер
орджоникидзе
орды
оре
орел
оренбург
оренбурга
оренбургская
оренбургскои
орехово
оригинал
оригинала
оригинале
оригинальная
оригинального
оригинальное
оригинальнои
оригинальные
оригинальныи
оригинальным
оригинальных
ориентации
орк
орка
орке
оркестр
оркестра
оркестре
оркестром
оркского
оркскои
орла
орландо
орле
орлов
орлова
орловская
орловскии
орловского
орловскои
ором
орт
ору
орудие
орудием
орудии
орудия
орудиями
орудіи
орудія
оружеи
оружие
оружием
оружию
оружия
оружіе
оружія
орфография
оры
ос
осада
осаде
осадил
осадки
осадков
осаду
осады
освещение
освещении
освещения
освободил
освободили
освободительнои
освободить
освободиться
освобождает
освобожде
освобожден
освобождена
освобождение
освобождении
освобождению
освобождения
освобождены
освоение
освоения
освяще
освящена
освящение
осел
осени
осеннии
осень
осенью
осетии
осетия
оси
осип
осипов
осипович
оскар
оскара
осколки
оскорбительных
оскорбить
оскорбление
оскорблении
оскорбления
оскорблять
осла
ослабить
ослабление
осло
осложнении
османскои
осматривать
осмелился
осмотр
осмотра
осмотрел
осмотреть
оснаще
оснащены
основ
основа
основал
основала
основали
основан
основана
основание
основанием
основании
основания
основаниям
основаниях
основанная
основанного
основанное
основаннои
основанные
основанныи
основанных
основано
основаны
основаніе
основаніи
основанія
основателеи
основателем
основатель
основательно
основателя
основать
основе
основная
основного
основное
основнои
основном
основному
основную
основные
основным
основными
основных
основои
основу
основы
основывается
основываясь
особ
особа
особая
особеи
особеннаго
особенно
особенного
особенное
особеннои
особенностеи
особенности
особенность
особенностью
особенностями
особенную
особенныи
особенным
особи
особливо
особняк
особняка
особо
особого
особое
особои
особом
особую
особы
особые
особыи
особым
особыми
особых
оспаривать
ост
оставаи
оставалась
оставались
оставалось
оставался
оставаться
оставаясь
оставив
оставивъ
оставил
оставила
оставили
оставилъ
оставим
оставит
оставить
оставлен
оставлены
оставлю
оставляет
оставлял
оставляли
оставлять
оставляют
оставляя
оставшиеся
оставшии
оставшись
оставшихся
оставшуюся
оставь
оставьте
остае
остается
осталась
остались
осталось
остался
остальная
остального
остальное
остальнои
остальном
остальные
остальным
остальными
остальных
остальныхъ
останавливается
останавливались
останавливался
останавливаться
останавливаются
останавливаясь
останется
останки
останков
остановившись
остановил
остановила
остановилась
остановили
остановились
остановился
остановить
остановиться
остановка
остановке
остановки
остановку
остановлен
остановочныи
останусь
останутся
остатками
остатки
остатков
остаток
остаться
остаюсь
остаются
остин
осторожно
осторожности
осторожность
осторожностью
острая
острие
остро
остров
острова
островами
островах
острове
островов
островом
островскии
островского
острову
островъ
острог
острого
острои
острые
острыи
острым
острыми
острых
осудил
осудили
осужде
осужден
осуждение
осуждения
осужденного
осужденныи
осужденных
осуждены
осуществил
осуществить
осуществле
осуществлена
осуществление
осуществлении
осуществлению
осуществления
осуществлено
осуществляет
осуществляется
осуществлял
осуществлялась
осуществлялось
осуществлять
осуществляться
осуществляют
осуществляются
осуществляющих
ось
от
отбить
отбор
отбора
отборочного
отборочном
отбывал
отв
отвагу
отвезли
отвезти
отвел
отвели
отверг
отвергает
отвернулся
отверстие
отверстия
отвести
ответ
ответа
ответе
ответил
ответила
ответили
ответит
ответить
ответные
ответныи
ответов
ответом
ответственности
ответственность
ответственностью
ответственныи
ответственным
ответственных
ответчика
ответы
отвечает
отвечаи
отвечал
отвечала
отвечали
отвечать
отвечаю
отвечают
отвечая
отвлечь
отвода
отворилась
отвращение
отвѣта
отвѣтила
отвѣтилъ
отвѣтить
отвѣтъ
отвѣчаетъ
отвѣчала
отвѣчалъ
отвѣчать
отд
отдав
отдавал
отдавали
отдавать
отдавая
отдае
отдает
отдаи
отдал
отдала
отдале
отдаленных
отдали
отдалъ
отдам
отдан
отдаст
отдать
отдают
отдел
отдела
отделаться
отделе
отделение
отделением
отделении
отделению
отделения
отделить
отделов
отделом
отделы
отдельная
отдельно
отдельного
отдельное
отдельнои
отдельном
отдельности
отдельную
отдельные
отдельныи
отдельным
отдельными
отдельных
отдохнуть
отдых
отдыха
отдыхать
отдѣльныхъ
оте
отеле
отелеи
отелло
отель
отеля
отец
отецъ
отеч
отечества
отечественная
отечественного
отечественнои
отечественную
отечественные
отечественных
отечество
отечеством
отечеству
отзыв
отзыва
отзывается
отзывался
отзыве
отзывов
отзывы
откажется
отказ
отказа
отказавшись
отказал
отказала
отказалась
отказали
отказались
отказался
отказано
отказать
отказаться
отказе
отказом
отказывается
отказывались
отказывался
отказываться
отказываются
отклик
отклонения
отклонил
отключения
откровение
откровения
откровенно
откроет
откроется
открои
открыв
открывает
открывается
открывать
открывают
открываются
открывая
открыл
открыла
открылась
открыли
открылись
открылось
открылся
открылъ
открыт
открыта
открытая
открытие
открытием
открытии
открытию
открытия
открыто
открытого
открытое
открытои
открытом
открытую
открыты
открытые
открытыи
открытым
открытыми
открытых
открыть
откуда
отличает
отличается
отличалась
отличались
отличался
отличать
отличаться
отличаются
отличие
отличием
отличии
отличились
отличился
отличительнои
отличить
отличия
отличная
отличник
отлично
отличное
отличные
отличныи
отличным
отложен
отложении
отложить
отмена
отмене
отменен
отменена
отменено
отменены
отменил
отменили
отменить
отмену
отмены
отметив
отметил
отметила
отметили
отметился
отметим
отметить
отметки
отмечает
отмечается
отмечал
отмечала
отмечали
отмечалось
отмечают
отмечая
отмечен
отмечена
отмечено
отмечены
отнесе
отнесены
отнеслись
отнесся
отнести
отнестись
относилась
относились
относилось
относился
относит
относительно
относительное
относится
относиться
относят
относятся
относящ
относящиеся
относящии
относящихся
отношение
отношением
отношении
отношению
отношения
отношениям
отношениями
отношениях
отношеніе
отношеніи
отношенію
отношенія
отношеніяхъ
отныне
отнюдь
отнял
отняли
отнять
ото
отображения
отобрали
отобрать
отовсюду
отозвалась
отозвался
отои
отомстить
отопления
отоше
отошел
отошла
отошли
отпечаток
отпор
отправил
отправила
отправилась
отправили
отправились
отправился
отправится
отправить
отправиться
отправки
отправлен
отправлена
отправлении
отправления
отправлено
отправлены
отправляет
отправляется
отправлялись
отправлялся
отправлять
отправляться
отправляют
отправляются
отпуск
отпуска
отпускать
отпустил
отпустили
отпустить
отпущен
отравление
отравления
отражает
отражается
отражают
отражение
отражении
отражения
отразил
отразилось
отразить
отраслеи
отрасли
отрасль
отраслях
отреагировал
отрезок
отречься
отрицает
отрицал
отрицание
отрицания
отрицательно
отрицательное
отрицательные
отрицательныи
отрицать
отрицают
отрывисто
отрывки
отрывок
отряд
отряда
отрядами
отряде
отрядов
отрядом
отряду
отрядъ
отряды
отс
отставание
отставка
отставке
отставки
отставку
отставнои
отстаивать
отстоять
отстране
отступать
отступил
отступили
отступить
отступление
отступлении
отступления
отсутствие
отсутствием
отсутствии
отсутствия
отсутствует
отсутствуют
отсутствіе
отсче
отсюда
оттенков
оттенком
оттенок
отто
оттого
оттон
оттуда
отход
отходами
отходит
отходов
отходы
отца
отце
отцов
отцовскои
отцом
отцомъ
отцу
отцы
отчасти
отчаяние
отчаянием
отчаянии
отчаяния
отчаянно
отчаянныи
отчаяніе
отчаянія
отче
отчего
отчество
отчет
отчета
отчете
отчетливо
отчетности
отчеты
отъ
отъезд
отъезда
отъезде
отъездом
отыграл
отыскать
отыскивать
оун
оф
офис
офиса
офисе
офисы
офицер
офицера
офицерам
офицерами
офицеров
офицеровъ
офицером
офицеру
офицеръ
офицеры
официальная
официально
официального
официальное
официальнои
официальном
официальную
официальные
официальныи
официальным
официальными
официальных
оформив
оформил
оформить
оформление
оформлении
оформлению
оформления
офф
ох
охарактеризовал
охватил
охватила
охватило
охватывает
охлаждения
охота
охоте
охотиться
охотник
охотника
охотники
охотников
охотно
охотои
охоту
охоты
охрана
охране
охранник
охранои
охрану
охраны
охраняемых
охранять
охъ
оценивает
оценивается
оценивать
оценивают
оцениваются
оценил
оценили
оценить
оценка
оценкам
оценке
оценки
оценкои
оценку
оценок
очаг
очага
очами
очевидно
очевидным
очевидцев
очевидцы
очеи
очень
очереди
очередная
очередного
очередное
очереднои
очередном
очередную
очередные
очередь
очерк
очерки
очерков
очертания
очи
очистить
очистки
очка
очкам
очками
очках
очки
очко
очков
очнулся
очутилась
очутились
очутился
ошибаетесь
ошибаюсь
ошибка
ошибке
ошибки
ошибкои
ошибку
ошибок
ошибочно
ошибся
ошкар
ошовскии
ощущение
ощущении
ощущения
п
па
пабло
павел
павелъ
павильон
павла
павлов
павлова
павлович
павловича
павловна
павловны
павловскии
павлом
павлу
павших
падает
падал
падали
падать
падают
падая
падежа
падение
падением
падении
падения
паи
пак
пакет
пакета
пакетов
пакеты
паки
пакистан
пакистана
пакистане
пал
пала
палат
палата
палате
палатки
палатку
палатои
палату
палаты
палаццо
палач
палача
палермо
палестине
палестинских
палестинского
палестинскои
палестину
палестинцев
палестины
палец
пали
палка
палки
палкои
палку
пало
паломников
палубе
палубу
палубы
пальма
пальмы
пальто
пальца
пальцами
пальцев
пальцем
пальцы
пам
памяти
памятная
памятник
памятника
памятниками
памятниках
памятники
памятников
памятником
памятнои
памятные
памятныи
памятных
память
памятью
пан
пана
пандемиеи
пандемии
панели
панель
пани
панин
панк
панов
панорама
пантелеи
пао
паоло
папа
папаша
папе
папои
папу
папы
пар
пара
парагваи
парад
парада
параде
паралимпии
параллели
параллель
параллельно
параллельных
параметр
параметров
параметры
парами
паре
парень
пари
париж
парижа
париже
парижскии
парижских
парижского
парижскои
парижском
парижъ
парижѣ
парк
парка
парке
паркер
парки
парков
парком
парламент
парламента
парламентарии
парламенте
парламентом
парламентские
парламентских
парламентскои
парнеи
парни
парном
парня
паровоз
паровои
пародии
пародия
парои
пароль
паром
пароход
парохода
пароходе
пароходъ
пароходы
партиеи
партизан
партизанского
партизаны
партии
партию
партия
партиями
партиях
партне
партнер
партнера
партнерами
партнеров
партнером
партнерства
партнерство
партнеры
партіи
пару
паруи
парус
паруса
пары
пас
пасе
паскаль
паспорт
паспорта
паспортов
пассажир
пассажира
пассажирам
пассажирами
пассажиров
пассажирская
пассажирские
пассажирскии
пассажирских
пассажирского
пассажиры
пасти
пастор
пастора
пастух
пасть
пасхи
пасху
патент
патентов
патологии
патриарх
патриарха
патриархата
патриархии
патриархия
патриархом
патриарху
патрик
патрика
патриот
патриотизм
патриотизма
патрон
патрона
патронов
патроны
пауза
паузы
паук
паука
паулу
пауль
пахло
пахнет
пациент
пациента
пациентов
пациенты
паче
паша
паши
пашинян
пашни
пб
пво
пвс
пг
пгт
пд
пе
певец
певица
певицеи
певицы
певца
певцов
певцы
педагог
педагога
педагогики
педагогическии
педагогических
педагогического
педагогическои
педагогическом
педагогов
педро
пеи
пекин
пекина
пекине
пел
пела
пелагея
пели
пен
пенальти
пенза
пензенская
пензенскои
пение
пением
пения
пенсии
пенсильвания
пенсионер
пенсионерами
пенсионеров
пенсионного
пенсионных
пенсию
пентагон
пентагона
пепел
пепла
пер
пера
перваго
первая
первенств
первенства
первенстве
первенство
первичнои
первого
первое
первои
первом
первомаи
первому
первомъ
первоначальная
первоначально
первоначального
первоначальное
первоначальнои
первоначальном
первоначальныи
первую
первые
первыи
первым
первыми
первымъ
первых
первыхъ
первыя
пере
перебил
перебила
перебилъ
перебрался
перебраться
перев
перевал
перевала
переве
переведе
переведен
переведена
переведено
переведены
перевел
перевели
перевес
перевести
перевод
перевода
переводах
переводе
переводил
переводится
переводить
переводов
переводом
переводу
переводчик
переводчика
переводчиком
переводъ
переводы
перевозке
перевозки
перевозок
переворот
переворота
переговорам
переговорах
переговорить
переговоров
переговоры
перед
передавал
передавали
передавать
передавая
передае
передает
передается
передаи
передал
передала
передали
передалъ
передан
передана
передано
переданы
передать
передач
передача
передаче
передачеи
передачи
передачу
передают
передаются
передвигаться
передвижения
переднего
переднеи
переднем
передние
переднии
передних
переднюю
передняя
передо
передовои
передовые
передовых
передъ
переезд
переезда
переезжает
переехал
переехала
переехали
переехать
переживает
переживании
переживания
пережил
пережила
пережить
переи
переизбран
переиздание
переименовали
переименован
переименована
переименовании
переименовано
перекре
переле
перелом
перемен
перемена
переменить
переменная
переменнои
переменных
перемену
перемены
перемещение
перемещения
перемирие
перемирия
перен
перене
перенес
перенесе
перенесен
перенесена
перенесено
перенесены
перенесла
перенесли
перенести
перенос
переноса
переносе
переносит
переносится
переносить
переписеи
переписи
переписка
переписке
переписки
переписку
перепись
переправа
переправился
переправы
перераб
переработке
переработки
перерыв
перерыва
перес
пересекает
переселение
переселении
переселения
переселенцами
переселенцев
переселенцы
переселился
пересечение
пересечении
пересечения
пересмотр
пересмотра
пересмотренного
пересмотреть
переставая
перестает
перестал
перестала
перестали
перестанет
перестань
перестать
перестрелки
перестрои
переулка
переулке
переулок
переход
перехода
переходе
переходил
переходили
переходит
переходить
переходного
переходныи
переходов
переходом
переходу
переходы
переходя
переходят
перец
перечень
перечисленных
перечислены
перечня
переше
перешеи
перешел
перешелъ
перешла
перешли
перешло
период
периода
периоде
периодически
периодических
периодов
периодом
периоду
периоды
периферии
перкуссия
перми
пермскии
пермского
пермскои
пермском
пермь
перо
пером
перри
перс
перси
персидскии
персидского
персидскои
персидском
персии
персов
персонаж
персонажа
персонажами
персонажеи
персонажем
персонажи
персонал
персонала
персональная
персональные
персональныи
персональных
перспектив
перспектива
перспективе
перспективных
перспективу
перспективы
перстень
перу
перчатки
перьев
перья
перьями
періодъ
пес
песен
песка
песке
пески
песков
песком
песку
песне
песнеи
песни
песнь
песню
песня
песнями
песнях
песок
песчаные
петер
петербург
петербурга
петербурге
петербургом
петербургская
петербургские
петербургскии
петербургских
петербургского
петербургское
петербургскои
петербургском
петербургскую
петербургу
петербургъ
петербургѣ
петли
петлю
петр
петра
петре
петро
петров
петрова
петрович
петровича
петровичу
петровичъ
петровна
петровны
петровскии
петровского
петроград
петрограде
петрозаводск
петром
петросян
петру
петръ
петух
петь
петя
пех
пехота
пехотная
пехотного
пехотнои
пехотныи
пехотных
пехоты
печ
печали
печаль
печальная
печально
печальное
печальнои
печальную
печальные
печальныи
печатается
печатались
печатался
печатать
печати
печатные
печатныи
печатных
печать
печатью
печеи
печени
печи
печки
печь
пешеходов
пешком
пещера
пещере
пещеру
пещеры
пи
пианино
пианист
пива
пиво
пии
пик
пика
пике
пикет
пил
пила
пили
пилот
пилота
пилотов
пилоты
пин
пиньинь
пионер
пионеров
пир
пирамиды
пиратов
пираты
пиренеи
пирог
пирс
писал
писала
писали
писалъ
писание
писании
писания
писано
писарев
писарь
писателеи
писателем
писатели
писатель
писательница
писательницы
писателю
писателя
писателями
писать
писем
писемъ
пистолет
пистолета
пистолеты
письма
письмами
письмах
письме
письменно
письменного
письменное
письменнои
письменности
письменность
письменные
письменныи
письменным
письменных
письмо
письмом
письму
письмѣ
пит
питается
питание
питания
питаться
питаются
питеи
питер
питера
пить
питье
питьевои
пишет
пишется
пишетъ
пиши
пишите
пишу
пишут
пища
пищевои
пищевых
пищеи
пищи
пищу
пк
пко
пл
плавание
плавании
плаванию
плавания
плавать
плавники
плавно
плакал
плакала
плакали
плакат
плакаты
плакать
пламенем
пламени
пламя
план
плана
планам
планами
планах
плане
планет
планета
планете
планету
планеты
планировал
планировали
планировалось
планирование
планирования
планирует
планируется
планируют
планов
планом
плантации
плану
планъ
планы
пластинка
пластинки
плата
плате
платежа
платежеи
платежи
платил
платили
платит
платить
платком
плато
платок
платокъ
платон
платона
платонов
плату
платформ
платформа
платформе
платформу
платформы
платы
платье
платья
платьѣ
платят
плацдарм
плацдарма
плач
плача
плачет
плачу
плачь
плащ
пле
плебеи
плеи
племе
племен
племена
племенами
племени
племя
племянник
племянника
племянником
племянница
плен
плена
пленников
пленных
плену
плеч
плеча
плечами
плечах
плече
плечи
плечо
плечу
плит
плита
плиты
плого
плод
плода
плодами
плодов
плодотворную
плоды
плоские
плоскои
плоскости
плоскость
плоти
плотина
плотины
плотно
плотности
плотность
плотныи
плоть
плохая
плохие
плохим
плохих
плохо
плохого
плохое
плохои
площадеи
площади
площадка
площадках
площадке
площадки
площадкои
площадку
площадок
площадь
площадью
плутарх
плыи
плым
плыть
плюс
плющенко
пляж
плясать
пляски
по
побег
побега
побеги
побед
победа
победе
победив
победил
победила
победили
победит
победителеи
победителем
победители
победитель
победительница
победительницеи
победителя
победителями
победить
победныи
победои
победоносца
победу
победы
побежал
побежала
побежали
побеждает
побеждал
побеждать
побережье
побережью
побережья
побил
поблагодарил
поблагодарить
побледнел
поближе
поблизости
побои
побольше
побудило
побуждении
побывал
побывали
побывать
повар
повара
пове
поведал
поведение
поведением
поведении
поведения
повезло
повел
повела
повелел
повеление
повелению
повели
повелитель
поверил
поверили
поверить
повернувшись
повернул
повернулась
повернули
повернулся
повернуть
поверх
поверхностеи
поверхности
поверхностных
поверхность
поверхностью
поверьте
повесить
повествование
повествования
повествует
повестеи
повести
повестке
повестки
повестку
повесть
повидаться
повидимому
повинности
повиноваться
повлияли
повлияло
повлиять
повод
повода
поводом
поводу
повозки
поволжье
поволжья
поворачивает
поворот
поворота
повороте
повредить
поврежде
повреждение
повреждении
повреждения
повреждены
повседневнои
повсеместно
повстанцев
повстанцы
повсюду
повторение
повторения
повторил
повторила
повторилъ
повторить
повторно
повторного
повторное
повторяет
повторяется
повторял
повторяла
повторять
повторяю
повторяя
повысить
повышает
повышается
повышен
повышение
повышением
повышении
повышению
повышения
повышеннои
повят
погашения
погиб
погибает
погибели
погибель
погибла
погибли
погибло
погибнет
погибнуть
погибшего
погибшеи
погибшие
погибшии
погибшим
погибших
поглощения
поглядел
поглядывая
поговорим
поговорить
погода
погоде
погоди
погодина
погодите
погодных
погоду
погоды
погони
погоню
погоня
погост
пограничного
пограничнои
пограничные
пограничныи
пограничных
погребе
погребения
погрузился
погубить
под
подавал
подавали
подавать
подавая
подавить
подавлении
подавления
подавляющее
подае
подает
подаи
подал
подала
подали
подалъ
подальше
подано
подарил
подарила
подарить
подарками
подарки
подарков
подарок
податеи
подати
подать
подача
подаче
подачи
подачу
подают
подбассеи
подбор
подбора
подборов
подбородок
подвале
подвел
подверг
подвергается
подвергалась
подвергались
подвергался
подвергать
подвергаться
подвергаются
подверглась
подвергли
подверглись
подвергнут
подвергнуть
подвергнуться
подвергся
подвержены
подвиг
подвига
подвиги
подвигов
подвид
подвижного
подвижнои
подводная
подводного
подводнои
подводные
подводных
подворье
подгот
подготовил
подготовили
подготовить
подготовка
подготовке
подготовки
подготовкои
подготовку
подготовлен
подготовленнои
подготовлено
подготовлены
подданные
подданных
подданство
поддержал
поддержала
поддержали
поддержание
поддержания
поддержать
поддерживает
поддерживается
поддерживал
поддерживала
поддерживали
поддерживать
поддерживают
поддерживая
поддержка
поддержке
поддержки
поддержкои
поддержку
подеи
поделился
поделиться
подземного
подземные
подземныи
подземных
подзоне
поди
подключения
подкрепления
подле
подлежат
подлежащих
подлежит
подлинник
подлиннику
подлинно
подлѣ
подмосковного
подмосковнои
подмосковном
подмосковные
подмосковных
подмосковье
подмосковья
поднимает
поднимается
поднималась
поднимались
поднимался
поднимать
подниматься
поднимаются
поднимая
поднимаясь
подножия
подняв
поднявшись
поднял
подняла
поднялась
подняли
поднялись
поднялось
поднялся
поднялъ
поднят
поднять
подняться
подобает
подобен
подобие
подобнаго
подобная
подобно
подобного
подобное
подобнои
подобном
подобную
подобные
подобныи
подобным
подобными
подобных
подобныхъ
подобныя
подождать
подожди
подождите
подозреваемого
подозреваемые
подозреваемыи
подозреваемых
подозревает
подозревается
подозревал
подозревали
подозревать
подозревают
подозревая
подозрение
подозрении
подозрению
подозрения
подозрительно
подои
подолгу
подольскои
подопечные
подопечных
подошвы
подоше
подошел
подошелъ
подошла
подошли
подписав
подписал
подписала
подписали
подписан
подписание
подписании
подписания
подписано
подписаны
подписать
подписеи
подписи
подписку
подписчиков
подписываи
подписывать
подпись
подписью
подполковник
подполковника
подпоручик
подражание
подражания
подражать
подразделение
подразделением
подразделении
подразделения
подразделениями
подразделяется
подразумевает
подразумевается
подробная
подробнее
подробно
подробное
подробностеи
подробности
подробностями
подробностях
подробные
подробныи
подростка
подростки
подростков
подросток
подруга
подруги
подругои
подругу
подряд
подсемеи
подстрекательных
подсудимого
подсудимыи
подсудимых
подсче
подсчетам
подтвердил
подтвердила
подтвердили
подтвердило
подтвердить
подтверждает
подтверждается
подтверждают
подтверждающие
подтвержде
подтверждение
подтверждения
подтверждено
подумав
подумаешь
подумаи
подумал
подумала
подумали
подумалъ
подумать
подушки
подушку
подхватил
подход
подхода
подходе
подходил
подходили
подходит
подходитъ
подходить
подходы
подходя
подходят
подчас
подче
подчеркивает
подчеркивается
подчеркивают
подчеркнув
подчеркнул
подчеркнула
подчеркнули
подчеркнуть
подчине
подчинение
подчинении
подчинения
подчиненных
подчинены
подчинить
подчиниться
подчиняется
подчиняться
подъ
подъе
подъезд
подъезда
подъезде
подъем
подъема
подъехал
пое
поедем
поедет
поединка
поединках
поединке
поединков
поединок
поеду
поезд
поезда
поезде
поездка
поездке
поездки
поездку
поездов
поездок
поездом
поезжаи
поесть
поет
поехал
поехала
поехали
поехать
пожал
пожаловал
пожаловался
пожалован
пожаловать
пожалуи
пожалъ
пожар
пожара
пожаре
пожарнои
пожарные
пожарных
пожаров
пожары
пожелал
пожелать
поженились
пожертвовал
пожертвовании
пожертвования
пожертвовать
пожизненное
пожизненному
пожилои
пожилые
пожилых
пожимая
пожить
позаботиться
позади
позвал
позвала
позвали
позвать
позволения
позволено
позволил
позволила
позволили
позволило
позволит
позволите
позволить
позволь
позвольте
позволю
позволяет
позволял
позволяла
позволяли
позволяло
позволят
позволяют
позволяющая
позволяющие
позволяющии
позволяя
позвонил
позвоночных
позднего
позднее
позднеи
поздние
позднии
поздних
поздно
поздняя
поздравил
поздравить
поздравления
поздравляю
позе
позже
позициеи
позиции
позицию
позиция
позициям
позициях
позиціи
познакомилась
познакомились
познакомился
познакомить
познакомиться
познание
познании
познания
позор
позора
пои
поиграть
поиск
поиска
поисках
поиске
поиски
поисков
поисково
поиску
поистине
пока
покажет
покажется
покажи
покажу
покажут
показ
показа
показав
показал
показала
показалась
показали
показались
показало
показалось
показался
показалъ
показан
показана
показании
показания
показаниям
показано
показаны
показателеи
показателем
показатели
показатель
показателю
показателя
показателям
показать
показатьскрыть
показаться
показывает
показывается
показываетъ
показывал
показывали
показывать
показывают
показывая
покачал
покачала
покидает
покидать
покидают
покинет
покинув
покинул
покинула
покинули
покинуть
поклон
поклонение
поклонения
поклонился
поклониться
поклонники
поклонников
поклялся
покое
покои
покоится
поколение
поколении
поколения
покончил
покончить
покориться
покорнеи
покорно
покорности
покорность
покоя
покраснел
покров
покрова
покровителем
покровитель
покровительство
покровительством
покровителя
покровом
покровскии
покровского
покрывало
покрыт
покрыта
покрытие
покрытием
покрытия
покрыто
покрыты
покрытые
покрытыи
покрыть
покуда
покупает
покупателеи
покупатели
покупатель
покупателя
покупать
покупают
покупка
покупке
покупки
покупку
покушение
покушении
покушения
пол
пола
полагает
полагается
полагал
полагали
полагать
полагаю
полагают
полагая
полвека
полгода
полдень
поле
полевая
полевого
полевои
полевые
полевых
полезен
полезно
полезное
полезнои
полезности
полезны
полезные
полезным
полезных
полеи
полем
полет
полета
полетел
полетов
полеты
полигон
полигона
полигоне
полина
полит
политбюро
политехническии
политехнического
политиздат
политик
политика
политике
политики
политико
политиков
политикои
политику
политическая
политически
политические
политическии
политическим
политическими
политических
политическихъ
политического
политическое
политическои
политическом
политическому
политическую
политолог
полицеи
полициеи
полиции
полицию
полиция
полиціи
полк
полка
полками
полках
полки
полков
полковник
полковника
полковники
полковником
полковнику
полковникъ
полководец
полководца
полковои
полком
полку
полкъ
полн
полна
полнаго
полная
полнеи
полно
полного
полное
полнои
полном
полнометражныи
полномочии
полномочия
полномочиями
полномочныи
полному
полномъ
полностью
полноте
полноты
полноценныи
полночь
полною
полную
полны
полные
полныи
полным
полными
полнымъ
полных
поло
полов
половина
половине
половинои
половину
половины
половинѣ
полового
половои
половые
половых
положен
положение
положением
положении
положению
положения
положено
положены
положеніе
положеніи
положенія
положив
положил
положила
положили
положилъ
положим
положимъ
положительно
положительного
положительное
положительнои
положительную
положительные
положительныи
положительным
положительных
положить
положиться
полом
полон
полонскии
полос
полоса
полосами
полосе
полосои
полости
полость
полосу
полосы
полотна
полотнища
полотнище
полотно
полтавская
полтавскои
полтора
полторы
полу
полугода
полугодии
полудня
полузащитник
полузащитника
полуночи
полуостров
полуострова
полуострове
полутора
полуфинал
полуфинала
полуфинале
получаем
получает
получается
получаетъ
получал
получала
получали
получаса
получат
получать
получают
получаются
получая
получен
получена
получение
получением
получении
получения
полученного
полученное
полученнои
полученные
полученныи
полученных
получено
получены
получив
получившая
получившего
получившеи
получившие
получившии
получивших
получивъ
получил
получила
получилась
получили
получило
получилось
получился
получилъ
получим
получит
получите
получится
получить
получишь
получу
получше
полушарии
полчаса
полъ
полы
поль
польза
пользе
пользовалась
пользовались
пользовался
пользование
пользования
пользователеи
пользователи
пользователь
пользователю
пользователя
пользователям
пользоваться
пользу
пользуется
пользуются
пользуясь
пользы
польск
польская
польские
польскии
польским
польскими
польских
польско
польского
польское
польскои
польском
польскому
польша
польше
польшеи
польши
польшу
полю
полюбил
полюбила
полюбить
полюс
полюса
поля
поляк
поляками
поляки
поляков
полями
поляна
поляне
поляны
полярнои
полярных
полях
полѣ
помалу
поменьше
поместил
поместили
поместить
поместье
поместья
помешала
помешало
помешать
помещается
помеще
помещен
помещена
помещение
помещении
помещения
помещениях
помещены
помещик
помещика
помещики
помещиков
помилуи
помимо
поминутно
помни
помнил
помнит
помните
помнится
помнить
помнишь
помню
помня
помнят
помог
помогает
помогал
помогала
помогали
помогать
помогают
помогая
помоги
помогите
помогла
помогли
помогло
помогут
поможет
помолчав
помочь
помощи
помощник
помощника
помощники
помощников
помощником
помощь
помощью
помпеи
понадобилось
понадобится
поначалу
поневоле
понедельник
понедельника
понеже
понемногу
понесла
понесли
понижение
понимаем
понимает
понимаете
понимается
понимаетъ
понимаешь
понимал
понимала
понимали
понималъ
понимание
пониманием
понимании
пониманию
понимания
понимать
понимаю
понимают
понимая
пономаре
пономарев
понравилась
понравились
понравилось
понравился
понравится
поныне
поняв
понял
поняла
поняли
понялъ
понятие
понятием
понятии
понятия
понятиям
понятно
понятным
понять
понятіе
понятія
пообещал
пообещали
поочередно
поощрения
поп
попа
попав
попавших
попадает
попадал
попадали
попадались
попадание
попадания
попадать
попадают
попадаются
попадет
попал
попала
попали
попало
попался
попалъ
попасть
поперек
попечение
попов
попова
пополам
пополнения
пополнить
пополудни
поправить
поправка
поправки
поправку
поправок
попрежнему
поприще
попробовал
попробовать
попробуи
попросил
попросила
попросили
попросить
попросту
попрошу
попугаи
популярен
популяризации
популярная
популярного
популярное
популярнои
популярности
популярность
популярностью
популярны
популярные
популярныи
популярным
популярными
популярных
популяции
попутно
попытаи
попыталась
попытались
попытался
попытаться
попытка
попытках
попытке
попытки
попыткои
попытку
попыток
пор
пора
поработать
поражает
поражен
поражение
поражением
поражении
поражения
пораженныи
поразил
поразила
поразило
поразительно
поразить
порах
порог
порога
пороге
пород
порода
породы
порои
порок
пороки
порох
пороха
порошенко
порошок
порою
порт
порта
портал
портала
портале
портнои
портов
портр
портрет
портрета
портретов
портретом
портретъ
портреты
порту
португалии
португалия
португальскии
португальского
португальскои
портфель
порты
пору
поручение
поручении
поручению
поручения
поручено
поручик
поручика
поручил
поручили
поручить
поръ
поры
порыв
порыве
порывы
порье
порядка
порядке
порядки
порядков
порядком
порядку
порядкѣ
порядок
порядокъ
порядочно
порядочныи
пос
посад
посадил
посадили
посадить
посадка
посадке
посадки
посадку
посвятил
посвятить
посвяще
посвящен
посвящена
посвящение
посвященная
посвященнои
посвященные
посвященныи
посвященных
посвящено
посвящены
посе
посева
поселе
поселение
поселением
поселении
поселению
поселения
поселениям
поселенцев
поселилась
поселились
поселился
поселиться
поселка
поселке
поселков
поселок
посему
посередине
посетил
посетила
посетили
посетит
посетителеи
посетители
посетить
посещает
посещал
посещали
посещать
посещают
посещение
посещении
посещения
поскольку
поскорее
поскорѣе
посла
послал
послала
послали
послалъ
послан
послание
послании
послания
посланник
посланника
посланныи
посланы
послать
после
послевоенные
последнего
последнее
последнеи
последнем
последнему
последние
последнии
последним
последними
последних
последнюю
последняя
последовал
последовала
последовали
последовало
последователеи
последователи
последовательно
последовательности
последовательность
последовать
последствии
последствия
последствиям
последствиями
последствиях
последует
последующего
последующее
последующеи
последующем
последующие
последующим
последующих
послезавтра
послов
пословица
послом
послужил
послужила
послужили
послужило
послужить
послушаи
послушать
послы
послышались
послышалось
послышался
послѣ
послѣднее
послѣднеи
послѣднимъ
послѣднихъ
послѣднюю
послѣдняго
послѣдняя
послѣдніе
послѣдніи
послѣднія
послѣдствіи
посмертно
посмотрел
посмотрела
посмотрели
посмотреть
посмотри
посмотрим
посмотрите
посмотрѣла
посмотрѣлъ
посмотрѣть
пособие
пособии
пособия
посоветовал
посол
посольства
посольстве
посольство
поспелов
поспешил
поспешили
поспешно
посполитои
поспѣшилъ
поспѣшно
посреди
посредине
посредника
посредников
посредником
посредничестве
посредство
посредством
посредствомъ
пост
поста
поставив
поставил
поставила
поставили
поставилъ
поставит
поставить
поставках
поставки
поставку
поставлен
поставлена
поставленнои
поставленные
поставленныи
поставленных
поставлено
поставлены
поставлять
поставок
поставщиков
постановил
постановка
постановке
постановки
постановку
постановление
постановлением
постановлении
постановлению
постановления
постановщик
постараемся
постараи
постарался
постараюсь
постели
постель
постепенно
постепенное
постигла
постов
постои
посторонних
постоянная
постоянно
постоянного
постоянное
постояннои
постоянном
постоянную
постоянные
постоянныи
постоянным
постоянными
постоянных
пострадавшего
пострадавшие
пострадавшии
пострадавшим
пострадавших
пострадал
пострадала
пострадали
пострадало
построек
построен
построена
построение
построении
построения
построенная
построенного
построенное
построеннои
построенные
построенныи
построенных
построено
построены
построи
построил
построили
построить
посту
поступает
поступали
поступало
поступать
поступают
поступил
поступила
поступили
поступило
поступилъ
поступит
поступить
поступка
поступки
поступков
поступлении
поступления
поступок
поступокъ
постфикс
посты
посуда
посуду
посуды
посчитал
посчитали
посылает
посылал
посылали
посылать
посылаю
посылки
посыпались
пот
пота
поте
потемкин
потемкина
потенциал
потенциала
потенциально
потенциальных
потере
потереи
потери
потерпевшего
потерпевшеи
потерпевшии
потерпевших
потерпел
потерпела
потерпели
потерь
потерю
потеря
потеряв
потерял
потеряла
потеряли
потерялъ
потерями
потерять
потихоньку
поток
потока
потоки
потоков
потоком
потолка
потолок
потом
потомками
потомки
потомков
потомок
потомства
потомство
потому
потомъ
потратить
потребителеи
потребление
потребления
потребностеи
потребности
потребность
потребовал
потребовала
потребовали
потребовало
потребовалось
потребовать
потребует
потребуется
поутру
похвалил
похвалу
похвалы
похитил
похитили
похитить
похищение
похищении
похищения
поход
похода
походах
походе
походил
походкои
походов
походы
похож
похожа
похожая
похоже
похожее
похожеи
похожи
похожие
похожии
похожим
похожими
похожих
похорон
похоронах
похоронен
похоронена
похоронены
похоронили
похоронить
похороны
поцеловал
поцеловала
поцеловать
поцелуи
почв
почва
почве
почву
почвы
поче
почек
почему
почести
почета
почетного
почетное
почетные
почетныи
почетным
починок
почитается
почитаи
почитать
почки
почта
почте
почтение
почтенныи
почти
почтительно
почтовая
почтового
почтовое
почтовои
почтовые
почтовыи
почтовых
почту
почты
почувствовал
почувствовала
почувствовали
почувствовалъ
почувствовать
поше
пошел
пошелъ
пошла
пошли
пошлин
пошлины
пошло
пощады
поэзии
поэзию
поэзия
поэзіи
поэма
поэме
поэму
поэмы
поэт
поэта
поэтесса
поэтические
поэтическии
поэтических
поэтического
поэтическое
поэтическои
поэтов
поэтом
поэтому
поэту
поэтъ
поэты
поют
появилась
появились
появилось
появился
появится
появиться
появление
появлением
появлении
появлению
появления
появляется
появлялась
появлялись
появлялся
появляться
появляются
появятся
пояс
пояса
поясе
пояснил
пояснила
пояснили
поясняет
поясом
поѣздъ
поѣхалъ
пп
пр
пра
прав
права
правам
правами
правах
правая
правда
правде
правдои
правду
правды
праве
правил
правила
правилам
правилами
правилах
правило
правилу
правильно
правильного
правильное
правильнои
правильности
правильность
правильные
правильныи
правильным
правит
правителеи
правителем
правители
правитель
правительств
правительства
правительстве
правительственного
правительственнои
правительственные
правительственныи
правительственными
правительственных
правительство
правительством
правительству
правителя
править
правление
правлении
правления
правленія
право
правовая
правового
правовое
правовои
правовые
правовым
правовыми
правовых
правого
правое
правозащитник
правозащитники
правозащитников
правои
правом
правому
правонарушении
правонарушения
правонарушениях
правоохранители
правоохранительные
правоохранительными
правоохранительных
правопорядка
православие
православия
православная
православного
православное
православнои
православную
православные
православныи
православным
православных
правосудие
правосудия
праву
правую
правъ
правы
правые
правыи
правым
правых
правящеи
прага
праге
праги
празднества
праздник
праздника
празднике
праздники
праздников
праздником
празднику
праздникъ
праздничные
праздничныи
праздничных
празднование
празднования
праи
праиндоевр
практика
практике
практики
практикои
практику
практическая
практически
практические
практическии
практических
практического
практическое
практическои
прапорщик
прасковья
праслав
прах
пре
пребывает
пребывание
пребывания
превзои
превосходит
превосходительство
превосходно
превосходныи
превосходства
превосходство
превратил
превратилась
превратились
превратилось
превратился
превратить
превратиться
превращается
превращаются
превращение
превращения
превысил
превысила
превысило
превышает
превышать
превышение
пред
предал
предан
предание
предании
преданию
предания
преданности
преданность
преданныи
предательство
предать
предварительно
предварительного
предварительное
предварительнои
предварительном
предварительные
предварительныи
предварительным
предварительных
предвидеть
предводитель
предводительством
предводителя
предвыборнои
преддверии
предел
предела
пределами
пределах
пределов
пределы
предельно
предисл
предисловие
предисловии
предки
предков
предлагает
предлагается
предлагал
предлагала
предлагали
предлагалось
предлагать
предлагаю
предлагают
предлагая
предлог
предлогом
предложен
предложена
предложение
предложением
предложении
предложению
предложения
предложенныи
предложено
предложеніе
предложив
предложил
предложила
предложили
предложилъ
предложить
предмет
предмета
предметам
предметами
предметах
предмете
предметов
предметовъ
предметом
предметомъ
предмету
предметъ
предметы
предназначен
предназначена
предназначенные
предназначенныи
предназначенных
предназначены
предо
предоставил
предоставила
предоставили
предоставить
предоставлена
предоставление
предоставлении
предоставления
предоставлено
предоставлены
предоставляет
предоставляется
предоставлять
предоставляют
предоставляя
предосторожности
предотвратить
предотвращению
предотвращения
предписание
предписания
предписано
предполагаемого
предполагаемыи
предполагаемых
предполагает
предполагается
предполагал
предполагали
предполагалось
предполагать
предполагают
предполагая
предположение
предположении
предположения
предположил
предположили
предположительно
предположить
предпочел
предпочитает
предпочитают
предпочли
предпочтение
предпринимателеи
предприниматели
предприниматель
предпринимательскои
предпринимательства
предпринимателя
предпринимать
предпринял
предприняли
предпринять
предприятие
предприятием
предприятии
предприятия
предприятиям
предприятиями
предприятиях
председателем
председатель
председательством
председателю
председателя
представил
представила
представили
представился
представит
представителеи
представителем
представители
представитель
представительница
представительства
представительство
представителю
представителя
представителям
представителями
представить
представлен
представлена
представление
представлением
представлении
представлению
представления
представленные
представленныи
представленных
представлено
представлены
представленіе
представленія
представляет
представляется
представляетъ
представлял
представляла
представлялась
представляли
представляло
представлялось
представлялся
представлять
представляю
представляют
представляются
представляютъ
представляющая
представляющие
представляющии
представляющих
представляя
представьте
представят
предстал
предстоит
предстояло
предстоящего
предстоящеи
предстоящем
предстоящих
предтечи
предупредил
предупредили
предупредить
предупреждает
предупреждение
предупреждения
предусматривает
предусмотрена
предусмотренного
предусмотренном
предусмотренные
предусмотренных
предусмотрено
предусмотрены
предчувствие
предшественник
предшественника
предшественников
предъ
предъявили
предъявить
предъявления
предъявлено
предъявлены
предыдущего
предыдущеи
предыдущем
предыдущие
предыдущии
предыдущим
предыдущих
преемник
преемника
преемником
прежде
преждевременно
прежнего
прежнее
прежнеи
прежнем
прежнему
прежние
прежнии
прежним
прежними
прежних
прежнихъ
прежнюю
прежняго
прежняя
презентации
презентация
президент
президента
президенте
президентов
президентом
президентские
президентскии
президентских
президентского
президентскои
президентства
президенту
президенты
президиум
президиума
презирать
презрение
презрением
презрения
презрительно
преи
преимуществ
преимущества
преимущественно
преимущество
преимуществом
преимуществу
прекрасна
прекрасная
прекраснеи
прекрасно
прекрасного
прекрасное
прекраснои
прекрасную
прекрасные
прекрасныи
прекрасным
прекрасными
прекрасных
прекратил
прекратила
прекратилась
прекратили
прекратились
прекратилось
прекратить
прекращает
прекращается
прекращена
прекращение
прекращении
прекращению
прекращения
прекращено
прекращены
прелести
прелестная
прелестнои
прелесть
премиеи
премии
премию
премия
премьер
премьера
премьером
премьеру
премьеры
преобладает
преобладают
преобладающая
преображения
преображенскии
преображенского
преобразован
преобразована
преобразование
преобразовании
преобразования
преобразовано
преобразованы
преодоления
преодолеть
преп
препарат
препарата
препаратов
препараты
преподавал
преподавала
преподавание
преподавания
преподавателеи
преподавателем
преподаватели
преподаватель
преподавателя
преподавать
преподобного
преподобныи
препятствие
препятствием
препятствии
препятствия
препятствовать
препятствует
прервал
прервала
прервать
пресвятои
пресечения
преследовал
преследовали
преследование
преследовании
преследования
преследовать
преследует
преследуют
пресс
пресса
прессе
прессы
престарелых
престижных
престол
престола
престоле
престолов
престолъ
преступление
преступлением
преступлении
преступления
преступлениям
преступлениях
преступленіе
преступленія
преступник
преступника
преступники
преступников
преступного
преступнои
преступности
преступностью
преступных
претендента
претендентов
претендентом
претендовать
претендует
претензии
префект
префектуре
префектуры
при
прибавил
прибавила
прибавилъ
прибавить
прибавляет
прибалтии
прибегать
прибегнуть
приближается
приближался
приближе
приближение
приближении
приближения
приблизились
приблизился
приблизительно
приблизиться
прибор
прибора
приборов
приборы
прибрежных
прибудет
прибыв
прибывает
прибывшие
прибывшии
прибывших
прибыл
прибыла
прибыли
прибыло
прибылъ
прибыль
прибытие
прибытии
прибытия
прибыть
приват
приватизации
приве
приведе
приведен
приведена
приведения
приведено
приведены
приведет
приведу
приведут
привез
привезли
привезти
привел
привела
привели
привело
привелъ
приверженность
приверженцев
приверженцы
привести
привет
приветливо
приветствие
приветствовал
приветствовали
привилегии
привле
привлек
привлекает
привлекали
привлекать
привлекают
привлекла
привлекли
привлечение
привлечением
привлечении
привлечения
привлечены
привлечь
приводил
приводили
приводило
приводит
приводится
приводить
приводя
приводят
приводятся
привык
привыкла
привыкли
привыкъ
привычка
привычке
привычки
привычку
привязанности
привязанность
пригласил
пригласила
пригласили
пригласить
приглашает
приглашали
приглашать
приглаше
приглашен
приглашение
приглашению
приглашения
приглашены
приговор
приговора
приговоре
приговорен
приговорены
приговорил
приговорили
приговору
приговоръ
приговоры
пригороде
пригородных
приготовить
[...]
