!
"
#
##0
##1
##10
##11
##12
##13
##14
##15
##16
##17
##18
##19
##2
##20
##21
##22
##23
##24
##25
##26
##27
##28
##29
##3
##30
##31
##32
##33
##34
##35
##36
##37
##38
##39
##4
##40
##41
##42
##43
##44
##45
##46
##47
##48
##49
##5
##50
##51
##52
##53
##54
##55
##56
##57
##58
##59
##6
##60
##61
##62
##63
##64
##65
##66
##67
##68
##69
##7
##70
##71
##72
##73
##74
##75
##76
##77
##78
##79
##8
##80
##81
##82
##83
##84
##85
##86
##87
##88
##89
##9
##90
##91
##92
##93
##94
##95
##96
##97
##98
##99
$
%
&
'
(
)
*
+
,
-
.
/
0
00
000
001
002
003
004
005
007
01
010
02
03
04
041
043
0430
0432
0434
0435
0438
0439
044
0440
0441
0442
0443
05
06
07
08
09
1
10
100
1000
10000
101
102
1024
103
104
105
1050
106
107
108
1080
109
1097
11
110
1100
111
112
113
114
115
1150
116
117
118
1180
119
12
120
1200
1204
121
122
123
1230
1234
1238
124
1240
125
1250
126
1260
127
1270
128
1280
129
13
130
1300
131
132
133
134
1340
135
1350
136
1360
137
1370
138
1380
1389
139
1390
14
140
1400
141
1410
142
1420
143
144
1440
145
1450
1453
146
1460
147
1470
1471
1475
148
1480
1483
1485
149
1490
1492
1494
1495
15
150
1500
1503
1504
1505
1508
151
1510
1512
1513
1515
1516
1517
1519
152
1520
1521
1524
1525
1526
153
1530
1533
1534
1535
1536
154
1540
1542
1545
1547
155
1550
1551
1552
1553
1554
1555
1556
1557
1558
1559
156
1560
1561
1562
1563
1564
1565
1566
1567
1568
1569
157
1570
1571
1572
1573
1574
1575
1576
1577
1578
1579
158
1580
1581
1582
1583
1584
1585
1586
1587
1588
1589
159
1590
1591
1592
1593
1594
1595
1596
1597
1598
1599
16
160
1600
1601
1602
1603
1604
1605
1606
1607
1608
1609
161
1610
1611
1612
1613
1614
1615
1616
1617
1618
1619
162
1620
1621
1622
1623
1624
1625
1626
1627
1628
1629
163
1630
1631
1632
1633
1634
1635
1636
1637
1638
1639
164
1640
1641
1642
1643
1644
1645
1646
1647
1648
1649
165
1650
1651
1652
1653
1654
1655
1656
1657
1658
1659
166
1660
1661
1662
1663
1664
1665
1666
1667
1668
1669
167
1670
1671
1672
1673
1674
1675
1676
1677
1678
1679
168
1680
1681
1682
1683
1684
1685
1686
1687
1688
1689
169
1690
1691
1692
1693
1694
1695
1696
1697
1698
1699
17
170
1700
1701
1702
1703
1704
1705
1706
1707
1708
1709
171
1710
1711
1712
1713
1714
1715
1716
1717
1718
1719
172
1720
1721
1722
1723
1724
1725
1726
1727
1728
1729
173
1730
1731
1732
1733
1734
1735
1736
1737
1738
1739
174
1740
1741
1742
1743
1744
1745
1746
1747
1748
1749
175
1750
1751
1752
1753
1754
1755
1756
1757
1758
1759
176
1760
1761
1762
1763
1764
1765
1766
1767
1768
1769
177
1770
1771
1772
1773
1774
1775
1776
1777
1778
1779
178
1780
1781
1782
1783
1784
1785
1786
1787
1788
1789
179
1790
1791
1792
1793
1794
1795
1796
1797
1798
1799
18
180
1800
1801
1802
1803
1804
1805
1806
1807
1808
1809
181
1810
1811
1812
1813
1814
1815
1816
1817
1818
1819
182
1820
1821
1822
1823
1824
1825
1826
1827
1828
1829
183
1830
1831
1832
1833
1834
1835
1836
1837
1838
1839
184
1840
1841
1842
1843
1844
1845
1846
1847
1848
1849
185
1850
1851
1852
1853
1854
1855
1856
1857
1858
1859
186
1860
1861
1862
1863
1864
1865
1866
1867
1868
1869
187
1870
1871
1872
1873
1874
1875
1876
1877
1878
1879
188
1880
1881
1882
1883
1884
1885
1886
1887
1888
1889
189
1890
1891
1892
1893
1894
1895
1896
1897
1898
1899
19
190
1900
1901
1902
1903
1904
1905
1906
1907
1908
1909
191
1910
1911
1912
1913
1914
1915
1916
1917
1918
1919
192
1920
1921
1922
1923
1924
1925
1926
1927
1928
1929
193
1930
1931
1932
1933
1934
1935
1936
1937
1938
1939
194
1940
1941
1942
1943
1944
1945
1946
1947
1948
1949
195
1950
1951
1952
1953
1954
1955
1956
1957
1958
1959
196
1960
1961
1962
1963
1964
1965
1966
1967
1968
1969
197
1970
1971
1972
1973
1974
1975
1976
1977
1978
1979
198
1980
1981
1982
1983
1984
1985
1986
1987
1988
1989
199
1990
1991
1992
1993
1994
1995
1996
1997
1998
1999
2
20
200
2000
2001
2002
2003
2004
2005
2006
2007
2008
2009
201
2010
2011
2012
2013
2014
2015
2016
2017
2018
2019
202
2020
2021
2022
2023
2024
2025
203
204
205
206
207
208
209
21
210
211
212
213
214
215
216
217
218
219
22
220
2200
221
222
223
224
225
226
227
228
229
23
230
231
232
233
234
235
236
237
238
239
24
240
241
242
243
244
245
246
247
248
249
25
250
2500
251
252
253
254
255
256
257
258
259
26
260
261
262
263
264
265
266
267
268
269
27
270
271
272
273
274
275
276
277
278
279
28
280
281
282
283
284
285
286
287
288
289
29
290
291
292
293
294
295
296
297
298
299
3
30
300
3000
301
302
303
304
305
306
307
308
309
31
310
311
312
313
314
315
316
317
318
319
32
320
321
322
323
324
325
326
327
328
3280
329
33
330
331
332
333
334
335
336
337
338
339
34
340
341
342
343
344
345
346
347
348
349
35
350
3500
351
352
353
354
355
356
357
358
359
36
360
361
362
363
364
365
366
367
368
369
37
370
371
372
373
374
375
376
377
378
379
38
380
381
382
383
384
385
386
387
388
389
39
390
391
392
393
394
395
396
397
398
399
4
40
400
4000
401
402
403
404
405
406
407
408
409
41
410
411
412
413
414
415
416
417
418
419
42
420
421
422
423
424
425
426
427
428
429
43
430
431
432
433
434
435
436
437
438
439
44
440
441
442
443
444
445
446
447
448
449
45
450
451
452
453
454
455
456
457
458
459
46
460
461
462
463
464
465
466
467
468
469
47
470
471
472
473
474
475
476
477
478
479
48
480
481
482
483
484
485
486
487
488
489
49
490
491
492
493
494
495
496
497
498
499
5
50
500
5000
501
502
503
504
505
506
507
508
509
51
510
511
512
513
514
515
516
517
518
519
52
520
521
522
523
524
525
526
527
528
529
53
530
531
532
533
534
535
536
537
538
539
54
540
541
542
543
544
545
546
547
548
549
55
550
551
552
553
554
555
556
557
558
559
56
560
561
562
563
564
565
566
567
568
569
57
570
571
572
573
574
575
576
577
578
579
58
580
581
582
583
584
585
586
587
588
589
59
590
591
592
593
595
596
598
6
60
600
6000
601
602
603
604
605
606
607
608
61
610
611
612
613
614
615
616
617
618
619
62
620
621
622
623
624
625
626
627
628
629
63
630
631
632
633
634
635
636
639
64
640
641
642
645
65
650
654
655
656
658
66
660
664
666
667
67
670
672
675
68
680
682
684
688
69
690
695
699
7
70
700
7000
704
705
707
71
710
711
714
715
717
72
720
722
725
727
73
730
737
74
740
747
75
750
76
760
767
768
77
770
775
777
78
780
79
8
80
800
8000
802
81
810
811
815
82
820
83
830
831
84
840
85
850
86
860
87
870
88
880
89
9
90
900
9000
91
911
92
920
93
930
94
95
950
96
960
966
97
970
978
98
980
985
99
999
:
;
<
=
>
?
@
\
^
_
`
a
aa
ab
abc
abiyoyo
about
ac
academia
academic
academy
accepted
accessed
ace
act
acta
action
ad
adam
adamant
adavyd
addvokat
adis
adventure
adventures
advisor
ae
af
africa
african
after
ag
again
against
age
agent
agra
ah
ai
air
airbus
aircraft
airlines
airport
airways
ais
aise
ak
akim
al
albert
album
albums
alex
alexander
alexandr
alexandrov
alexei
alexey
alexsm
alfa
alice
align
alignbars
all
alliance
allmusic
alma
alogrin
alpha
als
also
alt
altes
am
amazon
amber
amd
america
american
amour
an
analysis
ancient
and
andre
andreik
andrew
andrey
andreykor
android
andy
andyvolykhov
angals
angel
angeles
animal
animation
ann
anna
anne
annual
another
ant
anti
anton
antonio
any
ap
api
apia
apple
april
aqetz
ar
arbnos
arch
architecture
archivarius
archive
archivero
archives
are
area
arena
args
ark
armenian
arms
army
around
array
arsenal
art
arte
arthur
article
articles
artist
artists
arts
as
asia
asian
asp
association
at
atari
atlantic
atlas
atp
attack
atylotus
au
audi
auf
august
aus
australia
australian
author
auto
aux
av
avbtalk
avec
aviation
avn
award
awards
away
ax
az
azerbaijan
azgar
b
ba
babkin
baby
baccy
back
backgroundcolors
bad
bafta
band
bank
bapak
bar
bardata
barra
bas
base
based
basic
bass
battle
bay
bb
bbc
bc
bd
be
beach
beat
beatles
beautiful
been
before
begin
bei
being
beitra
bell
ben
benz
ber
berlin
berserkerus
best
beta
between
bevo
beyond
bezik
bf
bff
bg
bi
biathlon
bien
big
bilderling
bill
billboard
biographie
biography
biology
birds
bis
bit
bj
bk
bl
black
blacklake
blanter
blood
blu
blue
blues
bmw
bn
bo
bobink
body
boeing
bogomolov
boleslav
bon
book
books
border
borealis
borisenko
born
boston
bot
botdr
bottom
box
boy
boys
bq
br
bratchuk
brateevsky
bridge
britain
britannica
british
broken
bros
brothers
brown
bsivko
bu
bug
building
bull
bulletin
burg
burn
bus
business
but
butko
bw
by
c
ca
california
call
cambridge
can
canada
canadian
canon
cantor
canvas
cap
capital
car
carl
carn
carpodacus
case
castle
cat
catalog
catalogue
category
catholic
cb
cbs
cc
cd
cdot
ce
cell
cemenarist
center
central
centre
century
ces
cette
cf
ch
cha
challenge
championship
change
channel
chapter
charles
chart
che
chemical
cher
chess
chi
chicago
child
children
china
chinese
choice
chris
christian
christmas
chronicle
chronicler
chupanebrei
chupanebrej
church
ci
cinema
cinemantique
city
civil
cj
ck
cl
class
classic
claymore
claymorebot
cle
club
cm
cn
co
coat
code
col
cold
cole
coleoptera
collection
college
color
colors
columbia
com
combat
come
comic
comics
comme
common
commons
community
company
complete
complex
computer
con
conference
congress
connection
contemporary
content
contra
contrib
control
core
corporation
cos
council
country
county
court
covid
cp
cq
cr
creative
cross
cs
css
ct
cu
cultural
culture
cup
cz
d
da
daily
dan
dance
daniel
dans
dardar
dark
darkgrey
das
data
database
date
dateformat
david
day
days
db
dc
dd
de
dead
death
dec
december
deep
def
dei
deinocheirus
del
dell
della
delta
deltahead
dem
den
department
der
des
description
design
deutsche
deutschen
deutscher
deutschland
deux
development
devil
dha
di
dib
dibot
dictionary
die
diff
digital
dima
dimabot
dimaniz
dimitris
dinamik
discogs
discovery
dish
disney
district
division
divot
dj
dk
dmartyn
dmitry
do
doc
doctor
dog
doi
don
dos
dot
dots
double
douglas
down
dr
draa
dragon
drakosh
drbug
dream
dreams
drive
ds
dstary
dt
du
dubrow
duke
dur
during
dutcman
dvd
dx
dz
e
ea
eagle
early
earth
east
eastern
ec
economic
economics
ed
edge
edit
edited
edition
editor
eds
edu
education
edward
ee
effect
ein
eine
einer
ekimov
el
electric
electrician
electronic
elle
elmor
else
em
emi
empire
en
encyclopedia
end
energy
engelberthumperdink
engine
engineering
england
english
entertainment
entry
ep
epic
er
era
erokhin
eruvanda
es
esp
espan
est
et
etc
eu
europa
europe
european
evaincat
evgenygenkin
evil
evolution
ex
example
excellence
exists
express
eye
eyes
f
fa
face
facebook
facenapalm
fair
faire
fait
fall
false
family
fand
fantasy
far
fastboy
fc
fe
feat
february
federation
fedor
ferdinandus
ferrari
festival
ff
fi
fiat
fiction
field
fifa
fight
fighter
fighting
fil
file
files
film
films
final
financial
fire
first
fis
fischer
five
flag
flash
flight
florida
floyd
fm
fo
fontsize
food
football
for
forbes
force
forces
ford
foreign
forever
format
forum
found
foundation
four
fox
fr
frac
frame
franc
france
francis
francisco
frank
frankfurt
franz
fred
free
freedom
french
friedrich
friends
from
front
ft
fu
full
function
future
førsten
g
ga
galaxy
gallery
game
games
gamma
gandy
garden
gay
ge
gear
gemeinden
gen
general
generation
genesis
genus
georg
george
georgia
german
germany
gesch
geschichte
get
ghirla
ghost
ghuron
gif
gipoza
girl
girls
give
global
glovacki
gmbh
gnu
go
god
goga
gold
golden
good
google
got
gov
government
gp
gr
grand
grande
gray
great
greatest
grebenkov
greek
green
grey
gridcolor
grig
group
gruznov
grv
gt
gu
guardian
guide
guitar
gun
h
ha
had
halcyon
half
hall
hand
handbook
handbuch
hans
happy
hard
harvard
has
hat
have
hbo
hd
he
head
health
heart
hearts
heaven
height
heinrich
helgo
hell
hello
help
helsing
henry
her
hercules
here
hero
heroes
hi
hiddencat
high
hill
him
his
hist
histoire
historia
historical
history
hits
hms
ho
hobopocc
hokins
hollywood
home
homme
homo
honda
horim
horror
horse
hot
hotel
house
how
hrsg
htm
html
http
https
hu
human
hunter
hunting
hymenoptera
i
ib
ibid
ibidem
ibm
ic
ice
ich
icon
id
idot
ie
ieee
if
igel
ign
ignatus
igor
igrek
ii
iii
il
iluvatar
ilya
im
image
imagesize
imdb
img
impact
in
inc
incnis
increment
independent
index
india
indian
industry
info
information
informed
infovarius
infty
iniquity
ins
insar
insee
inside
insider
instagram
institute
int
intel
interactive
interfase
international
internet
interview
into
introduction
io
ios
ip
iphone
ir
iran
ireland
irish
iron
is
isbn
island
islands
iso
israel
issn
issue
ist
istat
it
italia
itf
its
itunes
iv
ivan
ix
j
ja
jacek
jack
jackson
jaguar
jam
james
jan
jane
january
japan
japanese
java
jazz
je
jean
jewish
jim
jo
joe
johann
john
johnson
jones
jose
joseph
journal
jpeg
jpg
jr
js
ju
juan
jukoff
july
june
junior
just
justice
justify
k
ka
kaganer
kaiyr
kalabaha
karl
kb
ke
key
khinkali
ki
kids
kill
kim
king
kingdom
kings
kir
kiss
kmorozov
know
knowledge
ko
kolchak
kolodin
kong
korea
kos
kosta
kosun
kr
krassotkin
krbot
ku
kul
kunst
kv
kvk
kz
l
la
label
lady
lake
lambda
land
lang
language
languages
lapsy
las
last
late
later
latin
launched
lavrov
law
layer
lazyhawk
lc
ldots
le
league
leben
led
lee
left
legend
leipzig
len
lenta
leo
leokand
leonrid
leqslant
les
lesson
let
letter
letters
letzte
lev
lexikon
lg
li
lib
library
life
light
lightgrey
like
lil
limited
limits
line
linear
link
linnaeus
linux
list
lite
literature
little
live
living
ll
lle
ller
ln
lo
local
log
logo
loi
london
loneos
long
look
lord
los
lost
lotus
louis
love
low
lp
lr
lt
ltd
lu
lui
luterr
lv
m
ma
mac
machine
macuser
madame
made
madrid
magazine
magic
mai
mail
main
mais
major
make
making
maman
man
management
many
map
maps
mar
march
maria
marie
marine
mario
mark
mars
martin
marvel
mary
mass
master
masters
match
math
mathbb
mathbf
mathcal
mathrm
mathsf
max
maxbiohazard
maximaximax
may
mbh
mbox
mc
mcg
md
me
med
medal
media
mediawiki
medical
medicine
medieval
mega
melirius
memorial
memory
men
mercedes
mes
metacritic
metal
metro
mexico
mg
mi
michael
michel
michgrig
microsoft
mid
middle
mihail
mike
miksed
milano
military
miller
min
mind
mini
minor
mir
miss
mission
misterxs
mistery
mit
mitrius
mix
mk
mls
mm
mms
mn
mo
mobile
mod
mode
model
modern
moi
mon
monde
money
monsieur
moon
more
morning
mos
moscow
most
mother
motor
mountain
movie
mp
mr
mrsi
ms
mstislavl
mtv
mu
muhranoff
muse
museum
music
musical
must
mvp
mw
my
n
na
nach
name
names
narod
nasa
nation
national
nations
natural
nature
naval
navy
nb
nbc
nbs
ncaa
nchen
nd
ne
neat
need
neolexx
nes
net
netflix
network
neue
never
new
news
newsru
next
ng
ngc
nh
ni
nicht
nickpo
nicolas
night
nik
niklem
nil
nintendo
nissan
niz
nl
nn
no
noeditsection
noindex
nokia
nom
non
nord
north
northern
nos
not
note
notes
nothing
notoc
notre
nous
nov
nova
november
now
nr
nt
nu
nuclear
number
ny
o
obersachse
oc
och
ockhamthefox
october
oder
of
off
office
official
oh
oil
ois
ok
old
ole
oleg
om
omega
on
one
onelittlemouse
online
only
op
open
opera
operatorname
optimist
optimizm
or
orange
orchestra
order
org
orientation
origin
original
os
other
otto
ou
ouaf
our
out
over
own
oxford
p
pa
pacific
page
pages
palace
pan
paper
papers
par
paramount
paris
park
part
partial
party
partyzan
pas
past
pauk
paul
pavel
pc
pd
pdf
pe
peace
people
per
performance
period
pessimist
peter
petersburg
petrov
pg
pgc
ph
phi
philip
philosophy
photo
php
physics
pi
piano
pictures
pierre
pink
pirat
pl
place
plan
planet
plant
play
player
playstation
plotarea
plotdata
plus
pm
png
po
poe
point
policy
political
politics
poly
pop
population
porsche
port
portrait
pos
position
post
pour
power
pp
pr
pre
premier
present
president
press
prime
prince
prix
prize
pro
proceedings
production
productions
profile
program
project
ps
psi
pt
ptqa
public
publication
publications
published
publishers
publishing
purple
putnik
pwn
px
python
q
qba
qkowlew
qu
quad
que
queen
qui
r
ra
race
racing
radio
rafinin
railway
rain
rainbow
rap
rasabjacek
rasamjacek
rave
raw
ray
rd
re
real
record
records
red
ref
reference
region
relations
release
religion
remix
renault
report
republic
res
research
result
results
retired
retrieved
return
rev
review
reviews
revolution
revue
rgb
rho
ri
rich
richard
right
rightarrow
rights
ring
rio
rise
river
rmikatva
ro
road
robert
rock
roll
rolling
roma
roman
rome
room
ros
rose
rosssw
rotten
routledge
royal
rozhkov
rp
rs
rsssf
rt
ru
rubin
rumata
run
rus
russia
russian
russie
ruwiki
s
sa
sabunero
saga
saidaziz
saint
salsero
sam
samal
samsung
samtredia
san
sans
santa
saramag
sas
sasha
say
sc
scalemajor
scaleminor
schetnikova
schloss
school
schrike
sci
science
sciences
scientific
scorpion
scott
sd
se
sea
sealle
search
season
second
secret
secretary
section
security
see
sega
self
september
serg
sergey
series
server
service
services
seryo
ses
set
seven
sex
sfondo
sg
sh
shadow
shakko
shamash
she
shift
shinephantom
ship
ships
short
should
show
shuklin
shurf
si
sic
side
sie
siemens
sigma
sign
sigwald
silent
silver
simon
sims
sin
since
single
singles
sir
siren
sirozha
site
six
size
sk
ski
sky
skydrinker
sl
sm
smackdown
small
smartass
smith
so
soc
social
socie
society
software
solovjev
some
son
song
songs
sonic
sons
sony
soul
sound
source
south
southern
soviet
sp
space
spacewatch
spade
special
species
spectre
speed
spider
spieler
spirit
sport
sports
spring
springer
sqrt
square
sr
ss
ssr
st
sta
stage
stamp
standard
stanley
star
stark
stars
start
state
states
station
status
steam
steel
stephen
still
stone
stop
store
stories
story
str
street
strike
string
structure
sts
studies
studio
studios
study
stuttgart
style
su
sub
sum
summer
sun
sunday
sup
super
sur
survey
sv
svg
sweet
switch
system
systems
t
ta
table
tag
take
tales
talk
tat
tatewaki
tau
taylor
te
team
technology
telegraph
television
template
temple
temps
tempus
ten
tenbaset
tes
test
texas
text
textcolor
textdata
textworkerbot
th
than
that
the
theater
theatre
their
them
then
theory
there
these
theta
they
things
third
this
thomas
three
through
thumb
ti
till
time
timeaxis
times
title
tko
tlg
to
toc
today
tokyo
tom
tomatoes
too
top
torin
total
tour
tout
tower
town
toyota
tr
track
trade
train
translation
tre
tree
true
trust
truth
ts
tt
tu
tucvbif
tv
tve
twitter
two
tymahe
type
u
ua
uc
ueber
ufc
uk
ukraine
ultimate
um
un
una
und
under
une
union
unit
united
universal
universe
university
unix
up
upd
upright
url
us
usa
usb
usd
use
used
user
userbox
uss
utc
v
va
vajrapa
vajrapani
vald
valda
valdis
valentine
valley
value
van
vap
var
varepsilon
variety
varphi
vcohen
ve
vec
venzz
verlag
version
vertical
very
vestnik
vhs
vi
via
victor
victoria
video
vie
view
vii
viii
village
virgin
vision
visual
vita
vk
vladimir
vladis
vladxe
vlsergey
vo
voice
vol
volkov
volkswagen
volume
vom
von
vor
vort
votre
vous
voyager
vs
vu
vyacheslav
vyk
w
wa
walker
wall
walter
wanderer
want
wanwa
war
warner
wars
warszawa
was
washington
watch
water
way
wba
wbc
we
web
website
week
weekly
well
were
werter
west
western
what
when
where
which
white
who
why
wi
width
wie
wien
wii
wiki
wikimedia
wikipedia
wild
wilhelm
will
william
williams
wilson
win
wind
windewrix
windows
winter
with
without
wo
wolf
woman
women
word
work
works
world
would
wp
wrestling
wrong
wta
wu
wulfson
wwe
wwf
www
x
xa
xbox
xi
xii
xiii
xiv
xix
xl
xm
xrightarrow
xv
xvi
xvii
xviii
xx
xxi
xxii
xxiii
xxiv
xxix
xxv
xxvi
xxvii
xxviii
xxx
y
ya
yaroslav
year
years
yellow
yes
yms
york
you
young
your
youtube
yu
yuri
yuriy
yyyy
z
za
zanka
ze
zeit
zeitschrift
zeitung
zero
zh
zu
zum
zur
{
|
}
~
¡
£
¦
§
©
ª
«
¬
­
®
°
±
²
³
´
·
¹
º
»
¼
½
¾
¿
×
æ
ð
÷
ø
ı
ł
ŋ
ə
ɪ
ʰ
ʻ
ʼ
ʿ
ˈ
ː
˚
̀
́
̂
̃
̄
̆
̇
̈
̉
̊
̋
̌
̑
̓
̔
̛
̣
̥
̦
̧
̨
̯
̱
̸
͂
ͅ
͡
΄
α
β
γ
δ
ε
η
θ
ι
κ
και
λ
μ
ν
ο
π
ρ
ς
σ
τ
το
του
υ
φ
χ
ω
ϝ
а
аа
аарон
аббас
аббат
аббата
аббатства
аббатство
аббревиатура
абд
абдул
абдулла
абзац
абзаца
абзаце
абзацев
абзацы
або
абрам
абрамов
абрамович
абсолютная
абсолютно
абсолютного
абсолютное
абсолютнои
абсолютныи
абсолютным
абсурд
абсурда
абу
абхазии
абхазия
ав
авангард
авангарда
аварии
аварию
авария
авг
август
августа
августе
августин
августина
августу
авдотья
авеню
авиакомпании
авиакомпания
авиациеи
авиации
авиационная
авиационного
авиационное
авиационнои
авиационные
авиационныи
авиационных
авиация
авив
авось
авраам
авраама
аврора
австр
австралии
австралию
австралия
австриеи
австрии
австрию
австрия
австро
австріи
авт
авто
автобиографии
автобиография
автобус
автобуса
автобусов
автобусы
автограф
автографу
автодорога
автодороге
автодороги
автоитог
автомат
автомата
автоматизации
автоматическая
автоматически
автоматическии
автоматического
автоматическое
автоматическои
автоматическом
автоматов
автоматы
автомобиле
автомобилеи
автомобилем
автомобили
автомобиль
автомобильная
автомобильного
автомобильнои
автомобильные
автомобильныи
автомобильным
автомобильных
автомобиля
автомобилях
автономии
автономию
автономная
автономного
автономнои
автономныи
автономных
автопатрулируемого
автоперенос
автор
автора
авторам
авторами
авторе
авторитет
авторитета
авторитетного
авторитетности
авторитетность
авторитетные
авторитетныи
авторитетным
авторитетными
авторитетных
авторитетом
авторов
автором
авторская
авторские
авторскии
авторским
авторских
авторского
авторское
авторскои
авторском
авторства
авторство
автору
авторъ
авторы
ага
агата
агент
агента
агентами
агентов
агентом
агентства
агентство
агентством
агенты
агитации
агломерации
аграрного
аграрнои
аграфена
агрегатов
агрессии
агрогородок
агроном
ад
ада
адам
адама
адамс
адаптации
адаптация
адвокат
адвоката
адвокатов
адвокатом
адвокаты
аделаида
адель
адм
админ
админа
административная
административно
административного
административное
административнои
административном
административному
административную
административные
административныи
административным
административных
администратор
администратора
администраторам
администраторами
администраторов
администратором
администратору
администраторы
администрациеи
администрации
администрацию
администрация
админов
админы
адмирал
адмирала
адмиралов
адмиралом
адмиралтеи
адмиралу
адмиралы
адольф
адольфа
адрес
адреса
адресов
адресу
адриан
адриана
аду
адъютант
адъютанта
адъютантом
адыгеи
адыгея
аж
аз
азбука
азербаи
азиатские
азиатских
азиатского
азиатскои
азии
азию
азия
азов
азовского
азота
азіи
аи
ак
акад
академиеи
академии
академик
академика
академики
академиком
академическая
академические
академическии
академических
академического
академическои
академическом
академию
академия
академіи
аквариум
акватории
аки
аким
аккаунт
аккредитации
аккуратно
акмолинскои
аксаков
аксакова
аксе
аксель
акт
акта
актами
актах
акте
актер
актера
актеров
актеры
активации
активен
активист
активистов
активисты
активная
активно
активного
активное
активнои
активности
активность
активностью
активную
активные
активныи
активным
активными
активных
активов
активы
актов
актом
актриса
актрисе
актрисои
актрисы
актуальность
актуальные
акты
акул
акула
акулы
акустическая
акутагава
акушерскии
акцент
акцентом
акции
акционерного
акционерное
акционеров
акцию
акция
ал
ала
алан
алана
алания
албании
албания
алгебры
алгоритм
алгоритма
алгоритмов
алгоритмы
але
алеи
алекс
алекса
александр
александра
александрвв
александре
александрии
александрия
александро
александров
александрова
александрович
александровича
александровичу
александровичъ
александровка
александровна
александровны
александровскии
александровского
александровскои
александровском
александром
александру
александръ
александры
алексе
алексеев
алексеева
алексеевич
алексеевича
алексеевна
алексеем
алексеи
алексею
алексея
алексии
алексия
алексѣи
ален
алена
алеппо
алессандро
алеша
алжир
алжира
алжире
али
алиев
алиева
алина
алиса
алисы
алкоголь
алкоголя
алла
аллан
аллах
аллаха
аллее
аллеи
аллен
аллея
алма
алмаз
алматинскои
алматы
алонсо
алт
алтаи
алтаре
алтарь
алтаря
алтая
алтын
алфавит
алфавита
алфавитныи
алфавиту
алыи
аль
альба
альберт
альберта
альберто
альбом
альбома
альбомах
альбоме
альбомов
альбомом
альбому
альбомы
альбрехт
альваро
альма
альманах
альп
альпии
альпы
альт
альтернатива
альтернативная
альтернативного
альтернативнои
альтернативные
альтернативныи
альтернативных
альтернативы
альфа
альфонс
альфонсо
альфред
альфреда
альянс
альянса
алюминия
аляска
аляски
ам
амвросии
америка
американец
американо
американская
американские
американскии
американским
американскими
американских
американского
американское
американскои
американском
американскому
американскую
американца
американцев
американцы
америке
америки
америку
америкѣ
ами
амингу
аминь
амир
амн
амнистии
амплуа
амстердам
амстердаме
амур
амура
амуре
амурская
амурскои
амфибии
ан
ана
анализ
анализа
анализе
анализировать
анализом
анализу
аналитики
аналитических
аналитическои
аналог
аналоги
аналогии
аналогичная
аналогично
аналогичного
аналогичное
аналогичнои
аналогичную
аналогичные
аналогичныи
аналогичным
аналогичных
аналогия
аналогов
аналогом
анастасии
анастасия
анатолии
анатолия
анатольевич
анатольевна
анатомии
анатомия
ангальт
ангел
ангела
ангелов
ангелъ
ангелы
англ
англиеи
англии
англичан
англичанам
англичанами
англичане
англичанин
англичанина
англичанъ
англию
англия
англо
англовики
англоязычнои
англоязычных
англіи
англію
анголы
андерсон
анджелес
анджелеса
анджелесе
анджело
андре
андреа
андреас
андреев
андреева
андреевич
андреевича
андреевна
андреем
андреи
андрею
андрея
андромеды
анекдот
анекдоты
анжелика
анжуи
ани
анимации
анимационныи
аниме
анна
анналы
анне
анненков
анненского
аннои
анну
анны
аномалии
аноним
анонима
анонимно
анонимные
анонимныи
анонимных
анонимов
анонс
анри
ансамбль
ансамбля
ант
антанты
антенны
анти
антиохии
античного
античнои
античности
античные
античных
антологии
антология
антон
антона
антонии
антонина
антонио
антония
антонов
антонова
антонович
антоніи
антоніо
антропологии
антуан
анюта
аня
ао
ап
апат
апелляции
апелляционнои
аполлон
аполлона
апостол
апостола
апостолов
апостольскии
апостольскои
аппарат
аппарата
аппарате
аппаратов
аппаратом
аппаратуры
аппараты
апр
апреле
апрель
апреля
апрѣля
аптека
апэ
ар
араб
арабов
арабская
арабские
арабскии
арабских
арабского
арабскои
арабском
арабы
аравии
аравия
арагона
арамеи
арбитр
арбитра
арбитраж
арбитражного
арбитражныи
арбитражным
арбитров
арбитром
арбитры
аргентина
аргентине
аргентинскии
аргентины
аргумент
аргумента
аргументам
аргументами
аргументациеи
аргументации
аргументацию
аргументация
аргументов
аргументом
аргументы
ареал
ареала
арена
аренда
аренде
аренду
аренды
арене
аренои
арену
арены
арест
ареста
арестантов
аресте
арестовали
арестован
арестована
арестованных
арестованы
арестовать
арестом
аресту
аресты
аризона
арии
арина
аристократ
аристократии
аристотель
аристотеля
ария
арк
арка
аркадии
аркадия
аркадьевич
арки
арктики
арм
арман
армеи
армении
армению
армения
армиеи
армии
армию
армия
армиями
армян
армяне
армяно
армянская
армянские
армянскии
армянских
армянского
армянское
армянскои
армянском
арміи
армію
армія
арно
арнольд
аромат
арсенал
арсенала
арсении
арт
арте
артели
артель
артемии
артерии
артиллериеи
артиллерии
артиллеристы
артиллерию
артиллерия
артиллеріи
артист
артиста
артистами
артистка
артистки
артистов
артисты
артур
артура
артуръ
арх
архангела
архангельск
архангельска
архангельская
архангельскии
архангельского
архангельскои
археолог
археологи
археологии
археологические
археологическии
археологических
археологического
археологическои
археология
архив
архива
архивах
архивации
архиве
архивные
архивных
архивов
архивы
архиепархии
архиепископ
архиепископа
архиепископом
архиепископы
архиереи
архимандрит
архимандрита
архипелаг
архипелага
архитектор
архитектора
архитекторов
архитектором
архитекторы
архитектура
архитектуре
архитектурно
архитектурного
архитектурнои
архитектурные
архитектурныи
архитектурных
архитектуру
архитектуры
арш
аршин
аршина
ас
асакура
аспект
аспектов
аспекты
аспирантуре
аспирантуру
ассамблеи
ассамблея
ассирии
ассистент
ассистента
ассистентом
ассоциациеи
ассоциации
ассоциацию
ассоциация
ассоциируется
асср
аст
астана
астероид
астероида
астероидов
астероиды
астрахани
астраханскои
астрахань
астроном
астрономии
астрономические
астрономических
астрономия
астрономом
астрономы
ат
ата
атак
атака
атаке
атаки
атаковал
атаковала
атаковали
атаковать
атакои
атаку
атаман
атамана
ате
атланта
атланте
атлантическии
атлантического
атлас
атласа
атлетик
атлетика
атлетике
атлетико
атмосфера
атмосфере
атмосферного
атмосферных
атмосферу
атмосферы
атом
атома
атомнои
атомных
атомов
атомы
атрибут
атрибуты
атташе
ау
аудио
аудитории
аудиторию
аудитория
аукциона
аукционе
аул
аула
афанасии
афанасия
афанасьев
афанасьевич
афганистан
афганистана
афганистане
афганскои
афин
афинах
афины
афиша
афк
африка
африканскии
африканских
африканского
африканскои
африке
африки
африку
ах
ахеи
ахмад
ахматовои
ахмед
ахъ
аш
аша
ашер
аще
аэродром
аэродрома
аэродроме
аэропорт
аэропорта
аэропортов
аэропорту
аэропорты
аэс
ая
аякс
б
ба
баб
баба
бабка
бабочек
бабочка
бабочки
бабу
бабушка
бабушки
бабушкои
бабы
баварии
бавария
баварскои
багажа
бад
баден
баз
база
базар
базе
базилика
базилики
базирования
базируется
базовои
базовые
базовыи
базовых
базои
базу
базы
баи
бак
бака
бакалавра
баки
бакинского
бактерии
баку
бакунин
бакунина
бал
бала
баланс
баланса
балерина
балет
балета
балетмеи
балка
балканах
балки
балкон
балкона
балл
балла
баллада
баллады
баллов
баллотировался
баллотироваться
балтии
балу
балы
бальмонт
бальмонта
бан
бана
бангладеш
банда
бандитов
бандиты
банды
бане
бани
банк
банка
банках
банке
банки
банкир
банкноты
банков
банковских
банковского
банковскои
банком
банкротства
банкротстве
банку
бантом
баню
баня
бар
бара
барабан
барабана
барабанщик
барабаны
барак
баранов
барбара
баре
бари
барин
барина
барину
баринъ
барнаул
барокко
барон
барона
баронесса
баронов
бароном
барону
баронъ
бароны
барри
барс
барселона
барселоне
барселоны
барт
барыни
барыня
барышни
барышня
барьер
бас
басист
баскетбол
баскетболист
баскетболисты
баскетболу
баскетбольнои
баскетбольныи
басни
бассеи
бат
батальон
батальона
батальоне
батальонов
батальоном
батальоны
батареи
батарею
батарея
батист
батлер
батюшка
батюшки
баумана
бах
баха
бахреи
бахчисараи
башен
башкир
башкирии
башкирская
башкирскии
башкирского
башкирскои
башкиры
башкортостан
башкортостана
башмаки
башне
башнеи
башни
башню
башня
башнями
баян
бгу
бе
беатриче
бег
бега
бегал
бегали
бегать
беге
беги
беглецов
беглыи
беглых
бегом
бегства
бегство
бегством
бегу
бегуны
бегут
бед
беда
беде
беден
бедная
бедного
беднои
бедности
бедность
бедную
бедные
бедныи
бедным
бедных
бедняков
бедра
бедствие
бедствии
бедствия
беду
беды
бежал
бежала
бежали
бежать
беженцев
беженцы
бежит
без
безвозвратно
бездеи
бездна
бездну
бездны
безжалостно
безмолвно
безморозного
безморозныи
безнаде
безнадежно
безнаказанно
безо
безопасно
безопасное
безопасности
безопасность
безпокои
безпрестанно
безработицы
безработных
безразлично
безумие
безумия
безумная
безумно
безумнои
безумныи
безусловно
безуспешно
безъ
безымянныи
беи
бек
бека
беккер
бел
бела
беларуси
беларусь
беларусі
белая
белгород
белгородская
белгородскои
белград
белграде
беле
белинскии
белинского
белка
белки
белков
белл
белла
бело
белов
белогвардеи
белого
белое
белои
белок
белом
белому
белоруссии
белоруссия
белорусская
белорусские
белорусскии
белорусских
белорусского
белорусскои
белорусском
белую
белые
белыи
белым
белыми
белых
бельгии
бельгия
белье
белья
белэн
беляев
беляева
бен
бена
бенджамин
бенедикт
бенедикта
бенефис
бенни
бенуа
бер
берг
берга
бере
берег
берега
берегам
берегах
берегись
берегов
береговая
береговои
береговъ
берегом
берегу
берегъ
бережно
березы
беременности
беременность
берет
берется
беретъ
беречь
бери
берите
беркли
берлин
берлина
берлине
берлинскии
берлинского
берлинскои
берлинском
берн
бернар
бернард
бернардо
бернштеи
берри
берт
берта
бертран
беру
берусь
берут
берутся
бес
бесед
беседа
беседе
беседовал
беседу
беседы
бесконечно
бесконечного
бесконечное
бесконечнои
бесконечности
бесконечные
беспартии
бесплатно
бесплатныи
беспокои
беспокоить
беспокоиться
бесполезно
беспорядке
беспорядки
беспорядков
беспорядок
беспощадно
беспрепятственно
беспрерывно
беспрестанно
бессарабии
бесследно
бессмертие
бессмертия
бессмысленно
бессознательно
бесспорно
бессрочно
бессрочнои
бестужев
бестужева
бесчисленные
бесчисленных
бесшумно
бет
бета
бетона
бетти
бетховена
бешенства
бешенство
бея
би
биатлону
библеи
библии
библиографии
библиография
библиотек
библиотека
библиотеках
библиотеке
библиотеки
библиотекои
библиотеку
библию
библия
биг
биеннале
бизнес
бизнеса
бизнесе
бизнесмен
бизнесом
бии
бил
била
билет
билета
билетов
билеты
били
бились
билл
билла
билли
билль
билось
бился
бин
био
биобиблиографическии
биограф
биографии
биографическая
биографические
биографическии
биографию
биография
биолог
биологии
биологические
биологических
биологического
биологическои
биология
биржа
бирже
биржи
бирон
бис
бисмарк
бисмарка
бит
битв
битва
битвах
битве
битву
битвы
бить
биться
бич
бк
бл
бла
благ
блага
благо
благоговеи
благодарен
благодарил
благодарить
благодарна
благодарности
благодарность
благодарностью
благодарю
благодаря
благодати
благодать
благополучие
благополучия
благополучно
благоприятные
благоприятных
благоразумно
благородие
благородная
благородно
благородного
благородное
благороднои
благородные
благородныи
благородным
благородных
благородства
благородство
благосклонно
благословение
благословения
благослови
благословил
благосостояние
благосостояния
благотворительного
благотворительнои
благотворительности
благотворительность
благотворительные
благотворительныи
благотворительных
благоустрои
благочестивыи
благочестия
благочиния
благу
блаженного
блаженнои
блаженныи
блаженства
блаженство
бланш
бле
бледная
бледно
бледное
бледные
бледныи
бледным
блеи
блеск
блеска
блеске
блеском
блескъ
блестели
блестящая
блестяще
блестящее
блестящеи
блестящие
блестящии
блестящим
блестящими
блестящих
блестящую
ближаи
ближе
ближнего
ближнем
ближнему
ближнии
ближних
близ
близка
близкая
близки
близкие
близкии
близким
близкими
близких
близко
близкого
близкое
близкои
близком
близлежащих
близнецов
близнецы
близок
близости
близость
близъ
близь
блог
блоге
блок
блока
блокада
блокаду
блокады
блоке
блоки
блокировать
блокировка
блокировке
блокировки
блокировкои
блокировку
блокировок
блоков
блоком
блом
блэи
блэк
блюд
блюда
блюдо
блюз
блѣдныи
бмп
бо
боб
боба
бобби
бобров
бобруи
бог
бога
богам
богами
богат
богата
богатая
богатеи
богато
богатого
богатое
богатои
богатств
богатства
богатстве
богатство
богатством
богатству
богатую
богаты
богатые
богатыи
богатым
богатыми
богатырь
богатых
богатыхъ
богаче
богдан
богдана
богданов
богданович
боге
богемии
боги
богини
богиня
богов
боговъ
богом
богоматери
богомъ
богородица
богородицы
богослов
богослова
богословие
богословия
богословскии
богословского
богословскои
богословы
богослужение
богослужении
богослужения
богу
богъ
бодро
бодрость
бое
боев
боевая
боевики
боевиков
боевого
боевое
боевои
боевом
боевую
боевые
боевым
боевыми
боевых
боем
боеприпасами
боеприпасов
боеприпасы
боец
боже
божеств
божества
божественная
божественного
божественное
божественнои
божественную
божественныи
божество
божие
божиеи
божии
божиим
божию
божия
божьего
божьеи
божья
божіи
бои
боитесь
боится
боишься
бок
бока
бокам
боков
боковои
боковые
боковыми
боковых
боком
бокс
бокса
боксе
боксу
боку
бокъ
бол
бола
болгар
болгарии
болгарию
болгария
болгарская
болгарскии
болгарских
болгарского
болгарскои
болгары
боле
более
болезнеи
болезненно
болезни
болезнь
болезнью
болельщиков
болен
болеслав
боли
боливии
болит
болот
болота
болотах
болоте
болото
болтать
болу
боль
больна
больная
больниц
больница
больнице
больницу
больницы
больно
больного
больнои
больному
больную
больные
больным
больными
больных
больныхъ
больш
большаго
большая
больше
большевик
большевиками
большевики
большевиков
большевистскои
большего
большее
большеи
большем
большему
большею
большие
большии
большим
большими
большимъ
большинства
большинстве
большинство
большинством
большинству
больших
большихъ
большого
большое
большои
большом
большому
большомъ
большою
большую
большіе
большія
болью
болѣе
болѣзни
болѣзнь
бомб
бомба
бомбардир
бомбардиров
бомбардировки
бомбардировщик
бомбардировщиков
бомбардиром
бомбардиры
бомбу
бомбы
бон
бонапарт
бонапарта
бондаренко
бонус
бор
бора
бордо
борется
борец
борис
бориса
борисов
борисова
борисович
борисовна
борисом
борису
бормотал
боро
борода
бородин
бородои
бороду
бороды
боролась
боролись
боролся
бороться
борт
борта
бортовои
борту
борца
борцов
борцы
борьба
борьбе
борьбои
борьбу
борьбы
борьбѣ
борются
боснии
босния
босс
бостон
бостоне
бот
бота
ботаник
ботаника
ботаники
ботаническии
ботанического
ботаническое
ботинки
ботов
ботом
боты
боуи
бочки
бою
боюсь
боя
боязни
боязнь
боялась
боялись
боялся
боями
бояр
боярами
бояре
боярин
боярина
боярских
боясь
боятся
бояться
боях
бр
бра
браво
бразилии
бразилия
бразильскии
браи
брак
брака
браке
браки
браков
браком
браку
бракъ
брал
брала
брали
бралъ
бранденбург
брани
брань
брат
брата
брате
братец
братецъ
братии
братом
братомъ
братская
братскои
братства
братство
брату
братцы
братъ
брать
братьев
братьевъ
братья
братьям
братьями
браузер
браун
брауна
браунинг
брауншвеи
брачныи
бре
бревна
бревно
бред
бреду
бреи
бремя
бренд
бренда
брендом
брест
брестскои
бретани
бриг
бригад
бригада
бригаде
бригадир
бригадныи
бригадои
бригаду
бригады
британии
британская
британские
британскии
британским
британскими
британских
британского
британское
британскои
британском
британцев
британцы
бровеи
брови
бровями
брод
бродвеи
бродил
бродили
бродит
бродить
бродяга
бродяги
брокгауза
бронебои
броневои
броненосец
бронетранспорте
бронза
бронзовая
бронзового
бронзовои
бронзовую
бронзовые
бронзовыи
бронзовым
бронзовых
бронзу
бронзы
брони
броня
бросает
бросается
бросал
бросали
бросать
бросают
бросаются
бросая
бросив
бросил
бросила
бросилась
бросили
бросились
бросился
бросилъ
бросить
броситься
бросков
брось
бросьте
брошюр
брошюра
брошюру
брошюры
брук
бруно
брут
брэ
брэдли
брюгге
брюки
брюс
брюса
брюсов
брюсова
брюсселе
брюссель
брюхо
брюшка
брюшко
брюшнои
брянск
брянская
брянского
брянскои
бсср
бсэ
бтр
бу
буда
будапешт
будапеште
будда
буддизм
буддизма
буддии
будды
буде
будем
будемъ
будет
будете
будетъ
будешь
будить
будто
буду
будут
будутъ
будучи
будущаго
будущая
будущего
будущее
будущеи
будущем
будущему
будущемъ
будущие
будущии
будущим
будущих
будущность
будущую
будь
будьте
буи
букв
буква
буквально
буквами
букве
буквои
букву
буквы
букет
булгаков
булгакова
бульвар
бульвара
бульваре
бум
бумаг
бумага
бумагами
бумагах
бумаге
бумаги
бумагои
бумагу
бумажки
бумажку
бумажнои
бумажные
бумажных
бунин
бунина
бунт
бунта
бурбон
бург
бургомистр
бургундии
буреи
буржуа
буржуазии
буржуазия
буржуазного
буржуазнои
буржуазных
бури
буркина
бурно
бурныи
бурого
бурыи
бурь
бурю
буря
бурят
бурятии
бурятия
бус
буса
бусов
бусы
бутана
бутылка
бутылки
бутылку
бутылок
бухарест
бухаресте
бухта
бухте
бухту
бухты
буш
буша
буэнос
бъ
бы
быв
бывает
бываетъ
бывал
бывала
бывали
бывало
бывалъ
бывать
бывают
бываютъ
бывш
бывшаго
бывшая
бывшего
бывшее
бывшеи
бывшем
бывшему
бывшие
бывшии
бывшим
бывшими
бывших
бывшую
бывшіи
бык
быка
быков
был
была
были
было
былое
былъ
быль
быстрая
быстрее
быстро
быстрого
быстрое
быстрои
быстром
быстрому
быстротои
быстротою
быстрые
быстрыи
быстрым
быстрыми
быстрых
быт
быта
быти
бытие
бытия
бытность
бытового
бытовои
бытовые
бытовых
быту
бытъ
быть
бышева
бышевского
бье
бьет
бьется
бьют
бэи
бэк
бэтмен
бюджет
бюджета
бюджете
бюджетного
бюджетнои
бюджетных
бюджетов
бюллетень
бюро
бюрократа
бюрократов
бюрократы
бюст
бѣда
бѣднаго
бѣдная
бѣднои
бѣдныи
бѣдныхъ
бѣжалъ
бѣжать
бѣжитъ
бѣлаго
бѣлая
бѣлинскіи
бѣлои
бѣломъ
бѣлые
бѣлыи
бѣлыхъ
бѣлыя
в
ва
вавилон
вавилона
ваганьковском
вагнер
вагнера
вагон
вагона
вагоне
вагонов
вагоны
вадим
вадима
важен
важна
важная
важнее
важнеи
важно
важного
важное
важнои
важном
важности
важность
важностью
важную
важны
важные
важныи
важным
важными
важных
важнѣи
ваз
вазы
ваи
вак
вакцины
вал
вала
валдаи
валенсии
валенсия
валентин
валентина
валентинович
валериан
валерии
валерия
валерьевич
вали
валлии
валов
валовои
валом
валу
валуа
валы
валь
вальс
вальтер
вальтера
валюты
вам
вами
вамъ
ван
вана
ванда
вандал
вандализм
вандализма
вандализмом
вандалов
ване
ванкувер
ванкувере
ванны
вань
ванька
ваня
вар
варвара
варваров
варвары
вариант
варианта
вариантах
варианте
вариантов
вариантом
варианту
варианты
вариации
варшава
варшаве
варшавскии
варшавского
варшавскои
варшаву
варшавы
варьирует
варьируется
варя
вас
васи
василием
василии
василиса
василию
василия
васильев
васильева
васильевич
васильевича
васильевичу
васильевичъ
васильевна
васильевны
васильич
василіи
васъ
васька
вася
ватикана
вацлав
ваш
ваша
ваше
вашего
вашеи
вашем
вашему
вашемъ
ваши
вашим
вашими
вашимъ
вашингтон
вашингтона
вашингтоне
ваших
вашихъ
вашу
вашъ
вблизи
вв
вве
введе
введен
введена
введение
введением
введении
введения
введено
введены
ввел
ввела
ввели
вверх
вверху
вверхъ
ввести
ввиду
ввод
ввода
вводит
вводится
вводить
вводят
ввоз
ввп
ввс
вгк
вглубь
вд
вдали
вдаль
вдв
вдвое
вдвоем
вдвоемъ
вдвои
вднх
вдобавок
вдова
вдове
вдовои
вдоволь
вдовы
вдоль
вдохновение
вдохновения
вдохновле
вдруг
вдругъ
ве
веб
вебер
вега
вегас
вегетации
вегетационныи
вед
веде
ведение
ведении
ведению
ведения
ведет
ведется
ведетъ
веди
ведома
ведомостеи
ведомости
ведомостях
ведомств
ведомства
ведомство
ведомству
ведра
ведро
ведут
ведутся
ведутъ
ведущая
ведущего
ведущеи
ведущие
ведущии
ведущим
ведущими
ведущих
ведущую
ведь
ведьм
ведьма
ведьмы
ведя
вежливо
везде
вездѣ
везли
везти
веи
век
века
веками
веках
веке
веки
веков
веком
вексель
векселя
вектор
вектора
веку
вел
вела
велась
велел
велела
велели
велено
вели
велик
велика
великаго
великан
великая
велики
великие
великии
великим
великими
великимъ
великих
великихъ
велико
великобританиеи
великобритании
великобританию
великобритания
великого
великодушно
великое
великои
великолепная
великолепно
великолепные
великолепныи
великом
великому
великомученика
великою
великую
великъ
великіи
велись
велит
величаи
величества
величество
величеству
величие
величин
величина
величине
величинои
величину
величины
величия
вело
велогонщик
велогонщики
велось
велъ
вельмож
вельможи
велѣлъ
вен
вена
венгерская
венгерскии
венгерских
венгерского
венгерскои
венгрии
венгрию
венгрия
венгров
вене
венера
венеры
венесуэла
венесуэлы
венец
венецианскии
венецианскои
венеции
венеция
вениамин
венок
венскии
венского
венскои
вентиляции
вену
вены
вер
вера
верблюдов
верде
верди
вере
веревки
веревку
верен
верещагин
верил
верили
верит
верите
верить
веришь
вермахта
верна
верная
верне
вернее
вернемся
вернер
вернется
верно
верного
верное
вернои
верности
верность
вернувшись
вернул
вернулась
вернули
вернулись
вернулось
вернулся
вернусь
вернутся
вернуть
вернуться
верную
верны
верные
верныи
верным
верными
верных
веровании
верования
верои
вероисповедания
вероника
верою
вероятнее
вероятно
вероятности
вероятность
вероятностью
версиеи
версии
версию
версия
версиях
верст
верстах
верстахъ
версту
верстъ
версты
вертикали
вертикально
вертикальнои
вертикальные
вертоле
веру
верующие
верующим
верующих
верфи
верх
верхне
верхнего
верхнее
верхнеи
верхнем
верхние
верхнии
верхних
верхнюю
верхняя
верховная
верховного
верховнои
верховном
верховную
верховныи
верховным
верховои
верховьях
верхом
верхомъ
верху
верхушки
верхъ
вершин
вершина
вершинами
вершинах
вершине
вершинои
вершину
вершины
веры
верь
верьте
верю
верят
вес
веса
весе
весел
веселая
веселее
весело
веселое
веселои
веселость
веселые
веселыи
веселым
веселье
веселья
весеннего
весеннии
весенняя
весла
весна
весне
веснои
весною
весну
весны
весов
весовои
весом
вест
вести
вестись
вестн
вестник
вестника
вестнике
вестфалия
весть
весу
весы
весь
весьма
ветвеи
ветви
ветвь
ветвями
ветер
ветеран
ветеранов
ветераны
ветерок
ветка
ветке
ветки
ветку
ветра
ветров
ветром
ветру
ветры
ветхого
вече
вечер
вечера
вечерам
вечере
вечернеи
вечерние
вечернии
вечерняя
вечеров
вечеровскии
вечером
вечеромъ
вечеру
вечеръ
вечная
вечно
вечного
вечное
вечнои
вечности
вечность
вечную
вечные
вечныи
вечным
вечных
вещам
вещами
вещание
вещания
вещах
вещеи
веществ
вещества
веществами
вещество
вещи
вещь
вещью
взад
взадъ
взаи
взаимно
взаимного
взаимное
взаимнои
взаимные
взаимных
взаимодеи
взаимоотношении
взаимоотношения
взамен
взвод
взвода
взволнованныи
взгляд
взгляда
взглядам
взглядами
взглядах
взгляде
взглядов
взглядом
взглядомъ
взгляду
взглядъ
взгляды
взгляни
взгляните
взглянув
взглянувъ
взглянул
взглянула
взглянулъ
взглянуть
вздор
вздоръ
вздох
вздохи
вздохнул
вздохнула
вздохнулъ
вздохом
вздрогнул
вздрогнула
вздумается
вздумал
вздумали
вздумалось
вздумалъ
взирая
взле
взносов
взои
взор
взорвать
взором
взоромъ
взоръ
взоры
взрослого
взрослои
взрослом
взрослые
взрослыи
взрослым
взрослых
взрыв
взрыва
взрывов
взрывом
взрывы
взыскание
взыскании
взыскания
взяв
взявъ
взял
взяла
взялась
взяли
взялись
взяло
взялся
взялъ
взят
взята
взятие
взятии
взятия
взятки
взято
взяты
взятые
взятыи
взятых
взять
взяться
ви
виа
виардо
вид
вида
видал
видала
видали
видалъ
видам
видами
видать
видах
виде
видел
видела
видели
виден
видение
видении
видения
видео
видеоигр
видеоигры
видеоклип
видеоклипы
видеть
видеться
видим
видимая
видимо
видимого
видимои
видимому
видимости
видимость
видимъ
видит
видите
видится
видитъ
видишь
видна
виднелись
видно
видное
видны
видные
видныи
видных
видов
видом
видомъ
виду
видъ
виды
видя
видят
видятъ
видѣ
видѣла
видѣли
видѣлъ
видѣть
вижу
византии
византия
визирь
визиря
визит
визита
визитом
визиты
визуально
вии
вик
викарии
вики
викиданных
викидим
викиенот
викизавр
викимедиа
википедиеи
википедии
википедию
википедия
викисклад
викискладе
викификации
викификация
викифицировать
виконт
виконта
виктор
виктора
виктории
виктория
викторович
викторовна
виктором
виктору
викторъ
вилаи
виленского
виленскои
вилла
вилле
вилли
виллу
виллы
вильгельм
вильгельма
вильне
вильно
вильнюс
вильям
вин
вина
вине
винницкои
вино
виноват
виновата
виноватъ
виноваты
виновен
виновным
виновных
виноград
винограда
виноградов
виноградова
вином
винсент
винт
винта
винтовка
винтовки
винтовок
вину
винчи
вины
виолончели
виргинии
виргиния
вирджиния
вирт
вирус
вируса
вирусов
висел
висела
висели
висенте
висит
виски
висконти
висят
виталии
виталия
витгенштеи
витебск
витебскои
витте
витязь
вихрь
вице
вич
вишне
вишну
вишь
вк
вка
вки
вкл
вклад
вклада
вкладе
вкладом
вкладу
включает
включается
включал
включала
включали
включало
включать
включают
включаются
включающая
включающии
включая
включе
включен
включена
включение
включением
включении
включения
включено
включены
включил
включили
включительно
включить
вконтакте
вкп
вкратце
вкруг
вку
вкупе
вкус
вкуса
вкусе
вкусом
вкусу
вкусъ
вкусы
вл
влаги
влад
владеет
владел
владела
владелец
владели
владельца
владельцам
владельцами
владельцев
владельцем
владельцу
владельцы
владение
владении
владения
владениях
владеть
владеют
влади
владивосток
владивостока
владивостоке
владикавказ
владимир
владимира
владимире
владимирович
владимировича
владимировна
владимиром
владимирская
владимирскии
владимирского
владимирскои
владимиру
владиміръ
владислав
владислава
владыка
владыки
владычества
владычество
владѣніе
владѣнія
влажности
влажность
влажныи
влажным
влажных
власов
властеи
властелин
власти
власть
властью
властям
властями
влево
влече
влечение
влечет
влияет
влияние
влиянием
влиянии
влиянию
влияния
влиятельных
влиять
влияют
влксм
вложил
влюбился
влюбле
влюблен
влюблена
влюбленныи
влюбляется
вліяніе
вліяніемъ
вліянія
вм
вместе
вместимость
вместо
вмешался
вмешательства
вмешательство
вмешаться
вмешиваться
вмс
вмф
вмѣсто
вмѣстѣ
вначале
вне
внедрение
внедрения
внезапно
внезапное
внезапнои
внес
внесе
внесен
внесена
внесение
внесении
внесения
внесено
внесены
внесла
внесли
внести
внешне
внешнего
внешнее
внешнеи
внешнем
внешнему
внешние
внешнии
внешним
внешними
внешних
внешности
внешность
внешнюю
внешняя
вниз
внизу
внизъ
внимание
вниманием
вниманию
внимания
вниманіе
вниманіемъ
вниманія
внимательнее
внимательно
вничью
вновь
вносит
вносить
вносят
вносятся
внук
внука
внуки
внуков
внуком
внутренне
внутреннего
внутреннее
внутреннеи
внутреннем
внутреннему
внутренние
внутреннии
внутренним
внутренними
внутренних
внутреннихъ
внутренно
внутренности
внутренность
внутреннюю
внутренняя
внутри
внутрь
внучка
внушает
внушить
внятно
внѣ
во
вобласць
вов
вовлече
вовремя
вовсе
вод
вода
водами
водах
воде
водевиль
водитель
водителя
водится
водить
водка
водки
водкои
водку
водного
воднои
водном
водные
водныи
водным
водных
водое
водои
водопад
водород
водорода
водорослеи
водоросли
водосборного
водоснабжения
водохозяи
водохранилища
водохранилище
водою
воду
водъ
воды
водяная
водяного
водянои
водяные
водяных
водятся
водѣ
воевал
воевали
воевать
воевод
воевода
воеводе
воеводои
воеводства
воеводстве
воеводство
воеводы
воедино
воеи
воен
военачальник
военачальники
военачальников
воениздат
военнаго
военная
военно
военного
военное
военнои
военном
военному
военнопленных
военнослужащие
военнослужащии
военнослужащих
военную
военные
военныи
военным
военными
военных
военныхъ
вождеи
вожди
вождь
вождя
воз
возбудил
возбудить
возбуждает
возбуждать
возбуждение
возбуждении
возбуждения
возбуждено
возведе
возведен
возведена
возведение
возведения
возведены
возвели
возвести
возврат
возврата
возвратившись
возвратилась
возвратились
возвратился
возвратить
возвратиться
возвратясь
возвращает
возвращается
возвращалась
возвращались
возвращался
возвращать
возвращаться
возвращаются
возвращаясь
возвраще
возвращена
возвращение
возвращением
возвращении
возвращению
возвращения
возвращено
возвращены
возвращеніи
возвращенія
возвышается
возвышение
возвышения
возвышенности
возвышенность
возглавил
возглавила
возглавить
возглавлявшие
возглавляет
возглавлял
возгласы
воздеи
воздержались
воздержаться
воздух
воздуха
воздухе
воздухом
воздуху
воздухъ
воздухѣ
воздушная
воздушно
воздушного
воздушное
воздушнои
воздушном
воздушные
воздушныи
воздушным
воздушных
воззвание
воззрении
воззрения
возиться
возле
возложена
возложено
возлюбленная
возлюбленнои
возлюбленныи
возлѣ
возмещение
возмещения
возможен
возможна
возможно
возможного
возможное
возможнои
возможном
возможностеи
возможности
возможность
возможностью
возможностями
возможны
возможные
возможныи
возможным
возможными
возможнымъ
возможных
возмущение
возмущения
вознаградить
вознаграждение
вознаграждения
вознесения
вознесенскии
возник
возникает
возникали
возникало
возникать
возникают
возникающие
возникающих
возникла
возникли
возникло
возникнет
возникновение
возникновении
возникновению
возникновения
возникнуть
возникшие
возникших
возобновил
возобновились
возобновить
возобновление
возобновления
возражает
возражал
возражать
возражаю
возражение
возражении
возражения
возразил
возразила
возразилъ
возразить
возраст
возраста
возрастает
возрасте
возрастнои
возрастов
возрастом
возрасту
возрождение
возрождения
возросла
возросло
возьме
возьмем
возьмет
возьметъ
возьмешь
возьми
возьмите
возьму
возьмут
вои
воин
воина
воинам
воинами
воинов
воинская
воинские
воинских
воинского
воинское
воинскои
воинскую
воины
воистину
вокал
вокала
вокалист
вокалиста
вокальные
вокзал
вокзала
вокзале
вокруг
вокругъ
вол
волга
волге
волги
волго
волгоград
волгограда
волгоградская
волгоградскои
волгу
воле
волеи
волею
волжскии
волжского
воли
волк
волка
волки
волков
волкова
волконскии
волн
волна
волнами
волнах
волне
волнение
волнением
волнении
волнения
волненіе
волненіи
волненія
волнои
волну
волнует
волны
волов
вологда
вологды
вологодская
вологодского
вологодскои
володя
волокна
волоколамского
волокон
волонте
волос
волоса
волосами
волосками
волостеи
волости
волостного
волость
волосъ
волосы
волшебная
волшебник
волшебнои
волшебныи
волыни
волынскии
волынского
волынскои
вольная
вольно
вольного
вольнои
вольности
вольные
вольныи
вольным
вольных
вольтер
вольтера
вольф
вольфа
вольфганг
волю
воля
волѣ
вом
вон
вонъ
воображение
воображении
воображения
воображеніе
вообразить
вообще
вооруже
вооружение
вооружением
вооружении
вооружения
вооруженные
вооруженныи
вооруженными
вооруженных
вооружены
вопли
воплощение
воплощением
воплощения
вопль
вопреки
вопрос
вопроса
вопросам
вопросами
вопросах
вопросе
вопросительно
вопросов
вопросовъ
вопросом
вопросомъ
вопросу
вопросъ
вопросы
вор
вора
ворвались
ворвался
воробеи
воробье
воров
воровство
ворон
ворона
воронеж
воронежа
воронеже
воронежская
воронежскии
воронежского
воронежскои
воронов
воронцов
воронцова
вороны
ворот
ворота
воротам
воротами
воротах
воротился
воротник
воротъ
ворошилова
воры
восемнадцати
восемнадцать
восемь
восемьдесят
воскликнул
воскликнула
воскликнулъ
восклицает
воскресение
воскресения
воскресенскии
воскресенского
воскресенье
воскресеньям
воспаление
воспитание
воспитанием
воспитании
воспитанию
воспитания
воспитанник
воспитанники
воспитанников
воспитаніе
воспитанія
воспитывался
воспитывать
воспользовавшись
воспользовались
воспользовался
воспользоваться
воспоминание
воспоминании
воспоминания
воспоминаниям
воспоминаниями
воспоминаниях
воспоминаніе
воспоминаніи
воспоминанія
воспрепятствовать
воспринимает
воспринимается
воспринимать
восприятие
восприятии
восприятия
воспроизведение
воспроизведения
восставших
восстал
восстали
восстанавливать
восстание
восстании
восстанию
восстания
восстановил
восстановили
восстановить
восстановлен
восстановлена
восстановление
восстановлением
восстановлении
восстановлению
восстановления
восстановлено
восстановлены
вост
восток
востока
востоке
востоковед
востоковедения
востоку
востокъ
востокѣ
восторг
восторга
восторге
восторгом
восторгомъ
восторгъ
восторженно
восточная
восточнее
восточно
восточного
восточное
восточнои
восточном
восточному
восточную
восточные
восточныи
восточным
восточных
восхищался
восхищение
восход
восходит
восхождение
восхождения
восьме
восьми
восьмого
восьмое
восьмои
вот
вотчины
вотъ
воше
вошедшие
вошедшии
вошедших
вошел
вошелъ
вошла
вошли
вошло
вп
впадает
впадают
впадающеи
впадении
впадения
впал
впервые
впере
вперед
впереди
впередъ
впечатление
впечатлением
впечатлении
впечатления
впечатлѣніе
впечатлѣнія
вписано
вплотную
вплоть
вполголоса
вполне
вполнѣ
впоследствии
впослѣдствіи
впп
вправду
вправе
вправо
впредь
впрочем
впрочемъ
впрямь
вр
враг
врага
врагам
врагами
враги
врагов
враговъ
врагом
врагу
врагъ
вражда
враждебно
враждебные
враждебных
вражду
вражды
вражеских
вражескои
врангеля
врасплох
врата
вратаре
вратари
вратарь
вратаря
врач
врача
врачеи
врачи
врачом
врачу
врачъ
вращается
вращение
вращения
вред
вреда
вредно
вредные
вредных
врезался
време
времен
времена
временам
временами
временамъ
временем
временемъ
времени
временная
временно
временного
временное
временнои
временном
временные
временныи
временным
временных
временъ
время
врешь
вроде
вродѣ
врожде
вручается
вручена
вручением
вручения
вручил
вручную
вряд
врядъ
вс
всадник
всадника
всадники
всадников
все
всевозможные
всевозможными
всевозможных
всеволод
всеволода
всегда
всего
всезнаи
всеи
вселенная
вселеннои
вселенную
всем
всеми
всемирная
всемирно
всемирного
всемирное
всемирнои
всемирныи
всему
всемъ
всеобщая
всеобщего
всеобщее
всеобщеи
всеобщии
всероссии
всерье
всесоюзного
всесоюзнои
всесоюзном
всесоюзныи
всех
всецело
всецѣло
всею
всея
вская
вскии
вского
вское
вскои
вскользь
вском
вскоре
вскорѣ
вскочил
вскочила
вскочилъ
вскрикнул
вскрикнула
вскричал
вскричала
вскричалъ
вслед
вследствие
вслух
вслухъ
вслѣдствіе
вслѣдъ
всплеск
вспоминает
вспоминал
вспоминала
вспоминать
вспоминаю
вспоминая
вспомни
вспомнив
вспомнил
вспомнила
вспомнили
вспомнилъ
вспомним
вспомните
вспомнить
вспомогательные
вспомогательныи
вспомогательных
вспыхнул
вспыхнула
вспыхнуло
вспышка
вспышки
вставаи
вставал
вставать
вставая
вставил
вставить
вставки
вставлять
встает
встал
встала
встали
всталъ
встань
встать
встретив
встретил
встретила
встретилась
встретили
встретились
встретился
встретить
встретиться
встреч
встреча
встречаем
встречает
встречается
встречал
встречалась
встречали
встречались
встречался
встречать
встречаться
встречах
встречают
встречаются
встречая
встрече
встречен
встречи
встречу
встрѣтили
встрѣтилъ
встрѣтить
встрѣчается
встрѣчаются
встрѣчи
встрѣчу
вступ
вступает
вступали
вступать
вступают
вступая
вступив
вступил
вступила
вступили
вступило
вступилъ
вступит
вступить
вступление
вступлением
вступлении
вступления
всю
всюду
вся
всяк
всякаго
всякая
всякие
всякии
всяким
всякими
всяких
всякихъ
всякого
всякое
всякои
всяком
всякому
всякомъ
всякую
всякіи
всякія
всячески
всѣ
всѣми
всѣмъ
всѣхъ
вт
втаи
втб
вторая
вторглись
вторгся
вторжение
вторжении
вторжения
вторично
вторичного
вторичные
вторичныи
вторичным
вторичных
вторник
второго
второе
второи
втором
второму
второмъ
второстепенные
второстепенных
вторую
вторые
вторым
вторых
вторыхъ
втрое
ву
вуд
вуз
вуза
вузах
вузов
вулкан
вулкана
вулканы
вульф
вус
вход
входа
входе
входивших
входил
входила
входили
входило
входит
входитъ
входить
входнои
входом
входя
входят
входятъ
входящие
входящии
входящих
вхождения
вцик
вчера
вчерашнего
вчк
въ
въезд
въезде
вы
выбежал
выбирает
выбирается
выбирали
выбирать
выбирают
выбор
выбора
выборам
выборами
выборах
выборг
выборе
выборные
выборных
выборов
выбором
выбору
выборъ
выборы
выбрал
выбрала
выбрали
выбран
выбрана
выбрано
выбраны
выбрать
выбраться
выбросить
выбросов
выбыл
выведен
выведена
выведены
вывел
вывели
вывести
вывод
вывода
выводам
выводит
выводится
выводить
выводов
выводу
выводы
вывоз
вывоза
выглядел
выглядеть
выглядит
выглядят
выгнали
выгнать
выговор
выговорить
выгод
выгода
выгоднее
выгодно
выгодное
выгоду
выгоды
выдавать
выдае
выдает
выдается
выдал
выдали
выдан
выдано
выдать
выдача
выдаче
выдачи
выдачу
выдают
выдаются
выдающегося
выдающиеся
выдающии
выдающимися
выдающимся
выдающихся
выдвижение
выдвижения
выдвинул
выдвинули
выдвинут
выдвинуть
выделен
выделена
выделение
выделении
выделения
выделено
выделены
выделил
выделить
выделяет
выделяется
выделялись
выделять
выделяют
выделяются
выдержал
выдержала
выдержать
выдерживает
выдержки
выдумал
выдумка
выезд
выезде
выехал
выехали
выехать
выживание
выживших
выжил
выжить
вызвал
вызвала
вызвали
вызвало
вызван
вызвана
вызванного
вызванное
вызванные
вызванныи
вызванных
вызвано
вызваны
вызвать
выздоровления
вызов
вызова
вызовет
вызывает
вызывается
вызывал
вызывала
вызывали
вызывало
вызывать
вызывают
вызывая
выи
выиграв
выиграл
выиграла
выиграли
выиграть
выигрывает
выигрывал
выигрыш
выкинуть
выкуп
выкупа
выкупил
выкупить
вылет
вылета
вылетел
вылетов
вым
вымерших
вымышленные
вымышленных
вынес
вынесен
вынесена
вынесение
вынесения
вынесено
вынесли
вынести
выносилась
выносит
выносить
выношу
вынудили
вынужден
вынуждена
вынуждены
вынул
вынулъ
вып
выпадает
выпал
выпала
выпало
выпил
выпили
выписки
выпить
выплат
выплатить
выплаты
выполнен
выполнена
выполнение
выполнением
выполнении
выполнению
выполнения
выполненные
выполненныи
выполненных
выполнено
выполнены
выполнил
выполнила
выполнили
выполнить
выполняет
выполняется
выполнял
выполняли
выполнять
выполняют
выполняются
выполняя
выпрямился
выпуск
выпуска
выпускает
выпускается
выпускал
выпускали
выпускались
выпускался
выпускать
выпускают
выпускаются
выпуская
выпуске
выпуски
выпускник
выпускники
выпускников
выпусков
выпуском
выпуску
выпустив
выпустил
выпустила
выпустили
выпустить
выпущен
выпущена
выпущенная
выпущенные
выпущенныи
выпущенных
выпущено
выпущены
выработать
выработка
выработке
выработки
выражает
выражается
выражал
выражали
выражалось
выражался
выражать
выражаться
выражают
выражаются
выражая
выражена
выражение
выражением
выражении
выражению
выражения
выражениях
выраженнои
выраженныи
выражено
выражены
выраженіе
выраженіемъ
выраженія
выразил
выразила
выразили
выразилось
выразился
выразить
выразиться
выращивания
вырвалось
вырвался
вырвать
вырваться
вырос
выросла
выросли
выросло
выручка
выручки
выручку
выс
высадились
высадился
высадка
высадки
высказал
высказали
высказались
высказался
высказанные
высказано
высказаны
высказать
высказаться
высказывает
высказывается
высказывал
высказывались
высказывался
высказывание
высказывании
высказывания
высказывать
выскочил
выслал
выслан
выслать
выслугу
выслушав
выслушаи
выслушал
выслушать
высок
высока
высокаго
высокая
высокие
высокии
высоким
высокими
высоких
высокихъ
высоко
высокого
высокое
высокои
высоком
высокому
высокопоставленных
высокую
высокіи
высот
высота
высотах
высоте
высотои
высоту
высоты
высотѣ
высоцкии
высоцкого
высочаи
высочества
высочество
выставил
выставили
выставить
выставка
выставках
выставке
выставки
выставку
выставлен
выставлена
выставления
выставлено
выставлены
выставлять
выставок
выставочныи
выстрел
выстрела
выстрелами
выстрелил
выстрелов
выстрелом
выстрелы
выступавшие
выступавшии
выступает
выступал
выступала
выступали
выступать
выступают
выступающие
выступающии
выступая
выступив
выступил
выступила
выступили
выступить
выступление
выступлением
выступлении
выступления
выступлениям
выступлениями
выступлениях
высш
высшаго
высшая
высшего
высшее
высшеи
высшем
высшему
высшие
высшии
высшим
высшими
высших
высшихъ
высшую
вытащил
вытащить
вытекает
вых
выход
выхода
выходе
выходил
выходила
выходили
выходило
выходилъ
выходит
выходитъ
выходить
выходки
выходнои
выходные
выходных
выходом
выходу
выходцами
выходцев
выходцы
выходы
выходя
выходят
вычислении
вычисления
вычислительнои
вычислить
выше
вышедшая
вышедшего
вышедшеи
вышедшие
вышедшии
вышедших
вышел
вышелъ
вышла
вышли
вышло
выявить
выявление
выявления
выявлено
выявлены
выяснения
выяснилось
выяснить
выясняется
вьетнам
вьетнама
вьетнаме
вэ
вэи
вюртемберг
вяземскии
вяземского
вяло
вятка
вятскои
вячеслав
вячеслава
вячеславович
від
вѣд
вѣдь
вѣка
вѣки
вѣковъ
вѣкъ
вѣра
вѣрилъ
вѣрить
вѣрно
вѣрныи
вѣрнѣе
вѣроятно
вѣроятности
вѣру
вѣры
вѣрю
вѣсти
вѣсть
вѣтеръ
вѣтра
вѣтромъ
вѣчно
г
га
габриэль
габсбургов
гав
гаваи
гавани
гавань
гавриил
гаврила
гаврилов
гаврилович
гагарин
гагарина
газ
газа
газет
газета
газетах
газете
газетои
газету
газеты
гази
газов
газовои
газовых
газом
газпром
газы
гаи
гаити
галактик
галактика
галактике
галактики
галерее
галереи
галерею
галерея
галилеи
галина
галисии
галиции
галле
галлии
галлюцинации
гамбург
гамбурга
гамбурге
гамильтон
гамлет
гамлета
гамлетъ
гамма
ган
гана
ганновер
ганс
ганса
ганы
гао
гарантии
гарантировать
гарантирует
гари
гарибальди
гармонии
гармонию
гармония
гарнизон
гарнизона
гарольд
гарри
гарсиа
гарсия
гастролеи
гастроли
гая
гб
гбл
гв
гвардеи
гвардии
гвардия
гвидо
гвинее
гвинеи
гвинея
гвоздь
гг
ггц
гд
где
гдр
гдѣ
ге
гегель
гегеля
геев
геи
гектара
гектаров
ген
гена
гендернои
гендерныи
генеалогия
генерал
генерала
генералам
генералов
генералом
генералу
генералъ
генералы
генеральная
генерального
генеральное
генеральнои
генеральному
генеральныи
генеральным
генератор
генератора
генерации
генетики
гении
гения
геннадии
геннадия
геннадьевич
генов
геноцид
геноцида
генри
генрих
генриха
генрихом
генриху
генрихъ
генштаба
гены
геніи
географ
географии
географическая
географические
географическии
географическим
географических
географического
географическое
географическои
география
геолог
геологии
геологические
геологических
геологического
геология
геолого
геометрии
геометрия
георг
георга
георгиевич
георгиевна
георгиевскии
георгии
георгия
гер
гера
геракл
геральдическии
герасим
герасимов
герб
герба
гербах
гербе
герберт
герберта
гербовник
гербом
гербы
герм
герман
германа
германиеи
германии
германию
германия
германская
германские
германскии
германским
германских
германского
германское
германскои
германіи
герое
героев
героевъ
героем
герои
героизм
героини
героиня
герою
героя
героям
героями
героях
гертруда
герц
герцеговина
герцеговины
герцен
герцена
герцог
герцога
герцоги
герцогини
герцогиня
герцогов
герцогом
герцогства
герцогство
герцогу
герцогъ
гессен
гестапо
гете
гетман
гетмана
гетто
ги
гибели
гибель
гибелью
гибнет
гигант
гигантские
гигантскии
гигантских
гигиены
гидрография
гидроузла
гиз
гии
гилберт
гильдии
гильом
гималаи
гимн
гимна
гимназии
гимназию
гимназия
гимназіи
гимнастика
гимнастике
гимны
гин
гипотез
гипотеза
гипотезу
гипотезы
гиппиус
гиприказ
гиреи
гитара
гитаре
гитарист
гитариста
гитаристом
гитару
гитары
гитлер
гитлера
гк
гкая
гкие
гкии
гким
гких
гко
гкого
гкои
гком
гл
глав
глава
главе
главн
главнаго
главная
главнеи
главного
главное
главнои
главнокомандующего
главнокомандующии
главнокомандующим
главном
главному
главную
главные
главныи
главным
главными
главнымъ
главных
главныхъ
главои
главою
главу
главы
главѣ
глагол
глагола
глаголов
глаголы
гладкая
гладкие
гладко
гладкои
глаз
глаза
глазам
глазами
глазамъ
глазах
глазахъ
глазго
глазками
глазки
глазом
глазу
глазъ
глас
гласит
гласные
гласныи
гласных
глафира
глеб
глеба
глина
глинка
глинки
глины
глобального
глобальнои
глобус
глубже
глубина
глубине
глубинои
глубину
глубины
глубинѣ
глубокая
глубокие
глубокии
глубоким
глубокими
глубоких
глубоко
глубокого
глубокое
глубокои
глубоком
глубокую
глубочаи
глубь
глуп
глупая
глупо
глупои
глупости
глупость
глупые
глупыи
глухая
глухие
глухим
глухих
глухо
глухои
глуши
глядел
глядела
глядели
глядеть
гляди
глядит
глядишь
глядя
глядят
глядѣлъ
гляжу
гм
гмина
гмины
гн
гнать
гне
гнев
гнева
гневе
гневно
гневом
гнезда
гнездо
гнеи
гнои
гнѣва
гнѣвъ
го
говард
говарда
говор
говорах
говори
говорил
говорила
говорили
говорило
говорилось
говорилъ
говорим
говорит
говорите
говорится
говоритъ
говорить
говоришь
говоров
говоры
говорю
говоря
говорят
говорятъ
говорящих
гоголь
гоголю
гоголя
год
года
годам
годами
годах
годахъ
годится
годов
годовая
годового
годовое
годовои
годовщине
годовщину
годовщины
годовъ
годовые
годом
году
годунов
годунова
годъ
годы
годятся
гои
гол
гола
голами
голая
голицын
голицына
голландии
голландия
голландскии
голландских
голландского
голландскои
голландцы
голливуд
голливуде
голов
голова
головами
головах
голове
головин
головка
головки
головку
головного
головнои
головные
головои
головою
голову
головы
головѣ
голод
голода
голодные
голодныи
голодом
голоду
голодъ
голои
голом
голос
голоса
голосами
голосе
голосов
голосование
голосованием
голосовании
голосования
голосовать
голосовъ
голосом
голосомъ
голосу
голосъ
голосѣ
голубая
голубеи
голуби
голубого
голубое
голубои
голубом
голубушка
голубчик
голубчикъ
голубые
голубым
голубыми
голубых
голубь
голы
голые
голыи
голыми
гольштеи
гомель
гомельская
гомельскои
гомеля
гомер
гомера
гомес
гомосексуальности
гомосексуальность
гондураса
гонении
гонения
гонзага
гонка
гонках
гонке
гонки
гонконг
гонконга
гонконге
гонку
гонок
гонсалес
гончаров
гончарова
гор
гора
гораздо
горам
горами
горах
горахъ
горбаче
горбунов
гордая
гордился
гордиться
гордо
гордон
гордона
гордости
гордость
гордостью
гордыи
горе
горел
горела
горели
горем
горения
горести
горечи
горечь
горечью
горизонт
горизонта
горизонтально
горизонтальнои
горизонте
горит
горка
горки
горкома
горла
горле
горло
горн
горная
горничная
горничнои
горно
горного
горное
горнои
горном
горные
горныи
горным
горных
город
города
городам
городами
городах
городахъ
городе
городища
городище
городка
городке
городов
городовои
городовъ
городок
городом
городомъ
городская
городские
городским
городскими
городских
городского
городское
городскои
городском
городскому
городскую
городу
городъ
городѣ
горожан
горожане
горои
горсовета
горсть
гору
горцев
горцы
горшок
горъ
горы
горькая
горькии
горьким
горько
горького
горькое
горькои
горю
горя
горят
горячая
горячего
горячее
горячеи
горячие
горячии
горячим
горячих
горячо
горячую
горѣ
гос
госбезопасности
госдумы
гослитиздат
госпитале
госпиталь
госпиталя
господ
господа
господам
господами
господи
господин
господина
господином
господину
господинъ
господня
господом
господства
господство
господствует
господствующеи
господу
господъ
господь
госпожа
госпожи
госсовета
гост
гостеи
гостем
гости
гостиница
гостинице
гостиницу
гостиницы
гостинои
гостиную
гость
гостю
гостя
гостям
гостями
гостях
госуд
государеи
государем
государи
государств
государства
государствам
государствами
государствах
государстве
государственнаго
государственная
государственно
государственного
государственное
государственнои
государственном
государственному
государственности
государственную
государственные
государственныи
государственным
государственными
государственных
государственныхъ
государство
государством
государству
государыни
государыня
государь
государю
государя
готов
готова
готовая
готовил
готовилась
готовили
готовились
готовился
готовит
готовится
готовить
готовиться
готовности
готовность
готовностью
готово
готового
готовои
готовъ
готовы
готовые
готовыи
готовым
готовых
готовясь
готовят
готовятся
готфрид
готье
гофман
гп
гпу
гр
грабить
граве
гравюра
гравюры
град
града
градом
градусов
гражд
граждан
гражданам
гражданами
граждане
гражданин
гражданина
гражданином
гражданская
гражданские
гражданскии
гражданским
гражданских
гражданского
гражданское
гражданскои
гражданском
гражданскому
гражданскую
гражданства
гражданство
граи
грамм
грамматика
грамматике
грамматики
грамматику
грамот
грамота
грамоте
грамотно
грамотности
грамотность
грамотои
грамоту
грамоты
гран
гранат
гранатоме
гранаты
гранд
гранде
гранди
грани
гранит
гранита
границ
граница
границам
границами
границах
границе
границеи
границу
границы
граничит
грант
гранта
грань
граф
графа
графе
график
графика
графике
графики
графику
графине
графини
графиню
графиня
графические
графическии
графических
графов
графом
графства
графстве
графство
графу
графъ
графы
граче
гре
гребень
гребец
гребле
гребля
гребцы
грег
грегори
грезы
греи
грек
греками
греки
греко
греков
гренландии
грех
греха
грехи
грехов
грехом
греции
грецию
греция
греч
греческая
греческие
греческии
греческим
греческих
греческого
греческое
греческои
греческом
гриб
грибов
грибоедов
грибоедова
грибы
гривен
григорием
григории
григория
григорович
григоровича
григорьев
григорьева
григорьевич
григорьевича
григорьевна
григоріи
гримм
грин
грина
гриша
гроб
гроба
гробница
гробницы
гробом
гробу
гробъ
гродненскои
гродно
гроза
грозил
грозила
грозит
грозно
грозного
грозном
грозныи
грозным
грозы
гром
грома
громадная
громадное
громаднои
громадную
громадные
громадныи
громадных
громкие
громкии
громким
громко
громов
громче
гроссмеи
грот
грота
грохот
грош
гроша
грубая
грубо
грубого
грубое
грубои
грубости
грубость
грубые
грубыи
грубым
грубыми
грубых
груди
груднои
груды
грудь
грудью
груз
груза
грузии
грузинская
грузинскии
грузинских
грузинского
грузинскои
грузию
грузия
грузов
грузовик
грузовои
грузовые
грузовых
грузом
грузоподъе
грузы
грунт
грунта
групп
группа
группам
группами
группах
группе
группировка
группировки
группировку
группировок
групповая
группового
групповои
групповом
группои
группу
группы
грусти
грустно
грустное
грустныи
грусть
грустью
грэи
грэм
грэмми
грэс
гряды
грязи
грязная
грязно
грязнои
грязные
грязныи
грязь
грязью
грѣхъ
гтрк
гу
губ
губа
губам
губами
губах
губернатор
губернатора
губернаторов
губернатором
губернатору
губернаторъ
губернаторы
губернии
губернию
губерния
губерниях
губернские
губернскии
губернских
губернского
губернскои
губерніи
губки
губу
губы
гугл
гугле
гуго
гуи
гул
гуляли
гулять
гуманитарного
гуманитарнои
гуманитарные
гуманитарных
гумиле
гун
гуру
гусар
гусев
гусеи
гусеницы
гуси
густав
густава
густая
густо
густои
густые
густым
густыми
гусь
гуще
гц
гэри
гэс
гюго
гюи
гюнтер
д
да
дабы
дав
даваи
давал
давала
давали
давались
давало
давалъ
давать
давая
давеча
давид
давида
давидович
давление
давлением
давлении
давления
давних
давно
давности
давным
давыдов
давыдова
даг
дагестан
дагестана
дагестане
дагестанскои
дадим
дадите
дадут
дае
дает
дается
даетъ
даже
даи
дал
дала
далаи
дале
далее
далек
далека
далеки
далекие
далекии
далеко
далекое
далекои
дали
даллас
дало
далъ
даль
дальневосточного
дальнего
дальнеи
дальнем
дальние
дальнии
дальних
дальности
дальность
дальнѣи
дальше
даля
далѣе
дам
дама
дамами
даме
дамои
даму
дамъ
дамы
дан
дана
дани
дании
даниил
даниила
данила
данилевскии
данило
данилов
данилович
даниэль
дания
данная
данного
данное
даннои
данном
данному
данномъ
данную
данные
данныи
данным
данными
данных
данныхъ
данныя
дано
данте
данченко
даны
дань
дар
дара
дарами
дарвин
дарвина
даре
дарках
даров
даровал
дарования
даром
даромъ
даръ
дары
дарьи
дарья
даст
дастъ
дат
дата
дате
датируется
датируются
датои
датская
датскии
датского
датскои
дату
даты
дать
дахо
дача
даче
дачи
дачу
даша
дашь
даю
дают
даются
даютъ
дв
два
двадцати
двадцать
дважды
две
двенадцати
двенадцать
двереи
двери
дверь
дверью
дверям
дверями
дверях
дверяхъ
двести
двигалась
двигались
двигался
двигателеи
двигателем
двигатели
двигатель
двигателя
двигателями
двигаться
двигаясь
движение
движением
движении
движению
движения
движениями
движениях
движеніе
движеніемъ
движеніи
движенія
движется
движка
движок
движутся
двина
двинулась
двинулись
двинулся
двинуться
двины
двое
двои
двоих
двор
двора
дворами
дворах
дворе
дворец
дворецкии
дворецъ
дворник
дворов
дворовых
двором
двору
дворца
дворце
дворцов
дворцовои
дворцом
дворцу
дворцы
дворцѣ
дворъ
дворы
дворян
дворяне
дворянин
дворянина
дворянские
дворянскии
дворянских
дворянского
дворянское
дворянскои
дворянства
дворянство
дворѣ
двоюродного
двоюродныи
двукратныи
двум
двумъ
двумя
двух
двухлетнии
двухсот
двухъ
двухэтажныи
двѣ
двѣнадцать
де
дебаты
дебют
дебюта
дебютировал
дебютировала
дебютного
дебютном
дебютные
дебютныи
дев
дева
девиз
девиц
девица
девицы
девичестве
девка
девки
девочек
девочка
девочке
девочки
девочкои
девочку
девушек
девушка
девушке
девушки
девушкои
девушку
девы
девяносто
девяти
девятого
девятыи
девять
дед
деда
дедушка
дедушки
дежурныи
деи
дек
декабре
декабристов
декабрь
декабря
декан
декана
деканом
декларации
декларацию
декларация
декоративно
декоративные
декоративных
декорации
декрет
декретом
дел
дела
делаем
делает
делаете
делается
делаешь
делаи
делал
делала
делали
делались
делало
делалось
делался
делам
делами
делать
делах
делаю
делают
делаются
делая
деле
делегат
делегатов
делегатом
делегаты
делегации
делегация
деление
делении
делению
деления
дели
делились
делит
делится
делить
делиться
делла
дело
делового
деловои
деловые
деловых
делом
делу
дель
дельта
дельфии
делят
делятся
дем
демидова
демо
демобилизации
демобилизован
демография
демократ
демократии
демократическая
демократические
демократическии
демократических
демократического
демократическои
демократическую
демократию
демократия
демократов
демократы
демон
демона
демонов
демонстрации
демонстрация
демонстрирует
демонстрируют
демоны
демте
демъ
ден
дена
денег
денегъ
денежная
денежного
денежное
денежнои
денежную
денежные
денежныи
денежных
дени
деникина
денис
дениса
денисов
деннис
денные
денныи
денных
дено
дены
день
деньгами
деньгах
деньги
деп
департамент
департамента
департаменте
департаментов
департаментом
депо
депортации
депортиво
депрессии
депутат
депутата
депутатами
депутатов
депутатом
депутаты
дер
дера
дерби
дерев
дерева
дереве
деревенская
деревенскои
деревень
деревне
деревнеи
деревни
деревню
деревня
деревнями
деревнях
деревнѣ
дерево
деревом
дереву
деревьев
деревьевъ
деревья
деревьями
деревьях
деревянная
деревянного
деревянное
деревяннои
деревянную
деревянные
деревянныи
деревянным
деревянными
деревянных
держа
держав
держава
державами
державин
державина
державы
держал
держала
держалась
держали
держались
держался
держалъ
держась
держат
держатся
держать
держаться
держи
держит
держите
держится
держитъ
держу
дерзко
дерзости
дерзость
дес
десант
десанта
десантнои
десантных
дескать
десяти
десятилетие
десятилетии
десятилетия
десятин
десятины
десятка
десятками
десятки
десятков
десятку
десятого
десятои
десяток
десятыи
десять
десятью
дет
деталеи
детали
деталь
детально
деталях
дете
детеи
детектив
детектива
дети
детрои
детская
детские
детскии
детским
детских
детско
детского
детское
детскои
детском
детскую
детства
детстве
детство
дется
детъ
детьми
детям
детях
дефис
дефицит
дефицита
деформации
деше
дешевле
дешево
дешь
деяние
деянии
деяния
деятелеи
деятелем
деятели
деятель
деятельное
деятельности
деятельность
деятельностью
деятеля
деятелями
дж
джа
джаз
джаза
джазовыи
джаи
джакомо
джан
джана
джане
джанет
джанкои
джанская
джанские
джанскии
джанских
джанского
джанскои
джанском
джанцев
джанцы
джастин
джеи
джек
джека
джекалоп
джеки
джексон
джексона
дженни
дженнифер
джентльмен
джентльмена
джентльменъ
джентльмены
джереми
джерри
джерси
джесси
джессика
джефф
джеффри
джи
джим
джима
джимми
джин
джо
джоан
джованни
джозеф
джозефа
джои
джон
джона
джонатан
джонни
джоном
джонс
джонса
джонсон
джонсона
джону
джонъ
джордан
джордж
джорджа
джорджем
джорджия
джорджо
джорджъ
джош
джошуа
джузеппе
джулия
джульетта
дзе
дзержинского
дзи
дзюдо
ди
диагноз
диагностика
диагностики
диакон
диакона
диалект
диалекта
диалекте
диалектов
диалекты
диалог
диалога
диалоги
диаметр
диаметра
диаметре
диаметром
диана
дианы
диапазон
диапазона
диапазоне
диас
диаспоры
диван
дивана
диване
дивизиеи
дивизии
дивизион
дивизиона
дивизионе
дивизионныи
дивизионов
дивизию
дивизия
диво
дидро
диего
дизаи
дизамбиг
дизель
дик
дика
дикареи
дикари
дикая
дикие
дикии
диким
дикими
диких
дико
дикого
дикое
дикои
диком
диктатуры
дима
димитрии
димитрия
дин
дина
динамика
динамики
динамо
династии
династия
динозавров
диониса
дионисии
диплом
диплома
дипломат
дипломата
дипломатии
дипломатические
дипломатическии
дипломатических
дипломатическои
дипломаты
дипломом
директор
директора
директоров
директором
директору
дирекции
дирекция
дириже
дис
диск
диска
дисквалификации
диске
диски
дисков
дискография
дискриминации
дискуссии
дискуссию
дискуссия
дислокации
дисс
диссертации
диссертацию
диссертация
дистанции
дистанцию
дистанция
дистанциях
дисциплин
дисциплина
дисциплинах
дисциплине
дисциплину
дисциплины
дите
дитя
дифф
диффы
дичи
дичь
дк
дл
длилась
длилось
длился
длина
длине
длинная
длиннее
длинного
длинное
длиннои
длинном
длинную
длинные
длинныи
длинным
длинными
длинных
длинои
длиною
длину
длины
длительного
длительное
длительнои
длительности
длительность
длительныи
длится
для
дм
дмитриев
дмитриева
дмитриевич
дмитриевича
дмитриевна
дмитрием
дмитрии
дмитрию
дмитрия
дмитровского
дмитріи
дн
дна
дне
дневник
дневника
дневнике
дневники
дневного
дневнои
днеи
днем
днемъ
днепр
днепра
днепропетровск
днепропетровскои
дни
днк
дно
дном
днр
дну
дню
дня
дням
днями
днях
дняхъ
днѣ
до
добавив
добавил
добавила
добавили
добавить
добавлен
добавлена
добавление
добавлением
добавления
добавлено
добавлены
добавлю
добавляет
добавляется
добавлять
добавляют
добавьте
добивается
добивался
добиваться
добившись
добилась
добились
добился
добиться
доблести
доблестныи
доблесть
добр
добра
добраго
добрались
добрался
добраться
добрая
добре
добро
добровольно
добровольного
добровольное
добровольнои
добровольцев
добровольцем
добровольцы
добровольческои
доброго
добродетели
добродетель
добродушно
добродушныи
добродѣтели
добродѣтель
доброе
доброи
добролюбов
добролюбова
добром
доброму
добросовестно
добросовестного
добросовестныи
доброта
доброту
доброты
добру
добрую
добры
добрые
добрыи
добрым
добрыми
добрымъ
добрых
добрыхъ
добывать
добыть
добыча
добыче
добычеи
добычи
добычу
дов
довел
довели
довелось
доверенности
доверенность
доверие
доверием
доверия
доверять
довести
довод
доводить
доводов
доводы
доволен
доволенъ
довольна
довольно
довольны
довольныи
довольствоваться
догадался
догадаться
догадки
догнать
договор
договора
договорам
договорами
договоре
договорились
договориться
договоров
договором
договору
договоры
дож
дождавшись
дождаться
дожде
дождеи
дождем
дожди
дождь
дождя
дожидаться
дожидаясь
дозволено
дозы
дои
док
доказал
доказали
доказана
доказано
доказательств
доказательства
доказательствами
доказательство
доказательством
доказать
доказывает
доказывается
доказываетъ
доказывал
доказывать
доказывают
доклад
доклада
докладе
докладов
докладом
доклады
доколе
доктор
доктора
докторов
доктором
докторскои
докторскую
доктору
докторъ
доктрина
доктрины
документ
документа
документально
документального
документальные
документальныи
документальных
документам
документами
документах
документации
документация
документе
документов
документом
документы
дол
долг
долга
долгая
долги
долгие
долгии
долгим
долгих
долго
долгов
долгого
долгое
долгои
долгом
долгомъ
долгорукии
долгоруков
долготы
долгу
долгую
долгъ
доле
долее
долеи
должен
долженъ
должна
должника
должно
должного
должное
должностеи
должности
должностного
должностное
должностные
должностным
должностными
должностных
должность
должностях
должны
должным
доли
долин
долина
долинах
долине
долинои
долину
долины
долинѣ
долл
доллар
доллара
долларов
долли
доложил
доложить
долои
дольше
долю
доля
дом
дома
домам
домами
домах
домашнего
домашнее
домашнеи
домашнем
домашние
домашнии
домашним
домашних
домашняя
доме
домен
доменико
домик
домика
домики
доминго
доминик
доминика
домна
домов
домовои
домовъ
домои
домом
домомъ
домохозяи
дому
домъ
домѣ
дон
дона
дональд
дональда
донбасс
донбасса
донбассе
донесение
донесения
донести
донецк
донецкая
донецке
донецкии
донецкого
донецкои
донна
донос
доносился
донских
донского
донскои
донском
дону
донъ
доныне
донья
доп
дописал
дописать
дополнена
дополнение
дополнением
дополнении
дополнения
дополненное
дополнено
дополнил
дополнительная
дополнительно
дополнительного
дополнительное
дополнительнои
дополнительную
дополнительные
дополнительныи
дополнительным
дополнительными
дополнительных
дополнить
дополнять
допрос
допроса
допросе
допускает
допускается
допускал
допускать
допускаю
допускают
допускаются
допуская
допустил
допустили
допустим
допустимо
допустимости
допустимость
допустимы
допустить
допущены
дор
дора
дорабатывать
доработал
доработана
доработано
доработать
доработка
доработке
доработки
доработку
дореволюционнои
доров
дорова
дорович
доровича
доровна
дорог
дорога
дорогам
дорогами
дорогах
дорогая
дороге
дороги
дорогие
дорогим
дорогих
дорого
дорогого
дорогое
дорогои
дорогою
дорогу
дорогъ
дорогѣ
дороже
дорожка
дорожке
дорожки
дорожного
дорожнои
дорожныи
дорожных
дороти
досада
досадно
досадои
досады
доселе
доска
доске
доски
доску
дословно
досок
доспехи
досрочно
доставил
доставили
доставить
доставка
доставки
доставлен
доставлены
доставляет
доставляли
доставлять
достал
досталась
достались
досталось
достался
достанется
достаточно
достаточного
достаточное
достаточнои
достаточном
достаточныи
достаточным
достаточных
достать
достиг
достигает
достигается
достигал
достигала
достигали
достигать
достигают
достигла
достигли
достигло
достигнет
достигнув
достигнут
достигнута
достигнуто
достигнутые
достигнуть
достигъ
достижение
достижением
достижении
достижению
достижения
достичь
достоверно
достоверности
достоверность
достоверных
достоевскии
достоевского
достоевскому
достои
достоин
достоинств
достоинства
достоинствами
достоинство
достоинством
достоинству
достопримечательностеи
достопримечательности
достояние
достоянием
доступ
доступа
доступе
доступен
доступна
доступно
доступнои
доступности
доступность
доступны
доступные
доступным
доступными
доступных
досуга
досье
доход
дохода
доходила
доходили
доходило
доходит
доходныи
доходов
доходы
доходя
доходят
доцент
доцента
доцентом
дочереи
дочери
дочерьми
дочерью
дочка
дочку
дочь
доше
дошел
дошелъ
дошла
дошли
дошло
др
дра
драгоценности
драгоценные
драгоценными
драгоценных
драгунскии
драи
драка
драки
дракон
дракона
драконов
драку
дрались
драм
драма
драматические
драматическии
драматических
драматического
драматическои
драматическом
драматург
драматурга
драматурги
драматургии
драматургия
драме
драму
драмы
драться
драфта
драфте
древесина
древесины
древне
древнего
древнегреческои
древнее
древнеи
древнем
древнему
древнерусского
древнерусскои
древние
древнии
древним
древними
древних
древнихъ
древностеи
древности
древность
древнюю
древняя
древо
дрезден
дрездене
дреи
дров
дрова
дрожа
дрожал
дрожала
дрожали
дрожащим
дрожит
дрожь
друг
друга
другаго
другая
друге
другие
другим
другими
другимъ
других
другихъ
другого
другое
другои
другом
другому
другомъ
другою
другу
другую
другъ
другіе
другія
дружба
дружбе
дружбу
дружбы
дружески
дружеские
дружеских
дружина
дружины
дружно
друзеи
друзья
друзьям
друзьями
дрянь
дс
дти
ду
дуб
дуба
дубле
дублирует
дубль
дубляж
дуги
дуглас
дуи
дул
дум
дума
думаем
думает
думаете
думается
думаетъ
думаешь
думаи
думал
думала
думали
думалось
думалъ
думать
думаю
думают
думаютъ
думая
думе
думка
думои
думу
думы
дунаи
дуная
дункан
дуня
дура
дурак
дурака
дураки
дуракъ
дурная
дурно
дурного
дурное
дурнои
дурные
дурных
дут
дутся
дутъ
дух
духа
духами
духе
духи
духов
духовенства
духовенство
духовенству
духовная
духовно
духовного
духовное
духовнои
духовном
духовному
духовную
духовные
духовныи
духовным
духовными
духовных
духом
духомъ
духу
духъ
духѣ
душ
душа
душанбе
душе
душевно
душевного
душевное
душевнои
душевные
душевных
души
душно
душои
душою
душу
душъ
душѣ
дуэли
дуэль
дуэт
дуэта
дъ
ды
дым
дыма
дымом
дымъ
дыры
дыхание
дыхания
дыханіе
дыша
дышать
дышит
дье
дьявол
дьявола
дьяк
дьякон
дэ
дэвид
дэвида
дэвидом
дэвис
дэвиса
дэи
дэн
дэниел
дэнни
дю
дюи
дюма
дюсш
дя
дяде
дядеи
дяди
дядю
дядюшка
дядя
дѣ
дѣвица
дѣвочка
дѣвочки
дѣвушекъ
дѣвушка
дѣвушки
дѣвушку
дѣвушкѣ
дѣдушка
дѣи
дѣла
дѣлается
дѣлаетъ
дѣлаи
дѣлала
дѣлали
дѣлалъ
дѣлами
дѣламъ
дѣлать
дѣлахъ
дѣлаютъ
дѣлая
дѣло
дѣломъ
дѣлу
дѣлъ
дѣлѣ
дѣтеи
дѣти
дѣтства
дѣтьми
дѣтямъ
дѣятельности
дѣятельность
е
ев
ева
евангелие
евангелии
евангелия
евангельских
евгением
евгении
евгения
евгеньевич
евдокия
евич
ево
евпатории
евр
евразии
евреев
евреи
еврея
евреям
евреями
евро
евровидение
евровидении
евровидения
еврокубках
евромаи
европ
европа
европе
европеи
европои
европу
европы
европѣ
евросоюза
евы
египет
египетские
египетскии
египетских
египетского
египетскои
египта
египте
египтян
египтяне
его
егор
егора
егоров
егорова
егорович
егоровна
ед
еда
едва
едем
едет
единая
единиц
единица
единице
единицеи
единицу
единицы
единоборств
единогласно
единогласное
единогласным
единого
единодушно
единое
единои
едином
единому
единомышленников
единства
единстве
единственная
единственно
единственного
единственное
единственнои
единственном
единственную
единственные
единственныи
единственным
единственными
единственнымъ
единство
единую
единыи
единым
еду
едут
еды
едят
ее
еже
ежегодная
ежегодник
ежегодно
ежегодного
ежегоднои
ежегодные
ежегодныи
ежедневно
ежели
ежемесячно
ежеминутно
еженедельные
ежи
ездил
ездили
ездит
ездить
езды
еи
екатерина
екатеринбург
екатеринбурга
екатеринбурге
екатерине
екатеринои
екатеринославскои
екатерину
екатерины
ел
еле
елена
елене
еленои
елену
елены
ели
елизавета
елизавете
елизаветы
елисавета
елисаветы
елисеи
ель
ельцин
ельцина
ем
емена
ему
емъ
ен
ена
енисеи
енисея
епархиального
епархиеи
епархии
епархию
епархия
епископ
епископа
епископов
епископом
епископу
епископы
ер
ера
ере
ереван
ереване
ереси
ересь
еретиков
ерин
ерунда
ершов
ес
есенин
есенина
еси
если
еслибъ
еслибы
ест
естественная
естественно
естественного
естественное
естественнои
естественные
естественныи
естественным
естественными
естественных
естествознания
есть
естьли
ет
ефим
ефимов
ефимович
ефреи
ефремов
ефремова
ефрона
ехал
ехали
ехать
ешь
еще
еэбе
ею
ея
ж
жа
жадно
жадностью
жажда
жаждои
жажду
жажды
жак
жака
жалел
жалеть
жалею
жалкие
жалкии
жалко
жалкое
жалоб
жалоба
жалобе
жалобно
жалобу
жалобы
жаловалась
жаловались
жаловался
жалованье
жалованья
жаловаться
жалости
жалость
жалуется
жаль
жан
жана
жандармов
жанеи
жанна
жанны
жанр
жанра
жанрах
жанре
жанров
жанру
жанры
жар
жара
жаркии
жарким
жарко
жаркое
жаром
жаромъ
жару
жары
ждал
ждала
ждали
ждалъ
жданова
ждать
жде
ждем
ждет
ждетъ
жди
жду
ждут
же
жел
желаем
желает
желаете
желаетъ
желаешь
желал
желала
желали
желалъ
желание
желанием
желании
желанию
желания
желаніе
желаніи
желанію
желанія
желательно
желать
желаю
желают
желающие
желающии
желающим
желающих
желая
желе
железа
железная
железного
железнодорожная
железнодорожников
железнодорожного
железнодорожное
железнодорожнои
железнодорожном
железнодорожные
железнодорожныи
железнодорожным
железнодорожных
железнои
железную
железные
железныи
железным
железными
железных
железо
железом
железы
желтая
желтовато
желтого
желтои
желтые
желтыи
желтыми
желудка
желудок
желѣзнои
жемчужина
жен
жена
женами
женат
жене
женева
женеве
женился
женится
женитьба
женитьбы
жениться
жених
жениха
женихъ
женои
женою
женская
женские
женскии
женским
женских
женского
женское
женскои
женском
женскую
жену
женщин
женщина
женщинам
женщинами
женщинах
женщине
женщинои
женщину
женщинъ
женщины
женщинѣ
женъ
жены
женя
женѣ
жерар
жеребье
жермен
жертв
жертва
жертвам
жертвами
жертвовать
жертвои
жертвоприношения
жертвою
жертву
жертвы
жест
жестокая
жестокие
жестокии
жестоким
жестоких
жестоко
жестокого
жестокое
жестокои
жестокости
жестокость
жестокостью
жестом
жесты
жж
жи
жив
жива
живая
живе
живем
живет
живете
живется
живетъ
живешь
живи
живо
живого
живое
живои
живом
живому
живописец
живописи
живописца
живописцев
живопись
живописью
живостью
живот
живота
животе
животноводства
животноводство
животного
животное
животные
животныи
животным
животными
животных
животныхъ
живу
живут
живутъ
живущие
живущии
живущих
живую
жившего
жившие
жившии
живших
живъ
живы
живые
живым
живыми
живымъ
живых
живыхъ
живя
жид
жидкостеи
жидкости
жидкость
жизнедеятельности
жизнеи
жизненно
жизненного
жизненнои
жизненные
жизненныи
жизненных
жизни
жизнь
жизнью
жил
жила
жили
жилищ
жилища
жилище
жилищно
жилищного
жило
жилого
жилои
жилось
жилъ
жилы
жилые
жилых
жилье
жилья
жира
жирным
жит
житеи
жителеи
жители
житель
жительства
жительство
жителя
жителям
жителями
житие
житии
жития
житомирскои
жить
житье
жная
жно
жного
жнои
жном
жности
жность
жную
жные
жныи
жным
жных
жозе
жозеф
жорж
жоржа
жребии
жрец
жрецов
жрецы
жу
жуан
жуана
жук
жуки
жуков
жукова
жуковскии
жуковского
журавле
журн
журнал
журнала
журналах
журнале
журналист
журналиста
журналистам
журналистика
журналистики
журналистка
журналистов
журналистом
журналисты
журналов
журналом
журналу
журналъ
журналы
жутко
жъ
жь
жюли
жюль
жюльен
жюри
з
за
забавно
забавы
забаи
забастовка
забастовки
забив
забивал
забил
забилось
забирает
забитых
забить
заблаговременно
заблокировал
заблокирован
заблокированы
заблокировать
заблуждение
заблуждении
заблуждения
заболевание
заболевании
заболевания
заболеваниях
заболел
забор
забора
забот
забота
заботами
заботился
заботится
заботиться
заботливо
заботои
заботу
заботы
заботясь
забрал
забрали
забрать
забросил
забуду
забудь
забудьте
забыв
забывает
забываи
забывал
забывать
забывая
забыл
забыла
забыли
забылъ
забыт
забыто
забытыи
забыть
зав
заведение
заведении
заведения
заведениях
заведовал
заведомо
заведующая
заведующего
заведующии
заведующим
завел
завершается
заверше
завершена
завершение
завершении
завершения
завершено
завершены
завершив
завершил
завершила
завершилась
завершили
завершились
завершилось
завершился
завершить
завести
завет
завета
завещал
завещание
завещании
завещанию
завещания
зависело
зависеть
зависимости
зависимость
зависит
зависитъ
зависти
зависть
зависят
завладеть
завод
завода
заводах
заводе
заводить
заводов
заводом
заводская
заводских
заводского
заводскои
заводу
заводъ
заводы
завое
завоевав
завоевал
завоевала
завоевали
завоевание
завоевании
завоевания
завоевать
завтра
завтрак
завтрака
завтракать
загадка
загадки
заглавие
заглавием
заглавнои
заглянул
заглянуть
заговор
заговора
заговоре
заговорил
заговорила
заговорили
заговорилъ
заговорить
заговорщики
заговорщиков
заголовка
заголовками
заголовке
заголовки
заголовком
заголовок
заготовка
заготовки
заготовок
заграничных
загреб
загружать
загрузить
загрузки
загрязнения
задавать
задае
задал
задание
задании
задания
заданнои
задать
задач
задача
задачами
задачах
задаче
задачеи
задачи
задачу
задеи
задержали
задержан
задержания
задержаны
задержать
задержка
задержки
заднего
заднеи
заднем
задние
заднии
задним
задних
заднюю
задняя
задолго
задолженности
задумал
задумалась
задумался
задуматься
задумчиво
задумчивости
задыхаясь
зае
заезд
заж
зажа
зажег
зажечь
зажи
заживо
заи
заимствовании
заимствования
заинтересовался
заинтересован
заинтересованные
заинтересованных
заинтересованы
зак
закавказье
закавказья
заказ
заказа
заказал
заказать
заказник
заказника
заказов
заказу
заказчика
заказчиком
заказы
заканчивает
заканчивается
заканчивая
закат
заката
заключает
заключается
заключалась
заключались
заключалось
заключался
заключать
заключают
заключаются
заключе
заключен
заключена
заключение
заключением
заключении
заключению
заключения
заключенныи
заключенных
заключено
заключены
заключеніе
заключенія
заключил
заключила
заключили
заключить
закон
закона
законам
законами
законах
законе
законно
законного
законное
законнои
законности
законность
законную
законные
законныи
законным
законных
законов
законовъ
законодательного
законодательное
законодательнои
законодательные
законодательныи
законодательным
законодательных
законодательства
законодательстве
законодательство
законодательством
законодательству
законом
закономерности
закономъ
законопроект
законопроекта
закону
закончен
закончена
закончено
закончив
закончил
закончила
закончилась
закончили
закончились
закончилось
закончился
закончить
законъ
законы
закрепить
закрепиться
закрепле
закричал
закричала
закричали
закричалъ
закрыв
закрывает
закрывать
закрываю
закрывая
закрыл
закрыла
закрыли
закрыт
закрыта
закрытие
закрытии
закрытия
закрыто
закрытого
закрытои
закрытом
закрыты
закрытые
закрытыи
закрытым
закрытыми
закрытых
закрыть
закупки
закупок
зал
зала
залах
зале
залежи
залив
залива
заливе
заливы
залов
залог
залога
заложен
заложена
заложенные
заложены
заложил
заложить
заложников
залом
залп
залу
залы
залѣ
зам
замена
замене
заменен
заменена
заменено
заменены
заменив
заменил
заменила
заменили
заменить
заменои
замену
замены
заменяет
заменяется
заменять
замер
заместителеи
заместителем
заместители
заместитель
заместителя
заметив
заметил
заметила
заметили
заметим
заметить
заметка
заметки
заметку
заметно
заметное
заметнои
заметны
заметные
заметныи
заметным
заметных
заметок
заметьте
замечает
замечается
замечал
замечание
замечании
замечания
замечательная
замечательно
замечательное
замечательнои
замечательные
замечательныи
замечательным
замечательных
замечать
замечают
замечая
замечен
замечено
замечу
замка
замке
замки
замков
замком
замку
замкѣ
замок
замокъ
замолчал
замуж
замужем
замужества
замужестве
замужъ
замысел
замысла
замыслу
замыслы
замѣтивъ
замѣтила
замѣтили
замѣтилъ
замѣтить
замѣтно
замѣчаетъ
замѣчалъ
замѣчаніе
замѣчанія
замѣчательно
занавес
занесе
занимавшии
занимаемои
занимает
занимается
занимаетъ
занимал
занимала
занималась
занимали
занимались
занимало
занималось
занимался
занимать
заниматься
занимаюсь
занимают
занимаются
занимающии
занимающихся
занимая
занимаясь
заново
заносятся
зануда
заняв
занявшие
занял
заняла
занялась
заняли
занялись
заняло
занялся
занялъ
занят
занята
занятие
занятием
занятии
занятия
занятиям
занятиях
занято
занятости
занятость
занятъ
заняты
занятые
занятыи
занятых
занять
заняться
занятіе
занятіи
занятія
зао
заодно
заостре
заочно
зап
запад
запада
западе
западная
западнее
западно
западного
западное
западноевропеи
западнои
западном
западному
западную
западные
западныи
западным
западными
западных
западу
запас
запаса
запасе
запаснои
запасных
запасов
запасом
запасъ
запасы
запах
запаха
запахом
запахъ
запел
запер
запереть
заперта
заперты
записал
записала
записали
записан
записана
записанные
записанныи
записано
записаны
записать
записеи
записи
записка
записках
записке
записки
записку
записнои
записок
записывает
записывается
записывал
записывать
запись
записью
записях
заплакал
заплакала
запланирован
запланировано
заплатил
заплатить
заповеди
заповедник
заповедника
заповедь
заполнения
заполнить
запорожского
запорожскои
запорожье
запрет
запрета
запрете
запретил
запретили
запретить
запрещает
запрещается
запрещалось
запрещать
запреще
запрещена
запрещение
запрещено
запрещены
запрос
запроса
запросе
запросил
запросов
запросто
запросу
запросы
запуск
запуска
запустил
запустила
запустить
запущен
запущена
запущенные
запятои
зарабатывать
заработал
заработать
заработка
заработки
заработнои
заработок
заражения
зараи
заранее
заранѣе
заре
зарегистрирован
зарегистрирована
зарегистрированные
зарегистрированных
зарегистрировано
зарегистрированы
заречье
зари
заросли
зарплаты
зарубежнои
зарубежные
зарубежных
зарубежья
заря
заряд
заряда
засаду
засады
заседание
заседании
заседания
заседаниях
заслуг
заслуга
заслуги
заслуженная
заслуженного
заслуженные
заслуженныи
заслуживает
заслуживают
заслужил
заслужить
засмеялась
засмеялся
засмѣялся
заснул
заснула
заснуть
заставил
заставила
заставили
заставило
заставилъ
заставит
заставить
заставляет
заставляетъ
заставлял
заставляла
заставляли
заставляло
заставлять
заставляют
заставляя
заставы
застал
застала
застали
засталъ
застрои
затвор
затвора
затеи
затем
затмение
зато
затрагивает
затрат
затраты
затруднение
затруднении
затруднения
затруднительно
затылок
затѣмъ
зафиксирован
зафиксировано
зафиксированы
захар
захаров
захарова
захват
захвата
захвате
захватив
захватил
захватила
захватили
захватить
захвату
захватчиками
захватчиков
захватывает
захвачен
захвачена
захваченных
захвачены
захода
заходил
заходит
заходить
захоронение
захоронении
захоронения
захотел
захотела
захотели
захотелось
захотите
захотят
захотѣлъ
захочет
захочетъ
зач
зачастую
заче
зачем
зачеркнуто
зачислен
зачѣмъ
зашел
зашла
зашли
защита
защите
защитил
защитила
защитить
защитник
защитника
защитники
защитников
защитником
защитои
защиту
защиты
защищает
защищал
защищали
защищать
защищаться
защищая
защище
защищена
защищены
заявив
заявил
заявила
заявили
заявило
заявилъ
заявитель
заявителя
заявить
заявка
заявке
заявки
заявку
заявлен
заявление
заявлением
заявлении
заявлению
заявления
заявлено
заявляет
заявлял
заявляли
заявляя
заявок
заяц
звал
звала
звали
звание
званием
звании
званию
звания
званіе
звать
зве
звезд
звезда
звездами
звезде
звездои
звезду
звезды
звена
звено
звеном
звереи
звери
зверь
зверя
звон
звонит
звонко
звонок
звук
звука
звуками
звуки
звуков
звуковои
звуковые
звуковых
звукозаписи
звуком
звукорежиссе
звукъ
звучал
звучала
звучали
звучало
звучание
звучания
звучат
звучать
звучит
звѣзды
зд
здами
здание
зданием
здании
зданию
здания
зданиями
зданиях
зданіе
зданія
здесь
здешних
здная
здного
зднои
здные
здныи
здных
здоров
здорова
здорово
здорового
здоровои
здоровъ
здоровы
здоровые
здоровыи
здоровым
здоровых
здоровье
здоровьем
здоровью
здоровья
здравого
здравому
здравоохранение
здравоохранения
здравствует
здравствуи
здравыи
здравым
зды
здѣсь
зе
зевс
зевса
зеи
зеландии
зеландия
зеле
зеленая
зелени
зеленого
зеленои
зеленые
зеленыи
зеленым
зелеными
зеленых
зелень
зеленью
земель
земельного
земельнои
земельные
земельныи
земельных
земле
землевладельцев
землевладения
земледелие
земледелием
земледелия
землеи
землерои
землетрясение
землетрясения
землею
земли
землю
земля
землями
землянои
землях
землѣ
земная
земного
земное
земнои
земные
земных
земская
земские
земскии
земских
земского
земскои
земства
земство
зенит
зенита
зенитно
зенитныи
зенитных
зер
зера
зеркала
зеркале
зеркало
зеркалом
зерна
зерно
зерновых
зи
зии
зил
зима
зимбабве
зимин
зимнего
зимнее
зимнеи
зимнем
зимние
зимнии
зимних
зимняя
зимои
зимою
зиму
зимы
зина
зинаида
зиновьев
зия
зка
зла
злая
зло
злоба
злобно
злобои
злобу
злобы
злого
злодеев
злодеи
злодея
злодѣи
злое
злои
злом
злости
злоупотребление
злоупотреблении
злоупотребления
злу
злые
злым
злых
змеи
змея
змѣи
зн
знавшии
знаем
знаемъ
знает
знаете
знаетъ
знаешь
знаи
знак
знака
знаками
знаки
знаков
знаком
знакома
знакомая
знакомится
знакомо
знакомого
знакомое
знакомои
знакомства
знакомство
знакомъ
знакомы
знакомые
знакомыи
знакомым
знакомыми
знакомых
знакомыхъ
знаку
знакъ
знал
знала
знали
зналъ
знаме
знамена
знаменем
знамени
знамение
знаменитаго
знаменитая
знаменитого
знаменитое
знаменитои
знаменитом
знаменитостеи
знаменитости
знаменитую
знаменитые
знаменитыи
знаменитым
знаменитых
знамя
знание
знанием
знании
знания
знаниями
знаніе
знанія
знати
знатного
знатнои
знатные
знатныи
знатных
знаток
знать
знач
значение
значением
значении
значению
значения
значеніе
значеніи
значенія
значило
значим
значима
значимая
значимо
значимое
значимои
значимости
значимость
значимостью
значимы
значимые
значимыи
значимым
значимыми
значимых
значит
значительная
значительно
значительного
значительное
значительнои
значительном
значительную
значительные
значительныи
значительным
значительными
значительных
значится
значитъ
значить
значок
знаю
знают
знаютъ
знающии
зная
зно
зного
зное
знои
зную
знч
зные
зныи
зным
зных
зо
зов
зове
зовет
зову
зовут
зовутъ
зодчества
зои
зол
золота
золотая
золото
золотого
золотое
золотои
золотом
золотомъ
золотую
золотые
золотым
золотыми
золотых
золя
зомби
зон
зона
зонах
зоне
зонеприказ
зонои
зону
зоны
зоолог
зоологии
зоопарк
зорко
зоя
зрелище
зрелости
зрение
зрения
зрителеи
зрители
зритель
зрителю
зрителя
зрителям
зрителями
зрк
зря
зрѣлище
зрѣнія
зса
зуб
зубами
зубов
зубы
зы
зять
зятя
и
иа
иаков
иакова
ибн
ибо
ибрагим
ибсена
ив
ива
иван
ивана
иване
ивано
иванов
иванова
иванович
ивановича
ивановичем
ивановичу
ивановичъ
ивановка
ивановна
ивановне
ивановны
иваново
ивановская
ивановскии
ивановского
ивановскои
иванову
иваном
ивану
иванъ
иваныч
иваныча
иванычъ
ивп
иврите
иг
ига
иглы
игнатии
игнатьевич
игнорировать
иго
игоревич
игорь
игоря
игр
игра
игравшии
играет
играетъ
играи
играл
играла
играли
игралъ
играм
играми
играть
играх
играют
играющии
играя
игре
игровая
игрового
игровои
игровую
игровые
игровых
игрои
игрок
игрока
игрокам
игроками
игроки
игроков
игроком
игроку
игру
игрушек
игрушка
игрушки
игры
игумен
игумена
ид
ида
иде
идеал
идеала
идеале
идеализма
идеалов
идеалом
идеалу
идеалъ
идеалы
идеально
идеального
идеальнои
идеальныи
идее
идееи
идеи
идем
идемъ
идентификатор
идентификации
идентифицировать
идентичности
идентичность
идеологии
идеология
идет
идетъ
идешь
идею
идея
идеям
идеями
иди
идиот
идите
идти
иду
идут
идутъ
идущие
идущии
идущих
идя
иеговы
иезуитов
иезуиты
иерархии
иереи
иеромонах
иероним
иерусалим
иерусалима
иерусалиме
иерусалимского
иже
ижевск
из
изабелла
изабеллы
изабель
изба
избавить
избавиться
избе
избегал
избегать
избегая
избежание
избежать
избирается
избирался
избирателеи
избирательная
избирательного
избирательнои
избирательному
избирательные
избирательныи
избирательным
избирательных
избирать
избираются
избрал
избрали
избран
избрана
избрание
избрании
избрания
избранная
избранного
избранное
избраннои
избранные
избранныи
избранным
избранных
избраны
избрать
избу
избы
избыток
изв
известен
извести
известие
известием
известии
известия
известна
известная
известнеи
известно
известного
известное
известнои
известном
известному
известности
известность
известностью
известную
известны
известные
известныи
известным
известными
известных
известняка
извинения
извини
извините
извинить
извиниться
извиняюсь
извлечения
извлечь
извне
извозчик
извозчика
изволили
изволите
изволь
извольте
извѣстенъ
извѣстнаго
извѣстно
извѣстное
извѣстнои
извѣстны
извѣстныи
извѣстныхъ
извѣстіе
извѣстія
изгнан
изгнание
изгнании
изгнания
изгнаны
изгнать
изготовлен
изготовление
изготовлении
изготовления
изготовлены
изд
издавал
издавались
издавался
издавать
издавна
издае
издает
издал
издалека
издали
издан
издана
издание
изданием
издании
изданию
издания
изданиями
изданиях
изданная
изданнои
изданные
изданныи
изданных
издано
изданы
изданіе
изданіи
изданія
издателеи
издателем
издатели
издатель
издательскии
издательства
издательстве
издательство
издательством
издателя
издать
изделие
изделии
изделия
издержек
издержки
излагает
излагать
излишне
излишнеи
излишним
изложена
изложение
изложением
изложении
изложения
изложенные
изложено
изложены
изложил
изложить
излучение
излучения
измаи
измена
измене
изменена
изменение
изменением
изменении
изменению
изменения
изменениям
изменениями
изменениях
изменено
изменены
изменил
изменила
изменилась
изменили
изменились
изменило
изменилось
изменился
изменит
изменится
изменить
измену
измены
изменяет
изменяется
изменять
изменяются
измерение
измерении
измерения
измѣнить
изначально
изнутри
изо
изобилии
изображает
изображается
изображали
изображать
изображают
изображе
изображен
изображена
изображение
изображением
изображении
изображению
изображения
изображениями
изображено
изображены
изображеніе
изобразил
изобразительного
изобразительное
изобразительных
изобразить
изобретатель
изобретение
изобретении
изобретения
изоляции
израиле
израилем
израиль
израильскии
израильских
израильского
израильскои
израиля
изредка
изрядно
изрѣдка
изслѣдованія
изумление
изумлением
изумления
изучает
изучал
изучала
изучали
изучать
изучая
изучение
изучением
изучении
изучению
изучения
изучил
изучить
изъ
изыскании
изыскания
изяслав
изящно
изящнои
изящныи
изящных
ии
иисус
иисуса
ик
икон
икона
иконостас
икону
иконы
икс
ил
или
илии
илл
иллинои
иллюзии
иллюзия
иллюстратор
иллюстрации
иллюстрация
иллюстрациями
иловаи
иль
илье
ильи
ильин
ильина
ильинскии
ильич
ильича
илья
им
имам
имама
име
имевшая
имевшаяся
имевшего
имевшеи
имевшие
имевшии
имевших
имеем
имеет
имеете
имеется
имеешь
имеи
имел
имела
имелась
имели
имелись
имело
имелось
имелся
имен
имена
именам
именами
именах
именем
именемъ
имени
имение
имением
имении
имения
именно
именнои
именовался
именование
именовании
именования
именовать
именоваться
именуется
именуются
иметь
имею
имеют
имеются
имеющая
имеющего
имеющее
имеющеи
имеющие
имеющиеся
имеющии
имеющим
имеющими
имеющимся
имеющих
имеющихся
имея
ими
иммигрантов
имп
император
императора
императоре
императоров
императором
императорская
императорскии
императорских
императорского
императорское
императорскои
императорском
императорскому
императорскую
императору
императоръ
императоры
императрица
императрице
императрицеи
императрицу
императрицы
империализма
империеи
империи
империю
империя
имперского
имперскои
имперіи
импорт
импорта
импульс
импульса
имуществ
имущества
имущественных
имущество
имуществом
имуществу
имхо
имъ
имя
имѣемъ
имѣете
имѣется
имѣетъ
имѣла
имѣли
имѣло
имѣлъ
имѣніе
имѣнія
имѣть
имѣю
имѣютъ
имѣя
ин
иначе
иная
инвалидов
инвестиции
инвестиционного
инвестиционнои
инвестиционных
инвесторов
ингушетии
ингушскои
индеец
индеи
индекс
индекса
индексы
инди
индиана
индивидуальная
индивидуально
индивидуального
индивидуальное
индивидуальнои
индивидуальном
индивидуальности
индивидуальность
индивидуальные
индивидуальныи
индивидуальным
индивидуальных
индии
индию
индия
индо
индоевропеи
индонезии
индонезия
индустрии
индустрия
индіи
индѣи
инж
инженер
инженера
инженерно
инженерного
инженернои
инженерные
инженерныи
инженерных
инженеров
инженером
инженеры
инициатив
инициатива
инициативе
инициативу
инициативы
инициатор
инициаторов
инициатором
инициировал
инквизиции
инкубатор
инкубатора
инкубаторе
инна
инновации
иннокентии
иннокентия
ино
иногда
иного
иное
инои
ином
иному
иностранная
иностранного
иностраннои
иностранном
иностранные
иностранныи
иностранным
иностранными
иностранных
иностранныхъ
иностранцев
иностранцы
инспектор
инспектора
инспектором
инспекции
инстанции
инстинкт
инстинктивно
инстинкты
институт
института
институте
институтов
институтом
институту
институты
инструктор
инструктором
инструкции
инструкция
инструмент
инструмента
инструментами
инструментах
инструментов
инструментом
инструменты
интеграции
интеграция
интеллект
интеллекта
интеллектуальнои
интеллигенции
интеллигенция
интенсивно
интенсивности
интенсивность
интер
интервал
интервенции
интервик
интервики
интервью
интерес
интереса
интересам
интересами
интересах
интересен
интересна
интересная
интереснее
интересно
интересного
интересное
интереснои
интересную
интересны
интересные
интересныи
интересным
интересных
интересов
интересовался
интересоваться
интересовъ
интересом
интересует
интересуется
интересуют
интересъ
интересы
интернат
интернационал
интернационала
интернет
интернета
интернете
интерпретации
интерпретация
интерфакс
интерфеи
интерьер
интерьера
интриг
интриги
иную
инфантерии
инфекции
информатики
информациеи
информации
информационная
информационно
информационного
информационное
информационнои
информационные
информационныи
информационных
информацию
информация
инфраструктура
инфраструктуры
инцидент
инцидента
иные
иным
иными
иных
иныхъ
ио
иоанн
иоанна
иоанном
иоанну
иоганн
иоганна
ион
иона
ионов
ионы
иордан
иордании
иосиф
иосифа
иосифович
ип
ипполит
ипр
ир
ира
ирак
ирака
ираке
иран
ирана
иране
иранскии
ирина
ирины
иркутск
иркутска
иркутская
иркутске
иркутского
иркутскои
ирландии
ирландия
ирландскии
ирландского
ирландскои
ирли
иронии
иронически
ирония
иртыш
иртыша
ис
исаак
исаака
исаев
исаи
иск
иска
искажение
искажения
искал
искала
искали
искалъ
искать
иски
исключает
исключая
исключе
исключен
исключена
исключение
исключением
исключении
исключения
исключениями
исключено
исключены
исключеніемъ
исключительно
исключительного
исключительное
исключительнои
исключительных
исключить
исков
ископаемые
ископаемых
искоса
искра
искренне
искреннее
искреннеи
искренним
искренно
искренности
искренность
искры
иску
искусно
искусныи
искусств
искусства
искусстве
искусственно
искусственного
искусственное
искусственнои
искусственные
искусственныи
искусственным
искусственных
искусство
искусствовед
искусствоведения
искусством
искусству
искушение
ислам
ислама
исламского
исламскои
исландии
исландия
исмаил
исп
испаниеи
испании
испанию
испания
испанская
испанские
испанскии
испанским
испанских
испанского
испанское
испанскои
испанском
испанцев
испанцы
исповеди
исповедь
исполком
исполкома
исполнен
исполнена
исполнение
исполнением
исполнении
исполнению
исполнения
исполненныи
исполнено
исполнены
исполненіе
исполненія
исполнив
исполнил
исполнила
исполнили
исполнилось
исполнителеи
исполнителем
исполнители
исполнитель
исполнительница
исполнительного
исполнительнои
исполнительные
исполнительныи
исполнительным
исполнительных
исполнителя
исполнителями
исполнить
исполняет
исполняется
исполнял
исполняла
исполняли
исполнять
исполняют
исполняющии
исполняющим
исполняя
использовал
использовала
использовалась
использовали
использовались
использовалось
использовался
использован
использована
использование
использованием
использовании
использованию
использования
использованные
использовано
использованы
использовать
использоваться
используемая
используемого
используемые
используемыи
используемых
использует
используется
используи
используют
используются
использующие
использующих
используя
испортить
испр
исправил
исправить
исправление
исправлении
исправления
исправлено
исправлены
исправлять
исправно
испуга
испугалась
испугался
испуганно
испуганныи
испытал
испытали
испытание
испытании
испытания
испытаниях
испытатель
испытать
испытывает
испытывал
испытывала
испытывали
испытывать
испытывают
исследовал
исследование
исследованием
исследовании
исследованию
исследования
исследованиям
исследованиями
исследованиях
исследователеи
исследователи
исследователь
исследовательская
исследовательские
исследовательскии
исследовательских
исследовательского
исследовательскои
исследователя
исследователями
исследовать
ист
истец
истечении
истечения
истин
истина
истине
истинная
истинно
истинного
истинное
истиннои
истинную
истинные
истинныи
истинным
истинных
истинои
истину
истины
истинѣ
исток
истока
истоки
истоков
истор
историеи
истории
историк
историка
историками
историки
историко
историков
историком
историографии
историография
историч
историческая
исторически
исторические
историческии
историческим
историческими
исторических
исторического
историческое
историческои
историческом
историческому
историческую
историю
история
исторіи
исторію
исторія
источник
источника
источникам
источниками
источниках
источнике
источники
источников
источником
источнику
источникъ
истребителеи
истребители
истребитель
истребительная
истребительно
истребительного
истребительнои
истребительныи
истребителя
истребить
истца
исход
исхода
исходе
исходит
исходить
исходного
исходное
исходнои
исходные
исходныи
исходным
исходных
исходу
исходя
исчез
исчезает
исчезали
исчезают
исчезла
исчезли
исчезло
исчезнет
исчезновение
исчезновения
исчезнувшие
исчезнуть
исчезъ
исчисления
ит
итак
итакъ
итал
италиеи
италии
италию
италия
итальянец
итальянская
итальянские
итальянскии
итальянским
итальянских
итальянского
итальянское
итальянскои
итальянском
итальянцев
итальянцы
италіи
итог
итога
итогам
итогах
итоге
итоги
итого
итогов
итоговая
итоговое
итоговом
итоговыи
итогом
итогу
итти
иуда
иудаизм
иудаизма
иудеев
иудеи
их
ихъ
ишимбаи
ишь
ища
ищет
ищется
ищетъ
ищи
ищите
ищу
ищут
июле
июль
июля
июне
июнь
июня
к
ка
кабак
кабардино
кабаре
кабинет
кабинета
кабинете
кабинетъ
кабинетѣ
кабины
кабо
кабы
кав
кавалер
кавалера
кавалерии
кавалерия
кавалеров
кавалером
кавалеры
кавер
кавказ
кавказа
кавказе
кавказская
кавказскии
кавказских
кавказского
кавказскои
кавычек
кавычки
каддафи
кадетскии
кадетского
кадр
кадра
кадров
кадры
каждаго
каждая
каждого
каждое
каждои
каждом
каждому
каждомъ
каждую
каждые
каждыи
каждым
каждымъ
кажется
кажись
кажутся
каз
казак
казака
казакам
казаками
казаки
казаков
казаковъ
казалась
казались
казалось
казался
казани
казанская
казанскии
казанского
казанскои
казанском
казань
казармы
казаться
казахов
казахская
казахскии
казахского
казахскои
казахстан
казахстана
казахстане
казахстанская
казахстанскии
казахстанскои
казачества
казачии
казачьего
казачьеи
казачьих
казе
казеннои
казенные
казенных
казимир
казимира
казино
казна
казначеи
казне
казнен
казнены
казни
казнили
казнить
казну
казны
казнь
каи
каир
каире
как
какая
какие
каким
какими
какимъ
каких
какихъ
каков
какова
каково
каковъ
каковы
какого
какое
какои
каком
какому
какомъ
какою
какую
какъ
какіе
какія
кал
кала
калгари
кале
календаре
календарь
календарю
календаря
кали
калибр
калибра
калии
калинин
калинина
калининград
калининградская
калининградскои
калининского
калитку
калифорнии
калифорния
калия
калмыков
калуга
калужская
калужскои
кальскии
кальского
кальция
кам
кама
камаз
каменец
каменка
каменная
каменного
каменное
каменнои
каменном
каменную
каменные
каменныи
каменным
каменными
каменных
каменскии
каменского
камень
камео
камер
камера
камере
камерои
камеру
камерун
камеруна
камеры
ками
камина
камне
камнеи
камнем
камни
камня
камнями
кампании
кампанию
кампания
камчатке
камчатки
камчатского
камы
кан
кана
канада
канаде
канадская
канадскии
канадских
канадского
канадскои
канаду
канады
канал
канала
каналам
каналах
канале
каналов
каналом
каналу
каналы
канд
кандидат
кандидата
кандидатам
кандидатов
кандидатом
кандидатских
кандидатскую
кандидату
кандидатуру
кандидатуры
кандидаты
канзас
каникулы
канон
каноэ
кант
канта
кантон
кантона
кантоне
кантри
канун
канцелярии
канцелярию
канцелярия
канцлер
канцлера
кап
капелла
капеллы
капель
капельмеи
капитал
капитала
капитализм
капитализма
капиталистических
капиталистического
капиталистов
капиталов
капиталом
капиталъ
капиталы
капитального
капитальныи
капитан
капитана
капитаном
капитану
капитанъ
капитаны
капитолии
капитуляции
капли
капля
кар
кара
карабах
карабаха
карабахскои
караван
карамзин
карамзина
карандаш
карандашом
караул
караула
карачаево
кардинал
кардинала
кардиналов
кардиналом
кардиналы
кардинально
каре
карел
карелии
карелия
карельского
карельскои
карен
карено
карета
карете
карету
кареты
карибского
карл
карла
карлик
карло
карлович
карлом
карлос
карлоса
карлсруэ
карлу
карлъ
карман
кармана
кармане
карманъ
карманы
кармен
каролина
каролины
кароль
карпаты
карпов
карт
карта
картам
картами
картах
карте
картер
картин
картина
картинами
картинах
картине
картинка
картинки
картинку
картинои
картинок
картину
картины
картои
картофель
картофеля
карточек
карточка
карточке
карточки
карточку
карту
карты
карусель
кары
карьера
карьере
карьеру
карьеры
касается
касались
касалось
касался
касательно
касаться
касаются
касающиеся
касающихся
касаясь
каспии
касса
кассационнои
кассии
кассу
кассы
кастилии
кастилия
кастинг
кастро
кат
каталина
каталог
каталога
каталоге
каталоги
каталонии
катание
катании
катанию
катания
катара
катарина
катастроф
катастрофа
катастрофе
катастрофу
катастрофы
кататься
категоризации
категоризация
категории
категорически
категорию
категория
категориям
категориями
категориях
катер
катера
катерина
катерины
катеров
кати
катков
като
католики
католиков
католицизм
католическая
католические
католическии
католических
католического
католическои
католичество
каторга
каторги
каторгу
катрин
катя
кафе
кафедр
кафедра
кафедрального
кафедральныи
кафедре
кафедрои
кафедру
кафедры
кафтан
ках
качая
качеств
качества
качествами
качестве
качественно
качественные
качественных
качество
качеством
качеству
качествѣ
каша
кашель
кашу
каюту
каюты
кая
кб
кбу
кв
квадрат
квадратныи
квадратных
квалификации
квалификационного
квалификационном
квалификационныи
квалификацию
квалификация
квантовои
квартал
квартала
квартале
кварталов
кварталы
квартет
квартета
квартир
квартира
квартире
квартирмеи
квартирои
квартиру
квартиры
квартирѣ
квебек
квебека
кверху
квинт
квн
квт
кг
кгб
кди
ке
кевин
кеи
келли
кельи
кем
кембридж
кемерово
кемеровскои
кен
кении
кеннеди
кенни
кент
кентукки
кер
керамика
керамики
керри
керс
кесарии
кз
кзди
кзм
кзп
ки
кивнул
кивнула
кие
киев
киева
киеве
киево
киевская
киевскии
киевским
киевского
киевское
киевскои
киевском
кии
киликии
килограммов
километр
километра
километрах
километре
километров
киль
киля
ким
кин
кина
кинг
кинга
кинематограф
кинематографа
кинематографе
кинематографии
кинематографистов
кинжал
кино
киноакте
киноактрисы
кинокомедии
кинокомпании
кинокритиков
кинопле
кинорежиссе
киностудии
киностудия
кинотеатр
кинотеатра
кинотеатрах
кинофестивале
кинофестиваль
кинофестиваля
кинофильм
кинулись
кинулся
киото
кипит
кипр
кипра
кипре
кир
кира
киргизии
киргизия
киргизскои
киргизы
кирилл
кирилла
кириллович
киров
кирова
кирово
кировоградскои
кировская
кировскии
кировского
кировскои
кирпич
кирпича
кирпичныи
кис
киселе
кислород
кислорода
кислот
кислота
кислотои
кислоту
кислоты
кисти
кисть
кит
кита
китае
китаем
китаи
китая
китт
китти
ких
кихот
кихотъ
кишечника
кишине
кишки
киі
кл
кла
клавдии
клавдия
клавиши
клавишные
клад
кладбища
кладбище
кладет
кладки
кладут
клаи
клан
клана
кланяется
кланяться
кланяясь
клара
кларк
кларка
класс
класса
классами
классах
классе
классик
классика
классики
классиков
классификации
классификацию
классификация
классицизма
классическая
классические
классическии
классическим
классических
классического
классическое
классическои
классическом
классическую
классов
классовои
классом
классу
классъ
классы
класть
клаус
кле
клевета
клеветы
клеи
клеопатра
клер
клетка
клетками
клетках
клетке
клетки
клетку
клеток
кливленд
клиент
клиента
клиентов
клим
климат
климата
климатических
климатом
климент
климента
клин
клиника
клинике
клиники
клиническая
клинических
клиническои
клинтон
клип
клипа
клипе
клипы
кличко
клише
клод
клода
клом
клуб
клуба
клубами
клубах
клубе
клубная
клубные
клубов
клубом
клубу
клубы
клэр
клюв
ключ
ключа
ключе
ключевои
ключевскии
ключевую
ключевые
ключевым
ключевых
ключеи
ключи
ключом
ключъ
клялся
клянусь
клятва
клятву
клятвы
км
кмет
кн
кндр
кнессета
книг
книга
книгам
книгами
книгах
книге
книги
книгои
книгу
книгъ
книгѣ
книжек
книжка
книжке
книжки
книжку
книжная
книжного
книжное
книжнои
книжные
книжныи
книжных
кнопка
кнопки
кнопку
кнр
кнут
кнутом
княгине
княгини
княгиню
княгиня
княжеского
княжеств
княжества
княжестве
княжество
княжна
княжны
князе
князеи
князем
князь
князья
князьям
князьями
князю
князя
ко
коалиции
коалицию
коалиция
коатуу
коб
ков
кова
ковале
коваленко
ковер
ково
ковров
ковры
ковскии
ковского
ковчег
когда
кого
когти
когтями
код
кода
кодекс
кодекса
кодексом
кодов
кодом
коды
кое
коего
коеи
коем
кожа
коже
кожеи
кожи
кожу
коз
коза
козаки
козаков
козлов
козлова
козловскии
козы
кои
коим
коими
коих
коихъ
кок
кокс
коктеи
кол
кола
колдун
коле
колебался
колебании
колебания
колеблется
колеблясь
колеи
колен
колена
колени
колено
коленях
колес
колеса
колесо
колец
коли
колибри
колин
количества
количествах
количестве
количество
количеством
количеству
количествѣ
коллег
коллега
коллегам
коллегами
коллеге
коллеги
коллегии
коллегию
коллегия
коллегои
коллегу
колледж
колледжа
колледже
коллектив
коллектива
коллективизации
коллективного
коллективнои
коллективных
коллективов
коллективом
коллективы
коллекции
коллекционер
коллекцию
коллекция
коллинз
коло
колодец
колодца
колокол
колокола
колоколов
колокольни
колокольня
колокольчик
колониальнои
колонизации
колонии
колонистов
колонисты
колонию
колония
колониях
колонки
колонн
колонна
колоннами
колонну
колонны
колоніи
колорадо
колорит
колос
колумбии
колумбия
колхоз
колхоза
колхозе
колхозников
колхозов
колхозы
колчака
колыбели
коль
кольца
кольцами
кольцевои
кольцо
кольцова
кольцом
коля
коляска
коляску
колѣни
колѣняхъ
ком
кома
команд
команда
командами
командах
команде
командир
командира
командиров
командирован
командиром
командиру
командиръ
командиры
командного
командное
команднои
командном
командные
командныи
командных
командовал
командование
командованием
командованию
командования
командовать
командои
командор
команду
командующего
командующие
командующии
командующим
командуя
команды
комарки
комаров
комарова
комбаи
комбинат
комбината
комбинации
комбинация
комедии
комедию
комедия
комедіи
комендант
коменданта
комендантом
комета
кометы
коми
комик
комикс
комикса
комиксов
комиксы
коминтерна
комиссар
комиссара
комиссариат
комиссариата
комиссаров
комиссаром
комиссары
комиссиеи
комиссии
комиссию
комиссия
комитет
комитета
комитете
комитетов
комитетом
комитету
комитеты
коммент
комментариев
комментарием
комментарии
комментария
комментариями
комментариях
комментатор
комментировать
коммерсант
коммерсантъ
коммерции
коммерческие
коммерческии
коммерческим
коммерческих
коммерческого
коммерческое
коммерческои
коммун
коммуна
коммунального
коммуне
коммунизм
коммунизма
коммуникации
коммунист
коммунистическая
коммунистических
коммунистического
коммунистическои
коммунистов
коммунисты
коммуны
комнат
комната
комнатах
комнате
комнату
комнаты
комнатѣ
компакт
компаниеи
компании
компанию
компания
компаниям
компаниями
компаніи
компартии
компенсации
компенсацию
компетенции
компиляции
комплекс
комплекса
комплексе
комплексного
комплекснои
комплексных
комплексов
комплексом
комплексы
комплект
комплекта
композитор
композитора
композиторов
композитором
композиторы
композиции
композицию
композиция
компонент
компонента
компонентов
компоненты
компромисс
компьютер
компьютера
компьютере
компьютерная
компьютернои
компьютерные
компьютерных
компьютеров
компьютеры
комсомола
комсомолец
комсомольская
комсомольскои
кому
комъ
кон
конан
конвеи
конвента
конвенции
конвенция
конверт
конверте
конвои
конвоя
конго
конгрегации
конгресс
конгресса
конгрессе
конде
кондратьев
коне
конеи
конец
конецъ
конечная
конечно
конечного
конечнои
конечном
конечностеи
конечности
конечныи
конечных
кони
конкакаф
конкретно
конкретного
конкретное
конкретнои
конкретном
конкретному
конкретную
конкретные
конкретныи
конкретным
конкретных
конкурентов
конкуренции
конкуренцию
конкуренция
конкурс
конкурса
конкурсах
конкурсе
конкурснои
конкурсов
конкурсы
конная
коннектикут
конница
конницы
конно
конного
коннои
конные
конныи
конных
конрад
конрада
конс
консенсус
консенсуса
консенсусом
консенсусу
консервативнои
консерватории
консерваторию
консерваторов
консистории
консоли
константин
константина
константинович
константиновича
константиновна
константином
константинополе
константинополь
константинопольскии
константинопольского
константинополя
константину
констатировать
конституциеи
конституции
конституционного
конституционнои
конституционныи
конституционным
конституционных
конституцию
конституция
конструктивно
конструктивные
конструктор
конструктора
конструкторов
конструкторы
конструкции
конструкцию
конструкция
консул
консула
консулом
консулы
консульства
консульство
консультант
консультантом
консультации
контакт
контакта
контакте
контактов
контакты
контеи
контекст
контекста
контексте
контент
контента
контингент
континент
континента
континентального
континентальнои
континентальныи
континенте
контора
конторе
контору
конторы
контр
контракт
контракта
контрактов
контракту
контракты
контраст
контратаки
контроле
контролем
контролировать
контролирует
контроль
контрольно
контрольнои
контролю
контроля
конф
конфедерации
конфедерация
конференции
конференцию
конференция
конференциях
конфессии
конфигурации
конфирмации
конфискации
конфликт
конфликта
конфликтах
конфликте
конфликтов
конфликтом
конфликту
конфликты
конца
концами
концах
конце
концентрации
концентрация
концепт
концепции
концепцию
концепция
концерн
концерна
концерт
концерта
концертами
концертах
концерте
концертного
концертные
концертныи
концертных
концертов
концерты
концов
концовъ
концом
концу
концы
концѣ
кончается
кончая
кончено
кончил
кончилась
кончили
кончились
кончилось
кончился
кончилъ
кончина
кончине
кончины
кончится
кончить
конь
конюшни
коня
кооператива
кооперации
координат
координатам
координаты
координации
координационныи
коп
копеек
копеи
копенгаген
копенгагене
копи
копивио
копии
копираи
копирования
копировать
копию
копия
копылов
копье
копья
кор
кора
корабле
кораблеи
кораблем
корабли
корабль
кораблю
корабля
кораблям
кораблями
кораблях
корана
коре
корее
кореи
коренного
кореннои
коренные
коренным
коренных
корень
корея
коржиманов
корзину
корзины
кори
коридор
коридора
коридоре
коридору
коричневая
коричневого
коричневые
коричневыи
корм
корма
корме
кормилица
кормить
кормовои
корму
корне
корнеи
корнелии
корни
корнилов
корня
корнями
коробка
коробки
коробку
коров
корова
корову
коровы
короле
королева
королеве
королевои
королевская
королевские
королевскии
королевским
королевских
королевского
королевское
королевскои
королевском
королевскую
королевства
королевстве
королевство
королевством
королеву
королевы
королеи
королем
королемъ
короленко
короли
король
королю
короля
корона
коронавируса
коронации
короне
коронои
корону
короны
короткая
короткие
короткии
коротким
короткими
коротких
коротко
короткого
короткое
короткои
короткометражныи
короткую
короче
корпорации
корпорация
корпус
корпуса
корпусе
корпусов
корпусом
корпусу
корр
корректно
коррекции
корреспондент
корреспондента
корреспондентом
корреспонденты
корреспонденции
коррупции
корсаков
корсакова
коры
коса
косвенно
космическая
космические
космическии
космических
космического
космическои
космонавт
космонавтики
космонавтов
космос
космоса
космосе
коснулась
коснулся
коснуться
косово
косои
коста
костанаи
косте
костеи
костер
кости
костра
кострома
костромская
костромскои
костры
кость
костью
костюм
костюма
костюмам
костюмах
костюме
костюмов
костюмъ
костюмы
костя
косу
косы
кот
кота
коте
котла
котлов
котлы
котов
котораго
которая
которого
которое
которои
котором
которому
которомъ
которою
которую
которые
которыи
которым
которыми
которымъ
которых
которыхъ
которыя
кофе
кофеи
кочевников
кошек
кошелек
кошка
кошки
кошмар
коэн
коэффициент
коэффициента
кою
кп
кпк
кпм
кпрф
кпсс
кпу
кр
кравченко
крае
краев
краевед
краеведческии
краеведческого
краевого
краевои
краем
краи
краков
кракове
кран
красавец
красавица
красавицеи
красавицу
красавицы
красив
красива
красивая
красиво
красивого
красивое
красивои
красивую
красивые
красивыи
красивым
красивыми
красивых
краска
красками
краски
краскои
краску
краснаго
красная
красно
красноармеец
красноармеи
красновато
красногвардеи
красного
краснодар
краснодарскии
краснодарского
красное
краснознаме
краснои
красном
красноярск
красноярске
красноярскии
красноярского
красную
красные
красныи
красным
красными
красных
красок
красота
красоте
красотои
красотою
красоту
красоты
красотѣ
кратер
кратера
кратеров
кратеры
краткая
краткие
краткии
кратким
кратких
кратко
краткого
краткое
краткои
краткую
кратныи
кратчаи
крах
краю
края
краям
краями
краях
кре
кредит
кредита
кредитнои
кредитных
кредитов
кредиторов
креи
кремле
кремль
кремля
крепкие
крепкии
крепким
крепких
крепко
крепкои
крепления
крепостеи
крепости
крепостного
крепостнои
крепостные
крепостных
крепость
крепостью
крепче
кресла
кресле
кресло
крест
креста
крестами
кресте
крестителя
крестныи
крестового
крестовыи
крестом
крестоносцев
кресту
крестъ
кресты
крестьян
крестьянам
крестьянами
крестьяне
крестьянин
крестьянина
крестьянинъ
крестьянская
крестьянские
крестьянскии
крестьянских
крестьянского
крестьянское
крестьянскои
крестьянскую
крестьянства
крестьянство
крестьянъ
крещение
крещении
крещения
кривая
кривои
кривые
кривых
кризис
кризиса
крик
крика
криками
крики
крикнул
крикнула
крикнулъ
крикнуть
криком
крикомъ
крикъ
крис
криса
кристалл
кристаллов
кристаллы
кристи
кристиан
кристиана
кристин
кристина
кристоф
кристофер
крит
критериев
критерием
критерии
критерию
критерия
критериям
критериями
критик
критика
критиками
критике
критики
критиков
критиковал
критиковать
критикои
критику
критикует
критическая
критически
критические
критическии
критических
критического
критическое
критическои
крича
кричал
кричала
кричали
кричалъ
кричат
кричать
кричит
кричитъ
кришна
кришны
кровавая
кровавои
кровавые
кровавыи
кровати
кровать
крови
кровли
кровь
кровью
кроется
крои
крокодил
кроме
кромѣ
крон
кронас
кронштадт
кронштадта
кросс
крот
кротко
круг
круга
кругами
кругах
круге
круги
круглая
круглого
круглое
круглои
круглые
круглыи
круглыми
круглых
кругов
круговои
кругом
кругомъ
кругу
кругъ
кружева
кружка
кружке
кружки
кружков
кружку
кружок
крупная
крупнее
крупнеи
крупного
крупное
крупнои
крупном
крупную
крупные
крупныи
крупным
крупными
крупных
крус
круто
крутои
крутые
крушение
крушения
крыла
крыле
крыло
крылов
крылова
крылом
крыльев
крыльца
крыльце
крыльцо
крылья
крыльями
крыльях
крым
крыма
крымская
крымские
крымскии
крымских
крымского
крымскои
крыму
крыс
крыса
крысы
крыша
крыше
крышеи
крыши
крышку
крышу
крэи
крѣпко
крѣпости
крѣпость
кс
ксения
кстати
кся
кт
кто
ку
куб
куба
кубани
кубаноид
кубань
кубе
кубка
кубке
кубков
кубок
кубы
кувеи
куда
кудри
кузина
кузнец
кузнецов
кузнецова
кузница
кузов
кузова
кузьма
кузьмин
кузьмина
кузьмич
куи
кук
кука
кукла
куклы
кукол
кукурузы
кул
кулак
кулаками
кулаки
кулаков
кулаком
кули
куль
культ
культа
культовые
культур
культура
культуре
культурная
культурно
культурного
культурное
культурнои
культурном
культурную
культурные
культурныи
культурным
культурных
культурои
культуру
культуры
кум
кун
купе
купер
купец
купецъ
купил
купила
купили
купилъ
купить
купли
купол
купола
куполом
купца
купцов
купцом
купцу
купцы
кур
куратор
курган
кургана
курганов
курганскои
курил
курить
курица
курносенко
курорт
курс
курса
курсантов
курсах
курсе
курсивом
курск
курская
курского
курскои
курсов
курсом
курсу
курсъ
курсы
курт
курфюрст
куры
курьер
куска
куски
кусков
кусок
кусокъ
кусочек
кусочки
куст
кустами
кустарник
кустарники
кустарников
кустах
кустов
кусты
кутузов
кутузова
кухарка
кухне
кухни
кухню
кухня
куча
кучер
кучера
кучи
кучка
кучки
кучу
кушанье
кушанья
кушать
кхл
кхс
къ
кызыл
кыргызскои
кэи
кэмпбелл
кэри
кэрол
кэрри
кэт
кэти
кэтрин
кэш
кѣ
кѣмъ
л
ла
лабиринт
лабораториеи
лаборатории
лабораторию
лаборатория
лавка
лавке
лавки
лавку
лавок
лавра
лаврентии
лаврентия
лавров
лаврова
лавры
лагере
лагереи
лагерем
лагерь
лагеря
лагерях
лад
лада
ладно
ладони
ладонь
ладонью
ладоши
лады
лазарев
лазарева
лазарь
лазаря
лаи
лакеи
лакея
лам
лама
ламберт
лами
ламп
лампа
лампу
лампы
ламы
лан
ландау
ландшафт
ланки
лапы
лара
лариса
ларри
лас
ласки
ласково
ласковыи
ласточка
лат
латвии
латвия
латинская
латинские
латинскии
латинских
латинского
латинское
латинскои
латинском
латыни
лаура
лауреат
лауреата
лауреатов
лауреатом
лауреаты
лах
лацио
лая
лба
лбом
лбу
лв
лгать
лгбт
лгу
лд
лдпр
ле
лебедев
лебедева
лебедь
лев
левая
леви
левин
левина
левого
левое
левои
левом
левому
левую
левъ
левые
левыи
левым
левых
лег
легенд
легенда
легендарного
легендарныи
легенде
легенду
легенды
легион
легиона
легкая
легкие
легкии
легким
легкими
легких
легко
легкоатлет
легкоатлетка
легкоатлеты
легкого
легкое
легкои
легкостью
легкую
легкіи
легла
легли
легчаи
легче
лед
леди
ледник
ледъ
ледянои
лежа
лежал
лежала
лежали
лежало
лежалъ
лежат
лежатъ
лежать
лежащеи
лежащие
лежащих
лежит
лежитъ
лезет
лезть
леи
лекарств
лекарства
лекарственные
лекарственных
лекарство
лекарь
лексика
лексики
лекции
лекцию
лекция
лекціи
леммон
лен
лена
ленд
лени
лениво
ленин
ленина
ленинград
ленинграда
ленинграде
ленинградская
ленинградскии
ленинградских
ленинградского
ленинградскои
ленинградском
ленинизма
ленинская
ленинскии
ленинского
ленинскои
ленину
лент
лента
лентами
ленте
лентои
ленту
ленты
лены
лень
лео
леон
леона
леонард
леонардо
леоне
леонид
леонида
леонидович
леонтии
леонтьев
леонтьева
леопольд
леопольда
лепестки
лер
лера
лермонтов
лермонтова
лес
леса
лесами
лесах
лесков
лесли
лесная
лесного
лесное
леснои
лесном
лесные
лесных
лесов
лесовприказ
лесом
лесорастительных
лесостепнои
лестер
лестница
лестнице
лестницу
лестницы
лесу
лет
лета
летать
летели
летие
летием
летит
летию
летия
летнего
летнее
летнеи
летнем
летнему
летние
летнии
летним
летних
летнюю
летняя
лето
летом
летописеи
летописец
летописи
летопись
летописях
лету
летят
лечение
лечении
лечения
лечить
лечь
лжи
лз
ли
либерализма
либералов
либералы
либеральная
либерально
либеральнои
либеральные
либеральных
либертадорес
либо
либретто
ливан
ливана
ливане
ливерпуль
ливерпуля
ливии
ливия
лиг
лига
лигах
лиге
лиги
лигу
лида
лидер
лидера
лидерами
лидеров
лидером
лидерство
лидеры
лидии
лидия
лидія
лиза
лизавета
лизу
лизы
лии
лик
лика
ликвидации
ликвидация
ликвидирован
ликвидирована
ликвидировано
ликвидированы
ликвидировать
лике
лики
ликка
лику
лили
лилии
лилия
лин
лина
лингвист
лингвистики
лингвисты
линда
линеи
линиеи
линии
линию
линия
линиям
линиями
линиях
линкольн
линкольна
линн
линь
линіи
лион
липа
липецк
липецкои
липы
лир
лира
лирика
лирики
лис
лиса
лисица
лиссабон
лист
листа
листах
листе
листки
листов
листок
листъ
листы
листьев
листья
листьями
лит
литва
литве
литву
литвы
литеи
литер
литератор
литераторов
литераторы
литература
литературе
литературная
литературно
литературного
литературное
литературнои
литературном
литературную
литературные
литературныи
литературным
литературными
литературных
литературовед
литературои
литературу
литературы
литературѣ
литовская
литовские
литовскии
литовским
литовских
литовского
литовскои
литовском
литров
литургии
лихаче
лихо
лихорадка
лихорадки
лихтенштеи
лиц
лица
лицам
лицами
лицамъ
лицах
лице
лицевои
лицее
лицеи
лицензиеи
лицензии
лицензирование
лицензию
лицензия
лицея
лицо
лицом
лицомъ
лицу
лицъ
лицѣ
личико
личинки
личинок
личная
лично
личного
личное
личнои
личном
личному
личностеи
личности
личность
личностью
личную
личные
личныи
личным
личными
личных
личныхъ
лишает
лишаи
лишать
лише
лишен
лишена
лишение
лишением
лишении
лишению
лишения
лишенныи
лишены
лишил
лишилась
лишили
лишились
лишился
лишить
лишиться
лишнего
лишнее
лишние
лишнии
лишним
лишних
лишняя
лишь
лия
лк
лка
лке
лки
лков
лком
лку
лл
ллои
лн
лнр
ло
лоб
лобачев
лобъ
лов
лова
ловить
лович
ловича
ловичу
ловичъ
ловка
ловкии
ловко
ловкости
ловкость
ловкостью
ловли
ловля
ловна
ловны
лово
ловскии
ловского
ловское
ловском
ловушку
ловят
лог
логика
логике
логики
логику
логически
логическои
логично
лого
логотип
логотипа
логотипы
лодка
лодках
лодке
лодки
лодку
лодок
лое
ложа
ложе
ложи
ложится
ложки
ложно
ложное
ложнои
ложные
ложныи
ложных
ложу
ложь
ложью
лозунг
лозунгом
лои
лок
локализации
локальные
локальных
локации
локи
локомотив
локомотива
локоть
локтя
лом
ломать
ломоносов
ломоносова
лонг
лондон
лондона
лондоне
лондонскии
лондонского
лондонскои
лондонском
лондонъ
лондонѣ
лопатин
лопатина
лопес
лор
лора
лоран
лорд
лорда
лордов
лордом
лорду
лордъ
лорды
лорен
лоренцо
лори
лос
лось
лотарингии
лотарингия
лотереи
лоу
лоуренс
лошадеи
лошади
лошадь
лошадьми
лошадью
лошадях
лс
лся
лтая
лто
лтого
лтои
лтые
лтыи
лу
луг
луга
луганскои
лугах
лугов
луговая
луговои
лугу
лужаи
луи
луиджи
луиза
луизы
луис
луиса
лук
лука
лукаво
лукас
лукашенко
луки
лукои
луна
луначарского
луне
лунного
луннои
лунныи
лунои
луну
луны
лурье
луции
луция
луч
луча
лучами
лучах
лучеи
лучи
лучшаго
лучшая
лучше
лучшего
лучшее
лучшеи
лучшем
лучшему
лучшие
лучшии
лучшим
лучшими
лучшимъ
лучших
лучшихъ
лучшую
лучшіи
лучъ
лую
лы
лые
лыи
лым
лыми
лысенко
лых
ль
льва
львов
львова
львове
львович
львовна
львовскии
львовского
львовскои
львом
льву
львы
льгот
льготы
льда
льдом
льду
лье
льн
льна
льское
льшая
льшую
льюис
льюиса
лэди
лэи
лю
люба
любая
любви
любезная
любезнеи
любезно
любезности
любезность
любезны
любезныи
люби
любил
любила
любили
любилъ
любим
любимая
любимец
любимого
любимое
любимои
любимую
любимца
любимые
любимыи
любимым
любимых
любит
любите
любителеи
любители
любитель
любительскии
любительских
любитъ
любить
любишь
люблю
любо
любовался
любоваться
любовник
любовника
любовница
любовницеи
любовницы
любовно
любовнои
любовные
любовных
любовь
любовью
любого
любое
любои
любом
любому
любопытно
любопытные
любопытныи
любопытных
любопытства
любопытство
любопытством
любопытствомъ
любую
любуясь
любые
любым
любых
любя
любят
любятъ
любящии
люда
людвиг
людвига
людеи
люди
людмила
людмилы
людовик
людовика
людскои
людьми
людям
людямъ
людях
людяхъ
люк
люка
люксембург
люксембурга
люси
лютер
лютера
лютеранскои
люфтваффе
ля
лягушка
лягушки
лян
лѣв
лѣвои
лѣса
лѣсомъ
лѣстницы
лѣстницѣ
лѣсу
лѣсъ
лѣта
лѣто
лѣтомъ
лѣтъ
м
ма
мавзолеи
мавра
маврикии
маг
магазин
магазина
магазинах
магазине
магазинов
магазины
магии
магистр
магистра
магистрали
магистраль
магия
магнитного
магнитнои
магнитных
магнус
мадагаскар
мадагаскара
мадам
мадамъ
мадемуазель
мадлен
мадонна
мадонны
мадрид
мадриде
мае
мажор
мазепа
маи
мак
мака
макао
макар
макаренко
макарии
макаров
макарова
макбет
макдональд
македонии
македония
македонскии
македонского
макет
маккартни
маккеи
макс
макса
максим
максима
максимальная
максимально
максимального
максимальное
максимальнои
максимальную
максимальныи
максимилиан
максимилиана
максимов
максимова
максимович
максимум
макъ
мал
мала
малаи
малая
малеи
маленькаго
маленькая
маленькие
маленькии
маленьким
маленькими
маленьких
маленькихъ
маленького
маленькое
маленькои
маленьком
маленькому
маленькую
маленькіи
маленькія
мали
малик
мало
маловато
малого
малое
малои
малом
малороссии
малость
малу
малую
малы
малые
малыи
малым
малыми
малых
малыш
мальтии
мальты
мальчик
мальчика
мальчики
мальчиков
мальчиком
мальчику
мальчикъ
мальчишка
мальчишки
малютка
малѣи
мам
мама
мамаша
маменька
мами
мамочка
маму
мамы
ман
мана
манга
манге
манги
мандат
мандата
мандатов
мане
манер
манера
манере
манеру
манеры
манипуляции
манифест
манифеста
манн
мансии
мансур
мантии
мануфактуры
мануэль
манчестер
маньчжурии
маня
мао
маори
мар
мара
марат
марафон
марафона
марафоне
марг
маргарет
маргарита
маргариты
марго
маре
мари
марианна
мариеи
марии
мариинского
марин
марина
марино
марины
марио
марию
мария
марк
марка
марках
маркграф
марке
маркетинг
марки
маркиз
маркиза
маркизъ
маркизы
марко
марков
маркова
маркович
маркои
марком
маркс
маркса
марксизм
марксизма
марку
маркус
марок
марокко
марс
марса
марсе
марсель
марселя
март
марта
марте
мартен
марти
мартин
мартина
мартинес
мартином
мартынов
маруся
марфа
марш
марша
маршал
маршала
маршалл
маршрут
маршрута
маршруте
маршрутов
маршруту
маршруты
марьи
марья
маріи
марія
маска
маскарад
маски
маскои
маску
масла
масло
маслов
маслом
масс
масса
массами
массачусетс
массе
массив
массива
массовая
массово
массового
массовое
массовои
массовые
массовыи
массовым
массовых
массои
массу
массы
мастер
мастера
мастерами
мастеров
мастером
мастерская
мастерски
мастерские
мастерских
мастерскои
мастерскую
мастерства
мастерство
масштаб
масштаба
масштабах
масштабе
мат
матвеев
матвеева
матвеевич
матвеи
матвея
математик
математика
математике
математики
математику
математическая
математические
математическии
математических
математического
математическое
математическои
матереи
матери
материал
материала
материалам
материалами
материалах
материале
материализм
материализма
материалов
материалом
материалы
материально
материального
материальное
материальнои
материальную
материальные
материальных
материи
материка
материнскои
материя
матерь
матерью
матильда
матки
матрена
матрица
матрицы
матрос
матроса
матросов
матросы
матушка
матушки
матфея
матч
матча
матчах
матче
матчеи
матчем
матчи
мать
маунт
мафии
мах
махараджа
махачкала
махмуд
махнул
мачеха
мачты
маша
маши
машин
машина
машинально
машинами
машинах
машине
машинист
машиниста
машинного
машинныи
машинои
машиностроение
машиностроения
машиностроительныи
машину
машины
маэстро
маю
мая
маяк
маяка
маяковскии
маяковского
мб
мвд
мвт
мг
мгимо
мгновение
мгновении
мгновенно
мгновенье
мгновеніе
мгу
мгц
ме
мебели
мебель
мед
медалеи
медали
медалисты
медаль
медалью
медалями
медведев
медведева
медведеи
медведи
медведь
медведя
медеи
меди
медиа
медик
медики
медико
медицина
медицине
медицинская
медицинские
медицинскии
медицинским
медицинских
медицинского
медицинское
медицинскои
медицинском
медицинскую
медицину
медицины
медичи
медленнее
медленно
меднои
медные
медныи
медных
медресе
медь
меж
между
международная
международного
международное
международнои
международном
международному
международную
международные
международныи
международным
международными
международных
межъ
мезорегиона
меи
мекленбург
мексика
мексиканскии
мексиканского
мексиканскои
мексике
мексики
мексико
мексику
мел
мели
мелкая
мелкие
мелкии
мелким
мелкими
мелких
мелкихъ
мелко
мелкого
мелкое
мелкои
мелодии
мелодию
мелодия
мелодрамы
мелочеи
мелочи
мелочь
мель
мельбурне
мелькали
мелькнула
мелькнуло
мельком
мельник
мельников
мельникова
мельница
мельницу
мельницы
мельчаи
мем
мемориал
мемориала
мемориальная
мемориальныи
мемуарах
мемуаров
мемуары
мен
менделеева
мене
менеджер
менеджера
менеджером
менеджмент
менеджмента
менее
меншиков
меншикова
меньшая
меньше
меньшего
меньшее
меньшеи
меньшие
меньшии
меньшим
меньшинств
меньшинства
меньшинство
меньших
меньшую
меню
меня
меняет
меняется
менял
менялись
менять
меняться
меняют
меняются
меняя
менѣе
мер
мера
мерам
мерами
мерах
мере
мережковскии
мережковского
мери
меркурии
мерои
мероприятие
мероприятии
мероприятия
мероприятиях
мерси
мертвая
мертвеца
мертвецов
мертвого
мертвое
мертвои
мертвые
мертвыи
мертвым
мертвых
меру
меры
мес
меса
месопотамии
мест
места
местам
местами
местах
месте
местечка
местечке
местечко
мести
местная
местного
местное
местнои
местном
местному
местностеи
местности
местность
местностях
местную
местные
местныи
местным
местными
местных
место
местоимения
местом
местонахождение
местоположение
месторождение
месторождении
месторождения
месту
месть
месяц
месяца
месяцами
месяце
месяцев
месяцы
мет
мета
метал
метала
металл
металла
металлические
металлическии
металлических
металлическои
металлов
металлург
металлургии
металлургическии
металлургического
металлы
метафизики
мете
метель
метод
метода
методам
методами
методе
методика
методики
методические
методических
методов
методологии
методология
методом
методу
методы
метр
метра
метрах
метро
метров
метрополитен
метрополитена
мефистофель
мефодия
мех
меха
механизации
механизм
механизма
механизмов
механизмом
механизмы
механик
механика
механике
механики
механическая
механически
механические
механическии
механических
механического
механическои
мехико
мехмед
меценат
меч
меча
мечами
мечеи
мечети
мечеть
мечи
мечом
мечта
мечтает
мечтал
мечтала
мечтать
мечтои
мечту
мечты
мечъ
мешает
мешал
мешали
мешало
мешать
мешают
мешка
мешки
мешков
мешок
мешь
мещан
ми
миг
мигель
мигом
мигрантов
миграции
мигъ
мид
мии
мик
микеланджело
микки
микрораи
микрорегион
мил
мила
милан
милана
милане
милая
миледи
милеи
мили
милиции
милиция
милл
миллер
миллера
милли
миллиарда
миллиардов
миллион
миллиона
миллионов
миллионы
милліоновъ
мило
милого
милое
милои
милордъ
милосердие
милосердия
милости
милостиво
милостивыи
милостыню
милость
милостью
милую
милые
милыи
миль
милях
мимо
мимоходом
мин
мина
минас
минеи
минерал
минералов
минералы
минеральные
минеральных
мини
миниатюры
минимальная
минимально
минимального
минимальное
минимальнои
минимальные
минимальныи
минимальным
минимальных
минимум
минимума
министерств
министерства
министерстве
министерство
министерством
министерству
министр
министра
министров
министром
министру
министръ
министры
миннесота
минобороны
миновать
миноме
миноносец
миноносцев
миноносцы
минор
минск
минска
минская
минске
минскии
минского
минскои
минус
минут
минута
минуте
минутку
минутои
минуту
минутъ
минуты
минуя
мины
мир
мира
миранда
мире
мирза
мириться
мирно
мирного
мирное
мирнои
мирному
мирные
мирныи
мирным
мирных
миров
мировая
мирового
мировое
мировоззрение
мировоззрения
мировои
мировом
мировую
мировые
мировым
мировых
миром
миронов
мирошниченко
миру
миръ
миры
мирян
мисс
миссии
миссионеров
миссионеры
миссис
миссисипи
миссисъ
миссию
миссия
миссури
миссъ
мистер
мистера
мистерии
мистеру
мистеръ
мистификация
мистриссъ
мистрисъ
мите
митинг
митинге
митинги
митрополии
митрополит
митрополита
митрополитом
митрополиту
митрофан
митчелл
митя
миф
мифа
мифов
мифологии
мифология
мифы
мих
миха
михаи
михаил
михаила
михаилом
михаилу
михаилъ
михаэль
мичиган
миша
мишель
мишеля
мишка
мк
мка
мках
мки
мкм
мкости
мкость
мкс
мкф
мл
младенец
младенца
младенцев
младенцем
младшая
младше
младшего
младшеи
младшему
младшие
младшии
младшим
младших
млекопитающие
млекопитающих
млн
млрд
мм
мма
мн
мная
мне
мнение
мнением
мнении
мнению
мнения
мник
мников
мно
многие
многим
многими
многимъ
многих
многихъ
много
многоборье
многого
многое
многозначныи
многократно
многократныи
многолетнее
многолетнии
многолетнюю
многолетняя
многом
многоснежнои
многочисленнои
многочисленны
многочисленные
многочисленным
многочисленными
многочисленных
многіе
многія
мное
множеств
множества
множестве
множественного
множество
множеством
множеству
мнои
мною
мную
мные
мныи
мным
мными
мных
мнѣ
мнѣніе
мнѣніи
мнѣнію
мнѣнія
мо
мобилизации
мобильнои
мобильные
мобильных
мов
мог
могил
могила
могиле
могилои
могилу
могилы
могильник
могла
могли
могло
могу
могут
могутъ
могучеи
могучии
могущества
могущество
могъ
мод
мода
моде
моделеи
модели
моделирование
моделирования
модель
моделью
моделях
модерн
модерна
модернизации
модернизацию
модернизация
модификации
модификация
моду
модулеи
модули
модуль
модуля
моды
мое
моего
моеи
моем
моему
моемъ
моею
можаи
можем
можемъ
может
можете
можетъ
можешь
можно
мозаики
мозг
мозга
мозгу
мои
моим
моими
моимъ
моисеевич
моисеи
моисея
моих
моихъ
мок
мокрыи
мол
молва
молвил
молдавии
молдавия
молдавскии
молдавскои
молдова
молдовы
молебен
молекул
молекулы
молекулярнои
молилась
молились
молился
молитв
молитва
молитве
молитвои
молитву
молитвы
молится
молиться
молли
моллюсков
молнии
молния
молод
молода
молодаго
молодая
молоде
молодежи
молодежь
молодец
молодецъ
молодого
молодое
молодои
молодом
молодому
молодости
молодость
молодую
молодца
молодцы
молоды
молодые
молодым
молодыми
молодымъ
молодых
молодыхъ
моложе
молока
молоко
молоком
молот
молота
молотов
молотова
молочнои
молча
молчал
молчала
молчали
молчаливыи
молчалъ
молчание
молчанием
молчании
молчания
молчаніе
молчанія
молчат
молчать
молчи
молчит
молчите
молчу
молъ
моль
мольбы
мольера
молю
мом
момент
момента
моментально
моментов
моментом
моменту
моментъ
моменты
мон
мона
монако
монарх
монарха
монархи
монархии
монархия
монархов
монастыре
монастыреи
монастыри
монастырских
монастырскои
монастырь
монастырю
монастыря
монастырях
монастырѣ
монах
монаха
монахи
монахини
монахиня
монахов
монахом
монашество
монголии
монголия
монголов
монголы
монгольского
монгольскои
монд
монет
монета
монетах
монету
монеты
моника
мониторинг
мониторинга
монографии
монографию
монография
монолог
монополии
монпелье
монреале
монреаль
монро
монстров
монтаж
монтажа
монтаже
монтгомери
монте
монтевидео
монумент
мор
мора
моравии
морали
мораль
морально
морального
моральнои
моральныи
морган
мордовии
мордовия
морду
море
мореи
морем
морис
мориса
мориц
моро
мороз
мороза
морознои
морозов
морозова
морозы
моррис
морская
морские
морским
морскими
морских
морского
морское
морскои
морском
морскому
морскую
морфологии
морфология
морю
моря
моряк
моряка
моряки
моряков
морях
морѣ
моск
москва
москве
москвои
москву
москвы
москвѣ
московскаго
московская
московские
московскии
московским
московских
московско
московского
московское
московскои
московском
московскому
московскую
мост
моста
мостов
мостовои
мостом
мосту
мостъ
мосты
мосфильм
мосье
мотив
мотивам
мотивами
мотивов
мотивы
мотор
мотострелковои
мохаммед
моцарт
моцарта
мочи
мочная
мочнои
моше
мощеи
мощи
мощная
мощного
мощное
мощнои
мощностеи
мощности
мощность
мощностью
мощные
мощныи
мощным
мощных
мощь
мою
моя
мп
мплеи
мр
мрак
мрака
мраке
мракъ
мрамор
мрамора
мраморныи
мрачная
мрачно
мрачное
мрачнои
мрачные
мрачныи
мрачным
мрт
мс
мса
мск
мсом
мср
мстислав
мстители
мстить
мся
мт
мтс
мтф
му
мудрено
мудрец
мудреца
мудрецов
мудрого
мудрости
мудрость
мудрыи
муж
мужа
мужеи
мужем
мужемъ
мужества
мужественно
мужество
мужеством
мужик
мужика
мужики
мужиков
мужику
мужикъ
мужская
мужские
мужских
мужского
мужское
мужскои
мужском
мужскую
мужу
мужчин
мужчина
мужчинам
мужчинами
мужчине
мужчинои
мужчину
мужчинъ
мужчины
мужъ
мужья
муз
муза
музее
музеев
музеем
музеи
музею
музея
музеях
музы
музыка
музыкальная
музыкально
музыкального
музыкальное
музыкальнои
музыкальном
музыкальную
музыкальные
музыкальныи
музыкальным
музыкальными
музыкальных
музыкант
музыканта
музыкантами
музыкантов
музыкантом
музыканты
музыке
музыки
музыковед
музыкои
музыку
муи
мук
мука
муки
мукои
муку
мультсериал
мультсериала
мультсериале
мультсериалы
мультфильм
мультфильма
мультфильме
мультфильмов
мультфильмы
мун
мундир
мундире
муниципалитет
муниципалитета
муниципалитете
муниципалитетов
муниципалитеты
муниципального
муниципальное
муниципальнои
муниципальном
муниципальные
муниципальныи
муниципальным
муниципальных
мур
мура
муравеи
муравье
муравьев
муравьева
муравьи
мурад
мурманск
мурманскои
муса
мусор
мусора
муссолини
мустафа
мусульман
мусульманами
мусульмане
мусульманских
мусульманского
мусульманскои
мусь
мут
мутации
мух
муха
мухаммад
мухаммада
мухаммед
мухаммеда
мухи
мучении
мученик
мученика
мучеников
мучения
мучительно
мучительнои
мучить
мушкете
мф
мхат
мчится
мчс
мъ
мы
мыза
мыла
мыс
мыса
мысе
мыслеи
мысленно
мысли
мыслителеи
мыслитель
мыслителя
мыслить
мысль
мыслью
мыслями
мыслях
мышеи
мыши
мышление
мышления
мышц
мышцы
мышь
мэдисон
мэи
мэн
мэр
мэра
мэри
мэрии
мэриленд
мэром
мэсбе
мэтт
мэттью
мэтью
мюзикл
мюзикла
мюллер
мюнхен
мюнхене
мюрреи
мя
мягкая
мягкие
мягкии
мягким
мягкими
мягких
мягко
мягкого
мягкое
мягкои
мягче
мяса
мясо
мясом
мятеж
мятежа
мятежники
мятежников
мяч
мяча
мячеи
мячом
мінск
міра
міру
міръ
мірѣ
мѣры
мѣрѣ
мѣста
мѣстами
мѣстахъ
мѣстности
мѣстность
мѣстныхъ
мѣсто
мѣсту
мѣстъ
мѣстѣ
мѣсяца
мѣсяцевъ
мѣсяцъ
мѣшаетъ
н
на
набег
набеги
набегов
набережная
набережнои
набирал
набирать
наблюдает
наблюдается
наблюдал
наблюдали
наблюдалось
наблюдателеи
наблюдатели
наблюдатель
наблюдательного
наблюдателя
наблюдать
наблюдаю
наблюдаются
наблюдая
наблюдение
наблюдением
наблюдении
наблюдения
наблюдениям
наблюденія
набор
набора
набором
набрав
набрал
набрала
набрали
набранных
набрать
наброски
навального
наварры
наведения
навеки
наверно
наверное
наверняка
наверх
наверху
навести
навестить
навигации
навигационные
навигация
наводит
наводнения
навсегда
навстречу
навстрѣчу
навыки
навыков
навѣрно
навѣрное
нагаи
наглядно
нагнулся
наго
нагорно
наград
награда
наградами
наградил
наградои
награду
награды
награжде
награжден
награждена
награждение
награждении
награждения
награждены
нагревании
нагрудныи
нагрузка
нагрузки
нагрузку
над
наде
надеется
надежд
надежда
надежде
надеждои
надеждою
надежду
надежды
надеждѣ
надел
надела
наделе
наделении
надеть
надеюсь
надеялись
надеялся
надеясь
надеяться
надзиратель
надзор
надзора
надзором
надзору
надир
надлежало
надлежащим
надлежит
надо
надобно
надобности
надобность
надоело
надолго
надписеи
надписи
надпись
надписью
надписями
надсемеи
надстрои
надъ
надя
надѣюсь
надѣялся
надѣяться
нае
наедине
наз
назад
назадъ
назаров
назв
назвав
назвал
назвала
назвали
назвалъ
назван
названа
название
названием
названии
названию
названия
названиям
названиями
названиях
названная
названного
названнои
названные
названныи
названных
названо
названы
названіе
названіемъ
назвать
наземного
наземныи
наземных
назн
назначает
назначается
назначать
назначаются
назначен
назначена
назначение
назначением
назначении
назначению
назначения
назначенного
назначенные
назначенныи
назначено
назначенъ
назначены
назначеніе
назначил
назначила
назначили
назначить
назои
назыв
называем
называемая
называемого
называемое
называемои
называемом
называемую
называемые
называемыи
называемым
называемых
называет
называете
называется
называетъ
называл
называла
называлась
называли
назывались
называлось
назывался
называлъ
называть
называться
называю
называют
называются
называютъ
называя
наи
наиболее
наибольшая
наибольшего
наибольшее
наибольшеи
наибольшии
наибольшим
наибольшую
наиболѣе
наивно
наизусть
наилучшим
наименее
наименование
наименованием
наименовании
наименования
наименьшее
наказан
наказание
наказании
наказанию
наказания
наказаніе
наказанія
наказать
наказывается
наказывать
накануне
наканунѣ
наклонился
наклонности
наконец
наконецъ
накопление
накоплении
накопления
нал
наладить
нале
налево
налицо
наличие
наличием
наличии
наличия
наличности
налог
налога
налоги
налогов
налогового
налоговои
налоговые
налоговыи
налоговых
налогообложения
налогоплательщика
наложение
наложения
наложил
наложить
налѣво
нам
наме
намек
намекает
намеки
намеревался
намереваясь
намерен
намерение
намерением
намерении
намерения
намерениях
намеренно
намерены
наместник
наместника
наместником
наместничества
нами
намибии
намного
намъ
намѣренъ
намѣреніе
намѣреніи
намѣренія
нан
нана
нане
нанес
нанесе
нанесения
нанесла
нанесли
нанести
наносит
наносить
нанси
нанял
нанять
наоборот
наоборотъ
нападает
нападали
нападать
нападают
нападающего
нападающие
нападающии
нападение
нападении
нападению
нападения
нападки
напал
напала
напали
напасть
наперед
напечатал
напечатан
напечатана
напечатано
напечатаны
напечатать
написав
написал
написала
написали
написалъ
написан
написана
написание
написанием
написании
написанию
написания
написанная
написанного
написанное
написаннои
написанную
написанные
написанныи
написанных
написано
написаны
написать
напитки
напитков
напиток
напиться
напишет
напиши
напишите
напишу
наплевать
наподобие
наполеон
наполеона
наполеоновских
наполеоном
наполеону
наполеонъ
наполнения
наполнены
наполнить
наполовину
напоминает
напоминаетъ
напоминал
напоминала
напоминали
напоминало
напоминать
напоминаю
напоминают
напоминая
напомнил
напомнить
напомню
напр
направил
направилась
направили
направились
направился
направить
направлен
направлена
направление
направлением
направлении
направлению
направления
направлениям
направлениях
направленная
направленнои
направленности
направленность
направленные
направленныи
направленных
направлено
направлены
направленіе
направленіи
направленію
направляет
направляется
направлялись
направлять
направляются
направляясь
направо
напрасно
например
напримѣръ
напротив
напротивъ
напряже
напряжение
напряжением
напряжении
напряжения
напряженно
напрямую
нар
наравне
наречии
наречия
нарисовать
наркома
наркомата
наркотиками
наркотики
наркотиков
наро
народ
народа
народам
народами
народе
народнаго
народная
народно
народного
народное
народнои
народном
народному
народностеи
народности
народность
народную
народные
народныи
народным
народными
народных
народныхъ
народов
народовъ
народом
народомъ
народу
народъ
народы
народѣ
нарочно
наружнои
наружности
наружность
наружные
наружу
нарушает
нарушается
нарушать
нарушают
нарушая
нарушение
нарушением
нарушении
нарушению
нарушения
нарушениями
нарушениях
нарушено
нарушены
нарушил
нарушили
нарушить
наряд
наряду
наряды
нас
наса
насекомые
насекомыми
насекомых
населе
население
населением
населении
населению
населения
населенные
населенныи
населенных
населеніе
населенія
насилие
насилием
насилии
насилию
насилия
насилу
насильно
насильственно
насквозь
насколько
наскоро
насладиться
наслаждался
наслаждаться
наслаждение
наслаждением
наслаждении
наслаждения
наследие
наследия
наследник
наследника
наследники
наследников
наследником
наследовал
наследования
наследства
наследство
наследству
насмерть
насмешки
насмешливо
нассау
наст
наставление
наставления
наставник
наставника
наставником
настаивает
настаивал
настаивать
настаиваю
настал
настала
настало
настанет
настасья
настежь
настои
настолько
настоял
настоянию
настоятелем
настоятель
настоятельно
настоятеля
настоящаго
настоящая
настоящего
настоящее
настоящеи
настоящем
настоящему
настоящемъ
настоящие
настоящии
настоящим
настоящими
настоящимъ
настоящих
настоящую
настоящіи
настроение
настроении
настроения
настроеніе
настроеніи
настрои
наступает
наступала
наступательная
наступательнои
наступательных
наступать
наступил
наступила
наступило
наступит
наступление
наступлением
наступлении
наступления
настя
насче
насчет
насчетъ
насчитывает
насчитывается
насчитывал
насчитывала
насчитывалось
насъ
натали
наталия
натальи
наталья
натан
наташа
наташи
наткнулся
нато
натрия
натура
натуральнои
натуре
натуру
натуры
наук
наука
наукам
науками
науках
науке
науки
наукои
науку
наукъ
наукѣ
наумов
наутро
науч
научил
научились
научился
научить
научиться
научная
научно
научного
научное
научнои
научном
научному
научную
научные
научныи
научным
научными
научных
нах
нахмурился
находившегося
находившеи
находившиеся
находившии
находившихся
находил
находила
находилась
находили
находились
находилось
находился
находилъ
находим
находимся
находимъ
находит
находите
находится
находитъ
находить
находиться
находка
находки
находок
находя
находясь
находят
находятся
находящаяся
находящегося
находящееся
находящеи
находящиеся
находящии
находящимися
находящимся
находящихся
нахождение
нахождения
нахожу
нахожусь
нац
нации
национал
национализм
национализма
националистов
националисты
национальная
национально
национального
национальное
национальнои
национальном
национальному
национальностеи
национальности
национальность
национальную
национальные
национальныи
национальным
национальными
национальных
нацистами
нацистов
нацистскои
нация
націи
нач
начав
начавшеи
начавшии
начал
начала
началась
началах
начале
начали
начались
начало
началом
началось
начался
началу
началъ
начальная
начальник
начальника
начальники
начальников
начальником
начальнику
начальникъ
начального
начальное
начальнои
начальном
начальную
начальные
начальныи
начальных
начальства
начальство
начальством
начальствомъ
начальству
началѣ
начат
начата
начато
начатое
начаты
начать
начаться
начинает
начинается
начинаетъ
начинал
начинала
начиналась
начинали
начинались
начинало
начиналось
начинался
начиналъ
начинать
начинаю
начинают
начинаются
начинаютъ
начинающии
начинающих
начиная
начне
начнем
начнет
начнется
начну
начнут
наш
наша
наше
нашего
нашеи
нашел
нашелся
нашелъ
нашем
нашему
нашемъ
нашествие
нашествия
наши
нашим
нашими
нашимъ
наших
нашихъ
нашла
нашли
нашлись
нашло
нашлось
нашу
нашъ
ная
наяву
нба
нберг
нг
нда
нджерс
ндр
не
неактивными
неактивных
неаполе
неаполь
неаполя
неба
небе
небес
небеса
небесах
небесная
небесного
небесное
небеснои
небесные
небесныи
небесных
неблагоприятных
небо
небольшая
небольшие
небольшим
небольшими
небольших
небольшого
небольшое
небольшои
небольшом
небольшую
небом
небомъ
небоскре
небось
небрежно
небу
небѣ
нева
невада
неважно
неве
невежества
невежество
неверно
неверных
невероятно
невеста
невесте
невестои
невесту
невесты
невзирая
невинности
невинность
невинных
невозможен
невозможна
невозможно
невозможности
невозможность
невозможным
неволе
неволеи
невольно
невскии
невского
невскои
невском
невы
невыносимо
невѣста
негативно
негативное
негативные
негативных
негде
него
негодование
негодованием
негодования
негодяи
негодяя
негр
негров
негры
нед
недавнего
недавнее
недавних
недавно
недалеко
недаром
недвижимого
недвижимости
недвижимость
недеи
неделе
недели
недель
неделю
неделя
недоверие
недоверия
недоволен
недовольны
недовольные
недовольныи
недовольных
недовольства
недовольство
недолго
недопустимо
недопустимости
недоразумение
недоразумения
недоставало
недостает
недостатка
недостатками
недостатки
недостатков
недостатком
недостаток
недостатокъ
недостаточно
недостаточнои
недостаточности
недостаточность
недостои
недоумение
недоумением
недоумении
недр
недра
недрах
недурно
недѣли
недѣль
недѣлю
нее
нежелание
нежели
нежная
нежно
нежное
нежнои
нежности
нежность
нежностью
нежные
нежныи
нежным
незаверше
независимая
независимо
независимого
независимое
независимои
независимости
независимость
независимую
независимые
независимыи
независимым
независимыми
независимых
незадолго
незаконно
незаконным
незамедлительно
незаметно
незамѣтно
незачем
незнакомец
незнакомца
незнакомыи
незначимости
незначимость
незначительно
незначительное
незначительные
незначительными
неи
неизбежно
неизвестен
неизвестна
неизвестно
неизвестного
неизвестнои
неизвестны
неизвестные
неизвестныи
неизвестным
неизвестными
неизвестных
неизвѣстно
неизменно
неизменнои
неизменным
неимением
неистово
нек
некая
некие
некии
неким
некогда
некого
некое
некоего
некои
некоммерческои
некому
некорректно
некоторая
некоторого
некоторое
некоторои
некотором
некоторую
некоторые
некоторыи
некоторым
некоторыми
некоторых
некрасов
некрасова
некрасову
некролог
некрополь
некто
некуда
некую
нелегко
нелепо
нелинеи
нелли
неловко
нельзя
нельсон
нем
немало
неман
немедленно
немедленного
немец
немецкая
немецки
немецкие
немецкии
немецким
немецкими
немецких
немецко
немецкого
немецкое
немецкои
немецком
немецкому
немецкую
неминуемо
немногие
немногим
немногими
немногих
немного
немножко
немо
немои
нему
немца
немцам
немцами
немцев
немцы
немъ
немыслимо
нен
ненавидел
ненавидеть
ненавидит
ненавижу
ненависти
ненависть
ненавистью
ненадолго
ненеи
ненецкого
неновости
необходим
необходима
необходимая
необходимо
необходимого
необходимое
необходимои
необходимости
необходимость
необходимостью
необходимую
необходимы
необходимые
необходимыи
необходимым
необходимыми
необходимымъ
необходимых
необыкновенно
необыкновенное
необыкновеннои
необыкновенныи
необычаи
необычно
необязательно
неоднозначностеи
неоднозначности
неоднозначность
неоднократно
неожиданно
неожиданное
неожиданнои
неожиданностью
неожиданныи
неожиданным
неон
неопределе
неорганическое
неотпатрулированных
неотъемлемои
неофициальныи
неохотно
непала
неплохо
неподале
неподалеку
неподвижно
неполныи
непонимание
непонятно
непонятное
непонятнои
непонятным
непосредственно
непосредственного
непосредственное
непосредственнои
непосредственном
непосредственным
непр
неправда
неправду
неправильно
неправильное
неправильнои
неправильным
непременно
непремѣнно
непрерывно
непрерывного
непрерывнои
непрерывныи
непрестанно
неприемлемое
неприкосновенности
неприкосновенность
неприлично
непристои
неприязнь
неприятелем
неприятель
неприятелю
неприятеля
неприятно
неприятное
неприятностеи
неприятности
непріятеля
непріятно
нер
нера
неравенства
неравенство
неразрывно
нерва
нервная
нервно
нервнои
нервных
нервов
нервы
нередко
нерешительно
неров
нером
нерон
нерона
неры
нерѣдко
нес
несвободные
несе
несет
несется
нескольким
несколькими
нескольких
несколько
нескольку
несла
несли
неслись
неслышу
несмотря
несовершеннолетних
несогласие
несогласия
несомненно
несомнѣнно
несоответствие
несоответствия
несостоятельность
неспособности
неспособность
несправедливо
несправедливости
несправедливость
несравненно
нести
нестор
несут
несчастие
несчастии
несчастнаго
несчастная
несчастного
несчастнои
несчастную
несчастные
несчастныи
несчастным
несчастных
несчастныхъ
несчастье
несчастью
несчастья
несчастіе
неся
нет
нетерпеливо
нетерпением
нетерпѣливо
нетерпѣніемъ
неточности
нетрибуна
нетрудно
нету
неудач
неудача
неудачеи
неудачи
неудачно
неудачного
неудачнои
неудачныи
неудачным
неудачных
неудачу
неудержимо
неудивительно
неудобно
неудобства
неудовольствие
неужели
неужто
неуклонно
неустанно
неустои
неформат
нефти
нефть
нефтяник
нефтяного
нефтянои
нефтяных
нехватки
нехорошо
нехотя
нечаянно
нече
нечего
нечем
нечто
нешто
нею
нея
неясно
ни
нибудь
нива
нивы
нигде
нигдѣ
нигерии
нигерия
нидерландах
нидерландов
нидерландскии
нидерландскои
нидерланды
ние
ниже
нижегородская
нижегородскии
нижегородского
нижегородскои
нижне
нижнего
нижнее
нижнеи
нижнем
нижние
нижнии
нижним
нижних
нижнюю
нижняя
низами
низкая
низкие
низкии
низким
низкими
низких
низко
низкого
низкое
низкои
низком
низкую
низменности
низовьях
низшего
низшеи
низшие
низших
нии
ник
ника
никак
никакая
никакие
никаким
никакими
никаких
никакихъ
никакого
никакое
никакои
никакъ
никами
никарагуа
нике
никеи
никем
ники
никита
никитин
никитина
никитич
никиты
никифор
никифорович
нико
ников
никовъ
никогда
никого
никодим
никоим
никола
николае
николаев
николаева
николаевич
николаевича
николаевичу
николаевичъ
николаевка
николаевна
николаевны
николаевская
николаевскии
николаевского
николаевскои
николаем
николаи
николас
николаю
николая
николо
николы
николь
никольская
никольскии
никольского
никольское
николя
ником
никому
никон
никона
никто
нику
никуда
никъ
нил
нила
ним
нимало
ними
нимъ
нин
нина
ниндзя
нины
нисколько
нитеи
нити
нитки
нить
них
нихъ
ниц
ница
ницше
ничего
ничем
ничему
ничто
ничуть
ничьеи
ничьи
ничьих
ничья
ничѣмъ
нищета
нищеты
нищии
нищих
ния
нк
нка
нквд
нки
нко
нком
нкр
нку
нланд
нм
нн
нная
нно
нного
нное
ннои
нном
нному
нности
нность
нностью
нную
нные
нныи
нным
нными
нных
но
нобелевскои
нов
нова
новаго
новая
новгород
новгорода
новгороде
новгородская
новгородскии
новгородского
новгородскои
новгородцы
новеи
новелла
новеллы
нови
новиков
новикова
нович
новичка
новичков
новичок
новна
ново
нового
новодевичьем
новое
новои
новом
новому
новомъ
новорожде
новороссии
новосе
новосибирск
новосибирска
новосибирская
новосибирске
новосибирскии
новосибирского
новосибирскои
новостеи
новости
новостнои
новостные
новостных
новость
новостях
новою
новую
новые
новыи
новым
новыми
новымъ
новых
новыхъ
новыя
новѣи
ног
нога
ногаи
ногам
ногами
ногамъ
ногах
ногахъ
ноге
ноги
ного
ногои
ногою
ногу
ногъ
ное
нож
ножа
ножи
ножки
ножом
ножъ
ноздри
нои
нок
нокаут
нокаутом
ноль
ном
номенклатура
номер
номера
номерами
номере
номеров
номером
номиналом
номинант
номинатор
номинатора
номинатором
номинатору
номинации
номинацию
номинация
номинациях
номинирован
номинирована
номинировать
ному
номъ
нор
нора
норвегии
норвегия
норвежскии
норвежского
норвежскои
норм
норма
нормальная
нормально
нормального
нормальное
нормальнои
нормальном
нормальную
нормальные
нормальныи
нормальным
нормальных
нормам
нормами
норман
нормандии
нормативно
нормативные
нормативными
нормативных
норме
нормои
норму
нормы
норт
норы
нос
носа
носил
носила
носили
носились
носило
носит
носителеи
носителем
носители
носитель
носителя
носителями
носится
носитъ
носить
носовои
носом
носомъ
ностеи
ности
ность
ностью
носу
носъ
носят
нот
нотр
ноты
ноуфрост
ночам
ночевать
ночеи
ночи
ночлег
ночная
ночного
ночное
ночнои
ночном
ночные
ночных
ночь
ночью
ношение
ношения
ношу
ною
ноябре
ноябрь
ноября
нп
нпо
нрав
нрава
нравилась
нравились
нравилось
нравился
нравится
нравиться
нравов
нравственнаго
нравственная
нравственно
нравственного
нравственное
нравственнои
нравственном
нравственности
нравственность
нравственную
нравственные
нравственныи
нравственным
нравственных
нравы
нравятся
нс
нсдап
нская
нскии
нского
нська
нт
нтв
нтз
ну
нуар
нужд
нужда
нуждается
нуждался
нуждаются
нужде
нужду
нужды
нужен
нуженъ
нужна
нужно
нужного
нужное
нужнои
нужную
нужны
нужные
нужныи
нужным
нужнымъ
нужных
нулевои
нулю
нуля
нумерации
нумерация
нунции
нур
ную
нфл
нхл
нц
нштеи
нъ
ны
ные
ныи
ным
ными
нымъ
ныне
нынешнего
нынешнее
нынешнеи
нынешнем
нынешние
нынешнии
нынешним
нынешних
нынешняя
нынче
нынѣ
ных
ныхъ
ныя
нь
нью
ньюкасл
ньютон
ньютона
нэнси
нэс
ню
нюю
ня
нянька
няня
няя
ні
ніе
ніи
нія
нѣ
нѣжно
нѣкогда
нѣкотораго
нѣкоторое
нѣкоторои
нѣкоторые
нѣкоторымъ
нѣкоторыхъ
нѣкоторыя
нѣсколькими
нѣсколькихъ
нѣсколько
нѣтъ
нѣчто
о
оа
оао
оаэ
об
оба
обвине
обвинение
обвинении
обвинению
обвинения
обвинил
обвинили
обвинить
обвиняемого
обвиняемых
обвиняет
обвинял
обвиняли
обвинять
обвиняют
обвиняя
обе
обед
обеда
обедал
обедать
обедни
обедом
обеду
обезьян
обезьяна
обезьяны
обеим
обеими
обеих
обелиск
обер
обернувшись
обернулась
обернулся
обеспечение
обеспечением
обеспечении
обеспечению
обеспечения
обеспечивает
обеспечивается
обеспечивал
обеспечивали
обеспечивать
обеспечивают
обеспечивающих
обеспечивая
обеспечил
обеспечить
обет
обещает
обещал
обещала
обещали
обещание
обещании
обещания
обещаю
обещая
обзор
обзора
обзоре
обзоров
обзоры
оби
обида
обидеть
обидно
обиду
обиды
обилие
обильно
обитает
обитания
обитателеи
обитатели
обитают
обители
обитель
обкома
обл
обладает
обладал
обладала
обладали
обладание
обладателеи
обладателем
обладатели
обладатель
обладательница
обладать
обладают
обладающие
обладающии
обладающих
обладая
облака
облаками
облаках
облако
облаков
областеи
области
областная
областного
областнои
областном
областные
областным
областных
область
областью
областям
областями
областях
облегчение
облегчения
облегчить
облигации
облик
облика
облике
облисполкома
обложка
обложке
обложки
обломки
обломков
обман
обмана
обманом
обманул
обмануть
обманывать
обмен
обмена
обморок
обнаже
обнаружен
обнаружена
обнаружение
обнаружения
обнаружено
обнаружены
обнаружив
обнаруживает
обнаруживается
обнаруживают
обнаруживаются
обнаружил
обнаружила
обнаружили
обнаружилось
обнаружить
обнимает
обнимаю
обнимая
обновить
обновле
обновление
обновления
обнял
обняла
обнять
обо
обобще
обобщение
обобщения
обогащения
обоего
обоз
обозначает
обозначается
обозначать
обозначают
обозначаются
обозначен
обозначена
обозначение
обозначением
обозначении
обозначения
обозначено
обозначены
обозначить
обозреватель
обозрение
обозрения
обои
обоим
обоими
обоих
обоихъ
оболенскии
оболочка
оболочки
оболочкои
оболочку
оборона
обороне
оборонительнои
оборонительные
оборонительных
обороннои
оборону
обороны
оборот
оборота
обороте
оборотов
обороты
оборудован
оборудование
оборудованием
оборудования
оборудованы
обоснование
обоснованием
обосновании
обоснования
обосновать
обошли
обошлось
обр
обрабатывать
обработка
обработке
обработки
обработку
обрадовалась
обрадовался
образ
образа
образами
образах
образе
образец
образов
образовалась
образовали
образовались
образовалось
образовался
образован
образована
образование
образованием
образовании
образованию
образования
образованная
образованного
образованнои
образованности
образованные
образованныи
образованных
образовано
образованы
образованіе
образованія
образовательного
образовательное
образовательнои
образовательные
образовательныи
образовательных
образовать
образом
образомъ
образу
образует
образуется
образуют
образуются
образуя
образца
образцами
образцов
образцовое
образцом
образцу
образцы
образъ
образы
обратившись
обратил
обратила
обратилась
обратили
обратились
обратилось
обратился
обратилъ
обратимся
обратите
обратится
обратить
обратиться
обратная
обратно
обратного
обратное
обратнои
обратном
обратную
обратныи
обращает
обращается
обращаи
обращал
обращалась
обращали
обращались
обращался
обращать
обращаться
обращаю
обращаюсь
обращают
обращаются
обращая
обращаясь
обраще
обращена
обращение
обращением
обращении
обращению
обращения
обращено
обращены
обращеніе
обретения
обряд
обряда
обрядов
обряды
обс
обсе
обсерватории
обсерватория
обследование
обследования
обслуживает
обслуживание
обслуживания
обстановка
обстановке
обстановки
обстановкои
обстановку
обстоит
обстоятельно
обстоятельств
обстоятельства
обстоятельствам
обстоятельствами
обстоятельствах
обстоятельствахъ
обстоятельство
обстоятельством
обстоятельствъ
обстрел
обстрела
обсудить
обсуждаем
обсуждаемои
обсуждается
обсуждалась
обсуждали
обсуждались
обсуждалось
обсуждался
обсуждать
обсуждают
обсуждаются
обсуждение
обсуждением
обсуждении
обсуждению
обсуждения
обсуждениях
обуви
обувь
обусловлена
обусловлено
обустрои
обучался
обучать
обучающихся
обучение
обучении
обучению
обучения
обход
обхода
обходится
обходиться
обширная
обширного
обширное
обширнои
обширную
обширные
обширныи
обширными
обширных
общ
общаго
общался
общаться
общая
общевои
общего
общее
общежитие
общежития
общеи
общем
общему
общемъ
общение
общении
общения
общеобразовательная
общеобразовательных
общероссии
обществ
общества
обществах
обществе
общественнаго
общественная
общественно
общественного
общественное
общественнои
общественном
общественному
общественности
общественность
общественностью
общественную
общественные
общественныи
общественным
общественными
общественных
общественныхъ
общество
обществом
обществу
обществѣ
общие
общии
общим
общими
общимъ
общин
община
общине
общинои
общину
общины
общих
общихъ
общности
общность
общую
общіи
объ
объе
объедине
объединение
объединением
объединении
объединению
объединения
объединенных
объединено
объединены
объединил
объединились
объединить
объединяет
объединять
объединяются
объект
объекта
объектам
объектами
объектах
объекте
объективно
объективнои
объектов
объектом
объекту
объекты
объем
объема
объеме
объему
объявив
объявил
объявила
объявили
объявило
объявилъ
объявить
объявлен
объявлена
объявление
объявлении
объявления
объявлено
объявлены
объявляет
объяснение
объяснении
объяснения
объясненіе
объясненія
объяснил
объяснила
объяснили
объяснилъ
объясните
объяснить
объясниться
объясню
объясняет
объясняется
объяснял
объяснять
объясняют
объясняются
объясняя
объятия
объятиях
обывало
обывателеи
обыграв
обыграл
обыграла
обыграли
обыкновению
обыкновеннаго
обыкновенная
обыкновенно
обыкновенного
обыкновенное
обыкновеннои
обыкновенные
обыкновенныи
обыкновенным
обыкновенных
обыкновенію
обыск
обычаев
обычаи
обычаю
обычая
обычаям
обычная
обычно
обычного
обычное
обычнои
обычном
обычную
обычные
обычныи
обычным
обычными
обычных
обь
обязан
обязана
обязанностеи
обязанности
обязанность
обязанностью
обязано
обязанъ
обязаны
обязательно
обязательного
обязательное
обязательнои
обязательном
обязательные
обязательныи
обязательным
обязательных
обязательств
обязательства
обязательство
обѣ
обѣда
обѣдать
обѣдомъ
обѣдъ
обѣихъ
обѣщалъ
обѣщаніе
ов
ова
овец
овладел
овладела
овладели
овладение
овладеть
овощеи
овощи
овраг
оврага
овса
овцы
ога
огаи
огарева
оги
оглы
оглядываясь
оглянулся
огне
огневои
огнеи
огнем
огнемъ
огненные
огненныи
огнестрельного
огни
огню
огня
огнями
ого
огоне
огонек
огонь
огоньки
огород
огпу
ограда
оградить
оградои
ограду
ограды
ограничен
ограничена
ограничение
ограничении
ограничения
ограниченного
ограниченное
ограниченнои
ограниченныи
ограниченным
ограниченными
ограничено
ограничены
ограничивает
ограничивается
ограничивать
ограничился
ограничить
ограничиться
огромная
огромного
огромное
огромнои
огромном
огромную
огромные
огромныи
огромным
огромными
огромных
огюст
од
ода
одеваться
одежда
одежде
одеждои
одежду
одежды
одержав
одержал
одержала
одержали
одержать
одесса
одессе
одесская
одесскии
одесского
одесскои
одессу
одессы
одет
одета
одеты
одетые
одетыи
одеяло
один
одинаково
одинаковое
одинаковои
одинаковы
одинаковые
одинаковыи
одинаковым
одинаковыми
одинаковых
одиннадцати
одиннадцать
одинокая
одинокие
одинокии
одиноких
одиноко
одинокои
одиночества
одиночестве
одиночество
одиночку
одиночном
одиночные
одиночныи
одиночных
одинъ
одиссеи
одиссея
одна
однажды
однако
однакоже
однакожъ
однакожь
одни
одним
одними
однимъ
одних
однихъ
одно
одновременно
одного
однозначно
однои
одноиме
одноименнои
одном
одному
одномъ
однополые
однополых
одною
одну
однѣ
одобрен
одобрение
одобрения
одобрил
одоевскии
одоевского
одолеть
оды
ое
ожерелье
ожесточе
ожидает
ожидается
ожидал
ожидала
ожидали
ожидалось
ожидалъ
ожидание
ожидании
ожидания
ожиданіи
ожидать
ожидают
ожидая
оз
озвучивает
озвучивание
озвучивания
озвучил
озе
озер
озера
озере
озеро
озером
озеру
озеф
ознакомился
ознакомиться
ознакомления
ознаменование
означает
означало
означать
означают
ои
ок
ока
окажется
окажутся
оказавшись
оказал
оказала
оказалась
оказали
оказались
оказало
оказалось
оказался
оказание
оказании
оказания
оказать
оказаться
оказывает
оказывается
оказывал
оказывала
оказывали
оказывались
оказывалось
оказывался
оказывать
оказывают
оказываются
окаи
оканчивается
окато
окб
океан
океана
океане
океании
океаном
окз
оки
окисления
оккупации
оккупация
оккупирована
оккупированнои
оккупированных
оклахома
окна
окнами
окнах
окне
окно
окном
окну
окнч
око
оковы
около
окон
оконечности
окончание
окончанием
окончании
окончания
окончаніи
окончательно
окончательного
окончательное
окончательнои
окончательном
окончательныи
окончательным
окончена
окончив
окончил
окончила
окончилась
окончить
оконъ
окошко
окр
окраине
окраины
окраска
окраски
окраску
окрестностеи
окрестности
окрестностях
окрестных
округ
округа
округам
округах
округе
округов
округом
округу
окружает
окружали
окружают
окружающего
окружающеи
окружающие
окружающим
окружающих
окружающую
окруже
окружен
окружена
окружение
окружении
окружения
окруженныи
окружены
окружили
окружить
окружного
окружнои
окружности
оксана
оксфорд
окт
октябре
октябрь
октябрьская
октябрьскии
октябрьского
октябрьскои
октября
ола
оле
олег
олега
олегович
олеи
оленеи
олень
оленя
оливер
оливера
оливье
олимп
олимпиад
олимпиада
олимпиаде
олимпиады
олимпии
олимпик
олимпия
олонецкои
ольга
ольге
ольги
ольгои
ольгу
оля
ом
омар
омск
омская
омске
омского
омскои
он
она
онаго
онам
онами
онах
оне
онегин
онегина
они
онирования
онлаи
онная
онного
оннои
онные
онныи
онным
онных
оно
онов
оного
оное
онои
оном
онтарио
ону
оную
онъ
оны
оные
оныи
оных
онѣ
оон
ооо
оп
опасались
опасался
опасаться
опасаясь
опасен
опасение
опасения
опасно
опасного
опасное
опаснои
опасностеи
опасности
опасность
опасностью
опасны
опасные
опасныи
опасным
опасными
опасных
опеки
опеку
опер
опера
оперативно
оперативного
оперативное
оперативнои
оператор
оператора
операторов
оператором
операторы
операциеи
операции
операционнои
операционных
операцию
операция
операциям
операциях
опере
опередив
оперение
оперетты
оперная
оперного
опернои
оперные
оперныи
оперу
оперы
опечатка
опирается
опирался
опираться
опираясь
описал
описали
описан
описана
описание
описанием
описании
описанию
описания
описаннои
описанные
описанныи
описанных
описано
описаны
описаніе
описать
описи
описывает
описывается
описывал
описывать
описывают
описываются
описывая
опись
оплата
оплате
оплату
оплаты
ополчение
ополчения
опомниться
опор
опора
опорои
опору
опоры
оппозиции
оппозицию
оппозиция
оппонент
оппонента
оппонентов
оппоненты
оправдан
оправдание
оправдания
оправдать
оправдывает
оправился
определе
определен
определена
определение
определением
определении
определению
определения
определенно
определенного
определенное
определеннои
определенном
определенную
определенные
определенныи
определенным
определенных
определено
определены
определил
определили
определить
определиться
определяет
определяется
определять
определяют
определяются
опредѣленія
опредѣлить
опровергнуть
опровержение
опрос
опроса
опросе
опросы
оптимизации
оптические
оптических
опубл
опубликовал
опубликовала
опубликовали
опубликован
опубликована
опубликования
опубликованная
опубликованнои
опубликованном
опубликованные
опубликованныи
опубликованных
опубликовано
опубликованы
опубликовать
опускается
опустив
опустил
опустила
опустилась
опустился
опустить
опухоли
опухоль
опыт
опыта
опыте
опытно
опытного
опытнои
опытные
опытныи
опытным
опытных
опытов
опытом
опыту
опытъ
опыты
опять
ор
ора
оранжевыи
оратор
оратора
орбита
орбите
орбиту
орбиты
орг
орган
органа
органам
органами
органах
органе
организатор
организатора
организаторов
организатором
организаторы
организациеи
организации
организационно
организацию
организация
организациям
организациями
организациях
организаціи
организм
организма
организме
организмов
организмы
организовал
организовала
организовали
организован
организована
организованная
организованного
организованнои
организованныи
организованных
организовано
организованы
организовать
организовывать
организует
органические
органических
органического
органическои
органов
органом
органу
органы
орд
орда
орден
ордена
орденами
орденов
орденом
ордену
орджоникидзе
орду
орды
оре
орегон
орел
оренбург
оренбургская
оренбургского
оренбургскои
орест
орехи
орехово
оригинал
оригинала
оригинале
оригинальная
оригинального
оригинальное
оригинальнои
оригинальном
оригинальную
оригинальные
оригинальныи
оригинальным
оригинальных
ориентации
ориентация
ориентироваться
орисс
орисса
ориссом
орк
орка
орке
оркестр
оркестра
оркестре
оркестром
оркскии
оркского
оркскои
орла
орландо
орле
орлеан
орлов
орлова
орловская
орловскии
орловского
орловскои
орлы
ором
орт
ору
орудие
орудием
орудии
орудия
орудиями
орудіи
орудія
оружеи
оружие
оружием
оружию
оружия
оружіе
оружіемъ
оружія
орфографии
орфография
оръ
оры
ос
осада
осаде
осадил
осадки
осадков
осаду
осады
осажде
освещает
освещается
освеще
освещение
освещении
освещения
освободил
освободили
освободительного
освободительнои
освободить
освободиться
освобождает
освобождается
освобожде
освобожден
освобождена
освобождение
освобождении
освобождению
освобождения
освобождены
освоение
освоения
освоил
освяще
освящена
освящение
осел
осени
осеннии
осенняя
осень
осенью
осетии
осетия
оси
осип
осипов
осипович
оскар
оскара
осколки
оскорбить
оскорбление
оскорблении
оскорбления
оскорблять
осла
ослабить
ослабление
осло
осложнении
осман
османская
османскои
осматривать
осмелился
осмотр
осмотра
осмотрел
осмотреть
оснаще
оснащены
основ
основа
основал
основала
основали
основан
основана
основание
основанием
основании
основанию
основания
основаниям
основаниях
основанная
основанного
основанное
основаннои
основанную
основанные
основанныи
основанных
основано
основаны
основаніе
основаніи
основанія
основателеи
основателем
основатели
основатель
основательно
основателя
основать
основах
основе
основная
основного
основное
основнои
основном
основному
основную
основные
основным
основными
основных
основои
основоположник
основоположников
основу
основы
основывается
основываться
основываясь
особ
особа
особаго
особая
особе
особеи
особеннаго
особенная
особенно
особенного
особенное
особеннои
особенностеи
особенности
особенность
особенностью
особенностями
особенностях
особенною
особенную
особенныи
особенным
особеннымъ
особенных
особи
особливо
особняк
особняка
особо
особого
особое
особои
особом
особому
особу
особую
особы
особые
особыи
особым
особыми
особых
осп
оспаривается
оспаривание
оспаривания
оспаривать
оспорен
оспоренныи
оспорить
ост
оставаи
оставалась
оставались
оставалось
оставался
оставаться
оставаясь
оставив
оставивъ
оставил
оставила
оставили
оставилъ
оставим
оставит
оставить
оставлен
оставлена
оставление
оставления
оставлено
оставлены
оставлю
оставляет
оставлял
оставляли
оставлять
оставляю
оставляют
оставляя
оставшаяся
оставшеи
оставшиеся
оставшии
оставшись
оставшихся
оставшуюся
оставь
оставьте
остае
остается
осталась
остались
осталось
остался
остальная
остального
остальное
остальнои
остальном
остальную
остальные
остальным
остальными
остальных
остальныхъ
останавливает
останавливается
останавливались
останавливался
останавливаться
останавливаются
останавливаясь
останется
останки
останков
остановившись
остановил
остановила
остановилась
остановили
остановились
остановилось
остановился
остановилъ
остановится
остановить
остановиться
остановка
остановки
остановлен
остановочныи
останусь
останутся
остатка
остатками
остатки
остатков
остаток
остаться
остаюсь
остаются
остин
осторожно
осторожности
осторожность
осторожностью
острая
острие
остро
остров
острова
островами
островах
острове
островов
острововъ
островом
островскии
островского
острову
островъ
островѣ
острог
острога
острого
острое
острои
остроты
острые
острыи
острым
острыми
острых
осудил
осудили
осуждать
осужде
осужден
осуждение
осуждения
осужденных
осуждены
осуществил
осуществить
осуществле
осуществлена
осуществление
осуществлением
осуществлении
осуществлению
осуществления
осуществлено
осуществляет
осуществляется
осуществлял
осуществлялась
осуществляли
осуществлялось
осуществлять
осуществляться
осуществляют
осуществляются
осуществляющие
осуществляющии
осуществляющим
осуществляющих
ось
от
отбить
отбор
отбора
отборочного
отборочном
отборочныи
отбросить
отбывал
отв
отвагу
отважныи
отведе
отвезти
отвел
отвели
отверг
отвергает
отвернулась
отвернулся
отверстие
отверстии
отверстия
отвести
ответ
ответа
ответвление
ответе
ответил
ответила
ответили
ответит
ответить
ответные
ответныи
ответов
ответом
ответственного
ответственности
ответственность
ответственностью
ответственныи
ответственным
ответственных
ответчик
ответчика
ответы
отвечает
отвечаи
отвечал
отвечала
отвечали
отвечать
отвечаю
отвечают
отвечая
отвечу
отвлечь
отвод
отвода
отворил
отворилась
отвращение
отвращением
отвращения
отвращеніе
отвѣта
отвѣтила
отвѣтилъ
отвѣтить
отвѣтъ
отвѣчаетъ
отвѣчала
отвѣчалъ
отвѣчать
отд
отдав
отдавал
отдавали
отдавать
отдавая
отдае
отдает
отдается
отдаи
отдал
отдала
отдале
отдалении
отдаленные
отдаленных
отдали
отдался
отдалъ
отдам
отдан
отдана
отдано
отданы
отдаст
отдать
отдаться
отдаю
отдают
отдел
отдела
отделаться
отделе
отделение
отделением
отделении
отделению
отделения
отделить
отделов
отделом
отделы
отдельная
отдельно
отдельного
отдельное
отдельнои
отдельном
отдельности
отдельную
отдельные
отдельныи
отдельным
отдельными
отдельных
отделяет
отделяется
отдохнуть
отдых
отдыха
отдыхать
отдѣльныхъ
оте
отеле
отелло
отель
отеля
отец
отецъ
отеч
отечества
отечественная
отечественного
отечественнои
отечественную
отечественные
отечественных
отечество
отечеством
отечеству
отзыв
отзыва
отзывается
отзывался
отзывов
отзывы
откажется
отказ
отказа
отказавшись
отказал
отказала
отказалась
отказали
отказались
отказался
отказано
отказать
отказаться
отказе
отказом
отказывается
отказывались
отказывался
отказываться
отказываюсь
отказываются
откат
отката
откатил
откатить
откатов
откатывать
откатывающего
отклик
отклонение
отклонении
отклонения
отклонил
отклонить
откровение
откровения
откровенно
откровенность
откроется
открои
открыв
открывает
открывается
открывал
открывать
открывают
открываются
открывая
открыл
открыла
открылась
открыли
открылись
открылось
открылся
открылъ
открыт
открыта
открытая
открытие
открытием
открытии
открытию
открытия
открыто
открытого
открытое
открытои
открытом
открытую
открыты
открытые
открытыи
открытым
открытыми
открытых
открыть
откуда
отличает
отличается
отличалась
отличались
отличалось
отличался
отличать
отличаться
отличаются
отличающиеся
отличающихся
отличие
отличием
отличии
отличился
отличительнои
отличить
отличия
отличная
отличник
отлично
отличное
отличнои
отличную
отличные
отличныи
отличным
отложении
отложения
отложить
отмена
отмене
отменена
отменено
отменены
отменил
отменили
отменить
отмену
отмены
отменяет
отменять
отметив
отметил
отметила
отметили
отметился
отметим
отметить
отметки
отмечает
отмечается
отмечал
отмечала
отмечали
отмечалось
отмечают
отмечаются
отмечая
отмечен
отмечена
отмечено
отмечены
отмечу
отне
отнесе
отнесены
отнесли
отнеслись
отнесся
отнести
отнестись
относилась
относились
относилось
относился
относит
относительная
относительно
относительное
относительнои
относительности
относитесь
относится
относить
относиться
относят
относятся
относящ
относящиеся
относящии
относящихся
отношение
отношением
отношении
отношению
отношения
отношениям
отношениями
отношениях
отношеніе
отношеніи
отношенію
отношенія
отношеніяхъ
отношусь
отныне
отнюдь
отнял
отняли
отнять
ото
отображается
отображение
отображения
отобрать
отовсюду
отозвалась
отозвался
отозван
отои
отомстить
отопления
оторваться
отоше
отошел
отошла
отошли
отпатрулировать
отпечаток
отпор
отправил
отправила
отправилась
отправили
отправились
отправился
отправится
отправить
отправиться
отправки
отправлен
отправлена
отправлении
отправления
отправлено
отправлены
отправляет
отправляется
отправлялись
отправлялся
отправлять
отправляться
отправляют
отправляются
отправляясь
отпуск
отпуска
отпускать
отпуске
отпустил
отпустили
отпустить
отравления
отражает
отражается
отражать
отражают
отраже
отражение
отражением
отражении
отражения
отражено
отражены
отразил
отразилось
отразить
отраслеи
отрасли
отрасль
отраслям
отраслях
отрезать
отрезок
отречение
отречения
отречься
отрицает
отрицал
отрицание
отрицания
отрицательно
отрицательное
отрицательнои
отрицательные
отрицательныи
отрицательных
отрицать
отрывисто
отрывки
отрывок
отряд
отряда
отрядами
отряде
отрядов
отрядом
отряду
отрядъ
отряды
отсек
отставка
отставке
отставки
отставку
отставнои
отстаивал
отстаивать
отстоять
отстране
отступать
отступил
отступила
отступили
отступить
отступление
отступлении
отступления
отсутствие
отсутствием
отсутствии
отсутствию
отсутствия
отсутствовал
отсутствовали
отсутствует
отсутствуют
отсутствіе
отсче
отсылка
отсылки
отсюда
оттенки
оттенков
оттенком
оттенок
отто
оттого
оттон
оттуда
отход
отхода
отходами
отходит
отходить
отходов
отходы
отца
отце
отцов
отцовскои
отцом
отцомъ
отцу
отцы
отчасти
отчаяние
отчаянием
отчаянии
отчаяния
отчаянно
отчаянныи
отчаяніе
отчаянія
отче
отчего
отчества
отчество
отчет
отчета
отчетливо
отчетъ
отчеты
отчуждения
отъ
отъезд
отъезда
отъезде
отъездом
отъѣзда
отыграл
отыскать
отыскивать
отыскивая
оун
оуэн
оф
офис
офиса
офицер
офицера
офицерам
офицерами
офицеров
офицеровъ
офицером
офицерскии
офицерских
офицерского
офицеру
офицеръ
офицеры
официальная
официально
официального
официальное
официальнои
официальном
официальному
официальную
официальные
официальныи
официальным
официальными
официальных
оформил
оформить
оформлена
оформление
оформлением
оформлении
оформлению
оформления
оформлено
оформлены
оформлять
офф
ох
охарактеризовал
охват
охвата
охватил
охватила
охватило
охватить
охватывает
охлаждения
охота
охоте
охотиться
охотник
охотника
охотники
охотников
охотникъ
охотничьих
охотно
охотои
охоту
охоты
охрана
охране
охранои
охрану
охраны
охраняемые
охраняемых
охраняется
охранять
охъ
оценивает
оценивается
оценивать
оценил
оценили
оценить
оценка
оценкам
оценке
оценки
оценкои
оценку
оценок
очаг
очага
очами
очевиден
очевидна
очевидно
очевидное
очевиднои
очевидные
очевидныи
очевидным
очевидных
очевидцев
очеи
очень
очереди
очередная
очередного
очередное
очереднои
очередную
очередные
очередь
очерк
очерка
очерки
очерков
очертания
очи
очистить
очистки
очищения
очка
очкам
очками
очках
очки
очко
очков
очнулся
очутилась
очутились
очутился
ошибаетесь
ошибается
ошибаться
ошибаюсь
ошибиться
ошибка
ошибками
ошибках
ошибке
ошибки
ошибкои
ошибку
ошиблись
ошибок
ошибочно
ошибся
ошкар
ощущение
ощущении
ощущения
п
па
пабло
павел
павелъ
павильон
павильона
павла
павлов
павлова
павлович
павловича
павловна
павловны
павловскии
павловского
павлом
павлу
павших
падает
падаетъ
падал
падала
падали
падать
падают
падая
падеж
падежа
падеже
падение
падением
падении
падения
паи
пак
пакет
пакета
пакетов
пакеты
паки
пакистан
пакистана
пакистане
пал
пала
палат
палата
палате
палатки
палатку
палатои
палату
палаты
палаццо
палач
палача
палермо
палестина
палестине
палестину
палестины
палец
пали
палка
палками
палки
палкои
палку
пало
паломар
паломников
паломничества
палочки
палубе
палубу
палубы
пальма
пальмы
пальто
пальца
пальцами
пальцев
пальцем
пальцемъ
пальцы
пам
памяти
памятная
памятник
памятника
памятниками
памятниках
памятнике
памятники
памятников
памятником
памятнои
памятные
памятныи
памятных
память
памятью
пан
пана
панама
панамериканских
панамы
пандемии
панели
панель
пани
панин
панк
панно
панов
панорама
панорамы
пансион
пансионе
пантелеи
паны
пао
паоло
пап
папа
папаша
папе
папиросу
папои
папская
папскои
папу
папуа
папы
пар
пара
парагваи
парагвая
парад
парада
параде
парадокс
паралимпии
параллели
параллель
параллельно
параллельные
параллельных
параметр
параметра
параметрами
параметре
параметров
параметры
парами
парах
паре
парень
пари
париж
парижа
париже
парижская
парижскии
парижских
парижского
парижскои
парижском
парижъ
парижѣ
парк
парка
парке
паркер
парки
парков
парком
парку
парламент
парламента
парламенте
парламентом
парламентские
парламентских
парламентскои
парнеи
парни
парном
парныи
парных
парня
паров
паровоз
паровоза
паровозов
паровозы
паровои
паровых
пародии
пародия
парои
пароль
паром
пароход
парохода
пароходе
пароходов
пароходства
пароходъ
пароходы
партиеи
партизан
партизанами
партизанскии
партизанских
партизанского
партизанскои
партизаны
партии
партию
партия
партиями
партне
партіи
партія
пару
парус
паруса
парусами
пары
пас
паскаль
паспорт
паспорта
пассажир
пассажира
пассажиров
пассажирская
пассажирские
пассажирскии
пассажирских
пассажирского
пассажиры
пастбища
пасти
пастор
пастора
пастух
пасть
пасхи
пасху
пат
патент
патента
патентов
патологии
патриарх
патриарха
патриархата
патриархии
патриархом
патриарху
патрик
патрика
патриот
патриотизм
патриотизма
патрон
патрона
патронов
патроны
патрулирование
патрулирования
патрулировать
патрулирующего
патруль
пауза
паузы
паук
паука
пауков
паулу
пауль
пафос
пахло
пахнет
пациент
пациента
пациентов
паче
паша
паши
пашни
пб
пво
пвс
пг
пгт
пд
пдн
пе
певец
певица
певицеи
певицы
певца
певцов
певцом
певцы
педагог
педагога
педагоги
педагогика
педагогики
педагогическая
педагогические
педагогическии
педагогических
педагогического
педагогическои
педагогическом
педагогов
педро
педру
пеи
пекин
пекина
пекине
пел
пела
пелагея
пели
пен
пенальти
пенза
пензенская
пензенскои
пение
пением
пения
пенни
пенсии
пенсильвании
пенсильвания
пенсионерами
пенсионного
пенсионных
пенсию
пепел
пепла
пер
пера
перваго
первая
первенств
первенства
первенстве
первенство
первичного
первичнои
первичные
первичныи
первичным
первичных
первого
первое
первои
первом
первомаи
первому
первомъ
первоначальная
первоначально
первоначального
первоначальное
первоначальнои
первоначальном
первоначальные
первоначальныи
первоначальным
первоначальных
первою
первую
первые
первыи
первым
первыми
первымъ
первых
первыхъ
первыя
пере
перебил
перебила
перебилъ
перебрался
перебраться
перев
перевал
перевала
переве
переведе
переведен
переведена
переведено
переведены
перевел
перевели
перевес
перевести
перевод
перевода
переводами
переводах
переводе
переводил
переводит
переводится
переводить
переводов
переводом
переводу
переводчик
переводчика
переводчики
переводчиков
переводчиком
переводъ
переводы
переводя
перевозке
перевозки
перевозок
переворот
переворота
переговорах
переговорить
переговоров
переговоры
перед
передав
передавал
передавали
передавать
передавая
передае
передает
передается
передаи
передал
передала
передали
передалъ
передан
передана
переданных
передано
переданы
передать
передач
передача
передаче
передачеи
передачи
передачу
передают
передаются
передвижения
переделать
переднего
переднеи
переднем
передние
переднии
передних
переднюю
передняя
передо
передового
передовои
передовые
передовых
передъ
переезд
переезда
переезжает
переехал
переехала
переехали
переехать
переживает
переживал
переживании
переживания
пережил
пережила
пережили
пережить
переи
переизбран
переиздан
переиздание
переименовал
переименовали
переименован
переименована
переименование
переименовании
переименованию
переименования
переименовано
переименованы
переименовать
переименовывать
перекре
перекрестился
переле
перелом
перемен
перемена
перемене
переменить
переменная
переменного
переменнои
переменные
переменным
переменных
перемену
перемены
перемещение
перемещения
перемирие
перемирия
перемѣна
перемѣны
перенаправление
перенаправлением
перенаправлении
перенаправления
перене
перенес
перенесе
перенесен
перенесена
перенесено
перенесены
перенесла
перенесли
перенести
перенос
переноса
переносе
переносит
переносится
переносить
переносом
переписал
переписать
переписи
переписка
переписке
переписки
переписку
переписывать
перепись
переправа
переправился
переправу
переправы
перераб
переработана
переработано
переработать
переработка
переработке
переработки
переработку
перерыв
перерыва
перерывами
перес
пересекает
переселение
переселении
переселения
переселенцами
переселенцев
переселенцы
переселились
переселился
переселиться
пересечение
пересечении
пересечения
пересказ
пересмотр
пересмотра
пересмотреть
переставал
переставая
перестает
перестал
перестала
перестали
перестало
пересталъ
перестанет
перестань
перестать
перестроен
перестрои
переулка
переулке
переулок
переход
перехода
переходе
переходил
переходила
переходили
переходит
переходить
переходного
переходныи
переходов
переходом
переходу
переходы
переходя
переходят
перец
перечень
перечисление
перечисленные
перечисленных
перечислены
перечня
переше
перешеи
перешел
перешелъ
перешла
перешли
перешло
период
периода
периоде
периодически
периодические
периодических
периодическои
периодов
периодом
периоду
периоды
периферии
перкуссия
перл
перми
пермскии
пермского
пермскои
пермском
пермь
перо
пером
перри
перси
персидские
персидскии
персидских
персидского
персидскои
персидском
персии
персию
персов
персон
персона
персонаж
персонажа
персонажами
персонажеи
персонажем
персонажи
персонал
персонала
персоналии
персоналиях
персональная
персональные
персональныи
персональных
персоне
персоны
перспектив
перспектива
перспективе
перспективных
перспективы
перстень
персы
перу
перчатки
перьев
перья
перьями
періодъ
пес
песен
песка
песке
пески
песков
песком
песку
песне
песнеи
песни
песнь
песню
песня
песнями
песнях
песок
песчанои
песчаные
песчаных
петер
петербург
петербурга
петербурге
петербургская
петербургские
петербургскии
петербургских
петербургского
петербургское
петербургскои
петербургском
петербургскую
петербургу
петербургъ
петербургѣ
петли
петлю
петля
петр
петра
петре
петро
петров
петрова
петрович
петровича
петровичу
петровичъ
петровна
петровне
петровны
петровскии
петровского
петровское
петровскои
петроград
петрограда
петрограде
петроградского
петрозаводск
петром
петропавловскои
петру
петръ
петух
петь
петя
пех
пехота
пехотинцев
пехотинцы
пехотная
пехотного
пехотнои
пехотные
пехотныи
пехотных
пехоту
пехоты
печ
печали
печаль
печальная
печально
печальное
печальнои
печальную
печальные
печальныи
печальным
печатается
печатались
печатался
печатать
печатаются
печати
печатного
печатнои
печатные
печатныи
печатных
печать
печатью
печеи
печени
печи
печки
печь
пешком
пещер
пещера
пещерах
пещере
пещеру
пещеры
пи
пианино
пианист
пиар
пива
пиво
пии
пик
пика
пике
пил
пила
пили
пилот
пилота
пилотов
пилотом
пилоты
пилъ
пинг
пионер
пионеров
пир
пирамида
пирамиды
пиратов
пираты
пиренеи
пирог
пироги
пирогова
пирс
писал
писала
писали
писалось
писалъ
писание
писании
писания
писано
писарев
писарева
писарь
писаря
писателеи
писателем
писатели
писатель
писательница
писательницы
писателю
писателя
писателями
писать
писем
писемъ
пистолет
пистолета
пистолеты
письма
письмами
письмах
письме
письменно
письменного
письменное
письменнои
письменности
письменность
письменные
письменныи
письменным
письменных
письмо
письмом
письму
письмѣ
пит
питается
питал
питание
питания
питать
питаться
питаются
питеи
питер
питера
пить
питье
питья
пишем
пишет
пишете
пишется
пишетъ
пишешь
пиши
пишите
пишу
пишут
пишутся
пища
пище
пищевои
пищевых
пищеи
пищи
пищу
пк
пкс
пл
плавал
плавание
плавании
плаванию
плавания
плавать
плавник
плавника
плавники
плавно
плазмы
плакал
плакала
плакали
плакат
плакаты
плакать
пламенем
пламени
пламень
пламя
план
плана
планам
планами
планах
плане
планет
планета
планете
планету
планеты
планировал
планировали
планировалось
планирование
планирования
планировка
планирует
планируется
планирую
планка
планов
планом
плантации
плану
планъ
планы
пластинка
пластинки
пластинку
пластинок
плата
плате
платежа
платежеи
платежи
платил
платили
платит
платить
платком
плато
платок
платокъ
платон
платона
платонов
платонъ
плату
платформ
платформа
платформе
платформу
платформы
платы
платье
платья
платьѣ
платят
плацдарм
плацдарма
плач
плача
плачет
плачетъ
плачу
плачут
плачь
плащ
пле
плебеи
плеи
племе
племен
племена
племенами
племени
племя
племянник
племянника
племянником
племяннику
племянница
племянницы
плен
плена
пленников
пленными
пленных
плену
плеханова
плеч
плеча
плечами
плечах
плече
плечи
плечо
плечу
плит
плита
плиты
пловец
пловцы
плого
плод
плода
плодами
плодов
плодом
плодотворную
плоды
плоская
плоские
плоскии
плоскои
плоскости
плоскость
плоти
плотина
плотины
плотно
плотнои
плотности
плотность
плотностью
плотныи
плоть
плох
плохая
плохи
плохие
плохим
плохих
плохо
плохого
плохое
плохои
площадеи
площади
площадка
площадках
площадке
площадки
площадкои
площадку
площадок
площадь
площадью
плутарх
плыи
плыли
плым
плыть
плюс
пляж
плясать
пляски
плѣнъ
пмр
пнр
по
побег
побега
побеги
побед
победа
победе
победив
победил
победила
победили
победителеи
победителем
победители
победитель
победительница
победителя
победителями
победить
победныи
победои
победоносца
победу
победы
побежал
побежала
побежали
побеждает
побежде
побережье
побережью
побережья
побери
побил
поблагодарил
поблагодарить
побледнел
поближе
поблизости
побои
побольше
побочные
побочных
побратимы
побудило
побывал
побывать
побѣду
побѣды
побѣжалъ
пов
повар
повара
пове
поведение
поведением
поведении
поведения
поведеніе
повезло
повел
повела
повелел
повеление
повелению
повели
повелитель
повелителя
повелъ
поверенныи
поверил
поверить
повернувшись
повернул
повернула
повернулась
повернули
повернулся
повернуть
поверх
поверхностеи
поверхности
поверхностно
поверхность
поверхностью
поверьте
повесил
повесить
повествование
повествования
повествует
повестеи
повести
повесть
повидать
повидаться
повидимому
повинностеи
повинности
повинность
повиновался
повиноваться
повинуясь
повлекло
повлиял
повлияла
повлияли
повлияло
повлиять
повод
повода
поводом
поводу
поводъ
повозки
поволжье
поволжья
поворачивает
поворот
поворота
повороте
повредить
поврежде
повреждение
повреждении
повреждения
повседневнои
повсеместно
повстанцев
повстанцы
повсюду
повтор
повторение
повторения
повторил
повторила
повторилъ
повторить
повторно
повторного
повторное
повторы
повторю
повторюсь
повторяет
повторяется
повторял
повторяла
повторялъ
повторять
повторяю
повторяя
повысить
повышает
повышается
повыше
повышен
повышение
повышением
повышении
повышению
повышения
повышеннои
повят
повята
повѣсти
повѣсть
погиб
погибает
погибели
погибель
погибла
погибли
погибло
погибнет
погибнуть
погибшего
погибшие
погибшим
погибших
поглощения
поглядел
поглядывая
поговорим
поговорить
погода
погоде
погоди
погодин
погодина
погодите
погоду
погоды
погодя
погони
погоню
погоня
погост
пограничная
пограничного
пограничнои
пограничные
пограничныи
пограничных
погреб
погреба
погребе
погребение
погребения
погрузился
погубить
под
подаваи
подавал
подавали
подавать
подавая
подавил
подавить
подавление
подавлении
подавления
подавлено
подавляющее
подавляющем
подае
подает
подаи
подал
подала
подали
подалъ
подальше
подан
подана
подано
подарил
подарила
подарить
подарками
подарки
подарков
подарок
подарокъ
податеи
подати
подать
подача
подаче
подачи
подают
подбассеи
подбор
подбора
подборка
подборов
подбородок
подвал
подвале
подве
подведе
подведен
подведение
подведении
подведения
подвел
подвели
подверг
подвергается
подвергалась
подвергались
подвергался
подвергать
подвергаться
подвергаются
подверглась
подверглись
подвергнут
подвергнуть
подвергнуться
подвергся
подвержены
подвеска
подвески
подвести
подвиг
подвига
подвигах
подвиги
подвигов
подвид
подвида
подвижного
подвижнои
подводит
подводить
подводная
подводного
подводнои
подводные
подводных
подводящего
подводящии
подворье
подготовил
подготовить
подготовка
подготовке
подготовки
подготовкои
подготовку
подготовлен
подготовленнои
подготовлено
подготовлены
подданные
подданным
подданными
подданных
подданство
поддержал
поддержала
поддержали
поддержание
поддержания
поддержать
поддерживает
поддерживается
поддерживал
поддерживала
поддерживали
поддерживать
поддерживаю
поддерживают
поддерживая
поддержка
поддержке
поддержки
поддержкои
поддержку
поддержу
подеи
поделаешь
поделиться
подземелье
подземного
подземные
подземныи
подземных
подзоне
поди
подите
подкатегории
подключения
подкрепление
подкрепления
подле
подлежат
подлежащих
подлежит
подлец
подлинник
подлинника
подлиннике
подлиннику
подлинно
подлинное
подлиннои
подлинности
подлинные
подлинныи
подлѣ
подмосковье
поднес
поднимает
поднимается
поднимал
поднималась
поднимали
поднимались
поднимался
поднимать
подниматься
поднимаются
поднимая
поднимаясь
подножия
подняв
поднявшись
поднял
подняла
поднялась
подняли
поднялись
поднялось
поднялся
поднялъ
поднят
поднятия
поднять
подняться
подобает
подобен
подобие
подобнаго
подобная
подобно
подобного
подобное
подобнои
подобном
подобную
подобные
подобныи
подобным
подобными
подобных
подобныхъ
подобныя
подобрать
подождать
подожди
подождите
подозреваемых
подозревает
подозревал
подозревать
подозреваю
подозревая
подозрение
подозрении
подозрению
подозрения
подозрительно
подои
подолгу
подольскии
подольского
подольскои
подошвы
подоше
подошел
подошелъ
подошла
подошли
подпадает
подписав
подписал
подписала
подписали
подписан
подписана
подписание
подписания
подписано
подписаны
подписать
подписеи
подписи
подписчиков
подписывает
подпись
подписью
подполковник
подполковника
подполье
подпольнои
подполья
подпоручик
подражание
подражания
подражать
подраздел
подразделение
подразделением
подразделении
подразделения
подразделениями
подразделяется
[...]
