!
"
#
##0
##1
##10
##11
##12
##13
##14
##15
##16
##17
##18
##19
##2
##20
##21
##22
##23
##24
##25
##26
##27
##28
##29
##3
##30
##31
##32
##33
##34
##35
##36
##37
##38
##39
##4
##40
##41
##42
##43
##44
##45
##46
##47
##48
##49
##5
##50
##51
##52
##53
##54
##55
##56
##57
##58
##59
##6
##60
##61
##62
##63
##64
##65
##66
##67
##68
##69
##7
##70
##71
##72
##73
##74
##75
##76
##77
##78
##79
##8
##80
##81
##82
##83
##84
##85
##86
##87
##88
##89
##9
##90
##91
##92
##93
##94
##95
##96
##97
##98
##99
$
%
&
'
(
)
*
+
,
-
.
/
0
00
000
0000
001
00100
002
00200
003
00400
007
01
010
02
03
03000
04
05
06
07
08
09
1
10
100
1000
10000
100000
1001
1002
1004
1005
101
1010
1011
1012
1016
1018
102
1024
103
1038
104
1046
105
1050
1054
106
107
108
1080
1083
109
1095
1099
11
110
1100
111
112
1122
1125
1127
113
1130
1131
1135
114
1147
1148
115
1150
116
1162
117
1170
118
1180
1189
119
12
120
1200
12000
1201
1202
1203
1204
1205
1206
1207
121
1210
1211
1213
1214
1215
1217
1218
1219
122
1220
1221
1222
1223
1224
1225
1226
1227
1229
123
1230
1231
1232
1233
1234
12345678
1235
1236
1237
1238
1239
124
1240
1241
1242
1243
1244
1245
1246
1247
1248
125
1250
1251
1252
1253
1254
1255
1256
1257
1258
1259
126
1260
1261
1262
1263
1264
1265
1266
1267
1268
1269
127
1270
1271
1272
1273
1274
1275
1276
1277
1278
1279
128
1280
1281
1282
128256
1283
1284
1285
1286
1287
1288
1289
129
1290
1291
1292
1293
1294
1297
1298
1299
13
130
1300
1301
1302
1303
1304
1305
1306
1307
1308
1309
131
1310
1311
1312
1313
1315
1316
1318
132
1320
1321
1322
1323
1324
1325
1326
1327
1328
1329
133
1330
1332
1333
1334
1335
1336
1337
1338
1339
134
1340
1341
1342
1343
1344
1346
1348
135
1350
1351
1353
1357
1358
136
1360
1361
1362
1363
1364
1365
1367
1368
1369
137
1370
1371
1372
1374
1375
1376
1377
1378
138
1380
1388
1389
139
1391
1392
1394
1395
1398
1399
14
140
1400
1402
1405
1408
141
1410
1412
1415
142
1420
1424
1425
1428
143
1431
1434
1435
1438
144
1440
14443
1449
145
1450
1452
1453
1454
1455
1457
146
1460
1465
1466
1469
147
1470
1471
1472
1475
1479
148
1480
1481
1483
1488
149
1490
1492
1493
1494
1498
15
150
1500
15000
1501
1502
1504
1505
1506
1507
151
1510
1512
1513
1517
1519
152
1520
1521
1524
1526
1527
153
1530
1533
1534
154
1540
1542
1544
1547
155
1550
1552
1554
1556
1557
1559
156
1561
1563
1564
1566
1567
1568
1569
157
1570
1571
1572
1573
1575
1577
1578
158
1580
1582
1583
1584
1585
1586
1587
1588
1589
159
1590
1592
1595
1596
1597
1598
1599
16
160
1600
1601
1603
1604
1605
1606
1607
1608
1609
161
1610
1611
1612
1613
1614
1615
1616
1617
1618
1619
162
1620
1621
1623
1624
1625
1626
1627
1628
1629
163
1630
1631
1632
1633
1634
1635
1636
1637
1638
1639
164
1640
1641
1642
1643
1644
1645
1646
1647
1648
1649
165
1650
1651
1652
1653
1654
1655
1656
1657
1658
166
1660
1661
1662
1663
1664
1665
1666
1667
1669
167
1670
1671
1672
1673
1674
1675
1676
1678
168
1680
1681
1682
1683
1684
1685
1686
1687
1688
1689
169
1690
1691
1692
1694
1696
1697
1698
1699
17
170
1700
1701
1702
1703
1704
1706
1707
1708
1709
171
1710
1711
1712
1713
1715
1716
1717
1718
172
1720
1721
1722
1723
1724
1725
1726
1727
1728
1729
173
1730
1731
1732
1733
1735
1736
1737
1738
1739
174
1740
1741
1742
1744
1745
1746
1747
1749
175
1750
1752
1753
1754
1755
1756
1757
1758
1759
176
1760
1761
1762
1763
1764
1765
1766
1767
1768
1769
177
1770
1771
1772
1773
1774
1775
1776
1777
1778
1779
178
1780
1781
1782
1783
1784
1785
1786
1787
1788
1789
179
1790
1791
1792
1793
1794
1795
1796
1797
1798
1799
18
180
1800
1801
1802
1803
1804
1805
1806
1807
1808
1809
181
1810
1811
1812
1813
1814
1815
1816
1817
1818
1819
182
1820
1821
1822
1823
1824
1825
1826
1827
1828
1829
183
1830
1831
1832
1833
1834
1835
1836
1837
1838
1839
184
1840
1841
1842
1843
1844
1845
1846
1847
1848
1849
185
1850
1851
1852
1853
1854
1855
1856
1857
1858
1859
186
1860
1861
1862
1863
1864
1865
1866
1867
1868
1869
187
1870
1871
1872
1873
1874
1875
1876
1877
1878
1879
188
1880
1881
1882
1883
1884
1885
1886
1887
1888
1889
189
1890
1891
1892
1893
1894
1895
1896
1897
1898
1899
19
190
1900
1901
1902
1903
1904
1905
1906
1907
1908
1909
191
1910
1911
1912
1913
1914
1915
1916
1917
1918
1919
192
1920
1921
1922
1923
1924
1925
1926
1927
1928
1929
193
1930
19306
1931
1932
1933
1934
1935
1936
1937
1938
1939
194
1940
1941
1942
1943
1944
1945
1946
1947
1948
1949
195
1950
1951
1952
1953
1954
1955
1956
1957
1958
1959
196
1960
1961
1962
1963
1964
1965
1966
1967
1968
1969
197
1970
1971
1972
1973
1974
1975
1976
1977
1978
1979
198
1980
1981
1982
1983
1984
1985
1986
1987
1988
1989
199
1990
1991
1992
1993
1994
1995
1996
1997
1998
1999
2
20
200
2000
20000
2001
2002
2003
2004
2005
2006
2007
2008
2009
201
2010
2011
2012
2013
2014
2015
2016
2017
2018
2019
202
2020
2021
2022
2023
2024
2025
203
2030
204
205
2050
206
207
208
209
21
210
2100
211
212
213
214
215
216
217
218
219
22
220
2200
221
222
2220
2223
2225
2227
223
224
225
226
227
228
229
2297856
23
230
2300
231
232
233
234
235
236
237
238
239
24
240
2400
241
242
243
244
245
246
247
248
249
25
250
2500
251
252
253
254
255
256
257
258
259
26
260
2600
261
262
263
264
265
266
267
268
269
27
270
2700
27001
271
272
273
274
275
276
277
278
279
28
280
2800
281
282
283
284
285
286
287
288
289
29
290
2900
291
292
293
294
295
296
297
298
299
3
30
300
3000
30000
300000
301
302
303
304
305
306
307
308
309
31
310
311
312
313
314
315
316
3166
317
318
319
32
320
3200
321
322
323
324
325
326
327
328
329
33
330
3300
331
332
333
334
335
336
337
338
339
34
340
341
342
343
344
345
346
347
348
349
35
350
3500
351
352
353
354
355
356
357
358
359
36
360
3600
361
362
363
364
365
366
367
368
369
37
370
371
372
373
374
375
376
377
378
379
38
380
381
382
383
384
385
386
387
388
389
39
390
391
392
393
394
395
396
397
398
399
4
40
400
4000
40000
401
402
403
404
405
406
407
408
409
41
410
411
412
413
414
415
416
417
418
419
42
420
421
422
423
424
425
426
427
428
429
43
430
431
432
433
434
435
436
437
438
439
44
440
441
442
443
444
445
446
447
448
449
45
450
4500
451
452
453
454
455
456
457
458
459
46
460
461
462
463
464
465
466
467
468
469
47
470
471
472
473
474
475
476
477
478
479
48
480
481
482
483
484
485
486
487
488
489
49
490
491
492
493
494
495
496
497
498
499
5
50
500
5000
50000
501
502
503
504
505
506
507
508
509
51
510
511
512
513
514
515
516
517
518
519
52
520
521
522
523
524
525
526
527
528
529
53
530
531
532
533
534
535
536
537
5372
538
539
54
540
541
5415
542
543
544
545
546
547
548
549
55
550
551
552
553
554
555
556
557
558
559
56
560
561
562
563
564
565
566
567
568
569
57
570
571
572
573
574
575
576
577
578
579
58
580
581
582
583
584
585
586
587
588
589
59
590
591
592
593
594
595
596
597
598
599
6
60
600
6000
601
602
603
604
605
606
607
608
609
61
610
611
612
613
614
615
616
617
618
619
62
620
621
622
623
624
625
626
627
628
629
63
630
631
632
633
634
635
636
637
638
639
64
640
641
642
643
644
645
646
647
648
649
65
650
6500
651
652
653
654
655
656
657
658
659
66
660
661
662
664
665
666
667
668
669
67
670
671
672
673
674
675
676
677
678
679
68
680
681
682
683
684
685
686
687
688
689
69
690
691
692
693
694
695
696
697
698
699
7
70
700
7000
701
702
703
704
705
706
708
71
710
711
712
713
714
715
716
717
718
719
72
720
721
722
724
725
727
729
73
730
731
732
733
734
735
736
737
738
739
74
740
741
742
743
744
745
747
748
749
75
750
751
752
753
754
755
756
757
758
759
76
760
762
764
765
766
767
768
769
77
770
771
772
773
775
776
777
778
779
78
780
781
782
783
786
788
789
79
790
791
792
793
794
795
796
8
80
800
8000
801
802
804
805
806
807
808
809
81
810
811
812
813
814
815
816
818
819
82
820
821
822
823
824
826
827
828
829
83
830
832
833
835
837
838
839
84
840
841
842
843
84314
844
845
846
847
848
85
850
852
853
854
856
857
858
859
86
860
861
862
865
867
868
869
87
870
871
872
873
875
877
88
880
882
883
885
886
89
890
891
892
896
897
9
90
900
9000
901
902
904
905
906
907
908
91
910
911
912
913
915
916
917
918
92
920
921
922
923
924
925
926
927
928
93
930
931
932
933
934
935
936
937
938
939
94
940
941
942
943
944
945
946
947
95
950
951
954
955
956
959
96
960
961
962
963
9635
965
967
968
969
97
970
974
975
976
978
979
98
980
981
988
99
991
992
993
996
997
999
99929
:
;
<
=
>
?
@
\
^
_
`
a
aa
aaa
ab
abc
abcd
abgerufen
ablon
about
above
abs
absolute
abstract
ac
acade
academic
academy
access
accessed
accesskey
according
account
accounting
accounts
acid
ack
acquire
acre
acs
act
action
active
ad
adam
adams
add
added
adding
additional
address
adds
admin
administration
administrative
adobe
advanced
adventure
advertisement
ae
aerial
aes
af
affairs
afghanistan
africa
african
after
ag
again
against
agardh
age
ageing
agencies
agency
agent
agreement
agricultural
agriculture
ah
ai
aid
air
airbus
airline
airlines
airport
ak
al
alabama
alan
alaska
albania
albert
album
albums
alert
alexander
alfa
alfred
algorithm
ali
aliases
alice
align
alignbars
all
allen
alliance
allow
allows
almost
alone
along
alpha
already
als
also
alt
altai
alter
alternative
always
am
amazon
ambox
amd
america
american
among
amy
an
analysis
anas
anchor
ancient
and
andrew
android
angel
angeles
angels
animal
animals
animation
anime
ann
anna
anniversary
annotated
annual
anonymous
another
anser
ansi
anterior
anthem
anthony
anthropology
anti
any
anything
aoa
aol
ap
apache
api
app
appdev
appear
apple
applicable
application
applications
applied
applies
apply
approach
appropriate
approx
april
apt
aquila
ar
ara
arabic
archaeology
architecture
archive
archived
archives
arctic
arctos
are
area
areas
arena
argentina
argument
argv
arizona
arkansas
arkive
armed
arms
army
around
arp
array
arsenal
art
arthur
article
articles
artikel
artist
artists
arts
as
ascii
asean
asia
asian
asp
aspx
assembly
associated
association
astra
at
atc
athletes
atlantic
atlas
atm
atomic
atp
attack
attribute
attributes
attribution
au
auch
audi
audio
audit
auf
aufl
auflage
aufstellung
aug
august
auguste
aun
aus
australia
australian
authentication
author
authority
auto
automatic
automatically
autonomous
available
avilgaliin
avoid
award
awards
away
ax
az
azerbaijan
b
ba
babel
baby
back
background
backup
bad
baden
bae
bafta
baker
ball
ballad
baltic
ban
band
bandwidth
bang
bank
bar
barcelona
bardata
barset
base
based
basic
basketball
bat
battle
bay
bb
bbc
bc
bd
bdfutbol
be
beach
bean
bear
bears
beast
beat
beatles
beautiful
because
beck
become
bee
been
before
begin
behind
bei
beijing
being
bell
below
ben
benth
benz
ber
berkeley
berlin
berlusconi
bernard
berners
best
bestie
beta
better
between
bevo
beyond
bf
bg
bgp
bi
bibliography
bid
big
bild
bill
billboard
billed
billion
bin
bing
bio
biographies
biography
biology
biometric
biotechnology
bird
birdlife
birds
birth
bis
bit
bitcoin
black
blank
blasco
block
blog
blogmn
blogspot
blood
blue
bluetooth
bmw
bn
bo
board
bob
body
bodystyle
bol
bold
bolodm
bolon
bolson
book
books
boot
border
born
boss
boston
bot
both
bottom
bound
bounded
box
boy
boys
br
brassica
brazil
break
breaking
breed
breeding
brian
bridge
brief
brit
britain
britannica
british
broadcast
broadcasting
bronze
bros
brothers
brown
browser
bruce
bruno
brunswick
brute
bs
bsd
btob
bts
bu
budapest
buffer
build
builder
building
bulgaria
bulletin
bureau
bus
business
but
button
bw
bx
by
byte
byzantine
c
ca
cache
cad
caesar
cafe
california
call
called
calling
calls
cam
cambridge
camp
can
canada
canadian
canal
candidate
cannot
cao
cap
cape
capital
capitol
caption
capture
car
caragana
carbon
card
cards
carduelis
career
caribbean
carl
carter
cartodb
cartoon
case
cases
cassandra
castle
cat
categories
category
cause
cb
cbc
cbs
cc
cd
cdma
cdot
cdti
ce
cehv
cell
cells
celtic
cement
census
center
central
centre
centrex
century
ceo
cern
cf
cfd
cgi
ch
cha
chain
challenge
champion
champions
championship
chan
change
changed
changes
changing
channel
chapter
char
character
characters
charity
charles
charlie
chart
charts
che
check
checksum
chelsea
chelseafc
chemical
chemistry
chen
chi
chicago
chief
child
children
chile
china
chinese
cho
choi
choice
chris
christian
christmas
christopher
chrome
chronicle
church
churchofjesuschrist
ci
cia
cinema
cinturato
circuit
circus
cisco
citation
cities
citing
citizen
city
civil
civilization
cl
clark
class
classful
classic
classical
classics
classification
clear
cli
click
client
climate
clocks
close
cloud
club
cluster
cm
cn
cnc
cnn
cnt
co
coal
coat
coca
code
codes
coke
cola
cold
coldplay
coli
collapse
collapsed
collection
college
collins
colonial
color
colorado
colors
colour
columbia
column
columns
com
combat
come
comic
command
commas
comment
commercial
commission
committee
common
commons
commonwealth
communication
communications
community
company
competition
compiled
complete
complex
comprehensive
computer
computing
concepts
concern
concert
conf
confederation
conference
config
configuration
configure
conflict
congress
connect
connected
connecticut
connection
conservation
console
consortium
constitution
construction
contact
contain
containing
contains
contemporary
content
contents
context
continental
contract
control
controller
convention
convergence
conversion
converted
cookie
cool
coordinates
copy
core
cornell
corporation
corpus
corsa
cosmopolitan
cost
cots
could
council
count
countdown
counter
countries
country
county
court
cov
cover
covid
cox
cp
cpu
cql
cqlsh
cr
cramm
crazy
crc
create
created
creating
creative
crisis
criteria
critical
crm
cropped
crops
cross
crusade
crusades
crystal
cs
css
ct
cu
cuba
cube
cultural
culture
cup
cups
current
currently
cust
custom
customer
cx
cz
d
da
dae
daily
dakota
dam
dan
dance
daniel
dao
dark
darkgray
das
data
database
databases
datagram
datastax
date
dateformat
daum
david
davis
day
days
db
dc
dd
ddos
de
dead
deal
death
debian
debut
dec
december
decimal
declare
deep
default
defaults
defense
define
defined
definition
deg
del
delay
delete
deleted
delhi
delta
dem
democracy
demographics
den
density
department
deprecated
depth
deputy
der
des
describe
description
desert
design
designated
designation
designations
desktop
destination
detail
detailed
details
deu
deutsche
deutschen
deutscher
deutsches
deutschland
developer
development
device
devil
dew
dezember
dfrac
dhcp
di
dia
diagram
dialect
diamond
dictionary
die
diese
dieter
dietrich
difference
different
digest
digital
din
direct
directed
direction
directly
directory
discography
discovery
discussion
disease
disk
disney
display
displayed
distance
distributed
distribution
district
districts
div
diversity
division
divisions
dj
dl
dml
dna
dns
do
doc
docs
document
documentary
documentation
documents
does
doesn
dog
doi
dom
domain
don
donald
done
dong
door
dos
dot
dots
double
douglas
down
download
dpkg
dpt
dr
draft
draftexpress
dragon
drama
dream
dreams
dresden
drive
driver
drop
ds
dst
dt
du
dual
duck
dunam
dunn
durch
during
dutch
dvd
dx
dy
dynamic
dynasty
e
ea
each
eagle
eap
early
earth
east
eastern
eastw
easy
eb
ebay
ebu
ec
echo
ecology
economic
economics
economy
ed
edge
edit
edited
editing
edition
editor
eds
edu
education
educational
edward
ee
ef
effect
effects
eight
eigrp
eigrpv
ein
eine
einer
eines
either
el
elect
election
elections
electoral
electric
electronic
element
elements
elephant
elevation
elizabeth
ell
else
em
email
emberiza
emblem
emi
emp
emperor
empire
empty
en
enable
encryption
encyclopaedia
encyclopedia
encyclopædia
end
ende
endian
energy
eng
engine
engineering
england
englisch
english
enough
enter
entered
enterprise
entertainment
entries
entry
environment
environmental
eo
ep
epik
epl
eq
equal
equiv
equivalent
er
era
eric
ernst
erp
error
es
esp
espan
especially
espn
essay
essays
est
established
establishment
estimate
et
etc
eth
ethernet
ethnic
etymology
eu
euler
eun
eur
eurasian
euro
euroleague
europa
europe
european
evanescence
even
event
events
ever
every
everyday
everything
evidence
evil
evolution
ex
example
examples
excel
exception
exchange
execute
executive
exid
exists
exit
exo
expanded
experience
explanation
explorer
expo
export
express
ext
extended
extension
extensive
external
extra
eye
eyes
f
fa
facade
face
facebook
facelift
fact
factbook
factor
facts
factsheet
failure
fair
falco
fall
fallen
falls
false
fame
family
famous
fan
fantasy
fanto
faq
far
farm
fashion
fast
fat
fb
fc
fd
fe
feat
feature
features
februar
february
fed
federal
federation
fedora
feed
feel
feet
female
ferdinand
ferrari
fest
festival
ff
fi
fia
fiba
field
fields
fifa
file
files
film
films
filter
fin
final
finance
financial
find
fire
firefox
firestone
firewall
firmware
first
fis
fish
five
fix
flag
flags
flash
flickr
flight
float
florida
flow
flower
floyd
fluid
fly
flying
fm
fo
focus
follow
following
font
fontsize
food
foot
football
footballdatabase
footnote
footnotes
for
forbes
force
forces
forcetoc
ford
foreign
forest
forever
form
format
formats
formatting
formel
former
formula
fort
fortran
forum
forward
forwarding
found
foundation
four
fourth
fox
fr
frac
frame
frameless
framework
franc
france
francis
francisco
frank
frankfurt
franz
free
freebsd
freedom
freeradius
freeware
freeze
french
frequency
fresh
friedrich
friends
friendship
from
front
frontansicht
frontier
ft
ftp
fu
full
fulltext
function
functions
fund
further
fussballdaten
future
g
ga
gallery
game
games
gaon
garden
gas
gate
gateway
gb
gbps
gdp
ge
gen
gene
general
generation
genetic
genetics
geneva
genghis
geo
geographic
geographical
geography
george
georgia
geq
ger
german
germany
geschichte
get
gf
ghost
ghz
gi
gif
gigabitethernet
girl
girls
github
give
given
gje
gl
global
gm
gmbh
gnu
go
goal
god
gogh
gogo
going
gold
golden
good
google
goose
gordon
got
gov
government
gp
gpl
gpp
gps
gpu
graduate
grammar
grammy
gran
grand
grant
graph
graphics
gray
great
greater
greatest
grebe
greek
green
greene
grep
grey
gridcolor
ground
group
groups
grousset
growl
growth
gs
gsm
gt
gtc
gu
guard
guardian
gui
guide
guitar
gun
gyrus
h
ha
had
hadoop
half
haliaeetus
halifax
hall
ham
hamburg
han
hand
handbook
handbuch
hans
happy
hard
hardcover
harddrive
hardware
harper
harris
harry
harvard
has
hash
hat
have
having
hawk
hawks
hcl
hd
he
head
header
heads
health
heart
heat
heaven
heavy
heckansicht
hee
height
heller
hello
help
henry
her
herald
herbert
here
hergvvd
heritage
hero
herodotus
heroes
hewlett
hex
hf
hi
hidden
hide
high
higher
hill
hip
his
histoire
historia
historic
historical
histories
history
hit
hits
hl
hlist
hno
ho
hoc
hold
hollywood
home
homepage
homo
honda
hong
hook
hop
hope
horizontal
horse
host
hot
hotel
house
how
howard
however
hp
hr
hrm
hrsg
hsrp
htm
html
http
https
hu
hua
hub
human
hun
hunter
hunting
huuli
hybrid
hyderabad
hypertext
hyuk
hyun
i
ia
iaaf
ian
ib
ibgp
ibm
ice
icmp
icon
ict
id
identification
identifier
identify
identity
ie
iec
ieee
ietf
if
ifconfig
ii
iii
ij
ike
ikon
il
illinois
illustrated
im
image
imagemap
imageright
images
imagesize
imdb
img
immortal
impact
imperial
implementation
important
imt
in
inactive
inc
include
included
includes
including
increment
independence
independent
index
india
indian
indiana
individual
individuals
indonesia
industrial
industry
inet
infinite
info
infobox
information
infty
init
initial
injection
inkigayo
inline
inner
input
insect
insects
insert
inserted
inside
instagram
install
instance
instead
institut
institute
int
integrated
integrity
intel
intelligence
inter
interactive
interbase
interface
interfaces
interior
internal
international
internationale
internet
internetwork
interval
interview
interwiki
into
introduction
invalid
invasion
ios
ip
ipad
iphone
ips
ipsec
iptables
iptv
ipv
iq
iran
ireland
iron
is
isaac
isakmp
isbn
isis
islamic
island
islands
iso
isp
israel
issn
issue
issues
ist
it
italian
italy
item
itemid
items
its
itu
itunes
itzy
iu
iucn
iuj
iupac
iv
ix
iy
j
ja
jack
jackie
jackson
jacques
jae
jahre
jahrhundert
jam
james
jan
jang
januar
january
japan
japanese
java
javascript
javier
jay
jazz
je
jean
jeff
jennifer
jeong
jersey
jerusalem
jet
jewish
ji
jia
jimin
jin
jk
jo
joe
john
johnson
jonathan
jones
jong
jonghyun
joo
jordan
joseph
journal
journalism
journey
joy
jp
jpeg
jpg
jr
js
ju
judet
judoinside
juli
julius
july
jump
jumps
jun
june
jung
juni
junior
just
justice
justification
justify
justin
jvm
jyp
k
ka
kaiserslautern
kang
kansas
karl
karte
karten
kat
kategori
kategorie
kb
kbps
kbs
ke
keane
keep
keith
ken
kenneth
kentucky
kepler
kernel
kevin
key
keyspace
kg
khan
ki
kicker
kids
kill
kilometers
kim
king
kingdom
kings
kiss
kit
km
knight
knk
knock
know
knowledge
known
ko
kolkata
kom
komodo
kong
korea
korean
kr
krp
ku
kurl
kwang
kwon
kyu
kyung
kz
l
la
lab
label
labels
laboratory
ladies
lady
lagopus
lake
lambda
lan
land
landscape
lane
lang
language
languages
laos
large
larger
largest
las
last
late
later
lateralis
latest
latex
latin
latitude
law
layer
lazy
lcd
le
lead
leader
leaders
league
learning
least
led
lee
left
legacy
legal
legalinfo
legend
legends
leipzig
length
leon
leopard
leq
les
less
lesser
let
letter
letters
level
lewis
lexikon
lfp
lg
li
lib
liberty
libraries
library
license
life
light
like
lil
lim
limit
limited
lindl
line
lines
lineups
linguistics
link
linked
linkin
links
linux
lion
lisp
list
listed
listen
listing
lists
liststyle
lite
literature
little
liu
live
liverpool
lives
living
ll
llc
lloyd
lm
ln
lo
load
local
location
locator
lock
log
logical
login
logo
london
lonely
long
longitude
look
loop
loopback
lord
lorde
los
lost
lotus
louis
louisiana
love
lovelyz
low
lower
lp
lpd
ls
lsa
lt
ltd
lte
lu
lupin
lupine
lupinus
lv
m
ma
mac
machine
macmillan
made
madrid
magazine
magic
mai
mail
main
maintenance
major
majority
make
makes
making
mal
malaysia
male
mall
malware
mama
man
management
manager
managing
manchester
mandarin
manitoba
manual
manutd
many
mao
map
mapping
maps
march
marco
marek
margin
maria
marie
marine
mario
mark
markdown
marker
market
marketing
markup
marlene
married
mars
marshall
martin
mary
mas
mask
mason
mass
massachusetts
master
mastercard
match
mate
material
materials
mathbb
mathbf
mathematics
mathrm
matrix
matthias
max
maximum
may
mb
mbc
mbk
mbox
mbps
mc
mcgraw
md
me
mean
means
mechanics
medal
media
mediawiki
medical
medicine
medieval
meet
meeting
melodrama
melon
member
members
memorial
memory
men
mer
mercedes
mesa
mesh
message
messenger
meta
metal
method
methods
metric
metro
metropolitan
mexico
mg
mglradio
mhnt
mhz
mi
mib
michael
michel
microformat
microformats
microsoft
middle
midgray
midnight
mie
might
mike
milan
miles
miletus
military
millennium
million
mime
min
mind
minh
mini
mining
minister
ministry
minix
minnesota
mino
minor
minute
minutes
mirror
miss
mission
mit
mix
mk
ml
mls
mm
mn
mnb
mnet
mns
mo
mobile
mod
mode
model
models
modern
module
mogul
molecular
moment
mon
monaco
money
mongol
mongolei
mongolia
mongolian
mongols
mongoltoli
monitor
monitoring
monster
month
monthly
montsame
monument
moody
moon
more
morgan
moscow
most
motor
motorsport
mount
mountain
mountains
mouse
move
movement
movie
movies
mozilla
mp
mpi
mpls
mr
ms
mt
mtp
mtv
mu
much
multi
multicast
multics
multiple
murray
muse
museum
music
musical
must
mv
mvc
mvp
mw
my
mylo
mysql
n
na
nabla
nach
nadph
nam
name
named
names
nancy
nas
nasa
nat
nation
national
nations
native
natural
nature
navbar
navbox
navboxes
naver
nba
nbadraft
nbar
nc
ncaa
nchen
ncov
nct
nd
nder
ne
near
nebraska
necessary
need
needed
needs
neighbor
nelson
neo
net
netflix
netflow
netherlands
netscape
network
networking
networks
neue
never
new
news
newspaper
next
nf
nfc
nfs
ng
ngn
nh
nhk
ni
nic
nicht
nick
night
niited
nike
nikola
nine
nintendo
nissan
nist
nl
nm
nmda
nme
nn
no
noaa
nobel
node
noise
nokia
nominee
nominees
non
none
normal
normally
north
northern
northwest
nosql
not
notable
notation
note
notebook
notes
nothing
notice
notoc
nov
nova
november
noviewer
now
nr
ns
nt
ntp
ntpd
ntului
ntv
nu
nuclear
nucleus
null
num
number
numbers
numerical
nunavut
ny
nyse
nz
o
object
obtained
oc
ocean
oct
october
odd
oder
odoo
oecd
of
off
office
officer
official
offset
often
oh
ohio
ohne
oid
oil
ok
oktober
ol
old
olon
olympic
olympics
om
omega
on
once
one
online
only
ontario
op
opc
opel
open
opera
operating
operation
operations
oprah
option
optional
options
or
oracle
orange
order
org
organic
organization
oricon
oriental
orientation
oriented
origin
original
origins
oriole
oriolus
ornithology
os
osi
ospf
ospfv
other
others
otherwise
otto
ou
our
out
output
outside
outstanding
over
overflow
overlay
overrides
overview
owl
own
oxford
p
pa
pacific
pack
package
packard
packet
padding
page
pages
pai
pair
pakistan
palace
palm
pan
panorama
panthera
paper
paperback
papers
par
parachutes
paradise
parallel
parameter
parameters
paris
parity
park
parks
parliament
parlophone
pars
part
partial
particle
particular
parties
parts
party
pass
passer
passive
passport
password
past
path
paul
pay
payload
paypal
pbr
pbs
pc
pcap
pda
pdf
pdp
pe
peace
pearl
peer
penguin
penguins
pennsylvania
people
peoples
per
percent
percentage
perfect
performance
period
persian
person
personal
peter
petersburg
petroleum
peugeot
pg
pgp
ph
phase
phd
phil
philip
phishing
phoenix
phone
phosphate
photo
photographs
photos
php
physical
physics
pi
piano
pic
pick
picture
pictures
pid
pierre
pin
pine
ping
pink
pinus
pixels
pl
place
placed
places
plain
plan
planet
planets
planning
plant
plantilla
plants
plate
platform
platinum
play
player
players
playing
playstation
please
plotarea
plotdata
plus
pm
pmatrix
pmid
png
po
pocket
poecilorhyncha
point
pojark
policy
political
politics
poll
poly
pop
popular
populat
population
por
porsche
port
portal
portland
porto
portrait
pos
position
posix
possible
possibly
post
postal
potter
pour
poverty
power
pp
ppp
ppt
pr
prd
pre
predefinic
prefecture
prefix
premier
present
president
press
pretty
prevention
preview
previous
pri
price
primary
prime
primitive
prince
princess
princeton
principles
print
printer
printf
printing
priority
prius
private
prix
prize
pro
problem
problems
procedure
proceedings
process
processes
processing
produce
produced
producer
product
production
products
professional
profile
profiles
profitably
program
programmable
programme
programming
progress
project
promise
properties
prospects
protected
protection
protein
protocol
protocols
provide
provided
provider
province
proxy
ps
psk
pt
pub
public
publication
publications
published
publishers
publishing
pure
purple
push
pushpin
put
px
python
q
qe
qi
qos
qquad
qr
qs
quad
quality
quantum
que
queen
query
question
queue
quick
r
ra
race
radio
radius
raid
railway
rain
ram
random
range
rank
ransomware
rap
raptors
rarp
rate
ratio
raw
ray
rburgring
rc
rd
rdbms
rdp
re
read
reader
readers
real
reality
really
rear
reason
receive
recensa
recent
rechts
recommended
record
records
rect
red
redhat
redirect
reed
ref
reference
references
region
regional
regions
register
regular
related
relational
relations
relationship
relay
release
released
relevant
reliable
relief
religion
religious
remix
remote
remove
renault
rene
renoir
repin
replication
reply
report
reports
representative
republic
request
require
required
research
resistance
resolution
resource
resources
response
restart
result
results
retrieved
return
returns
rev
reverse
review
revised
revision
revolution
rfc
rfid
rg
rgb
rho
rhode
ri
rice
rich
richard
right
rightarrow
rightrotate
rights
ring
rio
rip
ripv
rise
rising
risk
river
rm
rn
ro
road
robert
robin
rock
rockets
roger
role
rolling
rom
roma
roman
rome
romeo
ronald
rookie
rookies
room
root
rose
rotten
round
route
router
routing
routledge
row
rows
roy
royal
rpg
rpm
rpr
rr
rs
rsa
rsssf
rst
rsu
rt
rterbuch
rtp
ru
ruby
rule
rules
run
runciman
running
rural
rus
rush
russia
russian
rx
rydb
rz
s
sa
safety
saint
saitama
salamandra
salary
sales
sam
same
sample
samsung
samuel
san
santa
sap
sapiens
sar
sars
satellite
saturday
save
say
says
sbs
sc
scale
scalemajor
scaleminor
scan
scandal
schmidt
school
schumacher
science
sciences
scientific
scientist
sciurus
scotia
scotland
scott
scratch
screen
screenshot
script
scriptstyle
scriptures
sdh
sdn
se
sea
seal
search
searchable
season
seat
seats
sec
second
secret
secretary
section
sector
secure
security
see
seed
seen
seine
seite
select
selected
self
sen
sense
seo
seoul
separate
september
sequence
serial
series
server
service
services
ses
session
set
setting
settlement
seung
seven
seventeen
several
sexing
sf
sg
sgml
sh
sha
shadow
shady
shake
shanghai
share
shared
sharepoint
sharing
she
sheet
shell
shi
shield
shift
shin
shinee
shinoda
sho
shooter
short
shot
should
show
showing
shown
shows
shtml
shu
si
siberian
sich
sid
side
sigma
sign
signal
signature
significant
signs
silver
sim
similar
simon
simple
sims
simulation
sin
since
sing
singapore
singer
single
singles
sinus
sio
site
sites
situation
six
size
sjabloon
sk
skabelon
ski
skills
sky
sl
sla
sm
small
smaller
smart
smb
smith
smtp
snmp
snort
snow
so
soccer
soccerbase
soccernet
soccerway
social
society
soft
softswitch
software
soil
sol
solar
solaris
soldier
solid
solo
solomon
solution
some
something
son
sonet
song
songs
sonin
sons
sony
soo
soul
sound
soundcloud
sounds
source
sources
south
southern
soviet
sp
spa
space
spaces
spacex
spain
spanish
spanning
special
species
specific
specified
specify
specifying
specimen
speech
speed
sph
spiegel
split
spoofing
sport
sports
spot
sprache
spring
springer
spurs
sq
sql
sqrt
square
sr
sri
srp
ss
sseldorf
ssh
ssl
ssp
st
sta
stack
stadium
stadt
stage
stand
standard
standards
standby
stanford
stankev
star
stars
start
stat
state
statement
states
statewide
static
station
statistical
statistics
stats
status
step
stephen
steve
steven
still
stm
stone
stop
storage
store
stored
stories
storm
story
stp
strategy
street
strike
string
stromae
struct
structure
stub
students
studies
studio
studios
study
stuttgart
stvo
style
styles
su
sub
subdivision
subject
subnet
subsp
successors
such
sudo
suk
sulcus
sum
summary
summer
sun
sunday
sung
sunrise
suns
super
supply
support
supported
sur
sure
survey
sv
svg
sw
sweet
swing
switch
switcher
switching
sydney
symbol
symbols
symmetry
symphony
syn
synonym
syntax
syphilis
sys
syslog
system
systems
szczepanek
t
ta
tab
table
tables
taeyang
tag
tags
taiwan
take
taken
talk
tamias
target
task
tau
taylor
tcp
td
te
team
teams
technical
technologies
technology
tel
telegraph
television
tell
telnet
templat
template
templatedata
templates
temple
ten
term
terminal
terms
territories
territory
tesla
test
testing
tex
texas
text
textcolor
textdata
texts
tfrac
tg
th
tha
than
that
the
theatre
thefa
their
them
then
theory
there
these
they
thing
things
third
this
thomas
those
though
thousand
thread
three
threshold
through
thrush
thumb
thumbnail
thunder
thus
ti
tibet
tie
tier
tiffany
tiger
tigris
till
tim
time
timeaxis
timeline
timer
times
timestamp
tire
title
tkip
tl
tlb
tlr
tls
tm
tn
tnavbar
to
toc
today
together
token
tokyo
tom
tomatoes
tomoohon
tony
too
tool
tools
top
topic
topografische
topology
tor
toronto
total
tottenham
touch
tour
tourism
touristinfocenter
tower
town
toyota
tp
tr
track
tractus
trade
tradition
traditional
traffic
trail
train
trans
transfer
transfermarkt
transform
translated
translation
translations
transmission
transparent
transport
trap
travel
treasure
treat
tree
trigger
trip
triple
trojan
trophy
trotsky
trouble
true
trunk
trust
ts
tsag
tt
tu
tun
tunnel
turkey
turkic
turkish
turn
tutorialspoint
tv
twentieth
twice
twisted
twitter
two
txt
type
types
u
ua
ub
ubs
ubuntu
uc
ucla
udp
uefa
uk
ul
ulaanbaatar
ulbr
um
uml
un
und
under
une
unesco
unicast
unicode
union
unique
unit
united
units
universal
university
unix
unknown
unplugged
unter
until
up
update
updated
upload
upper
upright
urban
url
ursus
us
usa
usage
usb
usda
use
used
useful
user
username
users
uses
usgs
using
usr
usual
usually
utc
utm
v
va
valley
value
values
van
var
varepsilon
variable
various
vbn
ve
vec
vector
vectra
vehicle
velvet
verbot
verified
verlag
vermont
version
vertical
very
vgl
vi
via
vicia
victoria
victory
vida
video
videos
vie
vietnam
view
vii
viii
village
vincent
virgin
virginia
virtual
virus
visa
viscosity
vision
visit
vista
visual
viva
vladimir
vlan
vmm
vmware
vo
vocalist
voice
void
voip
vol
volkswagen
vols
volume
vom
von
vorlage
vote
votes
vpn
vrf
vrrp
vs
vtp
vulpes
vv
vw
w
wa
wagner
waiting
wales
walk
walker
wall
walter
wan
wang
want
war
warcraft
ward
warner
warning
warriors
wars
was
washington
watch
water
watson
way
wayne
we
weather
web
website
weekly
weight
welcome
well
welt
weltfussball
wembley
wep
were
west
western
what
wheat
when
where
which
while
white
who
whole
why
wi
wide
width
wie
wien
wifi
wiki
wikimedia
wikipedia
wikiproject
wikiquote
wikisource
wild
wildlife
wiley
wilhelm
will
william
williams
wilson
wimax
wimp
win
wind
window
windows
wings
winner
wins
winter
wird
wireless
wireshark
wisconsin
wish
with
within
without
wlan
wo
wolf
wolfgang
wolves
woman
women
won
wonder
wonders
woo
woollim
word
wordpress
words
work
working
works
world
worldfootball
worldwide
worm
would
wp
wpa
wright
write
writing
written
wt
wu
www
x
xa
xbox
xc
xd
xerox
xhtml
xi
xia
xii
xiii
xiv
xix
xmas
xml
xn
xor
xoxo
xp
xss
xv
xvi
xvii
xviii
xx
xxi
xxiii
xxx
xyloto
y
ya
yahoo
yale
yang
ye
year
years
yellow
yeon
yes
yet
yg
yi
yin
yo
yong
yoo
yoon
york
you
young
your
yourself
youth
youtube
yu
yuan
yue
yuri
yyyy
z
za
ze
zealand
zeichen
zeit
zeitung
zero
zh
zhi
zho
zi
zn
zombie
zone
zoo
zoothera
zu
zum
zumeta
zur
zurchsun
zusatzzeichen
zwischen
{
|
}
~

£
¥
§
¨
©
«
¬
­
®
°
±
²
³
´
µ
·
¹
º
»
¼
½
¾
¿
×
ß
æ
ð
÷
ø
ı
ŋ
ɑ
ə
ɵ
ʰ
ʻ
ʼ
ʿ
ˈ
ˉ
ˌ
ː
˚
˥
˩
̀
́
̂
̃
̄
̅
̆
̇
̈
̉
̊
̋
̌
̓
̔
̛
̣
̦
̧
̨
̮
̯
̸
͂
α
β
γ
δ
ε
η
θ
ι
κ
λ
μ
ν
ο
π
ρ
ς
σ
τ
υ
φ
χ
ψ
ω
ϕ
а
аа
аав
аавтаи
аавыгаа
аавын
аавынхаа
аад
аадар
аажим
аажимдаа
аажмаар
аалз
аан
аар
аараа
аарон
ааруул
аарц
аас
ааш
аашт
аба
абаи
абаха
абахагии
абахаи
аббас
абд
абдул
абдулла
абелии
абердин
аблаи
абрахам
абсолют
абтаи
абу
абхаз
абэ
ав
аваагүи
аваад
авааль
аваас
аваачиж
аваачин
аваачсан
авав
авагдсан
авагч
авагчдад
авагчдыг
авагчдын
авагчид
авагчии
аваи
авалгүи
авалт
авалтаа
авалтаар
авалтыг
авалтын
аван
авар
аварга
аваргаа
аваргаар
аваргад
аваргалж
аваргалсан
аваргууд
аваргуудын
аваргыг
аваргын
аварсан
аварч
аватар
авах
авахаа
авахаар
авахаас
авахад
авахгүи
авахдаа
авахуулаад
авахуулсан
авахыг
авахын
авбал
авга
авгаи
авгалдаи
август
авдаг
авдаггүи
авдар
авж
авжээ
авзага
авиа
авиаг
авиан
авианы
авив
авивын
авилга
авир
авирах
авирмэд
авирмэдии
авирч
авлаа
авлага
авлагын
авлига
авлигын
авна
аврага
аврагдсан
аврагч
аврал
авралын
авран
аврах
авсаар
авсаархан
авсан
авсанаар
авсангүи
авсанд
авсаны
авснаар
авснаас
авсны
авсныхаа
австралазии
австрали
австралиас
австралид
австралии
австраличууд
австраличуудын
австри
австрии
австричууд
автаж
автаи
автан
авто
автобус
автобусны
автомат
автоматаар
автоматжуулалт
автоматжуулалтын
автоматжуулах
автоматжуулсан
автоматик
автомашин
автомашинаа
автомашинаар
автомашинд
автомашинууд
автомашины
автомашиныг
автономии
автономит
автономнои
автсан
авхаалж
авхаи
авч
авчирдаг
авчирна
авчирсан
авчирч
авчирчээ
авчрав
авчран
авчрах
авчээ
авъя
авъяас
авъяаслаг
авъяастаи
авъяасыг
авын
авьяас
авьяаслаг
авьяастаи
авьяасыг
аг
ага
агаад
агаар
агаараар
агаараас
агааргүи
агаарт
агаартаи
агаарыг
агаарын
агваан
агваансамдангии
агваржин
агент
агентлаг
агентлагии
агентлагт
агентлагтаи
агентлагууд
агентууд
агии
агнаж
агнах
агнуур
агнуурын
агрономич
агсан
агсны
агт
агуи
агуу
агуулаагүи
агуулагдаж
агуулагдана
агуулагдах
агуулагддаг
агуулагдсан
агууламж
агууламжии
агууламжтаи
агуулах
агуулахад
агуулахын
агуулга
агуулгаар
агуулгад
агуулгатаи
агуулгыг
агуулгын
агуулдаг
агуулдаггүи
агуулж
агуулна
агуулсан
агшилт
агшин
агшинд
агь
ад
адаацаг
адаг
адагт
адаи
адал
адам
адамс
адаптер
адгии
аддин
адель
адидас
адил
адилаар
адилбиш
адилгүи
адилтгаж
адилтган
адилтгах
адилхан
адлер
админ
административно
администратор
администраторууд
администраторын
админууд
админы
адмирал
адольф
адриан
адриатын
адуу
адууг
адуун
адууны
адуучин
адх
адъяа
адъяабат
адъяахүү
адыгеи
аж
ажгуу
ажиглагдаж
ажиглагдана
ажиглагдах
ажиглагддаг
ажиглагдсан
ажиглагч
ажиглагчид
ажиглагчии
ажиглаж
ажиглалт
ажиглалтын
ажиглан
ажигласан
ажиглах
ажиглахад
ажил
ажилгүи
ажилд
ажилдаа
ажилдаг
ажиллаад
ажиллав
ажиллагаа
ажиллагааг
ажиллагаагаа
ажиллагаагаар
ажиллагаагүи
ажиллагаанаас
ажиллагаанд
ажиллагаандаа
ажиллагаанууд
ажиллагаануудыг
ажиллагааны
ажиллагааныхаа
ажиллагаатаи
ажиллагсад
ажиллагсадтаи
ажиллагсдын
ажилладаг
ажиллаж
ажиллажээ
ажиллан
ажиллана
ажилласаар
ажилласан
ажилласнаар
ажилласны
ажиллах
ажиллахаа
ажиллахаар
ажиллахаас
ажиллахад
ажиллахгүи
ажиллахдаа
ажиллахыг
ажиллахын
ажиллуулах
ажиллуулахад
ажиллуулахын
ажиллуулдаг
ажиллуулж
ажиллуулна
ажиллуулсан
ажилсан
ажилтаи
ажилтан
ажилтантаи
ажилтнаар
ажилтнууд
ажилтнуудад
ажилтнуудыг
ажилтнуудын
ажилтны
ажилтныг
ажилчдад
ажилчдыг
ажилчдын
ажилчид
ажилчидтаи
ажилчин
ажилчинтаи
ажилчны
ажлаа
ажлаар
ажлаараа
ажлаас
ажлаасаа
ажлууд
ажлуудыг
ажлыг
ажлын
ажлынхаа
ажээ
аз
азаар
азар
азарга
азгүи
азербаи
азжаргал
аззаяа
ази
азиас
азид
азии
азовын
азот
азотыг
азотын
азтаи
аи
аида
аих
ак
академи
академиас
академид
академии
академик
академич
акбар
аким
акита
акитагии
акко
аккра
акр
акт
акустик
ал
ала
алаад
алабама
алаг
алага
алагдав
алагдаж
алагджээ
алагдсан
алагдсаны
алаи
алан
аланин
алатау
алах
алахыг
алашаа
алашаагии
алба
албаа
албагүи
албад
албадан
албадах
албан
албанаас
албанд
албани
албании
албаничууд
албаны
албаныхан
албат
албатаи
алберт
албум
албыг
алга
алгана
алганы
алгебр
алгебрии
алгоритм
алгоритмии
алгоритмууд
алгоритмыг
алгоритмын
алгуи
алгуур
алд
алдаа
алдааг
алдаагүи
алдаад
алдаанаас
алдаанд
алдаанууд
алдаануудыг
алдааны
алдаатаи
алдав
алдагдаж
алдагдал
алдагдалтаи
алдагдах
алдагдлыг
алдагдсан
алдагдуулж
алдаж
алдалгүи
алдан
алдана
алдар
алдарт
алдартаи
алдартан
алдартнууд
алдартны
алдархаан
алдаршжээ
алдаршиж
алдаршсан
алдаршуулсан
алдарын
алдах
алдахад
алдахгүи
алддаг
алджээ
алдрыг
алдрын
алдсан
алдсанаар
алдсаны
але
алекс
александер
александр
александра
александриа
александрович
александрын
алексеи
алессандро
алехандро
алехин
алж
алжир
алжирын
алжээ
али
алиа
алиалагч
алив
аливаа
алиев
алии
алим
алимын
алин
алинаар
алинд
алиныг
алиных
алис
алла
аллага
аллагад
аллагын
аллан
аллах
аллен
алма
алмааз
алмаи
алмас
алмасын
алматы
алонсо
алс
алсаас
алсад
алсан
алслагдсан
алсыг
алсын
алт
алтаар
алтаи
алтан
алтанбулаг
алтангадас
алтангэрэл
алтангэрэлии
алтансүх
алтанхуяг
алтанцэцэг
алтаншагаи
алтанширээ
алтернатив
алтны
алтыг
алун
алуулж
алуулсан
алуурчин
алфа
алх
алхаа
алхааны
алхагч
алхаж
алхам
алхамд
алхамыг
алхан
алхах
алхмаар
алхмуудыг
алхмыг
алчуур
алчууртны
алшаа
аль
альберт
альберта
альберто
альбион
альбом
альваро
альп
альпии
альтернатив
альфа
альфонсо
альфред
аляск
аляска
аляскын
ам
амаа
амаар
амаараа
амаас
амадеи
амазон
амазоны
аман
аманд
амандаа
амар
амарбаясгалан
амарбаясгалант
амаргүи
амаржаргал
амарсаи
амарсанаа
амартүвшин
амархан
амарч
амарын
амбагаи
амбан
амбаны
амбасэлмаа
амгаи
амгалан
амгаланбаатар
амгаланг
амгалангии
амд
америк
америка
америкаас
америкад
америкии
америкт
америкчууд
америкчуудын
америкын
амжаагүи
амжжээ
амжилгүи
амжилт
амжилтаа
амжилтаар
амжилтаараа
амжилтаас
амжилтад
амжилтанд
амжилтгүи
амжилттаи
амжилтууд
амжилтуудыг
амжилтыг
амжилтын
амжсан
ами
амиа
амии
амилсан
амилуулсан
амин
аминд
амины
амлаж
амлалт
амласан
аммиак
аммиакии
аммонии
амнаас
амны
ампер
амраг
амрагии
амралт
амралтын
амрах
амсаж
амсар
амссан
амстердам
амстердамын
амсхии
амт
амтаи
амталсан
амтат
амтлагч
амттаи
амттан
амтыг
амударья
амур
амуу
амыг
амын
амынхаа
амь
амьгүи
амьд
амьдаар
амьдардаг
амьдардаггүи
амьдарлын
амьдарна
амьдарсан
амьдарч
амьдарчээ
амьдрал
амьдралаа
амьдралаар
амьдралаас
амьдралд
амьдралдаа
амьдралтаи
амьдралыг
амьдралын
амьдралынхаа
амьдран
амьдрах
амьдрахаар
амьдрахад
амьжиргаа
амьжиргааны
амьсгаа
амьсгал
амьсгалах
амьсгалд
амьсгалтаи
амьсгалыг
амьсгалын
амьтад
амьтадтаи
амьтан
амьтанд
амьтантаи
амьтаны
амьтдаас
амьтдад
амьтдыг
амьтдын
амьтнаар
амьтнаас
амьтны
амьтныг
ан
ана
анагаах
анагаахын
анализ
аналитик
аналог
ананд
анар
анархист
анастасия
анатоли
анатолии
анатоми
анатомии
анг
ангаахаи
ангар
ангараг
анги
ангиа
ангиар
ангиас
ангиасаа
ангид
ангидаа
ангижирч
ангижрах
ангижруулах
ангии
ангилагдаагүи
ангилагддаг
ангилал
ангилалд
ангилалыг
ангилалын
ангилан
ангилах
ангилдаг
ангилж
ангиллаар
ангиллын
ангилна
ангилсан
ангир
ангит
ангитаи
ангиуд
ангиудад
ангиудыг
ангиудын
ангкор
англ
англи
англиар
англиас
англид
англии
англитаи
англичууд
ангол
анголын
ангууч
анд
андгаи
андерлехт
андерс
андерсон
андорра
андре
андреа
андреас
андреевич
андреевна
андреи
андрес
андрои
андропов
андуурч
андын
анжелес
анжелесии
анжелест
анжелесын
анжелина
анзаарч
анимаци
анимэ
анкара
анн
анна
аннагии
анни
анод
анри
ант
антарктид
антарктидын
антверпен
антен
антенн
анти
антибиотик
антибиотикии
антигуа
антикии
антилын
антон
антони
антонио
антонов
антропологи
антропологии
антуан
ану
анх
анхаар
анхаарал
анхааралд
анхааралтаи
анхааран
анхаарах
анхаардаг
анхаарлаа
анхаарлыг
анхаарлын
анхаарна
анхаарсан
анхааруулга
анхааруулсан
анхаарч
анхальт
анхан
анхандаа
анхбаяр
анхдагч
анхдагчдын
анхдугаар
анхлан
анхнаасаа
анхны
анхных
анхныхаа
анчид
анчин
ань
аньс
аньхуи
анэу
аомори
ап
апертура
апликеи
аполло
апп
аппарат
аппаратыг
аппаратын
аппликеи
аппликэи
ар
араа
араар
араас
араасаа
араат
араатаи
араатан
араб
арабаар
арабууд
арабын
арав
аравдугаар
аравны
аравт
аравтын
аравч
араг
арагоны
араи
арал
аралд
аралтаи
араншин
арбитр
арбитрын
арбулаг
арваад
арваалж
арваи
арван
арваннэгдүгээр
арваннэгээс
арванхое
арвас
арвин
арга
аргаа
аргаар
аргаас
аргагүи
аргад
аргазүи
аргал
аргалант
аргаль
аргатаи
аргачлал
аргачлалыг
аргентин
аргентинд
аргентинии
аргентинчууд
аргентины
аргил
аргон
аргумент
аргун
аргуны
аргууд
аргуудаас
аргуудыг
аргуудын
аргыг
аргын
ард
ардаа
ардад
ардууд
ардчилал
ардчилалыг
ардчилалын
ардчиллыг
ардчиллын
ардчилсан
ардыг
ардын
арена
ари
аригбөх
аригбөхии
аригиба
аризона
арилгаж
арилгах
арилгахад
арилдаг
арилжаа
арилжааны
аристотелии
аристотель
ариун
ариунаа
ариунбилэг
ариутгах
арифметик
арифметикии
арк
аркан
арканзас
арктикии
арлаар
арлаас
арлууд
арлуудаас
арлуудад
арлуудыг
арлуудын
арлыг
арлын
армен
армени
армении
арменичууд
арми
армиа
армиас
армид
армии
армитаи
армиуд
армиудын
армстронг
армян
арнольд
арс
арсенал
арсеналд
арсеналын
арслан
арслангии
арслангууд
арт
артаи
артанъян
артемисии
артерии
артерын
артиллерии
артур
аругтаи
архаг
архангаи
архангельск
археологи
археологии
археологич
археологичид
архи
архив
архивт
архивын
архинд
архины
архитектор
архитекторууд
архитекторч
архитектур
архитектурт
архитектурыг
архитектурын
арц
арчилгаа
арын
арьс
арьсаар
арьсан
арьсанд
арьсны
арьст
арьстаи
арьстан
арьстнууд
арьсыг
ас
асааж
асаалттаи
асаах
асан
асар
асарч
асга
асгат
асгатын
асеан
асем
аскар
аскона
аспарагины
аспирантурт
асрагч
асрамжии
асран
асрах
асрын
ассамблеи
ассемблеи
ассемблер
ассир
ассирии
аст
астана
астон
астра
астрал
астрахании
астрахань
асуд
асуудал
асуудалд
асуудалтаи
асуудлаа
асуудлаар
асуудлаарх
асуудлаас
асуудлууд
асуудлуудыг
асуудлуудын
асуудлыг
асуудлын
асууж
асуулга
асуулгаар
асуулгад
асуулгын
асуулт
асуултад
асуултанд
асуултууд
асуултыг
асуултын
асуусан
асуух
асуухад
ат
ата
атаа
атаархал
атал
атаман
атар
атга
атгаж
атеизм
атираа
атирааны
атираат
атлаа
атланта
атлантын
атлас
атлетик
атлетикии
атлетико
атлетикт
атлетикч
атм
атом
атомаас
атомууд
атомуудын
атомыг
атомын
атрын
атташе
аттила
атугаи
атф
ау
аугаа
аугсбург
аугуст
ауди
аудио
аудит
аудитии
аудитыг
аудитын
афган
афганистан
афганистанд
афганистаны
афганы
афин
афинд
афинчууд
афины
африк
африкаас
африкии
африкт
африкын
ах
ахаи
ахан
ахар
ахиад
ахиж
ахин
ахисан
ахиулан
ахиулж
ахиулсан
ахиуц
ахих
ахиц
ахлагч
ахлагчаар
ахлагчии
ахлагчтаи
ахлан
ахлах
ахлуулсан
ахмад
ахмадын
ахмед
ахтаи
ахуи
ахх
ахыгаа
ахын
ахынхаа
ацетил
ацс
ач
ачаа
ачааг
ачаалал
ачаалалтаи
ачаалах
ачааллах
ачааллыг
ачааллын
ачааны
ачаар
ачиж
ачии
ачит
ачих
ачсан
ашгаа
ашгии
ашиг
ашиггүи
ашиглаагүи
ашиглаад
ашиглаараи
ашиглав
ашиглавал
ашиглагдаж
ашиглагдана
ашиглагдах
ашиглагддаг
ашиглагдсан
ашигладаг
ашигладаггүи
ашиглаж
ашиглажээ
ашиглалт
ашиглалтад
ашиглалтанд
ашиглалтыг
ашиглалтын
ашиглан
ашиглана
ашигласаар
ашигласан
ашигласнаар
ашигласны
ашиглах
ашиглахаар
ашиглахаас
ашиглахад
ашиглахгүи
ашиглахдаа
ашиглахыг
ашиглахын
ашигт
ашигтаи
ашина
ашихаи
ашока
ашт
аюул
аюулаас
аюулгүи
аюулд
аюулт
аюултаи
аюулууд
аюулыг
аюулын
аюурбарбад
аюурзана
аюурзанын
аюуш
аюушии
аюушридар
ая
аяа
аяараа
аяга
аяганы
аягатаи
аядуу
аяз
аякс
аялагч
аялагчдын
аялагчид
аялаж
аялал
аялалаа
аялалд
аялалын
аялан
аялах
аялга
аялгаар
аялгад
аялгуу
аялгууг
аялгуугаар
аялгуунд
аялгууны
аялгуутаи
аялдаг
аялж
аялжээ
аяллын
аяллынхаа
аялсан
аян
аянга
аянд
аяндаа
аяны
аяс
аясаар
аястаи
аясыг
аятаи
аяыг
б
ба
баабар
баавгаи
бааз
баазад
баазууд
баазыг
баазын
баар
баарин
баасан
баасанбат
баасандорж
баасанжав
баасансүрэн
баасанхүү
баатар
баатарлаг
баатарлагаар
баатарсүх
баатарсүхии
баатарт
баатархүү
баатарцол
баатарын
баатрууд
баатруудын
баатрыг
баатрын
баацагаан
бавари
баварии
бавуужав
бавуужавыг
бавуужавын
баг
бага
багаа
багаар
багаараа
багаас
багаасаа
багабанди
багавтар
багагүи
багад
багадаа
багадалт
багаж
багажии
багана
баганад
багануур
баганы
баганыг
баганын
багас
багасаж
багасах
багасгадаг
багасгаж
багасгана
багасгасан
багасгах
багасгахад
багасгахын
багасдаг
багасна
багассан
багасч
багатаи
багахан
багачууд
багачуудын
багваахаи
багдад
багдадыг
багдадын
багии
баглаа
багт
багтаа
багтаагүи
багтаадаг
багтааж
багтаажээ
багтаамж
багтаамжии
багтаамжтаи
багтаан
багтаана
багтаасан
багтаах
багтаж
багтаи
багтан
багтана
багтах
багтдаг
багтжээ
багтсан
багууд
багуудаас
багуудад
багуудтаи
багуудыг
багуудын
багц
багцаагаар
багцад
багцууд
багцуудыг
багцыг
багцын
багш
багшаа
багшаар
багшид
багшии
багшилж
багшилсан
багшлах
багштаи
багын
бад
бадаг
бадам
бадамгарав
бадамдорж
бадамжав
бадамхатан
бадар
бадаргуулт
бадарч
бадарчин
бадахшан
баден
бадмаанямбуугии
бадминтон
бадминтоны
бадраа
бадрал
бадрангуи
бадрах
бадрахын
бажо
базааж
базар
базарын
базель
баи
бак
бакалавр
бакалаврын
бакиев
баклэнд
бакс
бактер
бактери
бактерии
бактериологии
бактериуд
баку
бакугии
бал
балар
балархаи
балба
балбын
балгас
балгасны
балгасыг
балгасын
балдан
балдангии
балдандорж
балет
балетчин
балетын
балжинням
балжиннямын
бали
балкан
балканы
балканын
балл
баллистик
баллон
балмад
балсан
балсангии
балт
балтии
балтимор
балтын
балуч
балхаш
балчир
бам
бамбаи
бамбар
бан
бангкок
бангладеш
бангладешии
банди
бандид
бандида
бандии
банзарын
банзрагч
банзрагчии
банк
банкии
банкинд
банкнаас
банкны
банктаи
банкууд
банкуудын
банчин
банш
банштаи
бао
баптист
бар
бараа
барааг
бараалхаж
бараан
барааны
барав
бараг
барагсад
барагцаагаар
барагцаалбал
барак
баралт
барам
барах
барахад
барахгүи
барбадос
барбара
барбаросса
барбуда
барга
баргажин
баргууд
баргын
бардаг
бардам
барж
баржээ
бари
бариад
барианд
барив
баривчилж
баривчилжээ
баривчилсан
баривчлав
баривчлагдаж
баривчлагдан
баривчлагдсан
баривчлан
баривчлах
баригдаж
баригдан
баригдах
баригддаг
баригджээ
баригдсан
баригч
баригчдад
баригчдыг
баригчдын
баригчид
баригчидтаи
барии
барил
барилаар
барилга
барилгад
барилгатаи
барилгач
барилгачид
барилгачин
барилгууд
барилгуудыг
барилгуудын
барилгыг
барилгын
барилд
барилдаад
барилдаан
барилдаанд
барилдааны
барилдааныг
барилдаж
барилдан
барилдах
барилддаг
барилдлаа
барилдлага
барилдсан
барилдсанаас
барилдуулж
барилт
барилыг
баримал
барималч
баримжаа
баримжааг
баримжаатаи
баримлыг
баримлын
баримт
баримтаар
баримтаас
баримтад
баримталдаг
баримталж
баримталсан
баримтанд
баримтат
баримтжуулсан
баримтлагч
баримтлал
баримтлалаар
баримтлалтаи
баримтлалыг
баримтлалын
баримтлан
баримтлах
баримттаи
баримтууд
баримтуудыг
баримтыг
баримтын
барин
барина
барисан
бариул
бариулах
бариулж
бариулжээ
бариулсан
бариулт
барих
барихаар
барихад
барихдаа
барихыг
барихын
баркли
барлаг
барокко
барон
баррель
барри
барс
барсан
барсаны
барсболд
барселон
барселона
барселонад
барселоны
барснаар
барснаас
барсны
бартаат
бартольд
бартон
баруун
баруунаас
баруунбаян
баруунбүрэн
баруунд
баруунтуруун
баруунш
барууны
бархасбадь
баршгүи
барын
барь
барьдаг
барьж
барьжээ
барьсаар
барьсан
барьц
барьцаа
барьцааны
бас
баск
басс
бастиа
басхүү
бат
батаа
баталгаа
баталгааг
баталгаажсан
баталгаажуулалт
баталгаажуулалтыг
баталгаажуулалтын
баталгаажуулах
баталгаажуулдаг
баталгаажуулж
баталгаажуулсан
баталгааны
баталгаат
баталгаатаи
баталдаг
баталж
баталжээ
баталсан
баталснаар
батальон
батальоны
батареи
бататгаж
бататган
бататгах
батбаатар
батбаяр
батбаярын
батболд
батболдын
батгэрэл
батдорж
батереи
батжаргал
батжаргалын
батзаяа
батзориг
батлав
батлагдаагүи
батлагдав
батлагдаж
батлагддаг
батлагджээ
батлагдсан
батлагдсанаар
батламж
батламжилсан
батлан
батласан
батлах
батлахад
батлер
батлуулж
батлуулсан
батмөнх
батмөнхии
батнасан
батням
батсаи
батсуурии
батсуурь
батсүмбэр
батсүрэн
батсүх
батсүхии
баттаи
баттереи
баттон
баттулга
баттулгын
баттөмөр
батула
батхуяг
батцэнгэл
батцэцэг
батчулуун
батчулууны
батширээт
батын
бафта
баффало
бах
бахаи
бахархал
бахдам
бахим
бахреи
бахын
баше
башкир
башо
баяд
баядын
баяжиж
баяжмал
баяжуулан
баяжуулах
баяжуулж
баяжуулсан
баялаг
баялагии
баялагтаи
баялгии
баян
баянбулаг
баянбүрд
баянговь
баянгол
баяндалаи
баяндун
баяндэлгэр
баянжаргал
баянжаргалан
баянзүрх
баянлиг
баянмонгол
баянмөнх
баянмөнхии
баяннуур
баянтэс
баянтүмэн
баянхаи
баянхангаи
баянхонгор
баянхутаг
баянцагаан
баянцагааны
баянцогт
баянчор
баяны
баяр
баяраа
баяраагии
баяраар
баярбаатар
баярбат
баяржавхлан
баярлаж
баярмаа
баярмагнаи
баярсаи
баярт
баяртаи
баярууд
баярхүү
баярыг
баярын
баясгалан
баясгалант
ббсб
бе
беверли
беи
бек
бекхэм
бел
бела
беларусии
беларусь
белгии
белгород
белград
белградын
белиз
белл
беллии
бельги
бельгии
бельгичүүд
бен
бенгал
бенгалын
бенедикт
бенеттон
бенжамин
бензин
бенин
бенинии
бенито
беннингтон
бенфика
бенц
бенции
берг
бергии
береке
берингии
берия
беркли
берклигии
берлин
берлинд
берлинии
берн
бернард
бернии
бернли
бета
бетон
бетховен
бешикташ
би
биатлон
биатлонч
биатлоны
библи
библии
биг
бигэр
бид
биднии
биднээс
бидэнд
бидэнтэи
бие
биед
биедээ
биеии
биелгээ
биелж
биеллээ
биелэгдэх
биелэлтии
биелэх
биелүүлдэг
биелүүлж
биелүүлсэн
биелүүлэх
биелүүлэхии
биелүүлэхэд
биелүүлэхээр
биендээ
биении
биенээ
биенээсээ
биес
биесии
биет
биетии
биетнии
биетэи
биетэн
биетүүд
биетүүдии
биечлэн
биеэ
биеэр
биеэрээ
биеэс
биеэсээ
биз
бизе
бизнес
бизнесии
бизнесмен
бизнесмэн
бизнест
бизнесээ
бизээ
бии
бил
билгии
билгэ
билгүүн
билиг
билл
биллбоард
биллборд
биллбордын
билли
биллиардчин
бильбао
билэг
билэгдэл
билэгт
билээ
бин
биндэр
биндэръяа
бинт
бинтээр
био
биологи
биологии
биологич
биомасс
биомассыг
биосинтез
биотехнологи
биотехнологии
биохими
биохимии
биохимич
бира
бирваа
бирж
биржид
биржии
бирм
бирмии
бирмингем
бисау
бит
битгии
битии
биткои
битлз
битээр
битүү
битүүд
битүүлэг
бич
бичвэл
бичвэр
бичвэрии
бичгии
бичгээ
бичгээр
бичгээс
бичгүүд
бичгүүдии
бичгүүдэд
бичдэг
бичжээ
бичив
бичиг
бичигддэг
бичигджээ
бичигдсэн
бичигдэв
бичигдэж
бичигдэн
бичигдэнэ
бичигдэх
бичигдээгүи
бичиглэл
бичигт
бичигтэи
бичигч
бичиж
бичил
бичилт
бичин
бичих
бичихгүи
бичихдээ
бичихии
бичихэд
бичлэг
бичлэгии
бичлэгт
бичлэгээ
бичлэгээр
бичлэгүүд
бичлэгүүдии
бичмэл
бичмэлии
бичнэ
бичсэн
бичсэнии
бичсэнээр
бичсэнээс
бичээгүи
бичээд
бичээс
бичээсии
бичээст
бичээстэи
бичээч
бичүүлж
бичүүлжээ
бичүүлсэн
биш
бишгүүр
бишии
биширдэг
биширч
бишкек
бишрэгчдии
бишрэгчид
бишрэл
бишрэлии
бишрэлт
бишрэн
блаи
блог
блок
блокии
блокчэи
блокын
блэи
блэк
блэкберн
блэкпүүл
блю
блюз
бн
бнагу
бналау
бнасау
бнказу
бнмау
бнпу
бнсу
бну
бнхау
бнху
бнэу
бо
боб
бобби
бобкэтс
бобслеи
бог
богд
богдан
богдод
богдоос
богдхан
богдыг
богдын
богино
богинохон
бод
бодвол
бодгаль
боддог
боди
бодис
бодисии
бодисоор
бодисоос
бодист
бодистои
бодисууд
бодисуудыг
бодисуудын
бодисыг
бодисын
бодит
бодитои
бодитоор
бодлого
бодлогод
бодлогоо
бодлогоор
бодлогоос
бодлоготои
бодлогууд
бодлогуудыг
бодлогыг
бодлогын
бодлоо
бодлоор
бодлыг
бодлын
бодно
бодогч
бодож
бодол
бодолгүи
бодолд
бодолт
бодолтои
бодолтын
бодон
бодоо
бодоогии
бодоод
бодох
бодоход
бодсон
бодь
бои
боинг
бока
бокс
боксчин
боксын
бол
болбол
болбоос
болвол
болвоос
болгар
болгараар
болгарчууд
болгарын
болгов
болгогч
болгодог
болгое
болгож
болгожээ
болголоо
болгон
болгонд
болгоно
болгоны
болгоныг
болгоод
болгоомжилж
болгоомжлон
болгоомжтои
болгосноор
болгосны
болгосон
болгох
болгохгүи
болгоход
болгохоор
болгохыг
болгохын
болд
болдбаатар
болдбаатарын
болдог
болдоггүи
болдын
более
болж
болжмор
болжээ
болзлыг
болзож
болзол
болзоо
болзошгүи
болив
боливи
боливии
болино
болиод
болиулж
боллоо
болмогц
болмои
болмоор
болмуи
болно
болов
боловсон
боловсорсон
боловсорч
боловсрол
боловсролд
боловсролоо
боловсролтои
боловсролыг
боловсролын
боловсронгуи
боловсрох
боловсруулав
боловсруулагдсан
боловсруулагч
боловсруулалт
боловсруулалтыг
боловсруулалтын
боловсруулан
боловсруулах
боловсруулахад
боловсруулдаг
боловсруулж
боловсруулжээ
боловсруулна
боловсруулсан
боловч
болои
бололтои
бололцоо
бололцоог
бололцоогүи
бололцоотои
боломж
боломжгүи
боломжии
боломжит
боломжоо
боломжоор
боломжтои
боломжууд
боломжуудыг
боломжыг
болон
болонья
болоогүи
болоод
болоосои
болор
болох
болохгүи
болохдоо
болоход
болохоо
болохоор
болохоос
болохуи
болохыг
болохын
болсноо
болсноор
болсноороо
болсноос
болсны
болсныг
болсныхоо
болсон
болсонгүи
болсонд
болсоноо
болсоноор
болсоноос
болсонтои
болсоны
болсоныг
болсоор
болтлоо
болтол
болтон
болтугаи
болхи
болхоор
болцгоосон
болчин
болчихсон
болъе
болын
больж
больжээ
больсон
больцманы
большевик
большевикууд
большевикуудын
большои
бомбын
бонапарт
бонд
бондыг
бондын
бонн
боов
боовны
боодог
боож
боол
боолт
боолтыг
боолуудын
боолчлол
боолчлолыг
боолын
боомт
боомтод
боомтоос
боомттои
боомтыг
боомтын
боорцог
боорчи
боох
боохои
бор
боргоцои
бордо
бордоо
бордуу
бордуур
боржигин
боржигон
боржин
борис
борлогджээ
борлогдож
борлогдсон
борлуулагдаж
борлуулагдсан
борлуулагч
борлуулалт
борлуулалтаараа
борлуулалттаи
борлуулалтыг
борлуулалтын
борлуулах
борлуулдаг
борлуулж
борлуулсан
борнео
борнмут
боро
боролдои
бороо
бороонд
борооны
бороотои
борохул
бортого
боруссиа
боршувуу
боршувуутан
борын
босго
босгов
босгож
босгожээ
босголт
босголтын
босгон
босгосон
босгох
босгоход
босгыг
бослого
бослогод
бослогыг
бослогын
босни
боснии
босничууд
босогч
босогчдыг
босогчдын
босогчид
босогчидтои
босож
босон
босоо
босоод
босох
боссон
бостон
бостоны
босч
ботии
ботсвана
боть
бохаи
бохеми
бохемии
бохир
бохирдлыг
бохирдлын
бохирдол
бохирдсон
бош
бошгот
бошиглогч
бошигт
браво
бразил
бразилд
бразилии
бразилчууд
бразилын
браи
бранденбург
бранденбургии
браузер
браун
брауншваи
брауны
брахман
брежнев
бреи
бремен
бренд
брендии
брест
брешиа
бригад
бригадууд
бригадыг
бригадын
бриджстоун
бристоль
британи
британиас
британид
британии
британитаи
британичууд
британы
бритиш
бродскии
броз
брокер
бромвич
бруклин
брукнер
брукнерии
брунеи
бруно
брэд
брэнд
брэндии
брюгге
брюс
брюссель
брүүклин
бсшуя
бтр
бу
буг
буга
буган
бугат
бугатын
бугуи
бугыг
бугын
буд
будаа
будааг
будааны
будаатаи
будаг
будагтаи
будаж
будапешт
будапештын
бударгана
будах
будгаар
будгии
будда
буддагии
буддизм
буддизмын
буддын
будет
будлиан
будсан
будут
будшир
будын
бужиргынхан
бузар
буи
бул
булааж
булаан
булаг
булан
буланг
булангаар
булангии
буланд
булга
булган
булганы
булганыхан
булгии
булл
буллз
буллс
булнаи
булуу
булцуу
булчин
булчинг
булчингии
булчингууд
булчинд
булчинлаг
булчирхаи
булш
булшии
булшнаас
булшны
бум
буман
бумба
бумбат
бумбутаи
бумбын
бумцэнд
бундеслиг
бундеслигии
бундеслигт
бундестагии
бунтар
бунхан
бунханд
бунхант
бурангуи
бург
бургас
бургии
бурдуков
буриад
буриадаар
буриадад
буриадууд
буриадуудын
буриадыг
буриадын
буркина
бурмаа
бурунди
буруу
бурууг
буруугаар
буруугүи
буруутаи
буруутгаж
буруутган
буруутгасан
буруушааж
бурхад
бурхадын
бурхан
бурханд
бурхант
бурханы
бурханыг
бурхдын
бурхны
бурхныг
бус
бусаар
бусад
бусадтаи
бусдаар
бусдаас
бусдаасаа
бусдад
бусдыг
бусдыгаа
бусдын
бусыг
бусын
бут
бутан
бутанд
бутаны
бутарсан
бутархаи
бутарч
бутлаг
бутрал
бутралын
бутран
буту
буу
бууг
буугаад
буугаар
буугдаж
буугдсан
буудаг
буудагч
буудаж
буудаи
буудал
буудалд
буудалтаи
буудан
буудах
буудлаас
буудлага
буудлагын
буудлыг
буудлын
буудсан
буудуулан
буудуулж
буудуулсан
бууж
буужээ
бууз
буулгав
буулгаж
буулгажээ
буулган
буулгасан
буулгах
буулт
буун
бууны
буур
буураи
буурал
бууралт
бууран
буурах
буурдаг
буурин
буурна
буурсан
бууруулах
бууруулахад
бууруулдаг
бууруулж
бууруулна
бууруулсан
буурцаг
буурцагт
буурцагтан
буурцагтны
буурч
буурчээ
буурын
буурь
буусан
буут
буутаи
буух
буухиа
бууц
бууцагаан
бууцаи
бууч
буучаар
буучдын
буучии
буфер
буффон
бух
буха
бухар
бухарест
бухарестын
бухарын
бухын
буцаад
буцаадаг
буцааж
буцаажээ
буцаан
буцаана
буцаасан
буцаах
буцав
буцаж
буцалтгүи
буцан
буцах
буцахдаа
буцжээ
буцлах
буцсан
буш
бушии
буэнос
буюруг
буюу
буян
буяндэлгэр
буяннэмэх
буяннэмэхии
буянт
буянтаи
буяны
бхя
быть
бэ
бэгзии
бэгзсүрэн
бэи
бэк
бэкхе
бэл
бэлгии
бэлгэ
бэлгэддэг
бэлгэдлии
бэлгэдсэн
бэлгэдэл
бэлгүтэи
бэлд
бэлдмэл
бэлдмэлии
бэлдсэн
бэлдэж
бэлдэх
бэлдэц
бэлдэции
бэлии
бэлтгэгдсэн
бэлтгэгдэж
бэлтгэгч
бэлтгэгчдэд
бэлтгэдэг
бэлтгэж
бэлтгэжээ
бэлтгэл
бэлтгэлд
бэлтгэлии
бэлтгэлээ
бэлтгэн
бэлтгэнэ
бэлтгэсэн
бэлтгэх
бэлтгэхэд
бэлчир
бэлчирии
бэлчирт
бэлчээр
бэлчээрии
бэлчээрт
бэлэвсэн
бэлэг
бэлэгдэл
бэлэглэж
бэлэглэсэн
бэлэн
бэр
бэрри
бэрримэн
бэрс
бэртжээ
бэртлии
бэртэж
бэртэл
бэртэлтэи
бэрх
бэрхии
бэрхшээл
бэрхшээлии
бэрхшээлтэи
бэсрэг
бэсүд
бэх
бэхжиж
бэхжих
бэхжүүлж
бэхжүүлсэн
бэхжүүлэн
бэхжүүлэх
бэхжүүлэхии
бэхжүүлэхэд
бэхи
бэхии
бэхлэгдсэн
бэхлэлт
бэхлэлтии
бэхлэн
бэхлэх
бэхэлгээ
бэхэлсэн
бэхэн
бээжин
бээжинг
бээжингии
бээжингээс
бээжинд
бээлии
бээр
бээрии
бюллетень
бялдрын
бялзуухаи
бялуу
бямба
бямбаа
бямбадорж
бямбажав
бямбасүрэн
бямбасүрэнгии
бямбацогт
бямбын
бяо
бяр
бярман
бясалгал
бяслаг
бяцхан
бү
бүгд
бүгдии
бүгдэд
бүгдээр
бүгдээрээ
бүгдээс
бүдэг
бүдэрсэн
бүдүүвч
бүдүүлэг
бүдүүн
бүжгии
бүжгэн
бүжиг
бүжиглэдэг
бүжиглэж
бүжиглэх
бүжигт
бүжигчин
бүи
бүл
бүлгии
бүлгэм
бүлгэмд
бүлгэмии
бүлгээ
бүлгээр
бүлгээс
бүлгүүд
бүлгүүдии
бүлгүүдэд
бүлд
бүлии
бүлтэи
бүлэг
бүлэглэл
бүлэглэлии
бүлэглэлүүд
бүлэглэн
бүлэгнэлтии
бүлэгт
бүлэгтэи
бүлээ
бүлээн
бүлээрээ
бүлээс
бүлүүрт
бүр
бүргэд
бүргэдии
бүргэдүүд
бүрд
бүрддэг
бүрджээ
бүрдии
бүрдлии
бүрдсэн
бүрдэж
бүрдэл
бүрдэнэ
бүрдэх
бүрдээ
бүрдүүлдэг
бүрдүүлж
бүрдүүлжээ
бүрдүүлнэ
бүрдүүлсэн
бүрдүүлэгч
бүрдүүлэн
бүрдүүлэх
бүрдүүлэхэд
бүрж
бүри
бүрии
бүрмөсөн
бүрнээ
бүрнээр
бүрсэн
бүрт
бүртгэгджээ
бүртгэгдсэн
бүртгэгдэж
бүртгэгч
бүртгэдэг
бүртгэж
бүртгэл
бүртгэлд
бүртгэлии
бүртгэлтэи
бүртгэлээр
бүртгэн
бүртгэсэн
бүртгэх
бүртгүүлж
бүртгүүлсэн
бүртгүүлэх
бүртээ
бүрхсэн
бүрхэвч
бүрхэвчии
бүрхэг
бүрхэгдсэн
бүрхэж
бүрхэх
бүрхүүл
бүрхүүлии
бүрхүүлтэи
бүрчлэн
бүрэгхангаи
бүрэлддэг
бүрэлдсэн
бүрэлдхүүн
бүрэлдхүүнд
бүрэлдхүүнии
бүрэлдхүүнтэи
бүрэлдэж
бүрэлдэн
бүрэлдэнэ
бүрэлдэх
бүрэлдэхүүн
бүрэлдэхүүнд
бүрэлдэхүүндээ
бүрэлдэхүүнии
бүрэлдэхүүнтэи
бүрэлдэхүүнээр
бүрэлдэхүүнээрээ
бүрэлдэхүүнээс
бүрэлдүүлж
бүрэн
бүрэнтогтох
бүрэнтөгс
бүрэх
бүрээ
бүрээр
бүрээс
бүс
бүсгүи
бүсии
бүслэв
бүслэгдсэн
бүслэгдэн
бүслэлт
бүслэлтии
бүслэлтэд
бүслэлтээс
бүслэн
бүслэх
бүслүүр
бүслүүрии
бүснии
бүст
бүстэи
бүсчлэл
бүсчлэлии
бүсэд
бүсэлж
бүсэлжээ
бүсэлсэн
бүсэлхии
бүсээ
бүсээр
бүсээс
бүсүүд
бүсүүдии
бүсүүдэд
бүтдэг
бүтнэ
бүтнээр
бүтнээрээ
бүтсэн
бүтции
бүтцэд
бүтцээр
бүтцээс
бүтцүүд
бүтцүүдии
бүтэж
бүтэлгүи
бүтэн
бүтэх
бүтэц
бүтэции
бүтэцлэгдсэн
бүтэцтэи
бүтэцэд
бүтээв
бүтээгджээ
бүтээгдсэн
бүтээгдхүүн
бүтээгдхүүнии
бүтээгдэж
бүтээгдэх
бүтээгдэхүүн
бүтээгдэхүүнд
бүтээгдэхүүнии
бүтээгдэхүүнээ
бүтээгдэхүүнээр
бүтээгдэхүүнээс
бүтээгдэхүүнүүд
бүтээгдэхүүнүүдии
бүтээгч
бүтээгчдии
бүтээгчид
бүтээгчии
бүтээгүи
бүтээдэг
бүтээж
бүтээжээ
бүтээл
бүтээлд
бүтээлдээ
бүтээлии
бүтээлтэи
бүтээлч
бүтээлчдии
бүтээлчид
бүтээлчидтэи
бүтээлчии
бүтээлчээр
бүтээлээ
бүтээлээр
бүтээлээрээ
бүтээлээс
бүтээлүүд
бүтээлүүдии
бүтээлүүдэд
бүтээлүүдээ
бүтээлүүдээр
бүтээлүүдээрээ
бүтээлүүдээс
бүтээмж
бүтээмжии
бүтээмжтэи
бүтээн
бүтээнэ
бүтээснии
бүтээснээр
бүтээсэн
бүтээх
бүтээхии
бүтээхэд
бүтээхээр
бүх
бүхии
бүхлээр
бүхлээрээ
бүхнии
бүхнээ
бүхнээс
бүхэл
бүхэлд
бүхэлдээ
бүхэн
бүхэнд
бүхүи
бүч
бүү
бүүвэи
бүүр
бүүрэг
бөгж
бөгжнии
бөглүү
бөгөөд
бөгөөс
бөлгөө
бөмбөг
бөмбөгдсөн
бөмбөгдөв
бөмбөгдөгч
бөмбөгдөж
бөмбөгдөлт
бөмбөгдөлтии
бөмбөгдөлтөд
бөмбөгдөлтөнд
бөмбөгдөх
бөмбөгии
бөмбөгнии
бөмбөгт
бөмбөгтэи
бөмбөгч
бөмбөгчин
бөмбөгөр
бөмбөгөө
бөмбөгөөр
бөмбөлгии
бөмбөлөг
бөмбөр
бөмбөрии
бөмбөрцгии
бөмбөрцөг
бөмбөрцөгии
бөмбөрцөгт
бөмбөрчин
бөртэ
бөс
бөх
бөхии
бөхмөрөн
бөхчүүд
бөхчүүдии
бөхчүүдэд
бөхчүүдээс
бөхөд
бөхөн
бөхөөр
бөхөөс
бөө
бөөгии
бөөгнөрсөн
бөөгнөрөл
бөөм
бөөмии
бөөмс
бөөмсии
бөөн
бөөнии
бөөнөөр
бөөнөөрөө
бөөр
бөөрнии
бөөрөнд
бөөрөнхии
бөөрөнцөг
бөөс
бөөснии
в
ва
ваар
вааран
вавилон
вавилони
вавилоны
вагнер
вагон
важпи
ваи
вакуум
вакцин
вакцины
вакциныг
вал
валдаан
валдаанд
валдааны
валенса
валенси
валенсиа
валентин
валентина
валентины
валентын
валерии
вальс
вальтер
валют
валютын
ван
ванг
вангаар
ванган
вангии
вангууд
вангуудын
ванд
вандан
ванданцэрэн
вандуи
вании
ванкувер
ванкуверын
ванлиг
ванлигии
вансэмбэрүү
вант
вантаи
вануату
ванчиг
ванчин
ваны
вань
ваньд
вар
варшав
варшавт
варшавын
василии
васильевич
васко
вассал
ватикан
ватиканы
ватсон
ватт
вацлав
вашингтон
вашингтонд
вашингтоны
веб
вебер
вебсаи
вегас
вегетатив
ведии
веи
вектор
векторын
вектра
вен
вена
венад
венгер
венера
венесуэл
венесуэлии
венец
венеции
вении
вер
вера
верде
вердер
верди
вермахтын
вермонт
вернер
верона
версалии
версон
вест
вестник
вестфален
вестфалены
ви
вива
вида
видео
виз
визант
византии
византын
вии
вики
википедиа
википедиагии
википедиад
викичид
виктор
викториа
викториагии
виктория
вила
вилгельм
вилл
вилла
виллагии
виллем
вилли
виллиам
вилсон
вилхелм
вильгельм
вильсон
вилья
вильям
вильярреал
виндоус
винница
винсент
винтов
винчи
виржини
виржиниа
виржинии
виртуал
виртуалчлал
виртуалчлалын
виртуаль
вирус
вирусии
вирусны
вирусууд
вирусыг
вирусын
висенте
висконсин
висла
виталии
витамин
виттенбергии
владивосток
владимир
владимирович
владимирцов
владимирын
владислав
внаар
внешнеи
вны
вныг
во
воеводина
вои
вокал
волга
волгоград
волеи
вологда
вольт
вольтер
вольф
вольфганг
вольфсбург
вон
вонь
вопросов
вопросы
воронеж
восток
вояжер
враи
вроцлав
вроцлавын
все
всероссии
всех
вт
втар
ву
вулверхэмптон
вучич
вч
вчии
вчилсан
вчлал
вчлалтаи
вчлан
выг
вын
выпуск
вьентьян
вьет
вьетии
вьетнам
вьетнамаар
вьетнамд
вьетнамчууд
вьетнамыг
вьетнамын
вэ
вэб
вэбсаи
вэи
вэл
вэльс
вэльсии
вэн
вэнди
вэнь
вэньди
вюртемберг
вюртембергии
вү
вүүдроу
г
га
гаа
гааг
гаагаа
гаагаар
гаагаараа
гаагаас
гаагии
гаагүи
гаад
гаалии
гааль
гаар
гаараа
гаас
гаасаа
гаатаи
гаач
габон
габриэль
гаваа
гавал
гавж
гавлын
гавшгаи
гавъяа
гавъяаг
гавъяаны
гавъяат
гавьяа
гавьяаг
гавьяаны
гавьяат
гавьяатаи
гавьяатан
гагарин
гагнуур
гагц
гагцхүү
гагүи
гад
гадаа
гадаад
гадаадаас
гадаадад
гадаадын
гадагш
гадагшаа
гадар
гадарга
гадаргаас
гадаргатаи
гадаргуу
гадаргууг
гадаргуугии
гадаргууд
гадаргуун
гадаргуутаи
гадаргын
гадас
гадил
гадна
гаднаас
гаднах
гадны
гаднын
гадуур
гадуураа
гадуурх
гадуурхах
гаж
гажиг
гажилт
газ
газан
газар
газаргүи
газардав
газардаж
газарджээ
газардсан
газарзүи
газарт
газартаа
газартаи
газпром
газраа
газраар
газраас
газраасаа
газрууд
газруудаар
газруудаас
газруудад
газруудтаи
газруудыг
газруудын
газрыг
газрын
газрынхаа
газын
гаи
гал
галаар
галаас
галав
галавын
галактик
галактикии
галатасараи
галбадрах
галд
галдан
галданг
галдангии
галданцэрэн
галереи
галзуу
гали
галиас
галиг
галии
галилеи
галилео
галлереи
галсан
галсанбат
галсангии
галсандаш
галсандашии
галт
галуу
галуут
галуутаи
галч
галшар
галыг
галын
галь
гальд
гальтаи
гама
гамала
гамби
гамин
гамлет
гамма
гамшгаас
гамшгии
гамшиг
гамшигт
ган
гана
ганбаатар
ганбаатарын
ганбат
ганбатын
ганбаяр
ганболд
ганболдын
ганг
ганга
ганган
гангии
гангууд
гангын
ганд
гандан
гандантэгчэнлин
ганди
гандии
ганжад
ганжуур
ганзориг
ганзоригии
ганнибал
гансүх
гантаи
гантиг
гантогтох
гантулга
гантөмөр
ганхуяг
ганхүү
ганц
ганцаар
ганцаараа
ганцаарчилсан
ганцоож
ганцхан
ганчимэг
ганы
ганын
гань
ганьсу
ганьсү
гао
гаозун
гар
гараа
гарааг
гараагаа
гараагүи
гараад
гараалж
гараалжээ
гараалсан
гараанаас
гараанд
гарааны
гараар
гараараа
гараас
гарав
гараг
гарагии
гарагт
гарал
гаралт
гаралтаи
гаралтанд
гаралтыг
гаралтын
гарам
гарамгаи
гаран
гарах
гарахаар
гарахаас
гарахад
гарахгүи
гарахдаа
гарахыг
гарахын
гарвал
гаргаагүи
гаргаад
гаргав
гаргагч
гаргадаг
гаргаж
гаргажээ
гаргалаа
гаргалгаа
гаргалгүи
гарган
гаргана
гаргасан
гаргаснаар
гаргасны
гаргасныг
гаргах
гаргахаа
гаргахаар
гаргахаас
гаргахад
гаргахгүи
гаргахдаа
гаргахыг
гаргахын
гаргии
гаргууд
гаргуулж
гардаг
гардаггүи
гардаж
гардан
гардсан
гардуулах
гардуулдаг
гардуулж
гардуулжээ
гардуулсан
гарж
гаржээ
гарз
гари
гариг
гаригии
гаригт
гарлаа
гарлаар
гарлыг
гарлын
гарна
гарнизоны
гарри
гарсаар
гарсан
гарсанаас
гарсангүи
гарсаны
гарсиа
гарснаар
гарснаас
гарсны
гарсныг
гарт
гартаа
гартал
гаруи
гарууд
гарц
гарцаагүи
гарцгүи
гарцтаи
гарцыг
гарцын
гарч
гарчгии
гарчиг
гарчигтаи
гарчээ
гарыг
гарын
гарьд
гата
гаталж
гаталсан
гатлагч
гатлан
гатлах
гахаи
гацаа
гацуур
гашуудал
гашуудлын
гашуун
гвардии
гватемал
гватемалын
гвиана
гвинеи
гг
гданьск
гддэг
гджээ
гдсэн
гдсэнии
гдэж
гдэнэ
гдэх
гдээгүи
ге
геи
гели
гелии
ген
генерал
генералууд
генералын
генератор
генераторыг
генераторын
генетик
генетикии
генетикч
гении
геннадии
геном
геномын
генри
генрих
гентэи
генуя
генүүд
генүүдии
геодези
геодезии
геологи
геологии
геологич
геометр
геометрии
геополитик
геополитикии
георг
георгиевич
георгии
геофизик
гепатит
гер
гербицид
герд
герм
герман
германаар
германаас
германд
германи
германии
германтаи
германчууд
германчуудыг
германчуудын
германы
германыг
герцог
ги
гибрид
гидравлик
гидравликии
гидроксид
гидрологи
гидрологии
гидростатикии
гизагии
гии
гилберт
гималаи
гимназид
гимназии
гимнастик
гимнастикии
гимнастикч
гинж
гинжии
гинжин
гинжит
гинжнии
гинжтэи
гиннесии
гиоро
гипер
гипотензи
гирин
гитар
гитараар
гитарчин
гитарыг
гитарын
гитлер
гитлерии
гич
гичгэнии
гичгэнэ
гиш
гишүүд
гишүүдии
гишүүдтэи
гишүүдэд
гишүүдээ
гишүүдээс
гишүүн
гишүүнд
гишүүнии
гишүүнт
гишүүнтии
гишүүнтэи
гишүүнчлэл
гишүүнээр
гишүүнээс
глазго
гластонбури
глен
гленн
глинка
глицин
глицинии
глобал
глутамат
глэг
глюкоз
гмии
гмина
гминагаар
гмээс
го
говии
говиос
говь
говьд
говьсүмбэр
гог
гогии
гогцоо
год
года
гое
гои
гол
голд
голден
голдоо
голдуу
голио
голланд
голландын
голлодог
голлож
голлон
голлосон
голлох
голль
гологдсон
голомт
голомтыг
голоор
голоос
голтои
голууд
голуудын
голцуу
голч
голчлон
голчтои
голыг
голын
гольф
гольфчин
гольфын
гомбо
гомбодорж
гомбодоржии
гомбожав
гомбожавын
гомбосүрэн
гомбосүрэнгии
гомбын
гомдол
гоминдан
гоминданы
гон
гонгор
гонгорын
гонзгои
гончиг
гончигдамба
гончигдорж
гончигии
гончигсумлаа
гончигтавхаи
гоньд
гоо
гоол
гоолджээ
гоолдов
гоолдож
гоолдон
гоолдсон
гоолоо
гоолоор
гоолууд
гоолыг
гоолын
гоор
гоороо
гоос
гор
горбаче
горбачев
гордон
горим
горимд
горимтои
горимыг
горимын
горлос
гормон
горно
город
городов
городских
горхи
горхитои
горькии
готов
готовын
гоц
гоцлол
гоцлолыг
гоцлолын
гоцлон
гоцолж
гочоо
гр
гравитации
градус
градусын
грам
грамм
гран
гранада
гранд
гранде
грант
граф
график
графикии
графын
грег
грегори
греи
грек
грекии
грект
грекчүүд
грекын
грекээр
греммии
гренада
гренланд
гренландын
григории
гриззлис
грии
грин
гриффин
гриффит
грозныи
гронинген
групп
группии
группын
грэи
грэмми
грэммии
гсан
гт
гтэи
гу
гуа
гуаи
гуам
гуан
гуандун
гуанжоу
гуанз
гуанши
гуардиола
гувалгия
гувчуур
гудамж
гудамжаар
гудамжии
гудамжинд
гудамжны
гуи
гулаг
гулгагч
гулгагчид
гулгаж
гулгалт
гулгалтын
гулгах
гулд
гумиле
гумус
гун
гунгаа
гуниг
гунигт
гунигтаи
гуо
гур
гурав
гуравдагч
гуравдахь
гуравдугаар
гуравдугаарт
гуравны
гуравт
гуравхан
гурваас
гурвал
гурвалжин
гурвалжны
гурвалсан
гурван
гурванбулаг
гурванзагал
гурвансаи
гурвантаа
гурвантэс
гурвыг
гурвын
гургалдаи
гурил
гурилан
гурилын
гурион
гурууд
гурын
густав
густаф
гутаан
гутал
гутгаар
гутлын
гуу
гуул
гуулаад
гуулав
гуулага
гуулагад
гуулагдаагүи
гуулагдаад
гуулагдав
гуулагдаж
гуулагдан
гуулагдах
гуулагдахад
гуулагддаг
гуулагджээ
гуулагдлаа
гуулагдсан
гуулагдсанаар
гуулагдсанаас
гуулагдсанаасаа
гуулагдсаны
гуулагдсаныг
гуулагч
гуулагчдын
гуулагчид
гуулагчии
гуулал
гуулалт
гуулалтаар
гуулалтад
гуулалтанд
гуулалттаи
гуулалтыг
гуулалтын
гуулалцаж
гуулалцсан
гууламж
гууламжаар
гууламжаас
гууламжид
гууламжии
гууламжтаи
гууламжууд
гууламжуудыг
гуулан
гуулах
гуулахаар
гуулахаас
гуулахад
гуулахдаа
гуулахыг
гуулахын
гуулдаг
гуулж
гуулжээ
гуулин
гууллаа
гууллага
гууллагаар
гууллагаас
гууллагад
гууллагатаи
гууллагууд
гууллагуудаас
гууллагуудад
гууллагуудтаи
гууллагуудыг
гууллагуудын
гууллагыг
гууллагын
гууллын
гуулна
гуулсан
гуулсаны
гуулснаар
гуулснаас
гуулсны
гуулсныг
гуулын
гуур
гуураа
гуч
гучаад
гучин
гуччи
гуя
гхэ
гхя
гц
гч
гчид
гшил
гын
гэ
гэв
гэвч
гэвэл
гэг
гэгддэг
гэгдсэн
гэгдэж
гэгдэн
гэгдэнэ
гэгдэх
гэгч
гэгчии
гэгчээр
гэгээ
гэгээн
гэгээнии
гэгээнтнии
гэгээнтнүүдии
гэгээнтэн
гэгээрлии
гэгээрэл
гэгээрүүлэгч
гэгээрүүлэх
гэдгии
гэдгээ
гэдгээр
гэдгээрээ
гэдгээс
гэдрэг
гэдсэнд
гэдэг
гэдэгт
гэдэгтэи
гэдэс
гэдэснии
гэж
гэжээ
гэзэг
гэи
гэлтгүи
гэлтэи
гэлцдэг
гэлэг
гэлэгжамцын
гэлэн
гэлээ
гэм
гэмгүи
гэмд
гэмлэг
гэмлэгии
гэмлэгт
гэмлэгээс
гэмт
гэмтжээ
гэмтлии
гэмтлээс
гэмтсэн
гэмтэж
гэмтэл
гэмтэлтэи
гэмтэх
гэмтээж
гэмтээх
гэмээр
гэндэн
гэндэнг
гэндэнгии
гэнэ
гэнэдүүлэн
гэнэн
гэнэт
гэнэтии
гэр
гэргии
гэргүи
гэри
гэрии
гэрлии
гэрлэв
гэрлэж
гэрлэжээ
гэрлэлт
гэрлэлтии
гэрлэн
гэрлэсэн
гэрлэх
гэрлэхии
гэрлээд
гэрлээр
гэрлээс
гэрсэнз
гэрт
гэртэи
гэртээ
гэрч
гэрчилгээ
гэрчилгээг
гэрчилдэг
гэрчилнэ
гэрчлэх
гэршүүлсэн
гэрэгэ
гэрэл
гэрэлбадрах
гэрэлд
гэрэлсэн
гэрэлт
гэрэлтэи
гэрэлтэлт
гэрэлтэх
гэрэлтүүлгии
гэрэлтүүлэг
гэрээ
гэрээг
гэрээгээ
гэрээгээр
гэрээлж
гэрээлжээ
гэрээлсэн
гэрээлэв
гэрээнд
гэрээнии
гэрээнээс
гэрээр
гэрээс
гэрээсээ
гэрээт
гэрээтэи
гэснии
гэснээс
гэсэн
гэсэнтэи
гэсэр
гэсэрии
гэтэл
гэх
гэхдээ
гэхии
гэхчилэн
гэхчлэн
гэхэд
гэхээр
гэхээс
гэхээсээ
гээ
гээгдэх
гээгүи
гээд
гээж
гээр
гээрээ
гээс
гээч
гялалзаж
гялалзсан
гялгар
гянт
гярхаи
гяя
гү
гүвдрүү
гүвээ
гүдгэр
гүдгэрии
гүдэн
гүехэн
гүзээлзгэнэ
гүи
гүн
гүнгии
гүнд
гүндэгмаа
гүнж
гүнжии
гүнжтэи
гүнзгии
гүнии
гүнлигээр
гүнт
гүнтэи
гүнээс
гүо
гүр
гүрбазар
гүрвэл
гүрвэлии
гүрвэлүүд
гүре
гүрж
гүржав
гүржид
гүржии
гүржүүд
гүрнии
гүрнээ
гүрнээс
гүрнүүд
гүрнүүдии
гүррагчаа
гүрсэд
гүрэн
гүрэнд
гүрэнтэи
гүрүн
гүш
гүюг
гүюгии
гүү
гүүлэгч
гүүлэгчии
гүүлэгчээр
гүүнии
гүүр
гүүрии
гүүрнии
гүүрэн
гүүрээр
гүүш
гүүшии
гө
гөлгөр
гөлтгөнии
гөлтгөнө
гөлтгөнөн
гөлөг
гөрөө
гөрөөс
гөттингении
гөө
гөөр
гөөс
д
да
даа
даавар
дааврын
даавуу
даавуун
даавууны
даага
дааж
даалгавар
даалгаварыг
даалгавраар
даалгаврыг
даалгажээ
даалгасан
даалгүи
даамал
даамчин
даамын
даан
даанч
даар
даас
даасан
даатгал
даатгалын
даах
даацтаи
даацын
дабл
даблаа
дабль
дав
даваа
давааг
даваагии
даваад
даваадорж
даваадоржии
даваажав
даваажавын
даваажаргал
даваан
даваанаас
даваанд
давааны
давааням
даваасамбуу
даваасүрэн
даваач
давалгаа
давамгаи
даван
давах
давж
давжээ
давид
давирхаи
давс
давсан
давсархаг
давсжилт
давсны
давст
давстаи
давсууд
давсыг
давтагдах
давтагдашгүи
давтаж
давталт
давтамж
давтамжаар
давтамжии
давтамжтаи
давтан
давтах
давтсан
давуу
давуулан
давуулж
давхар
давхарга
давхаргад
давхаргат
давхаргыг
давхаргын
давхардсан
давхарлаж
давхарлан
давхарт
давхиж
давхраа
давхрага
давхрагын
давхрын
давхцаж
давхцах
давшиж
давшилт
давшилтаа
давшилтад
давшилтанд
давшилтыг
давшилтын
давшин
давших
давшсан
давын
даг
дагаад
дагаар
дагавар
дагавартаи
дагаврыг
дагаврын
дагагч
дагадаг
дагаж
дагалдагч
дагалдаж
дагалдан
дагалдах
дагалдуулан
дагалт
даган
дагана
дагасан
дагах
дагва
дагвадорж
дагвадоржии
дагвын
даггүи
дагестан
дагзны
дагии
дагина
дагнан
дагнасан
дагт
дагтаи
дагуу
дагууд
дагуул
дагуулаас
дагуулагч
дагуулал
дагуулалт
дагуулан
дагуулах
дагуулдаг
дагуулж
дагуулжээ
дагууллын
дагуулсан
дагуулууд
дагуулыг
дагуулын
дагуур
дагуурын
дагуух
дагч
дагшин
дад
дадал
дадлага
дадлагын
даж
дажин
даи
дакота
дал
далавч
далавчаа
далавчгүи
далавчит
далавчны
далавчтаи
далавчтан
далавчтаны
далаи
далан
даланг
далангаас
далангии
далангууд
далангуудыг
далангуудын
даланд
даланжаргалан
даланзадгад
далантаи
далбаа
далбааг
далбаан
далбааны
далбаат
далд
далдаа
далдлах
далдуур
дали
далимдуулан
даллас
далтаи
далыг
далын
даль
дам
даманскии
даманы
дамаск
дамба
дамбадорж
дамбии
дамбын
дамдин
дамдинбазар
дамдингии
дамдиндорж
дамдинжав
дамдинсүрэн
дамдинсүрэнг
дамдинсүрэнгии
дамдины
дамжаанд
дамждаг
дамжиггүи
дамжиж
дамжин
дамжина
дамжих
дамжлага
дамжсан
дамжуулагддаг
дамжуулагч
дамжуулагчии
дамжуулал
дамжуулалт
дамжуулалтаар
дамжуулалтыг
дамжуулалтын
дамжуулан
дамжуулах
дамжуулахад
дамжуулахдаа
дамжуулахыг
дамжуулахын
дамжуулдаг
дамжуулдаггүи
дамжуулж
дамжуулжээ
дамжууллын
дамжуулна
дамжуулсан
дамнан
дамнасан
дампуурсан
дамчаа
дамын
дан
дангаар
дангаараа
дангии
дандаа
дандар
данди
данзан
данзангии
данзанравжаа
данзанравжаагии
дани
даниел
дании
даничууд
даниэл
даниэль
данкан
данс
дансанд
дансны
данте
даншиг
даншигт
дань
дао
дар
дара
дараа
дараагаар
дараагаас
дараагии
дараагын
дараад
дараалал
дараалалд
дараалалтаи
дараалан
дараалж
дарааллаар
дарааллан
дараалласан
дарааллыг
дарааллын
дараалсан
дараатаи
дараах
дараахан
дараахи
дараахь
дараачии
дарав
дарагдаж
дарагдан
дарагджээ
дарагдсан
дарагдсаны
дараи
даралт
даралтад
даралтанд
даралтат
даралттаи
даралтыг
даралтын
дарамт
даран
дарангуи
дарах
дарахаар
дарахад
дарахын
дарви
дарвии
дарвин
дарвуулт
дарга
даргаар
даргаас
даргад
даргатаи
даргач
даргыг
даргын
дардаг
дарж
даржаа
даржаагии
даржээ
дари
дарии
дарлал
дарлалаас
дармштадт
дарна
дарс
дарсан
дарсны
дарсыг
дартсын
даруи
даруу
даруухан
дарх
дархад
дархадын
дархан
дарханбат
дарханы
дархлаа
дархлааг
дархлааны
дархлалын
дархны
дарцаг
дарын
дарь
дарьганга
дарьгангын
дарьсүрэн
дарья
дас
дасан
дасгал
дасгалжуулагч
дасгалжуулагчаар
дасгалжуулагчдын
дасгалжуулагчид
дасгалжуулагчии
дасгалжуулж
дастин
дата
датаком
датун
дауны
дах
дахиа
дахиад
дахиж
дахилт
дахин
дахинаа
дахинд
дахины
дахиныг
дахомеи
дахь
дацан
дацанг
дацангии
дацанд
даш
дашбалбар
дашдаваа
дашдондог
дашдооров
дашдорж
дашдоржии
дашжамц
дашзэвэг
дашзэвэгии
дашии
дашинчилэн
дашням
дашнямын
дашрамд
дашт
дашцэрэн
дашчои
даяанч
даяар
даяараа
даяарх
даяарчлал
даяарчлалын
даян
двар
дваргүи
двартаи
двэр
двэрии
двэрлэдэг
двэрлэж
двэрлэжээ
двэрлэнэ
двэрлэсэн
двэрлэх
двэрлэхии
двэрлэхэд
двэрт
двэртэи
двэрээ
двэрээр
двэрүүдии
дгаараа
дгаас
дгии
ддэг
де
дебют
дебютээ
девид
деи
декан
дел
дели
делии
дель
дельта
демократ
демокрит
ден
денвер
деникин
денис
деннис
департамент
департаментаар
департаментын
депортиво
депутат
депутатаар
депутатуудын
дер
дерби
дерон
деррик
десантын
детрои
дефаулт
дж
джээ
ди
диаграм
диаграмм
диаз
диаметр
диаметртэи
диана
диаспора
диваажин
диваажингии
дивиз
дивизии
дивизион
дивизионд
дивизионы
дивизэд
дивизүүд
дидье
диего
дижитал
дизаи
дизель
дии
дик
дилав
дилов
дин
динамик
динамикаар
динамикии
динамо
динар
династи
династии
динии
дины
диод
диор
диплом
дипломат
дипломатч
дипломатын
дипломын
дирк
диск
дискии
дискнии
дискрет
дискэн
дискэнд
диснеи
диспетчер
диу
дифференциал
длаа
длаар
длаараа
длаас
длага
длии
длыг
длын
длээ
длээр
для
длүүд
длүүдии
дм
дмитрии
дн
днб
днепр
днепропетровск
днестр
днх
днэ
до
добун
дов
довтлов
довтлогч
довтлогчии
довтлогчоор
довтлон
довтлох
довтлоход
довтлохоор
довтолгон
довтолгоо
довтолгоог
довтолгоон
довтолгоонд
довтолгооноо
довтолгооноос
довтолгооны
довтолгооныг
довтолж
довтолжээ
довтолсноор
довтолсон
довчингии
довын
дог
догии
договар
догол
доголдол
доголон
догсом
догсомын
догшин
дод
дое
дои
док
доктор
докторант
докторын
документ
дол
долгион
долгионоор
долгионы
долгионыг
долгор
долгорсүрэн
долгорсүрэнгии
долгорын
долдугаар
доллар
доллараар
доллараас
доллароор
долларт
доллартаи
долларыг
долларын
доломит
долон
долоо
долоогии
долоогоос
долоодугаар
долоон
долчин
дом
домаи
домгии
домгоор
домгоос
доминго
доминик
доминика
доминикан
доминиканы
домог
домогт
домогтои
домэи
дон
дональд
донго
дондог
дондогии
донецк
донои
донор
доны
донын
доо
доогуур
доод
доор
доороо
доороос
доорх
доорхи
доос
доош
доошгүи
доошоо
доошхи
дор
дора
дорвитои
дорго
доргон
доргоны
дорд
дорж
доржготовын
дорждагва
дорждагвын
доржии
доржнамжил
доржпалам
доржпаламын
доржсүрэн
доржсүрэнгии
дорно
дорноговии
дорноговь
дорнод
дорнодод
дорнодын
дорнын
дорои
доромжилж
доромжилсон
дороо
дороос
дороти
дортмунд
дортмундын
дос
достоевскии
дотно
дотны
дотогш
дотогшоо
дотоод
дотооддоо
дотоодод
дотоодыг
дотоодын
дотор
доторх
доторхи
дотроо
дотроос
дотроосоо
дотрын
дотуур
доу
дох
дохио
дохиог
дохиогоор
дохиоллын
дохиолол
дохионы
доцент
др
драи
драм
драма
драманд
драмын
драфтаар
драфтад
драфтууд
драфтын
дресден
дрих
дс
дсэн
дтаи
дтои
дтэи
ду
дуаи
дуань
дубаи
дублин
дува
дугаар
дугаараа
дугаараар
дугаарт
дугаартаи
дугаарыг
дугаарын
дуган
дугана
дуганд
дугантаи
дуганы
дуганыг
дугар
дугаржав
дугариг
дугарын
дугии
дуглас
дугтуи
дугуи
дуд
дудаев
дуи
дук
дулаан
дулаанд
дулааны
дулааныг
дулаарал
дулаарлын
дулам
дуламжавын
дуламсүрэн
дулдуи
дулмаа
дум
думын
дун
дунаи
дунган
дунд
дундаа
дундаас
дундад
дундаж
дундажаар
дундах
дундговии
дундговь
дунджаар
дунджаас
дунджилан
дунджилж
дунджилсан
дундуур
дундуураа
дундын
дунху
дур
дураар
дураараа
дурал
дуран
дургуи
дургүи
дурдагддаг
дурдагдсан
дурдаж
дурдан
дурдатгал
дурдах
дурдахад
дурдвал
дурддаг
дурджээ
дурдсан
дурдсанаар
дурлаж
дурлал
дурлалт
дурлалын
дурласан
дурсаж
дурсамж
дурсамжаас
дурсамжии
дурсан
дурсах
дурсахдаа
дурсгал
дурсгалд
дурсгалт
дурсгалууд
дурсгалуудыг
дурсгалыг
дурсгалын
дурссан
дуртаи
дурын
дурынхан
дурьдагдсан
дурьдаж
дурьдвал
дурьджээ
дурьдсан
дусал
дуслын
дутагдаж
дутагдал
дутагдалд
дутагдалтаи
дутагдлаас
дутагдлыг
дутагдлын
дутахгүи
дутмаг
дутуу
дуу
дууг
дуугаа
дуугаар
дуугаараа
дуугүи
дууд
дуудагдаж
дуудагдан
дуудагддаг
дуудагдсан
дуудаж
дуудан
дуудах
дуудахад
дууддаг
дуудлага
дуудлагаар
дуудлагыг
дуудлагын
дуудна
дуудсан
дуудын
дуулаад
дуулаачдын
дуулаачии
дуулал
дуулалт
дуулан
дуулах
дуулга
дуулгавартаи
дуулгын
дуулдаг
дуулж
дуулжээ
дуулиан
дуулиантаи
дууллыг
дууллын
дуулсан
дуулснаар
дуулъя
дууль
дуун
дуунаас
дуунд
дуунууд
дуунуудаа
дуунуудаас
дуунуудыг
дуунуудын
дууны
дууныхаа
дуураи
дуурии
дуурь
дуусаагүи
дуусаад
дуусав
дуусаж
дуусах
дуусахаар
дуусахаас
дуусахад
дуусгаад
дуусгав
дуусгавар
дуусгаж
дуусгажээ
дуусган
дуусгасан
дуусгах
дуусдаг
дуусмагц
дуусна
дууссан
дууссанаас
дууссаны
дуустал
дуусч
дуусчээ
дуут
дуутаи
дууч
дуучдын
дуучид
дуучин
дуучнаар
дуучны
дух
духны
дуэи
дхб
дхг
дыг
дын
дэ
дэбют
дэбютээ
дэбютээс
дэбүт
дэбүтээ
дэбүтээс
дэв
дэвжээ
дэвжээнд
дэвжээнии
дэвид
дэвис
дэвисии
дэвсгэр
дэвсгэрии
дэвсгэрт
дэвсгэртии
дэвсгэртэи
дэвсгэрээ
дэвсгэрээр
дэвсгэрээс
дэвтрии
дэвтэр
дэвтэрт
дэвшжээ
дэвшигч
дэвшигчии
дэвшиж
дэвшил
дэвшилд
дэвшилт
дэвшилтэд
дэвшилтэт
дэвшин
дэвших
дэвшлии
дэвшсэн
дэвшүүлж
дэвшүүлжээ
дэвшүүлсэн
дэвшүүлэв
дэвшүүлэн
дэвшүүлэх
дэг
дэггүи
дэгд
дэгджээ
дэгдсэн
дэгдэв
дэгдэж
дэгдэх
дэгдээв
дэгдээгүи
дэгдээж
дэгдээсэн
дэгдээхэи
дэгии
дэглии
дэглэлт
дэглэм
дэглэмд
дэглэмии
дэглэмтэи
дэглэсэн
дэглээч
дэгээ
дэд
дэж
дэжид
дэи
дэл
дэлбэг
дэлбэлж
дэлбэрч
дэлбэрэлт
дэлбэрэлтии
дэлгэж
дэлгэмэл
дэлгэн
дэлгэр
дэлгэрии
дэлгэрсаи
дэлгэрсэн
дэлгэрхаан
дэлгэрхангаи
дэлгэрцогт
дэлгэрч
дэлгэрчээ
дэлгэрэн
дэлгэрэнгүи
дэлгэрэх
дэлгэрүүлж
дэлгэрүүлсэн
дэлгэрүүлэгч
дэлгэрүүлэн
дэлгэрүүлэх
дэлгэсэн
дэлгэхэд
дэлгэц
дэлгэции
дэлгэцнээ
дэлгэцтэи
дэлгэцэн
дэлгэцэнд
дэлгэцээр
дэлгүүр
дэлгүүрии
дэлгүүрт
дэлгүүрүүд
дэлд
дэлдэн
дэлии
дэлтэи
дэлхии
дэлэг
дэлүүн
дэм
дэмб
дэмбэрэл
дэмбэрэлии
дэмгии
дэмждэг
дэмждэггүи
дэмжигдсэн
дэмжигч
дэмжигчдии
дэмжигчид
дэмжиж
дэмжин
дэмжинэ
дэмжих
дэмжихгүи
дэмжихии
дэмжихэд
дэмжихээр
дэмжлэг
дэмжлэггүи
дэмжлэгии
дэмжлэгтэи
дэмжлэгээр
дэмжсэн
дэмжээгүи
дэмид
дэмии
дэмээр
дэн
дэндэв
дэндэвии
дэндүү
дэнж
дэнжид
дэнзэн
дэниел
дэнни
дэр
дэргэд
дэргэдэх
дэргэдээ
дэрс
дэрсэн
дэрэн
дэс
дэсии
дэслэгч
дэх
дэхии
дэхь
дэхэд
дээ
дээврии
дээвэр
дээвэртэи
дээгүүр
дээгүүрт
дээгүүрх
дээгүүрээ
дээд
дээдии
дээдлэн
дээдлэх
дээдсии
дээдэлж
дээдэлсэн
дээдэс
дээж
дээжии
дээл
дээлии
дээлтэи
дээр
дээрмии
дээрх
дээрхи
дээрхии
дээрхээс
дээрэлхэлт
дээрэм
дээрэмдсэн
дээрэмдэж
дээрэмдэн
дээрэмдэх
дээрэмчдии
дээрэмчид
дээрэмчидтэи
дээрэмчин
дээрэмчнии
дээрэнгүи
дээрээ
дээрээс
дээрээсээ
дээс
дээш
дээшилж
дээшилсэн
дээшлүүлж
дээшлүүлсэн
дээшлүүлэх
дээшлүүлэхэд
дээшээ
дюма
дюрант
дюссельдорф
дяя
дүвчин
дүгнэдэг
дүгнэж
дүгнэжээ
дүгнэлт
дүгнэлтии
дүгнэлтэд
дүгнэлтэнд
дүгнэн
дүгнэсэн
дүгнэх
дүгэр
дүгэрии
дүгэрсүрэн
дүгээр
дүи
дүлии
дүн
дүнг
дүнгии
дүнгээ
дүнгээр
дүнгээс
дүнгүи
дүнгүүд
дүнд
дүндээ
дүнжингарав
дүнтэи
дүр
дүрвэгсдии
дүрвэгч
дүрвэж
дүрвэжээ
дүрвэн
дүрвэсэн
дүрд
дүрии
дүрмии
дүрмээр
дүрмүүд
дүрмүүдии
дүрс
дүрсии
дүрслэгддэг
дүрслэгдсэн
дүрслэл
дүрслэлии
дүрслэн
дүрслэх
дүрснии
дүрст
дүрстэи
дүрсэлдэг
дүрсэлж
дүрсэлжээ
дүрсэлсэн
дүрсээ
дүрсүүд
дүрсүүдии
дүртэи
дүрэм
дүрэмд
дүрэмт
дүрэмтэи
дүрээ
дүрээр
дүрээрээ
дүрүүд
дүрүүдии
дүрүүдэд
дүү
дүүг
дүүгии
дүүгээ
дүүгүүр
дүүд
дүүдии
дүүжин
дүүргии
дүүргэж
дүүргэжээ
дүүргэлттэи
дүүргэсэн
дүүргэх
дүүргээд
дүүргээр
дүүргээс
дүүргүүд
дүүргүүдии
дүүрсэн
дүүрэг
дүүрэггүи
дүүрэгт
дүүрэгтэи
дүүрэгч
дүүрэн
дүүс
дүүсии
дүүтэи
дө
дөл
дөлгөөн
дөн
дөнгөж
дөрвии
дөрвөд
дөрвөдии
дөрвөдүүд
дөрвөл
дөрвөлжин
дөрвөн
дөргэнэ
дөргөн
дөргөнии
дөрөв
дөрөвдүгээр
дөрөвдүгээрт
дөрөвдөгч
дөрөвдөгчии
дөрөвнии
дөрөвт
дөрөвхөн
дөрөө
дөт
дөтгөөр
дөхсөн
дөхүүлэх
дөхөж
дөхөм
дөч
дөчин
дөө
е
еашт
ебс
ева
евгении
евклидии
еврази
евразии
евреи
евро
евровижн
еврогии
еврогоор
европ
европа
европд
европии
европод
европоор
европоос
европт
европчууд
европчуудын
европыг
европын
евфрат
египет
египетии
египетэд
египтии
его
егүзэр
егүзэрии
егүүтгэсэн
егүүтгэх
ед
еи
еии
екатерина
екатеринбург
елена
елизавета
елии
ельцин
ельцинии
елюи
ембүү
емен
емении
ен
енбд
енисеи
еноорд
ер
ердии
ердөө
ерии
еркебулан
ерн
ерны
ертөнц
ертөнции
ертөнцтэи
ертөнцөд
ертөнцөөс
ерхөг
ерөнхии
ерөө
ерөөл
ерөөлт
ерөөс
ерөөсөө
ес
есдүгээр
есии
есүс
есүсии
есүхэи
есөн
есөнзүи
есөнтөмөр
есөөс
ех
ехбх
ехэнара
еэ
ж
жа
жаа
жааз
жаал
жаалхүү
жаахан
жаббар
жав
жава
жавагии
жавзандамба
жавхлан
жавхлант
жавын
жаге
жагсаав
жагсаавал
жагсаал
жагсаалд
жагсаалт
жагсаалтаар
жагсаалтаас
жагсаалтад
жагсаалтанд
жагсаалтыг
жагсаалтын
жагсаалыг
жагсаалын
жагсаан
жагсаасан
жагсагчид
жагсаж
жагсдаг
жагссан
жагсчээ
жад
жадамба
жадамбаа
жаз
жазз
жаи
жак
жакарта
жалаи
жалал
жалга
жалханз
жам
жамба
жамбал
жамбалдорж
жамбын
жамсран
жамсрангии
жамсранжав
жамуха
жамц
жамцын
жамъян
жамъянгии
жамьян
жан
жангар
жанд
жанеи
жанждын
жанжид
жанжин
жанжинд
жанжины
жанжнаар
жанжны
жанжныг
жанна
жанр
жанраар
жанраи
жанрын
жанцан
жанцангии
жанцанноров
жанч
жанчив
жанчивдорж
жанчивын
жанчууд
жанчхүүгии
жаны
жао
жараахаи
жаран
жарантаи
жаргал
жаргалан
жаргалант
жаргалантын
жаргалбаяр
жаргалсаи
жаргалтаи
жаргалыг
жаргалын
жаргах
жарны
жарууд
жас
жасраи
жастин
жасын
жахан
жаяг
же
жеан
жеи
жек
жексон
желал
жендэрии
женев
женевии
женерал
женнифер
женоа
женова
жеральд
жерард
жереми
жермеи
жермен
жерри
жерси
жессика
жефф
жефферсон
жеффри
жи
жибзундамба
жибути
живж
живсэн
жигд
жигжид
жигжидии
жигжидсүрэн
жигии
жигнэмэг
жигнэсэн
жигтэи
жигүүр
жигүүрии
жигүүрт
жигүүртэн
жид
жиж
жижгэвтэр
жижи
жижиг
жижиглэн
жижиглэнгии
жижигхэн
жии
жил
жилд
жилдээ
жилии
жилсүрэн
жилтэи
жилын
жилээ
жилээр
жилээс
жилүүд
жилүүддээ
жилүүдии
жилүүдэд
жим
жимми
жимс
жимсгэнэ
жимсии
жимснии
жин
жинг
жингии
жингээр
жинд
жинон
жинст
жинтэи
жинхэнэ
жинь
жиньпин
жиованни
жирии
жиримии
жирсан
жирх
жирч
жирэмсэн
жич
жишгии
жишгээр
жишиг
жишигт
жишээ
жишээг
жишээгээр
жишээлбэл
жишээн
жишээнд
жишээнүүд
жишээтэи
жм
жо
жоан
жоанна
жобс
жованни
жозеф
жои
жолоо
жолоодлого
жолоодлогын
жолоодож
жолоодох
жолооны
жолооч
жолоочии
жолоочоор
жон
жонатан
жонес
жонни
жонон
жононгии
жонс
жонсон
жонстон
жонхе
жонш
жоншны
жоом
жор
жордан
жорданы
жорж
жоржиа
жоржии
жороо
жоу
жош
жрах
жруулалт
жруулан
жруулах
жруулахад
жруулахын
жруулдаг
жруулж
жруулна
жруулсан
жтаи
жу
жуан
жудец
жужан
жужаны
жуз
жузеппе
жуи
жуков
жуковын
жулиа
жулиус
жульетта
жун
жур
журам
журамд
журамт
журамтаи
журамын
журмаар
журмыг
журмын
журнал
жуулчдад
жуулчдыг
жуулчдын
жуулчид
жуулчин
жуулчлал
жуулчлалыг
жуулчлалын
жуулчны
жуух
жын
жэ
жэи
жэки
жэксон
жэксоны
жэн
жэнии
жэнь
жэньфу
жэхе
жээ
жюль
жюнь
жянь
жяньбэи
жү
жүд
жүдо
жүдогии
жүдоч
жүдочин
жүжгии
жүжгээр
жүжгүүд
жүжиг
жүжиглэлт
жүжиглэлтии
жүжиглэх
жүжигт
жүжигчдии
жүжигчид
жүжигчин
жүжигчинии
жүжигчнии
жүжигчнээр
жүн
жүрж
жүүд
жүүлсэн
жүүлэх
жүүре
жөн
жөү
з
за
заа
заавал
заавар
зааварлагч
зааварчилгаа
заавраар
зааврыг
зааврын
зааг
заагаагүи
заагдсан
заагии
зааглан
заагт
заагч
заагчии
заадаг
заадас
зааж
заажээ
заал
заалгаж
заалган
заалгасан
заалдах
заалт
заалтууд
заалтыг
заалтын
заамар
заан
заана
заанууд
заануудын
зааны
заасан
зааснаар
зааснаас
заасны
заах
заахад
заахын
зав
завгүи
завдав
завдсан
завиар
завины
завод
завсар
завсарлага
завсарласан
завсарт
завсраар
завсрын
завхан
завханмандал
завханы
завханыхан
завшаан
завь
завьчин
заг
загалмаи
загас
загасаар
загаснууд
загасны
загастаи
загасыг
загвар
загвараа
загвараар
загвараас
загварт
загвартаа
загвартаи
загварууд
загваруудыг
загваруудын
загварчилсан
загварчлал
загварчлалыг
загварчлалын
загварчлах
загварыг
загварын
загии
загреб
зад
задалдаг
задалж
задардаг
задарна
задарсан
задарсны
задарч
задгаи
задлан
задлах
задрал
задралаар
задралд
задралын
задран
задрах
задрахад
заи
заксены
залаа
залаат
залан
заларсан
заларч
заларчээ
залах
залбирал
залгаа
залгаас
залгавар
залгадаг
залгаж
залгажээ
залгамж
залгамжилж
залгамжилжээ
залгамжилсан
залгамжлав
залгамжлагч
залгамжлагчаар
залгамжлагчид
залгамжлалын
залгамжлан
залгамжлах
залган
залгана
залгасан
залгах
залгахад
залгахдаа
залгуулж
залж
залжээ
залруулах
залсан
залуу
залуугии
залуудаа
залуус
залууст
залуусыг
залуусын
залуутаи
залуухан
залуучууд
залуучуудад
залуучуудыг
залуучуудын
залхаан
залхуу
заль
зальхаи
зальцбург
зам
замаа
замаар
замаас
замаг
замбараагүи
замби
замгүи
замд
замдаа
замнал
замналаа
замналын
замналынхаа
замтаи
замууд
замуудыг
замчлагч
замчлал
замчлалыг
замчлалын
замыг
замын
зан
зана
занабазар
занабазарыг
занабазарын
занал
заналт
заналхии
заналыг
занар
занги
зангиа
зангии
зангилаа
зангилааг
зангилаанаас
зангилаанд
зангилаанууд
зангилааны
зангилаатаи
зандан
занданбат
занданшатар
зантаи
заншил
заншилтаи
заншлыг
заншлын
заншсан
зар
зараа
зарагдаж
зарагдсан
зарах
зарга
заргач
зардаг
зардал
зардалд
зардалтаи
зардлаа
зардлаар
зардлыг
зардлын
зарж
заржээ
зарилгаар
зарим
заримаас
заримдаа
заримдаг
заримыг
зарлаагүи
зарлаад
зарлав
зарлага
зарлагдсан
зарлагыг
зарлагын
зарлаж
зарлажээ
зарлал
зарлалаа
зарлан
зарласан
зарласнаар
зарласны
зарлах
зарлахад
зарлиг
зарлигаар
зарлигии
зарлигт
зарсан
зартаи
зарц
зарцуулалт
зарцуулах
зарцуулга
зарцуулдаг
зарцуулж
зарцуулжээ
зарцуулсан
зарчим
зарчимд
зарчимтаи
зарчмаар
зарчмууд
зарчмуудыг
зарчмуудын
зарчмыг
зарчмын
засаг
засаглал
засаглалд
засаглалтаи
засаглалыг
засаглалын
засаглах
засагт
засагтаи
засагч
засагчид
засагчии
засаж
засал
засалч
засан
засах
засвар
засварлагч
засварлаж
засварлалт
засварласан
засварлах
засварт
засварчин
засварыг
засварын
засгаа
засгаас
засгии
засдаг
заслын
засмал
засна
зассан
заставын
засуул
засч
заубер
зах
захаар
захаараа
захаас
захад
захиа
захиаг
захиалагч
захиалагчии
захиалан
захиалах
захиалга
захиалгаар
захиалгат
захиалгын
захиалж
захиалсан
захидал
захидалд
захидалдаа
захидлууд
захидлыг
захидлын
захирагдаж
захирагдан
захирагдах
захирагдахгүи
захирагддаг
захирагдсан
захирагч
захирагчаар
захирагчид
захирагчии
захирал
захиралаар
захиралтаи
захирамж
захирамжаар
захиран
захирах
захиргаа
захиргааг
захиргаан
захиргаанаас
захиргаанд
захиргаандаа
захиргааны
захиргаатаи
захирдаг
захирлаар
захирлуудын
захирлын
захирсан
захируулан
захируулахаар
захируулжээ
захируулсан
захирч
захтаи
захчин
захыг
захын
зая
заяа
заяаг
заяанд
заяаны
заяасан
заяат
заяын
звезда
зг
здтг
зевс
зеланд
зеландад
зеландын
зеленскии
зенит
зенхауэр
зер
зерс
зерслаутерн
зея
зи
зиана
зигби
зигмунд
зидан
зии
зика
зимбабве
зимбабвегии
зиндаа
зиндаанд
зиндааны
зм
знаа
зны
зовж
зовлон
зовлонг
зовлонгоос
зовоож
зовох
зовсон
зогсдог
зогсов
зогсож
зогсолт
зогсолтгүи
зогсонги
зогсоно
зогсоов
зогсоогүи
зогсоож
зогсоожээ
зогсоол
зогсоолын
зогсоон
зогсооно
зогсоосон
зогсоох
зогсооход
зогсоохоор
зогсоохыг
зогсоохын
зогсох
зогсохгүи
зогсоход
зогссон
зогссонгүи
зогсч
зодог
зодоглож
зодож
зодоон
золбаяр
золбоо
золиос
золиослогч
зон
зондын
зонхилдог
зонхилж
зонхилно
зонхилон
зонхилох
зонхилсон
зоны
зоо
зоог
зоогии
зоор
зоос
зоосны
зоосон
зоосыг
зор
зорив
зориг
зоригии
зоригт
зоригтбаатар
зоригтои
зорилго
зорилгод
зорилгодоо
зорилгоо
зорилгоор
зорилготои
зорилгыг
зорилгын
зорилт
зорилтоо
зорилтот
зорилтууд
зорилтуудыг
зорилтыг
зорилтын
зоримог
зорин
зориуд
зориудаар
зориудын
зориулав
зориулагдан
зориулагдсан
зориулалт
зориулалтаар
зориулалттаи
зориулалтын
зориулан
зориулж
зориулжээ
зориулсан
зорих
зорчигч
зорчигчдын
зорчигчии
зорчиж
зорчих
зорчсон
зорьдог
зорьж
зорьжээ
зорьсон
зостын
зотон
зоу
зохилдсон
зохимжтои
зохимои
зохино
зохиогддог
зохиогджээ
зохиогдож
зохиогдох
зохиогдсон
зохиогч
зохиогчдын
зохиогчид
зохиогчии
зохиодог
зохиож
зохиожээ
зохиол
зохиолд
зохиолдоо
зохиолоо
зохиолоор
зохиолоороо
зохиолоос
зохиолууд
зохиолуудад
зохиолуудыг
зохиолч
зохиолчдын
зохиолчид
зохиолчии
зохиолчоор
зохиолыг
зохиолын
зохиомж
зохиомжии
зохиомлоор
зохиомол
зохион
зохиосон
зохиох
зохиоход
зохисгүи
зохист
зохистои
зохих
зохицож
зохицол
зохицон
зохицох
зохицсон
зохицуулагддаг
зохицуулагч
зохицуулалт
зохицуулалтыг
зохицуулалтын
зохицуулан
зохицуулах
зохицуулахад
зохицуулдаг
зохицуулж
зохицуулна
зохицуулсан
зочид
зочилж
зочилсон
зочин
зочлох
зочноор
зочны
зсбн
зсбнхоу
зсбнху
зтаи
зу
зугаа
зугаатаи
зугатаж
зугатан
зугтааж
зугтаасан
зугтав
зугтаж
зугтан
зугтах
зугтахад
зугтсан
зуд
зузаан
зузаантаи
зул
зулаи
зулзага
зулу
зун
зунаас
зунгааралт
зунгааралттаи
зунгааралтыг
зунгааралтын
зундаа
зундарь
зундуи
зунтаи
зуны
зураас
зураасаар
зураасан
зураастаи
зураасыг
зураач
зураачаар
зураачдын
зураачид
зураачии
зурав
зураг
зурагдсан
зураглаач
зураглал
зураглалыг
зураглалын
зурагнууд
зурагт
зурагтаи
зурагчин
зурам
зурах
зурвас
зурвасаар
зурваст
зурвастаи
зурвасыг
зурвасын
зургаа
зургаагии
зургаадугаар
зургаан
зургаар
зургаас
зургадугаар
зурган
зурганд
зургии
зургууд
зургуудыг
зурдаг
зурж
зуржээ
зурсан
зурснаар
зурхаи
зуршил
зусах
зусдаг
зуслан
зуслангии
зутан
зуу
зууван
зуугаад
зуугии
зууд
зуудын
зуун
зуунаар
зуунаас
зуунд
зуунмод
зууны
зууныг
зуур
зуураа
зуурмаг
зуурын
зуут
зуутын
зуух
зууханд
зуухны
зууч
зуучлагч
зуучлалын
зуучлах
зхжш
зху
зхукн
зы
зыг
зын
зэ
зэв
зэвии
зэвсгии
зэвсгээ
зэвсгээр
зэвсгээс
зэвсэг
зэвсэггүи
зэвсэгии
зэвсэглэл
зэвсэглэлд
зэвсэглэлии
зэвсэглэн
зэвсэглэсэн
зэвсэгт
зэвсэгтэи
зэвэг
зэвэгии
зэгс
зэд
зэдун
зэдуны
зэл
зэлмэ
зэлүүд
зэм
зэмсгии
зэмсгээр
зэмсэг
зэн
зэр
зэргии
зэргэлдээ
зэргэлдээх
зэргээ
зэргээр
зэргээрээ
зэргээс
зэргүүд
зэрлэг
зэрэг
зэрэглэл
зэрэглэлд
зэрэглэлии
зэрэглэлтэи
зэрэглээ
зэрэгт
зэрэгтэи
зэрэгцсэн
зэрэгцэн
зэрэгцэх
зэрэгцээ
зэрэгцээгээр
зэрэгцээд
зэрэгцүүлэн
зэс
зэсии
зэсээр
зэхэж
зээ
зээгт
зээл
зээлд
зээлж
зээлии
зээллэгээр
зээлтэи
зээлэгдсэн
зээлэгдэв
зээлээ
зээлээр
зээлээс
зээр
зээргэнэ
зээрд
зээрии
зээрэнцэг
зээх
зян
зүг
зүгии
зүгт
зүгтээ
зүгээр
зүгээс
зүи
зүлэг
зүрх
зүрхии
зүрхнии
зүрхэн
зүрхэнд
зүрчид
зүрчидии
зүс
зүсмии
зүстэи
зүсэлт
зүсэм
зүсэх
зүтгэгч
зүтгэж
зүтгэл
зүтгэлии
зүтгэлт
зүтгэлтнии
зүтгэлтнүүд
зүтгэлтнүүдии
зүтгэлтэи
зүтгэлтэн
зүтгэлээр
зүтгэсэн
зүтгэх
зүчи
зүчии
зүү
зүүд
зүүднии
зүүдэг
зүүдэнд
зүүж
зүүжээ
зүүлт
зүүлтии
зүүн
зүүнбаян
зүүнгар
зүүнгарт
зүүнгарыг
зүүнгарын
зүүнговь
зүүнии
зүүнхангаи
зүүнхараа
зүүнш
зүүнээс
зүүсэн
зүүх
зөв
зөвлөгч
зөвлөгөө
зөвлөгөөг
зөвлөгөөн
зөвлөгөөнии
зөвлөдөг
зөвлөж
зөвлөл
зөвлөлд
зөвлөлдөж
зөвлөлдөх
зөвлөлии
зөвлөлт
зөвлөлтии
зөвлөлтөд
зөвлөлөөс
зөвлөмж
зөвлөмжии
зөвлөн
зөвлөснөөр
зөвлөсөн
зөвлөх
зөвлөхии
зөвлөхүүд
зөвлөхүүдии
зөвлөхөөр
зөвхөн
зөвшөөрдөг
зөвшөөрдөггүи
зөвшөөрлии
зөвшөөрлөөр
зөвшөөрнө
зөвшөөрснөөр
зөвшөөрсөн
зөвшөөрсөнгүи
зөвшөөрч
зөвшөөрчээ
зөвшөөрүүлэх
зөвшөөрөв
зөвшөөрөгдсөн
зөвшөөрөгдөх
зөвшөөрөгдөөгүи
зөвшөөрөл
зөвшөөрөлгүи
зөвшөөрөлтэи
зөвшөөрөн
зөвшөөрөх
зөвшөөрөхгүи
зөвшөөрөхии
зөвшөөрөхөөс
зөвшөөрөөгүи
зөвөөр
зөгии
зөгнөл
зөгнөлт
зөн
зөнч
зөрж
зөрчидии
зөрчиж
зөрчил
зөрчилдөж
зөрчилдөөн
зөрчилдөөнии
зөрчилтэи
зөрчин
зөрчих
зөрчлии
зөрчсөн
зөрүү
зөрүүг
зөрүүгээр
зөрүүтэи
зөрөө
зөрөөтэи
зөөврии
зөөвөрлөх
зөөгдөх
зөөгч
зөөж
зөөлнии
зөөлрүүлэх
зөөлөн
зөөх
и
иад
иан
иар
иас
иберии
ибн
ибрахим
ив
иван
иванов
иванович
ивановна
иваново
ивуар
ивуарын
ивээл
ивээлд
ивээлдээ
ивээлт
ивээн
ивээх
иг
игорь
ид
иддэг
идеаль
иднэ
идсэн
идэвх
идэвхгүи
идэвхжиж
идэвхжил
идэвхжсэн
идэвхжүүлдэг
идэвхжүүлж
идэвхжүүлсэн
идэвхжүүлэгч
идэвхжүүлэх
идэвхи
идэвхигүи
идэвхижүүлэх
идэвхии
идэвхит
идэвхитэи
идэвхт
идэвхтэи
идэвхтэн
идэгч
идэж
идэмхии
идэр
идэрии
идэрчүүдии
идэх
идэш
идэшт
идэштэн
идээ
идээг
идээнии
иен
иерусалим
иерусалимын
иж
ижии
ижил
ижилии
ижилхэн
из
изабелла
известия
изд
изинис
изотоп
изотопи
изотопууд
израи
израил
израилд
израилии
израилчууд
израилын
израиль
ии
ил
илгээв
илгээгдсэн
илгээгч
илгээгчии
илгээдэг
илгээж
илгээжээ
илгээлт
илгээн
илгээнэ
илгээсэн
илгээх
илгээхдээ
илгээхии
илгээхэд
илгээхээр
илд
илдэн
илжиг
или
илии
иллинои
илрэл
илрэнэ
илрэх
илрээгүи
илрүүлдэг
илрүүлж
илрүүлжээ
илрүүлсэн
илрүүлэв
илрүүлэгч
илрүүлэлт
илрүүлэн
илрүүлэх
илрүүлэхэд
илт
илтгэгч
илтгэдэг
илтгэж
илтгэл
илтгэлд
илтгэлии
илтгэн
илтгэнэ
илтгэсэн
илтгэх
илч
илчит
иль
ильич
илья
илэрдэг
илэрдэггүи
илэрнэ
илэрсэн
илэрхии
илэрч
илэрчээ
илүү
илүүг
илүүгээр
илүүгүи
илүүд
илүүдэл
илүүтэи
им
император
империализм
импорт
импортоор
импортын
имэи
ин
ингуш
ингэ
ингэж
ингэнии
ингэснээр
ингэснээрээ
ингэх
ингэхдээ
ингэхии
ингэхэд
ингээд
инд
индекс
индексии
индексээр
инди
индиан
индиана
индианагии
индианаполис
индианчууд
индианчуудын
индии
индира
индо
индонез
индонези
индонезии
индрии
индукции
индэр
инерт
инж
инженер
инженерии
инженерчлэл
инженерчлэлии
инженерээр
инженерүүд
инженерүүдии
инкии
инновации
инсигниа
институт
институтии
институтын
институтэд
инсулин
интеграл
интегрин
интер
интерактив
интернационал
интернационале
интернет
интернетии
интернетэд
интернетээр
интернэт
интернэтии
интернэтэд
интернэтээр
интернэшнл
интертото
интерфаи
интерфеи
интерфэи
инфляци
инфляции
инфобокс
информатик
инч
инчон
инь
инээд
инээдмии
инээдэм
инээмсэглэл
иоанн
иод
ион
ионууд
ионуудын
ионы
ионыг
иордан
иосеф
иосиф
иохан
иоханн
ипотекии
ипсвич
ир
ирак
иракии
иракт
иракын
иран
иранд
ираны
ирвинг
ирвэл
ирвэс
иргэд
иргэдии
иргэдтэи
иргэдэд
иргэдээ
иргэдээс
иргэн
иргэнд
иргэнии
иргэншил
иргэншилд
иргэншилтэи
иргэншлии
ирдэг
ирж
иржээ
ирина
ирланд
ирландад
ирландчууд
ирландын
ирлээ
ирмэг
ирмэгии
ирмэгт
ирнэ
ирснии
ирснээр
ирснээс
ирсэн
ирсэнии
ирсэнээр
ирсээр
иртэл
ирэв
ирэлт
ирэн
ирэх
ирэхгүи
ирэхдээ
ирэхии
ирэхэд
ирэхээс
ирээгүи
ирээд
ирээдүи
ирүүлж
ирүүлсэн
ирүүлэх
ис
исаак
исгэрээ
исгэсэн
исгэх
ислам
исламын
исланд
исландын
ислии
исмаи
испани
испаниар
испаниас
испанид
испании
испаничууд
иссык
истанбул
истории
историко
история
исэл
исэлдэлт
исэлдэлтии
итали
италиар
италид
италии
италичууд
итгэгч
итгэгчид
итгэдэг
итгэж
итгэл
итгэлии
итгэлт
итгэлтэи
итгэлцэл
итгэмжит
итгэмжлэгдсэн
итгэмжлэх
итгэмээргүи
итгэн
итгэсэн
итгэх
итгэхгүи
итгүүлэн
ито
итх
иудаизм
иудеи
их
ихгүи
ихдээ
ихии
ихирэс
ихрии
ихсэж
ихсэх
ихтамир
ихтэи
ихэвчилэн
ихэвчлэн
ихэд
ихэмсэг
ихэнх
ихэнхдээ
ихэнхи
ихэнхидээ
ихэнхии
ихэр
ихэс
ихэсгэдэг
ихэсгэж
ихэсгэх
ихэсдэг
ихэснэ
ихэссэн
ихэсч
ихээр
ихээхэн
ичи
ичинхорлоо
иш
ишиг
ишии
ишлэл
ишнии
иштэи
к
ка
кабелии
кабель
кабинет
кабо
кабрио
кабул
кавальерс
кавказ
кавказад
кавказын
кадетт
казак
казакууд
казании
казань
казах
казахстан
казахстанд
казахстаны
казахууд
казахын
казино
каи
каир
как
кака
какаоны
кал
калашниковын
кали
калии
калимантан
калининград
калифорни
калифорниа
калифорнид
калифорнии
калка
кальци
кальции
кальяри
камбож
камбожид
камбожии
камер
камерии
камерт
камертон
камерун
камеруны
камерын
камп
кампанит
кампус
камчаткын
кан
канагава
канад
канадад
канадчууд
канадын
канарын
канберра
канвонь
канзас
каннын
кант
кантон
кантоноор
кантоны
кантри
канцлер
капаган
капитал
капитализм
капитализмын
капиталист
капиталын
капитен
кара
карабахын
караван
карат
каратэ
карачаи
карбон
карбонат
кардинал
кардифф
карелии
карель
каренина
карзаи
кариб
карибын
карим
карл
карлес
карло
карлос
карлсруэ
карлын
кармело
кармен
каролина
каролинагии
карпатын
карпини
каррера
карт
картаа
картаар
картер
картны
картодб
картууд
картыг
картын
карьер
карьераа
каспии
кастили
кастилии
кастро
каталан
катализатор
катализаторын
каталог
каталон
каталонии
каталоны
катар
катарын
категори
катерин
катерина
катодын
католик
каунти
кац
кашгар
кашкаи
кашмир
кашмирын
кв
квадрат
квант
квантуны
квантын
квери
квжд
квии
квт
кг
кгб
кгц
ке
кебек
кевин
кеи
келли
кельт
кемал
кембрижии
кемерово
кен
кени
кении
кеннеди
кеннедигии
кент
кентакки
кер
керамик
кереи
керенскии
кернел
кернелии
керс
керсии
ки
кибер
кибернетик
кидан
киданчууд
киданы
кидо
кие
киев
киевии
киевт
киевээс
кии
килограмм
километр
километрии
километрт
ким
кими
кин
кинг
кингз
кингии
кинематик
кинетик
кино
киног
киногоо
киногоор
киногоороо
кинон
кинонд
кинондоо
киноноос
кинонууд
кинонуудад
кинонуудыг
кинонуудын
киноны
киноныхоо
киото
киотогии
кипр
киприи
кипчак
кир
киргиз
киргизии
киргизстан
киргизүүд
киргизүүдии
кирибати
кирил
кирилл
киров
кистоун
кит
китаи
китая
кихот
кл
клаи
клара
кларк
класс
классик
классын
кластер
кластерии
клаус
клаусура
клеи
клемент
кливленд
клиент
клиентии
клиник
клиникии
клинт
клинтон
клип
клипии
клипнии
клипперс
клипэнд
клод
клуб
клубии
клубт
клубтэи
клубууд
клубуудын
клубыг
клубын
клубээр
клубээс
клубүүд
клубүүдии
клуж
км
кн
кнессетии
ко
коа
кобальт
коби
ков
ковалент
ковентри
ковер
ковид
ковскии
когуре
код
кодлогдсон
кодлох
кодод
кодон
кодоо
кодоор
кодоос
кодтои
кодууд
кодчилдог
кодчилол
кодчилсон
кодыг
кодын
кожон
козлов
козловын
козүна
кои
кока
коксын
кола
коламбиа
колин
коллаген
колланэ
коллегии
коллеж
коллежид
коллежии
коллекци
колмогоров
колони
колонии
колониуд
колониудын
колоничлогчид
колоничлол
колоничлолын
колорадо
колумб
колумби
колумбиа
колумбии
колумбичууд
колумбус
колумбын
ком
команд
командаар
командад
командалсан
командлагч
командлагчаар
командлагчии
командлал
командлалын
командлан
командууд
командуудыг
командыг
командын
комаров
комбаи
комби
комбилимузин
комбинат
комбинатын
комбо
комеди
комик
комикс
коминтернии
комисс
комиссар
комиссариатын
комиссарын
комисст
комиссыг
комиссын
комманд
коммандаар
коммандыг
коммандын
коммун
коммунаар
коммунизм
коммунизмыг
коммунизмын
коммунист
коммунистууд
коммунистуудын
коммунити
коммуны
компаи
компакт
компани
компаниа
компаниас
компанид
компании
компанит
компанитаи
компаниуд
компаниудад
компаниудтаи
компаниудыг
компаниудын
компаны
компаньон
комплекс
компьютер
компьютерии
компьютероор
компьютерт
компьютертэи
компьютерууд
компьютеруудын
компьютерыг
компьютерын
компьютерээр
компьютерээс
компьютерүүд
компьютерүүдии
кон
конвенц
конвенции
конг
конго
конгогии
конгресс
конгрессии
конгресст
конгрессын
конгын
конкакаф
коннектикут
конрад
консерватив
консерватизм
консерватори
консерваторид
консерватории
консол
консорциум
константин
константинополь
консул
консулаар
консулын
контекстии
контент
контролле
конус
конусан
конусын
конференции
концентраци
концентрации
концентрацитаи
концерн
концерт
концертод
концертоо
концертыг
концертын
коодоокан
координатын
копа
коперник
коперникии
коран
коринтианс
корнилов
корниловын
короле
коронавирус
коростовец
корпораци
корпорации
корпорациуд
корпус
корпусын
корса
корсика
косово
косовог
косовогии
косовод
коста
кострома
кот
коул
кофе
кофены
кохама
коэн
коэффициент
кпоп
краи
краков
краковын
краснодар
краснодарын
красноярск
красноярскии
кредит
креи
кремлии
кремль
креол
криминалистикии
криптограф
криптографии
крис
кристал
кристиан
кристиано
кристин
кристина
кристоф
кристофер
крит
кришнамурти
крои
крософт
кросс
круз
крым
крымд
крымии
крымын
ку
куала
куан
куб
куба
кубад
кубань
кубын
кувеи
кузьмин
куи
куинз
куликовын
кулон
куль
куман
кун
купье
курд
куре
курилии
курманбек
курс
курсии
курск
курскии
курст
курт
кутлук
кушаны
кхмер
кхмерии
кхмерүүд
към
кызыл
кын
кэбэк
кэбэкии
кэге
кэи
кэн
кэрриган
кэрролл
кэсон
кэтрин
кэш
кюри
кү
күи
күн
күнз
күнзии
күнь
күтүз
күүк
күүкии
күүпер
л
ла
лаа
лаад
лааны
лаар
лаас
лаборатори
лабораторид
лаборатории
лав
лаваи
лавлагаа
лавлах
лавр
лавран
лаврын
лавтаи
лаг
лагдах
лагдсан
лагерии
лагерь
лагерьт
лагнах
лагч
ладен
лазер
лаи
лал
лалын
лам
ламаар
ламаас
ламд
ламжав
ламжавын
ламтаи
ламтан
ламыг
ламын
лан
ланг
лангии
лангууд
ланд
ландад
ландшафт
ландшафтын
ландын
ланк
ланка
ланкын
ланс
лань
лао
лаос
лаост
лаосын
ларри
лас
лат
латви
латвии
латин
латинаар
латины
лах
лахаар
лахад
лахдаа
лахн
лахыг
лацио
лба
лбал
лбар
лбарлав
лбарлавал
лбарлагч
лбарладаг
лбарлаж
лбарлажээ
лбарлан
лбарласан
лбарлах
лбарлахад
лбарлахдаа
лбартаи
лбарыг
лбэр
лбэрии
лбэртэи
лбэрч
лбэрээр
лга
лгадаг
лгаж
лган
лгасан
лгах
лгахад
лгахыг
лгахын
лгбт
лгогдох
лгодог
лгож
лгожээ
лголт
лголтод
лголтоор
лголттои
лголтууд
лголтуудыг
лголтыг
лголтын
лголцол
лголцох
лгомжгүи
лгомжтои
лгон
лгоно
лгоогүи
лгосон
лгох
лгохгүи
лгоход
лгохын
лгуулах
лгын
лгэж
лгэсэн
лгэх
лгээ
лгээг
лгээнд
лгээнии
лгүи
лд
лдаа
лдаад
лдаан
лдаанд
лдаант
лдаанууд
лдааны
лдааныг
лдав
лдаг
лдагч
лдаж
лдан
лдах
лдахаар
лдахад
лдвэр
лдвэржилт
лдвэржилтии
лдвэржсэн
лдвэрии
лдвэрлэв
лдвэрлэгдсэн
лдвэрлэгдэж
лдвэрлэгч
лдвэрлэгчдии
лдвэрлэгчид
лдвэрлэгчии
лдвэрлэгчээр
лдвэрлэдэг
лдвэрлэж
лдвэрлэжээ
лдвэрлэл
лдвэрлэлд
лдвэрлэлии
лдвэрлэлт
лдвэрлэлтии
лдвэрлэлээ
лдвэрлэлээр
лдвэрлэлээс
лдвэрлэн
лдвэрлэнэ
лдвэрлэсэн
лдвэрлэх
лдвэрлэхэд
лдвэрт
лдвэртэи
лдвэртээ
лдвэрчнии
лдвэрээ
лдвэрээс
лдвэрүүд
лдвэрүүдии
лдвэрүүдэд
лддэг
лджээ
лдии
лдлии
лдлээр
лдлүүд
лдлүүдии
лдог
лдсан
лдсэн
лдэв
лдэг
лдэггүи
лдэж
лдэл
лдэлд
лдэлии
лдэлтэи
лдэн
лдэх
ле
леброн
лев
леванте
леверкузен
леви
легион
легионы
леи
лекц
лекции
лен
лена
ленд
ленин
ленинград
ленинградад
ленинградын
ленинизмии
ленинии
леннон
лео
леон
леонард
леонардо
леоне
леонид
леонора
леопольд
леопольдинагии
леопольдын
лер
лерии
лесото
лестер
лех
лж
лжээ
ли
либерал
либери
либерии
ливан
ливанд
ливаны
ливерпүүл
ливерпүүлд
ливерпүүлии
ливи
ливии
лиг
лига
лиганд
лигандууд
лигдэн
лигии
лигт
лигтээ
лигээс
лидер
лидии
лидс
лиза
лии
ликуд
лилль
лима
лимбэ
лимузин
лимфоцит
лин
линг
линда
линз
линзии
линк
линкин
линкольн
линкольны
линукс
линуксии
линч
линь
лион
лионель
лир
лиссабон
лист
литва
литвии
литвын
литл
литр
литрии
лиу
лихтенштаи
лицеи
лиценз
лицензии
лицензтэи
лицензээр
ллии
ллыг
ллын
ллээс
лмаг
лмал
лмэл
лна
лно
лнэ
ло
лов
лович
ловон
лог
логддог
логдож
логдоно
логдох
логдсон
логии
логик
логикии
логистик
лого
логог
логч
логчии
лодои
лодонгии
лои
локал
локомотив
лолт
лолтод
лолтоор
лолтууд
лолтыг
лолтын
ломбард
ломбардын
ломоносовын
лон
лонг
лондон
лондонгии
лондонд
лондоны
лонжид
лоо
лоод
лоолии
лооль
лоос
лопез
лопес
лор
лорд
лордын
лоренс
лорын
лорьян
лос
лосол
лоуренс
лох
лохдоо
лоход
лохын
лс
лсан
лсии
лснии
лсноор
лсны
лснээр
лсон
лст
лсхии
лсэд
лсэн
лсээ
лсээр
лсээс
лт
лтаар
лтаи
лтгаж
лтии
лтои
лттаи
лтыг
лтын
лтэд
лтэи
лу
луар
лувсан
лувсанвандан
лувсангии
лувсангомбо
лувсанданзан
лувсандорж
лувсандоржии
лувсанжамц
лувсанжамцын
лувсанхаи
лувсанцэрэн
лувсанцэрэнгии
лувсаншарав
лугаа
лужники
луи
луиза
луис
лука
лукас
лус
лусын
луу
лууван
лууд
луудад
луудыг
луудын
луулан
луулах
луулж
луулсан
лууны
луур
луус
лухан
лха
лхагва
лхагвадорж
лхагвасүрэн
лхагвасүрэнгии
лхагвын
лхамсүрэн
лхамсүрэнгии
лхас
лхаст
лхүмбии
лхүмбэ
лч
лчилгээ
лчилгээг
лчилгээгээ
лчилгээгээр
лчилгээнд
лчилгээнии
лчилгээнээс
лчилгээнүүд
лчилгээнүүдии
лчилгээтэи
лчилдэг
лчилж
лчилжээ
лчилнэ
лчилсан
лчлав
лчлал
лчлалууд
лчлалын
лчлан
лчлах
лчлэгч
лчлэл
лчлэлии
лчлэлцэж
лчлэлээр
лчлэх
лчлүүлэгч
лчлүүлэгчдии
лчлүүлэгчдэд
лчлүүлэгчид
лчлүүлэгчии
лчлүүлэх
лш
лшгүи
лшии
лшрал
лыг
лын
ль
львов
льеж
льн
льюис
льюс
лэ
лэв
лэг
лэгддэг
лэгдсэн
лэгдэж
лэгдэнэ
лэгдэх
лэгжилт
лэгжилтии
лэгжүүлдэг
лэгии
лэгч
лэгчдии
лэгчид
лэе
лэи
лэл
лэлгүи
лэлд
лэлии
лэлтэи
лэмж
лэн
лэнд
лэнх
лэнхи
лэнхии
лэх
лэхгүи
лэхдээ
лэхии
лэхэд
лээ
лээгүи
лээд
лээн
лээр
лээс
лю
люблин
любовь
людвиг
людмила
люи
люк
люксембург
люксембургии
люси
лютер
лян
лянхуа
лянь
ляо
ляодун
ляодунгии
ляонин
ляоян
лү
лүа
лүгээ
лүн
лүна
лүндэн
лүффи
лүү
лүүд
лүүдии
лүүдэд
лүүдээс
лүүлдэг
лүүлж
лүүлсэн
лүүлэгч
лүүлэгчид
лүүлэлт
лүүлэлтии
лүүлэн
лүүлэх
лөгч
лөгчид
лөгчии
лөгчтэи
лөгчөөр
лөн
м
ма
маа
мааг
маагаар
маалинга
маалингын
маанд
мааны
маань
маар
маас
маачин
маб
мавереннахр
маверикс
маврики
маврикии
мавритани
маг
магад
магадгүи
магадлал
магадлалтаи
магадлалыг
магадлалын
магадлан
магадлах
магии
магистр
магистрын
магмын
магнаи
магнат
магни
магнии
магнитудын
магнус
магсар
магсаржав
магсаржавын
магт
магтаа
магтаал
магтаж
магтаи
магтан
магтуу
мадагаскар
мадонна
мадрид
мадридад
мадридыг
мадридын
мажар
мажор
мазаалаи
мазерати
маи
мак
макао
макартур
макбет
македон
македонии
македоны
маккаби
маккартни
маккинли
макро
макс
максим
мал
малаа
малави
малага
малаи
малгаи
малд
мали
малии
малик
малиновскии
маллаж
маллах
малтаи
малтан
малтлага
малтмал
малтмалын
малуда
малчдын
малчид
малчин
малчны
малыг
малын
мальдив
мальме
мальорка
мальта
мальтын
мамаи
мамба
мамлюк
мамлюкии
мамлюкууд
мамлюкуудтаи
ман
мана
манаа
манаи
манан
мананцар
манас
манба
манга
манган
манганы
мангас
мангир
мандаж
мандал
мандалд
мандалт
мандалтын
мандалын
мандан
мандарин
мандат
мандах
мандела
мандлын
мандсан
мандуул
мандуулах
мандуулж
мандуулсан
мандухаи
маневр
манж
манжаар
манжаас
манжго
манжид
манжии
манжин
манжтаи
манжууд
манжуур
манжуурт
манжуурыг
манжуурын
манзушир
манила
манихеи
манлаи
манн
мансууруулах
манта
мантаи
манти
мантии
мануул
мануэл
мануэль
манхаи
манхан
манхэттен
манчестер
манчестерии
манштеи
маны
мань
мао
маори
мар
марал
марафон
маргаан
маргаанаа
маргаангүи
маргаантаи
маргааны
маргааныг
маргааш
маргаж
маргарет
мари
мариа
марианы
марии
марина
марино
мариногии
марио
мария
марк
маркес
маркетинг
маркетингии
маркии
марко
маркос
маркс
марксизм
марксист
марксын
маркус
марокко
мароккогии
марс
марсель
марта
мартагдашгүи
мартагдсан
мартаж
мартахгүи
марти
мартин
мартины
марш
маршал
маршалл
маршаллын
маршалын
марын
мас
маск
масс
массачусетс
массачусеттс
массачусеттсын
массив
масстаи
массыг
массын
мастер
мастеруудын
мастерын
масштаб
матад
матар
математик
математикии
математикт
математикч
матери
материал
материалаар
материалаас
материалд
материализм
материалист
материаллаг
материалууд
материалуудыг
материалуудын
материалы
материалыг
материалын
материи
матриц
матрицын
маттиас
мах
махаар
махал
махан
махараштра
махатма
махбод
махбодид
махбодии
махбодын
махбодь
махир
махлаг
махмуд
махн
махнаас
махны
махц
махчин
махыг
мацаг
мацуев
маш
машид
машин
машинаа
машинаар
машинаас
машинд
машинтаи
машинууд
машинуудыг
машинуудын
машинч
машины
машиныг
мая
маяг
маягаар
маягии
маягт
маягтаи
мб
мбит
мбо
мбол
мболын
мвт
мг
мгаа
мгаар
мгаас
мгии
мгууд
мгуудаар
мгуудаас
мгуудад
мгуудтаи
мгуудыг
мгуудын
мгц
мд
мдугаар
мдээ
ме
медалиа
медалиар
медалии
медалиуд
медалиудаар
медаль
медальт
медальтаи
медальтан
медальтнууд
медведев
медиа
медина
между
мезоамерикии
меи
мекленбург
меконг
мексик
мексикии
мексико
мексикт
мексикчүүд
мельбурн
мельбурны
мельес
мембран
мембранаар
мембраны
мембраныг
мемфис
менделеев
менделии
менежер
менежерии
менежерээр
менежерүүд
менежмент
менежментии
мер
мери
мерива
мерседес
мерседесии
месопотами
месопотамии
мессеж
мессежии
мессежүүд
месси
мессэж
мета
метадата
метал
металл
металлууд
металлыг
металлын
метан
метафизик
метил
метр
метрии
метро
метроны
метропол
метрополитан
метрт
метрээр
метрээс
механизм
механизмаар
механизмыг
механизмын
механик
механикжсан
механикжуулсан
механикии
механикт
механикч
мехико
мехикогии
мехмед
мечет
мж
мзэ
ми
миат
миг
мигель
мидлсбро
мижиддорж
мижидсүрэн
мии
мик
мика
микеланжело
микки
микориза
микро
микробиологич
микрокомпьютер
микронезии
микропроцессор
микрофон
милан
миланд
миланы
милии
милк
милл
миллер
милуоки
миль
мин
мингии
минерал
минж
мини
минии
министр
миннеаполис
миннесота
минои
миноме
минск
мину
минут
минутаас
минутад
минутанд
минутыг
минутын
минь
мир
мирза
мирослав
мисс
миссисипи
миссиссиппи
миссури
михаи
михаил
михалков
михаэлии
михаэль
михаэльд
мичиган
мичиганы
мишель
мишээл
мкларен
мкм
мл
млер
млон
мм
мн
мнемоник
мнт
мны
мо
моах
мобаи
мобиком
могод
могои
могол
моголистан
моголистаны
моголын
могул
мод
моддын
модел
моделии
модель
модем
модернизации
моди
модлог
модноос
модны
модод
модон
модонд
модоор
модот
модтои
модулии
модулиуд
модуль
модун
модыг
мозамбик
мозамбикии
мозес
мои
моисеи
мол
молдав
молдавын
молекул
молекулууд
молекулуудыг
молекулуудын
молекулыг
молекулын
молибден
молибдении
моломжамц
молор
молотов
моль
момент
мон
мона
монако
монакогии
монг
монгол
монголбанк
монголбанкны
монголд
монголдоо
монголжин
монголжуу
монголии
монголия
монголкино
монголоид
монголоор
монголоос
монголтои
монголч
монголчууд
монголчуудаас
монголчуудад
монголчуудтаи
монголчуудыг
монголчуудын
монголыг
монголын
монголынхоо
монгольского
монгольскои
монд
моника
монитор
мониторинг
мониторингии
монополь
монос
монреалии
монреаль
монро
монсон
монсудар
монта
монтана
монте
монтевидео
монтенегро
монтенегрогии
монца
монцамэ
мор
морави
моравии
морган
морджээ
мордож
мордох
мордсон
морз
морзе
морзын
мори
мории
морин
моринд
морины
морио
мориор
морис
мормон
мормоны
моррис
моррисон
мортон
морь
морьд
морьдоо
морьдыг
морьдын
морьт
морьтои
морьтон
москва
москваг
москвагаас
москвагии
москвад
мост
мотобуудлагын
мотор
моторжуулсан
моторс
моторт
мотортои
моторууд
моторыг
моторын
мотоцикл
мотоциклии
мотоциклын
мохамед
мохаммед
мохоо
моцарт
моцартын
мрии
мрнх
мртух
мс
мсдн
мсии
мсог
мстислав
мт
му
муаж
мубис
мугж
муж
мужаан
мужаар
мужаас
муждаа
мужид
мужии
мужтаи
мужууд
мужуудад
мужуудтаи
мужуудыг
мужуудын
мужын
муза
музеи
муис
мултарч
мультикаст
мультимедиа
мумбаи
мундаа
мунхаг
мур
мурад
мурманск
муруи
муса
мусгз
муск
муслим
муссолини
муста
мустафа
мусульман
мутарджим
мутац
муу
муугаар
муугз
муугүи
муудаж
муудан
муудах
муудсан
муур
муурын
муутаи
муухаи
мухаммад
мухаммед
мухар
мухулаи
мушгиа
муэ
муюн
мхбх
мхзэ
мхии
мч
мшгии
мшигт
мшигтаи
мыг
мын
мьянмар
мьянмарын
мэ
мэд
мэддэг
мэддэггүи
мэджээ
мэдисон
мэдлии
мэдлэг
мэдлэгии
мэдлэгт
мэдлэгтэи
мэдлэгээ
мэдлээ
мэдлээс
мэднэ
мэдрэгч
мэдрэгчии
мэдрэгчтэи
мэдрэл
мэдрэлии
мэдрэмж
мэдрэмжии
мэдрэмжтэи
мэдрэмтгии
мэдрэн
мэдрэх
мэдрэхүи
мэдсэн
мэдсэнээр
мэдэг
мэдэгддэг
мэдэгджээ
мэдэгдлии
мэдэгдлээ
мэдэгдсэн
мэдэгдсэнээр
мэдэгдэв
мэдэгдэж
мэдэгдэл
мэдэгдэлгүи
мэдэгдэлд
мэдэгдэнэ
мэдэгдэх
мэдэгдэхгүи
мэдэгдэхүи
мэдэгдээгүи
мэдэгдээд
мэдэгч
мэдэж
мэдэл
мэдэлгүи
мэдэлд
мэдэлдээ
мэдэлтэи
мэдэн
мэдэрдэг
мэдэрсэн
мэдэрч
мэдэх
мэдэхгүи
мэдэхии
мэдэхэд
мэдэхээр
мэдэхүи
мэдээ
мэдээг
мэдээгээр
мэдээгүи
мэдээд
мэдээж
мэдээжии
мэдээлдэг
мэдээлж
мэдээлжээ
мэдээлии
мэдээллии
мэдээллээ
мэдээллээр
мэдээллээс
мэдээллүүд
мэдээллүүдии
мэдээлснээр
мэдээлсэн
мэдээлэл
мэдээлэлд
мэдээлэлзүи
мэдээлэлии
мэдээлэлтэи
мэдээлэх
мэдээнд
мэдээнии
мэдээнээс
мэдүүлгии
мэдүүлж
мэдүүлжээ
мэдүүлсэн
мэдүүлэг
мэдүүлэх
мэжик
мэи
мэл
мэлмии
мэлоун
мэлхии
мэн
мэнд
мэндбаяр
мэндии
мэндсаи
мэндчилгээ
мэндэд
мэндэлж
мэндэлжээ
мэндэлснии
мэндэлсэн
мэндээ
мэр
мэргид
мэргидии
мэргэ
мэргэд
мэргэдии
мэргэжил
мэргэжилтнии
мэргэжилтнээр
мэргэжилтнүүд
мэргэжилтнүүдии
мэргэжилтэи
мэргэжилтэн
мэргэжлии
мэргэжлээ
мэргэжлээр
мэргэжлээрээ
мэргэн
мэргэнии
мэргэшсэн
мэри
мэрии
мэрилэнд
мэрт
мэрхүү
мэрэгч
мэрэгчид
мэрэх
мэс
мэт
мэтгэлцээн
мэтгэлцээнии
мэтии
мэтт
мэттью
мэтчилэн
мэтээр
мэх
мэхии
мэхээр
мээн
мээнии
мээрэн
мээс
мэө
мюзикл
мюллер
мюнстер
мюнхен
мюнхенд
мюнхении
мягмар
мягмарсүрэн
мягмарын
мян
мянга
мянгаар
мянгаас
мянгад
мянган
мянганд
мянганы
мянгат
мянгатын
мєн
мүан
мүбх
мүгдэн
мүн
мүонр
мүонрт
мүэ
мөлгөр
мөн
мөнгии
мөнгө
мөнгөлөг
мөнгөн
мөнгөнбаатар
мөнгөнии
мөнгөнморьт
мөнгөтэи
мөнгөө
мөнгөөр
мөнх
мөнхбаатар
мөнхбат
мөнхбатын
мөнхбаяр
мөнхболд
мөнхжаргал
мөнхжин
мөнхии
мөнхсаи
мөнхтөмөр
мөнхтөр
мөнххаан
мөнххаи
мөнхүү
мөнхөд
мөнхөлсөн
мөнхөрсөн
мөнхөө
мөнөөх
мөр
мөргөж
мөргөл
мөргөлдөж
мөргөлдөх
мөргөлдөөн
мөргөлдөөнд
мөргөлдөөнии
мөргөлии
мөргөлчид
мөргөн
мөргөх
мөрд
мөрддөг
мөрдлөг
мөрдорж
мөрдоржии
мөрдөгдөж
мөрдөгч
мөрдөж
мөрдөн
мөрдөх
мөрии
мөрнии
мөрнөөр
мөрнөөс
мөрт
мөртлөө
мөртэи
мөрүүд
мөрүүдии
мөрөвч
мөрөн
мөрөнд
мөрөө
мөрөөддөг
мөрөөдлии
мөрөөдлөө
мөрөөдөж
мөрөөдөл
мөрөөр
мөрөөс
мөс
мөснии
мөст
мөстлөгии
мөсөн
мөхжээ
мөхлии
мөхсөн
мөхсөнии
мөхөж
мөхөл
мөхөх
мөхөхөд
мөхөөж
мөхөөжээ
мөхөөсөн
мөч
мөчид
мөчии
мөчир
мөчлөг
мөчлөгии
мөчнии
мөчрии
мөчөөс
мөөг
мөөгнии
мөөгөнцөр
н
на
наа
наад
наадам
наадамд
наадгаи
наадмаар
наадмаас
наадмуудад
наадмыг
наадмын
нааж
наар
наас
наах
нааш
нааштаи
набоков
наваан
навч
навчаа
навчаар
навчин
навчис
навчит
навчны
навчтаи
нагано
нагасаки
нагац
наггетс
нагоя
над
надаар
надаас
надад
надежда
надтаи
назарбаев
наи
налаи
налархаи
налуу
нам
намаар
намаас
намаг
намаи
намар
намбарын
намгархаг
намгии
намд
намдаг
намдагии
намжил
намжилын
намиби
намибии
намнаахаи
намнансүрэн
намраас
намрын
намсраи
намтаи
намтар
намтарчилсан
намтрыг
намтрын
намууд
намуудын
намхаи
намхан
намыг
намын
намынхан
нан
нангиад
нандин
нандинцэцэг
нанжин
нанзад
нано
нансалмаа
нанхиад
нань
наньжин
наполеон
наполеоны
наполи
нар
нара
нараа
нараар
нараас
нарагии
наран
наранбаатар
наранбаяр
наранбулаг
нарангэрэл
наранд
нарантуяа
нарии
нарлаг
нармаи
нармандах
нарнаас
нарны
наро
народнои
народов
нарс
нарсны
нарт
нартаа
нартаи
нарыг
нарын
нарынхаа
нарүто
нас
наса
насаа
насаар
насаараа
насалдаг
насалсан
насан
насанд
насандаа
население
населения
населенных
наслав
наслалт
насласан
наснаас
наснаасаа
насны
насныхаа
насныхан
насныханд
насныхны
насос
насри
наст
настаи
настан
насыг
наталья
натан
наташа
нато
натри
натрии
натурал
наука
науру
нахиа
наху
нахя
нацаг
нацагдорж
нацагдоржии
нацагии
нацист
нацистууд
нацистын
начин
начны
наяа
наяд
наян
нба
нбаяр
нву
нг
нга
нги
нгии
нгуен
нгын
нгүи
нд
ндаа
ндон
ндонгии
не
неаполь
нева
невада
невилл
невис
невскии
неи
нелсон
нельсон
непал
нер
нервии
неру
нерууд
неста
нетания
нетаньяху
нетс
нефтии
нефть
нжерс
нжу
нжун
ни
нигер
нигери
нигерии
нигүүлсэгч
нидерланд
нидерландад
нидерландчууд
нидерландын
нижер
нии
ник
никарагуа
никелии
никель
ники
никита
никколо
нико
никола
николаев
николаевич
николаи
николас
николсон
николь
николя
никс
никсии
никсон
нил
нилии
нильс
нилээд
нилээдгүи
нилээн
нимгэн
нин
нина
ниохуру
ниргэж
ниргэсэн
нирун
нируны
нисванис
нисгэгч
нисгэгчгүи
нисгэгчдии
нисгэгчид
нисгэгчии
нисгэгчээр
нисдэг
нислэг
нислэгии
нислэгт
нислэгтэи
нислэгээ
ниссан
ниссэн
нисч
нисэгч
нисэгчии
нисэж
нисэх
нисэхии
нисэхэд
нитрат
нитх
нихон
ницца
нишингэ
нквд
нланд
нм
нмент
нн
но
нобелии
нов
нова
новгород
новгородын
нович
новосибирск
новости
ногаи
ногдох
ногоо
ногоон
ногооннуур
ногооны
ногоотои
ногтруу
ное
нои
ном
номгон
номд
номдоо
номер
номин
номинацид
номиндалаи
номлогч
номлогчии
номлол
номлолыг
номлолын
номноос
номнууд
номны
номон
номонд
номондоо
номоо
номоор
номоос
номт
номтои
номун
номууд
номуудыг
номхон
номч
номыг
номын
ноо
ноогдох
ноолуур
ноолуурын
ноор
ноорог
ноос
ноосны
ноосон
ноосоо
ноот
нор
нора
норвеги
норвегии
норвегичууд
норвич
норм
норман
норов
норовлин
норовсамбуу
нородом
норт
нот
нотлогдож
нотлогдсон
нотлон
нотлох
нотолгоо
нотолдог
нотолж
нотолсон
ноттингем
ноу
ноход
нохои
ноцтои
нрих
нс
нсан
нсии
нслэнд
нт
нтаи
нтболл
нтболлын
нтои
нтрахт
нтх
нтэи
нтээл
нтө
ну
нуга
нугалаа
нугалж
нугалсан
нугас
нугасны
нугасныхан
нугын
нударга
нуклеи
нуклеотид
нуклеотидын
нулимс
нум
нуман
нумт
нумын
нунтаг
нур
нурааж
нураасан
нуран
нуранги
нурж
нурсан
нурсултан
нуруу
нурууг
нуруугаар
нуруугүи
нурууд
нуруун
нуруунаас
нуруунд
нурууны
нуруутаи
нуруутан
нурхач
нурхачи
нурхачии
нутаг
нутагладаг
нутаглаж
нутаглан
нутаглана
нутагласан
нутаглах
нутаглуулжээ
нутагт
нутагтаа
нутагтаи
нутагтан
нутагшуулах
нутгаа
нутгаар
нутгаараа
нутгаас
нутгаасаа
нутгии
нутгууд
нутгуудад
нутгуудыг
нутгуудын
нуугдаж
нуугдмал
нуугдсан
нууд
нуудад
нуудыг
нуудын
нууж
нуун
нуур
нуураар
нуураас
нууранд
нуурт
нууртаи
нуурууд
нууруудтаи
нууруудын
нуурыг
нуурын
нуусан
нуух
нууц
нууцаар
нууцад
нууцалж
нууцлаг
нууцлагдсан
нууцлал
нууцлалтаи
нууцлалыг
нууцлалын
нууцлах
нууцыг
нууцын
нухацтаи
нухчин
нфрэи
нх
нхаа
нхаас
нхан
нханд
нхантаи
нхенгладбах
нхии
нхнии
нхны
нхныг
нхныхаа
нхон
нхоо
нхоор
нхор
нхтэи
нху
нхэн
нхэнд
нхэнии
нхэнтэи
нхээ
нхээс
нхүү
нхөн
нхөө
нхөөр
нхөөрөө
нц
нцагаан
нч
нчи
ншанд
нштеи
ны
ныг
нь
ньжун
нью
ньюкасл
ньюком
ньютон
ньютоны
нэ
нэвт
нэвтлэн
нэвтрэв
нэвтрэлт
нэвтрэлтии
нэвтрэн
нэвтрэх
нэвтрэхии
нэвтрүүлгии
нэвтрүүлгээ
нэвтрүүлгээр
нэвтрүүлгүүд
нэвтрүүлдэг
нэвтрүүлж
нэвтрүүлжээ
нэвтрүүлсэн
нэвтрүүлэв
нэвтрүүлэг
нэвтрүүлэгии
нэвтрүүлэгт
нэвтрүүлэгч
нэвтрүүлэн
нэвтрүүлэх
нэвтрүүлэхии
нэвтрүүлэхэд
нэвтэрдэг
нэвтэрнэ
нэвтэрсэн
нэвтэрхии
нэвтэрч
нэвтэрчээ
нэг
нэгд
нэгддэг
нэгджээ
нэгдлии
нэгдлээс
нэгдлүүд
нэгдлүүдии
нэгдмэл
нэгдсэн
нэгдсэнии
нэгдсэнээр
нэгдэв
нэгдэж
нэгдэл
нэгдэлд
нэгдэлии
нэгдэлтэи
нэгдэлчин
нэгдэн
нэгдэх
нэгдэхии
нэгдэхэд
нэгдүгээр
нэгдүгээрт
нэгж
нэгжид
нэгжии
нэгжтэи
нэгжээр
нэгжээс
нэгжүүд
нэгжүүдии
нэгжүүдэд
нэгии
нэгнии
нэгнээ
нэгнээс
нэгт
нэгтгэв
нэгтгэдэг
нэгтгэж
нэгтгэжээ
нэгтгэл
нэгтгэлии
нэгтгэлүүд
нэгтгэлүүдии
нэгтгэн
нэгтгэснээр
нэгтгэсэн
нэгтгэх
нэгтгэхии
нэгтгэхэд
нэгтгэхээр
нэгтгээд
нэгтэи
нэгэн
нэгэнд
нэгэндээ
нэгэнт
нэгэнтэи
нэгэнтээ
нэгээр
нэгээс
нэгээхэн
нэжгээд
нэи
нэкст
нэлээд
нэлээдгүи
нэлээн
нэмдэг
нэмж
нэмжээ
нэмнэ
нэмрии
нэмрээ
нэмснээр
нэмсэн
нэмэв
нэмэгддэг
нэмэгджээ
нэмэгдсэн
нэмэгдсэнээр
нэмэгдсээр
нэмэгдэв
нэмэгдэж
нэмэгдэл
нэмэгдэн
нэмэгдэнэ
нэмэгдэх
нэмэгдэхии
нэмэгдэхэд
нэмэгдүүлдэг
нэмэгдүүлж
нэмэгдүүлнэ
нэмэгдүүлсэн
нэмэгдүүлэв
нэмэгдүүлэн
нэмэгдүүлэх
нэмэгдүүлэхии
нэмэгдүүлэхэд
нэмэлт
нэмэлтээр
нэмэн
нэмэр
нэмэх
нэмэхии
нэмээд
нэн
нэнси
нэр
нэрвэгдсэн
нэрвэгдэж
нэргүи
нэрд
нэрии
нэрлэв
нэрлэвэл
нэрлэгддэг
нэрлэгджээ
нэрлэгдсэн
нэрлэгдэж
нэрлэгдэн
нэрлэгдэнэ
нэрлэгдэх
нэрлэдэг
нэрлэж
нэрлэжээ
нэрлэн
нэрлэнэ
нэрлэсэн
нэрлэх
нэрлэхэд
нэрлэхээр
нэрлээд
нэрнии
нэрнээс
нэрс
нэрсии
нэрт
нэртии
нэртэи
нэршил
нэршилтэи
нэршлии
нэршлээр
нэршсэн
нэрэлдэг
нэрэмжит
нэрэн
нэрэнд
нэрээ
нэрээр
нэрээрээ
нэрээс
нэтфлов
нэхии
нэхмэл
нэхмэлии
нэхсэн
нэхэж
нэхэн
нэхэх
нээ
нээв
нээгддэг
нээгджээ
нээгдсэн
нээгдэв
нээгдэж
нээгдэх
нээгч
нээж
нээжээ
нээлт
нээлтии
нээлттэи
нээлтэд
нээлтээ
нээлтүүд
нээлтүүдии
нээлээ
нээн
нээр
нээс
нээснии
нээснээр
нээсэн
нээх
нээхии
нээхэд
нээхээр
нюрнберг
нюрнбергии
ня
нягт
нягталж
нягтлан
нягтрал
нягтралтаи
нягттаи
нягтшил
нягтын
нялх
нялхсын
нялцгаи
ням
нямаа
нямаагии
нямбаи
нямбаяр
нямбуу
нямдаваа
нямдорж
нямжав
нямсүрэн
нямхүү
нямын
нян
нянг
нянгии
нярав
няраи
няцааж
няцаасан
няцаах
нү
нүб
нүглии
нүглээ
нүгэл
нүд
нүдии
нүднии
нүдтэи
нүдэн
нүдэнд
нүдэндээ
нүдэт
нүдээ
нүдээр
нүсэр
нүх
нүхии
нүхнии
нүхтэи
нүхэн
нүхэнд
нүцгэн
нүүд
нүүдии
нүүдлии
нүүдэл
нүүдэллэдэг
нүүдэллэж
нүүдэллэн
нүүдэлчдии
нүүдэлчид
нүүдэлчин
нүүж
нүүжээ
нүүлгэж
нүүлгэн
нүүлгэсэн
нүүлгэх
нүүн
нүүр
нүүргэвч
нүүрии
нүүрнии
нүүрс
нүүрсии
нүүрснии
нүүрстөрөгч
нүүрстөрөгчии
нүүрсустөрөгч
нүүрсхүчлии
нүүртэи
нүүрэн
нүүрэнд
нүүрээ
нүүрээр
нүүсэн
нүүх
нөгчжээ
нөгчсөн
нөгчсөнии
нөгөө
нөгөөг
нөгөөд
нөгөөтэи
нөгөөх
нөж
нөлөө
нөлөөг
нөлөөгөө
нөлөөгөөр
нөлөөлдөг
нөлөөлж
нөлөөлжээ
нөлөөллии
нөлөөллөөс
нөлөөлнө
нөлөөлсөн
нөлөөлөл
нөлөөлөх
нөлөөлөхгүи
нөлөөн
нөлөөнд
нөлөөнии
нөлөөнөөс
нөлөөтэи
нөмрөг
нөмрөгии
нөмөр
нөр
нөхдии
нөхдөө
нөхрии
нөхрөө
нөхцлии
нөхцөл
нөхцөлд
нөхцөлии
нөхцөлт
нөхцөлтэи
нөхцөлөөр
нөхөд
нөхөдтэи
нөхөж
нөхөн
нөхөр
нөхөрлөж
нөхөрлөл
нөхөрлөлии
нөхөрсөг
нөхөрт
нөхөртэи
нөхөх
нөөс
нөөц
нөөции
нөөцлөх
нөөцтэи
нөөцөд
нөөцөлсөн
нөөцөө
нөөцөөр
нөөцөөс
о
оак
об
обама
област
области
область
обои
обоих
объект
объектив
объектии
объектуудыг
объектыг
объектын
обь
обьект
обьектии
обьектууд
обьектуудыг
обьектын
ов
ова
овгии
овгоос
овгор
овгууд
овгуудыг
овгуудын
овгын
овернь
овог
овогт
овогтны
овогтои
овогтон
овоо
овоог
овоогии
овоолго
овоолгын
овооны
овоот
овор
оврын
овъе
ог
ога
огии
огноо
огоор
оготно
огт
огтлол
огтлолын
огтлох
огтолж
огторгуи
огтхон
огуз
огцом
огцорсны
огцорсон
огцоруулж
огцорч
огцорчээ
огцров
огцрох
огцрохыг
огцруулах
огцруулж
од
ода
одбаяр
одгэрэл
оддыг
оддын
одер
одесса
оджээ
одиссеи
одны
одов
одод
одож
одои
одом
одон
одонг
одонгии
одонгоор
одонт
одончимэг
одоо
одоог
одоогии
одоогоор
одоогоос
одооны
одох
одсон
одсүрэн
одтои
одууд
одхүү
одыг
одын
ое
озеф
озоны
ои
ок
ока
окинава
оклахома
око
оксид
оксли
оксфорд
оксфордын
октябрии
октябрын
октябрь
октября
ол
ола
олбооны
олборлодог
олборлож
олборлолт
олборлолтын
олборлосон
олборлох
олгов
олгогдсон
олгогч
олгодог
олгодоггүи
олгож
олгожээ
олгои
олгон
олгоно
олгоогүи
олгосон
олгох
олгохгүи
олгоход
олгохоор
олгохыг
олгохын
олд
олдвор
олдворт
олдворууд
олддог
олджээ
олдман
олдмол
олдог
олдож
олдоогүи
олдоод
олдох
олдохгүи
олдсон
олег
олж
олжээ
олз
олзлов
олзлогджээ
олзлогдогсод
олзлогдож
олзлогдсон
олзлон
олзны
олзолж
олзолжээ
олзолсон
олзоо
оливер
оливын
олигтои
олимп
олимпиа
олимпиад
олимпиадаас
олимпиадад
олимпиадын
олимпиакос
олимпии
олимпик
олимпод
олимпоос
олимпт
олимпыг
олимпын
олно
олноо
олноор
олноороо
олноос
олны
олныг
олов
олол
ололт
ололтыг
олон
олонд
олондоо
олонлог
олонлогии
олонтаа
олонтои
олонтоо
олонх
олонхи
олонхии
олоогүи
олоод
олох
олохгүи
олохдоо
олоход
олохоор
олохыг
олохын
олс
олсон
олсонгүи
олсоор
олтриг
олхонууд
олширч
ольга
ом
оман
оманы
омар
омбо
омгии
омега
омог
омск
он
онги
онгии
онгод
онгои
онгон
онгоны
онгорхои
онгоц
онгоцноос
онгоцнууд
онгоцны
онгоцонд
онгоцоо
онгоцоор
онгоцтои
онгоцууд
онгоцуудыг
онгоцыг
онгуд
онд
ондоо
онегин
онигоо
онлаи
онмх
оннигуд
оно
онов
оновчтои
оногдож
оногдох
онож
онол
онолд
онолоо
онолоор
онолууд
онолч
онолыг
онолын
онон
оноо
оноов
оноог
оноогоо
оноогоор
оноож
оноожээ
оноолт
онооноос
онооны
оноор
оноос
оноосон
оноотои
оноох
оносон
онохуи
оношилгоо
оношлогоо
оношлох
онтарио
онтои
онууд
онуудад
онуудын
онц
онцгои
онцлог
онцлогии
онцлогоор
онцлогоос
онцлогт
онцлогтои
онцлогууд
онцлон
онцлох
онцолж
онцолжээ
онцолсон
онцын
оны
оныг
оныхоо
оньс
оньсого
оньсон
оо
оод
оозэки
оор
оос
оошима
опек
опел
опелии
опелын
оператор
операторууд
операторын
операци
ополе
оптик
оптикии
опцион
ор
оракл
орвол
орвоос
орган
организм
организмд
организмууд
организмыг
организмын
органик
оргил
оргилболд
оргилд
оргилдоо
оргилуун
оргилуур
оргилын
оргодол
оргож
оргон
оргосон
орд
ордан
орданы
ордноос
ордны
ордныг
ордог
ордоггүи
ордод
ордон
ордонг
ордонд
ордондоо
ордоны
ордоос
ордос
ордосын
ордууд
ордыг
ордын
оре
орегон
оренбург
орж
оржээ
орикон
орк
оркестр
оркии
оркт
оркын
орландо
орлеан
орлеанс
орлого
орлогоо
орлогоор
орлогоороо
орлогоос
орлоготои
орлогч
орлогчоор
орлогыг
орлогын
орлож
орлон
орлоо
орлох
орлуулах
орлуулж
орно
орноо
орноор
орноос
орноосоо
орнууд
орнуудаар
орнуудаас
орнуудад
орнуудтаи
орнуудыг
орнуудын
орны
орныг
орныхоо
оров
орог
орогнож
орои
оролгүи
оролддог
оролджээ
оролдлого
оролдлогыг
оролдлогын
оролдов
оролдож
оролдох
оролдсон
оролмаа
оролт
оролтыг
оролтын
оролцдог
оролцдоггүи
оролцжээ
оролцлоо
оролцов
оролцогч
оролцогчдын
оролцогчид
оролцогчии
оролцож
оролцон
оролцоно
оролцоо
оролцоог
оролцоогүи
оролцоод
оролцооны
оролцоотои
оролцох
оролцохгүи
оролцохдоо
оролцоход
оролцохоор
оролцохоос
оролцохыг
оролцохын
оролцсон
оролцсоноос
оролцсоны
оролцсоор
оролцуулаад
оролцуулан
оролцуулах
оролцуулахгүи
оролцуулж
оролцуулсан
оромгүи
орон
оронг
оронгүи
оронд
орондоо
оронтои
оронч
орончдын
орончид
ороны
ороо
ороогүи
ороод
ороож
ороомог
ороосон
ороох
орос
оросод
оросоор
оросоос
орост
оростои
оросууд
оросуудаас
оросуудад
оросуудын
оросыг
оросын
орох
орохгүи
орохдоо
ороход
орохоор
орохоос
орохыг
орохын
орсноор
орсноос
орсны
орсныг
орсон
орсоноор
ортодокс
ортои
оруулаагүи
оруулаад
оруулав
оруулагч
оруулагчид
оруулалгүи
оруулалт
оруулалтаар
оруулалттаи
оруулалтыг
оруулалтын
оруулан
оруулах
оруулахаар
оруулахад
оруулахгүи
оруулахдаа
оруулахыг
оруулахын
оруулдаг
оруулж
оруулжээ
орууллаа
оруулна
оруулсан
оруулснаар
оруулсны
орхив
орхигдсон
орхидог
орхиж
орхижээ
орхин
орхино
орхиод
орхисон
орхих
орхон
орхоны
орц
орч
орчим
орчимд
орчин
орчинг
орчинд
орчиндоо
орчинтои
орчины
орчлон
орчлонгии
орчмоор
орчмоос
орчмыг
орчмын
орчноо
орчноос
орчны
орчныг
орчуулагдаж
орчуулагдсан
орчуулагч
орчуулагчаар
орчуулан
орчуулах
орчуулбал
орчуулга
орчуулгаар
орчуулгыг
орчуулгын
орчуулж
орчуулжээ
орчуулсан
орчуулснаар
оршвои
оршдог
оршивои
оршиж
оршил
оршин
оршино
орших
оршихуи
оршсон
оршсоор
оршуулах
оршуулга
оршуулгын
оршуулдаг
оршуулжээ
оршуулсан
орыг
ос
осака
осама
осет
осети
осетии
осеф
оскар
оскарт
оскарын
осло
ослоор
ослын
осман
османчууд
османы
осмос
осол
осолд
осолдож
осолдон
осолдсон
осор
осорын
оспан
оспаны
остин
от
ота
отгии
отго
отгон
отгонбаатар
отгонбаяр
отгонтэнгэр
отелло
отог
отогии
отои
оточ
отряд
отрядад
отрядууд
отрядыг
отрядын
оттава
отто
оттоманы
отчигин
оу
оувс
оуох
оуфо
оухбх
оухм
оуэн
оф
офицер
офицерии
офицерууд
офицеруудыг
офицеруудын
офицерын
офф
оффис
оффисын
оффт
оффын
охаи
охан
охид
охидыг
охидын
охин
охиноо
охинтои
охины
охиныг
оху
оцон
оч
очдог
очжээ
очив
очиж
очин
очир
очирбат
очирбатын
очирваань
очирт
очирын
очих
очихдоо
очиход
очно
очоод
очсон
ош
оын
оюу
оюун
оюунбилэг
оюунболд
оюунгэрэл
оюунлаг
оюунчимэг
оюуны
оюутан
оюутантаи
оюутнууд
оюутнуудад
оюутнуудыг
оюутнуудын
оюутны
оюутолгои
п
па
пабло
павел
павлов
паг
пагва
падерборн
падма
паи
пак
пакет
пакетии
пакетууд
пакетуудыг
пакетыг
пакетын
пакистан
пакистанд
пакистаны
палау
палеолит
палеолитын
палеонтологи
палеонтологии
палермо
палестин
палестины
памир
памирын
пан
панам
панамерикии
панамын
панатинаикос
панжаб
панк
панчо
паок
паоло
пап
папаар
папуа
папын
пара
парагваи
парад
паразит
параллель
параметр
параметрии
параметрууд
параметрүүд
параметрүүдии
пари
парис
парисии
парист
парисын
парк
паркер
паркии
паркт
паркын
парламент
парламентаас
парламентад
парламентии
парламенттаи
парламентыг
парламентын
парма
партизан
партизанууд
партизаны
паскаль
паспорт
патент
патентыг
патентын
патрик
паул
пауло
паулу
паша
паян
пе
педолитүүд
педро
пежо
пеи
пеликанс
пембертон
пенитрэшин
пеннсилвани
пеннсилвании
пенсильвани
пентатоник
пептид
пептидии
пер
перваи
перепись
перес
перпендикуляр
перс
перси
персии
персонал
персэд
персээр
перт
перу
перугии
петер
петербург
петербургии
петербургт
петр
петрии
петров
петрович
петроград
петроградын
пи
пиано
пии
пикассо
пикассогии
пилсудски
пин
пиньинь
пионер
пионерии
пионерын
пирамид
пирамидын
пирелли
пиренеи
пистонс
питер
пиус
пифагор
пифагорын
плазм
плазма
плазмын
планк
планкии
плано
пластик
платинум
платон
платоны
платформ
платформоор
плеи
плит
плэи
пномпень
по
под
пои
пол
поле
полимер
полимераза
политехникии
поло
пологии
поль
польш
польшид
польшии
польшоор
польшууд
померан
помераны
помпеи
поп
попов
поппе
порт
портал
портер
портланд
портленд
портлэнд
порто
портсмут
порту
португал
португалаар
португали
португалии
португалчууд
португалын
португаль
портууд
портыг
портын
порше
поршегии
пост
потанин
потенциал
потенциалын
потсдамын
поттер
поттэр
потын
прав
правда
правительства
правления
праг
прага
прагии
прагматик
прадеш
праи
практик
практикии
практикт
прелюди
премьер
пресс
престон
преториа
префикс
пржевальскии
при
пригии
прид
приднестрии
призрен
примаков
примаковын
принс
принсипи
принстоны
принт
принтер
принтерии
принтинг
приштина
проблемы
прованс
провинция
програм
програмаа
програмаар
програмд
программ
программаар
программууд
программуудыг
программчлал
программчлалын
программыг
программын
програмтаи
програмууд
програмуудад
програмуудыг
програмуудын
програмчлал
програмчлалын
програмчлах
програмыг
програмын
продакшн
продакшны
продьюсер
продюсер
продюсерлэсэн
продюсерээр
прокариот
прокси
прокурор
прокурорын
пропорциональ
проректор
протестант
прото
протокол
протоколд
протоколоор
протоколууд
протоколуудыг
протоколуудын
протоколыг
протоколын
протон
протоны
профаи
профессор
профессороор
профессорын
профиль
процедур
процедурыг
процесс
процессд
процессии
процессоор
процессоос
процессор
процессорт
процессорыг
процессорын
процесст
процессууд
процессуудад
процессуудыг
процессуудын
процессыг
процессын
прусс
пруссии
пруссын
псв
псевдоним
птолемеи
птоломеи
пу
пулеме
пулемет
пулитцер
пулитцерии
пунии
пунктов
пунсалмаагии
пунцаг
пунцагдорж
пунцагии
путин
путинии
путины
путистин
пуужин
пуужинг
пуужингии
пуччини
пушкин
пушкины
пуэрто
пфальц
пфальцын
пциг
пцигии
пьер
пэгжэ
пэи
пэлас
пэн
пэрлээ
пэрэнлэи
пянз
пүе
пүнлүү
пүрэв
пүрэвгарьд
пүрэвдагва
пүрэвдорж
пүрэвдоржии
пүрэвжав
пүрэвжавын
пүрэвии
пүрэвсүрэн
пүсань
пүүс
р
ра
раа
раад
раар
рабфак
рав
равдан
равдангии
рави
раг
раглал
рагны
рагт
рагч
рагчаа
рагчид
рагчии
рад
радар
радикал
радио
радиог
радиогии
радиогоор
радиод
радиус
радиустаи
радууд
радуудыг
радуудын
радыг
радын
раи
рал
ралдаг
ралт
ралтаа
ралтаас
ралтад
ралтанд
ралтыг
ралтын
ральф
рам
рамат
рамдал
рамдалт
рамдах
рамдахчуудын
рамдлын
рамон
рамсарын
ран
ранд
рандаа
рапс
рапсын
расинг
рассел
расселл
рауль
рафаэль
рах
рахман
рачневскии
раш
рашаан
рашаант
рашаантын
рашааны
рашааныг
рашид
рашидаддин
рвэи
рга
ргии
ргоор
ргоос
ргууд
ргэвч
ргүи
рд
рдаг
рдахь
рдог
рдогч
рдох
рдт
рдугаар
рдугаарт
рдын
ре
реал
реалист
реалити
регби
регбигии
регистер
регистр
регистрии
регистрт
ред
редактор
редакторлах
редактороор
редакторын
редакц
редакцид
редакции
рединг
резин
резинии
резинэн
реи
реклам
рекорд
рекордыг
ректор
ремикс
рене
ренн
рено
реногии
рентген
реп
реппер
реппэр
рерих
рерихии
рес
респ
республик
республики
ресторан
рецептор
рецепторууд
рецепторыг
рецепторын
рж
ри
рианна
ривер
ривера
рид
рии
рик
рика
рикагии
рикардо
рики
рикии
рико
римскии
рина
ринбүчи
ринчен
ринчин
ринчинбал
рио
рис
ритм
ритчи
рихард
ричард
ричардсон
рк
рла
рлага
рлагад
рлаганд
рлагатаи
рлагыг
рлагын
рладаг
рлаж
рлажээ
рлал
рлалаа
рлалаар
рлалаас
рлалд
рлалтаи
рлалыг
рлалын
рлан
рлана
рласан
рлах
рлии
рлингии
рлуулан
рлуулах
рлуулдаг
рлуулж
рлуулжээ
рлуулна
рлуулсан
рлэл
рн
рна
рнаас
рноо
рнх
рны
ро
роб
роббен
роберт
роберто
робертс
робертсон
робин
робинсон
робот
роботууд
роботын
роверс
рог
роггүи
рогии
рогт
рогтои
род
родригес
родстер
рожер
роза
рои
рок
рокетс
рокки
рокоссовскии
ролл
роллинг
роллын
ролцоо
ролцоогоор
ролцоох
ром
рома
роман
романаа
романд
романов
романс
романтизм
романтик
романы
романыг
ромбо
ромд
ромео
ромеогии
ромчууд
ромчуудын
ромын
рон
рона
роналд
рональд
рональдо
ронд
рондоо
ронтоо
роо
роод
роол
роолд
роолын
роор
роос
росс
россии
россия
ростов
ростовын
росток
рот
ротари
роттердам
роулинг
роулингии
рох
рп
рс
рсаар
рсаг
рсан
рсон
рсэн
рт
ртаи
ртож
ртои
ртон
ртох
ртсон
ртуулах
ртын
ру
руанда
руандагии
рубикии
рублии
рубль
рубрук
рудн
рудольф
рузвельт
руи
румын
румынд
румынчууд
румыны
румынь
рун
руни
руперт
русии
руслан
русскии
руссо
русь
рут
рутер
рутерии
рутерууд
руу
руугаа
рууд
руулагч
руулагчаар
руулагчид
руулагчии
руулал
руулан
руулах
руулга
руулгаар
руулгыг
руулгын
руулж
руулжээ
рууллын
руулсан
рх
рхан
рхандулаан
рханы
рхи
рхлоо
рхлыг
рхлын
рхогч
рхож
рхол
рхолд
рхолоо
рхолт
рхолыг
рхолын
рхон
рхох
рхсон
рцаг
рцагт
рцагтаи
рч
рчээ
ршдаг
ршиж
ршил
ршилд
ршилтаи
ршлаар
ршлыг
ршлын
ршсан
ршуулах
ршуулдаг
ршуулж
ршуулсан
рыг
рын
рыцарии
рыцарь
рэв
рэг
рэд
рэи
рэл
рэлтэт
рэн
рэп
рэппэр
рэпторс
рэх
рюсселсхаи
рюү
рязань
рүү
рүүгээ
рүүзвельт
рүүлж
рүүлсэн
рүүлэн
рүүлэх
рүүтэр
рөүз
рөүтер
рөүтерии
с
са
саа
саад
саадгүи
саадтаи
саадыг
саажилт
саальчин
саар
саарал
сааралдуу
саармаг
саармагжуулах
саатал
саатуулж
сав
саваа
саваар
саван
саванд
савд
савдаг
савны
савхин
савыг
савын
саг
сага
сагаг
сагагии
сагадаи
саган
сагил
саглагар
сагнасан
сагс
сагсаи
сагсан
сагсанбөмбөгч
сад
садан
садар
саддам
саи
саид
сакаи
сакраменто
саксон
саксоны
сал
салаа
салаалсан
салааны
салаатаи
салан
саланги
салангид
салах
салбар
салбараа
салбараар
салбараас
салбарлан
салбарласан
салбарт
салбартаа
салбартаи
салбарууд
салбаруудад
салбаруудыг
салбаруудын
салбарыг
салбарын
салгаж
салган
салгасан
салгах
салж
салжээ
салли
салсан
салст
салхи
салхии
салхин
салхинд
салхины
салхит
салхитаи
салшгүи
сальвадор
салют
сам
самар
самара
самарканд
самба
самбааг
самбар
самбараас
самбарт
самбарыг
самбарын
самбо
самбогии
самбочин
самбуу
самбуугии
самдан
самдангии
сами
самоа
сампдориа
самсунг
самураи
самуун
самууны
самууныг
самуэл
самуэль
самүраи
сан
сана
санаа
санааг
санаагаа
санаагаар
санаанаас
санаанд
санаандгүи
санаанууд
санааны
санаархаж
санаархал
санаархсан
санаатаи
санаачилга
санаачилгаар
санаачилгыг
санаачилж
санаачилсан
санаачлага
санаачлагаар
санаачлагатаи
санаачлагч
санаачлагыг
санаачлан
санагдаж
санагдана
санагддаг
санагдуулам
санадаг
санаж
санал
саналаа
саналаар
саналаас
саналтаи
саналыг
саналын
санамж
санамсаргүи
санан
санасан
санах
санваартан
санваартны
санг
сангаа
сангаар
сангаас
сангии
сангууд
сангуудын
сангүи
санд
сандаа
сандаг
сандагдорж
сандагии
сандал
сандарч
сандерленд
сандерлэнд
сандо
сандра
сандуи
санжаа
санжаагии
санжаадамба
санжаасүрэнгии
санжии
санжмятав
санз
санкт
санс
сансар
сансарт
сансарын
санскрит
сансраас
сансрын
сант
санта
сантаи
сантандер
сантехникии
сантиметр
сантмаргац
санто
сантос
сантьяго
сануулга
сануулж
санхүү
санхүүгии
санхүүждэг
санхүүжилт
санхүүжилтии
санхүүжилтээр
санхүүжүүлж
санхүүжүүлэх
санч
санчес
санчир
саны
саныг
саппоро
сар
сара
сараар
сараас
сарагоса
сараево
сараи
саран
сарантуяа
саратов
сарвуу
сард
сарлаг
сарлагии
сармагчин
сарнаи
сарнисан
сарны
сарт
сартаг
сартаи
сартр
сартуул
саруудад
саруул
сарыг
сарык
сарын
сарьдаг
сарьсан
сатурн
саудын
саутхемптон
саха
сахал
сахалин
сахалины
сахалт
сахалтаи
сахар
сахарын
сахиж
сахил
сахилга
сахин
сахисан
сахиулах
сахиулахын
сахиус
сахиусан
сахих
сахлын
сацуу
сая
саяаас
саяар
саяас
саяд
саяны
саятан
саяхан
саяын
сбол
сболчин
сболын
сбүүк
свати
свен
свердловск
свитч
свифт
свич
свичии
свэр
сгз
сгэж
сгэн
сгэсэн
сгэх
сгүи
сд
се
себастиан
себастьян
севенти
севилья
сегмент
сегментии
сегмэнт
сегмэнтии
сезар
сеи
сек
секс
сексии
сектор
секторын
секунд
секундын
секундэд
секундээр
селевк
селтик
селтикс
селтиксии
сельских
сельта
семантик
семе
семинар
сен
сенат
сенатад
сенатор
сенатч
сенатын
сенегал
сенегалии
сенегалын
сении
сенна
сент
серб
серби
сербид
сербии
сербичүүд
сербүүд
сервер
серверии
серверлүү
серверт
сервертэи
серверээс
серверүүд
серверүүдии
сервис
сервэр
сергеевич
сергеи
сери
сериал
серие
серии
серик
серин
серия
серс
сертификат
сертификатыг
си
сиамын
сибир
сибирии
сибирь
сибирьт
сиг
сигнал
сид
сиднеи
сидни
сиена
сии
сиклидууд
сиксерс
силва
силези
силезии
силикат
симбиоз
симон
симпсон
симуляц
симуляци
симфони
симфонии
симфонио
син
синаи
синг
сингапур
сингапурт
сингапурын
сингиоро
сингл
синглии
синглэ
синглээ
синглүүд
синдром
синтакс
синтез
синтетик
синь
сир
сири
сирии
сислог
систем
системд
системии
системтэи
системээ
системээр
системээс
системүүд
системүүдии
системүүдэд
системүүдээс
сити
ситигии
ситид
ситии
сититэи
сицили
сицилии
сиэтл
ск
скаи
скала
скан
скандал
скандинавын
ская
скии
скиф
ских
ского
скои
скопье
скотт
скрипт
скриптии
скудериа
слав
славын
славян
слер
словак
словакии
словени
словении
слол
слолд
слолоос
слолыг
слолын
слэл
слэлд
слэлии
слэлтэи
слэлээ
слэлээр
слэлээс
см
смаи
смарт
смирнов
смит
смитии
смоленск
смоленскии
снаа
снаар
снаараа
снаас
снз
снии
сноубордчин
снукер
снууд
сны
сныг
сных
сныхаа
снээр
снээс
со
советских
согд
соглашение
соглашения
согоо
согтуу
согтууруулах
сод
содбилэг
содном
содномдорж
содномын
содов
содон
сое
сои
сок
сократ
сократыг
сократын
сол
солгои
солигддог
солигдож
солигдон
солигдоно
солигдох
солигдсон
солии
солилцдог
солилцож
солилцоо
солилцоог
солилцоогоор
солилцоонд
солилцооны
солилцох
солилцоход
солилцсон
солин
солино
солиод
солиот
солир
солих
солиход
солли
соло
соломон
соломоны
солон
солонго
солонгос
солонгосоор
солонгосоос
солонгост
солонгостоо
солонгосчууд
солонгосыг
солонгосын
солт
сольж
сольжээ
сольсон
сомали
сомалии
сон
сонат
сонг
сонгино
сонгинохаи
сонгов
сонгогддог
сонгогджээ
сонгогдов
сонгогдож
сонгогдон
сонгогдоно
сонгогдоод
сонгогдох
сонгогдсон
сонгогчдын
сонгодог
сонгож
сонгожээ
сонголт
сонголтоор
сонголттои
сонголтыг
сонголтын
сонгомол
сонгон
сонгонд
сонгоно
сонгосноор
сонгосон
сонгох
сонгохдоо
сонгоход
сонгуулиар
сонгуулии
сонгууль
сонгуульд
сонгуульт
сонд
сондгои
сондоо
сонжун
сонин
сонинг
сонинд
сонинууд
сонины
сониныг
сонирхдог
сонирхлоо
сонирхлыг
сонирхлын
сонирхогч
сонирхогчдын
сонирхогчид
сонирхогчии
сонирхож
сонирхол
сонирхолгүи
сонирхолд
сонирхолтои
сонирхолыг
сонирхон
сонирхох
сонирхсон
сонирхуулахад
сониуч
соно
соном
сономын
сонор
сонорт
сонсгол
сонсголын
сонсдог
сонсогдож
сонсогч
сонсогчдод
сонсогчдын
сонсогчид
сонсож
сонсон
сонсоод
сонсох
сонсоход
сонссон
соор
сопрано
сопхистууд
сор
сорви
соргог
сорж
сорил
сорилт
сорилын
сорин
соронз
соронзон
соронзонболд
соронзонгии
сорос
сорох
сорт
сортын
сорхагтани
сорхон
сорьж
сосорбарам
сосьедад
сото
софи
софии
сохе
сохор
социал
социализм
социализмыг
социализмын
социалист
социалистических
социалистууд
социаль
социологи
социологии
социологич
сочи
сочии
сошиал
сошо
союз
союза
спа
спаи
спарта
спартак
спартакиадын
спартын
спб
спе
спектр
спектрии
спенсер
спилберг
спираль
спирт
сплит
спорт
спортинг
спортод
спортоор
спортоос
спортс
спортыг
спортын
спурс
спөрс
сс
ссан
ссср
ст
ста
ставрополии
стаи
сталин
сталинград
сталинградын
сталинд
сталины
сталиныг
стамбул
стамбулын
стан
стандард
стандарт
стандартаар
стандартад
стандартууд
стандартуудыг
стандартчилагдсан
стандартыг
стандартын
станислав
станц
станцаас
станцад
станции
станцтаи
станцууд
станцыг
станцын
стар
старт
статемент
статементии
статик
статикии
статистик
статистикии
статус
статусаар
статустаи
статусыг
статья
стеи
стек
стекии
степан
стер
стерлинг
стерлингии
стерлингээр
стефан
стефен
стив
стивен
стилии
стиль
стнии
стои
сток
стокгольм
стокесии
стокхольм
стор
сторон
стр
страсбург
стратеги
стратегии
стратегич
стресс
стрии
студи
студид
студии
студитэи
студын
стэи
стэн
стэнли
стэнфорд
стэнфордын
стюарт
су
суарес
субъект
субъектив
суваг
сувагт
сувагтаи
суварга
суваргын
сувгаар
сувгии
сувгууд
сувгуудыг
сувд
сувдан
сувилагч
сувилал
сувиллын
суворовын
суврага
суга
сугар
сугас
судал
судалгаа
судалгааг
судалгаагаа
судалгаагаар
судалгаанаас
судалгаанд
судалгаанууд
судалгааны
судалдаг
судалж
судалжээ
судална
судалсан
судалсны
судалт
судалтаи
судан
суданы
судар
сударт
судас
судасны
судлаад
судлаач
судлаачаар
судлаачдын
судлаачид
судлаачии
судлагдаагүи
судлагдаж
судлагдахуун
судлагдсан
судлаж
судлал
судлалаар
судлалд
судлалыг
судлалын
судлан
судлана
судлах
судлахаар
судлахад
судлахын
судрыг
судрын
судсаар
судсанд
суздалии
суздаль
суи
суис
сул
сулавеси
суларсан
суларч
сулеи
суллагдсан
суллаж
суллан
сулласан
суллах
сулрах
сулруулж
сулруулсан
султан
султант
султаны
сульфат
сульфид
сум
сумаа
сумаар
сумаас
суман
сумангии
суманд
сумандаа
суманчулуун
суматра
сумд
сумдад
сумдтаи
сумдыг
сумдын
сумны
сумо
сумтаи
сумууд
сумхүү
сумъяа
сумъяабаатар
сумъяабазар
сумыг
сумын
сумынхаа
сун
сунаж
сунан
сунасан
сунгаанд
сунгав
сунгаж
сунгалт
сунган
сунгасан
сунгах
сундуи
суне
суннит
сунь
суонси
супер
суперсоникс
сур
сураад
сураг
сураггүи
сурагч
сурагчдад
сурагчдыг
сурагчдын
сурагчид
сурагчии
сурагчтаи
суралцаад
суралцагч
суралцаж
суралцан
суралцах
суралцахаар
суралцдаг
суралцжээ
суралцсан
суран
сурах
сурахаар
сурахад
сурвалж
сурвалжаас
сурвалжид
сурвалжии
сурвалжилга
сурвалжилсан
сурвалжит
сурвалжлага
сурвалжлагч
сурвалжлагчаар
сурвалжлах
сурвалжууд
сурвалжуудад
сургаал
сургаалии
сургаалыг
сургаалын
сургааль
сургагч
сургадаг
сургаж
сургалт
сургалтаар
сургалтад
сургалтанд
сургалттаи
сургалтыг
сургалтын
сургамж
сурган
сургасан
сургах
сургуулиа
сургуулиар
сургуулиас
сургуулиасаа
сургуулии
сургуулилт
сургуулиуд
сургуулиудад
сургуулиудыг
сургуулиудын
сургууль
сургуульд
сургуульдаа
сургуультаи
сурдаг
сурж
суринам
сурлага
сурсан
суртал
сурталчилах
сурталчилгаа
сурталчилгааг
сурталчилгаанд
сурталчилгааны
сурталчилж
сурталчилсан
сурталчлан
сурталчлах
суртахуун
суртахууны
суртлыг
суртлын
сурч
сурчээ
сурын
сутаи
суу
суув
суугаа
суугаад
суугч
суугчдыг
суугчдын
суугчид
суугчтаи
суудаг
суудал
суудалд
суудалтаи
суудлаа
суудлаас
суудлаасаа
суудлыг
суудлын
сууж
суужээ
суулга
суулгаад
суулгав
суулгадаг
суулгаж
суулгажээ
суулган
суулгана
суулгасан
суулгах
суулгахаар
суулгахад
суулгац
суулт
суун
сууна
сууриа
суурии
суурилагдсан
суурилан
суурилдаг
суурилж
суурилсан
суурилуулан
суурилуулах
суурилуулж
суурилуулсан
суурин
сууринаас
сууринг
суурингаар
суурингии
суурингууд
суурингуудын
сууринд
суурины
суурь
суурьт
суурьтаи
суурьшдаг
суурьшжээ
суурьшигчид
суурьшиж
суурьшил
суурьшин
суурьших
суурьшлын
суурьшмал
суурьшсан
суусан
суусар
сууснаар
суусны
суут
суух
суухад
суухдаа
суухыг
сууц
сууцанд
сууцны
сууцыг
сухаи
суэции
сх
схем
схемд
схемии
схн
сч
счлон
сыг
сылги
сыма
сын
сырдарья
сычуань
сьерра
сэ
сэв
сэврэи
сэвэгзарам
сэг
сэдвии
сэдвээ
сэдвээр
сэдвүүд
сэдвүүдии
сэдэв
сэдэвлэн
сэдэвлэсэн
сэдэвт
сэдэвтэи
сэдэвчилсэн
сэдэж
сэдэл
сэдэлтээр
сэжиг
сэжигтэи
сэжун
сэи
сэк
сэлбэг
сэлбэх
сэлгэн
сэлгээ
сэлгээгээр
сэлгээнд
сэлгээнии
сэлгээнээс
сэлж
сэлт
сэлтии
сэлэгч
сэлэлт
сэлэлтии
сэлэм
сэлэнгии
сэлэнгэ
сэлэх
сэлүүр
сэм
сэн
сэнгэ
сэнгээ
сэнт
сэнтии
сэр
сэргии
сэргэж
сэргэлт
сэргэлтии
сэргэлэн
сэргэн
сэргэсэн
сэргэх
сэргээв
сэргээгдэх
сэргээж
сэргээжээ
сэргээлт
сэргээн
сэргээсэн
сэргээх
сэргээхии
сэргээхэд
сэргээш
сэргээшии
сэрээ
сэрээтэр
сэрээтэрии
сэрүүн
сэтгэгдлии
сэтгэгдэл
сэтгэгч
сэтгэж
сэтгэл
сэтгэлгээ
сэтгэлгээг
сэтгэлгээнии
сэтгэлд
сэтгэлдээ
сэтгэлзүи
сэтгэлии
сэтгэлт
сэтгэлтэи
сэтгэлээ
сэтгэлээр
сэтгэлээсээ
сэтгэмж
сэтгэн
сэтгэх
сэтгэхүи
сэтгэц
сэтгэции
сэтгүүл
сэтгүүлд
сэтгүүлзүи
сэтгүүлии
сэтгүүлч
сэтгүүлчдии
сэтгүүлчид
сэтгүүлчии
сэтгүүлээс
сэтгүүлүүд
сэтгүүлүүдии
сэтлэн
сэхээтнии
сэхээтнүүд
сэхээтнүүдии
сэхээтэн
сэцэн
сэцэнии
сээр
сю
сюань
сюи
ся
сян
сянь
сяньби
сяньбии
сяо
сяопин
сү
сүбэдэи
сүбээдэи
сүв
сүвии
сүвээр
сүг
сүжигт
сүзүки
сүи
сүлд
сүлдии
сүлднии
сүлжмэл
сүлжээ
сүлжээг
сүлжээгээ
сүлжээгээр
сүлжээн
сүлжээнд
сүлжээнии
сүлжээнээс
сүлжээнүүд
сүлжээнүүдии
сүлжээрүү
сүлжээтэи
сүм
сүмбэ
сүмбэр
сүмбээ
сүмд
сүмии
сүмо
сүмогии
сүмоч
сүмээс
сүмүүд
сүмүүдии
сүн
сүнс
сүнсии
сүнснии
сүнснүүд
сүнстэи
сүнь
сүр
сүргии
сүргээ
сүрдүүлэх
сүрлэг
сүрхии
сүрьеэ
сүрьеэгии
сүрэг
сүрэглэн
сүрэн
сүрэнгии
сүрэнжав
сүрэнжавын
сүрэнхорлоо
сүсэг
сүсэгтэн
сүх
сүхбаатар
сүхбаатарын
сүхбат
сүху
сүхээ
сүү
сүүг
сүүгээр
сүүд
сүүдии
сүүдрии
сүүдэр
сүүдэрт
сүүл
сүүлд
сүүлдээ
сүүлии
сүүлнии
сүүлт
сүүлтэи
сүүлч
сүүлчии
сүүлчээр
сүүлчээс
сүүлээр
сүүлээс
сүүн
сүүнии
сүүтэи
сөд
сөн
сөнид
сөнөд
сөнөсөн
сөнөөв
сөнөөгч
сөнөөж
сөнөөх
сөргүүлэн
сөргөлдөгч
сөргөлдөөн
сөргөөр
сөрж
сөрөг
сөрөн
сөрөх
сөүл
сөүлд
сөүлии
сөөг
т
та
таавар
таагүи
таалагдаагүи
таалагдаж
таалагдсан
таалал
тааламжгүи
тааламжтаи
таамаг
таамагладаг
таамаглаж
таамаглал
таамаглалыг
таамаглалын
таамагласан
таамаглах
таана
таар
тааралдаж
тааралдана
тааралдах
тааралддаг
тааралдсан
тааран
таарах
таарахгүи
таарвал
таардаг
таарна
таарсан
тааруу
тааруулан
тааруулж
тааруухан
таарч
таас
таатаи
таах
таашаал
таашаалд
таблет
тав
таваар
таваарын
таваас
таваг
таван
тавантолгои
тавд
тавдугаар
тавдугаарт
тавиад
тавив
тавигдав
тавигдаж
тавигдах
тавигддаг
тавигджээ
тавигдсан
тавилан
тавилангии
тавилга
тавин
тавина
тависан
тавиур
тавих
тавихаар
тавихад
тавихгүи
тавихдаа
тавихыг
тавнан
тавны
тавтаи
тавхаи
тавцан
тавцангии
тавцанд
тавын
тавь
тавьдаг
тавьж
тавьжээ
тавьсан
тавьснаар
таг
тагии
тагна
тагнаи
тагнан
тагнах
тагнуул
тагнуулч
тагнуулын
тагнын
тагтаа
тад
таж
тажик
тажикистан
тажикистаны
таи
так
такси
такт
тактик
тактикии
тал
талаа
талаар
талаараа
талаарх
талаархи
талаас
талаасаа
талархаг
талархаж
талархал
талархан
талархлыг
талархлын
талас
талбаи
талбар
талбараас
талбарт
талбарууд
талбарыг
талбарын
талд
талдаа
талер
талибан
талии
таллан
таллин
таллины
талст
талт
талтаи
талууд
талуудад
талуудтаи
талуудыг
талуудын
талх
талхны
талыг
талын
талынх
талынхан
там
тама
тамга
тамгагүи
тамганы
тамгатаи
тамгыг
тамгын
тамил
тамир
тамирчдаа
тамирчдаас
тамирчдыг
тамирчдын
тамирчид
тамирчин
тамирчнаар
тамирчны
тамирын
тамлан
тамхи
тамхины
тамын
тан
тана
танаи
танака
тангад
тангадын
танганьика
тангараг
тангии
тангуд
тангудууд
тангудын
танд
тандан
тандер
танзани
танзании
тани
танигдаж
танигдах
танигдсан
танигч
таниж
танил
танилт
танилтын
танилцаад
танилцаж
танилцан
танилцах
танилцжээ
танилцсан
танилцуулав
танилцуулагдсан
танилцуулан
танилцуулах
танилцуулга
танилцуулж
танилцуулжээ
танилцуулсан
танин
таниулан
таниулах
таниулж
таниулсан
таних
танихгүи
танк
танкии
танкны
танкууд
тансаг
тансан
танхаи
танхим
танхимаас
танхимд
танхимт
танхимтаи
танхимыг
танхимын
танъяа
таны
таныг
тань
таньд
таньдаг
таньж
таньшихуаи
тао
тар
тараав
тараадаг
тарааж
тараажээ
тараан
тараана
тараасан
тараах
тараг
тарагт
таран
тарас
тарвага
тарваган
тарвагатаи
тарвас
тарга
таргалалт
тарган
тарж
тариа
тариаг
тариалалт
тариалан
тариаланг
тариалангии
тариаланд
тариаланч
тариалах
тариалдаг
тариалж
тариалсан
тариан
тарианы
тариат
тариатын
тариачдыг
тариачдын
тариачид
тариачин
тариачны
тарилга
тарилгын
таримал
тарих
тарна
тарни
тарнии
таро
тарсан
тархаж
тархаи
тархалт
тархалттаи
тархалтыг
тархалтын
тархан
тархана
тархах
тархац
тархдаг
тархжээ
тархи
тархии
тархинд
тархины
тархмал
тархсан
тарчиг
тарчлаан
тарьж
тарьсан
тас
тасаг
тасагт
тасалбар
тасалгаа
тасалгаанд
тасалгааны
тасалдал
тасалдсан
тасалж
тасалсан
тасарсан
тасархаи
тасарч
тасгии
тасдан
таслал
таслалт
таслан
таслах
тасманы
тасралтгүи
тасран
тасрах
тасс
тат
тата
татаад
татаар
татав
татагдаж
татагдан
татагдах
татагддаг
татагдсан
татаж
таталцлын
татам
татан
татар
татарстан
татарууд
татарын
татах
татахад
татахуи
татахыг
татахын
татвар
татвараас
татварыг
татварын
татгалзав
татгалзаж
татгалзан
татгалзах
татгалзжээ
татгалзсан
татдаг
татжээ
татлага
татна
татсан
татьяна
таун
тафт
тах
тахаар
тахал
тахиа
тахианы
тахидаг
тахиж
тахии
тахил
тахилга
тахилгат
тахилгатаи
тахилгын
тахилын
тахин
тахир
тахих
тахлын
тахь
ташаа
ташкент
ташуу
ташуур
таян
тбб
тбилиси
тбилисии
тв
тверь
твиттер
тгэгдсэн
тгэгдэж
тгэгч
тгэж
тгэжээ
тгэл
тгэлии
тгэн
тгэсэн
тгэх
тгүүлж
тгүүлсэн
тдээ
те
театр
театро
театрт
театруудад
театрыг
театрын
тегеран
тегин
тед
тедад
тедди
тедии
теи
текст
текстии
тектоник
тектоникии
тел
теле
телевиз
телевизии
телевизэд
телевизээр
телевизүүдии
телеграф
телеграфын
телефон
телефоны
тель
температур
температураас
температурт
температуртаи
температурыг
температурын
тендер
теннесси
теннис
тенниснии
теннисч
теннисчин
тенор
теодор
теологи
теологич
теорем
теоремыг
теософии
тер
тереза
терек
терминал
термодинамик
термодинамикии
терри
территориальное
территории
терроризм
террорист
тесла
тест
тестии
техас
техасын
техник
техникии
техникт
техниктэи
техникум
техникумд
техникч
техникээр
техникүүд
техникүүдии
технологи
технологид
технологии
технологиор
технологитои
технологиуд
технологиудыг
технологич
тжээ
ти
тив
тивд
тивии
тивээр
тивээс
тиг
тигр
тигран
тии
тилл
тим
тимбервулвз
тимор
тиморын
тимоти
тимур
тинг
тип
тирозин
тис
титан
титаник
титмии
тито
титэм
тиффани
тлэг
тлэгджээ
тлэгдсэн
тлэгдэж
тлэгч
тлэл
тлэлд
тлэлии
тлэлч
тлэлүүд
тлэлүүдии
тлэх
тлүүлсэн
тн
тнии
тнууд
тнуудын
тны
то
тоба
тобагии
тобаго
тобагогии
тоби
тов
товгор
товлосон
товои
товруу
товхимол
товч
товчид
товчии
товчилж
товчилсон
товчлол
товчлон
товчлуур
товчоо
товчоог
товчоон
товчоонд
товчооны
товчоор
товчхон
товшин
товшуур
тоглов
тоглогджээ
тоглогдож
тоглогдсон
тоглогч
тоглогчдыг
тоглогчдын
тоглогчид
тоглогчии
тоглогчоор
тоглодог
тоглож
тогложээ
тоглолт
тоглолтдоо
тоглолтод
тоглолтон
тоглолтонд
тоглолтондоо
тоглолтоо
тоглолтоор
тоглолтоороо
тоглолтоос
тоглолтууд
тоглолтуудаа
тоглолтуудад
тоглолтуудыг
тоглолтуудын
тоглолтыг
тоглолтын
тоглолтынхоо
тоглон
тоглоно
тоглоогүи
тоглоод
тоглоом
тоглоомд
тоглоомнууд
тоглоомнуудын
тоглоомны
тоглоомонд
тоглоомууд
тоглоомыг
тоглоомын
тоглосны
тоглосон
тоглосоор
тоглох
тоглохдоо
тоглоход
тоглохоор
тоглохыг
тоглохын
тоглуулагч
тоглуулах
тоглуулж
тоглуулсан
того
тоголсон
тогоо
тогоон
тогоонд
тогоонтөмөр
тогоонтөмөрии
тогооны
тогооч
тогоруу
тогос
тогтворгүи
тогтворжиж
тогтворжуулах
тогтвортои
тогтдог
тогтжээ
тогтлыг
тогтмол
тогтнов
тогтнож
тогтножээ
тогтнол
тогтнолоо
тогтнолыг
тогтнолын
тогтноод
тогтносны
тогтносон
тогтнох
тогтноход
тогтнохоо
тогтов
тогтож
тогтол
тогтолтои
тогтолцоо
тогтолцоог
тогтолцоонд
тогтолцооны
тогтолцоотои
тогтоно
тогтоов
тогтоогджээ
тогтоогдоогүи
тогтоогдсон
тогтоогоогүи
тогтоогоод
тогтоогч
тогтоогүи
тогтоод
тогтоодог
тогтоож
тогтоожээ
тогтоол
тогтоолд
тогтоолоор
тогтоолт
тогтоолыг
тогтоолын
тогтоомж
тогтоомжии
тогтоон
тогтооно
тогтоосноор
тогтоосны
тогтоосон
тогтоох
тогтоохдоо
тогтооход
тогтоохоор
тогтоохыг
тогтоохын
тогтох
тогтохжаргал
тогтохын
тогтоц
тогтоцтои
тогтсон
тогтуун
тод
тодоор
тодорсон
тодорхои
тодорч
тодорчээ
тодотгож
тодотгол
тодотголтои
тодотгон
тодров
тодрон
тодруулан
тодруулах
тодруулахад
тодруулбал
тодруулдаг
тодруулж
тодруулжээ
тодруулсан
тое
тож
тои
токен
токио
токиогии
токиод
токүгава
тол
толбо
толбот
толботои
толгод
толгодын
толгои
толигор
толии
толилуулсан
толин
толины
толстои
толуи
толь
тольд
том
томас
томаш
томд
томе
томилдог
томилж
томилжээ
томилно
томилов
томилогджээ
томилогдов
томилогдож
томилогдон
томилогдоод
томилогдсон
томилолтоор
томилон
томилох
томилсон
томми
томоми
томоор
томоохон
томоохонд
томорсон
томорч
томпсон
томруун
томск
томхон
томъе
томье
тон
тонга
тони
тонн
тонны
тоног
тоноглогдсон
тоноглол
тонон
тонуул
тонхил
тоншуул
тоньюкук
тоо
тоог
тоогоор
тоогоороо
тоодог
тоолбол
тоолдог
тоолж
тооллого
тооллогоор
тооллогыг
тооллогын
тооллоор
тооллыг
тооллын
тоологдсон
тоолол
тоололд
тоололын
тоолох
тоолуур
тоон
тоонд
тооно
тооноос
тоонууд
тоонуудыг
тоонуудын
тооны
тоор
тоорил
тоормос
тоормосны
тоорои
тоос
тоосго
тоосгон
тоосон
тоот
тоотои
тооцвол
тооцдог
тооцжээ
тооцно
тооцогддог
тооцогдож
тооцогдоно
тооцогдох
тооцож
тооцон
тооцоо
тооцоог
тооцоогоор
тооцоолдог
тооцоолж
тооцооллыг
тооцооллын
тооцоолол
тооцоолон
тооцоолох
тооцоолоход
тооцоолсноор
тооцоолсон
тооцоонд
тооцооны
тооцоот
тооцох
тооцохгүи
тооцоход
тооцсон
топ
топологи
топологии
тор
тора
торго
торгомсог
торгон
торгоны
торгууд
торгуудын
торгуулии
торгууль
тори
торино
торлог
торо
торои
торон
торонто
торонтогии
торрес
торх
торын
тос
тосгодыг
тосгон
тосгонд
тосгоноос
тосгоны
тосгоныг
тосканагии
тослог
тосноос
тосны
тосон
тосонд
тосонцэнгэл
тосонцэнгэлии
тосоор
тостои
тосыг
тоталитар
тотгор
тоттенхэм
тоть
тохинуулах
тохиов
тохиодог
тохиож
тохиол
тохиолддог
тохиолдлууд
тохиолдлыг
тохиолдлын
тохиолдож
тохиолдол
тохиолдолд
тохиолдоно
тохиолдох
тохиолдсон
тохиолдуулан
тохиосон
тохиох
тохиргоо
тохиргоог
тохиргооны
тохирдог
тохиролцжээ
тохиролцов
тохиролцож
тохиролцон
тохиролцоо
тохиролцоонд
тохиролцооны
тохиролцсон
тохиромжгүи
тохиромжтои
тохирох
тохирохгүи
тохирсон
тохируулагдсан
тохируулагч
тохируулан
тохируулах
тохируулга
тохируулгын
тохируулдаг
тохируулж
тохируулна
тохируулсан
тохирч
тохои
тохоон
тохта
тохтамыш
тошлои
тр
траи
трактор
тракторч
трамваи
тран
транзистор
транс
транскрипц
транскрипции
трансмембран
транснистрии
транспортер
трансформатор
траффикии
трахеи
треи
трек
трекии
трекчин
трест
триггер
триггерии
трик
триллер
триллион
тринидад
трипл
трожанууд
трои
троллеи
трон
троны
тропикии
троцкии
трумэн
трэи
тс
тсан
тсвана
тсон
тсэн
ттг
ттэи
ту
тува
тувагии
тувалу
тувачууд
туг
тугаи
тугал
тугалга
тугалганы
тугии
тугухунь
туз
туи
тул
тула
тулаан
тулаанаа
тулаанд
тулаант
тулаанууд
тулаанч
тулааны
тулааныг
тулалдаан
тулалдаанаар
тулалдаанаас
тулалдаанд
тулалдааны
тулалдааныг
тулалдав
тулалдаж
тулалдан
тулалдах
тулалддаг
тулалджээ
тулалдсан
тулалдсаны
тулан
тулах
тулахад
тулга
тулгаж
тулгамдсан
тулган
тулгар
тулгаралт
тулгаран
тулгарах
тулгардаг
тулгарсан
тулгарч
тулгарчээ
тулгасан
тулгуур
тулгуурладаг
тулгуурлаж
тулгуурлан
тулгуурласан
тулгуурт
тулгууртаи
тулгуурын
тулгын
тулд
тулж
тулсан
тулуз
тулуи
тун
тунадас
тунадасны
тунадастаи
тунаж
тунамал
тунг
тунгаар
тунгалаг
тунгалагии
тунгалгии
тунгус
тундас
тундр
тунис
тунисын
туннель
тунхаг
тунхаглав
тунхаглаж
тунхаглажээ
тунхаглал
тунхаглалд
тунхаглалыг
тунхаглан
тунхагласан
тунхагласны
тунхагт
тур
тураг
туранхаи
турбин
турбины
турбо
турбулент
туре
турин
турины
турк
туркестан
туркестаны
туркии
туркмен
туркменистан
туркменистаны
туркт
туркууд
туркын
турфан
турхирсан
турш
туршдаа
туршид
туршиж
туршии
туршилт
туршилтаар
туршилтууд
туршилтыг
туршилтын
туршин
турших
туршлага
туршлагаа
туршлагаас
туршлагад
туршлагатаи
туршлагыг
туршлагын
туршуул
тус
тусад
тусаж
тусалдаг
тусалж
тусалжээ
тусална
тусалсан
тусам
тусах
тусгаар
тусгаарлагдсан
тусгаарлагч
тусгаарлаж
тусгаарлан
тусгаарласан
тусгаарлах
тусгагдсан
тусгадаг
тусгаж
тусгажээ
тусгаи
тусгал
тусгалаа
тусгалтаи
тусган
тусгасан
тусгах
тусдаа
тусдаг
тусивахын
туслагч
тусладаг
туслаж
туслалцаа
туслалцаатаи
туслалцах
тусламж
тусламжаар
тусламжии
тусламжтаи
туслан
тусласан
туслах
туслахаар
туслахыг
тусмаа
туссан
тустаи
тусч
тусыг
тусын
тутам
тутамд
тутамдаа
тутмаас
тутмын
тууд
туудад
туудыг
туудын
тууж
туужии
тууз
туузан
туул
туулаи
туулан
туулах
туулахад
туулж
туулжээ
туулии
туулсан
туулын
тууль
туульс
туульсын
туульч
туураи
тууралт
туурвидаг
туурвиж
туурвижээ
туурвил
туурвин
туурвисан
туурвих
туурга
туургатан
туургатны
туурии
туурь
тууш
тууштаи
тухаи
тухачевскии
тухн
тухтаи
тушаав
тушааж
тушаажээ
тушаал
тушаалаа
тушаалаар
тушаалаас
тушаалаасаа
тушаалд
тушаалтаи
тушаалтан
тушаалтнууд
тушаалтны
тушаалтныг
тушаалууд
тушаалыг
тушаалын
тушаан
тушаасан
тушаах
туяа
туяаг
туяаны
туяатаи
туялзуур
тх
тш
тыг
тын
тьерри
тэ
тэв
тэвчиж
тэвчээр
тэвчээртэи
тэвш
тэг
тэгвэл
тэгж
тэгсэн
тэгтэи
тэгтэл
тэгш
тэгшитгэл
тэгшитгэлии
тэгшхэн
тэгшээ
тэгэлгүи
тэгэхдээ
тэгэхлээр
тэгэхэд
тэгэхээр
тэгээд
тэд
тэдгээр
тэдгээрии
тэдгээрт
тэдгээрээс
тэднии
тэднээс
тэдэн
тэдэнд
тэдэнтэи
тэе
тэж
тэжу
тэжээвэр
тэжээдэг
тэжээж
тэжээл
тэжээлд
тэжээлии
тэжээллэг
тэжээлт
тэжээлтэн
тэжээлээ
тэжээлээр
тэжээх
тэи
тэл
тэлдэг
тэлж
тэлжээ
тэлмэн
тэлсэн
тэлсээр
тэлэлт
тэлэлтии
тэлэх
тэмбүү
тэмбүүгии
тэмбүүнцэр
тэмдгии
тэмдгээр
тэмдгүүд
тэмдгүүдии
тэмдэг
тэмдэггүи
тэмдэгии
тэмдэглэв
тэмдэглэгддэг
тэмдэглэгджээ
тэмдэглэгдсэн
тэмдэглэгдэж
тэмдэглэгдэн
тэмдэглэгдэнэ
тэмдэглэгдэх
тэмдэглэгээ
тэмдэглэгээг
тэмдэглэгээнии
тэмдэглэгээтэи
тэмдэглэдэг
тэмдэглэж
тэмдэглэжээ
тэмдэглэл
тэмдэглэлд
тэмдэглэлдээ
тэмдэглэлии
тэмдэглэлт
тэмдэглэлээс
тэмдэглэлүүд
тэмдэглэн
тэмдэглэнэ
тэмдэглэснээр
тэмдэглэсэн
тэмдэглэх
тэмдэглэхдээ
тэмдэглэхэд
тэмдэглээд
тэмдэгт
тэмдэгтии
тэмдэгтэи
тэмдэгтээр
тэмдэгтүүд
тэмдэгтүүдии
тэмдэгээр
тэмдэгүүд
тэмцдэг
тэмцлии
тэмцлээ
тэмцсэн
тэмцсээр
тэмцэгч
тэмцэж
тэмцэл
тэмцэлд
тэмцэлдсэн
тэмцэлдэж
тэмцэлдэх
тэмцэн
тэмцэх
тэмцэхии
тэмцэхэд
тэмцэхээр
тэмцээн
тэмцээнболоогүи
тэмцээнд
тэмцээнии
тэмцээнээ
тэмцээнээс
тэмцээнүүд
тэмцээнүүдии
тэмцээнүүдэд
тэмээ
тэмээг
тэмээн
тэмээнии
тэмээчин
тэмүгэ
тэмүжин
тэмүжинг
тэмүжинии
тэмүүжин
тэмүүлж
тэмүүлэл
тэмүүлэн
тэн
тэнгии
тэнгис
тэнгисии
тэнгист
тэнгистэи
тэнгисээр
тэнгисээс
тэнгэр
тэнгэрии
тэнгэрлэг
тэнгэрт
тэнгэрээс
тэнгэрүүд
тэнд
тэндхии
тэндээ
тэндээс
тэндээсээ
тэнии
тэнхим
тэнхимд
тэнхимии
тэнхлэг
тэнхлэгии
тэнхлэгтэи
тэнхмии
тэнхээ
тэнцвэр
тэнцвэргүи
тэнцвэржүүлэх
тэнцвэрии
тэнцвэрт
тэнцвэртэи
тэнцсэн
тэнцэж
тэнцэл
тэнцэн
тэнцэнэ
тэнцэтгэл
тэнцэх
тэнцэхүи
тэнцээ
тэнцүү
тэнцүүхэн
тэнэг
тэр
тэрбишии
тэрбум
тэрбумтан
тэрбээр
тэргии
тэргэнд
тэргээр
тэргүүлдэг
тэргүүлж
тэргүүлжээ
тэргүүлсэн
тэргүүлэв
тэргүүлэгч
тэргүүлэгчдии
тэргүүлэгчид
тэргүүлэгчээр
тэргүүлэгчээс
тэргүүлэн
тэргүүлэх
тэргүүн
тэргүүнд
тэргүүнии
тэргүүнээр
тэргүүнүүд
тэргүүнүүдии
тэргүүтнии
тэргүүтэи
тэргүүтэн
тэрии
тэрнии
тэрс
тэртээ
тэртээгээс
тэртээд
тэртээх
тэрхии
тэрхүү
тэрч
тэрчлэн
тэрэг
тэрэгнии
тэрэгнүүд
тэрэгтэи
тэрээр
тэс
тэсвэр
тэсвэрлэх
тэсвэртэи
тэсии
тэсо
тэсрэг
тэсрэгч
тэсрэлт
тэсрэлтии
тэсрэх
тэсэлгээнии
тэтгэврии
тэтгэвэр
тэтгэвэрт
тэтгэвэртээ
тэтгэгч
тэтгэж
тэтгэлгии
тэтгэлгээр
тэтгэлэг
тэтгэлэгт
тэтгэмж
тэтгэснии
тэтгэсэн
тэтгэх
тэтчер
тэх
тэхии
тэхээр
тэшиг
тэшүүр
тэшүүрии
тэшүүрчин
тээврии
тээвэр
тээвэрлэгч
тээвэрлэдэг
тээвэрлэж
тээвэрлэлт
тээвэрлэлтии
тээвэрлэх
тээвэрт
тээвэрчин
тээг
тээгч
тээж
тээл
тээлии
тээр
тээрмии
тээрэм
тээрээ
тээс
тээх
тюмень
тюринг
тюрингии
тянь
түвд
түвдии
түвдэд
түвшин
түвшинбаяр
түвшинг
түвшингии
түвшингээр
түвшингээс
түвшинд
түвшинжаргал
түвшинии
түвшинтэи
түвшинтөгс
түвшнии
түвшнээр
түвшнээс
түвэгтэи
түгж
түгжих
түгжээ
түгсэн
түгшүүр
түгшүүрии
түгшүүртэи
түгэн
түгээгч
түгээгүүр
түгээгүүрии
түгээдэг
түгээж
түгээлтии
түгээмэл
түгээн
түгээх
түдэв
түдэвии
түдэвтэи
түи
түлхэгч
түлхэлтии
түлхэн
түлхэх
түлхэц
түлхүү
түлхүүр
түлхүүрии
түлхүүртэи
түлхүүрээр
түлхүүрүүд
түлхүүрүүдии
түлш
түлшнии
түлэгдсэн
түлээ
түм
түмнии
түмнээ
түмнээс
түмнүүдии
түмт
түмтии
түмэд
түмэдии
түмэн
түмэнбаяр
түмэнд
түмэндэмбэрэл
түмэндээ
түмэнжаргал
түмэннаст
түмэнтэи
түмэнхэн
түнш
түншлэл
түншлэлии
түр
түргэн
түргэнии
түрж
түрии
түрк
түрлэг
түрлэгии
түрэг
түрэгии
түрэгүүд
түрэгүүдии
түрэлт
түрэлтии
түрэмгии
түрэн
түрээсии
түрээслэн
түрүү
түрүүг
түрүүгээ
түрүүлбэл
түрүүлж
түрүүлжээ
түрүүлснээр
түрүүлсэн
түрүүлэв
түрүүлэн
түрүүлэх
түрүүлэхдээ
түрүүлэхэд
түрүүлээд
түрүүн
түрүүнд
түрүүнии
түрүүч
түшиг
түшиглэн
түшиглэсэн
түшиц
түшмэг
түшмэд
түшмэдии
түшмэл
түшмэлд
түшмэлии
түшмэлээр
түшээ
түшээт
түү
түүврии
түүвэр
түүгээр
түүгээрээ
түүдэг
түүж
түүн
түүнд
түүндээ
түүнии
түүнтэи
түүнчлэн
түүнээ
түүнээс
түүнээсээ
түүх
түүхии
түүхнээ
түүхт
түүхтэи
түүхч
түүхчдии
түүхчид
түүхэн
түүхэнд
түүхэндээ
түүхээ
түүхээр
түүхээс
төв
төвд
төвдии
төвдөд
төвдөө
төвии
төвлөж
төвлөн
төвлөрдөг
төвлөрсөн
төвлөрч
төвлөрүүлж
төвлөрүүлсэн
төвлөрүүлэн
төвлөрүүлэх
төвлөрөл
төвлөрөн
төвлөрөх
төвлөсөн
төвтэи
төвтөмөр
төвшин
төвшинд
төвшнии
төвшнөөс
төвшрүүлэх
төвүүд
төвүүдии
төвөг
төвөггүи
төвөгтэи
төвөд
төвөдии
төвөдүүд
төвөдөд
төвөргөөн
төвөөр
төвөөс
төгрөг
төгрөгии
төгрөгнии
төгрөгөөр
төгс
төгсгөл
төгсгөлгүи
төгсгөлд
төгсгөлии
төгсгөлтэи
төгсгөлөг
төгсгөлөөр
төгсгөлөөс
төгсгөсөн
төгсгөх
төгсдөг
төгсжээ
төгссөн
төгссөнии
төгстөмөр
төгсч
төгсчээ
төгсөв
төгсөгч
төгсөгчдии
төгсөгчид
төгсөж
төгсөлт
төгсөлтии
төгсөн
төгсөнө
төгсөх
төгсөхөд
төгсөөд
төгөл
төгөлдөр
төд
төдии
төдөлгүи
төл
төлбөр
төлбөргүи
төлбөрии
төлбөрт
төлбөртэи
төлбөрөө
төлвии
төлдөг
төлж
төлии
төлсөн
төлөв
төлөвии
төлөвлөгдсөн
төлөвлөгдөж
төлөвлөгч
төлөвлөгөө
төлөвлөгөөг
төлөвлөгөөгөө
төлөвлөгөөнд
төлөвлөгөөнии
төлөвлөгөөт
төлөвлөгөөтэи
төлөвлөж
төлөвлөжээ
төлөвлөлт
төлөвлөлтии
төлөвлөн
төлөвлөсөн
төлөвлөх
төлөвлөөд
төлөвт
төлөвтэи
төлөвшил
төлөвшүүлэх
төлөг
төлөгч
төлөх
төлөхии
төлөхөөс
төлөө
төлөөлдөг
төлөөлж
төлөөллии
төлөөлсөн
төлөөлүүлэн
төлөөлөгч
төлөөлөгчдии
төлөөлөгчдөөс
төлөөлөгчид
төлөөлөгчии
төлөөлөгчтэи
төлөөлөгчөөр
төлөөлөл
төлөөлөлтэи
төлөөлөн
төлөөлөх
төлөөнии
төлөөх
төмрии
төмрөөр
төмс
төмөр
төмөрбаатар
төмөрбаатарын
төмөрбулаг
төмөрии
төмөрлөг
төмөрлөгии
төмөрт
төмөртэи
төмөрхуяг
төр
төрбаи
төрбат
төрболд
төрд
төрдөг
төрж
төржээ
төрии
төрлии
төрлүүд
төрлүүдии
төрлүүдэд
төрлүүдээс
төрлөөр
төрлөөс
төрмөлии
төрмөнх
төрнө
төрснии
төрсөн
төрт
төртэи
төрх
төрхии
төрхтнии
төрхтэи
төрхтөн
төрхөө
төрхөөр
төрхөөрөө
төрч
төрчдии
төрчид
төрчии
төрүүлдэг
төрүүлж
төрүүлжээ
төрүүлнэ
төрүүлсэн
төрүүлэн
төрүүлэх
төрөв
төрөгсөд
төрөгч
төрөгчии
төрөл
төрөлд
төрөлдөө
төрөлжсөн
төрөлт
төрөлтии
төрөлтэи
төрөлх
төрөлхии
төрөлхтнии
төрөлхтөн
төрөлхтөнд
төрөлхтөнии
төрөн
төрөх
төрөхдөө
төрөхөд
төрөхөөс
төрөө
төрөөд
төрөөс
төсвии
төсвөөс
төслии
төслүүд
төслүүдии
төслөөр
төст
төстэи
төсөв
төсөвт
төсөл
төсөлд
төсөр
төсөөлж
төсөөллии
төсөөлөл
төсөөлөн
төсөөлөх
төсөөтэи
төхк
төхөөрөмж
төхөөрөмжид
төхөөрөмжии
төхөөрөмжинд
төхөөрөмжтэи
төхөөрөмжүүд
төхөөрөмжүүдии
төхөөрөмжүүдтэи
төхөөрөмжүүдэд
төхөөрөмжөө
төхөөрөмжөөр
төхөөрөмжөөс
у
уадбч
уаз
уаи
уашт
уб
убаши
убдс
убис
убтз
увс
увсын
увш
уг
угааж
угаалгын
угаас
угаасаа
угаах
угалз
угалзан
уганда
угж
угз
угии
уго
угсаа
угсааг
угсааны
угсааныхан
угсаат
угсаатан
угсаатнууд
угсаатнуудын
угсаатны
угсаатныг
угсардаг
угсарсан
угсарч
угсарчээ
угсралт
угсралтын
угсрах
угтаа
угтаал
угтаалцаи
угтаж
угтан
угтвар
угтсан
удаа
удаагаа
удаагии
удаагүи
удаад
удаан
удаатаи
удаах
удааширч
удаи
удалгүи
удам
удамшил
удамших
удамшлын
удахгүи
удбэт
удвал
удган
уди
удинезе
удирдаач
удирдаачаар
удирдаачии
удирдагч
удирдагчаар
удирдагчдыг
удирдагчдын
удирдагчид
удирдагчии
удирдаж
удирдамж
удирдамжии
удирдан
удирдана
удирдах
удирдахаар
удирдахад
удирддаг
удирджээ
удирдлага
удирдлагаар
удирдлагаас
удирдлагад
удирдлаган
удирдлаганд
удирдлагат
удирдлагатаи
удирдлагууд
удирдлагыг
удирдлагын
удирдсан
удирдуулан
удирдуулж
удирдуулсан
удиртгал
удмыг
удмын
удмынхан
удмынхны
удтал
удын
удэт
уефа
узбек
узбекии
узбекистан
узбекистанд
узбекистаны
узбекчүүд
уи
уиган
уизардс
уилл
уиллиам
уиллиамс
уиллис
уилсон
уилт
уильям
уильямс
уинстон
уитни
уих
украи
украин
украинаар
украинд
украинчууд
украины
ул
ула
улаа
улаавтар
улаагчин
улаалзгана
улаан
улаанаар
улаанбаатар
улаанбаатараас
улаанбаатарт
улаанбаатарын
улаанбадрах
улаангом
улаанхад
улаанхус
улаанцав
улаанцавын
улааны
улаи
улалж
улам
уламбаяр
уламжилж
уламжилсан
уламжлагдан
уламжлагдсан
уламжлал
уламжлалаа
уламжлалаар
уламжлалд
уламжлалт
уламжлалтаи
уламжлалыг
уламжлалын
уламжлан
улан
уланг
улангии
уланд
улбаалан
улбаалж
улбаатаи
улбар
улз
улиас
улиастаи
улирал
улиралд
улиралдаа
улиралыг
улиралын
улиран
улирлаа
улирлаар
улирлаас
улирлуудад
улирлуудын
улирлыг
улирлын
улирсан
уллевол
улмаар
улмаас
улс
улсаа
улсаар
улсаас
улсад
улсдаа
улстаи
улстөрии
улстөрч
улсууд
улсуудаар
улсуудаас
улсуудад
улсуудтаи
улсуудыг
улсуудын
улсыг
улсын
улсынх
улсынхаа
ум
умаи
умар
умард
умардаас
умардад
умардын
умарт
умберто
ун
унаа
унаад
унаач
унав
унага
унагаах
унагаж
унаган
унагасан
унагах
унадаг
унаж
унажээ
уналга
уналт
уналтад
уналтанд
уналтын
унан
унана
унасан
унаснаар
унасны
унах
унахад
унгар
унгарт
унгарчууд
унгарын
унгерн
унгернии
унд
ундаа
ундааг
ундааны
ундны
универсал
универсиад
универсиадын
унион
унтаж
унтарсан
унтах
унтрааж
унтраах
уншдаг
уншигч
уншигчдад
уншигчдыг
уншигчдын
уншигчид
уншигчии
уншиж
уншина
унших
уншихад
уншлага
уншлагын
уншсан
уншуулж
унь
уокер
уолл
уоллес
уолт
уолтер
уондерерс
уорнер
уорриорз
уотфорд
ур
ураг
урагш
урагшаа
урагшилж
урагшлах
урад
урадын
урал
уралдаан
уралдаанаас
уралдаанд
уралдаануудад
уралдаанч
уралдааны
уралдааныг
уралдаж
уралдан
уралдах
уралддаг
уралдсан
уралдуулан
уралын
урам
урамшуулал
урамшуулах
урамшууллын
уран
урангуа
ураны
урбан
урвагч
урваж
урвал
урвалаар
урвалд
урвалыг
урвалын
урван
урвасан
урвуу
урвуулан
ургадаг
ургаж
ургалт
ургалтыг
ургалтын
ургальч
ургамал
ургамалд
ургамалтаи
ургамалууд
ургамалын
ургамлаар
ургамлаас
ургамлууд
ургамлуудад
ургамлуудыг
ургамлуудын
ургамлыг
ургамлын
урган
ургана
ургасан
ургах
ургац
ургацыг
ургацын
урге
ургии
ургуулан
ургуулах
ургуулахад
ургуулж
урд
урдаа
урдаас
урдуур
урдуураа
уриа
уриалан
уриалж
уриалжээ
уриалсан
уриан
урианхаи
урианхан
уриатаи
уригдаж
уригдан
уригдсан
урилга
урилгаар
урилгыг
урин
урлаг
урлагаар
урлагаас
урлагии
урлагт
урлагын
урладаг
урлаж
урлажээ
урлал
урлалын
урлан
урланд
урласан
урлах
урсаад
урсаж
урсан
урсана
урсах
урсац
урсацын
урсгал
урсгалаар
урсгалаас
урсгалгүи
урсгалд
урсгалт
урсгалтаи
урсгалууд
урсгалыг
урсгалын
урсган
урсдаг
урсч
урт
уртаар
уртаараа
уртаас
уртаашаа
уртавтар
уртад
уртасгасан
уртасгах
уртбаяр
уртнасан
уртраг
уртрагии
урттаи
уртыг
уртын
уругваи
уруу
уруудан
уруул
уруулын
урчууд
урчуудын
уршгаар
уршиг
урын
урьд
урьдаар
урьдаас
урьдны
урьдчилан
урьдчилж
урьдчилсан
урьдын
урьж
урьсан
ус
усаа
усаар
усалгаа
усан
усанд
усандаа
усгүи
усжуулалт
усжуулалтын
уск
услалтын
услах
уснаас
усны
усопп
уст
устаж
устаи
устах
устгаад
устгав
устгагдсан
устгадаг
устгаж
устгажээ
устган
устгана
устгасан
устгасны
устгах
устгахаар
устгахад
устгахыг
устгахын
устсан
усть
устөрөгч
устөрөгчии
усыг
утаа
утаи
утас
утасгүи
утаслаг
утаснаас
утаснууд
утасны
утастаи
утга
утгаар
утгаараа
утгаас
утгагүи
утгад
утгат
утгатаи
утгууд
утгуудыг
утгуудын
утгыг
утгын
утрехт
утсаа
утсаар
утсан
утсанд
утсыг
утт
уттар
уу
ууба
ууган
ууганбаяр
уугуул
ууд
уудаг
уудам
уудыг
уудын
ууж
уужим
уул
уулаар
уулаас
уулан
ууланд
уулархаг
уулгалан
уулзаад
уулзав
уулзаж
уулзалт
уулзалтаар
уулзалтад
уулзалтанд
уулзалтыг
уулзалтын
уулзан
уулзах
уулзахаар
уулзвар
уулздаг
уулзжээ
уулзсан
уулнаа
уулнаас
уулс
уулсаар
уулсаас
уулстаи
уулсыг
уулсын
уулчид
уулчин
уулыг
уулын
ууль
уур
уураг
уурагтаи
уургии
уургууд
уургуудын
уурлаж
ууртаи
уурхаи
ууршилт
уурыг
уурын
уусан
уусах
уусгах
уусдаг
уусдаггүи
уусмал
уусмалд
уусмалыг
уусмалын
ууссан
уусч
уут
уутанд
уух
уухаи
ууц
уучлал
уучлалт
уушгины
уушиг
уушигны
ухаа
ухаалаг
ухаан
ухаанаа
ухаанаар
ухаанаас
ухаангүи
ухаанд
ухаант
ухаантаи
ухаантан
ухаантны
ухаанч
ухааны
ухааныг
ухаарч
ухагдахуун
ухагдахууныг
ухаж
ухамсар
ухамсарт
ухамсартаи
ухамсрын
ухан
ухарсан
ухарч
ухарчээ
ухрав
ухран
ухрах
ухсан
ухуань
ухуулан
ухуулах
ухуулга
ухуулгын
уцс
учир
учираас
учиргүи
учирсан
учиртаи
учирч
учраа
учраас
учрал
учралын
учрах
учруулах
учруулахгүи
учруулдаг
учруулж
учруулна
учруулсан
учрыг
уэи
уэльс
уэльсии
уэмбли
уэст
уяа
уяатаи
уяач
уяж
уялдаа
уялдаатаи
уялдан
уялдуулан
уялдуулах
уян
уянга
уянгалаг
уянгын
ф
фа
фабио
фабрик
фагии
фад
фазлуллах
фазын
фаи
факс
факто
факультет
факультетии
факультетэд
фан
фанжио
фань
фараон
фасо
фауст
фашист
фашистын
фе
федерации
феи
фелии
феликс
фелипе
фельдмаршал
фен
фенербахче
фенилаланин
фенүүд
фенүүдии
феодал
феодалын
ферганы
фергюсон
фердинанд
фердинандын
ферм
фермагии
фермент
ферментии
ферментүүд
ферментүүдии
фермер
фермерүүд
фермии
фернандо
феррари
ферраригии
фестивал
фестивалд
фестивалии
фестиваль
фестивальд
феттел
фиат
фиба
фиде
фидель
фижи
физик
физикии
физикт
физикч
физиологи
физиологии
физиологич
фии
фил
филадельфи
филадельфия
филармонии
филатова
филип
филипп
филиппин
филиппинд
филиппинии
филлипс
философи
философид
философии
философич
философичид
фин
финал
финалд
финалын
финии
финикс
финланд
финландчууд
финландын
финлянд
фиорентина
фирм
фирмии
фифа
фишер
фк
фландерс
флаш
флоренц
флоренции
флоренцын
флорида
флоридагии
флот
флотыг
флотын
фм
фогт
фои
фокс
фокус
фокусын
фолксваген
фон
фонд
фондод
фондын
форбс
форд
фордын
форест
формат
форматаар
форматыг
форматын
формула
форт
фортран
форум
фосфат
фосфатын
фосфор
фосфорын
фото
фотосинтез
фотосинтезии
фр
фраи
фракц
франк
франки
франкии
франклин
франко
франкфурт
франкфуртын
франс
франсиско
франсуа
франсын
франц
францаар
францаас
францад
франции
францис
франциско
францискогии
францтаи
францчууд
францыг
францын
франчаи
франческо
фред
фредерик
фредрик
фреи
френк
френцис
фридрих
фрии
фристаи
фриц
фрои
фронт
фронтод
фронтыг
фронтын
фрунзе
фрэи
фрэнк
фрэнсис
фу
фужянь
фулхэм
функц
функции
функциональ
функцтэи
функцууд
функцуудыг
функцыг
функцын
функцээр
функцүүдии
фунт
фунтии
фунтээр
фут
футзалын
фф
фьючерс
фьючерсии
фэи
фэн
фэнүүд
фэнүүдии
фү
фүжи
фүкүока
фөрт
х
ха
хаа
хааг
хаагдаж
хаагдсан
хаагуур
хаагч
хаагчдыг
хаагчдын
хаагчид
хаагчии
хаад
хаадаг
хаадыг
хаадын
хааж
хаажээ
хааис
хаалга
хаалгаа
хаалгаар
хаалган
хаалганд
хаалгандаа
хаалганы
хаалгатаи
хаалгач
хаалгачаар
хаалгачии
хаалгыг
хаалт
хаалттаи
хаалтыг
хаалтын
хаан
хаана
хаанаа
хаанаар
хаанаас
хаанд
хаандаа
хаант
хаантаи
хаанчилсан
хаанчлал
хаанчлалын
хааны
хааныг
хааныхаа
хаар
хаас
хаасаа
хаасан
хаах
хааш
хаашаа
хааяа
хабаровск
хабсбургии
хабул
хав
хаваи
хавар
хавдар
хавдраар
хавдрын
хавиар
хавии
хавирга
хавирган
хавраас
хаврын
хавсарга
хавсарган
хавсаргасан
хавсарсан
хавсарч
хавсралт
хавсран
хавт
хавтан
хавтанг
хавтангии
хавтангууд
хавтас
хавтасны
хавтаст
хавтгаи
хавхлаг
хавцал
хавцалд
хавцлын
хавч
хавчин
хавь
хавьгүи
хавьд
хавьер
хавьцаа
хаг
хагалан
хагалгаа
хагалгааны
хагалж
хаган
хагарал
хагархаи
хагарч
хагас
хагасаас
хагаст
хагасыг
хагасын
хад
хадаан
хадаас
хадаг
хадагтаи
хадаж
хадам
хадан
хаданд
хадат
хадбаатар
хадгалагдаж
хадгалагдан
хадгалагдана
хадгалагдах
хадгалагддаг
хадгалагдсан
хадгалагч
хадгалалт
хадгалалтын
хадгаламж
хадгаламжии
хадгалан
хадгалах
хадгалахад
хадгалахыг
хадгалахын
хадгалдаг
хадгалж
хадгална
хадгалсаар
хадгалсан
хадгии
хадлан
хадлангии
хаднаас
хадны
хадран
хадсан
хадсон
хадуур
хаж
хажи
хажуу
хажуугаар
хажуугии
хажууд
хазаар
хазаи
хазар
хазара
хаи
хаити
хакас
хакер
хакерууд
хаким
хал
хала
халаа
халааг
халааж
халаалт
халаалтын
халаасны
халаах
халаахад
халагдаж
халагдсан
халамж
халамжии
халах
халбага
халгаи
халдав
халдагч
халдагчид
халдаж
халдан
халдах
халдахыг
халдашгүи
халдвар
халдварладаг
халдварласан
халдварлах
халдварт
халдвартаи
халдварыг
халдварын
халдлага
халдлагаас
халдлагад
халдлагууд
халдлагыг
халдлагын
халдсан
халдун
халж
халз
халзан
халиагуур
халиах
халил
халим
халимаг
халимагии
халимагт
халимагууд
халимагуудыг
халимагуудын
халиу
халиун
халиф
халифт
халл
халле
халсан
халтаи
халтар
халуун
халуунд
халуурал
халуурах
халх
халхавч
халхад
халхалттаи
халхгол
халхголын
халхлах
халхууд
халхыг
халхын
хальж
хальс
хальсан
хальсанд
хальсны
хам
хамаагүи
хамаараад
хамаарагдана
хамаарагдах
хамаарагддаг
хамаарал
хамааралгүи
хамааралт
хамааралтаи
хамааран
хамаарах
хамаарахгүи
хамаардаг
хамаарлыг
хамаарлын
хамаарна
хамаарсан
хамааруулан
хамааруулдаг
хамааруулж
хамааруулсан
хамаарч
хамаатаи
хамаатан
хамаг
хамар
хамардаг
хамарна
хамарсан
хамартаи
хамарч
хамба
хамбург
хамбургии
хамбын
хамгаалав
хамгаалагдсан
хамгаалагч
хамгаалагчаар
хамгаалагчдын
хамгаалагчид
хамгаалагчии
хамгаалал
хамгаалалт
хамгаалалтад
хамгаалалтанд
хамгаалалтгүи
хамгаалалттаи
хамгаалалтыг
хамгаалалтын
хамгаалан
хамгаалах
хамгаалахаар
хамгаалахад
хамгаалахыг
хамгаалахын
хамгаалдаг
хамгаалж
хамгаалжээ
хамгааллын
хамгаална
хамгаалсан
хамгаалуулах
хамгаас
хамге
хамгии
хамжлага
хамжлагат
хами
хамилтон
хамильтон
хамниган
хамрагдаж
хамрагдан
хамрагдана
хамрагдах
хамрагддаг
хамрагдсан
хамран
хамрах
хамруулан
хамруулах
хамруулдаг
хамруулж
хамруулсан
хамрын
хамсаатан
хамт
хамтаар
хамтад
хамтарсан
хамтарч
хамтатган
хамтдаа
хамтлаг
хамтлагаа
хамтлагаар
хамтлагаараа
хамтлагаас
хамтлагаасаа
хамтлагии
хамтлагт
хамтлагтаа
хамтлагтаи
хамтлагууд
хамтлагуудын
хамтлагын
хамтрагч
хамтрагчид
хамтрал
хамтралын
хамтран
хамтын
хамшгии
хамшиг
хамшигт
хамшигтаи
хан
хана
ханаар
ханаас
ханамжии
ханан
хананд
хананы
ханасан
ханат
ханатаи
ханбогд
хангагдаж
хангагддаг
хангагдсан
хангадаг
хангаж
хангаи
хангал
хангалт
хангалтгүи
хангалттаи
хангалтын
хангалуун
хангалын
хангамж
хангамжаар
хангамжид
хангамжии
хангамжинд
хангамжтаи
хангамжууд
хангамжын
ханган
хангана
хангарьд
хангасан
хангах
хангахад
хангахын
хангууд
ханд
хандаж
хандалт
хандалтат
хандалттаи
хандалтыг
хандалтын
хандан
хандах
хандахад
хандахыг
хандгаи
ханддаг
ханддорж
ханддоржии
хандив
хандивласан
хандивын
хандлага
хандлагатаи
хандлагыг
хандлагын
хандсан
хандуулан
хандуулах
хандуулдаг
хандуулж
хандуулсан
ханз
ханзаар
ханзе
ханиад
ханлиг
ханлигии
ханна
ханновер
ханноферии
ханои
ханс
хант
хантаи
хануи
ханх
ханхонгор
ханхүү
ханцуи
ханш
ханшаар
ханшии
ханы
ханыг
ханын
хань
хар
хара
хараа
хараагүи
хараад
хараал
хараанд
харааны
хараат
хараатаи
хараахан
хараацаи
харагдаж
харагдана
харагдах
харагдахгүи
харагдахуи
харагдац
харагддаг
харагдсан
хараи
харалдаа
харамгүи
харамсаж
харамсалтаи
харан
харанга
харандаа
харанхуи
харах
харахад
харбин
харваа
харвааны
харваач
харвадаг
харваж
харвал
харван
харвардын
харвасан
харвах
харви
харгалзаж
харгалзан
харгалзах
харгалзахгүи
харгалзсан
харгана
харгис
харгислал
харгуи
хард
хардаг
хардаж
хардалт
харж
харии
харилцаа
харилцааг
харилцаагаа
харилцаанаас
харилцаанд
харилцааны
харилцаатаи
харилцагч
харилцагчии
харилцаж
харилцан
харилцах
харилцахдаа
харилцдаг
харимхаи
харин
хариу
хариуг
хариугаа
хариуд
хариулах
хариулж
хариулжээ
хариулсан
хариулт
хариултыг
хариултын
хариуцаж
хариуцан
хариуцах
хариуцдаг
хариуцлага
хариуцлагатаи
хариуцлагыг
хариуцлагын
хариуцна
хариуцсан
харлуг
хармөрөн
харна
харольд
харри
харрис
харрисон
харсан
харт
харуул
харуулав
харуулан
харуулах
харуулахыг
харуулахын
харуулд
харуулдаг
харуулж
харуулжээ
харууллаа
харуулна
харуулсан
харуулснаар
харуулыг
харуулын
хархираа
хархорин
хархорины
хархорум
хархорумд
хархорумыг
харц
харцага
харцагынхан
харцгаи
харчин
харш
харшил
харшлын
харъяа
харъяалагдаж
харъяалагдах
харъяалагддаг
харъяалалтаи
харъяанд
харъяаны
харъяат
харын
харь
харьж
харьков
харьковын
харьцаа
харьцааг
харьцаагаар
харьцаанаас
харьцаанд
харьцааны
харьцаатаи
харьцаж
харьцангуи
харьцангүи
харьцах
харьцдаг
харьцуулалт
харьцуулан
харьцуулах
харьцуулахад
харьцуулбал
харьцуулж
харьцуулсан
харьяа
харьяалагдаж
харьяалагдана
харьяалагдах
харьяалагддаг
харьяалал
харьяанд
харьяаны
харьяат
харүна
хас
хасаг
хасагдаж
хасагдах
хасагджээ
хасагдсан
хасагии
хасагууд
хасагуудын
хасаж
хасан
хасар
хасарын
хасах
хасбаатар
хасгии
хасна
хассан
хасч
хасчээ
хатааж
хатаасан
хатаах
хатагин
хатагтаи
хатад
хатаж
хатан
хатанбаатар
хатанбулаг
хатанд
хатантаи
хатгаа
хатгаж
хатгал
хатгалын
хатгах
хатдын
хатнаа
хатнаас
хатны
хатныг
хатсан
хатуу
хатуужил
хатуулаг
хатуулагии
хау
хаус
хахир
хахуулии
хахууль
хачиг
хачин
хачирхалтаи
хачиун
хаш
хашаа
хашаанд
хашааны
хашаат
хашбат
хашдаг
хашжээ
хашигдсан
хашиж
хашилт
хашилтад
хашир
хаших
хашицад
хашицын
хашлага
хашсан
хаяа
хаяанд
хаяг
хаягаа
хаягаар
хаягаас
хаягдал
хаягдлын
хаягии
хаяглалт
хаягт
хаягтаи
хаягууд
хаягуудыг
хаягуудын
хаягыг
хаягын
хаядаг
хаяж
хаяжээ
хаялт
хаян
хаянхярваа
хаясан
хаях
хб
хбдус
хбк
хбнгу
хгүи
хд
хдаа
хдт
хдхв
хдээ
хе
хеи
хелен
хельсинки
хельсинкии
хенри
хенрик
хенрих
херберт
херманн
херст
херта
херцеговина
херцеговинын
херцог
херцогт
хессен
хессении
хет
хетафе
хзх
хи
хиа
хиаг
хиагт
хиагтад
хиагтыг
хиагтын
хиад
хиар
хивс
хидан
хижиг
хии
хил
хилд
хилии
хилл
хиллари
хиллс
хиллэдэг
хиллэж
хиллэн
хиллэнэ
хиллэх
хилс
хилсдэхгүи
хилсээр
хилтэи
хилчид
хилчин
хилэм
хилэн
хилээ
хилээр
хилээс
хималаи
хими
химии
химич
хинди
хинду
хиндү
хип
хир
хиргис
хиргисүүр
хирошима
хирс
хиртсэн
хиртэлт
хирээр
хит
хитии
хитлер
хитлерии
хичнээн
хичээдэг
хичээж
хичээл
хичээлд
хичээлии
хичээллэдэг
хичээллэж
хичээллэсэн
хичээллэх
хичээлээ
хичээлүүд
хичээлүүдии
хичээн
хичээнгүи
хичээсэн
хичээх
хишиг
хишигбаатар
хишигтэн
хк
хкн
хлестаков
хлор
хлорид
хлорын
хмаар
хмх
хн
хнаар
хнии
хны
хныг
хо
хоан
хобби
хов
ховард
ховд
ховдог
ховдод
ховдол
ховдыг
ховдын
ховил
ховор
ховордож
ховордсон
ховорхон
хог
хогии
ходоод
ходоодны
хое
хожа
хожигдож
хожигдол
хожигдолтои
хожигдон
хожигдсон
хожид
хожиж
хожил
хожим
хожин
хожиход
хожлын
хожмоо
хожмын
хожсон
хожсоноор
хожуу
хои
хоккаи
хоккеи
хокс
хол
холбогддог
холбогдлыг
холбогдож
холбогдол
холбогдолгүи
холбогдолтои
холбогдон
холбогдоно
холбогдох
холбогдоход
холбогдсон
холбогдуулан
холбогдуулж
холбогч
холбодог
холбож
холболт
холболтонд
холболтоор
холболттои
холболтууд
холболтыг
холболтын
холбон
холбоно
холбоо
холбоог
холбоогоо
холбоогоор
холбоогүи
холбоод
холбоодын
холбоонд
холбооноос
холбооны
холбоос
холбоосоор
холбоост
холбоосууд
холбоосыг
холбоосын
холбоот
холбоотнууд
холбоотнуудын
холбоотны
холбоотои
холбоотон
холбоотын
холбоочин
холбосон
холбох
холбоход
холгүи
холдинг
холдож
холдох
холилдож
холилдон
холилдсон
холимог
холимогии
холих
холл
холланд
холландын
холливудад
холливудын
холокост
холоос
холтос
холын
хольж
хольц
хольцтои
хольцыг
хольцын
хольштаи
хомноотынхон
хомо
хоморголон
хомс
хомсдол
хомсдолд
хон
хонг
хонгии
хонгил
хонгирад
хонгирадын
хонгор
хонгорын
хонда
хондурас
хондурасын
хонзон
хонии
хонин
хонины
хонконг
хонконгии
хонконгод
хоног
хоногии
хоногоор
хоногт
хоногтои
хоногтоо
хоноод
хонх
хонхны
хонхои
хонхор
хонхорт
хоншоор
хоншоортои
хонь
хоньчин
хоокс
хоол
хооллодог
хооллож
хооллоно
хооллох
хоолны
хоолои
хоолонд
хоолоо
хоолыг
хоорон
хооронд
хоорондоо
хоорондох
хоорондын
хоосон
хоп
хопкинс
хор
хорасан
хорват
хорватчууд
хорватын
хорвоо
хорвоог
хорвоогии
хорвоод
хоргодох
хоргои
хоргүи
хордлого
хордлогын
хордож
хорезм
хорезмын
хориг
хоригдлууд
хоригдлуудыг
хоригдлуудын
хоригдлыг
хоригдож
хоригдол
хоригдсон
хоригии
хориглов
хориглодог
хориглож
хоригложээ
хориглолтын
хориглон
хориглоно
хориглосон
хориглох
хорин
хорио
хориог
хориод
хорионд
хорионы
хориотои
хорих
хорлогдож
хорлогдон
хорлогдсон
хорлон
хорлоо
хорлоогии
хорлосон
хорлох
хормои
хорнетс
хорол
хоромхон
хорон
хороо
хороов
хороог
хороогоор
хороод
хороодын
хороож
хороожээ
хорооллын
хороолол
хороололд
хороон
хороонд
хорооноос
хорооны
хороосон
хороотои
хороох
хорт
хортои
хортон
хорхе
хорхог
хорхои
хорчин
хорчины
хоршоо
хоршооны
хорыг
хорь
хорьдугаар
хорьж
хорьсон
хос
хосбаяр
хосгүи
хосе
хосеп
хослол
хослолыг
хослон
хослуулан
хослуулж
хослуулсан
хосолж
хосолмол
хосолсон
хосоор
хост
хостын
хосууд
хосын
хот
хотгои
хотгор
хотгорт
хотгорын
хотдоо
хотжилт
хотноо
хотогои
хотод
хотол
хотон
хотонт
хотоо
хотоор
хотоос
хоточ
хотспур
хоттои
хотууд
хотуудаар
хотуудаас
хотуудад
хотуудтаи
хотуудыг
хотуудын
хотхон
хотхонд
хотыг
хотын
хотынхон
хотынхоо
хоу
хоффенхаи
хоффман
хохирлыг
хохирлын
хохирогч
хохирогчии
хохирол
хохирсон
хоцорсон
хоцорч
хоцорчээ
хоцрогдол
хоцрогдсон
хоч
хочит
хочтои
хошигнол
хошин
хошои
хошоон
хошоонгор
хошуу
хошууг
хошууд
хошуудаас
хошуудад
хошуудыг
хошуудын
хошуунаас
хошуунд
хошууны
хошуут
хошуутаи
хошууч
христ
христии
христос
христосын
христэд
хром
хромосом
хромосомын
хруще
хтэи
ху
хуа
хуаи
хуан
хуанди
хуанли
хуань
хуаран
хуаранд
хубилаи
хув
хуваав
хуваагаад
хуваагдав
хуваагдаж
хуваагдал
хуваагдан
хуваагдана
хуваагдах
хуваагдахад
хуваагддаг
хуваагджээ
хуваагдлын
хуваагдсан
хуваадаг
хувааж
хуваажээ
хуваалцаж
хуваалцах
хуваалцдаг
хуваалцсан
хуваан
хуваана
хуваариар
хуваарии
хуваарилагдаагүи
хуваарилагдаж
хуваарилагдсан
хуваарилагч
хуваарилалт
хуваарилалтын
хуваарилан
хуваарилах
хуваарилж
хуваарилсан
хуваарь
хуваарьт
хуваарьтаи
хуваасан
хуваасны
хуваах
хуваахад
хуванцар
хувиа
хувиар
хувиараа
хувиарлалт
хувиас
хувии
хувилаи
хувилбар
хувилбараа
хувилбараар
хувилбараас
хувилбарт
хувилбартаи
хувилбарууд
хувилбаруудад
хувилбаруудыг
хувилбарыг
хувилбарын
хувилгаад
хувилгаан
хувилж
хувирал
хувиралттаи
хувиран
хувирах
хувиргагч
хувиргадаг
хувиргаж
хувиргалт
хувирган
хувиргана
хувиргасан
хувиргах
хувирдаг
хувирмал
хувирна
хувирсан
хувирч
хувирчээ
хувраг
хувцас
хувцасны
хувцастаи
хувцсаа
хувцсыг
хувь
хувьд
хувьдаа
хувьсагч
хувьсагчид
хувьсагчии
хувьсагчууд
хувьсал
хувьсан
хувьсах
хувьсгал
хувьсгалаар
хувьсгалаас
хувьсгалд
хувьсгалт
хувьсгалч
хувьсгалчдын
хувьсгалчид
хувьсгалыг
хувьсгалын
хувьслын
хувьтаи
хувьцаа
хувьцааг
хувьцаагаа
хувьцааны
хувьцаат
хугалах
хугарсан
хугацаа
хугацааг
хугацаагаа
хугацаагаар
хугацаан
хугацаанаас
хугацаанаасаа
хугацаанд
хугацаандаа
хугацааны
хугацаат
хугацаатаи
худ
худаг
худал
худалдаа
худалдааг
худалдаалагдаж
худалдаалагддаг
худалдаалах
худалдаалж
худалдаанаас
худалдаанд
худалдааны
худалдаачдад
худалдаачдын
худалдаачид
худалдаачин
худалдаачны
худалдагдан
худалдагдсан
худалдагч
худалдаж
худалдан
худалдах
худалдсан
худалч
худам
худгии
худлаа
хужир
хужирт
хужиртын
хуи
хул
хулан
хулгаи
хулгана
хулганы
хулд
хулсан
хулсны
хумбольдтын
хумс
хумхаа
хун
хунан
хунгии
хундага
хуниорс
хунт
хунтаи
хур
хураагч
хурааж
хураалгаж
хураалт
хураалтаар
хураалтад
хураалтын
хураамж
хураан
хураангуи
хураасан
хураах
хураи
хурал
хуралд
хуралдаан
хуралдаанаар
хуралдаанд
хуралдааны
хуралдааныг
хуралдаж
хуралдаи
хуралдан
хуралддаг
хуралдсан
хуралдуулах
хуралдуулж
хуран
хурандаа
хурга
хурган
хурд
хурдаар
хурдаг
хурдан
хурдас
хурдасгах
хурдатгал
хурдацтаи
хурдлах
хурдны
хурдтаи
хурдыг
хурж
хурим
хуримаа
хуримлав
хуримтлагдаж
хуримтлагдах
хуримтлагдсан
хуримтлал
хуримтлалын
хуримтлуулан
хуримтлуулах
хуримтлуулж
хуримтлуулсан
хуримын
хурлаар
хурлаас
хурлыг
хурлын
хуруу
хурууг
хурууны
хуруутаи
хурц
хурцаар
хурцадмал
хурцадсан
хурцдаж
хус
хусеи
хуссеи
хутаг
хутагт
хутагтад
хутагтаи
хутагтыг
хутагтын
хутга
хуудас
хуудаснаа
хуудаснаас
хуудасны
хуудаст
хуудастаи
хуудсаар
хуудсаараа
хуудсаас
хуудсан
хуудсанд
хуудсандаа
хуудсууд
хуудсуудыг
хуудсыг
хуудсын
хуулан
хуулах
хуулбар
хуулбарлаж
хуулбарлан
хуулбарласан
хуулбарлах
хуулбарыг
хуулж
хуулиа
хуулиар
хуулиас
хуулии
хуулинд
хуулиуд
хуулиудыг
хуулсан
хууль
хуульд
хуульт
хуультаи
хуульч
хуульчилсан
хуульчлан
хуур
хуураа
хуураи
хуурамч
хуурамчаар
хууран
хуурах
хуурмаг
хуурт
хуурцаг
хуурч
хуурыг
хуурын
хуухаи
хууч
хуучид
хуучин
хуучинсаг
хуучир
хуучирсан
хуучнаар
хуучны
хуушуур
хуханье
хучигдсан
хучиж
хучилттаи
хуш
хушаат
хуяг
хуягии
хуягт
хх
ххк
хххх
хыг
хын
хью
хьюз
хьюндаи
хьюстон
хьюстоны
хэ
хэбэи
хэв
хэвии
хэвлии
хэвлэгддэг
хэвлэгджээ
хэвлэгдсэн
хэвлэгдэв
хэвлэгдэж
хэвлэгдэн
хэвлэгдэх
хэвлэгч
хэвлэгчии
хэвлэдэг
хэвлэж
хэвлэжээ
хэвлэл
хэвлэлд
хэвлэлии
хэвлэлт
хэвлэлээр
хэвлэлүүд
хэвлэлүүдии
хэвлэмэл
хэвлэн
хэвлэсэн
хэвлэх
хэвлээр
хэвлүүлж
хэвлүүлжээ
хэвлүүлсэн
хэвлүүлэв
хэвлүүлэн
хэвлүүлэх
хэврэг
хэвтэж
хэвтээ
хэвтүүл
хэвшил
хэвшлии
хэвшмэл
хэвшсэн
хэвэнд
хэвээр
хэвээрээ
хэд
хэдии
хэдхэн
хэдэн
хэзээ
хэи
хэл
хэлбэл
хэлбэлздэг
хэлбэлзлии
хэлбэлзэл
хэлбэлзэнэ
хэлбэр
хэлбэрии
хэлбэрт
хэлбэртэи
хэлбэртэн
хэлбэрээ
хэлбэрээр
хэлбэрээрээ
хэлбэрээс
хэлбэрүүд
хэлбэрүүдии
хэлвэл
хэлд
хэлдэг
хэлж
хэлжээ
хэлзүи
хэлии
хэллэг
хэллэгии
хэллэгээр
хэлмэгдсэн
хэлмэгдэгсдии
хэлмэгдэгч
хэлмэгдэж
хэлмэгдүүлсэн
хэлмэгдүүлэлт
хэлмэгдүүлэлтии
хэлмэгдүүлэлтэд
хэлмэрч
хэлнии
хэлнэ
хэлнээ
хэлнээс
хэлнүүд
хэлнүүдии
хэлнүүдтэи
хэлснии
хэлснээр
хэлсэн
хэлт
хэлтнии
хэлтсии
хэлтэи
хэлтэн
хэлтэрхии
хэлтэс
хэлтэст
хэлхээ
хэлхээг
хэлхээнд
хэлхээнии
хэлхээс
хэлхээтэи
хэлц
хэлцлии
хэлцэл
хэлэв
хэлэгддэг
хэлэгдэх
хэлэлцдэг
хэлэлцжээ
хэлэлцсэн
хэлэлцэж
хэлэлцэн
хэлэлцэнэ
хэлэлцэх
хэлэлцэхэд
хэлэлцээ
хэлэлцээг
хэлэлцээд
хэлэлцээнд
хэлэлцээнии
хэлэлцээр
хэлэлцээрии
хэлэлцээрт
хэлэлцээрээр
хэлэлцүүлгии
хэлэлцүүлж
хэлэлцүүлэг
хэлэлцүүлэгт
хэлэн
хэлэнд
хэлэх
хэлэхдээ
хэлэхии
хэлэхэд
хэлээ
хэлээгүи
хэлээд
хэлээр
хэлээрх
хэлээрээ
хэлүүд
хэлүүдии
хэм
хэмд
хэмждэг
хэмжигддэг
хэмжигдэхүүн
хэмжигдэхүүнии
хэмжигч
хэмжиж
хэмжилт
хэмжилтии
хэмжинэ
хэмжих
хэмжихэд
хэмжсэн
хэмжээ
хэмжээг
хэмжээгээр
хэмжээгээрээ
хэмжээгүи
хэмжээн
хэмжээнд
хэмжээнии
хэмжээнээс
хэмжээнүүд
хэмжээнүүдии
хэмжээс
хэмжээсии
хэмжээст
хэмжээстэи
хэмжээт
хэмжээтэи
хэмжүүр
хэмжүүрии
хэмии
хэммингии
хэмнэж
хэмнэл
хэмнэлии
хэмнэлт
хэмнэлттэи
хэмнэлтэи
хэмнэх
хэмпшир
хэмт
хэмтэи
хэмээв
хэмээгддэг
хэмээгдэж
хэмээгдэн
хэмээгдэх
хэмээгч
хэмээгээд
хэмээдэг
хэмээж
хэмээжээ
хэмээн
хэмээнэ
хэмээс
хэмээсэн
хэмээх
хэн
хэнань
хэнгэрэг
хэнд
хэнии
хэнкс
хэнри
хэнтии
хэнтэи
хэнээс
хэр
хэрвээ
хэргии
хэргэм
хэргэмии
хэргээ
хэргээр
хэргээс
хэргүүд
хэргүүдии
хэрлэн
хэрлэнгии
хэрмии
хэрмэн
хэрмээр
хэрнээ
хэрхэвч
хэрхэн
хэрцгии
хэрэв
хэрэг
хэрэггүи
хэрэгждэг
хэрэгжиж
хэрэгжилт
хэрэгжилтии
хэрэгжих
хэрэгжсэн
хэрэгжүүлдэг
хэрэгжүүлж
хэрэгжүүлжээ
хэрэгжүүлнэ
хэрэгжүүлсэн
хэрэгжүүлэгч
хэрэгжүүлэлт
хэрэгжүүлэлтии
хэрэгжүүлэн
хэрэгжүүлэх
хэрэгжүүлэхдээ
хэрэгжүүлэхии
хэрэгжүүлэхэд
хэрэгжүүлэхээр
хэрэглэвэл
хэрэглэгддэг
хэрэглэгдсэн
хэрэглэгдсээр
хэрэглэгдэж
хэрэглэгдэнэ
хэрэглэгдэх
хэрэглэгдэхүүн
хэрэглэгч
хэрэглэгчдии
хэрэглэгчдэд
хэрэглэгчид
хэрэглэгчиддээ
хэрэглэгчидтэи
хэрэглэгчии
хэрэглэгчтэи
хэрэглэгчээс
хэрэглэдэг
хэрэглэдэггүи
хэрэглэж
хэрэглэжээ
хэрэглэл
хэрэглэлии
хэрэглэн
хэрэглэнэ
хэрэглэснии
хэрэглэснээр
хэрэглэсэн
хэрэглэсээр
хэрэглэх
хэрэглэхгүи
хэрэглэхдээ
хэрэглэхии
хэрэглэхэд
хэрэглэхээ
хэрэглэхээр
хэрэглэхээс
хэрэглээ
хэрэглээг
хэрэглээгээр
хэрэглээгүи
хэрэглээнд
хэрэглээнии
хэрэглээнээс
хэрэглээтэи
хэрэглүүр
хэрэгслии
хэрэгслэлии
хэрэгслээр
хэрэгслээс
хэрэгслүүд
хэрэгслүүдии
хэрэгсэл
хэрэгсэлд
хэрэгсэлии
хэрэгсэлтэи
хэрэгсэхгүи
хэрэгт
хэрэгтнии
хэрэгтнүүдии
хэрэгтэи
хэрэгтэн
хэрэгтээ
хэрэгцээ
хэрэгцээг
хэрэгцээгээ
хэрэгцээгүи
хэрэгцээнд
хэрэгцээнии
хэрэгцээт
хэрэгцээтэи
хэрэгч
хэрэи
хэрэм
хэрэмнии
хэрэн
хэрээ
хэрээдии
хэрээр
хэрүүл
хэсгии
хэсгээ
хэсгээр
хэсгээрээ
хэсгээс
хэсгээсээ
хэсгүүд
хэсгүүдии
хэсгүүдтэи
хэсгүүдэд
хэсгүүдээс
хэсэг
хэсэглэн
хэсэгт
хэсэгтэи
хэсэгтээ
хэсэгхэн
хэсэгчилсэн
хэсэгчлэн
хэсүүлч
хэт
хэтии
хэтрэхгүи
хэтрүүлэн
хэтэрсэн
хэтэрхии
хэц
хэцүү
хэчнээн
хэш
хээ
хээг
хээгээр
хээл
хээлээ
хээнии
хээр
хээрии
хээрт
хээс
хээтэи
хюго
хядагч
хядаж
хядах
хядлага
хядлагын
хядсан
хязгаар
хязгаараа
хязгаараар
хязгаараас
хязгааргүи
хязгаарлагдаж
хязгаарлагдахгүи
хязгаарлагддаг
хязгаарлагдмал
хязгаарлагдсан
хязгаарладаг
хязгаарлаж
хязгаарлалт
хязгаарлалттаи
хязгаарлалтууд
хязгаарлалтыг
хязгаарласан
хязгаарлах
хязгаарт
хязгаартаи
хязгаарыг
хязгаарын
хялбар
хялбараар
хялбархан
хялбаршуулсан
хялгана
хялганат
хялгасан
хямд
хямдхан
хямрал
хямралаас
хямралд
хямралыг
хямралын
хянагч
хянадаг
хянаж
хяналт
хяналтаа
хяналтаас
хяналтад
хяналтан
хяналтанд
хяналтандаа
хяналтгүи
хяналтдаа
хяналттаи
хяналтыг
хяналтын
хянан
хянана
хянах
хянахад
хянган
хянганы
хяр
хяргас
хярс
хяруул
хясаа
хят
хятад
хятадаар
хятадаас
хятадад
хятадтаи
хятадууд
хятадуудад
хятадуудыг
хятадуудын
хятадыг
хятадын
хятан
хү
хүбэи
хүдрии
хүдэр
хүзүү
хүзүүдэж
хүзүүнии
хүзүүтэи
хүи
хүлгии
хүлцэнгүи
хүлэг
хүлэгү
хүлэгүгии
хүлэмжии
хүлээв
хүлээгдэж
хүлээдэг
хүлээж
хүлээжээ
хүлээлгэж
хүлээлгэн
хүлээлгэсэн
хүлээлгүи
хүлээлт
хүлээлтии
хүлээн
хүлээнэ
хүлээсэн
хүлээх
хүмүүжиж
хүмүүжил
хүмүүжлии
хүмүүжсэн
хүмүүжүүлж
хүмүүжүүлсэн
хүмүүжүүлэгч
хүмүүжүүлэх
хүмүүн
хүмүүнии
хүмүүнлэг
хүмүүнлэгии
хүмүүс
хүмүүсии
хүмүүст
хүмүүстэи
хүмүүсээ
хүмүүсээр
хүмүүсээс
хүн
хүнгүи
хүнд
хүндии
хүндлэл
хүндлэн
хүндлэх
хүндрэл
хүндрэлии
хүндрэлтэи
хүндтэи
хүндхэн
хүндэд
хүндэл
хүндэлдэг
хүндэлж
хүндэрсэн
хүндэрч
хүндэт
хүндэтгэдэг
хүндэтгэж
хүндэтгэл
хүндэтгэлии
хүндэтгэлтэи
хүндэтгэн
хүндэтгэсэн
хүндэтгэх
хүндээ
хүндээр
хүнии
хүнлэг
хүннү
хүннүгии
хүннүд
хүннүчүүд
хүнс
хүнсии
хүнснии
хүнсэнд
хүнсэндээ
хүнсээ
хүнсээр
хүнтэи
хүнцлии
хүнцэл
хүнээ
хүнээр
хүнээс
хүр
хүрвэл
хүргэв
хүргэдэг
хүргэж
хүргэжээ
хүргэлтии
хүргэн
хүргэнд
хүргэнии
хүргэнэ
хүргэсэн
хүргэх
хүргэхии
хүргэхэд
хүргэхээр
хүргүүлж
хүргүүлжээ
хүргүүлсэн
хүргүүлэх
хүрд
хүрдэг
хүрдэн
хүрж
хүрлии
хүрлээ
хүрмэгц
хүрмэн
хүрнэ
хүрснии
хүрснээр
хүрсэн
хүртдэг
хүртжээ
хүртлэх
хүртлээ
хүртсэн
хүртсэнии
хүртсэнээр
хүртсэнээс
хүртэв
хүртэж
хүртэл
хүртэлх
хүртэн
хүртэх
хүртэхүи
хүртээв
хүртээд
хүртээж
хүртээжээ
хүртээл
хүртээмж
хүртээмжии
хүртээмжтэи
хүртээсэн
хүртээх
хүрхрээ
хүрч
хүрчээ
хүрэв
хүрэгчдии
хүрэл
хүрэлбаатар
хүрэлбаатарын
хүрэлсүх
хүрэлцэн
хүрэм
хүрэн
хүрэх
хүрэхгүи
хүрэхии
хүрэхэд
хүрэхээр
хүрээ
хүрээг
хүрээгээ
хүрээгээр
хүрээгүи
хүрээд
хүрээлж
хүрээлсэн
хүрээлэгдсэн
хүрээлэгдэн
хүрээлэгдэнэ
хүрээлэн
хүрээлэнг
хүрээлэнгии
хүрээлэнгээс
хүрээлэнгүүд
хүрээлэнд
хүрээмарал
хүрээн
хүрээнд
хүрээнии
хүрээнээс
хүрээт
хүрээтэи
хүсвэл
хүсдэг
хүслии
хүслэн
хүслээ
хүслээр
хүснэ
хүснэгт
хүснэгтии
хүснэгтлэвэл
хүснэгтэд
хүснэгтэнд
хүснэгтээр
хүснэгтээс
хүснэгтүүд
хүснэгтүүдии
хүссэн
хүссэнии
хүсч
хүсчээ
хүсэв
хүсэж
хүсэл
хүсэлт
хүсэлтии
хүсэлтэд
хүсэлтэи
хүсэлтээ
хүсэлтээр
хүсэн
хүсэх
хүсэхгүи
хүсээгүи
хүхрии
хүхэр
хүхэрт
хүч
хүчгүи
хүчдэл
хүчдэлии
хүчии
хүчил
хүчилд
хүчиллэг
хүчилтэи
хүчилтөрөгч
хүчилтөрөгчии
хүчилтөрөгчтэи
хүчилтөрөгчөөр
хүчин
хүчингүи
хүчинд
хүчинтэи
хүчир
хүчирхии
хүчирхэг
хүчирхэгжиж
хүчирхэгжин
хүчирхэгжсэн
хүчит
хүчлии
хүчлэн
хүчлээс
хүчлүүд
хүчлүүдии
хүчнии
хүчнээр
хүчнээс
хүчнүүд
хүчнүүдии
хүчтэи
хүчтэн
хүчээ
хүчээр
хүчүлүг
хүү
хүүг
хүүгии
хүүгээ
хүүд
хүүдээ
хүүрнэл
хүүтэи
хүүхдии
хүүхдэд
хүүхдээ
хүүхдээс
хүүхдүүд
хүүхдүүддээ
хүүхдүүдии
хүүхдүүдтэи
хүүхдүүдэд
хүүхдүүдээ
хүүхнии
хүүхнүүд
хүүхэд
хүүхэдгүи
хүүхэдтэи
хүүхэлдэи
хүүхэн
хө
хөбэи
хөвгүүд
хөвгүүдии
хөвгүүн
хөвгүүнии
хөвгүүнтэи
хөвд
хөвж
хөврөл
хөврөлии
хөвсгөл
хөвсгөлии
хөвч
хөвчии
хөвүүд
хөвүүдии
хөвүүн
хөвүүнии
хөвөгч
хөвөн
хөвөнгии
хөвөх
хөвөө
хөвөөгөөр
хөвөөнд
хөвөөт
хөг
хөгждөг
хөгжжээ
хөгжив
хөгжиж
хөгжил
хөгжилд
хөгжилт
хөгжилтэи
хөгжим
хөгжимд
хөгжимдөж
хөгжимдөх
хөгжимии
хөгжимт
хөгжимтэи
хөгжимчдии
хөгжимчид
хөгжимчин
хөгжимчнии
хөгжимчнөөр
хөгжин
хөгжингүи
хөгжинө
хөгжих
хөгжихии
хөгжихөд
хөгжлии
хөгжлөөр
хөгжлөөс
хөгжмии
хөгжмөө
хөгжмөөр
хөгжсөн
хөгжсөөр
хөгжүүлдэг
хөгжүүлж
хөгжүүлжээ
хөгжүүлсэн
хөгжүүлэгдсэн
хөгжүүлэгч
хөгжүүлэгчдии
хөгжүүлэгчид
хөгжүүлэлт
хөгжүүлэлтии
хөгжүүлэн
хөгжүүлэх
хөгжүүлэхии
хөгжүүлэхэд
хөгжөөгүи
хөгжөөн
хөгжөөнт
хөгнө
хөгшид
хөгшин
хөдлөв
хөдлөл
хөдлөлии
хөдлөлт
хөдлөлтии
хөдлөн
хөдлөх
хөдөлгүүр
хөдөлгүүрии
хөдөлгүүрт
хөдөлгүүртэи
хөдөлгүүрээр
хөдөлгүүрээс
хөдөлгөгч
хөдөлгөж
хөдөлгөн
хөдөлгөсөн
хөдөлгөх
хөдөлгөөн
хөдөлгөөнгүи
хөдөлгөөнд
хөдөлгөөнии
хөдөлгөөнт
хөдөлгөөнтэи
хөдөлгөөнүүд
хөдөлгөөнөө
хөдөлгөөнөөр
хөдөлгөөнөөс
хөдөлдөг
хөдөлж
хөдөлжээ
хөдөлмөр
хөдөлмөрии
хөдөлмөрч
хөдөлмөрчдии
хөдөлмөрөө
хөдөлмөрөөр
хөдөлсөн
хөдөө
хөдөөгии
хөдөөнии
хөзрии
хөзөр
хөл
хөлбөмбөг
хөлбөмбөгии
хөлбөмбөгт
хөлбөмбөгч
хөлбөмбөгчдии
хөлбөмбөгчид
хөлбөмбөгчин
хөлбөмбөгчнии
хөлбөмбөгөөр
хөлгии
хөлгөн
хөлгөөр
хөлд
хөлдөж
хөлии
хөлнии
хөлс
хөлснии
хөлт
хөлтэи
хөлтөн
хөлөг
хөлөгт
хөлөн
хөлөнбуи
хөлөө
хөлөөр
хөлөөрөө
хөлөөс
хөмрөг
хөмрөгии
хөмрөгт
хөмсөг
хөмүүл
хөн
хөнгөвчлөх
хөнгөлөлт
хөнгөлөлттэи
хөнгөн
хөндии
хөндлөн
хөндлөнгии
хөндлөнгөөс
хөндсөн
хөндөж
хөндөн
хөндөх
хөнжлии
хөнөөж
хөнөөжээ
хөнөөл
хөнөөлии
хөнөөлтэи
хөнөөсөн
хөнөөх
хөрвүүлдэг
хөрвүүлж
хөрвүүлсэн
хөрвүүлэг
хөрвүүлэгдсэн
хөрвүүлэгч
хөрвүүлэлт
хөрвүүлэлтии
хөрвүүлэн
хөрвүүлэх
хөрвөх
хөргии
хөргөлтии
хөргөх
хөрс
хөрсии
хөрснии
хөрснөөс
хөрст
хөрстэи
хөрсүүд
хөрсөн
хөрсөнд
хөрш
хөршии
хөршүүд
хөрөг
хөрөнгии
хөрөнгө
хөрөнгөтнии
хөрөнгөтэи
хөрөнгөө
хөрөнгөөр
хөрөө
хөсөг
хөтлөгдөн
хөтлөгч
хөтлөгчии
хөтлөгчтэи
хөтлөгчөөр
хөтлөн
хөтлөх
хөтчүүд
хөтөл
хөтөлбөр
хөтөлбөрии
хөтөлбөрт
хөтөлбөртэи
хөтөлбөрүүд
хөтөлбөрүүдии
хөтөлбөрөө
хөтөлбөрөөр
хөтөлдөг
хөтөлж
хөтөлсөн
хөтөч
хөх
хөхии
хөхиүлэн
хөхморьт
хөхнии
хөхнуур
хөхнуурт
хөхнуурын
хөхтөмөр
хөхтөмөрии
хөхтөн
хөхчирэнгэр
хөхүүл
хөхүүлэн
хөхөө
хөц
хөшиг
хөшигнии
хөшүүн
хөшүүрэг
хөшөө
хөшөөг
хөшөөнд
хөшөөнии
хөшөөнүүд
хөшөөт
хөө
хөөгдсөн
хөөгдөж
хөөж
хөөжээ
хөөмии
хөөмэи
хөөн
хөөндэи
хөөр
хөөргөв
хөөргөсөн
хөөрсөн
хөөрхии
хөөрхөн
хөөрч
хөөрөв
хөөрөг
хөөрөх
хөөс
хөөсөн
хөөх
хөөцөлдөж
ц
цаа
цаагч
цаад
цаадах
цааж
цааз
цаазаар
цаазалж
цаазалжээ
цаазалсан
цаазат
цаазлагдсан
цаазлан
цаазлах
цаазлуулсан
цаазны
цаазтаи
цаазыг
цаазын
цаалт
цаалтын
цаан
цаана
цаанаас
цааны
цаас
цаасан
цаасны
цаасыг
цаатан
цаах
цааш
цаашаа
цаашдаа
цаашдын
цаашид
цаашилбал
цаашлаад
цав
цавчим
цаг
цагаа
цагаагчин
цагаадаи
цагаан
цагаанбаатар
цагаандэлгэр
цагааннуур
цагаантны
цагаанхаи
цагаанчулуут
цагааны
цагаар
цагаараа
цагаас
цагаасаа
цагаатгасан
цагаатгах
цагаач
цагаачдыг
цагаачдын
цагаачид
цагаачилж
цагаачилсан
цагаачлал
цагаачлалын
цагаачлан
цагадаи
цагариг
цагдаа
цагдаагии
цагдан
цагии
цагираг
цагирагт
цагны
цагт
цагтаа
цагтаи
цагын
цадиг
цаи
цалин
цалинг
цалингии
цалинтаи
цам
цамхаг
цамхагии
цамхагт
цамхгии
цамц
цамын
цана
цанаар
цаначин
цанын
цао
цар
цараи
цардмал
цардуул
цари
царии
царс
царт
царцаа
царцдас
царцдасын
царчууд
царын
царь
царьт
цас
цасан
цасанд
цасны
цаст
цастаи
цахар
цахарын
цахиагии
цахилгаан
цахилгаанаар
цахилгааны
цахилгааныг
цахим
цахир
цахиур
цахиурын
цахлаи
цацабшир
цацагдаж
цацагдах
цацагджээ
цацагдсан
цацагт
цацаж
цацах
цацдаг
цацраг
цацрагии
цацрагууд
цацрал
цацсан
цдэг
цезарии
цезарь
цеи
целии
цельсии
цемент
цементии
центр
цех
цехии
цехэд
ци
ции
цикл
циклии
циклон
цилиндр
цилиндрии
цилиндрт
цилиндртэи
цин
цинхаи
цинь
цирк
циркии
цитоплазмын
цифр
цлии
цлэг
цнэ
цог
цогзолмаа
цогоо
цогт
цогтбаатар
цогтбаяр
цогтои
цогтын
цогц
цогцолбор
цогцолборт
цогцолборыг
цогцолборын
цогцоор
цогцос
цогцосыг
цогцсыг
цогчин
цои
цол
цолд
цолмон
цолны
цолоо
цолоор
цолтнууд
цолтои
цолтон
цолыг
цолын
цом
цомгии
цомгоо
цомгоор
цомгоороо
цомгоос
цомгууд
цомгуудын
цомд
цомнол
цомог
цомогоо
цомогт
цомогтои
цомогтоо
цомоо
цоморлиг
цомтои
цомыг
цомын
цонх
цонхны
цонхоор
цонхтои
цонхыг
цоо
цоодол
цооног
цоорхои
цоохор
цор
цорго
цорж
цорос
цорын
цох
цохив
цохивор
цохигдож
цохигдон
цохигдсон
цохиж
цохижээ
цохилт
цохилтоор
цохилтоос
цохилтыг
цохилтын
цохин
цохио
цохисны
цохисон
цохиулсан
цохиур
цохих
цохиход
цохон
цохын
цочмог
цска
цсэн
цтаи
цтэи
цуваа
цувааг
цувааны
цувраа
цуврал
цувралаар
цувралд
цувралууд
цувралыг
цувралын
цувран
цуг
цуглаан
цуглаанд
цуглаж
цуглан
цугларсан
цугларч
цугласан
цуглуулагч
цуглуулан
цуглуулах
цуглуулга
цуглуулгад
цуглуулгатаи
цуглуулгыг
цуглуулгын
цуглуулдаг
цуглуулж
цуглуулсан
цул
цунами
цурхаи
цус
цусаар
цусан
цусанд
цусны
цуст
цустаи
цусыг
цутгадаг
цутгаж
цутгал
цутгалан
цутгамал
цутган
цутгана
цутгах
цуу
цуур
цуураи
цуурхал
цуутаи
цухуи
цуцалж
цуцалсан
цуцлагдсан
цуцлах
цыши
цэврии
цэвэгжав
цэвэгжавын
цэвэгмид
цэвэлмаа
цэвэлсодном
цэвэр
цэвэрлэгч
цэвэрлэгээ
цэвэрлэгээнии
цэвэрлэж
цэвэрлэнэ
цэвэрлэсэн
цэвэрлэх
цэвэрхэн
цэвээн
цэвээндорж
цэвээнии
цэвээнравдан
цэг
цэгии
цэгмид
цэгмидии
цэгт
цэгтэи
цэгтээ
цэгцгии
цэгцлэн
цэгцтэи
цэгцэлж
цэгэн
цэгээр
цэгээс
цэгүүд
цэгүүдии
цэгүүдэд
цэд
цэдэв
цэдэвии
цэдэн
цэдэнбал
цэдэнбалыг
цэдэнбалын
цэдэнгии
цэдэндамбын
цэдэнжав
цэж
цэл
цэлдүүлэх
цэлии
цэлмэг
цэмцгэр
цэн
цэнгэг
цэнгэл
цэнгэлдэх
цэнгэлдэхии
цэнгэлдэхэд
цэнгэлии
цэнгээнии
цэнгээнт
цэнгүүн
цэнд
цэндии
цэнии
цэнтэи
цэнхэр
цэнхэрии
цэнэ
цэнэг
цэнэгии
цэнэглэгч
цэнэглэх
цэнэгт
цэнэгтэи
цэнэтэи
цэргии
цэргээ
цэргээр
цэргээс
цэргүүд
цэргүүдии
цэргүүдтэи
цэргүүдэд
цэргүүдээ
цэргүүдээс
цэрдии
цэрмаа
цэрэг
цэрэглэн
цэрэгт
цэрэгтэи
цэрэн
цэрэнгии
цэрэндаваа
цэрэндагва
цэрэндашии
цэрэндолгор
цэрэндондов
цэрэндорж
цэрэндоржии
цэрэндулам
цэрэннадмид
цэрэнпил
цэрэнпилии
цэрэнпунцаг
цэрэнтогтох
цэрэнханд
цэрэнчимэд
цэс
цэт
цэтгэв
цэтгэгч
цэтгэгчээр
цэтгэдэг
цэтгэж
цэтгэжээ
цэтгэл
цэтгэлии
цэтгэлтэи
цэтгэн
цэтгэнэ
цэтгэснээр
цэтгэсэн
цэтгэсээр
цэтгэх
цэтгэхии
цэтгэхэд
цэтгэхээр
цэтгүүлэх
цэх
цэхгүи
цэхүи
цэц
цэцгии
цэцгэн
цэцгээ
цэции
цэцэг
цэцэглэж
цэцэглэлт
цэцэглэлтии
цэцэглэн
цэцэгт
цэцэгтэи
цэцэн
цэцэрлэг
цэцэрлэгии
цэцэрлэгт
цээгүи
цээж
цээжин
цээжлэх
цээжнии
цээжтэи
цээжээр
цээл
цээнд
цээр
цээрии
цээрлэдэг
цээрлэнэ
цюрих
цянь
цүнх
цүүлэн
цөл
цөлд
цөлж
цөлжилт
цөлии
цөллөгии
цөллөгт
цөлсөн
цөлөгдсөн
цөлөрхөг
цөлөөс
цөм
цөмд
цөмии
цөмрөн
цөн
цөс
цөснии
цөцгии
цөөн
цөөнгүи
цөөнх
цөөнхии
цөөрмии
цөөрсөн
цөөрч
цөөрөм
цөөхүр
цөөхүүл
цөөхөн
ч
ча
чаби
чавхдаст
чагдаржав
чад
чадаагүи
чадав
чадавхи
чадавхии
чадаж
чадал
чадалгүи
чадалтаи
чадамгаи
чадамж
чадах
чадахаа
чадахгүи
чадахуи
чадвал
чадвар
чадвараа
чадвараар
чадвараараа
чадвараас
чадваргүи
чадварлаг
чадварт
чадвартаи
чадварыг
чадварын
чаддаг
чаддаггүи
чаджээ
чадлаа
чадлаар
чадлаараа
чадлыг
чадлын
чадмаг
чадна
чадраабал
чадраабалын
чадсан
чадсанаар
чадсангүи
чадын
чаи
чак
чам
чамаи
чамархаи
чамгүи
чамд
чамдаа
чамин
чампа
чан
чанад
чанадад
чанаж
чанар
чанараа
чанараар
чанараараа
чанараас
чанаргүи
чанарт
чанартаи
чанарууд
чанаруудыг
чанарыг
чанарын
чанасан
чанга
чанд
чандлан
чандмании
чандмань
чане
чансаа
чансааг
чансаагаараа
чансааны
чанх
чаны
чао
чаплин
чаплинии
чарга
чарганы
чаргачин
чарли
чарльз
чарльтон
чармаи
чарт
чартад
чартыг
чартын
часть
чат
чау
чахундорж
чацаргана
чацарганы
чацарганын
чдын
че
чеи
чекист
человек
челси
челсигии
челябинск
чен
черкес
чернигов
чернобылии
черчиллии
черчилль
честер
чех
чехии
чехов
чехословак
чехословакии
чехүүд
чечении
чечень
чжоу
чи
чиба
чиг
чигии
чиглэгддэг
чиглэгдсэн
чиглэгдэж
чиглэдэг
чиглэж
чиглэл
чиглэлд
чиглэлии
чиглэлтэи
чиглэлээ
чиглэлээр
чиглэлүүд
чиглэн
чиглэсэн
чиглүүлж
чиглүүлсэн
чиглүүлэгч
чиглүүлэн
чиглүүлэх
чигт
чигтээ
чигээр
чигээрээ
чид
чии
чикаго
чикагогии
чилж
чили
чилии
чилсан
чилэн
чимид
чимиддорж
чимидии
чимсэн
чимэг
чимэглэл
чимэглэлии
чимэглэлтэи
чимэглэсэн
чимэгтэи
чимэд
чимэдвандан
чимэддорж
чимэддоржии
чимэдии
чимээ
чимээг
чимээгүи
чимээнии
чин
чинбат
чингаи
чингии
чингим
чингис
чингисии
чингэлтэи
чингэхдээ
чингээд
чингүнжав
чингүнжавыг
чингүнжавын
чинжүү
чинзориг
чинии
чинсан
чинсангии
чинтулга
чинь
чинээ
чинээлэг
чио
чип
чис
численность
чита
чих
чихгүи
чихнии
чихрии
чихт
чихтэи
чихэр
чихэрлэг
чичирхии
чичэн
члан
члах
чо
чогсомын
чои
чолла
чон
чоно
чонон
чонын
чонь
что
чу
чуваш
чуи
чулуу
чулууг
чулуугаар
чулуужсан
чулуулаг
чулуулагт
чулуулгии
чулуун
чулуунаас
чулуунбаатар
чулуунбаатарын
чулуунбат
чулуунд
чулуунууд
чулууны
чулуурхаг
чулуут
чулуутаи
чулуутын
чун
чунь
чусон
чусонии
чусонь
чууд
чуудыг
чуудын
чуулалт
чуулбар
чуулга
чуулгад
чуулган
чуулганаар
чуулганаас
чуулганд
чуулганы
чуулганыг
чуулгын
чухал
чухалд
чухалчилж
чухалчлан
чухам
чухамдаа
чухамхүү
чэжү
чэи
чэмпион
чэн
чэнь
чю
чү
чүи
чүлтэм
чүлтэмии
чүнчон
чүүд
чүүдии
чүүдэд
чүүдээс
чөлгөө
чөлгөөнии
чөлөө
чөлөөг
чөлөөгөө
чөлөөлж
чөлөөлжээ
чөлөөлсөн
чөлөөлөв
чөлөөлөгдсөн
чөлөөлөгдөж
чөлөөлөгдөх
чөлөөлөгч
чөлөөлөн
чөлөөлөх
чөлөөлөхии
чөлөөлөхөд
чөлөөлөхөөр
чөлөөнд
чөлөөнии
чөлөөт
чөлөөтэи
чөмгөнд
чөмөг
чөтгөр
чөтгөрии
ш
ша
шааж
шаазан
шаазгаи
шаал
шаамар
шаан
шаардав
шаардагдаж
шаардагдана
шаардагдах
шаардагддаг
шаардаж
шаардан
шаардана
шаардах
шаардахгүи
шаарддаг
шаарддаггүи
шаарджээ
шаардлага
шаардлагаар
шаардлагаас
шаардлагагүи
шаардлагад
шаардлагатаи
шаардлаггүи
шаардлагуудыг
шаардлагыг
шаардлагын
шаардсан
шаахаи
шаблон
шав
шаваг
шавар
шаварлаг
шаварт
шавартаи
шавж
шавжии
шавжууд
шавии
шавилан
шавраар
шаврын
шавь
шавьж
шавьжаар
шагаи
шагдар
шагдарсүрэн
шагдарын
шагнав
шагнагдаж
шагнагджээ
шагнагдсан
шагнаж
шагнажээ
шагнал
шагналаа
шагналаар
шагналаас
шагналд
шагналт
шагналтаи
шагналтан
шагналтнууд
шагналтны
шагналууд
шагналуудыг
шагналыг
шагналын
шагнасан
шагнах
шагнуулж
шагнуулжээ
шагнуулсан
шагшуурга
шад
шадавын
шадар
шадбал
шажинбат
шаи
шакил
шал
шаламгаи
шалгаад
шалгагдаж
шалгагч
шалгадаг
шалгаж
шалгалт
шалгалтаар
шалгалтад
шалгалтанд
шалгалтыг
шалгалтын
шалган
шалгана
шалгарав
шалгарал
шалгаран
шалгарлаа
шалгарсан
шалгаруулалт
шалгаруулалтад
шалгаруулалтанд
шалгаруулалтын
шалгаруулан
шалгаруулах
шалгаруулахад
шалгаруулдаг
шалгаруулж
шалгаруулсан
шалгарч
шалгарчээ
шалгасан
шалгах
шалгахад
шалгуур
шалгуураар
шалгуурыг
шалгуурын
шалны
шалтаг
шалтгаалаад
шалтгаалан
шалтгаалах
шалтгаалдаг
шалтгаалж
шалтгаална
шалтгаалсан
шалтгаан
шалтгаанаар
шалтгаанаас
шалтгаангүи
шалтгаантаи
шалтгаанууд
шалтгааны
шалтгааныг
шальке
шамдан
шан
шанага
шаналал
шаналж
шанг
шанд
шанду
шанкар
шанхаи
шань
шаньдун
шаньси
шанью
шаньюи
шар
шарав
шаравдорж
шаравтар
шаравын
шараи
шарах
шарга
шаргал
шаргуу
шаргын
шардуу
шарж
шарик
шарил
шарилж
шарилыг
шарилын
шариф
шарлагын
шарлотт
шарль
шарнууд
шарон
шарсан
шарх
шархаа
шархаджээ
шархадсан
шархдав
шархдаж
шархүү
шарын
шастир
шастирт
шат
шатааж
шатаажээ
шатаар
шатаасан
шатаах
шатаж
шаталсан
шаталт
шаталтын
шатамхаи
шатанд
шатандаа
шатар
шатарчин
шатах
шатахуун
шатахууны
шатдаг
шатлал
шатлалтаи
шатлалын
шатлан
шатнаас
шатны
шатрын
шатсан
шаттаи
шаттл
шатууд
шатыг
шах
шахагдан
шахагдсан
шахаж
шахалт
шахалтаар
шахалтын
шахам
шахан
шахах
шахдаг
шахмал
шахсан
шахте
шахуу
шахыг
шахын
шашдирын
шашин
шашинг
шашингүи
шашинд
шашинт
шашинтаи
шашинтан
шашинтнууд
шашинтнуудын
шашинтны
шашины
шашнаар
шашнаас
шашны
шашныг
швед
шведии
шведэд
шведүүд
швеи
ше
шевролет
шеи
шекелии
шекель
шекспир
шекспирии
шелии
шерлок
шерман
шеффилд
ши
шиань
шибаны
шивэгчин
шивэи
шивэр
шивээ
шивээг
шивээс
шивээт
шиг
шигдээсээр
шигии
шигтгэсэн
шигтгээ
шигшээ
шигшээг
шигшээгии
шигшээд
шигшээдээ
шигшээн
шигшээтэи
шигээ
шигүү
шид
шиддэг
шидии
шидтэн
шидтэнии
шидэ
шидэгч
шидэж
шидэлт
шидэлтии
шидэт
шидэх
шиелд
шижин
шижир
шизүока
шии
шикаи
шил
шилбэ
шилдгии
шилдгээр
шилдгүүдии
шилдэг
шилдэгт
шилж
шилждэг
шилжжээ
шилжив
шилжиж
шилжилт
шилжилтии
шилжин
шилжинэ
шилжих
шилжихии
шилжихэд
шилжсэн
шилжээд
шилжүүлгии
шилжүүлдэг
шилжүүлж
шилжүүлжээ
шилжүүлнэ
шилжүүлснээр
шилжүүлсэн
шилжүүлэв
шилжүүлэг
шилжүүлэлт
шилжүүлэн
шилжүүлэх
шилжүүлэхии
шилжүүлэхэд
шилии
шилла
шиллагии
шилмэл
шилмүүст
шилнии
шилтгээн
шилтгээнии
шилэн
шилүүс
шилүүстэи
шим
шимии
шимт
шимтгэл
шимтэи
шимтэн
шимэгч
шин
шинг
шингии
шингэж
шингэн
шингэнд
шингэнии
шингэнүүд
шингэрүүлсэн
шингэрүүлэх
шингэсэн
шингэх
шингээдэг
шингээж
шингээлтии
шингээн
шингээсэн
шингээх
шинд
шинж
шинжаан
шинжаанд
шинжааны
шинжии
шинжилгээ
шинжилгээг
шинжилгээгээр
шинжилгээнд
шинжилгээнии
шинжилж
шинжилсэн
шинжлэл
шинжлэлии
шинжлэлт
шинжлэн
шинжлэх
шинжлэхэд
шинжтэи
шинжээр
шинжээрээ
шинжээч
шинжээчдии
шинжээчид
шинжээчии
шинжүүд
шинжүүдии
шинии
шинода
шинтаи
шинь
шиньжян
шиньжү
шинэ
шинэбаатар
шинэбаяр
шинэжинст
шинэлэг
шинэс
шинэтгэл
шинэтгэлии
шинэхэн
шинэчилж
шинэчилжээ
шинэчилсэн
шинэчлэгдсэн
шинэчлэгдэж
шинэчлэгдэн
шинэчлэгч
шинэчлэл
шинэчлэлии
шинэчлэлт
шинэчлэлтии
шинэчлэн
шинэчлэх
шинэчлэхэд
шинээр
шир
ширгэж
ширии
ширхгии
ширхэг
ширхэгии
ширхэгт
ширхэгтэи
ширхэгүүд
ширэнгэ
ширэнгэн
ширэндэв
ширээ
ширээг
ширээгээ
ширээн
ширээнд
ширээнии
ширээнээс
ширээнээсээ
ширээт
ширүүн
шифр
шифрлэгдсэн
шифрлэлт
шифрлэлтии
шифрлэх
ших
шиш
шишгэд
шишии
шиүмин
шлесвиг
шлуулах
шлуулсан
шмидт
шн
шнаи
шнии
шовгор
шовх
шог
шогии
шои
шок
шоколад
шолои
шон
шонхор
шоо
шоовдор
шоог
шорвог
шоргоолж
шорон
шоронгии
шоронгоос
шоронд
шороо
шороодлоо
шороодсон
шороон
шорооны
шорт
шотланд
шотландчууд
шотландын
шоу
шоуг
шоунд
шоуны
шохои
шош
шошго
шошгууд
шошгыг
шошлои
шри
штаб
штабт
штабын
штаи
штраус
штраусын
штутгарт
штутгартын
шу
шуа
шувтарга
шувтаргад
шувтаргын
шувуу
шувууг
шувууд
шувуудаас
шувуудтаи
шувуудын
шувуун
шувууны
шугам
шугамаар
шугамаас
шугаман
шугамд
шугамтаи
шугамыг
шугамын
шугуи
шударга
шударгаар
шудрага
шулуун
шумахер
шумбагч
шумбан
шумуул
шунал
шунахаи
шураг
шуранхаи
шурган
шургуу
шурхач
шутис
шуугиан
шуугиантаи
шууд
шуудан
шуудангии
шуудуу
шуурга
шуурганд
шуурганы
шуургатаи
шуурхаи
шхаб
шхи
шэн
шэнии
шэньси
шэньян
шээ
шээс
шээсии
шээснии
шээсэнд
шээх
шю
шян
шянии
шянь
шү
шүд
шүднии
шүдтэи
шүлгии
шүлгээ
шүлгээр
шүлгүүд
шүлс
шүлтии
шүлтлэг
шүлэг
шүлэгч
шүнь
шүр
шүргэх
шүрикен
шүрикении
шүрэн
шүтдэг
шүтлэг
шүтлэгии
шүтлэгтэи
шүтэж
шүтэн
шүтэх
шүтээн
шүтээнии
шүхэр
шүү
шүүгдсэн
шүүгч
шүүгчдии
шүүгчид
шүүгчии
шүүгчээр
шүүдэр
шүүдээ
шүүж
шүүлт
шүүлтии
шүүлтүүр
шүүлтүүрии
шүүмж
шүүмжилдэг
шүүмжилж
шүүмжилжээ
шүүмжилсэн
шүүмжлэгч
шүүмжлэгчдии
шүүмжлэгчдээс
шүүмжлэгчид
шүүмжлэл
шүүмжлэлд
шүүмжлэлии
шүүмжлэлт
шүүмжлэлтэи
шүүмжлэн
шүүмжлэх
шүүн
шүүрлии
шүүрч
шүүрэлтии
шүүс
шүүсии
шүүх
шүүхии
шүүхэд
шүүхээр
шүүхээс
шөвгии
шөвгөрсөн
шөвгөрч
шөвгөрчээ
шөвөгт
шөл
шөнии
шөнө
шөнөдөө
шөнөөр
шөрмөс
щ
ъ
ы
ыг
ын
ып
ь
э
эв
эва
эван
эванс
эвгүи
эвджээ
эвдлэн
эвдрэл
эвдрэлии
эвдсэн
эвдэгдээгүи
эвдэж
эвдэн
эвдэрсэн
эвдэрч
эвдэх
эверест
эвертон
эвертоны
эвиан
эвии
эвлэл
эвлэлдэн
эвлэлии
эвлэрүүлэн
эвлүүлэг
эвлүүлэгч
эволюции
эврии
эвслии
эвслээс
эвсэж
эвсэл
эвсэлд
эвтэи
эвэр
эвэрлэг
эвэрт
эвэртэи
эг
эгеи
эгзэгтэи
эгии
эгм
эгнээ
эгнээг
эгнээгээр
эгнээнд
эгнээндээ
эгнээнии
эгц
эгч
эгчии
эгчтэи
эгшгии
эгшгээр
эгшгүүд
эгшиг
эгшиггүи
эгшиглэн
эгшигт
эгшигтэи
эгэл
эгүүлэн
эд
эдвард
эдвардын
эдвин
эдгар
эдгээр
эдгээрии
эдгээрт
эдгээрээс
эдди
эдии
эдинбург
эдинбургии
эдип
эдисон
эдисоны
эдлэл
эдлэлии
эдлэн
эдлэх
эдмунд
эднии
эдо
эдуард
эдуардо
эдэд
эдэлбэр
эдэлдэг
эдэлж
эдээр
эдээс
эдүгээ
эдүгээгии
эдүүд
эерэг
эерэгээр
эетэи
эеэр
эжии
эзгүи
эздии
эзлэв
эзлэгдсэн
эзлэгдэж
эзлэгдэн
эзлэгдэх
эзлэдэг
эзлэж
эзлэн
эзлэнэ
эзлэсэн
эзлэх
эзлэхии
эзлэхэд
эзлэхээр
эзлэхүүн
эзлэхүүнии
эзлээд
эзнии
эзнээ
эзнээр
эзхахб
эзэгтэи
эзэд
эзэлдэг
эзэлж
эзэлжээ
эзэлнэ
эзэлснии
эзэлснээр
эзэлсэн
эзэлхүүн
эзэлхүүнии
эзэмшдэг
эзэмшжээ
эзэмшигч
эзэмшигчдии
эзэмшигчид
эзэмшигчии
эзэмшиж
эзэмшил
эзэмшилд
эзэмшилдээ
эзэмшин
эзэмших
эзэмшихии
эзэмшлии
эзэмшсэн
эзэмшүүлэх
эзэн
эзэнгүи
эзэнд
эзэндээ
эзэнт
эзэнтэи
эзэрхии
эзэрхэг
эи
эквадор
эквадорын
экватор
экваторын
эквивалент
эко
экологи
экологии
экосистем
экосистемии
экс
эксклав
эксо
экспедиц
экспедици
экспедиции
экспорт
экспортлогч
экспортлох
экспортод
экспортолдог
экспортын
экспресс
эл
элбэг
элбэгдорж
элбэгдоржии
элбэгт
элбэгтэи
элвис
элгэн
элдвии
элдвээр
элдэв
электро
электрон
электроник
электроникии
электроникс
электронууд
электронуудын
электроны
электроныг
элемент
элементии
элементэд
элементээр
элементүүд
элементүүдии
элементүүдэд
элементүүдээс
элизабет
элит
элитүүдии
элон
элс
элснии
элссэн
элссэнээр
элст
элстэи
элсч
элсчээ
элсэв
элсэж
элсэлт
элсэлтии
элсэн
элсэрхэг
элсэх
элсэхэд
элсэхээр
элсээд
элсүүлж
элсүүлжээ
элсүүлсэн
элсүүлсэнээ
элсүүлэв
элсүүлэн
элсүүлэх
элсүүлэхээр
элтэрэс
элч
элчии
элчин
элчээр
эль
элэг
элэгдлии
элэгдэл
элэгдэлд
элэгнии
элэнц
элээ
эм
эмблем
эмгэг
эмгэгии
эмгэгтэи
эмгэн
эмгэнэл
эмгэнэлт
эмгэнэлтэи
эмжээр
эмзэг
эмии
[...]
