!
"
#
##0
##1
##10
##11
##12
##13
##14
##15
##16
##17
##18
##19
##2
##20
##21
##22
##23
##24
##25
##26
##27
##28
##29
##3
##30
##31
##32
##33
##34
##35
##36
##37
##38
##39
##4
##40
##41
##42
##43
##44
##45
##46
##47
##48
##49
##5
##50
##51
##52
##53
##54
##55
##56
##57
##58
##59
##6
##60
##61
##62
##63
##64
##65
##66
##67
##68
##69
##7
##70
##71
##72
##73
##74
##75
##76
##77
##78
##79
##8
##80
##81
##82
##83
##84
##85
##86
##87
##88
##89
##9
##90
##91
##92
##93
##94
##95
##96
##97
##98
##99
$
%
&
'
(
)
*
+
,
-
.
/
0
00
000
001
007
01
010
02
03
04
0470
05
06
07
0736
08
09
1
10
100
1000
10000
100000
1002
1007
101
1011086
1016
102
1021
1024
103
1038
104
105
1050
106
107
108
1080
1086
109
1093
1098
11
110
1100
111
1111
112
1125
1126
1127
113
1130
1135
114
115
116
1162
117
1170
118
1189
119
12
120
1200
12000
1201
1202
1203
1204
1205
1206
1207
121
1211
1213
1215
1217
1218
1219
122
1220
1221
1222
1223
1225
1226
1227
1229
123
1231
1232
1234
1235
1236
1237
1238
1239
124
1240
1241
1242
1245
1246
1247
1248
125
1250
1251
1252
1253
1254
1255
1256
1257
1258
1259
126
1260
1261
1262
1263
1264
1265
1266
1267
1269
127
1270
1271
1272
1273
1274
1275
1276
1277
1278
1279
128
1280
1281
1282
1283
1284
1285
1286
1287
1289
129
1290
1291
1292
1293
1294
1299
13
130
1300
1301
1303
1304
1305
1307
1308
1309
131
1310
1311
1312
1316
1318
132
1320
1321
1323
1324
1325
1326
1327
1328
1329
133
1330
1332
1335
1336
1338
1339
134
1340
1341
1342
1343
1344
1346
1348
135
1350
1351
1353
1357
136
1360
1361
1362
1363
1364
1365
1367
1368
137
1370
1376
1378
138
1380
1388
1389
139
1391
1392
1394
1398
1399
14
140
1400
1402
1405
141
1410
1415
142
1425
1428
143
144
145
1450
1452
1453
1455
1457
146
1460
1465
1466
1469
147
1470
1471
1479
148
1480
1481
149
1492
1493
1498
15
150
1500
15000
1502
1504
1505
1506
151
1512
1513
1517
1519
152
1520
1521
1522
153
1530
1533
1534
154
1540
1547
155
1550
1556
1557
156
1564
1567
1568
1569
157
1572
1575
1578
1579
158
1580
1582
1583
1584
1585
1586
1587
1588
1589
159
1590
1592
1596
1598
1599
16
160
1600
1601
1603
1605
1606
1607
1608
1609
161
1610
1611
1612
1613
1614
1615
1616
1617
1618
1619
162
1620
1621
1623
1624
1625
1626
1627
1628
1629
163
1630
1631
1632
1633
1634
1635
1636
1637
1638
1639
164
1640
1641
1642
1643
1644
1645
1646
1647
1648
1649
165
1650
1651
1652
1653
1654
1655
1657
166
1660
1661
1662
1663
1666
1667
1669
167
1670
1671
1675
1676
1678
168
1680
1681
1682
1683
1685
1686
1687
1688
1689
169
1690
1691
1692
1696
1697
17
170
1700
1701
1702
1703
1706
1707
1709
171
1710
1711
1712
1713
1716
1718
172
1720
1721
1722
1723
1724
1725
1726
1727
1728
173
1730
1731
1732
1733
1735
1736
1737
1738
1739
174
1740
1741
1742
1745
1747
1749
175
1750
1752
1753
1754
1755
1756
1757
1758
1759
176
1760
1761
1762
1763
1764
1765
1766
1767
1768
1769
177
1770
1771
1772
1773
1774
1775
1776
1777
1778
1779
178
1780
1781
1782
1783
1784
1785
1786
1787
1788
1789
179
1790
1791
1792
1793
1794
1795
1796
1797
1798
1799
18
180
1800
1801
1802
1803
1804
1805
1806
1807
1808
1809
181
1810
1811
1812
1813
1814
1815
1816
1817
1818
1819
182
1820
1821
1822
1823
1824
1825
1826
1827
1828
1829
183
1830
1831
1832
1833
1834
1835
1836
1837
1838
1839
184
1840
1841
1842
1843
1844
1845
1846
1847
1848
1849
185
1850
1851
1852
1853
1854
1855
1856
1857
1858
1859
186
1860
1861
1862
1863
1864
1865
1866
1867
1868
1869
187
1870
1871
1872
1873
1874
1875
1876
1877
1878
1879
188
1880
1881
1882
1883
1884
1885
1886
1887
1888
1889
189
1890
1891
1892
1893
1894
1895
1896
1897
1898
1899
19
190
1900
1901
1902
1903
1904
1905
1906
1907
1908
1909
191
1910
1911
1912
1913
1914
1915
1916
1917
1918
1919
192
1920
1921
1922
1923
1924
1925
1926
1927
1928
1929
193
1930
19306
1931
1932
1933
1934
1935
1936
1937
1938
1939
194
1940
1941
1942
1943
1944
1945
1946
1947
1948
1949
195
1950
1951
1952
1953
1954
1955
1956
1957
1958
1959
196
1960
1961
1962
1963
1964
1965
1966
1967
1968
1969
197
1970
1971
1972
1973
1974
1975
1976
1977
1978
1979
198
1980
1981
1982
1983
1984
1985
1986
1987
1988
1989
199
1990
1991
1992
1993
1994
1995
1996
1997
1998
1999
2
20
200
2000
20000
2001
2002
2003
2004
2005
2006
2007
2008
2009
201
2010
2011
2012
2013
2014
2015
2016
2017
2018
2019
202
2020
2021
2022
2024
2025
203
2030
204
205
2050
206
207
208
209
21
210
2100
211
212
213
214
215
216
217
218
219
22
220
2200
221
222
2220
2225
2227
223
224
225
226
227
228
229
23
230
2300
231
232
233
234
235
236
237
238
239
24
240
2400
241
242
243
244
245
246
247
248
249
25
250
2500
251
252
253
254
255
256
257
258
259
26
260
2600
261
26169
262
263
264
265
266
267
268
269
27
270
27001
271
272
273
274
275
276
277
278
279
28
280
281
282
283
284
285
286
287
288
289
29
290
291
292
293
294
295
296
297
298
299
3
30
300
3000
30000
301
302
303
304
305
306
307
308
309
31
310
311
312
313
314
315
316
317
318
319
32
320
3200
321
322
323
324
325
326
327
328
329
33
330
331
332
333
334
335
336
337
338
34
340
341
342
343
344
345
346
347
348
349
35
350
3500
351
352
353
354
355
356
357
359
36
360
361
362
363
364
365
366
367
368
37
370
371
372
373
374
375
376
377
38
380
381
383
384
385
386
387
388
39
390
393
394
395
396
397
399
4
40
400
4000
40000
401
402
403
404
405
406
409
41
410
412
414
415
416
419
42
420
421
422
424
425
428
429
43
430
431
432
433
435
436
437
438
439
44
440
442
443
444
445
446
447
45
450
4500
451
452
453
454
458
46
460
461
465
466
469
47
470
471
474
475
476
479
48
480
486
49
490
491
494
495
499
5
50
500
5000
50000
501
502
504
506
508
509
51
510
512
514
515
517
52
520
521
522
523
525
526
527
528
53
530
531
532
534
535
54
540
5415
547
55
550
552
554
555
557
559
56
560
565
57
570
575
577
578
58
580
581
585
589
59
590
591
5983548781331
6
60
600
6000
601
603
605
609
61
610
613
617
618
62
620
621
625
626
628
63
630
631
64
640
642
645
647
648
65
650
655
66
660
665
67
670
674
676
68
680
682
684
686
688
69
690
691
698
7
70
700
7000
705
71
710
711
713
716
72
720
727
73
730
731
734
737
74
740
741
742
744
745
747
75
750
76
760
768
77
770
771
777
7776
78
780
786
79
790
8
80
800
8000
802
805
807
808
809
81
810
811
812
814
82
821
824
83
84
840
84596
8493
85
850
86
860
868
87
870
88
880
89
9
90
900
9000
907
908
91
911
915
918
92
920
923
924
925
926
93
930
934
935
936
937
938
94
947
95
950
951
96
960
9635
97
970
975
978
979
98
980
99
997
999
99929
99962
:
;
<
=
>
?
@
[
\
]
^
_
`
a
aa
aaa
aaron
ab
abc
abcd
abgerufen
about
above
abs
abstract
abundances
ac
acade
academic
academy
access
accessed
according
account
accounting
accounts
acid
acids
ack
acm
acquire
acs
act
acta
action
active
actor
ad
ada
adam
adams
add
addison
address
adf
administration
administrative
adobe
adult
advanced
adventure
ae
aes
af
afc
affairs
afghanistan
africa
african
afrika
after
ag
again
against
age
ageing
agencies
agency
agent
agree
agreement
agrees
agricultural
agriculture
ah
ai
aic
aid
aided
air
airlines
ajax
ak
al
alabama
alan
alaska
alba
albania
albert
albion
album
albums
alert
alex
alexander
alfred
algeria
algorithm
ali
alice
aligned
all
allen
alliance
allkpop
allmovie
allmusic
allrussischen
alone
alors
alpha
als
also
alter
alternative
always
am
amazon
america
american
among
amy
an
ana
analysis
ancient
and
anders
anderson
andorra
andre
andrea
andreas
andrew
android
andy
angegeben
angegebene
angel
angeles
angola
animal
animals
animated
animation
anime
ann
anna
anne
anniversary
annotated
announce
announced
announces
annual
another
answers
anterior
anthony
anthropology
anti
antonio
any
anzahl
aoa
ap
apache
api
app
appendix
apple
application
applications
applied
approach
april
aquila
ar
ara
arab
arabic
arch
archaeology
architecture
archive
archived
archives
arctic
arctos
arda
are
area
areas
arena
arg
argentina
argument
argv
aria
arizona
arkansas
arkive
armenia
armenian
armstrong
army
arnold
around
arp
arsenal
art
arthur
article
articles
artikel
artist
artists
arts
as
ascii
asean
asia
asian
asp
aspects
aspx
assembly
assessment
associated
association
associations
aston
astro
astronomy
at
athletes
athletic
atlanta
atlantic
atlas
atle
atm
atomic
attack
attribute
au
auch
audio
auf
aufl
auflage
aug
august
augustus
aus
austin
australia
australian
austria
authentication
authority
auto
autonomous
autosport
available
avatar
avatrade
avilgaliin
aviv
award
awards
away
ax
az
azerbaijan
aŋg
b
ba
baby
back
background
bad
baden
bafta
bag
baker
balance
ball
baltic
ban
banana
band
bang
bank
bar
barbara
barcelona
barclays
barnes
barry
base
based
basel
basic
basis
basketball
bat
battle
bay
bayer
bayern
bb
bbc
bc
bcdb
bd
bdfutbol
be
beach
bean
bear
bears
beast
beat
beatles
beautiful
beauty
because
beck
become
becomes
been
before
begin
behind
bei
beijing
beim
being
belarus
belgium
belize
bell
ben
benjamin
benth
ber
berechnete
berkeley
berlin
berlusconi
bernard
berners
best
besta
beta
better
between
bevo
beyond
bezogen
bf
bg
bgp
bi
bibliography
bid
big
bild
bill
billboard
billion
bin
binder
bio
biochemistry
biographies
biography
biol
biological
biology
biotechnology
bird
birding
birdlife
birds
birmingham
birth
bis
bit
bitcoin
black
blackburn
blackpool
blackwell
blasco
blazers
blica
block
blog
blogmn
blogspot
blood
bloomberg
blu
blue
blues
bluetooth
bmw
bn
bo
board
bob
bobcats
boca
body
boiling
bol
bolivia
bolodm
bolon
bolson
bolton
boltzmann
book
books
boot
border
born
borussia
boss
boston
both
box
boy
boys
br
bra
brand
brandon
brassica
brazil
break
breaking
breeding
bremen
brian
bridge
brief
brill
brit
britain
britannica
british
broadcast
broadcasting
broadway
brom
bromwich
brooks
bros
brother
brothers
brown
browser
bruce
bruno
brunswick
brute
bs
bsd
bt
btob
bts
bu
bucks
budapest
budget
buffer
build
builder
building
bulgaria
bulgarian
bull
bulletin
bulls
bundesliga
bureau
burton
bus
business
but
by
byte
c
ca
cabinet
cable
cache
cad
cafe
cage
calcio
california
call
called
calls
cam
cambridge
cameroon
camp
campaign
campbell
can
canada
canadian
canal
cancer
canola
cao
cap
cape
capital
captain
capture
car
caragana
carbon
card
carduelis
career
caribbean
carl
carlos
carter
cartoon
case
cases
cassandra
cast
cat
category
catherine
cavaliers
cbc
cbs
cc
cd
cdma
cdot
ce
celebrity
cell
cells
celtic
celtics
cement
census
center
central
centre
centuries
century
ceo
cern
cf
cgi
cgs
ch
cha
chain
chainsmokers
challenge
champion
champions
championship
championships
chan
change
changed
changes
changing
channel
chapter
char
character
charles
charlie
charlotte
chart
charts
che
check
chelsea
chelseafc
chem
chemical
chemie
chemischen
chemistry
chen
chi
chicago
chief
child
children
chile
china
chinese
cho
choi
choice
chris
christian
christmas
christopher
chronicle
chronology
chu
church
churchofjesuschrist
ci
cia
ciaaw
cinema
circus
cisco
citation
cite
cited
cities
citizen
city
civil
civilization
cl
claims
clark
class
classic
classical
classics
classification
cleistogenes
cli
client
clifford
climate
clippers
clocks
close
cloud
club
clubs
cluster
cm
cn
cnc
cnn
co
coach
coal
coast
coca
code
codes
cohen
cola
cold
coldplay
cole
coli
colin
collection
college
collins
colombia
colonial
color
colorado
columbia
column
com
combat
combined
come
coming
command
commerce
commercial
commission
committee
common
commons
commonwealth
communication
communications
communities
community
companion
company
comparative
comparison
competition
compiled
complete
completes
complex
components
composition
compounds
comprehensive
computer
computing
comune
con
concepts
concern
concert
conf
confederation
conference
config
configuration
confirm
confirmed
confirms
conflict
congress
connect
connected
connecticut
connection
conquest
conservation
consortium
constitution
construction
contact
contemporary
content
contents
contest
context
continental
contract
control
convention
cookie
cool
cooper
cooperation
copa
copper
copy
core
cornell
coronavirus
corporate
corporation
corpus
corrected
cos
cosmopolitan
cost
costa
cots
could
council
count
countdown
counter
countries
country
county
course
court
cover
covid
cp
cpu
cqlsh
cr
crazy
crc
create
creating
creative
credit
crime
criminal
crisis
critical
crm
croatia
crop
crops
cross
crown
crusades
cruz
crystal
cs
cso
css
ct
cu
cuba
cube
cultural
culture
cumulative
cup
current
customer
cut
cyprus
cz
czech
d
da
dag
daily
daimler
dakota
dallas
dam
dams
dan
dance
dangerous
daniel
danny
dao
daraus
dark
das
data
database
databases
datastax
date
daum
dave
david
davies
davis
day
days
db
dc
ddos
de
dead
deadline
deal
death
debian
debut
dec
december
decision
deep
default
defence
defender
defense
defined
definition
deg
del
delaware
delay
delete
delhi
dell
della
delta
dem
democracy
democratic
demographic
den
dennis
density
department
der
deralen
deration
derby
des
describe
description
desert
design
destination
detail
detailed
details
detection
deutsch
deutsche
deutschen
deutscher
deutsches
deutschland
development
device
dew
dezember
dfb
dfrac
dhcp
di
dia
diamond
diane
dictionary
did
die
diego
dienstes
dies
dieter
dietrich
different
differential
digest
digital
dijkstra
din
direct
direction
director
directory
disclosure
discovery
discussion
disease
diseases
disk
disney
display
displaystyle
distance
distances
distributed
distribution
district
diversity
division
dj
dk
dl
dna
dns
do
doc
docs
document
documentary
documentation
documents
does
dog
doi
dollar
domain
domestic
don
donald
dong
door
dort
dortmund
dos
double
douglas
down
download
dpt
dr
draft
draftexpress
dragon
drama
draw
dream
dreams
drive
driver
drop
ds
dt
du
dual
duck
duke
dunn
duo
dur
durch
during
dutch
dvd
dx
dylan
dynamic
dynamics
dz
dʌ
e
ea
each
eagle
eap
early
earnshaw
earth
east
eastern
eastw
ebu
ec
echo
ecology
economic
economics
economy
ed
edge
edinburgh
edit
edited
editing
edition
editions
editor
eds
edu
education
educational
edward
ee
effect
effects
egypt
eigenschaften
eight
eigrp
ein
eine
einer
einheiten
eintrag
el
election
elections
electoral
electric
electrical
electronic
element
elemente
elements
elephant
elevations
elizabeth
ell
else
elsevier
em
email
emberiza
emp
emperor
empire
empty
en
encarta
encryption
encyclopaedia
encyclopedia
encyclopædia
end
endangered
energy
eng
engine
engineering
england
englisch
english
enie
enough
enter
enterprise
entertainment
enthalpies
entnommen
entry
environment
environmental
ep
eq
equipe
equiv
equus
er
era
erforderlich
ergebnisse
eric
erik
ernst
erp
error
ers
es
esp
espan
espn
essay
essays
essential
est
estadi
estimate
estimates
et
etc
ethernet
ethnic
ethnicity
ethnologue
etymology
eu
euler
eun
euro
euroleague
europa
europe
european
eurovision
evaluation
evanescence
evans
even
evening
event
events
ever
everton
every
everyday
everything
evidence
evolution
ex
example
excel
exchange
exclusive
exe
execute
executive
exid
exist
exit
exo
experience
exploration
explorer
expo
export
express
extended
extensible
extension
extensions
extensive
external
extra
eye
eyes
f
fa
face
facebook
fact
factbook
factor
facts
factsheet
faculty
failure
fair
falco
fall
false
fame
family
famous
fan
fans
fantasy
fanto
fao
faq
far
farm
fashion
fast
fat
father
fc
fd
fe
feat
feature
features
feb
februar
februarie
february
fed
federal
federation
fedora
fee
feedback
felis
female
ferdinand
fernando
ferrari
festival
ff
fi
fia
fiba
field
fifa
figc
fight
figure
figures
file
files
film
films
filter
fin
final
finance
financial
find
fine
finland
fiorentina
fire
firefox
firewall
first
fis
fischer
fish
five
fix
fl
flag
flags
flash
fletcher
flight
flora
florida
flow
floyd
fluid
fly
fm
fo
focus
follow
following
food
foot
football
footballdatabase
footballers
for
forbes
force
forces
ford
foreign
forest
forever
fork
form
format
formation
formel
former
formula
fort
fortran
forum
forward
forwarding
found
foundation
four
fourth
fox
fr
frac
frame
framework
franc
france
francis
francisco
frank
frankfurt
franz
fred
frederick
free
freebsd
freedom
freeman
freeware
french
frequency
friday
friedrich
friendly
friends
friendship
from
front
frontier
ft
ftp
fu
fuel
fulham
full
fulltext
function
fund
further
fussballdaten
futbol
future
fʧi
g
ga
gallery
game
games
gamma
gaon
garden
gary
gas
gate
gateway
gay
gazette
gazetteer
gb
gd
gdp
ge
gen
gender
gene
general
generation
genetic
genetics
geneva
genghis
genome
geo
geographic
geographical
geography
geological
george
georgia
geq
ger
german
germany
geschichte
gestis
get
gets
gf
ghana
ghost
ghz
gi
gibson
gif
gini
girl
girls
github
give
given
gives
gl
glantz
glass
global
globe
glory
glossary
gm
gmbh
gnu
go
goal
goals
god
goda
goes
gogh
gogo
going
gold
golden
gomez
good
google
goose
gordon
got
gov
government
governor
gp
gpl
gps
gr
grace
graham
grammar
grammy
gran
grand
grande
granger
grant
graphics
gravity
gray
great
greater
greatest
greece
greek
green
greene
greenwood
grep
grey
grizzlies
gross
ground
group
groups
growl
growth
gruyter
gs
gsm
gst
gt
gu
guard
guardian
gui
guide
guides
guillaume
guinea
guinness
gun
gus
guy
gyrus
gło
h
ha
haaretz
had
hadoop
haifa
half
haliaeetus
hall
ham
hamburg
hamilton
han
hand
handbook
handbooks
handbuch
hannover
hans
happy
hard
hardcover
harddrive
hardware
harper
harris
harrison
harry
hart
harvard
harvey
has
hash
hat
have
hawk
hawks
hazards
hcl
hd
he
head
header
headline
health
heart
heat
heaven
heavy
hee
heinrich
heinz
held
heller
hello
help
henoun
henri
henry
hepatitis
her
herald
herbert
here
hergvvd
heritage
hero
herodotus
heroes
hewlett
hf
hi
hidden
hier
high
higher
highest
hill
him
hip
hirzel
his
histoire
historia
historic
historical
histories
history
hit
hitler
hits
hlung
hno
ho
hold
holland
hollywood
home
homepage
homo
honda
hong
hook
hop
hope
hopkins
hornets
horse
host
hot
hotel
hotspur
houghton
house
housing
houston
how
howard
hp
hr
hrm
hrsg
htm
html
http
https
hu
hua
hub
hugh
hughes
hugman
hull
human
hung
hungarian
hungary
hunt
hunter
huuli
hybrid
hynoun
hypertext
hyun
i
ia
iaaf
ian
iata
iau
ibgp
ibm
ic
ice
icmp
icon
ict
id
identification
identifier
identity
ids
ie
iec
ieee
ietf
if
ifa
ifpi
ii
iii
ij
ike
ikon
il
illinois
illustrated
im
image
images
imdb
imf
immigration
impact
imperial
implementation
in
ina
inc
include
includes
including
income
independence
independent
index
india
indian
indiana
indicators
indonesia
industrial
industry
infinite
info
infobox
information
infty
init
injection
inkigayo
inner
inorganic
input
insects
insert
inside
instagram
instance
instead
institut
institute
institution
instituto
int
integer
integrated
integrity
intel
intelligence
inter
interactive
interest
interface
interfaces
interior
internal
international
internationale
internet
interview
into
introduction
invalid
invasion
inventory
investigation
investment
invoked
ios
ip
ipa
ipad
iphone
ips
ipsec
iptv
ipv
iq
ir
iran
ireland
irish
iron
is
isaac
isbn
islam
islamic
island
islands
islennost
iso
isotopic
isp
israel
israeli
issn
issue
issues
ist
it
italia
italian
italy
itemid
itogi
its
itu
itunes
iu
iucn
iucnredlist
iupac
iv
ix
iy
j
ja
jack
jackie
jackson
jacob
jacques
jae
james
jamie
jan
jane
jang
januar
january
japan
japanese
jason
java
javascript
javier
jay
jazz
je
jean
jeff
jefferson
jeffrey
jennifer
jeong
jeremy
jersey
jerusalem
jesus
jet
jewish
ji
jia
jim
jin
jo
job
joe
joel
johan
johann
johannes
john
johns
johnson
join
joins
joint
jonathan
jones
jong
joo
jordan
jose
joseph
josh
journal
journalism
journey
joy
jp
jpg
jr
js
ju
juan
jubatus
judet
judo
judoinside
juli
julian
julius
july
jump
jun
june
jung
juni
junior
just
justice
justification
justin
juventus
jvm
jyp
k
ka
kan
kang
kansas
karl
kb
kbs
ke
keane
keith
kelly
ken
kenneth
kent
kentucky
kepler
kernel
kevin
key
keyboard
keyspace
kg
khan
ki
kia
kick
kicker
kids
kim
king
kingdom
kings
kino
kiss
kit
klaus
km
knicks
knight
know
knowledge
known
ko
kom
kong
korea
korean
kosovo
kr
ku
kurl
kursk
kwon
kyle
kyung
kz
l
la
lab
label
labelling
laboratory
ladies
lady
lag
lake
lakers
lal
lambda
lan
land
landscape
lane
lang
language
languages
large
largest
larry
lars
las
last
late
lateralis
latest
latex
latin
lattice
law
lawrence
laws
laxʧi
layer
lb
lcd
ld
le
lead
leader
leaders
leads
league
learning
least
leaves
led
lee
left
leg
legacy
legal
legalinfo
lege
legend
lehrbuch
leicester
leipzig
lel
length
leo
leon
leonard
leopard
leq
les
lesotho
less
let
letter
letters
level
leverkusen
lewis
lexikon
lexʧi
lfp
lg
li
lia
lib
liberty
libraries
library
license
lide
liechtenstein
life
lifetime
liga
light
ligue
like
lil
lim
limit
limited
line
lineups
linguistics
link
linkin
links
linux
lion
list
lista
listen
listing
lists
literature
lithuania
little
liu
live
liveinternational
liverpool
lives
living
lkerung
ll
llc
ller
lloyd
ln
lo
load
loan
local
localities
location
log
logical
london
long
look
loop
loopback
lord
lorde
los
loss
lost
louis
louisiana
love
lovelyz
low
lp
ls
lsa
lt
ltd
lte
lu
lucas
lucia
ludwig
luis
luke
lupin
lupine
lupinus
luxembourg
lyon
lyrics
m
ma
mac
machine
macmillan
made
madrid
magazine
magic
magnetic
magnets
magyar
mai
mail
main
mainstream
mainz
major
make
makes
making
mal
malaysia
malware
mama
mammals
man
management
manager
managing
manchester
mandarin
mandatory
manitoba
manual
manuel
manutd
many
mao
map
mapping
maps
mar
marc
marca
march
marco
marcus
maria
marie
marine
mario
mark
markdown
market
marketing
markup
markus
marlene
married
mars
marshall
martes
martin
mary
maryland
mas
mask
mason
mass
massachusetts
master
mastercard
match
matches
material
materials
mathbb
mathbf
mathematical
mathematics
mathieu
mathrm
mathsf
matrix
matt
matthew
matthews
matthias
mavericks
max
maxwell
may
maßeinheitslose
mb
mbc
mbk
mbox
mbps
mc
mcgraw
md
me
mean
means
mechanics
med
medal
medeelel
media
medical
medicine
medien
medieval
meet
meeting
mel
melbourne
melilotus
melodrama
melon
member
members
memento
memory
memphis
men
mer
mercedes
mercury
mesh
message
messenger
metacritic
metal
meteorological
method
methods
metric
metro
metropolitan
mexico
mg
mglradio
mhz
mi
miami
mib
michael
michel
michigan
microsoft
mid
middle
midfielder
midnight
mie
mifflin
miguel
mike
milan
miletus
military
miller
million
min
mind
mini
mining
minister
ministers
ministry
minix
minnesota
minor
minority
minute
minutes
mirror
miss
mission
mit
mitchell
mix
ml
mls
mm
mn
mnb
mnet
mns
mo
mobile
mod
mode
model
models
modern
module
mojo
mol
molecular
moment
mon
monaco
monetary
money
mongodb
mongol
mongolia
mongolian
mongols
mongoltoli
monitor
month
monthly
montsame
moon
moore
more
morgan
morning
morocco
morris
morse
moscow
most
mother
motor
motors
motorsport
mount
mountain
mountains
mouse
move
movement
moves
movie
movies
mozilla
mp
mpi
mpls
mr
ms
msn
mt
mtp
mtv
mu
much
multi
multics
multiple
munich
municipal
municipality
murray
muse
museum
music
must
mv
mvc
mvp
my
mylo
myspace
mysql
n
na
nabla
nach
nacional
nam
name
named
names
nancy
napoli
nas
nasa
naselenija
nat
nate
nation
national
nations
native
natural
nature
naval
naver
nba
nbadraft
nbar
nbc
nc
ncaa
nchen
nct
nd
nder
ne
near
nebraska
need
needs
neighbor
neil
nelson
neo
neptune
net
netflix
netflow
netherlands
nets
netscape
network
networks
neue
neuer
never
new
newcastle
news
newspaper
next
nf
nfc
ng
ngn
nh
nhk
ni
nic
nice
nicholas
nicht
nick
nicolas
nielsen
night
nih
niited
nike
nikola
nimmervoll
nin
nine
nintendo
niosh
nis
nist
nitrogen
nl
nlm
nme
no
noaa
nobel
noble
node
noise
noitalic
nomenclature
non
norman
north
northern
northwest
norway
norwegian
norwich
nos
nosql
not
note
notebook
notes
nov
nova
november
now
nr
nst
nt
ntp
ntului
nu
nuclear
nucleus
nuggets
null
num
number
numbers
numerical
nunavut
nutrition
ny
nz
o
oasis
object
objectid
oblast
observatory
observer
oc
occupational
ocean
och
oclc
oct
october
odoo
oecd
of
off
offer
office
officer
officers
official
offiziell
og
oh
ohio
oi
oil
ois
oklahoma
oktober
ol
old
oliver
olon
olympic
olympics
om
omega
on
once
one
online
only
ono
ontario
op
opel
open
opening
opera
operating
operation
operations
option
options
or
oracle
order
org
organic
organisation
organization
oricon
oriental
oriented
origin
original
origins
orleans
ornithology
oro
os
oscar
osi
ospf
ospfv
osprey
other
others
otto
our
out
outlook
output
outside
over
overview
owen
owl
own
oxford
p
pa
pablo
pacers
pacific
package
packard
packet
page
pages
pair
pakistan
palace
palestine
pan
panda
panthera
paper
paperback
papers
par
para
parachutes
paradise
parallel
parameter
parameters
paris
park
parker
parks
parliament
parlophone
pars
part
partial
particle
parties
parts
party
pass
passer
password
past
pat
path
patrick
patterns
paul
paulo
pay
paypal
pbs
pc
pcap
pd
pdf
pe
peace
pearl
pearson
peer
penguin
pennsylvania
people
peoples
per
perepisi
perfect
performance
period
persian
person
personal
perspective
peter
petersburg
petroleum
pfa
pg
ph
phil
philadelphia
philip
philippe
philippines
phillips
philosophy
phishing
phoenix
phone
photo
photographs
photos
php
phys
physical
physics
physiology
pi
pick
picks
picture
pictures
pid
pierre
pin
pine
ping
pink
pinus
pistons
pl
place
places
plan
plane
planet
planetary
planets
planning
plans
plant
plants
platform
platinum
play
player
players
playstation
please
plus
pm
pmatrix
pmid
po
poblacio
pocket
point
points
poland
pole
police
policing
policy
polish
political
politics
polo
pop
popest
popular
populat
population
por
porsche
port
portal
portland
porto
portrait
portsmouth
portugal
portuguese
pos
position
posix
possible
post
potter
pour
poverty
power
pp
ppp
pr
practice
pre
prefix
premier
premierleague
present
president
presidential
press
pretty
prevention
price
primary
prime
prince
princess
princeton
principles
print
printer
printf
printing
prior
priority
prius
privacy
private
prize
pro
problem
problems
procedure
proceedings
process
processes
processing
produced
producer
product
production
products
professional
profile
profiles
program
programme
programming
progress
project
projects
prometheus
properties
property
prospects
protected
protection
protein
protocol
provided
provider
providing
province
prunella
ps
psk
psv
pt
pthread
pub
public
publication
publications
published
publisher
publishers
publishing
pulver
pure
push
put
python
q
qa
qe
qi
qos
qpr
qquad
qr
qs
quad
quality
quantum
quarterly
que
queen
queens
query
question
questions
queue
quick
r
ra
race
racing
radical
radio
radius
rai
raid
rain
rainer
ral
ram
random
range
ranking
rankings
ransomware
rap
raptors
rate
rates
ration
raton
ray
raymond
razmes
rc
rd
rda
rde
re
reach
read
reader
reading
ready
real
reality
really
rec
receive
recensa
recent
recognition
recommendations
record
recorded
recording
records
red
reed
ref
reference
references
refs
reg
region
regional
regions
register
regular
regulation
regulations
reich
related
relations
relationship
relay
release
released
releases
religion
religious
remix
remote
renault
rene
replication
report
reporter
reports
reprint
repu
republic
request
required
requirements
res
research
reserve
resistance
resolution
resource
resources
response
restart
result
results
retrieval
retrieved
return
returns
reuters
rev
revealed
reveals
review
reviews
revised
revision
revolution
rez
rfc
rfef
rfid
rg
rgen
rho
rhode
ri
rica
rice
rich
richard
richardson
right
rightarrow
rights
ring
rio
rip
ripv
rise
rising
risk
river
rl
rm
rn
ro
road
robert
roberto
robin
robinson
rock
rockets
roger
role
rolling
rom
roma
roman
romania
romanian
rome
romeo
ron
ronald
rookie
room
root
rosa
rose
ross
rotten
round
route
router
routing
routledge
rovers
row
roy
royal
rpr
rs
rsa
rsssf
rt
rte
rterbuch
rtp
ru
rubber
rudolph
rule
rules
run
running
rush
russell
russia
russian
russisch
russischen
rx
ryan
rz
s
sa
safety
saint
saints
sal
salamandra
salary
sales
salt
salvador
sam
same
samoa
samsung
samuel
san
santa
santos
sap
sar
sarah
sarkozy
sars
satellite
saturday
sauber
saunders
save
say
says
sbs
sc
scale
scan
scandal
schalke
schmidt
school
schools
schumacher
schuster
sci
science
sciences
scientific
scientist
sciurus
score
scores
scotia
scotland
scott
scottish
scratch
screen
script
scriptures
sdh
se
sea
seal
seals
search
searchable
season
seattle
sebastian
sec
second
secret
section
sector
secure
security
see
seite
select
selected
self
selling
semi
sen
sense
seo
seoul
september
sequence
ser
serbia
serial
serie
series
server
service
services
session
set
setaria
sets
seung
seven
seventeen
several
sevilla
sex
sexing
sf
sg
sgml
sh
sha
shadow
shanghai
share
shared
sharing
she
sheet
shell
shi
shin
shinee
sho
short
shot
shoufeng
should
show
showing
shows
shtml
shu
si
sibirica
sich
side
sigma
sign
signal
signing
signs
silicon
silva
silver
sim
simo
simon
simple
simulation
sin
since
sind
singapore
singer
single
singles
sino
sinus
sio
sir
site
sites
situation
six
sixth
size
sk
skating
ski
sky
sla
sm
small
smart
smith
smithsonian
smtp
snmp
snooker
snort
snow
so
soc
soccer
soccerbase
soccernet
soccerway
sochi
social
society
software
soil
solar
solaris
solo
solomon
solution
some
something
son
sonet
song
songs
sonin
sons
sony
soo
sort
soul
sound
soundcloud
sounds
source
sources
south
southampton
southeast
southern
soviet
sp
space
spain
spanish
spanning
special
specialist
species
specified
specimen
speech
speed
sph
spiegel
spirit
split
sponsor
sport
sporting
sports
sprache
spring
springer
spurs
spy
sql
sqrt
squad
square
sr
sri
srp
ss
sseldorf
ssh
ssl
ssp
st
sta
staatliche
stability
stack
stadium
stadt
staff
stage
stalin
stand
standard
standards
standby
stanford
stankev
stanley
star
stars
start
stat
state
statement
states
statewide
static
station
statistical
statistics
statistik
statistisches
stats
status
statystyczny
stay
stefan
step
stephen
steps
sterreich
steve
steven
stewart
stica
still
stm
stock
stoffdatenbank
stoke
stone
stop
storage
store
stored
stories
storm
story
stp
strategic
strategies
strategy
street
strike
striker
string
stromae
strong
structure
structures
stuart
students
studies
studio
studios
study
stuttgart
style
su
sub
submit
subsp
success
successors
such
sudan
suk
sulcus
sum
summary
summer
sun
sunday
sunderland
sung
sunrise
suns
super
supply
support
sur
surface
survey
sv
sven
sw
swans
swansea
sweden
swedish
sweet
swiss
switch
switching
switzerland
sydney
symbols
symmetry
syn
synonym
syntax
syphilis
sys
syslog
system
systems
szo
sʌ
t
ta
tab
tabellen
table
tables
tactical
tag
taiwan
take
taken
takes
talent
talk
talks
tan
tank
tanks
tar
target
task
tata
tau
tax
taxonomic
taylor
tbol
tcm
tcp
te
team
teams
tech
technical
technologies
technology
ted
teen
tel
telegraph
television
tell
telnet
temperature
template
temple
ten
term
terminal
terms
territorial
territories
territory
terry
tesla
test
testing
tex
texas
text
texts
tfrac
th
than
that
the
theatre
thefa
their
them
then
theodor
theory
there
these
they
things
third
this
thomas
thompson
thought
thousand
thread
threatened
three
thriller
through
thrush
thunder
ti
tico
tie
tiffany
tiger
tigers
tigris
tigt
tim
time
timeline
times
timestamp
timothy
title
tkip
tlb
tlr
tls
tmf
to
tobias
toc
today
together
token
tokyo
toll
tom
tomatoes
tomoohon
tony
too
tool
tools
top
topic
tor
toronto
torres
total
tottenham
touch
tour
tourism
touristinfocenter
tower
town
towns
toyota
tp
tr
track
tracks
tractus
trade
tradition
traffic
trail
train
training
trans
transaction
transfer
transfermarkt
translated
translation
transmission
transport
trap
travel
treat
treaty
tree
trends
triangle
tribune
trigger
trip
triple
trojan
trophy
tropical
trotsky
trouble
true
trunk
trust
ts
tsag
tt
tu
tunnel
turkey
turkish
turn
turner
tutorialspoint
tv
twentieth
twice
twisted
twitter
two
txt
type
types
u
ua
ub
ubs
ubuntu
uc
ucla
udp
uefa
ufficiale
ug
ui
uk
ukraine
ukrainian
ul
ulaanbaatar
ultra
ultratop
um
uml
un
und
under
understanding
undp
une
unesco
unified
union
unique
unit
united
units
universal
universe
universita
universities
university
unix
unknown
unter
until
up
update
updated
upon
upper
uranus
urban
url
ursus
uruguay
urza
us
usa
usb
usda
use
used
user
username
users
uses
usgs
using
usr
utah
utc
utd
v
va
vaccine
valencia
valley
value
values
van
vancouver
vaporization
var
varepsilon
variable
variety
various
vat
vch
ve
vec
vector
vehicle
velvet
verlag
vermont
verpflichtet
version
verteilung
very
vfb
vgl
vi
via
viacom
vicia
victor
victoria
victory
vida
video
videos
vie
vietnam
view
views
vii
viii
villa
village
vincent
virgin
virginia
virtual
virus
visa
viscosity
vision
visit
visual
viva
vladimir
vlan
vo
voetbal
vogt
voice
void
vol
volksza
vols
volume
vom
von
vote
vpn
vrf
vrrp
vs
vserossijskoj
vtp
vulpes
vv
w
wa
wagner
waiting
wales
walk
walker
wall
walter
wan
wang
want
war
warcraft
ward
warfare
warhol
warner
warriors
wars
was
washington
watch
water
watson
watt
wave
way
wayback
wayne
we
weast
weather
web
webelements
website
webster
wechselt
week
weekend
weekly
weights
weinheim
welcome
well
welt
weltfussball
wenn
wep
werder
were
werner
wert
werte
wesley
west
western
wetterkontor
wg
what
wheat
when
where
which
while
white
who
whole
why
wi
wide
wie
wien
wifi
wigan
wiki
wikimedia
wikipedia
wikiquote
wikis
wikisource
wikivoyage
wild
wildlife
wiley
wilhelm
will
william
williams
wilson
win
wind
window
windows
wings
winner
winners
wins
winter
wird
wireless
wisconsin
with
within
without
wizards
wl
wo
wolf
wolfgang
wolfsburg
wolves
woman
women
won
wonder
wonders
woo
wood
word
wordpress
words
work
working
works
world
worldcat
worldfootball
worldwide
worm
would
wpa
wrestling
wright
write
writing
written
wt
wu
www
x
xa
xai
xar
xbox
xe
xer
xhtml
xi
xia
xii
xiii
xir
xiv
xix
xls
xml
xo
xor
xp
xss
xu
xv
xvi
xvii
xviii
xx
xxi
xyloto
xʧi
y
ya
yahoo
yale
yang
ye
year
yearbook
years
yellow
yeon
yes
yg
yi
yiming
yin
yo
yong
yoo
yoon
york
you
young
your
yourself
youth
youtube
yu
yuan
z
za
zealand
zeit
zeitung
zero
zh
zha
zhang
zhi
zho
zi
zone
zoothera
zu
zum
zumeta
zur
zurchsun
{
|
}
~
£
¥
§
¨
©
«
¬
­
®
¯
°
±
²
³
´
µ
·
¹
º
»
¼
½
¾
¿
×
ß
æ
÷
ø
ı
ŋ
ŋg
ɑ
ɔ
ə
ɛ
ɵ
ʀ
ʃ
ʃa
ʃi
ʃu
ʌ
ʣ
ʣa
ʣe
ʣo
ʤ
ʤi
ʦ
ʦa
ʦe
ʦo
ʦu
ʧ
ʧi
ʧil
ʧin
ʰ
ʲ
ʹ
ʻ
ʼ
ʿ
ˈ
ˉ
ˌ
ː
˙
˚
˥
˦
˩
̀
́
̂
̃
̄
̅
̆
̇
̈
̉
̊
̋
̌
̑
̓
̔
̛
̣
̥
̦
̧
̨
̩
̮
̯
̸
͂
͡
α
β
γ
δ
ε
η
θ
ι
κ
λ
μ
ν
ξ
ο
π
ρ
ς
σ
τ
υ
φ
χ
ψ
ω
ϑ
ϕ
ϵ
а
аа
аав
аавдаа
аавтаи
аавыгаа
аавын
аавынд
аавынхаа
ааг
аагтаи
аад
аадар
аажим
аажимдаа
аажмаар
аажуу
ааз
аалз
аалзны
ааль
аальгүи
аан
аар
аараа
аараи
аарон
ааруул
аарц
аас
аасаи
аач
ааш
аашилж
аашлах
аашт
ааштаи
аба
абаи
абаха
абахаи
абдул
абдулла
абелии
абердин
аблаи
абрахам
абсолют
абтаи
абу
абхаз
абэ
ав
аваагүи
аваад
авааль
аваас
аваачиж
аваачин
аваачих
аваачсан
авав
авагдсан
авагч
авагчдад
авагчдын
авагчид
авагчии
аваи
авалгүи
авалт
авалтаар
авалтыг
авалтын
авалцах
аван
авар
аварга
аваргаа
аваргаар
аваргад
аваргалж
аваргалсан
аваргууд
аваргуудын
аваргыг
аваргын
аварсан
аварч
аватар
авах
авахаар
авахаас
авахад
авахгүи
авахдаа
авахуулаад
авахуулах
авахуулсан
авахыг
авахын
авбал
авга
авгаи
авгалдаи
август
августа
авд
авдаг
авдаггүи
авдар
авдрын
авж
авиа
авиаг
авианы
авив
авивын
авилга
авир
авирах
авирлах
авирмэд
авиртаи
авирч
авлаа
авлага
авлагын
авлах
авлига
авлигын
авмаар
авна
аврага
аврагдсан
аврагч
аврал
авралын
авран
аврах
авс
авсаар
авсаархан
авсан
авсанаар
авсангүи
авсанд
авсаны
авснаар
авснаас
авсны
авсныг
авсныхаа
австрали
австралид
австралии
австраличууд
австри
австрии
автагдах
автаж
автаи
автан
автах
авто
автобус
автобусны
автомат
автоматаар
автоматжуулалт
автоматжуулах
автоматжуулсан
автомашин
автомашинаар
автомашинд
автомашинууд
автомашины
автомашиныг
автономи
автономии
автономит
автономнои
автсан
авхаалж
авхаалжтаи
авхаи
авч
авчирдаг
авчирна
авчирсан
авчирч
авчирчээ
авчрав
авчран
авчрах
авчээ
авъя
авъяас
авъяаслаг
авъяастаи
авын
авьяас
авьяаслаг
авьяастаи
авьяасыг
аг
ага
агаад
агаар
агаараар
агаараас
агааргүи
агаарт
агаартаи
агаарыг
агаарын
агар
агваан
агваржин
агент
агентлаг
агентлагии
агентлагт
агентлагууд
агии
аглаг
агнадаг
агнаж
агнах
агнахад
агнуур
агнуурын
агсам
агсан
агсны
агт
агталсан
агуи
агуу
агуулаагүи
агуулагдаж
агуулагдана
агуулагдах
агуулагддаг
агуулагдсан
агууламж
агууламжии
агууламжтаи
агуулах
агуулахад
агуулахын
агуулга
агуулгаар
агуулгад
агуулгатаи
агуулгыг
агуулгын
агуулдаг
агуулдаггүи
агуулж
агуулна
агуулсан
агшилт
агшин
агшинд
агших
агь
ад
адаацаг
адаг
адагт
адаи
адал
адам
адамс
адаптер
адар
адгии
адгуус
адгуусны
аддин
адидас
адил
адилаар
адилавтар
адилгүи
адилтгаж
адилтган
адилтгах
адилхан
адис
админ
административно
администратор
администраторууд
администраторын
адмирал
адольф
адриан
адриатын
адсага
адтаи
адуу
адууг
адуугаа
адуун
адуунд
адууны
адуутаи
адуучин
адх
адъяа
аж
ажгуу
ажиг
ажиглагдаж
ажиглагдана
ажиглагдах
ажиглагддаг
ажиглагдсан
ажиглагч
ажиглагчид
ажиглагчии
ажиглаж
ажиглалт
ажиглалтын
ажиглан
ажигласан
ажиглах
ажиглахад
ажигч
ажил
ажилгүи
ажилд
ажилдаа
ажилдаг
ажиллаад
ажиллав
ажиллагаа
ажиллагааг
ажиллагаагаа
ажиллагаагаар
ажиллагаагүи
ажиллагаанаас
ажиллагаанд
ажиллагаандаа
ажиллагаанууд
ажиллагаануудыг
ажиллагааны
ажиллагааныхаа
ажиллагаатаи
ажиллагсад
ажиллагсадтаи
ажиллагсдын
ажиллагч
ажилладаг
ажиллаж
ажиллажээ
ажиллан
ажиллана
ажилласаар
ажилласан
ажилласнаар
ажилласны
ажиллах
ажиллахаа
ажиллахаар
ажиллахаас
ажиллахад
ажиллахгүи
ажиллахдаа
ажиллахыг
ажиллахын
ажиллуулах
ажиллуулахад
ажиллуулахын
ажиллуулдаг
ажиллуулж
ажиллуулна
ажиллуулсан
ажилсаг
ажилсан
ажилтаи
ажилтан
ажилтантаи
ажилтнаар
ажилтнууд
ажилтнуудад
ажилтнуудыг
ажилтнуудын
ажилтны
ажилтныг
ажилч
ажилчдыг
ажилчдын
ажилчид
ажилчидтаи
ажилчин
ажилчинтаи
ажилчны
ажин
ажлаа
ажлаар
ажлаараа
ажлаас
ажлаасаа
ажлууд
ажлуудыг
ажлыг
ажлын
ажлынхаа
ажнаи
ажээ
аз
азаар
азар
азарга
азарган
азарганы
азгүи
азе
азербаи
аззаяа
ази
азиас
азид
азии
азовын
азот
азотыг
азотын
азтаи
азын
аи
аида
аих
ак
академи
академиас
академид
академии
академик
академич
акбар
аким
акита
акитагии
аккра
акр
акт
актив
акустик
ал
ала
алаад
алабама
алаг
алага
алагдаж
алагдах
алагджээ
алагдсан
алаи
алан
аланин
алах
алб
алба
албаа
албагүи
албад
албадан
албадах
албадлагын
албан
албанаас
албанд
албани
албании
албаничууд
албаны
албаныхан
албат
албатаа
албатаи
албыг
алга
алгаа
алгадах
алган
алганы
алгебрии
алгоритм
алгоритмууд
алгоритмыг
алгоритмын
алгуи
алгуур
алгын
алд
алдаа
алдааг
алдаагаа
алдаагүи
алдаад
алдаанаас
алдаанд
алдаанууд
алдааны
алдаатаи
алдав
алдаг
алдагдаж
алдагдал
алдагдалтаи
алдагдах
алдагдлыг
алдагдсан
алдагдуулах
алдагдуулж
алдаж
алдалгүи
алдан
алдана
алдар
алдарт
алдартаи
алдартан
алдартнууд
алдартны
алдархаан
алдаршжээ
алдаршиж
алдарших
алдаршсан
алдаршуулсан
алдах
алдахад
алдахгүи
алдвал
алддаг
алддаггүи
алджээ
алдрах
алдрыг
алдрын
алдсан
алдсанаар
алдсанаас
алдсаны
алдуулах
алекс
алекса
александер
александр
александра
александрович
александровна
александрын
алексеи
алексис
алессандро
алехин
алж
алжаал
алжир
алжирын
алжуу
алжээ
али
алиа
алиалагч
алив
аливаа
аливааг
аливаад
алии
алим
алин
алинаар
алинд
алиныг
алиных
алла
аллага
аллагад
аллагын
аллан
аллах
аллен
алма
алмааз
алмаи
алмас
алмасын
алматы
ална
алонсо
алс
алсаас
алсад
алсан
алслагдсан
алсыг
алсын
алт
алтаар
алтаи
алтан
алтанбулаг
алтангадас
алтангэрэл
алтангэрэлии
алтансүх
алтанхуяг
алтанцэцэг
алтаншагаи
алтернатив
алтлаг
алтны
алттаи
алтыг
алун
алуулсан
алуурчин
алфа
алх
алхаа
алхаж
алхам
алхан
алхах
алхлах
алхмаар
алхмуудыг
алчуур
алчууртны
алшаа
аль
альберт
альберта
альберто
альбион
альбом
альпии
альтернатив
альфа
альфонсо
альфред
аляска
аляскын
ам
амаа
амаар
амаараа
амаас
амазон
амазоны
аман
аманд
амандаа
амар
амарбаясгалант
амаргүи
амаржаргал
амарлингуи
амарсаи
амарсанаа
амартүвшин
амархан
амарч
амарын
амбагаи
амбан
амбасэлмаа
амгаи
амгалан
амгаланбаатар
амгаланг
амгалангии
амд
америк
америка
америкаас
америкии
америкт
америкчууд
америкчуудын
америкын
амжаагүи
амжжээ
амжилгүи
амжилт
амжилтаа
амжилтаар
амжилтаараа
амжилтаас
амжилтад
амжилтанд
амжилтгүи
амжилттаи
амжилтууд
амжилтуудыг
амжилтыг
амжилтын
амжсан
амжуулах
ами
амиа
амии
амилсан
амин
аминд
аминдаа
аминдэм
амины
амлаж
амлалт
амлалтаа
амласан
амлах
аммиак
аммиакии
аммонии
амнаас
амны
ампер
амраах
амраг
амрагии
амралт
амралтын
амрах
амрыг
амсаж
амсар
амсарт
амсартаи
амсах
амсрыг
амссан
амстердам
амсхии
амт
амтагдах
амтаи
амталж
амталсан
амтат
амтгүи
амтлаг
амтлагч
амтлах
амттаи
амттан
амтыг
амударья
амур
амуу
амыг
амын
амынхаа
амь
амьгүи
амьд
амьдаар
амьдардаг
амьдардаггүи
амьдарна
амьдарсаар
амьдарсан
амьдарч
амьдарчээ
амьдрагч
амьдрал
амьдралаа
амьдралаар
амьдралаас
амьдралд
амьдралдаа
амьдралтаи
амьдралыг
амьдралын
амьдралынхаа
амьдран
амьдрах
амьдрахаар
амьдрахад
амьдрахыг
амьдрахын
амьдруулах
амьдын
амьжиргаа
амьжиргааны
амьсгаа
амьсгал
амьсгалаа
амьсгалах
амьсгалд
амьсгалтаи
амьсгалыг
амьсгалын
амьт
амьтад
амьтаи
амьтан
амьтангүи
амьтанд
амьтантаи
амьтаны
амьтдаас
амьтдад
амьтдыг
амьтдын
амьтнаар
амьтнаас
амьтны
амьтныг
ан
ана
анааш
анагаах
анагаахад
анагаахын
анализ
аналитик
аналог
ананд
анар
анастасия
анатоли
анатолии
анатоми
анатомии
анг
ангаа
ангаахаи
ангаи
ангал
ангалзуур
ангар
ангараг
ангархаи
анги
ангиа
ангиар
ангиас
ангид
ангидаа
ангижирч
ангижрах
ангижруулах
ангии
ангилагддаг
ангилал
ангилалд
ангилалыг
ангилалын
ангилан
ангилах
ангилдаг
ангилж
ангиллаар
ангиллын
ангилна
ангилсан
ангир
ангит
ангитаи
ангиуд
ангиудад
ангиудыг
ангиудын
англ
англи
англиар
англиас
англид
англии
англичууд
ангол
анголын
ангууч
анд
андахгүи
андгаи
андерлехт
андерс
андерсон
андорра
андре
андреа
андреас
андреевич
андреи
андрес
андрои
андуу
андуурах
андуурч
андын
анжелес
анжелесии
анжелест
анжелесын
анжелина
анжис
анжисны
анзаарч
анивчих
анимаци
анимэ
анир
аниргүи
аних
анкара
анн
анна
анри
ант
антарктид
антарктидын
антверпен
антенн
анти
антибиотик
антибиотикии
антигуа
антология
антон
антони
антонио
антонов
антропологи
антропологии
антуан
ану
анх
анхаар
анхаарал
анхааралд
анхааралтаи
анхааран
анхаарах
анхаардаг
анхаарлаа
анхаарлыг
анхаарлын
анхаарна
анхаарсан
анхааруулах
анхааруулга
анхааруулсан
анхаарч
анхан
анхандаа
анхбаяр
анхдагч
анхдагчдын
анхдугаар
анхилам
анхилуун
анхлан
анхнаасаа
анхны
анхных
анхныхаа
анчдын
анчид
анчин
ань
аньс
аньсага
аньхуи
анэу
ап
апертура
аполло
апп
аппарат
аппаратыг
аппаратын
аппликеи
аппликэи
апреля
ар
ара
араа
арааны
араар
араараа
араас
араасаа
араат
араатаи
араатан
араатны
араб
арабаар
арабууд
арабын
арав
аравдугаар
аравны
аравт
аравтын
араг
араи
арал
аралд
аралтаи
арандалынхан
араншин
арбитрын
арбулаг
арваад
арваалж
арваас
арваи
арван
арваннэгдүгээр
арванхое
арвас
арвидвал
арвижуулах
арвин
арвич
арвын
арга
аргаа
аргаар
аргаас
аргагүи
аргад
аргадан
аргадах
аргазүи
аргал
аргалант
аргалах
аргалж
аргалын
аргаль
аргамж
аргамжих
аргатаи
аргачлал
аргачлалыг
аргентин
аргентинии
аргентины
аргил
аргон
аргун
аргууд
аргуудыг
аргуудын
аргыг
аргын
ард
ардаа
ардаас
ардаг
ардад
ардууд
ардчилал
ардчилалын
ардчиллыг
ардчиллын
ардчилсан
ардыг
ардын
арена
арз
арзаи
арзгар
ари
ариг
аригбөх
аригбөхии
аризона
арилах
арилахгүи
арилгагч
арилгаж
арилган
арилгах
арилгахад
арилдаг
арилж
арилжаа
арилжааны
арилжих
арилна
аристотелии
аристотель
ариун
ариунаа
ариунбилэг
ариутгах
арифметик
арифметикии
арк
аркан
арканзас
арктикии
арлаас
арлууд
арлуудаас
арлуудад
арлуудыг
арлуудын
арлыг
арлын
армаг
армен
армени
армении
арми
армиа
армиас
армид
армии
армитаи
армиуд
армиудын
армстронг
армян
арнольд
арсен
арсенал
арсеналын
арслан
арсланг
арслангии
арт
артаи
артанъян
артерии
артерын
артиллерии
артур
аругтаи
архаг
архангаи
археологи
археологии
археологич
археологичид
архи
архив
архивлагдсан
архивт
архивын
архии
архинд
архины
архирах
архитектор
архитекторууд
архитекторч
архитектур
архитектурыг
архитектурын
архичин
арц
арчаагүи
арчиж
арчилгаа
арчих
арчлан
арчлах
арын
арьс
арьсаар
арьсан
арьсанд
арьсны
арьст
арьстаи
арьстан
арьстнууд
арьсыг
ас
асааж
асаалттаи
асаах
асаж
асан
асар
асарч
асах
асга
асгаж
асгарах
асгат
асгатын
асгах
асеан
асем
аскар
аскона
аспирантурт
асрагч
асрамжии
асран
асрах
асрын
ассамблеи
ассемблеи
ассемблер
астана
астон
астра
астрал
астрахании
астрахань
асуд
асуув
асуудал
асуудалд
асуудалтаи
асуудлаа
асуудлаар
асуудлаарх
асуудлаас
асуудлууд
асуудлуудыг
асуудлуудын
асуудлыг
асуудлын
асууж
асуулга
асуулгаар
асуулгад
асуулгын
асуулт
асуултад
асуултанд
асуултууд
асуултыг
асуултын
асуусан
асуух
асуухад
асч
ат
ата
атаа
атаархал
атаархах
атал
атаман
атар
атга
атгаж
атган
атгах
атии
атираа
атирааны
атирах
атлаа
атланта
атлантын
атлас
атлетик
атлетикии
атлетико
атлетикч
атом
атомаас
атомууд
атомуудын
атомыг
атомын
атрын
атташе
аттила
атугаи
ау
аугаа
аугсбург
аугуст
ауди
аудио
аудит
аудитии
аудитын
афган
афганистан
афганистанд
афганистаны
афганы
афин
афинд
афины
африк
африкаас
африкии
африкт
африкын
ах
ахад
ахадвал
ахаи
ахан
ахар
ахас
ахиад
ахиж
ахимаг
ахин
ахисан
ахиулах
ахиулж
ахиулсан
ахиуц
ахих
ахиц
ахлагч
ахлагчаар
ахлагчии
ахлагчтаи
ахлан
ахлах
ахлуулсан
ахмад
ахмадын
ахмед
ахтаи
ахуи
ахх
ахыг
ахыгаа
ахын
ахынхаа
ац
ацаг
ацетил
ацс
ач
ачаа
ачааг
ачаалал
ачаалалтаи
ачаалах
ачааллыг
ачааллын
ачааны
ачаар
ачаатаи
ачиж
ачии
ачир
ачит
ачих
ачлага
ачсан
ачтаи
ачтан
ашгаа
ашгии
ашиг
ашиггүи
ашиглаагүи
ашиглаад
ашиглав
ашиглавал
ашиглагдаж
ашиглагдана
ашиглагдах
ашиглагддаг
ашиглагдсан
ашигладаг
ашигладаггүи
ашиглаж
ашиглажээ
ашиглалт
ашиглалтад
ашиглалтанд
ашиглалтыг
ашиглалтын
ашиглан
ашиглана
ашигласаар
ашигласан
ашигласнаар
ашигласны
ашиглах
ашиглахаар
ашиглахаас
ашиглахад
ашиглахгүи
ашиглахыг
ашиглахын
ашигт
ашигтаи
ашид
ашина
ашихаи
ашт
аюул
аюулаас
аюулгүи
аюулд
аюулт
аюултаи
аюулыг
аюулын
аюурбарбад
аюурзана
аюуш
аюушии
аюушридар
ая
аяа
аяар
аяараа
аяархан
аяг
аяга
аяган
аяганд
аяганы
аягатаи
аягүи
аядуу
аяз
аякс
аялагч
аялагчдын
аялагчид
аялал
аялалаа
аялалд
аялалын
аялан
аялах
аялга
аялгаар
аялгад
аялгуу
аялгууг
аялгуугаар
аялгуулан
аялгуунд
аялгууны
аялгуутаи
аялдан
аялж
аялжээ
аяллын
аяллынхаа
аялсан
аян
аянга
аянд
аяндаа
аянчин
аяны
аяс
аясаар
аястаи
аясыг
аятаи
аяыг
аө
б
ба
баа
баабар
баавар
баавгаи
бааз
баазад
баазыг
баазын
бааран
баарин
баас
баасан
баасандорж
баасанжав
баасансүрэн
баасанхүү
бааст
баастаи
баатар
баатарлаг
баатарлагаар
баатарсүх
баатарсүхии
баатарт
баатархүү
баатарцол
баатарын
баатрууд
баатруудын
баатрыг
баатрын
баах
баахан
баацагаан
бааш
бавари
баварии
бавуужав
бавуужавын
баг
бага
багаа
багаар
багаараа
багаас
багаасаа
багабанди
багавтар
багагүи
багад
багадаа
багадалт
багадах
багаж
багажаар
багажии
багалзуур
багамын
багана
баганад
багануур
баганы
баганыг
баганын
багас
багасаж
багасах
багасгадаг
багасгаж
багасгасан
багасгах
багасгахад
багасгахын
багасдаг
багасна
багассан
багасч
багатаи
багахан
багачууд
багачуудын
багваахаи
багдад
багдадыг
багдадын
багии
баглаа
баглах
багт
багтаа
багтаагүи
багтаадаг
багтааж
багтаажээ
багтаамж
багтаамжии
багтаамжтаи
багтаан
багтаана
багтаасан
багтаах
багтаж
багтаи
багтамгүи
багтан
багтана
багтах
багтахгүи
багтдаг
багтжээ
багтсан
багууд
багуудаас
багуудад
багуудтаи
багуудыг
багуудын
багц
багцаа
багцаагаар
багцаалсан
багцлан
багцыг
багцын
багш
багшаа
багшаар
багшаас
багшид
багшии
багшилж
багшилсан
багшлах
багштаи
багыг
багын
бад
бадаг
бадаи
бадам
бадамдорж
бадамхатан
бадар
бадаргуулт
бадарч
бадарчин
бадахшан
баден
бадмаанямбуугии
бадраа
бадрал
бадрангуи
бадрах
бадрахын
бадриун
бадруулах
бажо
баз
базар
базаррагчаа
базарын
базах
базель
баи
бак
бакалавр
бакалаврын
бакиев
баклэнд
бакс
бактер
бактери
бактерии
бактериологии
бактериуд
баку
бал
балаг
балаи
балар
балартах
балархаи
балба
балбын
балгас
балгасанд
балгасны
балгасыг
балгасын
балдан
балдангии
балдандорж
балет
балетчин
балетын
балжинням
балжиннямын
бали
балин
балканы
балкар
баллах
баллистик
балмад
балсан
балсангии
балт
балтии
балтимор
балтын
балхаш
балчиг
балчир
балыг
бам
бамбаи
бамбар
бан
бангкок
бангладеш
бангладешии
банди
бандид
бандида
бандии
банз
банзан
банзрагч
банк
банкии
банкинд
банкнаас
банкны
банктаи
банкууд
банкуудын
бантан
банхар
банчин
банш
бао
бар
бараа
барааг
бараагаа
бараагаар
бараагүи
бараадан
бараалхаж
бараан
барааны
бараар
бараатаи
барав
бараг
барагдах
барагдуулах
барагтаи
барагцаагаар
барагцаалбал
бараи
барак
барам
барах
барахад
барахгүи
барбадос
барбара
барбуда
барвал
барга
баргии
баргууд
баргын
бардаг
бардам
бардамнах
барж
баржээ
барзгар
бари
бариа
бариад
барианд
барив
баривал
баривчилгаа
баривчилж
баривчилжээ
баривчилсан
баривчлав
баривчлагдаж
баривчлагдан
баривчлагдсан
баривчлан
баривчлах
баригдаж
баригдан
баригдах
баригддаг
баригджээ
баригдсан
баригч
баригчдад
баригчдыг
баригчдын
баригчид
барии
барил
барилаар
барилга
барилгад
барилгач
барилгачин
барилгууд
барилгуудыг
барилгуудын
барилгыг
барилгын
барилд
барилдаад
барилдаан
барилдаанд
барилдааны
барилдааныг
барилдаж
барилдан
барилдах
барилдахад
барилддаг
барилдлаа
барилдлага
барилдсан
барилдсанаас
барилыг
барилын
баримал
барималч
баримжаа
баримжааг
баримжаатаи
баримлыг
баримлын
баримт
баримтаар
баримтаас
баримтад
баримталдаг
баримталж
баримталсан
баримтанд
баримтат
баримтлагч
баримтлал
баримтлалтаи
баримтлалыг
баримтлалын
баримтлан
баримтлах
баримттаи
баримтууд
баримтуудыг
баримтыг
баримтын
барин
барина
бариу
бариул
бариулах
бариулж
бариулсан
бариултаи
барих
барихаар
барихад
барихдаа
барихыг
барихын
барлаг
барна
барокко
барон
баррель
барри
барс
барсан
барсаны
барсболд
барселон
барселона
барселоны
барснаар
барснаас
барсны
барсын
бартаа
бартаат
бартон
баруун
баруунаас
баруунбүрэн
баруунд
баруунтуруун
баруунш
барууны
бархасбадь
бархирах
барцад
баршгүи
барын
барь
барьдаг
барьж
барьжээ
барьсаар
барьсан
барьц
барьцаа
барьцаалах
барьцаалсан
барьцаанд
барьцааны
бас
басамжлан
басамжлах
басах
баск
басс
басхүү
бат
батаа
баталгаа
баталгааг
баталгаажсан
баталгаажуулалт
баталгаажуулалтын
баталгаажуулах
баталгаажуулдаг
баталгаажуулж
баталгаажуулсан
баталгааны
баталгаат
баталгаатаи
баталдаг
баталж
баталжээ
баталсан
баталснаар
батальон
батареи
бататгаж
бататган
бататгах
батбаатар
батбаяр
батбаярын
батболд
батболдын
батгана
батгэрэл
батдорж
батереи
батжаргал
батжаргалын
батзаяа
батзориг
батлав
батлагдаагүи
батлагдав
батлагдаж
батлагджээ
батлагдсан
батлагдсанаар
батламж
батлан
батласан
батлах
батлахад
батлер
батлуулсан
батмөнх
батмөнхии
батнасан
батням
батсаи
батсуурь
батсүмбэр
батсүрэн
батсүх
батсүхии
баттаи
баттулга
баттөмөр
батула
батхуяг
батцэнгэл
батцэцэг
батчулуун
батын
бафта
бах
бахаи
бахархаж
бахархал
бахархан
бахархах
бахдам
бахим
бахреи
бахын
бахь
бач
бачим
бачимдан
бачимдах
бачуу
башир
башкир
баяд
баядын
баяжиж
баяжих
баяжмал
баяжсан
баяжуулан
баяжуулах
баяжуулж
баяжуулсан
баялаг
баялагии
баялагтаи
баялгии
баян
баянбулаг
баянбүрд
баянгол
баяндалаи
баяндун
баяндэлгэр
баянжаргалан
баянзүрх
баянлиг
баянмонгол
баянмөнх
баяннуур
баянтэс
баянтүмэн
баянхаи
баянхонгор
баянхутаг
баянцагаан
баянцагааны
баянцогт
баянчор
баяны
баяр
баяраа
баяраар
баярлаж
баярлалаа
баярлан
баярласан
баярлах
баярмагнаи
баярсаи
баярт
баяртаи
баярхүү
баярыг
баярын
баясал
баясан
баясах
баясгалан
баясгалант
баясгалантаи
баясгах
баячууд
бе
беверли
беи
бек
бекхэм
бела
беларусии
беларусь
белград
белиз
белл
беллии
бельги
бельгии
бен
бенгал
бенгалын
бенедикт
бенжамин
бензин
бенин
бенинии
бенито
беннингтон
бенфика
бенц
бенции
берг
берингии
берия
беркли
берклигии
берлин
берлинд
берлинии
бернард
бернли
бета
бетон
бетховен
би
биатлонч
библи
библии
биг
бигэр
бид
биднии
биднээс
бидэнд
бидэнтэи
бидэр
бидэртэи
бие
биегүи
биед
биедээ
биезүи
биеии
биелгээ
биелж
биеллээ
биелэгдэх
биелэлт
биелэлтии
биелэх
биелүүлдэг
биелүүлж
биелүүлсэн
биелүүлэх
биелүүлэхии
биелүүлэхэд
биелүүлэхээр
биелүүлээгүи
биенд
биендээ
биении
биенээ
биенээс
биенээсээ
биес
биесии
биет
биетии
биетнии
биетэи
биетэн
биетүүд
биетүүдии
биечлэн
биеэ
биеэр
биеэрээ
биеэс
биеэсээ
биз
бизе
бизнес
бизнесии
бизнесмен
бизнесмэн
бизнест
бизнесээ
бизээ
бии
бил
билгии
билгэ
билгүүн
билиг
билигт
билл
биллбоард
биллбордын
билли
бильбао
билэг
билэгдэл
билэгт
билээ
билүү
билүүдэх
бин
биндэр
биндэръяа
бинт
био
биологи
биологии
биологич
биомасс
биотехнологи
биотехнологии
биохими
биохимии
биохимич
бирваа
бирж
биржид
биржии
бирм
бирмии
бирмингем
бит
битгии
битии
биткои
битлз
битүү
битүүд
битүүлэг
битүүлэх
битүүнии
битүүрэх
бич
бичвэл
бичвэр
бичвэрии
бичвэрүүд
бичгии
бичгээ
бичгээр
бичгээс
бичгүүд
бичгүүдии
бичгүүдэд
бичдэг
бичжээ
бичив
бичиг
бичигддэг
бичигджээ
бичигдсэн
бичигдэж
бичигдэн
бичигдэнэ
бичигдэх
бичигдээгүи
бичиглэл
бичигт
бичигтэи
бичигч
бичиж
бичил
бичилт
бичин
бичих
бичихгүи
бичихдээ
бичихзүи
бичихии
бичихэд
бичлэг
бичлэгии
бичлэгт
бичлэгээ
бичлэгүүд
бичлэгүүдии
бичмэл
бичмэлии
бичнэ
бичсэн
бичсэнии
бичсэнээр
бичсэнээс
бичээд
бичээс
бичээсии
бичээст
бичээстэи
бичээч
бичүүлж
бичүүлжээ
бичүүлсэн
биш
бишгүүр
бишии
биширдэг
биширч
бишкек
бишрэгч
бишрэл
бишрэлии
бишрэлт
бишрэн
бишрэх
бласть
блог
блок
блокии
блокчэи
блэи
блэк
блэкберн
блэкпүүл
блю
блюз
бн
бнагу
бналау
бнасау
бнбау
бнказу
бнмау
бнпу
бнсу
бну
бнхау
бнху
бнчу
бнэу
бо
боб
бобби
бобкэтс
бог
богд
богдан
богдод
богдоос
богдхан
богдыг
богдын
богино
богинодох
богиносгох
богинохон
богтос
богц
бод
бодвол
бодгаль
боддог
боди
бодис
бодисоор
бодисоос
бодист
бодистои
бодисууд
бодисуудыг
бодисуудын
бодисыг
бодисын
бодит
бодитои
бодитоор
бодлого
бодлогогүи
бодлогод
бодлогоо
бодлогоор
бодлогоос
бодлоготои
бодлогууд
бодлогуудыг
бодлогыг
бодлогын
бодлоо
бодлоор
бодлоос
бодлыг
бодлын
бодно
бодогдох
бодогч
бодож
бодол
бодолгүи
бодолд
бодолтои
бодолтын
бодон
бодончар
бодоо
бодоогии
бодоод
бодос
бодосыг
бодосын
бодот
бодох
бодохгүи
бодоход
бодсон
бодтои
бодь
бои
боинг
бока
бокс
боксчин
боксын
бол
болбол
болбоос
болвол
болвоос
болгар
болгараар
болгарын
болго
болгов
болгогч
болгодог
болгое
болгож
болгожээ
болголоо
болгон
болгонд
болгоно
болгоны
болгоныг
болгоод
болгоомж
болгоомжгүи
болгоомжилж
болгоомжлон
болгоомжлох
болгоомжтои
болгосноор
болгосны
болгосон
болгох
болгохгүи
болгоход
болгохоор
болгохыг
болгохын
болд
болдбаатар
болдог
болдоггүи
болдын
более
болж
болжмор
болжээ
болзлыг
болзож
болзол
болзоо
болзошгүи
болив
боливи
боливии
болино
болиод
болиулах
болих
боллоо
болмогц
болмои
болмоор
болмуи
болно
болов
боловсон
боловсорсон
боловсорч
боловсрол
боловсролд
боловсролоо
боловсролтои
боловсролыг
боловсролын
боловсронгуи
боловсрох
боловсруулаагүи
боловсруулагдсан
боловсруулагч
боловсруулалт
боловсруулалтыг
боловсруулалтын
боловсруулан
боловсруулах
боловсруулахад
боловсруулдаг
боловсруулж
боловсруулжээ
боловсруулна
боловсруулсан
боловч
бологч
болои
бололтои
бололцоо
бололцоог
бололцоогүи
бололцоотои
бололцох
боломгүи
боломж
боломжгүи
боломжии
боломжит
боломжоо
боломжоор
боломжтои
боломжууд
боломжуудыг
боломжыг
болон
болонья
болоогүи
болоод
болоосои
болор
болох
болохгүи
болохдоо
болоход
болохоо
болохоор
болохоороо
болохоос
болохоосоо
болохуи
болохыг
болохын
болсноо
болсноор
болсноороо
болсноос
болсны
болсныг
болсныхоо
болсон
болсонгүи
болсонд
болсоноо
болсоноор
болсоноос
болсонтои
болсоны
болсоныг
болсоор
болт
болтлоо
болтол
болтон
болтугаи
болхи
болхоор
болцгоосон
болчихсон
болшгүи
болъе
болын
болье
больж
больжээ
больсон
больцманы
большевик
большевикууд
большевикуудын
большои
бом
бон
бонапарт
бонд
бондгор
бондын
бонн
бонхгор
боо
боов
боовны
боогдох
боодог
боодол
боож
боол
боолт
боолтыг
боолуудын
боолчлол
боолчлолыг
боолын
боом
боомт
боомтод
боомтоос
боомттои
боомтыг
боомтын
боорцог
боорчи
боос
боосон
боох
боохои
бооцоо
бор
борви
боргио
боргоцои
бордо
бордоо
бордох
бордуу
бордуур
боржигин
боржигон
боржин
борис
борлогджээ
борлогдож
борлогдсон
борлуулагдаж
борлуулагдсан
борлуулагч
борлуулалт
борлуулалтаараа
борлуулалттаи
борлуулалтыг
борлуулалтын
борлуулах
борлуулдаг
борлуулж
борлуулсан
боровтор
борог
боролдои
бороо
бороонд
борооны
бороотои
бороохои
борохул
бортого
боруссиа
борц
боршувуу
борын
бос
босвол
босго
босгож
босгожээ
босголт
босголтын
босгон
босгосон
босгох
босгыг
бослого
бослогод
бослогыг
бослогын
босни
боснии
босогч
босогчдыг
босогчдын
босогчид
босож
босон
босоо
босоод
босох
боссон
бостон
бостоны
босч
ботго
ботии
ботсвана
боть
бохаи
бохеми
бохемии
бохир
бохирдлыг
бохирдол
бохирдсон
бохь
бош
бошго
бошгот
бошигт
браво
бразил
бразилд
бразилии
бразилын
браи
бранденбург
браузер
браун
брауны
брахман
брежнев
бреи
бремен
бренд
брендии
брест
бригад
бригадууд
бригадыг
бригадын
бриджстоун
британи
британиас
британид
британии
британичууд
британы
бритиш
бродвеи
бродвэи
броз
брокер
бромвич
бруклин
брукнер
брукнерии
брунеи
бруно
брэд
брэдбури
брэнд
брэндии
брюс
брюссель
брүүклин
бсшуя
бтр
бу
буг
буга
бугалга
буган
бугат
бугуи
бугыг
бугын
буд
будаа
будааг
будаанд
будааны
будаг
будагтаи
будаж
будан
будапешт
бударгана
будах
будгаар
будгии
будда
буддагии
буддизм
буддизмын
буддын
будет
будлиан
будлиантаи
будлих
будсан
будут
будшир
бужигнах
бужирга
бужиргынхан
бузар
бузгаи
буи
бул
булааж
булаалдан
булаалдах
булаалдсан
булаан
булаах
булаг
булаи
булан
буланг
булангаар
булангии
буланд
булантаи
булах
булга
булган
булганы
булгии
булж
булигаар
булингартаи
булл
буллз
буллс
булсан
бултаи
бултах
булуу
булхаи
булцгар
булцуу
булчин
булчинг
булчингии
булчингууд
булчинлаг
булчирхаи
булш
булшии
булшнаас
булшны
бум
буман
бумба
бумбагар
бумбутаи
бумцэнд
бундеслиг
бундеслигии
бундеслигт
бунтар
бунхан
бунханд
бур
бурам
бурангуи
бурантаг
бург
бургас
бургасан
бургасны
бургуи
буржгар
буриад
буриадаар
буриадад
буриадууд
буриадуудын
буриадын
буркина
бурмаа
буртаг
бурунди
буруу
бурууг
буруугаа
буруугаар
буруугүи
буруудах
буруулан
буруулах
буруутаи
буруутан
буруутгаж
буруутган
буруутгасан
буруутгах
буруушааж
буруушаан
буруушаах
бурхад
бурхадын
бурхан
бурханд
бурхант
бурханы
бурханыг
бурхдын
бурхны
бурхныг
бус
бусаар
бусаг
бусад
бусадтаи
бусдаар
бусдаас
бусдаасаа
бусдад
бусдыг
бусдыгаа
бусдын
бусниулах
бусыг
бусын
бут
бутаар
буталж
бутан
бутанд
бутаргах
бутарсан
бутархаи
бутарч
бутлаг
бутлан
бутлах
бутны
бутрал
бутралын
бутран
бутрах
буту
буу
бууг
буугаа
буугаад
буугаар
буугдаж
буугдсан
буудаг
буудагч
буудаж
буудаи
буудал
буудалд
буудалтаи
буудан
буудах
буудахад
буудлаас
буудлага
буудлагын
буудлыг
буудлын
буудсан
буудуулан
буудуулж
буудуулсан
бууж
буужээ
бууз
буулгаад
буулгав
буулгадаг
буулгаж
буулгажээ
буулган
буулгасан
буулгах
буулгахад
буулт
буун
бууна
бууны
буур
буураи
буурал
бууралт
бууран
буурах
буурахад
буурдаг
буурин
буурна
буурсан
бууруулах
бууруулахад
бууруулдаг
бууруулж
бууруулна
бууруулсан
буурцаг
буурцагт
буурцагтан
буурцагтны
буурцгии
буурч
буурчээ
буурын
буурь
буусан
буутаи
буух
буухад
буухиа
бууц
бууч
буучаар
буучии
буфер
буффон
бух
буха
бухал
бухар
бухарест
бухарын
бухимдал
бухимдах
бухын
буцаад
буцааж
буцаажээ
буцаан
буцаана
буцаасан
буцаах
буцав
буцаж
буцалгаж
буцалгах
буцалж
буцалсан
буцалтгүи
буцан
буцах
буцахгүи
буцахдаа
буцдаг
буцжээ
буцлах
буцсан
буш
бушии
бушуу
буэнос
буюу
буян
буяндэлгэр
буяннэмэх
буяннэмэхии
буянт
буянтаи
буяны
буяныг
бхя
бье
бэ
бэг
бэгзии
бэи
бэк
бэкхе
бэл
бэлгии
бэлгэ
бэлгэддэг
бэлгэдлии
бэлгэдсэн
бэлгэдэж
бэлгэдэл
бэлгэдэн
бэлгүтэи
бэлд
бэлддэг
бэлдмэл
бэлдмэлии
бэлдсэн
бэлдэж
бэлдэх
бэлдэц
бэлии
бэлтгэгдсэн
бэлтгэгдэж
бэлтгэгчдэд
бэлтгэдэг
бэлтгэж
бэлтгэжээ
бэлтгэл
бэлтгэлд
бэлтгэлии
бэлтгэлтэи
бэлтгэлээ
бэлтгэн
бэлтгэнэ
бэлтгэсэн
бэлтгэх
бэлтгэхэд
бэлтрэг
бэлчир
бэлчирт
бэлчих
бэлчээр
бэлчээрии
бэлчээрт
бэлчээх
бэлэвсэн
бэлэг
бэлэгдэл
бэлэглэж
бэлэглэсэн
бэлэглэх
бэлэн
бэлээр
бэн
бэр
бэргэн
бэрии
бэрри
бэрримэн
бэрс
бэртжээ
бэртлии
бэртэж
бэртэл
бэртэлтэи
бэртэх
бэрх
бэрхии
бэрхтэи
бэрхшээл
бэрхшээлии
бэрхшээлтэи
бэрхшээх
бэсрэг
бэсүд
бэтэг
бэх
бэхжиж
бэхжих
бэхжүүлж
бэхжүүлсэн
бэхжүүлэх
бэхжүүлэхии
бэхжүүлэхэд
бэхи
бэхии
бэхлэгдсэн
бэхлэлт
бэхлэлтии
бэхлэн
бэхлэх
бэхэлгээ
бэхэлж
бэхэлсэн
бэхэн
бээжин
бээжинг
бээжингии
бээжингээс
бээжинд
бээлии
бээр
бээрии
бээс
бялдар
бялдрын
бялдууч
бялдуучлан
бялдуучлах
бялзуухаи
бялуу
бялхах
бямба
бямбаа
бямбадорж
бямбажав
бямбасүрэн
бямбасүрэнгии
бямбацогт
бямбын
бяо
бяр
бярман
бяруу
бясалгал
бясалгалын
бяслаг
бяц
бяцхан
бү
бүгд
бүгдии
бүгдэд
бүгдээр
бүгдээрээ
бүгдээс
бүгчим
бүдэг
бүдэрсэн
бүдүүвтэр
бүдүүвч
бүдүүлэг
бүдүүн
бүдүүрч
бүжгии
бүжгэн
бүжиг
бүжиглэж
бүжиглэх
бүжигт
бүжигчин
бүи
бүл
бүлгии
бүлгэм
бүлгэмд
бүлгэмии
бүлгээ
бүлгээр
бүлгээс
бүлгүүд
бүлгүүдии
бүлгүүдэд
бүлд
бүлии
бүлтгэр
бүлтии
бүлтэи
бүлх
бүлэг
бүлэглэл
бүлэглэлд
бүлэглэлии
бүлэглэлүүд
бүлэглэн
бүлэглэх
бүлэгнэлтии
бүлэгт
бүлэгтэи
бүлэх
бүлээ
бүлээн
бүлээрээ
бүлээс
бүлүүр
бүлүүрт
бүр
бүргэд
бүргэдии
бүрд
бүрддэг
бүрджээ
бүрдии
бүрдлии
бүрдсэн
бүрдэж
бүрдэл
бүрдэнэ
бүрдэх
бүрдээ
бүрдүүлдэг
бүрдүүлж
бүрдүүлжээ
бүрдүүлнэ
бүрдүүлсэн
бүрдүүлэгч
бүрдүүлэн
бүрдүүлэх
бүрдүүлэхэд
бүрж
бүри
бүрии
бүрмөсөн
бүрнээ
бүрсэн
бүрт
бүртгэгджээ
бүртгэгдсэн
бүртгэгдэж
бүртгэгч
бүртгэдэг
бүртгэж
бүртгэл
бүртгэлд
бүртгэлии
бүртгэлтэи
бүртгэн
бүртгэсэн
бүртгэх
бүртгүүлж
бүртгүүлсэн
бүртгүүлэх
бүртээ
бүрх
бүрхсэн
бүрхэвч
бүрхэвчии
бүрхэг
бүрхэгдсэн
бүрхэж
бүрхэн
бүрхэх
бүрхүүл
бүрхүүлии
бүрхүүлтэи
бүрчлэн
бүрэг
бүрэгхангаи
бүрэлгэх
бүрэлддэг
бүрэлдсэн
бүрэлдхүүн
бүрэлдхүүнд
бүрэлдэж
бүрэлдэн
бүрэлдэнэ
бүрэлдэх
бүрэлдэхүүн
бүрэлдэхүүнд
бүрэлдэхүүндээ
бүрэлдэхүүнии
бүрэлдэхүүнтэи
бүрэлдэхүүнээрээ
бүрэлдэхүүнээс
бүрэлдүүлж
бүрэн
бүрэнтогтох
бүрэнхии
бүрэх
бүрээ
бүрээр
бүрээс
бүрээстэи
бүс
бүсгүи
бүсии
бүслэв
бүслэгдсэн
бүслэлт
бүслэлтии
бүслэлтээс
бүслэн
бүслэх
бүслүүр
бүслүүрии
бүснии
бүст
бүстэи
бүсэд
бүсэлж
бүсэлсэн
бүсэлхии
бүсэндээ
бүсээ
бүсээр
бүсээс
бүтдэг
бүтнэ
бүтнээр
бүтнээрээ
бүтсэн
бүтции
бүтцэд
бүтцээр
бүтцээс
бүтэж
бүтэл
бүтэлгүи
бүтэмж
бүтэмжгүи
бүтэмжтэи
бүтэн
бүтэх
бүтэхгүи
бүтэц
бүтэции
бүтэцтэи
бүтэшгүи
бүтээв
бүтээврии
бүтээвэр
бүтээгдсэн
бүтээгдхүүн
бүтээгдхүүнии
бүтээгдэж
бүтээгдэхүүн
бүтээгдэхүүнд
бүтээгдэхүүнии
бүтээгдэхүүнээ
бүтээгдэхүүнээр
бүтээгдэхүүнээс
бүтээгдэхүүнүүд
бүтээгдэхүүнүүдии
бүтээгч
бүтээгчдии
бүтээгчид
бүтээгчии
бүтээгүи
бүтээдэг
бүтээж
бүтээжээ
бүтээл
бүтээлд
бүтээлдээ
бүтээлии
бүтээлтэи
бүтээлч
бүтээлчдии
бүтээлчид
бүтээлчидтэи
бүтээлчии
бүтээлчээр
бүтээлээ
бүтээлээр
бүтээлээрээ
бүтээлээс
бүтээлүүд
бүтээлүүдии
бүтээлүүдэд
бүтээлүүдээ
бүтээлүүдээр
бүтээлүүдээрээ
бүтээлүүдээс
бүтээмж
бүтээмжии
бүтээмжтэи
бүтээн
бүтээнэ
бүтээснии
бүтээснээр
бүтээсэн
бүтээх
бүтээхдээ
бүтээхии
бүтээхэд
бүтээхээр
бүх
бүхии
бүхлээр
бүхлээрээ
бүхнии
бүхнээ
бүхнээс
бүхэл
бүхэлд
бүхэлдээ
бүхэн
бүхэнд
бүхээг
бүхүи
бүч
бүү
бүүвэи
бүүдгэр
бүүр
бүүрэг
бө
бөг
бөгж
бөгжнии
бөглүү
бөглөрөх
бөглөх
бөглөө
бөгс
бөгсии
бөгсөн
бөгсөнд
бөгтии
бөгтөр
бөгөөд
бөгөөс
бөднө
бөлгөө
бөм
бөмбөг
бөмбөгдсөн
бөмбөгдөв
бөмбөгдөгч
бөмбөгдөж
бөмбөгдөлт
бөмбөгдөх
бөмбөгии
бөмбөгнии
бөмбөгтэи
бөмбөгч
бөмбөгчин
бөмбөгөр
бөмбөгөө
бөмбөгөөр
бөмбөлгии
бөмбөлөг
бөмбөр
бөмбөрии
бөмбөрцгии
бөмбөрцөг
бөмбөрцөгии
бөмбөрцөгт
бөмбөрчин
бөндгөр
бөртэ
бөс
бөсөөр
бөх
бөхии
бөхлөх
бөхмөрөн
бөхтэи
бөхчүүд
бөхчүүдии
бөхчүүдэд
бөхөд
бөхөн
бөхөө
бөхөөр
бөхөөс
бөө
бөөгии
бөөгнөрсөн
бөөгнөрч
бөөгнөрөл
бөөгнөрөн
бөөгнөрөх
бөөлжих
бөөм
бөөмии
бөөмс
бөөмсии
бөөн
бөөнии
бөөнөөр
бөөнөөрөө
бөөр
бөөрии
бөөрнии
бөөрөнд
бөөрөнхии
бөөрөнцөг
бөөс
в
ва
ваа
ваар
вааран
ваас
вавилон
вавилони
вавилоны
вагон
ваи
вакуум
вакцин
вакцины
вакциныг
вал
валдаан
валдан
валдах
валенса
валенси
валенсиа
валентин
валентина
валентын
валерии
валзан
валзах
вальс
вальтер
валют
валютын
ван
ванг
вангаар
вангаас
ванган
вангии
вангууд
вангуудын
ванд
вандан
вандуи
вании
ванкувер
ванкуверын
ванлиг
ванлигии
вансэмбэрүү
вант
вантаи
вануату
ванчин
ваны
вань
ваньд
вар
вардуу
варшав
варшавт
варшавын
василии
васильевич
вассал
ватикан
ватиканы
ватт
вах
вацлав
вашингтон
вашингтонд
вашингтоны
вгар
веб
вебер
вебсаи
ведии
веи
вектор
векторын
вектра
вен
вена
венад
венгер
венесуэл
венесуэлии
венец
венеции
вении
вер
вера
верде
вердер
верди
вернер
верона
версалии
вест
вестник
вестфален
ви
вида
видео
виз
византии
византын
вии
вики
викимедиа
википедиа
википедиагии
виктор
викториа
викториагии
виктория
вилгельм
вилл
вилла
виллагии
вилли
виллиам
вилсон
вилхелм
вильгельм
вильсон
вилья
вильям
вильярреал
виндоус
винсент
винтов
винчи
виржини
виржиниа
виржинии
виртуал
виртуаль
вирус
вирусии
вирусууд
вирусыг
вирусын
висконсин
висла
виталии
витамин
витамины
владивосток
владимир
владимирович
владимирцов
владислав
внаар
внешнеи
вны
вныг
во
вои
вокал
вол
волга
волгоград
волеи
вологда
вольт
вольтер
вольф
вольфганг
вольфсбург
вон
вонь
воос
вор
воронеж
восток
вояжер
вроцлав
все
всероссии
всех
вт
втар
втардуу
втор
втэр
втэрдүү
втөр
ву
вулверхэмптон
вуу
вуулах
вч
вчии
вчилсан
вчлал
вчлалтаи
вчлан
вшрах
вшруулах
выг
вын
вьентьян
вьет
вьетнам
вьетнамаар
вьетнамд
вьетнамыг
вьетнамын
вэ
вэб
вэбсаи
вэи
вэл
вэн
вэнь
вэр
вээн
вээс
вү
вүүдроу
вөл
вөөс
г
га
гаа
гааг
гаагаа
гаагаар
гаагаараа
гаагаас
гаагии
гаагүи
гаад
гаадамба
гаалии
гааль
гаан
гаанс
гаансны
гаар
гаараа
гаараи
гаас
гаасаа
гаатаи
гаах
гаач
гаачии
габон
габриэль
гав
гаваа
гавал
гавар
гавж
гавлын
гавшгаи
гавъяа
гавъяаг
гавъяаны
гавъяат
гавьяа
гавьяаг
гавьяаны
гавьяат
гавьяатаи
гагарин
гагнах
гагнуур
гагц
гагцхүү
гагүи
гад
гадаа
гадаад
гадаадаас
гадаадад
гадаадын
гадагш
гадагшаа
гадар
гадарга
гадаргаас
гадаргад
гадаргатаи
гадаргуу
гадаргууг
гадаргуугии
гадаргууд
гадаргуун
гадаргуутаи
гадаргыг
гадаргын
гадарлах
гадас
гадил
гадна
гаднаа
гаднаас
гаднах
гадны
гаднын
гадуур
гадуураа
гадуурх
гадуурхах
гаж
гажиг
гажилт
гажих
гажуу
гажууд
гажуудал
газ
газан
газар
газаргүи
газардав
газардах
газардсан
газарзүи
газарт
газартаа
газартаи
газета
газпром
газраа
газраар
газраас
газраасаа
газрууд
газруудаар
газруудаас
газруудад
газруудтаи
газруудыг
газруудын
газрыг
газрын
газрынхаа
газын
гаи
гал
галаа
галаар
галаас
галав
галавын
галактик
галактикии
галатасараи
галбадрах
галбир
галд
галдан
галданг
галдангии
галданцэрэн
галереи
галзуу
галзуурах
гали
галиас
галиг
галиглах
галии
галилеи
галилео
галсан
галсанбат
галт
галтаи
галуу
галуун
галууны
галуут
галч
галшар
галыг
галын
галь
гальд
гальтаи
гам
гамала
гамби
гамбир
гамгүи
гамин
гамлет
гамма
гамнах
гамтаи
гамшгаас
гамшгии
гамшиг
гамшигт
ган
гана
ганбаатар
ганбат
ганболд
ганболдын
ганг
ганга
ганган
гангар
гангии
гангууд
гангын
ганд
гандаж
гандан
гандантэгчэнлин
гандах
ганди
гандии
гандуу
ганжуур
ганзага
ганзагын
ганзориг
ганнибал
гансүх
гантаи
гантиг
гантогтох
гантулга
гантөмөр
ганхан
ганхах
ганхуяг
ганхүү
ганц
ганцаар
ганцаараа
ганцаарчилсан
ганцоож
ганцхан
ганчимэг
ганы
ганын
гань
ганьсу
ганьсү
гао
гар
гараа
гарааг
гараагаа
гараагүи
гараад
гараалж
гараалжээ
гараалсан
гараанд
гарааны
гараар
гараараа
гараас
гараатаи
гарав
гараг
гарагии
гарагт
гарал
гаралт
гаралтаи
гаралтыг
гаралтын
гарам
гарамгаи
гаран
гарах
гарахаар
гарахаас
гарахад
гарахгүи
гарахдаа
гарахыг
гарахын
гарвал
гарга
гаргаагүи
гаргаад
гаргав
гаргавал
гаргагч
гаргадаг
гаргадаггүи
гаргаж
гаргажээ
гаргалаа
гаргалгаа
гаргалгүи
гарган
гаргана
гаргасан
гаргаснаар
гаргаснаас
гаргасны
гаргасныг
гаргах
гаргахаар
гаргахаас
гаргахад
гаргахгүи
гаргахдаа
гаргахыг
гаргахын
гаргии
гаргууд
гаргуулах
гаргуулж
гаргуун
гардаг
гардаггүи
гардаж
гардан
гардсан
гардуулах
гардуулж
гардуулжээ
гардуулсан
гарет
гарж
гаржин
гарз
гари
гариг
гаригии
гаригт
гарлаа
гарлыг
гарлын
гармаа
гарна
гарнизоны
гарри
гарсаар
гарсан
гарсанаас
гарсангүи
гарсаны
гарсиа
гарснаар
гарснаас
гарсны
гарсныг
гарт
гартаа
гартаи
гартал
гаруи
гархи
гарц
гарцаагүи
гарцгүи
гарцтаи
гарцыг
гарцын
гарч
гарчиг
гарчигтаи
гарчээ
гаршсан
гарыг
гарын
гарынхаа
гарьд
гас
гаслан
гата
гаталж
гатлагч
гатлан
гатлах
гах
гахаи
гацаа
гацах
гацуур
гачиг
гачигдал
гачигдах
гашуу
гашуудал
гашуудах
гашуудлын
гашуун
гвардии
гватемал
гвиана
гвинеи
гг
гд
гданьск
гддэг
гджээ
гдсэн
гдэж
гдэнэ
гдэх
гдээгүи
ге
геи
гели
гелии
ген
генерал
генералууд
генералын
генератор
генетик
генетикии
гении
геннадии
геном
генри
генрих
генуя
генүүд
генүүдии
гео
геодези
геодезии
геол
геологи
геологии
геологич
геометр
геометрии
геополитик
геополитикии
георг
георгии
гепатит
гер
гербицид
герд
герм
герман
германаар
германаас
германд
германии
германтаи
германчууд
германчуудын
германы
германыг
ги
гиваан
гидравлик
гидравликии
гидроксид
гии
гил
гилгэр
гималаи
гимназид
гимназии
гимнастик
гимнастикии
гимнастикч
гин
гинж
гинжии
гинжин
гинжит
гинжнии
гиннесии
гиоро
гипер
гипотензи
гир
гирин
гитар
гитараар
гитарчин
гитарын
гитлер
гитлерии
гич
гичгэнэ
гиш
гишгэж
гишгэн
гишгэх
гишгүүр
гишүү
гишүүд
гишүүдии
гишүүдтэи
гишүүдэд
гишүүдээс
гишүүн
гишүүнд
гишүүнии
гишүүнт
гишүүнтии
гишүүнтэи
гишүүнчлэл
гишүүнээр
гишүүнээс
главные
глазго
глен
гленн
глицин
глобал
глутамат
глэг
глюкоз
гмии
гмээс
го
говии
говиос
говь
говьд
говьсүмбэр
гог
гогии
гогцоо
год
года
годгор
годил
годон
гое
гозгор
гозои
гои
гол
голд
голден
голдоо
голдуу
голж
голио
голланд
голландын
голлодог
голлож
голлон
голлосон
голлох
голль
гологдсон
голомт
голомтоо
голомтыг
голоо
голоор
голоос
голох
голсон
голт
голтои
голууд
голуудын
голцуу
голч
голчлон
голчтои
голыг
голын
гольф
гомбо
гомбодорж
гомбодоржии
гомбожав
гомбожавын
гомбосүрэн
гомбын
гомдлыг
гомдол
гомдох
гоминдан
гоминданы
гоминьданы
гон
гонгор
гонгорын
гонзгои
гонсои
гончиг
гончигдорж
гончигии
гончигсумлаа
гончигтавхаи
гоньд
гоо
гоожих
гоол
гоолджээ
гоолдов
гоолдож
гоолдон
гоолдсон
гоолоо
гоолоор
гоолыг
гоолын
гоомои
гоор
гоороо
гоос
гор
горбаче
горбачев
гордон
горилох
горим
горимд
горимоор
горимтои
горимыг
горимын
горлос
гормон
горно
город
города
городов
городских
горхи
горхины
горь
горьдлого
горькии
государственнои
готов
готовын
гох
гоц
гоцлол
гоцлолоо
гоцлолыг
гоцлолын
гоцлон
гоцолж
гр
гравитации
градус
градуст
градусын
грам
грамм
гран
гранд
грант
граф
график
графикии
графын
гре
грег
грегори
греи
грек
грекии
грект
грекчүүд
грекын
грекээр
греммии
гренада
гренланд
гренландын
григории
гриззлис
грии
грин
грозныи
групп
группии
группын
грэи
грэмми
грэммии
гт
гтун
гтэи
гтүн
гу
гуа
гуаи
гуан
гуандун
гуанжоу
гуанз
гувалгия
гувчуур
гуд
гудаи
гудамж
гудамжаар
гудамжии
гудамжинд
гудамжны
гудас
гуи
гул
гулаг
гулгагч
гулгаж
гулгалт
гулгалтын
гулгах
гулд
гулдмаи
гулсах
гумиле
гумм
гумус
гун
гуна
гунгаа
гунж
гуниг
гунигт
гунигтаи
гуо
гур
гурав
гуравдагч
гуравдахь
гуравдугаар
гуравдугаарт
гуравны
гуравт
гуравхан
гурамсан
гурваар
гурваас
гурвал
гурвалжин
гурвалжны
гурвалсан
гурван
гурванбулаг
гурванзагал
гурвансаи
гурвантаа
гурвантэс
гурвыг
гурвын
гургалдаи
гургуул
гурил
гурилаар
гурилан
гурилд
гурилтаи
гурилыг
гурилын
гурион
гурууд
гурын
густав
густаф
гутаан
гутаах
гутал
гуталд
гутах
гутгаар
гутенберг
гутлаа
гутлыг
гутлын
гутрал
гутрах
гуу
гууд
гуул
гуулаад
гуулав
гуулага
гуулагдаагүи
гуулагдаад
гуулагдав
гуулагдаж
гуулагдан
гуулагдах
гуулагдахад
гуулагддаг
гуулагджээ
гуулагдлаа
гуулагдсан
гуулагдсанаар
гуулагдсанаас
гуулагдсанаасаа
гуулагдсаны
гуулагч
гуулагчдын
гуулагчид
гуулал
гуулалт
гуулалтаар
гуулалтад
гуулалтанд
гуулалттаи
гуулалтыг
гуулалтын
гуулалцаж
гуулалцсан
гууламж
гууламжаас
гууламжид
гууламжии
гууламжтаи
гууламжууд
гууламжуудыг
гуулан
гуулах
гуулахаар
гуулахаас
гуулахад
гуулахдаа
гуулахыг
гуулахын
гуулдаг
гуулж
гуулжээ
гуулиар
гуулин
гууллаа
гууллага
гууллагаар
гууллагаас
гууллагад
гууллагатаи
гууллагууд
гууллагуудаас
гууллагуудад
гууллагуудтаи
гууллагуудыг
гууллагуудын
гууллагыг
гууллагын
гууллын
гуулна
гуулсан
гуулсаны
гуулснаар
гуулснаас
гуулсны
гуулсныг
гуулын
гууль
гуур
гуураа
гуурс
гуурст
гуч
гучаад
гучин
гуя
гуяа
гуядах
гуяны
гуяыг
гхэ
гхя
гч
гчид
гын
гэ
гэв
гэвч
гэвэл
гэг
гэгддэг
гэгдсэн
гэгдэж
гэгдэн
гэгдэнэ
гэгдэх
гэгч
гэгчии
гэгчээр
гэгээ
гэгээн
гэгээнии
гэгээнтнүүдии
гэгээнтэн
гэгээрлии
гэгээрэл
гэгээрүүлэгч
гэгээрүүлэх
гэгээтэи
гэдгии
гэдгэр
гэдгээ
гэдгээр
гэдгээрээ
гэдгээс
гэдии
гэдрэг
гэдсэнд
гэдсээ
гэдэг
гэдэггүи
гэдэгт
гэдэгтэи
гэдэн
гэдэс
гэдэснии
гэдэстэи
гэж
гэжээ
гэзэг
гэзэгнии
гэзэгт
гэи
гэл
гэлтгүи
гэлтэи
гэлцдэг
гэлэг
гэлэгжамцын
гэлэн
гэлээ
гэм
гэмгүи
гэмд
гэмии
гэмлэг
гэмлэгии
гэмлэгт
гэмлэгээс
гэмлэгүүдии
гэмт
гэмтжээ
гэмтлии
гэмтлээс
гэмтсэн
гэмтэж
гэмтэи
гэмтэл
гэмтэлтэи
гэмтэн
гэмтэх
гэмтээдэг
гэмтээж
гэмтээх
гэмшил
гэмших
гэмээ
гэмээр
гэн
гэндэн
гэндэнг
гэндэнгии
гэнэ
гэнэдэх
гэнэдүүлэн
гэнэн
гэнэт
гэнэтии
гэр
гэргии
гэргүи
гэри
гэрии
гэрлии
гэрлэв
гэрлэж
гэрлэжээ
гэрлэлт
гэрлэлтии
гэрлэлтээ
гэрлэн
гэрлэсэн
гэрлэх
гэрлэхии
гэрлээд
гэрлээр
гэрлээс
гэрлүүлэх
гэрсэнз
гэрт
гэртэи
гэртээ
гэрч
гэрчии
гэрчилгээ
гэрчилгээг
гэрчилнэ
гэрчлэх
гэршүүлсэн
гэрэгэ
гэрэл
гэрэлбадрах
гэрэлд
гэрэлсэн
гэрэлт
гэрэлтэи
гэрэлтэлт
гэрэлтэх
гэрэлтүүлгии
гэрэлтүүлэг
гэрээ
гэрээг
гэрээгээ
гэрээгээр
гэрээлж
гэрээлжээ
гэрээлсэн
гэрээлэв
гэрээнд
гэрээнии
гэрээнээс
гэрээр
гэрээс
гэрээсээ
гэрээт
гэрээтэи
гэсгээл
гэснии
гэснээс
гэсэн
гэсэнтэи
гэсэр
гэсэрии
гэсээр
гэтэл
гэх
гэхдээ
гэхии
гэхлээр
гэхчилэн
гэхчлэн
гэхэд
гэхээр
гэхээс
гэхээсээ
гээ
гээгдсэн
гээгдэх
гээгүи
гээд
гээж
гээр
гээрээ
гээс
гээсэн
гээсээ
гээх
гээч
гялаи
гялалзаж
гялалзах
гялалзсан
гялбаа
гялгар
гяндан
гянданд
гянт
гярхаи
гяя
гү
гүвдрүү
гүвээ
гүдгэр
гүдгэрии
гүдии
гүдэн
гүехэн
гүжир
гүзээ
гүзээлзгэнэ
гүи
гүм
гүн
гүнгии
гүнд
гүндэгмаа
гүнж
гүнжид
гүнжии
гүнжтэи
гүнзгии
гүнии
гүнт
гүнтэи
гүнээ
гүнээс
гүр
гүрвэл
гүрвэлии
гүре
гүрж
гүржид
гүржии
гүрии
гүрнии
гүрнээс
гүрнүүд
гүрнүүдии
гүррагчаа
гүрсэд
гүрэм
гүрэн
гүрэнд
гүрэнтэи
гүрүн
гүш
гүюг
гүү
гүүгл
гүүлэгч
гүүлэгчии
гүүлэгчээр
гүүлэх
гүүн
гүүнии
гүүр
гүүрии
гүүрнии
гүүш
гө
гөвөх
гөл
гөлгөр
гөлии
гөлтгөнии
гөлтгөнө
гөлтгөнөн
гөлөг
гөлөм
гөн
гөр
гөрөх
гөрөө
гөрөөс
гөрөөсии
гөрөөснии
гөрөөчин
гөө
гөөр
гөөс
д
да
даа
даавар
дааврын
даавуу
даавуугаар
даавуун
даавууны
даага
дааган
даадаг
дааж
даажин
даалгавар
даалгаварыг
даалгавраа
даалгавраар
даалгаврыг
даалгасан
даалгах
даалгүи
даалин
даалуу
даам
даамал
даамын
даан
даана
даанч
даар
даарах
даарч
даас
даасан
даатгал
даатгалын
даатгах
даах
даахгүи
даахь
даац
даацтаи
даацын
даашинз
дабл
даблаа
дав
даваа
давааг
даваагаар
даваагии
даваад
даваадорж
даваадоржии
даваажав
даваажаргал
даваан
даваанаас
даваанд
давааны
давааням
даваасамбуу
даваасүрэн
давалгаа
давамгаи
даван
давах
давахад
давахгүи
давж
давжаа
давжээ
давид
давирхаи
давлагаа
давлиун
даврах
давс
давсаар
давсаг
давсан
давсанд
давсархаг
давсны
давст
давстаи
давсыг
давтагдах
давтагдашгүи
давтаж
давталт
давтамж
давтамжии
давтамжтаи
давтан
давтах
давтсан
давуу
давуулан
давуулж
давуутаи
давхар
давхарга
давхаргаас
давхаргад
давхаргыг
давхаргын
давхардсан
давхарлаж
давхарлан
давхарласан
давхарт
давхацсан
давхиж
давхих
давхраа
давхрага
давхцаж
давхцан
давхцах
давч
давчдах
давчуу
давшиж
давшилт
давшилтаа
давшилтад
давшилтанд
давшилтыг
давшилтын
давшин
давших
давын
даг
дагаад
дагаар
дагавал
дагавар
дагавартаи
дагаврыг
дагаврын
дагагч
дагадаг
дагаж
дагалдагч
дагалдаж
дагалдан
дагалдах
дагалдуулан
дагалт
даган
дагана
дагасан
дагах
дагва
дагвадорж
дагвадоржии
дагвын
даггүи
дагестан
дагжих
дагз
дагзны
дагии
дагина
дагнан
дагнасан
дагт
дагтаи
дагуу
дагууд
дагуул
дагуулагч
дагуулал
дагуулан
дагуулах
дагуулдаг
дагуулж
дагууллын
дагуулсан
дагуулууд
дагуулыг
дагуулын
дагуур
дагуурын
дагуух
дагч
дагшин
дад
дадал
дадамгаи
дадах
дадлага
дадлагажигч
дадлагын
дадсан
даж
дажин
даи
дакота
дал
далавч
далавчаа
далавчит
далавчны
далавчтаи
далавчтан
далавчтаны
далаи
далан
даланг
далангии
далангүи
даланзадгад
далантаи
далбаа
далбааг
далбаан
далбаанууд
далбааны
далбагар
далбигар
далд
далдаа
далдлах
далдуур
далдын
дали
далии
далим
далимд
далимдуулан
даллас
даллах
далны
далтаи
далыг
даль
дам
даманскии
даманы
дамар
дамаск
дамба
дамбадорж
дамбии
дамбын
дамдин
дамдинбазар
дамдиндорж
дамдинсүрэн
дамдинсүрэнгии
дамдины
дамжаа
дамжаанд
дамждаг
дамжиггүи
дамжиж
дамжин
дамжина
дамжих
дамжлага
дамжсан
дамжуулагч
дамжуулагчии
дамжуулал
дамжуулалт
дамжуулалтаар
дамжуулалтыг
дамжуулалтын
дамжуулан
дамжуулах
дамжуулахад
дамжуулахдаа
дамжуулдаг
дамжуулж
дамжуулжээ
дамжууллын
дамжуулна
дамжуулсан
дамнан
дамнасан
дамнуур
дампуурсан
дамчаа
дамын
дан
дана
дангаар
дангаараа
данган
дангии
дандаа
дандар
данжуур
данзан
данзангии
данзанравжаа
данзанравжаагии
дани
даниел
дании
даниэл
даниэль
данкан
данс
дансанд
дансны
данстаи
данте
данх
данхны
даншиг
даншигт
дао
дар
дара
дараа
дараагаар
дараагаас
дараагии
дараагын
дараад
дараалал
дараалалд
дараалалтаи
дараалан
дараалж
дарааллаар
дарааллан
дарааллыг
дарааллын
дараалсан
дараас
дараатаи
дараах
дараахан
дараахи
дараахь
дараачии
дарагдаж
дарагдан
дарагдах
дарагдсан
дарагч
дараи
даралт
даралтаар
даралтад
даралтанд
даралтат
даралттаи
даралтыг
даралтын
дарам
дарамт
дарамтлах
даран
дарангуи
дарах
дарахаар
дарахад
дарви
дарвии
дарвин
дарвуулт
дарга
даргаар
даргаас
даргад
даргатаи
даргач
даргыг
даргын
дардаг
дардан
дардас
дарж
даржаа
даржээ
дари
дарии
дарлаж
дарлал
дарлалаас
дарлан
дарлах
дармштадт
дарна
дарс
дарсан
дарсанд
дарсны
дарсыг
дартсын
даруи
даруу
даруул
даруулах
даруулга
даруулж
даруухан
дарх
дархад
дархадын
дархалсан
дархан
дарханбат
дарханы
дархлаа
дархлааны
дархлал
дархлалын
дархны
дарцаг
дарын
дарь
дарьганга
дарьгангын
дарьсүрэн
дарья
дас
дасал
дасалтаи
дасан
дасах
дасгал
дасгалжуулагч
дасгалжуулагчаар
дасгалжуулагчии
дасгалжуулж
дассан
дастин
дата
датун
дауны
дах
дахиа
дахиад
дахиж
дахилт
дахин
дахинаа
дахинд
дахины
дахиныг
дахих
дахь
дацан
дацанг
дацангии
дацанд
даш
дашбалбар
дашдаваа
дашдондог
дашдооров
дашдорж
дашдоржии
дашдэндэв
дашжамц
дашзэвэг
дашзэвэгии
дашии
дашинчилэн
дашням
дашрамд
дашт
дашцэрэн
дашчои
даяанч
даяар
даяараа
даяарх
даяарчлалын
даян
двар
дваргүи
двартаи
двэр
двэрии
двэрлэдэг
двэрлэж
двэрлэжээ
двэрлэнэ
двэрлэсэн
двэрлэх
двэрлэхии
двэрлэхэд
двэрт
двэртэи
двэрээ
двэрээр
двэрүүдии
дгаа
дгаараа
дгаас
дгии
ддэг
де
дебют
дебютээ
девид
деи
декан
дел
деление
дели
дель
демократ
демокрит
ден
денвер
денис
деннис
департамент
депортиво
депутат
депутатаар
депутатуудын
дер
дерби
дерон
десант
десантын
детрои
дж
джээ
ди
диаграм
диалектик
диаметр
диаметртэи
диана
диас
диваажин
диваажингии
дивиз
дивизии
дивизион
дивизионд
дивизионоо
дивизионы
дивизэд
дидье
диего
дижитал
дизаи
дизель
дии
дик
дилов
дин
динамик
динамикаар
динамикии
динамо
динар
династи
динии
дины
диод
диплом
дипломат
дипломатч
дипломатын
дипломын
дирк
диск
дискии
дискнии
дискрет
дискэн
дискэнд
диснеи
диспетчер
диу
дифференциал
длаа
длаар
длаараа
длаас
длаасаа
длага
длии
длыг
длын
длээ
длээр
для
длүүд
длүүдии
дмитриевич
дмитрии
дн
дна
днб
днепр
днестр
днх
днэ
до
добун
дов
довтлов
довтлогч
довтлогчии
довтлогчоор
довтлон
довтлох
довтлоход
довтлохоор
довтолгоо
довтолгоог
довтолгоон
довтолгоонд
довтолгооноос
довтолгооны
довтолгооныг
довтолж
довтолжээ
довтолсон
довын
дог
догдлох
догии
догмид
догол
доголдол
доголон
доголох
догсом
догсомын
догшин
догь
дод
дое
дож
дои
док
доктор
докторын
документ
дол
долгин
долгио
долгион
долгионоор
долгионы
долгионыг
долгор
долгорсүрэн
долгорсүрэнгии
долгорын
долдои
долдугаар
должин
долигонох
доллар
доллараар
доллароор
долларт
доллартаи
долларыг
долларын
долоо
долоовор
долоогии
долоодугаар
долоон
долоох
долчин
дом
домаи
домбо
домгии
домгоор
домгоос
доминик
доминика
доминикан
домог
домогт
домогтои
домын
домэи
дон
дональд
донго
донгодох
дондог
дондогии
донецк
донои
донор
донтох
донхол
донын
доо
доог
доогуур
доод
доор
доорд
доороо
доороос
доорх
доорхи
доос
доош
доошгүи
дооших
доошлох
доошоо
дор
дора
дорвитои
доргио
доргих
дорго
доргон
доргоны
дорд
дордои
дорж
дорждагва
доржии
доржнамжил
доржпалам
доржпаламын
доржсүрэн
доржсүрэнгии
дорно
дорноговь
дорнод
дорнодод
дорнодын
дорнын
дорои
доромж
доромжилж
доромжилсон
доромжлон
доромжлох
дороо
дороос
дороти
дортмунд
дортмундын
дорх
дос
достоевскии
дотно
дотносох
дотночлон
дотны
дотнын
дотогш
дотогшоо
дотоод
дотооддоо
дотоодод
дотоодыг
дотоодын
дотор
дотортои
доторх
доторхи
дотроо
дотроос
дотроосоо
дотрын
дотуур
доу
дох
дохио
дохиог
дохиогоор
дохиоллын
дохиолол
дохионы
дохих
доцент
дош
др
драи
драм
драма
драмын
драфт
драфтаар
драфтад
драфтын
дрих
дс
дсан
дсэн
дтаи
дтои
дтэи
ду
дуаи
дубаи
дублин
дув
дува
дуг
дугаар
дугаараа
дугаарт
дугаартаи
дугаарыг
дугаарын
дуган
дугана
дуганд
дугантаи
дуганы
дуганыг
дугар
дугараа
дугаржав
дугариг
дугарын
дугии
дуглас
дугтуи
дугуи
дуд
дудаев
дуи
дулаалах
дулаан
дулаанд
дулааны
дулааныг
дулаарал
дулаарах
дулаахан
дулам
дуламжавын
дулдуи
дулимаг
дулмаа
дум
думын
дун
дунаи
дунгуи
дунд
дундаа
дундаас
дундад
дундаж
дундажаар
дундах
дундговь
дунджаар
дунджаас
дунджилан
дунджилж
дунджилсан
дундуур
дундуураа
дундыг
дундын
дунхаи
дунху
дур
дураар
дураараа
дуран
дургүи
дурдагддаг
дурдагдсан
дурдаж
дурдан
дурдатгал
дурдах
дурдахад
дурдвал
дурджээ
дурдсан
дурдсанаар
дурладаг
дурлаж
дурлал
дурлалт
дурлалын
дурлан
дурлана
дурласан
дурлах
дурс
дурсаж
дурсамж
дурсамжаас
дурсамжии
дурсан
дурсах
дурсахдаа
дурсгал
дурсгалд
дурсгалт
дурсгалууд
дурсгалуудыг
дурсгалыг
дурсгалын
дурссан
дуртаи
дурын
дурынхан
дурьдагдсан
дурьдаж
дурьдвал
дурьдсан
дусал
дуслаар
дуслууд
дуслын
дутаах
дутагдаж
дутагдал
дутагдалд
дутагдалтаи
дутагдах
дутагдлаас
дутагдлыг
дутагдлын
дутаж
дутах
дутахгүи
дутмаг
дутуу
дутуугүи
дуу
дууг
дуугаа
дуугаар
дуугаараа
дуугарах
дуугарахгүи
дуугарвал
дуугаргах
дуугардаг
дуугарч
дуугүи
дууд
дуудагдаж
дуудагдан
дуудагдах
дуудагддаг
дуудагдсан
дуудаж
дуудан
дуудах
дуудахад
дууддаг
дуудлага
дуудлагаар
дуудлагыг
дуудлагын
дуудна
дуудсан
дуул
дуулаад
дуулаачдын
дуулаачии
дуулал
дуулалт
дуулан
дуулах
дуулахад
дуулга
дуулгавартаи
дуулганы
дуулгах
дуулдаг
дуулдах
дуулж
дуулжээ
дуулиан
дуулиантаи
дууллыг
дууллын
дуулна
дуулсан
дуулъя
дууль
дуун
дуунаас
дуунд
дуунууд
дуунуудаа
дуунуудаас
дуунуудыг
дуунуудын
дууны
дууныхаа
дуураи
дууриал
дууриан
дууриах
дуурии
дуурь
дуусаагүи
дуусаад
дуусав
дуусаж
дуусах
дуусахаар
дуусахаас
дуусахад
дуусгаад
дуусгав
дуусгавар
дуусгаж
дуусгажээ
дуусган
дуусгасан
дуусгах
дуусдаг
дуусмагц
дуусна
дууссан
дууссанаас
дууссаны
дуустал
дуусч
дуусчээ
дуут
дуутаи
дуухан
дууч
дуучдын
дуучид
дуучин
дуучнаар
дуучны
дух
духны
дуэи
дхг
дчих
дыг
дын
дэ
дэбют
дэбютээ
дэбүт
дэв
дэвжээ
дэвжээнд
дэвжээнии
дэвид
дэвии
дэвис
дэвисии
дэвс
дэвсгэр
дэвсгэрии
дэвсгэрт
дэвсгэртии
дэвсгэртэи
дэвсгэрээ
дэвсгэрээр
дэвсгэрээс
дэвсэг
дэвсэх
дэвтрии
дэвтэр
дэвтэрт
дэвшжээ
дэвшигч
дэвшигчии
дэвшиж
дэвшил
дэвшилд
дэвшилт
дэвшилтэд
дэвшилтэт
дэвшин
дэвших
дэвшлии
дэвшсэн
дэвшүүлж
дэвшүүлжээ
дэвшүүлсэн
дэвшүүлэн
дэвшүүлэх
дэвэх
дэвээ
дэвүүр
дэг
дэггүи
дэгд
дэгджээ
дэгдсэн
дэгдэв
дэгдэж
дэгдэн
дэгдэх
дэгдээв
дэгдээгүи
дэгдээж
дэгдээсэн
дэгдээх
дэгдээхэи
дэгжин
дэгжих
дэгии
дэглии
дэглэм
дэглэмд
дэглэмии
дэглэмтэи
дэглээч
дэгээ
дэд
дэж
дэи
дэл
дэлбэ
дэлбэг
дэлбэгэр
дэлбэлж
дэлбэлэх
дэлбэрч
дэлбэрэлт
дэлбэрэлтии
дэлбэрэх
дэлбээ
дэлгэж
дэлгэмэл
дэлгэн
дэлгэр
дэлгэрдэг
дэлгэрии
дэлгэрнэ
дэлгэрсаи
дэлгэрсэн
дэлгэрхаан
дэлгэрхангаи
дэлгэрцогт
дэлгэрч
дэлгэрчээ
дэлгэрэн
дэлгэрэнгүи
дэлгэрэх
дэлгэрүүлж
дэлгэрүүлсэн
дэлгэрүүлэгч
дэлгэрүүлэн
дэлгэрүүлэх
дэлгэсэн
дэлгэх
дэлгэхэд
дэлгэц
дэлгэции
дэлгэцнээ
дэлгэцтэи
дэлгэцэн
дэлгэцэнд
дэлгэцээр
дэлгүүр
дэлгүүрии
дэлгүүрт
дэлгүүрээс
дэлгүүрүүд
дэлд
дэлдэн
дэлдэх
дэлии
дэлсэх
дэлт
дэлтэи
дэлхии
дэлэм
дэлэн
дэлэнт
дэлүү
дэлүүн
дэм
дэмб
дэмбэрэл
дэмбэрэлии
дэмгии
дэмждэг
дэмждэггүи
дэмжигдсэн
дэмжигч
дэмжигчдии
дэмжигчид
дэмжиж
дэмжин
дэмжинэ
дэмжих
дэмжихгүи
дэмжихии
дэмжихэд
дэмжлэг
дэмжлэгии
дэмжлэгтэи
дэмжлэгээр
дэмжсэн
дэмжээгүи
дэмид
дэмии
дэмээр
дэн
дэнгии
дэндэв
дэндэвии
дэндэх
дэндүү
дэнж
дэнжид
дэнжии
дэнзэн
дэнлүү
дэнни
дэнс
дэр
дэрвии
дэрвэгэр
дэрвэх
дэргэд
дэргэдэх
дэргэдээ
дэрлэх
дэрс
дэрснии
дэрсэн
дэрэн
дэс
дэсии
дэслэгч
дэх
дэхии
дэхь
дэхэд
дээ
дээврии
дээвэр
дээвэртэи
дээгүүр
дээгүүрт
дээгүүрх
дээгүүрээ
дээд
дээдии
дээдлэн
дээдлэх
дээдсии
дээдсээс
дээдэлж
дээдэлсэн
дээдэс
дээж
дээжии
дээл
дээлии
дээлтэи
дээлэнд
дээлээ
дээр
дээрмии
дээрх
дээрхи
дээрхии
дээрхээс
дээрэлхэлт
дээрэлхэх
дээрэлхүү
дээрэм
дээрэмдсэн
дээрэмдэж
дээрэмдэн
дээрэмдэх
дээрэмчдии
дээрэмчид
дээрэмчидтэи
дээрэмчин
дээрэнгүи
дээрээ
дээрээс
дээрээсээ
дээс
дээснии
дээсэн
дээсээр
дээш
дээшилж
дээших
дээшлэх
дээшлүүлж
дээшлүүлсэн
дээшлүүлэх
дээшлүүлэхэд
дээшээ
дюрант
дюссельдорф
дяя
дү
дүвчин
дүгнэдэг
дүгнэж
дүгнэжээ
дүгнэлт
дүгнэлтии
дүгнэлтэд
дүгнэлтэнд
дүгнэсэн
дүгнэх
дүгрэг
дүгэр
дүгэрии
дүгэрсүрэн
дүгээр
дүи
дүлии
дүн
дүнг
дүнгии
дүнгээ
дүнгээр
дүнгээс
дүнгүи
дүнд
дүндээ
дүнтэи
дүр
дүрвэгсдии
дүрвэж
дүрвэн
дүрвэсэн
дүрд
дүрж
дүрии
дүрмии
дүрмээр
дүрмүүдии
дүрс
дүрсгүи
дүрсии
дүрслэгдсэн
дүрслэл
дүрслэлии
дүрслэн
дүрслэх
дүрснии
дүрст
дүрстэи
дүрсэлдэг
дүрсэлж
дүрсэлжээ
дүрсэлсэн
дүрсэн
дүрсээ
дүрсээр
дүрсүүд
дүртэи
дүрэм
дүрэмд
дүрэмт
дүрэмтэи
дүрэх
дүрээ
дүрээр
дүрээрээ
дүрүүд
дүрүүдии
дүрүүдэд
дүрүүдээрээ
дүү
дүүг
дүүгии
дүүгээ
дүүгүүр
дүүд
дүүдии
дүүжилж
дүүжин
дүүжлэн
дүүжлэх
дүүлэх
дүүргии
дүүргэж
дүүргэжээ
дүүргэсэн
дүүргэх
дүүргээд
дүүргээр
дүүргээс
дүүргүүд
дүүргүүдии
дүүрсэн
дүүрч
дүүрэг
дүүрэгт
дүүрэгтэи
дүүрэгч
дүүрэн
дүүрэх
дүүс
дүүсии
дүүтэи
дүүхэн
дө
дөвии
дөг
дөл
дөлгөөн
дөн
дөнгө
дөнгөж
дөнгөн
дөнөн
дөр
дөрвии
дөрвөд
дөрвөдии
дөрвөл
дөрвөлж
дөрвөлжин
дөрвөлжлөн
дөрвөн
дөрвөөр
дөргэнэ
дөргөн
дөрөв
дөрөвдүгээр
дөрөвдүгээрт
дөрөвдөгч
дөрөвнии
дөрөвт
дөрөө
дөрөөнд
дөрөөнии
дөт
дөтгөөр
дөх
дөхсөн
дөхөж
дөхөм
дөхөх
дөч
дөчин
дөш
дөө
е
еашт
ебс
ева
евангали
евгении
евклидии
еврази
евразии
евреи
евро
евровижн
еврогии
еврогоор
европ
европа
европд
европии
европод
европоор
европоос
европт
европчууд
европчуудын
европыг
европын
евфрат
египет
египетии
египетэд
египтии
его
егүзэр
егүзэрии
егүүтгэсэн
егүүтгэх
егөө
егөөдсөн
ед
еи
еии
екатерина
екатеринбург
елена
елизавета
елии
ельцин
елюи
ембүү
емен
емении
ен
енбд
енисеи
ер
ердии
ердөө
ерии
еркебулан
ерн
ертөнц
ертөнции
ертөнцтэи
ертөнцөд
ертөнцөөс
ерхөг
ерэн
ерөнхии
ерөө
ерөөл
ерөөлии
ерөөлт
ерөөс
ерөөсөө
ес
есдүгээр
есии
есүс
есүсии
есүхэи
есөн
есөнзүи
есөнтөмөр
ех
ехбх
ехэнара
еэ
ж
жа
жаа
жааз
жаал
жаахан
жаббар
жав
жава
жавар
жавзандамба
жавхаа
жавхаагүи
жавхаатаи
жавхлан
жавхлант
жавын
жагсаав
жагсаал
жагсаалд
жагсаалт
жагсаалтаар
жагсаалтаас
жагсаалтад
жагсаалтанд
жагсаалтыг
жагсаалтын
жагсаалыг
жагсаалын
жагсаан
жагсаасан
жагсагчид
жагсаж
жагсах
жагсдаг
жагссан
жад
жадаар
жадамба
жадамбаа
жадны
жаз
жазз
жаи
жак
жакарта
жалаи
жалал
жалга
жалханз
жам
жамба
жамбал
жамбалдорж
жамбын
жамсран
жамсрангии
жамсранжав
жамтаи
жамуха
жамц
жамцын
жамъян
жамъянгии
жамьян
жан
жангар
жанд
жанеи
жанждын
жанжид
жанжин
жанжинд
жанжины
жанжнаар
жанжны
жанжныг
жанна
жанраи
жанцан
жанцангии
жанцанноров
жанч
жанчив
жанчивдорж
жанчивын
жанчих
жанчхүүгии
жаны
жао
жар
жараахаи
жаран
жарантаи
жаргадаг
жаргаж
жаргал
жаргалан
жаргалант
жаргалбаяр
жаргалсаи
жаргалтаи
жаргалыг
жаргалын
жаргах
жарны
жарууд
жас
жасаа
жастин
жасын
жаяг
жаягии
жгар
же
жеан
жеи
жек
жексон
жендэрии
женев
женевии
женерал
женнифер
женоа
жеральд
жерард
жереми
жермеи
жермен
жерри
жерси
жессика
жефф
жефферсон
жеффри
жи
жибути
жив
живж
живсэн
живэр
живэх
жиг
жигд
жигдэрсэн
жигжид
жигжидии
жигжидсүрэн
жигнэж
жигнэсэн
жигнэх
жигтэи
жигч
жигшин
жигших
жигүүр
жигүүрии
жигүүрт
жигүүртнии
жигүүртэн
жид
жиж
жижгэвтэр
жижи
жижиг
жижиглэн
жижиглэнгии
жижиглэх
жижигхэн
жижүүр
жизни
жии
жил
жилбэ
жилд
жилдээ
жилии
жилсүрэн
жилт
жилтэи
жилээ
жилээр
жилээс
жилүүд
жилүүдии
жилүүдэд
жим
жимии
жимми
жимс
жимсгэнии
жимсгэнэ
жимсии
жимснии
жимстэи
жимсээр
жимэр
жин
жинг
жингии
жингээр
жинд
жинон
жинс
жинст
жинтэи
жинхэнэ
жинчин
жинь
жиньпин
жир
жиргэх
жирии
жирмии
жирсан
жирх
жирч
жирэм
жирэмснии
жирэмсэн
жих
жихүүн
жихүүцэх
жич
жишгии
жишгээр
жишиг
жишигт
жишиж
жиших
жишээ
жишээг
жишээгээр
жишээлбэл
жишээн
жишээнд
жишээтэи
жишүү
жлон
жм
жо
жоан
жобс
жованни
жодоо
жозе
жозеф
жои
жолоо
жолоог
жолоогүи
жолоодлого
жолоодогч
жолоодож
жолоодон
жолоодох
жолооны
жолооч
жолоочии
жолоочоор
жон
жонатан
жонес
жонни
жонон
жононгии
жонс
жонсон
жонхе
жонхуу
жонш
жоншны
жоо
жор
жордан
жорж
жоржиа
жоржии
жороо
жорын
жоу
жош
жрах
жруулалт
жруулан
жруулах
жруулахад
жруулахын
жруулдаг
жруулж
жруулна
жруулсан
жтаи
жу
жуан
жудец
жужан
жужаны
жузеппе
жуков
жуковын
жулиа
жульетта
жун
журам
журамгүи
журамд
журамлан
журамлах
журамт
журамтаи
журамын
журмаар
журмыг
журмын
журнал
жуу
жуулах
жуулчдад
жуулчдыг
жуулчдын
жуулчид
жуулчин
жуулчлал
жуулчлалыг
жуулчлалын
жуулчны
жуух
жын
жэ
жэи
жэк
жэки
жэксон
жэксоны
жэн
жэнь
жээ
жюль
жюнь
жяньбэи
жү
жүд
жүдо
жүдогии
жүдоч
жүдочин
жүжгии
жүжгээр
жүжгүүд
жүжиг
жүжиглэх
жүжигт
жүжигчдии
жүжигчид
жүжигчин
жүжигчнии
жүжигчнээр
жүн
жүрж
жүчээ
жүүд
жүүлсэн
жүүлэх
жүүре
жөү
з
за
заа
заавал
заавар
зааварлагч
зааварлах
зааварчилгаа
заавраар
зааврыг
зааврын
зааг
заагаагүи
заагдсан
заагии
зааглан
заагласан
зааглах
заагт
заагч
заадаг
заадас
зааж
заажээ
заал
заалгаж
заалган
заалгасан
заалдах
заалт
заалтууд
заалтыг
заалтын
заам
заамар
заан
заана
зааны
заар
заарт
заасан
зааснаар
зааснаас
заасны
заах
заахын
зав
заваан
завгүи
завдав
завдаж
завдах
завдсан
завж
завиар
завины
завод
завсар
завсаргүи
завсарлага
завсарласан
завсарлах
завсарт
завсартаи
завсраар
завсрыг
завсрын
завхаи
завхан
завханы
завшаан
завших
завь
заг
загал
загалмаи
загас
загасаар
загасны
загастаи
загасчин
загасчны
загасыг
загатнах
загвар
загвараа
загвараар
загвараас
загварт
загвартаи
загварууд
загваруудыг
загваруудын
загварчлал
загварчлалын
загварчлах
загварыг
загварын
загии
загнах
загреб
зад
задалдаг
задалж
задардаг
задарсан
задарсны
задарч
задгаи
задлаг
задлан
задлах
задрал
задралаар
задралд
задралын
задран
задрах
задрахад
зажлах
заи
зал
залаа
залаат
залаатаи
залан
заларсан
заларч
заларчээ
залах
залбирал
залбирах
залбирч
залгаа
залгаас
залгавар
залгадаг
залгаж
залгамж
залгамжилж
залгамжилжээ
залгамжилсан
залгамжлав
залгамжлагч
залгамжлагчаар
залгамжлагчид
залгамжлалын
залгамжлан
залгамжлах
залган
залгана
залгасан
залгах
залгахад
залгисан
залгих
залгуулах
залгуулж
залж
залжээ
залилан
залилах
залрах
залруулах
залсан
залуу
залууг
залуугии
залууд
залуудаа
залуудаи
залуус
залууст
залуусыг
залуусын
залуутаи
залуухан
залуучууд
залуучуудад
залуучуудыг
залуучуудын
залхаан
залхуу
залхуурах
заль
зальжин
зальтаи
зальхаи
зальцбург
зам
замаа
замаар
замаас
замаасаа
замаг
замба
замбараа
замбараагүи
замби
замгии
замгүи
замд
замдаа
замнал
замналаа
замналын
замналынхаа
замтаи
замууд
замуудыг
замчлал
замчлалын
замыг
замын
зан
зана
занабазар
занабазарын
занал
заналт
заналхии
занар
занах
занг
занга
зангаа
зангаар
зангаараа
занги
зангиа
зангидах
зангидсан
зангии
зангилаа
зангилааг
зангилааны
зангилаатаи
зангуу
занд
зандан
занданшатар
зандрах
зантаи
зантгар
занчих
заншил
заншилд
заншилтаи
заншлыг
заншлын
заншсан
зар
зараа
зарааны
зарагдаж
зарагдах
зарагдсан
зарах
зарга
заргач
зардаг
зардал
зардалтаи
зардлаа
зардлаар
зардлыг
зардлын
зарж
заржээ
зарилгаар
зарим
заримдаа
заримдаг
заримыг
зарлаагүи
зарлаад
зарлав
зарлага
зарлагаа
зарлагдсан
зарлагыг
зарлагын
зарлаж
зарлажээ
зарлал
зарлалаа
зарлан
зарласан
зарласны
зарлах
зарлахад
зарлиг
зарлигаар
зарлигии
зарлигт
зарна
зарсан
зартаи
зарц
зарцуулалт
зарцуулах
зарцуулдаг
зарцуулж
зарцуулжээ
зарцуулсан
зарчим
зарчимд
зарчимтаи
зарчмаар
зарчмууд
зарчмуудыг
зарчмыг
зарчмын
зас
засаа
засаад
засаг
засаглал
засаглалд
засаглалтаи
засаглалыг
засаглалын
засагт
засагтаи
засагч
засагчид
засагчии
засаж
засал
засалч
засан
засах
засахад
засвар
засварлагч
засварлаж
засварласан
засварлах
засварчин
засварын
засгаа
засгаас
засгии
засдаг
заслын
засмал
засна
зассан
заставын
засуул
засч
заубер
зах
захаар
захаараа
захаас
захад
захиа
захиаг
захиалагч
захиалах
захиалга
захиалгаар
захиалгат
захиалгын
захиалсан
захиас
захидал
захидалд
захидалдаа
захидлыг
захидлын
захиж
захирагдаж
захирагдан
захирагдах
захирагдахгүи
захирагддаг
захирагдсан
захирагч
захирагчаар
захирагчид
захирагчии
захирал
захиралаар
захиралтаи
захирамж
захирамжаар
захиран
захирах
захиргаа
захиргааг
захиргаан
захиргаанаас
захиргаанд
захиргааны
захиргаатаи
захирдаг
захирлаар
захирлуудын
захирлын
захирсан
захируулан
захируулжээ
захируулсан
захирч
захисан
захтаи
захчин
захыг
захын
зая
заяа
заяаг
заяагаа
заяанд
заяаны
заяасан
заяат
заяатаи
заяын
зг
здтг
зевс
зеланд
зеландад
зеландын
зеленскии
зенит
зенхауэр
зер
зерс
зерслаутерн
зета
зи
зиана
зигби
зигмунд
зидан
зии
зика
зимбабве
зиндаа
зиндаанд
зиндааны
знаа
зны
зо
зовж
зовлого
зовлон
зовлонг
зовлонгии
зовлонгоос
зовлонгүи
зовлонд
зовлонтои
зовнил
зовних
зовно
зовол
зовоодог
зовоож
зовооно
зовоох
зовох
зовохгүи
зовсон
зовуурь
зовхи
зог
зогдор
зогсдог
зогсов
зогсож
зогсолт
зогсолтгүи
зогсонги
зогсоно
зогсоо
зогсоов
зогсоогүи
зогсоож
зогсоожээ
зогсоол
зогсоолын
зогсоон
зогсооно
зогсоосон
зогсоох
зогсооход
зогсоохыг
зогсоохын
зогсох
зогсохгүи
зогссон
зогссонгүи
зогсч
зодог
зодоглож
зодож
зодолдох
зодоон
зодох
зодуулах
зожиг
зол
золбин
золбоо
золгох
золгүи
золиг
золиос
золиослогч
зомгол
зон
зонхилдог
зонхилж
зонхилно
зонхилон
зонхилох
зонхилсон
зоо
зоог
зоогии
зооглох
зоор
зоорь
зоос
зоосны
зоосон
зоосыг
зор
зоргоор
зоргоороо
зорж
зориг
зоригии
зоригт
зоригтбаатар
зоригтои
зорилго
зорилгогүи
зорилгод
зорилгодоо
зорилгоо
зорилгоор
зорилготои
зорилгыг
зорилгын
зорилт
зорилтоо
зорилтот
зорилтууд
зорилтуудыг
зорилтыг
зорилтын
зоримог
зорин
зориуд
зориудаар
зориудын
зориулагдан
зориулагдсан
зориулалт
зориулалтаар
зориулалтаи
зориулалттаи
зориулалтын
зориулан
зориулах
зориулж
зориулжээ
зориулсан
зорих
зорчигч
зорчигчдын
зорчигчии
зорчиж
зорчих
зорчсон
зорьдог
зорьж
зорьжээ
зорьсон
зорьсондоо
зос
зостын
зотон
зоу
зох
зохилдсон
зохимжгүи
зохимжтои
зохимои
зохино
зохиогддог
зохиогджээ
зохиогдож
зохиогдох
зохиогдсон
зохиогч
зохиогчдын
зохиогчид
зохиогчии
зохиодог
зохиож
зохиожээ
зохиол
зохиолд
зохиолдоо
зохиолоо
зохиолоор
зохиолоороо
зохиолоос
зохиолууд
зохиолуудыг
зохиолч
зохиолчдын
зохиолчид
зохиолчии
зохиолчоор
зохиолыг
зохиолын
зохиомж
зохиомжии
зохиомлоор
зохиомол
зохион
зохиосон
зохиох
зохиоход
зохис
зохисгүи
зохист
зохистои
зохих
зохихгүи
зохицож
зохицол
зохицон
зохицох
зохицсон
зохицуулагддаг
зохицуулагч
зохицуулалт
зохицуулалтыг
зохицуулалтын
зохицуулан
зохицуулах
зохицуулахад
зохицуулдаг
зохицуулж
зохицуулна
зохицуулсан
зочдыг
зочид
зочилж
зочилсон
зочин
зочлон
зочлох
зочноор
зсбнхоу
зсбнху
зтаи
зу
зугаа
зугаалах
зугаатаи
зугаацах
зугатаж
зугатан
зугтааж
зугтаах
зугтаж
зугтан
зугтах
зугтахад
зугтсан
зуд
зузаан
зузаантаи
зузаарах
зуи
зул
зулаг
зулаи
зулгаах
зулгарах
зулгуи
зулж
зулзага
зулзагаа
зулзаган
зулын
зун
зунгааралт
зунгааралтыг
зунгааралтын
зундаа
зундарь
зундуи
зуны
зур
зураа
зураас
зураасан
зураастаи
зураасыг
зураач
зураачаар
зураачдын
зураачид
зураачии
зурав
зураг
зурагдсан
зураглаач
зураглал
зураглалыг
зураглалын
зурагнууд
зурагт
зурагтаи
зурагчин
зурам
зурах
зурахад
зурвас
зурвасаар
зурваст
зурвастаи
зурвасыг
зурвасын
зургаа
зургаагии
зургаадугаар
зургаан
зургаар
зургаас
зургадугаар
зургадүгаар
зурган
зурганд
зургии
зургууд
зургуудыг
зурдаг
зурж
зуржээ
зурлага
зурсан
зурснаар
зурхаи
зуршил
зуршилтаи
зусаг
зусар
зусардан
зусардах
зусарч
зусдаг
зуслан
зуслангии
зутан
зуу
зууван
зуувандуу
зуугаад
зуугии
зууд
зуудаг
зууж
зуузаи
зуун
зуунаас
зуунд
зуунмод
зууны
зууныг
зуур
зуураа
зууралдан
зууралдах
зуурах
зуурмаг
зуурсан
зуурч
зуурын
зуут
зуутын
зуух
зууханд
зуухны
зууч
зуучлагч
зуучлалын
зуучлах
зууш
зхжш
зху
зхукн
зы
зыг
зын
зэ
зэв
зэвии
зэвсгии
зэвсгээ
зэвсгээр
зэвсгээс
зэвсэг
зэвсэггүи
зэвсэгии
зэвсэглэл
зэвсэглэлд
зэвсэглэлии
зэвсэглэн
зэвсэглэсэн
зэвсэгт
зэвсэгтэи
зэвхии
зэвэг
зэвэгии
зэвүүн
зэгс
зэгснии
зэгсэн
зэд
зэдун
зэдуны
зэл
зэллэн
зэлмэ
зэлүүд
зэм
зэмгүи
зэмдэг
зэмлэл
зэмлэх
зэмсгии
зэмсэг
зэн
зэр
зэргии
зэргэлдээ
зэргэлдээх
зэргээ
зэргээр
зэргээрээ
зэргээс
зэрлэг
зэрлэгээр
зэрэг
зэрэглэл
зэрэглэлд
зэрэглэлии
зэрэглэлтэи
зэрэглээ
зэрэгт
зэрэгтэи
зэрэгцсэн
зэрэгцэж
зэрэгцэн
зэрэгцэх
зэрэгцээ
зэрэгцээгээр
зэрэгцээд
зэрэгцүүлэн
зэс
зэсии
зэсээр
зэтгэр
зэхэж
зэхэх
зээ
зээгт
зээл
зээлд
зээлж
зээлии
зээллэгээр
зээлтэи
зээлэгдсэн
зээлэгдэв
зээлэх
зээлээ
зээлээр
зээлээс
зээр
зээргэнэ
зээрд
зээрии
зээрэнцэг
зээтүү
зээх
зян
зү
зүг
зүггүи
зүгии
зүгт
зүгтээ
зүгээр
зүгээс
зүдгүүр
зүдрэх
зүдэрсэн
зүдэрч
зүдүү
зүдүүр
зүи
зүлгэн
зүлгэх
зүлэг
зүр
зүрх
зүрхии
зүрхнии
зүрхтэи
зүрхэн
зүрхэнд
зүрхээ
зүрчид
зүрчидии
зүс
зүсмии
зүссэн
зүстэи
зүсч
зүсэж
зүсэм
зүсэн
зүсэх
зүсээ
зүтгэгч
зүтгэдэг
зүтгэж
зүтгэл
зүтгэлии
зүтгэлтнии
зүтгэлтнүүд
зүтгэлтнүүдии
зүтгэлтэи
зүтгэлтэн
зүтгэсэн
зүтгэх
зүхэл
зүчи
зүчии
зүү
зүүгээр
зүүд
зүүднии
зүүдэг
зүүдэнд
зүүж
зүүжээ
зүүлт
зүүн
зүүнбаян
зүүнгар
зүүнгарыг
зүүнгарын
зүүнговь
зүүнд
зүүнии
зүүнхангаи
зүүнхараа
зүүнш
зүүнээс
зүүсэн
зүүх
зөв
зөвии
зөвлөгч
зөвлөгөө
зөвлөгөөг
зөвлөгөөн
зөвлөгөөнии
зөвлөдөг
зөвлөж
зөвлөл
зөвлөлд
зөвлөлдөж
зөвлөлдөх
зөвлөлии
зөвлөлт
зөвлөлтии
зөвлөлтөд
зөвлөлөөс
зөвлөмж
зөвлөмжии
зөвлөн
зөвлөсөн
зөвлөх
зөвлөхии
зөвлөхүүдии
зөвлөхөөр
зөвтгөх
зөвхөн
зөвшөөрдөг
зөвшөөрдөггүи
зөвшөөрлии
зөвшөөрлөөр
зөвшөөрнө
зөвшөөрснөөр
зөвшөөрсөн
зөвшөөрсөнгүи
зөвшөөрч
зөвшөөрчээ
зөвшөөрүүлэх
зөвшөөрөв
зөвшөөрөгдсөн
зөвшөөрөгдөх
зөвшөөрөгдөөгүи
зөвшөөрөл
зөвшөөрөлгүи
зөвшөөрөлтэи
зөвшөөрөн
зөвшөөрөх
зөвшөөрөхгүи
зөвшөөрөхии
зөвшөөрөхөд
зөвшөөрөөгүи
зөвөөр
зөгии
зөгнөл
зөгнөлт
зөгнөн
зөн
зөндөө
зөнч
зөнөг
зөрж
зөрлөг
зөрсөн
зөрчид
зөрчиж
зөрчил
зөрчилдөж
зөрчилдөөн
зөрчилдөөнии
зөрчилтэи
зөрчин
зөрчих
зөрчлии
зөрчлөөс
зөрчсөн
зөрүү
зөрүүг
зөрүүгээр
зөрүүд
зөрүүдлэх
зөрүүлж
зөрүүлэн
зөрүүлэх
зөрүүтэи
зөрөг
зөрөлдөөн
зөрөх
зөрөө
зөрөөтэи
зөөврии
зөөвөрлөх
зөөг
зөөгч
зөөдөг
зөөж
зөөлнии
зөөлрүүлэх
зөөлрөх
зөөлөвч
зөөлөн
зөөх
зөөхии
и
иад
иан
иар
иас
иберии
ибн
ибрахим
ив
иван
иванов
иванович
ивановна
иваново
ивуар
ивуарын
ивээл
ивээлд
ивээлии
ивээн
ивээх
иг
игорь
ид
ида
идвэл
иддэг
иддэггүи
идлэг
иднэ
идсэн
идсэнээс
идье
идэ
идэвх
идэвхгүи
идэвхжиж
идэвхжил
идэвхжсэн
идэвхжүүлдэг
идэвхжүүлж
идэвхжүүлсэн
идэвхжүүлэх
идэвхи
идэвхигүи
идэвхии
идэвхит
идэвхитэи
идэвхт
идэвхтэи
идэвхтэн
идэвч
идэгдсэн
идэгдэх
идэгч
идэж
идэмхии
идэр
идэрии
идэрчүүдии
идэх
идэхгүи
идэхдээ
идэхии
идэхэд
идэхээ
идэхээр
идэхээс
идэш
идэшнии
идэшт
идэштэн
идээ
идээг
идээд
идээлэх
идээнд
идээнии
идээт
идүүлэх
иен
иерусалим
иерусалимын
иж
ижии
ижил
ижилии
ижилсэх
ижилхэн
из
известия
изд
изинис
изотоп
изотопи
изотопууд
израи
израил
израилд
израилии
израилын
израиль
ии
ил
ила
илбэ
илбэн
илгээв
илгээгдсэн
илгээгч
илгээдэг
илгээж
илгээжээ
илгээн
илгээнэ
илгээсэн
илгээх
илгээхэд
илд
илдэн
илж
илжгэн
илжиг
или
илии
иллинои
илрэл
илрэн
илрэх
илрэхгүи
илрээгүи
илрүүлдэг
илрүүлж
илрүүлжээ
илрүүлнэ
илрүүлсэн
илрүүлэв
илрүүлэгч
илрүүлэлт
илрүүлэн
илрүүлэх
илрүүлэхэд
илт
илтгэгч
илтгэдэг
илтгэж
илтгэл
илтгэлии
илтгэн
илтгэнэ
илтгэсэн
илтгэх
илтэд
илч
илчит
илчлэг
илчлэн
илчлэх
иль
ильич
илья
илэ
илэг
илэн
илэрдэг
илэрнэ
илэрсэн
илэрхии
илэрч
илэрчээ
илэх
илүү
илүүг
илүүгээр
илүүгүи
илүүд
илүүдэл
илүүтэи
илүүц
им
император
импорт
импортоор
импортын
имэи
ин
ингии
ингуш
ингэ
ингэж
ингэн
ингэнии
ингэснээр
ингэснээрээ
ингэх
ингэхдээ
ингэхии
ингээд
инд
индекс
индексии
индиан
индиана
индианчууд
индианчуудын
индии
индира
индо
индонез
индонези
индонезии
индукции
индэр
индүү
инерт
инж
инжаннаши
инженер
инженерии
инженерчлэл
инженерчлэлии
инженерээр
инженерүүд
инженерүүдии
инновации
институт
институтии
институтын
институтэд
интеграл
интегрин
интер
интерактив
интернационал
интернационале
интернет
интернетии
интернетэд
интернетээр
интернэт
интернэтии
интернэтэд
интернэтээр
интернэшнл
интертото
интерфеи
интерфэи
инфляци
инфляции
инфобокс
информатик
информационные
инч
инчон
инь
инээвхии
инээд
инээдмии
инээдэм
инээж
инээмсэглэл
инээмсэглэх
инээх
иоанн
иод
ион
ионууд
ионы
ионыг
иосеф
иосиф
иохан
иоханн
ир
ира
ирак
иракии
иракт
иракын
иран
иранд
ираны
ирвинг
ирвэл
ирвэс
ирвэсии
иргэд
иргэдии
иргэдтэи
иргэдэд
иргэдээ
иргэдээс
иргэн
иргэнд
иргэнии
иргэншил
иргэншилд
иргэншилтэи
иргэншлии
ирдэг
ирж
иржээ
ирии
ирина
ирланд
ирландад
ирландын
ирлээ
ирмэг
ирмэгии
ирмэгт
ирмэгтэи
ирнэ
ирснии
ирснээр
ирснээс
ирсэн
ирсэнд
ирсэнии
ирт
иртэи
иртэл
ирэв
ирэг
ирэлт
ирэн
ирэх
ирэхгүи
ирэхдээ
ирэхии
ирэхэд
ирэхээр
ирэхээс
ирээгүи
ирээд
ирээдүи
ирүүлж
ирүүлсэн
ирүүлэх
ис
исаак
исгэж
исгэлэн
исгэрэх
исгэх
исии
ислам
исламын
исланд
исландын
ислии
исмаи
исп
испани
испаниар
испаниас
испанид
испании
испаничууд
иссык
истанбул
истории
история
исэж
исэл
исэлдэлт
исэлдэлтии
исэлдүүлэгч
итал
итали
италиар
италид
италии
италичууд
итгэ
итгэгч
итгэдэг
итгэж
итгэл
итгэлгүи
итгэлии
итгэлт
итгэлтэи
итгэлцлии
итгэлцэл
итгэмжит
итгэмжлэгдсэн
итгэмжлэх
итгэмээргүи
итгэн
итгэсэн
итгэх
итгэхгүи
итгүүлэн
ито
итогах
итоги
итх
иудеи
их
ихдэх
ихдээ
ихии
ихирэс
ихрии
ихсэж
ихсэх
ихт
ихтамир
ихтии
ихтэи
ихэвчилэн
ихэвчлэн
ихэд
ихэдвэл
ихэмсэг
ихэнх
ихэнхдээ
ихэнхи
ихэнхидээ
ихэнхии
ихэр
ихэрхэг
ихэрхэх
ихэс
ихэсгэдэг
ихэсгэж
ихэсгэх
ихэсдэг
ихэссэн
ихэсч
ихээр
ихээхэн
ичгүүр
ичгүүртэи
ичи
ичиж
ичингүи
ичинхорлоо
ичих
иш
ишгэн
ишиг
ишигнии
ишии
ишинд
ишиндээ
ишлэл
ишнии
ишнээс
иштэи
июня
к
ка
кабел
кабелии
кабель
кабинет
кабо
кабул
кавальерс
кавказ
кавказад
кавказын
кадетт
казак
казакууд
казании
казань
казах
казахстан
казахстанд
казахстаны
казахууд
казахын
казино
каи
каир
как
какао
кали
калии
калининград
калифорни
калифорниа
калифорнид
калифорнии
кальци
кальции
камбож
камбожид
камбожии
камер
камерт
камертон
камерун
камеруны
камерын
кампанит
кампус
камчаткын
кан
канад
канада
канадад
канадын
канарын
канберра
канвонь
канзас
каннын
кант
кантон
кантри
канцлер
капаган
капитал
капитализм
капитализмын
капиталист
капиталын
кара
карат
каратэ
карачаи
кардинал
кардифф
карелии
карибын
карим
карл
карло
карлос
карлын
кармен
каролина
карпатын
карпини
карт
картаар
картер
картны
картыг
картын
карьер
карьераа
каспаров
каспии
кастили
кастро
кат
каталан
катализаторын
каталог
каталогт
катар
катарын
категори
катерина
католик
каунти
кац
кашмир
кв
квадрат
квант
квантуны
квжд
квии
квт
кг
кгб
ке
кевин
кеи
келли
кемал
кембрижии
кемерово
кен
кени
кении
кеннеди
кеннедигии
кентакки
кер
керамик
кернел
кернелии
керс
керсии
ки
кибер
кидан
киданчууд
киданы
кидо
киев
киевии
киевт
киевээс
кии
килограмм
километр
километрии
километрт
ким
кин
кинг
кингз
кингии
кинематик
кинетик
кино
киног
киногоо
киногоор
киногоороо
кинон
кинонд
кинондоо
киноноос
кинонууд
кинонуудад
кинонуудыг
кинонуудын
киноны
киноныхоо
киото
киотогии
кипр
киприи
кипчак
кир
киргиз
киргизии
киргизстан
киргизүүд
киргизүүдии
кирибати
кирил
кирилл
киров
кит
китаи
китая
кихот
кл
клаи
кларк
класс
классик
кластер
кластерии
клаус
клаусура
клеи
клемент
кливленд
клиент
клименко
клиник
клиникии
клинт
клинтон
клип
клипии
клипнии
клипперс
клипэнд
клод
клуб
клубии
клубт
клубтэи
клубууд
клубыг
клубын
клубээс
клубүүдии
км
кн
кнессетии
ко
коа
ков
ковалент
ковбои
ковскии
когуре
код
кодлогдсон
кодлох
кодоо
кодоор
кодтои
кодууд
кодчилдог
кодчилсон
кодыг
кодын
кожон
козлов
козловын
козүна
кои
кока
коксын
кола
коламбиа
колин
коллаген
коллеж
коллежид
коллежии
колони
колонии
колоничлолын
колорадо
колумб
колумби
колумбиа
колумбии
колумбус
колумбын
ком
команд
командаар
командад
командалсан
командлагч
командлагчаар
командлагчии
командлал
командлалын
командлан
командууд
командуудыг
командыг
командын
комаров
комбаи
комби
комбинат
комбинатын
комеди
коми
комик
комикс
коминтернии
комисс
комиссар
комиссарын
комисст
комиссыг
комиссын
комманд
коммандаар
коммандыг
коммун
коммунизм
коммунизмын
коммунист
коммунистууд
коммунистуудын
коммунити
компаи
компакт
компани
компаниа
компаниас
компанид
компании
компанит
компанитаи
компаниуд
компаниудад
компаниудтаи
компаниудыг
компаниудын
комплекс
компьютер
компьютерии
компьютерт
компьютерууд
компьютерыг
компьютерын
компьютерээс
компьютерүүд
компьютерүүдии
кон
конвенц
конвенции
конг
конго
конгресс
конгрессии
конгресст
конгрессын
конкакаф
коннектикут
коннор
конрад
консерватив
консерваторид
консерватории
консол
консорциум
константин
константинополь
консул
консулаар
консулын
контекстии
контент
контор
контролле
конус
конусын
конференции
концентрации
концентрацитаи
концерн
концерт
концертод
концертоо
концертын
координат
координатын
копа
коперникии
коран
корнилов
корниловын
короле
коронавирус
коростовец
корпораци
корпорации
корпус
корпусын
корса
косово
косовогии
коста
кострома
кот
коул
кофе
кофены
коэн
коэффициент
краи
краков
краковын
краснодар
красноярск
красноярскии
кредит
креи
кремлии
кремль
креол
криминалистикии
криптограф
криптографии
крис
кристал
кристиан
кристиано
кристин
кристина
кристоф
кристофер
крит
кришнамурти
крои
крософт
кросс
круз
крым
крымии
крымын
ку
куала
куб
куба
кубань
кубын
кувеи
кузьмин
куи
куинз
куликовын
кулон
кун
купер
курган
курд
куре
курилии
курс
курсии
курскии
курст
курт
кутлук
кушаны
кхмер
кхмерии
кхмерүүд
към
кызыл
кын
кэбэк
кэи
кэн
кэрриган
кэсон
кэти
кэтрин
кюри
кү
күи
күн
күнз
күнзии
күнь
күтүз
күүк
күүкии
күүпер
л
ла
лаа
лаад
лаан
лааны
лаар
лаас
лаборатори
лабораторид
лаборатории
лав
лаваи
лавлагаа
лавлан
лавлах
лавтаи
лавч
лаг
лагдах
лагдсан
лагерии
лагерь
лагерьт
лагнах
лагч
лагшин
ладен
лазер
лаи
лал
лалд
лалт
лалын
лам
ламаар
ламаас
ламд
ламжав
ламжавын
ламтаи
ламтан
ламыг
ламын
лан
лана
ланг
лангии
лангууд
ланд
ландад
ландын
ланка
ланкын
лантуу
ланхаи
лао
лаос
лаост
лаосын
лар
ларри
лас
лат
латви
латвии
латин
латинаар
латины
лах
лахаа
лахаар
лахад
лахгүи
лахдаа
лахн
лахыг
лахын
лацио
лба
лбал
лбар
лбарлавал
лбарлагч
лбарладаг
лбарлаж
лбарлажээ
лбарлан
лбарласан
лбарлах
лбарлахад
лбарлахдаа
лбартаи
лбарыг
лбэл
лбэр
лбэрии
лбэртэи
лбэрч
лга
лгадаг
лгаж
лган
лгана
лгасан
лгах
лгахад
лгахыг
лгахын
лгачин
лго
лгогдох
лгодог
лгож
лголт
лголтод
лголтоор
лголттои
лголтууд
лголтуудыг
лголтыг
лголтын
лголцол
лголцох
лгомжгүи
лгомжтои
лгон
лгоно
лгосон
лгох
лгохгүи
лгоход
лгуулах
лгын
лгэ
лгэдэг
лгэж
лгэн
лгэр
лгэсэн
лгэх
лгээ
лгээг
лгээнд
лгээнии
лгээнээс
лгүи
лгөн
лгөх
лд
лдаа
лдаад
лдаан
лдаанд
лдаант
лдааны
лдааныг
лдав
лдаг
лдагч
лдаж
лдан
лдах
лдахаар
лдахад
лдвэр
лдвэржилтии
лдвэржсэн
лдвэрии
лдвэрлэв
лдвэрлэгдсэн
лдвэрлэгдэж
лдвэрлэгч
лдвэрлэгчдии
лдвэрлэгчид
лдвэрлэгчии
лдвэрлэдэг
лдвэрлэж
лдвэрлэжээ
лдвэрлэл
лдвэрлэлд
лдвэрлэлии
лдвэрлэлт
лдвэрлэлтии
лдвэрлэлээ
лдвэрлэлээр
лдвэрлэн
лдвэрлэсэн
лдвэрлэх
лдвэрлэхэд
лдвэрт
лдвэртэи
лдвэрчнии
лдвэрээ
лдвэрээс
лдвэрүүд
лдвэрүүдии
лдвэрүүдэд
лддэг
лджээ
лдлии
лдлээр
лдлүүд
лдлүүдии
лдог
лдсан
лдсэн
лдсэнии
лдэв
лдэг
лдэггүи
лдэгдсэн
лдэгч
лдэж
лдэл
лдэлд
лдэлтэи
лдэн
лдэх
лдэхии
лдэхэд
лдэшгүи
лдээ
лдүүлэх
ле
леброн
лев
леви
легион
леи
лекц
лекции
лена
ленд
ленин
ленинград
ленинградад
ленинградын
ленинии
леннон
лео
леон
леонард
леонардо
леоне
леонид
леопольд
лер
лерии
лесото
лестер
лет
лех
лж
лжээ
лзуур
ли
либерал
либери
либерии
ливан
ливаны
ливерпүүл
ливерпүүлд
ливерпүүлии
ливи
ливии
лиг
лига
лиганд
лигдэн
лигии
лигт
лигтээ
лигээс
лидер
лидии
лидс
лиза
лии
ликуд
лилль
лима
лимбэ
лимузин
лимфоцит
лин
линг
линда
линз
линзии
линк
линкольн
линукс
линч
линь
лион
лионель
лир
лист
литва
литвии
литвын
литл
литр
литрии
лиу
лихтенштаи
лицеи
лиценз
лицензии
лицензтэи
ллаа
ллага
ллии
ллои
ллыг
ллын
ллээс
лмаг
лмал
лмэл
лна
лно
лнэ
ло
лов
лович
ловон
лог
логддог
логдож
логдоно
логдох
логдсон
логии
логик
логикии
лого
логч
лодои
лодонгии
лои
локал
локомотив
лол
лолт
лолтод
лолтоор
лолтууд
лолтыг
лолтын
ломоносовын
лон
лонг
лондон
лондонгии
лондонд
лондоны
лонх
лоо
лоод
лоолии
лооль
лоор
лоос
лопез
лопес
лор
лорд
лордын
лорын
лос
лосол
лоуренс
лох
лохдоо
лоход
лохыг
лохын
лочин
лс
лсан
лсии
лснии
лсноор
лсны
лсон
лст
лсхии
лсэд
лсэн
лсээ
лсээр
лсээс
лт
лтаар
лтаи
лтгах
лтии
лтои
лтыг
лтын
лтэд
лтэи
лу
луар
лувсан
лувсанвандан
лувсангии
лувсанданзан
лувсандорж
лувсандоржии
лувсанжамц
лувсанхаи
лувсанцэрэн
лувсанцэрэнгии
лувсаншарав
лугаа
лужники
луи
луиза
луис
лука
лукас
лус
лусын
лут
луу
лууван
лууд
луудыг
луудын
луулан
луулах
луулж
луулсан
лууль
луун
лууны
луур
луус
лха
лхагва
лхагвадорж
лхагвасүрэн
лхагвасүрэнгии
лхагвын
лхамсүрэн
лхамсүрэнгии
лхас
лхүмбии
лхүмбэ
лц
лч
лчилгээ
лчилгээг
лчилгээгээ
лчилгээгээр
лчилгээнд
лчилгээнии
лчилгээнүүдии
лчилгээтэи
лчилдэг
лчилж
лчилжээ
лчилнэ
лчилсан
лчин
лчих
лчлав
лчлал
лчлалын
лчлан
лчлах
лчлэгч
лчлэл
лчлэлд
лчлэлии
лчлэлцэж
лчлэлээр
лчлэх
лчлүүлэгч
лчлүүлэгчдии
лчлүүлэгчид
лчлүүлэгчии
лчлүүлэх
лш
лшгүи
лшии
лъя
лыг
лын
ль
львов
лье
льн
льюис
льюс
лэ
лэв
лэг
лэгддэг
лэгдсэн
лэгдэж
лэгдэнэ
лэгдэх
лэгжилт
лэгжилтии
лэгжүүлдэг
лэгии
лэгч
лэгчдии
лэгчид
лэе
лэи
лэл
лэлд
лэлии
лэлт
лэлтэи
лэмж
лэн
лэнд
лэнх
лэнхи
лэнхии
лэх
лэхгүи
лэхии
лэхэд
лээ
лээгүи
лээд
лээн
лээр
лээрээ
лээс
лю
любовь
людвиг
людмила
люи
люк
люксембург
люксембургии
люси
лютер
лян
лянхуа
лянь
ляо
ляодун
ляонин
ляоян
лү
лүа
лүгээ
лүн
лүндэн
лүү
лүүд
лүүдии
лүүдэд
лүүдээс
лүүлдэг
лүүлж
лүүлсэн
лүүлэгч
лүүлэгчдии
лүүлэлт
лүүлэлтии
лүүлэн
лүүлэх
лүүр
лө
лөг
лөгч
лөгчид
лөгчии
лөгчөөр
лөл
лөн
лөх
лөө
м
ма
маа
мааг
маагаар
маажин
маажих
маалинга
маалингын
маам
маанаг
маанд
маании
мааны
маань
маар
маас
маахаи
маачин
маб
маверикс
маврики
мавритани
маг
магад
магадгүи
магадлал
магадлалтаи
магадлалыг
магадлалын
магадлан
магадлах
магии
магистр
магистрын
магмын
магнаг
магнаи
магнат
магни
магнии
магнитудын
магнус
магсар
магсаржав
магсаржавын
магт
магтаа
магтаал
магтаж
магтаи
магтан
магтана
магтах
магтдаг
магтсан
магтуу
магц
мад
мадаг
мадагаскар
мадонна
мадрид
мадридад
мадридын
мажар
мазаалаи
маи
мак
макао
макартур
македон
македонии
македоны
маккартни
макро
макс
максим
мал
малаа
малаар
малаас
малави
малага
малаи
малгаи
малгүи
малд
малж
мали
малии
маллагаа
маллагааны
маллагч
малладаг
маллаж
маллан
маллах
малтаж
малтаи
малталт
малтан
малтах
малтлага
малтмал
малтмалыг
малтмалын
малуда
малчдын
малчид
малчин
малчны
малыг
малын
мальдив
мальта
мам
мамаи
мамба
мамлюк
мамлюкии
мамлюкууд
ман
мана
манаа
манаанд
манааны
манаач
манаж
манаи
манан
манана
мананцар
манас
манах
манба
манга
манган
манганы
мангар
мангас
мангир
мангуу
манд
мандаж
мандал
мандалд
мандалт
мандалтын
мандан
мандарин
мандах
мандела
мандлын
мандсан
мандуул
мандуулах
мандуулж
мандуулсан
мандухаи
маневр
манж
манжаар
манжаас
манжид
манжии
манжин
манжтаи
манжууд
манжуур
манжуурт
манжуурыг
манжуурын
манз
манзушир
манила
манлаи
манн
мансууруулах
манта
мантаи
манти
мантии
мануул
мануухаи
мануэл
мануэль
манх
манхаи
манхан
манцуи
манчестер
маны
мань
мао
маогии
мар
мараа
марал
марафон
маргаан
маргаангүи
маргаантаи
маргааны
маргааныг
маргааш
маргаашии
маргаж
маргалдах
маргарет
маргах
марз
марзан
мари
мариа
марианы
марии
марина
марино
марио
мария
марк
маркетинг
маркетингии
маркии
марко
маркос
маркс
марксизм
марксист
марксын
маркус
марокко
мароккогии
марс
марсель
март
марта
мартагдашгүи
мартагдсан
мартаж
мартана
мартах
мартахгүи
мартин
мартины
мартсан
марш
маршал
маршалл
маршаллын
маршалын
мас
маск
масс
массачусетс
массачусеттс
массив
масстаи
массыг
массын
мастер
мастеруудын
мастерын
матад
матар
мате
математик
математикии
математикт
математикч
матери
материал
материалаар
материалаас
материалд
материализм
материалист
материаллаг
материалууд
материалуудыг
материалуудын
материалы
материалыг
материалын
материи
матигар
матриц
матрицын
матрын
маттиас
мах
махаа
махаар
махан
маханд
махараштра
махатма
махбод
махбодид
махбодии
махбодод
махбодыг
махбодын
махбодь
махии
махир
махлаг
махмуд
махн
махнаас
махны
махтаи
махц
махчин
махыг
мацаг
мацуев
маш
машид
машин
машинаа
машинаар
машинаас
машинд
машинтаи
машинууд
машинуудыг
машинуудын
машинч
машины
машиныг
мая
маяг
маягаар
маягии
маягт
маягтаи
мбо
мбогор
мбол
мболын
мвт
мг
мгаа
мгаар
мгаас
мгии
мгууд
мгуудаас
мгуудад
мгуудтаи
мгуудыг
мгуудын
мгц
мгүи
мд
мдугаар
мдээ
ме
медалиа
медалиар
медалии
медалиуд
медалиудаар
медаль
медальт
медальтаи
медальтан
медведев
медиа
между
меи
мекленбург
меконг
мексик
мексикии
мексико
мексикт
мельбурн
мельбурны
мельес
мембран
мембранаар
мембраны
мемфис
менделеев
менделии
менежер
менежерээр
менежмент
менежментии
мер
мери
мерседес
мессеж
мессежии
месси
мета
метал
металл
металлууд
металлыг
металлын
метан
метафизик
метил
метр
метрии
метро
метроны
метрополитан
метрт
метрээр
метрээс
механизм
механизмыг
механизмын
механик
механикжсан
механикжуулсан
механикии
механикт
механикч
мехико
мехикогии
мехмед
мж
мзэ
ми
миат
миг
мигель
мижиддорж
мии
мик
мика
микеланжело
микки
микро
микрофон
милан
миланд
миланы
милии
милк
миллер
миллиметр
милуоки
миль
мин
мина
мингии
минж
минжин
мини
минии
миннесота
миноме
минск
мину
минут
минутаас
минутад
минутанд
минутыг
минутын
минь
мир
мира
мисс
миссисипи
миссиссиппи
миссури
михаи
михаил
михалков
михаэлии
михаэль
мичиган
мичид
мишель
мкларен
мл
млер
млон
мм
мн
мнт
мны
мо
моах
мобаи
мобиком
мог
могод
могои
могол
моголистан
моголцог
моголын
могц
мод
модгүи
модел
моделии
модель
модем
модернизации
моди
модлог
модноос
модны
модод
модон
модонд
модоо
модоор
модот
модтои
модулии
модуль
модун
модыг
мозамбик
мозамбикии
мои
моисеи
мол
молдав
молдавын
молекул
молекулууд
молекулуудыг
молекулыг
молекулын
молибден
молибдении
моломжамц
молор
молотов
молцог
моль
момент
мон
мона
монако
монакогии
монг
монгол
монголбанк
монголбанкны
монголд
монголдоо
монголжин
монголжсон
монголжуу
монголии
монголия
монголоид
монголоор
монголоос
монголтои
монголч
монголчууд
монголчуудаас
монголчуудад
монголчуудтаи
монголчуудыг
монголчуудын
монголыг
монголын
монголынхоо
монгольская
монгольского
монгольскои
монд
моника
монитор
мониторинг
монополь
монос
монреалии
монреаль
монро
монсон
монсудар
монта
монтана
монте
монтенегро
монтенегрогии
монцамэ
моор
мор
морави
моравии
морган
мордож
мордох
мордсон
морз
морзе
морзын
мори
мории
морилж
морилон
морин
моринд
мориндоо
мориноос
мориноосоо
морины
мориныхоо
морио
мориор
морис
мормон
мормоны
моррис
моррисон
морт
мортон
морь
морьгүи
морьд
морьдоо
морьдыг
морьдын
морьт
морьтои
морьтон
москва
москваг
москвагаас
москвагии
москвад
мотобуудлагын
мотор
моторжуулсан
моторс
моторт
мотортои
моторыг
моторын
мотоцикл
мотоциклии
мохамед
мохаммед
мохоо
мохоох
мохох
моцарт
моцартын
мрах
мрии
мртух
мс
мсны
мсог
мсон
мстислав
мт
му
муаж
мубис
мугж
мугуи
муж
мужаан
мужааны
мужаас
муждаа
мужид
мужии
мужтаи
мужууд
мужуудад
мужуудтаи
мужуудыг
мужуудын
мужын
муза
музеи
муи
муис
мулгуу
мултарсан
мултарч
мултлах
мултрах
мумбаи
мун
муна
мунаг
мунгинах
мундаа
мундаг
мундахгүи
мунхаг
мур
мурад
мурии
муруи
муса
мусгз
муск
муслим
муссолини
муста
мустафа
мусульман
мутарджим
муу
мууг
муугаа
муугаар
муугаас
муугз
муугии
муугүи
мууд
муудаа
муудаж
муудалцах
муудан
муудах
муудвал
муудсан
муулах
муур
муурын
муут
муутаи
муутгах
муутын
муухаи
муухан
муушаал
муушаасан
мухаммад
мухаммед
мухар
мухардах
мухарт
мухлаг
мухулаи
мушгиа
мушгиж
мушгин
мушгирсан
мушгих
муэ
муюн
мхаи
мхбх
мхзэ
мхии
мхсс
мч
мшгии
мшигт
мшигтаи
мыг
мын
мьянмар
мьянмарын
мэ
мэг
мэгдэн
мэгц
мэд
мэдвэл
мэддэг
мэддэггүи
мэджээ
мэдлии
мэдлэг
мэдлэггүи
мэдлэгии
мэдлэгт
мэдлэгтэи
мэдлэгээ
мэдлээ
мэдлээс
мэднэ
мэдрэг
мэдрэгдэх
мэдрэгч
мэдрэгчии
мэдрэгчтэи
мэдрэл
мэдрэлии
мэдрэмж
мэдрэмжии
мэдрэмжтэи
мэдрэмтгии
мэдрэх
мэдрэхүи
мэдсэн
мэдэг
мэдэгддэг
мэдэгджээ
мэдэгдлии
мэдэгдсэн
мэдэгдэв
мэдэгдэж
мэдэгдэл
мэдэгдэлгүи
мэдэгдэн
мэдэгдэнэ
мэдэгдэх
мэдэгдэхгүи
мэдэгдэхүи
мэдэгдээгүи
мэдэгдээд
мэдэгч
мэдэж
мэдэл
мэдэлгүи
мэдэлд
мэдэлдээ
мэдэлтэи
мэдэмхии
мэдэн
мэдэрдэг
мэдэрсэн
мэдэрч
мэдэх
мэдэхгүи
мэдэхии
мэдэхэд
мэдэхээ
мэдэхээр
мэдэхүи
мэдээ
мэдээг
мэдээгээр
мэдээгүи
мэдээд
мэдээж
мэдээжии
мэдээлдэг
мэдээлж
мэдээлжээ
мэдээлии
мэдээллии
мэдээллээ
мэдээллээр
мэдээллээс
мэдээллүүд
мэдээллүүдии
мэдээлснээр
мэдээлсэн
мэдээлэл
мэдээлэлд
мэдээлэлзүи
мэдээлэлии
мэдээлэлтэи
мэдээлэх
мэдээнд
мэдээнии
мэдээнээс
мэдүүлгии
мэдүүлж
мэдүүлсэн
мэдүүлэг
мэдүүлэх
мэжик
мэи
мэл
мэлмии
мэлхии
мэн
мэнгэ
мэнд
мэндии
мэндлэх
мэндсаи
мэндчилгээ
мэндэд
мэндэлж
мэндэлжээ
мэндэлснии
мэндэлсэн
мэндээ
мэр
мэргид
мэргидии
мэргэ
мэргэд
мэргэдии
мэргэжил
мэргэжилтнии
мэргэжилтнээр
мэргэжилтнүүд
мэргэжилтнүүдии
мэргэжилтэи
мэргэжилтэн
мэргэжлии
мэргэжлээ
мэргэжлээр
мэргэжлээрээ
мэргэжсэн
мэргэлэх
мэргэн
мэргэнии
мэргэшсэн
мэри
мэрии
мэрилэнд
мэрсээ
мэрт
мэрхүү
мэрэгч
мэрэгчид
мэс
мэт
мэтгэлцээн
мэтгэлцээнии
мэтии
мэтт
мэттью
мэтчилэн
мэтэд
мэтээр
мэх
мэхии
мэхлэх
мэхт
мэхтэи
мэхээлдэс
мэхээр
мээ
мээн
мээнии
мээр
мээрэн
мээс
мэө
мюзикл
мюллер
мюнхен
мюнхенд
мюнхении
мягмар
мягмарсүрэн
мягмарын
мялаах
мян
мянга
мянгаар
мянгаас
мянгад
мянган
мянганы
мянгат
мянгатын
мяндас
мяндсан
мєн
мүбх
мүонр
мүонрт
мүхаүт
мүэ
мүүлэх
мө
мөгц
мөгөөрс
мөгөөрсөн
мөл
мөлгөр
мөлжих
мөлии
мөлт
мөлхөгч
мөлхөж
мөлхөө
мөн
мөнгии
мөнгө
мөнгөгүи
мөнгөлөг
мөнгөн
мөнгөнбаатар
мөнгөнд
мөнгөнии
мөнгөтэи
мөнгөө
мөнгөөр
мөндөр
мөнии
мөнх
мөнхбаатар
мөнхбат
мөнхбаяр
мөнхболд
мөнхжаргал
мөнхжин
мөнхии
мөнхсаи
мөнхтөмөр
мөнххаан
мөнххаи
мөнхүү
мөнхөд
мөнхөлсөн
мөнхөрсөн
мөнхөө
мөнөөх
мөр
мөргүи
мөргөж
мөргөл
мөргөлдөж
мөргөлдөх
мөргөлдөөн
мөргөлдөөнд
мөргөлдөөнии
мөргөлии
мөргөн
мөргөсөн
мөргөх
мөрддөг
мөрдлөг
мөрдорж
мөрдоржии
мөрдөгдөж
мөрдөгч
мөрдөж
мөрдөн
мөрдөх
мөрии
мөрнии
мөрнөөр
мөрнөөс
мөрт
мөртлөө
мөртэи
мөртөө
мөрүүдии
мөрөн
мөрөнд
мөрөндөө
мөрөө
мөрөөддөг
мөрөөдлии
мөрөөдлөө
мөрөөдөж
мөрөөдөл
мөрөөдөх
мөрөөр
мөрөөс
мөс
мөсии
мөснии
мөст
мөстлөгии
мөсөн
мөсөөр
мөхжээ
мөхлии
мөхлөг
мөхсөн
мөхсөнии
мөхөж
мөхөл
мөхөс
мөхөх
мөхөөж
мөхөөсөн
мөч
мөчиг
мөчид
мөчии
мөчир
мөчиртэи
мөчлөг
мөчлөгии
мөчнии
мөчрии
мөчөөс
мөөг
мөөгии
мөөгнии
мөөгөнцөр
мөөр
н
на
наа
наагуур
наад
наадаж
наадам
наадамд
наадах
наадахад
наадгаи
нааддаг
наадмаар
наадмаас
наадмуудад
наадмыг
наадмын
нааж
наалдаж
наалдамхаи
наалдан
наалданги
наалдах
наалдсан
наалдуулан
наалинхаи
наамал
наана
наанги
наар
наас
наасан
наах
нааш
наашаа
нааштаи
набоков
наваан
навс
навтгар
навч
навчаа
навчаар
навчгүи
навчии
навчин
навчинд
навчис
навчит
навчны
навчтаи
наг
нагасаки
нагац
наггетс
нагоя
над
надаар
надаас
надад
надежда
надтаи
наж
назарбаев
назгаи
наи
нал
налаи
налархаи
налж
налуу
нам
намаа
намаагүи
намаас
намаг
намагт
намагтаи
намаи
намар
намба
намбарын
намгархаг
намгии
намд
намдаах
намдаг
намдагии
намдах
намжил
намжилын
намжих
намиби
намнаахаи
намнансүрэн
намнах
намраас
намрын
намс
намсраи
намтаи
намтар
намтрыг
намууд
намуудын
намуун
намуухан
намхаи
намхан
намыг
намын
намынхан
нан
нангиад
нандигнан
нандин
нанжин
нанзад
нано
нансалмаа
нанхиад
нань
наполеон
наполеоны
наполи
нар
нара
нараа
нараар
нараас
наран
наранбаатар
наранбулаг
нарангэрэл
наранд
наргиан
нарии
нармаи
нармандах
нарнаас
нарны
народнои
народов
нарс
нарсан
нарсны
нарт
нартаа
нартаи
нарыг
нарын
нарынхаа
нарүто
нас
наса
насаа
насаар
насаараа
насалдаг
насалсан
насан
насанд
насандаа
население
населения
населенных
наслав
наслалт
насласан
наслах
наснаас
наснаасаа
насны
насныхаа
насныхан
насныханд
насныхны
насос
наст
настаи
настан
насыг
нат
наталья
натан
нато
натри
натрии
натурал
наука
науру
нах
нахиа
нахии
наху
нахя
нацаг
нацагдорж
нацагдоржии
нацагии
национальныи
нацист
нацистууд
нацистын
начин
ная
наяа
наяд
наян
нба
нг
нга
нгаа
нги
нгии
нго
нгуен
нгуут
нгын
нгэ
нгээ
нгүи
нгүүт
нд
ндаа
ндон
ндонгии
не
неаполь
нева
невада
невилл
невис
невскии
неи
нелсон
нельсон
нер
неру
неста
нетания
нетаньяху
нетс
нефтии
нефть
нжерс
нжу
нжун
ни
нигер
нигери
нигерии
нигүүлсэгч
нид
нидерланд
нидерландаар
нидерландад
нидерландын
нии
ник
никарагуа
никелии
никель
ники
никита
нико
никола
николаевич
николаи
николас
николсон
николь
николя
никс
никсии
никсон
нил
нилии
нилээд
нилээдгүи
нилээн
нимбэг
нимгэн
нин
нина
нинжин
ниохуру
ниргэж
ниргэсэн
нирун
нируны
нисванис
нисгэгч
нисгэгчдии
нисгэгчид
нисгэгчии
нисгэгчээр
нисдэг
нислэг
нислэгии
нислэгт
нислэгээ
ниснэ
ниссан
ниссэн
нисч
нисэгч
нисэгчии
нисэж
нисэн
нисэх
нисэхии
нисэхэд
нитрат
нихон
нишингэ
нквд
нм
нмент
нн
но
нобелии
нов
нова
новгород
новгородын
нович
новосибирск
новости
новш
ног
ногаи
ногдох
ногдуулах
ногоо
ногоовтор
ногоог
ногоон
ногоонд
ногооннуур
ногооны
ногоотои
ногт
ногтруу
ное
нои
нолан
ном
номгон
номгүи
номд
номдоо
номер
номин
номинацид
номлогч
номлол
номлолыг
номлолын
номноос
номны
номои
номон
номонд
номондоо
номоо
номоор
номоороо
номоос
номт
номтои
номтон
номун
номууд
номхон
номхотгох
номч
номыг
номын
ноо
ноогдох
ноолуур
ноолуурын
ноомои
ноор
ноорог
ноорсон
ноорхои
ноос
ноосны
ноосон
ноосоо
ноосоор
ноосыг
ноот
нор
нора
норв
норвеги
норвегии
норвич
норгох
норм
норман
норов
норовлин
норовсамбуу
нородом
норох
норт
нот
нотлогдсон
нотлон
нотлох
нотолгоо
нотолж
нотолсон
ноу
нох
ноход
нохои
ноцолдох
ноцоох
ноцох
ноцтои
нрих
нс
нсан
нсии
нт
нтаи
нтболл
нтболлын
нтои
нтрахт
нтэи
нтээл
нтө
ну
нуга
нугалаа
нугалаас
нугалан
нугалах
нугалж
нугалсан
нугарах
нугас
нугасны
нугасныхан
нугын
нударга
нуклеи
нуклеотидын
нулимс
нум
нуман
нумны
нумыг
нумын
нунтаг
нунтаглах
нур
нурааж
нураасан
нураах
нурам
нуран
нурах
нурж
нурсан
нуруу
нурууг
нуруугаа
нуруугаар
нуруугүи
нурууд
нуруун
нуруунаас
нуруунд
нуруундаа
нурууны
нуруутаи
нуруутан
нурхач
нурхачи
нурхачии
нус
нутаг
нутагладаг
нутаглаж
нутаглан
нутаглана
нутагласан
нутаглах
нутаглуулжээ
нутагт
нутагтаа
нутагтаи
нутагтан
нутагшуулах
нутг
нутгаа
нутгаар
нутгаараа
нутгаас
нутгаасаа
нутгии
нутгууд
нутгуудад
нутгуудыг
нутгуудын
нуувч
нуугдаж
нуугдан
нуугдах
нуугдмал
нуугдсан
нууд
нуудад
нуудыг
нуудын
нууж
нуун
нуур
нуураас
нууранд
нуурт
нууртаи
нуурууд
нууруудын
нуурыг
нуурын
нуусан
нуух
нууц
нууцаар
нууцалж
нууцлаг
нууцлагдсан
нууцлал
нууцлалтаи
нууцлалыг
нууцлалын
нууцлах
нууцыг
нууцын
нухаж
нухах
нухацтаи
нухчин
нфрэи
нх
нхаа
нхаас
нхан
нханд
нхантаи
нхенгладбах
нхии
нхнии
нхны
нхныг
нхныхаа
нхон
нхоо
нхоор
нхор
нхтэи
нхэн
нхэнд
нхэнтэи
нхээ
нхээс
нхүү
нхөн
нхөө
нхөөр
нхөөрөө
нц
нцагаан
нч
ншанд
нштеи
ны
ныг
нь
ньжун
нью
ньюкасл
ньюком
ньютон
ньютоны
нэ
нэвсгэр
нэвт
нэвтлэн
нэвтлэх
нэвтрэв
нэвтрэлт
нэвтрэлцэх
нэвтрэн
нэвтрэх
нэвтрэхии
нэвтрүүлгии
нэвтрүүлгээ
нэвтрүүлгээр
нэвтрүүлдэг
нэвтрүүлж
нэвтрүүлжээ
нэвтрүүлсэн
нэвтрүүлэв
нэвтрүүлэг
нэвтрүүлэгт
нэвтрүүлэгч
нэвтрүүлэн
нэвтрүүлэх
нэвтрүүлэхии
нэвтрүүлэхэд
нэвтэрдэг
нэвтэрсэн
нэвтэрхии
нэвтэрч
нэвтэрчээ
нэвчдэс
нэвчиж
нэвчих
нэг
нэгд
нэгддэг
нэгджээ
нэгдлии
нэгдлээс
нэгдлүүд
нэгдлүүдии
нэгдмэл
нэгдсэн
нэгдсэнии
нэгдсэнээр
нэгдэв
нэгдэж
нэгдэл
нэгдэлд
нэгдэлии
нэгдэлчин
нэгдэн
нэгдэх
нэгдэхии
нэгдэхэд
нэгдүгээр
нэгдүгээрт
нэгж
нэгжид
нэгжии
нэгжтэи
нэгжээр
нэгжээс
нэгжүүд
нэгжүүдии
нэгжүүдэд
нэгии
нэгмөсөн
нэгнии
нэгнээ
нэгнээс
нэгт
нэгтгэв
нэгтгэдэг
нэгтгэж
нэгтгэжээ
нэгтгэл
нэгтгэлии
нэгтгэлүүд
нэгтгэлүүдии
нэгтгэн
нэгтгэснээр
нэгтгэсэн
нэгтгэх
нэгтгэхии
нэгтгэхэд
нэгтгээд
нэгтэи
нэгэн
нэгэнгүи
нэгэнд
нэгэндээ
нэгэнт
нэгэнтэи
нэгэнтээ
нэгээр
нэгээрээ
нэгээс
нэгээхэн
нэжгээд
нэи
нэкст
нэл
нэлэнхүи
нэлээд
нэлээн
нэм
нэмдэг
нэмж
нэмнэ
нэмрии
нэмрээ
нэмсэн
нэмэв
нэмэгддэг
нэмэгджээ
нэмэгдсэн
нэмэгдсээр
нэмэгдэв
нэмэгдэж
нэмэгдэл
нэмэгдэн
нэмэгдэнэ
нэмэгдэх
нэмэгдүүлдэг
нэмэгдүүлж
нэмэгдүүлнэ
нэмэгдүүлсэн
нэмэгдүүлэн
нэмэгдүүлэх
нэмэгдүүлэхии
нэмэгдүүлэхэд
нэмэлт
нэмэлтээр
нэмэн
нэмэр
нэмэргүи
нэмэх
нэмэхии
нэмэхэд
нэмээд
нэмүү
нэн
нэнси
нэр
нэрвэгдсэн
нэрвэгдэж
нэрвэгдэх
нэргүи
нэрд
нэрж
нэрии
нэрлэв
нэрлэвэл
нэрлэгддэг
нэрлэгджээ
нэрлэгдсэн
нэрлэгдэж
нэрлэгдэн
нэрлэгдэнэ
нэрлэгдэх
нэрлэдэг
нэрлэж
нэрлэжээ
нэрлэлт
нэрлэн
нэрлэнэ
нэрлэсэн
нэрлэх
нэрлэхии
нэрлэхээр
нэрлээд
нэрнии
нэрнээс
нэрс
нэрсии
нэрт
нэртии
нэртэи
нэршил
нэршилтэи
нэршлии
нэршлээр
нэршсэн
нэрэлдэг
нэрэмжит
нэрэн
нэрэнд
нэрэх
нэрээ
нэрээр
нэрээрээ
нэрээс
нэт
нэтфлов
нэхдэс
нэхии
нэхмэл
нэхмэлии
нэхсэн
нэхэж
нэхэн
нэхэх
нэхээстэи
нээ
нээв
нээгджээ
нээгдсэн
нээгдэв
нээгдэж
нээгдэх
нээж
нээжээ
нээлт
нээлтии
нээлттэи
нээлтэд
нээлтээ
нээлтүүд
нээлтүүдии
нээлхии
нээн
нээр
нээрээ
нээс
нээснии
нээснээр
нээсэн
нээх
нээхэд
нээхээр
нюрнберг
ня
нягт
нягталж
нягтлан
нягтлах
нягтрал
нягттаи
нягтшил
нягтын
нядлах
нялзраи
нялуун
нялх
нялхсын
нялцгаи
нялцгар
ням
нямаа
нямаагии
нямбаи
нямбаяр
нямдаваа
нямдорж
нямжав
нямсүрэн
нямхүү
нямын
нян
нянг
нянгаар
нянгии
нярав
няраи
няслах
няц
няцааж
няцаасан
няцаах
няцах
няцлах
нү
нүб
нүглии
нүглээ
нүгэл
нүгэлт
нүд
нүдгүи
нүдии
нүдлэх
нүднии
нүднээс
нүдтэи
нүдэж
нүдэн
нүдэнд
нүдэндээ
нүдэт
нүдэх
нүдээ
нүдээр
нүдээрээ
нүргээн
нүсэр
нүх
нүхии
нүхлэх
нүхнии
нүхтэи
нүхэн
нүхэнд
нүхэндээ
нүхээ
нүхээр
нүцгэн
нүүд
нүүдии
нүүдлии
нүүдэг
нүүдэл
нүүдэллэдэг
нүүдэллэж
нүүдэллэн
нүүдэллэх
нүүдэлчдии
нүүдэлчид
нүүдэлчин
нүүж
нүүжээ
нүүлгэж
нүүлгэн
нүүлгэсэн
нүүлгэх
нүүн
нүүр
нүүргүи
нүүрии
нүүрнии
нүүрс
нүүрсии
нүүрснии
нүүрстөрөгч
нүүрстөрөгчии
нүүрсхүчлии
нүүрт
нүүртэи
нүүрэн
нүүрэнд
нүүрэндээ
нүүрээ
нүүсэн
нүүх
нүүхии
нүүхэд
нө
нөгчжээ
нөгчих
нөгчсөн
нөгчсөнии
нөгөө
нөгөөг
нөгөөд
нөгөөдөө
нөгөөтэи
нөгөөх
нөж
нөлөө
нөлөөг
нөлөөгүи
нөлөөгөө
нөлөөгөөр
нөлөөлдөг
нөлөөлж
нөлөөлжээ
нөлөөллии
нөлөөллөөс
нөлөөлнө
нөлөөлсөн
нөлөөлөл
нөлөөлөх
нөлөөлөхгүи
нөлөөн
нөлөөнд
нөлөөнии
нөлөөнөөс
нөлөөтэи
нөмрөг
нөмрөгии
нөмрөх
нөмөр
нөмөрч
нөр
нөхдии
нөхдөө
нөхдөөсөө
нөхрии
нөхрөө
нөхрөөсөө
нөхцлии
нөхцлөөр
нөхцлөөс
нөхцөл
нөхцөлд
нөхцөлии
нөхцөлт
нөхцөлтэи
нөхцөлүүд
нөхцөлөөр
нөхцөлөөс
нөхөд
нөхөдтэи
нөхөж
нөхөн
нөхөр
нөхөргүи
нөхөрлөж
нөхөрлөл
нөхөрлөлии
нөхөрлөсөн
нөхөрлөх
нөхөрсөг
нөхөрт
нөхөртэи
нөхөртөө
нөхөх
нөхөөс
нөөлөг
нөөс
нөөц
нөөции
нөөцлөх
нөөцтэи
нөөцөд
нөөцөлсөн
нөөцөө
нөөцөөр
о
оак
оан
об
обама
област
области
область
обои
объект
объектив
объектии
объектыг
объектын
обь
обьект
обьектии
обьектуудыг
ов
ова
овгии
овгоос
овгор
овгууд
овгуудын
овжин
овог
овогт
овогтны
овогтои
овогтон
овои
овон
овоо
овоог
овоолго
овоолгын
овоолж
овоолох
овоолсон
овооны
овоохои
овор
оврын
овсгоо
овъе
ог
ога
огдои
огии
огноо
огоор
оготно
оготны
оготор
огт
огтлол
огтлолын
огтлон
огтлох
огтолж
огторгуи
огтхон
огуз
огцом
огцорсны
огцорсон
огцорч
огцорчээ
огцров
огцрох
огцруулах
огцруулж
од
ода
одбаяр
одгэрэл
оддыг
оддын
одер
одесса
оджээ
одиссеи
одны
одов
одод
одож
одои
одом
одон
одонг
одонгии
одонгоор
одонт
одоо
одоог
одоогии
одоогоор
одоогоос
одооны
одоохондоо
одох
одсон
одсэр
одсүрэн
одтои
одыг
одын
ое
оз
озеф
озоны
ои
ок
ока
окинава
оклахома
око
окончательных
округ
округов
оксид
оксли
оксфорд
оксфордын
октябрии
октября
ол
олбог
олбол
олборлодог
олборлож
олборлолт
олборлолтын
олборлосон
олборлох
олгов
олгогдсон
олгогч
олгодог
олгож
олгожээ
олгои
олгон
олгоно
олгоогүи
олгосон
олгох
олгохоор
олгохыг
олгохын
олдвол
олдвор
олдворууд
олддог
олддоггүи
олджээ
олдман
олдмол
олдог
олдоггүи
олдож
олдоно
олдоогүи
олдоод
олдох
олдохгүи
олдсон
олег
олж
олжээ
олз
олзлогдогсод
олзлогдож
олзлогдсон
олзлон
олзны
олзолж
олзолжээ
олзолсон
олзонд
олзоо
оливер
оливын
олиггүи
олигтои
олимп
олимпиа
олимпиад
олимпиадаас
олимпиадад
олимпиадын
олимпиакос
олимпии
олимпик
олимпод
олимпоос
олимпт
олимпыг
олимпын
олно
олноо
олноор
олноороо
олноос
олны
олныг
олов
олол
ололгүи
ололт
ололтыг
олом
олон
олонд
олондоо
олонлог
олонлогии
олонтаа
олонтои
олонтоо
олонх
олонхи
олонхии
олоогүи
олоод
олох
олохгүи
олохдоо
олоход
олохоор
олохыг
олохын
олс
олсны
олсон
олсонгүи
олсоор
олтриг
олуул
олуулаа
олширч
олшрох
олшруулах
олъе
ольга
ом
оман
оманы
омар
омбо
омгии
омголон
омгорхог
омега
омог
омогтои
оморхог
омруу
омск
омтгои
он
онги
онгии
онгироо
онгирох
онгод
онгои
онгон
онгорхои
онгоц
онгоцноос
онгоцнууд
онгоцны
онгоцонд
онгоцоо
онгоцоор
онгоцтои
онгоцууд
онгоцуудыг
онгоцыг
онгуд
онд
ондоо
онегин
онигоо
онигор
онии
онлаи
онмх
оннигуд
оно
онов
оновчтои
оногдож
оногдох
оногдсон
онож
онол
онолд
онолоо
онолоор
онолууд
онолч
онолыг
онолын
онон
оноо
оноог
оноогоо
оноогоор
оноож
оноожээ
оноолт
оноон
онооны
оноор
оноос
оноосон
оноотои
оноох
оносон
онох
онохуи
онош
оношилгоо
оношлогоо
оношлох
онтарио
онтои
онууд
онуудад
онуудын
онц
онцгои
онцлог
онцлогии
онцлогоос
онцлогт
онцлогтои
онцлон
онцлох
онцолж
онцолсон
онцын
онч
оны
оныг
оныхоо
онь
оньс
оньсого
оньсон
оо
оод
оодон
оозэки
ооль
ооно
оор
оорои
оорцог
оос
оосои
оосор
ооч
оошима
опел
опелии
опелын
оператор
операторууд
операторын
операци
ополе
оптик
оптикии
опцион
ор
орвол
орган
организм
организмд
организмууд
организмын
органик
оргил
оргилболд
оргилд
оргилдоо
оргилж
оргилон
оргилох
оргилуун
оргилын
оргин
оргио
оргих
оргодол
оргож
оргон
оргосон
оргох
оргүи
орд
ордан
орданы
ордноос
ордны
ордныг
ордог
ордоггүи
ордод
ордон
ордонг
ордонд
ордондоо
ордоны
ордоос
ордос
ордосын
ордууд
ордыг
ордын
оре
орегон
орж
оржээ
орикон
орилох
орк
оркии
оркт
оркын
орландо
орлеан
орлеанс
орлого
орлогоо
орлогоороо
орлогоос
орлоготои
орлогч
орлогчоор
орлогыг
орлогын
орлож
орлон
орлоо
орлох
орлуулах
орлуулж
орно
орноо
орноор
орноос
орноосоо
орнууд
орнуудаар
орнуудаас
орнуудад
орнуудтаи
орнуудыг
орнуудын
орны
орныг
орныхоо
оров
орог
орогнож
орогнох
орои
оролгүи
оролддог
оролджээ
оролдлого
оролдлогыг
оролдлогын
оролдож
оролдон
оролдох
оролдсон
оролмаа
оролт
оролтын
оролцдог
оролцдоггүи
оролцжээ
оролцлоо
оролцов
оролцогч
оролцогчдын
оролцогчид
оролцогчии
оролцож
оролцон
оролцоно
оролцоо
оролцоог
оролцоогүи
оролцоод
оролцооны
оролцоотои
оролцох
оролцохгүи
оролцохдоо
оролцоход
оролцохоор
оролцохоос
оролцохыг
оролцохын
оролцсон
оролцсоноос
оролцсоны
оролцсоор
оролцуулаад
оролцуулан
оролцуулах
оролцуулж
оролцуулсан
ором
оромгүи
оромдох
оромж
орон
оронг
оронгүи
оронд
орондоо
оронтои
оронч
орончдын
орончид
ороны
ороо
ороогүи
ороод
ороож
ороолгох
ороолт
ороомог
ороон
ороонго
орооно
ороосон
ороох
орос
оросод
оросоор
оросоос
орост
оростои
оросууд
оросуудад
оросуудын
оросыг
оросын
орох
орохгүи
орохдоо
ороход
орохоор
орохоос
орохыг
орохын
орсноор
орсноос
орсны
орсныг
орсон
орсоноор
ортодокс
ортои
ортол
оруулаагүи
оруулаад
оруулав
оруулагч
оруулагчид
оруулалт
оруулалтаар
оруулалттаи
оруулалтыг
оруулалтын
оруулан
оруулах
оруулахаар
оруулахад
оруулахгүи
оруулахдаа
оруулахыг
оруулахын
оруулга
оруулдаг
оруулж
оруулжээ
оруулна
оруулсан
оруулснаар
оруулсны
орхив
орхигдсон
орхидог
орхиж
орхижээ
орхин
орхино
орхиод
орхироо
орхисон
орхих
орхон
орхоны
орц
орч
орчим
орчимд
орчин
орчинг
орчинд
орчиндоо
орчинтои
орчлон
орчлонгии
орчлонд
орчмоор
орчмоос
орчмыг
орчмын
орчноо
орчноос
орчны
орчныг
орчуулагдаж
орчуулагдсан
орчуулагч
орчуулагчаар
орчуулан
орчуулах
орчуулбал
орчуулга
орчуулгаар
орчуулгыг
орчуулгын
орчуулж
орчуулжээ
орчуулсан
оршвои
оршдог
оршивои
оршиж
оршил
оршин
оршино
орших
оршихуи
оршихын
оршсон
оршсоор
оршуулах
оршуулга
оршуулгын
оршуулдаг
оршуулжээ
оршуулсан
орыг
орь
ос
осака
осама
осет
осети
осетии
осеф
оскар
оскарт
оскарын
осло
ослоор
ослоос
ослын
осман
османы
осол
осолд
осолдож
осолдох
осолдсон
осор
осорын
оспан
оспаны
остин
от
ота
отгии
отго
отгон
отгонбаатар
отгонбаяр
отгонтэнгэр
отелло
отог
отож
отои
отон
отор
отох
оточ
отряд
отрядад
отрядууд
отрядыг
отрядын
оттава
отто
оттоманы
отчигин
оу
оувс
оуох
оуфо
оухах
оухбх
оухм
оуэн
оф
офицер
офицерии
офицерууд
офицеруудын
офицерын
официальныи
офф
оффис
оффисын
оффт
оффын
ох
охаи
охан
охид
охидыг
охидын
охин
охинд
охиноо
охинтои
охины
охиныг
охиныхоо
охор
оху
охь
оцои
оцон
оч
очдог
очжээ
очив
очиж
очин
очир
очирбат
очирбатын
очирваань
очирт
очирын
очих
очиход
очно
очоод
очсон
ош
оюу
оюун
оюунболд
оюунгэрэл
оюунлаг
оюунчимэг
оюуны
оюутан
оюутантаи
оюутнууд
оюутнуудад
оюутнуудыг
оюутнуудын
оюутны
оюутолгои
п
па
пабло
павел
павлов
паг
пагва
пагдгар
пад
паи
пак
пакет
пакетии
пакетуудыг
пакетыг
пакетын
пакистан
пакистанд
пакистаны
пал
палау
палеолитын
палеонтологии
палермо
палестин
палестины
памир
пан
панам
панамын
панжаб
панчо
паок
паоло
пап
папаар
папуа
папын
парагваи
параллель
параметр
параметрии
параметрүүд
параметрүүдии
пари
парис
парист
парисын
парк
паркер
паркии
парламент
парламентаас
парламентад
парламентии
парламентыг
парламентын
парма
партизан
партизаны
пас
паскаль
паспорт
патент
патентыг
патентын
патрик
паул
пауло
паулу
паша
пе
педро
пежо
пеи
пеликанс
пеннсилвани
пенсильвани
пентатоник
пептидии
пер
переписи
перепись
перес
перпендикуляр
перс
перси
персии
персонал
персээр
перу
перугии
петер
петербург
петербургии
петербургт
петр
петрии
петров
петрович
петроград
пи
пиано
пии
пикассо
пилсудски
пин
пингии
пиньинь
пионер
пионерии
пионерын
пирамид
пирамидын
пиренеи
пистонс
питер
питт
пиус
пифагор
пифагорын
пицца
плазма
плазмын
плано
платон
платоны
платформ
плеи
плит
плэи
по
под
пои
пол
полански
поле
полимер
полимераза
политехникии
поло
пологии
поль
польш
польшид
польшии
польшоор
польшууд
померан
поп
попов
поппе
пор
порошенко
порт
портал
портланд
портленд
портлэнд
порто
портсмут
порту
португал
португалаа
португалаар
португали
португалии
португалын
португаль
портууд
портыг
портын
порше
поршегии
пост
постоянного
потанин
потенциал
потенциалын
потсдамын
поттер
поттэр
потын
прав
права
правда
право
праг
прага
прагии
прагматик
прадеш
праи
практик
практикии
практикт
премьер
пресс
престон
пржевальскии
при
пригии
прид
приднестрии
примаков
принс
принсипи
принстоны
принт
принтер
принтерии
приштина
проверено
провинция
програм
програмаар
програмд
программ
программууд
программчлалын
программыг
программын
програмууд
програмуудад
програмуудыг
програмуудын
програмчлал
програмчлалын
програмчлах
програмыг
програмын
продакшн
продьюсер
продюсер
продюсерээр
прокси
прокурор
прокурорын
пролетарии
пропорциональ
проспект
протестант
прото
протокол
протоколд
протоколоор
протоколууд
протоколуудыг
протоколыг
протоколын
протон
протоны
профаи
профессор
профессороор
профессорын
профиль
процедур
процесс
процессд
процессии
процессоор
процессор
процессорт
процессорын
процесст
процессууд
процессуудыг
процессуудын
процессыг
процессын
прусс
пруссии
пруссын
псв
птолемеи
пу
пугаче
пулеме
пулитцер
пунктов
пунцаг
пунцагии
путин
путинии
путины
пуу
пуужин
пуужинг
пуужингии
пуччини
пушкин
пуэрто
пциг
пцигии
пьер
пэи
пэлас
пэрлээ
пэрэнлэи
пянз
пүе
пүнлүү
пүрш
пүрэв
пүрэвгарьд
пүрэвдагва
пүрэвдорж
пүрэвдоржии
пүрэвжав
пүрэвжавын
пүрэвии
пүрэвсүрэн
пүүс
пүүсии
р
ра
раа
раад
раар
раас
рабфак
рав
равдан
равдангии
равжаа
рави
раг
рагдах
раглал
рагны
рагт
рагч
рагчаа
рагчии
рад
радикал
радио
радиог
радиогии
радиогоор
радиод
радиус
радиустаи
радууд
радыг
радын
раи
рал
ралд
ралдаг
ралт
ралтаа
ралтаас
ралтад
ралтанд
ралтыг
ралтын
ральф
рам
рамат
рамдал
рамдалт
рамдах
рамдахчуудын
рамдлын
рамон
ран
ранд
рандаа
ранч
рапс
рапсын
расинг
рассел
расселл
рауль
рафаэль
рах
рахад
рахман
рачневскии
раш
рашаан
рашаант
рашааны
рашааныг
рашид
рашидаддин
рвэи
рга
рган
ргии
рго
ргоор
ргоос
ргоших
ргэвч
ргүи
рд
рдаг
рдахь
рдмол
рдог
рдогч
рдох
рдт
рдугаар
рдугаарт
рдын
ре
реал
реалист
реалити
регбигии
регистр
регистрии
ред
редактор
редакторлах
редактороор
редакторын
редакц
редакцид
редакции
резин
резинии
резинэн
реи
реклам
рекорд
рекордыг
ректор
рене
рено
рентген
реп
реппер
реппэр
рерих
рерихии
рес
республик
республика
республики
ресторан
рецептор
рецепторууд
рж
ри
риа
ривер
ривера
риг
рид
рии
рик
рика
рикардо
рики
рикии
рико
рил
рим
римскии
рин
ринбүчи
ринчен
ринчин
ринчинбал
рио
ритм
рихард
ричард
ричардсон
рк
рла
рлага
рлагад
рлаганд
рлагатаи
рлагыг
рлагын
рладаг
рлаж
рлажээ
рлал
рлалаа
рлалаар
рлалаас
рлалд
рлалтаи
рлалыг
рлалын
рлан
рлана
рласан
рлах
рлии
рлингии
рлуулан
рлуулах
рлуулдаг
рлуулж
рлуулжээ
рлуулна
рлуулсан
рлэл
рлэн
рлэсэн
рмог
рмэг
рн
рна
рнаас
рнаасаа
рно
рноо
рнх
рны
рнэ
ро
роб
роббен
роберт
роберто
робертс
робертсон
робин
робинсон
робот
роботууд
роверс
рог
рогии
рогт
род
родригес
рожер
роза
рои
рок
рокетс
рокки
рокоссовскии
рол
ролл
роллинг
роллын
ролцоо
ролцоогоор
ролцоох
роль
ром
рома
роман
романаа
романаас
романд
романтик
романы
романыг
ромбо
ромд
ромео
ромчууд
ромын
рон
роналд
рональд
рональдо
ронд
рондоо
ронтоо
роо
роод
роол
роолд
роолтои
роолыг
роолын
роор
роос
росс
россии
россия
ростов
ростовын
рот
ротари
роттердам
роулинг
роулингии
рох
рп
рс
рсаар
рсаг
рсан
рсон
рсох
рстаи
рсэн
рт
ртаи
ртож
ртои
ртон
ртох
ртсон
ртуулах
ртын
ртэл
ру
руанда
рублии
рубль
рубрук
рудольф
рузвельт
руи
рум
румын
румынаар
румыны
румынь
рун
руни
руперт
русии
руслан
русскии
русь
рут
рутер
рутерии
руу
руугаа
рууд
руул
руулагч
руулагчаар
руулагчии
руулал
руулан
руулах
руулга
руулгад
руулгыг
руулгын
руулж
рууллын
руулсан
рх
рхан
рханы
рхах
рхи
рхлоо
рхлыг
рхлын
рхогч
рхож
рхол
рхолоо
рхолт
рхолын
рхон
рхох
рхсон
рхэх
рцаг
рцагт
рцагтаи
рч
рчих
рчээ
ршдаг
ршиж
ршил
ршилд
ршилтаи
ршлаар
ршлыг
ршлын
ршсан
ршуулах
ршуулж
ршуулсан
рыг
рын
рэв
рэг
рэи
рэл
рэлтэт
рэм
рэн
рэп
рэппэр
рэпторс
рэх
рээ
рээр
рээс
рюсселсхаи
рюү
рязань
рүү
рүүгээ
рүүзвельт
рүүлж
рүүлсэн
рүүлэн
рүүлэх
рөн
рөх
рөүз
рөүтер
рөүтерии
с
са
саа
саад
саадаг
саадгүи
саадтаи
саадыг
сааж
саажилт
саалии
сааль
саальчин
саам
саар
саарал
сааралдуу
саарах
саармаг
саармагжуулах
сааруулах
саарь
саатаж
саатал
саатах
саатуулах
саатуулж
саах
саахалт
сав
саваа
саваагүи
саваар
саван
савангии
саванд
савар
савах
савд
савдаг
савж
савлан
савлах
савнаас
савнаасаа
савны
савсаг
савтаи
савх
савхан
савханцар
савхи
савхин
савыг
савын
саг
сага
сагаг
сагагии
сагадаи
сагалдарга
саган
сагах
сагил
саглагар
сагнасан
сагс
сагсаи
сагсан
сагсанбөмбөгч
сагсгар
сагсуу
сагсуурах
сад
садаа
садан
садар
саддам
садны
сажиг
саи
саид
сакаи
сакраменто
саксон
саксоны
сал
салаа
салаад
салаалан
салаалж
салаалсан
салааны
салаатаи
салан
саланги
салангид
салах
салахгүи
салбар
салбараа
салбараар
салбараас
салбарлан
салбарласан
салбарт
салбартаа
салбартаи
салбарууд
салбаруудад
салбаруудыг
салбаруудын
салбарыг
салбарын
салгаж
салган
салгасан
салгах
салдаггүи
салж
салжээ
салсан
салст
салтаа
салхи
салхиар
салхигүи
салхии
салхилах
салхин
салхинаас
салхинд
салхины
салхит
салхитаи
салхич
салшгүи
сальвадор
сам
самар
самара
самарканд
самба
самбаа
самбааг
самбаатаи
самбаи
самбар
самбараас
самбарт
самбарыг
самбарын
самбо
самбуу
самбуугии
самгард
самгарди
самдан
самнах
самоа
сампдориа
сампин
самрын
самсаа
самсунг
самураи
самуун
самууны
самууныг
самуурах
самуэл
самуэль
сан
сана
санаа
санааг
санаагаа
санаагаар
санаагүи
санаад
санаанаас
санаанд
санаандаа
санаандгүи
санааны
санаархаж
санаархах
санаат
санаатаи
санаатан
санаачилга
санаачилгаар
санаачилгыг
санаачилж
санаачилсан
санаачлага
санаачлагаар
санаачлагч
санаачлагыг
санаачлан
санаачлах
санагдаж
санагдана
санагдах
санагддаг
санагдуулам
санадаг
санаж
санал
саналаа
саналаар
саналаас
саналтаи
саналыг
саналын
санамж
санамсаргүи
санан
санана
санасан
санасандаа
санаснаа
санах
санахгүи
санваар
санваартан
санг
сангаа
сангаар
сангаас
сангии
сангууд
сангуудын
сангүи
санд
сандаа
сандаг
сандагдорж
сандагии
сандаи
сандал
сандарвал
сандарсан
сандарч
сандерленд
сандерлэнд
сандлын
сандо
сандра
сандран
сандрах
сандруу
сандуи
санжаа
санжаагии
санжаадамба
санжии
санз
санкт
санс
сансар
сансарт
сансарын
санскрит
сансрын
сант
санта
сантаи
сантехникии
сантиметр
санто
сантос
сантьяго
сануулан
сануулах
сануулга
сануулж
сануулсан
санхүү
санхүүгии
санхүүждэг
санхүүжилт
санхүүжилтии
санхүүжилтээр
санхүүжүүлж
санхүүжүүлэх
санч
санчес
санчир
саны
саныг
саппоро
сар
сара
сараалж
сараар
сараас
саравч
саравчтаи
сараи
саран
саранд
сарантуяа
саратов
сарваи
сарвуу
сард
сарлаг
сарлагии
сармагчин
сарнаи
сарниж
сарнин
сарнисан
сарниулах
сарних
сарны
сарт
сартаг
сартаи
сартуул
саруудад
саруул
сархад
сархиаг
сархинаг
сарыг
сарын
сарьдаг
сарьс
сарьсан
сатурн
саудын
саутхемптон
сах
саха
сахал
сахалин
сахалт
сахалтаи
сахар
сахарын
сахигч
сахиж
сахил
сахилга
сахилгагүи
сахин
сахисан
сахиул
сахиулагч
сахиулах
сахиулахын
сахиус
сахиусан
сахиусны
сахих
сахлаа
сахлаг
сахлын
сацуу
сая
саяаас
саяар
саяас
саяд
саяны
саятан
саяхан
саяын
сболын
сбүүк
свен
свердловск
свифт
свич
свэр
сгз
сгэж
сгэн
сгэсэн
сгэх
сгүи
се
себастиан
себастьян
севенти
севилья
сегмент
сегментии
сегмэнтии
сеи
сек
секс
сексии
сектор
секторын
секунд
секундын
секундэд
секундээр
селевк
селен
селении
селтик
селтикс
сельских
семантик
семе
семинар
сен
сенат
сенатад
сенатор
сенатч
сенатын
сенегал
сенегалии
сении
сент
сер
серб
серби
сербии
сервер
серверии
серверт
сервертэи
серверээс
серверүүд
сервис
сервэр
сергеевич
сергеи
сери
сериал
серие
серии
серик
серия
серс
сертификат
си
сибирии
сибирь
сибирьт
сиг
сигнал
сиднеи
сии
силва
силези
силезии
симон
симпсон
симфони
симфонии
симфонио
син
синаи
сингапур
сингапурт
сингапурын
сингиоро
сингл
синглии
синглэ
синглээ
синглүүд
синдром
синтакс
синтез
синтетик
сир
сири
сирии
систем
системд
системии
системтэи
системээ
системээр
системээс
системүүд
системүүдии
системүүдэд
сити
ситигии
ситид
ситии
сититэи
сицилии
сиэтл
ск
скаи
скала
скан
скандал
скандинавын
ская
скии
скиф
ских
скои
скотт
скрипт
скудериа
слав
славян
слер
словак
словакии
словарь
словен
словени
словении
слол
слолд
слолоос
слолыг
слолын
слон
слох
служба
слэл
слэлд
слэлии
слэлтэи
слэлээ
слэлээр
слэлээс
см
смаи
смирнов
смит
смитии
смоленск
смоленскии
снаа
снаар
снаараа
снаас
снз
снии
сноос
снууд
сны
сныг
сных
сныхаа
снээ
снээр
снээс
со
советских
совин
сог
согд
согог
согоо
согтох
согтуу
согтууруулах
сод
содбилэг
содном
содномдорж
содномын
содов
содон
сое
сои
сократ
сократын
сол
солбицол
солгои
солженицын
солигддог
солигдож
солигдон
солигдоно
солигдох
солигдсон
солии
солилцдог
солилцож
солилцон
солилцоо
солилцоог
солилцоогоор
солилцоонд
солилцооны
солилцох
солилцсон
солин
солино
солио
солиот
солиотои
солир
солих
соло
соломоны
солон
солонго
солонгон
солонгос
солонгосоор
солонгосоос
солонгост
солонгосчууд
солонгосыг
солонгосын
солт
сольж
сольжээ
сольсон
сомали
сомалии
сон
сонат
сонг
сонгино
сонгинохаи
сонгов
сонгогддог
сонгогджээ
сонгогдов
сонгогдож
сонгогдон
сонгогдоно
сонгогдоод
сонгогдох
сонгогдсон
сонгогчдын
сонгодог
сонгож
сонгожээ
сонголт
сонголтоор
сонголттои
сонголтыг
сонголтын
сонгомол
сонгон
сонгонд
сонгоно
сонгосон
сонгох
сонгохдоо
сонгоход
сонгуулиар
сонгуулии
сонгууль
сонгуульд
сонгуульт
сонд
сондгои
сондоо
сондуул
сонин
сонинг
сонинд
сонинууд
сонины
сониныг
сонирхдог
сонирхлоо
сонирхлыг
сонирхлын
сонирхогч
сонирхогчдын
сонирхогчид
сонирхогчии
сонирхож
сонирхол
сонирхолгүи
сонирхолд
сонирхолтои
сонирхолыг
сонирхон
сонирхох
сонирхсон
сониуч
соном
сономын
сонор
сонорт
сонс
сонсгол
сонсголонтои
сонсголын
сонсгох
сонсдог
сонсдох
сонсогдож
сонсогдох
сонсогч
сонсогчдод
сонсогчдын
сонсож
сонсон
сонсоно
сонсоод
сонсох
сонсоход
сонссон
сонссоноо
соо
соор
соороо
сопрано
сор
сорви
соргог
сорж
сорил
сорилт
сорилын
сорин
сорих
сормуус
сорогч
соронз
соронзны
соронзон
соронзонболд
сорос
сорох
сорт
сортои
сортын
соруул
сорхон
сорьж
сорьсон
сорьц
сосорбарам
состав
сосьедад
сото
софи
сох
сохе
сохор
социал
социализм
социализмын
социалист
социологи
социологии
сочи
сочии
сошиал
союз
спаи
спарта
спартак
спартакиадын
спб
спе
спектр
спектрии
спенсер
спилберг
спирт
спиртии
спорт
спортинг
спортод
спортоор
спортыг
спортын
спурс
сс
ссан
ссср
ст
ста
ставрополии
стаи
сталин
сталинградын
сталинд
сталины
стамбул
стандарт
стандартаар
стандартад
стандартууд
стандартчилагдсан
стандартыг
стандартын
станислав
станц
станцаас
станцад
станцтаи
станцууд
станцыг
станцын
стар
старт
статемент
статементии
статик
статикии
статистик
статистика
статистикии
статус
статустаи
статусыг
статья
стеи
стек
стекии
степан
стер
стерлинг
стерлингии
стерлингээр
стефан
стефен
стив
стивен
стилии
стиль
стнии
стои
сток
стокгольм
стокхольм
стоун
стр
стратеги
стратегии
стресс
стрессии
стрии
студи
студид
студии
студитэи
стэи
стэн
стэнли
стэнфорд
стэнфордын
стюарт
су
суарес
субъект
субъектив
суваг
сувагт
сувагтаи
суваи
суварга
сувгаар
сувгии
сувгууд
сувд
сувдаг
сувдан
сувилагч
сувилал
сувилах
сувилгаа
сувиллын
суврага
суга
сугаи
сугалах
суганд
сугар
сугас
судал
судалгаа
судалгааг
судалгаагаар
судалгаанаас
судалгаанд
судалгаанууд
судалгааны
судалдаг
судалж
судалжээ
судална
судалсан
судалсны
судалт
судалтаи
судан
суданы
судар
сударт
судас
судасны
судлаад
судлаач
судлаачдын
судлаачид
судлаачии
судлагдаагүи
судлагдаж
судлагдахуун
судлагдсан
судлагч
судлаж
судлал
судлалаар
судлалд
судлалыг
судлалын
судлан
судлана
судлах
судлахаар
судлахад
судлахын
судрыг
судрын
судсаар
судсанд
судсыг
суздалии
суздаль
суи
суис
сул
суларсан
суларч
сулеи
суллагдсан
суллаж
суллан
суллах
сулран
сулрах
сулруулах
сулруулж
сулруулсан
султаи
султан
султант
султаны
сулхан
сульдах
сульфат
сульфид
сум
сумаа
сумаар
сумаас
суман
сумангии
суманд
сумандаа
суманчулуун
суматра
сумд
сумдаар
сумдад
сумдтаи
сумдыг
сумдын
сумнаас
сумны
сумо
сумтаи
сумууд
сумъяа
сумъяабаатар
сумыг
сумын
сумынхаа
сун
сунадаг
сунаж
сунаи
сунан
сунасан
сунах
сунгаанд
сунгав
сунгаж
сунган
сунгасан
сунгах
сундуи
суне
сунжирсан
суннит
сунь
суонси
супер
сур
сураагүи
сураад
сураар
сураг
сураггүи
сурагч
сурагчдад
сурагчдыг
сурагчдын
сурагчид
сурагчии
сурагчтаи
суралцаад
суралцагч
суралцаж
суралцан
суралцах
суралцахаар
суралцдаг
суралцжээ
суралцсан
сурамгаи
суран
сурах
сурахаар
сурахад
сурахгүи
сурвал
сурвалж
сурвалжаас
сурвалжид
сурвалжии
сурвалжилга
сурвалжилсан
сурвалжит
сурвалжлага
сурвалжлагч
сурвалжлагчаар
сурвалжлан
сурвалжлах
сурвалжууд
сурвалжуудад
сурга
сургаал
сургаалии
сургаалыг
сургаалын
сургааль
сургагч
сургадаг
сургаж
сургалт
сургалтаар
сургалтад
сургалтанд
сургалттаи
сургалтыг
сургалтын
сургамж
сурган
сургасан
сургах
сургуулиа
сургуулиас
сургуулиасаа
сургуулии
сургуулилт
сургуулиуд
сургуулиудад
сургуулиудыг
сургуулиудын
сургууль
сургуульд
сургуульдаа
сургуультаи
сурдаг
сурж
суринам
сурлага
сурна
сурсан
суртал
сурталтаи
сурталчилах
сурталчилгаа
сурталчилгааг
сурталчилгаанд
сурталчилгааны
сурталчилж
сурталчилсан
сурталчлан
сурталчлах
суртахуун
суртахууны
суртлыг
суртлын
сурч
сурчээ
сурыг
сурын
сутаи
суу
суув
суувал
суугаа
суугаагүи
суугаад
суугч
суугчдыг
суугчдын
суугчид
суугчтаи
суудаг
суудал
суудалд
суудалтаи
суудлаа
суудлаас
суудлыг
суудлын
сууж
суужээ
суулга
суулгаад
суулгав
суулгадаг
суулгаж
суулгажээ
суулган
суулгана
суулганы
суулгасан
суулгах
суулгахаар
суулгахад
суулгац
суулт
суун
сууна
сууриа
суурии
суурилагдсан
суурилан
суурилах
суурилдаг
суурилж
суурилсан
суурилуулах
суурилуулж
суурилуулсан
суурин
сууринаас
сууринг
суурингии
суурингууд
сууринд
суурины
суурь
суурьт
суурьтаи
суурьшдаг
суурьшжээ
суурьшигчид
суурьшиж
суурьшил
суурьшин
суурьших
суурьшмал
суурьшсан
суусаар
суусан
суусар
сууснаар
суусны
суут
суух
суухаар
суухад
суухгүи
суухдаа
суухыг
суухын
сууц
сууцанд
сууцны
сууцыг
сухаи
суэции
сх
схем
схемии
схии
сч
счлон
сыг
сыма
сын
сырдарья
сычуань
сьерра
сэ
сэв
сэвгүи
сэвии
сэврэи
сэвс
сэвсгэр
сэвтэи
сэвх
сэвэгзарам
сэг
сэгсгэр
сэгсии
сэгсрэх
сэдвии
сэдвээр
сэдвүүд
сэдвүүдии
сэдрэх
сэдэв
сэдэвлэн
сэдэвлэсэн
сэдэвт
сэдэвтэи
сэдэвчилсэн
сэдэж
сэдэл
сэдэх
сэжиг
сэжиглэж
сэжиглэх
сэжигтнии
сэжигтэи
сэжигтэн
сэжун
сэжүүр
сэи
сэк
сэл
сэлбэг
сэлбэн
сэлбэх
сэлгэж
сэлгэн
сэлгэх
сэлгээ
сэлгээгээр
сэлгээнд
сэлгээнии
сэлгээнээс
сэлж
сэлмии
сэлт
сэлтии
сэлэгч
сэлэлт
сэлэлтии
сэлэм
сэлэнгии
сэлэнгэ
сэлэх
сэлүүр
сэм
сэмж
сэмхэн
сэмюэл
сэн
сэнгэ
сэнгээ
сэнд
сэндии
сэнж
сэнжит
сэнс
сэнт
сэнтии
сэр
сэрвии
сэрвэгэр
сэргии
сэргэг
сэргэж
сэргэлт
сэргэлэн
сэргэн
сэргэсэн
сэргэх
сэргээгдэх
сэргээж
сэргээжээ
сэргээн
сэргээсэн
сэргээх
сэргээхии
сэргээхэд
сэргээш
сэргээшии
сэрж
сэрии
сэртэн
сэрэгдэх
сэрэл
сэрэмж
сэрэмжлэх
сэрэмжтэи
сэрэх
сэрээ
сэрээтэр
сэрүү
сэрүүн
сэт
сэтгэгдэл
сэтгэгч
сэтгэж
сэтгэл
сэтгэлгээ
сэтгэлгээг
сэтгэлгээнии
сэтгэлгүи
сэтгэлд
сэтгэлдээ
сэтгэлзүи
сэтгэлии
сэтгэлт
сэтгэлтэи
сэтгэлээ
сэтгэлээр
сэтгэлээс
сэтгэлээсээ
сэтгэмж
сэтгэн
сэтгэх
сэтгэхүи
сэтгэц
сэтгэции
сэтгүүл
сэтгүүлд
сэтгүүлзүи
сэтгүүлии
сэтгүүлч
сэтгүүлчдии
сэтгүүлчид
сэтгүүлчии
сэтгүүлээс
сэтгүүлүүд
сэтлэн
сэтэрхии
сэх
сэхэх
сэхээ
сэхээтнии
сэхээтнүүд
сэхээтнүүдии
сэхээтэн
сэцэн
сэцэнии
сээр
сю
сюань
сюи
ся
сян
сянь
сяньби
сяньбии
сяо
сяопин
сү
сүбэдэи
сүбээдэи
сүв
сүвии
сүвээ
сүвээр
сүг
сүжигт
сүи
сүлбээ
сүлд
сүлдии
сүлднии
сүлжиж
сүлжин
сүлжих
сүлжмэл
сүлжсэн
сүлжээ
сүлжээг
сүлжээгээр
сүлжээн
сүлжээнд
сүлжээнии
сүлжээнээс
сүлжээнүүд
сүлжээнүүдии
сүлжээтэи
сүм
сүмбэ
сүмбэр
сүмбээ
сүмд
сүмии
сүмо
сүмогии
сүмоч
сүмээс
сүмүүд
сүмүүдии
сүн
сүнс
сүнсии
сүнснии
сүнснүүд
сүнстэи
сүнь
сүр
сүргии
сүргээ
сүргээс
сүргээсээ
сүрдүүлж
сүрдүүлэх
сүржин
сүрии
сүрлэг
сүртэи
сүрхии
сүрьеэ
сүрьеэгии
сүрэг
сүрэглэн
сүрэгт
сүрэл
сүрэн
сүрэнгии
сүрэнжав
сүрэнхорлоо
сүсэг
сүсэглэн
сүсэгт
сүсэгтэн
сүх
сүхбаатар
сүхбаатарын
сүхбат
сүхнии
сүхээ
сүхээр
сүү
сүүг
сүүгээр
сүүдрии
сүүдэр
сүүдэрт
сүүдэртэи
сүүж
сүүл
сүүлгүи
сүүлд
сүүлдээ
сүүлии
сүүлнии
сүүлт
сүүлтэи
сүүлч
сүүлчии
сүүлчээр
сүүлчээс
сүүлээ
сүүлээр
сүүлээс
сүүмгэр
сүүн
сүүнд
сүүнии
сүүнээс
сүүтэи
сөг
сөд
сөл
сөн
сөнид
сөнөд
сөнөсөн
сөнөх
сөнөөв
сөнөөгч
сөнөөж
сөнөөх
сөргүүлэн
сөргөлдөгч
сөргөлдөөн
сөргөөр
сөрж
сөрөг
сөрөн
сөрөх
сөх
сөхөж
сөхөх
сөүл
сөүлд
сөүлии
сөөг
сөөгөнцөр
сөөм
сөөр
т
та
таа
таавар
таагүи
тааж
тааз
таалагдаагүи
таалагдсан
таалал
тааламжгүи
тааламжтаи
таалах
таамаг
таамагладаг
таамаглаж
таамаглал
таамаглалыг
таамагласан
таамаглах
таана
таар
тааралдаж
тааралдана
тааралдах
тааралддаг
тааралдсан
таарамж
таарамжгүи
тааран
таарах
таарахгүи
таарвал
таардаг
таарна
таарсан
тааруу
тааруулан
тааруулах
тааруулж
тааруухан
таарч
таас
таатаи
таах
таахаи
тааш
таашаал
таашаасан
таблет
тав
таваар
таваарын
таваас
таваг
таван
тавантолгои
тавгии
тавгүи
тавд
тавдугаар
тавдугаарт
тавиад
тавибал
тавив
тавигдав
тавигдаж
тавигдах
тавигддаг
тавигджээ
тавигдсан
тавигч
тавилан
тавилангии
тавилантаи
тавилга
тавин
тавина
тавиу
тавиулах
тавиун
тавиур
тавих
тавихаар
тавихад
тавихгүи
тавихыг
тавлах
тавнан
тавны
тавтаи
тавтиргүи
тавхаи
тавцан
тавцангии
тавцанд
тавын
тавь
тавьдаг
тавьдаггүи
тавьж
тавьжээ
тавьсан
тавьснаар
таг
тагдгар
тагии
таглаа
таглах
тагна
тагнаи
тагнан
тагнах
тагнуул
тагнуулч
тагнуулын
тагнын
тагт
тагтаа
тагш
тад
таж
тажик
тажикистан
тажикистаны
таи
так
такси
таксины
такт
тактик
тактикии
тал
талаа
талаар
талаараа
талаарх
талаархи
талаас
талаасаа
талархаг
талархаж
талархал
талархан
талархлыг
талархлын
талас
талбаи
талбар
талбараас
талбарт
талбарыг
талбарын
талбиу
талд
талдаа
талибан
талии
таллан
таллин
талст
талт
талтаи
талууд
талуудад
талуудтаи
талуудыг
талуудын
талх
талхны
талыг
талын
талынхан
там
тама
тамга
тамгагүи
тамганы
тамгатаи
тамгыг
тамгын
тамил
тамир
тамирчдаас
тамирчдыг
тамирчдын
тамирчид
тамирчин
тамирчнаар
тамирчны
тамирын
тамлан
тамтаг
тамхи
тамхии
тамхинд
тамхины
тамын
тан
тана
танаас
танаи
танака
танан
тангад
тангадын
тангараг
тангаргаа
тангаргии
тангии
тангуд
тангудыг
тангудын
танд
тандан
тандах
тандер
танзани
тани
танигдаж
танигдана
танигдах
танигдсан
танигч
таниж
танил
танилт
танилтын
танилцаад
танилцаж
танилцан
танилцах
танилцжээ
танилцсан
танилцуулав
танилцуулан
танилцуулах
танилцуулга
танилцуулж
танилцуулжээ
танилцуулсан
танин
танина
таниулан
таниулах
таниулж
таниулсан
таних
танихад
танихгүи
танк
танкии
танкны
танкууд
тансаг
танхаи
танхи
танхил
танхим
танхимаас
танхимд
танхимт
танхимтаи
танхимыг
танхимын
таны
таныг
тань
таньдаг
таньж
таньшихуаи
тао
тар
тараадаг
тарааж
тараан
тараана
тараасан
тараах
тараг
тарагт
таран
тарах
тарвага
тарваган
тарваганы
тарвагатаи
тарвас
тарга
таргалах
таргалахгүи
таргалж
тарган
таргии
тарж
тариа
тариаг
тариалалт
тариалан
тариаланг
тариалангии
тариаланд
тариаланч
тариалах
тариалдаг
тариалж
тариалсан
тариан
тарианы
тариат
тариатын
тариачдын
тариачид
тариачин
тариачны
таривал
тарилга
тарилгын
таримал
тарих
тарлан
тармаг
тармуур
тарна
тарни
тарнии
таро
тарсан
таруу
тархаж
тархаи
тархалт
тархалттаи
тархалтыг
тархалтын
тархан
тархана
тархах
тархац
тархдаг
тархжээ
тархи
тархии
тархинд
тархины
тархмал
тархсан
тарчиг
тарчлаан
тарьж
тарьсан
тас
тасаг
тасагт
тасалбар
тасалгаа
тасалгаанд
тасалгааны
тасалдал
тасалдах
тасалдсан
тасалж
тасалсан
тасарсан
тасархаи
тасарч
тасгии
тасдан
таслал
таслалт
таслан
таслах
тасралтгүи
тасран
тасрах
тасрахгүи
тасс
тат
тата
татаад
татаар
татаас
татав
татагдаж
татагдан
татагдах
татагддаг
татагдсан
татаж
таталт
таталцлын
татам
татан
татар
татарстан
татарууд
татарын
татах
татахад
татахуи
татахыг
татахын
татвал
татвар
татвараас
татварыг
татварын
татгалзав
татгалзаж
татгалзан
татгалзах
татгалзжээ
татгалзсан
татдаг
татжээ
татлага
татна
татрах
татсан
татуу
татуулах
татьяна
таун
тафт
тах
тахал
тахиа
тахианы
тахидаг
тахиж
тахии
тахил
тахилга
тахилгат
тахилгатаи
тахилгын
тахилч
тахилын
тахин
тахир
тахих
тахлын
тахь
тачаал
тачаангуи
тачир
ташаа
ташаанд
ташиж
таших
ташкент
ташуу
ташуур
ташуураар
ташуурын
таяг
таян
тбб
тбилиси
тбилисии
тбү
тв
тверь
твиттер
творчества
тгар
тгэгдсэн
тгэгдэж
тгэгч
тгэдэг
тгэж
тгэжээ
тгэл
тгэлии
тгэн
тгэр
тгэсэн
тгэх
тгүүлсэн
тдээ
те
театр
театрт
театруудад
театрыг
театрын
тег
тегеран
тегин
тед
тедад
тедии
теи
текст
текстии
тектоник
тектоникии
тел
теле
телевиз
телевизии
телевизор
телевизэд
телевизээр
телеграф
телеграфын
телекино
телефон
телефоны
тель
температур
температураас
температурт
температуртаи
температурыг
температурын
теннесси
теннис
тенниснии
теннисч
теннисчин
тенор
теодор
теорем
теоремыг
тер
тереза
терминал
термодинамик
термодинамикии
терри
территориальное
терроризм
терроризмын
террорист
тесла
тест
тестии
тех
техас
техасын
техник
техникии
техникт
техниктэи
техникум
техникумд
техникч
техникээр
техникүүд
техникүүдии
технологи
технологид
технологии
технологиор
технологитои
технологиуд
технологич
тжээ
ти
тив
тивд
тивии
тивээс
тиг
тигр
тигран
тии
тим
тимбервулвз
тимор
тимоти
тинг
тип
тирозин
тис
титан
титаник
титмии
тито
титэм
тлаа
тлэг
тлэгдсэн
тлэгдэж
тлэгч
тлэл
тлэлд
тлэлии
тлэлч
тлэлүүд
тлэх
тлүүлсэн
тн
тнии
тно
тнууд
тнуудын
тны
тнээс
то
тоба
тобагии
тобаго
тоби
тов
товгор
товлосон
товои
товон
товрог
товруу
товх
товхимол
товч
товчид
товчии
товчилж
товчилсон
товчлол
товчлон
товчлох
товчлуур
товчоо
товчоог
товчоон
товчоонд
товчооны
товчоор
товчхон
товшуур
тог
тогл
тоглов
тоглогдож
тоглогдсон
тоглогч
тоглогчдыг
тоглогчдын
тоглогчид
тоглогчии
тоглогчоор
тоглодог
тоглож
тогложээ
тоглолт
тоглолтод
тоглолтонд
тоглолтондоо
тоглолтоо
тоглолтоор
тоглолтоороо
тоглолтоос
тоглолтууд
тоглолтуудад
тоглолтуудыг
тоглолтуудын
тоглолтыг
тоглолтын
тоглон
тоглоно
тоглоод
тоглоом
тоглоомд
тоглоомнууд
тоглоомны
тоглоомонд
тоглоомоор
тоглоомууд
тоглоомыг
тоглоомын
тоглосон
тоглосоор
тоглох
тоглохдоо
тоглоход
тоглохоор
тоглохыг
тоглуулагч
тоглуулах
тоглуулж
тоглуулсан
того
тоголсон
тогоо
тогоон
тогоонд
тогоонтөмөр
тогооны
тогоотои
тогооч
тогоруу
тогос
тогосын
тогтвор
тогтворгүи
тогтвортои
тогтдог
тогтжээ
тогтлыг
тогтмол
тогтнов
тогтнож
тогтножээ
тогтнол
тогтнолоо
тогтнолыг
тогтнолын
тогтносны
тогтносон
тогтнох
тогтноход
тогтов
тогтож
тогтол
тогтолтои
тогтолцоо
тогтолцоог
тогтолцоонд
тогтолцооны
тогтолцоотои
тогтон
тогтоно
тогтоов
тогтоогджээ
тогтоогдоогүи
тогтоогдсон
тогтоогоогүи
тогтоогоод
тогтоогч
тогтоод
тогтоодог
тогтоож
тогтоожээ
тогтоол
тогтоолд
тогтоолоор
тогтоолт
тогтоолыг
тогтоолын
тогтоомж
тогтоомжид
тогтоомжии
тогтоон
тогтооно
тогтоосноор
тогтоосны
тогтоосон
тогтоох
тогтоохдоо
тогтооход
тогтоохоор
тогтоохыг
тогтоохын
тогтох
тогтохгүи
тогтохын
тогтоц
тогтоцтои
тогтсон
тогтуун
тод
тодоор
тодордог
тодорсон
тодорхои
тодорч
тодорчээ
тодотгож
тодотгол
тодотголтои
тодотгон
тодотгох
тодров
тодрон
тодрох
тодруулан
тодруулах
тодруулахад
тодруулбал
тодруулдаг
тодруулж
тодруулсан
тое
тож
тои
токен
токио
токиогии
токиод
тол
толбо
толбот
толботои
толгод
толгодын
толгои
толигор
толии
толилуулсан
толин
толинд
толины
толстои
толуи
толь
тольд
том
томас
томд
томдох
томе
томилдог
томилж
томилжээ
томилно
томилов
томилогджээ
томилогдов
томилогдож
томилогдон
томилогдоод
томилогдсон
томилолт
томилолтоор
томилон
томилох
томилсон
томми
томоо
томоогүи
томоор
томоотои
томоохон
томоохонд
томорсон
томорч
томох
томпсон
томрох
томруун
томск
томсон
томтои
томуу
томхон
томшгүи
томъе
томье
тон
тонга
тонгои
тонгорог
тони
тонн
тоног
тоноглогдсон
тоноглол
тонон
тонуул
тонхил
тоншуул
тоньюкук
тоо
тоог
тоогоор
тоогоороо
тоогүи
тоодог
тоож
тоолбол
тоолдог
тоолж
тооллого
тооллогоор
тооллогын
тооллоор
тооллыг
тооллын
тоологдох
тоологдсон
тоолол
тоололд
тоолох
тоолуур
тоомсорлох
тоон
тоонд
тооно
тоонолжин
тоононы
тооноос
тоонууд
тоонуудыг
тоонуудын
тооны
тоор
тоорил
тоормосны
тоорои
тоорцог
тоос
тоосго
тоосгон
тоосгоны
тоосны
тоосон
тоосонцор
тоосыг
тоот
тоотои
тоох
тоохгүи
тооцвол
тооцдог
тооцно
тооцогддог
тооцогдож
тооцогдоно
тооцогдох
тооцож
тооцон
тооцоо
тооцоог
тооцоогоор
тооцоогүи
тооцоолдог
тооцоолж
тооцооллыг
тооцооллын
тооцоолол
тооцоолон
тооцоолох
тооцоолоход
тооцоолсон
тооцоолуур
тооцоонд
тооцооны
тооцох
тооцохгүи
тооцоход
тооцсон
тоочин
тоочих
топ
топологи
топологии
тор
торго
торгож
торгомсог
торгон
торгоны
торгоор
торгох
торгууд
торгуудууд
торгуудын
торгуулии
торгууль
тордох
торж
тори
торино
торлог
торних
торны
торо
торои
торон
торонто
торох
торрес
тортог
торх
торын
тос
тосгодыг
тосгон
тосгонд
тосгоноос
тосгоны
тосгоныг
тосгуур
тослог
тослох
тосны
тосон
тосонд
тосонцэнгэл
тосоор
тосох
тост
тостои
тосч
тосыг
тотго
тотгор
тоттенхэм
тоть
тох
тохижуулах
тохилог
тохинох
тохинуулах
тохиож
тохиол
тохиолддог
тохиолдлоор
тохиолдлууд
тохиолдлыг
тохиолдлын
тохиолдож
тохиолдол
тохиолдолд
тохиолдоно
тохиолдох
тохиолдоход
тохиолдсон
тохиолдуулан
тохиосон
тохиох
тохиргоо
тохиргоог
тохиргооны
тохирдог
тохиролцжээ
тохиролцов
тохиролцож
тохиролцон
тохиролцоо
тохиролцоонд
тохиролцооны
тохиролцох
тохиролцсон
тохиромжгүи
тохиромжтои
тохироо
тохирох
тохирохгүи
тохирсон
тохируулагдсан
тохируулагч
тохируулан
тохируулах
тохируулга
тохируулгын
тохируулдаг
тохируулж
тохируулна
тохируулсан
тохирч
тохож
тохои
тохом
тохоон
тохох
тохта
тохтамыш
тохуу
тохуурхах
тохь
тошлои
тр
траи
трактор
тракторч
тракторын
трамваи
тран
транзистор
транс
транскрипции
траффикии
треи
трест
триггер
триггерии
трик
триллер
триллион
тринидад
трипл
трои
троллеи
трон
троны
тропикии
троцкии
трумэн
трусевич
трэи
трэх
тс
тсан
тсон
тсэн
ттэи
ту
тува
тувагии
тувалу
туг
тугаи
тугал
тугалаа
тугалга
тугалгаар
тугалган
тугалганы
тугалын
тугии
туз
туи
тул
тула
тулаад
тулаан
тулаанаа
тулаанд
тулаант
тулаанч
тулааны
тулааныг
тулалдаан
тулалдаанаар
тулалдаанаас
тулалдаанд
тулалдааны
тулалдааныг
тулалдав
тулалдаж
тулалдан
тулалдах
тулалддаг
тулалджээ
тулалдсан
тулалдсаны
тулам
тулан
тулах
тулахад
тулга
тулгаа
тулгаж
тулгамдсан
тулган
тулганы
тулгар
тулгаралт
тулгаран
тулгарах
тулгардаг
тулгарсан
тулгарч
тулгасан
тулгах
тулгуур
тулгуурладаг
тулгуурлаж
тулгуурлан
тулгуурласан
тулгуурт
тулгууртаи
тулгуурын
тулгын
тулд
тулж
тулсан
тултал
тулуи
тум
тун
тунадас
тунадасны
тунадастаи
тунаж
тунамал
тунасан
тунг
тунгааж
тунгаан
тунгаар
тунгаах
тунгалаг
тунгалгии
тунгус
тундр
тунирхах
тунис
тунисын
туннель
тунх
тунхаг
тунхаглав
тунхаглаж
тунхаглажээ
тунхаглал
тунхаглалд
тунхаглалыг
тунхаглан
тунхагласан
тунхагласны
тунхагт
туполев
тур
тураг
туранхаи
турах
турбин
турбины
турбо
туре
турж
турин
турины
турк
туркестан
туркестаны
туркии
туркмен
туркменистан
туркменистаны
туркт
туруу
турхан
турш
туршдаа
туршид
туршиж
туршии
туршилт
туршилтаар
туршилтууд
туршилтыг
туршилтын
туршин
турших
туршлага
туршлагаа
туршлагаас
туршлагагүи
туршлагад
туршлагатаи
туршлагыг
туршлагын
туршуул
турь
тус
тусаа
тусагдахуун
тусад
тусаж
тусалдаг
тусалж
тусалжээ
тусална
тусалсан
тусам
тусах
тусгаар
тусгаарлагдсан
тусгаарлагч
тусгаарлаж
тусгаарлан
тусгаарласан
тусгаарлах
тусгагдсан
тусгадаг
тусгаж
тусгажээ
тусгаи
тусгал
тусгалаа
тусган
тусгасан
тусгах
тусгүи
тусдаа
тусдаг
тусивахын
туслагч
тусладаг
туслаж
туслалцаа
туслалцаатаи
туслалцах
тусламж
тусламжаар
тусламжии
тусламжтаи
туслан
туслана
туслах
туслахаар
туслахыг
тусмаа
туссан
тустаи
тусч
тусыг
тусын
тутам
тутамд
тутарга
тутмын
туу
тууд
туудыг
тууж
туужии
тууз
туул
туулаи
туулан
туулах
туулахад
туулж
туулжээ
туулии
туулсан
туулын
тууль
туульс
туульсын
туульч
туур
туураи
тууралт
туурвидаг
туурвиж
туурвижээ
туурвил
туурвин
туурвисан
туурвих
туурга
туурганы
туургатан
туургатны
туурии
туурь
туух
туухаи
тууш
тууштаи
тух
тухаи
тухачевскии
тухн
тухтаи
тушаа
тушаав
тушааж
тушаажээ
тушаал
тушаалаа
тушаалаар
тушаалаас
тушаалаасаа
тушаалд
тушаалтаи
тушаалтан
тушаалтнууд
тушаалтны
тушаалтныг
тушаалыг
тушаалын
тушаасан
тушаах
туяа
туяаг
туяанд
туяаны
туяатаи
туялзуур
туяхан
тх
тш
тыг
тын
тьерри
тэ
тэв
тэвдэх
тэвдүү
тэвнэ
тэврэх
тэвх
тэвхгэр
тэвчиж
тэвчих
тэвчээр
тэвчээртэи
тэвш
тэвээрэг
тэг
тэгвэл
тэгж
тэгнэх
тэгсэн
тэгтэи
тэгтэл
тэгш
тэгшгүи
тэгшитгэл
тэгшитгэлии
тэгшлэн
тэгшлэх
тэгшхэн
тэгшээ
тэгэх
тэгэхдээ
тэгэхлээр
тэгэхэд
тэгэхээр
тэгээд
тэд
тэдгээр
тэдгээрии
тэдгээрт
тэдгээрээс
тэднии
тэднээс
тэдэн
тэдэнд
тэдэнтэи
тэж
тэжу
тэжээвэл
тэжээвэр
тэжээдэг
тэжээж
тэжээл
тэжээлд
тэжээлии
тэжээллэг
тэжээлт
тэжээлтэи
тэжээлтэн
тэжээлээ
тэжээлээр
тэжээмэл
тэжээн
тэжээсэн
тэжээх
тэи
тэл
тэлдэг
тэлж
тэлжээ
тэлмэн
тэлсэн
тэлсээр
тэлэлт
тэлэх
тэлээ
тэм
тэмбүү
тэмбүүгии
тэмбүүнцэр
тэмдгии
тэмдгээр
тэмдгүүд
тэмдгүүдии
тэмдэг
тэмдэггүи
тэмдэгии
тэмдэглэв
тэмдэглэгддэг
тэмдэглэгджээ
тэмдэглэгдсэн
тэмдэглэгдэж
тэмдэглэгдэн
тэмдэглэгдэх
тэмдэглэгээ
тэмдэглэгээг
тэмдэглэгээнии
тэмдэглэгээтэи
тэмдэглэдэг
тэмдэглэж
тэмдэглэжээ
тэмдэглэл
тэмдэглэлд
тэмдэглэлии
тэмдэглэлт
тэмдэглэлээс
тэмдэглэлүүд
тэмдэглэн
тэмдэглэнэ
тэмдэглэснээр
тэмдэглэсэн
тэмдэглэх
тэмдэглэхдээ
тэмдэглэхэд
тэмдэгт
тэмдэгтии
тэмдэгтэи
тэмдэгтээр
тэмдэгтүүд
тэмдэгтүүдии
тэмтрэх
тэмцдэг
тэмцлии
тэмцлээ
тэмцсэн
тэмцсээр
тэмцэгч
тэмцэж
тэмцэл
тэмцэлд
тэмцэлдэж
тэмцэлдэх
тэмцэн
тэмцэх
тэмцэхии
тэмцэхэд
тэмцээн
тэмцээнд
тэмцээнии
тэмцээнээ
тэмцээнээс
тэмцээнүүд
тэмцээнүүдии
тэмцээнүүдэд
тэмээ
тэмээг
тэмээгээр
тэмээн
тэмээнд
тэмээнии
тэмээнээс
тэмээтэи
тэмээчин
тэмүгэ
тэмүжин
тэмүжинг
тэмүжинии
тэмүүжин
тэмүүлж
тэмүүлэл
тэмүүлэн
тэмүүлэх
тэн
тэнгии
тэнгис
тэнгисии
тэнгист
тэнгистэи
тэнгисээр
тэнгисээс
тэнгэр
тэнгэрии
тэнгэрлэг
тэнгэрт
тэнгэртэи
тэнгэрээс
тэнд
тэндгүи
тэндхии
тэндээ
тэндээс
тэндээсээ
тэнии
тэнсэн
тэнхим
тэнхимд
тэнхимии
тэнхлэг
тэнхлэгии
тэнхлэгт
тэнхлэгтэи
тэнхлүүн
тэнхмии
тэнхэл
тэнхээ
тэнхээгүи
тэнхээтэи
тэнцвэр
тэнцвэргүи
тэнцвэрии
тэнцвэрт
тэнцвэртэи
тэнцсэн
тэнцэж
тэнцэл
тэнцэн
тэнцэнэ
тэнцэтгэл
тэнцэх
тэнцэхүи
тэнцээ
тэнцүү
тэнцүүлж
тэнцүүлэн
тэнэг
тэнэгэр
тэнэмэл
тэнэх
тэнүүлч
тэнүүн
тэнүүчлэн
тэр
тэрбум
тэрбумтан
тэрбээр
тэргии
тэргэл
тэргэнд
тэргээр
тэргүүлдэг
тэргүүлж
тэргүүлжээ
тэргүүлсэн
тэргүүлэгч
тэргүүлэгчдии
тэргүүлэгчид
тэргүүлэгчээр
тэргүүлэгчээс
тэргүүлэн
тэргүүлэх
тэргүүн
тэргүүнд
тэргүүнии
тэргүүнээ
тэргүүнээр
тэргүүнүүдии
тэргүүтнии
тэргүүтэи
тэргүүтэн
тэрии
тэрлэг
тэрнии
тэрс
тэрслэх
тэртээ
тэртээгээс
тэртээд
тэртээх
тэрхии
тэрхүү
тэрч
тэрчлэн
тэрэг
тэрэгнии
тэрэгтэи
тэрээр
тэс
тэсвэр
тэсвэрлэж
тэсвэрлэх
тэсвэртэи
тэсии
тэсрэг
тэсрэгч
тэсрэлт
тэсрэлтии
тэсрэх
тэсч
тэсэж
тэтгэврии
тэтгэвэр
тэтгэвэрт
тэтгэвэртээ
тэтгэгч
тэтгэж
тэтгэлгээр
тэтгэлэг
тэтгэлэгт
тэтгэмж
тэтгэн
тэтгэсэн
тэтгэх
тэтчер
тэх
тэхии
тэшиг
тэшүүр
тэшүүрии
тэшүүрчин
тээ
тээврии
тээвэр
тээвэрлэгч
тээвэрлэдэг
тээвэрлэж
тээвэрлэлт
тээвэрлэлтии
тээвэрлэх
тээвэрт
тээвэрчин
тээг
тээглэх
тээгч
тээж
тээл
тээн
тээнэгэлзэх
тээр
тээрмии
тээрэм
тээрээ
тээс
тээх
тээш
тюринг
тянь
тү
түвд
түвдии
түвдэд
түвшин
түвшинбаяр
түвшинг
түвшингии
түвшингээс
түвшинд
түвшинии
түвшинтэи
түвшнии
түвшнээр
түвшнээс
түвэгтэи
түг
түгж
түгжих
түгжээ
түгсэн
түгших
түгшүүр
түгшүүрии
түгшүүртэи
түгэн
түгэх
түгээгч
түгээгүүр
түгээгүүрии
түгээдэг
түгээж
түгээмэл
түгээн
түгээх
түдэв
түдэвии
түдэвтэи
түи
түлж
түлсэн
түлхэж
түлхэлт
түлхэлтии
түлхэн
түлхэх
түлхэц
түлхүү
түлхүүр
түлхүүрии
түлхүүртэи
түлхүүрээр
түлхүүрүүд
түлхүүрүүдии
түлш
түлшинд
түлшнии
түлэгдсэн
түлэх
түлээ
түм
түмнии
түмнээ
түмнээс
түмнүүдии
түмт
түмтии
түмэд
түмэдии
түмэн
түмэнд
түмэндэмбэрэл
түмэндээ
түмэнжаргал
түмэнтэи
түн
түнжин
түнтгэр
түнш
түншлэл
түншлэлии
түнэр
түр
түргэн
түргэнии
түрж
түрии
түрк
түрлэг
түрс
түрхэж
түрхэх
түрэг
түрэгии
түрэгүүд
түрэгүүдии
түрэлт
түрэлтии
түрэмгии
түрэн
түрэх
түрээ
түрээс
түрээсии
түрээслэх
түрүү
түрүүг
түрүүгээ
түрүүлж
түрүүлжээ
түрүүлснээр
түрүүлсэн
түрүүлэв
түрүүлэн
түрүүлэх
түрүүлэхэд
түрүүлээд
түрүүн
түрүүнд
түрүүнии
түрүүтэи
түрүүч
түрүүчии
түц
түшиг
түшиглэн
түшиглэсэн
түшиж
түшин
түших
түшиц
түшмэд
түшмэдии
түшмэл
түшмэлд
түшмэлии
түшмэлээр
түшээ
түшээт
түү
түүврии
түүвэр
түүвэрлэн
түүгээр
түүгээрээ
түүдэг
түүж
түүн
түүнд
түүндээ
түүнии
түүнтэи
түүнчлэн
түүнээ
түүнээс
түүнээсээ
түүр
түүх
түүхии
түүхнээ
түүхт
түүхтэи
түүхч
түүхчдии
түүхчид
түүхэн
түүхэнд
түүхэндээ
түүхээ
түүхээр
түүхээс
тө
төв
төвгөр
төвд
төвдии
төвдөд
төвдөө
төвии
төвлөж
төвлөн
төвлөрдөг
төвлөрлии
төвлөрсөн
төвлөрч
төвлөрүүлж
төвлөрүүлсэн
төвлөрүүлэн
төвлөрүүлэх
төвлөрөл
төвлөрөн
төвлөрөх
төвлөсөн
төвтэи
төвтөмөр
төвшин
төвшинд
төвшнии
төвшнөөс
төвшрүүлэх
төвүүд
төвүүдии
төвөг
төвөггүи
төвөгтэи
төвөд
төвөдии
төвөдөд
төвөнхии
төвөргөөн
төвөөр
төвөөс
төг
төгрөг
төгрөгии
төгрөгнии
төгрөгөөр
төгс
төгсгөл
төгсгөлгүи
төгсгөлд
төгсгөлии
төгсгөлтэи
төгсгөлөг
төгсгөсөн
төгсгөх
төгсдөг
төгсжээ
төгссөн
төгссөнии
төгстөмөр
төгсч
төгсчээ
төгсөв
төгсөгч
төгсөгчдии
төгсөгчид
төгсөж
төгсөлт
төгсөлтии
төгсөн
төгсөх
төгсөхөд
төгсөөд
төгөл
төгөлдөр
төд
төдии
төдөлгүи
төл
төлбөр
төлбөргүи
төлбөрии
төлбөрт
төлбөртэи
төлбөрөө
төлвии
төлгө
төлдөг
төлж
төлжих
төлии
төллөх
төлсөн
төлөв
төлөвии
төлөвлөгдсөн
төлөвлөгдөж
төлөвлөгч
төлөвлөгөө
төлөвлөгөөг
төлөвлөгөөгөө
төлөвлөгөөнд
төлөвлөгөөнии
төлөвлөгөөт
төлөвлөгөөтэи
төлөвлөж
төлөвлөжээ
төлөвлөлт
төлөвлөлтии
төлөвлөн
төлөвлөсөн
төлөвлөх
төлөвт
төлөвтэи
төлөвшиж
төлөвшил
төлөвшүүлэх
төлөг
төлөгч
төлөн
төлөх
төлөхии
төлөө
төлөөлдөг
төлөөлж
төлөөллии
төлөөлсөн
төлөөлүүлэн
төлөөлөгч
төлөөлөгчдии
төлөөлөгчид
төлөөлөгчии
төлөөлөгчтэи
төлөөлөгчөөр
төлөөлөл
төлөөлөн
төлөөлөх
төлөөнии
төлөөс
төлөөх
төмбөгөр
төмрии
төмрөөр
төмс
төмснии
төмөр
төмөрбаатар
төмөрбаатарын
төмөрии
төмөрлөг
төмөрлөгии
төмөрлөгөөр
төмөрт
төмөртэи
төмөрхуяг
төр
төрбаи
төрбат
төрболд
төрвөл
төрд
төрдөг
төрж
төржээ
төрии
төрлии
төрлүүд
төрлүүдии
төрлүүдэд
төрлөө
төрлөөр
төрлөөс
төрмөлии
төрнө
төрснии
төрсөн
төрт
төртэи
төрх
төрхии
төрхтэи
төрхтөн
төрхөө
төрхөөр
төрхөөрөө
төрч
төрчдии
төрчид
төрүүлдэг
төрүүлж
төрүүлжээ
төрүүлнэ
төрүүлсэн
төрүүлэн
төрүүлэх
төрөгсөд
төрөл
төрөлд
төрөлдөө
төрөлжсөн
төрөлт
төрөлтии
төрөлтэи
төрөлх
төрөлхии
төрөлхтнии
төрөлхтөн
төрөлхтөнд
төрөлхтөнии
төрөн
төрөх
төрөхдөө
төрөхии
төрөхөд
төрөхөөс
төрөө
төрөөгүи
төрөөд
төрөөс
төсвии
төсвөөс
төслии
төслүүд
төслүүдии
төслөөр
төст
төстэи
төсөв
төсөвт
төсөл
төсөлд
төсөр
төсөөлж
төсөөллии
төсөөлөл
төсөөлөн
төсөөлөх
төсөөтэи
төхөм
төхөөрсөн
төхөөрөмж
төхөөрөмжид
төхөөрөмжии
төхөөрөмжинд
төхөөрөмжтэи
төхөөрөмжүүд
төхөөрөмжүүдии
төхөөрөмжүүдтэи
төхөөрөмжүүдэд
төхөөрөмжөө
төхөөрөмжөөр
төхөөрөмжөөс
төхөөрөх
төчнөөн
төө
төөрөг
төөрөх
у
уадбч
уаз
уаи
уашт
уб
убаши
убдс
убис
убтз
уваи
уван
увдис
увс
увсын
увш
уг
угааж
угаал
угаалгын
угаас
угаасаа
угаасан
угаах
угалз
угалзан
уганда
угж
угз
угии
углаж
углах
углуурга
уго
угсаа
угсааг
угсаагаа
угсааны
угсааныхан
угсаат
угсаатан
угсаатнууд
угсаатнуудын
угсаатны
угсаатныг
угсармал
угсарсан
угсарч
угсраа
угсралт
угсралтын
угсран
угсрах
угт
угтаа
угтаал
угтаж
угтан
угтах
угтвар
уд
удаа
удаагаа
удаагии
удаагүи
удаад
удаан
удаанаар
удаатаи
удаах
удааширч
удаашрах
удаашруулах
удаж
удаи
удалгүи
удам
удамтаи
удамшил
удамших
удамшлын
удах
удахгүи
удбэт
удвал
удган
уди
удинезе
удирдаач
удирдаачаар
удирдаачии
удирдагч
удирдагчаар
удирдагчдыг
удирдагчдын
удирдагчид
удирдагчии
удирдаж
удирдамж
удирдамжии
удирдан
удирдана
удирдах
удирдахад
удирддаг
удирджээ
удирдлага
удирдлагаар
удирдлагаас
удирдлагад
удирдлаган
удирдлаганд
удирдлагат
удирдлагатаи
удирдлагууд
удирдлагыг
удирдлагын
удирдсан
удирдуулан
удирдуулсан
удиртгал
удмаа
удмыг
удмын
удмынхан
удмынхны
удсан
удтал
удын
удэт
уефа
ужиг
узбек
узбекии
узбекистан
узбекистаны
уи
уиган
уизардс
уилл
уиллиам
уиллис
уилсон
уильям
уильямс
уинстон
уитни
уих
укр
украи
украин
украинаар
украинд
украины
украі
ул
ула
улаа
улаавтар
улаагчин
улаалзгана
улаан
улаанаатар
улаанбаатар
улаанбаатараас
улаанбаатарт
улаанбаатарын
улаанбадрах
улаангом
улаанхад
улаанхус
улаанцав
улаанцавын
улааны
улаи
улалж
улам
уламбаяр
уламжилж
уламжилсан
уламжлагдаж
уламжлагдан
уламжлагдсан
уламжлал
уламжлалаа
уламжлалаар
уламжлалд
уламжлалт
уламжлалтаи
уламжлалыг
уламжлалын
уламжлан
уламжлах
улан
уланг
уланд
улбаалан
улбаалж
улбаатаи
улбар
улз
улиас
улиастаи
улиг
улирал
улиралд
улиралдаа
улиралыг
улиралын
улиран
улирах
улирлаа
улирлаар
улирлаас
улирлыг
улирлын
улирсан
улмаар
улмаас
улны
улс
улсаа
улсаар
улсаас
улсад
улсдаа
улстаи
улстөрии
улстөрч
улсууд
улсуудаар
улсуудаас
улсуудад
улсуудтаи
улсуудыг
улсуудын
улсыг
улсын
улсынх
улсынхаа
ултаи
улцгар
улыг
ум
умаи
умар
умард
умардад
умардын
умарт
ун
уна
унаа
унаагүи
унаад
унааны
унаатаи
унав
унавал
унага
унагаах
унагаж
унаган
унагасан
унагах
унадаг
унаж
унажээ
уналга
уналганд
уналт
уналтад
уналтанд
уналтын
унан
унана
унанги
унасан
унаснаар
унасны
унах
унахад
унг
унгар
унгарт
унгарын
унгас
унгерн
унгернии
унд
ундаа
ундааг
ундааны
ундаасах
ундарга
ундны
ундран
ундрах
ундуи
ундыг
унжгар
унжиж
унжии
унжин
унжих
унжлага
унжсан
унжуу
унжуулан
унжуулах
унжуулсан
униар
универсиад
унии
унины
унтаа
унтаж
унтарсан
унтах
унтрааж
унтраах
унтрах
унхиагүи
уншаад
уншдаг
уншигч
уншигчдад
уншигчдын
уншигчид
уншигчии
уншиж
уншин
уншина
унших
уншихад
уншлага
уншлагын
уншсан
уншуулж
унь
уолл
уоллес
уолт
уолтер
уондерерс
уорнер
уорриорз
уотсон
ур
ураг
урагдаж
урагдах
урагдсан
урагт
урагш
урагшаа
урагшгүи
урагшилж
урагшлах
урадын
урал
уралдаан
уралдаанаас
уралдаанд
уралдаануудад
уралдаанч
уралдааны
уралдааныг
уралдаж
уралдан
уралдах
уралддаг
уралдсан
уралдуулан
уралдуулах
уралын
урам
урамтаи
урамшуулал
урамшуулах
урамшууллын
уран
уранхаи
ураны
урах
урбан
урвагч
урваж
урваи
урвал
урвалаар
урвалд
урвалыг
урвалын
урван
урвасан
урвах
урвуу
урвуулан
урга
ургаа
ургадаг
ургаж
ургалт
ургалтыг
ургалтын
ургальч
ургамал
ургамалд
ургамалтаи
ургамалын
ургамлаар
ургамлаас
ургамлууд
ургамлуудыг
ургамлуудын
ургамлыг
ургамлын
урган
ургана
ургасан
ургах
ургахгүи
ургац
ургацыг
ургацын
ургии
ургуулан
ургуулах
ургуулахад
ургуулж
ургуулсан
урд
урдаа
урдаас
урдах
урдуур
урдуураа
урдү
урж
уриа
уриалан
уриалж
уриалсан
уриан
урианхаи
уриатаи
уригдаж
уригдан
урилга
урилгаар
урин
урих
урлаг
урлагаар
урлагии
урлагт
урлагын
урладаг
урлаж
урлал
урлалын
урлан
урланд
урласан
урлах
урсаад
урсаж
урсан
урсана
урсах
урсац
урсацын
урсгал
урсгалаар
урсгалаас
урсгалгүи
урсгалд
урсгалт
урсгалтаи
урсгалууд
урсгалыг
урсгалын
урсган
урсгасан
урсгах
урсдаг
урссан
урсч
урт
уртаар
уртаараа
уртаас
уртааш
уртаашаа
уртавтар
уртад
уртасгах
уртнасан
уртраг
уртрагии
урттаи
уртхан
уртыг
уртын
уругваи
уруу
уруугаа
уруудаж
уруудан
уруудах
уруул
уруулаа
уруултаи
уруулын
урхи
урц
урчууд
урчуудын
уршгаар
уршиг
урын
урь
урьд
урьдаар
урьдаас
урьдах
урьдны
урьдчилан
урьдчилж
урьдчилсан
урьдын
урьж
урьсан
урьтаж
урьхан
ус
усаа
усаар
усалгаа
усан
усанд
усандаа
усархаг
усгүи
усжуулалтын
уск
услалтын
услах
уснаас
усны
уст
устаж
устаи
устах
устгав
устгагдсан
устгадаг
устгаж
устгажээ
устган
устгана
устгасан
устгах
устгахаар
устгахад
устгахыг
устсан
усть
устөрөгч
устөрөгчии
усч
усыг
ут
утаа
утааг
утаанд
утааны
утаат
утаи
утас
утасгүи
утаслаг
утаснаас
утаснууд
утасны
утастаи
утах
утга
утгаа
утгаар
утгаараа
утгаас
утгагүи
утгад
утгат
утгатаи
утгууд
утгуудыг
утгуудын
утгыг
утгын
утсаа
утсаар
утсан
утсанд
утсыг
утт
уу
уувал
уугаад
ууган
уугуул
ууд
уудаг
уудам
уудлах
уудыг
уудын
ууж
уужим
уужрах
уужуу
уузаи
уул
уулаа
уулаар
уулаас
уулан
ууланд
уулархаг
уулга
уулгалан
уулгах
уулзаад
уулзав
уулзаж
уулзалт
уулзалтаар
уулзалтад
уулзалтыг
уулзалтын
уулзан
уулзана
уулзар
уулзах
уулзахаар
уулзвар
уулзварт
уулздаг
уулзжээ
уулзсан
уулнаа
уулнаас
уулс
уулсаар
уулсаас
уулстаи
уулсыг
уулсын
уултаи
уулчид
уулчин
уулыг
уулын
ууль
ууна
уур
уураар
уураг
уурга
уургаа
уургаар
уурганы
уургии
уургууд
уургын
уурлаж
уурлан
уурласан
уурлах
ууртаи
уурхаи
ууршилт
уурших
уурыг
уурын
уусан
уусах
уусгах
уусдаг
уусдаггүи
уусмал
уусмалд
ууссан
уусч
уут
уутанд
уутны
уух
уухад
уухаи
уухгүи
уухыг
ууц
ууцны
уучлал
уушги
уушгины
уушиг
уушигны
ууштаи
ух
ухаа
ухаалаг
ухаан
ухаанаа
ухаанаар
ухаанаас
ухаангүи
ухаанд
ухаандаа
ухаант
ухаантаи
ухаантан
ухаантны
ухаанч
ухааны
ухааныг
ухааран
ухаарах
ухаарч
ухагдахуун
ухагдахууныг
ухаж
ухамсар
ухамсарлан
ухамсарлах
ухамсарт
ухамсартаи
ухамсрын
ухан
ухарсан
ухархаи
ухарч
ухарчээ
ухасхии
ухах
ухна
ухран
ухрах
ухсан
ухуань
ухуулан
ухуулах
ухуулга
ухуулгын
уцаар
уцс
учиг
учир
учираас
учиргүи
учирдаг
учирна
учирсан
учиртаи
учирч
учраа
учраас
учрал
учралын
учрах
учруулах
учруулахгүи
учруулдаг
учруулж
учруулсан
учрыг
уэи
уэльс
уэльсии
уэст
уяа
уяаг
уяатаи
уяач
уяж
уялдаа
уялдаатаи
уялдан
уялдуулан
уялдуулах
уян
уянга
уянгалаг
уянгалан
уянгын
уярах
уясан
уях
уяхан
ф
фа
фабио
фабрик
фагии
фазлуллах
фазын
фаи
факс
факто
факультет
факультетии
факультетэд
фан
фань
фараон
фасо
фауст
фашист
фашистын
фе
федерации
федор
феи
феликс
фелипе
фельдмаршал
фен
фенербахче
фенилаланин
феодал
феодалын
ферганы
фергюсон
фердинанд
ферм
фермагии
фермент
ферментии
ферментүүд
ферментүүдии
фермер
фермии
фернандо
феррари
ферраригии
фестивалд
фестиваль
фестивальд
фиат
фиба
фиде
фидель
фижи
физик
физикии
физикт
физикч
физиологи
физиологии
физиологич
фил
филадельфи
филадельфия
филармонии
филатова
филип
филипп
филиппин
филиппинд
филиппинии
филлипс
философи
философид
философии
философич
философичид
фин
финалд
финалын
финии
финикс
финланд
финландын
финлянд
финээр
фиорентина
фирм
фирмии
фифа
фишер
фк
флаш
флоренц
флоренции
флорида
флот
флотыг
флотын
фогт
фои
фокс
фокус
фокусын
фолксваген
фон
фонд
фондод
фондын
форбс
форд
форест
формат
форматаар
форматыг
формула
форт
форум
фостер
фосфат
фосфатын
фосфор
фосфорын
фото
фотосинтез
фотосинтезии
фр
фраи
фракц
франк
франкии
франклин
франко
франкфурт
франкфуртын
франс
франсиско
франсуа
франц
францаар
францаас
францад
франции
францис
франциско
францчууд
францыг
францын
франчаи
франческо
фред
фредерик
фреи
френк
френцис
фридрих
фрии
фриц
фрои
фронт
фронтод
фронтыг
фронтын
фрунзе
фрэи
фрэнк
фрэнсис
фтор
фу
фужянь
фулхэм
функц
функции
функциональ
функцууд
функцуудыг
функцыг
функцын
функцээр
функцүүдии
фунт
фунтии
фунтээр
фут
фьючерс
фьючерсии
фэи
фэн
фэнүүд
фү
фүжи
фүкүока
фөрт
х
ха
хаа
хааг
хаагдаж
хаагдах
хаагдсан
хаагуур
хаагч
хаагчдад
хаагчдыг
хаагчдын
хаагчид
хаагчии
хаад
хаадаг
хаадыг
хаадын
хааж
хаажээ
хааис
хаалга
хаалгаа
хаалгаар
хаалган
хаалганд
хаалгандаа
хаалганы
хаалгатаи
хаалгач
хаалгачаар
хаалгачии
хаалгыг
хаалт
хаалттаи
хаалтыг
хаалтын
хаан
хаана
хаанаа
хаанаар
хаанаас
хаанд
хаандаа
хаант
хаантаи
хаанчилсан
хаанчлал
хаанчлалын
хааны
хааныг
хаар
хаас
хаасаа
хаасан
хаах
хаацаи
хааш
хаашаа
хааяа
хабаровск
хабсбургии
хабул
хав
хаваи
хаван
хавар
хавартаа
хавгүи
хавдар
хавдах
хавдраар
хавдрын
хавиар
хавии
хавиран
хавирах
хавирга
хавирган
хавирганы
хавраас
хаврын
хавсарга
хавсарган
хавсаргасан
хавсарсан
хавсарч
хавсралт
хавсран
хавсрах
хавт
хавтага
хавтаи
хавтан
хавтанг
хавтангии
хавтангууд
хавтар
хавтас
хавтасны
хавтаст
хавтгаи
хавх
хавхаг
хавханд
хавхны
хавцал
хавцалд
хавцлын
хавч
хавчаар
хавчиг
хавчиж
хавчин
хавчих
хавчлага
хавчуулах
хавь
хавьгүи
хавьд
хавьер
хавьцаа
хаг
хага
хагалан
хагалах
хагалбар
хагалгаа
хагалгааны
хагалж
хагалсан
хагарал
хагарах
хагарсан
хагартал
хагархаи
хагарч
хагас
хагасаас
хагаст
хагасыг
хагасын
хагацал
хагацах
хагд
хад
хадаа
хадаан
хадаас
хадаасны
хадаг
хадаж
хадам
хадамд
хадан
хаданд
хадат
хадах
хадбаатар
хадгалагдаж
хадгалагдан
хадгалагдана
хадгалагдах
хадгалагддаг
хадгалагдсан
хадгалагч
хадгалалт
хадгалалтын
хадгаламж
хадгаламжии
хадгалан
хадгалах
хадгалахад
хадгалахыг
хадгалахын
хадгалдаг
хадгалж
хадгална
хадгалсаар
хадгалсан
хадгии
хадлан
хадлангии
хадмал
хаднаас
хадны
хадран
хадсан
хадсон
хадтаи
хадуур
хаж
хажи
хажиг
хажлага
хажуу
хажуугаар
хажуугаас
хажуугии
хажууд
хазаар
хазаартаи
хазаарын
хазаж
хазаи
хазар
хазара
хазах
хазгаи
хазгар
хаи
хаити
хакас
хакер
хакерууд
хал
хала
халаа
халааг
халааж
халаалтын
халаас
халаасны
халаах
халаахад
халаг
халагдаж
халагдах
халагдсан
халамж
халамжии
халамжлах
халах
халбага
халгаи
халдав
халдагч
халдагчид
халдаж
халдан
халдах
халдахыг
халдашгүи
халдвар
халдваргүи
халдварладаг
халдварласан
халдварлах
халдварт
халдвартаи
халдварыг
халдварын
халдлага
халдлагаас
халдлагад
халдлагууд
халдлагыг
халдлагын
халдсан
халдун
халж
халз
халзан
халил
халим
халимаг
халимагии
халимагт
халимагууд
халимагуудын
халин
халиу
халиун
халиуны
халиф
халих
халл
халле
халсан
халт
халтаи
халтар
халтирах
халтмаагии
халуу
халуун
халуунд
халууны
халууныг
халуурах
халх
халхавч
халхад
халхаи
халхалттаи
халхгар
халхгол
халхлан
халхлах
халхууд
халхыг
халхын
халцгаи
халшрах
хальж
хальс
хальсаар
хальсан
хальсанд
хальснаас
хальсны
хальстаи
хальсыг
хам
хамаа
хамаагүи
хамаараад
хамаарагдана
хамаарагдах
хамаарагддаг
хамаарал
хамааралгүи
хамааралтаи
хамааран
хамаарах
хамаарахгүи
хамаардаг
хамаарлыг
хамаарлын
хамаарна
хамаарсан
хамааруулан
хамааруулдаг
хамааруулж
хамаарч
хамаатаи
хамаатан
хамаатуулах
хамаг
хамар
хамардаг
хамарна
хамарсан
хамарт
хамартаи
хамарч
хамах
хамба
хамбург
хамбургии
хамбын
хамгаалав
хамгаалагдсан
хамгаалагч
хамгаалагчаар
хамгаалагчид
хамгаалагчии
хамгаалал
хамгаалалт
хамгаалалтад
хамгаалалтанд
хамгаалалттаи
хамгаалалтыг
хамгаалалтын
хамгаалан
хамгаалах
хамгаалахаар
хамгаалахад
хамгаалахыг
хамгаалахын
хамгаалдаг
хамгаалж
хамгаалжээ
хамгааллын
хамгаална
хамгаалсан
хамгаалуулах
хамгаас
хамге
хамгии
хамж
хамжлага
хамжлагат
хами
хамилтон
хамниган
хамраа
хамраас
хамрагдаж
хамрагдан
хамрагдана
хамрагдах
хамрагддаг
хамрагдсан
хамран
хамрах
хамруулан
хамруулах
хамруулдаг
хамруулж
хамруулсан
хамрыг
хамрын
хамсаа
хамсаатан
хамт
хамтаар
хамтад
хамтарсан
хамтарч
хамтатган
хамтдаа
хамтлаг
хамтлагаа
хамтлагаас
хамтлагаасаа
хамтлагии
хамтлагт
хамтлагтаа
хамтлагтаи
хамтлагууд
хамтлагуудын
хамтлагын
хамтрагч
хамтрагчид
хамтрал
хамтралын
хамтран
хамтрах
хамтын
хамуу
хамхуул
хамшгии
хамшиг
хамшигт
хамшигтаи
хан
хана
ханаар
ханаас
ханадаггүи
ханаж
ханаи
ханамж
ханамжии
ханамжтаи
ханан
хананд
хананы
ханасан
ханатаи
ханах
хангагдаж
хангагдсан
хангагч
хангадаг
хангаж
хангаи
хангал
хангалт
хангалтгүи
хангалттаи
хангалтын
хангалуун
хангалын
хангамж
хангамжаар
хангамжид
хангамжии
хангамжтаи
хангамжууд
ханган
хангана
хангарьд
хангасан
хангах
хангахад
хангахын
хангинах
хангууд
ханд
хандаж
хандалт
хандалттаи
хандалтыг
хандалтын
хандан
хандана
хандах
хандахад
хандахдаа
хандахыг
хандгаи
ханддаг
ханддорж
хандив
хандивын
хандлага
хандлагатаи
хандлагыг
хандлагын
хандсан
хандуулан
хандуулах
хандуулдаг
хандуулж
хандуулсан
ханз
ханзаар
ханзрах
ханиа
ханиад
ханиалга
ханиах
ханилан
ханилах
ханилж
ханилсан
ханлиг
ханлигии
ханна
ханновер
ханои
ханс
хант
хантааз
хантаи
хануи
хануур
ханх
ханхаи
ханхлах
ханхонгор
ханхүү
ханцуи
ханш
ханшаар
ханшии
ханы
ханыг
ханын
хань
хар
хара
хараа
хараагүи
хараад
хараал
хараалч
хараалын
хараанд
харааны
хараат
хараатаи
хараах
хараахан
хараацаи
харав
харавтар
харагдаж
харагдана
харагдах
харагдахгүи
харагдахуи
харагдац
харагддаг
харагдсан
харагч
харагчин
хараи
харалдаа
харам
харамгүи
харамж
харамлах
харамсаж
харамсалтаи
харамсан
харамсах
харамч
харан
харанга
харандаа
харанхуи
харах
харахаар
харахад
харахгүи
харахыг
харбин
харваа
харваад
харвааны
харваач
харвадаг
харваж
харвал
харвалт
харван
харвардын
харвасан
харвах
харвахад
харви
харвуулын
харгаи
харгалзагч
харгалзаж
харгалзан
харгалзах
харгалзахгүи
харгана
харгис
харгислал
харгуи
хард
хардаг
хардаж
хардах
харж
хариг
харии
харилцаа
харилцааг
харилцаагаа
харилцаанаас
харилцаанд
харилцааны
харилцаатаи
харилцагч
харилцагчии
харилцаж
харилцан
харилцах
харилцдаг
харимхаи
харин
хариу
хариуг
хариугаа
хариугүи
хариуд
хариул
хариулах
хариулдаг
хариулж
хариулжээ
хариулсан
хариулт
хариултыг
хариутаи
хариуцагч
хариуцаж
хариуцан
хариуцах
хариуцдаг
хариуцлага
хариуцлагаас
хариуцлагатаи
хариуцлагыг
хариуцлагын
хариуцна
хариуцсан
харих
харлаж
харлах
харлуг
хармаг
хармөрөн
харна
харольд
харри
харрис
харрисон
харсан
харснаа
харт
хартаи
харуи
харуу
харуул
харуулав
харуулан
харуулах
харуулахын
харуулд
харуулдаг
харуулдах
харуулж
харуулжээ
харууллаа
харуулна
харуулсан
харуулыг
харуулын
харх
хархираа
хархорин
хархорум
хархорумд
харц
харцага
харцагынхан
харцгаи
харцтаи
харчин
харш
харшии
харшил
харшлах
харшлын
харъяа
харъяалагдаж
харъяалагдах
харъяалагддаг
харъяалалтаи
харъяанд
харъяаны
харъяат
харын
харь
харьд
харьж
харьков
харьковын
харьцаа
харьцааг
харьцаагаар
харьцаанаас
харьцаанд
харьцааны
харьцаатаи
харьцаж
харьцангуи
харьцах
харьцдаг
харьцуулалт
харьцуулан
харьцуулах
харьцуулахад
харьцуулбал
харьцуулж
харьцуулсан
харьяа
харьяалагдаж
харьяалагдана
харьяалагдах
харьяалагддаг
харьяалахын
харьяанд
харьяаны
харьяат
хас
хасаг
хасагдаж
хасагдах
хасагджээ
хасагдсан
хасагии
хасагууд
хасаж
хасан
хасар
хасарын
хасах
хасбаатар
хасгии
хассан
хасч
хасын
хат
хатааж
хатаасан
хатаах
хатагин
хатагтаи
хатад
хатаж
хатан
хатанбаатар
хатанбулаг
хатанд
хатантаи
хатах
хатгаа
хатгадаг
хатгаж
хатгал
хатгалга
хатгалын
хатгамал
хатган
хатгасан
хатгах
хатгуур
хатдын
хатирах
хатна
хатнаа
хатнаас
хатны
хатныг
хатсан
хатуу
хатуужил
хатуужилтаи
хатуулаг
хатуурах
хатуурч
хау
хаус
хах
хахир
хахуулии
хахууль
хацар
хацартаи
хацрын
хачиг
хачин
хачир
хачирхалтаи
хачиун
хаш
хашаа
хашаанд
хашааны
хашаат
хашбат
хашгирах
хашгирч
хашдаг
хашжээ
хашигдсан
хашиж
хашилт
хашин
хашир
хаших
хашлага
хашсан
хаяа
хаяанд
хаяг
хаягаар
хаягаас
хаягдал
хаягдлын
хаягдсан
хаягии
хаяглах
хаягт
хаягтаи
хаягууд
хаягуудыг
хаягыг
хаядаг
хаяж
хаяжээ
хаялах
хаялт
хаян
хаянхярваа
хаясан
хаях
хбдс
хбнгу
хбнсюу
хгүи
хд
хдаа
хдхв
хдээ
хе
хеи
хелен
хельсинки
хенри
хенрик
хенрих
херберт
херманн
херта
херцеговина
херцог
херцогт
хессен
хессении
хет
хзэ
хи
хиа
хиаг
хиагт
хиагтад
хиагтыг
хиагтын
хиад
хиам
хиар
хив
хивс
хидан
хижиг
хии
хил
хилд
хилии
хилл
хиллари
хиллэдэг
хиллэж
хиллэн
хиллэнэ
хиллэх
хилс
хилсээр
хилтэи
хилчид
хилчин
хилэгнэн
хилэгнэх
хилэн
хилэнц
хилэнцэт
хилээ
хилээр
хилээс
хималаи
хими
химии
химич
хинди
хинду
хиндү
хип
хир
хиргис
хиргисүүр
хиргүи
хирии
хирошима
хирс
хиртэи
хиртэлт
хиртэх
хирээр
хит
хитии
хитлер
хитлерии
хичнээн
хичээ
хичээдэг
хичээж
хичээл
хичээлд
хичээлдээ
хичээлии
хичээллэдэг
хичээллэж
хичээллэсэн
хичээллэх
хичээлээ
хичээлүүд
хичээлүүдии
хичээн
хичээнгүи
хичээсэн
хичээх
хишиг
хишигт
хишигтэн
хк
хкн
хлаар
хлоор
хлор
хлорид
хлорын
хлээр
хлөөр
хмаар
хмх
хн
хнаар
хнии
хны
хныг
хо
хобби
хов
ховард
ховд
ховдог
ховдод
ховдыг
ховдын
ховил
ховор
ховордож
ховордсон
ховорхон
ховх
ховхрох
ховч
хог
хогии
хогшил
ход
ходоод
ходоодны
ходоодонд
хое
хожа
хожгор
хожигдож
хожигдол
хожигдолтои
хожигдон
хожигдсон
хожид
хожиж
хожил
хожим
хожин
хожих
хожиход
хожлын
хожмоо
хожмын
хожсон
хожсоноор
хожуу
хожуул
хои
хоккаи
хоккеи
хокс
хол
холб
холбогддог
холбогдлыг
холбогдож
холбогдол
холбогдолгүи
холбогдолтои
холбогдон
холбогдоно
холбогдох
холбогдоход
холбогдсон
холбогдуулан
холбогдуулж
холбогч
холбодог
холбож
холболт
холболтоор
холболттои
холболтууд
холболтыг
холболтын
холбон
холбоно
холбоо
холбоог
холбоогоо
холбоогоор
холбоогүи
холбоод
холбоодын
холбоонд
холбооноос
холбооны
холбоос
холбоосоор
холбоост
холбоосыг
холбоот
холбоотнууд
холбоотнуудын
холбоотны
холбоотои
холбоотон
холбоотын
холбоочин
холбосон
холбох
холбоход
холгүи
холд
холдинг
холдож
холдон
холдох
холдуулах
холилдож
холилдон
холилдох
холилдсон
холимог
холимогии
холин
холих
холл
холланд
холливудад
холливудын
холоос
холтос
холтостои
холуур
холч
холыг
холын
хольж
хольсон
хольц
хольцгүи
хольцтои
хольштаи
хом
хомо
хомоол
хоморголон
хомс
хомсдол
хомсдох
хомхои
хон
хонг
хонгил
хонгилд
хонгио
хонгирад
хонгирадын
хонгор
хонгорцог
хонгорын
хонд
хонда
хондлои
хондурас
хондурасын
хонжин
хонжих
хонжоо
хонзон
хонии
хонин
хонины
хонио
хонконг
хонконгии
хонконгод
хоновол
хоног
хоногии
хоноглох
хоногоор
хоногт
хоногтои
хоногтоо
хоногшсон
хонож
хоноод
хонох
хонх
хонхны
хонхои
хонхор
хонхорт
хонхорхои
хоншоор
хоншоортои
хонь
хоньтои
хоньчин
хоо
хоол
хоолгүи
хооллодог
хооллож
хооллоно
хооллох
хоолноос
хоолны
хоолои
хоолонд
хоолоо
хоолоор
хоолтои
хоолыг
хоормог
хоорон
хооронд
хоорондоо
хоорондох
хоорондуур
хоорондын
хоосон
хоосорч
хоосрох
хоп
хопкинс
хор
хорасан
хорват
хорватын
хорвоо
хорвоог
хорвоогии
хорвоод
хорго
хоргодож
хоргодох
хоргои
хоргол
хорголжин
хоргоох
хоргүи
хордлого
хордлогын
хордож
хордсон
хордуулах
хорезм
хорезмын
хориг
хоригдлууд
хоригдлуудыг
хоригдлуудын
хоригдлыг
хоригдож
хоригдол
хоригдох
хоригдсон
хоригии
хориглов
хориглодог
хориглож
хоригложээ
хориглолтын
хориглон
хориглоно
хориглосон
хориглох
хорин
хорио
хориод
хорионд
хориотои
хорих
хорлогдож
хорлогдон
хорлогдсон
хорлогч
хорлол
хорлон
хорлоо
хорлоогии
хорлосон
хорлох
хормои
хорнетс
хорогдол
хорогдох
хорогдуулах
хорол
хором
хоромхон
хорон
хороо
хороов
хороог
хороодын
хороож
хороожээ
хорооллын
хороолол
хороололд
хороон
хороонд
хорооноос
хорооны
хороосон
хороотои
хороох
хорсол
хорсон
хорсох
хорт
хортои
хортон
хорхе
хорхог
хорхои
хорчгор
хорчии
хорчин
хорчины
хорш
хоршоо
хоршооллын
хоршоолол
хоршооны
хорыг
хорын
хорь
хорьдугаар
хорьж
хорьсон
хос
хосбаяр
хосгүи
хосе
хосеп
хослол
хослолыг
хослон
хослуулан
хослуулж
хослуулсан
хосолж
хосолмол
хосолсон
хосоор
хост
хостын
хосууд
хосыг
хосын
хот
хотгои
хотгор
хотгорт
хотгорын
хотдоо
хотжилт
хотноо
хотогои
хотод
хотои
хотол
хотон
хотонд
хотонт
хотоо
хотоор
хотоос
хотос
хоточ
хотспур
хоттои
хотууд
хотуудаар
хотуудаас
хотуудад
хотуудтаи
хотуудыг
хотуудын
хотхон
хотхонд
хотыг
хотын
хотынхон
хотынхоо
хоу
хоффенхаи
хоффман
хохимои
хохирлыг
хохирлын
хохирогч
хохирогчдын
хохирогчид
хохирогчии
хохирол
хохирох
хохирсон
хоцорно
хоцорсон
хоцорч
хоцорчээ
хоцрогдол
хоцрогдсон
хоцрох
хоч
хочит
хочтои
хош
хошин
хошного
хошои
хошоон
хошоонгор
хошуу
хошууг
хошууд
хошуудаас
хошуудад
хошуудыг
хошуудын
хошуунаас
хошуунд
хошууны
хошуут
хошуутаи
хошууч
храмжгүи
хран
храх
христ
христии
христос
христосын
христэд
хром
хромосом
хромосомын
хруще
хтар
хтэи
ху
хуа
хуаи
хуан
хуанди
хуанли
хуань
хуар
хуаран
хуаранд
хубилаи
хув
хуваагаад
хуваагдаж
хуваагдал
хуваагдан
хуваагдана
хуваагдах
хуваагддаг
хуваагджээ
хуваагдлын
хуваагдсан
хуваадаг
хувааж
хуваажээ
хуваалцаж
хуваалцах
хуваалцдаг
хуваалцсан
хуваан
хуваана
хуваариар
хуваарии
хуваарилагдаагүи
хуваарилагдаж
хуваарилагдсан
хуваарилалт
хуваарилалтын
хуваарилан
хуваарилах
хуваарилж
хуваарилсан
хуваарь
хуваарьт
хуваарьтаи
хуваасан
хуваасны
хуваах
хуваахад
хуванцар
хувиа
хувиар
хувиараа
хувиас
хувии
хувилан
хувилах
хувилбар
хувилбараа
хувилбараар
хувилбараас
хувилбарт
хувилбартаи
хувилбарууд
хувилбаруудыг
хувилбарыг
хувилбарын
хувилгаад
хувилгаан
хувилгах
хувилдаг
хувилж
хувилсан
хувин
хувингии
хувирал
хувирамтгаи
хувиран
хувирах
хувиргагч
хувиргадаг
хувиргаж
хувиргалт
хувирган
хувиргана
хувиргасан
хувиргах
хувирдаг
хувирмал
хувирна
хувирсан
хувирч
хувирчээ
хувраг
хувхаи
хувцас
хувцасгүи
хувцаслах
хувцасны
хувцастаи
хувцсаа
хувцсаар
хувцсанд
хувцсыг
хувь
хувьд
хувьдаа
хувьсагч
хувьсагчид
хувьсагчии
хувьсал
хувьсан
хувьсах
хувьсгал
хувьсгалаар
хувьсгалаас
хувьсгалд
хувьсгалт
хувьсгалч
хувьсгалчдын
хувьсгалчид
хувьсгалыг
хувьсгалын
хувьслын
хувьтаи
хувьцаа
хувьцааг
хувьцааны
хувьцаат
хувьчлал
хувьчлалын
хуга
хугалах
хугарал
хугарах
хугарсан
хугархаи
хугарч
хугас
хугацаа
хугацааг
хугацаагаа
хугацаагаар
хугацаан
хугацаанаас
хугацаанаасаа
хугацаанд
хугацаандаа
хугацааны
хугацаат
хугацаатаи
худ
худаг
худагт
худал
худалдаа
худалдааг
худалдаалагдаж
худалдаалах
худалдаалж
худалдаанаас
худалдаанд
худалдааны
худалдаачдын
худалдаачид
худалдаачин
худалдаачны
худалдагдан
худалдагдсан
худалдагч
худалдаж
худалдан
худалдах
худалддаг
худалдсан
худалч
худам
худгии
худлаа
худлыг
хужир
хужирлаг
хужирт
хужиртаи
хужиртын
хуи
хул
хулан
хулангии
хуланц
хулгаи
хулгана
хулганы
хулганыг
хулгар
хулд
хулжин
хулс
хулсаар
хулсан
хулсны
хулуу
хулчгар
хулчии
хум
хумих
хумс
хумсаа
хумсны
хумстаи
хумхаа
хун
хунан
хунар
хунарын
хунгии
хундага
хуниас
хунираа
хунт
хунтаи
хунчир
хур
хураавал
хураагч
хураадаг
хурааж
хураалгаж
хураалт
хураалтаар
хураалтад
хураалтын
хураамж
хураан
хураана
хураангуи
хураасан
хураах
хураи
хурал
хуралд
хуралдаан
хуралдаанаар
хуралдаанд
хуралдааны
хуралдааныг
хуралдаж
хуралдаи
хуралдан
хуралдах
хуралдсан
хуралдуулах
хуралдуулж
хуран
хурандаа
хурах
хурга
хургаа
хурган
хурганы
хурд
хурдаа
хурдаар
хурдаг
хурдалж
хурдан
хурдас
хурдасгах
хурдатгал
хурдацтаи
хурдлан
хурдлах
хурдны
хурдтаи
хурдыг
хурж
хурим
хуримаа
хуримлав
хуримтлагдаж
хуримтлагдах
хуримтлагдсан
хуримтлал
хуримтлуулах
хуримтлуулж
хуримтлуулсан
хуримын
хурлаар
хурлаас
хурлыг
хурлын
хурсан
хуруу
хуруувч
хурууг
хуруугаа
хуруугаар
хуруугаараа
хуруунд
хурууны
хуруут
хуруутаи
хурц
хурцаар
хурцадмал
хурцадсан
хурцдаж
хурын
хус
хусан
хусах
хусеи
хусран
хуссеи
хусуур
хутаг
хутагт
хутагтад
хутагтыг
хутагтын
хутга
хутгаа
хутгаар
хутгаж
хутган
хутганы
хутгах
хуу
хуудам
хуудас
хуудаснаа
хуудаснаас
хуудасны
хуудаст
хуудастаи
хуудсаар
хуудсан
хуудсанд
хуудсандаа
хуудсууд
хуудсуудыг
хуудсыг
хуудсын
хуулан
хуулах
хуулбар
хуулбарлан
хуулбарлах
хуулбарыг
хуулж
хуулиа
хуулиар
хуулиас
хуулии
хуулинд
хуулиуд
хуулиудыг
хуулиудын
хуулсан
хууль
хуульд
хуульт
хуультаи
хуульч
хуульчилсан
хуульчлан
хуумгаи
хуур
хуураа
хуураи
хуурамч
хуурамчаар
хууран
хуурах
хуурмаг
хуурна
хуурсан
хуурт
хуурцаг
хуурч
хуурыг
хуурын
хуухаи
хууч
хуучид
хуучин
хуучинсаг
хуучир
хуучирсан
хуучирч
хуучнаар
хуучны
хуучныг
хуучрах
хуушуур
хуханье
хуц
хуцах
хучигдсан
хучиж
хучилттаи
хучих
хучлага
хучсан
хуш
хуяг
хуягии
хуягт
хуян
хх
ххк
хыг
хын
хью
хьюз
хьюстон
хьюстоны
хэ
хэбэи
хэв
хэвгии
хэвии
хэвлии
хэвлэгддэг
хэвлэгджээ
хэвлэгдсэн
хэвлэгдэв
хэвлэгдэж
хэвлэгдэн
хэвлэгдэх
хэвлэгч
хэвлэгчии
хэвлэдэг
хэвлэж
хэвлэжээ
хэвлэл
хэвлэлд
хэвлэлии
хэвлэлт
хэвлэлээр
хэвлэлүүд
хэвлэмэл
хэвлэн
хэвлэсэн
хэвлэх
хэвлээр
хэвлүүлж
хэвлүүлжээ
хэвлүүлсэн
хэвлүүлэв
хэвлүүлэн
хэвлүүлэх
хэврэг
хэвт
хэвтэж
хэвтэн
хэвтэр
хэвтэх
хэвтэш
хэвтээ
хэвтүүл
хэвцэг
хэвшиж
хэвшил
хэвшлии
хэвшмэл
хэвшсэн
хэвэл
хэвэнд
хэвээр
хэвээрээ
хэг
хэгжүүн
хэд
хэдии
хэдхэн
хэдэн
хэдэр
хэзээ
хэзээд
хэи
хэл
хэлбии
хэлбэл
хэлбэлзлии
хэлбэлзэл
хэлбэлзэнэ
хэлбэлзэх
хэлбэр
хэлбэрии
хэлбэрт
хэлбэртэи
хэлбэртэн
хэлбэрээ
хэлбэрээр
хэлбэрээрээ
хэлбэрээс
хэлбэрүүд
хэлбэрүүдии
хэлвэл
хэлгии
хэлгүи
хэлд
хэлдэг
хэлж
хэлжээ
хэлзүи
хэлии
хэллэг
хэллэгии
хэллэгээр
хэлмэгдсэн
хэлмэгдэгсдии
хэлмэгдэж
хэлмэгдүүлэлт
хэлмэгдүүлэлтии
хэлмэгдүүлэлтэд
хэлмэрч
хэлнии
хэлнэ
хэлнээ
хэлнээс
хэлнүүд
хэлнүүдии
хэлснии
хэлснээ
хэлснээр
хэлсэн
хэлт
хэлтгии
хэлтии
хэлтнии
хэлтсии
хэлтэи
хэлтэн
хэлтэрхии
хэлтэс
хэлтэст
хэлтэстэи
хэлхгэр
хэлхсэн
хэлхээ
хэлхээг
хэлхээнд
хэлхээнии
хэлхээс
хэлхээтэи
хэлц
хэлции
хэлцлии
хэлцэл
хэлье
хэлэв
хэлэгддэг
хэлэгдэх
хэлэгч
хэлэлгүи
хэлэлцдэг
хэлэлцжээ
хэлэлцсэн
хэлэлцэж
хэлэлцэн
хэлэлцэнэ
хэлэлцэх
хэлэлцэхэд
хэлэлцээ
хэлэлцээг
хэлэлцээд
хэлэлцээнд
хэлэлцээнии
хэлэлцээр
хэлэлцээрии
хэлэлцээрт
хэлэлцээрээр
хэлэлцүүлгии
хэлэлцүүлж
хэлэлцүүлэг
хэлэмгии
хэлэн
хэлэнд
хэлэх
хэлэхгүи
хэлэхдээ
хэлэхии
хэлэхэд
хэлэхээс
хэлээ
хэлээгүи
хэлээд
хэлээр
хэлээрх
хэлээрээ
хэлүүд
хэлүүлэх
хэм
хэмд
хэмждэг
хэмжигддэг
хэмжигдэхүүн
хэмжигдэхүүнии
хэмжигч
хэмжиж
хэмжил
хэмжилт
хэмжилтии
хэмжинэ
хэмжих
хэмжихэд
хэмжсэн
хэмжээ
хэмжээг
хэмжээгээ
хэмжээгээр
хэмжээгээрээ
хэмжээгүи
хэмжээлшгүи
хэмжээнд
хэмжээндээ
хэмжээнии
хэмжээнээс
хэмжээнээсээ
хэмжээнүүд
хэмжээнүүдии
хэмжээс
хэмжээсии
хэмжээст
хэмжээстэи
хэмжээт
хэмжээтэи
хэмжүүр
хэмжүүрии
хэмии
хэммингии
хэмнэж
хэмнэл
хэмнэлии
хэмнэлт
хэмнэлттэи
хэмнэлтэи
хэмнэх
хэмпшир
хэмт
хэмтэи
хэмх
хэмхдэг
хэмхлэх
хэмхрэх
хэмхэрсэн
хэмхэрч
хэмээв
хэмээгддэг
хэмээгдэж
хэмээгдэх
хэмээгч
хэмээгээд
хэмээдэг
хэмээж
хэмээжээ
хэмээн
хэмээнэ
хэмээр
хэмээс
хэмээсэн
хэмээх
хэн
хэнань
хэнгэргии
хэнгэрэг
хэнд
хэнз
хэнии
хэнкс
хэнри
хэнтии
хэнтэи
хэншүү
хэнэггүи
хэнээс
хэр
хэрвээ
хэргии
хэргэм
хэргэмии
хэргээ
хэргээр
хэргээс
хэргүүд
хэргүүдии
хэрд
хэрж
хэрии
хэрлэн
хэрлэнгии
хэрмии
хэрмэл
хэрмэн
хэрнээ
хэрсэн
хэрсүү
хэртэи
хэрхэвч
хэрхэн
хэрхэх
хэрцгии
хэрчиж
хэрчим
хэрчих
хэрэв
хэрэг
хэрэггүи
хэрэгждэг
хэрэгжиж
хэрэгжилт
хэрэгжилтии
хэрэгжих
хэрэгжсэн
хэрэгжүүлдэг
хэрэгжүүлж
хэрэгжүүлнэ
хэрэгжүүлсэн
хэрэгжүүлэгч
хэрэгжүүлэлт
хэрэгжүүлэн
хэрэгжүүлэх
хэрэгжүүлэхии
хэрэгжүүлэхэд
хэрэгжүүлэхээр
хэрэглэвэл
хэрэглэгддэг
хэрэглэгдсэн
хэрэглэгдэж
хэрэглэгдэнэ
хэрэглэгдэх
хэрэглэгдэхүүн
хэрэглэгдэхүүнии
хэрэглэгч
хэрэглэгчдии
хэрэглэгчдэд
хэрэглэгчид
хэрэглэгчидтэи
хэрэглэгчии
хэрэглэгчтэи
хэрэглэгчээс
хэрэглэдэг
хэрэглэдэггүи
хэрэглэж
хэрэглэжээ
хэрэглэл
хэрэглэлии
хэрэглэн
хэрэглэнэ
хэрэглэснии
хэрэглэснээр
хэрэглэснээс
хэрэглэсэн
хэрэглэсээр
хэрэглэх
хэрэглэхгүи
хэрэглэхдээ
хэрэглэхии
хэрэглэхэд
хэрэглэхээ
хэрэглэхээр
хэрэглэхээс
хэрэглээ
хэрэглээг
хэрэглээгүи
хэрэглээнд
хэрэглээнии
хэрэглээнээс
хэрэглээтэи
хэрэглүүр
хэрэглүүрии
хэрэгслии
хэрэгслэлии
хэрэгслээр
хэрэгслээс
хэрэгслүүд
хэрэгслүүдии
хэрэгсэл
хэрэгсэлд
хэрэгсэлии
хэрэгсэлтэи
хэрэгсэхгүи
хэрэгт
хэрэгтнии
хэрэгтнүүд
хэрэгтнүүдии
хэрэгтэи
хэрэгтэн
хэрэгтэнг
хэрэгтээ
хэрэгцээ
хэрэгцээг
хэрэгцээгээ
хэрэгцээгүи
хэрэгцээнд
хэрэгцээнии
хэрэгцээнээс
хэрэгцээт
хэрэгцээтэи
хэрэгч
хэрэи
хэрэлдэж
хэрэлдэх
хэрэм
хэрэмнии
хэрэмтэи
хэрэн
хэрэх
хэрээ
хэрээдии
хэрээнии
хэрээр
хэрээс
хэрүүл
хэрүүлии
хэрүүлч
хэсгии
хэсгээ
хэсгээр
хэсгээрээ
хэсгээс
хэсгээсээ
хэсгүүд
хэсгүүдии
хэсгүүдтэи
хэсгүүдэд
хэсгүүдээс
хэсч
хэсэг
хэсэглэн
хэсэгт
хэсэгтэи
хэсэгтээ
хэсэгхэн
хэсэгчилсэн
хэсэгчлэн
хэсэж
хэсэн
хэсэх
хэт
хэтии
хэтнии
хэтрэх
хэтрэхгүи
хэтрүүлж
хэтрүүлэн
хэтэвч
хэтэрвэл
хэтэрсэн
хэтэрхии
хэтэрч
хэц
хэцүү
хэчнээн
хэш
хээ
хээг
хээгээр
хээгүи
хээл
хээлээ
хээнии
хээнцэр
хээр
хээрии
хээрт
хээс
хээтэи
хя
хядагч
хядаж
хядах
хядлага
хядсан
хязаалан
хязгаар
хязгаараа
хязгаараар
хязгаараас
хязгааргүи
хязгаарлагддаг
хязгаарлагдмал
хязгаарлагдсан
хязгаарладаг
хязгаарлаж
хязгаарлалт
хязгаарлалттаи
хязгаарлалтууд
хязгаарлалтыг
хязгаарлан
хязгаарласан
хязгаарлах
хязгаарт
хязгаартаи
хязгаарыг
хязгаарын
хялаи
хялар
хялбар
хялбараар
хялбархан
хялбаршуулсан
хялгана
хялганат
хялгас
хялгасаар
хялгасан
хямд
хямдхан
хямрал
хямралаас
хямралд
хямралыг
хямралын
хямрах
хянагч
хянадаг
хянаж
хяналт
хяналтаа
хяналтаас
хяналтад
хяналтан
хяналтанд
хяналтандаа
хяналтгүи
хяналтдаа
хяналттаи
хяналтыг
хяналтын
хянамгаи
хянан
хянах
хянахад
хянга
хянган
хянганы
хянуур
хяр
хяргас
хяргах
хярс
хяруу
хяруул
хярын
хясаа
хясааны
хят
хятад
хятадаар
хятадаас
хятадад
хятадтаи
хятадууд
хятадуудыг
хятадуудын
хятадыг
хятадын
хятан
хү
хүбэи
хүдрии
хүдрээс
хүдэн
хүдэр
хүдэрт
хүж
хүзүү
хүзүүвч
хүзүүгээ
хүзүүн
хүзүүнд
хүзүүндээ
хүзүүнии
хүзүүт
хүзүүтэи
хүи
хүлгии
хүлж
хүлхии
хүлцэнгүи
хүлэг
хүлэгү
хүлэгүгии
хүлэмжии
хүлэх
хүлээ
хүлээв
хүлээгдэж
хүлээдэг
хүлээж
хүлээжээ
хүлээлгэж
хүлээлгэн
хүлээлгэх
хүлээлгүи
хүлээлт
хүлээлтии
хүлээн
хүлээнэ
хүлээс
хүлээснии
хүлээсэн
хүлээх
хүлээхгүи
хүлээцтэи
хүмүүжиж
хүмүүжил
хүмүүжлии
хүмүүжсэн
хүмүүжүүлж
хүмүүжүүлсэн
хүмүүжүүлэгч
хүмүүжүүлэх
хүмүүн
хүмүүнии
хүмүүнлэг
хүмүүнлэгии
хүмүүс
хүмүүсии
хүмүүст
хүмүүстэи
хүмүүсээ
хүмүүсээр
хүмүүсээс
хүн
хүнгүи
хүнд
хүндгүи
хүндии
хүндлэл
хүндлэн
хүндлэх
хүндрэл
хүндрэлии
хүндрэлтэи
хүндрэх
хүндрүүлэх
хүндтэи
хүндхэн
хүндэд
хүндэл
хүндэлдэг
хүндэлж
хүндэрсэн
хүндэрч
хүндэт
хүндэтгэвэл
хүндэтгэдэг
хүндэтгэж
хүндэтгэл
хүндэтгэлии
хүндэтгэлтэи
хүндэтгэн
хүндэтгэсэн
хүндэтгэх
хүндээ
хүндээр
хүнии
хүнлэг
хүннү
хүннүгии
хүннүд
хүннүчүүд
хүнс
хүнсии
хүнснии
хүнсэнд
хүнсэндээ
хүнсээ
хүнсээр
хүнтэи
хүнхэр
хүнцлии
хүнцэл
хүнээ
хүнээр
хүнээс
хүр
хүрвэл
хүргэв
хүргэгч
хүргэдэг
хүргэж
хүргэжээ
хүргэн
хүргэнд
хүргэнии
хүргэнэ
хүргэсэн
хүргэх
хүргэхгүи
хүргэхии
хүргэхэд
хүргэхээр
хүргээд
хүргүүлж
хүргүүлсэн
хүргүүлэх
хүрд
хүрднии
хүрдэг
хүрдэггүи
хүрж
хүрз
хүрзнии
хүрлии
хүрлээ
хүрмэгц
хүрмэн
хүрмээр
хүрнэ
хүрснии
хүрсэн
хүртдэг
хүртжээ
хүртлэх
хүртлээ
хүртсэн
хүртсэнии
хүртсэнээр
хүртсэнээс
хүртэв
хүртэж
хүртэл
хүртэлх
хүртэн
хүртэх
хүртэхүи
хүртээв
хүртээд
хүртээж
хүртээжээ
хүртээл
хүртээмж
хүртээмжии
хүртээмжтэи
хүртээсэн
хүртээх
хүрхрээ
хүрч
хүрчээ
хүрэв
хүрэвтэр
хүрэгчдии
хүрэл
хүрэлбаатар
хүрэлсүх
хүрэлцэн
хүрэлцэх
хүрэлцэхгүи
хүрэлцэхүи
хүрэлцээ
хүрэлцээтэи
хүрэм
хүрэн
хүрэх
хүрэхгүи
хүрэхии
хүрэхэд
хүрэхээр
хүрэхүи
хүрээ
хүрээг
хүрээгээ
хүрээгээр
хүрээгүи
хүрээд
хүрээлбэл
хүрээлж
хүрээлсэн
хүрээлэгдсэн
хүрээлэгдэн
хүрээлэгдэнэ
хүрээлэн
хүрээлэнг
хүрээлэнгии
хүрээлэнгээс
хүрээлэнгүүд
хүрээлэнд
хүрээлэх
хүрээн
хүрээнд
хүрээнии
хүрээнээс
хүрээт
хүрээтэи
хүсвэл
хүсдэг
хүслии
хүслэн
хүслээ
хүслээр
хүснэ
хүснэгт
хүснэгтии
хүснэгтэд
хүснэгтэнд
хүснэгтээр
хүснэгтээс
хүссэн
хүсч
хүсчээ
хүсье
хүсэж
хүсэл
хүсэлгүи
хүсэлт
хүсэлтии
хүсэлтэи
хүсэлтээ
хүсэлтээр
хүсэн
хүсэх
хүсэхгүи
хүсээгүи
хүхрии
хүхэр
хүхэрт
хүч
хүчгүи
хүчдэл
хүчдэлии
хүчии
хүчил
хүчилд
хүчиллэг
хүчилтэи
хүчилтөрөгч
хүчилтөрөгчии
хүчилтөрөгчтэи
хүчилтөрөгчөөр
хүчин
хүчингүи
хүчинд
хүчиндээ
хүчинтэи
хүчир
хүчирхии
хүчирхэг
хүчирхэгжиж
хүчирхэгжин
хүчирхэгжсэн
хүчит
хүчлии
хүчлэн
хүчлүүд
хүчлүүдии
хүчнии
хүчнээр
хүчнээс
хүчнүүд
хүчнүүдии
хүчтэи
хүчтэн
хүчээ
хүчээр
хүчээрээ
хүчүлүг
хүү
хүүг
хүүгии
хүүгээ
хүүгээр
хүүд
хүүдии
хүүдээ
хүүн
хүүр
хүүрии
хүүрнэл
хүүрнэн
хүүтэи
хүүхдии
хүүхдэд
хүүхдээ
хүүхдээс
хүүхдүүд
хүүхдүүддээ
хүүхдүүдии
хүүхдүүдэд
хүүхдүүдээ
хүүхнии
хүүхнүүд
хүүхэд
хүүхэдгүи
хүүхэддээ
хүүхэдтэи
хүүхэлдэи
хүүхэн
хүүхэнд
хө
хөв
хөвгүүд
хөвгүүдии
хөвгүүн
хөвгүүнии
хөвгүүнтэи
хөвд
хөвж
хөврөл
хөврөлии
хөвсгөл
хөвсгөлии
хөвсгөр
хөвч
хөвчии
хөвүүд
хөвүүдии
хөвүүн
хөвүүнии
хөвөгч
хөвөн
хөвөнгии
хөвөнтэи
хөвөх
хөвөө
хөвөөгөөр
хөвөөнд
хөвөөт
хөг
хөгждөг
хөгжжээ
хөгжив
хөгжиж
хөгжил
хөгжилд
хөгжилт
хөгжилтэи
хөгжим
хөгжимд
хөгжимдөж
хөгжимдөх
хөгжимт
хөгжимтэи
хөгжимчдии
хөгжимчид
хөгжимчин
хөгжимчнии
хөгжимчнөөр
хөгжин
хөгжингүи
хөгжих
хөгжихии
хөгжихөд
хөгжлии
хөгжлөөр
хөгжлөөс
хөгжмии
хөгжмөө
хөгжмөөр
хөгжсөн
хөгжсөөр
хөгжүүлдэг
хөгжүүлж
хөгжүүлжээ
хөгжүүлсэн
хөгжүүлэгч
хөгжүүлэгчид
хөгжүүлэлт
хөгжүүлэлтии
хөгжүүлэн
хөгжүүлэх
хөгжүүлэхии
хөгжүүлэхэд
хөгжөөгүи
хөгжөөн
хөгжөөх
хөгии
хөгнө
хөгц
хөгшид
хөгшин
хөгширвөл
хөгширсөн
хөгширч
хөгшрөх
хөд
хөдлөв
хөдлөл
хөдлөлии
хөдлөлт
хөдлөлтии
хөдлөн
хөдлөх
хөдлөхгүи
хөдлөхии
хөдлөхөд
хөдсөн
хөдөл
хөдөлгүүр
хөдөлгүүрии
хөдөлгүүрт
хөдөлгүүртэи
хөдөлгөгч
хөдөлгөж
хөдөлгөн
хөдөлгөсөн
хөдөлгөх
хөдөлгөөн
хөдөлгөөнгүи
хөдөлгөөнд
хөдөлгөөнии
хөдөлгөөнт
хөдөлгөөнтэи
хөдөлгөөнүүд
хөдөлгөөнөөр
хөдөлгөөнөөс
хөдөлдөг
хөдөлж
хөдөлжээ
хөдөлмөр
хөдөлмөрии
хөдөлмөрлөж
хөдөлмөрлөх
хөдөлмөрт
хөдөлмөрч
хөдөлмөрчдии
хөдөлмөрөө
хөдөлмөрөөр
хөдөлнө
хөдөлсөн
хөдөс
хөдөө
хөдөөгии
хөдөөд
хөдөөнии
хөзрии
хөзөр
хөл
хөлбөмбөг
хөлбөмбөгии
хөлбөмбөгт
хөлбөмбөгч
хөлбөмбөгчдии
хөлбөмбөгчид
хөлбөмбөгчин
хөлбөмбөгчнии
хөлбөмбөгөөр
хөлгии
хөлгүи
хөлгөн
хөлгөнии
хөлгөөр
хөлд
хөлддөг
хөлдсөн
хөлдүү
хөлдөж
хөлдөнө
хөлдөх
хөлдөө
хөлии
хөллөсөн
хөллөх
хөлнии
хөлрөх
хөлс
хөлсии
хөлслөх
хөлснии
хөлстэи
хөлсөлж
хөлсөө
хөлсөөр
хөлт
хөлтэи
хөлтөн
хөлөг
хөлөгт
хөлөн
хөлөнбуи
хөлөө
хөлөөр
хөлөөрөө
хөлөөс
хөм
хөмрөг
хөмрөгии
хөмрөгт
хөмсөг
хөмсөгнии
хөмүүл
хөн
хөнгөвчлөх
хөнгөлөлт
хөнгөлөх
хөнгөмсөг
хөнгөн
хөнгөнии
хөндии
хөндлөвч
хөндлөн
хөндлөнгии
хөндлөнгөөс
хөндсөн
хөндүүр
хөндөж
хөндөл
хөндөн
хөндөх
хөнжил
хөнжлии
хөнөөж
хөнөөжээ
хөнөөл
хөнөөлии
хөнөөлт
хөнөөлтэи
хөнөөсөн
хөнөөх
хөр
хөрвүүлдэг
хөрвүүлж
хөрвүүлсэн
хөрвүүлэг
хөрвүүлэгч
хөрвүүлэлт
хөрвүүлэн
хөрвүүлэх
хөрвөх
хөргии
хөргөлтии
хөргөх
хөрзөн
хөрс
хөрсии
хөрснии
хөрснөөс
хөрст
хөрстэи
хөрсүүд
хөрсөн
хөрсөнд
хөрш
хөршии
хөршүүд
хөрөг
хөрөнгии
хөрөнгө
хөрөнгөд
хөрөнгөнд
хөрөнгөтнии
хөрөнгөтэи
хөрөнгөтөн
хөрөнгөө
хөрөнгөөр
хөрөх
хөрөө
хөрөөдөх
хөрөөнии
хөсгии
хөсөг
хөсөр
хөтлөгдөн
хөтлөгч
хөтлөгчтэи
хөтлөн
хөтлөх
хөтөл
хөтөлбөр
хөтөлбөрии
хөтөлбөрт
хөтөлбөртэи
хөтөлбөрүүд
хөтөлбөрүүдии
хөтөлбөрөө
хөтөлбөрөөр
хөтөлдөг
хөтөлж
хөтөлсөн
хөтөч
хөх
хөхии
хөхиүлэн
хөхморьт
хөхнии
хөхнуур
хөхрөх
хөхтөмөр
хөхтөн
хөхчирэнгэр
хөхүүл
хөхүүлэн
хөхүүлэх
хөхүүр
хөхүүрии
хөхөвтөр
хөхөж
хөхөл
хөхөх
хөхөө
хөхөөнии
хөшиг
хөшигнии
хөшиж
хөших
хөшүүн
хөшүүрэг
хөшөө
хөшөөг
хөшөөнд
хөшөөнии
хөшөөт
хөө
хөөвөл
хөөвөр
хөөгдсөн
хөөгдөж
хөөгөөд
хөөж
хөөжээ
хөөмии
хөөн
хөөндэи
хөөр
хөөргии
хөөргөв
хөөргөн
хөөргөсөн
хөөргөх
хөөрсөн
хөөрхии
хөөрхөн
хөөрч
хөөрүү
хөөрөг
хөөрөгнии
хөөрөн
хөөрөх
хөөрөө
хөөс
хөөсөн
хөөтэи
хөөх
хөөцөлдөж
хөөцөлдөх
ц
ца
цаа
цаагуур
цаагч
цаад
цаадах
цааж
цааз
цаазаар
цаазалж
цаазалжээ
цаазалсан
цаазат
цаазлав
цаазлагдсан
цаазлан
цаазлах
цаазлуулсан
цаазны
цаазтаи
цаазыг
цаазын
цаалт
цаалтын
цаан
цаана
цаанаа
цаанаас
цааны
цаас
цаасаар
цаасан
цаасанд
цаасны
цаасыг
цаатан
цаах
цааш
цаашаа
цаашдаа
цаашдын
цаашид
цаашилбал
цаашлаад
цав
цаваг
цавуу
цавчиж
цавчим
цавчих
цавь
цаг
цагаа
цагаавтар
цагаагчин
цагаадаи
цагаан
цагаанаар
цагаандэлгэр
цагааннуур
цагаантны
цагаанхаи
цагаанчулуут
цагааны
цагааныг
цагаар
цагаараа
цагаас
цагаасаа
цагаатгасан
цагаатгах
цагаач
цагаачдын
цагаачид
цагаачилж
цагаачилсан
цагаачлалын
цагаачлан
цагадаи
цагариг
цагдаа
цагдаагии
цагдаад
цагдан
цагдах
цагии
цагираг
цагирагт
цагны
цагт
цагтаа
цагтаи
цагын
цадах
цадиг
цаи
цал
цалам
цалгаи
цалгар
цалин
цалинг
цалингии
цалинтаи
цам
цамхаг
цамхагии
цамхгии
цамц
цамцны
цамын
цан
цана
цанаар
цаначин
цангаа
цангах
цанын
цао
цар
цараа
цараи
цардмал
цардуул
цари
царии
царс
царт
цартаи
царцаа
царцах
царцдас
царцдасын
царын
царь
царьт
цас
цасаар
цасан
цасанд
цасны
цаст
цастаи
цатгалан
цах
цахар
цахарын
цахиагии
цахилгаан
цахилгаанаар
цахилгааны
цахилгааныг
цахилдаг
цахим
цахир
цахиур
цахиурт
цахиурын
цахих
цахлаи
цац
цацаг
цацагдаж
цацагджээ
цацагдсан
цацагт
цацаж
цацал
цацах
цацдаг
цацраг
цацрагии
цацрал
цацрах
цацсан
цгаа
цгоо
цгээ
цгүи
цгөө
цдэг
цезарии
цезарь
цеи
целии
цельсии
цемент
цементии
центр
цех
цехии
ци
ции
цикл
циклии
циклон
цилиндр
цилиндрии
цилиндрт
цин
цинь
цирк
циркии
цитоплазмын
цифр
цлии
цлэг
цнэ
цо
цовоо
цог
цогзолмаа
цоглог
цогт
цогтбаяр
цогтои
цогтын
цогц
цогцлон
цогцолбор
цогцолборт
цогцолборыг
цогцолборын
цогцоор
цогцос
цогцосыг
цогцсыг
цогчин
цои
цол
цолд
цолмон
цолны
цолоо
цолоор
цолтои
цолтон
цолыг
цолын
цом
цомбогор
цомгии
цомгоо
цомгоор
цомгоороо
цомгоос
цомгууд
цомгуудын
цомд
цомнол
цомог
цомогоо
цомогт
цомогтои
цомогтоо
цоморлиг
цомтои
цомхон
цомыг
цомын
цон
цонх
цонхны
цонхоор
цонхтои
цонхыг
цоо
цоог
цоодол
цоож
цоолж
цоолох
цооног
цоор
цоорох
цоорхои
цоорч
цоохор
цор
цорвои
цорго
цорж
цорои
цорос
цорын
цох
цохив
цохивор
цохигдож
цохигдон
цохигдсон
цохиж
цохижээ
цохилох
цохилт
цохилтоор
цохилтоос
цохилтыг
цохилтын
цохин
цохио
цохиод
цохисон
цохиулах
цохиулсан
цохиур
цохих
цохиход
цохон
цохын
цочин
цочих
цочмог
цска
цсэн
цтаи
цтэи
цу
цув
цуваа
цувааг
цувааны
цуван
цуварч
цувах
цувж
цувраа
цуврал
цувралаар
цувралд
цувралыг
цувралын
цувран
цуг
цуглаан
цугладаг
цуглаж
цуглан
цугларан
цугларах
цугларсан
цугларч
цугласан
цуглах
цуглуулагч
цуглуулан
цуглуулах
цуглуулга
цуглуулгад
цуглуулгыг
цуглуулгын
цуглуулдаг
цуглуулж
цуглуулсан
цуи
цул
цулбуур
цулгуи
цулцан
цулцгар
цунами
цурхаи
цус
цусаа
цусаар
цусан
цусанд
цусгүи
цусны
цуст
цустаи
цусыг
цутгадаг
цутгаж
цутгал
цутгалан
цутгамал
цутган
цутгана
цутгасан
цутгах
цуу
цуудас
цуулж
цуур
цуураи
цуурхал
цуут
цуутаи
цухал
цухуи
цуцалж
цуцалсан
цуцах
цуцлагдсан
цуцлах
цыши
цэ
цэв
цэвдэг
цэврии
цэврүү
цэвэгжав
цэвэгмид
цэвэлмаа
цэвэлсодном
цэвэр
цэвэрлэгч
цэвэрлэгээ
цэвэрлэгээнии
цэвэрлэж
цэвэрлэнэ
цэвэрлэсэн
цэвэрлэх
цэвэрхэн
цэвээн
цэвээнравдан
цэг
цэгии
цэгмид
цэгмидии
цэгт
цэгтэи
цэгтээ
цэгц
цэгцгии
цэгцгүи
цэгцлэх
цэгцтэи
цэгэн
цэгээ
цэгээн
цэгээр
цэгээс
цэгүүд
цэгүүдии
цэд
цэдэв
цэдэвии
цэдэн
цэдэнбал
цэдэнбалын
цэдэндамбын
цэдэндорж
цэдэнжав
цэж
цэл
цэлгэр
цэлдүүлэх
цэлии
цэлмэг
цэлмэх
цэлцгэр
цэмбэ
цэмцгэр
цэн
цэнгэг
цэнгэл
цэнгэлд
цэнгэлдэх
цэнгэлдэхии
цэнгэлдэхэд
цэнгэлии
цэнгэх
цэнгээнии
цэнгээнт
цэнгүүн
цэнд
цэндии
цэнии
цэнтэи
цэнхэр
цэнхэрии
цэнэ
цэнэг
цэнэгии
цэнэглэгч
цэнэглэх
цэнэгт
цэнэгтэи
цэнэтэи
цэр
цэргии
цэргээ
цэргээр
цэргээс
цэргүүд
цэргүүдии
цэргүүдтэи
цэргүүдэд
цэргүүдээ
цэргүүдээс
цэрдии
цэрэг
цэрэглэн
цэрэгт
цэрэгтэи
цэрэн
цэрэнгии
цэрэндаваа
цэрэндагва
цэрэндолгор
цэрэндорж
цэрэндоржии
цэрэндулам
цэрэнпил
цэрэнпилии
цэрэнтогтох
цэрэнханд
цэрэнчимэд
цэс
цэт
цэтгэв
цэтгэгч
цэтгэгчээр
цэтгэдэг
цэтгэж
цэтгэжээ
цэтгэл
цэтгэлии
цэтгэн
цэтгэнэ
цэтгэсэн
цэтгэх
цэтгэхдээ
цэтгэхии
цэтгэхэд
цэтгэхээр
цэтгүүлэх
цэтгүүлэхээр
цэх
цэхгүи
цэхүи
цэц
цэцгии
цэцгэн
цэцгээ
цэции
цэцэг
цэцэглэдэг
цэцэглэж
цэцэглэлт
цэцэглэлтии
цэцэглэн
цэцэглэнэ
цэцэглэх
цэцэгт
цэцэгтэи
цэцэн
цэцэрлэг
цэцэрлэгии
цэцэрлэгт
цээ
цээгүи
цээд
цээж
цээжин
цээжинд
цээжиндээ
цээжлэх
цээжнии
цээжтэи
цээжээ
цээжээр
цээл
цээнд
цээнэ
цээр
цээргүи
цээрии
цээрлэдэг
цээрлэл
цээрлэн
цээрлэнэ
цээрлэх
цээрлүүлэх
цээх
цюрих
цянь
цүлхгэр
цүлхии
цүлхэн
цүндгэр
цүнх
цүү
цүүлэн
цүүлэх
цүүц
цөв
цөвүүн
цөгц
цөл
цөлд
цөлж
цөлжилт
цөлии
цөллөгии
цөллөгт
цөлсөн
цөлөгдсөн
цөлөрхөг
цөлөөс
цөм
цөмд
цөмии
цөмрөн
цөмөрч
цөмөөрөө
цөн
цөс
цөснии
цөх
цөцгии
цөөн
цөөнгүи
цөөнх
цөөнхии
цөөрмии
цөөрсөн
цөөрч
цөөрөм
цөөрөх
цөөтэи
цөөхүр
цөөхүүл
цөөхөн
ч
ча
чаа
чаби
чавга
чавганц
чавхдас
чавхдаст
чагдаржав
чагнах
чагт
чагтлан
чад
чадаагүи
чадав
чадавх
чадавхи
чадавхии
чадаж
чадал
чадалгүи
чадалтаи
чадамгаи
чадамж
чадамжтаи
чадан
чадах
чадахаа
чадахгүи
чадахуи
чадвал
чадвар
чадвараа
чадвараар
чадвараараа
чадвараас
чадваргүи
чадварлаг
чадварт
чадвартаи
чадварыг
чадварын
чаддаг
чаддаггүи
чаджээ
чадлаа
чадлаар
чадлаараа
чадлыг
чадлын
чадлынхаа
чадмаг
чадна
чадраабал
чадсан
чадсангүи
чаи
чак
чалчаа
чалчих
чам
чамаас
чамаи
чамархаи
чамбаи
чамгүи
чамд
чамин
чамтаи
чан
чанад
чанадад
чанаж
чанамал
чанар
чанараа
чанараар
чанараараа
чанараас
чанаргүи
чанарт
чанартаа
чанартаи
чанарууд
чанаруудыг
чанарыг
чанарын
чанасан
чанах
чанга
чангаар
чангаах
чангалах
чангарах
чангатгах
чанд
чандар
чандлан
чандмань
чане
чансаа
чансааг
чансаагаараа
чанх
чаны
чао
чаплин
чаплинии
чараи
чарга
чарли
чарльз
чарльтон
чармаи
чарт
чартад
чартыг
чартын
час
чахундорж
чац
чацаргана
чацарганы
чацарганын
чацга
чацуу
чдын
че
чел
человек
челси
челсигии
челябинск
чемпионат
чен
черкес
чернобылии
черчилль
чех
чехии
чехословак
[...]
