!
"
#
##a
##aa
##ab
##ac
##ad
##ae
##af
##ag
##ah
##ai
##aj
##ak
##al
##am
##an
##ao
##ap
##aq
##ar
##as
##at
##au
##av
##aw
##ax
##ay
##az
##b
##ba
##bb
##bc
##bd
##be
##bf
##bg
##bh
##bi
##bj
##bk
##bl
##bm
##bn
##bo
##bp
##bq
##br
##bs
##bt
##bu
##bv
##bw
##bx
##by
##bz
##c
##ca
##cb
##cc
##cd
##ce
##cf
##cg
##ch
##ci
##cj
##ck
##cl
##cm
##cn
##co
##cp
##cq
##cr
##cs
##ct
##cu
##cv
##cw
##cx
##cy
##cz
##d
##da
##db
##dc
##dd
##de
##df
##dg
##dh
##di
##dj
##dk
##dl
##dm
##dn
##do
##dp
##dq
##dr
##ds
##dt
##du
##dv
##dw
##dx
##dy
##dz
##e
##ea
##eb
##ec
##ed
##ee
##ef
##eg
##eh
##ei
##ej
##ek
##el
##em
##en
##eo
##ep
##eq
##er
##es
##et
##eu
##ev
##ew
##ex
##ey
##ez
##f
##fa
##fb
##fc
##fd
##fe
##ff
##fg
##fh
##fi
##fj
##fk
##fl
##fm
##fn
##fo
##fp
##fq
##fr
##fs
##ft
##fu
##fv
##fw
##fx
##fy
##fz
##g
##ga
##gb
##gc
##gd
##ge
##gf
##gg
##gh
##gi
##gj
##gk
##gl
##gm
##gn
##go
##gp
##gq
##gr
##gs
##gt
##gu
##gv
##gw
##gx
##gy
##gz
##h
##ha
##hb
##hc
##hd
##he
##hf
##hg
##hh
##hi
##hj
##hk
##hl
##hm
##hn
##ho
##hp
##hq
##hr
##hs
##ht
##hu
##hv
##hw
##hx
##hy
##hz
##i
##ia
##ib
##ic
##id
##ie
##if
##ig
##ih
##ii
##ij
##ik
##il
##im
##in
##io
##ip
##iq
##ir
##is
##it
##iu
##iv
##iw
##ix
##iy
##iz
##j
##ja
##jb
##jc
##jd
##je
##jf
##jg
##jh
##ji
##jj
##jk
##jl
##jm
##jn
##jo
##jp
##jq
##jr
##js
##jt
##ju
##jv
##jw
##jx
##jy
##jz
##k
##ka
##kb
##kc
##kd
##ke
##kf
##kg
##kh
##ki
##kj
##kk
##kl
##km
##kn
##ko
##kp
##kq
##kr
##ks
##kt
##ku
##kv
##kw
##kx
##ky
##kz
##l
##la
##lb
##lc
##ld
##le
##lf
##lg
##lh
##li
##lj
##lk
##ll
##lm
##ln
##lo
##lp
##lq
##lr
##ls
##lt
##lu
##lv
##lw
##lx
##ly
##lz
##m
##ma
##mb
##mc
##md
##me
##mf
##mg
##mh
##mi
##mj
##mk
##ml
##mm
##mn
##mo
##mp
##mq
##mr
##ms
##mt
##mu
##mv
##mw
##mx
##my
##mz
##n
##na
##nb
##nc
##nd
##ne
##nf
##ng
##nh
##ni
##nj
##nk
##nl
##nm
##nn
##no
##np
##nq
##nr
##ns
##nt
##nu
##nv
##nw
##nx
##ny
##nz
##o
##oa
##ob
##oc
##od
##oe
##of
##og
##oh
##oi
##oj
##ok
##ol
##om
##on
##oo
##op
##oq
##or
##os
##ot
##ou
##ov
##ow
##ox
##oy
##oz
##p
##pa
##pb
##pc
##pd
##pe
##pf
##pg
##ph
##pi
##pj
##pk
##pl
##pm
##pn
##po
##pp
##pq
##pr
##ps
##pt
##pu
##pv
##pw
##px
##py
##pz
##q
##qa
##qb
##qc
##qd
##qe
##qf
##qg
##qh
##qi
##qj
##qk
##ql
##qm
##qn
##qo
##qp
##qq
##qr
##qs
##qt
##qu
##qv
##qw
##qx
##qy
##qz
##r
##ra
##rb
##rc
##rd
##re
##rf
##rg
##rh
##ri
##rj
##rk
##rl
##rm
##rn
##ro
##rp
##rq
##rr
##rs
##rt
##ru
##rv
##rw
##rx
##ry
##rz
##s
##sa
##sb
##sc
##sd
##se
##sf
##sg
##sh
##si
##sj
##sk
##sl
##sm
##sn
##so
##sp
##sq
##sr
##ss
##st
##su
##sv
##sw
##sx
##sy
##sz
##t
##ta
##tb
##tc
##td
##te
##tf
##tg
##th
##ti
##tj
##tk
##tl
##tm
##tn
##to
##tp
##tq
##tr
##ts
##tt
##tu
##tv
##tw
##tx
##ty
##tz
##u
##ua
##ub
##uc
##ud
##ue
##uf
##ug
##uh
##ui
##uj
##uk
##ul
##um
##un
##uo
##up
##uq
##ur
##us
##ut
##uu
##uv
##uw
##ux
##uy
##uz
##v
##va
##vb
##vc
##vd
##ve
##vf
##vg
##vh
##vi
##vj
##vk
##vl
##vm
##vn
##vo
##vp
##vq
##vr
##vs
##vt
##vu
##vv
##vw
##vx
##vy
##vz
##w
##wa
##wb
##wc
##wd
##we
##wf
##wg
##wh
##wi
##wj
##wk
##wl
##wm
##wn
##wo
##wp
##wq
##wr
##ws
##wt
##wu
##wv
##ww
##wx
##wy
##wz
##x
##xa
##xb
##xc
##xd
##xe
##xf
##xg
##xh
##xi
##xj
##xk
##xl
##xm
##xn
##xo
##xp
##xq
##xr
##xs
##xt
##xu
##xv
##xw
##xx
##xy
##xz
##y
##ya
##yb
##yc
##yd
##ye
##yf
##yg
##yh
##yi
##yj
##yk
##yl
##ym
##yn
##yo
##yp
##yq
##yr
##ys
##yt
##yu
##yv
##yw
##yx
##yy
##yz
##z
##za
##zb
##zc
##zd
##ze
##zf
##zg
##zh
##zi
##zj
##zk
##zl
##zm
##zn
##zo
##zp
##zq
##zr
##zs
##zt
##zu
##zv
##zw
##zx
##zy
##zz
$
%
&
'
(
)
*
+
,
-
.
/
0
00
000
001
002
007
01
010
02
03
04
0470
05
06
07
0736
08
09
0a
0b
0c
0d
0e
0f
0g
0h
0i
0j
0k
0l
0m
0n
0o
0p
0q
0r
0s
0t
0u
0v
0w
0x
0y
0z
1
10
100
1000
10000
100000
1002
1007
101
1011086
1016
102
1021
1024
103
1038
104
105
1050
106
107
108
1080
1086
109
11
110
1100
111
1111
112
1125
1126
113
1130
114
115
116
117
118
1189
119
12
120
1200
12000
1201
1202
1203
1204
1206
1207
121
1211
1215
1218
1219
122
1220
1221
1223
1225
1227
1229
123
1231
1232
1234
1235
1236
1237
1238
124
1240
1241
1242
1245
1246
1248
125
1250
1251
1252
1253
1254
1255
1256
1257
1258
1259
126
1260
1261
1262
1263
1264
1265
1266
1269
127
1270
1271
1272
1274
1275
1276
1277
1278
1279
128
1280
1281
1282
1283
1284
1285
1286
1287
1289
129
1290
1291
1292
1293
1294
1295
1299
13
130
1300
1301
1303
1304
1305
1307
1308
1309
131
1310
1311
1312
1316
132
1320
1321
1323
1324
1325
1326
1327
1328
1329
133
1330
1332
1335
1336
1338
1339
134
1340
1341
1342
1343
1346
1348
135
1350
1351
1353
1357
136
1360
1361
1362
1363
1364
1365
1368
137
1370
1376
1378
138
1380
1388
1389
139
1391
1392
1398
1399
14
140
1400
1402
1405
141
1410
1415
142
1425
1428
143
144
145
1450
1452
1453
1455
1457
146
1460
1465
1466
1469
147
1470
1471
148
1480
149
1492
1493
1498
15
150
1500
15000
1502
1504
1505
1506
151
1512
1513
1517
1519
152
1520
1521
153
1530
1533
1534
154
1540
1547
155
1550
1556
1557
156
1567
1568
1569
157
1572
1578
1579
158
1580
1582
1585
1586
1587
159
1590
1592
1598
1599
16
160
1600
1603
1605
1609
161
1611
1612
1616
1617
1618
1619
162
1620
1621
1624
1625
1626
1627
1628
163
1630
1631
1632
1634
1635
1636
1637
1638
1639
164
1640
1641
1642
1643
1644
1645
1646
1648
1649
165
1650
1651
1652
1653
1654
1655
166
1660
1661
1662
167
1670
1675
1676
168
1680
1682
1683
1685
1686
1688
1689
169
1690
1691
1696
1697
17
170
1700
1701
1703
1706
1707
1709
171
1710
1712
1718
172
1720
1721
1722
1723
1724
1725
1727
1728
173
1730
1731
1732
1733
1735
1736
1737
1739
174
1740
1741
1745
1747
175
1750
1752
1753
1754
1755
1756
1757
1758
1759
176
1760
1761
1762
1763
1764
1765
1766
1767
1768
1769
177
1770
1771
1772
1773
1774
1775
1776
1777
1778
1779
178
1780
1781
1782
1783
1784
1785
1786
1787
1788
1789
179
1790
1791
1792
1793
1794
1795
1796
1797
1798
1799
18
180
1800
1801
1802
1803
1804
1805
1806
1807
1808
1809
181
1810
1811
1812
1813
1814
1815
1816
1817
1818
1819
182
1820
1821
1822
1823
1824
1825
1826
1827
1828
1829
183
1830
1831
1832
1833
1834
1835
1836
1837
1838
1839
184
1840
1841
1842
1843
1844
1845
1846
1847
1848
1849
185
1850
1851
1852
1853
1854
1855
1856
1857
1858
1859
186
1860
1861
1862
1863
1864
1865
1866
1867
1868
1869
187
1870
1871
1872
1873
1874
1875
1876
1877
1878
1879
188
1880
1881
1882
1883
1884
1885
1886
1887
1888
1889
189
1890
1891
1892
1893
1894
1895
1896
1897
1898
1899
19
190
1900
1901
1902
1903
1904
1905
1906
1907
1908
1909
191
1910
1911
1912
1913
1914
1915
1916
1917
1918
1919
192
1920
1921
1922
1923
1924
1925
1926
1927
1928
1929
193
1930
19306
1931
1932
1933
1934
1935
1936
1937
1938
1939
194
1940
1941
1942
1943
1944
1945
1946
1947
1948
1949
195
1950
1951
1952
1953
1954
1955
1956
1957
1958
1959
196
1960
1961
1962
1963
1964
1965
1966
1967
1968
1969
197
1970
1971
1972
1973
1974
1975
1976
1977
1978
1979
198
1980
1981
1982
1983
1984
1985
1986
1987
1988
1989
199
1990
1991
1992
1993
1994
1995
1996
1997
1998
1999
1a
1b
1c
1d
1e
1f
1g
1h
1i
1j
1k
1l
1m
1n
1o
1p
1q
1r
1s
1t
1u
1v
1w
1x
1y
1z
2
20
200
2000
20000
2001
2002
2003
2004
2005
2006
2007
2008
2009
201
2010
2011
2012
2013
2014
2015
2016
2017
2018
2019
202
2020
2021
2022
2024
203
2030
204
205
2050
206
207
208
209
21
210
2100
211
212
213
214
215
216
217
218
219
22
220
2200
221
222
2220
2225
223
224
225
226
227
228
229
23
230
231
232
233
234
235
236
237
238
239
24
240
2400
241
242
243
244
245
246
247
248
249
25
250
2500
251
252
253
254
255
256
257
258
259
26
260
2600
261
26169
262
263
264
265
266
267
268
269
27
270
27001
271
272
273
274
275
276
277
278
279
28
280
281
282
283
284
285
286
287
288
289
29
290
291
292
293
294
295
296
297
298
299
2a
2b
2c
2d
2e
2f
2g
2h
2i
2j
2k
2l
2m
2n
2o
2p
2q
2r
2s
2t
2u
2v
2w
2x
2y
2z
3
30
300
3000
30000
301
302
303
304
305
306
307
308
309
31
310
311
312
313
314
315
316
317
318
319
32
320
321
322
323
324
325
326
327
328
329
33
330
331
332
333
334
335
336
337
338
34
340
341
342
343
344
345
346
347
348
349
35
350
3500
351
353
354
355
356
357
359
36
360
361
362
363
364
365
366
367
368
37
370
371
372
373
375
376
377
38
380
381
383
384
385
386
387
388
39
390
393
394
395
396
397
399
3a
3b
3c
3d
3e
3f
3g
3h
3i
3j
3k
3l
3m
3n
3o
3p
3q
3r
3s
3t
3u
3v
3w
3x
3y
3z
4
40
400
4000
401
402
403
404
405
406
409
41
410
412
414
415
416
419
42
420
421
422
424
425
428
429
43
430
431
432
433
438
439
44
440
443
444
445
446
447
45
450
4500
451
452
453
454
458
46
460
461
466
469
47
470
471
474
475
476
479
48
480
486
49
490
491
494
499
4a
4b
4c
4d
4e
4f
4g
4h
4i
4j
4k
4l
4m
4n
4o
4p
4q
4r
4s
4t
4u
4v
4w
4x
4y
4z
5
50
500
5000
50000
501
502
504
506
508
509
51
510
512
515
52
520
521
522
523
525
526
527
528
53
530
531
532
534
535
54
540
5415
547
55
550
552
555
557
56
560
57
570
577
578
58
580
581
589
59
590
591
5983548781331
5a
5b
5c
5d
5e
5f
5g
5h
5i
5j
5k
5l
5m
5n
5o
5p
5q
5r
5s
5t
5u
5v
5w
5x
5y
5z
6
60
600
6000
601
603
605
61
610
613
617
618
62
620
625
626
628
63
630
631
64
640
642
645
647
648
65
650
655
66
660
665
67
670
674
68
680
684
686
688
69
690
691
6a
6b
6c
6d
6e
6f
6g
6h
6i
6j
6k
6l
6m
6n
6o
6p
6q
6r
6s
6t
6u
6v
6w
6x
6y
6z
7
70
700
7000
705
71
710
713
716
72
720
727
73
730
731
737
74
740
741
742
745
747
75
750
76
760
768
77
770
771
777
7776
78
780
79
790
7a
7b
7c
7d
7e
7f
7g
7h
7i
7j
7k
7l
7m
7n
7o
7p
7q
7r
7s
7t
7u
7v
7w
7x
7y
7z
8
80
800
8000
802
805
808
809
81
810
811
812
814
82
821
824
83
84
840
84596
8493
85
850
86
860
868
87
870
88
89
8a
8b
8c
8d
8e
8f
8g
8h
8i
8j
8k
8l
8m
8n
8o
8p
8q
8r
8s
8t
8u
8v
8w
8x
8y
8z
9
90
900
9000
907
91
911
915
918
92
920
923
924
926
93
936
937
94
947
95
950
951
96
960
9635
97
970
975
978
979
98
980
99
999
99929
99962
9a
9b
9c
9d
9e
9f
9g
9h
9i
9j
9k
9l
9m
9n
9o
9p
9q
9r
9s
9t
9u
9v
9w
9x
9y
9z
:
;
<
=
>
?
@
[
[CLS]
[MASK]
[PAD]
[SEP]
[UNK]
\
]
^
_
`
a
a0
a1
a2
a3
a4
a5
a6
a7
a8
a9
aa
aaa
aaron
ab
abc
abcd
abgerufen
able
about
above
abraham
abs
abstract
abundances
ac
academic
academie
academy
access
accessed
according
account
accounting
accounts
acid
ack
acm
acquire
across
acs
act
action
active
actor
ad
adam
adams
add
addison
additional
address
adf
administration
administrative
adobe
adult
advanced
adventure
ae
aes
af
afc
affairs
afghanistan
africa
african
afrika
after
ag
again
against
age
ageing
agencies
agency
agent
agree
agreement
agrees
agricultural
agriculture
ah
ai
aic
aid
air
airlines
aj
ajax
ak
al
alabama
alan
alaska
alba
albania
albert
albion
album
albums
alex
alexander
alfred
algorithm
ali
aligned
all
allen
alliance
allkpop
allmovie
allmusic
allow
allowed
allrussischen
alone
alors
alpha
als
also
alter
alternative
always
am
amazon
amd
america
american
among
amy
an
analysis
ancient
and
anders
anderson
andorra
andre
andrea
andreas
andrew
android
andy
angegeben
angegebene
angel
angeles
angola
animal
animals
animation
anime
ann
anna
anne
anniversary
annotated
announce
announced
announces
annual
anonymous
another
ansi
answer
answers
anterior
anthony
anthropology
anti
antonio
any
anzahl
ao
aoa
ap
apache
api
app
appendix
apple
application
applications
applied
approach
april
aq
aquila
ar
ara
arab
arabic
arch
archaeology
architecture
archive
archived
archives
arctic
arctos
are
area
areas
arena
argentina
argument
argv
aria
arizona
arkansas
arkive
armenia
armenian
army
arnold
around
arp
arsenal
art
arthur
article
articles
artikel
artist
artists
arts
as
ascii
asean
asia
asian
asp
aspects
aspx
assembly
assessment
associated
association
aston
astro
astronomy
at
athletes
athletic
atlanta
atlantic
atlas
atletico
atm
atomic
attack
attribute
au
auch
audio
auf
aufl
auflage
aug
august
augustus
aus
austin
australia
australian
austria
authentication
authority
auto
autonomous
autosport
av
available
avatar
avatrade
avilgaliin
aviv
aw
award
awards
away
ax
ay
az
azerbaijan
b
b0
b1
b2
b3
b4
b5
b6
b7
b8
b9
ba
baby
back
background
backup
bad
baden
bafta
baker
balance
ball
baltic
ban
banana
band
bang
bank
bar
barbara
barcelona
barclays
barnes
barry
base
based
basel
basic
basis
basketball
bat
battle
bay
bayer
bayern
bb
bbc
bc
bd
bdfutbol
be
bean
bear
bears
beast
beat
beatles
beautiful
because
beck
become
becomes
been
before
begin
beginning
behind
bei
beijing
beim
being
belarus
belgium
belize
bell
ben
benjamin
benth
berechnete
berkeley
berlin
berlusconi
bernard
berners
best
beta
better
between
bevolkerung
beyond
bezogen
bf
bg
bgp
bh
bi
bibliography
bid
big
bild
bill
billboard
billion
bin
binary
binder
bio
biochemistry
biography
biol
biological
biology
biotechnology
bird
birdlife
birds
birmingham
birth
bis
bit
bitcoin
bj
bk
bl
black
blackburn
blackpool
blackwell
blade
blasco
blazers
block
blog
blogmn
blogspot
blood
bloomberg
blu
blue
blues
bluetooth
bm
bmw
bn
bo
board
bob
bobcats
boca
body
boiling
bol
bolivia
bolodm
bolon
bolson
bolton
boltzmann
book
books
boot
border
born
borussia
boss
boston
both
box
boy
boys
bp
bq
br
brand
brandon
brassica
brazil
break
breaking
breeding
bremen
brian
bridge
brief
brit
britain
britannica
british
broadcast
broadcasting
broadway
brom
bromwich
bros
brother
brothers
brown
browser
bruce
bruno
brunswick
brute
bs
bsd
bt
btob
bts
bu
bucks
buffer
build
builder
building
bulgaria
bull
bulletin
bulls
bundesliga
bureau
burton
bus
business
busy
but
bv
bw
bx
by
byte
bz
c
c0
c1
c2
c3
c4
c5
c6
c7
c8
c9
ca
cabinet
cable
cache
cad
cafe
cage
calcio
california
call
called
calls
cam
cambridge
cameroon
camp
campaign
campbell
can
canada
canadian
canal
cancer
canola
cao
cap
cape
capital
captain
capture
car
caragana
carbon
card
carduelis
career
caribbean
carl
carlos
carter
cartoon
case
cases
cassandra
cast
cat
category
cavaliers
cb
cbc
cbs
cc
cd
cdc
cdma
cdot
ce
celebrity
cell
cells
celtic
celtics
cement
census
center
central
centre
century
cern
cf
cg
cgi
cgs
ch
cha
chain
chainsmokers
challenge
champion
champions
championship
championships
chan
chance
change
changed
changes
changing
channel
chapter
char
character
charles
charlie
charlotte
chart
charts
check
chelsea
chelseafc
chem
chemical
chemie
chemischen
chemistry
chen
chi
chicago
chief
child
children
chile
chin
china
chinese
choi
choice
chris
christian
christmas
christopher
chronicle
chronology
church
churchofjesuschrist
ci
cia
ciaaw
cinema
circus
cisco
cislennost
citation
cite
cities
city
civil
cj
ck
cl
claims
clark
class
classic
classical
classification
cli
client
clifford
climate
clippers
clocks
close
cloud
club
clubs
cluster
cm
cn
cnc
cnn
co
coach
coal
coast
coca
code
codes
cola
cold
coldplay
colin
collection
college
collins
colombia
colonial
color
colorado
columbia
column
com
combat
combined
come
coming
command
comment
commerce
commercial
commission
committee
common
commons
commonwealth
communication
communications
communities
community
company
comparative
comparison
competition
compiled
complete
completes
complex
components
composition
compounds
comprehensive
computer
computing
con
concept
concepts
concern
concert
condition
conf
confederation
conference
config
configuration
confirm
confirmed
confirms
conflict
congress
connect
connected
connection
conservation
consortium
constant
constitution
construction
contact
contemporary
content
contents
contest
context
contract
contributors
control
convention
cookie
cool
cooper
cooperation
copa
copper
copy
core
cornell
coronavirus
corporate
corporation
corpus
corrected
cos
cosmopolitan
cost
costa
cots
could
council
count
countdown
counter
countries
country
county
course
court
cover
coverage
covid
cp
cpu
cq
cqlsh
cr
crc
create
created
creating
creative
credit
crime
criminal
crisis
critical
crm
croatia
crop
crops
cross
crown
crusades
crystal
cs
cso
css
ct
cu
cuba
cube
cultural
culture
cumulative
cup
current
customer
cv
cw
cx
cy
cyprus
cz
czech
d
d0
d1
d2
d3
d4
d5
d6
d7
d8
d9
da
dag
daily
daimler
dakota
dallas
dam
dams
dan
dance
dangerous
daniel
danny
dao
daraus
dark
das
data
database
databases
datastax
date
daum
dave
david
davies
davis
day
days
db
dc
dd
ddos
de
dead
deadline
deadlock
deal
death
debian
debut
dec
december
decision
deep
default
defender
defense
define
defined
definition
deg
del
delay
delete
delivery
dell
della
delta
dem
democracy
demographic
den
dennis
density
department
der
derby
des
describe
description
desert
design
desktop
destination
detail
detailed
details
detection
deutsch
deutsche
deutschen
deutscher
deutsches
deutschland
development
device
devices
dew
dezember
df
dfb
dfrac
dg
dh
dhcp
di
dia
diamond
diane
dictionary
did
die
diego
dienstes
dies
dietrich
different
differential
digest
digital
dijkstra
din
direct
direction
directly
director
directory
disc
disclosure
discovery
discussion
disease
diseases
disk
disney
display
displaystyle
distance
distances
distributed
distribution
district
diversity
division
dj
dk
dl
dm
dma
dn
dna
dns
do
doc
docs
document
documentary
documentation
documents
does
dog
doi
dollar
domain
domestic
don
donald
done
dong
door
dort
dortmund
dos
dot
double
douglas
down
download
dp
dpt
dq
dr
draft
draftexpress
dragon
drama
draw
dream
dreams
drive
driver
drop
ds
dt
du
dual
duck
due
duke
dunn
duo
durch
during
dusseldorf
dutch
dv
dvd
dw
dx
dy
dylan
dynamic
dynamics
dz
dʌ
e
e0
e1
e2
e3
e4
e5
e6
e7
e8
e9
ea
each
eagle
eap
early
earnshaw
earth
east
eastern
eastw
easy
eating
eb
ebu
ec
echo
ecology
economic
economics
economy
ed
edge
edinburgh
edit
editing
edition
editions
editor
editors
eds
edu
education
educational
edward
ee
ef
effect
effects
eg
egypt
eh
ei
eigenschaften
eigrp
ein
eine
einer
einheiten
eintrag
ej
ek
el
election
elections
electric
electronic
element
elemente
elements
elevations
elizabeth
ell
else
em
email
emberiza
emp
emperor
empire
empty
en
enable
encryption
encyclopaedia
encyclopedia
encyclopædia
end
endangered
energy
eng
engine
engineering
england
englisch
english
enough
enter
enterprise
entertainment
enthalpies
entnommen
entry
environment
environmental
eo
ep
eq
equipe
equiv
er
era
erforderlich
ergebnisse
eric
erik
ernst
erp
error
ers
es
esp
espn
essays
essential
est
estadistica
estimate
estimates
et
etc
ethernet
ethnic
ethnicity
ethnologue
etymology
eu
euler
eun
eur
euro
euroleague
europa
europe
european
eurovision
ev
evaluation
evanescence
evans
even
evening
event
events
ever
everton
every
everyday
everything
evidence
evolution
ew
ex
example
excel
exchange
exclusive
exe
execute
executive
exid
exit
exo
experience
explorer
expo
export
express
extended
extensible
extension
extensive
external
ey
eye
eyes
ez
f
f0
f1
f2
f3
f4
f5
f6
f7
f8
f9
fa
face
facebook
fact
factbook
factor
facts
factsheet
faculty
failure
fair
faith
falco
fall
false
fame
family
famous
fan
fans
fantasy
fao
faq
far
fashion
fast
fastethernet
fat
father
fault
fb
fc
fcfs
fd
fe
feat
feature
features
feb
februar
februarie
february
fed
federal
federation
fedora
feedback
feel
female
ferdinand
fernando
ferrari
festival
ff
fg
fh
fi
fia
fiba
field
fifa
fifo
fight
figure
figures
file
files
film
films
filter
fin
final
finance
financial
find
finland
fire
firefox
firewall
first
fis
fischer
fish
fit
five
fix
fj
fk
fl
flag
flags
flash
flight
flora
florida
flow
fluid
fly
fm
fn
fo
focus
foderalen
foderation
fol
follow
following
food
foot
football
footballdatabase
footballers
for
forbes
force
forces
ford
foreign
forest
forever
fork
form
format
formation
formel
former
formula
fort
fortran
forum
forward
forwarding
found
foundation
four
fourth
fox
fp
fq
fr
frac
frame
framework
france
francis
francisco
francois
frank
frankfurt
franz
fred
frederick
free
freebsd
freedom
freeman
french
frequency
friday
friedrich
friendly
friends
friendship
from
front
frontier
fs
ft
ftp
fu
fuel
fulham
full
fulltext
function
functions
fund
fur
fussballdaten
futbol
future
fv
fw
fx
fy
fz
fʧi
g
g0
g1
g2
g3
g4
g5
g6
g7
g8
g9
ga
gallery
game
games
gamma
gaon
garcia
garden
gary
gas
gate
gateway
gay
gazette
gazetteer
gb
gc
gd
gdp
ge
gen
gender
gene
general
generation
genetic
genetics
geneva
genghis
genome
geographic
geographical
geography
geological
george
georgia
geq
ger
gerard
german
germany
geschichte
gestis
get
gets
gf
gg
gh
ghana
ghost
ghz
gi
gibson
gif
gini
girl
girls
give
given
gives
gj
gk
gl
glantz
glass
global
globe
glory
glossary
gm
gmbh
gn
gnu
go
goal
goals
god
goda
goes
gogh
gogo
going
gold
golden
gomez
good
google
goose
gordon
got
gov
government
governor
gp
gpl
gps
gq
gr
grace
grammar
grammy
gran
grand
grande
granger
grant
graphics
gravity
gray
great
greater
greatest
greece
greek
green
greene
greenwood
gregory
grep
grizzlies
gross
ground
group
groups
growl
growth
gruyter
gs
gsm
gst
gt
gu
guard
guardian
gui
guide
guides
guillaume
guinea
gun
guy
gv
gw
gx
gy
gyrus
gz
h
h0
h1
h2
h3
h4
h5
h6
h7
h8
h9
ha
haaretz
had
hadoop
haifa
half
haliaeetus
hall
ham
hamburg
hamilton
han
hand
handbook
handbooks
handbuch
hannover
hans
happy
hard
hardcover
harddrive
hardware
harper
harris
harrison
harry
hart
harvard
harvey
has
hash
hat
have
hawk
hawks
hazards
hb
hc
hcl
hd
he
head
header
headline
health
heart
heat
heaven
heavy
hee
heinrich
heinz
held
helen
heller
hello
help
henoun
henri
henry
hepatitis
her
herald
herbert
here
hergvvd
heritage
hero
herodotus
heroes
hewlett
hf
hg
hh
hi
hidden
hier
high
higher
highest
hill
him
hip
hirzel
his
histoire
historia
historic
historical
histories
history
hit
hitler
hits
hj
hk
hl
hm
hn
hno
ho
hold
holland
hollywood
home
homepage
homo
honda
hong
hook
hop
hope
hopkins
horn
hornets
horse
host
hot
hotel
hotspot
hotspur
houghton
house
housing
houston
how
howard
hp
hq
hr
hrm
hrsg
hs
ht
htm
html
http
https
hu
hub
hugh
hughes
hugman
hull
human
hung
hungarian
hungary
hunt
hunter
huuli
hv
hw
hx
hy
hybrid
hynoun
hypertext
hyun
hz
i
i0
i1
i2
i3
i4
i5
i6
i7
i8
i9
ia
iaaf
ian
iau
ib
ibm
ic
ice
icmp
icon
ict
id
identification
identity
ids
ie
iec
ieee
ietf
if
ifa
ig
ih
ii
iii
ij
ik
ike
ikon
il
illinois
illustrated
im
image
images
imdb
imf
impact
imperial
implementation
import
important
improve
in
ina
inc
include
includes
including
income
independence
independent
index
india
indian
indiana
indicators
indonesia
industrial
industry
infinite
info
infobox
information
infrastructure
infty
init
injection
inner
inorganic
input
insects
insert
inside
instagram
install
institut
institute
institution
instituto
int
integer
integrated
integrity
intel
intelligence
inter
interactive
interest
interface
interfaces
interior
international
internationale
internet
interview
into
introduction
invalid
invasion
inventory
investigation
invoked
io
ios
ip
ipa
ipad
iphone
ips
ipsec
iptv
ipv
iq
ir
iran
ireland
irish
iron
is
isaac
isbn
islam
islamic
island
islands
iso
isotopic
isp
israel
israeli
issn
issue
issues
ist
it
italia
italian
italy
item
itemid
itogi
its
itu
itunes
iu
iucn
iucnredlist
iupac
iv
iw
ix
iy
iz
j
j0
j1
j2
j3
j4
j5
j6
j7
j8
j9
ja
jack
jackie
jackson
jacob
jacques
jae
james
jamie
jan
jane
jang
januar
january
japan
japanese
jason
java
javascript
javier
jay
jazz
jb
jc
jd
je
jean
jeff
jefferson
jeffrey
jennifer
jeong
jeremy
jersey
jerusalem
jesus
jet
jewish
jf
jg
jh
ji
jim
jin
jj
jk
jl
jm
jn
jo
job
joe
joel
johan
johannes
john
johns
johnson
join
joins
joint
jonathan
jones
jong
joo
jordan
jose
joseph
josh
journal
journalism
journey
joy
jp
jpg
jq
jr
js
jt
ju
juan
judetul
judo
judoinside
juli
julian
julius
july
jump
jun
june
jung
juni
junior
juniper
just
justice
justification
justin
juventus
jv
jvm
jw
jx
jy
jyp
jz
k
k0
k1
k2
k3
k4
k5
k6
k7
k8
k9
ka
kan
kang
kansas
karl
kb
kbs
kc
kd
ke
keane
keith
kelly
ken
kenneth
kentucky
kepler
kernel
kevin
key
keyboard
keyspace
kf
kg
kh
khan
ki
kia
kick
kicker
kids
kim
king
kingdom
kings
kino
kiss
kit
kj
kk
kl
klaus
km
kn
knicks
knight
know
knowledge
known
ko
koln
kom
kong
korea
korean
kosovo
kp
kq
kr
ks
kt
ku
kurl
kursk
kv
kw
kwon
kx
ky
kyle
kyung
kz
l
l0
l1
l2
l3
l4
l5
l6
l7
l8
l9
la
lab
label
laboratory
ladies
lady
lag
lagʌ
lake
lakers
lambda
lan
land
landscape
lane
lang
language
languages
large
largest
lars
las
last
late
lateralis
latest
latex
latin
lattice
law
lawrence
laxʧi
layer
lb
lc
lcd
ld
le
lead
leader
leaders
leading
leads
league
leap
learn
learning
least
leave
leaves
led
lee
left
leg
legacy
legal
legalinfo
lege
legend
lehrbuch
leicester
leipzig
length
leo
leon
leonard
leopard
leq
les
lesotho
less
let
letter
letters
level
leverkusen
lewis
lexikon
lexʧi
lf
lfp
lg
lh
li
lib
liberty
libraries
library
license
lide
liechtenstein
life
lifetime
liga
light
ligue
like
lim
limit
limited
lin
line
linear
lineups
linguistics
link
linkin
links
linux
lion
list
listed
listen
listing
lists
literature
lithuania
little
liu
live
liveinternational
liverpool
living
lj
lk
ll
llc
lloyd
lm
ln
lo
load
loan
local
localities
location
lock
log
logic
logical
london
long
longer
look
loop
loopback
lord
lorde
los
lost
louis
louisiana
love
lovelyz
low
lp
lq
lr
ls
lsa
lt
ltd
lte
lu
lucas
lucia
ludwig
luis
luke
lupin
lupine
lupinus
luxembourg
lv
lw
lx
ly
lyon
lyrics
lz
m
m0
m1
m2
m3
m4
m5
m6
m7
m8
m9
ma
mac
machine
macmillan
made
madrid
magazine
magic
magnetic
magnets
magyar
mai
mail
mailbox
main
mainstream
mainz
major
make
makes
making
malaysia
malware
mama
man
management
manager
managing
manchester
mandarin
mandatory
manitoba
manual
manuel
manutd
many
mao
map
mapping
maps
mar
marc
marca
march
marco
marcus
maria
marie
marine
mario
mark
market
marketing
markup
markus
married
mars
marshall
martes
martin
mary
maryland
marz
mask
mason
mass
massachusetts
master
mastercard
match
matches
material
materials
mathbb
mathbf
mathematical
mathematics
mathieu
mathrm
mathsf
matrix
matt
matter
matthew
matthews
matthias
mavericks
max
maximum
maxwell
may
maßeinheitslose
mb
mbc
mbk
mbox
mbps
mc
mcgraw
md
me
mean
means
mechanics
med
medal
medeelel
media
mediawiki
medical
medicine
medien
medieval
medium
meet
meeting
mel
melbourne
melilotus
melodrama
member
members
memento
memory
memphis
men
mercedes
mercury
message
messenger
meta
metacritic
metal
meteorological
method
methods
metric
metro
metropolitan
mexico
mf
mg
mglradio
mh
mhz
mi
miami
mib
michael
michel
michigan
microsoft
mid
middle
midfielder
midnight
mifflin
migration
miguel
mike
milan
miletus
military
miller
million
min
mind
mini
mining
minister
ministry
minix
minnesota
minor
minority
minute
minutes
mirror
miss
mission
mit
mitchell
mix
mj
mk
ml
mls
mm
mn
mnet
mns
mo
mobile
mod
mode
model
models
modern
module
mojo
mol
molecular
moment
mon
monaco
monetary
money
mongodb
mongol
mongolia
mongolian
mongols
mongoltoli
monitor
monitoring
month
monthly
montsame
moon
moore
more
morgan
morning
morocco
morris
morse
moscow
most
mother
motor
motors
motorsport
mount
mountain
mountains
mouse
move
movement
moves
movie
movies
mozilla
mp
mpls
mq
mr
ms
msn
mt
mtp
mtv
mu
much
muller
multi
multics
multiple
multitasking
munchen
munich
municipal
murray
muse
museum
music
must
mutex
mv
mvc
mvp
mw
mx
my
mylo
myspace
mysql
mz
n
n0
n1
n2
n3
n4
n5
n6
n7
n8
n9
na
nabla
nach
nacional
nam
name
named
names
nancy
napoli
nas
nasa
naselenija
nat
natd
nate
nation
national
nations
native
natural
nature
naver
nb
nba
nbadraft
nbar
nbc
nc
ncaa
nct
nd
ne
near
nebraska
need
needs
neighbor
neil
nelson
neo
net
netflix
netflow
netherlands
nets
netscape
network
networks
neue
neuer
never
new
newcastle
news
newspaper
next
nf
nfc
ng
ngn
nh
nhk
ni
nic
nice
nicht
nick
nicolas
night
nih
niited
nike
nikola
nimmervoll
nine
nintendo
niosh
nist
nitrogen
nj
nk
nl
nlm
nm
nme
nn
no
noaa
nobel
noble
node
noise
noitalic
nomenclature
non
norman
north
northern
northwest
norway
norwegian
norwich
nosql
not
note
notebook
notes
nov
nova
november
now
np
nq
nr
ns
nst
nt
ntp
nu
nuclear
nucleus
nuggets
null
num
number
numbers
numerical
nunavut
nutrition
nv
nw
nx
ny
nz
o
o0
o1
o2
o3
o4
o5
o6
o7
o8
o9
oa
oasis
ob
object
objectid
oblast
observatory
observer
oc
occupational
ocean
och
oclc
oct
october
od
odoo
oe
oecd
of
off
offer
office
officer
official
og
oh
ohio
oi
oil
oj
ok
oklahoma
oktober
ol
old
oliver
olon
olympic
olympics
om
omega
on
once
one
online
only
ontario
oo
op
opel
open
opening
opera
operating
operation
operations
option
options
oq
or
oracle
order
org
organic
organisation
organization
oricon
oriental
oriented
origin
original
origins
orleans
ornithology
os
oscar
osi
ospf
ospfv
osprey
ot
other
others
otto
ou
our
out
outlook
output
outside
ov
over
overview
ow
owen
owl
own
ox
oxford
oy
oz
p
p0
p1
p2
p3
p4
p5
p6
p7
p8
p9
pa
pablo
pacers
pacific
package
packard
packet
page
pages
pair
pakistan
palace
pan
panda
panthera
paper
paperback
papers
par
para
parachutes
paradise
parallel
parameter
parameters
parent
paris
park
parker
parks
parliament
parlophone
pars
part
partial
particle
parts
party
pass
passer
password
past
pat
path
patrick
patterns
paul
pay
payload
paypal
pb
pbs
pc
pcap
pcb
pd
pdf
pdp
pe
peace
pearl
pearson
peer
penguin
pennsylvania
pentium
people
peoples
per
perepisi
perfect
performance
period
persian
person
personal
perspective
peter
petersburg
petroleum
pf
pfa
pg
ph
phase
phil
philadelphia
philip
phillips
philosophy
phishing
phoenix
phone
photo
photographs
photos
php
phys
physical
physics
physiology
pi
pick
picks
picture
pictures
pid
pierre
pin
pine
ping
pink
pinus
pistons
pj
pk
pl
place
places
plan
planet
planetary
planets
planning
plans
plant
plants
platform
platinum
play
player
players
playstation
please
plus
pm
pmatrix
pmid
pn
po
pocket
point
points
poland
pole
police
policing
policy
polish
political
politics
polo
pool
pop
popest
popular
population
por
porsche
port
portal
portland
porto
portrait
portugal
portuguese
pos
position
posix
possible
post
potter
pour
power
pp
ppp
pq
pr
practice
pre
prefix
premier
premierleague
premium
prentice
present
president
press
prevention
price
primary
prime
prince
princess
princeton
principles
print
printer
printf
printing
prior
priority
prius
privacy
private
prize
pro
problem
problems
procedure
proceedings
process
processes
processing
processor
produced
producer
product
production
products
professional
professor
profile
profiles
program
programme
programming
programs
progress
project
projects
prometheus
properties
property
prospects
protected
protection
protein
protocol
provided
provider
providing
province
ps
psk
pt
pthread
pu
pub
public
publication
publications
published
publisher
publishers
publishing
pulver
pure
push
put
pv
pw
px
py
python
pz
q
q0
q1
q2
q3
q4
q5
q6
q7
q8
q9
qa
qb
qc
qd
qe
qf
qg
qh
qi
qj
qk
ql
qm
qn
qo
qos
qp
qpr
qq
qquad
qr
qs
qt
qu
quad
quality
quantum
quarterly
que
quebec
queen
query
question
questions
queue
quick
qv
qw
qx
qy
qz
r
r0
r1
r2
r3
r4
r5
r6
r7
r8
r9
ra
race
racing
radical
radio
radius
rai
raid
rain
rainer
ram
random
range
ranking
rankings
ransomware
rap
rapid
raptors
rate
rates
ration
raton
ray
raymond
razmescenie
rb
rc
rd
rda
rde
re
reach
read
reader
readers
reading
ready
real
reality
rec
receive
recensamantului
recent
recommendations
record
recorded
recording
records
red
reed
ref
reference
references
refs
region
regional
regions
register
regular
regulation
regulations
reich
related
relations
relationship
relay
release
released
releases
religion
religious
remix
remote
renault
rene
replication
report
reports
reprint
republic
republica
request
required
requirements
res
research
reserve
resistance
resolution
resource
resources
response
restart
restore
result
results
retrieval
retrieved
return
returns
reuters
rev
revealed
reveals
review
reviews
revised
revision
revolution
rf
rfc
rfef
rfid
rg
rh
rho
rhode
ri
rica
rice
rich
richard
richardson
right
rightarrow
rights
ring
rio
rip
ripv
rise
rising
risk
river
rj
rk
rl
rm
rn
ro
road
robert
roberto
robin
robinson
rock
rockets
rodriguez
roger
role
rolling
rom
roma
roman
romania
romanian
rome
romeo
ron
ronald
rookie
room
root
rosa
rose
ross
rotten
round
route
router
routing
routledge
rovers
row
roy
royal
rp
rpr
rq
rr
rs
rsa
rsssf
rt
rtp
rtr
ru
rubber
rudolph
rule
rules
run
running
rush
russell
russia
russian
russisch
russischen
rv
rw
rx
ry
ryan
rz
s
s0
s1
s2
s3
s4
s5
s6
s7
s8
s9
sa
safety
saint
sal
salamandra
salary
sales
salt
salvador
sam
same
samoa
samsung
samuel
san
sanchez
santa
santos
sao
sap
sar
sarah
sarkozy
sars
satellite
saturday
save
say
says
sb
sbs
sc
scale
scan
scandal
schalke
schedule
schmidt
school
schools
schumacher
schuster
science
sciences
scientific
scientist
sciurus
score
scores
scotia
scotland
scott
scottish
scratch
screen
script
sd
sdh
se
sea
seal
seals
search
searchable
season
seattle
sebastian
sec
second
secret
section
sector
secure
security
see
seite
select
selected
self
selling
semaphore
sense
seo
seoul
september
sequence
ser
serbia
sergio
serial
serie
series
server
service
services
session
set
setaria
sets
seung
seven
seventeen
seventh
several
sevilla
sex
sexing
sf
sg
sgml
sh
sha
shanghai
share
shared
sharing
she
sheet
shell
shi
shin
shinee
short
shot
shoufeng
should
show
showing
shows
shtml
shutdown
si
sich
side
sigma
sign
signal
signing
signs
silberschatz
silicon
silva
silver
sim
simon
simple
simulation
sin
since
sind
singapore
singer
single
singles
sino
sinus
sio
sir
site
sites
six
sixth
size
sj
sk
skating
ski
sky
sl
sla
sm
small
smart
smb
smith
smithsonian
smp
smtp
sn
snmp
snooker
snort
snow
so
soc
soccer
soccerbase
soccernet
soccerway
sochi
social
society
software
soil
solar
solaris
solo
solomon
solution
some
something
son
sonet
song
songs
sons
sony
soo
soon
soul
sound
sounds
source
sources
south
southampton
southeast
southern
soviet
sp
space
spain
spanish
spanning
special
specialist
species
specific
specified
specimen
speech
speed
sph
spiegel
spirit
split
sponsor
sport
sporting
sports
sprache
spring
springer
spurs
spy
spyware
sq
sql
sqrt
squad
square
sr
sri
srp
ss
ssh
ssl
ssp
st
staatliche
stability
stack
stadium
stadt
staff
stage
stalin
stand
standard
standards
standby
stanford
stankev
stanley
star
stars
start
stat
state
statement
states
statewide
static
station
statistical
statistics
statistik
stats
status
statystyczny
stay
stefan
step
stephen
steps
steve
steven
stewart
still
stm
stock
stoffdatenbank
stoke
stone
stop
storage
store
stored
stories
storm
story
stp
strategic
strategy
street
strike
striker
string
stromae
strong
structure
structures
stuart
student
students
studies
studio
studios
study
stuttgart
style
styles
su
sub
subif
subject
submit
subsp
successors
such
sudan
suk
sulcus
sum
summary
summer
sun
sunday
sunderland
sung
sunrise
suns
super
supply
support
sur
surface
survey
sv
sw
swansea
sweden
swedish
sweet
swiss
switch
switching
switchport
switzerland
sx
sy
sydney
symmetry
syn
synonym
syntax
syphilis
sys
syslog
system
systems
sz
sʌ
t
t0
t1
t2
t3
t4
t5
t6
t7
t8
t9
ta
tab
tabellen
table
tables
tactical
tag
taiwan
take
taken
takes
talent
talk
talks
tan
tank
tanks
tar
target
task
tata
tau
tax
taxonomic
taylor
tb
tc
tcm
tcp
td
te
team
teams
tech
technical
technologies
technology
ted
teen
tel
telegraph
television
tell
telnet
temperature
template
templates
temple
ten
term
terminal
terms
territorial
territories
territory
terry
tesla
test
testing
texas
text
tf
tfrac
tg
th
than
thank
thanks
that
the
theatre
thefa
their
them
then
theorem
theory
there
these
they
things
think
third
this
thomas
thompson
those
thought
thousand
thread
threatened
three
through
thrush
thunder
ti
tiffany
tiger
tigers
tigris
tim
time
timeline
times
timestamp
timothy
title
tj
tk
tkip
tl
tlb
tlr
tls
tm
tmf
tn
to
tobias
toc
today
together
token
tokyo
toll
tom
tomatoes
tomoohon
tony
too
tool
tools
top
topic
tor
toronto
torres
total
tottenham
touch
touchscreen
tour
tourism
touristinfocenter
tower
town
towns
toyota
tp
tq
tr
track
tracks
tractus
trade
tradition
traffic
trail
train
training
trans
transaction
transfer
transfermarkt
translate
translated
translation
translations
transmission
transport
trap
travel
treat
treaty
tree
trends
triangle
tribune
trigger
trip
triple
trojan
trophy
tropical
trotsky
trouble
true
trunk
trust
ts
tt
tu
tunnel
turkey
turkish
turn
turner
tutorials
tutorialspoint
tuv
tv
tw
twentieth
twice
twisted
twitter
two
tx
txt
ty
type
types
tz
u
u0
u1
u2
u3
u4
u5
u6
u7
u8
u9
ua
ub
uber
ubs
ubuntu
uc
ud
udp
ue
uefa
uf
ufficiale
ug
uh
ui
uj
uk
ukraine
ul
ulaanbaatar
ultra
ultratop
um
uml
un
und
under
understanding
undp
une
unesco
unified
union
unit
united
units
universal
universe
universitat
university
unix
unknown
unter
until
uo
up
update
updated
updates
upon
uq
ur
uranus
urban
url
ursus
uruguay
urzad
us
usa
usb
usda
use
used
user
username
users
uses
usgs
using
usr
ut
utah
utc
utd
utf
utm
uu
uv
uw
ux
uy
uz
v
v0
v1
v2
v3
v4
v5
v6
v7
v8
v9
va
vaccine
valencia
valley
value
values
van
vancouver
vaporization
var
varepsilon
variable
variety
various
vat
vb
vc
vch
vd
ve
vec
vector
vehicle
velvet
verlag
vermont
verpflichtet
version
verteilung
very
vf
vfb
vg
vh
vi
via
viacom
vicia
victor
victoria
victory
vida
video
videos
vietnam
view
views
vii
viii
villa
village
vincent
virgin
virginia
virtual
virus
visa
viscosity
vision
visit
vista
visual
viva
vj
vk
vl
vladimir
vlan
vm
vn
vo
voetbal
vogt
voice
void
vol
volkszahlung
vols
volume
vom
von
vote
vp
vpn
vq
vr
vrf
vrrp
vs
vserossijskoj
vt
vtp
vu
vulpes
vv
vw
vx
vy
vz
w
w0
w1
w2
w3
w4
w5
w6
w7
w8
w9
wa
wagner
wait
waiting
wales
walk
walker
wall
walter
wan
wang
want
war
warcraft
ward
warfare
warhol
warner
warriors
wars
was
washington
watch
water
watson
wave
way
wayback
wayne
wb
wc
wd
we
weast
weather
web
webelements
website
webster
wechselt
week
weekend
weekly
weights
weinheim
welcome
well
welt
weltfussball
wenn
wep
werder
were
werner
wert
werte
wesley
west
western
wetterkontor
wf
wg
wh
what
when
where
which
while
white
who
whole
why
wi
wide
wien
wifi
wigan
wiki
wikimedia
wikipedia
wikis
wikisource
wikitext
wikivoyage
wild
wildlife
wiley
wilhelm
will
william
williams
wilson
win
wind
window
windows
wings
winner
winners
wins
winter
wird
wireless
wisconsin
with
within
without
wizards
wj
wk
wl
wlm
wm
wmf
wn
wo
wolf
wolfgang
wolfsburg
wolves
woman
women
won
wonder
wonders
woo
wood
word
wordpress
words
work
working
works
world
worldfootball
worldwide
worm
worterbuch
would
wp
wpa
wq
wr
wrestling
wright
write
writing
written
ws
wt
wu
wv
ww
www
wx
wy
wz
x
x0
x1
x2
x3
x4
x5
x6
x7
x8
x9
xa
xai
xb
xbox
xc
xd
xe
xerox
xf
xg
xh
xhtml
xi
xii
xiii
xiv
xix
xj
xk
xl
xm
xml
xn
xo
xor
xp
xq
xr
xs
xss
xt
xu
xv
xvi
xvii
xviii
xw
xx
xxi
xy
xyloto
xz
xʧi
y
y0
y1
y2
y3
y4
y5
y6
y7
y8
y9
ya
yahoo
yale
yang
yb
yc
yd
ye
year
yearbook
years
yellow
yeon
yes
yf
yg
yh
yi
yiming
yin
yj
yk
yl
ym
yn
yo
yong
yoo
yoon
york
you
young
your
yourself
youth
youtube
yp
yq
yr
ys
yt
yu
yuan
yv
yw
yx
yy
yz
z
z0
z1
z2
z3
z4
z5
z6
z7
z8
z9
za
zb
zc
zd
ze
zealand
zeit
zeitung
zero
zf
zg
zh
zhang
zhou
zi
zj
zk
zl
zm
zn
zo
zombie
zone
zoothera
zp
zq
zr
zs
zt
zu
zum
zumeta
zur
zurchsun
zurich
zv
zw
zx
zy
zz
{
|
}
~
£
¥
§
¨
©
«
¬
®
¯
°
±
²
³
´
µ
·
¹
º
»
¼
½
¾
¿
×
ß
æ
ð
÷
ø
þ
đ
ı
ł
ŋ
ŋg
œ
ǝ
ɐ
ɑ
ɒ
ɔ
ɕ
ə
ɛ
ɜ
ɝ
ɡ
ɣ
ɦ
ɨ
ɪ
ɫ
ɮ
ɯ
ɲ
ɵ
ɹ
ɾ
ʀ
ʁ
ʂ
ʃ
ʃa
ʃi
ʊ
ʌ
ʏ
ʑ
ʒ
ʔ
ʝ
ʣ
ʣa
ʤ
ʤi
ʦ
ʦa
ʦe
ʦo
ʦu
ʧ
ʧi
ʧil
ʰ
ʲ
ʹ
ʻ
ʼ
ʿ
ˈ
ˉ
ˌ
ː
˙
˥
˦
˩
α
β
γ
δ
ε
ζ
η
θ
ι
κ
λ
μ
ν
ξ
ο
π
ρ
ς
σ
τ
υ
φ
χ
ψ
ω
ϑ
ϕ
ϵ
а
аа
аав
аавдаа
аавыгаа
аавын
аавынхаа
ааг
аагтаи
аад
аадар
аажим
аажимдаа
аажмаар
аажуу
ааз
аалз
аалзны
ааль
аальгүи
аальгүитэх
аан
аар
аараа
аараи
аарон
ааруул
аарц
аас
аасаи
аач
ааш
аашилж
аашлах
аашт
ааштаи
аба
абаха
абахаи
абдул
абдулла
абелиин
абрахам
абсолют
абтаи
абу
абхаз
абэ
ав
аваагүи
аваад
авааль
аваас
аваачиж
аваачин
аваачих
аваачсан
авав
авагч
авагчдын
авагчид
авагчиин
аваи
авалгүи
авалт
авалтаар
авалтыг
авалтын
авалцах
аван
авар
аварга
аваргаа
аваргаар
аваргад
аваргалж
аваргалсан
аваргууд
аваргуудын
аваргыг
аваргын
аварсан
аварч
аватар
авах
авахаар
авахаас
авахад
авахгүи
авахдаа
авахуулаад
авахуулах
авахуулсан
авахыг
авахын
авбал
авга
авгаи
авгаин
авгалдаи
август
августа
авд
авдаг
авдаггүи
авдар
авдрын
авж
авиа
авиаг
авианы
авив
авивын
авир
авирах
авирлах
авирмэд
авирмэдиин
авиртаи
авирч
авлаа
авлага
авлагын
авлах
авлига
авлигын
авмаар
авна
аврага
аврагч
аврал
авралын
авран
аврах
авс
авсаар
авсаархан
авсан
авсанаар
авсангүи
авсанд
авсаны
авснаар
авснаас
авсны
авсныг
австрали
австралид
австралиин
австраличууд
австри
австриин
автагдах
автаж
автан
автах
авто
автобус
автобусны
автомат
автоматаар
автоматжуулалт
автоматжуулах
автоматжуулсан
автомашин
автомашинаар
автомашинд
автомашинууд
автомашины
автомашиныг
автономи
автономит
автономнои
автсан
авхаалж
авхаалжтаи
авхаи
авч
авчирдаг
авчирна
авчирсан
авчирч
авчирчээ
авчрав
авчран
авчрах
авчээ
авъя
авъяас
авъяаслаг
авъяастаи
авын
авьяас
авьяаслаг
авьяастаи
авьяасыг
аг
ага
агаад
агаар
агаараар
агаараас
агааргүи
агаарт
агаартаи
агаарыг
агаарын
агар
агваан
агваржин
агент
агентлаг
агентлагиин
агентлагууд
агиин
аглаг
агнадаг
агнаж
агнах
агнахад
агнуур
агнуурын
агсам
агсан
агт
агталсан
агуи
агуигаас
агуид
агуин
агуу
агуулаагүи
агуулагдаж
агуулагдана
агуулагдах
агуулагддаг
агуулагдсан
агууламж
агууламжтаи
агуулах
агуулахад
агуулахын
агуулга
агуулгаар
агуулгад
агуулгатаи
агуулгыг
агуулгын
агуулдаг
агуулж
агуулна
агуулсан
агшин
агшинд
агших
агь
ад
адаацаг
адаг
адагт
адаи
адаир
адал
адам
адамс
адаптер
адар
адгиин
адгуус
адгуусны
аддин
адидас
адил
адилаар
адилавтар
адилгүи
адилтгаж
адилтган
адилтгах
адилхан
адис
админ
административно
администратор
администраторууд
администраторын
адмирал
адольф
адриан
адриатын
адсага
адтаи
адуу
адууг
адуун
адуунд
адууны
адуутаи
адуучин
адх
адъяа
аж
ажгуу
ажиг
ажиглагдаж
ажиглагдана
ажиглагдах
ажиглагддаг
ажиглагч
ажиглагчид
ажиглагчиин
ажиглаж
ажиглалт
ажиглалтын
ажиглан
ажигласан
ажиглах
ажиглахад
ажигч
ажил
ажилгүи
ажилгүидлиин
ажилгүидэл
ажилд
ажилдаа
ажилдаг
ажиллаад
ажиллав
ажиллагаа
ажиллагааг
ажиллагаагаа
ажиллагаагаар
ажиллагаагүи
ажиллагаанаас
ажиллагаанд
ажиллагаандаа
ажиллагаанууд
ажиллагаануудыг
ажиллагааны
ажиллагааныхаа
ажиллагаатаи
ажиллагсад
ажиллагсдын
ажиллагч
ажилладаг
ажиллаж
ажиллажээ
ажиллан
ажиллана
ажилласаар
ажилласан
ажилласнаар
ажилласны
ажиллах
ажиллахаа
ажиллахаар
ажиллахад
ажиллахгүи
ажиллахдаа
ажиллахыг
ажиллахын
ажиллуулах
ажиллуулахад
ажиллуулахын
ажиллуулдаг
ажиллуулж
ажиллуулна
ажиллуулсан
ажилсаг
ажилсан
ажилтаи
ажилтан
ажилтантаи
ажилтнаар
ажилтнууд
ажилтнуудад
ажилтнуудыг
ажилтнуудын
ажилтны
ажилтныг
ажилч
ажилчдыг
ажилчдын
ажилчид
ажилчин
ажилчинтаи
ажилчны
ажин
ажлаа
ажлаар
ажлаараа
ажлаас
ажлаасаа
ажлууд
ажлуудыг
ажлыг
ажлын
ажлынхаа
ажнаи
ажээ
аз
азаар
азар
азарга
азарган
азгүи
азе
азербаижан
азербаижаны
аззаяа
ази
азиас
азид
азии
азииг
азиин
азовын
азот
азотыг
азотын
азтаи
азын
аи
аивал
аиг
аида
аидаг
аидас
аиж
аизам
аил
аилаас
аилгаж
аилган
аилгана
аилгах
аилд
аилдсан
аиленд
аилтгах
аилууд
аилчилж
аилчилсан
аилчин
аилчлав
аилчлал
аилчлалын
аилчлан
аилчлах
аилын
аимаар
аимаг
аимагт
аимагтаа
аимагтаи
аимгаар
аимгаас
аимгииг
аимгиин
аимгиинхаа
аимгууд
аимгуудаас
аимгуудад
аимгуудтаи
аимгуудыг
аимгуудын
аимхаи
аимшгиин
аимшигт
аимшигтаи
аин
аина
аинтрахт
аинү
аиова
аираг
аирагны
аиргииг
аиргиин
аирес
аисан
аисингиоро
аисуи
аисэк
аих
аихавтар
аихгүи
ак
академи
академид
академииг
академиин
академик
академич
акбар
аким
акита
акитагиин
аккра
акт
акустик
ал
ала
алаад
алабама
алаг
алагдаж
алагдах
алагджээ
алагдсан
алан
аланин
алах
алба
албаа
албагүи
албад
албадан
албадлагын
албан
албанаас
албанд
албани
албаниин
албаничууд
албаны
албаныхан
албат
албатаа
албатаи
албыг
алга
алгаа
алгадах
алган
алганы
алгасах
алгебриин
алгоритм
алгоритмууд
алгоритмыг
алгоритмын
алгуур
алгын
алд
алдаа
алдааг
алдаагаа
алдаагүи
алдаад
алдаанаас
алдаанд
алдаанууд
алдааны
алдаатаи
алдав
алдаг
алдагдаж
алдагдал
алдагдалтаи
алдагдах
алдагдлыг
алдагдлын
алдагдсан
алдагдуулах
алдагдуулж
алдаж
алдалгүи
алдан
алдана
алдар
алдарт
алдартаи
алдартан
алдартнууд
алдартны
алдархаан
алдаршжээ
алдаршиж
алдарших
алдаршсан
алдаршуулсан
алдах
алдахад
алдахгүи
алдвал
алддаг
алддаггүи
алджээ
алдрах
алдрыг
алдрын
алдсан
алдсанаар
алдсанаас
алдсаны
алдуулах
алекс
александер
александр
александра
александрович
александрын
алексеи
алессандро
алехин
алж
алжир
алжирын
алжуу
алжээ
али
алиа
алиалагч
алив
аливаа
аливааг
аливаад
алииг
алим
алин
алинд
алиныг
алиных
алла
аллага
аллагын
аллах
аллен
алма
алмааз
алмас
алмасын
алматы
ална
алонсо
алс
алсаас
алсад
алсан
алслагдсан
алсыг
алсын
алт
алтаар
алтаи
алтаид
алтаин
алтан
алтанбулаг
алтангадас
алтангэрэл
алтангэрэлиин
алтансүх
алтанхуяг
алтаншагаи
алтернатив
алтлаг
алтны
алттаи
алтыг
алуулсан
алуурчин
алфа
алх
алхаа
алхаж
алхам
алхан
алхах
алхлах
алхмаар
алхмуудыг
алчуур
алчууртны
алшаа
аль
альберт
альберта
альберто
альбион
альбом
альпиин
альтернатив
альфа
альфред
аляска
аляскын
ам
амаа
амаар
амаараа
амазон
амазоны
аман
аманд
амандаа
амар
амаргүи
амаржаргал
амарлингуи
амарсаихан
амарсанаа
амартүвшин
амархан
амарч
амарын
амбагаи
амбан
амбасэлмаа
амгаи
амгалан
амгаланбаатар
амгаланг
амгалангиин
амд
америк
америка
америкаас
америкиин
америкт
америкчууд
америкчуудын
америкын
амжаагүи
амжжээ
амжилгүи
амжилт
амжилтаа
амжилтаар
амжилтаараа
амжилтаас
амжилтад
амжилтанд
амжилтгүи
амжилттаи
амжилттаигаар
амжилтууд
амжилтуудыг
амжилтыг
амжилтын
амжсан
амжуулах
амиа
амииг
амин
аминд
аминдаа
аминдэм
амины
амлаж
амлалт
амлалтаа
амласан
амлах
аммиак
аммиакиин
аммониин
амнаас
амны
ампер
амраах
амраг
амрагиин
амралт
амралтын
амрах
амрыг
амсаж
амсар
амсарт
амсартаи
амсах
амсрыг
амссан
амстердам
амсхиих
амт
амтаи
амталж
амталсан
амтат
амтгүи
амтлаг
амтлагч
амтлах
амттаи
амттаихан
амттан
амтыг
амударья
амур
амуу
амыг
амын
амь
амьгүи
амьд
амьдаар
амьдардаг
амьдардаггүи
амьдарна
амьдарсан
амьдарч
амьдарчээ
амьдрагч
амьдрал
амьдралаа
амьдралаар
амьдралаас
амьдралд
амьдралдаа
амьдралтаи
амьдралыг
амьдралын
амьдралынхаа
амьдран
амьдрах
амьдрахаар
амьдрахад
амьдрахыг
амьдрахын
амьдруулах
амьдын
амьжиргаа
амьжиргааны
амьсгаа
амьсгал
амьсгалаа
амьсгалах
амьсгалд
амьсгалтаи
амьсгалыг
амьсгалын
амьт
амьтад
амьтаи
амьтан
амьтангүи
амьтанд
амьтантаи
амьтаны
амьтдаас
амьтдад
амьтдыг
амьтдын
амьтнаар
амьтнаас
амьтны
амьтныг
ан
ана
анааш
анагаах
анагаахад
анагаахын
анализ
аналитик
аналог
ананд
анар
анастасия
анатоли
анатолии
анатолиин
анатоми
анатомиин
анг
ангаа
ангаахаи
ангаиж
ангаих
ангал
ангалзуур
ангар
ангараг
анги
ангиа
ангиар
ангиас
ангид
ангидаа
ангижирч
ангижрах
ангииг
ангиин
ангиинхан
ангилагддаг
ангилал
ангилалд
ангилалыг
ангилалын
ангилан
ангилах
ангилдаг
ангилж
ангиллаар
ангиллын
ангилна
ангилсан
ангир
ангит
ангитаи
ангиуд
ангиудад
ангиудыг
ангиудын
англ
англи
англиар
англиас
англид
англииг
англиин
англичууд
ангол
анголын
ангууч
анд
андахгүи
андгаи
андерлехт
андерс
андерсон
андорра
андре
андреа
андреас
андреевич
андреи
андроид
андуу
андуурах
андуурч
андын
анжелес
анжелест
анжелесын
анжис
анжисны
анзаарч
анимаци
анимэ
анир
аниргүи
аних
анкара
анн
анна
анри
антарктид
антарктидын
антенн
анти
антибиотик
антигуа
антон
антони
антонио
антонов
антропологи
антропологиин
антуан
ану
анх
анхаар
анхаарал
анхааралд
анхааралтаи
анхааран
анхаарах
анхаардаг
анхаарлаа
анхаарлыг
анхаарлын
анхаарна
анхааруулах
анхааруулга
анхааруулсан
анхаарч
анхан
анхандаа
анхбаяр
анхдагч
анхдугаар
анхилам
анхилуун
анхлан
анхнаасаа
анхны
анхных
анхныхаа
анчдын
анчид
анчин
ань
аньс
аньсага
анэу
ап
апертура
аполло
апп
аппарат
аппаратыг
аппаратын
аппликеишн
апреля
ар
араа
арааны
араар
араараа
араас
араасаа
араат
араатан
араатны
араб
арабаар
арабууд
арабын
арав
аравдугаар
аравны
аравт
аравтын
араг
араи
арал
аралд
аралтаи
арандалынхан
араншин
арбитрын
арбулаг
арваад
арваалж
арваас
арваи
арваин
арваихээр
арван
арваннэгдүгээр
арванхоердугаар
арвас
арвидвал
арвижуулах
арвин
арвын
арга
аргаа
аргаар
аргаас
аргагүи
аргагүид
аргагүин
аргад
аргадан
аргадах
аргал
аргалант
аргалах
аргалж
аргалын
аргаль
аргамж
аргатаи
аргачлал
аргачлалыг
аргентин
аргентинии
аргентины
аргил
аргон
аргун
аргууд
аргуудыг
аргуудын
аргыг
аргын
ард
ардаа
ардаас
ардаг
ардад
ардууд
ардчилал
ардчиллыг
ардчиллын
ардчилсан
ардыг
ардын
арена
арз
арзаих
арзгар
ари
ариг
аригбөх
аригбөхиин
аризона
арилах
арилахгүи
арилгагч
арилгаж
арилган
арилгах
арилгахад
арилдаг
арилж
арилжаа
арилжааны
арилжих
арилна
аристотелиин
аристотель
ариун
ариунаа
ариунбилэг
ариутгах
арифметик
арифметикиин
арк
аркан
арканзас
арктикиин
арлаас
арлууд
арлуудаас
арлуудад
арлуудыг
арлуудын
арлыг
арлын
армаг
армен
армени
армениин
арми
армиа
армиас
армид
армииг
армиин
армитаи
армиудын
армстронг
армян
арнольд
арсен
арсенал
арсеналын
арслан
арслангиин
арт
артаи
артанъян
артериин
артерын
артиллериин
артур
аругтаи
архаг
архангаи
архангаин
археологи
археологиин
археологич
археологичид
архи
архив
архивлагдсан
архивт
архивын
архииг
архинд
архины
архирах
архитектор
архитекторч
архитектур
архитектурыг
архитектурын
архичин
арц
арчаагүи
арчиж
арчилгаа
арчих
арчлан
арчлах
арын
арьс
арьсаар
арьсан
арьсанд
арьсны
арьст
арьстаи
арьстан
арьстнууд
арьсыг
ас
асааж
асаах
асаж
асан
асар
асарч
асах
асга
асгаж
асгарах
асгат
асгах
асеан
аскона
аспирантурт
асрагч
асрамжиин
асран
асрах
асрын
ассамблеи
ассамблеин
ассемблеи
ассемблеин
ассемблер
астана
астон
астра
астрал
астрахань
асуд
асуув
асуудаг
асуудал
асуудалд
асуудалтаи
асуудлаа
асуудлаар
асуудлаас
асуудлууд
асуудлуудыг
асуудлуудын
асуудлыг
асуудлын
асууж
асуулга
асуулгаар
асуулгад
асуулгын
асуулт
асуултад
асуултанд
асуултууд
асуултыг
асуултын
асуусан
асуух
асуухад
асч
ат
ата
атаа
атаархал
атаархах
атал
атаман
атар
атга
атгаж
атган
атгах
атеизм
атираа
атирааны
атирах
атлаа
атланта
атлантын
атлас
атлетик
атлетикиин
атлетико
атлетикч
атм
атом
атомаас
атомууд
атомуудын
атомыг
атомын
атрын
атташе
аттила
атугаи
ау
аугаа
аугсбург
аугуст
ауди
аудио
аудит
аудитиин
аудитын
аутсорсинг
афган
афганистан
афганистанд
афганистаны
афганы
афин
афинд
афины
африк
африкаас
африкиин
африкт
африкын
ах
ахадвал
ахаи
ахаитан
ахан
ахар
ахас
ахиад
ахиж
ахимаг
ахин
ахисан
ахиулах
ахиулж
ахиулсан
ахиуц
ахих
ахиц
ахлагч
ахлагчаар
ахлагчиин
ахлагчтаи
ахлан
ахлах
ахлуулсан
ахмад
ахмадын
ахмед
ахтаи
ахуи
ахуиг
ахуигаа
ахуигаас
ахуид
ахуидаа
ахуин
ахуитаи
ахх
ахыг
ахыгаа
ахын
ахынхаа
ац
ацаг
ацетил
ацс
ач
ачаа
ачааг
ачаалагдсан
ачаалал
ачаалалтаи
ачаалах
ачаалж
ачааллах
ачааллыг
ачааллын
ачааны
ачаар
ачаатаи
ачиж
ачииг
ачир
ачит
ачих
ачлага
ачсан
ачтаи
ачтан
ашгаа
ашгииг
ашгиин
ашиг
ашиггүи
ашиглаагүи
ашиглаад
ашиглавал
ашиглагдаж
ашиглагдана
ашиглагдах
ашиглагддаг
ашиглагдсан
ашигладаг
ашигладаггүи
ашиглаж
ашиглажээ
ашиглалт
ашиглалтад
ашиглалтанд
ашиглалтыг
ашиглалтын
ашиглан
ашиглана
ашигласаар
ашигласан
ашигласнаар
ашигласны
ашиглах
ашиглахаар
ашиглахаас
ашиглахад
ашиглахгүи
ашиглахыг
ашиглахын
ашигт
ашигтаи
ашигтаигаар
ашид
ашина
ашт
аюул
аюулаас
аюулгүи
аюулгүин
аюулд
аюулт
аюултаи
аюулыг
аюулын
аюурбарбад
аюурзана
аюуш
аюушиин
ая
аяа
аяар
аяараа
аяархан
аяг
аяга
аяганд
аяганы
аягатаи
аягүи
аядуу
аяз
аякс
аялагч
аялагчдын
аялагчид
аялал
аялалаа
аялалд
аялалын
аялан
аялах
аялга
аялгаар
аялгад
аялгуу
аялгууг
аялгуугаар
аялгуулан
аялгуунд
аялгууны
аялгуутаи
аялдан
аялж
аяллын
аяллынхаа
аялсан
аян
аянга
аянд
аяндаа
аяны
аяс
аясаар
аястаи
аясыг
аятаи
аятаихан
аяыг
аө
б
ба
баа
баавгаи
баавгаиг
баавгаин
баавгаитаи
бааз
баазад
баазыг
баазын
баарин
баас
баасан
баасандорж
баасанжав
баасансүрэн
баасанхүү
бааст
баастаи
баатар
баатарлаг
баатарлагаар
баатарсүх
баатарсүхиин
баатарт
баатархүү
баатарцол
баатарын
баатрууд
баатруудын
баатрыг
баатрын
баах
баахан
баацагаан
бааш
бавари
бавариин
бавуужав
бавуужавын
баг
бага
багаа
багаар
багаараа
багаас
багаасаа
багабанди
багавтар
багагүи
багад
багадаа
багадалт
багадах
багаж
багажаар
багалзуур
багамын
багана
баганад
багануур
баганы
баганыг
баганын
багасаж
багасах
багасгадаг
багасгаж
багасгасан
багасгах
багасгахад
багасгахын
багасдаг
багасна
багассан
багасч
багатаи
багахан
багачууд
багачуудын
багваахаи
багдад
багдадыг
багдадын
багииг
багиин
багиинхаа
багиинхан
багиинхныхаа
баглаа
баглах
багт
багтаа
багтаагүи
багтаадаг
багтааж
багтаажээ
багтаамж
багтаамжииг
багтаамжиин
багтаамжтаи
багтаан
багтаана
багтаасан
багтаах
багтаж
багтаи
багтаигаа
багтамгүи
багтан
багтана
багтах
багтахгүи
багтдаг
багтжээ
багтсан
багууд
багуудаас
багуудад
багуудтаи
багуудыг
багуудын
багц
багцаа
багцаагаар
багцаалсан
багцад
багцлан
багцыг
багцын
багш
багшаа
багшаар
багшаас
багшид
багшииг
багшиин
багшиинхаа
багшилж
багшилсан
багшлах
багштаи
багыг
багын
бад
бадаг
бадам
бадамдорж
бадамхатан
бадар
бадаргуулт
бадарч
бадарчин
бадахшан
баден
бадмаанямбуугиин
бадраа
бадрал
бадрангуи
бадрах
бадрахын
бадриун
бажо
баз
базар
базарын
базель
баи
баив
баивал
баивч
баиг
баигаа
баигааг
баигаагаа
баигаагаар
баигаагаараа
баигаагаас
баигаагиин
баигаагүи
баигаад
баигаараи
баигаатаи
баигал
баигалиас
баигалииг
баигалиин
баигалын
баигаль
баигальд
баигальтаи
баигуулаад
баигуулав
баигуулага
баигуулагдаагүи
баигуулагдаад
баигуулагдав
баигуулагдаж
баигуулагдан
баигуулагдах
баигуулагдахад
баигуулагддаг
баигуулагджээ
баигуулагдлаа
баигуулагдсан
баигуулагдсанаар
баигуулагдсанаас
баигуулагдсанаасаа
баигуулагдсаны
баигуулагч
баигуулагчдын
баигуулагчид
баигуулал
баигуулалт
баигуулалтаар
баигуулалтад
баигуулалтанд
баигуулалттаи
баигуулалттаигаар
баигуулалтыг
баигуулалтын
баигуулалцаж
баигуулалцсан
баигууламж
баигууламжид
баигууламжииг
баигууламжиин
баигууламжтаи
баигууламжууд
баигууламжуудыг
баигуулан
баигуулах
баигуулахаар
баигуулахаас
баигуулахад
баигуулахдаа
баигуулахыг
баигуулахын
баигуулдаг
баигуулж
баигуулжээ
баигууллаа
баигууллага
баигууллагаар
баигууллагаас
баигууллагад
баигууллагатаи
баигууллагууд
баигууллагуудаас
баигууллагуудад
баигууллагуудтаи
баигууллагуудыг
баигууллагуудын
баигууллагыг
баигууллагын
баигууллын
баигуулна
баигуулсан
баигуулснаар
баигуулснаас
баигуулсны
баидаг
баидаггүи
баидагт
баидагтаи
баидал
баидалд
баидалдаа
баидалтаи
баидалтаигаар
баидалыг
баидар
баидгаа
баидгаараа
баидгаас
баидгииг
баидгиин
баиден
баидлаа
баидлаар
баидлаараа
баидлаас
баидлаасаа
баидлыг
баидлын
баиер
баиерн
баиж
баижээ
баилаа
баилгадаг
баилгаж
баилгах
баилгахад
баилгахыг
баилгахын
баилгүи
баилдаан
баилдаанд
баилдаант
баилдаанууд
баилдааны
баилдааныг
баилдав
баилдагч
баилдаж
баилдан
баилдах
баилдахаар
баилдахад
баилджээ
баилдсан
баимж
баин
баина
баинга
баингын
баир
баираа
баираар
баиралдаг
баиран
баиранд
баирандаа
баирладаг
баирлаж
баирлажээ
баирлал
баирлалаа
баирлалаар
баирлалаас
баирлалд
баирлалтаи
баирлалыг
баирлалын
баирлан
баирлана
баирласан
баирлах
баирлуулан
баирлуулах
баирлуулдаг
баирлуулж
баирлуулжээ
баирлуулна
баирлуулсан
баирнаас
баирнаасаа
баирны
баирт
баиртаи
баиршиж
баиршил
баиршилд
баиршилтаи
баиршлаар
баиршлыг
баиршлын
баиршсан
баиршуулах
баиршуулдаг
баиршуулж
баиршуулсан
баирыг
баирын
баиса
баисаар
баисан
баисангүи
баисанд
баисантаи
баисаныг
баиснаа
баиснаар
баиснаараа
баиснаас
баисны
баисныг
баит
баитаг
баитал
баитлаа
баитугаи
баитын
баих
баихаа
баихаар
баихаас
баихаасаа
баихад
баихгүи
баихдаа
баихыг
баихын
баиц
баицаа
баицаагч
баицааж
баицаалт
баицаалтын
баицаан
баицаах
баишин
баишинг
баишингиин
баишинд
баия
бак
бакалавр
бакалаврын
бакиев
баклэнд
бакс
бактер
бактери
бактериин
бактериологиин
баку
бал
балаг
балаи
балар
балартах
балархаи
балба
балбын
балгас
балгасанд
балгасны
балгасыг
балдан
балдангиин
балдандорж
балет
балетчин
балетын
балжинням
балжиннямын
бали
балин
балканы
балкар
баллах
балмад
балт
балтиин
балтимор
балтын
балхаш
балчиг
балчир
бам
бамбаи
бамбар
бан
бангкок
бангладеш
бангладешиин
банди
бандид
бандида
бандиин
банз
банзан
банзрагч
банк
банкииг
банкинд
банкнаас
банкны
банктаи
банкууд
бантан
банчин
банш
бао
бар
бараа
барааг
бараагаа
бараагүи
бараадан
бараалхаж
бараан
барааны
бараатаи
барав
бараг
барагдах
барагдуулах
барагтаи
барагцаагаар
барагцаалбал
барак
барам
барах
барахад
барахгүи
барбадос
барбара
барбуда
барвал
барга
баргиин
баргын
бардаг
бардам
бардамнах
барж
баржээ
барзгар
бари
бариа
бариад
барианд
барив
баривал
баривчилгаа
баривчилж
баривчилжээ
баривчилсан
баривчлав
баривчлагдаж
баривчлагдан
баривчлагдсан
баривчлан
баривчлах
баригдаж
баригдан
баригдах
баригддаг
баригджээ
баригдсан
баригч
баригчдад
баригчдын
баригчид
бариин
барил
барилаар
барилга
барилгад
барилгач
барилгачин
барилгууд
барилгуудыг
барилгуудын
барилгыг
барилгын
барилд
барилдаад
барилдаан
барилдаанд
барилдааны
барилдааныг
барилдаж
барилдан
барилдах
барилддаг
барилдлаа
барилдлага
барилдсан
барилдсанаас
барилыг
барилын
баримал
барималч
баримжаа
баримжаатаи
баримлыг
баримлын
баримт
баримтаар
баримтаас
баримтад
баримталдаг
баримталж
баримталсан
баримтанд
баримтат
баримтлагч
баримтлал
баримтлалтаи
баримтлалыг
баримтлалын
баримтлан
баримтлах
баримттаи
баримтууд
баримтуудыг
баримтыг
баримтын
барин
барина
бариу
бариул
бариулах
бариулж
бариулсан
бариултаи
барих
барихаар
барихад
барихдаа
барихыг
барихын
барлаг
барна
барон
баррель
барри
барс
барсан
барсаны
барсболд
барселон
барселона
барселоны
барснаар
барснаас
барсны
барсын
бартаа
бартаат
бартон
баруун
баруунаас
баруунбүрэн
баруунд
баруунтуруун
баруунш
барууны
бархасбадь
бархирах
барцад
баршгүи
барын
барь
барьдаг
барьж
барьжээ
барьсан
барьц
барьцаа
барьцаалах
барьцаалсан
барьцаанд
барьцааны
бас
басамжлан
басамжлах
басах
баск
басс
басхүү
бат
батаа
баталгаа
баталгааг
баталгаажсан
баталгаажуулалт
баталгаажуулалтын
баталгаажуулах
баталгаажуулдаг
баталгаажуулж
баталгаажуулсан
баталгааны
баталгаат
баталгаатаи
баталдаг
баталж
баталжээ
баталсан
баталснаар
батальон
батареи
бататган
бататгах
батбаатар
батбаяр
батболд
батгана
батгэрэл
батдорж
батжаргал
батжаргалын
батзаяа
батзориг
батлав
батлагдаагүи
батлагдав
батлагдаж
батлагджээ
батлагдсан
батламж
батлан
батласан
батлах
батлер
батмөнх
батмөнхиин
батнасан
батням
батсаихан
батсуурь
батсүмбэр
батсүрэн
батсүх
баттаи
баттулга
баттөмөр
батула
батхуяг
батцэнгэл
батцэцэг
батчулуун
батын
бафта
бах
бахархал
бахархан
бахархах
бахдам
бахим
бахреин
бахреины
бач
бачим
бачимдан
бачимдах
бачуу
башир
башкир
баяд
баядын
баяжиж
баяжих
баяжмал
баяжсан
баяжуулан
баяжуулах
баяжуулж
баяжуулсан
баялаг
баялагиин
баялагтаи
баялгииг
баялгиин
баян
баянбулаг
баянбүрд
баянгол
баяндалаи
баяндун
баяндэлгэр
баянжаргалан
баянзүрх
баянлиг
баянмонгол
баянмөнх
баяннуур
баянтүмэн
баянхаирхан
баянхонгор
баянхутаг
баянцагаан
баянцагааны
баянцогт
баяны
баяр
баяраа
баяраар
баярлаж
баярлалаа
баярлан
баярласан
баярлах
баярмагнаи
баярсаихан
баярт
баяртаи
баярхүү
баярыг
баярын
баясал
баясан
баясах
баясгалан
баясгалант
баясгалантаи
баясгах
баячууд
беверли
беисболын
бек
бекхэм
бела
беларусиин
беларусь
белград
белиз
белл
бельги
бельгиин
бен
бенгал
бенгалын
бенедикт
бенжамин
бензин
бенин
бенито
бенфика
бенц
берингиин
берия
беркли
берлин
берлинд
берлинии
бернард
бернли
бета
бетон
бетховен
би
биатлонч
библи
библиин
биг
бигэр
бид
биднии
биднииг
биднээс
бидэнд
бидэнтэи
бидэр
бидэртэи
бие
биед
биедээ
биезүи
биеииг
биеиин
биеиинхээ
биелгээ
биелж
биелэгдэж
биелэгдэх
биелэлт
биелэлтииг
биелэлтиин
биелэх
биелүүлдэг
биелүүлж
биелүүлнэ
биелүүлсэн
биелүүлэх
биелүүлэхиин
биелүүлэхэд
биелүүлэхээр
биенд
биендээ
биении
биениихээ
биенээ
биенээс
биенээсээ
биес
биет
биетииг
биетиин
биетнии
биетэи
биетэигээ
биетэн
биетүүд
биечлэн
биеэ
биеэр
биеэрээ
биеэс
биеэсээ
биз
бизнес
бизнесииг
бизнесиин
бизнесмен
бизнесмэн
бизнест
бизнесээ
бизээ
бии
биир
бил
билгииг
билгиин
билгэ
билгүүн
билиг
билигт
билл
биллбоард
биллбордын
билли
бильбао
билэг
билэгдэл
билэгт
билээ
билүү
билүүдэх
бин
биндэр
бинт
био
биологи
биологиин
биологич
биомасс
биотехнологи
биотехнологиин
биохими
биохимиин
биохимич
бирваа
бирж
биржид
биржиин
бирм
бирмиин
бирмингем
бит
битгии
битииг
битиин
биткоины
битлз
битээр
битүү
битүүд
битүүлэг
битүүлэх
битүүрэх
бич
бичвэл
бичвэр
бичвэрииг
бичвэриин
бичвэрүүд
бичгииг
бичгиин
бичгээ
бичгээр
бичгээс
бичгүүд
бичгүүдииг
бичгүүдэд
бичдэг
бичжээ
бичив
бичиг
бичигддэг
бичигджээ
бичигдсэн
бичигдэж
бичигдэн
бичигдэнэ
бичигдэх
бичиглэл
бичигт
бичигтэи
бичигч
бичиж
бичил
бичилт
бичин
бичих
бичихгүи
бичихдээ
бичихииг
бичихиин
бичихэд
бичлэг
бичлэгииг
бичлэгиин
бичлэгт
бичлэгээ
бичлэгээр
бичлэгүүд
бичмэл
бичнэ
бичсэн
бичсэнии
бичсэнииг
бичсэнээр
бичсэнээс
бичээд
бичээс
бичээсииг
бичээст
бичээч
бичүүлж
бичүүлсэн
биш
бишгүүр
биширдэг
биширч
бишкек
бишрэл
бишрэлиин
бишрэлт
бишрэн
бишрэх
бласть
блог
блок
блокиин
блокчэин
блэизерс
блэик
блэк
блэкберн
блэкпүүл
блю
блюз
бн
бнагу
бналау
бнасау
бнбау
бнказу
бнмау
бнпу
бнсу
бну
бнхау
бнху
бнэу
бо
боб
бобби
бобкэтс
бог
богд
богдод
богдоос
богдыг
богдын
богино
богинодох
богиносгох
богинохон
богтос
богц
бод
бодвол
бодгаль
боддог
боди
бодис
бодисоор
бодисоос
бодист
бодистои
бодисууд
бодисуудыг
бодисыг
бодисын
бодит
бодитои
бодитоигоор
бодитоор
бодлого
бодлогогүи
бодлогод
бодлогоо
бодлогоор
бодлогоос
бодлоготои
бодлогууд
бодлогуудыг
бодлогыг
бодлогын
бодлоо
бодлоор
бодлоос
бодлыг
бодлын
бодно
бодогдох
бодогч
бодож
бодол
бодолгүи
бодолд
бодолтои
бодолтын
бодон
бодоо
бодоогиин
бодоод
бодос
бодосыг
бодосын
бодот
бодох
бодохгүи
бодоход
бодсон
бодтои
бодь
бои
боижуулах
боинг
бока
бокс
боксчин
боксын
бол
болбол
болбоос
болвол
болвоос
болгар
болгараар
болгарын
болго
болгов
болгогч
болгодог
болгое
болгож
болгожээ
болголоо
болгон
болгонд
болгоно
болгоны
болгоныг
болгоод
болгоомж
болгоомжгүи
болгоомжилж
болгоомжлон
болгоомжлох
болгоомжтои
болгосноор
болгосны
болгосон
болгох
болгохдоо
болгоход
болгохоор
болгохыг
болгохын
болд
болдбаатар
болдог
болдоггүи
болдын
более
болж
болжмор
болжээ
болзлыг
болзож
болзол
болзоо
болзошгүи
болив
боливи
боливиин
болино
болиод
болиулах
болих
боллоо
болмогц
болмои
болмоор
болмуи
болно
боло
болов
боловсон
боловсорсон
боловсорч
боловсрол
боловсролд
боловсролоо
боловсролтои
боловсролыг
боловсролын
боловсронгуи
боловсрох
боловсруулаагүи
боловсруулагдсан
боловсруулагч
боловсруулалт
боловсруулалтыг
боловсруулалтын
боловсруулан
боловсруулах
боловсруулахад
боловсруулдаг
боловсруулж
боловсруулжээ
боловсруулна
боловсруулсан
боловч
бологч
болои
бололтои
бололцоо
бололцоог
бололцоогүи
бололцоотои
бололцох
боломгүи
боломж
боломжгүи
боломжииг
боломжиин
боломжит
боломжоо
боломжоор
боломжтои
боломжтоиг
боломжтоигоор
боломжууд
боломжуудыг
боломжыг
болон
болонья
болоогүи
болоод
болоосои
болор
болох
болохгүи
болохдоо
болоход
болохоо
болохоор
болохоороо
болохоос
болохоосоо
болохуиц
болохыг
болохын
болсноо
болсноор
болсноороо
болсноос
болсны
болсныг
болсон
болсонгүи
болсонд
болсоноо
болсоноор
болсоноос
болсонтои
болсоны
болсоныг
болсоор
болт
болтлоо
болтол
болтон
болтугаи
болхи
болхоор
болчихсон
болшгүи
болъе
болье
больж
больжээ
больсон
больцманы
большевик
большевикууд
большевикуудын
бом
бон
бонапарт
бонд
бондгор
бондын
бонн
бонхгор
боов
боовны
боогдох
боодог
боодол
боож
боол
боолт
боолтыг
боолуудын
боолчлол
боолчлолыг
боолын
боом
боомт
боомтод
боомтоос
боомтыг
боомтын
боорцог
боорчи
боос
боосон
боох
боохои
бооцоо
бор
борви
боргио
боргоцои
бордо
бордоо
бордох
бордуу
бордуур
боржигин
боржигон
боржин
борис
борлогджээ
борлогдож
борлогдсон
борлуулагдаж
борлуулагдсан
борлуулагч
борлуулалт
борлуулалтаараа
борлуулалттаи
борлуулалтыг
борлуулалтын
борлуулах
борлуулдаг
борлуулж
борлуулсан
боровтор
борог
боролдои
бороо
бороонд
борооны
бороотои
бортого
боруссиа
борц
боршувуу
борын
босвол
босго
босгож
босгожээ
босголт
босголтын
босгон
босгосон
босгох
босгыг
бослого
бослогод
бослогыг
бослогын
босни
босниин
босогч
босогчдыг
босогчдын
босогчид
босож
босон
босоо
босоод
босох
боссон
бостон
бостоны
босч
ботго
ботииг
ботсвана
боть
бохеми
бохемиин
бохир
бохирдлыг
бохирдол
бохирдсон
бохь
бош
бошгот
бошигт
браво
бразил
бразилд
бразилиин
бразилын
браиан
браиант
браин
бранденбург
браун
брауны
брахман
брежнев
бремен
бренд
брест
бригад
бригадууд
бригадын
бриджстоун
британи
британиас
британид
британии
британиин
британичууд
британы
бритиш
брокер
бромвич
бруклин
брукнер
брукнериин
брунеи
бруно
брэд
брэнд
брэндиин
брюс
брюссель
брүүклин
бсшуя
бтр
бу
буг
буга
бугалга
буган
бугат
бугуи
бугуивч
бугуил
бугуин
бугыг
бугын
буд
будаа
будааг
будааны
будаг
будагтаи
будаж
будан
будапешт
бударгана
будах
будгаар
будгиин
будда
буддагиин
буддизм
буддизмын
буддын
будлиан
будлиантаи
будлих
будсан
будут
будшир
бужигнах
бужиргынхан
бузар
бузгаи
буи
буиг
буигаа
буигаар
буид
буил
буин
буир
бул
булааж
булаалдан
булаалдах
булаалдсан
булаан
булаах
булаг
булаи
булан
буланг
булангаар
булангиин
буланд
булантаи
булах
булга
булган
булганы
булгиин
булж
булигаар
булл
буллз
бултах
булуу
булхаи
булцгар
булцуу
булчин
булчингиин
булчингууд
булчинлаг
булчирхаи
булчирхаин
булш
булшииг
булшнаас
булшны
бум
буман
бумба
бумбагар
бумцэнд
бундеслиг
бундеслигиин
бундеслигт
бунтар
бунхан
бунханд
бур
бурам
бурангуи
бурантаг
бургас
бургасан
бургасны
буржгар
буриад
буриадаар
буриадад
буриадууд
буриадуудын
буриадын
буркина
буртаг
бурунди
буруу
бурууг
буруугаа
буруугаар
буруугүи
буруудах
буруулан
буруулах
буруутаи
буруутан
буруутгаж
буруутган
буруутгах
буруушааж
буруушаан
буруушаах
бурхад
бурхадын
бурхан
бурханд
бурхант
бурханы
бурханыг
бурхдын
бурхны
бурхныг
бус
бусаар
бусаг
бусад
бусадтаи
бусдаар
бусдаас
бусдаасаа
бусдад
бусдыг
бусдыгаа
бусдын
бусниулах
бусыг
бусын
бут
бутаар
буталж
бутан
бутанд
бутаргах
бутарсан
бутархаи
бутарч
бутлаг
бутлан
бутлах
бутны
бутрал
бутралын
бутран
бутрах
буу
бууг
буугаа
буугаад
буугаар
буугдаж
буугдсан
буудаг
буудагч
буудаж
буудаи
буудаин
буудал
буудалд
буудалтаи
буудан
буудах
буудахад
буудлаас
буудлага
буудлагын
буудлыг
буудлын
буудсан
буудуулан
буудуулж
буудуулсан
бууж
буужээ
бууз
буулгав
буулгадаг
буулгаж
буулгажээ
буулган
буулгасан
буулгах
буулгахад
буулт
буун
бууна
бууны
буур
буураи
буурал
бууралт
бууран
буурах
буурахад
буурдаг
буурин
буурна
буурсан
бууруулах
бууруулахад
бууруулдаг
бууруулж
бууруулна
бууруулсан
буурцаг
буурцагт
буурцагтан
буурцагтны
буурч
буурчээ
буурын
буурь
буусан
буутаи
буух
буухад
буухиа
бууц
бууч
буучаар
буучиин
буфер
буффон
бух
буха
бухал
бухар
бухарест
бухарын
бухимдал
бухимдах
бухын
буцаад
буцаадаг
буцааж
буцаан
буцаана
буцаасан
буцаах
буцаж
буцалгаж
буцалгах
буцалж
буцалсан
буцалтгүи
буцан
буцах
буцахгүи
буцахдаа
буцдаг
буцжээ
буцлах
буцсан
буш
бушуу
буэнос
буюу
буян
буяннэмэх
буяннэмэхиин
буянт
буянтаи
буяны
буяныг
бхя
бэ
бэг
бэгзиин
бэи
бэил
бэилиин
бэис
бэисболын
бэисиин
бэкхен
бэл
бэлгиин
бэлгэ
бэлгэддэг
бэлгэдлиин
бэлгэдсэн
бэлгэдэл
бэлгэдэн
бэлгүтэи
бэлд
бэлдмэл
бэлдмэлииг
бэлдсэн
бэлдэж
бэлдэх
бэлдэц
бэлиин
бэлтгэгдсэн
бэлтгэгдэж
бэлтгэгчдэд
бэлтгэдэг
бэлтгэж
бэлтгэжээ
бэлтгэл
бэлтгэлд
бэлтгэлииг
бэлтгэлиин
бэлтгэлтэи
бэлтгэлээ
бэлтгэн
бэлтгэнэ
бэлтгэсэн
бэлтгэх
бэлтгэхэд
бэлтрэг
бэлчир
бэлчирт
бэлчих
бэлчээр
бэлчээрииг
бэлчээриин
бэлчээрт
бэлчээх
бэлэвсэн
бэлэг
бэлэгдэл
бэлэглэж
бэлэглэсэн
бэлэглэх
бэлэн
бэлээр
бэн
бэр
бэргэн
бэриин
бэрри
бэрримэн
бэрс
бэртжээ
бэртлиин
бэртэж
бэртэл
бэртэлтэи
бэртэх
бэрх
бэрхииг
бэрхиин
бэрхтэи
бэрхшээл
бэрхшээлииг
бэрхшээлтэи
бэрхшээх
бэсрэг
бэсүд
бэтэг
бэх
бэхжиж
бэхжих
бэхжүүлж
бэхжүүлсэн
бэхжүүлэх
бэхжүүлэхиин
бэхжүүлэхэд
бэхи
бэхииг
бэхиин
бэхлэгдсэн
бэхлэлт
бэхлэлтииг
бэхлэлтиин
бэхлэн
бэхлэх
бэхэлгээ
бэхэлж
бэхэлсэн
бэхэн
бээжин
бээжинг
бээжингиин
бээжингээс
бээжинд
бээлии
бээр
бээриин
бээс
бялдар
бялдрын
бялдууч
бялдуучлан
бялдуучлах
бялзуухаи
бялуу
бялхах
бямба
бямбаа
бямбадорж
бямбажав
бямбасүрэн
бямбацогт
бямбын
бяо
бяр
бяруу
бясалгал
бясалгалын
бяслаг
бяц
бяцхан
бү
бүгд
бүгдииг
бүгдиин
бүгдэд
бүгдээр
бүгдээрээ
бүгчим
бүдэг
бүдэрсэн
бүдүүвтэр
бүдүүвч
бүдүүлэг
бүдүүн
бүдүүрч
бүжгиин
бүжгэн
бүжиг
бүжиглэж
бүжиглэх
бүжигт
бүжигчин
бүл
бүлгииг
бүлгиин
бүлгэм
бүлгэмд
бүлгэмиин
бүлгээ
бүлгээр
бүлгээс
бүлгүүд
бүлгүүдииг
бүлгүүдиин
бүлгүүдэд
бүлд
бүлииг
бүлиин
бүлиинхэн
бүлиинхээ
бүлтгэр
бүлтэи
бүлх
бүлэг
бүлэглэл
бүлэглэлд
бүлэглэлииг
бүлэглэлиин
бүлэглэлүүд
бүлэглэн
бүлэглэх
бүлэгнэлтиин
бүлэгт
бүлэгтэи
бүлэх
бүлээ
бүлээн
бүлээрээ
бүлээс
бүлүүрт
бүр
бүргэд
бүргэдиин
бүрд
бүрддэг
бүрджээ
бүрдиин
бүрдсэн
бүрдэж
бүрдэл
бүрдэнэ
бүрдэх
бүрдээ
бүрдүүлдэг
бүрдүүлж
бүрдүүлжээ
бүрдүүлнэ
бүрдүүлсэн
бүрдүүлэгч
бүрдүүлэн
бүрдүүлэх
бүрдүүлэхэд
бүрж
бүри
бүрии
бүрииг
бүриин
бүрмөсөн
бүрнээ
бүрсэн
бүрт
бүртгэгджээ
бүртгэгдсэн
бүртгэгдэж
бүртгэгч
бүртгэдэг
бүртгэж
бүртгэл
бүртгэлд
бүртгэлииг
бүртгэлиин
бүртгэлтэи
бүртгэн
бүртгэсэн
бүртгэх
бүртгүүлж
бүртгүүлсэн
бүртгүүлэх
бүртээ
бүрх
бүрхсэн
бүрхэвч
бүрхэг
бүрхэгдсэн
бүрхэж
бүрхэн
бүрхэх
бүрхүүл
бүрхүүлииг
бүрхүүлиин
бүрхүүлтэи
бүрчлэн
бүрэг
бүрэгхангаи
бүрэлгэх
бүрэлддэг
бүрэлдсэн
бүрэлдхүүн
бүрэлдхүүнд
бүрэлдэж
бүрэлдэн
бүрэлдэнэ
бүрэлдэх
бүрэлдэхүүн
бүрэлдэхүүнд
бүрэлдэхүүндээ
бүрэлдэхүүнии
бүрэлдэхүүнииг
бүрэлдэхүүнтэи
бүрэлдэхүүнтэигээр
бүрэлдэхүүнээрээ
бүрэлдэхүүнээс
бүрэн
бүрэнтогтох
бүрэнхии
бүрэх
бүрээ
бүрээр
бүрээс
бүрээстэи
бүс
бүсгүи
бүсгүиг
бүсгүин
бүсгүитэи
бүсгүичүүд
бүсииг
бүсиин
бүслэв
бүслэгдсэн
бүслэлт
бүслэлтииг
бүслэлтиин
бүслэлтээс
бүслэн
бүслэх
бүслүүр
бүснии
бүст
бүстэи
бүсэд
бүсэлж
бүсэлсэн
бүсэндээ
бүсээ
бүсээр
бүсээс
бүтдэг
бүтнэ
бүтнээр
бүтнээрээ
бүтсэн
бүтцииг
бүтциин
бүтцэд
бүтцээр
бүтцээс
бүтцүүд
бүтэж
бүтэл
бүтэлгүи
бүтэлгүитсэн
бүтэлгүитэв
бүтэлгүитэж
бүтэлгүитэх
бүтэмж
бүтэмжгүи
бүтэмжтэи
бүтэн
бүтэх
бүтэхгүи
бүтэц
бүтэцииг
бүтэцтэи
бүтэшгүи
бүтээв
бүтээвэр
бүтээгдсэн
бүтээгдхүүн
бүтээгдхүүнии
бүтээгдэж
бүтээгдэхүүн
бүтээгдэхүүнд
бүтээгдэхүүнии
бүтээгдэхүүнииг
бүтээгдэхүүнээ
бүтээгдэхүүнээр
бүтээгдэхүүнээс
бүтээгдэхүүнүүд
бүтээгдэхүүнүүдииг
бүтээгч
бүтээгчдиин
бүтээгчид
бүтээгчиин
бүтээгүи
бүтээдэг
бүтээж
бүтээжээ
бүтээл
бүтээлд
бүтээлдээ
бүтээлииг
бүтээлиин
бүтээлиинхээ
бүтээлтэи
бүтээлч
бүтээлчдиин
бүтээлчид
бүтээлчидтэи
бүтээлчиин
бүтээлчээр
бүтээлээ
бүтээлээр
бүтээлээрээ
бүтээлээс
бүтээлүүд
бүтээлүүдииг
бүтээлүүдиин
бүтээлүүдэд
бүтээлүүдээ
бүтээлүүдээр
бүтээлүүдээрээ
бүтээлүүдээс
бүтээмж
бүтээмжииг
бүтээмжтэи
бүтээн
бүтээнэ
бүтээсэн
бүтээх
бүтээхдээ
бүтээхииг
бүтээхиин
бүтээхэд
бүтээхээр
бүх
бүхии
бүхлээр
бүхлээрээ
бүхнии
бүхнииг
бүхнээ
бүхнээс
бүхэл
бүхэлд
бүхэлдээ
бүхэн
бүхэнд
бүхээг
бүч
бүү
бүүвэи
бүүвэин
бүүдгэр
бүүр
бүүрэг
бө
бөг
бөгж
бөгжнии
бөглүү
бөглөрөх
бөглөх
бөглөө
бөгс
бөгсииг
бөгсөн
бөгсөнд
бөгтөр
бөгөөд
бөгөөс
бөднө
бөлгөө
бөм
бөмбөг
бөмбөгдөв
бөмбөгдөгч
бөмбөгдөж
бөмбөгдөх
бөмбөгииг
бөмбөгиин
бөмбөгнии
бөмбөгтэи
бөмбөгч
бөмбөгчин
бөмбөгөр
бөмбөгөө
бөмбөгөөр
бөмбөлөг
бөмбөр
бөмбөриин
бөмбөрцгиин
бөмбөрцөг
бөмбөрцөгиин
бөмбөрцөгт
бөмбөрчин
бөн
бөндгөр
бөртэ
бөс
бөсөөр
бөх
бөхииг
бөхиин
бөхлөх
бөхмөрөн
бөхтэи
бөхчүүд
бөхчүүдииг
бөхчүүдиин
бөхчүүдэд
бөхөд
бөхөн
бөхөө
бөхөөр
бөхөөс
бөө
бөөгиин
бөөгнөрсөн
бөөгнөрч
бөөгнөрөл
бөөгнөрөн
бөөгнөрөх
бөөлжих
бөөм
бөөмиин
бөөмс
бөөмсиин
бөөн
бөөнии
бөөнөөр
бөөнөөрөө
бөөр
бөөрнии
бөөрөнд
бөөрөнхии
бөөрөнхиидүү
бөөрөнцөг
бөөс
в
ва
ваа
ваар
вааран
ваас
вавилон
вавилоны
вагон
ваи
вакуум
вакцин
вакцины
вакциныг
вал
валенси
валенсиа
валентин
валентина
валентын
валерии
вальс
вальтер
валют
валютын
ван
ванг
вангаас
ванган
вангиин
вангууд
вангуудын
ванд
вандан
вандуи
ванкувер
ванкуверын
ванлиг
ванлигиин
вансэмбэрүү
вант
вануату
ванчин
вар
варшав
варшавын
василии
васильевич
вассал
ватикан
ватиканы
ватт
вацлав
вашингтон
вашингтонд
вашингтоны
веб
вебер
вебсаит
вектор
векторын
вектра
вена
венад
венгер
венесуэл
венесуэлиин
венец
венециин
вениин
вера
верде
вердер
верди
вернер
версалиин
вест
вестник
ви
видео
виз
византиин
византын
вии
вики
викимедиа
википедиа
википедиагиин
виктор
викториа
викториагиин
виктория
вилгельм
вилл
вилла
виллагиин
вилли
виллиам
вилхелм
вильгельм
вильсон
вилья
вильям
вильярреал
виндоус
винсент
винтов
винчи
виржини
виржиниа
виржиниин
виртуал
виртуаль
вирус
вирусииг
вирусиин
вирусны
вирусууд
вирусыг
вирусын
висконсин
висла
виталии
витамин
владивосток
владимир
владимирович
владимирцов
владислав
внешнеи
во
вокал
вол
волга
волгоград
волеиболын
вольт
вольтер
вольф
вольфганг
вольфсбург
вон
вонь
воос
восток
вояжер
всероссиискои
всех
втар
втардуу
втэр
втэрдүү
ву
вулверхэмптон
вч
вьентьян
вьет
вьетнам
вьетнамаар
вьетнамд
вьетнамыг
вьетнамын
вэ
вэб
вэбсаит
вэбсаитад
вэи
вэл
вэнь
вэр
вээс
вүүдроу
вөл
вөөс
г
га
гаа
гаад
гаадамба
гаалиин
гааль
гаанс
гаансны
гаар
гаас
гаах
габон
гав
гаваа
гавал
гавар
гавж
гавлын
гавшгаи
гавъяа
гавъяаг
гавъяаны
гавъяат
гавьяа
гавьяаг
гавьяаны
гавьяат
гавьяатаи
гагарин
гагнах
гагнуур
гагц
гагцхүү
гадаа
гадаад
гадаадаас
гадаадад
гадаадын
гадагш
гадагшаа
гадар
гадарга
гадаргаас
гадаргад
гадаргатаи
гадаргуу
гадаргууг
гадаргуугиин
гадаргууд
гадаргуун
гадаргуутаи
гадаргыг
гадаргын
гадарлах
гадас
гадил
гадна
гаднаа
гаднаас
гаднах
гадны
гаднын
гадуур
гадуураа
гадуурх
гадуурхах
гаж
гажиг
гажилт
гажих
гажуу
гажууд
гажуудал
газ
газан
газар
газаргүи
газардах
газардсан
газарзүи
газарзүин
газарт
газартаа
газартаи
газета
газпром
газраа
газраар
газраас
газраасаа
газрууд
газруудаар
газруудаас
газруудад
газруудтаи
газруудыг
газруудын
газрыг
газрын
газрынхаа
газын
гаи
гаиана
гаигүи
гаитаи
гаити
гаихаж
гаихал
гаихалтаи
гаихам
гаихамшгииг
гаихамшиг
гаихамшигт
гаихамшигтаи
гаихан
гаихах
гаихмаар
гаихуулан
гаихуулах
гал
галаа
галаар
галаас
галав
галавын
галактик
галактикиин
галатасараи
галбадрах
галбир
галд
галдан
галдангиин
галданцэрэн
галереи
галзуу
галзуурах
гали
галиг
галиглах
галилео
галсан
галт
галтаи
галуу
галуун
галууны
галуут
галч
галшар
галыг
галын
гам
гамала
гамби
гамбир
гамгүи
гамин
гамлет
гамма
гамнах
гамтаи
гамшгаас
гамшгиин
гамшиг
гамшигт
ган
гана
ганбаатар
ганбат
ганболд
ганболдын
ганг
ганга
ганган
гангар
гангиин
гангууд
гангын
ганд
гандаж
гандан
гандантэгчэнлин
гандах
ганди
гандиин
гандуу
ганжуур
ганзага
ганзагын
ганзориг
гансүх
гантаи
гантиг
гантулга
гантөмөр
ганхан
ганхах
ганхуяг
ганхүү
ганц
ганцаар
ганцаараа
ганцаарчилсан
ганцоож
ганцхан
ганчимэг
ганын
гань
ганьсу
ганьсү
гао
гар
гараа
гарааг
гараагаа
гараагүи
гараад
гараалж
гараалжээ
гараалсан
гараанд
гарааны
гараар
гараараа
гараас
гарав
гараг
гарагииг
гарагиин
гарагт
гарал
гаралт
гаралтаи
гаралтыг
гаралтын
гарам
гарамгаи
гаран
гарах
гарахаар
гарахаас
гарахад
гарахгүи
гарахдаа
гарахыг
гарахын
гарвал
гарга
гаргаагүи
гаргаад
гаргав
гаргавал
гаргагч
гаргадаг
гаргадаггүи
гаргаж
гаргажээ
гаргалаа
гаргалгаа
гаргалгүи
гарган
гаргана
гаргасан
гаргаснаар
гаргасны
гаргасныг
гаргах
гаргахаар
гаргахаас
гаргахад
гаргахгүи
гаргахдаа
гаргахыг
гаргахын
гаргиин
гаргууд
гаргуулах
гаргуулж
гаргуун
гардаг
гардаггүи
гардаж
гардан
гардсан
гардуулах
гардуулж
гардуулжээ
гардуулсан
гарж
гарз
гари
гариг
гаригиин
гаригт
гарлаа
гарлыг
гарлын
гармаа
гарна
гарны
гарри
гарсаар
гарсан
гарсаны
гарсиа
гарснаар
гарснаас
гарсны
гарсныг
гарт
гартаа
гартаи
гартал
гаруи
гаруиг
гархи
гарц
гарцаагүи
гарцгүи
гарцтаи
гарцыг
гарцын
гарч
гарчиг
гарчигтаи
гарчээ
гаршсан
гарыг
гарын
гарынхаа
гарьд
гас
гаслан
гаталж
гатлагч
гатлан
гатлах
гах
гахаи
гахаин
гацаа
гацах
гацуур
гачиг
гачигдал
гачигдах
гашуу
гашуудал
гашуудлын
гашуун
гвардиин
гватемал
гвинеи
гвинеин
гг
гд
гданьск
геи
гели
ген
генерал
генералууд
генералын
генератор
генетик
генетикиин
генииг
гениин
геннадии
генри
генрих
генуя
генүүд
гео
геодези
геол
геологи
геологиин
геологич
геометр
геометриин
геополитик
геополитикиин
георг
георгии
гепатит
гербицид
герд
герм
герман
германаар
германаас
германд
германтаи
германчууд
германчуудын
германы
германыг
гете
ги
гиваан
гидравлик
гидравликиин
гидроксид
гии
гииг
гиигүүлэгч
гиигүүлэгчиин
гиигүүлэгчээр
гиин
гиисэн
гиих
гиичин
гил
гилгэр
гималаин
гимназид
гимнастик
гимнастикиин
гимнастикч
гин
гинж
гинжин
гинжит
гинжнии
гиннесиин
гипер
гипотензи
гирин
гитар
гитараар
гитарчин
гитарын
гитлер
гитлериин
гич
гичгэнэ
гиш
гишгэж
гишгэн
гишгэх
гишгүүр
гишүү
гишүүд
гишүүдииг
гишүүдиин
гишүүдтэи
гишүүдэд
гишүүдээс
гишүүн
гишүүнд
гишүүнии
гишүүнииг
гишүүнт
гишүүнтэи
гишүүнчлэл
гишүүнээр
гишүүнээс
главные
глазго
глен
гленн
глицин
глобал
глутамат
глюкоз
го
говииг
говиин
говиос
говь
говьд
говьсүмбэр
гог
гогиин
гогцоо
год
года
годгор
годил
годон
гое
гоеж
гоел
гоелын
гоемсог
гоео
гоех
гозгор
гозоих
гои
гоид
гоимон
гол
голд
голден
голдоо
голдуу
голж
голио
голланд
голландын
голлодог
голлож
голлон
голлосон
голлох
голль
гологдсон
голомт
голомтоо
голомтыг
голоо
голоор
голоос
голох
голсон
голт
голтои
голууд
голуудын
голцуу
голч
голчлон
голчтои
голыг
голын
гольф
гомбо
гомбодорж
гомбодоржиин
гомбожав
гомбожавын
гомбосүрэн
гомбын
гомдлыг
гомдол
гомдох
гоминдан
гоминданы
гон
гонгор
гонгорын
гонзгои
гончиг
гончигдорж
гончигиин
гончигсумлаа
гоньд
гоо
гоожих
гоол
гоолджээ
гоолдов
гоолдож
гоолдон
гоолдсон
гоолоо
гоолоор
гоолыг
гоолын
гоомои
гоор
гоос
гор
горбачев
горбачевын
гордон
горилох
горим
горимд
горимоор
горимтои
горимыг
горимын
горлос
гормон
горно
город
города
городских
горхи
горхины
горь
горьдлого
горькиин
готов
готовын
гох
гоц
гоцлол
гоцлолыг
гоцлолын
гоцлон
гр
гравитациин
градус
градуст
градусын
грам
грамм
гран
гранд
грант
граф
график
графикиин
графын
гре
грег
грегори
грек
грекиин
грект
грекчүүд
грекын
грекээр
греммиин
гренада
гренланд
гренландын
григории
григориин
гриззлис
гриин
грин
грозныи
групп
группиин
группын
грэмми
грэммиин
гтун
гтүн
гу
гуа
гуаи
гуаин
гуан
гуандун
гуанжоу
гуанз
гувчуур
гуд
гудамж
гудамжаар
гудамжинд
гудамжны
гудас
гуи
гуивах
гуиж
гуилга
гуилгачин
гуин
гуисан
гуих
гул
гулгагч
гулгаж
гулгалт
гулгалтын
гулгах
гулд
гулсах
гумилев
гумус
гун
гуна
гунгаа
гунж
гуниг
гунигт
гунигтаи
гуо
гур
гурав
гуравдагч
гуравдахь
гуравдугаар
гуравдугаарт
гуравны
гуравт
гуравхан
гурамсан
гурваар
гурваас
гурвал
гурвалжин
гурвалжны
гурвалсан
гурван
гурванбулаг
гурванзагал
гурвансаихан
гурвантаа
гурвыг
гурвын
гургалдаи
гургуул
гурил
гурилаар
гурилан
гурилд
гурилтаи
гурилыг
гурилын
гурион
густав
густаф
гутаан
гутаах
гутал
гуталд
гутах
гутгаар
гутенберг
гутлаа
гутлыг
гутлын
гутрал
гутрах
гуу
гууд
гуулиар
гуулин
гууль
гуур
гуурс
гуурст
гуч
гучаад
гучин
гуя
гуяа
гуядах
гуяны
гуяыг
гхэ
гхя
гын
гэ
гэв
гэвч
гэвэл
гэг
гэгддэг
гэгдэж
гэгдэн
гэгдэнэ
гэгдэх
гэгч
гэгчииг
гэгчиин
гэгчээр
гэгээ
гэгээн
гэгээнии
гэгээнтнүүдиин
гэгээнтэн
гэгээрлиин
гэгээрэл
гэгээрүүлэгч
гэгээрүүлэх
гэгээтэи
гэдгииг
гэдгиин
гэдгэр
гэдгээ
гэдгээр
гэдгээрээ
гэдгээс
гэдрэг
гэдсэнд
гэдсээ
гэдэг
гэдэггүи
гэдэгт
гэдэгтэи
гэдэн
гэдэс
гэдэснии
гэдэстэи
гэж
гэжээ
гэзэг
гэзэгнии
гэл
гэлтгүи
гэлтэи
гэлцдэг
гэлэг
гэлэгжамцын
гэлэн
гэлээ
гэм
гэмгүи
гэмииг
гэмт
гэмтжээ
гэмтлииг
гэмтлиин
гэмтлээс
гэмтсэн
гэмтэж
гэмтэи
гэмтэл
гэмтэлтэи
гэмтэн
гэмтэх
гэмтээдэг
гэмтээж
гэмтээх
гэмшил
гэмээ
гэмээр
гэн
гэндэн
гэндэнг
гэндэнгиин
гэнэ
гэнэдэх
гэнэдүүлэн
гэнэн
гэнэт
гэнэтиин
гэр
гэргии
гэргүи
гэри
гэрииг
гэриин
гэриинхээ
гэрлииг
гэрлиин
гэрлэв
гэрлэж
гэрлэжээ
гэрлэлт
гэрлэлтииг
гэрлэлтээ
гэрлэн
гэрлэсэн
гэрлэх
гэрлээд
гэрлээр
гэрлээс
гэрлүүлэх
гэрсэнз
гэрт
гэртэи
гэртээ
гэрч
гэрчилгээ
гэрчилгээг
гэрчилнэ
гэрчлэх
гэрэгэ
гэрэл
гэрэлбадрах
гэрэлд
гэрэлт
гэрэлтэи
гэрэлтэлт
гэрэлтэх
гэрэлтүүлэг
гэрээ
гэрээг
гэрээгээ
гэрээгээр
гэрээлж
гэрээлжээ
гэрээлсэн
гэрээлэв
гэрээнд
гэрээнии
гэрээнээс
гэрээр
гэрээс
гэрээсээ
гэрээт
гэрээтэи
гэсгээл
гэснииг
гэснээс
гэсэн
гэсэнтэи
гэсэр
гэсэриин
гэсээр
гэтэл
гэх
гэхдээ
гэхииг
гэхлээр
гэхчилэн
гэхчлэн
гэхэд
гэхээр
гэхээс
гэхээсээ
гээ
гээгдэх
гээд
гээж
гээр
гээс
гээсэн
гээх
гээч
гялалзаж
гялалзах
гялалзсан
гялгар
гянданд
гянт
гярхаи
гяя
гү
гүвдрүү
гүвээ
гүдгэр
гүехэн
гүжир
гүзээ
гүзээлзгэнэ
гүи
гүигч
гүигээд
гүидлииг
гүидлиин
гүидэг
гүидэл
гүиж
гүилгэн
гүилгэх
гүилгээ
гүилгээг
гүилгээнд
гүилгээнии
гүилгээнээс
гүилт
гүилтиин
гүилтэд
гүин
гүих
гүицдэг
гүицнэ
гүицсэн
гүицэд
гүицэж
гүицэлдүүлэх
гүицэт
гүицэтгэгдэж
гүицэтгэгч
гүицэтгэгчээр
гүицэтгэдэг
гүицэтгэж
гүицэтгэжээ
гүицэтгэл
гүицэтгэлииг
гүицэтгэлиин
гүицэтгэлтэи
гүицэтгэн
гүицэтгэнэ
гүицэтгэсэн
гүицэтгэх
гүицэтгэхдээ
гүицэтгэхииг
гүицэтгэхиин
гүицэтгэхэд
гүицэтгэхээр
гүицэтгүүлэх
гүицэх
гүицэхгүи
гүицээгүи
гүицээж
гүицээх
гүм
гүн
гүнгиин
гүнд
гүнж
гүнжииг
гүнжиин
гүнжтэи
гүнзгии
гүнзгиирүүлсэн
гүнзгиирүүлэн
гүнии
гүнт
гүнтэи
гүнээ
гүнээс
гүр
гүрвэл
гүрвэлиин
гүрж
гүржиин
гүрнии
гүрнииг
гүрнээс
гүрнүүд
гүрнүүдиин
гүррагчаа
гүрсэд
гүрэм
гүрэн
гүрэнд
гүрэнтэи
гүрүн
гүюг
гүү
гүүгл
гүүн
гүүнии
гүүр
гүүрииг
гүүриин
гүүрнии
гүүш
гө
гөвөх
гөл
гөлгөр
гөлтгөнө
гөлтгөнөн
гөлөг
гөлөм
гөн
гөр
гөрөх
гөрөө
гөрөөс
гөрөөснии
гөрөөчин
гөө
д
да
даа
даавар
дааврын
даавуу
даавуугаар
даавуун
даавууны
даага
дааган
даадаг
дааж
даажин
даалгавар
даалгаварыг
даалгавраар
даалгаврыг
даалгасан
даалгах
даалин
даалуу
даам
даамал
даамын
даан
даана
даанч
даарах
даарч
даасан
даатгал
даатгалын
даатгах
даах
даахгүи
даац
даацтаи
даацын
даашинз
дабл
даблаа
дав
даваа
давааг
даваагаар
даваагиин
даваад
даваадорж
даваадоржиин
даваажав
даваажаргал
даваан
даваанд
давааны
давааням
даваасамбуу
даваасүрэн
давалгаа
давамгаи
давамгаилах
давамгаилдаг
давамгаилж
давамгаилсан
даван
давах
давахад
давж
давжаа
давжээ
давид
давирхаи
давлиун
даврах
давс
давсаар
давсаг
давсан
давсанд
давсархаг
давсжилт
давсны
давст
давстаи
давсыг
давтагдах
давтагдашгүи
давтаж
давталт
давтамж
давтамжииг
давтамжиин
давтамжтаи
давтамжтаигаар
давтан
давтах
давтсан
давуу
давуулан
давуулж
давхар
давхарга
давхаргад
давхаргыг
давхаргын
давхардсан
давхарлаж
давхарлан
давхарласан
давхарт
давхацсан
давхиж
давхих
давхраа
давхрага
давхцаж
давхцан
давхцах
давч
давчдах
давчуу
давшиж
давшилт
давшилтаа
давшилтад
давшилтанд
давшилтыг
давшилтын
давшин
давших
даг
дагаад
дагаар
дагавал
дагавар
дагавартаи
дагаврыг
дагаврын
дагагч
дагадаг
дагаж
дагалдагч
дагалдаж
дагалдан
дагалдах
дагалдуулан
дагалт
даган
дагана
дагасан
дагах
дагва
дагвадорж
дагвадоржиин
дагвын
дагестан
дагжих
дагз
дагзны
дагина
дагнан
дагнасан
дагуу
дагууд
дагуул
дагуулагч
дагуулан
дагуулах
дагуулдаг
дагуулж
дагуулсан
дагуулууд
дагуулыг
дагуулын
дагуур
дагуурын
дагуух
дагч
дагшин
дадал
дадамгаи
дадах
дадлага
дадлагын
дадсан
даж
дажин
даи
даивар
даиду
даижин
даилаар
даилан
даилах
даилж
даилсан
даимлер
даин
даинаа
даинаар
даинаас
даинд
даинууд
даинч
даины
даиныг
даир
даирагч
даиралт
даиралтаа
даиралтаас
даиралтад
даиралтанд
даиралтыг
даиралтын
даиран
даирах
даирдаг
даирна
даирсан
даирч
даисагнасан
даисан
даисанд
даисантаи
даиснаа
даиснаас
даиснууд
даисны
даисныг
даисныхаа
даитаж
даитаи
даитах
даитсан
даичдын
даичид
даичин
даичлан
даичлах
дакота
дал
далавч
далавчаа
далавчит
далавчны
далавчтаи
далавчтан
далавчтаны
далаи
далаиг
далаигаар
далаигаас
далаид
далаин
далаитаи
далаиц
далаицтаи
далаичин
далан
даланг
далангиин
далангүи
даланзадгад
далантаи
далбаа
далбааг
далбаан
далбаанууд
далбааны
далбагар
далбигар
далд
далдлах
далдуур
далдын
дали
далим
далимд
далимдуулан
даллас
даллах
далны
даль
дам
даманскии
даманы
дамар
дамаск
дамба
дамбадорж
дамбиижанцан
дамбын
дамдин
дамдинбазар
дамдиндорж
дамдинсүрэн
дамдинсүрэнгиин
дамдины
дамжаа
дамжаанд
дамждаг
дамжиггүи
дамжиж
дамжин
дамжина
дамжих
дамжлага
дамжсан
дамжуулагч
дамжуулагчиин
дамжуулал
дамжуулалт
дамжуулалтаар
дамжуулалтыг
дамжуулалтын
дамжуулан
дамжуулах
дамжуулахад
дамжуулахдаа
дамжуулахын
дамжуулдаг
дамжуулж
дамжууллын
дамжуулна
дамжуулсан
дамнан
дамнасан
дамнуур
дамчаа
дамын
дан
дана
дангаар
дангаараа
данган
дандаа
дандар
данжуур
данзан
данзангиин
данзанравжаа
дани
даниел
даниин
даниэл
даниэль
данс
дансанд
дансны
данстаи
данте
данх
даншиг
даншигт
дао
дар
дараа
дараагаар
дараагаас
дараагиин
дараагын
дараад
дараалал
дараалалд
дараалалтаи
дараалан
дараалж
дарааллаар
дарааллаас
дарааллан
дараалласан
дарааллыг
дарааллын
дараалсан
дараас
дараатаи
дараах
дараахан
дараахи
дараахь
дараачиин
дарагдаж
дарагдан
дарагдах
дарагдсан
даралт
даралтаар
даралтад
даралтанд
даралтат
даралттаи
даралтыг
даралтын
дарам
дарамт
дарамтлах
даран
дарангуи
дарангуилагч
дарангуилал
дарангуилах
дарангуиллын
дарах
дарахаар
дарахад
дарви
дарвиин
дарвин
дарвуулт
дарга
даргаар
даргаас
даргад
даргатаи
даргач
даргыг
даргын
дардаг
дардан
дардас
дарж
даржаа
даржээ
дари
дариимаа
дариин
дарлал
дарлалаас
дарлан
дарлах
дармштадт
дарна
дарс
дарсан
дарсанд
дарсны
дарсыг
дартсын
даруи
даруид
даруидаа
даруихан
даруу
даруулах
даруулга
даруулж
даруухан
дарх
дархад
дархадын
дархан
дарханбат
дарханы
дархлаа
дархлааны
дархлал
дархлалын
дархны
дарцаг
дарь
дарьганга
дарьгангын
дарьсүрэн
дарья
дас
дасал
дасан
дасах
дасгал
дасгалжуулагч
дасгалжуулагчаар
дасгалжуулагчиин
дасгалжуулж
дассан
дата
дауны
дах
дахиа
дахиад
дахиж
дахилт
дахин
дахинаа
дахинд
дахины
дахиныг
дахих
дахь
дацан
дацангиин
дацанд
даш
дашбалбар
дашдаваа
дашдондог
дашдооров
дашдорж
дашдоржиин
дашдэндэв
дашжамц
дашзэвэг
дашзэвэгиин
дашиин
дашинчилэн
дашням
дашрамд
дашт
дашцэрэн
даяанч
даяар
даяараа
даяарх
даяарчлалын
даян
де
дебют
дебютээ
девид
декан
дел
деление
дели
дель
демократ
демокрит
денвер
денис
деннис
департамент
депортиво
депутат
депутатаар
депутатуудын
дер
дерби
дерон
десант
десантын
детроит
дж
ди
диаграм
диалектик
диаметр
диаметртэи
диана
диас
диваажин
диваажингиин
дивиз
дивизииг
дивизиин
дивизион
дивизионд
дивизионоо
дивизионы
дивизэд
дидье
диего
дижитал
дизаин
дизаинер
дизаины
дизаиныг
дизель
дии
диилдэх
диилдэшгүи
диилж
диилнэ
диилсэн
диилэнх
диилэнхи
диилэнхииг
диилэх
диилэхгүи
диин
дик
дилов
дин
динамик
динамикаар
динамикиин
динамо
динар
династи
динии
дины
диод
диплом
дипломат
дипломатч
дипломатын
дипломын
дирк
диск
дискииг
дискиин
дискнии
дискрет
дискэн
дискэнд
диснеи
диснеин
диспетчер
диу
дифференциал
для
дмитрии
днб
днепр
днх
до
дов
довтлов
довтлогч
довтлогчиин
довтлогчоор
довтлон
довтлох
довтлоход
довтлохоор
довтолгоо
довтолгоог
довтолгоон
довтолгоонд
довтолгооноос
довтолгооны
довтолгооныг
довтолж
довтолжээ
довтолсон
дог
догдлох
догмид
догол
доголдол
доголон
доголох
догсом
догсомын
догшин
догь
дои
док
доктор
докторын
документ
дол
долгин
долгио
долгион
долгионоор
долгионы
долгионыг
долгор
долгорсүрэн
долгорсүрэнгиин
долгорын
долдугаар
должин
долигонох
доллар
доллараар
доллароор
долларт
доллартаи
долларыг
долларын
долоо
долоовор
долоогиин
долоодугаар
долоон
долоох
дом
домаин
домбо
домгииг
домгиин
домгоос
доминик
доминика
доминикан
домог
домогт
домогтои
домын
домэин
дон
дональд
донгодох
дондог
дондогиин
донецк
донтох
донхол
донын
доо
доог
доогуур
доод
доор
доорд
доороо
доороос
доорх
доорхи
доош
доошгүи
дооших
доошлох
доошоо
дор
дорвитои
доргио
доргих
дорго
дорд
дорж
доржиин
доржнамжил
доржпалам
доржпаламын
доржсүрэн
доржсүрэнгиин
дорно
дорноговь
дорнод
дорнодод
дорнодын
дорнын
дорои
дороитож
дороитол
дороитон
дороитох
дороитсон
доромж
доромжилж
доромжилсон
доромжлон
доромжлох
дороо
дороос
дороти
дортмунд
дортмундын
дос
достоевскии
дотно
дотносох
дотночлон
дотны
дотнын
дотогш
дотогшоо
дотоод
дотооддоо
дотоодод
дотоодыг
дотоодын
дотор
дотортои
доторх
доторхи
дотроо
дотроос
дотроосоо
дотрын
дотуур
доу
дох
дохио
дохиог
дохиогоор
дохиоллын
дохиолол
дохионы
дохих
доцент
дош
др
драивер
драм
драма
драмын
драфт
драфтаар
драфтад
драфтын
ду
дуаит
дубаи
дублин
дув
дува
дуг
дугаар
дугаараа
дугаараар
дугаарлалтын
дугаарт
дугаартаи
дугаарыг
дугаарын
дуган
дугана
дуганд
дугантаи
дуганы
дуганыг
дугар
дугараа
дугаржав
дугариг
дугарын
дуглас
дугтуи
дугуи
дугуиг
дугуилан
дугуиланд
дугуин
дугуины
дугуит
дугуитаи
дугуичин
дудаев
дулаалах
дулаан
дулаанд
дулааны
дулааныг
дулаарал
дулаарах
дулаахан
дулам
дулимаг
дулмаа
дум
думын
дун
дунаи
дунд
дундаа
дундаас
дундад
дундаж
дундажаар
дундах
дундговь
дунджаар
дунджаас
дунджилан
дунджилж
дунджилсан
дундуур
дундуураа
дундын
дунху
дур
дураар
дураараа
дуран
дургүи
дургүицлииг
дургүицсэн
дургүицэж
дургүицэл
дургүицэн
дургүицэх
дурдагдсан
дурдаж
дурдан
дурдатгал
дурдах
дурдахад
дурдвал
дурджээ
дурдсан
дурдсанаар
дурладаг
дурлаж
дурлал
дурлалт
дурлалын
дурлан
дурлана
дурласан
дурлах
дурс
дурсаж
дурсамж
дурсамжаас
дурсан
дурсах
дурсахдаа
дурсгал
дурсгалд
дурсгалт
дурсгалууд
дурсгалуудыг
дурсгалыг
дурсгалын
дурссан
дуртаи
дурын
дурынхан
дурьдагдсан
дурьдаж
дурьдвал
дурьдсан
дусал
дуслаар
дуслууд
дуслын
дутаах
дутагдаж
дутагдал
дутагдалд
дутагдалтаи
дутагдах
дутагдлаас
дутагдлыг
дутагдлын
дутаж
дутах
дутахгүи
дутмаг
дутуу
дутуугүи
дуу
дууг
дуугаа
дуугаар
дуугаараа
дуугарах
дуугарахгүи
дуугарвал
дуугаргах
дуугардаг
дуугарч
дуугүи
дуудагдаж
дуудагдан
дуудагдах
дуудагддаг
дуудагдсан
дуудаж
дуудан
дуудах
дуудахад
дууддаг
дуудлага
дуудлагаар
дуудлагыг
дуудлагын
дуудна
дуудсан
дуул
дуулаад
дуулаачиин
дуулал
дуулалт
дуулан
дуулах
дуулга
дуулгавартаи
дуулгах
дуулдаг
дуулдах
дуулж
дуулжээ
дуулиан
дууллын
дуулсан
дуулъя
дууль
дуун
дуунаас
дуунд
дуунууд
дуунуудаа
дуунуудаас
дуунуудыг
дуунуудын
дууны
дууныхаа
дуураиж
дуураилган
дуураимал
дуураин
дуураих
дууриал
дууриан
дууриах
дуурииг
дууриин
дуурь
дуусаагүи
дуусаад
дуусав
дуусаж
дуусах
дуусахаар
дуусахаас
дуусахад
дуусгаад
дуусгав
дуусгавар
дуусгаж
дуусгажээ
дуусган
дуусгасан
дуусгах
дуусдаг
дуусмагц
дуусна
дууссан
дууссанаас
дууссаны
дуустал
дуусч
дуусчээ
дуут
дуутаи
дуутаигаар
дуухан
дууч
дуучдын
дуучид
дуучин
дуучнаар
дуучны
дух
духны
дуэин
дхб
дхг
дын
дэ
дэбют
дэбютээ
дэбүт
дэв
дэвжээ
дэвжээнд
дэвжээнии
дэвид
дэвис
дэвсгэр
дэвсгэрииг
дэвсгэриин
дэвсгэрт
дэвсгэртэи
дэвсгэрээ
дэвсгэрээр
дэвсгэрээс
дэвсэх
дэвтрииг
дэвтриин
дэвтэр
дэвтэрт
дэвшжээ
дэвшигч
дэвшиж
дэвшил
дэвшилд
дэвшилт
дэвшилтэт
дэвшин
дэвших
дэвшлииг
дэвшлиин
дэвшсэн
дэвшүүлж
дэвшүүлжээ
дэвшүүлсэн
дэвшүүлэн
дэвшүүлэх
дэвэх
дэвээ
дэвүүр
дэг
дэгд
дэгджээ
дэгдсэн
дэгдэв
дэгдэж
дэгдэн
дэгдэх
дэгдээв
дэгдээж
дэгдээсэн
дэгдээх
дэгдээхэи
дэгжин
дэгжих
дэглии
дэглэм
дэглэмд
дэглэмииг
дэглэмиин
дэглэмтэи
дэглээч
дэгээ
дэд
дэл
дэлбэ
дэлбэг
дэлбэгэр
дэлбэлж
дэлбэлэх
дэлбэрч
дэлбэрэлт
дэлбэрэлтиин
дэлбэрэх
дэлбээ
дэлгэж
дэлгэмэл
дэлгэн
дэлгэр
дэлгэрдэг
дэлгэрнэ
дэлгэрсаихан
дэлгэрсэн
дэлгэрхаан
дэлгэрхангаи
дэлгэрцогт
дэлгэрч
дэлгэрчээ
дэлгэрэн
дэлгэрэнгүи
дэлгэрэх
дэлгэрүүлж
дэлгэрүүлсэн
дэлгэрүүлэн
дэлгэрүүлэх
дэлгэсэн
дэлгэх
дэлгэхэд
дэлгэц
дэлгэцииг
дэлгэциин
дэлгэцнээ
дэлгэцтэи
дэлгэцэн
дэлгэцэнд
дэлгүүр
дэлгүүриин
дэлгүүрт
дэлгүүрүүд
дэлдэн
дэлдэх
дэлсэх
дэлт
дэлхии
дэлхииг
дэлхиигээс
дэлхиид
дэлхиин
дэлэм
дэлэн
дэлэнт
дэлүү
дэлүүн
дэм
дэмб
дэмбэрэл
дэмбэрэлиин
дэмждэг
дэмждэггүи
дэмжигдсэн
дэмжигч
дэмжигчдиин
дэмжигчид
дэмжиж
дэмжин
дэмжинэ
дэмжих
дэмжихгүи
дэмжихэд
дэмжлэг
дэмжлэгииг
дэмжлэгиин
дэмжлэгтэи
дэмжлэгтэигээр
дэмжлэгээр
дэмжсэн
дэмид
дэмии
дэн
дэндэв
дэндэвиин
дэндэх
дэндүү
дэнж
дэнжиин
дэнзэн
дэнлүү
дэнни
дэнс
дэр
дэрвэгэр
дэрвэх
дэргэд
дэргэдэх
дэргэдээ
дэрлэх
дэрс
дэрснии
дэрсэн
дэрэн
дэс
дэсиин
дэслэгч
дэх
дэхь
дээ
дээвриин
дээвэр
дээвэртэи
дээгүүр
дээгүүрт
дээгүүрх
дээгүүрээ
дээд
дээдиин
дээдлэн
дээдлэх
дээдсиин
дээдсээс
дээдэлж
дээдэлсэн
дээдэс
дээж
дээжииг
дээл
дээлииг
дээлиин
дээлтэи
дээлээ
дээр
дээрмиин
дээрх
дээрхи
дээрхиин
дээрхээс
дээрэлхэлт
дээрэлхэх
дээрэлхүү
дээрэм
дээрэмдсэн
дээрэмдэж
дээрэмдэн
дээрэмдэх
дээрэмчдииг
дээрэмчдиин
дээрэмчид
дээрэмчидтэи
дээрэмчин
дээрэнгүи
дээрээ
дээрээс
дээрээсээ
дээс
дээснии
дээсэн
дээсээр
дээш
дээшилж
дээших
дээшлэх
дээшлүүлж
дээшлүүлсэн
дээшлүүлэх
дээшлүүлэхэд
дээшээ
дюрант
дюссельдорф
дяя
дү
дүвчин
дүгнэдэг
дүгнэж
дүгнэжээ
дүгнэлт
дүгнэлтииг
дүгнэлтиин
дүгнэлтэд
дүгнэлтэнд
дүгнэсэн
дүгнэх
дүгрэг
дүгэриин
дүгэрсүрэн
дүгээр
дүи
дүингэ
дүих
дүицэх
дүлии
дүн
дүнг
дүнгиин
дүнгээ
дүнгээр
дүнгээс
дүнгүи
дүнгүүд
дүнд
дүндээ
дүнтэи
дүр
дүрвэж
дүрвэн
дүрвэсэн
дүрд
дүрж
дүрииг
дүриин
дүрмииг
дүрмиин
дүрмээр
дүрмүүд
дүрмүүдииг
дүрс
дүрсгүи
дүрсииг
дүрсиин
дүрслэгдсэн
дүрслэл
дүрслэлииг
дүрслэлиин
дүрслэн
дүрслэх
дүрслэхэд
дүрснии
дүрст
дүрстэи
дүрсэлдэг
дүрсэлж
дүрсэлжээ
дүрсэлсэн
дүрсээ
дүрсээр
дүрсүүд
дүртэи
дүрэм
дүрэмд
дүрэмт
дүрэмтэи
дүрэх
дүрээ
дүрээр
дүрээрээ
дүрүүд
дүрүүдииг
дүрүүдиин
дүрүүдэд
дүү
дүүг
дүүгиин
дүүгээ
дүүгүүр
дүүжин
дүүжлэн
дүүжлэх
дүүлэх
дүүргииг
дүүргиин
дүүргэж
дүүргэжээ
дүүргэсэн
дүүргэх
дүүргээд
дүүргээр
дүүргээс
дүүрсэн
дүүрч
дүүрэг
дүүрэгт
дүүрэгтэи
дүүрэн
дүүрэх
дүүс
дүүсиин
дүүтэи
дүүхэн
дө
дөг
дөл
дөлгөөн
дөнгө
дөнгөж
дөнгөн
дөнөн
дөр
дөрвииг
дөрвиин
дөрвөд
дөрвөдиин
дөрвөл
дөрвөлж
дөрвөлжин
дөрвөлжлөн
дөрвөн
дөрвөөр
дөргэнэ
дөргөн
дөрөв
дөрөвдүгээр
дөрөвдүгээрт
дөрөвнии
дөрөвт
дөрөө
дөрөөнд
дөрөөнии
дөт
дөтгөөр
дөх
дөхсөн
дөхөж
дөхөм
дөхөх
дөч
дөчин
дөш
дөө
е
еашт
ебс
ева
евангали
евгении
евклидиин
еврази
евразиин
евреи
евреин
евреичүүд
евреичүүдииг
евреичүүдиин
евро
евровижн
еврогиин
еврогоор
европ
европа
европд
европиин
европод
европоос
европт
европчууд
европыг
европын
евфрат
египет
египетииг
египетиин
египетэд
египтиин
его
егт
егүзэр
егүзэриин
егүүтгэсэн
егүүтгэх
егөө
егөөдсөн
ед
еж
езоор
екатерина
екозүна
ел
елена
ельцин
елюи
ембүү
ен
енбд
ендон
ендонгиин
енисеи
енисеин
енхор
ео
еочин
ер
ердиин
ердөө
ериин
еркебулан
ероол
ероолд
ероолтои
ероолыг
ероолын
ертөнц
ертөнцииг
ертөнциин
ертөнцтэи
ертөнцөд
ертөнцөөс
ерхөг
ерэн
ерөнхии
ерөнхиид
ерөнхиидөө
ерөнхиилөгч
ерөнхиилөгчид
ерөнхиилөгчииг
ерөнхиилөгчиин
ерөнхиилөгчөөр
ерөнхиилөн
ерөө
ерөөл
ерөөлт
ерөөс
ерөөсөө
ес
есгүи
есдүгээр
есиин
еслол
еслолд
еслолыг
еслолын
еслох
есноос
есны
есон
есонд
есондоо
есоо
есоор
есоороо
ест
естои
естоиг
есчлон
есыг
есүс
есүсиин
есүхэи
есөн
есөнтөмөр
ех
ехбх
еэ
ж
жа
жаа
жааз
жаал
жаахан
жаббар
жав
жава
жавар
жавзандамба
жавхаа
жавхаатаи
жавхлан
жавхлант
жагсаав
жагсаал
жагсаалд
жагсаалт
жагсаалтаар
жагсаалтаас
жагсаалтад
жагсаалтанд
жагсаалтыг
жагсаалтын
жагсаалыг
жагсаалын
жагсаан
жагсаасан
жагсагчид
жагсаж
жагсах
жагсдаг
жагссан
жад
жадаар
жадамба
жадамбаа
жадны
жаз
жазз
жак
жакарта
жалаир
жалаирын
жалал
жалга
жалханз
жам
жамба
жамбал
жамбалдорж
жамбын
жамсран
жамсрангиин
жамсранжав
жамтаи
жамуха
жамц
жамцын
жамъян
жамъянгиин
жамьян
жан
жангар
жанеиро
жанжид
жанжин
жанжинд
жанжины
жанжнаар
жанжны
жанна
жанцан
жанцанноров
жанч
жанчив
жанчивдорж
жанчих
жанчхүүгиин
жао
жар
жараахаи
жаран
жаргадаг
жаргал
жаргалан
жаргалант
жаргалбаяр
жаргалсаихан
жаргалсаиханы
жаргалтаи
жаргалыг
жаргалын
жаргах
жарны
жарууд
жас
жасаа
жастин
жасын
жаяг
же
жеан
жеи
жеимс
жеисон
жек
жексон
женев
женевиин
женерал
женнифер
женоа
жеральд
жерард
жереми
жермеин
жермен
жерри
жерси
жессика
жефф
жефферсон
жеффри
жи
жибути
жив
живж
живсэн
живэр
живэх
жиг
жигд
жигдэрсэн
жигжид
жигжидиин
жигжидсүрэн
жигнэж
жигнэсэн
жигнэх
жигтэи
жигшин
жигших
жигүүр
жигүүрииг
жигүүриин
жигүүрт
жигүүртэн
жижгэвтэр
жижи
жижиг
жижиглэн
жижиглэнгиин
жижиглэх
жижигхэн
жижүүр
жизни
жии
жииргэвч
жиирэг
жиих
жил
жилбэ
жилд
жилдээ
жилииг
жилиин
жилиинхээ
жилтэи
жилээ
жилээр
жилээс
жилүүд
жилүүдиин
жилүүдэд
жим
жимми
жимс
жимсгэнэ
жимсииг
жимснии
жимстэи
жимсээр
жимэр
жин
жинг
жингиин
жингээр
жинд
жинон
жинс
жинст
жинтэи
жинхэнэ
жинь
жиньпин
жир
жиргэх
жириин
жирх
жирэм
жирэмснии
жирэмсэн
жихүүн
жич
жишгээр
жишиг
жишигт
жишиж
жиших
жишээ
жишээг
жишээгээр
жишээлбэл
жишээн
жишээнд
жишээтэи
жишүү
жм
жо
жобс
жованни
жозеф
жолоо
жолоог
жолоогүи
жолоодлого
жолоодогч
жолоодож
жолоодон
жолоодох
жолооны
жолооч
жолоочиин
жолоочоор
жон
жонатан
жонес
жонни
жонон
жононгиин
жонс
жонсон
жонхуу
жонш
жоншны
жор
жордан
жорж
жоржиа
жороо
жоу
жош
жу
жуан
жудец
жужан
жужаны
жузеппе
жуков
жуковын
жулиа
жульетта
жун
журам
журамгүи
журамд
журамлан
журамт
журамтаи
журамын
журмаар
журмыг
журмын
журнал
жуу
жуулчдад
жуулчдыг
жуулчдын
жуулчид
жуулчин
жуулчлал
жуулчлалыг
жуулчлалын
жуулчны
жуух
жэ
жэи
жэик
жэими
жэимс
жэин
жэисон
жэки
жэксон
жэксоны
жэн
жэнь
жээ
жюль
жюнь
жяньбэи
жү
жүд
жүдо
жүдогиин
жүдоч
жүдочин
жүжгииг
жүжгиин
жүжгээр
жүжгүүд
жүжиг
жүжиглэх
жүжигт
жүжигчдиин
жүжигчид
жүжигчин
жүжигчнии
жүжигчнээр
жүн
жүрж
жүчээ
жүүд
жөү
з
за
заа
заавал
заавар
зааварлагч
зааварлах
зааварчилгаа
заавраар
зааврыг
зааврын
зааг
заагаагүи
заагдсан
заагииг
зааглан
зааглах
заагт
заагч
заадаг
заадас
зааж
заажээ
заал
заалгаж
заалдах
заалт
заалтууд
заалтыг
заалтын
заам
заамар
заан
заана
зааны
заар
заасан
зааснаар
зааснаас
заасны
заах
заахад
заахын
зав
заваан
завгүи
завдаж
завдах
завдсан
завиар
завины
завод
завсар
завсаргүи
завсарлага
завсарласан
завсарлах
завсарт
завсраар
завсрыг
завсрын
завхаи
завхан
завханы
завшаан
завших
завь
заг
загалмаи
загалмаилсан
загалмаин
загалмаитнууд
загалмаитны
загас
загасаар
загасны
загастаи
загасчин
загасчны
загасыг
загатнах
загвар
загвараа
загвараар
загвараас
загварт
загвартаи
загварууд
загваруудыг
загваруудын
загварчлал
загварчлалын
загварчлах
загварыг
загварын
загиин
загнах
загреб
зад
задалдаг
задалж
задардаг
задарсан
задарсны
задарч
задгаи
задлаг
задлан
задлах
задрал
задралаар
задралд
задралын
задран
задрах
задрахад
зажлах
заи
заиг
заигаа
заигаар
заигүи
заид
заидан
заидуу
заил
заилан
заилах
заилж
заилсхиидэг
заилсхииж
заилсхиих
заилуулах
заилуулж
заилуулсан
заилшгүи
заин
заинаас
заинд
заины
заир
заиран
заисан
заитаи
зал
залаа
залаат
залан
заларсан
заларч
заларчээ
залах
залбирал
залбирах
залгаа
залгаас
залгавар
залгадаг
залгаж
залгамж
залгамжилж
залгамжилжээ
залгамжилсан
залгамжлагч
залгамжлагчаар
залгамжлагчид
залгамжлалын
залгамжлан
залгамжлах
залган
залгана
залгасан
залгах
залгахад
залгих
залгуулах
залгуулж
залгуур
залж
залжээ
залилан
залилах
залрах
залруулах
залсан
залуу
залууг
залуугиин
залууд
залуудаа
залуудаи
залуус
залуусыг
залуусын
залуутаи
залуухан
залуучууд
залуучуудад
залуучуудыг
залуучуудын
залхаан
залхуу
залхуурах
заль
зальжин
зальтаи
зальхаи
зам
замаа
замаар
замаас
замаг
замбараагүи
замби
замгүи
замд
замдаа
замнал
замналаа
замналын
замналынхаа
замтаи
замууд
замуудыг
замчлал
замчлалын
замыг
замын
зан
занабазар
занабазарын
занал
заналт
заналхиилж
занар
занах
занг
занга
зангаа
зангаар
зангаараа
занги
зангиа
зангидах
зангидсан
зангиин
зангилаа
зангилааг
зангилааны
зангилаатаи
зангуу
зандан
занданшатар
зандрах
зантаи
занчих
заншил
заншилд
заншилтаи
заншлыг
заншлын
заншсан
зар
зараа
зарааны
зарагдаж
зарагдах
зарагдсан
зарах
зарга
заргач
зардаг
зардал
зардалтаи
зардлаа
зардлаар
зардлыг
зардлын
зарж
заржээ
зарим
заримдаа
заримдаг
заримыг
зарлаагүи
зарлаад
зарлав
зарлага
зарлагаа
зарлагдсан
зарлагыг
зарлагын
зарлаж
зарлажээ
зарлал
зарлалаа
зарлан
зарласан
зарласны
зарлах
зарлахад
зарлиг
зарлигаар
зарлигииг
зарлигиин
зарлигт
зарна
зарсан
зартаи
зарц
зарцуулалт
зарцуулах
зарцуулдаг
зарцуулж
зарцуулжээ
зарцуулсан
зарчим
зарчимд
зарчимтаи
зарчмаар
зарчмууд
зарчмуудыг
зарчмыг
зарчмын
зас
засаа
засаад
засаг
засаглал
засаглалд
засаглалтаи
засаглалыг
засаглалын
засагт
засагтаи
засагч
засагчид
засаж
засал
засалч
засан
засах
засахад
засвар
засварлагч
засварлаж
засварласан
засварлах
засварын
засгаа
засгаас
засгииг
засгиин
засдаг
заслын
засмал
засна
зассан
заставын
засуул
засч
заубер
зах
захаар
захаараа
захаас
захад
захиа
захиаг
захиалагч
захиалах
захиалга
захиалгаар
захиалгат
захиалгын
захиалсан
захиас
захидал
захидалдаа
захидлыг
захидлын
захиж
захирагдаж
захирагдан
захирагдах
захирагддаг
захирагдсан
захирагч
захирагчаар
захирагчид
захирагчиин
захирал
захиралаар
захиралтаи
захирамж
захирамжаар
захиран
захирах
захиргаа
захиргааг
захиргаан
захиргаанаас
захиргаанд
захиргааны
захиргаатаи
захирдаг
захирлаар
захирлуудын
захирлын
захирсан
захируулан
захируулжээ
захируулсан
захирч
захисан
захтаи
захчин
захыг
захын
зая
заяа
заяаг
заяагаа
заяанд
заяаны
заяасан
заяат
заяатаи
заяын
зг
здтг
зевс
зеланд
зеландад
зеландын
зенит
зи
зигби
зигмунд
зидан
зика
зимбабве
зиндаа
зиндаанд
зиндааны
зо
зовж
зовлон
зовлонг
зовлонгиин
зовлонгоос
зовлонгүи
зовлонд
зовлонтои
зовнил
зовних
зовно
зовол
зовоодог
зовоож
зовооно
зовоох
зовох
зовсон
зовуурь
зовхи
зог
зогдор
зогсдог
зогсов
зогсож
зогсолтгүи
зогсонги
зогсоно
зогсоо
зогсоов
зогсоогүи
зогсоодог
зогсоож
зогсоожээ
зогсоол
зогсоолын
зогсоон
зогсооно
зогсоосон
зогсоох
зогсооход
зогсоохыг
зогсоохын
зогсох
зогсохгүи
зогссон
зогссонгүи
зодог
зодож
зодолдох
зодоон
зодох
зодуулах
зожиг
зол
золбин
золбоо
золгох
золгүи
золиг
золиос
золиослогч
зомгол
зон
зонхилдог
зонхилж
зонхилно
зонхилон
зонхилох
зонхилсон
зоо
зоог
зоогиин
зооглох
зоорь
зоос
зоосны
зоосон
зоосыг
зоргоор
зоргоороо
зорж
зориг
зоригииг
зоригиин
зоригт
зоригтбаатар
зоригтои
зорилго
зорилгогүи
зорилгод
зорилгодоо
зорилгоо
зорилгоор
зорилготои
зорилготоигоор
зорилгыг
зорилгын
зорилт
зорилтоо
зорилтот
зорилтуудыг
зорилтыг
зоримог
зорин
зориуд
зориудаар
зориудын
зориулагдан
зориулагдсан
зориулалт
зориулалтаар
зориулалтаи
зориулалттаи
зориулалттаигаар
зориулалтын
зориулан
зориулах
зориулж
зориулжээ
зориулсан
зорих
зорчигч
зорчигчиин
зорчиж
зорчих
зорчсон
зорьдог
зорьж
зорьжээ
зорьсон
зорьсондоо
зос
зостын
зотон
зоу
зох
зохилдсон
зохимжгүи
зохимжгүидэх
зохимжтои
зохимои
зохино
зохиогддог
зохиогджээ
зохиогдож
зохиогдох
зохиогдсон
зохиогч
зохиогчид
зохиогчиин
зохиодог
зохиож
зохиожээ
зохиол
зохиолд
зохиолдоо
зохиолоо
зохиолоор
зохиолоороо
зохиолоос
зохиолууд
зохиолуудыг
зохиолч
зохиолчдын
зохиолчид
зохиолчиин
зохиолчоор
зохиолыг
зохиолын
зохиомж
зохиомжииг
зохиомжиин
зохиомлоор
зохиомол
зохион
зохиосон
зохиох
зохиоход
зохис
зохисгүи
зохисгүидэх
зохист
зохистои
зохих
зохихгүи
зохицож
зохицол
зохицон
зохицох
зохицсон
зохицуулагддаг
зохицуулагч
зохицуулалт
зохицуулалтыг
зохицуулалтын
зохицуулан
зохицуулах
зохицуулахад
зохицуулдаг
зохицуулж
зохицуулна
зохицуулсан
зочдыг
зочид
зочилж
зочилсон
зочин
зочлон
зочлох
зочноор
зсбнхоу
зсбнху
зу
зугаа
зугаалах
зугаацах
зугатаж
зугатан
зугтаах
зугтаж
зугтан
зугтах
зугтсан
зуд
зузаан
зузаантаи
зузаарах
зул
зулаи
зулгаах
зулгарах
зулзага
зулзагаа
зулзаган
зулын
зун
зунгааралт
зунгааралтын
зундаа
зундарь
зундуи
зундуин
зуны
зур
зураа
зураас
зураасан
зураастаи
зураач
зураачаар
зураачдын
зураачид
зураачиин
зурав
зураг
зураглаач
зураглал
зураглалыг
зураглалын
зурагнууд
зурагт
зурагтаи
зурагчин
зурам
зурах
зурахад
зурвас
зурвасаар
зурваст
зурвастаи
зурвасыг
зурвасын
зургаа
зургаагиин
зургаадугаар
зургаан
зургаар
зургаас
зургадугаар
зургадүгаар
зурган
зурганд
зургииг
зургиин
зургууд
зургуудыг
зурдаг
зурж
зуржээ
зурлага
зурсан
зурснаар
зурхаи
зурхаин
зурхаич
зуршил
зуршилтаи
зусаг
зусар
зусардан
зусардах
зусарч
зусдаг
зуслан
зуслангиин
зутан
зуу
зууван
зуувандуу
зуугаад
зуугиин
зуудаг
зууж
зуузаи
зуун
зуунаас
зуунд
зуунмод
зууны
зууныг
зуур
зуураа
зуурах
зуурмаг
зуурсан
зуурч
зуурын
зуут
зуутын
зуух
зууханд
зуухны
зууч
зуучлагч
зуучлалын
зуучлах
зууш
зхжш
зху
зхукн
зы
зэ
зэв
зэвсгииг
зэвсгиин
зэвсгээ
зэвсгээр
зэвсэг
зэвсэггүи
зэвсэглэл
зэвсэглэлд
зэвсэглэн
зэвсэглэсэн
зэвсэгт
зэвсэгтэи
зэвхии
зэвэг
зэвэгиин
зэвүүн
зэгс
зэгсэн
зэд
зэл
зэллэн
зэлмэ
зэлүүд
зэм
зэмгүи
зэмдэг
зэмлэл
зэмлэх
зэмсгиин
зэмсэг
зэн
зэр
зэргииг
зэргиин
зэргэлдээ
зэргэлдээх
зэргээ
зэргээр
зэргээрээ
зэргээс
зэрлэг
зэрлэгээр
зэрэг
зэрэглэл
зэрэглэлд
зэрэглэлииг
зэрэглэлиин
зэрэглэлтэи
зэрэглээ
зэрэгт
зэрэгтэи
зэрэгцсэн
зэрэгцэж
зэрэгцэн
зэрэгцэх
зэрэгцээ
зэрэгцээгээр
зэрэгцээд
зэрэгцүүлэн
зэс
зэсиин
зэсээр
зэтгэр
зэхэж
зэхэх
зээ
зээгт
зээл
зээлд
зээлж
зээлииг
зээлиин
зээллэгээр
зээлтэи
зээлэгдсэн
зээлэгдэв
зээлэх
зээлээ
зээлээр
зээлээс
зээр
зээргэнэ
зээрд
зээриин
зээрэнцэг
зээх
зян
зүг
зүггүи
зүгииг
зүгиин
зүгт
зүгтээ
зүгээр
зүгээс
зүдгүүр
зүдрэх
зүдэрсэн
зүдэрч
зүдүү
зүдүүр
зүи
зүиг
зүигээр
зүигээс
зүид
зүидэл
зүиж
зүил
зүилгүи
зүилд
зүилдээ
зүилииг
зүилиин
зүилиинхээ
зүилс
зүилсииг
зүилсиин
зүилсээ
зүилсээр
зүилсээс
зүилтэи
зүилээ
зүилээр
зүилээс
зүилүүд
зүилүүдииг
зүилүүдиин
зүилүүдэд
зүилүүдээс
зүин
зүир
зүирлэл
зүирлэсэн
зүит
зүитэи
зүич
зүичид
зүлгэн
зүлэг
зүр
зүрх
зүрхииг
зүрхнии
зүрхтэи
зүрхэн
зүрхэнд
зүрхээ
зүрчид
зүрчидиин
зүс
зүсмиин
зүссэн
зүстэи
зүсч
зүсэж
зүсэм
зүсэн
зүсэх
зүсээ
зүтгэгч
зүтгэдэг
зүтгэж
зүтгэл
зүтгэлииг
зүтгэлтнии
зүтгэлтнүүд
зүтгэлтнүүдиин
зүтгэлтэи
зүтгэлтэн
зүтгэсэн
зүтгэх
зүчи
зүчиин
зүү
зүүгээр
зүүд
зүүднии
зүүдэг
зүүдэнд
зүүж
зүүжээ
зүүлт
зүүн
зүүнбаян
зүүнгар
зүүнгарыг
зүүнгарын
зүүнговь
зүүнии
зүүнхангаи
зүүнхараа
зүүнш
зүүнээс
зүүсэн
зүүх
зөв
зөвииг
зөвлөгч
зөвлөгөө
зөвлөгөөг
зөвлөгөөн
зөвлөгөөнии
зөвлөдөг
зөвлөж
зөвлөл
зөвлөлд
зөвлөлдөж
зөвлөлдөх
зөвлөлииг
зөвлөлиин
зөвлөлт
зөвлөлтиин
зөвлөлтөд
зөвлөлөөс
зөвлөмж
зөвлөмжииг
зөвлөмжиин
зөвлөн
зөвлөсөн
зөвлөх
зөвлөхиин
зөвлөхүүдиин
зөвлөхөөр
зөвтгөх
зөвхөн
зөвшөөрдөг
зөвшөөрдөггүи
зөвшөөрлииг
зөвшөөрлиин
зөвшөөрлөөр
зөвшөөрнө
зөвшөөрснөөр
зөвшөөрсөн
зөвшөөрсөнгүи
зөвшөөрч
зөвшөөрчээ
зөвшөөрүүлэх
зөвшөөрөв
зөвшөөрөгдсөн
зөвшөөрөгдөх
зөвшөөрөгдөөгүи
зөвшөөрөл
зөвшөөрөлгүи
зөвшөөрөлгүигээр
зөвшөөрөлтэи
зөвшөөрөн
зөвшөөрөх
зөвшөөрөхгүи
зөвшөөрөхөд
зөвшөөрөөгүи
зөвөөр
зөгии
зөгиин
зөгнөл
зөгнөлт
зөгнөн
зөн
зөндөө
зөнч
зөнөг
зөрж
зөрлөг
зөрсөн
зөрчид
зөрчиж
зөрчил
зөрчилдөж
зөрчилдөөн
зөрчилдөөнии
зөрчилтэи
зөрчин
зөрчих
зөрчлииг
зөрчлиин
зөрчсөн
зөрүү
зөрүүг
зөрүүгээр
зөрүүд
зөрүүдлэх
зөрүүлэн
зөрүүлэх
зөрүүтэи
зөрөх
зөрөө
зөрөөтэи
зөөвриин
зөөвөрлөх
зөөг
зөөгч
зөөдөг
зөөж
зөөлнии
зөөлрүүлэх
зөөлрөх
зөөлөвч
зөөлөн
зөөх
зөөхии
и
иад
иан
иар
иас
ибериин
ибн
ибрахим
ив
иван
иванов
иванович
ивановна
ивуар
ивуарын
ивээл
ивээлд
ивээн
ивээх
игорь
ид
идвэл
иддэг
иддэггүи
идлэг
иднэ
идсэн
идсэнээс
идье
идэвх
идэвхгүи
идэвхжиж
идэвхжил
идэвхжсэн
идэвхжүүлдэг
идэвхжүүлж
идэвхжүүлсэн
идэвхжүүлэх
идэвхи
идэвхигүи
идэвхииг
идэвхиилэн
идэвхит
идэвхитэи
идэвхт
идэвхтэи
идэвхтэн
идэвч
идэгдэх
идэгч
идэж
идэмхии
идэр
идэриин
идэрчүүдиин
идэх
идэхгүи
идэхдээ
идэхииг
идэхэд
идэхээ
идэхээс
идэш
идэшнии
идэшт
идэштэн
идээ
идээг
идээд
идээлэх
идээнд
идээнии
идээт
идүүлэх
иелиин
иемен
иемении
иен
иерусалим
иерусалимын
иж
ижии
ижил
ижилсэх
ижилхэн
из
известия
изд
изинис
изотоп
изотопи
изотопууд
израил
израилд
израилиин
израилын
израиль
ии
ииг
иид
иим
иимд
иимиин
иимэрхүү
иимээс
иин
иинхүү
ииш
ил
илбэ
илбэн
илгээв
илгээгдсэн
илгээгч
илгээдэг
илгээж
илгээжээ
илгээн
илгээнэ
илгээсэн
илгээх
илгээхэд
илд
илдэн
илж
илжгэн
илжиг
или
илиин
иллинои
илрэл
илрэн
илрэх
илрэхгүи
илрээгүи
илрүүлдэг
илрүүлж
илрүүлжээ
илрүүлнэ
илрүүлсэн
илрүүлэв
илрүүлэгч
илрүүлэлт
илрүүлэн
илрүүлэх
илрүүлэхэд
илт
илтгэгч
илтгэдэг
илтгэж
илтгэл
илтгэлиин
илтгэн
илтгэнэ
илтгэсэн
илтгэх
илч
илчит
илчлэг
илчлэх
иль
ильич
илья
илэг
илэн
илэрдэг
илэрнэ
илэрсэн
илэрхии
илэрхиилдэг
илэрхиилж
илэрхиилжээ
илэрхиилнэ
илэрхиилсэн
илэрхиилэв
илэрхиилэгддэг
илэрхиилэгдсэн
илэрхиилэгдэнэ
илэрхиилэгдэх
илэрхиилэгч
илэрхиилэл
илэрхиилэн
илэрхиилэх
илэрхиилэхэд
илэрч
илэрчээ
илэх
илүү
илүүг
илүүгээр
илүүгүи
илүүд
илүүдэл
илүүтэи
илүүтэигээр
илүүц
им
император
импорт
импортоор
импортын
имэил
ин
ингиин
ингуш
ингэ
ингэж
ингэн
ингэнии
ингэснээр
ингэснээрээ
ингэх
ингэхдээ
ингэхиин
ингэхэд
ингээд
инд
индекс
индексииг
индексиин
индиан
индиана
индианчууд
индира
индонез
индонези
индонезиин
индукциин
индэр
индүү
инерт
инж
инжаннаши
инженер
инженериин
инженерчлэл
инженерчлэлиин
инженерээр
инженерүүд
инженерүүдиин
институт
институтын
институтэд
интеграл
интегрин
интер
интерактив
интернационал
интернационале
интернет
интернетиин
интернетэд
интернетээр
интернэт
интернэтиин
интернэтэд
интернэтээр
интернэшнл
интертото
интерфеис
интерфеисиин
интерфэис
интерфэисииг
инфляци
инфляцииг
инфляциин
инфобокс
информатик
информационные
инч
инчон
инь
инээд
инээдмиин
инээдэм
инээж
инээмсэглэх
инээх
иоан
иоанн
иога
иод
иозеф
ион
ионууд
ионы
ионыг
иордан
иорданы
иорк
иоркиин
иоркт
иоркын
иосеф
иосиф
иохан
иоханн
иоханнес
ир
ирак
иракиин
иракт
иракын
иран
иранд
ираны
ирвинг
ирвэл
ирвэс
иргэд
иргэдииг
иргэдиин
иргэдиинхээ
иргэдтэи
иргэдэд
иргэдээ
иргэдээс
иргэн
иргэнд
иргэнии
иргэнииг
иргэншил
иргэншилд
иргэншилтэи
иргэншлииг
иргэншлиин
ирдэг
ирж
иржээ
ирина
ирланд
ирландад
ирландын
ирлээ
ирмэг
ирмэгииг
ирмэгт
ирмэгтэи
ирнэ
ирснии
ирснииг
ирсниихээ
ирснээр
ирснээс
ирсэн
ирсэнд
ирсэнии
ирт
иртэи
иртэл
ирэв
ирэн
ирэх
ирэхгүи
ирэхдээ
ирэхииг
ирэхиин
ирэхэд
ирэхээр
ирэхээс
ирээгүи
ирээд
ирээдүи
ирээдүиг
ирээдүид
ирээдүин
ирээдүитэи
ирүүлж
ирүүлсэн
ирүүлэх
ис
исаак
исгэж
исгэлэн
исгэрэх
исгэх
ислам
исламын
исланд
исландын
ислиин
исмаил
исп
испани
испаниар
испаниас
испанид
испании
испаниин
испаничууд
иссык
истанбул
истории
история
исэл
исэлдэлт
исэлдэлтиин
итал
итали
италиар
италид
италииг
италиин
италичууд
итгэ
итгэгч
итгэдэг
итгэж
итгэл
итгэлгүи
итгэлииг
итгэлиин
итгэлт
итгэлтэи
итгэлцэл
итгэмжит
итгэмжлэгдсэн
итгэмжлэх
итгэмээргүи
итгэн
итгэсэн
итгэх
итгэхгүи
итгүүлэн
ито
итогах
итоги
итх
их
ихдэх
ихдээ
ихииг
ихриин
ихсэж
ихсэх
ихт
ихтамир
ихтиин
ихтэи
ихэвчилэн
ихэвчлэн
ихэд
ихэдвэл
ихэмсэг
ихэнх
ихэнхдээ
ихэнхи
ихэнхидээ
ихэнхииг
ихэр
ихэрхэг
ихэрхэх
ихэс
ихэсгэдэг
ихэсгэж
ихэсгэх
ихэсдэг
ихэссэн
ихэсч
ихээр
ихээхэн
ичгүүр
ичгүүртэи
ичиж
ичинхорлоо
ичих
иш
ишгэн
ишиг
ишигнии
ишииг
ишиин
ишинд
ишиндээ
ишлэл
ишнии
ишнээс
иштэи
июня
к
ка
кабел
кабелииг
кабелиин
кабель
кабинет
кабо
кабул
кавальерс
кавказ
кавказад
кавказын
кадетт
казак
казаниин
казань
казах
казахстан
казахстанд
казахстаны
казахууд
казахын
казино
каи
каида
каизерслаутерн
каипин
каир
каиши
как
кали
калиин
калининград
калифорни
калифорниа
калифорнид
калифорниин
кальци
кальциин
камбож
камбожид
камбожиин
камер
камераар
камерт
камертон
камерун
камеруны
камерын
кампанит
кампус
камчаткын
кан
канад
канада
канадад
канадын
канарын
канберра
канвонь
канзас
каннын
кант
кантон
кантри
канцлер
капаган
капитал
капиталист
капиталын
кара
карат
каратэ
карачаи
кардинал
кардифф
карибын
карим
карл
карло
карлос
карлын
кармен
каролина
карпатын
карпини
карт
картаар
картер
картны
картууд
картыг
картын
карьер
карьераа
каспиин
кастро
каталан
катализаторын
каталог
каталогт
катар
катарын
категори
катерина
католик
каунти
кац
кашмир
кв
квадрат
квант
квантуны
квжд
квт
кг
кгб
ке
кевин
кеит
келли
кельн
кембрижиин
кемерово
кен
кенги
кени
кениин
кеннеди
кенсан
кентакки
кернел
кернелиин
ки
кибер
кидан
киданчууд
киданы
киев
киевиин
киевээс
килограмм
километр
километриин
ким
кинг
кингз
кинематик
кинетик
кино
киног
киногоо
киногоор
киногоороо
кинон
кинонд
кинондоо
киноноос
кинонууд
кинонуудад
кинонуудыг
кинонуудын
киноны
киноныхоо
киото
кипр
киприин
кипчак
кир
киргиз
киргизиин
киргизстан
киргизүүд
кирибати
кирил
кирилл
киров
кит
китаискои
китая
кихот
кларк
класс
классик
классын
кластер
кластериин
клаус
клаусура
клемент
кливленд
клиент
клименко
клиник
клиникиин
клинт
клинтон
клип
клипииг
клипнии
клипперс
клипэнд
клод
клуб
клубииг
клубиин
клубт
клубтэи
клубууд
клубыг
клубын
клубээс
клубүүдиин
км
кн
кнессетиин
ко
коа
когуре
код
кодлогдсон
кодлох
кодонд
кодоо
кодоор
кодтои
кодууд
кодчилдог
кодчилсон
кодыг
кодын
козлов
кока
коксын
кола
коламбиа
колин
коллаген
коллеж
коллежид
коллежииг
коллежиин
колони
колониин
колоничлолын
колорадо
колумб
колумби
колумбиа
колумбиин
колумбус
колумбын
ком
команд
командаар
командад
командалсан
командлагч
командлагчаар
командлагчиин
командлал
командлалын
командлан
командууд
командуудыг
командыг
командын
комбаинч
комби
комбинат
коми
комик
комикс
коминтернии
комисс
комиссар
комиссарын
комисст
комиссыг
комиссын
комманд
коммандаар
коммандыг
коммандын
коммун
коммунизм
коммунизмын
коммунист
коммунистууд
коммунистуудын
коммунити
компакт
компани
компаниа
компаниас
компанид
компании
компанииг
компаниин
компанит
компанитаи
компаниуд
компаниудад
компаниудтаи
компаниудыг
компаниудын
компаны
комплекс
компьютер
компьютерииг
компьютериин
компьютерт
компьютерууд
компьютерыг
компьютерын
компьютерээр
компьютерээс
компьютерүүд
кон
конвенц
конвенциин
конг
конго
конгресс
конгрессиин
конгресст
конгрессын
конев
конкакаф
коннектикут
коннор
конрад
консерватив
консол
консорциум
константин
константинович
константинополь
консул
консулын
контент
контор
контроллер
конус
конусын
концентрацитаи
концерн
концерт
концертод
концертоо
концертын
координат
координатын
копа
коперникиин
коран
корнилов
корниловын
коростовец
корпораци
корпорациин
корпус
корпусын
корса
косово
косовогиин
коста
кострома
кот
коул
кофе
кофены
коэффициент
краи
краислер
краков
краковын
краснодар
красноярск
красноярскиин
кредит
кремлиин
кремль
креол
криминалистикиин
криптограф
крис
кристал
кристиан
кристин
кристина
кристоф
кристофер
крит
кришнамурти
кросс
круз
крым
крымиин
крымын
ку
куала
куб
куба
кубын
кувеит
кувеитиин
кузьмин
куинз
куликовын
кулон
кун
купер
курд
куре
курилиин
курс
курскиин
курст
курт
кутлук
кушаны
кхмер
кхмериин
кхмерүүд
кызыл
кэбэк
кэи
кэиж
кэит
кэн
кэрриган
кэти
кэтрин
кюри
кү
күн
күнз
күнзиин
күнь
күтүз
күүк
күүпер
л
ла
лаа
лааны
лаас
лаборатори
лабораторид
лабораториин
лав
лавлагаа
лавлан
лавлах
лавтаи
лаг
лагерь
лагерьт
лагч
лагшин
ладен
лазер
лаи
лаипциг
лаипцигиин
лал
лалын
лам
ламаар
ламаас
ламд
ламжавын
ламтаи
ламтан
ламыг
ламын
лан
лангиин
ланка
ланкын
лантуу
лао
лаос
лаост
лаосын
ларри
лас
лат
латви
латвиин
латин
латинаар
латины
лах
лахн
лацио
лба
лга
лгэ
лгүи
лд
ле
леброн
лев
леви
легион
леикерс
лекц
лена
ленин
ленинград
ленинградын
ленинии
леннон
лео
леон
леонард
леонардо
леоне
леонид
леопольд
лесото
лестер
лех
лж
ли
либерал
либери
либериин
ливан
ливаны
ливерпүүл
ливерпүүлд
ливерпүүлиин
ливи
ливиин
лиг
лига
лиганд
лигдэн
лигииг
лигиин
лигт
лигтээ
лигээс
лидер
лидс
лиза
лии
лиин
ликуд
лилль
лимбэ
лимузин
лимфоцит
лин
линда
линз
линзиин
линк
линкольн
линукс
линь
лион
лир
лист
литва
литвиин
литвын
литл
литр
литриин
лиу
лихтенштаин
лихтенштаины
лицеи
лиценз
лицензиин
ллоид
ло
ловон
лог
логик
логикиин
лого
лодоидамба
лодоидамбын
лодонгиин
локал
локомотив
лол
ломоносовын
лон
лонг
лондон
лондонгиин
лондонд
лондоны
лонх
лоо
лооль
лорд
лордын
лос
лосол
лоуренс
лох
лочин
лтаи
лу
луар
лувсан
лувсанвандан
лувсангиин
лувсанданзан
лувсандорж
лувсандоржиин
лувсанжав
лувсанжамц
лувсанцэрэн
лувсанцэрэнгиин
лувсаншарав
лугаа
лужники
луи
луивар
луижи
луиз
луиза
луизиана
луис
лука
лукас
лус
лусын
лут
луу
лууван
лууль
лууны
луур
луус
лха
лхагва
лхагвадорж
лхагвасүрэн
лхагвасүрэнгиин
лхамсүрэн
лхас
лхүмбиин
лхүмбэ
лц
лын
льюис
льюс
лэ
лэг
лэгч
лэе
лэик
лэикерс
лэл
лэн
лэх
лээ
лээн
лээс
лю
любовь
людвиг
людмила
люк
люксембург
люксембургиин
люси
лютер
лян
лянхуа
лянь
ляо
ляонин
ляоян
лү
лүа
лүгээ
лүн
лүндэн
лүү
лүүр
лө
лөг
лөх
лөө
м
ма
маа
маажин
маажих
маалинга
маалингын
маам
маанаг
мааниин
маань
маар
маб
маверикс
маврики
мавритани
маг
магад
магадгүи
магадлал
магадлалтаи
магадлалыг
магадлалын
магадлан
магадлах
магистр
магистрын
магмын
магнаг
магнаи
магнаид
магнаилан
магнаин
магнат
магни
магниин
магнитудын
магнус
магсар
магсаржав
магсаржавын
магт
магтаал
магтаж
магтан
магтана
магтах
магтдаг
магтсан
магтуу
магц
мад
мадагаскар
мадонна
мадрид
мадридад
мадридын
мажар
мазаалаи
маи
маиами
маига
маидар
маиер
маик
маикл
маикрософт
маин
маинц
маины
маихан
маихны
мак
макао
макартур
македон
македоны
маккартни
макро
макс
максим
мал
малаа
малаар
малаас
малави
малага
малаи
малаиз
малаизын
малаин
малгаи
малгаиг
малгаигаа
малгаид
малгаин
малгаит
малгаитаи
малгүи
малд
мали
малиин
маллагааны
малладаг
маллаж
маллан
маллах
малтаж
малтаи
малталт
малтан
малтах
малтлага
малтмал
малтмалыг
малтмалын
малуда
малчдын
малчид
малчин
малчны
малыг
малын
мальдив
мальта
мам
мамаи
мамаин
мамба
мамлюк
мамлюкиин
ман
мана
манаа
манааны
манаач
манаж
манаи
манаид
манаих
манаихан
манан
мананцар
манас
манах
манба
манга
манган
манганы
мангар
мангас
мангир
мангуу
мандаж
мандал
мандалд
мандалт
мандалтын
мандан
мандарин
мандах
мандела
мандлын
мандсан
мандуул
мандуулах
мандуулж
мандуулсан
мандухаи
маневр
манж
манжаар
манжаас
манжид
манжииг
манжиин
манжин
манжтаи
манжууд
манжуур
манжуурт
манжуурыг
манжуурын
манз
манзушир
манила
манлаи
манлаибаатар
манлаилагч
манлаилал
манлаилан
манлаилах
манлаилж
манн
мансууруулах
манта
манти
мануул
мануухаи
мануэль
манх
манхан
манчестер
мань
мао
маодунь
мар
мараа
марал
марафон
маргаан
маргаангүи
маргаантаи
маргааны
маргааныг
маргааш
маргаж
маргалдах
маргарет
маргах
марз
марзан
мари
мариа
марианы
марина
марино
марио
мария
марк
маркетинг
маркетингиин
маркиин
марко
маркос
маркс
марксизм
марксист
марксын
маркус
марокко
мароккогиин
марс
марсель
март
марта
мартагдашгүи
мартагдсан
мартаж
мартах
мартахгүи
мартин
мартины
мартсан
марш
маршал
маршалл
маршаллын
маршалын
маск
масс
массачусетс
массачусеттс
массив
масстаи
массыг
массын
мастер
мастеруудын
мастерын
матад
матар
мате
математик
математикиин
математикт
математикч
матери
материал
материалаар
материалаас
материалд
материализм
материалист
материаллаг
материалууд
материалуудыг
материалуудын
материалы
материалыг
материалын
материин
матигар
матриц
матрицын
матрын
маттиас
мах
махаа
махаар
махан
маханд
махараштра
махатма
махбод
махбодид
махбодиин
махбодод
махбодыг
махбодын
махбодь
махир
махлаг
махмуд
махн
махнаас
махны
махтаи
махц
махчин
махыг
мацаг
мацуев
маш
машид
машин
машинаа
машинаар
машинаас
машинд
машинтаи
машинууд
машинуудыг
машинуудын
машинч
машины
машиныг
мая
маяг
маягаар
маягииг
маягиин
маягт
маягтаи
мвт
мг
мгц
медалиа
медалиар
медалииг
медалиин
медалиуд
медалиудаар
медаль
медальт
медальтаи
медальтан
медведев
медиа
между
мекленбург
меконг
мексик
мексикиин
мексико
мексикт
мельбурн
мельбурны
мельес
мембран
мембранаар
мембраны
мемфис
мен
менделиин
менежер
менежерээр
менежмент
менежментииг
менежментиин
менхенгладбах
мень
мери
мерседес
мессеж
мессежииг
мессежиин
месси
мессэж
мета
метал
металл
металлууд
металлыг
металлын
метан
метафизик
метил
метр
метриин
метро
метроны
метрополитан
метрт
метрээр
метрээс
механизм
механизмыг
механизмын
механик
механикжсан
механикжуулсан
механикиин
механикт
механикч
мехико
мехикогиин
мехмед
мзэ
ми
миат
миг
мигель
мижиддорж
мии
миин
мик
микеланжело
микки
микро
микропроцессор
микрофон
милан
миланд
миланы
милиин
милк
миллер
миллиметр
милуоки
миль
мин
мина
мингиин
минж
минжин
мини
минии
миниих
миннесота
миномет
минск
мину
минут
минутаас
минутад
минутанд
минутыг
минутын
минь
мир
мира
мисс
миссисипи
миссиссиппи
миссури
михаил
михаилович
михаиль
михалков
михаэлиин
михаэль
мичиган
мичид
мишель
мкларен
мл
мм
мн
мнт
мо
моах
мобаил
мобиком
мог
могод
могои
могоин
могол
моголистан
моголцог
моголын
могц
мод
модгүи
модел
модель
модем
моди
модлог
модноос
модны
модод
модон
модонд
модоо
модоор
модот
модтои
модулииг
модуль
модун
модыг
мозамбик
мозамбикиин
мои
моил
мол
молдав
молдавын
молекул
молекулууд
молекулуудыг
молекулыг
молекулын
молибден
моломжамц
молор
молотов
молцог
моль
момент
мон
мона
монако
монакогиин
монг
монгол
монголд
монголдоо
монголжин
монголжсон
монголжуу
монголии
монголия
монголоид
монголоор
монголоос
монголтои
монголч
монголчууд
монголчуудаас
монголчуудад
монголчуудтаи
монголчуудыг
монголчуудын
монголыг
монголын
монголынхоо
монгольского
монгольскои
моника
монитор
мониторинг
монос
монреалиин
монреаль
монро
монсон
монсудар
монта
монтана
монте
монтенегро
монтенегрогиин
монцамэ
моор
морави
моравиин
морган
мордож
мордох
мордсон
морз
морзе
морзын
мори
морииг
морилж
морилон
морин
моринд
мориндоо
мориноос
мориноосоо
морины
мориныхоо
морио
мориор
морис
мормоны
моррис
мортон
морь
морьд
морьдоо
морьдыг
морьдын
морьт
морьтои
морьтон
москва
москваг
москвагаас
москвагиин
москвад
мотобуудлагын
мотор
моторжуулсан
моторс
моторт
мотортои
моторыг
моторын
мотоцикл
мотоциклиин
мохамед
мохаммед
мохоо
мохоох
мохох
моцарт
моцартын
мртух
мс
мстислав
мт
му
муаж
мубис
мугж
муж
мужаан
мужааны
мужаас
муждаа
мужид
мужииг
мужиин
мужтаи
мужун
мужууд
мужуудад
мужуудыг
мужуудын
мужын
муза
музеи
музеиг
музеид
музеин
муис
муихар
мулгуу
мултарсан
мултарч
мултлах
мултрах
мун
муна
мунаг
мунгинах
мундаа
мундаг
мундахгүи
мунхаг
мур
мурад
мурии
муруи
муруин
мусгз
муск
муслим
муссолини
муста
мустафа
мусульман
мутарджим
муу
мууг
муугаа
муугаар
муугаас
муугз
муугиин
муугүи
мууд
муудаа
муудаж
муудалцах
муудан
муудах
муудвал
муудсан
муулах
муур
муурын
муут
муутаи
муутгах
муутын
муухаи
муухаиг
муухаирах
муухан
муушаал
мухаммад
мухаммед
мухар
мухардах
мухарт
мухлаг
мухулаи
мушгиа
мушгиж
мушгин
мушгирсан
мушгих
муэ
мхбх
мхзэ
мхсс
мьянмар
мьянмарын
мэ
мэг
мэгц
мэд
мэдвэл
мэддэг
мэддэггүи
мэджээ
мэдлииг
мэдлиин
мэдлэг
мэдлэгииг
мэдлэгиин
мэдлэгт
мэдлэгтэи
мэдлэгээ
мэдлээ
мэдлээс
мэднэ
мэдрэг
мэдрэгдэх
мэдрэгч
мэдрэгчиин
мэдрэгчтэи
мэдрэл
мэдрэлиин
мэдрэмж
мэдрэмжииг
мэдрэмжтэи
мэдрэмтгии
мэдрэх
мэдрэхүи
мэдрэхүин
мэдсэн
мэдэг
мэдэгддэг
мэдэгддэггүи
мэдэгджээ
мэдэгдлииг
мэдэгдсэн
мэдэгдэв
мэдэгдэж
мэдэгдэл
мэдэгдэлгүи
мэдэгдэнэ
мэдэгдэх
мэдэгдэхгүи
мэдэгдэхүиц
мэдэгдээгүи
мэдэгдээд
мэдэгч
мэдэж
мэдэл
мэдэлгүи
мэдэлд
мэдэлдээ
мэдэлтэи
мэдэн
мэдэрдэг
мэдэрсэн
мэдэрч
мэдэх
мэдэхгүи
мэдэхииг
мэдэхиин
мэдэхэд
мэдэхээ
мэдэхээр
мэдэхүи
мэдэхүин
мэдээ
мэдээг
мэдээгээр
мэдээгүи
мэдээд
мэдээж
мэдээжиин
мэдээлдэг
мэдээлж
мэдээлжээ
мэдээлиин
мэдээллииг
мэдээллиин
мэдээллээ
мэдээллээр
мэдээллээс
мэдээллүүд
мэдээллүүдииг
мэдээлснээр
мэдээлсэн
мэдээлэл
мэдээлэлд
мэдээлэлзүин
мэдээлэлииг
мэдээлэлиин
мэдээлэлтэи
мэдээлэх
мэдээнд
мэдээнии
мэдээнээс
мэдүүлж
мэдүүлсэн
мэдүүлэг
мэдүүлэх
мэжик
мэи
мэижи
мэижиин
мэил
мэл
мэлхии
мэлхиин
мэн
мэнгэ
мэнд
мэндииг
мэндиин
мэндлэх
мэндчилгээ
мэндэд
мэндэлж
мэндэлжээ
мэндэлснии
мэндэлсэн
мэндээ
мэр
мэргид
мэргидиин
мэргэ
мэргэд
мэргэдиин
мэргэжил
мэргэжилтнии
мэргэжилтнээр
мэргэжилтнүүд
мэргэжилтнүүдиин
мэргэжилтэи
мэргэжилтэн
мэргэжлииг
мэргэжлиин
мэргэжлээ
мэргэжлээр
мэргэжлээрээ
мэргэжсэн
мэргэлэх
мэргэн
мэргэнии
мэргэшсэн
мэри
мэриин
мэриих
мэрэгч
мэрэгчид
мэс
мэт
мэтгэлцээн
мэтгэлцээнии
мэтииг
мэтиин
мэтт
мэттью
мэтчилэн
мэтэд
мэтээр
мэх
мэхииг
мэхлэх
мэхтэи
мэхээлдэс
мэхээр
мээр
мээрэн
мэө
мюзикл
мюллер
мюнхен
мюнхении
мягмар
мягмарсүрэн
мягмарын
мялаах
мян
мянга
мянгаар
мянгаас
мянгад
мянган
мянганы
мянгат
мянгатын
мяндас
мяндсан
мєн
мүбх
мүхаүт
мүэ
мө
мөгц
мөгөөрс
мөгөөрсөн
мөл
мөлгөр
мөлжих
мөлт
мөлхөгч
мөлхөж
мөлхөө
мөн
мөнгииг
мөнгө
мөнгөгүи
мөнгөлөг
мөнгөн
мөнгөнбаатар
мөнгөнд
мөнгөнии
мөнгөтэи
мөнгөө
мөнгөөр
мөндөр
мөнииг
мөнх
мөнхбаатар
мөнхбат
мөнхбаяр
мөнхболд
мөнхжин
мөнхиин
мөнхтөмөр
мөнххаан
мөнххаирхан
мөнхүү
мөнхөд
мөнхөлсөн
мөнхөрсөн
мөнөөх
мөр
мөргүи
мөргөж
мөргөл
мөргөлдөж
мөргөлдөх
мөргөлдөөн
мөргөлдөөнд
мөргөлдөөнии
мөргөлдөөнииг
мөргөлиин
мөргөн
мөргөсөн
мөргөх
мөрддөг
мөрдлөг
мөрдорж
мөрдоржиин
мөрдөгдөж
мөрдөгч
мөрдөж
мөрдөн
мөрдөх
мөрии
мөрииг
мөриин
мөриитэи
мөрнии
мөрнииг
мөрнөөр
мөрнөөс
мөрт
мөртлөө
мөртэи
мөртөө
мөрөн
мөрөнд
мөрөө
мөрөөдлиин
мөрөөдлөө
мөрөөдөж
мөрөөдөл
мөрөөдөх
мөрөөр
мөрөөс
мөс
мөсииг
мөснии
мөст
мөстлөгиин
мөсөн
мөсөөр
мөхжээ
мөхлиин
мөхлөг
мөхсөн
мөхсөнии
мөхөж
мөхөл
мөхөс
мөхөх
мөхөөж
мөч
мөчиг
мөчид
мөчииг
мөчир
мөчиртэи
мөчлөг
мөчлөгиин
мөчнии
мөчрииг
мөчөөс
мөөг
мөөгнии
мөөгөнцөр
мөөр
н
на
наа
наагуур
наад
наадаж
наадам
наадамд
наадах
наадахад
наадгаи
нааддаг
наадмаар
наадмаас
наадмуудад
наадмыг
наадмын
нааж
наалдаж
наалдамхаи
наалдан
наалданги
наалдах
наалдсан
наалдуулан
наамал
наана
наанги
наар
наас
наасан
наах
нааш
наашаа
нааштаи
наваан
навс
навтгар
навч
навчаа
навчаар
навчгүи
навчииг
навчин
навчинд
навчис
навчит
навчны
навчтаи
наг
нагасаки
нагац
наггетс
нагоя
над
надаар
надаас
надад
надежда
надтаи
наж
назгаи
наи
наигах
наидаж
наидан
наидангиин
наидах
наидвар
наидваргүи
наидвартаи
наидлага
наиз
наизууд
наизын
наилзуур
наим
наимаа
наимаагаар
наимаанд
наимааны
наимаачин
наиман
наиманы
наимд
наимдугаар
наимны
наимын
наир
наираг
наираглал
наирагч
наирагчиин
наирал
наиралт
наирамдал
наирамдалт
наирамдах
наирамдахчуудын
наирамдлын
наиргиин
наиргүи
наирлага
наирлагад
наирлаганд
наирлагатаи
наирлагыг
наирлагын
наирсаг
наиртаи
наируулагч
наируулагчаар
наируулагчиин
наируулал
наируулан
наируулах
наируулга
наируулгыг
наируулгын
наируулж
наирууллын
наируулсан
наирын
нал
налаих
налаихын
налархаи
налж
налуу
нам
намаа
намаагүи
намаас
намаг
намагтаи
намаиг
намар
намба
намбарын
намгархаг
намгиин
намд
намдаах
намдаг
намдагиин
намдах
намжил
намжилын
намжих
намиби
намнансүрэн
намраас
намрын
намс
намсраи
намсраижав
намсраин
намтаи
намтар
намтрыг
намууд
намуудын
намуун
намуухан
намхаи
намхан
намыг
намын
намынхан
нан
нангиад
нандигнан
нандин
нанжин
нанзад
нано
нансалмаа
нанхиад
наполеон
наполеоны
наполи
нар
нара
нараа
нараар
нараас
наран
наранбаатар
наранбулаг
нарангэрэл
наранд
наргиан
нариивтар
нариивчилсан
нариивчлал
нариивчлалтаи
нариивчлан
нариин
нариинтээл
нарииссан
нариихан
нармаи
нармандах
нарнаас
нарны
народнои
нарс
нарсан
нарсны
нарт
нартаа
нартаи
нартаигаа
нарыг
нарын
нарынхаа
нарүто
нас
наса
насаа
насаар
насаараа
насалдаг
насалсан
насан
насанд
насандаа
население
населения
населенных
наслав
наслалт
насласан
наслах
наснаас
наснаасаа
насны
насныхаа
насныхан
насныханд
насныхны
наст
настаи
настаигаасаа
настаид
настаидаа
настан
насыг
наталья
натан
нато
натри
натриин
натурал
науру
нахиа
нахя
нацаг
нацагдорж
нацагдоржиин
нацагиин
национальныи
нацист
нацистын
начин
ная
наяд
наян
нба
нв
нгаа
нгуен
нгуут
нгээ
нгүүт
нд
не
нева
невада
невилл
неиман
неитрон
неитроны
нелсон
нельсон
неру
неста
нетания
нетаньяху
нетс
нефтиин
нефть
ни
нигер
нигери
нигериин
нигүүлсэгч
нид
нидерланд
нидерландаар
нидерландад
нидерландын
нии
нииг
ниигмииг
ниигмиин
ниигмээс
ниигэм
ниигэмд
ниигэмлэг
ниигэмлэгииг
ниигэмлэгиин
ниигэмлэгт
ниигэмлэгээс
ниигэмлэгүүдиин
ниилбэл
ниилбэр
ниилбэрииг
ниилдэг
ниилж
ниилмэл
ниилнэ
ниилсэн
ниилэг
ниилэгжилт
ниилэгжүүлдэг
ниилэмж
ниилэн
ниилэх
ниилэхгүи
ниилээд
ниилүүлдэг
ниилүүлж
ниилүүлсэн
ниилүүлэгч
ниилүүлэлт
ниилүүлэлтииг
ниилүүлэлтиин
ниилүүлэн
ниилүүлэх
ниислэл
ниислэлд
ниислэлииг
ниислэлиин
ниислэлтэи
ниислэлээ
ниислэлээр
ниислэлээс
ниит
ниитдээ
ниитииг
ниитиин
ниитлэг
ниитлэгдсэн
ниитлэгдэж
ниитлэгч
ниитлэл
ниитлэлд
ниитлэлииг
ниитлэлиин
ниитлэлч
ниитлэлүүд
ниитлэх
ниитлүүлсэн
нииттэи
ниитэд
ниитэлж
ниитэлсэн
ниитээр
ниитээрээ
нииц
ниицгүи
ниицлэг
ниицсэн
ниицтэи
ниицэж
ниицэл
ниицэх
ниицэхгүи
ниицүүлэн
ниицүүлэх
ник
никарагуа
никелиин
никель
ники
никита
нико
никола
николаевич
николаи
николас
николсон
николь
николя
никс
никсон
нил
нилээд
нилээдгүи
нилээн
нимбэг
нимгэн
нин
нина
ниргэж
ниргэсэн
нирун
нисванис
нисгэгч
нисгэгчдиин
нисгэгчид
нисгэгчиин
нисгэгчээр
нисдэг
нислэг
нислэгииг
нислэгиин
нислэгт
нислэгээ
ниснэ
ниссан
ниссэн
нисч
нисэгч
нисэж
нисэн
нисэх
нисэхиин
нитрат
нихон
нишингэ
нквд
нм
но
нобелиин
нова
новгород
новосибирск
новш
ногаи
ногаин
ногдох
ногдуулах
ногоо
ногоовтор
ногоог
ногоон
ногоонд
ногооннуур
ногооны
ногоотои
ногт
ногтруу
ноед
ноедод
ноедоос
ноедтои
ноедууд
ноедыг
ноедын
ноелох
ноен
ноенд
ноеноор
ноентои
ноены
ноеныг
ноерхлоо
ноерхлыг
ноерхлын
ноерхогч
ноерхож
ноерхол
ноерхолоо
ноерхох
ноерхсон
ноир
ноирмог
ноирсох
ноитон
ном
номгон
номгүи
номд
номдоо
номер
номин
номинацид
номлогч
номлол
номлолыг
номлолын
номноос
номны
номонд
номондоо
номоо
номоор
номоос
номт
номтои
номтон
номун
номууд
номхон
номч
номыг
номын
ноогдох
ноолуур
ноолуурын
ноомои
ноорог
ноорсон
ноорхои
ноос
ноосны
ноосон
ноосоор
ноосыг
ноот
норв
норвеги
норвегиин
норвич
норгох
норм
норман
норов
норовлин
норовсамбуу
нородом
норох
норт
нот
нотлогдсон
нотлон
нотлох
нотолгоо
нотолж
нотолсон
ноу
ноход
нохои
нохоиг
нохоигоо
нохоид
нохоин
нохоины
нохоитои
ноцолдох
ноцоох
ноцох
ноцтои
нт
нтө
ну
нуга
нугалаа
нугалаас
нугалан
нугалах
нугалж
нугалсан
нугарах
нугас
нугасны
нугасныхан
нугын
нударга
нуклеин
нулимс
нум
нуман
нумны
нумыг
нумын
нунтаг
нунтаглах
нур
нурааж
нураах
нурам
нуран
нурах
нурж
нурсан
нуруу
нурууг
нуруугаа
нуруугаар
нурууд
нуруун
нуруунаас
нуруунд
нуруундаа
нурууны
нуруутаи
нуруутан
нурхач
нурхачи
нус
нутаг
нутагладаг
нутаглаж
нутаглан
нутаглана
нутагласан
нутаглах
нутагт
нутагтаа
нутагтаи
нутагтан
нутг
нутгаа
нутгаар
нутгаараа
нутгаас
нутгаасаа
нутгииг
нутгиин
нутгиинхаа
нутгиинхан
нутгиинхны
нутгууд
нутгуудад
нутгуудыг
нутгуудын
нуувч
нуугдаж
нуугдан
нуугдах
нуугдмал
нуугдсан
нууд
нууж
нуун
нуур
нуураас
нууранд
нуурт
нууртаи
нуурууд
нууруудын
нуурыг
нуурын
нуусан
нуух
нууц
нууцаар
нууцалж
нууцлаг
нууцлагдсан
нууцлал
нууцлалтаи
нууцлалыг
нууцлалын
нууцлах
нууцыг
нууцын
нухах
нухацтаи
нухчин
ны
ныг
нь
нью
ньюкасл
ньютон
ньютоны
нэ
нэвсгэр
нэвт
нэвтлэн
нэвтлэх
нэвтрэв
нэвтрэлт
нэвтрэлцэх
нэвтрэн
нэвтрэх
нэвтрүүлгииг
нэвтрүүлгиин
нэвтрүүлгээ
нэвтрүүлгээр
нэвтрүүлдэг
нэвтрүүлж
нэвтрүүлжээ
нэвтрүүлсэн
нэвтрүүлэв
нэвтрүүлэг
нэвтрүүлэгт
нэвтрүүлэгч
нэвтрүүлэн
нэвтрүүлэх
нэвтрүүлэхэд
нэвтэрдэг
нэвтэрсэн
нэвтэрхии
нэвтэрч
нэвтэрчээ
нэвчиж
нэвчих
нэг
нэгд
нэгддэг
нэгджээ
нэгдлииг
нэгдлиин
нэгдлээс
нэгдлүүд
нэгдлүүдииг
нэгдлүүдиин
нэгдмэл
нэгдсэн
нэгдсэнии
нэгдсэнээр
нэгдэв
нэгдэж
нэгдэл
нэгдэлд
нэгдэлиин
нэгдэн
нэгдэх
нэгдэхэд
нэгдүгээр
нэгдүгээрт
нэгж
нэгжид
нэгжииг
нэгжиин
нэгжтэи
нэгжээр
нэгжээс
нэгжүүд
нэгжүүдииг
нэгжүүдиин
нэгжүүдэд
нэгииг
нэгиигээ
нэгиин
нэгмөсөн
нэгнии
нэгнииг
нэгниигээ
нэгниихээ
нэгнээ
нэгнээс
нэгт
нэгтгэв
нэгтгэдэг
нэгтгэж
нэгтгэжээ
нэгтгэл
нэгтгэлиин
нэгтгэлүүд
нэгтгэн
нэгтгэснээр
нэгтгэсэн
нэгтгэх
нэгтгэхииг
нэгтгэхэд
нэгтгээд
нэгтэи
нэгтээ
нэгэн
нэгэнгүи
нэгэнд
нэгэндээ
нэгэнт
нэгэнтэи
нэгэнтээ
нэгээр
нэгээрээ
нэгээс
нэгээхэн
нэжгээд
нэкст
нэл
нэлээд
нэлээн
нэм
нэмдэг
нэмж
нэмнэ
нэмрииг
нэмрээ
нэмсэн
нэмэв
нэмэгддэг
нэмэгджээ
нэмэгдсэн
нэмэгдсэнээр
нэмэгдсээр
нэмэгдэж
нэмэгдэл
нэмэгдэн
нэмэгдэнэ
нэмэгдэх
нэмэгдүүлдэг
нэмэгдүүлж
нэмэгдүүлнэ
нэмэгдүүлсэн
нэмэгдүүлэн
нэмэгдүүлэх
нэмэгдүүлэхиин
нэмэгдүүлэхэд
нэмэлт
нэмэлтээр
нэмэн
нэмэр
нэмэргүи
нэмэх
нэмэхиин
нэмэхэд
нэмээд
нэмүү
нэн
нэр
нэрвэгдсэн
нэрвэгдэж
нэрвэгдэх
нэргүи
нэрд
нэрж
нэрииг
нэрииддэг
нэрииджээ
нэриидлээр
нэриидсэн
нэриидэж
нэриидэх
нэриин
нэрлэв
нэрлэвэл
нэрлэгддэг
нэрлэгджээ
нэрлэгдсэн
нэрлэгдэж
нэрлэгдэн
нэрлэгдэнэ
нэрлэгдэх
нэрлэдэг
нэрлэж
нэрлэжээ
нэрлэлт
нэрлэн
нэрлэнэ
нэрлэсэн
нэрлэх
нэрлэхиин
нэрлэхээр
нэрлээд
нэрнии
нэрнээс
нэрс
нэрсииг
нэрсиин
нэрт
нэртэи
нэртэигээр
нэршил
нэршилтэи
нэршлииг
нэршлээр
нэршсэн
нэрэмжит
нэрэн
нэрэнд
нэрэх
нэрээ
нэрээр
нэрээрээ
нэрээс
нэт
нэтфлов
нэхдэс
нэхии
нэхмэл
нэхмэлиин
нэхсэн
нэхэж
нэхэн
нэхэх
нэхээстэи
нээ
нээв
нээгджээ
нээгдсэн
нээгдэв
нээгдэж
нээгдэх
нээж
нээжээ
нээлт
нээлтииг
нээлтиин
нээлттэи
нээлтэд
нээлтээ
нээлтүүд
нээн
нээрээ
нээс
нээснээр
нээсэн
нээх
нээхэд
нюрнберг
ня
нягт
нягталж
нягтлан
нягтлах
нягтрал
нягттаи
нягтшил
нягтын
нядлах
нялуун
нялх
нялхсын
нялцгаи
нялцгар
ням
нямаа
нямбаи
нямбаяр
нямдаваа
нямдорж
нямжав
нямсүрэн
нямхүү
нямын
нян
нянг
нянгиин
нярав
няраи
няслах
няц
няцааж
няцаасан
няцаах
няцах
няцлах
нүб
нүглиин
нүглээ
нүгэл
нүгэлт
нүд
нүдгүи
нүдииг
нүдлэх
нүднии
нүднээс
нүдтэи
нүдэж
нүдэн
нүдэнд
нүдэндээ
нүдэт
нүдэх
нүдээ
нүдээр
нүдээрээ
нүсэр
нүх
нүхииг
нүхлэх
нүхнии
нүхтэи
нүхэн
нүхэнд
нүхэндээ
нүхээ
нүхээр
нүцгэн
нүүд
нүүдлииг
нүүдлиин
нүүдэл
нүүдэллэдэг
нүүдэллэж
нүүдэллэн
нүүдэлчдииг
нүүдэлчдиин
нүүдэлчид
нүүдэлчин
нүүж
нүүжээ
нүүлгэж
нүүлгэн
нүүлгэсэн
нүүлгэх
нүүн
нүүр
нүүргүи
нүүрииг
нүүриин
нүүрнии
нүүрс
нүүрсииг
нүүрснии
нүүрстөрөгч
нүүрстөрөгчиин
нүүрсхүчлиин
нүүрт
нүүртэи
нүүрэн
нүүрэнд
нүүрэндээ
нүүрээ
нүүсэн
нүүх
нүүхэд
нө
нөгчжээ
нөгчих
нөгчсөн
нөгөө
нөгөөг
нөгөөд
нөгөөдөө
нөгөөтэигүүр
нөгөөх
нөж
нөлөө
нөлөөг
нөлөөгүи
нөлөөгөө
нөлөөгөөр
нөлөөлдөг
нөлөөлж
нөлөөлжээ
нөлөөллииг
нөлөөллиин
нөлөөллөөс
нөлөөлнө
нөлөөлсөн
нөлөөлөл
нөлөөлөх
нөлөөлөхгүи
нөлөөн
нөлөөнд
нөлөөнии
нөлөөнөөс
нөлөөтэи
нөмрөг
нөмрөгиин
нөмрөх
нөмөр
нөмөрч
нөр
нөхдиин
нөхдиинхөө
нөхдөө
нөхдөөсөө
нөхрииг
нөхриин
нөхриинхөө
нөхрөө
нөхрөөсөө
нөхцлииг
нөхцлиин
нөхцлөөр
нөхцлөөс
нөхцөл
нөхцөлд
нөхцөлииг
нөхцөлиин
нөхцөлт
нөхцөлтэи
нөхцөлүүд
нөхцөлөөр
нөхцөлөөс
нөхөд
нөхөж
нөхөн
нөхөр
нөхөргүи
нөхөрлөж
нөхөрлөл
нөхөрлөлииг
нөхөрлөлиин
нөхөрлөсөн
нөхөрлөх
нөхөрсөг
нөхөрт
нөхөртэи
нөхөртөө
нөхөх
нөхөөс
нөөлөг
нөөс
нөөц
нөөцииг
нөөциин
нөөцлөх
нөөцтэи
нөөцүүдииг
нөөцөд
нөөцөлсөн
нөөцөө
нөөцөөр
нөөцөөс
о
оак
об
обама
област
области
область
объект
объектив
объектииг
объектиин
объектыг
объектын
обь
обьект
обьектууд
обьектуудыг
ов
овгииг
овгиин
овгиинхон
овгоос
овгор
овгууд
овжин
овог
овогт
овогтны
овогтои
овогтон
овоиж
овон
овоо
овоог
овоолго
овоолгын
овоолж
овоолох
овоолсон
овооны
овоохои
овор
оврын
овсгоо
ог
огноо
оготно
оготор
огт
огтлол
огтлон
огтлох
огтолж
огторгуи
огторгуид
огторгуин
огтхон
огуз
огцом
огцорсон
огцорч
огцров
огцрох
огцруулах
огцруулж
од
одбаяр
одгэрэл
оддыг
оддын
одесса
оджээ
одны
одов
одод
одож
одои
одом
одон
одонг
одонгиин
одонгоор
одонт
одоо
одоог
одоогиин
одоогиинхоор
одоогоор
одоогоос
одооны
одоохондоо
одох
одсон
одсэр
одсүрэн
одтои
одыг
одын
оедлын
оедол
оедолчин
оеж
оео
оесон
оех
озоны
ои
оиг
оигоо
оигоор
оигоос
оид
оидов
оидовын
оиж
оил
оилгогдох
оилгодог
оилгодоггүи
оилгож
оилголт
оилголтод
оилголтоор
оилголттои
оилголтууд
оилголтуудыг
оилголтыг
оилголтын
оилголцол
оилголцох
оилгомжгүи
оилгомжтои
оилгон
оилгоно
оилгосон
оилгох
оилгохгүи
оилгоход
оилгуулах
оимс
оимсны
оин
оир
оирад
оирадууд
оирадыг
оирадын
оирд
оирдын
оиролцоо
оиролцоогоор
оиролцоох
оиртож
оиртон
оиртох
оиртсон
оиртуулах
оирх
оирхи
оирхон
оирыг
оирын
оит
оитои
оих
оичих
окинава
оклахома
окончательных
округ
оксид
оксли
оксфордын
октябриин
октября
ол
олбог
олбол
олборлодог
олборлож
олборлолт
олборлолтын
олборлосон
олборлох
олгов
олгогдсон
олгогч
олгодог
олгож
олгожээ
олгои
олгон
олгоно
олгоогүи
олгосон
олгох
олгохоор
олгохыг
олгохын
олдвол
олдвор
олдворууд
олддог
олддоггүи
олджээ
олдман
олдмол
олдог
олдоггүи
олдож
олдоно
олдоогүи
олдоод
олдох
олдохгүи
олдсон
олег
олж
олжээ
олз
олзлогдогсод
олзлогдож
олзлогдсон
олзлон
олзны
олзолж
олзолсон
олзонд
олзоо
оливер
оливын
олигтои
олимп
олимпиа
олимпиад
олимпиадаас
олимпиадад
олимпиадын
олимпиакос
олимпииг
олимпиин
олимпик
олимпод
олимпоос
олимпт
олимпыг
олимпын
олно
олноо
олноор
олноороо
олноос
олны
олныг
олов
ололгүи
ололт
ололтыг
олом
олон
олонд
олондоо
олонлог
олонлогииг
олонлогиин
олонтаа
олонтои
олонтоо
олонх
олонхи
олонхиин
олоогүи
олоод
олох
олохгүи
олохдоо
олоход
олохоор
олохыг
олохын
олс
олсны
олсон
олсонгүи
олсоор
олтриг
олуул
олуулаа
олширч
олшрох
олшруулах
олъе
ольга
ом
оман
оманы
омар
омбо
омгииг
омгиин
омголон
омгорхог
омега
омог
омогтои
оморхог
омруу
омск
он
онги
онгиин
онгироо
онгирох
онгод
онгоиж
онгоилгох
онгоих
онгон
онгорхои
онгоц
онгоцноос
онгоцнууд
онгоцны
онгоцонд
онгоцоо
онгоцоор
онгоцтои
онгоцууд
онгоцуудыг
онгоцыг
онгуд
онд
ондоо
онегин
онигоо
онигор
онлаин
онлаинаар
онмх
оно
оновчтои
оногдож
оногдох
оногдсон
онож
онол
онолд
онолоо
онолоор
онолууд
онолч
онолыг
онолын
онон
оноо
оноог
оноогоо
оноогоор
оноож
оноожээ
оноолт
онооны
оноор
оноос
оноосон
оноотои
оноох
оносон
онох
онош
оношилгоо
оношлох
онтарио
онууд
онуудад
онуудын
онц
онцгои
онцгоилон
онцгоирон
онцлог
онцлогииг
онцлогоос
онцлогт
онцлогтои
онцлон
онцлох
онцолж
онцолсон
онцын
онч
оны
оныг
оныхоо
онь
оньс
оньсого
оньсон
оо
оод
оодон
оозэки
ооль
ооно
оор
оорои
оорцог
оос
оосои
оосор
ооч
оошима
опел
опелиин
опелын
оператор
операторууд
операторын
операци
оптик
оптикиин
опцион
ор
орвол
орган
организм
организмд
организмууд
организмын
органик
оргил
оргилболд
оргилд
оргилдоо
оргилон
оргилох
оргилуун
оргилын
оргин
оргио
оргих
оргодол
оргож
оргон
оргосон
оргох
оргүи
орд
ордноос
ордны
ордныг
ордог
ордоггүи
ордод
ордон
ордонг
ордонд
ордондоо
ордоны
ордоос
ордос
ордосын
ордууд
ордыг
ордын
орегон
орж
оржээ
орикон
орилох
орландо
орлеан
орлеанс
орлого
орлогоо
орлогоороо
орлогоос
орлоготои
орлогч
орлогчоор
орлогыг
орлогын
орлож
орлон
орлоо
орлох
орлуулах
орлуулж
орно
орноо
орноор
орноос
орноосоо
орнууд
орнуудаар
орнуудаас
орнуудад
орнуудтаи
орнуудыг
орнуудын
орны
орныг
орныхоо
оров
орог
орогнох
орои
ороиг
ороигүи
ороид
ороидоо
ороилон
ороин
ороитои
оролгүи
оролддог
оролджээ
оролдлого
оролдлогыг
оролдлогын
оролдож
оролдох
оролдсон
оролмаа
оролт
оролттои
оролтыг
оролтын
оролцдог
оролцдоггүи
оролцжээ
оролцлоо
оролцов
оролцогч
оролцогчдын
оролцогчид
оролцож
оролцон
оролцоно
оролцоо
оролцоог
оролцоогүи
оролцоод
оролцооны
оролцоотои
оролцоотоигоор
оролцох
оролцохгүи
оролцохдоо
оролцохоор
оролцохоос
оролцохыг
оролцохын
оролцсон
оролцсоноос
оролцсоны
оролцуулаад
оролцуулан
оролцуулах
оролцуулж
оролцуулсан
ором
оромгүи
оромдох
оромж
орон
оронг
оронгүи
оронд
орондоо
оронтои
оронч
орончдын
орончид
ороо
ороогүи
ороод
ороож
ороолт
ороомог
ороон
ороонго
орооно
ороосон
ороох
орос
оросод
оросоор
оросоос
орост
оростои
оросууд
оросуудад
оросуудын
оросыг
оросын
орох
орохгүи
орохдоо
ороход
орохоор
орохоос
орохыг
орохын
орсноор
орсноос
орсны
орсныг
орсон
орсоноор
ортодокс
ортои
ортол
оруулаагүи
оруулаад
оруулав
оруулагч
оруулагчид
оруулалт
оруулалтаар
оруулалттаи
оруулалтыг
оруулалтын
оруулан
оруулах
оруулахаар
оруулахад
оруулахгүи
оруулахдаа
оруулахыг
оруулахын
оруулга
оруулдаг
оруулж
оруулжээ
оруулна
оруулсан
оруулснаар
оруулсны
орхив
орхигдсон
орхидог
орхиж
орхижээ
орхин
орхиод
орхироо
орхисон
орхих
орхон
орхоны
орц
орч
орчим
орчимд
орчин
орчинг
орчинд
орчиндоо
орчинтои
орчлон
орчлонгиин
орчмоор
орчмоос
орчмыг
орчмын
орчноо
орчноос
орчны
орчныг
орчуулагдсан
орчуулагч
орчуулагчаар
орчуулан
орчуулах
орчуулбал
орчуулга
орчуулгаар
орчуулгыг
орчуулгын
орчуулж
орчуулжээ
орчуулсан
оршвои
оршдог
оршивои
оршиж
оршил
оршин
оршино
орших
оршихуи
оршихуин
оршихын
оршсон
оршсоор
оршуулах
оршуулга
оршуулгын
оршуулдаг
оршуулжээ
оршуулсан
орыг
орь
ос
осака
осама
осет
осети
оскар
оскарт
оскарын
осло
ослоор
ослоос
ослын
осман
османы
осол
осолд
осолдож
осолдох
осор
осорын
оспан
оспаны
остин
от
отгииг
отгиин
отго
отгон
отгонбаатар
отгонбаяр
отгонтэнгэр
отелло
отог
отож
отор
отох
оточ
отряд
отрядад
отрядууд
отрядыг
отрядын
оттава
отто
оттоманы
отчигин
оу
оувс
оуох
оуфо
оухах
оухбх
оухм
оуэн
оф
офицер
офицериин
офицерууд
офицеруудын
офицерын
официальныи
офф
оффис
оффисын
оффт
оффын
ох
охаио
охид
охидыг
охидын
охин
охиноо
охинтои
охины
охиныг
охиныхоо
охор
оху
охь
оцон
оч
очдог
очжээ
очив
очиж
очин
очир
очирбат
очирбатын
очирт
очирын
очих
очиход
очно
очоод
очсон
ош
оюу
оюун
оюунболд
оюунгэрэл
оюунлаг
оюунчимэг
оюуны
оюутан
оюутантаи
оюутнууд
оюутнуудад
оюутнуудын
оюутны
п
па
пабло
павел
павлов
паг
пагва
пагдгар
пад
паиз
пак
пакет
пакетииг
пакетиин
пакетуудыг
пакетыг
пакетын
пакистан
пакистанд
пакистаны
пал
палау
палеолитын
палеонтологиин
палермо
палестин
палестины
памир
памирын
пан
панам
панамын
панатинаикос
панжаб
панчо
паок
паоло
пап
папуа
папын
парагваи
парагваин
параллель
параметр
параметрүүд
параметрүүдииг
пари
парис
парист
парисын
парк
паркер
парламент
парламентаас
парламентад
парламентиин
парламентыг
парламентын
парма
партизан
партизаны
пас
паскаль
паспорт
патент
патентыг
патентын
патрик
паул
пауло
паулу
педро
пежо
пеликанс
пен
пеннсилвани
пенсильвани
пентатоник
пер
переписи
перепись
перес
перпендикуляр
перс
перси
персиин
персонал
персээр
перу
перугиин
петер
петербург
петербургиин
петербургт
петр
петриин
петров
петрович
петроград
пи
пикассо
пилсудски
пин
пиньинь
пионер
пионериин
пионерын
пирамид
пистонс
питер
питт
пиус
пифагорын
пицца
плазма
плазмын
плано
платон
платоны
платформ
плеи
плит
плэи
по
под
пол
полимер
полимераза
политехникиин
поло
пологиин
поль
польш
польшид
польшииг
польшиин
польшоор
померан
поп
попов
поппе
порошенко
порт
портал
портланд
портленд
порто
портсмут
порту
португал
португалаа
португалаар
португали
португалиин
португалын
португаль
портууд
портыг
портын
порше
поршегиин
пост
постоянного
потанин
потенциал
потенциалын
поттер
поттэр
потын
прав
правда
право
праг
прага
прагиин
прагматик
прадеш
практик
практикиин
практикт
премьер
пресс
пржевальскии
при
пригиин
прид
примаков
принс
принстоны
принт
принтер
принтериин
проверено
провинция
програм
програмаа
програмаар
програмд
программ
программууд
программчлалын
программыг
программын
програмтаи
програмууд
програмуудад
програмуудыг
програмуудын
програмчилсан
програмчлал
програмчлалын
програмчлах
програмыг
програмын
продьюсер
продюсер
продюсерээр
прокси
прокурор
прокурорын
пролетариин
пропорционал
пропорциональ
проспект
протестант
протокол
протоколд
протоколоор
протоколууд
протоколуудыг
протоколыг
протоколын
протон
протоны
профаил
профессор
профессороор
профессорын
профиль
процедур
процесс
процессд
процессииг
процессиин
процессоор
процессоос
процессор
процессороор
процессорт
процессортои
процессорууд
процессорыг
процессорын
процесст
процесстои
процессууд
процессуудад
процессуудыг
процессуудын
процессыг
процессын
процессүүд
прусс
пруссиин
пруссын
псв
пу
пулемет
пулеметын
пулитцер
пунктов
пунцаг
пунцагиин
путин
путинии
путины
пуужин
пуужинг
пуужингиин
пуччини
пушкин
пуэрто
пьер
пэинтболл
пэинтболлын
пэисерс
пэлас
пэрлээ
пянз
пүнлүү
пүрш
пүрэв
пүрэвгарьд
пүрэвдагва
пүрэвдорж
пүрэвдоржиин
пүрэвжав
пүрэвжавын
пүрэвиин
пүрэвсүрэн
пүүс
р
ра
раа
рабфак
равдан
равдангиин
рави
раг
рагчаа
радикал
радио
радиог
радиогиин
радиогоор
радиод
радиус
радиустаи
раи
раиан
раин
раины
раион
раионд
раионов
раионы
раис
раит
рал
ральф
рам
рамат
рамон
ран
рапс
рапсын
расинг
рассел
расселл
рауль
рафаэль
рах
рахман
рачневскии
раш
рашаан
рашаант
рашааны
рашааныг
рашид
рашидаддин
рдт
ре
реал
реалист
реалити
регбигиин
регистер
регистр
регистриин
регистрт
регистрүүд
ред
редактор
редакторлах
редактороор
редакц
редакциин
резин
резинэн
реи
реинжерс
реклам
рекорд
рекордыг
ректор
рене
рено
рентген
реп
реппер
реппэр
рерих
рерихиин
республик
республика
республики
ресторан
рецептор
рецепторууд
ри
ривер
ривера
рид
рии
риин
рик
рика
рикардо
рики
рикиин
рико
рил
рим
ринбүчи
ринчен
ринчин
ринчинбал
рио
ритм
рихард
ричард
ричардсон
рн
рнх
ро
роб
роббен
роберт
роберто
робертс
робертсон
робин
робинсон
робот
роботууд
роверс
род
родригес
рожер
роза
рои
рок
рокетс
рокки
ролл
роллинг
ром
рома
роман
романаа
романд
романтик
романы
романыг
ромбо
ромд
ромео
ромчууд
ромын
рон
роналд
рональд
рональдо
роо
росс
россии
россиискои
россия
ростов
рот
ротари
роттердам
роулинг
рп
рс
рт
ру
руанда
рублиин
рубль
рудольф
рузвельт
рум
румын
румынаар
румыны
румынь
рун
руни
руперт
русиин
русскии
русь
рутер
рутериин
руу
руугаа
рын
рэг
рэи
рэимонд
рэл
рэм
рэн
рэп
рэппэр
рэпторс
рээ
рээс
рюсселсхаим
рюү
рязань
рүү
рүүгээ
рүүзвельт
рөүз
рөүтер
с
са
саа
саад
саадаг
саадгүи
саадтаи
саадыг
сааж
саалиин
сааль
саальчин
саам
саар
саарал
сааралдуу
саармаг
саармагжуулах
сааруулах
саарь
саатаж
саатал
саатах
саатуулах
саатуулж
саах
саахалт
сав
саваа
саваагүи
саваар
саван
савангиин
саванд
савар
савах
савд
савдаг
савж
савлан
савлах
савнаас
савнаасаа
савны
савсаг
савтаи
савх
савхан
савхи
савхин
савыг
савын
саг
сага
сагаг
сагагиин
сагадаи
сагалдарга
сагил
саглагар
сагс
сагсаи
сагсан
сагсанбөмбөгч
сагсгар
сагсуу
сагсуурах
сад
садаа
садан
садар
саддам
садны
сажиг
саи
саивар
саигүи
саид
саидаар
саидаас
саидад
саидууд
саидыг
саидын
саижирсан
саижирч
саижрах
саижруулалт
саижруулан
саижруулах
саижруулахад
саижруулахын
саижруулдаг
саижруулж
саижруулна
саижруулсан
саимон
саин
саинаар
саингүи
саинтаи
саинцагаан
саиншанд
саины
саиныг
саир
саирхах
саирын
саит
саитаас
саитад
саитаи
саитама
саитар
саите
саитууд
саитыг
саитын
саихан
саиханд
саихнаар
саихны
саихныг
саишаал
саишаан
саишаах
сакраменто
саксон
саксоны
сал
салаа
салаалан
салаалж
салаалсан
салааны
салаатаи
салан
саланги
салангид
салах
салахгүи
салбар
салбараар
салбараас
салбарлан
салбарласан
салбарт
салбартаа
салбартаи
салбарууд
салбаруудад
салбаруудыг
салбаруудын
салбарыг
салбарын
салгаж
салган
салгасан
салгах
салдаггүи
салж
салжээ
салсан
салст
салтаа
салхи
салхиар
салхииг
салхилах
салхин
салхинаас
салхинд
салхины
салхит
салхитаи
салхич
салшгүи
сальвадор
сам
самар
самара
самарканд
самба
самбаа
самбааг
самбаатаи
самбаи
самбар
самбараас
самбарт
самбарыг
самбарын
самбо
самбуу
самбуугиин
самгард
самгарди
самдан
самнах
самоа
сампдориа
сампин
самрын
самсаа
самсунг
самураи
самуун
самууны
самууныг
самуурах
самуэл
самуэль
сан
сана
санаа
санааг
санаагаа
санаагаар
санаад
санаанаас
санаанд
санаандаа
санаандгүи
санааны
санаархаж
санаархах
санаат
санаатаи
санаатаигаар
санаатан
санаачилга
санаачилгаар
санаачилгыг
санаачилж
санаачилсан
санаачлага
санаачлагаар
санаачлагч
санаачлагыг
санаачлан
санаачлах
санагдаж
санагдана
санагдах
санагддаг
санагдуулам
санадаг
санаж
санал
саналаа
саналаар
саналтаи
саналыг
саналын
санамж
санамсаргүи
санамсаргүигээр
санан
санана
санасан
санасандаа
санаснаа
санах
санахгүи
санваар
санваартан
санг
сангаа
сангаар
сангаас
сангиин
сангууд
сангуудын
санд
сандаг
сандагдорж
сандал
сандарвал
сандарсан
сандарч
сандерленд
сандерлэнд
сандлын
сандо
сандра
сандран
сандрах
сандруу
санжаа
санжаагиин
санжаадамба
санз
санкт
санс
сансар
сансарт
сансарын
санскрит
сансрын
сант
санта
сантаи
сантехникиин
сантиметр
сантос
сантьяго
сануулан
сануулах
сануулга
сануулж
сануулсан
санхүү
санхүүгиин
санхүүждэг
санхүүжилт
санхүүжилтиин
санхүүжилтээр
санхүүжүүлэх
санч
санчес
санчир
саппоро
сар
сара
сараалж
сараар
сараас
саравч
сараи
саран
саранд
сарантуяа
сарвуу
сард
сарлаг
сарлагиин
сармагчин
сарнаи
сарнаин
сарниж
сарнин
сарнисан
сарниулах
сарних
сарны
сарт
сартаг
сартаи
сартаидаа
сартуул
саруудад
саруул
сархад
сархиаг
сархинаг
сарыг
сарын
сарьдаг
сарьс
сарьсан
сатурн
саудын
саутхемптон
саха
сахал
сахалин
сахалт
сахалтаи
сахар
сахарын
сахигч
сахиж
сахил
сахилга
сахин
сахисан
сахиул
сахиулах
сахиулахын
сахиус
сахиусан
сахиусны
сахих
сахлаа
сахлаг
сахлын
сацуу
сая
саяаас
саяар
саяас
саяд
саяны
саятан
саяхан
саяын
свен
свердловск
свитч
свитчиин
свич
сгз
се
себастиан
себастьян
севенти
севилья
сегмент
сегментииг
сегментиин
сеимиин
сеинт
сеишелиин
сек
секс
сектор
секторын
секунд
секундын
секундэд
секундээр
селен
селении
селтик
селтикс
сельских
семантик
семен
семенов
семинар
сен
сенат
сенатор
сенатч
сенатын
сенегал
сенегалиин
сент
сер
серб
серби
сербиин
сервер
серверииг
сервериин
серверт
сервертэи
серверээс
серверүүд
сервис
сервэр
сергеевич
сергеи
сери
сериал
серие
серик
сертификат
си
сибирииг
сибириин
сибирь
сибирьт
сигнал
сигналыг
сиднеи
сиднеин
сии
сиилбэр
сиилбэрч
сиилж
сиилсэн
сиилэх
сиимхии
сиирэг
силва
силези
симон
симпсон
симфони
симфонииг
симфониин
симфонио
син
синаин
сингапур
сингапурт
сингапурын
сингл
синглиин
синглэ
синглээ
синглүүд
синдром
синтакс
синтез
синтетик
синхрон
синхрончлол
сир
сири
сирииг
сириин
систем
системд
системииг
системиин
системтэи
системээ
системээр
системээс
системүүд
системүүдииг
системүүдиин
системүүдэд
сити
ситигиин
ситид
ситиин
сититэи
сицилиин
сиэтл
скан
скандал
скандинавын
скиф
скотт
скрипт
скудериа
слав
славян
словак
словакиин
словарь
словен
словени
словениин
см
смит
смитиин
смоленск
снз
со
советских
совин
сог
согд
согог
согоо
согтох
согтуу
согтууруулах
сод
содбилэг
содном
содномдорж
содномын
содов
содон
соед
соел
соелд
соелоо
соелт
соелтои
соелыг
соелын
соембо
соен
соены
соео
соеолон
соерхол
соерхолт
соерхон
соиз
соилго
соир
соих
сократ
сократын
сол
солбицол
солгои
солигддог
солигдож
солигдон
солигдоно
солигдох
солигдсон
солиин
солилцдог
солилцож
солилцоо
солилцоог
солилцоогоор
солилцоонд
солилцооны
солилцох
солилцоход
солин
солино
солио
солиот
солиотои
солир
солих
соло
соломоны
солон
солонго
солонгос
солонгосоор
солонгосоос
солонгост
солонгосчууд
солонгосыг
солонгосын
солт
сольж
сольжээ
сольсон
сомали
сомалиин
сон
сонат
сонг
сонгино
сонгинохаирхан
сонгов
сонгогддог
сонгогджээ
сонгогдов
сонгогдож
сонгогдон
сонгогдоно
сонгогдоод
сонгогдох
сонгогдсон
сонгогчдын
сонгодог
сонгож
сонгожээ
сонголт
сонголтоор
сонголттои
сонголтыг
сонголтын
сонгомол
сонгон
сонгонд
сонгоно
сонгосон
сонгох
сонгохдоо
сонгоход
сонгуулиар
сонгуулииг
сонгуулиин
сонгууль
сонгуульд
сонгуульт
сондгои
сондуул
сонин
сонинг
сонинд
сонинууд
сонины
сониныг
сонирхдог
сонирхлоо
сонирхлыг
сонирхлын
сонирхогч
сонирхогчдын
сонирхогчид
сонирхогчиин
сонирхож
сонирхол
сонирхолгүи
сонирхолд
сонирхолтои
сонирхолыг
сонирхон
сонирхох
сонирхсон
сониуч
соном
сономын
сонор
сонорт
сонс
сонсгол
сонсголын
сонсгох
сонсдог
сонсдох
сонсогдох
сонсогч
сонсогчдод
сонсогчдын
сонсож
сонсон
сонсоно
сонсоод
сонсох
сонсоход
сонссон
соор
сопрано
сор
сорви
соргог
сорж
сорил
сорилт
сорин
сорих
сормуус
сорогч
соронз
соронзны
соронзон
соронзонболд
сорос
сорох
сорт
сортои
сортын
соруул
сорьж
сорьсон
сорьц
сосорбарам
состав
сосьедад
сото
софи
сохор
социал
социализм
социализмын
социалист
социологи
социологиин
сочи
сочиин
сошиал
союз
спарта
спартак
спартакиадын
спб
спектр
спектриин
спенсер
сперс
спилберг
спирт
спорт
спортинг
спортод
спортоор
спортыг
спортын
спурс
сс
ссср
ст
ста
ставрополиин
сталин
сталинградын
сталины
стамбул
стандарт
стандартаар
стандартад
стандартууд
стандартчилагдсан
стандартыг
стандартын
станислав
станц
станцаас
станцад
станцтаи
станцууд
станцыг
станцын
старт
статемент
статементииг
статик
статикиин
статистик
статистикиин
статус
статустаи
статусыг
статья
стек
степан
стерлинг
стерлингиин
стерлингээр
стефан
стефен
стив
стивен
стиль
сток
стокхольм
стратеги
стратегииг
стратегиин
стресс
студи
студид
студииг
студиин
стэит
стэнли
стэнфорд
стэнфордын
стюарт
су
субъект
субъектив
суваг
сувагт
сувагтаи
суварга
сувгаар
сувгииг
сувгиин
сувгууд
сувгуудыг
сувд
сувдаг
сувдан
сувилагч
сувилал
сувилах
сувилгаа
сувиллын
суврага
суга
сугаи
сугалах
суганд
сугар
сугас
судал
судалгаа
судалгааг
судалгаагаар
судалгаанаас
судалгаанд
судалгааны
судалдаг
судалж
судалжээ
судална
судалсан
судалсны
судалт
судалтаи
судан
суданы
судар
сударт
судас
судасны
судлаад
судлаач
судлаачдын
судлаачид
судлаачиин
судлагдаагүи
судлагдаж
судлагдахуун
судлагдсан
судлагч
судлаж
судлал
судлалаар
судлалд
судлалыг
судлалын
судлан
судлана
судлах
судлахаар
судлахад
судрыг
судрын
судсаар
судсанд
судсыг
суис
сул
суларсан
суларч
сулеиман
суллагдсан
суллаж
суллан
суллах
сулрах
сулруулах
сулруулж
сулруулсан
султаи
султан
султант
султаны
сулхан
сульдах
сульфат
сульфид
сум
сумаа
сумаар
сумаас
суман
сумангиин
суманд
сумандаа
суманчулуун
суматра
сумд
сумдаар
сумдад
сумдтаи
сумдыг
сумдын
сумнаас
сумны
сумо
сумтаи
сумууд
сумъяа
сумъяабаатар
сумыг
сумын
сумынхаа
сун
сунадаг
сунаж
сунан
сунасан
сунах
сунгаанд
сунгав
сунгаж
сунган
сунгасан
сунгах
сундуи
суннит
сунь
суонси
супер
сур
сураагүи
сураад
сураар
сураг
сураггүи
сурагч
сурагчдад
сурагчдыг
сурагчдын
сурагчид
сурагчиин
суралцаад
суралцагч
суралцаж
суралцан
суралцах
суралцахаар
суралцдаг
суралцжээ
суралцсан
сурамгаи
суран
сурах
сурахаар
сурахад
сурвал
сурвалж
сурвалжаас
сурвалжид
сурвалжииг
сурвалжиин
сурвалжилга
сурвалжилсан
сурвалжит
сурвалжлага
сурвалжлагч
сурвалжлагчаар
сурвалжлан
сурвалжлах
сурвалжууд
сурвалжуудад
сурга
сургаал
сургаалииг
сургаалыг
сургаалын
сургааль
сургагч
сургадаг
сургаж
сургалт
сургалтаар
сургалтад
сургалтанд
сургалттаи
сургалтыг
сургалтын
сургамж
сурган
сургасан
сургах
сургуулиа
сургуулиас
сургуулиасаа
сургуулииг
сургуулиин
сургуулиинхаа
сургуулилт
сургуулиуд
сургуулиудад
сургуулиудыг
сургуулиудын
сургууль
сургуульд
сургуульдаа
сургуультаи
сурдаг
сурж
суринам
сурлага
сурна
сурсан
суртал
сурталчилгаа
сурталчилгааг
сурталчилгаанд
сурталчилгааны
сурталчилж
сурталчилсан
сурталчлан
сурталчлах
суртахуун
суртахууны
суртлыг
суртлын
сурч
сурчээ
сурыг
сурын
сутаи
суу
суув
суувал
суугаа
суугаагүи
суугаад
суугч
суугчдыг
суугчдын
суугчид
суугчтаи
суудаг
суудал
суудалд
суудалтаи
суудлаа
суудлаас
суудлыг
суудлын
сууж
суужээ
суулга
суулгаад
суулгав
суулгадаг
суулгаж
суулгажээ
суулган
суулгана
суулганы
суулгасан
суулгах
суулгахад
суулгац
суулт
суун
сууна
сууриа
суурииг
сууриин
суурилагдсан
суурилан
суурилдаг
суурилж
суурилсан
суурилуулах
суурилуулж
суурилуулсан
суурин
сууринаас
сууринг
суурингиин
суурингууд
сууринд
суурины
суурь
суурьт
суурьтаи
суурьшдаг
суурьшжээ
суурьшигчид
суурьшиж
суурьшил
суурьшин
суурьших
суурьшмал
суурьшсан
суусаар
суусан
суусар
суусны
суут
суух
суухаар
суухад
суухгүи
суухдаа
суухыг
суухын
сууц
сууцанд
сууцны
сууцыг
сухаи
суэциин
сх
схем
схемд
схемииг
схемиин
схии
сыма
сын
сычуань
сьерра
сэ
сэв
сэвгүи
сэвииг
сэврэи
сэвс
сэвсгэр
сэвтэи
сэвх
сэвэгзарам
сэг
сэгсгэр
сэгсрэх
сэдвииг
сэдвиин
сэдвээр
сэдвүүд
сэдрэх
сэдэв
сэдэвлэн
сэдэвлэсэн
сэдэвт
сэдэвтэи
сэдэвчилсэн
сэдэж
сэдэл
сэдэх
сэжиг
сэжиглэж
сэжиглэх
сэжигтэи
сэжигтэн
сэжун
сэжүүр
сэл
сэлбэг
сэлбэн
сэлбэх
сэлгэж
сэлгэн
сэлгэх
сэлгээ
сэлгээгээр
сэлгээнд
сэлгээнии
сэлгээнээс
сэлж
сэлт
сэлтииг
сэлэгч
сэлэлт
сэлэлтиин
сэлэм
сэлэнгиин
сэлэнгэ
сэлэх
сэлүүр
сэм
сэмж
сэмхэн
сэн
сэнгэ
сэнгээ
сэнж
сэнс
сэнтии
сэнтиид
сэр
сэрвэгэр
сэргиилдэг
сэргиилж
сэргиилнэ
сэргиилсэн
сэргиилэн
сэргиилэх
сэргиилэхиин
сэргиилэхэд
сэргэг
сэргэж
сэргэлт
сэргэлэн
сэргэн
сэргэсэн
сэргэх
сэргээгдэх
сэргээж
сэргээн
сэргээсэн
сэргээх
сэргээхииг
сэргээхиин
сэргээхэд
сэргээш
сэрж
сэртэн
сэрэгдэх
сэрэл
сэрэмж
сэрэмжлэх
сэрэмжтэи
сэрэх
сэрээ
сэрээтэр
сэрүү
сэрүүн
сэт
сэтгэгдэл
сэтгэгч
сэтгэж
сэтгэл
сэтгэлгээ
сэтгэлгээг
сэтгэлгээнии
сэтгэлгүи
сэтгэлд
сэтгэлдээ
сэтгэлзүин
сэтгэлииг
сэтгэлиин
сэтгэлт
сэтгэлтэи
сэтгэлээ
сэтгэлээр
сэтгэлээс
сэтгэлээсээ
сэтгэмж
сэтгэн
сэтгэх
сэтгэхүи
сэтгэхүин
сэтгэц
сэтгэциин
сэтгүүл
сэтгүүлд
сэтгүүлииг
сэтгүүлиин
сэтгүүлч
сэтгүүлчдиин
сэтгүүлчид
сэтгүүлчиин
сэтгүүлээс
сэтлэн
сэтэрхии
сэхээ
сэхээтнии
сэхээтнүүд
сэхээтэн
сэцэн
сээр
сю
сюань
сюи
ся
сянь
сяньби
сяньбиин
сяо
сяопин
сү
сүбэдэи
сүбээдэи
сүв
сүвииг
сүвээ
сүвээр
сүг
сүжигт
сүи
сүид
сүидсэн
сүидэх
сүирлиин
сүирсэн
сүирч
сүирчээ
сүирэл
сүирэх
сүит
сүитгэж
сүитгэл
сүитгэсэн
сүитгэх
сүих
сүлбээ
сүлд
сүлдииг
сүлднии
сүлжиж
сүлжин
сүлжих
сүлжмэл
сүлжсэн
сүлжээ
сүлжээг
сүлжээгээр
сүлжээн
сүлжээнд
сүлжээнии
сүлжээнээс
сүлжээнүүд
сүлжээтэи
сүм
сүмбэ
сүмбэр
сүмбээ
сүмд
сүмииг
сүмиин
сүмо
сүмогиин
сүмоч
сүмээс
сүмүүд
сүн
сүнс
сүнсииг
сүнснии
сүнснүүд
сүнстэи
сүнь
сүр
сүргииг
сүргиин
сүргээ
сүргээсээ
сүрдүүлж
сүрдүүлэх
сүржин
сүрииг
сүрлэг
сүртэи
сүрхии
сүрьеэ
сүрьеэгиин
сүрэг
сүрэглэн
сүрэгт
сүрэл
сүрэн
сүрэнжав
сүрэнхорлоо
сүсэг
сүсэглэн
сүсэгтэн
сүх
сүхбаатар
сүхбаатарын
сүхбат
сүхнии
сүхээ
сүхээр
сүү
сүүг
сүүгээр
сүүдриин
сүүдэр
сүүдэрт
сүүж
сүүл
сүүлгүи
сүүлд
сүүлдээ
сүүлииг
сүүлиин
сүүлиинх
сүүлнии
сүүлт
сүүлтэи
сүүлч
сүүлчиин
сүүлчээр
сүүлчээс
сүүлээ
сүүлээр
сүүлээс
сүүмгэр
сүүн
сүүнд
сүүнии
сүүнээс
сүүтэи
сөг
сөд
сөл
сөн
сөнөд
сөнөсөн
сөнөх
сөнөөгч
сөнөөж
сөнөөх
сөргүүлэн
сөргөлдөгч
сөргөлдөөн
сөргөөр
сөрж
сөрөг
сөрөн
сөрөх
сөх
сөхөж
сөхөх
сөүл
сөүлд
сөүлиин
сөөг
сөөгөнцөр
сөөм
сөөр
т
та
таа
таавар
таагүи
тааж
тааз
таалагдаагүи
таалагдсан
таалал
тааламжгүи
тааламжтаи
таалах
таамаг
таамагладаг
таамаглаж
таамаглал
таамаглалыг
таамагласан
таамаглах
таамгаар
таана
таар
тааралдаж
тааралдана
тааралдах
тааралддаг
тааралдсан
таарамж
таарамжгүи
тааран
таарах
таарахгүи
таарвал
таардаг
таарна
таарсан
тааруу
тааруулан
тааруулах
тааруулж
тааруухан
таарч
таатаи
таах
тааш
таашаал
таашаасан
таблет
тав
таваар
таваарын
таваас
таваг
таван
тавантолгои
тавантолгоин
тавгүи
тавд
тавдугаар
тавиад
тавибал
тавив
тавигдаж
тавигдах
тавигддаг
тавигджээ
тавигдсан
тавигч
тавилан
тавилангиин
тавилантаи
тавилга
тавин
тавина
тавиу
тавиулах
тавиун
тавиур
тавих
тавихаар
тавихад
тавихгүи
тавихыг
тавлах
тавнан
тавны
тавтаи
тавтиргүи
тавхаи
тавцан
тавцангиин
тавцанд
тавын
тавь
тавьдаг
тавьдаггүи
тавьж
тавьжээ
тавьсан
тавьснаар
таг
тагдгар
тагиин
таглаа
таглах
тагна
тагнаи
тагнаин
тагнан
тагнах
тагнуул
тагнуулч
тагнуулын
тагнын
тагт
тагтаа
тагш
таж
тажик
тажикистан
тажикистаны
таи
таибэи
таиван
таивании
таиванииг
таиваниин
таиваны
таивань
таиваньд
таивнаар
таивны
таивныг
таившрах
таившруулах
таига
таигад
таиган
таигын
таиж
таижииг
таижиин
таиз
таизан
таизнаа
таизны
таизун
таилаад
таилаг
таилагдах
таилагдсан
таилагнах
таилал
таилан
таиланг
таиланд
таиландад
таиландын
таилах
таилахад
таилбар
таилбарлавал
таилбарлагч
таилбарладаг
таилбарлаж
таилбарлажээ
таилбарлан
таилбарласан
таилбарлах
таилбарлахад
таилбарлахдаа
таилбарыг
таилга
таилгын
таилж
таилжээ
таилсан
таим
таимс
таирах
таирч
таисон
таисун
таих
таиху
таичууд
таиш
таиши
таишиин
таишир
такси
таксины
такт
тактик
тактикииг
тактикиин
тал
талаа
талаар
талаараа
талаарх
талаархи
талаас
талаасаа
талархаг
талархаж
талархал
талархан
талархлыг
талархлын
талас
талбаи
талбаиг
талбаигаар
талбаигаас
талбаид
талбаидаа
талбаин
талбаит
талбаитаи
талбар
талбараас
талбарт
талбарыг
талбарын
талбиу
талд
талдаа
талиигаач
таллан
таллин
талст
талт
талтаи
талууд
талуудтаи
талуудыг
талуудын
талх
талхны
талыг
талын
талынхан
там
тамга
тамгагүи
тамганы
тамгатаи
тамгыг
тамгын
тамил
тамир
тамирчдаас
тамирчдыг
тамирчдын
тамирчид
тамирчин
тамирчнаар
тамирчны
тамирын
тамлан
тамтаг
тамхи
тамхииг
тамхины
тамын
тан
тана
танаас
танаи
танака
танан
тангад
тангараг
тангаргаа
тангиин
тангуд
тангудын
танд
тандан
тандах
тандер
танзани
танигдаж
танигдана
танигдах
танигдсан
танигч
танил
танилт
танилтын
танилцаад
танилцаж
танилцан
танилцах
танилцжээ
танилцсан
танилцуулав
танилцуулах
танилцуулга
танилцуулж
танилцуулжээ
танилцуулсан
танин
танина
таниулах
таниулж
таниулсан
таних
танихгүи
танк
танкииг
танкиин
танкны
танкууд
тансаг
танхаи
танхи
танхим
танхимаас
танхимд
танхимтаи
танхимыг
танхимын
таны
таныг
тань
таньд
таньдаг
таньж
тао
тар
тараадаг
тарааж
тараан
тараана
тараасан
тараах
тараг
тарагт
таран
тарах
тарвага
тарваган
тарваганы
тарвагатаи
тарвагатаин
тарвас
тарга
таргалах
таргалж
тарган
тарж
тариа
тариаг
тариалалт
тариалан
тариаланг
тариалангиин
тариаланд
тариаланч
тариалах
тариалдаг
тариалж
тариалсан
тариан
тарианы
тариат
тариатын
тариачдын
тариачид
тариачин
тариачны
таривал
тарилга
таримал
тарих
тарлан
тармаг
тармуур
тарна
тарни
тарниин
тарсан
таруу
тархаж
тархаи
тархалт
тархалттаи
тархалтыг
тархалтын
тархан
тархана
тархах
тархац
тархдаг
тархжээ
тархи
тархииг
тархинд
тархины
тархмал
тархсан
тарчиг
тарчлаан
тарьж
тарьсан
тас
тасаг
тасагт
тасалбар
тасалгаа
тасалгаанд
тасалгааны
тасалдал
тасалдах
тасалдлыг
тасалдлын
тасалдсан
тасалж
тасалсан
тасарсан
тасархаи
тасарч
тасгиин
тасдан
таслал
таслалт
таслан
таслах
тасралтгүи
тасран
тасрах
тасрахгүи
тасс
тат
тата
татаад
татаар
татаас
татав
татагдаж
татагдан
татагдах
татагддаг
татагдсан
татаж
таталцлын
татам
татан
татар
татарстан
татарууд
татарын
татах
татахад
татахуиц
татахыг
татвал
татвар
татвараас
татварыг
татварын
татгалзав
татгалзаж
татгалзан
татгалзах
татгалзжээ
татгалзсан
татдаг
татжээ
татлага
татна
татрах
татсан
татуу
татуулах
татьяна
таун
тафт
тах
тахал
тахиа
тахианы
тахидаг
тахиж
тахиин
тахиих
тахил
тахилга
тахилгат
тахилгатаи
тахилгын
тахилын
тахин
тахир
тахих
тахлын
тахь
тачаал
тачаангуи
тачир
ташаа
ташаанд
таших
ташкент
ташуу
ташуур
ташуураар
ташуурын
таяг
таян
тбб
тбилиси
тбилисиин
тбү
тв
твиттер
те
театр
театрт
театруудад
театрыг
театрын
тег
тегеран
тегин
тед
теилор
текст
текстииг
тектоник
тектоникиин
тел
теле
телевиз
телевизииг
телевизиин
телевизор
телевизэд
телевизээр
телефон
телефоны
температур
температураас
температурт
температуртаи
температурыг
температурын
теннесси
теннис
тенниснии
теннисч
теннисчин
теодор
теорем
теоремыг
тер
тереза
терминал
термодинамик
термодинамикиин
терри
территориальное
терроризм
терроризмын
террорист
тест
тех
техас
техасын
техник
техникииг
техникиин
техникт
техниктэи
техникум
техникумд
техникч
техникээр
техникүүд
технологи
технологид
технологииг
технологиин
технологиор
технологитои
технологиуд
технологиудыг
технологич
ти
тив
тивд
тивииг
тивиин
тивээс
тиг
тигр
тигран
тии
тиим
тиимдээ
тиимээс
тиин
тиинхүү
тиирэлтэт
тиирэх
тииш
тиишээ
тиишээгээ
тим
тимбервулвз
тимор
тип
тирозин
титан
титаник
тито
титэм
тн
то
тоба
тобаго
тоби
тов
товгор
товлосон
товоилгон
товоин
товон
товрог
товруу
товх
товхимол
товч
товчид
товчииг
товчилж
товчилсон
товчлол
товчлон
товчлох
товчлуур
товчоо
товчоог
товчоон
товчоонд
товчооны
товчоор
товчхон
товшуур
тог
тогл
тоглов
тоглогдож
тоглогдсон
тоглогч
тоглогчдыг
тоглогчдын
тоглогчид
тоглогчииг
тоглогчиин
тоглогчоор
тоглодог
тоглож
тогложээ
тоглолт
тоглолтод
тоглолтонд
тоглолтондоо
тоглолтоо
тоглолтоор
тоглолтоороо
тоглолтоос
тоглолтууд
тоглолтуудад
тоглолтуудыг
тоглолтыг
тоглолтын
тоглон
тоглоно
тоглоод
тоглоом
тоглоомд
тоглоомнууд
тоглоомны
тоглоомонд
тоглоомоор
тоглоомууд
тоглоомыг
тоглоомын
тоглосон
тоглосоор
тоглох
тоглохдоо
тоглоход
тоглохоор
тоглохыг
тоглуулагч
тоглуулах
тоглуулж
тоглуулсан
того
тогоо
тогоон
тогоонд
тогоонтөмөр
тогооны
тогоотои
тогооч
тогоруу
тогос
тогосын
тогтвор
тогтворгүи
тогтвортои
тогтдог
тогтжээ
тогтлыг
тогтмол
тогтнов
тогтнож
тогтножээ
тогтнол
тогтнолоо
тогтнолыг
тогтнолын
тогтносны
тогтносон
тогтнох
тогтноход
тогтов
тогтож
тогтол
тогтолтои
тогтолцоо
тогтолцоог
тогтолцоонд
тогтолцооны
тогтолцоотои
тогтоно
тогтоов
тогтоогджээ
тогтоогдоогүи
тогтоогдсон
тогтоогоогүи
тогтоогоод
тогтоогч
тогтоод
тогтоодог
тогтоож
тогтоожээ
тогтоол
тогтоолд
тогтоолоор
тогтоолт
тогтоолыг
тогтоолын
тогтоомж
тогтоомжид
тогтоомжииг
тогтоомжиин
тогтоон
тогтооно
тогтоосноор
тогтоосны
тогтоосон
тогтоох
тогтоохдоо
тогтооход
тогтоохоор
тогтоохыг
тогтоохын
тогтох
тогтохгүи
тогтохын
тогтоц
тогтоцтои
тогтсон
тогтуун
тод
тодоор
тодордог
тодорсон
тодорхои
тодорхоигүи
тодорхоилдог
тодорхоилж
тодорхоилжээ
тодорхоилно
тодорхоилогддог
тодорхоилогдож
тодорхоилогдоно
тодорхоилогдох
тодорхоилогдсон
тодорхоилогч
тодорхоилолт
тодорхоилолтод
тодорхоилолтоор
тодорхоилолтууд
тодорхоилолтыг
тодорхоилолтын
тодорхоилон
тодорхоилоод
тодорхоилох
тодорхоилохдоо
тодорхоилоход
тодорхоилохыг
тодорхоилохын
тодорхоилсноор
тодорхоилсон
тодорч
тодорчээ
тодотгож
тодотгол
тодотголтои
тодотгон
тодров
тодрон
тодрох
тодруулан
тодруулах
тодруулахад
тодруулбал
тодруулдаг
тодруулж
тодруулсан
тоеота
тои
тоиг
тоим
тоимлон
тоин
тоиргииг
тоиргиин
тоиргоор
тоиргоос
тоирдог
тоирноо
тоирны
тоирог
тоирогт
тоиром
тоирон
тоиронд
тоирондоо
тоироод
тоирох
тоирсон
тоируу
тоируулан
тоируулга
тоирч
токен
токио
токиогиин
токиод
тол
толбо
толбот
толботои
толгод
толгодын
толгои
толгоиг
толгоигоо
толгоигоор
толгоигоороо
толгоигүи
толгоид
толгоидоо
толгоилж
толгоилогч
толгоилон
толгоилох
толгоилсон
толгоилуулсан
толгоин
толгоиноос
толгоины
толгоит
толгоитои
толигор
толииг
толиин
толилуулсан
толин
толинд
толины
толстои
толь
тольд
том
томас
томд
томдох
томе
томилдог
томилж
томилжээ
томилно
томилов
томилогджээ
томилогдов
томилогдож
томилогдон
томилогдсон
томилолтоор
томилон
томилох
томилсон
томми
томоо
томоогүи
томоор
томоотои
томоохон
томоохонд
томорч
томох
томпсон
томрох
томруун
томск
томсон
томтои
томуу
томхон
томшгүи
томъео
томъеог
томъеогоор
томъеолсон
томъеоны
томьео
томьеог
томьеогоор
томьеоны
тон
тонга
тонгорог
тони
тонн
тоног
тоноглогдсон
тоноглол
тонон
тонуул
тонхил
тоншуул
тоо
тоог
тоогоор
тоогоороо
тоодог
тоолбол
тоолдог
тоолж
тооллого
тооллогоор
тооллогын
тооллоор
тооллыг
тооллын
тоологдох
тоологдсон
тоолол
тоололд
тоолох
тоолуур
тоомсорлох
тоон
тоонд
тооно
тоонолжин
тоононы
тооноос
тоонууд
тоонуудыг
тоонуудын
тооны
тоор
тоорил
тоормосны
тоорои
тоорцог
тоос
тоосго
тоосгон
тоосгоны
тоосны
тоосон
тоосонцор
тоосыг
тоот
тоотои
тоотоигоор
тоох
тоохгүи
тооцвол
тооцдог
тооцно
тооцогддог
тооцогдож
тооцогдоно
тооцогдох
тооцож
тооцон
тооцоо
тооцоог
тооцоогоор
тооцоогүи
тооцоолдог
тооцоолж
тооцооллыг
тооцооллын
тооцоолол
тооцоолон
тооцоолох
тооцоолоход
тооцоолсон
тооцоолуур
тооцоонд
тооцооны
тооцох
тооцохгүи
тооцоход
тооцсон
тоочин
тоочих
топ
топологи
тор
торго
торгож
торгомсог
торгон
торгоны
торгоор
торгох
торгууд
торгуудын
торгуулиин
торгууль
тордох
тори
торино
торлог
торних
торо
торои
торон
торонто
торох
торрес
тортог
торх
торын
тос
тосгон
тосгонд
тосгоноос
тосгоны
тосгоныг
тосгуур
тослог
тослох
тосны
тосон
тосонд
тосонцэнгэл
тосоор
тосох
тостои
тосч
тосыг
тотго
тотгор
тоттенхэм
тоть
тохижуулах
тохилог
тохинох
тохинуулах
тохиодог
тохиож
тохиол
тохиолддог
тохиолдлоор
тохиолдлууд
тохиолдлыг
тохиолдлын
тохиолдож
тохиолдол
тохиолдолд
тохиолдоно
тохиолдох
тохиолдоход
тохиолдсон
тохиолдуулан
тохиосон
тохиох
тохиргоо
тохиргоог
тохиргооны
тохирдог
тохиролцжээ
тохиролцов
тохиролцож
тохиролцон
тохиролцоо
тохиролцоонд
тохиролцооны
тохиролцох
тохиролцсон
тохиромжгүи
тохиромжгүидэх
тохиромжтои
тохироо
тохирох
тохирохгүи
тохирсон
тохируулагдсан
тохируулагч
тохируулан
тохируулах
тохируулга
тохируулгын
тохируулдаг
тохируулж
тохируулна
тохируулсан
тохирч
тохож
тохои
тохоин
тохом
тохоон
тохох
тохта
тохтамыш
тохуу
тохуурхах
тохь
тошлои
трактор
тракторч
тракторын
тран
транзистор
транс
треид
трест
триггер
триггерииг
триггериин
трик
триллер
тринидад
трипл
тропикиин
троцкии
троцкиин
трусевич
трэил
ту
тува
тувагиин
тувалу
туг
тугаи
тугал
тугалаа
тугалга
тугалган
тугалганы
тугалын
тугииг
тугиин
туз
туил
туилаад
туилаас
туилд
туилдаа
туилдах
туилдсан
туилт
туилын
тул
тула
тулаад
тулаан
тулаанаа
тулаанд
тулаант
тулаанч
тулааны
тулааныг
тулалдаан
тулалдаанаар
тулалдаанаас
тулалдаанд
тулалдааны
тулалдааныг
тулалдав
тулалдаж
тулалдан
тулалдах
тулалджээ
тулалдсан
тулалдсаны
тулам
тулан
тулах
тулахад
тулга
тулгаа
тулгаж
тулгамдсан
тулган
тулгар
тулгаралт
тулгаран
тулгарах
тулгардаг
тулгарсан
тулгарч
тулгасан
тулгах
тулгуур
тулгуурладаг
тулгуурлаж
тулгуурлан
тулгуурласан
тулгуурт
тулгууртаи
тулгуурын
тулгын
тулд
тулж
тулсан
тултал
тулуи
тулуин
тун
тунадас
тунадасны
тунадастаи
тунаж
тунамал
тунасан
тунг
тунгааж
тунгаан
тунгаар
тунгаах
тунгалаг
тунгалгиин
тунгус
тунирхах
тунис
тунисын
туннель
тунх
тунхаг
тунхаглав
тунхаглаж
тунхаглажээ
тунхаглал
тунхаглалд
тунхаглан
тунхагласан
тунхагласны
тунхагт
туполев
тур
тураг
туранхаи
турах
турбин
турбины
турбо
туре
турж
турин
турины
турк
туркестан
туркестаны
туркиин
туркмен
туркменистан
туркменистаны
туруу
турхан
турш
туршдаа
туршид
туршиж
туршиин
туршилт
туршилтаар
туршилтанд
туршилтууд
туршилтыг
туршилтын
туршин
турших
туршлага
туршлагаа
туршлагаас
туршлагагүи
туршлагад
туршлагатаи
туршлагыг
туршлагын
туршуул
тус
тусагдахуун
тусад
тусаж
тусалдаг
тусалж
тусалжээ
тусална
тусалсан
тусам
тусах
тусгаар
тусгаарлагдсан
тусгаарлагч
тусгаарлаж
тусгаарлан
тусгаарласан
тусгаарлах
тусгагдсан
тусгадаг
тусгаж
тусгажээ
тусгаи
тусгаилан
тусгаилсан
тусгал
тусгалаа
тусган
тусгасан
тусгах
тусгүи
тусдаа
тусдаг
тусивахын
туслагч
тусладаг
туслаж
туслалцаа
туслалцаатаигаар
туслалцах
тусламж
тусламжаар
тусламжииг
тусламжиин
тусламжтаи
тусламжтаигаар
туслан
туслана
туслах
туслахаар
туслахыг
тусмаа
туссан
тустаи
тусч
тусыг
тусын
тутам
тутамд
тутарга
тутмын
туу
тууж
туужиин
тууз
туул
туулаи
туулаин
туулан
туулах
туулж
туулсан
туулын
тууль
туульс
туульсын
туульч
туур
туураи
туураин
тууралт
туурвидаг
туурвиж
туурвижээ
туурвил
туурвин
туурвисан
туурвих
туурга
туурганы
туургатан
туургатны
туурь
туух
туухаи
тууш
тууштаи
тух
тухаи
тухаигаа
тухаид
тухаилбал
тухаилсан
тухаин
тухн
тухтаи
тушаа
тушаав
тушааж
тушаажээ
тушаал
тушаалаа
тушаалаар
тушаалаас
тушаалаасаа
тушаалд
тушаалтаи
тушаалтан
тушаалтнууд
тушаалтны
тушаалтныг
тушаалыг
тушаалын
тушаасан
тушаах
туяа
туяаг
туяанд
туяаны
туяатаи
туялзуур
туяхан
тх
тш
тын
тьерри
тэ
тэв
тэвдэх
тэвдүү
тэвнэ
тэврэх
тэвх
тэвхгэр
тэвчиж
тэвчих
тэвчээр
тэвчээртэи
тэвш
тэвээрэг
тэг
тэгвэл
тэгж
тэгсэн
тэгтэи
тэгтэл
тэгш
тэгшгүи
тэгшитгэл
тэгшитгэлииг
тэгшитгэлиин
тэгшлэх
тэгшхэн
тэгшээ
тэгэх
тэгэхдээ
тэгэхлээр
тэгэхэд
тэгэхээр
тэгээд
тэд
тэдгээр
тэдгээрииг
тэдгээриин
тэдгээрт
тэдгээрээс
тэднии
тэднииг
тэдниих
тэднээс
тэдэн
тэдэнд
тэдэнтэи
тэжээвэл
тэжээвэр
тэжээдэг
тэжээж
тэжээл
тэжээлд
тэжээлииг
тэжээлиин
тэжээллэг
тэжээлт
тэжээлтэи
тэжээлтэн
тэжээлээ
тэжээлээр
тэжээмэл
тэжээсэн
тэжээх
тэи
тэилор
тэл
тэлж
тэлжээ
тэлмэн
тэлсэн
тэлсээр
тэлэлт
тэлэх
тэлээ
тэм
тэмбүү
тэмбүүгиин
тэмбүүнцэр
тэмдгииг
тэмдгиин
тэмдгээр
тэмдгүүд
тэмдэг
тэмдэгииг
тэмдэглэв
тэмдэглэгддэг
тэмдэглэгджээ
тэмдэглэгдсэн
тэмдэглэгдэн
тэмдэглэгдэх
тэмдэглэгээ
тэмдэглэгээг
тэмдэглэгээнии
тэмдэглэгээтэи
тэмдэглэдэг
тэмдэглэж
тэмдэглэжээ
тэмдэглэл
тэмдэглэлд
тэмдэглэлииг
тэмдэглэлиин
тэмдэглэлт
тэмдэглэлээс
тэмдэглэн
тэмдэглэнэ
тэмдэглэснээр
тэмдэглэсэн
тэмдэглэх
тэмдэглэхдээ
тэмдэглэхэд
тэмдэгт
тэмдэгтииг
тэмдэгтиин
тэмдэгтэи
тэмдэгтээр
тэмдэгтүүд
тэмдэгтүүдииг
тэмтрэх
тэмцдэг
тэмцлииг
тэмцлиин
тэмцлээ
тэмцсэн
тэмцсээр
тэмцэгч
тэмцэж
тэмцэл
тэмцэлд
тэмцэлдэж
тэмцэлдэх
тэмцэн
тэмцэх
тэмцэхэд
тэмцээн
тэмцээнд
тэмцээнии
тэмцээнииг
тэмцээнээ
тэмцээнээс
тэмцээнүүд
тэмцээнүүдииг
тэмцээнүүдэд
тэмээ
тэмээг
тэмээгээр
тэмээн
тэмээнд
тэмээнии
тэмээчин
тэмүгэ
тэмүжин
тэмүжинии
тэмүүжин
тэмүүлэл
тэмүүлэн
тэмүүлэх
тэн
тэнгис
тэнгисииг
тэнгисиин
тэнгист
тэнгистэи
тэнгисээр
тэнгисээс
тэнгэр
тэнгэрииг
тэнгэриин
тэнгэрлэг
тэнгэрт
тэнгэрээс
тэнд
тэндгүи
тэндхиин
тэндээ
тэндээс
тэндээсээ
тэниилгэх
тэниих
тэнсэн
тэнхим
тэнхимд
тэнхимииг
тэнхимиин
тэнхлэг
тэнхлэгиин
тэнхлэгт
тэнхлэгтэи
тэнхлүүн
тэнхмиин
тэнхэл
тэнхээ
тэнхээтэи
тэнцвэр
тэнцвэргүи
тэнцвэржүүлэх
тэнцвэрииг
тэнцвэриин
тэнцвэрт
тэнцвэртэи
тэнцсэн
тэнцэж
тэнцэл
тэнцэн
тэнцэнэ
тэнцэтгэл
тэнцэх
тэнцээ
тэнцүү
тэнцүүлж
тэнцүүлэн
тэнэг
тэнэгэр
тэнэмэл
тэнэх
тэнүүлч
тэнүүн
тэнүүчлэн
тэр
тэрбум
тэрбумтан
тэрбээр
тэргииг
тэргэл
тэргэнд
тэргээр
тэргүүлдэг
тэргүүлж
тэргүүлжээ
тэргүүлсэн
тэргүүлэгч
тэргүүлэгчдиин
тэргүүлэгчид
тэргүүлэгчээс
тэргүүлэн
тэргүүлэх
тэргүүн
тэргүүнд
тэргүүнии
тэргүүнииг
тэргүүнээ
тэргүүнээр
тэргүүтнииг
тэргүүтэи
тэргүүтэн
тэрииг
тэрлэг
тэрнии
тэрс
тэрслэх
тэртээ
тэртээгээс
тэртээх
тэрхиин
тэрхүү
тэрчлэн
тэрэг
тэрэгнии
тэрэгтэи
тэрээр
тэс
тэсвэр
тэсвэрлэж
тэсвэрлэх
тэсвэртэи
тэсиин
тэсрэг
тэсрэгч
тэсрэлт
тэсрэх
тэсч
тэтгэвриин
тэтгэвэр
тэтгэвэрт
тэтгэвэртээ
тэтгэгч
тэтгэж
тэтгэлгээр
тэтгэлэг
тэтгэлэгт
тэтгэмж
тэтгэн
тэтгэсэн
тэтгэх
тэтчер
тэх
тэхиин
тэшиг
тэшүүр
тэшүүриин
тэшүүрчин
тээ
тээврииг
тээвриин
тээвэр
тээвэрлэгч
тээвэрлэдэг
тээвэрлэж
тээвэрлэлт
тээвэрлэлтиин
тээвэрлэх
тээвэрт
тээвэрчин
тээг
тээглэх
тээгч
тээж
тээл
тээн
тээнэгэлзэх
тээр
тээрмиин
тээрэм
тээх
тээш
тюринг
тянь
тү
түвд
түвдиин
түвшин
түвшинбаяр
түвшинг
түвшингиин
түвшингээс
түвшинд
түвшинии
түвшинтэи
түвшнии
түвшнииг
түвшнээр
түвшнээс
түвэгтэи
түг
түгж
түгжих
түгжрэл
түгжээ
түгсэн
түгших
түгшүүр
түгшүүртэи
түгэн
түгэх
түгээгүүр
түгээгүүриин
түгээдэг
түгээж
түгээмэл
түгээн
түгээх
түдэв
түдэвиин
түдэвтэи
түи
түивээн
түимриин
түимэр
түимэрт
түитгэр
түлж
түлхэж
түлхэлтиин
түлхэн
түлхэх
түлхэц
түлхүү
түлхүүр
түлхүүрииг
түлхүүриин
түлхүүртэи
түлхүүрээр
түлхүүрүүд
түлхүүрүүдииг
түлш
түлшнии
түлэгдсэн
түлэх
түлээ
түм
түмнии
түмнииг
түмниихээ
түмнээ
түмнээс
түмнүүдиин
түмт
түмтиин
түмэд
түмэдиин
түмэн
түмэнд
түмэндэмбэрэл
түмэндээ
түмэнжаргал
түн
түнжин
түнтгэр
түнш
түншлэл
түншлэлиин
түнэр
түр
түргэн
түргэнии
түрж
түрии
түриитэи
түрк
түрлэг
түрс
түрхэж
түрхэх
түрэг
түрэгиин
түрэгүүд
түрэгүүдиин
түрэлт
түрэлтиин
түрэмгии
түрэмгииллииг
түрэмгииллиин
түрэмгиилсэн
түрэмгиилэгчдиин
түрэмгиилэгчид
түрэмгиилэл
түрэмгиилэн
түрэмгиилэх
түрэн
түрэх
түрээ
түрээс
түрээсиин
түрээслэх
түрүү
түрүүг
түрүүгээ
түрүүлж
түрүүлжээ
түрүүлснээр
түрүүлсэн
түрүүлэв
түрүүлэн
түрүүлэх
түрүүлэхэд
түрүүлээд
түрүүн
түрүүнд
түрүүнии
түрүүч
түрүүчиин
түц
түшиг
түшиглэн
түшиглэсэн
түшиж
түшин
түших
түшиц
түшмэд
түшмэдииг
түшмэдиин
түшмэл
түшмэлд
түшмэлиин
түшмэлээр
түшээ
түшээт
түү
түүвэр
түүгээр
түүгээрээ
түүдэг
түүж
түүн
түүнд
түүндээ
түүнии
түүнииг
түүниигээ
түүниихээ
түүнтэи
түүнчлэн
түүнээ
түүнээс
түүнээсээ
түүр
түүх
түүхии
түүхииг
түүхиин
түүхнээ
түүхт
түүхтэи
түүхч
түүхчдиин
түүхчид
түүхэн
түүхэнд
түүхэндээ
түүхээ
түүхээс
тө
төв
төвгөр
төвд
төвдиин
төвдөд
төвдөө
төвииг
төвиин
төвлөн
төвлөрдөг
төвлөрсөн
төвлөрч
төвлөрүүлж
төвлөрүүлсэн
төвлөрүүлэн
төвлөрүүлэх
төвлөрөл
төвлөрөн
төвлөрөх
төвлөсөн
төвтэи
төвтөмөр
төвшин
төвшинд
төвшнии
төвшнөөс
төвшрүүлэх
төвүүд
төвүүдиин
төвөг
төвөггүи
төвөгтэи
төвөд
төвөдииг
төвөдиин
төвөдөд
төвөргөөн
төвөөр
төвөөс
төг
төгрөг
төгрөгииг
төгрөгиин
төгрөгнии
төгрөгөөр
төгс
төгсгөл
төгсгөлгүи
төгсгөлд
төгсгөлииг
төгсгөлиин
төгсгөлтэи
төгсгөлөг
төгсгөсөн
төгсгөх
төгсдөг
төгсжээ
төгссөн
төгссөнии
төгстөмөр
төгсч
төгсчээ
төгсөв
төгсөгч
төгсөгчдиин
төгсөгчид
төгсөж
төгсөлт
төгсөлтиин
төгсөн
төгсөх
төгсөхөд
төгсөөд
төгөл
төгөлдөр
төд
төдии
төдиигүи
төдиилөн
төдөлгүи
төл
төлбөр
төлбөргүи
төлбөрииг
төлбөриин
төлбөрт
төлбөртэи
төлбөрөө
төлвииг
төлвиин
төлгө
төлдөг
төлж
төлжих
төлииг
төлиин
төллөх
төлсөн
төлөв
төлөвииг
төлөвиин
төлөвлөгдсөн
төлөвлөгч
төлөвлөгөө
төлөвлөгөөг
төлөвлөгөөгөө
төлөвлөгөөнд
төлөвлөгөөнии
төлөвлөгөөт
төлөвлөгөөтэи
төлөвлөж
төлөвлөжээ
төлөвлөлт
төлөвлөлтииг
төлөвлөлтиин
төлөвлөн
төлөвлөсөн
төлөвлөх
төлөвт
төлөвтэи
төлөвшиж
төлөвшүүлэх
төлөг
төлөгч
төлөн
төлөх
төлөхииг
төлөө
төлөөлдөг
төлөөлж
төлөөллиин
төлөөлсөн
төлөөлүүлэн
төлөөлөгч
төлөөлөгчдииг
төлөөлөгчдиин
төлөөлөгчид
төлөөлөгчииг
төлөөлөгчиин
төлөөлөгчөөр
төлөөлөл
төлөөлөн
төлөөлөх
төлөөнии
төлөөс
төлөөх
төмбөгөр
төмрииг
төмриин
төмрөөр
төмс
төмөр
төмөрбаатар
төмөриин
төмөрлөг
төмөрлөгиин
төмөрлөгөөр
төмөрт
төмөртэи
төмөрхуяг
төр
төрболд
төрвөл
төрд
төрдөг
төрж
төржээ
төрииг
төриин
төрлииг
төрлиин
төрлүүд
төрлүүдииг
төрлүүдиин
төрлүүдэд
төрлөө
төрлөөр
төрлөөс
төрмөлиин
төрнө
төрснии
төрсөн
төрт
төртэи
төрх
төрхииг
төрхиин
төрхтэи
төрхтөн
төрхөө
төрхөөр
төрхөөрөө
төрч
төрчдиин
төрчид
төрүүлдэг
төрүүлж
төрүүлжээ
төрүүлнэ
төрүүлсэн
төрүүлэх
төрөгсөд
төрөл
төрөлд
төрөлдөө
төрөлжсөн
төрөлт
төрөлтиин
төрөлтэи
төрөлх
төрөлхиин
төрөлхтнии
төрөлхтөн
төрөлхтөнд
төрөлхтөнии
төрөн
төрөх
төрөхдөө
төрөхиин
төрөхөд
төрөхөөс
төрөө
төрөөгүи
төрөөд
төрөөс
төсвииг
төсвиин
төсвөөс
төслииг
төслиин
төслүүд
төслүүдииг
төслөөр
төст
төстэи
төсөв
төсөвт
төсөл
төсөлд
төсөр
төсөөлж
төсөөллиин
төсөөлөл
төсөөлөн
төсөөлөх
төсөөтэи
төхөм
төхөөрсөн
төхөөрөмж
төхөөрөмжид
төхөөрөмжииг
төхөөрөмжиин
төхөөрөмжинд
төхөөрөмжтэи
төхөөрөмжүүд
төхөөрөмжүүдииг
төхөөрөмжүүдиин
төхөөрөмжүүдтэи
төхөөрөмжүүдэд
төхөөрөмжөө
төхөөрөмжөөр
төхөөрөмжөөс
төхөөрөх
төчнөөн
төө
төөрөг
төөрөх
у
уадбч
уаз
уаит
уашт
уб
убаши
убдс
убис
убтз
уван
увдис
увс
увсын
уг
угааж
угаал
угаалгын
угаас
угаасаа
угаасан
угаах
угалз
угалзан
уганда
угж
угз
угиин
углаж
углах
углуурга
угсаа
угсааг
угсаагаа
угсааны
угсааныхан
угсаат
угсаатан
угсаатнууд
угсаатны
угсармал
угсарсан
угсарч
угсраа
угсралт
угсралтын
угсрах
угт
угтаа
угтаал
угтаж
угтан
угтах
угтвар
уд
удаа
удаагаа
удаагиин
удаагүи
удаад
удаан
удаанаар
удаатаи
удаах
удаашрах
удаашруулах
удаж
удаи
удалгүи
удам
удамтаи
удамшил
удамших
удамшлын
удах
удахгүи
удбэт
удвал
удган
уди
удинезе
удирдаач
удирдаачаар
удирдагч
удирдагчаар
удирдагчдыг
удирдагчдын
удирдагчид
удирдагчиин
удирдаж
удирдамж
удирдан
удирдана
удирдах
удирдахад
удирддаг
удирджээ
удирдлага
удирдлагаар
удирдлагаас
удирдлагад
удирдлаган
удирдлаганд
удирдлагат
удирдлагатаи
удирдлагууд
удирдлагыг
удирдлагын
удирдсан
удирдуулан
удирдуулсан
удиртгал
удмын
удмынхан
удсан
удтал
удын
удэт
уефа
ужиг
узбек
узбекиин
узбекистан
узбекистаны
уи
уигагүи
уиган
уигар
уигаржин
уигарын
уигур
уигурууд
уигурын
уидах
уизардс
уилан
уиланхаи
уилах
уилдаг
уилж
уилл
уиллиам
уиллис
уилсон
уильям
уильямс
уинстон
уитгар
уитни
уих
укр
украин
украинаар
украинд
украинчууд
украины
ул
улаа
улаавтар
улаагчин
улаалзгана
улаан
улаанаатар
улаанбаатар
улаанбаатараас
улаанбаатарт
улаанбаатарын
улаанбадрах
улаангом
улаанхад
улаанхус
улаанцав
улааны
улаи
улаиж
улаиран
улаих
улалж
улам
уламбаяр
уламжилж
уламжилсан
уламжлагдаж
уламжлагдан
уламжлагдсан
уламжлал
уламжлалаа
уламжлалаар
уламжлалд
уламжлалт
уламжлалтаи
уламжлалыг
уламжлалын
уламжлан
уламжлах
улан
уланд
улбаалан
улбаатаи
улбар
улиас
улиастаи
улиастаин
улиг
улирал
улиралд
улиралдаа
улиралыг
улиралын
улиран
улирах
улирлаа
улирлаар
улирлаас
улирлыг
улирлын
улирсан
улмаар
улмаас
улны
улс
улсаа
улсаар
улсаас
улсад
улсдаа
улстаи
улстөриин
улстөрч
улсууд
улсуудаар
улсуудаас
улсуудад
улсуудтаи
улсуудыг
улсуудын
улсыг
улсын
улсынх
улсынхаа
ултаи
улцгар
улыг
ум
умаин
умар
умард
умардад
умардын
умарт
ун
уна
унаа
унаагүи
унаад
унааны
унаатаи
унав
унавал
унага
унагаах
унагаж
унаган
унагасан
унагах
унадаг
унаж
унажээ
уналга
уналт
уналтад
уналтанд
уналтын
унан
унана
унанги
унасан
унасны
унах
унахад
унг
унгар
унгарт
унгарын
унгас
унгерн
унгернии
унд
ундаа
ундааг
ундааны
ундаасах
ундарга
ундны
ундран
ундрах
ундуи
ундыг
унжгар
унжиж
унжин
унжих
унжлага
унжсан
унжуу
унжуулан
унжуулах
унжуулсан
униар
универсиад
унины
унтаа
унтаж
унтарсан
унтах
унтрааж
унтраах
унтрах
унхиагүи
унш
уншаад
уншдаг
уншигч
уншигчдад
уншигчдын
уншигчид
уншигчиин
уншиж
уншин
уншина
унших
уншихад
уншлага
уншлагын
уншсан
уншуулж
унь
уолл
уоллес
уолт
уолтер
уондерерс
уорриорз
ур
ураг
урагдаж
урагдах
урагдсан
урагт
урагш
урагшаа
урагшгүи
урагшилж
урагшлах
урадын
урал
уралдаан
уралдаанаас
уралдаанд
уралдаануудад
уралдаанч
уралдааны
уралдааныг
уралдаж
уралдан
уралдах
уралддаг
уралдсан
уралдуулан
уралдуулах
уралын
урам
урамшуулал
урамшуулах
уран
уранхаи
ураны
урах
урбан
урвагч
урваж
урвал
урвалаар
урвалд
урвалыг
урвалын
урван
урвасан
урвах
урвуу
урвуулан
урга
ургаа
ургадаг
ургаж
ургалт
ургалтыг
ургамал
ургамалд
ургамалтаи
ургамалын
ургамлаар
ургамлаас
ургамлууд
ургамлуудыг
ургамлуудын
ургамлыг
ургамлын
урган
ургана
ургасан
ургах
ургахгүи
ургац
ургацыг
ургацын
ургиин
ургуулан
ургуулах
ургуулсан
урд
урдаа
урдаас
урдах
урдуур
урдуураа
урж
уриа
уриалан
уриалж
уриалсан
урианхаи
урианхаин
урианхаичууд
уригдаж
уригдан
урилга
урилгаар
урин
урих
урлаг
урлагаар
урлагииг
урлагиин
урлагт
урлагын
урладаг
урлаж
урлал
урлалын
урлан
урланд
урласан
урлах
урсаад
урсаж
урсан
урсана
урсах
урсац
урсацын
урсгал
урсгалаар
урсгалаас
урсгалгүи
урсгалд
урсгалт
урсгалтаи
урсгалууд
урсгалыг
урсгалын
урсгах
урсдаг
урссан
урсч
урт
уртаар
уртаараа
уртаас
уртааш
уртаашаа
уртавтар
уртад
уртасгах
уртнасан
уртрагиин
урттаи
уртхан
уртыг
уртын
уругваи
уругваин
уруу
уруугаа
уруудаж
уруудан
уруудах
уруул
уруулаа
уруултаи
уруулын
урхи
урц
урчууд
урчуудын
уршгаар
уршиг
урын
урь
урьд
урьдаар
урьдаас
урьдах
урьдны
урьдчилан
урьдчилж
урьдчилсан
урьдын
урьж
урьсан
урьтаж
урьхан
ус
усаа
усаар
усалгаа
усан
усанд
усандаа
усархаг
усгүи
усжуулалтын
уск
услалтын
услах
уснаас
усны
уст
устаж
устаи
устах
устгав
устгагдсан
устгадаг
устгаж
устгажээ
устган
устгана
устгасан
устгах
устгахаар
устгахад
устгахыг
устсан
усть
устөрөгч
устөрөгчиин
усч
усыг
ут
утаа
утааг
утаанд
утаат
утас
утасгүи
утаслаг
утаснаас
утаснууд
утасны
утастаи
утах
утга
утгаа
утгаар
утгаараа
утгаас
утгагүи
утгад
утгат
утгатаи
утгууд
утгуудыг
утгуудын
утгыг
утгын
утсаа
утсаар
утсан
утсанд
утсыг
уу
уувал
уугаад
ууган
уугуул
ууд
уудаг
уудам
уудлах
уудыг
уудын
ууж
уужим
уужрах
уужуу
уузаи
уул
уулаа
уулаар
уулаас
уулан
ууланд
уулархаг
уулга
уулгалан
уулгах
уулзаад
уулзаж
уулзалт
уулзалтаар
уулзалтад
уулзалтыг
уулзалтын
уулзан
уулзар
уулзах
уулзахаар
уулзвар
уулзварт
уулздаг
уулзжээ
уулзсан
уулнаа
уулнаас
уулс
уулсаар
уулсаас
уулстаи
уулсыг
уулсын
уулчин
уулыг
уулын
ууль
ууна
уур
уураар
уураг
уурга
уургаар
уурганы
уургииг
уургиин
уургууд
уургын
уурлаж
уурлан
уурласан
уурлах
ууртаи
уурхаи
уурхаиг
уурхаигаас
уурхаид
уурхаин
уурхаичин
уурших
уурыг
уурын
уусан
уусах
уусгах
уусдаг
уусдаггүи
уусмал
уусмалд
ууссан
уут
уутанд
уутны
уух
уухад
уухаи
уухыг
ууц
ууцны
уучлал
уушги
уушгины
уушиг
уушигны
ууштаи
ух
ухаа
ухаалаг
ухаан
ухаанаа
ухаанаар
ухаанаас
ухаангүи
ухаанд
ухаандаа
ухаант
ухаантаи
ухаантан
ухаантны
ухаанч
ухааны
ухааныг
ухааран
ухаарах
ухаарч
ухагдахуун
ухагдахууныг
ухаж
ухамсар
ухамсарлан
ухамсарлах
ухамсарт
ухамсрын
ухан
ухарсан
ухархаи
ухарч
ухарчээ
ухах
ухна
ухран
ухрах
ухсан
ухуань
ухуулан
ухуулах
ухуулга
уцс
учиг
учир
учираас
учиргүи
учирдаг
учирна
учирсан
учиртаи
учирч
учраа
учраас
учрал
учралын
учрах
учруулах
учруулдаг
учруулж
учруулсан
учрыг
уэид
уэин
уэльс
уэльсиин
уэст
уяа
уяаг
уяатаи
уяач
уяж
уялдаа
уялдаатаи
уялдан
уялдуулан
уялдуулах
уян
уянга
уянгалаг
уянгалан
уянгын
уярах
уясан
уях
уяхан
ф
фа
фабио
фабрик
фазлуллах
фазын
фаил
фаилаа
фаилаас
фаилд
фаилууд
фаилуудыг
фаилуудын
фаилыг
фаилын
факс
факто
факультет
факультетиин
факультетэд
фан
фараон
фасо
фауст
фашист
фашистын
федерации
федор
федорович
феликс
фелипе
фельдмаршал
фен
фенилаланин
феодал
феодалын
ферганы
фергюсон
фердинанд
ферм
фермагиин
фермент
ферментииг
ферментиин
ферментүүд
фермер
фермиин
фернандо
феррари
ферраригиин
фестивалд
фестиваль
фестивальд
фиат
фиба
фиде
фидель
фижи
физик
физикиин
физикт
физикч
физиологи
физиологиин
фил
филадельфи
филадельфия
филармониин
филип
филипп
филиппин
филиппинд
филиппинии
филлипс
философи
философид
философииг
философиин
философич
философичид
фин
финалд
финалын
финиин
финикс
финланд
финландын
финлянд
финээр
фиорентина
фирм
фирмиин
фифа
фишер
фк
флаш
флоренц
флоренциин
флорида
флот
флотыг
флотын
фогт
фокс
фокус
фокусын
фолксваген
фон
фонд
фондод
фондын
форбс
форд
форест
формат
форматаар
форматыг
формула
форт
форум
фостер
фосфат
фосфатын
фосфор
фосфорын
фото
фотосинтезиин
фр
фраибург
фракц
франк
франкиин
франклин
франко
франкфурт
франкфуртын
франс
франсиско
франсуа
франц
францаар
францаас
францад
францис
франциско
францчууд
францыг
францын
франческо
фред
фредерик
фреим
френк
френцис
фридрих
фриидрих
фриц
фроид
фронт
фронтод
фронтыг
фронтын
фрэим
фрэнк
фрэнсис
фу
фужянь
фулхэм
функц
функцииг
функциин
функциональ
функцууд
функцуудыг
функцыг
функцын
функцээр
фунт
фунтээр
фут
фьючерс
фьючерсиин
фэисбүүк
фэн
фү
фүжи
фүкүока
фөрт
х
ха
хаа
хааг
хаагдаж
хаагдах
хаагдсан
хаагуур
хаагч
хаагчдад
хаагчдыг
хаагчдын
хаагчид
хаагчииг
хаагчиин
хаад
хаадаг
хаадыг
хаадын
хааж
хаажээ
хааис
хаалга
хаалгаа
хаалгаар
хаалган
хаалганд
хаалгандаа
хаалганы
хаалгатаи
хаалгач
хаалгачаар
хаалгыг
хаалт
хаалттаи
хаалтыг
хаалтын
хаан
хаана
хаанаа
хаанаар
хаанаас
хаанд
хаандаа
хаант
хаантаи
хаанчилсан
хаанчлал
хаанчлалын
хааны
хааныг
хаас
хаасан
хаах
хааш
хаашаа
хааяа
хабаровск
хабсбургиин
хабул
хав
хаваи
хаваин
хаван
хавар
хавартаа
хавгүи
хавдар
хавдах
хавдраар
хавдрын
хавиар
хавиин
хавиран
хавирах
хавирга
хавирган
хавирганы
хавраас
хаврын
хавсарга
хавсарган
хавсаргасан
хавсарсан
хавсарч
хавсралт
хавсран
хавсрах
хавт
хавтага
хавтан
хавтанг
хавтангиин
хавтангууд
хавтас
хавтасны
хавтаст
хавтгаи
хавтгаид
хавтгаин
хавх
хавхаг
хавханд
хавхны
хавцал
хавцалд
хавцлын
хавч
хавчаар
хавчиг
хавчиж
хавчин
хавчих
хавчлага
хавчуулах
хавь
хавьгүи
хавьд
хавьер
хавьцаа
хаг
хага
хагалан
хагалах
хагалбар
хагалгаа
хагалж
хагалсан
хагарал
хагарах
хагарсан
хагартал
хагархаи
хагарч
хагас
хагасаас
хагаст
хагасыг
хагасын
хагацал
хагацах
хагд
хад
хадаа
хадаан
хадаас
хадаасны
хадаг
хадаж
хадам
хадан
хаданд
хадат
хадах
хадбаатар
хадгалаад
хадгалагдаж
хадгалагдан
хадгалагдана
хадгалагдах
хадгалагддаг
хадгалагдсан
хадгалагч
хадгалалт
хадгалалтын
хадгаламж
хадгаламжиин
хадгалан
хадгалах
хадгалахад
хадгалахыг
хадгалахын
хадгалдаг
хадгалж
хадгална
хадгалсаар
хадгалсан
хадлан
хадлангиин
хадмал
хаднаас
хадны
хадран
хадсан
хадсон
хадтаи
хадуур
хаж
хажи
хажиг
хажуу
хажуугаар
хажуугаас
хажуугиин
хажууд
хазаар
хазаарын
хазаж
хазаисан
хазаих
хазара
хазах
хазгаи
хазгар
хаи
хаигуул
хаигуулын
хаидав
хаидаг
хаиду
хаидугиин
хаиж
хаилаар
хаилаас
хаилан
хаилах
хаилдаг
хаилж
хаилмаг
хаилмал
хаилсан
хаилт
хаилтыг
хаилтын
хаилуулан
хаилуулах
хаилуулж
хаилуур
хаилш
хаин
хаина
хаинаг
хаинга
хаинрих
хаир
хаиран
хаирах
хаирга
хаирла
хаирладаг
хаирлаж
хаирлан
хаирласан
хаирлах
хаирс
хаирсан
хаирстаи
хаирт
хаиртаи
хаирхан
хаирханы
хаирцаг
хаирцагт
хаирцагтаи
хаирч
хаирыг
хаирын
хаис
хаисан
хаити
хаифа
хаифагиин
хаих
хаихрамжгүи
хаихран
хаич
хаичилж
хаичлах
хаичны
хакас
хакер
хакерууд
хал
халаа
халааг
халааж
халаалтын
халаас
халаасны
халаах
халаахад
халагдаж
халагдах
халагдсан
халамж
халамжиин
халамжлах
халах
халбага
халгаи
халдав
халдагч
халдагчид
халдаж
халдан
халдах
халдахыг
халдашгүи
халдвар
халдварладаг
халдварласан
халдварлах
халдварт
халдвартаи
халдварыг
халдварын
халдлага
халдлагаас
халдлагад
халдлагууд
халдлагыг
халдлагын
халдсан
халдун
халж
халз
халзан
халил
халим
халимаг
халимагиин
халимагт
халимагууд
халимагуудын
халин
халиу
халиун
халиуны
халиф
халифт
халих
халл
халле
халсан
халт
халтаи
халтар
халтирах
халуу
халуун
халуунд
халууныг
халуурах
халх
халхавч
халхад
халхалттаи
халхгар
халхгол
халхлан
халхлах
халхууд
халхыг
халхын
халцгаи
халшрах
хальж
хальс
хальсаар
хальсан
хальсанд
хальсны
хальстаи
хальсыг
хам
хамаа
хамаагүи
хамаараад
хамаарагдана
хамаарагдах
хамаарагддаг
хамаарал
хамааралгүи
хамааралгүигээр
хамааралтаи
хамааралтаигаар
хамааран
хамаарах
хамаарахгүи
хамаардаг
хамаарлыг
хамаарлын
хамаарна
хамаарсан
хамааруулан
хамааруулдаг
хамааруулж
хамаарч
хамаатаи
хамаатан
хамаатуулах
хамаг
хамар
хамардаг
хамарна
хамарсан
хамарт
хамартаи
хамарч
хамах
хамба
хамбург
хамбын
хамгаалагдсан
хамгаалагч
хамгаалагчаар
хамгаалагчид
хамгаалагчиин
хамгаалал
хамгаалалт
хамгаалалтад
хамгаалалтанд
хамгаалалтгүи
хамгаалалттаи
хамгаалалтыг
хамгаалалтын
хамгаалан
хамгаалах
хамгаалахаар
хамгаалахад
хамгаалахыг
хамгаалахын
хамгаалдаг
хамгаалж
хамгаалжээ
хамгааллын
хамгаална
хамгаалсан
хамгаас
хамгиин
хамж
хамжлага
хамжлагат
хамилтон
хамниган
хамраа
хамраас
хамрагдаж
хамрагдан
хамрагдана
хамрагдах
хамрагддаг
хамрагдсан
хамран
хамрах
хамруулан
хамруулах
хамруулдаг
хамруулж
хамруулсан
хамрыг
хамрын
хамсаа
хамсаатан
хамт
хамтаар
хамтад
хамтарсан
хамтарч
хамтатган
хамтдаа
хамтлаг
хамтлагаа
хамтлагаас
хамтлагииг
хамтлагиин
хамтлагиинхаа
хамтлагиинхан
хамтлагт
хамтлагтаа
хамтлагтаи
хамтлагууд
хамтлагуудын
хамтлагын
хамтрагч
хамтрагчид
хамтрал
хамтралын
хамтран
хамтрах
хамтын
хамуу
хан
хана
ханаар
ханадаггүи
ханаж
ханамж
ханамжтаи
ханан
хананд
хананы
ханасан
ханатаи
ханах
хангагдаж
хангагдах
хангагдсан
хангагч
хангадаг
хангаж
хангаи
хангаин
хангал
хангалт
хангалтгүи
хангалттаи
хангалтын
хангалуун
хангалын
хангамж
хангамжаар
хангамжид
хангамжииг
хангамжиин
хангамжинд
хангамжтаи
хангамжууд
ханган
хангана
хангасан
хангах
хангахад
хангахын
хангинах
хангууд
ханд
хандаж
хандалт
хандалтат
хандалттаи
хандалтыг
хандалтын
хандан
хандана
хандах
хандахад
хандахдаа
хандахыг
хандгаи
ханддаг
ханддорж
хандив
хандивын
хандлага
хандлагатаи
хандлагыг
хандлагын
хандсан
хандуулан
хандуулах
хандуулдаг
хандуулж
хандуулсан
ханз
ханзаар
ханзрах
ханиа
ханиад
ханиалга
ханиах
ханилан
ханилах
ханилж
ханилсан
ханлиг
ханлигииг
ханлигиин
ханна
ханновер
ханои
ханс
хант
хантааз
хантаи
хантаишир
хануи
ханх
ханхаи
ханхлах
ханхонгор
ханхүү
ханцуи
ханцуитаи
ханш
ханшаар
ханшииг
ханшиин
ханы
ханыг
ханын
хань
хар
хара
хараа
хараагүи
хараад
хараал
хараалч
хараалын
хараанд
харааны
хараат
хараатаи
хараах
хараахан
хараацаи
харав
харавтар
харагдаж
харагдана
харагдах
харагдахгүи
харагдахуиц
харагдац
харагддаг
харагдсан
харагч
харагчин
хараигч
хараиж
хараилт
хараилтын
хараин
хараина
хараих
харалдаа
харам
харамгүи
харамж
харамлах
харамсаж
харамсалтаи
харамсалтаигаар
харамсан
харамсах
харамч
харан
харанга
харандаа
харанхуи
харанхуид
харанхуин
харах
харахаар
харахад
харахгүи
харахыг
харбин
харваа
харвааны
харваач
харвадаг
харваж
харвал
харвалт
харван
харвардын
харвасан
харвах
харвахад
харви
харвуулын
харгаи
харгалзагч
харгалзаж
харгалзан
харгалзах
харгалзсан
харгана
харгис
харгислал
харгуи
хард
хардаг
хардаж
хардах
харж
хариг
хариин
харилцаа
харилцааг
харилцаагаа
харилцаанд
харилцааны
харилцаатаи
харилцагч
харилцагчиин
харилцаж
харилцан
харилцах
харилцдаг
харимхаи
харин
хариу
хариуг
хариугаа
хариугүи
хариуд
хариул
хариулах
хариулахын
хариулдаг
хариулж
хариулжээ
хариулсан
хариулт
хариултыг
хариутаи
хариуцагч
хариуцаж
хариуцан
хариуцах
хариуцдаг
хариуцлага
хариуцлагатаи
хариуцлагыг
хариуцлагын
хариуцна
хариуцсан
харих
харлаж
харлах
харлуг
хармаг
хармөрөн
харна
харри
харрис
харрисон
харсан
харт
хартаи
харуи
харуу
харуул
харуулав
харуулан
харуулах
харуулахын
харуулд
харуулдаг
харуулдах
харуулж
харуулжээ
харууллаа
харуулна
харуулсан
харуулыг
харуулын
хархираа
хархорин
хархорум
хархорумд
харц
харцага
харцагынхан
харцтаи
харчин
харш
харшил
харшлах
харъяа
харъяалагдаж
харъяалагдах
харъяалагддаг
харъяалалтаи
харъяанд
харъяаны
харъяат
харын
харь
харьд
харьж
харьков
харьковын
харьцаа
харьцааг
харьцаагаар
харьцаанаас
харьцаанд
харьцааны
харьцаатаи
харьцаатаигаар
харьцаж
харьцангуи
харьцангуигаар
харьцангуин
харьцах
харьцдаг
харьцуулалт
харьцуулан
харьцуулах
харьцуулахад
харьцуулбал
харьцуулж
харьцуулсан
харьяа
харьяалагдаж
харьяалагдана
харьяалагдах
харьяалагддаг
харьяалахын
харьяанд
харьяаны
харьяат
хас
хасаг
хасагдаж
хасагдах
хасагджээ
хасагдсан
хасагиин
хасагууд
хасаж
хасан
хасар
хасарын
хасах
хасбаатар
хасгиин
хассан
хасч
хат
хатааж
хатаасан
хатаах
хатагин
хатагтаи
хатад
хатаж
хатан
хатанбаатар
хатанд
хатах
хатгаа
хатгадаг
хатгаж
хатгал
хатгалга
хатгалын
хатгамал
хатган
хатгасан
хатгах
хатгуур
хатирах
хатна
хатнаа
хатнаас
хатны
хатныг
хатсан
хатуу
хатуужил
хатуужилтаи
хатуулаг
хатуурах
хатуурч
хау
хахир
хахууль
хацар
хацартаи
хацрын
хачиг
хачин
хачир
хачирхалтаи
хачиун
хаш
хашаа
хашаанд
хашааны
хашаат
хашбат
хашгирах
хашдаг
хашжээ
хашигдсан
хашиж
хашилт
хашин
хашир
хаших
хашлага
хашсан
хаяа
хаяанд
хаяг
хаягаа
хаягаар
хаягаас
хаягдал
хаягдсан
хаягииг
хаягиин
хаяглалт
хаяглалтын
хаяглах
хаягны
хаягт
хаягтаи
хаягууд
хаягуудыг
хаягуудын
хаягыг
хаягын
хаядаг
хаяж
хаяжээ
хаялт
хаян
хаянхярваа
хаясан
хаях
хбнгу
хд
хдхв
хе
хелен
хельсинки
хен
хенри
хенрик
хень
херберт
херманн
херта
херцеговина
херцог
херцогт
хессен
хет
хзэ
хи
хиа
хиаг
хиагт
хиагтыг
хиагтын
хиад
хиам
хиар
хив
хивс
хижиг
хии
хиив
хиивэл
хииг
хиигддэг
хиигджээ
хиигдсэн
хиигдэж
хиигдэнэ
хиигдэх
хиигдээгүи
хиигч
хиигээгүи
хиигээд
хиигээр
хиид
хиидииг
хиидиин
хиидэг
хиидэггүи
хиидэд
хиидээс
хиидүүд
хиидүүдиин
хиие
хииж
хиижээ
хиил
хиилгэж
хиилгэсэн
хиилгэх
хиилгүи
хиилиин
хиилч
хиилээ
хииморь
хииморьтои
хиимэл
хиин
хиинэ
хиинээс
хиисвэр
хиисгэх
хииснии
хииснииг
хииснээ
хииснээр
хииснээс
хиисч
хиисэн
хиисэх
хиисээр
хиит
хиитэи
хиитэл
хиих
хиихгүи
хиихдээ
хиихииг
хиихиин
хиихэд
хиихээ
хиихээр
хиихээс
хииц
хиицииг
хиициин
хиицтэи
хил
хилд
хилииг
хилиин
хилл
хиллэдэг
хиллэж
хиллэн
хиллэнэ
хиллэх
хилс
хилсээр
хилтэи
хилчид
хилчин
хилэгнэн
хилэгнэх
хилэн
хилэнц
хилэнцэт
хилээ
хилээр
хилээс
хималаин
хими
химиин
химич
хинди
хинду
хиндү
хип
хир
хиргис
хиргисүүр
хиргүи
хирошима
хирс
хиртэи
хиртэлт
хиртэх
хирээр
хит
хитлер
хитлериин
хичнээн
хичээ
хичээдэг
хичээж
хичээл
хичээлд
хичээлдээ
хичээлииг
хичээлиин
хичээллэдэг
хичээллэж
хичээллэсэн
хичээллэх
хичээлээ
хичээлүүд
хичээн
хичээнгүи
хичээнгүилэн
хичээсэн
хичээх
хишиг
хишигтэн
хк
хкн
хлаар
хлоор
хлор
хлорид
хлээр
хлөөр
хмх
хн
хо
хобби
хов
ховард
ховд
ховдог
ховдод
ховдыг
ховдын
ховил
ховор
ховордож
ховордсон
ховорхон
ховх
ховхрох
ховч
хог
хогиин
хогшил
ходоод
ходоодны
ходоодонд
хоер
хоердахь
хоердмол
хоердогч
хоердох
хоердугаар
хоердугаарт
хоеронтоо
хоероор
хоероос
хоерт
хоертои
хоертын
хоерхон
хоерыг
хоерын
хоеул
хоеулаа
хоеуланг
хоеуланд
хожа
хожгор
хожигдож
хожигдол
хожигдсон
хожид
хожиж
хожил
хожим
хожин
хожих
хожиход
хожлын
хожмоо
хожмын
хожсон
хожсоноор
хожуу
хожуул
хои
хоиг
хоигииг
хоигиин
хоигт
хоигуур
хоигуураа
хоид
хоидох
хоидын
хоилог
хоимор
хоиморт
хоино
хоиноо
хоиноос
хоиноосоо
хоирго
хоиргоших
хоит
хоич
хоичис
хоиш
хоишид
хоиших
хоишлуулах
хоишоо
хоишхи
хоккаидо
хоккеи
хоккеин
хокс
хол
холб
холбогддог
холбогдлыг
холбогдож
холбогдол
холбогдолгүи
холбогдолтои
холбогдон
холбогдоно
холбогдох
холбогдоход
холбогдсон
холбогдуулан
холбогдуулж
холбогч
холбодог
холбож
холболт
холболтоор
холболттои
холболтууд
холболтыг
холболтын
холбон
холбоно
холбоо
холбоог
холбоогоо
холбоогоор
холбоогүи
холбоод
холбоодын
холбоонд
холбооноос
холбооны
холбоос
холбоосоор
холбоост
холбоосыг
холбоосын
холбоот
холбоотнууд
холбоотнуудын
холбоотны
холбоотои
холбоотоигоор
холбоотон
холбоотын
холбоочин
холбосон
холбох
холбоход
холгүи
холд
холдинг
холдож
холдон
холдох
холдуулах
холилдож
холилдон
холилдох
холилдсон
холимог
холин
холих
холл
холланд
холливудад
холливудын
холоос
холтос
холтостои
холуур
холч
холыг
холын
хольж
хольсон
хольц
хольцгүи
хольцтои
хом
хомоол
хоморголон
хомс
хомсдол
хомсдох
хомхои
хон
хонг
хонгил
хонгилд
хонгио
хонгирад
хонгирадын
хонгор
хонгорцог
хонгорын
хонда
хондлои
хондурас
хондурасын
хонжин
хонжоо
хонзон
хонииг
хонин
хонины
хонио
хонконг
хонконгиин
хоновол
хоног
хоногииг
хоногиин
хоноглох
хоногоор
хоногт
хоногтои
хоногтоо
хонож
хоноод
хонох
хонх
хонхны
хонхор
хонхорт
хонхорхои
хоншоор
хоншоортои
хонь
хоньчин
хоо
хоол
хоолгүи
хооллодог
хооллож
хооллоно
хооллох
хоолноос
хоолны
хоолои
хоолоиг
хоолоигоо
хоолоигоор
хоолоид
хоолоин
хоолоины
хоолоитои
хоолонд
хоолоо
хоолоор
хоолтои
хоолыг
хоормог
хоорон
хооронд
хоорондоо
хоорондох
хоорондуур
хоорондын
хоосон
хоосрох
хоп
хопкинс
хор
хорват
хорватын
хорвоо
хорвоог
хорвоогиин
хорвоод
хорго
хоргодох
хоргои
хоргол
хорголжин
хоргоох
хоргүи
хордлого
хордлогын
хордож
хордуулах
хорезм
хорезмын
хориг
хоригдлууд
хоригдлуудыг
хоригдлуудын
хоригдож
хоригдол
хоригдох
хоригдсон
хоригииг
хориглов
хориглодог
хориглож
хоригложээ
хориглолт
хориглолтын
хориглон
хориглоно
хориглосон
хориглох
хорин
хорио
хориод
хорионд
хориотои
хорих
хорлогдож
хорлогдон
хорлогдсон
хорлогч
хорлол
хорлон
хорлоо
хорлоогиин
хорлосон
хорлох
хормои
хормоигоо
хормоид
хормоин
хормоитои
хорнетс
хорогдол
хорогдох
хорогдуулах
хорол
хором
хоромхон
хорон
хороо
хороов
хороог
хороодын
хороож
хороожээ
хорооллын
хороолол
хороололд
хороон
хороонд
хорооноос
хорооны
хороосон
хороотои
хороох
хорсол
хорсон
хорсох
хорт
хортои
хортон
хорхе
хорхог
хорхои
хорхоиг
хорхоин
хорхоисох
хорчин
хорчины
хорш
хоршоо
хоршооллын
хоршоолол
хоршооны
хорыг
хорын
хорь
хорьдугаар
хорьж
хорьсон
хос
хосбаяр
хосгүи
хосе
хослол
хослолыг
хослон
хослуулан
хослуулж
хослуулсан
хосолж
хосолмол
хосолсон
хосоор
хост
хостын
хосууд
хосыг
хосын
хот
хотгоид
хотгоидын
хотгор
хотгорт
хотгорын
хотдоо
хотноо
хотод
хотол
хотон
хотонд
хотонт
хотоо
хотоор
хотоос
хотос
хоточ
хотспур
хоттои
хотууд
хотуудаар
хотуудаас
хотуудад
хотуудтаи
хотуудыг
хотуудын
хотхон
хотыг
хотын
хотынхоо
хоу
хоффенхаим
хоффман
хохирлыг
хохирогч
хохирогчдын
хохирогчид
хохирогчиин
хохирол
хохирох
хохирсон
хоцорно
хоцорсон
хоцорч
хоцорчээ
хоцрогдол
хоцрогдсон
хоцрох
хоч
хочит
хочтои
хошин
хошного
хошои
хошоон
хошоонгор
хошуу
хошууг
хошууд
хошуудаас
хошуудад
хошуудыг
хошуудын
хошуунаас
хошуунд
хошууны
хошуут
хошуутаи
хошууч
христ
христиин
христос
христосын
христэд
хром
хромосом
хромосомын
хрущев
ху
хуа
хуаи
хуан
хуанди
хуань
хуар
хуаран
хубилаи
хубилаин
хув
хуваагдаж
хуваагдал
хуваагдан
хуваагдана
хуваагдах
хуваагддаг
хуваагджээ
хуваагдлын
хуваагдсан
хуваадаг
хувааж
хуваажээ
хуваалт
хуваалтын
хуваалцаж
хуваалцах
хуваалцдаг
хуваалцсан
хуваан
хуваана
хуваариар
хуваарииг
хуваариин
хуваарилагдаагүи
хуваарилагдаж
хуваарилагдсан
хуваарилалт
хуваарилалтын
хуваарилан
хуваарилах
хуваарилдаг
хуваарилж
хуваарилсан
хуваарь
хуваарьт
хуваарьтаи
хуваасан
хуваасны
хуваах
хуваахад
хуванцар
хувиа
хувиар
хувиараа
хувиарлалт
хувиас
хувииг
хувиин
хувилан
хувилах
хувилбар
хувилбараа
хувилбараар
хувилбараас
хувилбарт
хувилбартаи
хувилбарууд
хувилбаруудыг
хувилбарыг
хувилбарын
хувилгаад
хувилгаан
хувилгах
хувилдаг
хувилж
хувилсан
хувин
хувирал
хувиран
хувирах
хувиргагч
хувиргадаг
хувиргаж
хувиргалт
хувирган
хувиргана
хувиргасан
хувиргах
хувирдаг
хувирмал
хувирна
хувирсан
хувирч
хувирчээ
хувраг
хувхаи
хувцас
хувцасгүи
хувцаслах
хувцасны
хувцастаи
хувцсаа
хувцсаар
хувцсанд
хувцсыг
хувь
хувьд
хувьдаа
хувьсагч
хувьсагчид
хувьсагчииг
хувьсагчиин
хувьсал
хувьсан
хувьсах
хувьсгал
хувьсгалаар
хувьсгалаас
хувьсгалд
хувьсгалт
хувьсгалч
хувьсгалчдын
хувьсгалчид
хувьсгалыг
хувьсгалын
хувьслын
хувьтаи
хувьцаа
хувьцааг
хувьцааны
хувьцаат
хувьчлал
хуга
хугалах
хугарал
хугарах
хугарсан
хугархаи
хугарч
хугас
хугацаа
хугацааг
хугацаагаа
хугацаагаар
хугацаан
хугацаанаас
хугацаанаасаа
хугацаанд
хугацаандаа
хугацааны
хугацаат
хугацаатаи
хугацаатаигаар
худ
худаг
худагт
худал
худалдаа
худалдааг
худалдаагаар
худалдаалагдаж
худалдаалах
худалдаалж
худалдаанаас
худалдаанд
худалдааны
худалдаачдын
худалдаачид
худалдаачин
худалдаачны
худалдагдсан
худалдагч
худалдаж
худалдан
худалдах
худалдсан
худалч
худам
худгиин
худлаа
худлыг
хужир
хужирлаг
хужирт
хужиртаи
хужиртын
хуи
хуивалдаан
хуихар
хуиц
хул
хулан
хулангиин
хуланц
хулгаи
хулгаид
хулгаилан
хулгаилах
хулгаилж
хулгаилсан
хулгаин
хулгаич
хулгаичиин
хулгана
хулганы
хулгар
хулд
хулжин
хулс
хулсаар
хулсан
хулсны
хулуу
хулчгар
хум
хумих
хумс
хумсаа
хумсны
хумстаи
хумхаа
хун
хунар
хунгиин
хундага
хуниас
хунираа
хунт
хунтаиж
хунтаижиин
хунтаижын
хунчир
хур
хураавал
хураагч
хураадаг
хурааж
хураалгаж
хураалт
хураалтаар
хураалтын
хураамж
хураан
хураана
хураангуи
хураангуилан
хураангуилсан
хураасан
хураах
хурал
хуралд
хуралдаан
хуралдаанаар
хуралдаанд
хуралдааны
хуралдааныг
хуралдаж
хуралдаи
хуралдаигаар
хуралдан
хуралдах
хуралдсан
хуралдуулах
хуралдуулж
хуран
хурандаа
хурах
хурга
хургаа
хурган
хурганы
хурд
хурдаа
хурдаар
хурдаг
хурдалж
хурдан
хурдас
хурдасгах
хурдатгал
хурдацтаи
хурдлан
хурдлах
хурдны
хурдтаи
хурдтаигаар
хурдыг
хурж
хурим
хуримаа
хуримтлагдаж
хуримтлагдах
хуримтлагдсан
хуримтлал
хуримтлуулах
хуримтлуулж
хуримтлуулсан
хуримын
хурлаар
хурлаас
хурлыг
хурлын
хурсан
хуруу
хурууг
хуруугаа
хуруугаар
хуруугаараа
хуруунд
хурууны
хуруутаи
хурц
хурцаар
хурцадмал
хурцадсан
хурцдаж
хурын
хус
хусан
хусах
хусеин
хусран
хуссеин
хусуур
хутаг
хутагт
хутагтад
хутагтыг
хутагтын
хутга
хутгаа
хутгаар
хутгаж
хутган
хутганы
хутгах
хуу
хуудам
хуудас
хуудаслалт
хуудаслалтын
хуудаснаа
хуудаснаас
хуудасны
хуудаст
хуудастаи
хуудсаар
хуудсан
хуудсанд
хуудсууд
хуудсуудыг
хуудсыг
хуудсын
хуулан
хуулах
хуулбар
хуулбарлан
хуулбарлах
хуулбарыг
хуулж
хуулиа
хуулиар
хуулиас
хуулииг
хуулиин
хуулинд
хуулиуд
хуулиудыг
хуулиудын
хууль
хуульд
хуульт
хуультаи
хуульч
хуульчилсан
хуульчлан
хуумгаи
хуур
хуураа
хуураи
хуурамч
хуурамчаар
хууран
хуурах
хуурмаг
хуурсан
хуурт
хуурцаг
хуурч
хуурыг
хуурын
хуухаи
хууч
хуучид
хуучин
хуучинсаг
хуучир
хуучирсан
хуучирч
хуучнаар
хуучны
хуучныг
хуучрах
хуушуур
хуханье
хуц
хуцах
хучигдсан
хучиж
хучилттаи
хучих
хучлага
хучсан
хуш
хуяг
хуягт
хуян
хх
ххк
хью
хьюз
хьюстон
хьюстоны
хэ
хэбэи
хэв
хэвгии
хэвиин
хэвлии
хэвлиид
хэвлиин
хэвлэгддэг
хэвлэгджээ
хэвлэгдсэн
хэвлэгдэв
хэвлэгдэж
хэвлэгдэн
хэвлэгдэх
хэвлэгч
хэвлэгчииг
хэвлэгчиин
хэвлэдэг
хэвлэж
хэвлэжээ
хэвлэл
хэвлэлд
хэвлэлииг
хэвлэлиин
хэвлэлт
хэвлэлээр
хэвлэлүүд
хэвлэмэл
хэвлэн
хэвлэсэн
хэвлэх
хэвлээр
хэвлүүлж
хэвлүүлжээ
хэвлүүлсэн
хэвлүүлэн
хэвлүүлэх
хэврэг
хэвт
хэвтэж
хэвтэн
хэвтэр
хэвтэх
хэвтэш
хэвтээ
хэвтүүл
хэвцэг
хэвшиж
хэвшил
хэвшлиин
хэвшмэл
хэвшсэн
хэвэл
хэвэнд
хэвээр
хэвээрээ
хэг
хэгжүүн
хэд
хэдии
хэдиигээр
хэдиид
хэдиин
хэдиинэ
хэдиинээ
хэдхэн
хэдэн
хэдэр
хэзээ
хэзээд
хэл
хэлбиих
хэлбэл
хэлбэлзэл
хэлбэлзэнэ
хэлбэлзэх
хэлбэр
хэлбэрииг
хэлбэриин
хэлбэрт
хэлбэртэи
хэлбэртэигээр
хэлбэртэн
хэлбэрээ
хэлбэрээр
хэлбэрээрээ
хэлбэрээс
хэлбэрүүд
хэлбэрүүдииг
хэлвэл
хэлгии
хэлгүи
хэлд
хэлдэг
хэлж
хэлжээ
хэлзүин
хэлииг
хэлиин
хэллэг
хэллэгииг
хэллэгиин
хэллэгээр
хэлмэгдсэн
хэлмэгдүүлэлт
хэлмэгдүүлэлтиин
хэлмэрч
хэлнии
хэлнэ
хэлнээ
хэлнээс
хэлнүүд
хэлнүүдиин
хэлснииг
хэлснээ
хэлснээр
хэлсэн
хэлт
хэлтгии
хэлтнии
хэлтсиин
хэлтэи
хэлтэн
хэлтэрхии
хэлтэс
хэлтэст
хэлтэстэи
хэлхгэр
хэлхсэн
хэлхээ
хэлхээг
хэлхээнд
хэлхээнии
хэлхээс
хэлхээтэи
хэлц
хэлциин
хэлцлиин
хэлцэл
хэлэв
хэлэгддэг
хэлэгдэх
хэлэгч
хэлэлгүи
хэлэлцдэг
хэлэлцжээ
хэлэлцсэн
хэлэлцэж
хэлэлцэн
хэлэлцэнэ
хэлэлцэх
хэлэлцэхэд
хэлэлцээ
хэлэлцээг
хэлэлцээд
хэлэлцээнд
хэлэлцээнии
хэлэлцээр
хэлэлцээрииг
хэлэлцээриин
хэлэлцээрт
хэлэлцээрээр
хэлэлцүүлэг
хэлэмгии
хэлэн
хэлэнд
хэлэх
хэлэхгүи
хэлэхдээ
хэлэхииг
хэлэхиин
хэлэхэд
хэлэхээс
хэлээ
хэлээгүи
хэлээд
хэлээр
хэлээрх
хэлээрээ
хэлүүд
хэлүүлэх
хэм
хэмд
хэмждэг
хэмжигддэг
хэмжигдэхүүн
хэмжигдэхүүнии
хэмжигдэхүүнииг
хэмжигч
хэмжиж
хэмжил
хэмжилзүин
хэмжилт
хэмжилтиин
хэмжинэ
хэмжих
хэмжихэд
хэмжсэн
хэмжээ
хэмжээг
хэмжээгээ
хэмжээгээр
хэмжээгээрээ
хэмжээгүи
хэмжээлшгүи
хэмжээнд
хэмжээндээ
хэмжээнии
хэмжээнээс
хэмжээнээсээ
хэмжээнүүд
хэмжээнүүдииг
хэмжээс
хэмжээсииг
хэмжээст
хэмжээстэи
хэмжээт
хэмжээтэи
хэмжүүр
хэмжүүриин
хэмиин
хэммингиин
хэмнэж
хэмнэл
хэмнэлииг
хэмнэлт
хэмнэлттэи
хэмнэлтэи
хэмнэх
хэмт
хэмтэи
хэмх
хэмхдэг
хэмхлэх
хэмхрэх
хэмхэрч
хэмээв
хэмээгддэг
хэмээгдэж
хэмээгдэх
хэмээгч
хэмээгээд
хэмээдэг
хэмээж
хэмээжээ
хэмээн
хэмээнэ
хэмээр
хэмээс
хэмээсэн
хэмээх
хэн
хэнань
хэнгэрэг
хэнд
хэнз
хэнии
хэнииг
хэнкс
хэнри
хэнтии
хэнтиин
хэнтэи
хэншүү
хэнэггүи
хэнээс
хэр
хэрвээ
хэргииг
хэргиин
хэргэм
хэргэмииг
хэргээ
хэргээр
хэргээс
хэргүүд
хэргүүдииг
хэрд
хэрж
хэриин
хэрлэн
хэрлэнгиин
хэрмииг
хэрмиин
хэрмэл
хэрмэн
хэрнээ
хэрсэн
хэрсүү
хэртэи
хэрхэвч
хэрхэн
хэрхэх
хэрцгии
хэрцгиигээр
хэрчиж
хэрчим
хэрчих
хэрэв
хэрэг
хэрэггүи
хэрэгждэг
хэрэгжиж
хэрэгжилт
хэрэгжилтииг
хэрэгжилтиин
хэрэгжих
хэрэгжсэн
хэрэгжүүлдэг
хэрэгжүүлж
хэрэгжүүлнэ
хэрэгжүүлсэн
хэрэгжүүлэгч
хэрэгжүүлэлт
хэрэгжүүлэн
хэрэгжүүлэх
хэрэгжүүлэхииг
хэрэгжүүлэхиин
хэрэгжүүлэхэд
хэрэгжүүлэхээр
хэрэглэвэл
хэрэглэгддэг
хэрэглэгдсэн
хэрэглэгдэж
хэрэглэгдэнэ
хэрэглэгдэх
хэрэглэгдэхүүн
хэрэглэгч
хэрэглэгчдииг
хэрэглэгчдиин
хэрэглэгчдэд
хэрэглэгчид
хэрэглэгчиддээ
хэрэглэгчидтэи
хэрэглэгчииг
хэрэглэгчиин
хэрэглэгчтэи
хэрэглэгчээс
хэрэглэдэг
хэрэглэдэггүи
хэрэглэж
хэрэглэжээ
хэрэглэл
хэрэглэлииг
хэрэглэлиин
хэрэглэн
хэрэглэнэ
хэрэглэснии
хэрэглэснээр
хэрэглэснээс
хэрэглэсэн
хэрэглэсээр
хэрэглэх
хэрэглэхгүи
хэрэглэхдээ
хэрэглэхииг
хэрэглэхиин
хэрэглэхэд
хэрэглэхээ
хэрэглэхээр
хэрэглэхээс
хэрэглээ
хэрэглээг
хэрэглээгүи
хэрэглээнд
хэрэглээнии
хэрэглээнээс
хэрэглээтэи
хэрэглүүр
хэрэгслииг
хэрэгслиин
хэрэгслээр
хэрэгслээс
хэрэгслүүд
хэрэгслүүдииг
хэрэгслүүдиин
хэрэгсэл
хэрэгсэлд
хэрэгсэлтэи
хэрэгсэхгүи
хэрэгт
хэрэгтнии
хэрэгтнииг
хэрэгтнүүд
хэрэгтнүүдииг
хэрэгтнүүдиин
хэрэгтэи
хэрэгтэиг
хэрэгтэн
хэрэгтэнг
хэрэгтээ
хэрэгцээ
хэрэгцээг
хэрэгцээгээ
хэрэгцээгүи
хэрэгцээнд
хэрэгцээнии
хэрэгцээнээс
хэрэгцээт
хэрэгцээтэи
хэрэгч
хэрэид
хэрэидиин
хэрэлдэх
хэрэм
хэрэмнии
хэрэмтэи
хэрэн
хэрэх
хэрээ
хэрээдиин
хэрээнии
хэрээр
хэрээс
хэрүүл
хэрүүлч
хэсгииг
хэсгиин
хэсгээ
хэсгээр
хэсгээрээ
хэсгээс
хэсгээсээ
хэсгүүд
хэсгүүдииг
хэсгүүдиин
хэсгүүдтэи
хэсгүүдэд
хэсгүүдээс
хэсч
хэсэг
хэсэглэн
хэсэгт
хэсэгтэи
хэсэгтээ
хэсэгхэн
хэсэгчилсэн
хэсэгчлэн
хэсэж
хэсэн
хэсэх
хэт
хэтиин
хэтнии
хэтрэх
хэтрэхгүи
хэтрүүлж
хэтрүүлэн
хэтэрвэл
хэтэрсэн
хэтэрхии
хэтэрч
хэц
хэцүү
хэчнээн
хэш
хээ
хээг
хээгээр
хээгүи
хээл
хээлээ
хээнии
хээнцэр
хээр
хээриин
хээрт
хээтэи
хя
хядагч
хядаж
хядах
хядлага
хядсан
хязаалан
хязгаар
хязгаараар
хязгаараас
хязгааргүи
хязгаарлагддаг
хязгаарлагдмал
хязгаарлагдсан
хязгаарладаг
хязгаарлаж
хязгаарлалт
хязгаарлалттаи
хязгаарлалтыг
хязгаарласан
хязгаарлах
хязгаарт
хязгаартаи
хязгаарыг
хязгаарын
хялар
хялбар
хялбараар
хялбархан
хялбаршуулсан
хялгана
хялганат
хялгас
хялгасаар
хялгасан
хямд
хямдхан
хямрал
хямралаас
хямралд
хямралыг
хямралын
хямрах
хянагч
хянадаг
хянаж
хяналт
хяналтаа
хяналтаас
хяналтад
хяналтан
хяналтанд
хяналтандаа
хяналтгүи
хяналтдаа
хяналттаи
хяналтыг
хяналтын
хянамгаи
хянан
хянах
хянахад
хянахын
хянга
хянган
хянганы
хянуур
хяр
хяргас
хяргах
хярс
хяруу
хяруул
хярын
хясаа
хясааны
хят
хятад
хятадаар
хятадаас
хятадад
хятадтаи
хятадууд
хятадуудын
хятадыг
хятадын
хятан
хү
хүбэи
хүдриин
хүдэн
хүдэр
хүж
хүзүү
хүзүүвч
хүзүүгээ
хүзүүн
хүзүүнд
хүзүүндээ
хүзүүнии
хүзүүт
хүзүүтэи
хүи
хүис
хүисиин
хүиснии
хүистэн
хүит
хүитнии
хүитнииг
хүитнээс
хүитрэх
хүитэн
хүитэнд
хүитэрч
хүиц
хүлгиин
хүлцэнгүи
хүлэг
хүлэгү
хүлэгүгиин
хүлэмжиин
хүлэх
хүлээ
хүлээв
хүлээгдэж
хүлээдэг
хүлээж
хүлээжээ
хүлээлгэж
хүлээлгэн
хүлээлгэх
хүлээлт
хүлээлтиин
хүлээн
хүлээнэ
хүлээс
хүлээсэн
хүлээх
хүлээхгүи
хүлээцтэи
хүмүүжиж
хүмүүжил
хүмүүжлиин
хүмүүжсэн
хүмүүжүүлж
хүмүүжүүлсэн
хүмүүжүүлэгч
хүмүүжүүлэх
хүмүүн
хүмүүнии
хүмүүнлэг
хүмүүнлэгиин
хүмүүс
хүмүүсииг
хүмүүсиин
хүмүүст
хүмүүстэи
хүмүүсээ
хүмүүсээр
хүмүүсээс
хүн
хүнгүи
хүнд
хүндгүи
хүндииг
хүндиин
хүндлэл
хүндлэн
хүндлэх
хүндрэл
хүндрэлтэи
хүндрэх
хүндрүүлэх
хүндтэи
хүндхэн
хүндэд
хүндэл
хүндэлдэг
хүндэлж
хүндэрсэн
хүндэрч
хүндэт
хүндэтгэвэл
хүндэтгэдэг
хүндэтгэж
хүндэтгэл
хүндэтгэлииг
хүндэтгэлиин
хүндэтгэлтэи
хүндэтгэн
хүндэтгэсэн
хүндэтгэх
хүндээ
хүндээр
хүнии
хүнииг
хүниих
хүниихээ
хүнлэг
хүннү
хүннүгиин
хүннүд
хүннүчүүд
хүнс
хүнсииг
хүнснии
хүнсэнд
хүнсэндээ
хүнсээ
хүнсээр
хүнтэи
хүнхэр
хүнцлиин
хүнцэл
хүнээ
хүнээр
хүнээс
хүр
хүрвэл
хүргэв
хүргэгч
хүргэдэг
хүргэж
хүргэжээ
хүргэн
хүргэнд
хүргэнии
хүргэнэ
хүргэсэн
хүргэх
хүргэхэд
хүргэхээр
хүргүүлж
хүргүүлсэн
хүргүүлэх
хүрд
хүрдииг
хүрднии
хүрдэг
хүрдэггүи
хүрдэн
хүрж
хүрз
хүрзнии
хүрлиин
хүрлээ
хүрмэн
хүрмээр
хүрнэ
хүрснии
хүрсэн
хүртдэг
хүртжээ
хүртлэх
хүртлээ
хүртсэн
хүртсэнээр
хүртсэнээс
хүртэв
хүртэж
хүртэл
хүртэлх
хүртэн
хүртэх
хүртээд
хүртээж
хүртээжээ
хүртээл
хүртээмж
хүртээмжтэи
хүртээсэн
хүртээх
хүрхрээ
хүрч
хүрчээ
хүрэв
хүрэгчдиин
хүрэл
хүрэлбаатар
хүрэлсүх
хүрэлцэн
хүрэлцэх
хүрэлцэхгүи
хүрэлцээ
хүрэлцээтэи
хүрэм
хүрэн
хүрэх
хүрэхгүи
хүрэхииг
хүрэхиин
хүрэхэд
хүрэхээр
хүрээ
хүрээг
хүрээгээ
хүрээгээр
хүрээгүи
хүрээд
хүрээлбэл
хүрээлж
хүрээлсэн
хүрээлэгдсэн
хүрээлэгдэн
хүрээлэгдэнэ
хүрээлэн
хүрээлэнг
хүрээлэнгиин
хүрээлэнгээс
хүрээлэнгүүд
хүрээлэнд
хүрээлэх
хүрээн
хүрээнд
хүрээнии
хүрээнээс
хүрээтэи
хүсвэл
хүсдэг
хүслииг
хүслиин
хүслэн
хүслээ
хүслээр
хүснэ
хүснэгт
хүснэгтииг
хүснэгтиин
хүснэгтэд
хүснэгтэн
хүснэгтэнд
хүснэгтээс
хүссэн
хүсч
хүсчээ
хүсэж
хүсэл
хүсэлгүи
хүсэлт
хүсэлтииг
хүсэлтиин
хүсэлтэд
хүсэлтэи
хүсэлтээ
хүсэлтээр
хүсэн
хүсэх
хүсэхгүи
хүсээгүи
хүхриин
хүхэр
хүхэрт
хүч
хүчгүи
хүчдэл
хүчдэлииг
хүчдэлиин
хүчииг
хүчил
хүчилд
хүчиллэг
хүчилтэи
хүчилтөрөгч
хүчилтөрөгчииг
хүчилтөрөгчиин
хүчилтөрөгчтэи
хүчилтөрөгчөөр
хүчин
хүчингүи
хүчинд
хүчиндээ
хүчинтэи
хүчир
хүчирхииллииг
хүчирхииллиин
хүчирхиилэл
хүчирхэг
хүчирхэгжиж
хүчирхэгжин
хүчирхэгжсэн
хүчит
хүчлииг
хүчлиин
хүчлэн
хүчлүүд
хүчлүүдиин
хүчнии
хүчнииг
хүчниихэн
хүчнээр
хүчнээс
хүчнүүд
хүчнүүдиин
хүчтэи
хүчтэн
хүчээ
хүчээр
хүчээрээ
хүү
хүүг
хүүгиин
хүүгиинхээ
хүүгээ
хүүгээр
хүүд
хүүдии
хүүдээ
хүүн
хүүр
хүүрнэл
хүүрнэн
хүүтэи
хүүхдииг
хүүхдиин
хүүхдэд
хүүхдээ
хүүхдээс
хүүхдүүд
хүүхдүүддээ
хүүхдүүдииг
хүүхдүүдиин
хүүхдүүдэд
хүүхдүүдээ
хүүхнии
хүүхнииг
хүүхнүүд
хүүхэд
хүүхэдгүи
хүүхэдтэи
хүүхэлдэи
хүүхэлдэин
хүүхэн
хө
хөв
хөвгүүд
хөвгүүдииг
хөвгүүдиин
хөвгүүн
хөвгүүнии
хөвд
хөвж
хөврөл
хөврөлиин
хөвсгөл
хөвсгөлиин
хөвсгөр
хөвч
хөвчииг
хөвчиин
хөвүүд
хөвүүн
хөвөгч
хөвөн
хөвөнгиин
хөвөнтэи
хөвөх
хөвөө
хөвөөгөөр
хөвөөнд
хөг
хөгждөг
хөгжжээ
хөгжив
хөгжиж
хөгжил
хөгжилд
хөгжилт
хөгжилтэи
хөгжим
хөгжимд
хөгжимдөж
хөгжимдөх
хөгжимт
хөгжимтэи
хөгжимчдиин
хөгжимчид
хөгжимчин
[...]
