!
"
#
##0
##1
##10
##11
##12
##13
##14
##15
##16
##17
##18
##19
##2
##20
##21
##22
##23
##24
##25
##26
##27
##28
##29
##3
##30
##31
##32
##33
##34
##35
##36
##37
##38
##39
##4
##40
##41
##42
##43
##44
##45
##46
##47
##48
##49
##5
##50
##51
##52
##53
##54
##55
##56
##57
##58
##59
##6
##60
##61
##62
##63
##64
##65
##66
##67
##68
##69
##7
##70
##71
##72
##73
##74
##75
##76
##77
##78
##79
##8
##80
##81
##82
##83
##84
##85
##86
##87
##88
##89
##9
##90
##91
##92
##93
##94
##95
##96
##97
##98
##99
$
%
&
'
(
)
*
+
,
-
.
/
0
00
000
0001
0002
0003
0004
0006
001
002
0022
00238
0028
003
004
005
006
00695
007
008
009
01
010
011
012
013
014
0140
015
016
017
018
019
02
020
0212
0261
029
03
030
0307
031
033
035
0362
038
04
05
06
060
07
08
081
09
1
10
100
1000
10000
100000
1001
1002
1006
1007
101
1010
1016
1017
102
1020
1021
103
1037
1038
104
1045
1046
105
1050
1051
1055
1056
106
106195
1066
107
1071
1072
1073
108
1080
1086
1088
109
1093
109453
1097
1098
11
110
1100
1103
1109
111
1111
112
1120
1126
1128
113
1130
1136
114
1145
1146
115
1150
1159
116
1161
117
1170
1177
118
1186
119
1196
1198
12
120
1200
1204
121
1210
1212
1216
122
1220
123
1230
1235
124
1240
1242
125
1250
125898
126
1260
127
128
1280
1284
129
13
130
1300
130903
131
132
133
1330
134
135
1350
1353
136
1365
137
1371
138
1380
138416
139
14
140
1400
141
141278
142
1420
143
144
1440
145
1450
1453
146
1460
14651858
1467
1468
1469
147
1470
1471
1474
1475
1476
1477
148
1480
1483
1485
149
1490
1492
1493
1494
1497
15
150
1500
1501
1502
1503
1504
151
1510
1512
1513
1514
1515
1516
1517
1519
152
1520
1521
1523
1524
1525
1526
1527
1528
153
1530
1532
1533
1534
1535
1536
1537
1538
1539
154
1540
1541
1542
1543
1545
1547
155
1550
1552
1553
1555
1556
1558
1559
156
1560
1562
1564
1565
1566
157
1570
1571
1572
1573
1576
1577
158
1580
1583
1585
1586
1587
1588
1589
159
1590
1592
1593
1595
1596
1598
16
160
1600
1601
1602
1603
1604
1605
1606
1607
1608
1609
161
1610
1611
1612
1613
1614
1615
1616
1617
1618
162
1620
1621
1622
1623
1625
1626
1627
1628
1629
163
1630
1631
1632
1633
1634
1635
1636
1637
1638
1639
164
1640
1641
1642
1643
1644
1645
1646
1648
1649
165
1650
1651
1652
1654
1655
1656
1657
1658
1659
166
1660
1661
1662
1664
1665
1666
1667
1668
1669
167
1670
1671
1672
1673
1674
1675
1676
1677
1678
1679
168
1680
1681
1682
1683
1684
1685
1686
1687
1688
1689
169
1690
1691
1693
1695
1696
1697
1698
1699
17
170
1700
1701
1702
1703
1704
1705
1706
1707
1708
1709
171
1710
1711
1712
1713
1714
1715
1716
1717
1718
172
1720
1721
1722
1723
1724
1725
1726
1727
1728
1729
173
1730
1731
1732
1734
1735
1736
1737
174
1740
1741
1742
1743
1744
1745
1746
1747
1748
1749
175
1750
1751
1752
1753
1754
1755
1756
1757
1758
1759
176
1760
1761
1762
1763
1764
1765
1766
1767
1768
1769
177
1770
1771
1772
1773
1774
1775
1776
1777
1778
1779
178
1780
1781
1782
1783
1784
1785
1786
1787
1788
1789
179
1790
1791
1792
1793
1794
1795
1796
1797
1798
1799
18
180
1800
1801
1802
1803
1804
1805
1806
1807
1808
1809
181
1810
1811
1812
1813
1814
1815
1816
1817
1818
1819
182
1820
1821
1822
1823
1824
1825
1826
1827
1828
1829
183
1830
1831
1832
1833
1834
1835
1836
1837
1838
1839
184
1840
1841
1842
1843
1844
1845
1846
1847
1848
1849
185
1850
1851
1852
1853
1854
1855
1856
1857
1858
1859
186
1860
1861
1862
1863
1864
1865
1866
1867
1868
1869
187
1870
1871
1872
1873
1874
1875
1876
1877
1878
1879
188
1880
1881
1882
1883
1884
1885
1886
1887
1888
1889
189
1890
1891
1892
1893
1894
1895
1896
1897
1898
1899
19
190
1900
1901
1902
1903
1904
1905
1906
1907
1908
1909
191
1910
1911
1912
1913
1914
1915
1916
1917
1918
1919
192
1920
1921
1922
1923
1924
1925
1926
1927
1928
1929
193
1930
1931
1932
1933
1934
1935
1936
1937
1938
1939
194
1940
1941
1942
1943
1944
1945
1946
1947
1948
1949
195
1950
1951
1952
1953
1954
1955
1956
1957
1958
1959
196
1960
1961
1962
1963
1964
1965
1966
1967
1968
1969
197
1970
1971
1972
1973
1974
1975
1976
1977
1978
1979
198
1980
1981
198182
1982
1983
1984
1985
1986
1987
1988
1989
199
1990
1991
1992
1993
1994
1995
1996
1997
1998
1999
2
20
200
2000
20000
2001
2002
2003
2004
2005
2006
2007
2008
2009
201
2010
2011
2012
2013
2014
2015
2016
2017
2018
2019
202
2020
2021
2022
2023
2024
203
2030
204
205
2050
206
207
208
209
21
210
2100
211
212
213
214
215
216
217
218
219
22
220
2200
221
222
223
224
225
226
227
228
229
23
230
2300
2307
231
232
233
234
235
236
237
238
2383265
239
24
240
2400
241
242
243
244
245
246
2464
247
248
249
25
250
2500
251
2510
252
253
254
255
256
257
258
259
26
260
261
262
263
264
265
266
267
268
269
27
270
2700
271
272
273
274
275
276
277
278
279
2792
28
280
2800
281
282
283
284
285
286
287
288
289
29
290
291
292
293
294
295
296
297
298
299
3
30
300
3000
30000
301
302
303
304
305
306
307
3077
308
309
31
310
311
312
313
314
315
316
317
318
319
32
320
321
322
323
324
325
326
327
328
329
33
330
331
332
333
334
335
336
337
338
339
34
340
341
342
343
344
345
346
347
348
349
35
350
3500
351
352
353
354
355
356
357
358
359
36
360
361
362
363
364
365
366
367
368
369
37
370
371
372
373
374
375
376
377
378
379
38
380
3804
381
382
383
384
385
386
387
388
389
39
390
391
392
393
394
39422
395
396
397
398
399
4
40
400
4000
401
402
403
404
405
406
407
408
409
41
410
411
412
413
414
415
416
417
418
419
42
420
421
422
423
42356
424
425
426
427
4278
428
429
43
430
431
432
433
4331
434
435
436
437
438
439
44
440
441
442
443
444
445
446
447
448
449
45
450
4500
451
452
453
45352
454
455
456
457
458
45846
459
46
460
461
462
463
464
465
466
46628
467
468
469
47
470
471
472
473
474
475
476
477
478
479
48
480
481
482
483
484
485
486
487
488
489
49
490
491
492
493
494
495
496
497
498
499
5
50
500
5000
501
502
503
504
505
506
507
508
509
51
510
511
512
513
514
515
516
517
518
519
52
520
52072
521
522
523
524
525
526
527
528
529
53
530
531
532
533
534
535
53566
536
537
538
539
54
540
541
542
543
544
545
546
547
548
549
55
550
551
552
553
554
555
556
557
558
559
56
560
561
562
563
564
565
566
567
568
569
57
570
571
572
573
574
575
576
577
578
579
58
580
581
582
583
584
585
58578
586
587
588
589
59
590
591
592
593
594
595
596
597
598
599
6
60
600
6000
601
602
603
6036
604
605
606
607
608
609
61
610
611
612
613
614
615
616
617
618
619
62
620
621
622
623
624
625
626
627
628
629
63
630
631
632
633
634
635
636
637
638
639
64
640
641
642
643
644
645
646
647
648
649
65
650
651
652
653
654
655
656
657
658
659
66
660
661
662
663
664
665
666
667
668
669
67
670
671
672
673
6736
674
675
676
677
678
679
68
680
681
682
683
683713
684
685
686
687
688
689
69
690
691
692
693
694
695
696
697
698
699
7
70
700
7000
701
702
703
704
705
707
71
710
711
712
713
714
715
717
718
719
72
720
721
722
726
727
728
729
73
730
732
735
736
737
74
740
741
742
743
745
746
747
748
75
750
751
752
753
754
756
757
759
76
760
762
765
766
767
768
77
770
774
775
776
777
778
78
780
781
784
785
786
7864
787
789
79
790
792
793
798
8
80
800
8000
801
802
804
805
806
807
8084
81
810
811
813
814
816
82
820
829
83
830
832
84
840
842
843
848
85
850
852
85270
853
8549233
855
856
859
86
860
863
87
870
88
880
884446
885
886
89
890
89700
9
90
900
901724
91
911
91105
914
916
92
920
925
9272
93
930
933
94
940
95
950
951
953
954
96
960
961
963
965
966
97
970
975
976
977
977378
978
9781884446054
979
98
980
981
985
987
99
990
992
9939
999
99930
99941
:
;
<
=
>
?
@
[
\
]
^
_
`
a
aa
aaron
ab
abba
abbey
abc
abes
abgerufen
abortion
about
above
abraham
abrams
abril
abs
abstract
abu
abuse
ac
acad
acade
academia
academic
academy
access
accessdate
accessed
according
account
accounts
accreditations
accueil
ace
acessodata
achievement
acid
acm
acoustic
across
act
acta
acting
action
active
activist
activities
activity
actor
actors
actress
acts
acute
ad
ada
adam
adams
adaptation
add
additional
address
adds
adele
adjust
adjusted
adjusts
administration
adobe
adolf
adorocinema
adrian
adult
adults
advanced
advances
adventure
adventures
ae
af
afc
affair
affairs
afghan
afghanistan
afi
afp
africa
african
after
ag
again
against
age
aged
agencia
agency
agent
agents
ages
ago
agosto
agreement
agriculture
aguilera
ah
ahead
ahmed
ai
aid
aids
ain
air
airbus
aircraft
aires
airlines
airplay
airport
airways
ais
aise
aj
ajax
ak
akademie
akl
al
alabama
alain
alan
alapja
alba
albania
albanian
albert
alberto
albion
album
albums
alcohol
alejandro
alessandro
alessia
alex
alexa
alexander
alexandra
alexandre
alfa
alfred
algeria
ali
alice
alicia
aligned
alison
alive
all
alla
allan
alle
allen
allergy
allgemeine
allgemeines
alliance
allkpop
allmovie
allmusic
allocine
alma
almost
alone
along
alpha
already
als
also
alt
alternative
alumni
always
am
amanda
amazing
amazon
ambassador
ame
america
american
americans
americas
amid
amnesty
among
amor
amore
amounts
amour
amsterdam
amt
amtsfreien
amway
amy
an
ana
analysis
anatomy
ancestry
ancient
and
andaluci
andersen
anderson
andre
andrea
andreas
andreeva
andrew
andrews
android
andy
angel
angela
angeles
angels
anglo
animal
animals
animated
animation
animator
anime
anita
ankara
ann
anna
annales
annals
anne
anni
annie
anniversary
anno
annona
announce
announced
announcement
announces
annual
annuels
another
ans
answer
answers
anthem
anthology
anthony
anthropology
anti
antiquity
antoine
anton
antonio
anual
anxiety
any
ao
ap
api
app
apple
appleton
application
applications
applied
approach
approaches
apps
apr
april
ar
ara
arab
arabia
arabic
aram
ararat
arc
arch
archaeological
archaeology
archi
archinform
architectural
architecture
archiv
archive
archived
archives
archivio
arctic
arde
ardennes
are
area
areas
arena
argentina
argentine
argentino
aria
ariana
arizona
ark
arlis
arm
arme
armed
armenia
armenian
armenians
armenpress
arms
armstrong
army
arnold
around
array
arrest
arrested
arrow
ars
arsenal
art
arte
artes
arthritis
arthur
arti
article
articles
artificial
artist
artists
artnet
arts
artsakh
arxiv
as
ashgate
ashley
asia
asian
ask
asked
asociacio
asp
aspects
aspx
assembly
assessment
associac
associated
associates
association
associations
asthma
aston
astro
astronomical
astronomy
at
atalanta
athens
athletes
athletic
atlanta
atlantic
atlas
atle
atmospheric
atomic
atp
attack
attacks
attention
au
aube
auction
aude
audi
audio
auf
auflage
aug
august
augustus
aus
auspop
austin
australia
australian
austria
austrian
austriancharts
auteur
author
authorities
authority
authors
autism
auto
autobiography
autor
autumn
aux
av
ava
available
avant
avec
avengers
avenue
average
aveyron
aviation
avicii
avproduction
avril
award
awarded
awards
away
ax
ayuntamiento
az
azalea
azerbaijan
azərbaycan
b
ba
babelio
baby
bach
back
background
bad
baden
bafta
baghdasaryan
bailey
baker
bal
balance
balkan
ball
ballet
baltimore
ban
banc
band
bandit
bang
bangladesh
bank
banks
bankı
bar
barbara
barcelona
barnes
baron
barrett
barry
bartlett
bas
base
based
basel
basic
basingstoke
basis
basketball
bass
batman
battle
bauer
bay
bayer
bayerische
bayerisches
bayern
bazaar
bb
bbc
bbfc
bc
bd
bdfutbol
be
beach
bear
beast
beat
beatles
beats
beautiful
beauty
beaux
bebe
bec
became
because
beck
becker
become
becomes
bee
been
beer
before
begin
beginning
begins
behavior
behavioral
behind
bei
beijing
being
belarus
belgian
belgium
believe
bell
bella
belle
below
ben
benezit
benfica
benjamin
bennett
benny
benoni
benz
ber
berg
bergamo
berger
berkeley
berlin
bernard
bernstein
best
bestsellero
bet
beta
better
betty
between
bevo
beyer
beyonce
beyond
bf
bg
bi
bibcode
bibel
bible
biblical
bibliographisches
bibliography
biblioteca
bibliothe
bid
biden
bieber
big
biggest
bil
bilancio
bilbao
bill
billboard
billie
billion
billy
bin
bio
biogra
biografico
biografisk
biographical
biographie
biographies
biographisches
biography
biol
biological
biology
bir
bird
birds
birmingham
birth
birthday
bis
bishop
bit
biz
bl
black
blackpink
blackwell
blake
blanc
bleeding
blica
blind
block
blog
blogs
blogspot
blood
bloody
bloom
bloomberg
bloomsbury
blow
blu
blue
blues
bmj
bmw
bnf
bo
board
bob
bobby
bodies
body
boeing
boleti
bollywood
bologna
bomb
bon
bond
bone
bones
book
books
boom
border
boris
born
borussia
borys
bosnia
boss
boston
both
bournemouth
box
boxing
boxofficemojo
boy
boyd
boys
bpi
br
brad
bradley
brady
brain
brand
brandenburg
brasil
brasileira
brasileiro
bravo
brazil
brazilian
break
breaking
breaks
breast
brescia
brian
bride
bridge
brief
brien
bright
brighton
brill
bring
brings
bristol
brit
britain
britannica
british
britney
broadcast
broadcasting
broadway
brockhaus
broken
bronze
brooklyn
brooks
bros
brother
brothers
brown
brozovic
bru
bruce
bruno
bruto
bryan
bts
bu
budapest
budget
buenos
buffalo
build
building
buildings
built
bulgaria
bulgarian
bull
bulletin
bundesliga
bundesverband
burden
bureau
burke
burn
burning
burnley
burns
burton
bus
bush
business
but
butler
butterfly
buy
by
byzantine
bɑ
bɑj
bɑn
bɑr
bɑt
bɑɾ
bɑɾd
bɛɾ
c
ca
cabello
cabinet
cable
caesar
cafe
cagliari
cairo
calcio
calendar
california
call
called
calls
calvados
calvin
cambridge
came
camera
cameron
camila
camp
campaign
campbell
campo
campus
can
canada
canadian
canal
cancer
canciones
cannes
cantal
cap
cape
capital
capitol
captain
car
cara
carbon
card
cardi
cardiac
cardiology
cardiovascular
care
career
carey
caribbean
carl
carlo
carlos
carmen
carnegie
carol
carolina
caroline
carrie
carroll
carson
carter
cartoon
casa
case
cases
cash
cassini
cast
castillo
casting
castle
casts
cat
catalana
catalans
catalog
catalogue
catalunya
category
cathedral
catherine
catholic
cats
caucasus
caulfield
cause
causes
cave
cb
cbc
cbs
cc
cd
cdc
cdot
cdots
ce
cecilia
ced
celebrates
celebration
celebrity
celine
cell
cells
celtic
cemetery
cengage
census
cent
center
centers
central
centre
centro
centuries
century
ceo
ceremony
certain
certification
certifications
certified
cf
cfilm
cfm
cgi
ch
cha
chainsmokers
challenge
challenges
chamber
chambers
champion
championat
champions
championship
championships
chan
chance
chang
change
changed
changes
changing
channel
chaos
chapel
chapman
chapter
character
characteristics
characters
charente
charge
charles
charlie
charlotte
chart
charts
chartverfolgung
chase
chat
che
check
chelsea
chem
chemical
chemistry
chen
cher
cherry
chess
chessgames
chest
chi
chicago
chief
chiffres
child
childhood
children
chile
china
chinese
chisholm
chocolate
choi
choice
chosun
chr
chris
christ
christian
christianity
christie
christina
christine
christmas
christoph
christopher
chrome
chronic
chronicle
chronicles
chronology
chuck
church
churches
churchill
ci
cia
cid
cifras
cine
cinema
circ
circle
circulation
circumstances
circus
cita
citar
citation
cite
cited
cites
citeseerx
cities
citizen
city
citypopulation
ciudad
civil
civilization
cj
ck
cker
cl
claim
claims
claire
clara
clarendon
clark
clarke
clarkson
clash
class
classic
classical
classics
classifica
classification
classifiche
claude
claudia
cle
clean
clear
cleveland
click
clifford
climat
climate
clin
clinic
clinical
clinics
clinton
clio
close
closer
cloud
club
cm
cn
cnet
cnn
co
coach
coast
coauthors
coca
cochrane
code
codes
coffee
cognitive
cohen
coins
col
cola
cold
coldplay
cole
colin
coll
collaboration
collected
collection
collections
college
collider
collins
colombia
colonial
color
colorado
colour
columbia
columbus
column
com
combat
come
comeback
comedy
comes
comic
comics
coming
comingsoon
command
commentary
comments
commerce
commercial
commission
committee
common
commons
commonwealth
communication
communications
communities
community
como
companies
companion
company
comparative
comparison
competition
complete
completes
complex
composer
composition
comprehensive
computer
computing
comune
con
concept
concepts
concert
concise
conde
conditions
conference
confirm
confirmed
confirms
conflict
congo
congress
connect
connecticut
connection
connor
conquest
consequences
conservation
conservative
consortium
constitution
constitutional
construction
consulte
consulting
consumer
contact
contemporary
content
contest
context
continental
continues
continuitat
continuum
contract
contribution
contributions
control
controlled
controversy
convention
conversation
cook
cooking
cool
cooper
cooperation
copa
copenhagen
coppa
copy
core
cornell
coronary
coronavirus
corp
corporate
corporation
corps
corpus
corriere
corruption
cos
cosmopolitan
cost
costa
could
council
count
countdown
counter
counties
countries
country
county
coup
coupe
couple
courier
course
court
courtney
cover
covid
cox
cp
cr
craig
crash
crazy
crc
cre
cream
create
created
creation
creative
creator
credit
credits
cret
crew
crime
crimes
criminal
crisis
critic
critical
criticism
critics
critique
croatia
croatian
cross
crown
cruz
cry
crystal
cs
ct
ctg
cti
cu
cuba
cube
cult
cultura
cultural
culture
cultures
cumulative
cup
cure
curid
current
curtis
cut
cv
cw
cx
cycle
cyprus
cyrus
cystat
cz
czech
d
da
daddy
dades
daft
dag
daily
dal
dale
dali
dallas
dam
dame
dan
dana
dance
dancing
dangerous
daniel
danish
danishcharts
danny
dans
dante
dar
dark
darwin
das
data
database
date
datenbank
datenverarbeitung
datepublished
dates
dati
dating
dato
datos
daughter
dave
david
davidson
davies
davis
dawn
day
days
db
dc
dd
de
dead
deadline
deadlink
deadly
deal
dean
dear
death
deaths
debate
deborah
debt
debut
debuts
dec
decade
december
decision
declaration
decline
decrescente
deep
def
default
defeat
defence
defender
defense
deficiency
definition
definitive
degli
degree
dei
del
delarge
delhi
dell
della
delle
dels
delta
deluxe
dem
demand
demi
demo
democracy
democratic
demografiche
demografico
demographic
den
denial
denis
denise
denmark
dennis
department
depeche
deportivo
depression
der
derby
derek
dermatology
des
description
desde
desenvolvimento
desert
design
designer
despite
destiny
destruction
det
detail
detailed
details
detection
detroit
deutsch
deutsche
deutschen
deutscher
deutschland
deux
dev
developer
developing
development
developmental
devil
dezember
df
di
dia
diabetes
diagnosis
diagnostic
diamond
diana
diane
diaries
diario
diary
diccionario
dicembre
dick
dictionary
dictionnaire
did
didn
die
died
diego
dies
diet
difference
differences
different
digest
digital
din
dio
dion
diplomacy
diplomatic
dir
direct
direction
director
directors
directory
dirty
dis
disaster
disc
disco
discography
discogs
discovery
discussion
disease
diseases
disney
disorder
disorders
display
displaystyle
distribution
district
dit
diteur
dition
ditions
diversity
divisa
division
divorce
dizionario
diɾ
dj
dk
dl
dmoz
dna
do
doc
docs
doctor
document
documentary
documents
does
doesn
dog
dogs
doi
doing
doja
dokumentum
dolla
dollar
dom
domain
domestic
dominic
don
donald
done
dong
donna
door
doors
dorothy
dortmund
dos
doste
dot
dots
double
doubleday
douglas
dover
down
download
downloads
dp
dq
dr
draft
dragon
dragons
drake
drama
dramatic
draw
dream
dreams
dress
drive
drop
drops
drouot
drug
drugs
ds
dsm
dt
du
dua
dubai
dublin
due
duke
dumps
duncan
duran
during
dutch
dutchcharts
duty
dvd
dw
dx
dynamic
dynamics
dynasty
dz
dɑ
dɑk
dɛl
e
ea
each
eagle
earl
earliest
early
earth
east
eastern
easy
eat
eating
ebola
ec
echo
ecology
economic
economics
economist
economists
economy
ecuador
ed
eddie
eden
edgar
edge
edinburgh
edit
edited
edith
edition
editions
editor
editore
editorial
editors
edmund
eds
edu
eduard
eduardo
education
educational
edward
edwards
edwin
ee
eesti
effect
effects
efficacy
egg
eggs
egypt
egyptian
ehess
ei
eight
eilish
ein
eine
einer
eines
einstein
ek
eki
el
elder
eleanor
elected
election
elections
electric
electronic
elements
elena
eli
elisabeth
elite
elizabeth
ella
elle
ellen
ellie
elliott
ellis
else
elsevier
elton
em
embassy
embedded
emergency
emerging
emi
emil
emily
eminem
emma
emmanuel
emmy
emotional
emperor
empire
emploi
emporis
en
enciclope
enciclopedia
enciklopedija
encyclopaedia
encyclopedia
encyclopædia
end
ending
endocrinology
ends
enemy
energy
enero
enewsworld
eng
engine
engineering
engl
england
english
enough
enrique
enter
entered
enterprise
enterprises
entertainment
entre
entry
environment
environmental
ep
epic
epidemiology
episode
epstein
er
era
eredivisie
eric
erickson
erik
ernest
ernst
error
es
esc
escape
esky
espan
espanya
espanyol
espn
esquire
essay
essays
essential
est
esta
estadi
estado
estatal
estate
estati
este
estimates
estimativas
estonia
estonian
et
etc
ethics
ethiopia
ethnic
ethnologue
etymology
eu
eugene
eun
eur
euro
europa
europe
european
eurosport
eurovision
ev
eva
evaluation
evan
evans
eve
even
evening
event
events
ever
everett
everton
every
everyone
everything
evidence
evil
evolucio
evolution
evolutionary
ew
ex
example
excerpt
exchange
exclusive
executive
exhibition
exile
exo
exp
expansion
experience
experiment
experimental
expert
explicit
exploration
explore
explorer
exploring
expo
exposition
express
expression
extended
extension
extra
extreme
eye
eyed
eyes
f
fa
faber
faberge
face
facebook
faces
fact
factbook
factor
factors
factory
facts
faculty
failure
fair
fairy
faith
fake
fall
falling
falls
false
fame
families
family
famous
fan
fans
fantastic
fantasy
faq
far
farm
fashion
fast
fat
fate
father
favorite
fbref
fc
fda
fe
fear
feat
feature
features
featuring
feb
february
fecha
fechaacceso
federal
federation
federazione
federico
feel
feeling
felix
fellows
female
fembio
feminism
feminist
femme
femmes
fencing
ferdinand
ferguson
ferna
fernando
ferrari
fest
festival
fever
few
ff
fi
fica
ficha
fiche
fichefilm
fico
fiction
fide
field
fields
fifa
fifth
fifty
figaro
fight
fighter
fighting
figure
figures
file
files
film
filmaffinity
filmalkotasok
filme
filmek
filmes
filmfare
filming
filmportal
films
filtra
fimi
fin
final
finale
finally
finals
finance
financial
find
finding
finds
fine
finland
finnish
finnishcharts
fiorentina
fire
firenze
first
fischer
fish
fisher
fit
five
fk
flag
flammarion
flash
fleming
flight
flood
floor
flora
florence
florida
flow
flower
flowers
floyd
fly
flying
fm
fo
focus
folk
folklore
follow
following
fonogra
fonogramas
food
foot
football
footballdatabase
footballfacts
for
forbes
force
forces
ford
foreign
forest
forever
forgotten
form
format
formation
former
forms
fort
fortschreibung
fortune
forum
forward
foster
found
foundation
foundations
founder
four
fourth
fox
fr
fra
frac
framework
franc
france
frances
francesco
francis
francisco
franco
frank
frankfurt
franklin
franz
fraser
frauen
frauendatenbank
fre
fred
frederick
free
freebase
freedom
freeman
french
fresh
friday
friedman
friedrich
friend
friendlies
friendly
friends
fritz
from
front
frontier
ft
ftp
fu
fulham
full
fullcredits
fun
function
functional
functions
fund
fundacio
fundamental
further
futbol
future
g
ga
gabriel
gaga
gala
galaxy
gale
galerie
gales
gallery
gallimard
game
games
gamespot
gaming
gamma
gang
gao
gaon
gaonchart
gap
garci
garcia
garden
gardens
gardner
gary
gas
gastroenterology
gate
gates
gavin
gay
gazeta
gazette
gazetteer
gb
gc
gdp
ge
gemeinden
gemeindeverzeichnis
gemeinsame
gen
gender
gene
genealogics
genealogy
geneastar
general
generalitat
generation
genes
genesis
genetic
genetics
geneva
genius
gennaio
genoa
genocide
genome
geo
geoffrey
geografia
geographic
geographical
geography
geological
geonames
geonet
georg
george
georges
georgia
georgian
ger
gerald
gerard
gerlista
germain
german
germany
geschichte
gesellschaft
get
gets
getting
getty
gfk
ghost
gi
giant
gibson
gico
gift
gil
gilbert
gina
giorgio
giovanni
girl
girlfriend
girls
giuseppe
give
given
gives
gks
glamour
glasgow
glass
glenn
gli
global
globe
gloria
glory
glossary
gm
gmbh
go
goal
goals
god
gods
goes
gogh
going
gold
goldberg
golden
goldman
gomez
gone
gonna
gonza
good
goodbye
google
gordon
gospel
got
goud
goulding
gouv
gov
government
governor
gq
gr
gra
grace
graham
grammar
grammy
gran
granada
grand
grande
grant
graphic
grave
gray
graz
gre
great
greater
greatest
greece
greek
green
greene
greenwood
greg
gregory
grey
griffin
gross
ground
group
groups
grove
growing
growth
gru
grup
grupo
gruyter
gt
gu
guardian
gucci
guerra
guerre
guest
guetta
guez
guggenheim
guide
guideline
guidelines
guides
guild
guinea
guinness
guitar
guld
gulf
gun
guns
gustav
gutenberg
guy
gynecology
h
ha
haaretz
had
hair
hal
half
hall
halsey
ham
hamarot
hamburg
hamilton
hammer
han
hancinema
hand
handbook
handbuch
hands
hanglemezkiado
hannah
hans
hansen
happened
happiness
happy
haqqında
harcourt
hard
harmony
harold
harper
harpercollins
harris
harrison
harry
hart
harvard
harvey
has
hat
hate
have
haven
having
hawaii
hay
hayazg
hbar
hbo
hcl
hd
hdl
he
head
heading
heads
health
healthcare
healthy
hear
heart
hearts
heat
heaven
heavy
hebrew
hee
heidelberg
heinrich
heinz
held
helen
helena
hell
hello
help
helsinki
henderson
henri
henry
hepatitis
her
herald
herbert
here
heritage
herman
hermann
hero
heroes
herrera
herzegovina
het
hetq
hey
hg
hi
hidden
hier
high
higher
highest
highlights
hill
hills
him
himself
hindu
hip
his
histo
histoire
historia
historian
historic
historical
histories
historique
history
hit
hitler
hitlisten
hitpara
hitparade
hits
hiv
hk
hl
hnt
ho
hold
holding
holdings
hole
holiday
holland
hollywood
holmes
holocaust
holt
holy
home
homepage
homme
homo
honda
honey
hong
honor
honorary
honors
honour
honours
hood
hop
hope
hopkins
horn
horror
horse
hospital
host
hot
hotel
houghton
houndmills
hour
hours
house
households
housing
houston
how
howard
however
hp
hr
hrsg
hrt
hrvatska
htm
html
http
https
hu
hub
hudson
huffington
huge
hugh
hughes
hugo
hull
hum
human
humanities
humano
humans
hundred
hung
hungarian
hungary
hunt
hunter
hurts
husband
hy
hye
hypertension
hyun
hɑ
hɑmɑ
hɑn
hɑt
hɑŋk
hɑɾ
hɑɾt
hɔ
i
ia
ian
iana
iau
ibge
ibm
ibn
ic
icar
icarus
ice
iceland
ich
icon
id
ida
idea
ideas
identifiants
identification
identity
idh
idioma
idol
idolator
ie
ieee
if
ifpi
iggy
iglesias
ign
ignored
ii
iii
ij
ik
il
ilbo
ill
illegal
illinois
illustrated
im
image
images
imagine
imaging
imdb
imf
immigration
immunology
impact
imperial
implications
important
impossible
in
ina
inc
incidence
include
includes
including
income
incorporated
independence
independent
index
india
indian
indiana
indie
indiewire
individual
indo
indonesia
induced
industria
industrial
industries
industry
ine
infection
infections
infectious
infinity
inflammatory
influence
info
informacio
information
infraestructures
infty
initiative
injury
innovation
inquiry
insee
insert
inside
insider
inspired
instagram
institut
institute
institution
institutions
instituto
instrumental
int
integration
intel
intellectual
intelligence
inter
interaction
interactions
interactive
interest
interior
intermedia
internacional
internal
international
internationale
internet
interno
interpretation
interscope
interview
interviews
into
introduction
invasion
invention
investigation
investment
io
ios
iowa
ip
ipad
iphone
ipod
iq
ir
iran
iranian
iranica
iraq
ireland
iris
irish
irma
iron
irving
is
isa
isaac
isabel
isbn
isis
islam
islamic
island
islands
iso
israel
israeli
iss
issn
issue
issues
ist
istanbul
istat
istituto
it
italia
italian
italiana
italiancharts
italiani
italiano
italy
itau
item
itemid
itf
its
itunes
iu
iucn
iupac
iv
ivan
ix
iz
iŋk
j
ja
jaaroverzicht
jaaroverzichten
jack
jackie
jackson
jacob
jacobs
jacques
jae
jahre
jahrescharts
jahreshitparade
jake
jam
jama
james
jamie
jan
jane
janet
january
japan
japanese
jason
java
javascript
javier
jay
jazeera
jazz
jc
je
jean
jeanne
jeff
jefferson
jeffrey
jenkins
jennifer
jenny
jensen
jeremy
jerry
jersey
jerusalem
jessica
jessie
jesus
jet
jewish
jews
ji
jill
jim
jimmy
jin
jm
jo
joachim
joan
job
jobs
joe
joel
johan
johann
johannes
john
johnny
johns
johnson
johnston
join
joins
joint
jon
jonas
jonathan
jones
jong
joongang
jordan
jorge
jose
josef
joseph
josh
joshua
jour
journal
journalism
journalist
journals
journey
joy
joyce
jp
jpg
jpl
jr
js
jsp
jstor
ju
juan
judge
judith
juice
jul
jules
julho
julia
julian
julie
julio
julius
july
jum
jump
jun
june
jung
jungle
juni
junio
junior
jupiter
jus
just
justice
justin
jut
juventus
jyp
jɑ
jɑk
jɑl
jɑn
jɑt
jɛnt
k
ka
kang
kansas
kanye
kara
karabakh
karen
karl
kate
katherine
kathleen
katie
katy
kaufman
kay
kazakhstan
kb
kbs
ke
keep
keith
kelly
ken
kendrick
kennedy
kenneth
kent
kentucky
kevin
key
keynes
keys
kg
kh
khaled
khalid
khalifa
khan
ki
kid
kidney
kids
kill
killed
killer
killers
killing
kills
kim
kind
kindred
king
kingdom
kings
kino
kinokalender
kinopoisk
kiss
kit
kitchen
kiɾ
klaus
klein
km
knew
knight
knopf
know
knowledge
known
ko
koch
kommersant
kommune
kondolojy
kong
korea
korean
kosovo
kp
kpop
kr
krako
kremlin
kroll
kt
ku
kultur
kum
kumar
kun
kunst
kurdish
kurt
kv
kyiv
kyle
kz
kɑ
kɑl
kɑn
kɑp
kɑt
kɑŋ
kɑɾ
kɑɾt
kɑɾɡ
kɔ
kɔt
kɛl
kɛt
kɛɾ
kɛɾp
l
la
lab
label
labor
laboratory
labour
ladan
ladies
lady
lake
laliga
lamar
lamb
lambda
lambert
lana
lancet
land
landesamt
lands
landscape
lane
lang
language
languages
langue
lanham
lanka
large
largest
larry
lars
las
last
late
later
latest
latimes
latin
latina
latino
latvia
latvijas
launch
launches
laura
laureates
lauren
laurence
laurent
lavigne
law
lawrence
laws
lay
lazer
lazio
lb
lc
ldots
le
lead
leader
leaders
leadership
leading
leads
league
learn
learning
least
leave
leaves
lebanese
lebanon
leben
lecture
lectures
led
lee
leeds
left
legacy
legal
legend
legendary
legends
lego
leicester
leiden
leigh
leipzig
leksikon
lenta
leo
leon
leonard
leonardo
leqslant
les
lesbian
lescharts
leslie
less
lessons
let
letter
letters
lettres
level
levels
levin
levine
levy
lewis
lexicon
lexikon
lez
lg
li
liam
lib
liberal
liberation
liberty
libraries
library
libre
libris
libro
license
lie
lies
life
lifetime
liga
light
lights
ligne
ligue
lik
like
lil
lille
lily
lim
limited
limites
limits
lin
lincoln
linda
lindsay
line
lines
lingua
linguistic
linguistics
link
linked
linkin
links
linux
lion
lionel
lions
lipa
lippincott
lisa
list
lista
liste
listen
listing
lists
listy
lit
literary
literatur
literature
lithuania
litte
little
littlefield
liu
live
lived
liver
liverpool
lives
living
livre
liz
lizzo
lkerung
lkerungsentwicklung
lkerungsstandes
ll
llc
ller
lloyd
ln
lna
lni
lo
loan
loc
local
localities
location
locations
log
logic
logo
london
lonely
long
longer
longman
longrightarrow
look
looking
looks
lopez
lord
lorde
lorenzo
los
lose
loss
lost
lot
lou
loud
louis
louise
lovato
love
loved
lover
lovers
loves
low
lower
lp
lt
ltd
lu
luca
lucas
lucky
lucy
ludwig
lui
luigi
luis
luke
lum
luna
lundy
lung
luther
luxembourg
lv
lynch
lynn
lyon
lyrics
lzmk
lɑ
lɑt
lɛ
lɛl
m
ma
mac
macdonald
macedonia
machine
macmillan
mad
madame
made
madison
madness
madonna
madrid
mafia
mag
magazine
magic
magliarossonera
magyar
mahasz
mai
mail
main
mainstream
maint
mainz
mais
maison
major
mak
make
maker
makes
making
mal
malaysia
malcolm
male
malone
malta
mama
man
management
manager
manchester
manfred
manga
manhattan
mann
manual
manuel
manutd
many
map
mapping
maps
mar
mara
marc
marca
marcel
march
marco
marcus
margaret
mari
maria
mariah
marie
marilyn
marina
marine
mario
marion
mark
market
marketing
markets
marks
maroon
marriage
married
mars
marseille
marshall
martha
marti
martin
martinez
marvel
marx
mary
maryland
marzo
mask
mason
mass
massachusetts
massacre
massive
master
mastercard
masters
match
matches
material
materials
math
mathbb
mathbf
mathematical
mathematics
mathrm
mathsf
matrix
matt
matter
matters
matthew
maurice
max
maxim
may
maya
mayer
mayo
mayor
mb
mbc
mbox
mc
mccarthy
mcdonald
mcfarland
mcgraw
md
me
mean
meaning
means
mechanics
mechanisms
med
medal
media
mediamax
medical
medicine
medicines
medien
medieval
mediterranean
meduza
meet
meeting
meets
mega
megan
meghan
melanie
melbourne
melissa
member
members
membership
membres
memoir
memoirs
memorial
memories
memory
men
mendes
mental
menu
mer
mercedes
mercury
merriam
mes
message
messi
met
meta
metabolism
metacritic
metal
metallica
metcalf
meteorological
method
methods
metro
metrolyrics
metropolitan
mexican
mexicana
mexico
meyer
mfa
mg
mgm
mi
mia
miami
michael
michel
michelle
michigan
microbiology
microrregia
microsoft
mid
middle
midfielder
midnight
mie
mifflin
might
migration
miguel
mike
mil
milan
milano
mile
miles
miley
military
mill
millennium
miller
million
mills
milton
min
minaj
mind
minds
mine
mineral
mini
minimum
ministe
minister
ministry
minneapolis
minnesota
minor
minorplanetcenter
mint
minute
minutes
mir
miracle
miranda
mirror
mis
miss
missing
mission
mississippi
mit
mitch
mitchell
mix
mixed
mk
ml
mls
mm
mma
mn
mnet
mo
mobile
mod
mode
model
models
modern
moderne
moi
mojo
mol
moldova
molecular
moment
mon
monaco
monday
monde
monetary
money
monica
monitor
monitoring
monster
montana
monte
montgomery
month
monthly
months
montreal
montreux
monument
monuments
moon
moonlight
moore
moral
more
morgan
morning
morocco
morris
morrison
mort
mortality
moscow
mosque
most
mother
motion
motor
mount
mountain
mountains
mouse
move
movement
moves
movie
movies
moving
mp
mr
mrs
ms
msn
mt
mtern
mtv
mu
much
muhammad
multi
multiple
mun
mundo
munich
munici
municipal
municipality
municipios
municipis
munzinger
murder
murphy
murray
muse
museo
museum
museums
music
musica
musical
musicale
musicline
musiikkituottajat
musik
musikindustrie
musique
musk
muslim
must
mut
mv
mx
my
myanmar
myers
myself
myspace
mystery
myth
mythology
myths
mɑ
mɑk
mɑn
mɑs
mɑt
mɑɾ
mɔ
mɔdɛl
məlumat
mɛ
mɛt
n
na
nac
nach
nacional
nacionalna
nagorno
naked
nam
name
named
names
nancy
naoh
napoleon
napoli
narod
narrative
naruto
nas
nasa
nat
natalie
nate
nathan
nation
national
nationalbibliothek
nationale
nationalism
nations
native
nato
natur
natural
nature
naval
naver
navy
nazi
nazionale
nba
nbc
nc
nchen
nchez
nct
nd
nde
ndez
ne
near
nebraska
necessary
nederlandse
need
needs
negro
neil
nel
nellie
nelson
neo
neq
nes
net
netflix
netherlands
network
networks
neue
neurology
neuroscience
never
new
newcastle
newman
news
newsen
newspaper
newspapers
newsru
newsweek
newton
next
nez
nf
nfc
nfl
ng
nga
ngc
ngel
ngua
nh
ni
nia
nica
nice
nicholas
nicht
nick
nickelodeon
nicki
nicola
nicolas
nicole
nie
nielsen
nienia
nigeria
night
nights
nih
nik
nike
nin
nina
nine
nineteenth
nintendo
nissan
nist
nit
nj
nk
nl
nla
nm
nme
nmhh
no
noah
nobel
nobelprize
noble
noel
noir
noise
nokia
nom
nombre
nomenclature
nomination
nominations
nominees
non
nord
normal
normals
norman
normdatei
norsk
norske
north
northern
norton
norway
norwegian
norwegiancharts
norwich
nos
not
notable
note
notes
nothing
notice
noticias
notre
nouveau
nouvelle
nov
nova
novel
novels
november
novgorodstat
now
npr
nr
nrk
ns
nstlerlexikon
nt
nu
nuclear
nueva
nuevo
num
number
numbered
numbers
nun
nursing
nutrition
ny
nyc
nyilvantartasa
nytimes
nz
nɑ
nɑk
nɑl
nɑt
nɔt
nɛ
nɛl
nɛɾ
nɛɾi
nɛɾk
o
obama
obesity
obituaries
obituary
object
objects
obra
observations
observatory
observer
obstetrics
ocean
oceanic
och
oclc
oct
october
octubre
od
oder
oecd
of
off
office
official
officially
officials
officiel
officielle
oficia
oficial
oficiales
og
ographique
oh
ohio
oil
ois
oise
ok
oklahoma
ol
ola
old
oldest
olimpbase
olis
oliver
olivia
olivier
olympic
olympics
olympique
om
omega
on
once
oncology
one
onepage
onerepublic
ones
online
only
onore
ontario
op
opc
open
opening
opens
opera
operation
operations
operatorname
opinion
opposition
option
options
opublikowany
or
ora
oral
orange
orchestra
order
orders
ordre
ore
orf
org
organisation
organization
oricon
orient
oriental
origin
original
originals
origins
orlando
oro
os
oscar
oscars
osen
oslo
osprey
ost
other
others
ottawa
otto
ottoman
ou
oup
our
out
outcomes
outlook
outside
over
overview
owen
own
oxford
oy
oz
p
pa
pablo
pac
pacific
padro
pagasts
page
pages
pai
pain
painter
painters
painting
paintings
pakistan
palace
palazzo
palermo
palestine
palestinian
palgrave
palmer
pamela
pan
panama
panarmenian
panel
panic
panorama
pantheon
paolo
papa
paper
paperback
papers
par
para
parade
paradise
paramount
parents
paris
parish
park
parker
parks
parliament
parliamentary
parque
part
partement
partial
participle
parties
partner
partners
partnership
parts
party
pas
pass
passes
passion
past
patent
path
pathology
patient
patients
patricia
patrick
patterns
paul
paula
paulo
pay
payne
pays
pb
pbs
pc
pd
pdf
pe
peace
peak
pearl
pearson
pediatric
pediatrics
pedro
peerage
pen
penguin
pennsylvania
penske
people
peoples
per
percy
perfect
perform
performance
period
permanent
perry
persian
person
personal
personality
personen
personnes
persons
perspective
perspectives
peru
pet
peter
peters
petersburg
peterson
petit
petski
pez
pg
ph
phantom
pharmacology
phase
phd
phi
phil
philadelphia
philip
philippe
philippines
philips
phillips
philosophical
philosophy
phoenix
phone
phonographic
phonographique
phononet
photo
photographs
photography
photos
php
phys
physical
physician
physicians
physics
physiology
pi
piano
pic
picasso
pick
picks
picture
pictures
pie
piece
pierre
pietro
pilot
pilots
pin
pink
pioneer
pios
pit
pitbull
pitchfork
pittsburgh
piu
pixar
pl
place
placebo
places
plan
plane
planet
planetary
planets
planning
plans
plant
plants
plastic
platform
platin
platina
platinum
play
playboy
played
player
players
playing
playlist
plays
playstation
plaza
please
plos
plus
pm
pmc
pmid
pnas
pnud
po
poblacio
pocket
poe
poems
poet
poetry
poets
point
points
poke
poland
poli
police
policies
policy
polish
political
politico
politics
politique
poll
polo
polska
polski
poor
pop
pope
popolazione
populac
popular
population
populations
por
port
portal
porter
porto
portrait
portraits
portugal
portuguesa
portuguese
portuguesecharts
pos
position
positions
positive
possible
post
postal
postaux
postcode
poste
potential
potter
pour
poverty
powell
power
powerful
powers
pp
pr
practical
practice
practices
prague
praha
pre
pregnancy
preliminary
premie
premier
premiere
premio
prentice
present
presentation
presented
presents
president
presidential
press
presse
presses
pressure
pretty
prevalence
prevention
preview
price
pride
prima
primary
prime
primer
primera
prince
princess
princeton
principles
print
printing
prisa
prison
private
prix
prize
prizes
pro
problem
problems
proc
proceedings
process
processing
produced
producento
producer
product
production
productions
productores
products
produkte
produto
prof
professional
professor
profile
profiles
program
programa
programme
programming
programs
progress
project
projects
proleksis
prometheus
promise
promotion
proof
properties
property
protect
protected
protection
protein
protest
protests
protocol
province
provincia
ps
psg
psi
psychiatric
psychiatry
psychological
psychology
pt
pu
pub
public
publicado
publication
publications
publique
published
publisher
publishers
publishing
puerto
pulmonary
punk
pure
purple
put
puth
putin
px
python
pɑ
pɑn
pɑt
pɑɾ
pɛs
pɛt
q
qadınlar
qatar
qquad
qt
qu
quad
qualifiers
qualifying
quality
quantum
quartal
quartale
quartalsende
quarter
quarterly
que
queen
queens
query
quest
question
questions
qui
quick
quote
quoted
r
ra
race
rachel
racing
rada
radiation
radical
radio
rae
rafael
rai
railway
rain
rainbow
ral
ralph
ram
random
randomized
range
rangle
ranking
rankings
rap
rapid
rapper
rapports
rare
ras
rat
rate
rates
ratings
ration
raw
ray
raymond
rb
rc
rca
rd
re
reach
read
reader
reading
ready
real
realgm
reality
really
reason
reasons
rebecca
rec
receives
recent
receptor
recipients
recognition
recommendations
reconstruction
record
recorded
recording
recordings
records
recovery
red
reed
ref
reference
references
reflections
reform
region
regional
regions
register
regnum
regular
regulation
reich
reid
reign
related
relation
relations
relationship
relationships
relativity
release
released
releases
relief
religion
religions
religious
remains
remember
remix
remixes
ren
renaissance
rene
rentiels
rep
report
reported
reporter
reports
reprint
reprinted
repu
repubblica
republic
required
res
rescue
research
reserve
residente
resistance
resolution
resource
resources
respiratory
response
responsibility
rest
result
resultantes
resultat
results
retail
retrieved
return
returns
reuters
rev
reveal
revealed
reveals
revenge
review
reviews
revised
revisio
revisited
revista
revival
revolution
revolutionary
revue
rex
rey
reynolds
rez
rg
rgen
rhin
rho
rhythm
rhythmic
ri
ria
riaa
ric
rica
rice
rich
richard
richards
richardson
richelieu
rick
rico
ricordi
ride
rie
right
rightarrow
rights
rihanna
riley
ring
rings
rio
rise
rises
rising
risk
rit
rita
river
rivers
rj
rk
rkd
rkdartists
rkiye
rkəmli
rm
rn
rna
ro
road
rob
robert
roberto
roberts
robertson
robin
robinson
rock
rocket
rocky
rodrigo
rodriguez
roger
rogers
roglo
roi
roland
role
roll
rolling
rom
roma
roman
romance
romania
romanian
romantic
rome
romeo
ron
ronald
ronaldo
room
roots
ros
rosa
rose
rosen
rosenberg
roses
ross
rossetti
rosstat
rostov
roth
rotten
rouge
rough
round
route
routledge
row
rowman
roy
royal
rpm
rriyet
rs
rslista
rsssf
rt
rte
rttembergs
ru
ruby
rudolf
rue
rule
rules
rum
run
running
rural
rus
rush
russell
russia
russian
ruth
ry
ryan
rɑt
s
sa
sacred
sad
safe
safety
saga
sage
said
saint
saints
sale
sales
sally
salon
salt
salvador
salzburg
sam
samantha
same
sampdoria
samsung
samuel
san
sanders
sandra
sans
sant
santa
santiago
santos
sar
sara
sarah
satellite
satellites
saturday
saturn
saudi
saunders
saur
savage
save
savoy
saw
say
says
sb
sbs
sc
scale
scandal
scarecrow
scene
scenes
schedule
schizophrenia
schmidt
schneider
scho
scholar
scholars
school
schools
schulz
schuster
schwartz
schweizer
sci
science
sciences
scientific
scientist
scientists
score
scores
scotland
scott
scottish
scream
screen
screening
scribner
script
sculpture
sd
se
sea
seal
sean
search
season
seasons
seattle
sebastian
sec
second
seconds
secret
secretary
secrets
section
sector
security
see
seen
seine
seit
select
selected
selection
selena
self
selling
selon
semaine
semana
semi
sen
senate
senior
sense
sentinel
seo
seoul
sep
sept
september
septiembre
sequel
ser
sera
serbia
serbian
sergio
serial
serie
series
server
service
services
ses
session
set
seth
sets
settimanale
settlement
seven
seventh
several
sevilla
sex
sexual
sexuality
sexy
sezione
sf
sfd
sg
sh
shadow
shadows
shah
shake
shakespeare
shakira
shape
share
shares
shark
sharon
sharp
shaw
shawn
she
sheeran
sheet
sheffield
shi
shin
ship
shock
shoot
shooting
shop
short
shot
should
show
showing
shows
shtml
si
sia
sica
sid
side
sie
sierra
siglo
sigma
sign
signed
signing
signs
sik
sil
silence
silent
silva
silver
sim
simon
simone
simple
simpson
sims
sin
since
sing
singapore
singer
singh
singlar
single
singles
singoli
sings
singular
sir
sister
sisters
sit
site
sites
sito
situation
six
sixth
size
sj
sk
ska
sketch
ski
skin
sky
skyscraperpage
sl
sla
slate
sleep
slotop
slovenian
slow
sm
small
smart
smile
smith
smithsonian
smoke
smoking
sn
snake
snep
snow
sns
so
sobre
soc
soccer
soccerbase
soccerway
social
socialist
socie
societies
society
sociology
sofia
soft
software
sol
solar
sold
soldier
soldiers
solo
solomon
solution
solutions
som
some
somebody
someone
something
somme
son
song
songs
sonic
sons
sony
soo
soompi
soon
sophia
sophie
sorry
sort
sos
soul
sound
soundcloud
sounds
soundtrack
source
sources
sous
south
southampton
southeast
southern
soviet
sp
spa
space
spain
span
spanish
spanishcharts
speak
speaking
spears
special
species
specific
specified
spectrum
speculative
speech
speed
spencer
spice
spider
spiegel
spin
spirit
split
sport
sportbox
sporting
sports
spot
spotify
spotlight
spring
springer
sputnik
spy
sql
sqrt
squad
square
sr
sri
ss
st
sta
staatsbibliothek
stable
stadium
stadt
staff
stage
stalin
stan
stanbul
stand
standard
standards
stanford
stanley
star
starring
stars
start
starts
stat
state
statement
states
station
statistica
statistical
statistiche
statistics
statistik
statistikportal
stats
statue
status
stay
std
ste
steam
steel
stefan
steffen
stein
stella
stem
step
stephanie
stephen
steps
stern
sterreich
sterreichische
sterreichischen
steve
steven
stevens
stewart
stica
stichtag
stichting
still
sto
stock
stockholm
stone
stones
stop
stopklatka
store
storia
storico
stories
storm
story
str
straight
straits
strange
stranger
strategic
strategies
strategy
strauss
stream
streaming
street
stress
strike
striker
string
stroke
strong
structurae
structural
structure
structures
struggle
stuart
student
students
studies
studio
studios
study
stuff
stuttgart
style
styles
su
sub
subject
subscription
subtitle
success
such
sudan
sue
sugar
suicide
suite
sul
sullivan
sultan
sum
summary
summer
summit
sun
sunday
sung
suny
super
superlative
superman
supernatural
suppl
supplement
support
supreme
sur
surface
surgery
surgical
surprise
survey
survival
survivor
sus
susan
sut
suzanne
sv
svensk
svenska
sveriges
sverigetopplistan
sweden
swedish
swedishcharts
sweet
swift
swiss
swisscharts
switch
switzerland
sydney
symbol
symbols
symphony
symposium
symptoms
syndicat
syndrome
synthesis
syracuse
syria
syrian
system
systematic
systems
sza
szo
sɑ
sɑk
sɑn
sɑt
sɔ
sɔt
sɛ
sɛl
sɛɾ
t
ta
tab
table
tables
tag
taiwan
take
taken
takes
taking
tale
talent
tales
taliban
talk
talking
talks
tallinn
tan
target
task
taste
tate
tau
tauris
tax
taylor
tb
tbilisi
te
tea
teacher
teaching
team
teams
tears
teaser
teases
teatr
teatro
teau
tech
technical
techniques
technologies
technology
ted
teen
teenage
tel
telegraph
television
tell
tells
temple
tempo
temps
ten
tennis
ter
teresa
terjesztett
term
terminology
terms
terra
territoriais
territorial
territory
terror
terrorism
terry
tert
tes
tesla
test
testament
testing
texas
text
textbook
texts
tg
th
thailand
thames
than
thank
that
the
theater
theatre
theft
theguardian
their
them
theme
themes
then
theodore
theology
theoretical
theories
theory
therapeutic
therapy
there
these
thesis
theta
they
thing
things
think
thinking
third
this
thomas
thompson
thomson
thor
those
thought
thoughts
thousand
threat
three
thriller
thrones
through
thursday
ti
tica
tico
tidal
tie
tienne
ties
tiffany
tiger
tik
tiktok
til
till
tim
timberlake
time
timeline
times
timothy
tin
tina
tip
tit
titan
titel
title
titles
titre
to
today
todd
together
tokyo
told
toledo
toll
tom
tomatoes
tomb
tome
tomorrow
tonight
tony
too
took
tool
tools
top
tophit
topic
topics
topp
tops
tor
torino
toronto
torre
torres
total
tottenham
touch
tour
tourism
tourist
tournament
tous
tout
toward
towards
tower
town
towns
toxic
toyota
tr
tra
track
tracklisten
tracks
trade
tradition
traditional
traditions
tragedy
trail
trailer
train
training
trainor
trans
transactions
transcript
transfer
transfermarkt
transformation
transition
translated
translation
translator
transmission
transport
trauma
travel
travis
tre
treasure
treat
treatment
treaty
treccani
tree
trees
trends
tres
trial
trials
tribune
tribute
trio
trip
triple
triumph
trophy
tropical
trouble
trt
true
trump
trust
truth
try
ts
tsza
tt
tu
tucker
tudes
tuesday
tulo
tum
tun
turismo
turkey
turkish
turks
turn
turner
turns
tut
tv
tvn
twain
twentieth
twenty
twice
twilight
twin
twitter
two
ty
tyler
type
types
tytuł
tɑ
tɑk
tɑl
tɑn
tɑɾ
tɔ
tɔɾ
tɛ
tɛl
tɛɾ
tɛʁ
u
ua
uab
uc
ucla
ud
udinese
uefa
ufc
ufficiale
ujt
uk
ukraine
ukrainian
ukrcensus
ul
ulrich
ultimate
ultra
ultratip
ultratop
um
umb
un
una
und
under
underground
understanding
une
unesco
uni
unidas
union
unique
unit
united
units
unity
univ
universal
universe
universidad
universita
universite
universities
university
unknown
uno
unspecified
until
untranslated
unveils
up
uparrow
upcoming
update
updated
updates
uploads
upon
upper
ur
urban
url
uruguay
us
usa
use
used
user
users
uses
using
ut
utah
utc
utd
uyezd
uz
uʁ
v
va
vaccine
val
vald
vale
valencia
valle
valley
value
values
valve
vampire
van
vancouver
vanity
var
varepsilon
variety
various
varphi
vatican
vauthors
ve
vec
ved
vegas
velvet
venezia
venezuela
venice
venus
ver
vera
verge
verlag
verona
version
versus
very
vetse
vevo
vg
vh
vhs
vi
via
vice
victims
victor
victoria
victorian
victory
vida
video
videogramas
videos
vie
vienna
viertes
vietnam
view
views
vii
viii
viking
villa
village
villages
villarreal
ville
villes
vilnius
vincent
vintage
vinyl
violence
viral
virgin
virginia
virtual
virus
visa
vision
visit
visitor
vista
visual
vit
vita
vitamin
viva
vivo
vladimir
vlasenko
vo
vogue
voice
voices
void
vol
volcano
volkswagen
vols
volume
volumes
vom
von
voor
vote
vox
voyage
vr
vrier
vs
vt
vulture
vum
vɑ
vɑjɾ
vɑk
vɑt
vɑɾ
vɔt
vɔɾ
vɛl
vɛt
vɛɾ
vɛɾd
w
wa
wagner
waiting
wake
wales
walk
walker
walking
wall
wallace
walsh
walt
walter
wang
wanna
want
wanted
wants
war
ward
warfare
warner
warren
warrior
wars
warszawa
was
washington
watch
water
waters
watson
watts
wave
waves
way
wayback
wayne
ways
wcm
we
weapons
weather
web
webb
webcitation
weber
website
webster
wedding
wednesday
week
weekend
weekly
weeknd
weeks
weight
weir
weiss
welcome
welcomes
well
welle
wells
welt
wendy
went
were
werk
werner
wesley
west
western
westport
what
when
where
which
while
white
whitney
who
whois
whole
whoscored
whose
why
wi
wide
wie
wien
wiener
wife
wiki
wikilink
wikimedia
wikipedia
wikisource
wild
wildlife
wiley
wilhelm
wilkins
will
william
williams
wilson
win
wind
windows
wine
winehouse
wings
winner
winners
winning
wins
winston
winter
wire
wired
wisconsin
wish
wissen
with
within
without
witness
wiz
wk
wo
wolf
wolfgang
wolves
woman
women
won
wonder
wonderful
woo
wood
woods
word
wordpress
words
work
workers
working
works
workshop
world
worldcat
worldfootball
worlds
worldtimezone
worldwide
worst
worth
would
wp
wps
wrestling
wright
write
writer
writers
writing
writings
written
wrld
wrong
wta
wu
wwe
wwf
www
wydawnictwo
wyro
x
xbox
xd
xe
xi
xico
xii
xiii
xiv
xix
xls
xlsx
xml
xrightarrow
xv
xvi
xvii
xviii
xx
xxi
xxii
xxl
xxx
xxxtentacion
y
ya
yahoo
yale
yang
ye
year
yearbook
years
yellow
yerevan
yes
yet
yg
yle
yleisradio
yo
yoon
york
yorker
you
young
your
yourself
youth
youtube
ysu
yu
yves
z
za
zagreb
zayn
ze
zealand
zeit
zeitschrift
zeitung
zek
zero
zhang
zi
zn
zone
zones
zoo
zpav
zu
zum
zur
zwia
zyk
zɑ
zɑjn
zɑk
zɑɾd
zɛv
{
|
}
~
¡
¢
£
¥
¦
§
¨
©
ª
«
¬
­
®
¯
°
±
²
³
´
µ
·
¹
º
»
½
¾
¿
×
ß
æ
ð
÷
ı
ł
ŋ
ɑ
ɑd
ɑj
ɑjin
ɑjl
ɑjt
ɑk
ɑkɑn
ɑl
ɑn
ɑnd
ɑnt
ɑnɑ
ɑp
ɑr
ɑrn
ɑrɑd
ɑt
ɑv
ɑŋ
ɑŋk
ɑɾ
ɑɾt
ɑɾɑ
ɑʁ
ɑʁɑk
ɑʃ
ɔ
ɔd
ɔk
ɔn
ɔp
ɔs
ɔt
ɔɾ
ɔɾd
ɔʁ
ə
ɛ
ɛk
ɛl
ɛt
ɛv
ɛɾ
ɛɾi
ɛɾt
ɡ
ɡi
ɡin
ɡit
ɡiɾ
ɡl
ɡujn
ɡɑ
ɡɔ
ɡɔɾt
ɡɛt
ɾ
ɾi
ɾik
ɾit
ɾuk
ɾum
ɾɑ
ɾɑk
ɾɑn
ɾɑt
ɾɑɾ
ɾɔ
ɾɔn
ɾɔt
ɾɛl
ɾɛn
ʁ
ʁi
ʁik
ʁt
ʃ
ʃi
ʃum
ʃɑ
ʃɑk
ʃɑn
ʃɑt
ʃɑɾ
ʃɛl
ʃɾd
ʒ
ʒin
ʒum
ʒuɾ
ʒɑ
ʒɑn
ʒɔt
ʰ
ʰˈ
ʰː
ʲ
ʹ
ʻ
ʼ
ʾ
ʿ
ˈ
ˋ
ˌ
ː
˙
˚
̀
́
̂
̃
̄
̆
̇
̈
̉
̊
̋
̌
̓
̔
̛
̜
̣
̥
̦
̧
̨
̪
̯
̱
̸
͂
ͅ
͡
΄
α
απογραφη
ας
β
γ
δ
δη
δημοκρατι
δος
ε
ελλα
ζ
η
θ
ι
κ
και
κυπριακη
λ
μ
με
μο
ν
να
νιμος
ξ
ο
ου
π
πληθυσμο
πληθυσμου
ρ
ς
σ
στατιστικη
τ
τα
τη
της
το
του
των
υ
υπηρεσι
φ
χ
ψ
ω
ϑ
ϕ
ϵ
а
абхазии
август
августа
авт
автор
агентство
администрации
администрация
адыгея
азбука
азербаи
азии
аи
акад
академии
академическии
академического
академия
акте
акчан
алгоритм
алекса
александр
александра
александрович
алексеевич
алексеи
аль
альбом
альманах
америки
ан
анализ
анастасия
анатолии
англ
англии
андреевич
андреи
анна
антон
апреля
аргентина
аргументы
армении
армения
армии
армия
армсср
армян
армяне
армянская
армянские
армянскии
армянского
армянскои
арсении
арт
арутюнян
архив
архивированная
архивировано
архитектура
архитектуры
аспекты
ассоциации
ассоциация
аст
астрель
атлас
афиша
б
баи
баку
банк
без
безопасности
беларуси
беларусь
белыи
би
библиотека
бизнес
биографии
биографическая
биографическии
биография
бои
более
большая
больше
большои
борис
брокгауз
брокгауза
будет
българия
бы
был
была
были
было
быть
бюро
в
ва
ваи
валерии
василии
васильев
васильевич
вв
введение
ведомости
век
века
веков
великая
великие
великии
великих
великого
великои
вера
версии
версия
верховного
весенняя
вести
вестник
вече
вечернии
взгляд
видатних
видео
византии
визнала
виктор
виталии
вка
владимир
владимира
владимирович
власти
власть
во
водныи
воениздат
военная
военно
военное
военные
военныи
военных
вои
вокруг
вопросу
вопросы
воспоминания
восток
востока
восточная
восточнои
впервые
време
времен
времени
временная
время
все
всего
всемирная
всероссии
всесоюзная
всех
вставьте
вступ
вторая
второи
вузов
вы
выборах
выборг
выдающихся
вып
выпуск
выпускников
выставка
выставки
высшая
вячеслав
від
г
газета
газете
газеты
гаи
галерея
галина
гвардия
гг
где
геи
гельбке
генерал
география
георгиевскии
георгии
германии
герои
гл
глава
главная
главныи
главы
го
год
года
годов
году
годы
голос
город
города
городе
городов
городских
городского
городскои
горького
гос
государства
государственная
государственного
государственное
государственнои
государственныи
государственными
государство
григории
григорьевич
грудня
грузии
группа
группы
д
да
дан
данные
данным
данных
дата
два
две
двух
де
деи
декабря
дел
дела
дело
делу
день
деньги
дет
детеи
дети
детская
деятельности
деятельность
дж
джан
джана
джане
джанскои
джеи
джон
динамо
дипломатических
дипломатического
дис
для
дмитриевич
дмитрии
дневник
днеи
дни
дня
до
доктора
документов
документы
дом
дома
дон
дона
дону
доп
дор
доров
дорога
достоевскии
дочь
др
древнего
древнеи
древностеи
друг
другие
других
дсту
е
евгении
евгения
евреи
европа
европеи
европы
его
ее
ежегодник
екатерина
екатеринбург
елена
ер
ереван
ес
если
есть
ефрон
ефрона
еще
ж
жан
же
женщин
женщина
женщинах
женщины
живописи
живопись
животных
жизни
жизнь
журнал
журнала
журнале
жінок
з
за
завод
заи
закарпатська
закон
заметки
зангезурскии
занятость
записки
звания
зве
звезда
здесь
зелинскии
земли
земля
знание
золотая
золотои
зональная
и
иа
иван
иванов
иванова
иванович
игорь
игр
игра
игры
идеи
из
избранные
известия
изд
издание
издания
издательскии
издательство
изобразительное
израиль
израиля
ил
или
илл
илья
им
имена
имени
империи
имя
ин
индекс
индии
иностранных
институт
института
интервью
интернет
интерфакс
информации
информационное
информационныи
информация
ипээ
ирина
искусств
искусства
искусстве
искусство
испании
испр
исследование
исследовании
исследования
истории
историко
историческая
исторические
историческии
история
источник
италии
итар
итоги
их
июля
июня
к
ка
кавказа
кавказскии
казань
казахстан
как
календарь
канал
кандидата
канскии
капков
карл
карта
картины
карты
каталог
кеи
ки
киев
кино
китаи
киі
кладбище
класса
классических
классическои
клип
клуб
кн
книга
книге
книги
книжное
ко
когда
коллекция
комиссии
комитет
комитета
комментарии
коммерсантъ
компании
комплекс
комсомолец
комсомольская
конец
константин
контракт
конференции
конференция
конца
копия
которые
которыи
краи
красная
краснодар
красныи
краткая
краткии
края
кругосвет
крым
крыма
кто
кубок
кузнецов
куинджи
культура
культуре
культурного
культуры
курс
куторга
л
ла
лаи
латвии
ле
лев
леи
лекции
лениздат
ленинград
ленинграда
ленинградская
ленинградскии
ленинградских
ленинградскои
лента
леонид
лер
лет
летию
ли
лига
лит
литература
литературе
литературная
литературное
литературныи
литературы
лица
личности
лов
лович
лучшие
лучшии
лучших
ль
любви
любкер
любкеру
любовь
людеи
люди
людмила
м
ма
маи
максим
малая
малыи
марии
марина
мария
марк
март
марта
мастер
мастера
математика
математики
материалов
материалы
матч
матча
мая
мвд
мгу
ме
медведев
медиа
медицина
между
международная
международного
международнои
международныи
мемориал
мемориальныи
меня
места
место
методы
мещеряков
мид
министерства
министерство
министр
министра
минск
мир
мира
мире
мировои
мифы
михаи
михаил
михаила
млн
мн
мне
мо
мов
может
можно
мои
молодая
молоде
монография
море
москва
москве
москвы
московская
московскии
московского
московскои
моя
мс
муз
музее
музеи
музея
музыка
музыкальная
музыкальныи
музыки
мультипликации
мультфильмы
муниципальным
мы
мысли
мысль
н
на
навального
наградами
награды
награждении
над
надежда
назвал
названии
названия
назначении
наи
нам
народа
народная
народныи
народов
нас
населе
население
населения
населення
наследие
наследия
наталья
наук
наука
науки
науч
научная
научно
научнои
научныи
научных
национальная
национального
национальнои
национальныи
начала
начале
начало
наш
наша
наше
наши
наших
ная
наявного
не
недели
независимая
неи
неизвестныи
некоторые
нем
нет
ни
нии
никитин
николаевич
николаевна
николаи
николая
нная
нные
нныи
нным
нных
но
нов
нова
новая
новеи
нович
нового
новое
новои
новосибирск
новостеи
новости
новые
новыи
новым
новых
ного
нои
нок
ночь
ноября
нп
нська
нтв
ну
ны
ные
ныи
ным
ных
нью
о
об
обзор
обл
области
область
облрада
обозрение
обороны
образование
образования
образованиям
обращения
общ
общая
общеи
общества
общество
объявил
один
одна
одного
однои
октябрь
октября
олег
олимпии
олма
ольга
он
она
они
онлаи
онов
оон
ооо
описание
опыт
организации
организация
орденом
орк
оружие
осенняя
осипов
основные
основы
особенности
особливии
остров
острова
от
отв
отец
отечественного
отечественнои
открытие
отношении
отношения
официально
официальном
официальныи
очень
очерк
очерки
п
павел
павлович
памяти
памятник
памятники
памятников
память
париж
парк
партии
пе
педагогики
пер
первая
первого
первое
первои
первоисточника
первоцвет
первые
первыи
перевод
перед
переписи
перепись
перераб
период
перспективы
песни
песня
петербург
петербурга
петербурге
петербургского
петров
петрович
писателеи
писатели
писатель
письма
письмо
питер
план
площадь
по
победы
повести
повесть
под
подвиг
подписал
поиска
поле
политиздат
политика
политики
политическая
политических
политическои
полное
полномочного
полномочным
половины
полу
получил
польск
попов
порошенко
портал
портрет
посвяще
посла
после
последние
последнии
послом
пособие
посольство
пост
постановление
постоянного
поче
почему
поэзии
поэзия
права
правда
правительства
правительство
право
практика
предисл
предисловие
президент
президента
президиума
премии
премия
премьер
премьера
пресс
при
приведены
приказ
приключения
примечание
принт
природа
присвоении
про
проблем
проблема
проблемы
проверено
программа
прогресс
проект
проекта
проза
произведении
произведения
просвещение
просто
против
протокол
проф
профиль
прохоров
психологии
психология
пунктам
путеводитель
путешествие
пути
путин
путина
путь
пушкин
пушкина
пять
р
ра
работы
рабочии
рада
ради
радио
раз
развитие
развития
раздел
размещение
раи
ран
ранга
рангов
распоряжение
рассказ
рассказал
рассказы
растении
растения
рбк
реальныи
революции
революция
ред
редактор
редакциеи
редакция
редкол
реестр
режиссе
результаты
реи
река
репина
республика
республиканская
республике
республики
рецензия
решение
решения
риа
роберт
рождения
року
роль
роман
россии
россию
россия
ростов
ростова
ростовскои
рсфср
ру
руководство
румунськоі
рус
русинськоі
русская
русские
русскии
русских
русско
русского
русское
русскои
русском
рф
ры
с
са
сад
саи
самои
самые
самыи
самых
санкт
сб
сборник
сборнои
св
света
светлана
свобода
своеи
свои
своих
свою
связи
связь
святого
се
себе
себя
сегодня
сезон
сеи
семе
семеи
семьи
сентября
сер
сергеевич
сергеи
сергея
сердце
серии
серия
си
сирии
система
системы
ск
ска
сказка
сказки
ская
ские
скии
ских
ского
ское
скои
ском
скончался
скульптура
скульптуры
славы
слов
слова
словари
словарь
слово
служба
службы
см
смерти
смерть
сми
смирнов
снова
со
собрание
собрания
сов
совет
совета
советская
советскии
советского
советскои
современная
современник
современного
современнои
современные
соколов
сост
состав
составитель
состоянию
софия
социально
соцреализм
соч
сочинении
сочинения
союз
союза
спартак
спб
список
спорт
спорта
справка
справочник
среди
сср
ссср
ссылка
ст
стал
стала
стали
статеи
статистика
статистики
статистику
статистическии
статус
статьи
статья
ств
ства
стве
ствия
ство
степени
стихи
стихотворения
стр
стран
стране
страница
страницы
страны
строку
студентов
суд
судьба
судьбы
сша
сын
ся
сільська
січня
т
та
таблица
таганрог
таи
так
также
такое
там
тасс
татьяна
тбилиси
тв
творчества
творчестве
творчество
те
театр
театра
театральная
тебя
текст
телеканал
телерадиокомпании
теории
теория
тер
территории
техника
техники
технологии
ти
тинг
тип
типография
тифлис
то
тов
толстои
только
том
томах
топ
тр
традиции
тре
три
труда
труды
ту
тур
турции
ты
тысяч
у
убии
угорськоі
уезд
уже
указ
украина
украине
украинская
украины
украі
улица
умер
ун
униан
университет
университета
управление
управления
уругваи
уткин
уфа
уче
учеб
учебник
учебное
учреждение
учтена
ф
факты
фантастики
фе
февраля
федеральное
федерации
фестиваль
фестиваля
физики
филологии
философии
философия
фильм
фильма
фильме
фильмов
фильмы
фк
фонд
фонда
фото
фотографии
фр
франции
футбол
х
хаи
химии
химия
хозяи
холокоста
хорв
храм
хроника
художеств
художественная
художественные
художественныи
художник
художника
художники
художников
хх
ц
центр
центра
центральныи
центрполиграф
церкви
церковь
цска
цы
ч
чаи
чарты
час
частично
часть
че
человек
человека
чем
чемпионат
через
четыре
чехов
чехова
чисельність
численность
число
членов
члены
чрезвычаи
что
чтобы
ш
швед
швеи
ших
школа
школы
шоу
ъ
ы
ь
э
эволюции
эдуард
эи
экз
экологии
экономика
экономики
экс
эксмо
экспресс
электронная
энциклопедии
энциклопедическии
энциклопедия
эпохи
эстонии
это
этом
эхо
ю
юбилеи
юлия
юрии
я
яз
язык
языка
языке
языки
яи
января
яндекс
яп
яңы
є
і
інформаціі
՚
՛
՜
՝
՞
ա
աա
աբ
աբաս
աբբայության
աբբաս
աբգար
աբգարյան
աբդ
աբդել
աբդուլ
աբել
աբելյան
աբեղա
աբեղյան
աբեղյանի
աբիսողոմ
աբխազական
աբխազիայի
աբովյան
աբովյանը
աբովյանի
աբու
աբստրակտ
աբրահամ
աբրահամի
աբրահամյան
աբրահամյանը
աբրահամյանի
աբրուցո
ագ
ագաթա
ագահ
ագարակ
ագն
ագնես
ագուլիս
ագուցված
ագռավ
ագռավը
ագռավի
ագրարային
ագրեսիայի
ագրեսիվ
ագրոէկոլոգիական
ադ
ադա
ադամ
ադամանդ
ադամանդե
ադամը
ադամի
ադամյան
ադամս
ադամսը
ադամսի
ադանա
ադանայի
ադել
ադեկվատ
ադիջե
ադմինիստրատիվ
ադոլֆ
ադրբ
ադրբեջան
ադրբեջանական
ադրբեջաներեն
ադրբեջանը
ադրբեջանի
ադրբեջանին
ադրբեջանում
ադրբեջանցի
ադրբեջանցիներ
ադրբեջանցիները
ադրբեջանցիների
ադրիան
ադրիատիկ
աեֆ
ազ
ազատ
ազատագրական
ազատագրել
ազատագրման
ազատագրմանը
ազատագրության
ազատագրում
ազատագրումը
ազատագրումից
ազատագրված
ազատագրվել
ազատազրկման
ազատազրկում
ազատական
ազատամարտի
ազատամարտիկ
ազատամարտիկների
ազատել
ազատելու
ազատեց
ազատի
ազատման
ազատորեն
ազատության
ազատություն
ազատությունը
ազատությունները
ազատությունների
ազատում
ազատված
ազատվել
ազատվելով
ազատվելու
ազատվելուց
ազատվեց
ազատվում
ազգ
ազգաբնակչության
ազգագրագետ
ազգագրական
ազգագրության
ազգական
ազգականների
ազգակից
ազգակցական
ազգամիջյան
ազգային
ազգայնական
ազգայնականների
ազգայնականության
ազգանուն
ազգանունը
ազգանունների
ազգանունով
ազգանվան
ազգեր
ազգերը
ազգերի
ազգը
ազգի
ազգին
ազգությամբ
ազգության
ազգությունը
ազգությունների
ազդակ
ազդակների
ազդանշան
ազդանշանային
ազդանշանը
ազդանշանի
ազդանշաններ
ազդանշանների
ազդել
ազդելու
ազդեց
ազդեցիկ
ազդեցությամբ
ազդեցության
ազդեցությանը
ազդեցություն
ազդեցությունը
ազդեցությունից
ազդեցությունն
ազդեցություններ
ազդեցությունները
ազդեցությունների
ազդեցություններից
ազդող
ազդում
ազդրի
ազիզ
ազնիվ
ազնվական
ազնվականական
ազնվականի
ազնվականների
ազնվականության
ազնվականությունը
ազովի
ազոտ
ազոտական
ազոտային
ազոտի
աթա
աթաթուրքի
աթեիստ
աթեիստի
աթենական
աթենք
աթենքի
աթենքում
աթոռ
աթոռը
աթոռի
աթոռին
աթս
աժ
աիդա
ալ
ալաբամա
ալագոաս
ալան
ալաշկերտ
ալաշկերտի
ալավերդի
ալավերդու
ալբ
ալբանական
ալբանացի
ալբաներեն
ալբանիա
ալբանիայի
ալբանիայում
ալբանիան
ալբեր
ալբերտ
ալբերտը
ալբերտի
ալբերտո
ալբոմ
ալբոմը
ալբոմի
ալբոմին
ալբոմից
ալբոմն
ալբոմներ
ալբոմները
ալբոմների
ալբոմներից
ալբոմով
ալբոմում
ալբրեխտ
ալգորիթմ
ալգորիթմը
ալգորիթմի
ալեխանդրո
ալեն
ալենը
ալեսանդրո
ալերգիկ
ալեք
ալեքս
ալեքսան
ալեքսանդր
ալեքսանդրա
ալեքսանդրան
ալեքսանդրապոլ
ալեքսանդրապոլի
ալեքսանդրապոլում
ալեքսանդրը
ալեքսանդրի
ալեքսանդրիա
ալեքսանդրիայի
ալեքսանդրիայում
ալեքսանդրյան
ալեքսանդրովիչ
ալեքսանդրովկա
ալեքսանդրովնա
ալեքսանյան
ալեքսեյ
ալեքսեյը
ալեքսեևիչ
ալեքսը
ալեքսի
ալեքսիս
ալթայի
ալժիր
ալժիրի
ալժիրում
ալի
ալիի
ալին
ալինա
ալիշան
ալիս
ալիսա
ալիսան
ալիսը
ալիք
ալիքաձև
ալիքային
ալիքը
ալիքի
ալիքներ
ալիքները
ալիքների
ալիքներով
ալիքով
ալիքում
ալիևը
ալիևի
ալլա
ալկոհոլ
ալկոհոլային
ալկոհոլի
ալմա
ալմաստ
ալյասկայի
ալյեի
ալյումինի
ալյուր
ալյուրի
ալյուրից
ալշ
ալպեր
ալպերի
ալպիական
ալպյան
ալտ
ալտերնատիվ
ալտո
ալֆա
ալֆոնս
ալֆոնսո
ալֆրեդ
ախ
ախալցխա
ախալցխայի
ախալքալաքի
ախար
ախորժակը
ախորժակի
ախորժելի
ախուրյան
ախուրյանի
ախչիկ
ախչիկը
ախպեր
ախտաբանական
ախտածին
ախտահարման
ախտահարում
ախտահարված
ախտահարվում
ախտանիշ
ախտանիշներ
ախտանիշները
ախտանիշների
ախտանշանները
ախտանշանների
ախտորոշիչ
ախտորոշման
ախտորոշում
ախտորոշումը
ախտորոշվել
ախտորոշվում
ախր
ախֆսհ
ած
ածական
ածանցյալ
ածել
ածխաթթու
ածխածնային
ածխածնի
ածխաջրերի
ածխի
ածուխ
ածուխի
ածում
ածվում
ակ
ակադեմիա
ակադեմիական
ակադեմիայի
ակադեմիային
ակադեմիայում
ակադեմիան
ակադեմիաների
ակադեմիկոս
ակամա
ական
ականավոր
ականատես
ականատեսների
ականներ
ականները
ականների
ականներին
ականներից
ականջ
ականջը
ականջի
ականջին
ականջները
ականջների
ակն
ակնառու
ակնարկ
ակնարկը
ակնարկներ
ակնարկների
ակնարկում
ակնթարթային
ակնկալում
ակնկալվում
ակնհայտ
ակնհայտորեն
ակումբ
ակումբային
ակումբը
ակումբի
ակումբին
ակումբից
ակումբն
ակումբներ
ակումբները
ակումբների
ակումբներից
ակումբներում
ակումբում
ակունք
ակունքը
ակունքից
ակունքն
ակունքները
ակուստիկ
ակսել
ակվիտանիա
ակտ
ակտերի
ակտը
ակտի
ակտիվ
ակտիվանում
ակտիվացման
ակտիվացնում
ակտիվի
ակտիվիստ
ակտիվիստների
ակտիվները
ակտիվների
ակտիվորեն
ակտիվությամբ
ակտիվության
ակտիվություն
ակտիվությունը
ակր
ակցիա
ակցիայի
ակցիաներ
ակցիաների
ահ
ահա
ահաբեկիչների
ահաբեկչական
ահաբեկչության
ահաբեկչություն
ահագին
ահավոր
ահարկու
ահարոն
ահեղ
ահկ
ահմադ
ահմեդ
ահռելի
աձև
աղ
աղա
աղաբաբյան
աղախին
աղախինը
աղաղակ
աղայան
աղայի
աղային
աղան
աղաչում
աղաջանյան
աղասի
աղասին
աղասու
աղավաղված
աղավնի
աղավնին
աղավնու
աղացած
աղբ
աղբար
աղբի
աղբյուր
աղբյուրը
աղբյուրի
աղբյուրից
աղբյուրն
աղբյուրներ
աղբյուրները
աղբյուրների
աղբյուրներին
աղբյուրներից
աղբյուրներով
աղբյուրներում
աղդամի
աղեկ
աղեղ
աղեղը
աղեղի
աղեստամոքսային
աղետ
աղետալի
աղետը
աղետի
աղետների
աղեր
աղերը
աղերի
աղը
աղթամարի
աղի
աղիների
աղիքային
աղիքի
աղիքների
աղմկոտ
աղմուկ
աղմուկը
աղմուկի
աղմուկով
աղյուս
աղյուսակ
աղյուսակը
աղյուսակի
աղյուսակում
աղյուսե
աղյուսից
աղոթել
աղոթում
աղոթք
աղոթքը
աղոթքի
աղոտ
աղու
աղջի
աղջիկ
աղջիկը
աղջիկն
աղջիկներ
աղջիկները
աղջիկների
աղջիկներին
աղջիկներից
աղջիկս
աղջկա
աղջկան
աղջկանը
աղվան
աղվանից
աղվանքի
աղվես
աղվեսը
աղվեսի
աղվոր
աղտոտման
աղտոտված
աղցան
աղքատ
աղքատիկ
աղքատների
աղքատներին
աղքատության
աղքատությունը
աճ
աճառյան
աճառյանի
աճել
աճեմյան
աճեց
աճեցման
աճեցնել
աճեցնում
աճեցվում
աճը
աճի
աճին
աճման
աճյունը
աճող
աճով
աճում
աճուրդի
աճուրդում
ամ
ամա
ամադեուս
ամազոնի
ամայի
աման
ամանդա
ամանի
ամանորի
ամանորյա
ամաչկոտ
ամաչում
ամառ
ամառային
ամառանոց
ամառանոցը
ամառանոցում
ամառը
ամառներով
ամառվա
ամասիա
ամասիայի
ամատունի
ամարաս
ամբարտակի
ամբիոն
ամբիոնը
ամբիոնի
ամբիոնում
ամբոխը
ամբոխի
ամբողջ
ամբողջական
ամբողջականության
ամբողջականությունը
ամբողջապես
ամբողջը
ամբողջովին
ամբողջությամբ
ամբողջության
ամբողջություն
ամբողջությունը
ամեն
ամենա
ամենաազդեցիկ
ամենաարագ
ամենաարդյունավետ
ամենաարժեքավոր
ամենաբարձր
ամենագեղեցիկ
ամենագործածական
ամենաերիտասարդ
ամենաերկար
ամենաթանկ
ամենալավ
ամենախոշոր
ամենածանր
ամենակարճ
ամենակարող
ամենակարևոր
ամենակարևորը
ամենահաճախ
ամենահայտնի
ամենահայտնին
ամենահաջողակ
ամենահաջողված
ամենահարուստ
ամենահեղինակավոր
ամենահզոր
ամենահին
ամենամեծ
ամենամեծը
ամենամեծն
ամենամյա
ամենամոտ
ամենայն
ամենայնի
ամենանշանակալի
ամենանշանավոր
ամենաշատ
ամենաշատը
ամենաուժեղ
ամենապարզ
ամենասիրելի
ամենավաղ
ամենավառ
ամենավատ
ամենատարածված
ամենատարբեր
ամենացածր
ամենափոքր
ամենափրկիչ
ամենաքիչ
ամենաքիչը
ամենեն
ամենեւին
ամենը
ամենի
ամենին
ամենից
ամենն
ամենուն
ամենուր
ամենուրեք
ամենքը
ամենքի
ամենքին
ամենքն
ամենօրյա
ամենևին
ամերիկա
ամերիկական
ամերիկահայ
ամերիկայի
ամերիկայից
ամերիկայում
ամերիկան
ամերիկացի
ամերիկացիներ
ամերիկացիները
ամերիկացիների
ամերիկյան
ամէ
ամէն
ամին
ամինաթթուների
ամիս
ամիսը
ամիսներ
ամիսները
ամիսների
ամիսներին
ամիր
ամիրյան
ամկ
ամհ
ամյա
ամյակը
ամյակի
ամյակին
ամյեն
ամն
ամոթ
ամոթալի
ամոթի
ամոնիակի
ամուսին
ամուսինը
ամուսինն
ամուսինները
ամուսինների
ամուսիններն
ամուսնալուծության
ամուսնալուծվել
ամուսնական
ամուսնանա
ամուսնանալ
ամուսնանալու
ամուսնանում
ամուսնացած
ամուսնացան
ամուսնացավ
ամուսնացել
ամուսնացնել
ամուսնու
ամուսնության
ամուսնություն
ամուսնությունը
ամուսնությունից
ամուսնությունն
ամուսնությունները
ամուսնությունների
ամուսնուն
ամուսնուց
ամուր
ամուրի
ամպ
ամպամած
ամպեր
ամպերը
ամպերի
ամպը
ամպի
ամռան
ամռանը
ամսագիր
ամսագիրը
ամսագրեր
ամսագրերի
ամսագրերում
ամսագրի
ամսագրին
ամսագրից
ամսագրում
ամսաթիվ
ամսաթիվը
ամսական
ամսի
ամսին
ամսից
ամսով
ամսում
ամսվա
ամստերդամ
ամստերդամի
ամստերդամում
ամրագրված
ամրանում
ամրապնդել
ամրապնդելու
ամրապնդման
ամրապնդմանը
ամրապնդում
ամրապնդվել
ամրացման
ամրացնել
ամրացնելու
ամրացնում
ամրացված
ամրացվում
ամրոց
ամրոցը
ամրոցի
ամրոցից
ամրոցն
ամրոցներ
ամրոցները
ամրոցների
ամրոցում
ամրության
ամրություն
ամրությունը
ամրությունները
ամրությունների
ամփոփ
ամփոփել
ամփոփիչ
ամփոփում
ամփոփված
ամփոփվել
այ
այաքսի
այբ
այբբենական
այբուբեն
այբուբենը
այբուբենի
այգեգործությամբ
այգեստան
այգի
այգին
այգիներ
այգիները
այգիների
այգիներում
այգու
այգում
այդ
այդմ
այդուհանդերձ
այդպես
այդպիսի
այդպիսին
այդպիսիք
այդպիսով
այդտեղ
այդտեղից
այդքան
այժմ
այժմյան
այլ
այլաբանական
այլանդակ
այլապես
այլենդ
այլեւ
այլեւս
այլընտրանք
այլընտրանքային
այլն
այլնի
այլոց
այլուր
այլք
այլև
այլևս
այծ
այծի
այն
այնինչ
այնշտայնը
այնշտայնի
այնուամենայնիվ
այնուհանդերձ
այնուհետ
այնուհետեւ
այնուհետև
այնչափ
այնպես
այնպէս
այնպիսի
այնպիսին
այնտեղ
այնտեղի
այնտեղից
այնքա
այնքան
այո
այովա
այս
այսինչ
այսինքն
այսուամենայնիվ
այսուհետ
այսուհետև
այսպես
այսպէս
այսպիսի
այսպիսին
այսպիսով
այստեղ
այստեղի
այստեղից
այսքան
այսօր
այսօրվա
այվազյան
այվազովսկու
այտուց
այր
այրարատ
այրել
այրես
այրեսի
այրեսում
այրի
այրին
այրման
այրող
այրում
այրված
այրվել
այրվող
այրվում
այց
այցելած
այցելել
այցելելով
այցելելու
այցելեց
այցելեք
այցելու
այցելության
այցելություն
այցելությունը
այցելությունների
այցելուի
այցելում
այցելուները
այցելուների
այցելուներին
այցը
այցի
ան
անա
անագի
անադիր
անալիզ
անալիզի
անալիտիկ
անախորժ
անակնկալ
անահիտ
անամոթ
անանիա
անանկ
անանյան
անանուն
անաշխատանք
անաշխատունակ
անաշխատունակներից
անաչառ
անապահով
անապատ
անապատային
անապատը
անապատի
անապատում
անառակ
անառիկ
անասելի
անասն
անասնաբուժական
անասնաբուծական
անասնապահությամբ
անասնապահության
անասնապահություն
անասնապահությունը
անասնապահությունն
անասուն
անասուններ
անասունները
անասունների
անասուններին
անաստասիա
անավարտ
անատոլի
անատոլիայի
անատոլիայում
անատոմիա
անատոմիական
անատոմիայի
անարատ
անարգ
անարգել
անարդար
անարդյունավետ
անարժան
անբաժան
անբաժանելի
անբախտ
անբասիր
անբավարար
անբավարարության
անբավարարություն
անբավարարությունը
անբարենպաստ
անբարոյական
անբացատրելի
անբնական
անբուժելի
անգամ
անգամից
անգամն
անգամներ
անգին
անգիտակից
անգիր
անգլ
անգլալեզու
անգլերեն
անգլերենը
անգլերենի
անգլերենին
անգլերենից
անգլերենով
անգլերենում
անգլիա
անգլիական
անգլիայի
անգլիայից
անգլիայում
անգլիան
անգլիացի
անգլիացին
անգլիացիները
անգլիացիների
անգլո
անգնահատելի
անգոլայի
անգործ
անգործունակ
անգութ
անգուլեմ
անգույն
անդ
անդադար
անդալուսիա
անդամ
անդամագրվել
անդամակցել
անդամակցելու
անդամակցության
անդամակցությունը
անդամակցում
անդամը
անդամի
անդամից
անդամն
անդամներ
անդամները
անդամների
անդամներին
անդամներից
անդամներն
անդամության
անդառնալի
անդերս
անդերսենի
անդերսոն
անդերսոնը
անդերսոնի
անդին
անդորր
անդունդի
անդրադառնալ
անդրադառնալով
անդրադառնում
անդրադարձ
անդրադարձել
անդրանիկ
անդրանիկի
անդրե
անդրեա
անդրեաս
անդրեյ
անդրեյը
անդրես
անդրեևիչ
անդրծովյան
անդրկարպատյան
անդրկովկասի
անդրկովկասյան
անդրկովկասում
անե
անել
անելը
անելով
անելու
անելուց
անեծք
անեծքը
անեմ
անեն
անենք
անես
աներ
անզգա
անզեն
անզոր
անզուգական
անզուսպ
անըմ
անընդհատ
անընդմեջ
անընդունելի
անթառամ
անթերի
անթիլիաս
անթիվ
անթույլատրելի
անժելիկա
անի
անիի
անիլ
անիծված
անիկա
անիմաստ
անիմատոր
անիմացիայի
անիմացիոն
անիմե
անիմեի
անին
անիվ
անիվը
անիվների
անիտա
անիրական
անիրավ
անլար
անլուծելի
անխելք
անխիղճ
անխնա
անխոս
անխուսափելի
անխուսափելիորեն
անծանոթ
անկախ
անկախացումից
անկախության
անկախություն
անկախությունը
անկայուն
անկանխատեսելի
անկանոն
անկասկած
անկատար
անկարա
անկարայի
անկարայում
անկարգ
անկարգություններ
անկարգությունների
անկարելի
անկարող
անկե
անկեղծ
անկեղծորեն
անկենդան
անկիրթ
անկման
անկմանը
անկյան
անկյուն
անկյունային
անկյունաքար
անկյունը
անկյունները
անկյունների
անկյուններում
անկյունում
անկողին
անկողնում
անկում
անկումը
անկումից
անկուսակցական
անկրկնելի
անհաղթահարելի
անհամ
անհամաչափ
անհամապատասխան
անհամատեղելի
անհամար
անհամբեր
անհամբերությամբ
անհամեմատ
անհայտ
անհանգիստ
անհանգստանում
անհանգստացած
անհանգստացնում
անհանգստության
անհանգստություն
անհանգստությունը
անհաշտ
անհապաղ
անհաջող
անհաջողության
անհասանելի
անհասկանալի
անհավանական
անհավասար
անհավասարության
անհավատալի
անհատ
անհատական
անհատականության
անհատականությունը
անհատը
անհատի
անհատներ
անհատները
անհատների
անհարմար
անհեթեթ
անհետ
անհետաձգելի
անհետանալ
անհետանում
անհետացած
անհետացավ
անհետացել
անհետացման
անհետացող
անհիմն
անհնար
անհնարին
անհոգ
անհույս
անհուն
անհրաժեշտ
անհրաժեշտության
անհրաժեշտություն
անհրաժեշտությունը
անձ
անձամբ
անձայն
անձանց
անձանցից
անձը
անձի
անձին
անձինք
անձն
անձնագիր
անձնակազմ
անձնակազմը
անձնակազմի
անձնակազմին
անձնական
անձնային
անձնանունների
անձնավորության
անձնավորություն
անձնատուր
անձնվեր
անձրև
անձրևային
անձրևը
անձրևի
անձրևից
անձրևներ
անձրևների
անձրևոտ
անճոռնի
անմահ
անմահության
անմատչելի
անմարդաբնակ
անմարդկային
անմաքուր
անմեղ
անմիջական
անմիջականորեն
անմիջապես
անմիտ
անմխիթար
անմշակ
անն
աննա
աննախադեպ
աննայի
աննային
աննան
աննկատ
աննկատելի
աննման
աննշան
անշարժ
անշնորհք
անշունչ
անշուշտ
անշուք
անոթ
անոթային
անոթի
անոթներ
անոթները
անոթների
անող
անողոք
անոնց
անոնք
անոր
անորոշ
անոց
անուղղակի
անուղղակիորեն
անում
անուն
անունը
անունից
անունն
անուններ
անունները
անունների
անուններից
անուններն
անուններով
անունով
անուշ
անուշադրության
անուշահոտ
անուշավան
անչափ
անչափահաս
անչափահասների
անպայման
անպաշտպան
անպատասխան
անպատճառ
անպարկեշտ
անպարտելի
անպետք
անպիտան
անպտուղ
անջատ
անջատել
անջատման
անջատողական
անջատում
անջատված
անջատվել
անջատվում
անջելես
անջելեսի
անջելեսում
անջելո
անսահման
անսահմանափակ
անսամբլ
անսամբլը
անսամբլի
անսբ
անսովոր
անսպառ
անսպասելի
անսպասելիորեն
անվախ
անվամբ
անվայել
անվան
անվանական
անվանակարգ
անվանակարգեր
անվանակարգերում
անվանակարգի
անվանակարգում
անվանակոչվել
անվանափոխումներից
անվանել
անվանելով
անվանեց
անվանեցին
անվանը
անվանի
անվանմամբ
անվանման
անվանում
անվանումը
անվանումից
անվանումն
անվանումներ
անվանումները
անվանումների
անվանումներով
անվանումով
անվանված
անվանվել
անվանվեց
անվանվում
անվավեր
անվերապահ
անվերջ
անվիճելի
անվճար
անվնաս
անվտանգ
անվտանգային
անվտանգության
անվտանգություն
անվտանգությունը
անտանելի
անտանտի
անտաշ
անտառ
անտառագիտական
անտառային
անտառապատ
անտառը
անտառի
անտառներ
անտառները
անտառների
անտառներով
անտառներում
անտառում
անտարակույս
անտարբեր
անտարես
անտարկտիդայի
անտարկտիկական
անտեղի
անտեղյակ
անտեսանելի
անտեսել
անտեսելով
անտեսում
անտեր
անտի
անտիկ
անտիոքի
անտիպ
անտոն
անտոնը
անտոնի
անտոնին
անտոնինա
անտոնիո
անտոնիոսի
անտուան
անտուն
անրի
անց
անցած
անցան
անցանկալի
անցավ
անցել
անցկացման
անցկացնել
անցկացնելով
անցկացնելու
անցկացնելուց
անցկացնում
անցկացումը
անցկացված
անցկացվել
անցկացվեց
անցկացվեցին
անցկացվող
անցկացվում
անցկացրած
անցկացրել
անցկացրեց
անցման
անցյալ
անցյալը
անցյալի
անցյալին
անցյալից
անցյալում
անցնել
անցնելը
անցնելիս
անցնելով
անցնելու
անցնելուց
անցներ
անցնի
անցնող
անցնում
անցողիկ
անցուդարձ
անցում
անցումային
անցումը
անցք
անցքեր
անցքերը
անցքերի
անցքը
անցքի
անփոխարինելի
անփորձ
անփույթ
անփոփոխ
անքուն
անօգնական
անօգուտ
անօդաչու
անօրգանական
անօրինական
աշ
աշակերտ
աշակերտել
աշակերտը
աշակերտի
աշակերտներ
աշակերտները
աշակերտների
աշակերտներին
աշակերտներից
աշակերտուհի
աշխատած
աշխատակազմի
աշխատակից
աշխատակիցներ
աշխատակիցները
աշխատակիցների
աշխատակիցներին
աշխատակցել
աշխատակցի
աշխատանք
աշխատանքային
աշխատանքը
աշխատանքի
աշխատանքին
աշխատանքից
աշխատանքն
աշխատանքներ
աշխատանքները
աշխատանքների
աշխատանքներին
աշխատանքներից
աշխատանքներն
աշխատանքներով
աշխատանքներում
աշխատանքով
աշխատանքում
աշխատասեր
աշխատավարձ
աշխատավարձը
աշխատավարձի
աշխատավոր
աշխատավորական
աշխատավորների
աշխատել
աշխատելիս
աշխատելով
աշխատելու
աշխատելուց
աշխատեց
աշխատի
աշխատող
աշխատողի
աշխատողներ
աշխատողները
աշխատողների
աշխատողներին
աշխատության
աշխատություն
աշխատությունը
աշխատություններ
աշխատությունները
աշխատությունների
աշխատություններից
աշխատություններում
աշխատությունում
աշխատուժի
աշխատում
աշխատունակ
աշխատունակությունը
աշխարհ
աշխարհաբար
աշխարհագրագետ
աշխարհագրական
աշխարհագրության
աշխարհագրություն
աշխարհագրությունը
աշխարհահռչակ
աշխարհամարտի
աշխարհայացքի
աշխարհացոյց
աշխարհաքաղաքական
աշխարհը
աշխարհի
աշխարհիկ
աշխարհին
աշխարհիս
աշխարհից
աշխարհն
աշխարհների
աշխարհով
աշխարհում
աշխգր
աշխենը
աշխույժ
աշնան
աշնանային
աշնանը
աշոտ
աշոտի
աշուղ
աշուղական
աշուն
աշունը
աշտարակ
աշտարակը
աշտարակի
աշտարակներ
աշտարակները
աշտարակների
աշտարակներով
աշտարակում
աորտալ
աորտայի
աուդիո
աուտիզմ
աուտիզմի
աուտոիմուն
աչք
աչքդ
աչքեր
աչքերդ
աչքերը
աչքերի
աչքերին
աչքերից
աչքերն
աչքերով
աչքերում
աչքերս
աչքը
աչքի
աչքին
աչքիս
աչքից
աչքն
աչքով
աչքում
աչքս
ապ
ապա
ապագա
ապագայի
ապագայում
ապագան
ապակե
ապակի
ապակին
ապակյա
ապակու
ապահով
ապահովագրական
ապահովագրության
ապահովել
ապահովելով
ապահովելու
ապահովեց
ապահովման
ապահովող
ապահովության
ապահովում
ապահովումը
ապահովված
ապահովվում
ապաստան
ապաստանել
ապաստարան
ապար
ապարան
ապարանի
ապարանքը
ապարանքի
ապարատ
ապարատը
ապարատի
ապարդյուն
ապարի
ապարներ
ապարները
ապարների
ապարներից
ապարներում
ապացույց
ապացույցը
ապացույցն
ապացույցներ
ապացույցները
ապացույցների
ապացուցել
ապացուցելու
ապացուցեց
ապացուցում
ապացուցված
ապացուցվել
ապհ
ապշած
ապոլլոն
ապոլլոնի
ապոլոն
ապոլոնի
ապուլիա
ապուշ
ապուր
ապստամբ
ապստամբական
ապստամբել
ապստամբները
ապստամբների
ապստամբներին
ապստամբության
ապստամբությանը
ապստամբություն
ապստամբությունը
ապստամբությունից
ապրած
ապրանք
ապրանքային
ապրանքանիշ
ապրանքանիշը
ապրանքանիշի
ապրանքը
ապրանքի
ապրանքներ
ապրանքները
ապրանքների
ապրել
ապրելակերպի
ապրելով
ապրելու
ապրեց
ապրի
ապրիլ
ապրիլի
ապրիլին
ապրիլից
ապրիլյան
ապրող
ապրում
ապրումները
ապրումների
ապրուստը
ապրուստի
ապօրինի
աջ
աջակողմյան
աջակցել
աջակցելու
աջակցող
աջակցությամբ
աջակցության
աջակցություն
աջակցությունը
աջակցում
աջարիայի
աջը
աջից
առ
առա
առած
առակ
առակներ
առաձգական
առայժմ
առան
առանձին
առանձնակի
առանձնահատկություն
առանձնահատկությունը
առանձնահատկությունն
առանձնահատկություններ
առանձնահատկությունները
առանձնահատկությունների
առանձնահատկություններից
առանձնահատկություններով
առանձնահատուկ
առանձնանում
առանձնապես
առանձնատան
առանձնատանը
առանձնատուն
առանձնատունը
առանձնացած
առանձնացել
առանձնացնել
առանձնացնում
առանձնացված
առանձնացվել
առանձնացվում
առանձնացրել
առանձնյակների
առանց
առանցքային
առանցքը
առանցքի
առաջ
առաջադեմ
առաջադիմական
առաջադիմության
առաջադիմություն
առաջադրանք
առաջադրանքը
առաջադրանքի
առաջադրանքներ
առաջադրանքները
առաջադրանքների
առաջադրել
առաջադրում
առաջադրված
առաջադրվել
առաջադրվեց
առաջային
առաջանալ
առաջանում
առաջավոր
առաջատար
առաջատարը
առաջարկ
առաջարկած
առաջարկել
առաջարկելով
առաջարկեց
առաջարկեցին
առաջարկը
առաջարկի
առաջարկներ
առաջարկները
առաջարկով
առաջարկությամբ
առաջարկություն
առաջարկությունը
առաջարկություններ
առաջարկում
առաջարկված
առաջարկվել
առաջարկվող
առաջարկվում
առաջացած
առաջացան
առաջացավ
առաջացել
առաջացմամբ
առաջացման
առաջացմանը
առաջացնել
առաջացնելով
առաջացնելու
առաջացնող
առաջացնում
առաջացող
առաջացում
առաջացումը
առաջացրած
առաջացրել
առաջացրեց
առաջը
առաջընթաց
առաջընթացը
առաջընթացի
առաջի
առաջիկա
առաջին
առաջինը
առաջինի
առաջինն
առաջիններից
առաջխաղացման
առաջխաղացումը
առաջն
առաջնաելույթ
առաջնաելույթը
առաջնախաղը
առաջնակարգ
առաջնահերթ
առաջնային
առաջնորդ
առաջնորդել
առաջնորդը
առաջնորդի
առաջնորդին
առաջնորդն
առաջնորդներ
առաջնորդները
առաջնորդների
առաջնորդներին
առաջնորդներից
առաջնորդությամբ
առաջնորդության
առաջնորդում
առաջնորդվում
առաջնության
առաջնությանը
առաջնություն
առաջնությունը
առաջնությունից
առաջնությունն
առաջնությունների
առաջնություններին
առաջնություններում
առաջնությունում
առաջուց
առաջվա
առասպել
առասպելական
առասպելը
առասպելի
առասպելներ
առասպելները
առասպելների
առաստաղը
առաստաղի
առավ
առավել
առավելագույն
առավելագույնը
առավելագույնս
առավելապես
առավելության
առավելություն
առավելությունը
առավելություններ
առավելությունները
առավոտ
առավոտը
առավոտյան
առատ
առատաձեռն
առատորեն
առարկա
առարկայական
առարկայի
առարկան
առարկաներ
առարկաները
առարկաների
առարկաներից
առափնյա
առաքել
առաքելական
առաքելյան
առաքելյանը
առաքելոց
առաքելության
առաքելություն
առաքելությունը
առաքելությունն
առաքինի
առաքինության
առաքման
առաքյալ
առաքյալը
առաքյալի
առաքյալների
առել
առեղծվածային
առեղծվածը
առեց
առընթեր
առթիվ
առժամանակ
առիթ
առիթը
առիթով
առկա
առկայությամբ
առկայության
առկայություն
առկայությունը
առհասարակ
առմամբ
առյուծ
առյուծը
առյուծի
առյուծների
առնանդամի
առնե
առնել
առնելով
առնելու
առնեմ
առնեն
առնենք
առնի
առնո
առնոլդ
առնող
առնում
առնչությամբ
առնչություն
առնչվող
առնչվում
առնվազն
առնված
առնվել
առնվում
առողջ
առողջական
առողջապահական
առողջապահության
առողջարան
առողջարանային
առողջության
առողջությանը
առողջություն
առողջությունը
առու
առումներով
առումով
առույգ
առջեւ
առջև
առջևի
առջևից
առջևում
առցանց
առօրյա
առևանգել
առևանգման
առևանգում
առևտուր
առևտուրը
առևտրական
առևտրականները
առևտրականների
առևտրային
առևտրի
առևտրով
աս
ասա
ասած
ասածը
ասամբլեայի
ասամբլեան
ասանկ
ասավ
ասատուր
ասատրյան
ասաց
ասացեք
ասացի
ասացին
ասել
ասելով
ասելու
ասեղ
ասեղի
ասեմ
ասեն
ասենք
ասես
ասեց
ասեցի
ասեցին
ասեք
ասէ
ասըմ
ասի
ասիա
ասիական
ասիայի
ասիայից
ասիայում
ասիան
ասիացիներ
ասիլ
ասիկա
ասիկյան
ասիստենտ
ասլան
ասլանը
ասլանի
ասլանյան
ասկերանի
ասողիկ
ասոր
ասորական
ասորեստանի
ասորի
ասոցացիայի
ասոցացման
ասոցացված
ասոցացվում
ասոցիացիա
ասոցիացիայի
ասոցիացիան
ասում
ասույթներ
ասպարեզ
ասպարեզում
ասպետ
ասպետական
ասպետը
ասպետի
ասպետները
ասպետների
ասպիրանտ
ասպիրանտուրա
ասպիրանտուրայում
ասպիրանտուրան
ասված
ասվում
աստ
աստառը
աստերոիդ
աստերոիդը
աստերոիդի
աստերոիդներ
աստերոիդները
աստերոիդների
աստի
աստիճան
աստիճանաբար
աստիճանական
աստիճանը
աստիճանի
աստիճանին
աստիճանից
աստիճաններ
աստիճանները
աստիճանների
աստիճաններով
աստիճանով
աստծո
աստծու
աստծուն
աստծուց
աստղ
աստղագետ
աստղագետների
աստղագիտական
աստղագիտության
աստղագիտություն
աստղադիտակ
աստղադիտակի
աստղադիտարան
աստղադիտարանը
աստղադիտարանի
աստղադիտարանում
աստղային
աստղեր
աստղերը
աստղերի
աստղերից
աստղը
աստղի
աստղիկ
աստոծ
աստոն
աստուած
աստուծո
աստուծոյ
աստված
աստվածաբան
աստվածաբանական
աստվածաբանության
աստվածաբանություն
աստվածածին
աստվածածինը
աստվածածնի
աստվածամոր
աստվածային
աստվածաշնչի
աստվածաշնչյան
աստվածաշնչում
աստվածաշունչ
աստվածաշունչը
աստվածատուր
աստվածը
աստվածն
աստվածներ
աստվածները
աստվածների
աստվածներին
աստվածության
աստվածություն
աստվածուհի
աստվածուհին
աստվածուհու
աստրախան
աստրախանի
ասք
ավ
ավա
ավագ
ավագանու
ավագը
ավագի
ավագյան
ավագյանը
ավագն
ավազ
ավազակ
ավազակները
ավազակների
ավազային
ավազան
ավազանային
ավազաների
ավազանը
ավազանի
ավազանին
ավազանում
ավազե
ավազի
ավազոտ
ավան
ավանգարդ
ավանդ
ավանդաբար
ավանդական
ավանդի
ավանդների
ավանդության
ավանդությունը
ավանդույթ
ավանդույթը
ավանդույթի
ավանդույթներ
ավանդույթները
ավանդույթների
ավանդույթներին
ավանդույթներով
ավանը
ավանի
ավանները
ավանում
ավատատիրական
ավար
ավարայրի
ավարտ
ավարտած
ավարտական
ավարտել
ավարտելով
ավարտելու
ավարտելուց
ավարտեց
ավարտը
ավարտի
ավարտին
ավարտից
ավարտում
ավարտուն
ավարտված
ավարտվել
ավարտվեց
ավարտվեցին
ավարտվում
ավգուստ
ավել
ավելանում
ավելացավ
ավելացել
ավելացման
ավելացմանը
ավելացնել
ավելացնելով
ավելացնելու
ավելացնում
ավելացում
ավելացումը
ավելացված
ավելացվել
ավելացվում
ավելացրել
ավելացրեց
ավելի
ավելին
ավելորդ
ավելցուկային
ավետ
ավետարան
ավետարանական
ավետարանը
ավետարանի
ավետիս
ավետիսի
ավետիսյան
ավետիսյանը
ավետիսյանի
ավետիք
ավերակ
ավերակներ
ավերակները
ավերակների
ավերել
ավերիչ
ավերոն
ավերում
ավերված
ավերվել
ավերվեց
ավիաընկերության
ավիաընկերությունը
ավիացիայի
ավիացիոն
ավիվ
ավիվի
ավշային
ավստրալիա
ավստրալիական
ավստրալիայի
ավստրալիայում
ավստրալիան
ավստրալիացի
ավստրիա
ավստրիական
ավստրիայի
ավստրիայում
ավստրիան
ավստրիացի
ավստրո
ավտոբուսային
ավտոբուսի
ավտոխճուղով
ավտոմատ
ավտոմատացման
ավտոմատացված
ավտոմեքենա
ավտոմեքենայի
ավտոմեքենան
ավտոմեքենաներ
ավտոմեքենաների
ավտոմոբիլային
ավտովթարի
ավտորիտար
ավրորա
ատ
ատամ
ատամի
ատամնաբուժական
ատամնավոր
ատամներ
ատամները
ատամների
ատամներով
ատելի
ատելության
ատելություն
ատելությունը
ատեն
ատենախոսության
ատենախոսություն
ատենախոսությունը
ատլանտա
ատլանտյան
ատլաս
ատլետիկ
ատլետիկո
ատյանի
ատոմ
ատոմական
ատոմային
ատոմի
ատոմները
ատոմների
ատում
ատս
ատրճանակ
ատրճանակը
ատրպատականի
ար
արա
արաբ
արաբա
արաբական
արաբերեն
արաբերենի
արաբիա
արաբիայի
արաբիայում
արաբիան
արաբկիր
արաբները
արաբների
արագ
արագած
արագածի
արագածոտնի
արագաշարժ
արագացնում
արագընթաց
արագոնի
արագորեն
արագությամբ
արագության
արագություն
արագությունը
արագությունն
արած
արածանիի
արական
արամ
արամայիս
արամը
արամի
արամյան
արամյանը
արայիկ
արանքում
արավ
արատ
արատավոր
արատների
արար
արարած
արարածի
արարածներ
արարածների
արարատ
արարատի
արարատյան
արարողության
արարողությանը
արարողություն
արարողությունը
արարողությունների
արարք
արարքը
արարքի
արարքները
արարքների
արաքս
արաքսի
արբանյակ
արբանյակային
արբանյակը
արբանյակի
արբանյակներ
արբանյակները
արբանյակների
արգամ
արգանդի
արգավանդ
արգելակման
արգելակում
արգելափակել
արգելել
արգելեց
արգելոց
արգելոցը
արգելոցի
արգելոցում
արգելում
արգելված
արգելվել
արգելվեց
արգելվում
արգելք
արգելքը
արգելքի
արգենտինա
արգենտինական
արգենտինայի
արգենտինայում
արգենտինան
արգենտինացի
արգիշտի
արդ
արդար
արդարադատության
արդարացի
արդարացնել
արդարացնում
արդարացվել
արդարության
արդարություն
արդարությունը
արդարև
արդեն
արդեններ
արդեշ
արդէն
արդի
արդիական
արդիականացման
արդյո
արդյունաբերական
արդյունաբերող
արդյունաբերության
արդյունաբերություն
արդյունաբերությունը
արդյունահանման
արդյունահանումը
արդյունավետ
արդյունավետորեն
արդյունավետության
արդյունավետություն
արդյունավետությունը
արդյունք
արդյունքը
արդյունքի
արդյունքն
արդյունքներ
արդյունքները
արդյունքների
արդյունքներից
արդյունքներն
արդյունքներով
արդյունքով
արդյունքում
արդյոք
արե
արեալը
արեգ
արեգակը
արեգակի
արեգակից
արեգակնային
արել
արեն
արենա
արենի
արեց
արեցին
արեւմտահայաստանի
արեւմտահայութեան
արեք
արզումանյան
արթնանում
արթուն
արթուր
արթուրը
արթուրի
արժանանալ
արժանանալով
արժանանում
արժանապատվության
արժանապատվությունը
արժանավոր
արժանացած
արժանացան
արժանացավ
արժանացել
արժանի
արժանիքների
արժե
արժեթղթերի
արժեր
արժեցել
արժեք
արժեքավոր
արժեքը
արժեքի
արժեքից
արժեքն
արժեքներ
արժեքները
արժեքների
արժեքով
արժողությամբ
արժութային
արժույթ
արժույթը
արժույթի
արի
արիական
արիանա
արիզոնա
արիզոնայի
արին
արիության
արիստակես
արիստոկրատ
արիստոտելը
արիստոտելի
արիստոտէլի
արխանգելսկի
արխիվ
արխիվային
արխիվացված
արխիվը
արխիվի
արխիվների
արխիվում
արծաթ
արծաթագույն
արծաթափայլ
արծաթե
արծաթը
արծաթի
արծաթից
արծաթյա
արծիվ
արծիվը
արծվի
արծրուն
արծրունի
արծրունին
արծրունու
արկ
արկադի
արկածային
արկածներ
արկածները
արկածների
արկի
արկղ
արկտիկական
արհամարհական
արհամարհանքով
արհամարհում
արհեստ
արհեստագործական
արհեստական
արհեստականորեն
արհեստանոց
արհեստանոցում
արհեստավոր
արհեստավորների
արհեստը
արհեստի
արհեստների
արհեստներով
արհմիութենական
արհմիության
արհմիությունների
արձագանք
արձագանքել
արձագանքը
արձագանքի
արձագանքներ
արձագանքների
արձագանքում
արձակ
արձակագիր
արձակած
արձակել
արձակելով
արձակելու
արձակեց
արձակը
արձակի
արձակման
արձակող
արձակում
արձակուրդ
արձակված
արձակվել
արձակվեց
արձակվում
արձան
արձանագրել
արձանագրության
արձանագրություն
արձանագրությունը
արձանագրություններ
արձանագրությունները
արձանագրությունների
արձանագրություններում
արձանագրում
արձանագրված
արձանագրվել
արձանը
արձանի
արձաններ
արձանները
արձանների
արճեշի
արմ
արման
արմավենու
արմավիր
արմավիրի
արմատ
արմատախիլ
արմատական
արմատային
արմատապես
արմատը
արմատի
արմատից
արմատներ
արմատները
արմատների
արմատներով
արմեն
արմենակ
արմենակի
արմենի
արմենիա
արմենուհի
արմինե
արմսթրոնգը
արյան
արյեժ
արյուն
արյունալի
արյունահոսության
արյունահոսություն
արյունահոսությունը
արյունատար
արյունարբու
արյունը
արյունից
արյունն
արյունով
արյունոտ
արշալույս
արշակ
արշակի
արշակունի
արշակունիների
արշակունյաց
արշավ
արշավախմբի
արշավախումբը
արշավանք
արշավանքը
արշավանքի
արշավանքին
արշավանքից
արշավանքներ
արշավանքները
արշավանքների
արշավանքներից
արշավել
արշավը
արշավի
արշավին
արշավիր
արշավների
արշավում
արոմատիկ
արու
արուի
արուն
արուները
արուների
արջ
արջը
արջի
արսեն
արսենալ
արսենալը
արսենալի
արսենի
արված
արվարձան
արվարձաններում
արվարձանում
արվել
արվեստ
արվեստաբան
արվեստագետ
արվեստագետի
արվեստագետներ
արվեստագետների
արվեստագիտության
արվեստանոց
արվեստանոցը
արվեստանոցում
արվեստը
արվեստի
արվեստին
արվեստն
արվեստների
արվեստով
արվեստում
արվեց
արվում
արտ
արտագաղթել
արտագաղթի
արտագնա
արտադրած
արտադրական
արտադրանք
արտադրանքը
արտադրանքի
արտադրել
արտադրելու
արտադրման
արտադրյալը
արտադրող
արտադրողական
արտադրողականության
արտադրողականությունը
արտադրողի
արտադրողները
արտադրողների
արտադրությամբ
արտադրության
արտադրությանը
արտադրություն
արտադրությունը
արտադրությունն
արտադրությունում
արտադրում
արտադրված
արտադրվել
արտադրվող
արտադրվում
արտակ
արտակարգ
արտահայտել
արտահայտելու
արտահայտիչ
արտահայտման
արտահայտող
արտահայտությամբ
արտահայտության
արտահայտություն
արտահայտությունը
արտահայտությունն
արտահայտություններ
արտահայտությունները
արտահայտությունների
արտահայտում
արտահայտված
արտահայտվել
արտահայտվում
արտահանման
արտահանում
արտահանումը
արտահանվում
արտահերթ
արտահոսքի
արտանետումների
արտաշատ
արտաշատի
արտաշես
արտաշեսի
արտասահման
արտասահմանյան
արտասահմանում
արտասահմանցի
արտասանել
արտասանեց
արտասանության
արտասանություն
արտասանությունը
արտասանում
արտասանվում
արտասովոր
արտասուք
արտասուքը
արտավազդ
արտավազդի
արտարժույթի
արտացոլել
արտացոլման
արտացոլող
արտացոլում
արտացոլումը
արտացոլումն
արտացոլված
արտացոլվել
արտացոլվում
արտաքին
արտաքինը
արտաքինից
արտաքինով
արտաքնապես
արտաքուստ
արտաքսվել
արտեմ
արտեմի
արտերկրում
արտը
արտի
արտիստ
արտիստը
արտիստի
արտիստներ
արտիստների
արտիստուհի
արտյոմ
արտոնագիր
արտոնագրի
արտոնյալ
արտոնություններ
արցախ
արցախը
արցախի
արցախյան
արցախում
արցունք
արցունքներ
արցունքները
արփա
արփի
արք
արքա
արքայադուստր
արքայադուստրը
արքայադստեր
արքայազն
արքայազնը
արքայազնի
արքայական
արքայատոհմի
արքայի
արքային
արքայից
արքան
արքաների
արքեպիսկոպոս
արքեպիսկոպոսի
արքունական
արքունի
արքունիքը
արքունիքի
արքունիքում
արև
արևադարձային
արևային
արևելագետ
արևելագիտության
արևելահայ
արևելյան
արևելք
արևելքը
արևելքի
արևելքից
արևելքում
արևը
արևի
արևիկ
արևին
արևից
արևմուտք
արևմուտքը
արևմուտքի
արևմուտքից
արևմուտքում
արևմտաեվրոպական
արևմտահայ
արևմտհ
արևմտյան
արևն
արևոտ
ացտեկների
աւելի
ափ
ափամերձ
ափեր
ափերը
ափերի
ափերին
ափերից
ափը
ափի
ափին
ափից
ափով
ափում
ափսոս
աքեմենյան
աքսորի
աքսորվել
աֆղանական
աֆղանստան
աֆղանստանի
աֆղանստանում
աֆրիկա
աֆրիկական
աֆրիկայի
աֆրիկայից
աֆրիկայում
աֆրիկան
աֆրիկացի
աֆրիկյան
աֆրոամերիկացի
աֆրոամերիկացիներ
բ
բա
բաբա
բաբայան
բաբայանը
բաբաջանյան
բաբելոնի
բաբելոնյան
բաբկեն
բագրատ
բագրատի
բագրատունի
բագրատունին
բագրատունիների
բագրատունյաց
բագրատունու
բադ
բադալյան
բադեյան
բադեն
բադի
բազ
բազա
բազալտ
բազայի
բազային
բազայում
բազան
բազիլիկ
բազիլիկը
բազիլիկի
բազմ
բազմաբնույթ
բազմագույն
բազմազան
բազմազանությամբ
բազմազանության
բազմազանություն
բազմազանությունը
բազմազգ
բազմաթիվ
բազմալեզու
բազմակի
բազմակողմանի
բազմամարդ
բազմամյա
բազմանում
բազմաշերտ
բազմապատկման
բազմապիսի
բազմատեսակ
բազմացման
բազմացումը
բազմաֆունկցիոնալ
բազմիցս
բազմության
բազմություն
բազմությունը
բազմությունների
բազում
բաթում
բաթումի
բաժակ
բաժակը
բաժակի
բաժան
բաժանել
բաժանելով
բաժանելու
բաժանեց
բաժանման
բաժանմունք
բաժանմունքը
բաժանմունքի
բաժանմունքում
բաժանող
բաժանում
բաժանումը
բաժանումից
բաժանված
բաժանվել
բաժանվեց
բաժանվեցին
բաժանվում
բաժին
բաժինը
բաժինն
բաժիններ
բաժինները
բաժինների
բաժիններից
բաժիններում
բաժնետերերի
բաժնետիրական
բաժնետոմսերը
բաժնետոմսերի
բաժնի
բաժնում
բաիա
բալ
բալայան
բալասանյան
բալդուին
բալետ
բալետային
բալետը
բալետի
բալետմայստեր
բալետում
բալթիկ
բալթյան
բալի
բալիստիկ
բալլադ
բալկանյան
բալկաններում
բալոյան
բալու
բալուի
բալքի
բախ
բախի
բախման
բախնիկին
բախշյան
բախում
բախումը
բախումներ
բախումները
բախումների
բախվել
բախվում
բախտ
բախտավոր
բախտը
բախտի
բախտիար
բակ
բակալավրի
բակը
բակի
բակում
բակունց
բակտերիալ
բակտերիաներ
բակտերիաները
բակտերիաների
բահայի
բաղ
բաղադրատոմսը
բաղադրիչ
բաղադրիչը
բաղադրիչի
բաղադրիչներ
բաղադրիչները
բաղադրիչների
բաղադրիչներից
բաղադրյալ
բաղադրության
բաղադրությունը
բաղաձայն
բաղդադ
բաղդադի
բաղդասար
բաղդասարյան
բաղդասարյանը
բաղեշ
բաղեշի
բաղկացած
բաղկացուցիչ
բաղնիք
բաղրամյան
բամբակ
բամբակի
բայ
բայադյան
բայազետ
բայազետի
բայական
բայեր
բայերը
բայերի
բայը
բայի
բայկալ
բայրոնի
բայց
բան
բանալ
բանալի
բանալին
բանալու
բանակ
բանակային
բանական
բանականության
բանականություն
բանականությունը
բանակը
բանակի
բանակին
բանակից
բանակն
բանակները
բանակների
բանակով
բանակում
բանակցություններ
բանակցությունները
բանակցությունների
բանակցություններից
բանահյուսական
բանահյուսության
բանաձև
բանաձևը
բանաձևի
բանաձևով
բանանի
բանասեր
բանասիրական
բանասիրության
բանաստեղծ
բանաստեղծական
բանաստեղծը
բանաստեղծի
բանաստեղծին
բանաստեղծն
բանաստեղծներ
բանաստեղծները
բանաստեղծների
բանաստեղծության
բանաստեղծություն
բանաստեղծությունը
բանաստեղծություններ
բանաստեղծությունները
բանաստեղծությունների
բանաստեղծություններից
բանաստեղծություններում
բանաստեղծուհի
բանավեճ
բանավեճերի
բանավեճի
բանավոր
բանբեր
բանգլադեշի
բաներ
բաները
բաների
բանը
բանի
բանին
բանից
բանկ
բանկային
բանկեր
բանկերը
բանկերի
բանկը
բանկի
բանկիր
բանկում
բանն
բանով
բանում
բանջար
բանջարաբոստանային
բանջարաբուծությամբ
բանջարեղեն
բանջարեղենի
բանվոր
բանվորական
բանվորի
բանվորները
բանվորների
բանտ
բանտային
բանտարկել
բանտարկյալ
բանտարկյալների
բանտարկության
բանտարկված
բանտարկվել
բանտերում
բանտը
բանտի
բանտից
բանտում
բաշ
բաշխման
բաշխում
բաշխումը
բաշխված
բաշխվում
բաշկիրական
բաշկիրերեն
բաշկորտոստան
բաշկորտոստանի
բառ
բառակազմական
բառակապակցությունների
բառային
բառապաշարը
բառապաշարի
բառարան
բառարանը
բառարանի
բառարանում
բառացի
բառացիորեն
բառեր
բառերը
բառերի
բառերից
բառերն
բառերով
բառը
բառի
բառին
բառից
բառն
բառով
բաս
բասենի
բասի
բասկ
բասկետբոլ
բասկետբոլային
բասկետբոլի
բասկետբոլիստ
բասկերի
բավական
բավականաչափ
բավականին
բավականություն
բավարական
բավարար
բավարարել
բավարարելու
բավարարման
բավարարում
բավարիա
բավարիայի
բավարիայում
բավարիան
բավիղ
բատիստ
բատիստա
բար
բարաթյան
բարակ
բարաք
բարբառ
բարբառային
բարբառը
բարբառի
բարբառների
բարբառով
բարբարա
բարբարոս
բարբարոսական
բարգավաճ
բարդ
բարդածաղկավորների
բարդության
բարդություն
բարդությունը
բարդություններ
բարդությունները
բարդությունների
բարդուղիմեոս
բարեբախտաբար
բարեգործական
բարելավել
բարելավելու
բարելավման
բարելավմանը
բարելավում
բարելավումը
բարելավված
բարելավվել
բարեխառն
բարեխիղճ
բարեկամ
բարեկամական
բարեկամը
բարեկամի
բարեկամներ
բարեկամները
բարեկամների
բարեկամության
բարեկամություն
բարեկամությունը
բարեկեցիկ
բարեկեցության
բարեհաջող
բարենպաստ
բարենցի
բարեպաշտ
բարեսիրտ
բարեվարքության
բարերար
բարեփոխման
բարեփոխումներ
բարեփոխումները
բարեփոխումների
բարի
բարին
բարիք
բարիքների
բարխուդարյան
բարկանում
բարկացած
բարկությունը
բարձ
բարձի
բարձունք
բարձունքի
բարձունքների
բարձր
բարձրագույն
բարձրադիր
բարձրակարգ
բարձրահասակ
բարձրաձայն
բարձրանալ
բարձրանալով
բարձրանալու
բարձրանում
բարձրաստիճան
բարձրավանդակի
բարձրավանդակում
բարձրացած
բարձրացան
բարձրացավ
բարձրացել
բարձրացման
բարձրացմանը
բարձրացնել
բարձրացնելով
բարձրացնելու
բարձրացնում
բարձրացող
բարձրացում
բարձրացումը
բարձրացված
բարձրացվել
բարձրացրած
բարձրացրել
բարձրացրեց
բարձրացրին
բարձրորակ
բարձրությամբ
բարձրության
բարձրություն
բարձրությունը
բարձրությունից
բարձրությունների
բարձրություններում
բարյացակամ
բարոկկո
բարոկկոյի
բարոյագիտական
բարոյական
բարոյականության
բարոյականությունը
բարոյապես
բարոն
բարով
բարորակ
բարու
բարության
բարսելոնա
բարսելոնայի
բարսելոնայում
բարսելոնան
բարսեղ
բարսեղյան
բարրի
բարօրության
բարև
բաց
բացած
բացակա
բացակայել
բացակայությամբ
բացակայության
բացակայություն
բացակայությունը
բացակայությունից
բացակայում
բացականչեց
բացականչություն
բացահայտ
բացահայտել
բացահայտելով
բացահայտելու
բացահայտեց
բացահայտման
բացահայտորեն
բացահայտում
բացահայտումը
բացահայտված
բացահայտվել
բացահայտվում
բացառապես
բացառել
բացառիկ
բացառությամբ
բացառություն
բացառում
բացառվում
բացասաբար
բացասական
բացատրական
բացատրել
բացատրելով
բացատրելու
բացատրեց
բացատրության
բացատրություն
բացատրությունը
բացատրություններ
բացատրում
բացատրվում
բացարձակ
բացարձակապես
բացել
բացելով
բացելու
բացեց
բացեցին
բացի
բացման
բացմանը
բացում
բացումը
բացումից
բացված
բացվածքը
բացվել
բացվեց
բացվեցին
բացվող
բացվում
բացօթյա
բաւական
բաքու
բաքվի
բաքվում
բբը
բե
բեգլարյան
բեդիրյան
բեթ
բեթի
բեթհովենի
բել
բելա
բելայա
բելառուս
բելառուսական
բելառուսերեն
բելառուսի
բելառուսում
բելգիա
բելգիական
բելգիայի
բելգիայում
բելգիան
բելգիացի
բելգորոդի
բելգրադ
բելգրադի
բելգրադում
բելենկի
բելը
բելի
բելլա
բելոգորսկի
բելով
բեկ
բեկը
բեկի
բեկման
բեկոր
բեկորային
բեկորներ
բեկորները
բեկորների
բեկումնային
բեղմնավոր
բեղմնավորման
բեմ
բեմադրել
բեմադրիչ
բեմադրող
բեմադրության
բեմադրությունը
բեմադրում
բեմադրված
բեմադրվել
բեմադրվում
բեմական
բեմերում
բեմը
բեմի
բեմից
բեմում
բեյ
բեյը
բեյի
բեյսբոլի
բեյրութ
բեյրութի
բեյրութում
բեն
բենդ
բենդի
բենեդիկտ
բենը
բենի
բենիամին
բենիտո
բենջամին
բեռ
բեռը
բեռի
բեռլին
բեռլինի
բեռլինյան
բեռլինում
բեռն
բեռնատար
բեռնարդ
բեռների
բեռնի
բեսթսելլեր
բետա
բետոնե
բեր
բերած
բերան
բերանային
բերանացի
բերանը
բերանի
բերանին
բերանից
բերանն
բերանով
բերանում
բերավ
բերգամոյի
բերգեն
բերդ
բերդը
բերդի
բերդում
բերե
բերել
բերելով
բերելու
բերելուց
բերեմ
բերեն
բերեր
բերեց
բերեցին
բերեք
բերի
բերին
բերման
բերնարդ
բերնին
բերող
բերում
բերումով
բերված
բերվել
բերվեց
բերվում
բերրի
բերք
բերքը
բերքի
բեք
բը
բժիշկ
բժիշկը
բժիշկն
բժիշկներ
բժիշկները
բժիշկների
բժիշկներին
բժշկ
բժշկագիտության
բժշկական
բժշկի
բժշկին
բժշկության
բժշկություն
բի
բիա
բիբլիական
բիգ
բիզնես
բիզնեսը
բիզնեսի
բիզնեսմեն
բիզնեսով
բիզնեսում
բիթ
բիթլիսի
բիլ
բիլի
բիլլ
բիլլի
բիծ
բին
բիչ
բիրմինգհեմ
բիրտ
բլեք
բլյուզ
բլոկ
բլոկը
բլոկի
բլուր
բլուրը
բլուրի
բլուրների
բլրի
բխող
բխում
բծավոր
բծեր
բծերով
բկմա
բյորն
բյուզանդական
բյուզանդիայի
բյուջե
բյուջեի
բյուջեն
բյուջետային
բյուր
բյուրավոր
բյուրեղային
բյուրեղներ
բյուրեղների
բյուրո
բյուրոյի
բյուրոն
բնագավառ
բնագավառի
բնագավառների
բնագավառներում
բնագավառում
բնագետ
բնագիտական
բնագիտության
բնագիր
բնագիրը
բնագրի
բնադրում
բնածին
բնական
բնականաբար
բնականոն
բնակավայր
բնակավայրեր
բնակավայրերը
բնակավայրերի
բնակավայրերից
բնակավայրերում
բնակավայրը
բնակավայրի
բնակավայրից
բնակավայրն
բնակավայրում
բնակարան
բնակարանային
բնակարանը
բնակարանի
բնակարաններ
բնակարանների
բնակարանում
բնակելի
բնակեցված
բնակեցվել
բնակիչ
բնակիչներ
բնակիչները
բնակիչների
բնակիչներին
բնակիչներից
բնակիչներն
բնակության
բնակություն
բնակչի
բնակչով
բնակչությամբ
բնակչության
բնակչությանը
բնակչություն
բնակչությունը
բնակչությունից
բնակչությունն
բնակվել
բնակվելու
բնակվող
բնակվում
բնանկար
բնանկարներ
բնաշխարհիկ
բնապ
բնապահպ
բնապահպանական
բնապահպանության
բնավ
բնավորությամբ
բնավորության
բնավորություն
բնավորությունը
բները
բնի
բնիկ
բնիկների
բնից
բնորոշ
բնորոշել
բնորոշում
բնորոշվում
բնութագիր
բնութագիրը
բնութագրական
բնութագրել
բնութագրերը
բնութագրերի
բնութագրող
բնութագրում
բնութագրվում
բնության
բնությանը
բնություն
բնությունը
բնությունն
բնույթ
բնույթը
բնույթի
բնույթից
բնույթով
բնստ
բնօրինակ
բնօրինակը
բո
բոբ
բոբբի
բոբի
բոբիկ
բոգդան
բոլ
բոլիվիայի
բոլշայա
բոլշևիկ
բոլշևիկյան
բոլշևիկները
բոլշևիկների
բոլոնիայի
բոլոր
բոլորակ
բոլորգրով
բոլորը
բոլորի
բոլորին
բոլորիս
բոլորից
բոլորն
բոլորովին
բոլորս
բոհեմիայի
բողոք
բողոքական
բողոքել
բողոքը
բողոքի
բողոքների
բողոքում
բոյ
բոն
բոնապարտի
բոնդի
բոուելի
բոս
բոսնիա
բոսնիական
բոսնիայի
բոստոն
բոստոնի
բոստոնում
բոսֆորի
բովանդակային
բովանդակությամբ
բովանդակության
բովանդակություն
բովանդակությունը
բոտվիննիկ
բոր
բորբոքային
բորբոքման
բորբոքում
բորբոքումը
բորբոքված
բորի
բորիս
բորուսիա
բորսա
բորսայի
բորսայում
բորսան
բոց
բու
բուդապեշտ
բուդապեշտի
բուդապեշտում
բուդդայական
բուդդայականության
բուդդայի
բուենոս
բութ
բուժական
բուժել
բուժելու
բուժիչ
բուժկետ
բուժման
բուժմանը
բուժում
բուժումը
բուժվել
բուժվում
բուժքույր
բուժքույրական
բուժքույրերի
բուլ
բուլղ
բուլղար
բուլղարական
բուլղարացի
բուլղարերեն
բուլղարիա
բուլղարիայի
բուլղարիայում
բուլղարիան
բուխարեստ
բուխարեստի
բուխարեստում
բուհ
բուհական
բուհերի
բուհերում
բույն
բույնը
բույս
բույսեր
բույսերը
բույսերի
բույսերից
բույսերով
բույսը
բույսի
բույր
բույրը
բուն
բունդեսլիգայի
բունդեսլիգայում
բունը
բուշ
բուշը
բուշի
բուռ
բուռն
բուսաբան
բուսաբանական
բուսաբանության
բուսական
բուսականությամբ
բուսականության
բուսականությունը
բուսակեր
բուրավետ
բուրբոն
բուրգ
բուրգի
բուրդ
բուրդը
բուրժուազիայի
բուրժուական
բուրկ
բուրկինա
բուրմունք
բջիջ
բջիջը
բջիջներ
բջիջները
բջիջների
բջիջներից
բջիջներում
բջջային
բջջի
բջջում
բռնաբարել
բռնաբարության
բռնած
բռնակալ
բռնաճնշումների
բռնապետության
բռնել
բռնելով
բռնելու
բռնեց
բռնեցին
բռնի
բռնկման
բռնկված
բռնկվել
բռնկվեց
բռնկվում
բռնությամբ
բռնության
բռնություն
բռնությունը
բռնությունների
բռնում
բռնված
բռնվել
բռնվում
բռնցքամարտի
բռնցքամարտիկ
բսբ
բրազիլական
բրազիլացի
բրազիլիա
բրազիլիայի
բրազիլիայում
բրազիլիան
բրածո
բրայան
բրանդենբուրգ
բրանդենբուրգի
բրաուն
բրաունը
բրաունի
բրբ
բրգաձև
բրդի
բրդյա
բրեդ
բրենդը
բրենդի
բրեշիա
բրեստ
բրեստի
բրիգադ
բրիգադը
բրիգադի
բրինձ
բրինձը
բրիտ
բրիտանական
բրիտանացի
բրիտանացիները
բրիտանացիների
բրիտանիա
բրիտանիայի
բրիտանիային
բրիտանիայից
բրիտանիայում
բրիտանիան
բրիտանիկա
բրյանսկի
բրյուս
բրյուսել
բրյուսելի
բրյուսելում
բրյուսովի
բրնձի
բրոդվեյի
բրոդվեյում
բրոնզ
բրոնզե
բրոնզի
բրոնզից
բրունո
բրուքլին
բրուքլինի
բրոքհաուզի
բրվք
բևեռ
բևեռային
բևեռի
գ
գա
գաա
գաբրիել
գաբրիելյան
գագաթ
գագաթը
գագաթի
գագաթին
գագաթից
գագաթնակետը
գագաթնակետին
գագաթները
գագայի
գագան
գագարինի
գագարինսկի
գագիկ
գազ
գազայի
գազային
գազան
գազանի
գազանների
գազերի
գազը
գազի
գազով
գալ
գալակտիկայի
գալակտիկաների
գալը
գալի
գալինա
գալիս
գալիք
գալշոյան
գալոյան
գալով
գալու
գալուն
գալուստ
գալուստը
գալուց
գալստյան
գահ
գահաժառանգ
գահակալման
գահակալության
գահերի
գահը
գահընկեց
գահի
գահին
գահից
գաղափար
գաղափարախոսական
գաղափարախոսության
գաղափարախոսություն
գաղափարախոսությունը
գաղափարական
գաղափարը
գաղափարի
գաղափարին
գաղափարն
գաղափարներ
գաղափարները
գաղափարների
գաղափարներին
գաղափարներն
գաղափարներով
գաղթած
գաղթականների
գաղթել
գաղթի
գաղութ
գաղութային
գաղութարարների
գաղութացման
գաղութը
գաղութի
գաղութներ
գաղութները
գաղութների
գաղութներում
գաղութում
գաղտնի
գաղտնիության
գաղտնիք
գաղտնիքը
գաղտնիքներ
գաղտնիքները
գաղտնիքների
գաճաճ
գամ
գամմա
գայ
գայանե
գայանեն
գայլ
գայլերը
գայլերի
գայլը
գայլի
գայոս
գան
գանա
գանայի
գանգ
գանգատվում
գանգը
գանգի
գանգուր
գանդիի
գանդին
գանձ
գանձակ
գանձակի
գանձասարի
գանձարան
գանձարանը
գանձեր
գանձերը
գանձերի
գանձը
գանք
գառ
գառան
գառնի
գառնիկ
գաս
գասարջյան
գասպար
գասպարյան
գասպարյանը
գավազան
գավազանը
գավաթ
գավաթակիր
գավաթը
գավաթի
գավաթին
գավաթում
գավառ
գավառակ
գավառական
գավառակի
գավառակում
գավառային
գավառը
գավառի
գավառից
գավառն
գավառներ
գավառները
գավառների
գավառներից
գավառներում
գավառում
գավթի
գավիթը
գատչինսկի
գար
գարահիսարի
գարդեն
գարեգին
գարեգինը
գարեգինի
գարեջուր
գարեջրի
գարի
գարիկ
գարին
գարնան
գարնանային
գարնանը
գարշելի
գարու
գարուն
գարունը
գարսիա
գարսիան
գբ
գդալ
գդհ
գե
գեթ
գել
գեղ
գեղագիտական
գեղագիտության
գեղամ
գեղամա
գեղանկարիչ
գեղանկարչական
գեղանկարչությամբ
գեղանկարչության
գեղանկարչություն
գեղանկարչությունը
գեղասահքի
գեղատեսիլ
գեղարվեստա
գեղարվեստական
գեղարվեստի
գեղարքունիքի
գեղեցիկ
գեղեցիկի
գեղեցկությամբ
գեղեցկության
գեղեցկություն
գեղեցկությունը
գեղեցկուհի
գեղեցկուհին
գեղը
գեղի
գեղձերի
գեղձի
գեյ
գեն
գենադի
գենային
գենդերային
գենետիկ
գենետիկական
գենետիկայի
գենետիկորեն
գեներ
գեներալ
գեներալը
գեներալի
գեներալներ
գեները
գեների
գենը
գենի
գենոմի
գեշ
գեոդեզիայի
գեորգ
գեորգի
գեորգիի
գետ
գետաբերան
գետաբերանը
գետաբերանի
գետաբերանից
գետակ
գետակի
գետային
գետաշեն
գետավազանը
գետեր
գետերը
գետերի
գետերից
գետերն
գետերում
գետը
գետի
գետին
գետինը
գետից
գետն
գետնի
գետնին
գետնից
գետով
գետում
գետտոյի
գեր
գերագույն
գերադասում
գերազանց
գերազանցապես
գերազանցել
գերազանցելով
գերազանցեց
գերազանցող
գերազանցությամբ
գերազանցության
գերազանցում
գերակա
գերակայության
գերակայությունը
գերակշիռ
գերակշռող
գերակշռում
գերան
գերասիմովի
գերբնական
գերդաստանի
գերեզման
գերեզմանատան
գերեզմանատանը
գերեզմանատուն
գերեզմանատունը
գերեզմանը
գերեզմանի
գերեզմանին
գերեզմաններ
գերեզմանները
գերեզմանների
գերեզմանոց
գերեզմանոցը
գերեզմանոցի
գերեզմանոցում
գերելսի
գերի
գերին
գերիների
գերիներին
գերիշխանության
գերիշխանությունը
գերիշխող
գերիշխում
գերհարդ
գերձայնային
գերմ
գերման
գերմանա
գերմանական
գերմանացի
գերմանացիներ
գերմանացիները
գերմանացիների
գերմանացիներին
գերմաներեն
գերմաներենի
գերմաներենից
գերմանիա
գերմանիայի
գերմանիային
գերմանիայից
գերմանիայում
գերմանիան
գերության
գերությունից
գը
գի
գիժ
գիլդիայի
գիծ
գիծը
գիմնազիա
գիմնազիայի
գիմնազիայում
գիմնազիան
գիյոմ
գին
գինեգործության
գինեսի
գինը
գինի
գինին
գինիների
գինով
գինու
գիշատիչ
գիշեր
գիշերային
գիշերը
գիշերին
գիշերն
գիշերներ
գիշերները
գիշերով
գիշերվա
գիշերօթիկ
գիսաստղ
գիսաստղերի
գիսաստղի
գիտ
գիտա
գիտաժողովի
գիտակ
գիտական
գիտականորեն
գիտակից
գիտակրթական
գիտակցաբար
գիտակցական
գիտակցել
գիտակցելով
գիտակցության
գիտակցություն
գիտակցությունը
գիտակցում
գիտակցված
գիտահանրամատչելի
գիտահետազոտական
գիտաշխատող
գիտատեխնիկական
գիտափորձի
գիտաֆանտաստիկ
գիտե
գիտեի
գիտեին
գիտելիք
գիտելիքը
գիտելիքի
գիտելիքներ
գիտելիքները
գիտելիքների
գիտեմ
գիտեն
գիտենք
գիտես
գիտեր
գիտեք
գիտի
գիտնական
գիտնականը
գիտնականի
գիտնականներ
գիտնականները
գիտնականների
գիտնականներին
գիտության
գիտությանը
գիտություն
գիտությունը
գիտություններ
գիտությունները
գիտությունների
գիր
գիրը
գիրկը
գիրք
գիրքը
գիրքն
գլ
գլազգոյի
գլանաձև
գլեբ
գլեն
գլխ
գլխապտույտ
գլխավոր
գլխավորած
գլխավորապես
գլխավորել
գլխավորեց
գլխավորը
գլխավորն
գլխավորությամբ
գլխավորում
գլխարկ
գլխարկը
գլխարկի
գլխարկով
գլխացավ
գլխի
գլխիդ
գլխին
գլխիս
գլխիվայր
գլխից
գլխով
գլխուղեղի
գլխում
գլխուն
գլյուկոզի
գլոբալ
գլոբուս
գլոբուսի
գլորիա
գլուխ
գլուխգործոց
գլուխգործոցը
գլուխդ
գլուխը
գլուխն
գլուխներ
գլուխները
գլուխների
գլուխներից
գլուխս
գխ
գծային
գծեր
գծերը
գծերի
գծերից
գծերով
գծի
գծից
գծով
գծում
գհի
գմբեթ
գմբեթավոր
գմբեթը
գմբեթի
գյոթեի
գյուլիստանի
գյուլնազարյան
գյուղ
գյուղակ
գյուղական
գյուղատնտեսական
գյուղատնտեսությամբ
գյուղատնտեսության
գյուղատնտեսություն
գյուղատնտեսությունը
գյուղատնտեսությունն
գյուղացի
գյուղացիական
գյուղացին
գյուղացիներ
գյուղացիները
գյուղացիների
գյուղացիներին
գյուղացիության
գյուղացիք
գյուղացու
գյուղաքաղաք
գյուղաքաղաքից
գյուղեր
գյուղերը
գյուղերի
գյուղերից
գյուղերում
գյուղը
գյուղի
գյուղին
գյուղից
գյուղն
գյուղում
գյուղտնտ
գյումրի
գյումրիի
գյումրիում
գյումրու
գյուստավ
գյուտ
գյուտարար
գյուտը
գյուտի
գյուրջինյան
գնա
գնալ
գնալը
գնալիս
գնալով
գնալու
գնալուց
գնահատական
գնահատականը
գնահատականի
գնահատականներ
գնահատականները
գնահատականների
գնահատականներով
գնահատանքի
գնահատել
գնահատելով
գնահատելու
գնահատմամբ
գնահատման
գնահատում
գնահատումը
գնահատված
գնահատվել
գնահատվում
գնաճի
գնամ
գնային
գնան
գնանք
գնաս
գնաց
գնացած
գնացել
գնացեք
գնացի
գնացին
գնացինք
գնացող
գնացք
գնացքը
գնացքի
գնացքների
գնացքով
գնդակ
գնդակահարել
գնդակահարվել
գնդակը
գնդակի
գնդակների
գնդակով
գնդաձև
գնդային
գնդապետ
գնդապետի
գնդացիր
գնդերը
գնդի
գնդում
գնել
գնելու
գները
գների
գներով
գնեց
գնի
գնման
գնով
գնորդների
գնում
գնումների
գնչուների
գնված
գնվել
գո
գոգը
գոգի
գոգոլի
գոթական
գոլ
գոլային
գոլդբերգ
գոլեր
գոլերը
գոլերի
գոլը
գոլի
գոլն
գոլով
գոլորշու
գոհ
գոհար
գող
գողանալ
գողանում
գողացել
գողացված
գողը
գողթն
գողության
գողություն
գոմես
գոմեսը
գոյական
գոյանում
գոյաս
գոյատևել
գոյատևման
գոյատևում
գոյացած
գոյացել
գոյության
գոյությանը
գոյություն
գոյությունը
գոնե
գոնսալես
գոշի
գոչեց
գոռ
գոռաց
գոռոզ
գոռում
գովազդ
գովազդային
գովազդը
գովազդի
գովազդում
գովել
գովում
գոտի
գոտին
գոտիներ
գոտիները
գոտիների
գոտիներում
գոտու
գոտում
գոտուց
գոր
գորգ
գորգեր
գորգերի
գորգի
գորդոն
գորիի
գորիս
գորիսի
գործ
գործադիր
գործադուլ
գործադրել
գործադրում
գործազուրկ
գործազրկության
գործած
գործածական
գործածել
գործածության
գործածությունների
գործածում
գործածված
գործածվել
գործածվող
գործածվում
գործակալ
գործակալը
գործակալի
գործակալները
գործակալների
գործակալության
գործակալություն
գործակալությունը
գործակալությունների
գործակալությունում
գործակից
գործակիցը
գործառնական
գործառնությունների
գործառույթ
գործառույթը
գործառույթի
գործառույթներ
գործառույթները
գործառույթների
գործարան
գործարանային
գործարանը
գործարանի
գործարաններ
գործարանները
գործարանների
գործարաններում
գործարանում
գործարար
գործարարների
գործարկել
գործարկվել
գործարք
գործարքը
գործարքի
գործարքներ
գործարքների
գործել
գործելով
գործելու
գործեր
գործերը
գործերի
գործերին
գործերից
գործերն
գործերով
գործերում
գործեց
գործը
գործընթաց
գործընթացը
գործընթացի
գործընթացին
գործընթացն
գործընթացներ
գործընթացները
գործընթացների
գործընթացներում
գործընթացում
գործընկեր
գործընկերը
գործընկերներ
գործընկերները
գործընկերների
գործընկերոջ
գործընկերության
գործի
գործին
գործիչ
գործիչներ
գործիչները
գործիչների
գործիչներին
գործիչներից
գործից
գործիք
գործիքային
գործիքը
գործիքի
գործիքներ
գործիքները
գործիքների
գործիքներով
գործկոմի
գործն
գործնական
գործնականորեն
գործնականում
գործող
գործողությամբ
գործողության
գործողությանը
գործողություն
գործողությունը
գործողությունից
գործողությունն
գործողություններ
գործողությունները
գործողությունների
գործողություններին
գործողություններից
գործողություններն
գործողություններով
գործողություններում
գործոն
գործոնը
գործոնի
գործոններ
գործոնները
գործոնների
գործոններից
գործոններն
գործոններով
գործով
գործուղվել
գործում
գործուն
գործունեությամբ
գործունեության
գործունեությանը
գործունեություն
գործունեությունը
գործունեությունից
գործունեությունն
գործչի
գործվածք
գործվածքի
գործվածքների
գործք
գորկի
գորկին
գորկու
գորշ
գու
գուգարաց
գուգարք
գուգարքի
գութ
գումար
գումարած
գումարային
գումարը
գումարի
գումարման
գումարն
գումարներ
գումարները
գումարների
գումարով
գումարում
գումարումների
գումարվում
գումարտակ
գումարտակը
գումարտակի
գույն
գույներ
գույները
գույների
գույներով
գույնզգույն
գույնը
գույնի
գույնն
գույնով
գույք
գույքային
գույքը
գույքի
գուն
գունագեղ
գունային
գունավոր
գունավորում
գունավորումը
գունատ
գունդ
գունդը
գուշակել
գուսան
գուստավ
գուտենբերգ
գուրգեն
գուրգենի
գուրիայի
գուցե
գռեհիկ
գվատեմալայի
գվարդիա
գվարդիական
գվարդիայի
գվինեա
գվինեայի
գվռ
գտա
գտած
գտածոները
գտան
գտավ
գտել
գտնել
գտնելով
գտնելու
գտնեն
գտնի
գտնում
գտնված
գտնվել
գտնվելով
գտնվելու
գտնվեց
գտնվի
գտնվող
գտնվում
գր
գրաբար
գրաբարի
գրագետ
գրագիտության
գրադ
գրադարան
գրադարանային
գրադարանը
գրադարանի
գրադարանն
գրադարաններ
գրադարանների
գրադարանում
գրած
գրական
գրականագետ
գրականագիտական
գրականությամբ
գրականության
գրականությանը
գրականություն
գրականությունը
գրականությունից
գրամ
գրային
գրան
գրանադա
գրանադայի
գրանդ
գրանդի
գրանիտ
գրանիտե
գրանտ
գրանցամատյան
գրանցամատյանի
գրանցել
գրանցեց
գրանցմամբ
գրանցման
գրանցում
գրանցումը
գրանցված
գրանցվել
գրանցվեց
գրանցվում
գրառման
գրառում
գրառումը
գրառումներ
գրառումները
գրառումների
գրասենյակ
գրասենյակային
գրասենյակը
գրասենյակի
գրասենյակներ
գրասենյակները
գրասենյակում
գրավ
գրաված
գրավել
գրավելով
գրավելու
գրավելուց
գրավեց
գրավեցին
գրավի
գրավիչ
գրավիտացիոն
գրավման
գրավմանը
գրավոր
գրավում
գրավումը
գրավումից
գրավված
գրավվել
գրավվեց
գրաքննադատ
գրաքննության
գրաֆ
գրաֆիկ
գրաֆիկա
գրաֆիկական
գրաֆիկայի
գրաֆիկը
գրգեարյան
գրգռել
գրգռման
գրգռում
գրգռված
գրեգ
գրեգորի
գրեթե
գրեթէ
գրել
գրելը
գրելիս
գրելով
գրելու
գրեմ
գրեմմի
գրեմմիի
գրեյ
գրեյը
գրեյի
գրեյս
գրենլանդիայի
գրետա
գրերի
գրեց
գրի
գրիգոր
գրիգորը
գրիգորի
գրիգորյան
գրիգորյանը
գրիգորյանի
գրիմ
գրին
գրինը
գրինի
գրիչ
գրիչը
գրիչի
գրիչների
գրիպի
գրկել
գրկեց
գրկն
գրկում
գրոհ
գրոհել
գրոհը
գրոհի
գրող
գրողը
գրողի
գրողին
գրողն
գրողներ
գրողները
գրողների
գրողներին
գրողներից
գրոսմայստեր
գրոսու
գրոց
գրությամբ
գրության
գրություն
գրությունը
գրությունները
գրում
գրունտային
գրունտի
գրունևելդի
գրչի
գրչին
գրչության
գրպանը
գրպանի
գրպանից
գրպանում
գրված
գրվել
գրվում
գրք
գրքային
գրքեր
գրքերը
գրքերի
գրքերից
գրքերն
գրքերով
գրքերում
գրքի
գրքից
գրքով
գրքում
գրքույկ
գցած
գցել
գցելով
գցելու
գցեց
գցում
գֆհ
գևորգ
գևորգը
գևորգի
գևորգյան
գևորգյանը
դ
դա
դագաղը
դագաղի
դադար
դադարել
դադարեց
դադարեցին
դադարեցման
դադարեցնել
դադարեցնելու
դադարեցնում
դադարեցվել
դադարեցվեց
դադարեցրել
դադարեցրեց
դադարի
դադարից
դադարում
դաժան
դաժանորեն
դաժանության
դալ
դալայ
դալաս
դալար
դալի
դալիի
դալլ
դակ
դակոտա
դահլիճ
դահլիճը
դահլիճի
դահլիճում
դահուկային
դաղստանի
դամ
դամասկոս
դամասկոսի
դամբարան
դամբարանը
դամբարանի
դամբարաններ
դամբարանում
դայակ
դայան
դան
դանակ
դանակը
դանակի
դանակով
դանդաղ
դանդաղորեն
դանդաղում
դանթե
դանիա
դանիական
դանիայի
դանիայում
դանիան
դանիացի
դանիել
դանիելի
դանիելյան
դանիերեն
դանիիլ
դանուբ
դանուբի
դաշ
դաշինք
դաշինքը
դաշինքի
դաշնակահար
դաշնակահարուհի
դաշնակից
դաշնակիցները
դաշնակիցների
դաշնակիցներին
դաշնակցական
դաշնակցային
դաշնակցության
դաշնամուր
դաշնամուրային
դաշնամուրի
դաշնային
դաշնության
դաշնություն
դաշնությունում
դաշտ
դաշտային
դաշտանային
դաշտավարությամբ
դաշտենց
դաշտեր
դաշտերը
դաշտերի
դաշտերում
դաշտը
դաշտի
դաշտից
դաշտում
դաունի
դառավ
դառել
դառը
դառն
դառնա
դառնալ
դառնալը
դառնալով
դառնալու
դառնալուց
դառնան
դառնար
դառնում
դաս
դասագիրք
դասագրքեր
դասագրքերի
դասագրքի
դասախոս
դասախոսական
դասախոսել
դասախոսների
դասախոսություն
դասախոսություններ
դասախոսությունները
դասախոսությունների
դասական
դասականների
դասակարգային
դասակարգել
դասակարգի
դասակարգման
դասակարգում
դասակարգումը
դասակարգված
դասակարգվել
դասակարգվում
դասակի
դասային
դասավանդել
դասավանդման
դասավանդում
դասավանդվում
դասավորությունը
դասավորված
դասարան
դասարանը
դասարանի
դասարանների
դասարաններում
դասարանում
դասել
դասեր
դասերը
դասերի
դասերին
դասերից
դասը
դասընթաց
դասընթացը
դասընթացի
դասընթացներ
դասընթացները
դասընթացների
դասընթացներին
դասընթացներում
դասի
դասին
դասից
դասում
դասվել
դասվում
դաստակերտ
դաստակերտը
դաստակերտի
դաստակի
դաստիարակ
դաստիարակել
դաստիարակության
դաստիարակություն
դաստիարակությունը
դաստիարակում
դաստիարակչական
դաստիարակվել
դավադրության
դավադրություն
դավաճան
դավաճանել
դավաճանության
դավաճանություն
դավանաբանական
դավանանքի
դավանում
դավթի
դավթյան
դավթյանը
դավթյանի
դավիդ
դավիթ
դավիթը
դավիթի
դատ
դատաբժշկական
դատախազ
դատախազը
դատախազի
դատախազության
դատախազությունը
դատական
դատապարտել
դատապարտեց
դատապարտում
դատապարտված
դատապարտվել
դատապարտվեց
դատապարտվում
դատաստան
դատաստանի
դատավարության
դատավարություն
դատավարությունը
դատավճիռ
դատավճիռը
դատավճռի
դատավոր
դատավորը
դատավորի
դատավորները
դատավորների
դատարան
դատարանը
դատարանի
դատարանին
դատարանն
դատարանները
դատարանների
դատարանում
դատարկ
դատել
դատելով
դատը
դատի
դատին
դատողություն
դար
դարակ
դարաշրջան
դարաշրջանը
դարաշրջանի
դարաշրջանին
դարաշրջանից
դարաշրջանում
դարասկզբի
դարասկզբին
դարավոր
դարբին
դարբինյան
դարդ
դարեհ
դարեր
դարերը
դարերի
դարերին
դարերից
դարերով
դարերում
դարը
դարի
դարին
դարից
դարձ
դարձած
դարձան
դարձավ
դարձեալ
դարձել
դարձելի
դարձյալ
դարձնել
դարձնելով
դարձնելու
դարձնում
դարձվածքների
դարձվում
դարձրել
դարձրեց
դարձրին
դարման
դարյա
դարով
դարում
դարչնագույն
դարպաս
դարպասապահ
դարպասապահը
դարպասապահի
դարպասը
դարպասի
դարպասին
դարպասներ
դարպասները
դարպասների
դարվինի
դաւթի
դափնեկիր
դդ
դե
դեբեոնի
դեբյուտ
դեբյուտային
դեբյուտել
դեբյուտը
դեբյուտն
դեզ
դել
դելի
դելիի
դելլա
դելտա
դեկան
դեկորատիվ
դեկտեմբեր
դեկտեմբերի
դեկտեմբերին
դեկտեմբերից
դեղ
դեղաբանական
դեղաբույս
դեղաբույսեր
դեղագիտական
դեղագործ
դեղագործական
դեղամիջոց
դեղամիջոցը
դեղամիջոցի
դեղամիջոցներ
դեղամիջոցները
դեղամիջոցների
դեղեր
դեղերը
դեղերի
դեղը
դեղի
դեղին
դեղնավուն
դեղորայք
դեղորայքային
դեղորայքի
դեմ
դեմիդովսկի
դեմիրճյան
դեմիրճյանի
դեմոկրատ
դեմոկրատական
դեմոկրատիայի
դեմոկրատների
դեմս
դեմք
դեմքեր
դեմքերը
դեմքերի
դեմքերից
դեմքը
դեմքի
դեմքին
դեմքից
դեմքն
դեմքով
դեյ
դեյմոնը
դեյվ
դեյվիդ
դեյր
դեն
դենդրոֆլորան
դենը
դենի
դենիել
դենիս
դեպ
դեպարտամենտ
դեպարտամենտը
դեպարտամենտի
դեպարտամենտին
դեպարտամենտում
դեպի
դեպորտիվո
դեպուտատ
դեպս
դեպրեսիայի
դեպրեսիան
դեպրեսիվ
դեպք
դեպքեր
դեպքերը
դեպքերի
դեպքերից
դեպքերում
դեպքը
դեպքի
դեպքից
դեպքն
դեպքում
դեռ
դեռահաս
դեռահասների
դեռահասության
դեռեւս
դեռևս
դես
դեսպան
դեսպանատան
դեսպանատանը
դեսպանատուն
դեսպանատունը
դեսպանը
դեսպանի
դեսպանորդ
դեսպանության
դեսպանություն
դեվիդ
դետալների
դետեկտիվ
դետրոյթ
դեր
դերակատար
դերակատարը
դերակատարմամբ
դերակատարման
դերակատարում
դերասան
դերասանական
դերասանը
դերասանի
դերասանին
դերասանն
դերասաններ
դերասանները
դերասանների
դերասաններին
դերասաններից
դերասանուհի
դերասանուհին
դերասանուհու
դերասանուհուն
դերբայը
դերենիկ
դերեր
դերերը
դերերի
դերերից
դերերով
դերերում
դերը
դերի
դերին
դերից
դերն
դերով
դերում
դերսիմ
դերսիմի
դէմ
դէպի
դը
դժբախտ
դժբախտաբար
դժբախտության
դժբախտություն
դժբախտությունը
դժգոհ
դժգոհության
դժգոհություն
դժգոհությունը
դժհ
դժոխային
դժոխք
դժոխքը
դժոխքի
դժվար
դժվարանում
դժվարացնում
դժվարին
դժվարությամբ
դժվարության
դժվարություն
դժվարություններ
դժվարությունները
դժվարությունների
դի
դիաբետ
դիաբետի
դիակ
դիակը
դիակի
դիակները
դիակների
դիանա
դիարբեքիր
դիարբեքիրի
դիեգո
դիեգոյի
դիեգոն
դիզայն
դիզայներ
դիզայներների
դիզայնը
դիզայնի
դիզելային
դիլան
դիլիջան
դիլիջանի
դիկ
դիմադրել
դիմադրության
դիմադրությանը
դիմադրություն
դիմադրությունը
դիմադրում
դիմակ
դիմակահանդես
դիմակայել
դիմակայելու
դիմակը
դիմակի
դիմակներ
դիմային
դիմանալ
դիմանկար
դիմանկարը
դիմանկարի
դիմանկարիչ
դիմանկարներ
դիմանկարները
դիմանկարների
դիմանում
դիմավորել
դիմավորում
դիմաց
դիմացը
դիմացի
դիմացկուն
դիմաքսյանը
դիմել
դիմելով
դիմելու
դիմեց
դիմեցին
դիմում
դիմումը
դիմումի
դին
դինամիկ
դինամիկայի
դինամիկան
դինամո
դինամոյի
դինաստիա
դինաստիայի
դինաստիան
դինը
դինի
դինին
դինոզավրերի
դիոն
դիպլոմ
դիպլոմային
դիպլոմով
դիպուկ
դիպչել
դիպչում
դիջեյ
դիսերտացիա
դիսերտացիան
դիսնեյ
դիսնեյը
դիսնեյի
դիվ
դիվան
դիվանագետ
դիվանագիտական
դիվանագիտության
դիվիզիա
դիվիզիայի
դիվիզիան
դիվիզիոն
դիվիզիոնի
դիվիզիոնում
դիտավորյալ
դիտարկել
դիտարկման
դիտարկում
դիտարկումներ
դիտարկումները
դիտարկումների
դիտարկվել
դիտարկվող
դիտարկվում
դիտել
դիտելով
դիտելու
դիտմամբ
դիտման
դիտողի
դիտորդ
դիտորդի
դիտում
դիտումների
դիտվել
դիտվող
դիտվում
դիր
դիրիժոր
դիրք
դիրքային
դիրքեր
դիրքերը
դիրքերի
դիրքերից
դիրքերում
դիրքը
դիրքի
դիրքին
դիրքից
դիրքն
դիրքով
դիրքորոշման
դիրքորոշում
դիրքորոշումը
դիրքում
դից
դիցաբանական
դիցաբանության
դիցբ
դիցուք
դիք
դիֆերենցիալ
դղբն
դղյակ
դղյակը
դղյակի
դղյակում
դմիտրի
դյու
դյույմ
դյուրերի
դյուրին
դնել
դնելով
դնելու
դնեպր
դնեպրի
դնեպրոպետրովսկի
դնթ
դնի
դնում
դո
դոլար
դոլարը
դոլարի
դոլարից
դոլարով
դոլլար
դոկտոր
դոկտորական
դոկտորի
դող
դողդոջուն
դողում
դոմենիկո
դոմինանտ
դոմինիկ
դոմինիկյան
դոն
դոնալդ
դոնբասի
դոնգ
դոնեցկի
դոնի
դոս
դոստոևսկին
դոստոևսկու
դորա
դորոթի
դորտմունդի
դոցենտ
դոցենտի
դու
դուբլ
դուբլի
դուբլինի
դուբլինում
դուգլաս
դուգլասը
դուգլասի
դուետ
դուետը
դուետի
դուխովշչինսկի
դում
դումայի
դուման
դուն
դուշեթի
դուռ
դուռը
դուռն
դուս
դուստր
դուստրերը
դուստրերի
դուստրը
դուստրն
դուր
դուրեկան
դուրյան
դուրս
դուրսը
դուք
դուքս
դուքսը
դուքսի
դպիր
դպրոց
դպրոցական
դպրոցականների
դպրոցը
դպրոցի
դպրոցին
դպրոցից
դպրոցն
դպրոցներ
դպրոցները
դպրոցների
դպրոցներից
դպրոցներում
դպրոցում
դռան
դռանը
դռներ
դռները
դռների
դռնից
դստեր
դստերը
դվին
դվինա
դվինան
դվինի
դվինսկո
դրա
դրախտ
դրախտի
դրած
դրական
դրամ
դրամա
դրամական
դրամահատարանը
դրամահատարանի
դրամայի
դրամայում
դրաման
դրամավարկային
դրամատիկ
դրամատիկական
դրամատուրգ
դրամատուրգիայի
դրամը
դրամի
դրամներ
դրամների
դրան
դրանից
դրանով
դրանում
դրանց
դրանցից
դրանցով
դրանցում
դրանք
դրավ
դրաֆթի
դրդել
դրդում
դրդված
դրեզդենի
դրեզդենում
դրել
դրեց
դրեցին
դրին
դրոշ
դրոշը
դրոշի
դրոշմազարդ
դրոշները
դրությամբ
դրության
դրություն
դրությունը
դրությունից
դրույթը
դրույթներ
դրույթները
դրույթների
դրսի
դրսից
դրսում
դրսևորել
դրսևորման
դրսևորում
դրսևորումը
դրսևորումներ
դրսևորումները
դրսևորումների
դրսևորվել
դրսևորվում
դրվագ
դրվագը
դրվագներ
դրվագները
դրվագների
դրվագներից
դրվագներում
դրվագում
դրված
դրվել
դրվեց
դրվող
դրվում
դքսի
դքսության
դքսություն
դքսուհի
դև
դևերի
դևը
դևի
դևիդ
դևիս
դևիսը
դևիսի
ե
եահկ
եբրայերեն
եգեա
եգեյան
եգիպտական
եգիպտացի
եգիպտացիները
եգիպտացիների
եգիպտացորեն
եգիպտացորենի
եգիպտոս
եգիպտոսը
եգիպտոսի
եգիպտոսից
եգիպտոսում
եգոր
եդ
եդեսիայի
եզ
եզակի
եզան
եզդի
եզդիների
եզնիկ
եզր
եզրակացնել
եզրակացնում
եզրակացության
եզրակացություն
եզրակացությունը
եզրային
եզրափակիչ
եզրափակիչը
եզրափակիչի
եզրափակիչում
եզրափակչի
եզրափակչում
եզրերը
եզրերին
եզրերով
եզրը
եզրի
եզրին
եզրույթը
եզրույթների
եթե
եթեր
եթերային
եթերաշրջան
եթերաշրջանը
եթերաշրջանի
եթերաշրջանում
եթերի
եթերում
եթէ
եթովպիայի
եթովպիայում
ել
ելած
ելակետային
ելան
ելավ
ելեն
ելենա
ելենայի
ելենան
ելիզավետա
ելիզավետպոլի
ելնել
ելնելով
ելնում
ելույթ
ելույթը
ելույթի
ելույթից
ելույթներ
ելույթները
ելույթների
ելույթներից
ելույթներով
ելույթում
ելցինի
ելք
ելքային
ելքը
ելքի
եկ
եկա
եկած
եկամուտ
եկամուտը
եկամուտներ
եկամուտները
եկամուտների
եկամտաբեր
եկամտի
եկան
եկանք
եկավ
եկատերինա
եկատերինբուրգ
եկատերինբուրգի
եկար
եկաւ
եկել
եկեղ
եկեղեցական
եկեղեցի
եկեղեցին
եկեղեցիներ
եկեղեցիները
եկեղեցիների
եկեղեցիներից
եկեղեցիներում
եկեղեցու
եկեղեցում
եկեղեցուն
եկեղեցուց
եկեղեցւոյ
եկեք
եկող
եհովայի
եհովան
եղ
եղա
եղած
եղածը
եղան
եղանակ
եղանակային
եղանակը
եղանակի
եղանակին
եղանակից
եղանակն
եղանակներ
եղանակները
եղանակների
եղանակներից
եղանակներով
եղանակով
եղավ
եղաւ
եղբայր
եղբայրական
եղբայրը
եղբայրն
եղբայրներ
եղբայրները
եղբայրների
եղբայրներին
եղբայրներից
եղբայրներն
եղբայրության
եղբայրություն
եղբայրս
եղբոր
եղբորը
եղեգնաձորի
եղել
եղեռնի
եղեր
եղեք
եղիա
եղիազար
եղիազարյան
եղիշե
եղիշեի
եղիսաբեթ
եղիր
եղիցի
եղող
եղունգների
եղջերաթաղանթի
եղջերավոր
եղջերու
եղև
եմ
եմենի
եյին
եյլի
են
ենթաավազանը
ենթադրաբար
ենթադրել
ենթադրելով
ենթադրենք
ենթադրյալ
ենթադրություն
ենթադրությունը
ենթադրություններ
ենթադրում
ենթադրվում
ենթակա
ենթակայության
ենթական
ենթակառուցվածքների
ենթամաշկային
ենթաստամոքսային
ենթատեսակ
ենթարկել
ենթարկելով
ենթարկելու
ենթարկեց
ենթարկում
ենթարկված
ենթարկվել
ենթարկվելով
ենթարկվելու
ենթարկվեց
ենթարկվեցին
ենթարկվող
ենթարկվում
ենք
եպբհ
եպիսկոպոս
եպիսկոպոսական
եպիսկոպոսը
եպիսկոպոսի
եպիսկոպոսին
եպիսկոպոսների
եպհ
եռագրության
եռալեզու
եռակի
եռակողմ
եռահարկ
եռամյա
եռանավ
եռանդ
եռանդով
եռանդուն
եռանկյան
եռանկյուն
եռանկյունաձև
եռանկյունաչափական
եռանկյունի
եռաչափ
եռման
եռյակ
եռյակը
եռյակի
եռօրյա
ես
եսայան
եսայի
եվ
եվա
եվայի
եվան
եվգենի
եվգենիա
եվգենյա
եվդոկիա
եվդոկիայի
եվս
եվրախորհրդարանի
եվրամիության
եվրասիական
եվրատեսիլ
եվրատեսիլի
եվրո
եվրոյի
եվրոյով
եվրոպա
եվրոպական
եվրոպայի
եվրոպայից
եվրոպայով
եվրոպայում
եվրոպան
եվրոպացի
եվրոպացիները
եվրոպացիների
ետ
ետին
ետքը
ետև
ետևի
ետևից
ետևում
եր
երազ
երազանք
երազանքը
երազանքի
երազանքների
երազել
երազը
երազի
երազներ
երազները
երազների
երազում
երաժիշտ
երաժիշտը
երաժիշտներ
երաժիշտները
երաժիշտների
երաժշտ
երաժշտագետ
երաժշտական
երաժշտի
երաժշտությամբ
երաժշտության
երաժշտությանը
երաժշտություն
երաժշտությունը
երաժշտությունն
երախտագիտության
երախտագիտություն
երակային
երակների
երանգ
երանգներ
երանգները
երանգներով
երանգով
երանելի
երանի
երաշխավորում
երաշխավորված
երաշխիք
երասխ
երբ
երբեմն
երբեմնի
երբեք
երբոր
երբևէ
երբևիցե
երգ
երգահան
երգացանկում
երգել
երգելով
երգելու
երգեհոնահար
երգեհոնի
երգեր
երգերը
երգերի
երգերից
երգերն
երգերով
երգերում
երգեց
երգեցողության
երգը
երգի
երգիծաբան
երգիծական
երգին
երգիչ
երգիչը
երգիչներ
երգիչների
երգից
երգն
երգող
երգով
երգում
երգչախմբային
երգչախմբի
երգչախմբում
երգչախումբ
երգչախումբը
երգչի
երգչուհի
երգչուհին
երգչուհու
երդման
երդմնակալության
երդում
երդումը
երդվել
երդվյալ
երդվում
երեխա
երեխայի
երեխային
երեխան
երեխաներ
երեխաները
երեխաների
երեխաներին
երեխաներից
երեխաներն
երեկ
երեկո
երեկոյան
երեկոյի
երեկոն
երեկույթի
երեկվա
երես
երեսը
երեսի
երեսին
երեսից
երեսն
երեսնամյա
երեսով
երեսուն
երեց
երեւան
երեւանի
երեք
երեքը
երեքի
երեքից
երեքն
երեքշաբթի
երզնկա
երզնկայի
երզնկյան
երը
երթ
երթա
երթալ
երթամ
երթը
երթի
երթուղի
երթուղին
երթուղու
երթևեկության
երթևեկությունը
երժշտ
երի
երիկամային
երիկամի
երիկամների
երիտասարդ
երիտասարդական
երիտասարդը
երիտասարդի
երիտասարդին
երիտասարդներ
երիտասարդները
երիտասարդների
երիտասարդներին
երիտասարդության
երիտասարդություն
երիտասարդությունը
երիտթուրքերի
երկ
երկաթ
երկաթբետոնե
երկաթգծի
երկաթե
երկաթը
երկաթի
երկաթյա
երկաթուղային
երկաթուղի
երկաթուղին
երկաթուղիների
երկաթուղու
երկակի
երկամյա
երկայն
երկայնական
երկայնակի
երկայնքով
երկար
երկարաժամկետ
երկարաձգել
երկարաձգեց
երկարամյա
երկարավուն
երկարատև
երկարությամբ
երկարության
երկարություն
երկարությունը
երկարությունն
երկբևեռ
երկեր
երկերը
երկերի
երկերում
երկը
երկի
երկինք
երկինքը
երկինքն
երկիր
երկիրը
երկիրն
երկլեզու
երկխոսության
երկխոսություն
երկկողմ
երկկողմանի
երկհարկանի
երկյուղ
երկնագույն
երկնային
երկնքի
երկնքին
երկնքից
երկնքում
երկու
երկուական
երկում
երկուշաբթի
երկուսը
երկուսի
երկուսին
երկուսից
երկուսն
երկուսով
երկչափ
երկչոտ
երկսեռ
երկսյուն
երկվորյակ
երկվորյակներ
երկվորյակների
երկրաբան
երկրաբանա
երկրաբանական
երկրաբանության
երկրագնդի
երկրագործությամբ
երկրագործության
երկրագործությունն
երկրակեղևի
երկրամաս
երկրամասը
երկրամասի
երկրամասում
երկրային
երկրաշարժ
երկրաշարժը
երկրաշարժի
երկրաշարժից
երկրաչափական
երկրաչափության
երկրաչափություն
երկրապահ
երկրբ
երկրի
երկրին
երկրից
երկրներ
երկրները
երկրների
երկրներին
երկրներից
երկրներն
երկրներում
երկրով
երկրորդ
երկրորդական
երկրորդային
երկրորդը
երկրորդի
երկրորդն
երկրորդում
երկրում
երկրպագու
երկրպագում
երկրպագուն
երկրպագուներ
երկրպագուները
երկրպագուների
երկրպագուներին
երնջակ
երուսաղեմ
երուսաղեմը
երուսաղեմի
երուսաղեմում
երջանիկ
երջանկության
երջանկություն
երջանկությունը
երվանդ
երրորդ
երրորդը
երրորդի
երրորդն
երրորդության
երրորդություն
երևալ
երևակայական
երևակայել
երևակայության
երևակայությունը
երևան
երևանը
երևանի
երևանից
երևանյան
երևանում
երևանցի
երևաց
երևացել
երևացող
երևելի
երևի
երևում
երևույթ
երևույթը
երևույթի
երևույթին
երևույթն
երևույթներ
երևույթները
երևույթների
եւ
եւս
եփած
եփել
եփում
եփրատ
եփրատի
եփրեմ
եք
եֆրոնի
զ
զա
զագրեբ
զագրեբի
զագրեբում
զալցբուրգ
զալցբուրգի
զամբյուղ
զամենայն
զայն
զայս
զայրանում
զայրացած
զայրույթ
զայրույթը
զայրույթի
զան
զանազան
զանգ
զանգակ
զանգակատան
զանգակատուն
զանգակատունը
զանգահարել
զանգեզուր
զանգեզուրի
զանգեզուրում
զանգերը
զանգը
զանգի
զանգված
զանգվածային
զանգվածը
զանգվածի
զանգվածները
զանգվածների
զանգվածով
զանոնք
զապել
զապորոժիեի
զառիթափ
զավակ
զավակը
զավակն
զավակներ
զավակները
զավակների
զավակներին
զավարյան
զավեն
զավթել
զավթիչների
զատ
զատկի
զար
զարգանալ
զարգանում
զարգացած
զարգացավ
զարգացել
զարգացմամբ
զարգացման
զարգացմանը
զարգացնել
զարգացնելով
զարգացնելու
զարգացնում
զարգացող
զարգացում
զարգացումը
զարգացումն
զարգացրել
զարգացրեց
զարդ
զարդարանք
զարդարել
զարդարյան
զարդարում
զարդարված
զարդեր
զարդերը
զարդերի
զարթոնք
զարկ
զարկել
զարկերակային
զարկերակի
զարկերակների
զարկեց
զարկում
զարհուրելի
զարմանալի
զարմանալիորեն
զարմանում
զարմանք
զարմացած
զարմացավ
զարմացնում
զարմիկ
զարմիկը
զարմուհին
զարյան
զաքարը
զաքարիա
զաքարյան
զաքարյանը
զաքարյանների
զբաղեցնել
զբաղեցնելով
զբաղեցնելու
զբաղեցնող
զբաղեցնում
զբաղեցված
զբաղեցրած
զբաղեցրել
զբաղեցրեց
զբաղմունք
զբաղմունքը
զբաղված
զբաղվածության
զբաղվածությունը
զբաղվել
զբաղվելով
զբաղվելու
զբաղվող
զբաղվում
զբոսայգի
զբոսայգին
զբոսայգու
զբոսայգում
զբոսանք
զբոսանքի
զբոսաշրջային
զբոսաշրջիկ
զբոսաշրջիկների
զբոսաշրջիկներին
զբոսաշրջության
զբոսաշրջությունը
զբոսնում
զգա
զգալ
զգալի
զգալիորեն
զգալով
զգալու
զգայական
զգայուն
զգայունության
զգայունությունը
զգար
զգաց
զգացել
զգացի
զգացմունք
զգացմունքային
զգացմունքը
զգացմունքի
զգացմունքներ
զգացմունքները
զգացմունքների
զգացողության
զգացողություն
զգացողությունը
զգացում
զգացումը
զգացումները
զգացումով
զգացվում
զգեստ
զգեստը
զգեստի
զգեստներ
զգեստները
զգեստների
զգեստով
զգում
զգույշ
զգուշացնում
զգուշությամբ
զե
զելանդիա
զելանդիայի
զելանդիայում
զելանդիան
զեկույց
զեկույցը
զեկույցի
զեկույցում
զեկուցում
զեմո
զեյթուն
զեյթունի
զեյթունցյան
զենիթ
զենիթային
զենք
զենքեր
զենքերը
զենքերի
զենքը
զենքի
զենքով
զետեղված
զերծ
զզվելի
զի
զիգմունդ
զիլ
զինադադար
զինադադարի
զինաիդա
զինամթերք
զինամթերքի
զինանշան
զինանշանը
զինանշանի
զինծառայող
զինծառայողների
զինված
զինվոր
զինվորական
զինվորականները
զինվորականների
զինվորը
զինվորի
զինվորներ
զինվորները
զինվորների
զինվորներին
զինվորներից
զինքը
զիջել
զիջելով
զիջեց
զիջում
զիս
զիրենք
զլմ
զղջում
զնա
զննում
զնոսա
զո
զոհ
զոհեր
զոհերը
զոհերի
զոհերին
զոհը
զոհի
զոհին
զոհված
զոհվածների
զոհվել
զոհվեց
զոհվեցին
զոհվում
զոհրապ
զոյա
զոռով
զով
զոր
զորակոչվել
զորահրամանատար
զորամաս
զորամասերը
զորամասերի
զորամասի
զորավար
զորավարը
զորավարի
զորավոր
զորացրվել
զորացրվելուց
զորեղ
զորի
զորյան
զորությամբ
զորություն
զորությունը
զորք
զորքեր
զորքերը
զորքերի
զորքերին
զորքերից
զորքերն
զորքերով
զորքերում
զորքը
զորքի
զորքին
զորքով
զու
զուգախաղի
զուգախաղում
զուգակցված
զուգակցվում
զուգահեռ
զուգահեռաբար
զուգահեռական
զուգընթաց
զուգորդված
զուգորդվում
զույգ
զույգեր
զույգերը
զույգերի
զույգերով
զույգը
զույգի
զույգին
զույգն
զուսպ
զուտ
զուր
զուրկ
զսպել
զվարթ
զվարթնոց
զվարթնոցի
զվարճալի
զվարճանքի
զվեզդա
զրահ
զրահապատ
զրկել
զրկում
զրկված
զրկվել
զրկվեց
զրկվում
զրո
զրոյական
զրոյի
զրոյից
զրույց
զրույցը
զրույցի
զրույցներ
զրուցել
զրուցում
զքեզ
զևսի
է
էակ
էական
էականորեն
էակի
էակների
էապես
էգ
էգեյան
էգերը
էգերի
էգը
էգի
էգուց
էդ
էդգար
էդդի
էդի
էդիթ
էդինբուրգի
էդմոնդ
էդմունդ
էդուարդ
էդուարդը
էդուարդի
էդուարդո
էդպես
էդվարդ
էդվարդը
էդվին
էթա
էթամ
էթանք
էթըմ
էթիկական
էթիկայի
էթնիկ
էթնիկական
էթում
էժան
էժեն
էի
էին
էինք
էիր
էիք
էլ
էլա
էլավ
էլեանորա
էլել
էլեկտրաէներգիա
էլեկտրաէներգիայի
էլեկտրական
էլեկտրականության
էլեկտրամագնիսական
էլեկտրատեխնիկական
էլեկտրոն
էլեկտրոնային
էլեկտրոնի
էլեկտրոնիկայի
էլեկտրոնները
էլեկտրոնների
էլեն
էլեոնորա
էլզա
էլթոն
էլի
էլիզա
էլիզաբեթ
էլիզաբեթը
էլիզաբեթի
էլիպսաձև
էլիս
էլիսոն
էլիտար
էլլա
էլոյան
էլոյի
էլստի
էլվիս
էկան
էկավ
էկել
էկզոտիկ
էկոլոգիական
էկոլոգիայի
էկոլոգիան
էկոհամակարգերի
էկոնոմիկայի
էկվադորի
էկրան
էկրանավորման
էկրանավորումը
էկրանավորումն
էկրանավորվել
էկրանի
էկրանին
էկրաններին
էհ
էմ
էմանուել
էմի
էմիլ
էմիլի
էմիլիա
էմին
էմիր
էմմա
էմման
էմմի
էմոցիոնալ
էմպիրիկ
էյ
էյլերի
էն
էնա
էնդեմիկ
էնդի
էնդրյու
էներգետիկ
էներգետիկայի
էներգիա
էներգիայի
էներգիայով
էներգիան
էնթոնի
էնթոնին
էնի
էնն
էննի
էնպես
էնտեղ
էնրիկե
էնրիկո
էնքան
էշ
էշը
էշի
էշլի
էությամբ
էության
էություն
էությունը
էությունն
էպիզոդ
էպիզոդիկ
էպիզոդներում
էպիզոդում
էպիկական
էպոսի
էջ
էջանոց
էջեր
էջերը
էջերի
էջերում
էջը
էջի
էջմիածին
էջմիածնի
էջմիածնում
էջում
էռնեստ
էռնստ
էս
էսթեր
էսպես
էսպերանտո
էսսե
էսսեներ
էստ
էստեղ
էստոնական
էստոնացի
էստոներեն
էստոնիա
էստոնիայի
էստոնիայում
էստոնիան
էստրադային
էսքան
էսքիզներ
էսօր
էվան
էվանսը
էվերտ
էվոլյուցիայի
էվոլյուցիան
էվոլյուցիոն
էտ
էր
էրեբունի
էրզրում
էրզրումի
էրիթրոցիտների
էրիխ
էրիկ
էրիկը
էրկու
էրմիտաժ
էրմիտաժի
էրոզիայի
էրոտիկ
էրվին
էք
էքս
էքսցենտրիսիտետ
էֆ
էֆեկտ
էֆեկտը
էֆեկտի
էֆեկտիվ
էֆեկտներ
էֆեկտները
էֆեկտների
էֆենդի
էֆենդին
էֆենտի
էֆենտիի
էֆենտին
ը
ըլ
ըլի
ըլլա
ըլլալ
ըլլալով
ըլլալու
ըլլար
ըլնի
ըլնում
ըլում
ըմ
ըմբիշ
ըմբշամարտի
ըմբոստ
ըմբռնել
ըմբռնումը
ըմպելիք
ըն
ընդ
ընդամենը
ընդառաջ
ընդարձակ
ընդարձակել
ընդարձակման
ընդարձակվել
ընդգծել
ընդգծելով
ընդգծում
ընդգծված
ընդգծվում
ընդգրկել
ընդգրկելով
ընդգրկող
ընդգրկում
ընդգրկված
ընդգրկվել
ընդգրկվեց
ընդգրկվում
ընդդեմ
ընդդիմադիր
ընդդիմության
ընդդիմություն
ընդդիմությունը
ընդերքում
ընդլայնել
ընդլայնելու
ընդլայնման
ընդլայնում
ընդլայնումը
ընդլայնված
ընդլայնվել
ընդլայնվեց
ընդլայնվում
ընդհակառակը
ընդհակառակն
ընդհանուր
ընդհանրական
ընդհանրապես
ընդհանրացված
ընդհանրություններ
ընդհատ
ընդհատակյա
ընդհատել
ընդհատեց
ընդհատում
ընդհատված
ընդհատվել
ընդհատվում
ընդհուպ
ընդմիշտ
ընդմիջումից
ընդմիջումներով
ընդունած
ընդունակ
ընդունակություն
ընդունակությունը
ընդունել
ընդունելի
ընդունելով
ընդունելու
ընդունելության
ընդունելություն
ընդունելուց
ընդունեց
ընդունեցին
ընդունի
ընդունման
ընդունող
ընդունում
ընդունումը
ընդունումից
ընդունված
ընդունվել
ընդունվելու
ընդունվեց
ընդունվում
ընդօրինակել
ընե
ընել
ընելու
ընենց
ըներ
ընթանալ
ընթանում
ընթացել
ընթացիկ
ընթացող
ընթացք
ընթացքը
ընթացքի
ընթացքին
ընթացքով
ընթացքում
ընթերցանության
ընթերցող
ընթերցողը
ընթերցողի
ընթերցողին
ընթերցողների
ընթերցողներին
ընթերցում
ընթերցումը
ընթրիք
ընթրիքի
ընծա
ընծայել
ընկ
ընկա
ընկալել
ընկալիչները
ընկալիչների
ընկալման
ընկալում
ընկալումը
ընկալվել
ընկալվում
ընկած
ընկան
ընկավ
ընկել
ընկեր
ընկերական
ընկերակցության
ընկերանում
ընկերացել
ընկերը
ընկերն
ընկերներ
ընկերները
ընկերների
ընկերներին
ընկերներից
ընկերներն
ընկերոջ
ընկերոջը
ընկերության
ընկերությանը
ընկերություն
ընկերությունը
ընկերությունից
ընկերությունն
ընկերություններ
ընկերությունները
ընկերությունների
ընկերություններին
ընկերություններից
ընկերություններում
ընկերությունում
ընկերուհի
ընկերուհին
ընկերուհու
ընկերուհուն
ընկճում
ընկճված
ընկնել
ընկնելով
ընկնելու
ընկնելուց
ընկնի
ընկնող
ընկնում
ընկույզ
ընկույզի
ընձեռում
ընձյուղները
ընչանք
ընչի
ընտանեկան
ընտանի
ընտանիք
ընտանիքը
ընտանիքի
ընտանիքին
ընտանիքից
ընտանիքն
ընտանիքներ
ընտանիքները
ընտանիքների
ընտանիքներին
ընտանիքներից
ընտանիքներում
ընտանիքով
ընտանիքում
ընտիր
ընտրած
ընտրական
ընտրատարածքից
ընտրել
ընտրելով
ընտրելու
ընտրեց
ընտրեցին
ընտրյալ
ընտրողական
ընտրողների
ընտրովի
ընտրությամբ
ընտրության
ընտրությանը
ընտրություն
ընտրությունը
ընտրություններ
ընտրությունները
ընտրությունների
ընտրություններին
ընտրություններից
ընտրություններում
ընտրում
ընտրված
ընտրվել
ընտրվելու
ընտրվեց
ընտրվում
ըս
ըսավ
ըսաւ
ըսե
ըսել
ըսեմ
ըսենց
ըսեր
ըսի
ըսկի
ըստ
ըստեղ
ըտենց
ըրած
ըրավ
թ
թա
թագ
թագադրման
թագաժառանգ
թագավոր
թագավորական
թագավորը
թագավորի
թագավորին
թագավորից
թագավորն
թագավորներ
թագավորները
թագավորների
թագավորության
թագավորությանը
թագավորություն
թագավորությունը
թագավորությունից
թագավորությունները
թագավորությունների
թագավորությունում
թագը
թագի
թագուհի
թագուհին
թագուհու
թագուհուն
թադեոս
թադևոս
թադևոսյան
թաթ
թաթար
թաթարական
թաթարերեն
թաթարների
թաթարստանի
թաթուլ
թաիլանդ
թաիլանդի
թալ
թալանել
թալանում
թալեր
թալինի
թալիշ
թախիծ
թակ
թակարդ
թաղ
թաղածածկ
թաղամաս
թաղամասերը
թաղամասերի
թաղամասը
թաղամասի
թաղամասում
թաղանթ
թաղանթային
թաղանթը
թաղանթի
թաղանթների
թաղանթով
թաղել
թաղը
թաղի
թաղման
թաղում
թաղված
թաղվել
թամանյան
թամար
թամարա
թայ
թայլեր
թայմ
թայմս
թայսոնը
թայվան
թայվանի
թայվանում
թան
թանգամյան
թանգարան
թանգարանային
թանգարանը
թանգարանի
թանգարանին
թանգարանից
թանգարանն
թանգարաններ
թանգարանները
թանգարանների
թանգարաններից
թանգարաններում
թանգարանում
թանկ
թանկագին
թանկարժեք
թանձր
թաս
թավ
թավշյա
թավջութակահար
թավջութակի
թավրիզ
թավրիզի
թատերագիտական
թատերագիր
թատերախմբի
թատերախումբ
թատերախումբը
թատերական
թատր
թատրոն
թատրոնը
թատրոնի
թատրոնին
թատրոնից
թատրոնն
թատրոններ
թատրոնները
թատրոնների
թատրոններում
թատրոնում
թարախային
թարգմ
թարգմանաբար
թարգմանած
թարգմանական
թարգմանել
թարգմանիչ
թարգմանությամբ
թարգմանության
թարգմանություն
թարգմանությունը
թարգմանություններ
թարգմանությունները
թարգմանությունների
թարգմանում
թարգմանչաց
թարգմանչուհի
թարգմանված
թարգմանվել
թարգմանվում
թարմ
թաց
թափ
թափանցել
թափանցիկ
թափանցող
թափանցում
թափառական
թափառաշրջիկ
թափառել
թափառող
թափառում
թափել
թափոնների
թափով
թափում
թափուր
թափված
թափվել
թափվելը
թափվող
թափվում
թաքավոր
թաքավորը
թաքավորի
թաքնված
թաքնվել
թաքնվում
թաքուն
թաքցնել
թաքցնելու
թաքցնում
թաքցրել
թբիլիսի
թբիլիսիի
թբիլիսիում
թե
թեգ
թեդ
թեեւ
թեզ
թեզը
թեթև
թեթևակի
թեթևամիտ
թեժ
թել
թելադրում
թելերը
թելերի
թելերով
թելը
թելի
թեկնածու
թեկնածուական
թեկնածությունը
թեկնածուի
թեկնածուն
թեկնածուներ
թեկնածուները
թեկնածուների
թեկնածուներից
թեկուզ
թեհրան
թեհրանի
թեհրանում
թեմ
թեմա
թեմական
թեմայի
թեմային
թեմայով
թեման
թեմաներ
թեմաները
թեմաների
թեմաներից
թեմաներով
թեմատիկ
թեմը
թեմի
թեյ
թեյը
թեյի
թեյլոր
թեյլորը
թեյլորի
թենեսի
թենիս
թենիսի
թենիսիստ
թեոդոր
թեոդորոս
թեորեմ
թեորեմը
թեորեմի
թեպետ
թեստ
թեստը
թեստի
թեր
թերակղզի
թերակղզին
թերակղզու
թերակղզում
թերապիա
թերապիայի
թերապիան
թերապևտիկ
թերեզա
թերեզայի
թերեզան
թերեւս
թերթ
թերթեր
թերթերը
թերթերի
թերթերից
թերթերում
թերթը
թերթի
թերթին
թերթից
թերթում
թերի
թերլեմեզյանի
թերմոդինամիկական
թերություն
թերություններ
թերությունները
թերևս
թեք
թեքեյան
թեքում
թեքումը
թեքված
թեքվել
թեքվում
թեև
թզուկ
թէ
թը
թթ
թթու
թթուներ
թթուների
թթվածին
թթվածինը
թթվածնային
թթվածնի
թթվածնով
թթվային
թթվի
թի
թիթեռ
թիթեռների
թիլ
թիկունք
թիկունքի
թիկունքում
թիմ
թիմային
թիմեր
թիմերը
թիմերի
թիմերում
թիմը
թիմի
թիմին
թիմից
թիմն
թիմում
թինա
թիվ
թիվը
թիվն
թիվս
թիրախ
թիրախային
թիրախը
թիւ
թիֆլիս
թիֆլիսի
թիֆլիսում
թլկատինցի
թխում
թղթադրամի
թղթադրամները
թղթադրամների
թղթակից
թղթե
թղթեր
թղթերը
թղթերի
թղթի
թմբկահար
թմբուկ
թմբուկի
թմրամիջոցների
թմրանյութերի
թյան
թյուն
թյուրինգի
թյուրքական
թնդանոթ
թշնամական
թշնամի
թշնամին
թշնամիներ
թշնամիները
թշնամիների
թշնամիներին
թշնամու
թշնամուն
թշվառ
թշվառության
թո
թոդ
թոթովենց
թող
թողած
թողարկած
թողարկել
թողարկեց
թողարկեցին
թողարկման
թողարկում
թողարկումը
թողարկումից
թողարկումն
թողարկված
թողարկվել
թողարկվեց
թողարկվեցին
թողարկվում
թողել
թողեց
թողեցին
թողեք
թողնել
թողնելով
թողնելու
թողնենք
թողնի
թողնում
թողնված
թողում
թոմ
թոմաս
թոմասը
թոմասի
թոմը
թոմի
թոնի
թոնրի
թոշակ
թոշակառու
թոշակառուներ
թոշակի
թոռ
թոռան
թոռը
թոռն
թոռնուհին
թովմա
թովմաս
թովմասյան
թոր
թորամանյան
թորգոմ
թորոս
թորոսյան
թու
թութմոս
թուլանալ
թուլանում
թուլացած
թուլացել
թուլացման
թուլացնել
թուլացնում
թուլացում
թուլուզ
թուլության
թուլություն
թուլությունը
թուխ
թուղթ
թուղթը
թումանյան
թումանյանը
թումանյանի
թումանյանն
թույլ
թույլատրել
թույլատրելի
թույլատրում
թույլատրված
թույլատրվել
թույլատրվում
թույլտվությամբ
թույլտվության
թույլտվություն
թույլտվությունը
թույն
թույնը
թունավոր
թունավորել
թունավորման
թունավորում
թունդ
թունելի
թունիս
թունիսի
թուր
թուրը
թուրին
թուրինի
թուրք
թուրքական
թուրքեր
թուրքերեն
թուրքերը
թուրքերի
թուրքերին
թուրքերն
թուրքի
թուրքիա
թուրքիայի
թուրքիային
թուրքիայից
թուրքիայում
թուրքիան
թուրքմենական
թուրքմենստանի
թուփ
թուքը
թոփ
թոք
թոքային
թոքերի
թոքի
թռավ
թռել
թռիչք
թռիչքային
թռիչքը
թռիչքի
թռիչքներ
թռիչքների
թռչել
թռչելու
թռչնի
թռչող
թռչում
թռչուն
թռչունը
թռչունի
թռչուններ
թռչունները
թռչունների
թռչուններին
թռչուններից
թվ
թվաբանական
թվագրված
թվագրվող
թվագրվում
թվալ
թվական
թվականը
թվականի
թվականին
թվականից
թվականն
թվականներ
թվականները
թվականների
թվականներին
թվականներից
թվականներն
թվականով
թվային
թվարկության
թվարկությունից
թվարկված
թվաց
թվացող
թվաքանակը
թվաքանակի
թվաքանակով
թվեր
թվերը
թվերի
թվերով
թվի
թվիթ
թվիթթերում
թվին
թվից
թվով
թվում
թրամփը
թրամփի
թրեյլերը
թրեյսի
թրեք
թրթուրները
թրի
թրոմբոցիտների
թփեր
թփերի
թփի
թփուտներում
թև
թևավոր
թևեր
թևերը
թևերի
թևերով
թևը
թևի
թևին
թևում
ժ
ժա
ժակ
ժամ
ժամային
ժամանած
ժամանակ
ժամանակագրական
ժամանակագրության
ժամանակագրություն
ժամանակագրությունը
ժամանակակից
ժամանակակիցները
ժամանակակիցների
ժամանակահատված
ժամանակահատվածը
ժամանակահատվածի
ժամանակահատվածում
ժամանակամիջոցում
ժամանակային
ժամանակաշրջան
ժամանակաշրջանը
ժամանակաշրջանի
ժամանակաշրջանին
ժամանակաշրջանից
ժամանակաշրջանների
ժամանակաշրջաններում
ժամանակաշրջանում
ժամանակավոր
ժամանակավորապես
ժամանակը
ժամանակի
ժամանակին
ժամանակից
ժամանակն
ժամանակներ
ժամանակները
ժամանակների
ժամանակներից
ժամանակներում
ժամանակով
ժամանակում
ժամանակվա
ժամանակվանից
ժամանել
ժամանեց
ժամանում
ժամանումը
ժամանցային
ժամանցի
ժամատուն
ժամացույց
ժամացույցը
ժամացույցի
ժամացույցների
ժամեր
ժամերը
ժամերի
ժամերին
ժամերով
ժամը
ժամի
ժամին
ժամից
ժամկետ
ժամկետային
ժամկետը
ժամկետի
ժամկետից
ժամկետները
ժամկետով
ժամկետում
ժամյա
ժամն
ժամով
ժամում
ժամվա
ժայռ
ժայռեր
ժայռերը
ժայռերի
ժայռը
ժայռի
ժայռոտ
ժան
ժանեյրո
ժանեյրոյի
ժանեյրոյում
ժաննա
ժանտախտի
ժանր
ժանրային
ժանրերի
ժանրերում
ժանրը
ժանրի
ժանրին
ժանրում
ժապավեն
ժապավենը
ժապավենի
ժապավենով
ժառանգ
ժառանգաբար
ժառանգական
ժառանգել
ժառանգը
ժառանգները
ժառանգների
ժառանգորդ
ժառանգորդը
ժառանգության
ժառանգություն
ժառանգությունը
ժառանգում
ժասմեն
ժբ
ժե
ժեստերի
ժերայս
ժերար
ժերմեն
ժիտոմիրի
ժիրայր
ժիրովսկի
ժլատ
ժխտական
ժխտել
ժխտում
ժղ
ժյուլ
ժյուրիի
ժնև
ժնևի
ժնևում
ժո
ժոզե
ժոզեֆ
ժող
ժողով
ժողովածու
ժողովածուի
ժողովածուն
ժողովածուներ
ժողովածուները
ժողովածուների
ժողովածուներում
ժողովածուում
ժողովը
ժողովի
ժողովին
ժողովն
ժողովների
ժողովում
ժողովուրդ
ժողովուրդը
ժողովուրդն
ժողովուրդներ
ժողովուրդները
ժողովուրդների
ժողովուրդներին
ժողովրդագրական
ժողովրդական
ժողովրդականության
ժողովրդականություն
ժողովրդականությունը
ժողովրդավարական
ժողովրդավարության
ժողովրդավարություն
ժողովրդի
ժողովրդին
ժողովրդից
ժորա
ժորժ
ժուան
ժուռնալիստիկայի
ժուռնալիստների
ժպիտ
ժպիտը
ժպիտով
ժպտալով
ժպտաց
ժպտում
ի
իա
իբն
իբր
իբրահիմ
իբրեւ
իբրև
իգական
իգոր
իդա
իդեալական
իդեալիստական
իեն
իզաբել
իզաբելլա
իզաբելլան
իզուր
իժ
իլ
իլինոյս
իլինոյսի
իլհամ
իլյա
իլյիչ
իխսհ
իկ
իհարկե
իմ
իմամ
իմանա
իմանալ
իմանալով
իմանալու
իմանաս
իմանում
իմաստ
իմաստային
իմաստասեր
իմաստը
իմաստի
իմաստն
իմաստներ
իմաստով
իմաստության
իմաստություն
իմաստուն
իմաց
իմացա
իմացական
իմացան
իմացավ
իմացել
իմացության
իմացությունը
իմերեթի
իմը
իմն
իմուն
իմունային
իմպուլսի
ին
ինգրիդ
ինդեքս
ինդեքսը
ինդեքսի
ինդեքսն
ինդի
ինդիանա
ինդիանայի
ինդոն
ինդոնեզերեն
ինդոնեզիա
ինդոնեզիայի
ինդոնեզիայում
ինդուստրիալ
ինը
ինժեներ
ինժեներաերկրաբանական
ինժեներական
ինժեների
ինժեներների
ինժերկ
ինի
ինծի
ինկերի
ինձ
ինձանից
ինձի
ինձնից
ինն
իննա
իններորդ
ինչ
ինչե
ինչը
ինչի
ինչին
ինչից
ինչն
ինչո
ինչով
ինչու
ինչում
ինչպե
ինչպես
ինչպէս
ինչպիսի
ինչպիսին
ինչպիսիք
ինչքա
ինչքան
ինչևէ
ինսուլինի
ինստագրամ
ինստագրամի
ինստիտուտ
ինստիտուտը
ինստիտուտի
ինստիտուտին
ինստիտուտն
ինստիտուտներ
ինստիտուտները
ինստիտուտների
ինստիտուտում
ինստիտուցիոնալ
ինվազիվ
ինտեգրալ
ինտեգրման
ինտեգրված
ինտելեկտի
ինտելեկտուալ
ինտենսիվ
ինտենսիվության
ինտենսիվությունը
ինտեր
ինտերակտիվ
ինտերի
ինտերիերը
ինտերիերի
ինտերնացիոնալ
ինտերնացիոնալի
ինտերնետ
ինտերնետային
ինտերնետի
ինտիմ
ինք
ինքդ
ինքզինքը
ինքը
ինքն
ինքնաբերաբար
ինքնաբուխ
ինքնագիտակցության
ինքնագիր
ինքնագիրը
ինքնագնաց
ինքնադիմանկար
ինքնաթիռ
ինքնաթիռը
ինքնաթիռի
ինքնաթիռներ
ինքնաթիռները
ինքնաթիռների
ինքնաթիռով
ինքնաթիռում
ինքնակամ
ինքնակառավարման
ինքնակենսագրական
ինքնաձիգ
ինքնապաշտպանական
ինքնապաշտպանության
ինքնասպան
ինքնասպանության
ինքնասպանություն
ինքնավար
ինքնավարության
ինքնավարություն
ինքնավարությունը
ինքնավստահ
ինքնատիպ
ինքներդ
ինքնին
ինքնիշխան
ինքնիշխանության
ինքնորոշման
ինքնության
ինքնությունը
ինքնուրույն
ինքս
ինֆարկտի
ինֆեկցիայի
ինֆեկցիոն
ինֆորմատիկայի
ինֆորմացիա
ինֆորմացիայի
ինֆորմացիան
ինֆորմացիոն
ինֆրակարմիր
իշեմիկ
իշխան
իշխանական
իշխանաց
իշխանը
իշխանի
իշխանին
իշխանյան
իշխանն
իշխաններ
իշխանները
իշխանների
իշխաններին
իշխանության
իշխանությանը
իշխանություն
իշխանությունը
իշխանությունից
իշխանությունն
իշխանությունները
իշխանությունների
իշխանություններին
իշխանություններից
իշխանություններն
իշխանուհի
իշխանուհին
իշխանուհու
իշխել
իշխող
իշխում
իոն
իոնային
իոնների
իոսիֆ
իջած
իջավ
իջել
իջեցման
իջեցնել
իջեցնում
իջեցում
իջեցումը
իջնել
իջնելով
իջնող
իջնում
իջևան
իջևանի
իռացիոնալ
իռլանդական
իռլանդացի
իռլանդերեն
իռլանդիա
իռլանդիայի
իռլանդիայում
իռլանդիան
իս
իսահակ
իսահակյան
իսահակյանը
իսահակյանի
իսլ
իսլամ
իսլամադավան
իսլամական
իսլամը
իսլամի
իսլանդական
իսլանդերեն
իսլանդիա
իսլանդիայի
իսլանդիայում
իսլանդիան
իսկ
իսկական
իսկապես
իսկի
իսկույն
իսմայիլ
իսպ
իսպանական
իսպանացի
իսպանացիները
իսպանացիների
իսպաներեն
իսպանիա
իսպանիայի
իսպանիային
իսպանիայից
իսպանիայում
իսպանիան
իսպառ
իսպիրյան
իսսհ
իսրայել
իսրայելական
իսրայելը
իսրայելի
իսրայելյան
իսրայելում
իսրայելցի
իսրայէլի
իվ
իվան
իվանե
իվանը
իվանի
իվանիչը
իվանով
իվանովը
իվանովի
իվանովիչ
իվանովկա
իվանովնա
իտ
իտալ
իտալական
իտալացի
իտալերեն
իտալիա
իտալիայի
իտալիայից
իտալիայում
իտալիան
իտլ
իր
իրա
իրագործել
իրագործելու
իրագործման
իրագործում
իրագործվում
իրադարձության
իրադարձություն
իրադարձությունը
իրադարձություններ
իրադարձությունները
իրադարձությունների
իրադարձություններին
իրադարձություններից
իրադրության
իրադրությունը
իրական
իրականանում
իրականացման
իրականացմանը
իրականացնել
իրականացնելով
իրականացնելու
իրականացնող
իրականացնում
իրականացում
իրականացումը
իրականացված
իրականացվել
իրականացվեց
իրականացվող
իրականացվում
իրականացրած
իրականացրել
իրականացրեց
իրականության
իրականությանը
իրականություն
իրականությունը
իրականությունից
իրականում
իրան
իրանական
իրանը
իրանի
իրանին
իրանից
իրանում
իրանց
իրանցի
իրանք
իրապես
իրավ
իրավաբան
իրավաբանական
իրավաբանի
իրավաբանների
իրավաբանության
իրավագիտության
իրավագիտություն
իրավական
իրավահաջորդ
իրավահաջորդը
իրավապահ
իրավապաշտպան
իրավասու
իրավասության
իրավարար
իրավացի
իրավգ
իրավիճակ
իրավիճակը
իրավիճակի
իրավիճակին
իրավիճակից
իրավիճակների
իրավիճակներում
իրավիճակում
իրավունք
իրավունքը
իրավունքի
իրավունքին
իրավունքից
իրավունքն
իրավունքներ
իրավունքները
իրավունքների
իրավունքներին
իրավունքներից
իրավունքներն
իրավունքներով
իրավունքով
իրավունքում
իրատեսական
իրար
իրարանցում
իրարից
իրարու
իրացման
իրաք
իրաքը
իրաքի
իրաքյան
իրաքում
իրեն
իրենը
իրենից
իրենով
իրենց
իրենցից
իրենք
իրեր
իրերը
իրերի
իրեք
իրիկուն
իրիկունը
իրինա
իրկուտսկի
իրողություն
իրողությունը
իրոք
իրտիշ
իրտիշի
ից
իցէ
իւր
իւրեանց
իքս
լ
լա
լաբորատոր
լաբորատորիա
լաբորատորիայի
լաբորատորիայում
լաբորատորիան
լազար
լազարյան
լազերային
լազուր
լալ
լալիս
լակ
լայ
լայբնիցը
լայն
լայնածավալ
լայնական
լայնակի
լայնամասշտաբ
լայնորեն
լայնությամբ
լայնության
լայնություն
լայնությունը
լայպցիգ
լայպցիգի
լայպցիգում
լան
լանա
լանդշաֆտային
լանդշաֆտը
լանդշաֆտի
լանդշաֆտները
լանկայի
լանջերը
լանջերի
լանջերին
լանջերից
լանջին
լաուրա
լաչինի
լաս
լավ
լավագույն
լավագույնը
լավագույնն
լավագույնս
լավը
լավն
լավրենտի
լատ
լատինաամերիկյան
լատինական
լատիներեն
լատիներենի
լատիներենից
լատիշ
լատիշերեն
լատվիա
լատվիական
լատվիայի
լատվիայում
լատվիացի
լատվիերեն
լար
լարային
լարերի
լարի
լարիսա
լարման
լարում
լարս
լարված
լարվածության
լարվածություն
լարվածությունը
լաց
լացի
լացիո
լաւ
լգբտ
լե
լեգալ
լեգենդ
լեգենդար
լեգենդը
լեգենդի
լեգենդներ
լեգենդների
լեգեոնի
լեդի
լեզ
լեզու
լեզուի
լեզուն
լեզուներ
լեզուները
լեզուների
լեզուներին
լեզուներից
լեզուներն
լեզուներով
լեզուներում
լեզվաբան
լեզվաբանական
լեզվաբանության
լեզվաբանություն
լեզվաընտանիքի
լեզվական
լեզվբ
լեզվի
լեզվին
լեզվից
լեզվով
լեզվում
լել
լեկտ
լեհ
լեհական
լեհաստան
լեհաստանը
լեհաստանի
լեհաստանից
լեհաստանում
լեհերեն
լեհերի
լեյբլը
լեյբլի
լեյբլում
լեյբորիստական
լեյլա
լեյկոցիտների
լեյտենանտ
լեյտենանտի
լեյք
լեն
լենա
լենին
լենինական
լենինականի
լենինականում
լենինգրադ
լենինգրադի
լենինգրադյան
լենինգրադում
լենինգրադցի
լենինը
լենինի
լենինյան
լենոնի
լեո
լեոն
լեոնարդ
լեոնարդո
լեոնի
լեոնիդ
լեոպոլդ
լեչխում
լեռ
լեռան
լեռը
լեռն
լեռնագագաթ
լեռնադահուկային
լեռնահամակարգում
լեռնային
լեռնանցք
լեռնաշխարհի
լեռնաշխարհում
լեռնաշղթա
լեռնաշղթայի
լեռնաշղթայում
լեռնաշղթան
լեռնաշղթաների
լեռներ
լեռները
լեռների
լեռներից
լեռներով
լեռներում
լես
լեսթեր
լեսլի
լերմոնտովի
լեցուն
լեւոն
լը
լժհ
լի
լիա
լիազոր
լիազորություններ
լիազորությունները
լիազորությունների
լիազորված
լիակատար
լիամետրաժ
լիարժեք
լիբանան
լիբանանի
լիբանանյան
լիբանանում
լիբերալ
լիբերտադորեսի
լիբիայի
լիգա
լիգայի
լիգային
լիգայում
լիգան
լիգուրիա
լիդիա
լիդիան
լիզա
լիզայի
լիզան
լիի
լիիրավ
լիլ
լիլի
լիլիա
լիլիան
լիլիթ
լիկ
լիճ
լիճը
լիճն
լիմ
լին
լինդա
լինեար
լինեի
լինեին
լինել
լինելը
լինելն
լինելով
լինելու
լինելուն
լինելուց
լինեմ
լինեն
լինենք
լինես
լիներ
լինի
լինիլ
լինին
լինում
լինքոլն
լինքոլնի
լիոն
լիոնի
լիովին
լիպեցկի
լիս
լիսաբոն
լիսաբոնի
լիվերպուլ
լիվերպուլի
լիտ
լիտվա
լիտվական
լիտվայի
լիտվայում
լիտվացի
լիտվերեն
լիտր
լիր
լիրիկական
լից
լիցի
լիցք
լիցքանի
լիցքավորված
լիցքը
լիցքի
լիք
լիքը
լիքն
լլոյդ
լծի
լծից
լղ
լղիմ
լղհ
լճակ
լճեր
լճերը
լճերի
լճի
լճից
լճում
լյա
լյաենե
լյաենեմաա
լյարդային
լյարդի
լյարդում
լյու
լյուբով
լյուդմիլա
լյուդովիկոս
լյուդվիգ
լյութեր
լյութերական
լյուիս
լյուիսը
լյուիսի
լյուկ
լյուսի
լյուքսեմբուրգ
լյուքսեմբուրգի
լո
լոբի
լոզանի
լոկ
լոկալ
լոկոմոտիվ
լոկոմոտիվի
լող
լողալ
լողացող
լողի
լողում
լոմբարդիա
լոմոնոսովի
լոյս
լոնգ
լոնդոն
լոնդոնը
լոնդոնի
լոնդոնից
լոնդոնյան
լոնդոնում
լոուրենս
լոուրենսը
լոպես
լոպեսը
լոռի
լոռու
լոս
լոր
լորա
լորան
լորդ
լորեն
լորենցի
լորենցո
լորձաթաղանթի
լու
լուգանսկի
լութ
լուի
լուիզ
լուիզա
լուիզայի
լուիզան
լուիզիանա
լուին
լուիջի
լուիս
լուիսը
լուիսի
լուծ
լուծարվել
լուծարվեց
լուծել
լուծելի
լուծելու
լուծը
լուծման
լուծմանը
լուծմունք
լուծում
լուծումը
լուծումն
լուծումներ
լուծումները
լուծումների
լուծույթ
լուծույթը
լուծույթի
լուծույթների
լուծույթում
լուծված
լուծվել
լուծվող
լուծվում
լուկա
լուկաս
լուկասը
լույս
լույսերը
լույսը
լույսի
լույսից
լույսն
լույսով
լուն
լուռ
լուս
լուսաբանել
լուսաբանում
լուսաբաց
լուսաբացին
լուսագրերում
լուսամուտի
լուսամուտից
լուսային
լուսանկար
լուսանկարել
լուսանկարը
լուսանկարի
լուսանկարիչ
լուսանկարներ
լուսանկարները
լուսանկարների
լուսանկարում
լուսանկարչական
լուսանկարչության
լուսանցազարդ
լուսասեր
լուսավոր
լուսավորական
լուսավորիչ
լուսավորիչը
լուսավորության
լուսավորություն
լուսավորությունը
լուսավորում
լուսավորչական
լուսավորչի
լուսավորված
լուսիկ
լուսին
լուսինե
լուսինը
լուսնային
լուսնի
լուվր
լուվրի
լուր
լուրեր
լուրերը
լուրերի
լուրը
լուրջ
լուց
լուցկի
լռել
լռեց
լռության
լռություն
լռությունը
լռում
լսած
լսարան
լսարանը
լսարանի
լսել
լսելի
լսելով
լսելու
լսեց
լսեցի
լսի
լսիր
լսողական
լսողության
լսում
լսումների
լսվեց
լսվում
լվանալ
լվանում
լվացման
լվացող
լվով
լվովի
լվովում
լրաբեր
լրագիր
լրագրի
լրագրող
լրագրողական
լրագրողի
լրագրողներ
լրագրողները
լրագրողների
լրագրողներին
լրագրության
լրատվական
լրատվամիջոցները
լրատվամիջոցների
լրատվամիջոցներում
լրատվության
լրաց
լրացել
լրացնել
լրացնելու
լրացնում
լրացում
լրացումներ
լրացուցիչ
լրացված
լրացվել
լրիվ
լրումն
լրջորեն
լրտես
լրտեսական
լցնել
լցնելու
լցնում
լցված
լցվել
լցվում
լցրել
լցրեց
լքել
լքեց
լքեցին
լքում
լքված
լքվել
լև
լևի
լևին
լևոն
լևոնը
լևոնի
խ
խա
խաբար
խաբարովսկի
խաբեբա
խաբել
խաբում
խաթաբալա
խաժակ
խալիֆ
խալիֆայության
խախտել
խախտելով
խախտելու
խախտման
խախտում
խախտումը
խախտումների
խախտվել
խախտվում
խակ
խակասիա
խաղ
խաղա
խաղադաշտ
խաղադաշտից
խաղադաշտում
խաղալ
խաղալիք
խաղալիքներ
խաղալիքների
խաղալով
խաղալու
խաղակեսում
խաղաղ
խաղաղապահ
խաղաղության
խաղաղություն
խաղաղությունը
խաղաղօվկիանոսյան
խաղային
խաղարկային
խաղարկության
խաղարկությանը
խաղարկությունն
խաղարկությունում
խաղաց
խաղացած
խաղացել
խաղացին
խաղացող
խաղացողը
խաղացողի
խաղացողին
խաղացողներ
խաղացողները
խաղացողների
խաղացողներին
խաղացողներից
խաղեր
խաղերը
խաղերի
խաղերին
խաղերից
խաղերն
խաղերում
խաղը
խաղի
խաղին
խաղից
խաղն
խաղող
խաղողի
խաղով
խաղում
խայտաբղետ
խայտառակ
խան
խանգարել
խանգարման
խանգարում
խանգարումը
խանգարումներ
խանգարումները
խանգարումների
խանգարումներով
խանգարված
խանզադյան
խանը
խանի
խանին
խանութ
խանութը
խանութի
խանության
խանութներ
խանութները
խանութների
խանութներում
խանութում
խանջյան
խաշած
խաչ
խաչակիրները
խաչակիրների
խաչակրաց
խաչաձև
խաչատուր
խաչատուրի
խաչատրյան
խաչատրյանը
խաչատրյանի
խաչեն
խաչենի
խաչեր
խաչը
խաչի
խաչիկ
խաչիկյան
խաչին
խաչմերուկում
խաչով
խաչքար
խաչքարեր
խաչքարերը
խաչքարերի
խաչքարը
խաչքարի
խառ
խառը
խառն
խառնաշփոթ
խառնարան
խառնել
խառնում
խառնուրդ
խառնուրդը
խառնուրդի
խառնուրդից
խառնուրդների
խառնված
խառնվել
խառնվում
խավար
խավարածրի
խավարը
խավարի
խավարում
խավերի
խավի
խավիեր
խար
խարբերդ
խարբերդի
խարդախ
խարդախության
խարկով
խարկովի
խարկովում
խարույկի
խե
խեթ
խեթական
խեժ
խել
խելագար
խելագարի
խելահեղ
խելամիտ
խելացի
խելոք
խելք
խելքը
խելքի
խելքից
խելքով
խեղդել
խեղդում
խեղճ
խենթ
խեր
խերսոնի
խեցեղեն
խզել
խթան
խթանել
խթանելու
խթանման
խթանող
խթանում
խի
խիզախ
խիզախության
խիղճ
խիղճը
խիստ
խիտ
խլել
խլեց
խլղաթյան
խլում
խղճի
խղճուկ
խճճված
խմ
խմբ
խմբագիր
խմբագիրը
խմբագիրն
խմբագիրներ
խմբագրական
խմբագրել
խմբագրի
խմբագրման
խմբագրությամբ
խմբագրության
խմբագրություն
խմբագրությունը
խմբագրությունում
խմբագրում
խմբակ
խմբակային
խմբակի
խմբակցության
խմբային
խմբավար
խմբավորման
խմբավորում
խմբավորումը
խմբավորումների
խմբեր
խմբերը
խմբերի
խմբերին
խմբերից
խմբերով
խմբերում
խմբի
խմբին
խմբից
խմբով
խմբում
խմել
խմելնիցկիի
խմելու
խմիչք
խմիչքի
խմիչքներ
խմիչքների
խմկկ
խմոր
խմորը
խմորի
խմորման
խմում
խնամակալ
խնամակալության
խնամել
խնամում
խնամք
խնամքը
խնամքի
խնամքով
խնայել
խնայում
խնդիր
խնդիրը
խնդիրն
խնդիրներ
խնդիրները
խնդիրների
խնդիրներին
խնդիրներից
խնդիրներն
խնդիրներով
խնդրահարույց
խնդրանքը
խնդրանքով
խնդրել
խնդրելով
խնդրելու
խնդրեմ
խնդրեց
խնդրեցին
խնդրի
խնդրին
խնդրում
խնձոր
խնձորը
խնձորի
խնուսի
խնջույք
խնջույքի
խո
խոզ
խոզերի
խոզի
խոժոռ
խոլմ
խոհանոց
խոհանոցային
խոհանոցը
խոհանոցի
խոհանոցում
խոհարար
խոհարարական
խոհր
խողովակ
խողովակը
խողովակի
խողովակներ
խողովակների
խոյ
խոյանում
խոյի
խոնավ
խոնավության
խոնավություն
խոնավությունը
խոնարհ
խոնարհվում
խոշոր
խոշորագույն
խոշտանգումների
խոչընդոտ
խոչընդոտել
խոչընդոտներ
խոչընդոտների
խոչընդոտում
խոջա
խոռոչ
խոռոչը
խոռոչի
խոռոչների
խոռոչում
խոս
խոսակցական
խոսակցության
խոսակցություն
խոսակցությունը
խոսե
խոսել
խոսելը
խոսելիս
խոսելով
խոսելու
խոսեց
խոսի
խոսիր
խոսնակ
խոսող
խոսում
խոսվում
խոստանալով
խոստանում
խոստացավ
խոստացել
խոստովանել
խոստովանեց
խոստովանություն
խոստովանությունը
խոստովանում
խոստում
խոստումը
խոստումնալից
խոսրով
խոսրովի
խոսք
խոսքային
խոսքեր
խոսքերը
խոսքերի
խոսքերին
խոսքերից
խոսքերն
խոսքերով
խոսքը
խոսքի
խոսքին
խոսքից
խոսքն
խոսքով
խոսքում
խոտ
խոտաբույս
խոտաբույսերի
խոտերի
խոտը
խոտի
խոտուրջուր
խոր
խորագիրը
խորագրով
խորամանկ
խորան
խորանարդ
խորանը
խորանի
խորանում
խորապես
խորեն
խորենացի
խորենացին
խորենացու
խորը
խորթ
խորին
խորխե
խորհուրդ
խորհուրդը
խորհուրդի
խորհուրդն
խորհուրդներ
խորհուրդները
խորհուրդների
խորհուրդում
խորհրդա
խորհրդական
խորհրդականը
խորհրդականի
խորհրդային
խորհրդանիշ
խորհրդանիշը
խորհրդանիշն
խորհրդանիշներից
խորհրդանշական
խորհրդանշող
խորհրդանշում
խորհրդավոր
խորհրդատու
խորհրդատուն
խորհրդատվական
խորհրդատվություն
խորհրդարան
խորհրդարանական
խորհրդարանը
խորհրդարանի
խորհրդարանում
խորհրդի
խորհրդին
խորհրդով
խորհրդում
խորն
խորշ
խորոված
խորությամբ
խորության
խորություն
խորությունը
խորունկ
խորվ
խորվաթ
խորվաթական
խորվաթերեն
խորվաթիա
խորվաթիայի
խորվաթիայում
խորվաթիան
խորտակված
խորքային
խորքերը
խորքը
խորքից
խորքում
խոց
խոցել
խոցելի
խոցման
խու
խուան
խուդավերդյան
խուզարկու
խութ
խուլ
խուճապ
խուճապային
խուճապի
խումբ
խումբը
խումբն
խույս
խուսափել
խուսափելով
խուսափելու
խուսափում
խուտոր
խռովության
խռովություն
խռպոտ
խսկց
խսհ
խսհմ
խստորեն
խտությամբ
խտության
խտություն
խտությունը
խտրականության
խրախուսել
խրախուսում
խրատ
խրատք
խրճիթ
խրճիթը
խրոնիկական
խցիկ
խփած
խփել
խփելով
խփեց
խփում
ծ
ծա
ծագած
ծագել
ծագեց
ծագմամբ
ծագման
ծագող
ծագում
ծագումը
ծագումն
ծագումով
ծալ
ծալված
ծալքավոր
ծախել
ծախս
ծախսել
ծախսեր
ծախսերը
ծախսերի
ծախսը
ծախսում
ծախսվել
ծախսվում
ծածկ
ծածկած
ծածկանունների
ծածկասերմ
ծածկել
ծածկելու
ծածկեց
ծածկը
ծածկի
ծածկող
ծածկոց
ծածկում
ծածկույթ
ծածկույթը
ծածկույթի
ծածկված
ծածկվել
ծածկվում
ծածուկ
ծակ
ծակոտկեն
ծաղ
ծաղիկ
ծաղիկը
ծաղիկներ
ծաղիկները
ծաղիկների
ծաղիկներից
ծաղիկներով
ծաղկաբույլը
ծաղկած
ծաղկային
ծաղկավոր
ծաղկել
ծաղկի
ծաղկման
ծաղկող
ծաղկում
ծաղկումը
ծաղր
ծաղրածու
ծաղրական
ծաղրել
ծաղրի
ծաղրում
ծայր
ծայրագույն
ծայրահեղ
ծայրահեղական
ծայրամասային
ծայրամասում
ծայրային
ծայրաստիճան
ծայրերը
ծայրը
ծայրի
ծայրին
ծայրից
ծայրով
ծայրում
ծան
ծանոթ
ծանոթագրություններ
ծանոթանալ
ծանոթանալու
ծանոթանում
ծանոթացավ
ծանոթացել
ծանոթացնում
ծանոթացրել
ծանոթների
ծանոթություն
ծանոթությունը
ծանր
ծանրաբեռնված
ծանրաբեռնվածության
ծանրակշիռ
ծանրությամբ
ծանրության
ծանրություն
ծանրությունը
ծանրքաշային
ծառ
ծառա
ծառայել
ծառայելով
ծառայելու
ծառայեց
ծառայի
ծառային
ծառայող
ծառայողական
ծառայողների
ծառայության
ծառայություն
ծառայությունը
ծառայությունից
ծառայությունն
ծառայություններ
ծառայությունները
ծառայությունների
ծառայություններից
ծառայությունում
ծառայում
ծառան
ծառաները
ծառաների
ծառեր
ծառերը
ծառերի
ծառերից
ծառերով
ծառը
ծառի
ծառին
ծառից
ծառյ
ծառուկյան
ծառուղում
ծավալ
ծավալային
ծավալել
ծավալը
ծավալի
ծավալները
ծավալների
ծավալով
ծավալում
ծավալուն
ծավալված
ծավալվել
ծավալվում
ծատուրյան
ծարավ
ծե
ծել
ծեծ
ծեծել
ծեծի
ծեծում
ծեսերի
ծեր
ծերացման
ծերության
ծերուկ
ծերունի
ծերունին
ծերունու
ծերունուն
ծի
ծիածան
ծիծաղ
ծիծաղել
ծիծաղելի
ծիծաղելով
ծիծաղեց
ծիծաղը
ծիծաղի
ծիծաղում
ծին
ծիսական
ծիր
ծիրան
ծիրանագույն
ծիրանի
ծխախոտ
ծխախոտի
ծխական
ծխել
ծխելը
ծխելու
ծխի
ծխում
ծծմբական
ծծմբի
ծն
ծնած
ծնե
ծնել
ծնելիության
ծնեց
ծնկի
ծնկները
ծննդաբերության
ծննդավայր
ծննդավայրը
ծննդավայրի
ծննդավայրում
ծննդյան
ծնող
ծնողական
ծնողները
ծնողների
ծնողներին
ծնողներից
ծնողներն
ծնոտի
ծնում
ծնունդ
ծնունդը
ծնունդից
ծնունդով
ծնվ
ծնված
ծնվել
ծնվելու
ծնվելուց
ծնվեց
ծնվում
ծո
ծով
ծովագնաց
ծովածոցի
ծովակալ
ծովահեն
ծովահենները
ծովահենների
ծովային
ծովափին
ծովափնյա
ծովերի
ծովերում
ծովը
ծովի
ծովին
ծովից
ծովն
ծովով
ծովում
ծոց
ծոցը
ծոցի
ծոցից
ծոցում
ծու
ծութ
ծուխ
ծուխը
ծում
ծույլ
ծուռ
ծռել
ծռեր
ծրագիր
ծրագիրը
ծրագիրն
ծրագրային
ծրագրավորման
ծրագրավորող
ծրագրավորում
ծրագրել
ծրագրեր
ծրագրերը
ծրագրերի
ծրագրերին
ծրագրերից
ծրագրերով
ծրագրերում
ծրագրի
ծրագրին
ծրագրից
ծրագրով
ծրագրում
ծրագրված
կ
կա
կաբելային
կաբինետը
կաբինետի
կաբո
կադր
կադրային
կադրեր
կադրերի
կազ
կազակական
կազակների
կազան
կազանի
կազանում
կազմ
կազմած
կազմակերպած
կազմակերպական
կազմակերպել
կազմակերպելու
կազմակերպեց
կազմակերպեցին
կազմակերպիչ
կազմակերպիչները
կազմակերպիչներից
կազմակերպման
կազմակերպմանը
կազմակերպության
կազմակերպությանը
կազմակերպություն
կազմակերպությունը
կազմակերպությունն
կազմակերպություններ
կազմակերպությունները
կազմակերպությունների
կազմակերպություններին
կազմակերպություններից
կազմակերպություններում
կազմակերպությունում
կազմակերպում
կազմակերպումը
կազմակերպչական
կազմակերպված
կազմակերպվել
կազմակերպվեց
կազմակերպվող
կազմակերպվում
կազմավորման
կազմավորում
կազմավորումը
կազմավորումների
կազմավորված
կազմավորվել
կազմավորվեց
կազմավորվում
կազմել
կազմելով
կազմելու
կազմեց
կազմեցին
կազմը
կազմի
կազմին
կազմից
կազմն
կազմող
կազմով
կազմության
կազմություն
կազմությունը
կազմում
կազմված
կազմվել
կազմվում
կաթ
կաթը
կաթի
կաթիլ
կաթիլներ
կաթից
կաթնային
կաթնասուն
կաթնասուններ
կաթնասունների
կաթոլիկ
կաթոլիկական
կաթոլիկներ
կաթոլիկների
կաթոլիկություն
կաթողիկե
կաթողիկոս
կաթողիկոսական
կաթողիկոսը
կաթողիկոսի
կաթողիկոսին
կաթողիկոսության
կաթով
կաթում
կաթված
կաթվածի
կաթվածից
կալ
կալաբրիա
կալանավորների
կալանքի
կալավ
կալի
կալինինգրադի
կալիումի
կալիֆոռնիա
կալիֆոռնիայի
կալիֆոռնիայում
կալիֆորնիա
կալիֆորնիայի
կալիֆորնիայում
կալուգայի
կալվադոս
կալվածատեր
կալվածք
կալվածքը
կալվածքի
կալվածքները
կալվածքում
կալցիումի
կախ
կախաղան
կախարդ
կախարդական
կախարդանքը
կախարդանքի
կախարդը
կախարդի
կախարդների
կախարդված
կախեթի
կախել
կախյալ
կախովի
կախում
կախված
կախվածության
կախվածություն
կախվածությունը
կախվել
կակաոյի
կահավորված
կահիրե
կահիրեի
կահիրեում
կահույք
կահույքի
կաձուրո
կաղ
կաղապար
կաղապարն
կաղնի
կաղնու
կամ
կամա
կամայական
կամային
կամավոր
կամավորական
կամավորների
կամար
կամարակապ
կամարաձև
կամարը
կամարի
կամարները
կամարների
կամարներով
կամաց
կամենեց
կամենկա
կամենում
կամեո
կամերային
կամերունի
կամիլ
կամո
կամուրջ
կամուրջը
կամուրջի
կամուրջն
կամուրջներ
կամուրջները
կամուրջների
կամչատկա
կամչատկայի
կամպանիա
կամսարական
կամսկի
կամրջի
կամրջից
կամրջով
կամք
կամքը
կամքի
կամքին
կամքից
կամքով
կայ
կայազորը
կայազորի
կայան
կայանալիք
կայանը
կայանի
կայաններ
կայանների
կայանում
կայարան
կայարանը
կայարանի
կայարանից
կայարանում
կայացած
կայացավ
կայացել
կայացման
կայացնել
կայացնելու
կայացնում
կայացվել
կայացրել
կայացրեց
կային
կայծ
կայծակ
կայծակի
կայուն
կայունացման
կայունության
կայունություն
կայունությունը
կայսեր
կայսերական
կայսր
կայսրերի
կայսրը
կայսրի
կայսրին
կայսրության
կայսրությանը
կայսրություն
կայսրությունը
կայսրությունից
կայսրությունում
կայսրուհի
կայսրուհին
կայսրուհու
կայք
կայքեր
կայքերի
կայքերում
կայքէջ
կայքէջը
կայքէջում
կայքը
կայքի
կայքից
կայքում
կան
կանադա
կանադական
կանադայի
կանադայում
կանադան
կանադացի
կանայք
կանանց
կանանցից
կանաչ
կանաչապատման
կանաչավուն
կանաչի
կանաչների
կանարյան
կանացի
կանգ
կանգնած
կանգնել
կանգնելով
կանգնելու
կանգնեց
կանգնեցնել
կանգնեցնում
կանգնեցված
կանգնեցվել
կանգնեցրել
կանգնեցրեց
կանգնում
կանգուն
կանեդայի
կանեմ
կանես
կանզաս
կանի
կանխամտածված
կանխատեսել
կանխատեսման
կանխատեսում
կանխատեսումը
կանխարգելիչ
կանխարգելման
կանխարգելում
կանխարգելումը
կանխել
կանխելու
կանխիկ
կանխման
կանխում
կաննի
կանոն
կանոնադրությամբ
կանոնադրության
կանոնադրությունը
կանոնական
կանոնավոր
կանոնը
կանոնի
կանոններ
կանոնները
կանոնների
կանոններին
կանոններով
կանուխ
կանչ
կանչել
կանչելու
կանչեց
կանչը
կանչի
կանչում
կանչվել
կանտալ
կանտոն
կանտոնի
կանտոնն
կանտոնում
կանցլեր
կանցնի
կաշառք
կաշեպատ
կաշի
կաշին
կաշվե
կաշվի
կաշվից
կապ
կապած
կապակցությամբ
կապակցության
կապակցված
կապան
կապանի
կապարի
կապել
կապելլայի
կապելով
կապելու
կապեր
կապերը
կապերի
կապերով
կապեց
կապը
կապի
կապիկների
կապիտալ
կապիտալը
կապիտալի
կապիտալիզմի
կապիտալիստական
կապիտան
կապիտանի
կապն
կապող
կապով
կապում
կապույտ
կապույտը
կապուտիկյան
կապված
կապվել
կապվում
կապտավուն
կապրի
կառավ
կառավարական
կառավարել
կառավարելու
կառավարիչ
կառավարիչը
կառավարիչների
կառավարման
կառավարմանը
կառավարող
կառավարության
կառավարությանը
կառավարությանն
կառավարություն
կառավարությունը
կառավարությունից
կառավարությունն
կառավարությունները
կառավարությունների
կառավարությունում
կառավարում
կառավարումը
կառավարչական
կառավարչի
կառավարվող
կառավարվում
կառլ
կառլեն
կառլը
կառլի
կառլո
կառլոս
կառույց
կառույցը
կառույցի
կառույցն
կառույցներ
կառույցները
կառույցների
կառույցներից
կառույցներում
կառուցած
կառուցապատման
կառուցել
կառուցելու
կառուցեց
կառուցեցին
կառուցման
կառուցմանը
կառուցողական
կառուցում
կառուցումը
կառուցումից
կառուցումն
կառուցված
կառուցվածք
կառուցվածքային
կառուցվածքը
կառուցվածքի
կառուցվածքն
կառուցվածքներ
կառուցվածքները
կառուցվածքների
կառուցվածքով
կառուցվածքում
կառուցվել
կառուցվեց
կառուցվեցին
կառուցվող
կառուցվում
կառք
կառքը
կառքի
կաս
կասեմ
կասեն
կասես
կասեցնել
կասի
կասկադ
կասկած
կասկածանքով
կասկածել
կասկածելի
կասկածի
կասկածներ
կասկածները
կասկածում
կասպիական
կասպից
կաստիլիա
կաստիլիայի
կավ
կավային
կավե
կավի
կավից
կավճի
կատ
կատալոգ
կատալոնական
կատալոնիա
կատալոնիայի
կատակ
կատակերգական
կատակերգու
կատակերգության
կատակերգություն
կատակերգությունը
կատակերգությունում
կատակով
կատաղած
կատաղի
կատաղության
կատար
կատարած
կատարել
կատարելագործել
կատարելագործման
կատարելագործված
կատարելագործվել
կատարելապես
կատարելը
կատարելիս
կատարելով
կատարելու
կատարելության
կատարելուց
կատարեն
կատարեց
կատարեցին
կատարը
կատարի
կատարինա
կատարմամբ
կատարման
կատարմանը
կատարյալ
կատարող
կատարողական
կատարողը
կատարողի
կատարողներ
կատարողների
կատարում
կատարումը
կատարված
կատարվածի
կատարվել
կատարվեց
կատարվեցին
կատարվի
կատարվող
կատարվում
կատեգորիա
կատեգորիայի
կատեգորիայում
կատեգորիաների
կատերինա
կատյա
կատու
կատուն
կատուներ
կատուները
կատուների
կատվի
կատվին
կար
կարա
կարագ
կարապետ
կարապետի
կարապետյան
կարապետյանը
կարապետյանի
կարապի
կարգ
կարգադրել
կարգադրությամբ
կարգախոսը
կարգախոսն
կարգային
կարգավիճակ
կարգավիճակը
կարգավիճակի
կարգավիճակին
կարգավիճակով
կարգավիճակում
կարգավորել
կարգավորելու
կարգավորիչ
կարգավորման
կարգավորմանը
կարգավորող
կարգավորում
կարգավորումը
կարգավորված
կարգավորվում
կարգեր
կարգերը
կարգերի
կարգը
կարգի
կարգին
կարգն
կարգով
կարգում
կարդա
կարդալ
կարդալով
կարդալու
կարդաց
կարդացած
կարդացե
կարդացել
կարդացվում
կարդինալ
կարդում
կարել
կարելական
կարելի
կարելիայի
կարելիի
կարեն
կարեւոր
կարի
կարիբյան
կարիերա
կարիերայի
կարիերային
կարիերայից
կարիերայում
կարիերան
կարին
կարինե
կարինի
կարիք
կարիքը
կարիքները
կարիքների
կարլ
կարլոս
կարծել
կարծելով
կարծեմ
կարծես
կարծիք
կարծիքը
կարծիքի
կարծիքին
կարծիքն
կարծիքներ
կարծիքները
կարծիքների
կարծիքով
կարծում
կարծր
կարկանդակ
կարկառուն
կարկասոն
կարճ
կարճաժամկետ
կարճահասակ
կարճամետրաժ
կարճատև
կարմեն
կարմիր
կարմիրը
կարմրավուն
կարո
կարոլին
կարոլինա
կարոլինայի
կարող
կարողանա
կարողանան
կարողանար
կարողանում
կարողացան
կարողացավ
կարողացել
կարողության
կարողություն
կարողությունը
կարողությունները
կարողությունների
կարոն
կարոտ
կարոտը
կարոտի
կարում
կարուսել
կարս
կարսի
կարված
կարտոֆիլ
կարտոֆիլի
կարևոր
կարևորագույն
կարևորության
կարևորություն
կարևորությունը
կարևորում
կարևորվում
կաց
կացան
կացավ
կացարան
կացել
կացին
կացնում
կացության
կացվել
կացվում
կացրել
կբ
կբերի
կգ
կգա
կգամ
կգան
կգնա
կգնամ
կդառնա
կդառնան
կդառնար
կե
կեանքը
կեանքի
կեդրոն
կել
կելտական
կեղծ
կեղծանունը
կեղծանունով
կեղծանվամբ
կեղծավոր
կեղծել
կեղտոտ
կեղև
կեղևը
կեղևի
կեղևով
կեմերովոյի
կեն
կենա
կենալ
կենաց
կենացը
կենդանաբանական
կենդանաբանության
կենդանական
կենդանի
կենդանին
կենդանիներ
կենդանիները
կենդանիների
կենդանիներին
կենդանիներից
կենդանու
կենդանության
կենդանություն
կենդանուն
կենդբ
կենում
կենս
կենսաբազմազանության
կենսաբան
կենսաբանական
կենսաբանության
կենսաբանություն
կենսագիր
կենսագործունեության
կենսագրական
կենսագրության
կենսագրություն
կենսագրությունը
կենսաթոշակային
կենսական
կենսակերպ
կենսակերպի
կենսաքիմիական
կենսաքիմիայի
կենսթոշ
կենսունակ
կենսք
կենտ
կենտավրոսի
կենտկոմի
կենտուկի
կենտրոն
կենտրոնական
կենտրոնանալ
կենտրոնանալով
կենտրոնանում
կենտրոնացած
կենտրոնացել
կենտրոնացման
կենտրոնացնել
կենտրոնացված
կենտրոնը
կենտրոնի
կենտրոնին
կենտրոնից
կենտրոնն
կենտրոններ
կենտրոնները
կենտրոնների
կենտրոններից
կենտրոններում
կենտրոնով
կենտրոնում
կենցաղային
կենցաղը
կենցաղի
կեռ
կես
կեսար
կեսարը
կեսարի
կեսարիա
կեսարին
կեսգիշերին
կեսերը
կեսերին
կեսերից
կեսը
կեսի
կեսին
կեսից
կեսն
կեսում
կեսօր
կեսօրին
կետ
կետադրական
կետային
կետեր
կետերը
կետերի
կետերից
կետերով
կետերում
կետը
կետի
կետին
կետից
կետն
կետով
կետում
կեր
կերած
կերակուր
կերակուրը
կերակուրներ
կերակրափողի
կերակրել
կերակրի
կերակրման
կերակրում
կերամիկական
կերային
կերան
կերավ
կերել
կերթա
կերի
կերպ
կերպար
կերպարանք
կերպարանքը
կերպարանքով
կերպարը
կերպարի
կերպարին
կերպարն
կերպարներ
կերպարները
կերպարների
կերպարներին
կերպարներից
կերպարներով
կերպարով
կերպարում
կերպարվեստի
կերպով
կերտած
կերտել
կերտված
կեցության
կեցվածք
կեցցե
կզմխս
կէս
կը
կըլի
կըլլա
կընկնի
կթողարկվի
կի
կիթառ
կիթառահար
կիթառը
կիթառի
կիլիկիա
կիլիկիայի
կիլիկիայում
կիլիկիան
կիլիկիո
կիլիկյան
կիլոգրամ
կիլոմետր
կիխոտ
կիխոտը
կիկլոպյան
կիմ
կին
կինեմատոգրաֆիական
կինեմատոգրաֆիայի
կինեմատոգրաֆիստների
կինետիկ
կինը
կինն
կինո
կինոակադեմիայի
կինոարվեստի
կինոարտադրության
կինոդերասան
կինոընկերության
կինոթատրոն
կինոթատրոնի
կինոթատրոններում
կինոթատրոնում
կինոմրցանակ
կինոմրցանակի
կինոյի
կինոյում
կինոն
կինոնկար
կինոնկարը
կինոնկարի
կինոնկարների
կինոնկարներում
կինոնկարում
կինոպոիսկ
կինոռեժիսոր
կինոստուդիայի
կինոստուդիայում
կինոփառատոն
կինոփառատոնի
կինոփառատոնին
կինոփառատոնում
կինոքննադատ
կինոքննադատների
կինոօպերատոր
կիպրոս
կիպրոսի
կիպրոսում
կիսաանապատային
կիսագնդի
կիսագնդում
կիսաեզրափակիչ
կիսաեզրափակիչում
կիսաեզրափակչի
կիսաեզրափակչում
կիսախորան
կիսահաղորդչային
կիսանդրի
կիսանդրին
կիսաշրջանաձև
կիսապաշտպան
կիսապաշտպանի
կիսավեր
կիսատ
կիսել
կիսով
կիսում
կիսվել
կիսվում
կիտրոնի
կիր
կիրակի
կիրակնօրյա
կիրակոս
կիրակոսյան
կիրառական
կիրառել
կիրառելի
կիրառելով
կիրառելու
կիրառմամբ
կիրառման
կիրառության
կիրառություն
կիրառությունը
կիրառում
կիրառումը
կիրառումներ
կիրառումները
կիրառումների
կիրառված
կիրառվել
կիրառվող
կիրառվում
կիրիլ
կիրճ
կիրճը
կիրճի
կիրճում
կիրովական
կիրովականի
կիրովի
կիրովոգրադի
կիրք
կիրքը
կից
կիև
կիևի
կիևյան
կիևում
կլանել
կլանի
կլանման
կլանում
կլաուս
կլաուսի
կլասիցիզմի
կլարա
կլեոպատրա
կլետում
կլերմոն
կլիմա
կլիմայական
կլիմայի
կլիման
կլինեին
կլինեմ
կլինեն
կլիներ
կլինի
կլինիկա
կլինիկական
կլինիկայի
կլինիկայում
կլոդ
կլոր
կլորավուն
կծկման
կծու
կկ
կկարողանա
կհանգեցնի
կհասնի
կհվ
կղզեխմբի
կղզի
կղզին
կղզիներ
կղզիները
կղզիների
կղզիներից
կղզիներում
կղզու
կղզում
կղզուց
կմ
կմախք
կմախքային
կմախքը
կմախքի
կմնա
կյանք
կյանքը
կյանքի
կյանքին
կյանքից
կյանքն
կյանքով
կյանքում
կյանքս
կյուրեղ
կնիկ
կնիկը
կնիկն
կնիք
կնիքը
կնկա
կնոջ
կնոջը
կնոջից
կնոջն
կնության
կնչ
կնքած
կնքահայրը
կնքել
կնքելով
կնքելու
կնքեց
կնքեցին
կնքման
կնքում
կնքված
կնքվել
կնքվեց
կնքվում
կշիռ
կշիռը
կշռում
կո
կոալիցիայի
կոալիցիան
կոալիցիոն
կոբալյան
կոգան
կոգնիտիվ
կոդ
կոդավորում
կոդը
կոդի
կոդով
կոթ
կոթող
կոթողը
կոթողի
կոլեգիայի
կոլեկտիվ
կոլեկտիվը
կոլեկտիվի
կոլեկցիոներ
կոլորադո
կոլորադոյի
կոլումբիա
կոլումբիական
կոլումբիայի
կոլումբիայում
կոլումբոսը
կոլումբոսի
կոլսկի
կոլտնտեսության
կոխ
կոխել
կոկա
կոկաինի
կոկորդը
կոկորդի
կոկորդիլոս
կող
կողային
կողմ
կողմեր
կողմերը
կողմերի
կողմերին
կողմերից
կողմերն
կողմերով
կողմերում
կողմը
կողմի
կողմին
կողմից
կողմն
կողմնակի
կողմնակից
կողմնակիցներ
կողմնակիցները
կողմնակիցների
կողմնային
կողմնորոշման
կողմնորոշում
կողմնորոշումը
կողմնորոշված
կողմով
կողմում
կողոպուտի
կողոպտել
կողք
կողքի
կողքին
կողքից
կողքով
կոճակը
կոմայի
կոմբինատի
կոմեդիայի
կոմերիտական
կոմերիտմիության
կոմերցիոն
կոմի
կոմիկ
կոմիկական
կոմիսար
կոմիսարիատի
կոմիսարների
կոմիտաս
կոմիտասի
կոմիտե
կոմիտեի
կոմիտեին
կոմիտեն
կոմիտեում
կոմիքսների
կոմկուսի
կոմո
կոմունա
կոմունալ
կոմունայի
կոմունայում
կոմունան
կոմունաներ
կոմունիզմի
կոմունիստ
կոմունիստական
կոմունիստների
կոմպակտ
կոմպլեքս
կոմպոզիտոր
կոմպոզիտորը
կոմպոզիտորի
կոմպոզիտորներ
կոմպոզիտորների
կոմպոզիցիա
կոմպոզիցիայի
կոմպոզիցիան
կոմպոզիցիաներ
կոմպոզիցիոն
կոմս
կոմսը
կոմսի
կոմսության
կոմսություն
կոմսությունում
կոմսուհի
կոն
կոնաձև
կոնան
կոնգոյի
կոնգրես
կոնգրեսը
կոնգրեսի
կոնգրեսին
կոնգրեսում
կոնեկտիկուտ
կոնի
կոնկակաֆ
կոնկրետ
կոնյակի
կոնսերվատորիա
կոնսերվատորիայի
կոնսերվատորիայում
կոնսերվատորիան
կոնստանտին
կոնստրուկտոր
կոնստրուկցիաների
կոնվենցիա
կոնվենցիայի
կոնվենցիան
կոնվենցիաների
կոնտակտային
կոնրադ
կոնցենտրացիայի
կոնցենտրացիան
կոնցեպցիան
կոնցերտ
կոնցերտը
կոնքի
կոնֆեդերացիայի
կոնֆերանս
կոնֆերանսը
կոնֆերանսի
կոնֆերանսում
կոնֆերենցիայի
կոնֆլիկտ
կոնֆլիկտը
կոնֆլիկտի
կոնֆլիկտների
կոշիկ
կոշիկի
կոշիկներ
կոշիկները
կոշիկների
կոշտ
կոոպերատիվ
կոորդինատային
կոորդինատները
կոորդինատների
կոչ
կոչել
կոչեց
կոչի
կոչման
կոչմանը
կոչով
կոչում
կոչումը
կոչումներ
կոչումների
կոչումով
կոչված
կոչվել
կոչվեց
կոչվող
կոչվում
կոպեկ
կոպենհագեն
կոպենհագենի
կոպենհագենում
կոպիտ
կոռնելիս
կոռուպցիայի
կոսմետիկ
կոսովոյի
կոստա
կոստանդին
կոստանդնուպոլիս
կոստանդնուպոլսի
կոստանդնուպոլսում
կով
կովը
կովի
կովկաս
կովկասը
կովկասի
կովկասյան
կովկասում
կոտ
կոտայքի
կոտորած
կոտորածը
կոտորածի
կոտորածների
կոտորել
կոտորում
կոտորվել
կոտրած
կոտրել
կոտրում
կոտրված
կոտրվածք
կոտրվածքի
կոտրվածքների
կոտրվել
կոր
կորած
կորավ
կորդովայի
կորեա
կորեական
կորեայի
կորեայում
կորեան
կորեացի
կորեերեն
կորել
կորը
կորի
կորիզ
կորիզը
կործանարար
կործանել
կործանիչ
կործանման
կործանում
կործանումը
կործանումից
կործանվել
կորկոտյան
կորյուն
կորոնավիրուսի
կորոնար
կորուսյալ
կորուստ
կորուստը
կորուստներ
կորուստները
կորուստների
կորչել
կորչում
կորպորատիվ
կորպորացիայի
կորպորացիան
կորպուս
կորպուսը
կորպուսի
կորսված
կորստի
կորտեսի
կորցնել
կորցնելով
կորցնելու
կորցնում
կորցրած
կորցրել
կորցրեց
կու
կուբա
կուբայի
կուբայում
կուբան
կուբանի
կուգա
կուզե
կուզեի
կուզեմ
կուզես
կուզնեցով
կութ
կուլ
կուլտնուս
կուլտուրա
կուլտուրական
կուլտուրայի
կուլտուրաների
կուկ
կուկի
կում
կույբիշևի
կույս
կույսի
կույտ
կույր
կուն
կունենա
կունենան
կունենար
կունեո
կուշիրոյում
կուշտ
կուշտը
կուչ
կուռ
կուսակցական
կուսակցության
կուսակցությանը
կուսակցություն
կուսակցությունը
կուսակցությունից
կուսակցությունն
կուսակցություններ
կուսակցությունները
կուսակցությունների
կուտ
կուտա
կուտակել
կուտակման
կուտակում
կուտակումը
կուտակված
կուտակվել
կուտակվում
կուտար
կուր
կուրի
կուրծք
կուրծքը
կուրս
կուրսը
կուրսի
կուրսկի
կուրսում
կուրտ
կպած
կպչել
կպչուն
կռիլյա
կռիվ
կռիվը
կռիվներ
կռիվների
կռիվներին
կռունկ
կռվել
կռվելու
կռվի
կռվող
կռվում
կսկսի
կստանա
կստանանք
կվերադառնա
կվտ
կտա
կտակ
կտակարանի
կտակել
կտակը
կտակի
կտամ
կտան
կտանի
կտաս
կտավ
կտավը
կտավի
կտավն
կտավներ
կտավները
կտավների
կտավում
կտար
կտեսնես
կտոր
կտորը
կտորի
կտորից
կտորներ
կտորները
կտորների
կտուրի
կտուց
կտուցը
կտրած
կտրականապես
կտրել
կտրելով
կտրելու
կտրեց
կտրի
կտրող
կտրուկ
կտրում
կտրված
կտրվածք
կտրվածքի
կտրվածքով
կտրվել
կտրվում
կտրտված
կրած
կրակ
կրակային
կրակե
կրակել
կրակը
կրակի
կրակին
կրակից
կրակն
կրակով
կրակովի
կրակոտ
կրակոց
կրակում
կրասնայա
կրասնի
կրասնինսկի
կրասնոդար
կրասնոդարի
կրասնոյարսկի
կրավորական
կրավորականը
կրավորականն
կրել
կրելով
կրելու
կրեմլի
կրետե
կրետեի
կրեց
կրեցին
կրթ
կրթաթոշակ
կրթական
կրթությամբ
կրթության
կրթություն
կրթությունը
կրթությունն
կրթված
կրի
կրիս
կրիտիկական
կրծքագեղձի
կրծքային
կրծքանշան
կրծքավանդակի
կրծքի
կրծքին
կրծքով
կրկես
կրկեսային
կրկեսի
կրկին
կրկյաշարյան
կրկնակի
կրկնել
կրկնելով
կրկնեց
կրկնում
կրկնվել
կրկնվող
կրկնվում
կրկնօրինակ
կրկնօրինակել
կրկնօրինակը
կրկնօրինակում
կրճատ
կրճատել
կրճատման
կրճատում
կրճատումը
կրճատված
կրճատվել
կրճատվեց
կրճատվում
կրնա
կրնար
կրող
կրոն
կրոնական
կրոնը
կրոնի
կրոնին
կրոնների
կրում
կրուս
կրտսեր
կրտսերը
կրտսերի
կրքի
կրքոտ
կցել
կցկտուր
կցված
կօգնի
հ
հա
հաա
հաագայի
հաբեթական
հաբսբուրգների
հագած
հագել
հագեցած
հագին
հագնել
հագնում
հագնված
հագուստ
հագուստը
հագուստի
հագուստներ
հագուստները
հագուստների
հագուստով
հադրութի
հազ
հազար
հազարամյակ
հազարամյակի
հազարամյակների
հազարամյակում
հազարանոց
հազարավոր
հազարը
հազարի
հազարից
հազի
հազիվ
հազվագյուտ
հազվադեպ
հալ
հալալ
հալածանքների
հալածում
հալեպ
հալեպի
հալեպում
հալման
հալվում
հախվերդյան
հակ
հակա
հակաբիոտիկների
հակաբորբոքային
հակադարձ
հակադիր
հակադրություն
հակադրությունը
հակադրվում
հակախորհրդային
հակահարված
հակահեղափոխական
հակամարմիններ
հակամարմինների
հակամարտող
հակամարտության
հակամարտություն
հակամարտությունը
հակամարտությունների
հակառակ
հակառակը
հակառակն
հակառակորդ
հակառակորդը
հակառակորդի
հակառակորդին
հակառակորդները
հակառակորդների
հակառակորդներին
հակասական
հակասեմական
հակասող
հակասության
հակասություններ
հակասությունները
հակասությունների
հակասում
հակավիրուսային
հակատանկային
հակաօդային
հակաֆաշիստական
հակիրճ
հակոբ
հակոբի
հակոբյան
հակոբյանը
հակոբյանի
հակում
հակումը
հակված
հահ
հահգբ
հաղթած
հաղթական
հաղթահարել
հաղթահարելով
հաղթահարելու
հաղթահարման
հաղթահարում
հաղթանակ
հաղթանակած
հաղթանակը
հաղթանակի
հաղթանակին
հաղթանակից
հաղթանակն
հաղթանակներ
հաղթանակները
հաղթանակների
հաղթանակով
հաղթել
հաղթելով
հաղթելու
հաղթելուց
հաղթեց
հաղթեցին
հաղթող
հաղթողը
հաղթողի
հաղթողին
հաղթողներ
հաղթողները
հաղթում
հաղորդագրության
հաղորդագրություն
հաղորդագրությունը
հաղորդագրություններ
հաղորդագրությունները
հաղորդագրությունների
հաղորդակցման
հաղորդակցության
հաղորդակցություն
հաղորդակցությունը
հաղորդակցվում
հաղորդավար
հաղորդավարուհի
հաղորդել
հաղորդելու
հաղորդեց
հաղորդման
հաղորդում
հաղորդումը
հաղորդումներ
հաղորդումները
հաղորդումների
հաղորդվել
հաղորդվում
հաճախ
հաճախականությամբ
հաճախականության
հաճախականությունը
հաճախակի
հաճախել
հաճախորդ
հաճախորդը
հաճախորդի
հաճախորդները
հաճախորդների
հաճախորդներին
հաճախության
հաճախությունը
հաճախում
հաճելի
հաճի
հաճն
հաճույք
հաճույքի
հաճույքով
համ
համա
համագործակցել
համագործակցելով
համագործակցությամբ
համագործակցության
համագործակցություն
համագործակցությունը
համագործակցում
համագումար
համագումարը
համագումարի
համագումարին
համագումարում
համադաշնության
համադրությամբ
համադրություն
համադրությունը
համաեվրոպական
համազ
համազասպ
համազգային
համազգեստ
համաժողովը
համաժողովի
համաժողովրդական
համալիր
համալիրը
համալիրի
համալիրներ
համալիրների
համալիրում
համալսարան
համալսարանական
համալսարանը
համալսարանի
համալսարանին
համալսարանից
համալսարանն
համալսարաններ
համալսարանները
համալսարանների
համալսարաններից
համալսարաններում
համալսարանում
համալրել
համալրում
համալրվել
համախառն
համախմբել
համախմբված
համախոհների
համախումբ
համախտանիշ
համախտանիշը
համախտանիշի
համախտանիշով
համակարգ
համակարգային
համակարգել
համակարգեր
համակարգերը
համակարգերի
համակարգերից
համակարգերում
համակարգը
համակարգի
համակարգին
համակարգիչ
համակարգիչը
համակարգիչները
համակարգիչների
համակարգից
համակարգման
համակարգն
համակարգող
համակարգով
համակարգում
համակարգչային
համակարգչի
համակարգված
համակենտրոնացման
համակված
համակրանք
համակրանքը
համակրելի
համակցված
համահայկական
համահավաք
համահեղինակ
համահեղինակությամբ
համահիմնադիր
համահունչ
համաձայն
համաձայնագիր
համաձայնագիրը
համաձայնագրեր
համաձայնագրերի
համաձայնագրի
համաձայնագրով
համաձայնել
համաձայնեց
համաձայնեցված
համաձայնությամբ
համաձայնության
համաձայնություն
համաձայնությունը
համաձայնում
համաձայնվել
համաձայնվեց
համաձայնվում
համաճարակ
համաճարակի
համամասնական
համամարդկային
համամիութենական
համային
համայն
համայնապատկերը
համայնք
համայնքային
համայնքը
համայնքի
համայնքին
համայնքն
համայնքներ
համայնքները
համայնքների
համայնքներին
համայնքներից
համայնքներում
համայնքում
համանման
համանուն
համաշխարհային
համաչափ
համապատասխան
համապատասխանաբար
համապատասխանել
համապատասխանող
համապատասխանության
համապատասխանությունը
համապատասխանում
համապարփակ
համապետական
համառ
համառոտ
համառորեն
համառուսական
համառուսաստանյան
համառօտ
համասեռ
համաստեղության
համաստեղություն
համատարած
համատեղ
համատեղել
համատեղելի
համատեղության
համատեղում
համատեքստում
համար
համարակալված
համարանիշերի
համարել
համարելով
համարեց
համարեցին
համարը
համարժեք
համարի
համարձակ
համարձակություն
համարձակվում
համարյա
համարներ
համարները
համարների
համարով
համարում
համարվել
համարվեց
համարվող
համարվում
համացանց
համացանցային
համացանցի
համացանցում
համբավ
համբավը
համբարձման
համբարձում
համբարձումյան
համբարձումյանը
համբարձումյանի
համբերել
համբույր
համբուրգ
համբուրգի
համբուրգում
համբուրել
համբուրեց
համբուրում
համեղ
համեմատ
համեմատաբար
համեմատած
համեմատական
համեմատել
համեմատելի
համեմատելով
համեմատությամբ
համեմատության
համեմատություն
համեմատությունը
համեմատում
համեմատվել
համեմատվում
համեմունք
համեմունքներ
համեմունքների
համենայն
համեստ
համերաշխության
համերաշխություն
համերգ
համերգային
համերգը
համերգի
համերգին
համերգներ
համերգները
համերգների
համերգներին
համերգներով
համը
համընդհանուր
համընթաց
համընկել
համընկնում
համի
համիդ
համլետ
համլետի
համկ
համշեն
համո
համոզել
համոզեց
համոզիչ
համոզմունքները
համոզմունքների
համոզում
համոզված
համով
համույթի
համր
հայ
հայաբնակ
հայագետ
հայագիտական
հայագիտության
հայազգի
հայաթափվել
հայաստան
հայաստանը
հայաստանի
հայաստանին
հայաստանից
հայաստանյայց
հայաստանյան
հայաստանն
հայաստանում
հայատառ
հայացք
հայացքը
հայացքի
հայացքից
հայացքներ
հայացքները
հայացքների
հայացքներով
հայացքով
հայբուսակ
հայդելբերգում
հայելային
հայելի
հայելին
հայելու
հայեր
հայերեն
հայերենը
հայերենի
հայերենում
հայերէն
հայերը
հայերի
հայերին
հայերից
հայերն
հայերով
հայեցակարգը
հայեցակարգի
հայը
հայի
հայիթիի
հայկ
հայկազ
հայկազյան
հայկական
հայկի
հայնրիխ
հայոց
հայության
հայությունը
հայպետհրատ
հայպետուսմանհրատ
հայտ
հայտարարել
հայտարարելով
հայտարարելու
հայտարարեց
հայտարարեցին
հայտարարությամբ
հայտարարության
հայտարարություն
հայտարարությունը
հայտարարություններ
հայտարարությունները
հայտարարում
հայտարարված
հայտարարվել
հայտարարվեց
հայտարարվում
հայտացուցակում
հայտնաբերել
հայտնաբերելու
հայտնաբերեց
հայտնաբերեցին
հայտնաբերման
հայտնաբերում
հայտնաբերումը
հայտնաբերված
հայտնաբերվել
հայտնաբերվեց
հայտնաբերվեցին
հայտնաբերվում
հայտնագործել
հայտնագործությունը
հայտնագործությունների
հայտնել
հայտնելով
հայտնելու
հայտնեց
հայտնեցին
հայտնի
հայտնիություն
հայտնություն
հայտնում
հայտնված
հայտնվել
հայտնվելը
հայտնվելով
հայտնվելու
հայտնվելուց
հայտնվեց
հայտնվեցին
հայտնվում
հայր
հայրական
հայրապետ
հայրապետական
հայրապետը
հայրապետի
հայրապետյան
հայրենական
հայրենականում
հայրենակցական
հայրենասեր
հայրենասիրական
հայրենասիրության
հայրենի
հայրենիք
հայրենիքը
հայրենիքի
հայրենիքին
հայրենիքից
հայրենիքն
հայրենիքում
հայրերը
հայրերի
հայրը
հայրիկ
հայրիկը
հայրիկի
հայրն
հայրս
հայց
հայք
հայքը
հայքի
հայքում
հայֆիլմ
հան
հանա
հանած
հանածոների
հանգած
հանգամանորեն
հանգամանք
հանգամանքը
հանգամանքի
հանգամանքին
հանգամանքից
հանգամանքները
հանգամանքների
հանգամանքներում
հանգամանքով
հանգել
հանգեցնել
հանգեցնելով
հանգեցնում
հանգեցրել
հանգեցրեց
հանգեցրին
հանգըլ
հանգիստ
հանգիստը
հանգում
հանգույց
հանգույցը
հանգույցի
հանգույցներ
հանգույցները
հանգույցների
հանգուցյալ
հանգուցյալի
հանգչում
հանգստանալ
հանգստանալու
հանգստանում
հանգստացնել
հանգստացնող
հանգստի
հանգստյան
հանգստություն
հանդարտ
հանդեպ
հանդես
հանդեսը
հանդեսի
հանդեսում
հանդերձ
հանդերձյալ
հանդէս
հանդիպած
հանդիպակաց
հանդիպել
հանդիպելով
հանդիպելու
հանդիպեց
հանդիպեցին
հանդիպման
հանդիպմանը
հանդիպող
հանդիպում
հանդիպումը
հանդիպումից
հանդիպումն
հանդիպումներ
հանդիպումները
հանդիպումների
հանդիպումներին
հանդիպումներից
հանդիպումներում
հանդիսական
հանդիսանալ
հանդիսանալով
հանդիսանում
հանդիսավոր
հանդիսավորությամբ
հանդիսատես
հանդիսատեսը
հանդիսատեսի
հանդիսատեսին
հանդիսացան
հանդիսացավ
հանդիսացել
հանդիսացող
հանդուգն
հանդուրժողականության
հանել
հանելով
հանելու
հանելուկներ
հանեց
հանեցին
հանի
հանկարծ
հանկարծակի
հանձն
հանձնաժողով
հանձնաժողովը
հանձնաժողովի
հանձնաժողովին
հանձնաժողովների
հանձնաժողովում
հանձնակատար
հանձնարարել
հանձնարարեց
հանձնարարությամբ
հանձնարարություն
հանձնարարում
հանձնարարված
հանձնարարվել
հանձնել
հանձնելով
հանձնելու
հանձնեց
հանձնման
հանձնում
հանձնված
հանձնվել
հանձնվեց
հանձնվում
հանճար
հանճարեղ
հանճարը
հանճարի
հաննա
հանող
հանում
հանուն
հանս
հանված
հանվել
հանվեց
հանվում
հանրագիտակ
հանրագիտական
հանրագիտարան
հանրագիտարանային
հանրագիտարանը
հանրագիտարանի
հանրագիտարանում
հանրակրթական
հանրահայտ
հանրահաշվական
հանրահաշվի
հանրաճանաչ
հանրամատչելի
հանրային
հանրապետական
հանրապետականների
հանրապետության
հանրապետությանը
հանրապետություն
հանրապետությունը
հանրապետությունների
հանրապետություններում
հանրապետությունով
հանրապետությունում
հանրաքվե
հանրաքվեի
հանրաքվեն
հանրության
հանրությանը
հանրությունը
հանցագործ
հանցագործը
հանցագործի
հանցագործների
հանցագործներին
հանցագործության
հանցագործություն
հանցագործությունը
հանցագործություններ
հանցագործությունները
հանցագործությունների
հանցանք
հանցանքը
հանցանքի
հանցավոր
հանցավորության
հանք
հանքային
հանքավայր
հանքավայրեր
հանքավայրերը
հանքավայրերի
հաշ
հաշիվ
հաշիվը
հաշիվները
հաշիվների
հաշմանդամ
հաշմանդամների
հաշմանդամություն
հաշված
հաշվապահ
հաշվապահական
հաշվառման
հաշվառում
հաշվառված
հաշվարկային
հաշվարկել
հաշվարկը
հաշվարկի
հաշվարկման
հաշվարկներ
հաշվարկները
հաշվարկների
հաշվարկներով
հաշվարկով
հաշվարկում
հաշվարկված
հաշվարկվել
հաշվարկվում
հաշվել
հաշվեկշռի
հաշվեհարդար
հաշվետու
հաշվետվության
հաշվետվություն
հաշվի
հաշվին
հաշվիչ
հաշվողական
հաշվով
հաշվում
հաշվվել
հաշվվում
հաշտ
հաշտության
հաշտություն
հաշտվել
հաշտվում
հաուս
հաուտեն
հաուտենի
հապ
հապա
հապավումը
հապավումների
հաջի
հաջող
հաջողակ
հաջողությամբ
հաջողության
հաջողությանը
հաջողություն
հաջողությունը
հաջողությունից
հաջողություններ
հաջողությունները
հաջողությունների
հաջողված
հաջողվել
հաջողվեց
հաջողվում
հաջորդ
հաջորդաբար
հաջորդած
հաջորդական
հաջորդականությամբ
հաջորդականության
հաջորդականություն
հաջորդականությունը
հաջորդել
հաջորդեց
հաջորդեցին
հաջորդը
հաջորդող
հաջորդում
հառած
հառաջ
հաս
հասած
հասակ
հասակակիցների
հասակը
հասակի
հասակից
հասակով
հասակում
հասան
հասանելի
հասանելիության
հասանելիություն
հասանելիությունը
հասանք
հասավ
հասարակ
հասարակածային
հասարակածի
հասարակական
հասարակայնության
հասարակաց
հասարակության
հասարակությանը
հասարակություն
հասարակությունը
հասարակությունից
հասարակությունում
հասել
հասկանա
հասկանալ
հասկանալի
հասկանալով
հասկանալու
հասկանում
հասկացա
հասկացավ
հասկացել
հասկացնել
հասկացության
հասկացություն
հասկացությունը
հասկացությունն
հասկացություններ
հասկացությունները
հասկացությունների
հասկացվում
հասմիկ
հասնել
հասնելը
հասնելով
հասնելու
հասնելուց
հասնի
հասնող
հասնում
հասույթը
հասուն
հասունանում
հասունացած
հասունացման
հասունության
հաստ
հաստատ
հաստատած
հաստատել
հաստատելով
հաստատելու
հաստատեց
հաստատեցին
հաստատման
հաստատմանը
հաստատող
հաստատության
հաստատություն
հաստատությունը
հաստատություններ
հաստատությունները
հաստատությունների
հաստատություններից
հաստատություններում
հաստատությունում
հաստատում
հաստատումը
հաստատումից
հաստատուն
հաստատունը
հաստատված
հաստատվել
հաստատվելուց
հաստատվեց
հաստատվեցին
հաստատվում
հաստոցային
հաստությամբ
հաստության
հաստությունը
հասցե
հասցեագրված
հասցեին
հասցեն
հասցեների
հասցեով
հասցեում
հասցնել
հասցնելով
հասցնելու
հասցնում
հասցված
հասցվել
հասցրել
հասցրեց
հասցրին
հավ
հավակնորդ
հավակնում
հավայան
հավանաբար
հավանական
հավանականությամբ
հավանականության
հավանականություն
հավանականությունը
հավանականությունների
հավանել
հավանության
հավանություն
հավանում
հավասար
հավասարազոր
հավասարակշռության
հավասարակշռություն
հավասարակշռությունը
հավասարակշռված
հավասարաչափ
հավասարապես
հավասարման
հավասարության
հավասարություն
հավասարությունը
հավասարում
հավասարումը
հավասարումները
հավասարումների
հավաստագիր
հավաստի
հավաստում
հավատ
հավատա
հավատալ
հավատալիքների
հավատալով
հավատարիմ
հավատարմության
հավատարմություն
հավատարմությունը
հավատացած
հավատացյալ
հավատացյալների
հավատացնում
հավատը
հավատի
հավատով
հավատում
հավատքը
հավատքի
հավարիկ
հավաք
հավաքագրման
հավաքագրում
հավաքած
հավաքածու
հավաքածուի
հավաքածուից
հավաքածուն
հավաքածուներ
հավաքածուները
հավաքածուների
հավաքածուներից
հավաքածուներում
հավաքածուում
հավաքական
հավաքականը
հավաքականի
հավաքականին
հավաքականները
հավաքականների
հավաքականներում
հավաքականում
հավաքել
հավաքելով
հավաքելու
հավաքեց
հավաքի
հավաքման
հավաքների
հավաքող
հավաքում
հավաքված
հավաքվել
հավաքվեցին
հավաքվում
հավելյալ
հավելում
հավելումն
հավելված
հավելվածը
հավելվածի
հավելվածների
հավելվածներում
հավերժ
հավերժական
հավերժության
հավի
հավիտենական
հավիտյան
հատ
հատակ
հատակագիծը
հատակագծով
հատակը
հատակի
հատակին
հատակից
հատակում
հատել
հատընտիր
հատիկ
հատիկավոր
հատիկներ
հատիկները
հատիկների
հատկանիշ
հատկանիշը
հատկանիշի
հատկանիշներ
հատկանիշները
հատկանիշների
հատկանիշներից
հատկանիշներով
հատկանշական
հատկապես
հատկացնել
հատկացնում
հատկացված
հատկացվել
հատկացվում
հատկացրել
հատկությամբ
հատկության
հատկություն
հատկությունը
հատկություններ
հատկությունները
հատկությունների
հատկություններից
հատկություններով
հատման
հատող
հատոր
հատորը
հատորի
հատորներ
հատորները
հատորով
հատորում
հատուկ
հատում
հատուցում
հատված
հատվածը
հատվածի
հատվածին
հատվածից
հատվածն
հատվածներ
հատվածները
հատվածների
հատվածներից
հատվածներում
հատվածով
հատվածում
հատվել
հատվում
հար
հարաբերական
հարաբերականորեն
հարաբերականության
հարաբերակցությամբ
հարաբերակցության
հարաբերակցությունը
հարաբերությամբ
հարաբերության
հարաբերություն
հարաբերությունը
հարաբերություններ
հարաբերությունները
հարաբերությունների
հարաբերություններին
հարաբերություններն
հարաբերություններում
հարազատ
հարազատները
հարազատների
հարազատներին
հարալդ
հարակից
հարամ
հարավ
հարավամերիկյան
հարավային
հարավարևելյան
հարավարևմտյան
հարավաֆրիկյան
հարավը
հարավի
հարավից
հարավկորեական
հարավկորեացի
հարավում
հարավսլավական
հարավսլավիա
հարավսլավիայի
հարավսլավիայում
հարբած
հարբեցող
հարգանք
հարգանքը
հարգանքի
հարգանքով
հարգել
հարգելի
հարգի
հարգում
հարգված
հարդ
հարել
հարեց
հարթ
հարթակ
հարթակը
հարթակի
հարթակում
հարթավայր
հարթավայրային
հարթավայրի
հարթավայրում
հարթել
հարթության
հարթություն
հարթությունը
հարթությունները
հարի
հարիս
հարիսը
հարիսոն
հարիր
հարիւր
հարկ
հարկադիր
հարկադրական
հարկադրված
հարկային
հարկանի
հարկավ
հարկավոր
հարկատու
հարկեր
հարկերը
հարկերի
հարկերից
հարկը
հարկի
հարկման
հարկն
հարկում
հարձակման
հարձակմանը
հարձակողական
հարձակում
հարձակումը
հարձակումից
հարձակումներ
հարձակումները
հարձակումների
հարձակումներից
հարձակվել
հարձակվելու
հարձակվեց
հարձակվեցին
հարձակվող
հարձակվողական
հարձակվողը
հարձակվողի
հարձակվում
հարմար
հարմարանք
հարմարավետ
հարմարեցված
հարմարվել
հարմարվում
հարյումաա
հարյուր
հարյուրամյա
հարյուրամյակի
հարյուրամյակում
հարյուրավոր
հարյուրից
հարոլդ
հարող
հարության
հարություն
հարությունը
հարությունի
հարությունյան
հարությունյանը
հարությունյանի
հարում
հարուստ
հարուցել
հարուցում
հարուցված
հարուցվել
հարս
հարսանեկան
հարսանիք
հարսանիքը
հարսանիքի
հարսանիքին
հարսանիքից
հարսը
հարսի
հարսին
հարսնացու
հարսնացուի
հարսնացուն
հարստության
հարստություն
հարստությունը
հարված
հարվածային
հարվածել
հարվածելով
հարվածեց
հարվածը
հարվածի
հարվածից
հարվածներ
հարվածները
հարվածների
հարվածներից
հարվածով
հարվածում
հարվարդի
հարվի
հարրի
հարրիի
հարրիին
հարրին
հարց
հարցազրույց
հարցազրույցը
հարցազրույցի
հարցազրույցներ
հարցազրույցներից
հարցազրույցում
հարցական
հարցաքննության
հարցեր
հարցերը
հարցերի
հարցերին
հարցերով
հարցերու
հարցերում
հարցը
հարցի
հարցին
հարցման
հարցմունք
հարցն
հարցնել
հարցնելու
հարցնում
հարցով
հարցում
հարցումը
հարցումների
հարցուց
հարցրել
հարցրեց
հարցրի
հարցրուց
հարևան
հարևանը
հարևանի
հարևանները
հարևանների
հարևանությամբ
հաց
հացահատիկ
հացահատիկային
հացահատիկի
հացը
հացի
հացով
հափշտակել
հբըմ
հգա
հգմ
հդբ
հե
հեգն
հեգնական
հեզ
հեթ
հեթանոս
հեթանոսական
հեթում
հել
հելեն
հելենա
հելինի
հելլենիստական
հելսինկի
հելսինկիի
հելսինկիում
հեծելազորային
հեծելազորը
հեծելազորի
հեծյալ
հեկտար
հեղ
հեղաշրջման
հեղաշրջում
հեղաշրջումը
հեղաշրջումից
հեղափոխական
հեղափոխականների
հեղափոխության
հեղափոխությանը
հեղափոխություն
հեղափոխությունը
հեղափոխությունից
հեղինակ
հեղինակած
հեղինակային
հեղինակավոր
հեղինակել
հեղինակը
հեղինակի
հեղինակին
հեղինակն
հեղինակներ
հեղինակները
հեղինակների
հեղինակներից
հեղինակներն
հեղինակությամբ
հեղինակության
հեղինակություն
հեղինակությունը
հեղինակում
հեղուկ
հեղուկը
հեղուկի
հեղուկների
հեմ
հեմոգլոբինի
հեմփշիր
հեյդար
հեյլի
հենակետ
հենակետային
հենարան
հենված
հենվել
հենվելով
հենվում
հենրի
հենրիի
հենրիխ
հենրիկ
հենրին
հենց
հենքի
հեշտ
հեշտացնում
հեշտոցային
հեշտությամբ
հեչ
հեպատիտ
հեռագիր
հեռագրական
հեռախոս
հեռախոսահամար
հեռախոսային
հեռախոսը
հեռախոսի
հեռախոսների
հեռախոսով
հեռակա
հեռահաղորդակցության
հեռահար
հեռանա
հեռանալ
հեռանալը
հեռանալով
հեռանալու
հեռանալուց
հեռանկարային
հեռանկարները
հեռանում
հեռավոր
հեռավորությամբ
հեռավորության
հեռավորություն
հեռավորությունը
հեռավորությունից
հեռավորությունների
հեռարձակման
հեռարձակող
հեռարձակում
հեռարձակումը
հեռարձակվել
հեռարձակվող
հեռարձակվում
հեռացած
հեռացան
հեռացավ
հեռացել
հեռացման
հեռացնել
հեռացնելու
հեռացնում
հեռացում
հեռացումը
հեռացված
հեռացվել
հեռացվեց
հեռացվում
հեռացրել
հեռացրեց
հեռու
հեռուն
հեռուստաալիք
հեռուստաալիքը
հեռուստաալիքի
հեռուստաալիքով
հեռուստաալիքում
հեռուստադիտողների
հեռուստաընկերության
հեռուստաընկերություն
հեռուստաընկերությունը
հեռուստաընկերությունում
հեռուստահաղորդավար
հեռուստաշոուի
հեռուստասերիալ
հեռուստասերիալը
հեռուստասերիալի
հեռուստասերիալներում
հեռուստասերիալում
հեռուստատեսային
հեռուստատեսությամբ
հեռուստատեսության
հեռուստատեսություն
հեռուստատեսությունը
հեռուստատեսությունում
հեռուստաֆիլմ
հեռվից
հեռվում
հեսսեն
հետ
հետագա
հետագայի
հետագայում
հետադարձ
հետազոտական
հետազոտել
հետազոտման
հետազոտող
հետազոտողներ
հետազոտողները
հետազոտողների
հետազոտությամբ
հետազոտության
հետազոտություն
հետազոտությունը
հետազոտություններ
հետազոտությունները
հետազոտությունների
հետազոտություններից
հետազոտություններով
հետազոտություններում
հետազոտում
հետազոտվել
հետախուզական
հետախուզման
հետախուզության
հետախույզ
հետահայաց
հետաձգել
հետաձգվել
հետաձգվեց
հետամնաց
հետամուտ
հետապնդել
հետապնդման
հետապնդում
հետապնդումը
հետապնդումների
հետաքննության
հետաքննություն
հետաքննությունը
հետաքննությունների
հետաքրքիր
հետաքրքրական
հետաքրքրել
հետաքրքրությամբ
հետաքրքրության
հետաքրքրություն
հետաքրքրությունը
հետաքրքրությունները
հետաքրքրությունների
հետաքրքրում
հետաքրքրված
հետաքրքրվել
հետաքրքրվում
հետզհետե
հետզհետէ
հետը
հետին
հետիոտնային
հետխաղյա
հետխորհրդային
հետմահու
հետնորդները
հետո
հետպատերազմյան
հետս
հետվիրահատական
հետք
հետքեր
հետքերը
հետքերով
հետքը
հետևաբար
հետևակ
հետևակային
հետևակի
հետևանք
հետևանքը
հետևանքն
հետևանքներ
հետևանքները
հետևանքների
հետևանքով
հետևապես
հետևել
հետևելով
հետևելու
հետևեց
հետևեցին
հետևի
հետևից
հետևյալ
հետևյալը
հետևյալն
հետևող
հետևողական
հետևողականորեն
հետևորդ
հետևորդներ
հետևորդները
հետևորդների
հետևում
հեր
հերակլեսը
հերակլեսի
հերացու
հերբերտ
հերը
հերթական
հերթականությամբ
հերթին
հերթով
հերիք
հերման
հերն
հերոդոտոսի
հերոս
հերոսական
հերոսը
հերոսի
հերոսին
հերոսն
հերոսներ
հերոսները
հերոսների
հերոսներին
հերոսներից
հերոսներն
հերոսուհի
հերոսուհին
հերոսուհու
հերցեգովինա
հերցեգովինայի
հերցեգովինայում
հերցոգ
հերքել
հերքում
հեքեքյան
հեքիաթ
հեքիաթային
հեքիաթը
հեքիաթի
հեքիաթներ
հեքիաթները
հեքիաթների
հեքիաթում
հեքյարիի
հզ
հզոր
հզորությամբ
հզորության
հզորություն
հզորությունը
հզվդ
հէկ
հը
հժհք
հի
հիանալի
հիանում
հիասթափված
հիասքանչ
հիացած
հիացմունքով
հիբրիդային
հիգիենայի
հիդրոլոգիական
հիդրոհանգույց
հիթ
հիթեր
հիթերի
հիթը
հիլ
հիլարի
հիմա
հիման
հիմար
հիմարություն
հիմի
հիմն
հիմնադիր
հիմնադիրը
հիմնադիրն
հիմնադիրները
հիմնադիրների
հիմնադիրներից
հիմնադրած
հիմնադրամ
հիմնադրամը
հիմնադրամի
հիմնադրամին
հիմնադրել
հիմնադրեց
հիմնադրի
հիմնադրման
հիմնադրում
հիմնադրումը
հիմնադրումից
հիմնադրված
հիմնադրվել
հիմնադրվեց
հիմնադրվում
հիմնախնդիրները
հիմնախնդիրների
հիմնած
հիմնական
հիմնականում
հիմնային
հիմնավոր
հիմնավորել
հիմնավորում
հիմնավորված
հիմնարար
հիմնարկ
հիմնարկի
հիմնարկների
հիմնել
հիմնելու
հիմնեց
հիմնեցին
հիմնը
հիմնովին
հիմնում
հիմնված
հիմնվել
հիմնվելով
հիմնվեց
հիմնվում
հիմունքներ
հիմունքները
հիմունքների
հիմունքներով
հիմք
հիմքեր
հիմքերը
հիմքերի
հիմքը
հիմքի
հիմքից
հիմքն
հիմքով
հիմքում
հին
հինավուրց
հինգ
հինգերորդ
հինգերորդը
հինգը
հինգշաբթի
հինդի
հինդուիզմի
հիշատակ
հիշատակարան
հիշատակարաններ
հիշատակել
հիշատակը
հիշատակի
հիշատակին
հիշատակում
հիշատակումը
հիշատակումները
հիշատակված
հիշատակվել
հիշատակվում
հիշարժան
հիշել
հիշելով
հիշեց
հիշեցնող
հիշեցնում
հիշյալ
հիշողության
հիշողություն
հիշողությունը
հիշողություններ
հիշողությունները
հիշողությունների
հիշում
հիշվում
հիսուն
հիսուս
հիսուսը
հիսուսի
հիսուսին
հիվանդ
հիվանդագին
հիվանդանոց
հիվանդանոցային
հիվանդանոցը
հիվանդանոցի
հիվանդանոցից
հիվանդանոցներ
հիվանդանոցներում
հիվանդանոցում
հիվանդանում
հիվանդացավ
հիվանդացել
հիվանդը
հիվանդի
հիվանդին
հիվանդներ
հիվանդները
հիվանդների
հիվանդներին
հիվանդությամբ
հիվանդության
հիվանդություն
հիվանդությունը
հիվանդությունից
հիվանդությունն
հիվանդություններ
հիվանդությունները
հիվանդությունների
հիվանդություններին
հիվանդություններից
հիվանդություններով
հիտլերը
հիտլերի
հիտլերին
հիրավի
հիրոսի
հիփ
հլա
հլկեմ
հլու
հխսհ
հկ
հկկ
հհ
հհկ
հհշ
հղել
հղի
հղիության
հղիությունը
հղում
հղումներ
հմայակ
հմայիչ
հմայքը
հմար
հմի
հմմտ
հմուտ
հմտորեն
հմտություն
հմտություններ
հմտությունները
հմտությունների
հյդ
հյոն
հյու
հյուգո
հյուգոյի
հյուզը
հյութ
հյութալի
հյութը
հյուն
հյուպատոս
հյուպատոսական
հյուսած
հյուսել
հյուսթոնի
հյուսիս
հյուսիսամերիկյան
հյուսիսային
հյուսիսարևելյան
հյուսիսարևմտյան
հյուսիսի
հյուսիսից
հյուսիսում
հյուսված
հյուսվածք
հյուսվածքային
հյուսվածքը
հյուսվածքի
հյուսվածքները
հյուսվածքների
հյուսվածքներում
հյուստոն
հյուր
հյուրախաղերի
հյուրախաղերով
հյուրանոց
հյուրանոցային
հյուրանոցը
հյուրանոցի
հյուրանոցներ
հյուրանոցում
հյուրեր
հյուրերը
հյուրերի
հյուրերին
հյուրը
հյուրընկալել
հյուրընկալող
հյուրի
հյուրին
հնա
հնագետ
հնագիտական
հնագիտության
հնագույն
հնադարյան
հնազանդ
հնաոճ
հնար
հնարամիտ
հնարավոր
հնարավորինս
հնարավորից
հնարավորությամբ
հնարավորության
հնարավորություն
հնարավորությունը
հնարավորությունից
հնարավորություններ
հնարավորությունները
հնարավորությունների
հնարել
հնարք
հնարքներ
հնարքների
հնացած
հնգամյա
հնդեվրոպական
հնդիկ
հնդկական
հնդկաստան
հնդկաստանը
հնդկաստանի
հնդկաստանից
հնդկաստանում
հնդկացի
հնդկացիական
հնդկացիները
հնդկացիների
հնդկերեն
հնությունների
հնում
հնուց
հնչակյան
հնչել
հնչեց
հնչյուն
հնչյունական
հնչյունային
հնչյունավորել
հնչյունավորում
հնչյունը
հնչյունի
հնչյուններ
հնչյունները
հնչյունների
հնչող
հնչում
հնց
հնք
հշ
հո
հոբելյանական
հոբելյանի
հոգ
հոգաբարձուների
հոգալ
հոգալու
հոգանոց
հոգատար
հոգեբ
հոգեբան
հոգեբանական
հոգեբանության
հոգեբանություն
հոգեբանությունը
հոգեբուժական
հոգեբուժության
հոգեբույժ
հոգեկան
հոգեկանի
հոգեմետ
հոգեպես
հոգեւոր
հոգի
հոգին
հոգիներ
հոգիները
հոգիների
հոգիս
հոգնած
հոգնածության
հոգնակի
հոգնել
հոգով
հոգու
հոգում
հոգուն
հոգուս
հոգուց
հոգս
հոգսը
հոգևոր
հոգևորական
հոգևորականները
հոգևորականների
հոգևորականության
հոդ
հոդակապ
հոդերի
հոդերով
հոդի
հոդված
հոդվածը
հոդվածի
հոդվածին
հոդվածներ
հոդվածները
հոդվածների
հոդվածներին
հոդվածներից
հոդվածներով
հոդվածներում
հոդվածով
հոդվածում
հոլ
հոլանդական
հոլանդացի
հոլանդերեն
հոլանդիա
հոլանդիայի
հոլանդիայում
հոլի
հոլիվուդ
հոլիվուդի
հոլիվուդյան
հոլիվուդում
հոլմսը
հոլմսի
հոլով
հոլովակ
հոլովակը
հոլովներ
հոլովում
հոլոքոստի
հոծ
հոկեյի
հոկտեմբեր
հոկտեմբերի
հոկտեմբերին
հոկտեմբերից
հոկտեմբերյան
հող
հողագործությամբ
հողային
հողատարածք
հողեր
հողերը
հողերի
հողերում
հողը
հողի
հողին
հողից
հողմիկ
հողն
հողով
հողում
հոմանիշ
հոմանիշների
հոմերոսի
հոյակապ
հոն
հոնգ
հոնդուրասի
հոնիական
հոնկոնգ
հոնկոնգի
հոնկոնգում
հոնսյու
հոնքերը
հոս
հոսանք
հոսանքը
հոսանքի
հոսանքները
հոսանքների
հոսանքով
հոսանքում
հոսել
հոսող
հոսում
հոսպիտալ
հոսպիտալում
հոսք
հոսքերի
հոսքը
հոսքի
հով
հովակիմյան
հովանավոր
հովանավորել
հովանավորը
հովանավորն
հովանավորությամբ
հովանավորության
հովանավորում
հովանու
հովարդ
հովարդը
հովարդի
հովիկ
հովիվ
հովիվը
հովիտ
հովիտը
հովիտներում
հովհ
հովհան
հովհաննես
հովհաննեսը
հովհաննեսի
հովհաննիսյան
հովհաննիսյանը
հովհաննիսյանի
հովնաթան
հովսեփ
հովսեփի
հովսեփյան
հովվի
հովտի
հովտում
հոտ
հոտավետ
հոտը
հոտի
հոտով
հոր
հորադիզ
հորատանցքի
հորատման
հորդ
հորդանան
հորդանանի
հորդանանում
հորդառատ
հորդորում
հորեղբայր
հորեղբայրը
հորեղբոր
հորը
հորիզոն
հորիզոնական
հորիզոնականը
հորիզոնականին
հորիզոնականն
հորիզոնականները
հորիզոնականում
հորիզոնի
հորինել
հորինված
հորինվածք
հորինվածքը
հորինվածքի
հորինվածքով
հորից
հորմոն
հորմոնալ
հորմոնի
հորմոնների
հորն
հորս
հու
հուգո
հուդայի
հուզական
հուզիչ
հուզում
հուզված
հուժկու
հուլիոս
հուլիս
հուլիսի
հուլիսին
հուլիսից
հուլիսյան
հուղարկավորության
հուղարկավորությունը
հուղարկավորվել
հում
հումանիստական
հումանիտար
հումորային
հումորի
հումորով
հումք
հումքը
հումքի
հույզերը
հույզերի
հույժ
հույն
հույներ
հույները
հույների
հույներին
հույս
հույսեր
հույսերը
հույսը
հույսի
հույսով
հուն
հունա
հունական
հունահռոմեական
հունաստան
հունաստանը
հունաստանի
հունաստանից
հունաստանում
հունարեն
հունարենի
հունարենից
հունաց
հունգ
հունգարական
հունգարացի
հունգարերեն
հունգարիա
հունգարիայի
հունգարիայում
հունգարիան
հունը
հունի
հունիս
հունիսի
հունիսին
հունիսից
հունվար
հունվարը
հունվարի
հունվարին
հունվարից
հուշ
հուշագիր
հուշահամալիր
հուշահամալիրը
հուշահամալիրի
հուշամեդալ
հուշատախտակ
հուշատախտակը
հուշարձան
հուշարձանը
հուշարձանի
հուշարձանն
հուշարձաններ
հուշարձանները
հուշարձանների
հուշարձաններից
հուշեր
հուշերը
հուշերի
հուշերում
հուշում
հուսալի
հուսալով
հուսահատ
հուսահատության
հուսեյն
հուսեյնի
հուսով
հուստինիանոս
հուր
հոփ
հոֆմանի
հպատակ
հպարտ
հպարտանում
հպարտությամբ
հպարտության
հպվ
հռենոս
հռենոսի
հռետորական
հռիփսիմե
հռոմ
հռոմեական
հռոմեացի
հռոմեացիները
հռոմեացիների
հռոմեացիներին
հռոմը
հռոմի
հռոմից
հռոմում
հռչակ
հռչակագիր
հռչակագիրը
հռչակագրի
հռչակավոր
հռչակել
հռչակեց
հռչակման
հռչակում
հռչակումից
հռչակված
հռչակվել
հռչակվեց
հռչակվում
հս
հսկա
հսկայական
հսկան
հսկաների
հսկել
հսկիչ
հսկող
հսկողության
հսկողություն
հսկողությունը
հսկում
հսհ
հսսհ
հսսռ
հստակ
հստակորեն
հսֆհ
հվ
հտ
հր
հրաբխային
հրաբխի
հրաբուխ
հրաբուխը
հրադադարի
հրազդան
հրազդանի
հրազենային
հրազենի
հրաժարական
հրաժարականը
հրաժարականի
հրաժարականից
հրաժարվել
հրաժարվելով
հրաժարվելու
հրաժարվեց
հրաժարվեցին
հրաժարվում
հրաժեշտ
հրաժեշտի
հրահանգ
հրահանգիչ
հրահրել
հրաձգային
հրաձգության
հրաձիգ
հրամայական
հրամայել
հրամայեց
հրամայում
հրաման
հրամանագիր
հրամանագիրը
հրամանագրերը
հրամանագրով
հրամանատար
հրամանատարական
հրամանատարը
հրամանատարի
հրամանատարն
հրամանատարներ
հրամանատարների
հրամանատարությամբ
հրամանատարության
հրամանատարությունը
հրամանը
հրամանի
հրամաններ
հրամանները
հրամանով
հրայր
հրանոթ
հրանտ
հրաշագործ
հրաշալի
հրաշալիք
հրաշք
հրաշքը
հրաշքներ
հրաշքների
հրաշքով
հրաչ
հրաչյա
հրապարակ
հրապարակախոս
հրապարակախոսական
հրապարակած
հրապարակային
հրապարակայնորեն
հրապարակավ
հրապարակել
հրապարակեց
հրապարակը
հրապարակի
հրապարակից
հրապարակման
հրապարակում
հրապարակումը
հրապարակումից
հրապարակումներ
հրապարակումների
հրապարակված
հրապարակվել
հրապարակվեց
հրապարակվում
հրապուրիչ
հրավառություն
հրավեր
հրավերը
հրավերով
հրավիրել
հրավիրելով
հրավիրելու
հրավիրեց
հրավիրեցին
հրավիրում
հրավիրված
հրավիրվել
հրավիրվեց
հրավիրվում
հրատ
հրատապ
հրատարակած
հրատարակել
հրատարակեց
հրատարակիչ
հրատարակման
հրատարակության
հրատարակություն
հրատարակությունը
հրատարակություններ
հրատարակությունները
հրատարակությունների
հրատարակություններում
հրատարակում
հրատարակումը
հրատարակչական
հրատարակչատուն
հրատարակչության
հրատարակչություն
հրատարակչությունը
հրատարակչությունում
հրատարակված
հրատարակվել
հրատարակվեց
հրատարակվող
հրատարակվում
հրացան
հրացանը
հրացանի
հրդեհ
հրդեհը
հրդեհի
հրդեհից
հրդեհների
հրե
հրեա
հրեական
հրեաներ
հրեաները
հրեաների
հրեաներին
հրեղեն
հրեն
հրեշ
հրեշավոր
հրեշը
հրեշի
հրեշների
հրեշտակ
հրեշտակը
հրեշտակի
հրեշտակներ
հրեշտակները
հրեշտակների
հրես
հրետանային
հրետանին
հրետանու
հրթիռ
հրթիռային
հրթիռի
հրթիռներ
հրթիռների
հրշեջ
հրում
հրուշակեղենի
հրվանդան
հրվանդանի
հրտ
հրտմ
հօգուտ
հօպ
հօր
ձ
ձա
ձագ
ձագերը
ձագերին
ձախ
ձախակողմյան
ձախից
ձախողման
ձախողվել
ձախողվեց
ձախողվում
ձայ
ձայն
ձայնագրել
ձայնագրեց
ձայնագրման
ձայնագրմանը
ձայնագրության
ձայնագրություն
ձայնագրությունը
ձայնագրություններ
ձայնագրությունները
ձայնագրությունների
ձայնագրում
ձայնագրված
ձայնագրվել
ձայնային
ձայնասկավառակը
ձայնասկավառակի
ձայնավոր
ձայնավորների
ձայներ
ձայները
ձայների
ձայնը
ձայնի
ձայնին
ձայնից
ձայնն
ձայնով
ձանձրալի
ձգած
ձգել
ձգելով
ձգեց
ձգողության
ձգում
ձգված
ձգվել
ձգվող
ձգվում
ձգտել
ձգտելով
ձգտող
ձգտում
ձգտումը
ձգտումները
ձե
ձեզ
ձեզանից
ձեզի
ձեթ
ձեն
ձենը
ձեռ
ձեռագիր
ձեռագիրը
ձեռագրաց
ձեռագրացում
ձեռագրեր
ձեռագրերը
ձեռագրերի
ձեռագրերում
ձեռագրի
ձեռամբ
ձեռը
ձեռին
ձեռն
ձեռնադրվել
ձեռնամուխ
ձեռնարկ
ձեռնարկատեր
ձեռնարկատիրական
ձեռնարկել
ձեռնարկեց
ձեռնարկի
ձեռնարկների
ձեռնարկության
ձեռնարկություն
ձեռնարկությունը
ձեռնարկություններ
ձեռնարկությունները
ձեռնարկությունների
ձեռնարկություններում
ձեռնարկում
ձեռները
ձեռնպահ
ձեռնտու
ձեռք
ձեռքբերման
ձեռքբերովի
ձեռքբերում
ձեռքբերումը
ձեռքբերումները
ձեռքբերումների
ձեռքեր
ձեռքերը
ձեռքերի
ձեռքերն
ձեռքերով
ձեռքերում
ձեռքը
ձեռքի
ձեռքին
ձեռքից
ձեռքն
ձեռքով
ձեռքում
ձեռքս
ձեր
ձերբակալել
ձերբակալության
ձերբակալությունից
ձերբակալում
ձերբակալված
ձերբակալվել
ձերբակալվեց
ձերբակալվեցին
ձերբակալվում
ձերդ
ձի
ձիահ
ձիաուժ
ձիավոր
ձիգ
ձիեր
ձիերը
ձիերի
ձիթապտղի
ձին
ձիով
ձիու
ձիուն
ձիուց
ձկան
ձկներ
ձկները
ձկների
ձկներով
ձկնորս
ձկնորսական
ձկնորսությամբ
ձկնորսության
ձկնորսությունը
ձմեռ
ձմեռային
ձմեռը
ձմեռները
ձմեռներով
ձմեռում
ձմեռվա
ձմռան
ձմռանը
ձյան
ձյուդոյի
ձյուն
ձյունե
ձյունը
ձյունի
ձող
ձոր
ձորը
ձորի
ձորում
ձու
ձուլման
ձուլված
ձուլվել
ձուկ
ձուկը
ձուն
ձվադրում
ձվաձև
ձվեր
ձվերը
ձվի
ձվից
ձրի
ձև
ձևաբանական
ձևական
ձևականորեն
ձևակերպել
ձևակերպեց
ձևակերպում
ձևակերպումը
ձևաչափը
ձևաչափի
ձևաչափով
ձևավոր
ձևավորել
ձևավորելով
ձևավորելու
ձևավորմամբ
ձևավորման
ձևավորմանը
ձևավորող
ձևավորում
ձևավորումը
ձևավորված
ձևավորվել
ձևավորվեց
ձևավորվեցին
ձևավորվող
ձևավորվում
ձևացնում
ձևափոխված
ձևեր
ձևերը
ձևերի
ձևերին
ձևերից
ձևերն
ձևերով
ձևը
ձևի
ձևին
ձևից
ձևն
ձևով
ղ
ղա
ղազ
ղազախ
ղազախական
ղազախի
ղազախստան
ղազախստանի
ղազախստանում
ղազար
ղազարի
ղազարյան
ղազարյանը
ղազարոս
ղահրամանյան
ղան
ղանալանյան
ղարաբաղ
ղարաբաղը
ղարաբաղի
ղարաբաղյան
ղարաբաղում
ղարագյուլյան
ղարիբյան
ղափանի
ղե
ղել
ղեկավար
ղեկավարած
ղեկավարել
ղեկավարելու
ղեկավարեց
ղեկավարը
ղեկավարի
ղեկավարին
ղեկավարման
ղեկավարն
ղեկավարներ
ղեկավարները
ղեկավարների
ղեկավարներին
ղեկավարներից
ղեկավարող
ղեկավարությամբ
ղեկավարության
ղեկավարությանը
ղեկավարությունը
ղեկավարում
ղեկավարումը
ղեկավարվող
ղեկավարվում
ղի
ղիկ
ղճ
ղո
ղու
ղուկաս
ղուկասյան
ղուշչյան
ղուրանի
ղուրբան
ղրիմ
ղրիմի
ղրիմում
ղրղզստանի
ղևոնդ
ճ
ճա
ճակատ
ճակատագիր
ճակատագիրը
ճակատագիրն
ճակատագրական
ճակատագրի
ճակատագրին
ճակատամարտ
ճակատամարտը
ճակատամարտի
ճակատամարտին
ճակատամարտից
ճակատամարտում
ճակատային
ճակատը
ճակատի
ճակատին
ճակատից
ճակատով
ճակատում
ճահճային
ճամբար
ճամբարը
ճամբարի
ճամբարից
ճամբարներ
ճամբարների
ճամբարներում
ճամբարում
ճամփա
ճամփան
ճամփեն
ճամփին
ճամփորդել
ճամփորդության
ճան
ճանաչել
ճանաչելի
ճանաչելով
ճանաչելու
ճանաչեց
ճանաչման
ճանաչողական
ճանաչողության
ճանաչում
ճանաչումը
ճանաչված
ճանաչվել
ճանաչվեց
ճանաչվում
ճանապարհ
ճանապարհային
ճանապարհը
ճանապարհի
ճանապարհին
ճանապարհից
ճանապարհն
ճանապարհներ
ճանապարհները
ճանապարհների
ճանապարհներով
ճանապարհով
ճանապարհորդ
ճանապարհորդական
ճանապարհորդել
ճանապարհորդության
ճանապարհորդություն
ճանապարհորդությունը
ճանապարհորդությունների
ճանապարհորդում
ճանճուր
ճաշ
ճաշակի
ճաշակով
ճաշը
ճաշի
ճապ
ճապոնական
ճապոնացի
ճապոնացիները
ճապոնացիների
ճապոներեն
ճապոնիա
ճապոնիայի
ճապոնիայում
ճապոնիան
ճառ
ճառագայթ
ճառագայթային
ճառագայթման
ճառագայթներ
ճառագայթները
ճառագայթների
ճառագայթում
ճառագայթումը
ճառք
ճար
ճարպ
ճարպակալման
ճարպային
ճարպերի
ճարպի
ճարպիկ
ճարտ
ճարտար
ճարտարագետ
ճարտարագիտական
ճարտարագիտության
ճարտարապետ
ճարտարապետական
ճարտարապետը
ճարտարապետի
ճարտարապետն
ճարտարապետներ
ճարտարապետների
ճարտարապետության
ճարտարապետությանը
ճարտարապետություն
ճարտարապետությունը
ճարտարապետությունն
ճգնաժամ
ճգնաժամային
ճգնաժամը
ճգնաժամի
ճգնաժամից
ճգնավոր
ճեղք
ճեղքել
ճեղքման
ճեղքում
ճեմարան
ճեմարանը
ճեմարանի
ճեմարանում
ճերմակ
ճի
ճիշտ
ճիչ
ճկուն
ճյուղ
ճյուղավորված
ճյուղեր
ճյուղերը
ճյուղերի
ճյուղերից
ճյուղերն
ճյուղերով
ճյուղերում
ճյուղը
ճյուղի
ճյուղին
ճնշել
ճնշելու
ճնշմամբ
ճնշման
ճնշմանը
ճնշող
ճնշում
ճնշումը
ճնշումից
ճնշումների
ճնշված
ճշգրիտ
ճշգրտորեն
ճշգրտությամբ
ճշգրտության
ճշմարիտ
ճշմարտության
ճշմարտություն
ճշմարտությունը
ճշտությամբ
ճո
ճոխ
ճորոխի
ճուտ
ճրագ
ճրագը
ճրտրպ
մ
մա
մագաղաթի
մագիստրոս
մագիստրոսական
մագիստրոսի
մագնեզիումի
մագնիսական
մագնուս
մադամ
մադոննայի
մադոննան
մադրիդ
մադրիդը
մադրիդի
մադրիդում
մազ
մազեր
մազերը
մազերի
մազերով
մազի
մազմզուկապատ
մազութի
մաթ
մաթեմատիկա
մաթեմատիկական
մաթեմատիկայի
մաթեմատիկայում
մաթեմատիկան
մաթեմատիկոս
մաթևոս
մաթևոսյան
մաժոր
մալ
մալագա
մալաթիա
մալաթիայի
մալայա
մալայզիա
մալարիայի
մալթա
մալթայի
մալի
մալիի
մալխասյանց
մալքոլմ
մախչանյան
մածուն
մածուցիկ
մակ
մակաբույծ
մակագրությամբ
մականունը
մականունով
մակար
մակարդակ
մակարդակը
մակարդակի
մակարդակին
մակարդակից
մակարդակն
մակարդակները
մակարդակների
մակարդակներում
մակարդակով
մակարդակում
մակարդման
մակարյան
մակբեթ
մակեդոնական
մակեդոնացու
մակեդոներեն
մակեդոնիա
մակեդոնիայի
մակեդոնիայում
մակերես
մակերեսային
մակերեսը
մակերեսի
մակերեսին
մակերեսով
մակերևութային
մակերևույթ
մակերևույթը
մակերևույթի
մակերևույթին
մակերևույթից
մակմիլան
մակնիշի
մակտյուտոր
մակրոտնտեսական
մահ
մահաբեր
մահանալ
մահանում
մահապատժի
մահապատիժը
մահարի
մահացած
մահացածների
մահացան
մահացավ
մահացել
մահացու
մահացության
մահացությունը
մահափորձ
մահը
մահի
մահից
մահկանացու
մահկանացուն
մահճակալի
մահմեդական
մահմեդականների
մահմուդ
մահն
մահով
մահու
մահվան
մահվանը
մահվանից
մաղ
մամ
մամա
մամիկոնյան
մամիկոնյանը
մամիկոնյանի
մամլո
մամուլ
մամուլը
մամուլի
մամուլին
մամուլում
մայ
մայա
մայակովսկու
մայամի
մայամիի
մայաների
մայիս
մայիսը
մայիսի
մայիսին
մայիսից
մայիսյան
մայնի
մայոր
մայորի
մայր
մայրական
մայրաքաղաք
մայրաքաղաքային
մայրաքաղաքը
մայրաքաղաքի
մայրաքաղաքից
մայրաքաղաքն
մայրաքաղաքում
մայրենի
մայրեր
մայրերը
մայրերի
մայրը
մայրի
մայրիկ
մայրիկը
մայրիկի
մայրն
մայրության
մայրուղին
մայրուղու
մայրս
մայրցամաքային
մայրցամաքի
մայրցամաքների
մայրցամաքում
մայք
մայքլ
մայքլը
մայքլի
ման
մանազկերտի
մանանդյան
մանավանդ
մանաւանդ
մանգա
մանգայի
մանգան
մանդատ
մանդատը
մանդատի
մանեթ
մանեն
մանի
մանկագիր
մանկական
մանկահասակ
մանկան
մանկապատանեկան
մանկապարտեզ
մանկավարժ
մանկավարժական
մանկավարժության
մանկության
մանկություն
մանկությունը
մանկությունից
մանկությունն
մանկուց
մանհեթենի
մանուել
մանուկ
մանուկը
մանուկյան
մանուկյանը
մանուկյանի
մանուկների
մանուշակագույն
մանչա
մանչեսթեր
մանվել
մանր
մանրածախ
մանրակրկիտ
մանրամասն
մանրամասներ
մանրամասները
մանրամասների
մանրամասնորեն
մանրանկարիչ
մանրանկարներ
մանրանկարչության
մանրէների
մաշ
մաշա
մաշան
մաշկ
մաշկային
մաշկը
մաշկի
մաշված
մաշտոց
մաշտոցը
մաշտոցի
մաունթ
մաս
մասամբ
մասաչուսեթս
մասաչուսեթսի
մասեր
մասերը
մասերի
մասերից
մասերն
մասերով
մասերում
մասը
մասի
մասին
մասիս
մասիսի
մասից
մասն
մասնաբաժինը
մասնագետ
մասնագետի
մասնագետներ
մասնագետները
մասնագետների
մասնագիտական
մասնագիտանում
մասնագիտացած
մասնագիտացել
մասնագիտացված
մասնագիտությամբ
մասնագիտության
մասնագիտություն
մասնագիտությունը
մասնագիտությունների
մասնակի
մասնակիորեն
մասնակից
մասնակիցը
մասնակիցներ
մասնակիցները
մասնակիցների
մասնակիցներին
մասնակիցներից
մասնակցած
մասնակցել
մասնակցելով
մասնակցելու
մասնակցելուց
մասնակցեց
մասնակցեցին
մասնակցի
մասնակցող
մասնակցությամբ
մասնակցության
մասնակցություն
մասնակցությունը
մասնակցությունն
մասնակցում
մասնաճյուղ
մասնաճյուղեր
մասնաճյուղը
մասնաճյուղի
մասնաճյուղում
մասնաշենք
մասնաշենքը
մասնաշենքի
մասնավոր
մասնավորապես
մասնատված
մասնիկ
մասնիկը
մասնիկի
մասնիկներ
մասնիկները
մասնիկների
մասնիկներից
մասշտաբային
մասշտաբի
մասշտաբով
մասոնական
մասով
մասում
մասունքները
մասսայական
մատ
մատակարարել
մատակարարման
մատակարարում
մատակարարումը
մատաղ
մատանի
մատանին
մատանիների
մատանու
մատենագիտական
մատենագրության
մատենադարան
մատենադարանի
մատենադարանում
մատենաշար
մատերիալիստական
մատերիայի
մատը
մատթ
մատթեոս
մատի
մատղաշ
մատյան
մատնանշել
մատնանշում
մատնել
մատնելով
մատները
մատների
մատներով
մատնեց
մատնում
մատնված
մատնվել
մատով
մատու
մատույցներում
մատուռ
մատուռը
մատուռի
մատուռում
մատուցած
մատուցել
մատուցելու
մատուցման
մատուցող
մատուցում
մատուցվում
մատչելի
մատչելիության
մատվեյ
մար
մարադոնան
մարանիան
մարաշ
մարաշի
մարատ
մարգագետիններում
մարգար
մարգարե
մարգարեթ
մարգարեի
մարգարեն
մարգարետ
մարգարիտ
մարգարիտա
մարգարիտան
մարգարիտը
մարգարյան
մարգարյանը
մարգարյանի
մարգո
մարդ
մարդաբանական
մարդաբանության
մարդահամար
մարդահամարի
մարդասիրական
մարդասպան
մարդասպանը
մարդասպանի
մարդատար
մարդը
մարդի
մարդիկ
մարդիկը
մարդինի
մարդկային
մարդկանց
մարդկանցից
մարդկանցով
մարդկության
մարդկությանը
մարդկությունը
մարդն
մարդոց
մարդու
մարդուկ
մարդուն
մարդուց
մարել
մարզ
մարզադաշտ
մարզադաշտը
մարզադաշտի
մարզադաշտում
մարզական
մարզաձևերի
մարզային
մարզանունների
մարզաշապիկը
մարզել
մարզեր
մարզերը
մարզերի
մարզերից
մարզերում
մարզը
մարզի
մարզիկ
մարզիկը
մարզիկի
մարզիկներ
մարզիկները
մարզիկների
մարզիչ
մարզիչը
մարզիչն
մարզկենտրոն
մարզկենտրոնից
մարզում
մարզումների
մարզչական
մարզչի
մարզպետ
մարզպետարան
մարզպետարանի
մարզպետի
մարզվել
մարզվում
մարթ
մարթա
մարթան
մարի
մարիա
մարիամ
մարիամը
մարիամի
մարիամին
մարիայի
մարիան
մարիաննա
մարիի
մարիինյան
մարին
մարինա
մարիո
մարիոն
մարկ
մարկե
մարկը
մարկի
մարկո
մարկոս
մարկոսը
մարկոսի
մարկոսյան
մարկուս
մարման
մարմար
մարմարե
մարմարի
մարմարից
մարմարյա
մարմին
մարմինը
մարմինն
մարմիններ
մարմինները
մարմինների
մարմիններին
մարմիններից
մարմիններն
մարմիններում
մարմնական
մարմնամարզական
մարմնամարզության
մարմնավորել
մարմնավորելով
մարմնավորում
մարմնի
մարմնին
մարմնից
մարմնով
մարմնում
մարշալ
մարշալը
մարշալի
մարո
մարոկկո
մարոկկոյի
մարոկկոյում
մարոն
մարությանը
մարում
[...]
