!
"
#
##a
##aa
##ab
##ac
##ad
##ae
##af
##ag
##ah
##ai
##aj
##ak
##al
##am
##an
##ao
##ap
##aq
##ar
##as
##at
##au
##av
##aw
##ax
##ay
##az
##b
##ba
##bb
##bc
##bd
##be
##bf
##bg
##bh
##bi
##bj
##bk
##bl
##bm
##bn
##bo
##bp
##bq
##br
##bs
##bt
##bu
##bv
##bw
##bx
##by
##bz
##c
##ca
##cb
##cc
##cd
##ce
##cf
##cg
##ch
##ci
##cj
##ck
##cl
##cm
##cn
##co
##cp
##cq
##cr
##cs
##ct
##cu
##cv
##cw
##cx
##cy
##cz
##d
##da
##db
##dc
##dd
##de
##df
##dg
##dh
##di
##dj
##dk
##dl
##dm
##dn
##do
##dp
##dq
##dr
##ds
##dt
##du
##dv
##dw
##dx
##dy
##dz
##e
##ea
##eb
##ec
##ed
##ee
##ef
##eg
##eh
##ei
##ej
##ek
##el
##em
##en
##eo
##ep
##eq
##er
##es
##et
##eu
##ev
##ew
##ex
##ey
##ez
##f
##fa
##fb
##fc
##fd
##fe
##ff
##fg
##fh
##fi
##fj
##fk
##fl
##fm
##fn
##fo
##fp
##fq
##fr
##fs
##ft
##fu
##fv
##fw
##fx
##fy
##fz
##g
##ga
##gb
##gc
##gd
##ge
##gf
##gg
##gh
##gi
##gj
##gk
##gl
##gm
##gn
##go
##gp
##gq
##gr
##gs
##gt
##gu
##gv
##gw
##gx
##gy
##gz
##h
##ha
##hb
##hc
##hd
##he
##hf
##hg
##hh
##hi
##hj
##hk
##hl
##hm
##hn
##ho
##hp
##hq
##hr
##hs
##ht
##hu
##hv
##hw
##hx
##hy
##hz
##i
##ia
##ib
##ic
##id
##ie
##if
##ig
##ih
##ii
##ij
##ik
##il
##im
##in
##io
##ip
##iq
##ir
##is
##it
##iu
##iv
##iw
##ix
##iy
##iz
##j
##ja
##jb
##jc
##jd
##je
##jf
##jg
##jh
##ji
##jj
##jk
##jl
##jm
##jn
##jo
##jp
##jq
##jr
##js
##jt
##ju
##jv
##jw
##jx
##jy
##jz
##k
##ka
##kb
##kc
##kd
##ke
##kf
##kg
##kh
##ki
##kj
##kk
##kl
##km
##kn
##ko
##kp
##kq
##kr
##ks
##kt
##ku
##kv
##kw
##kx
##ky
##kz
##l
##la
##lb
##lc
##ld
##le
##lf
##lg
##lh
##li
##lj
##lk
##ll
##lm
##ln
##lo
##lp
##lq
##lr
##ls
##lt
##lu
##lv
##lw
##lx
##ly
##lz
##m
##ma
##mb
##mc
##md
##me
##mf
##mg
##mh
##mi
##mj
##mk
##ml
##mm
##mn
##mo
##mp
##mq
##mr
##ms
##mt
##mu
##mv
##mw
##mx
##my
##mz
##n
##na
##nb
##nc
##nd
##ne
##nf
##ng
##nh
##ni
##nj
##nk
##nl
##nm
##nn
##no
##np
##nq
##nr
##ns
##nt
##nu
##nv
##nw
##nx
##ny
##nz
##o
##oa
##ob
##oc
##od
##oe
##of
##og
##oh
##oi
##oj
##ok
##ol
##om
##on
##oo
##op
##oq
##or
##os
##ot
##ou
##ov
##ow
##ox
##oy
##oz
##p
##pa
##pb
##pc
##pd
##pe
##pf
##pg
##ph
##pi
##pj
##pk
##pl
##pm
##pn
##po
##pp
##pq
##pr
##ps
##pt
##pu
##pv
##pw
##px
##py
##pz
##q
##qa
##qb
##qc
##qd
##qe
##qf
##qg
##qh
##qi
##qj
##qk
##ql
##qm
##qn
##qo
##qp
##qq
##qr
##qs
##qt
##qu
##qv
##qw
##qx
##qy
##qz
##r
##ra
##rb
##rc
##rd
##re
##rf
##rg
##rh
##ri
##rj
##rk
##rl
##rm
##rn
##ro
##rp
##rq
##rr
##rs
##rt
##ru
##rv
##rw
##rx
##ry
##rz
##s
##sa
##sb
##sc
##sd
##se
##sf
##sg
##sh
##si
##sj
##sk
##sl
##sm
##sn
##so
##sp
##sq
##sr
##ss
##st
##su
##sv
##sw
##sx
##sy
##sz
##t
##ta
##tb
##tc
##td
##te
##tf
##tg
##th
##ti
##tj
##tk
##tl
##tm
##tn
##to
##tp
##tq
##tr
##ts
##tt
##tu
##tv
##tw
##tx
##ty
##tz
##u
##ua
##ub
##uc
##ud
##ue
##uf
##ug
##uh
##ui
##uj
##uk
##ul
##um
##un
##uo
##up
##uq
##ur
##us
##ut
##uu
##uv
##uw
##ux
##uy
##uz
##v
##va
##vb
##vc
##vd
##ve
##vf
##vg
##vh
##vi
##vj
##vk
##vl
##vm
##vn
##vo
##vp
##vq
##vr
##vs
##vt
##vu
##vv
##vw
##vx
##vy
##vz
##w
##wa
##wb
##wc
##wd
##we
##wf
##wg
##wh
##wi
##wj
##wk
##wl
##wm
##wn
##wo
##wp
##wq
##wr
##ws
##wt
##wu
##wv
##ww
##wx
##wy
##wz
##x
##xa
##xb
##xc
##xd
##xe
##xf
##xg
##xh
##xi
##xj
##xk
##xl
##xm
##xn
##xo
##xp
##xq
##xr
##xs
##xt
##xu
##xv
##xw
##xx
##xy
##xz
##y
##ya
##yb
##yc
##yd
##ye
##yf
##yg
##yh
##yi
##yj
##yk
##yl
##ym
##yn
##yo
##yp
##yq
##yr
##ys
##yt
##yu
##yv
##yw
##yx
##yy
##yz
##z
##za
##zb
##zc
##zd
##ze
##zf
##zg
##zh
##zi
##zj
##zk
##zl
##zm
##zn
##zo
##zp
##zq
##zr
##zs
##zt
##zu
##zv
##zw
##zx
##zy
##zz
$
%
&
'
(
)
*
+
,
-
.
/
0
00
000
0002
0003
0004
0006
001
002
0022
00238
003
004
005
006
00695
007
008
009
01
010
011
012
013
014
0140
015
016
02
0212
0261
03
0307
033
035
0362
04
05
06
07
08
09
0a
0b
0c
0d
0e
0f
0g
0h
0i
0j
0k
0l
0m
0n
0o
0p
0q
0r
0s
0t
0u
0v
0w
0x
0y
0z
1
10
100
1000
10000
1001
1002
1007
101
1016
1017
102
1020
1021
103
1037
1038
104
105
1056
106
106195
107
1073
108
1080
1086
109
1093
109453
1097
1098
11
110
1100
1103
111
1111
112
1126
113
1136
114
1146
115
116
1161
117
1177
118
1186
119
1196
12
120
1200
1204
121
1210
122
123
1235
124
125
1250
125898
126
127
128
129
13
130
1300
130903
131
132
133
134
135
1350
136
1365
137
1371
138
138416
139
14
140
1400
141
141278
142
143
144
145
1450
1453
146
14651858
1469
147
1471
148
1480
149
1492
1497
15
150
1500
1502
151
1512
1515
1517
152
1520
1521
1525
1526
153
1530
154
1540
1542
1545
155
1550
1552
1553
1555
156
1560
157
1570
158
1580
159
1590
16
160
1600
1603
1604
1605
1609
161
1610
162
1620
1621
1625
163
1630
1632
1633
1635
1636
164
1640
1642
1644
1648
1649
165
1650
1651
1655
1658
166
1660
1662
1665
1666
1667
1669
167
1670
1672
1675
1679
168
1680
1683
1685
1688
1689
169
1690
1695
1696
1699
17
170
1700
1701
1702
1703
1707
171
1710
1711
1714
1715
172
1720
1721
1722
1723
1724
1725
1728
173
1730
1735
1736
174
1740
1741
1743
1744
1745
1746
1747
1748
1749
175
1750
1751
1752
1753
1754
1755
1756
1757
1758
1759
176
1760
1762
1763
1764
1765
1766
1767
1768
1769
177
1770
1771
1772
1773
1774
1775
1776
1777
1778
1779
178
1780
1781
1782
1783
1784
1785
1786
1787
1788
1789
179
1790
1791
1792
1793
1794
1795
1796
1797
1798
1799
18
180
1800
1801
1802
1803
1804
1805
1806
1807
1808
1809
181
1810
1811
1812
1813
1814
1815
1816
1817
1818
1819
182
1820
1821
1822
1823
1824
1825
1826
1827
1828
1829
183
1830
1831
1832
1833
1834
1835
1836
1837
1838
1839
184
1840
1841
1842
1843
1844
1845
1846
1847
1848
1849
185
1850
1851
1852
1853
1854
1855
1856
1857
1858
1859
186
1860
1861
1862
1863
1864
1865
1866
1867
1868
1869
187
1870
1871
1872
1873
1874
1875
1876
1877
1878
1879
188
1880
1881
1882
1883
1884
1885
1886
1887
1888
1889
189
1890
1891
1892
1893
1894
1895
1896
1897
1898
1899
19
190
1900
1901
1902
1903
1904
1905
1906
1907
1908
1909
191
1910
1911
1912
1913
1914
1915
1916
1917
1918
1919
192
1920
1921
1922
1923
1924
1925
1926
1927
1928
1929
193
1930
1931
1932
1933
1934
1935
1936
1937
1938
1939
194
1940
1941
1942
1943
1944
1945
1946
1947
1948
1949
195
1950
1951
1952
1953
1954
1955
1956
1957
1958
1959
196
1960
1961
1962
1963
1964
1965
1966
1967
1968
1969
197
1970
1971
1972
1973
1974
1975
1976
1977
1978
1979
198
1980
1981
198182
1982
1983
1984
1985
1986
1987
1988
1989
199
1990
1991
1992
1993
1994
1995
1996
1997
1998
1999
1a
1b
1c
1d
1e
1f
1g
1h
1i
1j
1k
1l
1m
1n
1o
1p
1q
1r
1s
1t
1u
1v
1w
1x
1y
1z
2
20
200
2000
2001
2002
2003
2004
2005
2006
2007
2008
2009
201
2010
2011
2012
2013
2014
2015
2016
2017
2018
2019
202
2020
2021
2022
203
204
205
206
207
208
209
21
210
211
212
213
214
215
216
217
218
219
22
220
2200
221
222
223
224
225
226
227
228
229
23
230
2307
231
232
233
234
235
236
237
238
2383265
239
24
240
241
242
243
244
245
246
2464
247
248
249
25
250
2500
251
252
253
254
255
256
257
258
259
26
260
261
262
263
264
265
266
267
268
269
27
270
2700
271
272
273
274
275
276
277
278
279
2792
28
280
281
282
283
284
285
286
287
288
289
29
290
291
292
293
294
295
296
297
298
299
2a
2b
2c
2d
2e
2f
2g
2h
2i
2j
2k
2l
2m
2n
2o
2p
2q
2r
2s
2t
2u
2v
2w
2x
2y
2z
3
30
300
3000
301
302
303
304
305
306
307
3077
308
309
31
310
311
312
313
314
315
316
317
318
319
32
320
321
322
323
324
325
326
327
328
329
33
330
331
332
333
334
335
336
337
338
339
34
340
341
342
343
344
345
346
347
348
349
35
350
3500
351
352
353
354
355
356
357
358
359
36
360
361
362
363
364
365
366
367
368
369
37
370
371
372
373
374
375
376
377
378
379
38
380
381
382
383
384
385
386
387
388
389
39
390
391
392
393
394
39422
395
396
397
398
399
3a
3b
3c
3d
3e
3f
3g
3h
3i
3j
3k
3l
3m
3n
3o
3p
3q
3r
3s
3t
3u
3v
3w
3x
3y
3z
4
40
400
4000
401
402
403
404
405
406
407
408
409
41
410
411
412
413
414
415
416
417
418
419
42
420
421
422
423
42356
424
425
426
427
4278
428
429
43
430
431
432
433
4331
434
435
436
437
438
439
44
440
441
442
443
444
445
446
447
448
449
45
450
451
452
453
45352
454
455
456
457
458
45846
459
46
460
461
462
463
464
465
466
46628
467
468
469
47
470
471
472
473
474
475
476
477
478
479
48
480
481
482
483
484
485
486
487
488
489
49
490
491
492
493
494
495
496
497
498
499
4a
4b
4c
4d
4e
4f
4g
4h
4i
4j
4k
4l
4m
4n
4o
4p
4q
4r
4s
4t
4u
4v
4w
4x
4y
4z
5
50
500
5000
501
502
503
504
505
506
507
508
509
51
510
511
512
513
514
515
516
517
518
519
52
520
52072
521
522
523
524
525
526
527
528
529
53
530
531
532
533
534
535
53566
536
537
538
539
54
540
541
542
543
544
545
546
547
548
549
55
550
551
552
553
554
555
556
557
558
559
56
560
561
562
563
564
565
566
567
568
57
570
571
572
573
574
575
576
577
578
579
58
580
582
584
585
588
589
59
590
591
592
593
595
596
597
599
5a
5b
5c
5d
5e
5f
5g
5h
5i
5j
5k
5l
5m
5n
5o
5p
5q
5r
5s
5t
5u
5v
5w
5x
5y
5z
6
60
600
6000
601
602
603
6036
604
605
606
607
608
61
610
612
613
615
616
617
618
62
620
623
624
625
628
629
63
630
631
632
634
636
637
638
639
64
640
641
642
643
645
646
647
648
65
650
652
653
656
66
660
661
664
666
667
668
67
670
671
672
6736
674
679
68
680
682
683713
684
685
686
688
689
69
691
692
696
699
6a
6b
6c
6d
6e
6f
6g
6h
6i
6j
6k
6l
6m
6n
6o
6p
6q
6r
6s
6t
6u
6v
6w
6x
6y
6z
7
70
700
7000
704
705
71
711
712
72
720
73
736
737
74
742
747
75
750
752
754
76
760
766
768
77
775
777
78
780
79
793
7a
7b
7c
7d
7e
7f
7g
7h
7i
7j
7k
7l
7m
7n
7o
7p
7q
7r
7s
7t
7u
7v
7w
7x
7y
7z
8
80
800
8000
802
804
8084
81
816
82
83
832
84
840
85
850
85270
86
87
88
880
884446
885
89
8a
8b
8c
8d
8e
8f
8g
8h
8i
8j
8k
8l
8m
8n
8o
8p
8q
8r
8s
8t
8u
8v
8w
8x
8y
8z
9
90
900
91
916
92
9272
93
933
94
95
950
951
953
96
960
963
966
97
975
977378
978
98
985
99
990
992
9939
999
99930
99941
9a
9b
9c
9d
9e
9f
9g
9h
9i
9j
9k
9l
9m
9n
9o
9p
9q
9r
9s
9t
9u
9v
9w
9x
9y
9z
:
;
<
=
>
?
@
[
[CLS]
[MASK]
[PAD]
[SEP]
[UNK]
\
]
^
_
`
a
a0
a1
a2
a3
a4
a5
a6
a7
a8
a9
aa
aaron
ab
abc
about
above
abraham
abrams
abstract
abu
abuse
ac
academia
academic
academie
academy
access
accessdate
accessed
according
account
accreditations
accueil
ace
acessodata
achievement
acid
acm
across
act
acta
acting
action
active
activity
actor
actors
actress
acts
acute
ad
adam
adams
adaptation
adds
adele
adjusted
administration
adobe
adrian
adult
adults
advanced
advances
adventure
adventures
ae
af
affairs
afghanistan
afp
africa
african
after
ag
again
against
age
aged
agencia
agency
agent
agents
ages
ago
agreement
agriculture
aguilera
ah
ahead
ahmed
ai
aid
aids
ain
air
aircraft
aires
airlines
airplay
airport
airways
aj
ajax
ak
akademie
akl
al
alabama
alan
albania
albanian
albert
alberto
album
albums
alessandro
alex
alexander
alexandra
alfa
alfred
ali
alice
alicia
alison
alive
all
alla
allan
allen
allergy
alliance
allkpop
allmovie
allmusic
allocine
almost
alone
alpha
als
also
alternative
always
am
amanda
amazing
amazon
ambassador
america
american
americans
amnesty
among
amor
amounts
amour
amsterdam
amt
amtern
amtsfreien
amy
an
ana
analysis
anatomy
ancient
and
andalucia
anderson
andre
andrea
andreas
andreeva
andrew
andrews
android
andy
angel
angeles
angels
anglo
animal
animals
animated
animation
anime
anita
ann
anna
annals
anne
annee
annie
anniversary
anno
annona
announce
announced
announces
annual
annuels
ano
anos
another
ans
anthem
anthology
anthony
anthropology
anti
anton
antonio
any
ao
ap
app
apple
application
applications
applied
approach
apr
april
aq
ar
ara
arab
arabia
arabic
aram
arc
arch
archaeological
archaeology
archinform
architecture
archive
archived
archives
archivio
archivum
ardennes
are
area
areas
arena
argentina
argentino
aria
ariana
arizona
ark
arlis
arm
armed
armenia
armenian
armenians
armenpress
arms
armstrong
army
arnold
around
arrow
arsenal
arslista
art
arte
arthur
article
articles
artificial
artist
artists
artnet
arts
artsakh
arxiv
as
ashley
asia
asian
ask
asociacion
asp
aspects
aspx
assembly
assessment
associacao
associated
association
associations
aston
astronomical
astronomy
at
atalanta
athens
athletic
atlanta
atlantic
atlas
atletico
atmospheric
atomic
atp
attack
attacks
au
aube
aude
audio
auf
auflage
aug
august
aus
austin
australia
australian
austria
austrian
austriancharts
author
authorities
authority
authors
autism
auto
autobiography
autor
aux
av
available
avec
avengers
avenue
aviation
avproduction
avril
aw
award
awards
away
ax
ay
ayuntamiento
az
azalea
azerbaijan
azərbaycan
b
b0
b1
b2
b3
b4
b5
b6
b7
b8
b9
ba
babelio
baby
back
background
bad
baden
bafta
bailey
baker
balance
ball
ballet
baltimore
ban
banc
band
bandit
bang
bank
banks
bankı
bar
barbara
barcelona
barnes
baron
barry
bas
base
based
basic
basingstoke
basis
basketball
bass
batman
battle
bavarian
bay
bayerisches
bayern
bb
bbc
bbfc
bc
bd
be
beach
bear
beast
beat
beatles
beats
beautiful
beauty
became
because
beck
become
becomes
been
before
begin
beginning
begins
behavior
behavioral
behind
bei
being
belgian
belgium
believe
bell
belle
ben
benezit
benfica
benjamin
bennett
benz
berg
berkeley
berlin
bernard
bernstein
best
bestsellerow
bet
beta
better
between
bevolkerung
bevolkerungsstandes
beyonce
beyond
bf
bg
bh
bi
bibcode
bible
bibliographisches
bibliography
biblioteca
bibliotheque
bieber
big
biggest
bilancio
bill
billboard
billie
billion
billy
bin
bio
biografico
biographical
biographie
biography
biol
biological
biology
bird
birds
birmingham
birth
birthday
bis
bit
biz
bj
bk
bl
black
blackpink
blackwell
blake
blind
block
blog
blogs
blogspot
blood
bloom
bloomberg
blu
blue
blues
bm
bmj
bn
bnf
bo
board
bob
body
boeing
boletin
bollywood
bologna
bomb
bon
bond
bone
book
books
boom
border
born
borussia
borys
bosnia
boss
boston
both
box
boxofficemojo
boy
boys
bp
bpi
bq
br
brad
bradley
brain
brand
brandenburg
brasil
bravo
brazil
brazilian
break
breaking
breaks
breast
brian
bridge
brief
brien
brill
bring
britain
britannica
british
britney
broadcast
broadcasting
broadway
brockhaus
broken
brooklyn
brooks
bros
brother
brothers
brown
brozovic
bruce
bruno
bryan
bs
bt
bts
bu
budapest
buenos
build
building
buildings
bulgaria
bulgarian
bull
bulletin
bundesliga
bundesverband
burden
bureau
burns
bush
business
but
butler
buy
bv
bw
bx
by
bz
bɑ
bɑj
bɑn
bɑr
bɑt
bɑɾ
bɑɾd
bɛɾ
c
c0
c1
c2
c3
c4
c5
c6
c7
c8
c9
ca
cabello
cabinet
cable
caesar
cafe
cairo
calcio
california
call
called
calls
calvados
calvin
cambridge
came
camera
cameron
camila
camp
campaign
campbell
can
canada
canadian
canal
cancer
canciones
cannes
cape
capital
captain
car
cara
carbon
card
cardi
cardiac
cardiology
cardiovascular
care
career
carey
carl
carlo
carlos
carmen
carnegie
carol
carolina
caroline
carroll
carter
cartoon
casa
case
cases
cash
cassini
cast
castillo
castle
cat
catalana
catalans
catalog
catalogue
catalunya
cathedral
catherine
catholic
caucasus
cause
causes
cave
cb
cbc
cbs
cc
cd
cdc
cdot
cdots
ce
ced
celebrity
celine
cell
cells
celtic
census
center
centers
central
centre
centro
centuries
century
ceo
ceremony
certification
certifications
cf
cfilm
cg
cgi
ch
chainsmokers
challenge
challenges
chamber
champion
championat
champions
championship
championships
chan
chance
chang
change
changed
changes
changing
channel
chapter
character
characteristics
characters
charente
charles
charlie
charlotte
chart
charts
chartverfolgung
chase
che
check
chelsea
chem
chemical
chemistry
chen
chess
chest
chi
chicago
chief
chiffres
child
childhood
children
chile
china
chinese
chisholm
choice
chosun
chr
chris
christ
christian
christianity
christie
christina
christine
christmas
christopher
chronic
chronicle
chronology
church
ci
cia
cid
cifras
cinema
circ
circle
circulation
circumstances
citar
cite
cites
cities
citizen
city
ciudad
civil
civilization
cj
ck
cl
claim
claims
claire
clark
clarke
clarkson
clash
class
classic
classical
classics
classifica
classification
claude
clean
cles
cleveland
click
climat
climate
clin
clinic
clinical
clinics
clio
close
club
cm
cn
cnn
cns
co
coach
coast
coauthors
cochrane
code
codes
cognitive
cohen
coins
cold
coldplay
cole
colin
collaboration
collected
collection
collections
college
collider
collins
colombia
colonial
color
columbia
com
come
comeback
comedy
comes
comic
comics
coming
commentary
commerce
commercial
commission
committee
common
commons
commonwealth
communication
communications
community
como
companies
companion
company
comparative
comparison
competition
complete
completes
complex
composition
comprehensive
computer
computing
comune
con
concept
concepts
concert
concise
conference
confirmed
confirms
conflict
congress
connect
connecticut
connor
conquest
consequences
conservation
consortium
constitution
construction
consulte
contact
contemporary
content
contest
context
contract
control
controlled
convention
cook
cool
cooper
copa
copy
core
cornell
coronavirus
corp
corporate
corporation
corpus
corriere
corruption
cos
cosmopolitan
cost
costa
could
council
countdown
counties
countries
country
county
course
court
cover
covid
cox
cp
cq
cr
craig
crash
crazy
crc
created
creation
creative
creator
credits
crew
crime
crimes
criminal
crisis
critic
critical
critics
croatia
croatian
cross
crown
cruz
cry
crystal
cs
csfd
ct
ctitulo
cu
cuba
cult
cultura
cultural
culture
cultures
cup
cure
curid
current
cut
cv
cw
cx
cy
cyprus
cyrus
cystat
cz
czech
d
d0
d1
d2
d3
d4
d5
d6
d7
d8
d9
da
daddy
dades
daily
dal
dali
dallas
dame
dan
dana
dance
dancing
dangerous
daniel
danish
danishcharts
danny
dans
dark
das
data
database
date
datenbank
datenverarbeitung
datepublished
dates
dati
dato
datos
daughter
dave
david
davidson
davies
davis
dawn
day
days
db
dc
dd
de
dead
deadline
deadlink
deal
dean
death
debate
deborah
debut
debuts
dec
decade
december
decision
declaration
deep
default
defence
defender
defense
definition
degli
dei
del
delhi
dell
della
delle
dels
delta
deluxe
dem
demand
demi
demo
democracy
democratic
demografico
demographic
den
denis
denise
denmark
dennis
departement
department
depeche
deportivo
depression
der
derby
derek
dermatology
des
description
desert
design
destiny
det
detail
details
detroit
deutsche
deutschen
deutscher
deutschland
deux
development
devil
dezember
df
dg
dh
di
dia
diabetes
diagnosis
diagnostic
diamond
diana
diane
diaries
diario
diary
dick
dictionary
dictionnaire
did
didn
die
died
diego
dies
different
digital
din
dion
diplomatic
dir
direct
direction
director
directors
directory
dirty
dis
disco
discography
discogs
discovery
discussion
disease
diseases
disney
disorder
disorders
display
displaystyle
distribution
district
diversity
division
dizionario
diɾ
dj
dk
dl
dm
dn
dna
do
doc
docs
doctor
document
documentary
documents
does
doesn
dog
dogs
doi
doja
dokumentum
domain
domestic
dominic
don
donald
done
donna
door
doors
dortmund
dos
dostepu
dot
dots
double
doubleday
douglas
dover
down
download
downloads
dp
dq
dr
dragon
dragons
drake
drama
draw
dream
dreams
drive
drop
drops
drug
drugs
ds
dt
du
dua
dublin
due
duke
dumps
duncan
duran
during
dutch
dutchcharts
dv
dvd
dw
dx
dy
dynamics
dynasty
dz
dɑ
dɛl
e
e0
e1
e2
e3
e4
e5
e6
e7
e8
e9
ea
each
eagle
earl
early
earth
east
eastern
easy
eating
eb
ec
echo
ecole
ecology
economic
economics
economist
economy
ed
edgar
edge
edinburgh
edit
edited
editeur
edition
editions
editor
editorial
editors
eds
edu
education
educational
edward
edwards
edwin
ee
eesti
ef
effect
effects
efficacy
eg
eggs
egypt
egyptian
eh
ehess
ei
eight
eilish
ein
eine
einer
einstein
ej
ek
eki
el
election
elections
electric
electronic
elements
elena
elisabeth
elite
elizabeth
elle
ellen
ellie
ellis
elsevier
elton
em
embassy
emergency
emerging
emi
emily
eminem
emma
emmy
emperor
empire
emploi
emporis
en
enciclopedia
enciklopedija
encyclopaedia
encyclopedia
encyclopædia
end
ending
ends
energy
enero
enewsworld
eng
engine
engineering
england
english
enough
enrique
enter
entered
entertainment
entre
entry
environment
environmental
eo
ep
epic
epidemiology
episode
eq
er
era
eric
erik
ernest
ernst
es
escape
espana
espanol
espanya
espn
essay
essays
essential
est
estadistica
estado
estatal
estimates
estonian
et
etc
ethics
ethnic
ethnologue
etudes
eu
eugene
euro
europa
europe
european
eurosport
eurovision
ev
eva
evaluation
evans
eve
even
evening
event
events
ever
everton
every
everything
evidence
evil
evolucio
evolution
ew
ex
example
exchange
exclusive
executive
exhibition
exo
experience
experimental
expert
explicit
explore
explorer
expo
express
expression
extended
extra
ey
eye
eyes
ez
f
f0
f1
f2
f3
f4
f5
f6
f7
f8
f9
fa
faber
faberge
face
facebook
faces
fact
factbook
factor
factors
facts
faculty
failure
fair
faith
fall
falling
falls
false
fame
families
family
famous
fan
fans
fantasy
far
fashion
fast
fat
father
fb
fbref
fc
fd
fda
fe
fear
feat
feature
features
featuring
feb
february
fechaacceso
federal
federation
federazione
feel
felix
fellows
female
fembio
feminism
feminist
fencing
ferguson
fernandez
fernando
fest
festival
fever
few
ff
fg
fh
fi
fiche
fichefilm
fiction
fide
field
fields
fifa
fifth
fifty
fight
fighting
figure
figures
file
files
film
filmaffinity
filmalkotasok
filme
filmek
filmfare
filming
filmportal
films
filtra
fimi
final
finale
finally
finals
finance
financial
find
finding
finds
fine
finland
finnish
finnishcharts
fiorentina
fire
first
fischer
fish
fisher
five
fj
fk
fl
flag
flash
fleming
flight
flora
florence
florida
flow
flower
floyd
fly
flying
fm
fn
fo
focus
folk
follow
following
food
foot
football
footballdatabase
for
forbes
force
forces
ford
foreign
forest
forever
forgotten
form
format
formation
former
forms
fort
fortschreibung
fortune
forum
forward
foster
found
foundation
foundations
founder
four
fourth
fox
fp
fq
fr
fra
frac
francais
francaise
france
frances
francesco
francis
francisco
franco
francois
frank
frankfurt
franklin
franz
fraser
frauendatenbank
fred
frederic
frederick
free
freebase
freedom
freeman
french
fresh
friday
friedman
friedrich
friend
friendlies
friends
from
front
fs
ft
fu
fulham
full
fullcredits
fun
function
fund
fur
futbol
future
fv
fw
fx
fy
fz
g
g0
g1
g2
g3
g4
g5
g6
g7
g8
g9
ga
gabriel
gaga
gala
galaxy
gale
galerie
gallery
gallimard
game
games
gamma
gang
gaon
gaonchart
garcia
garden
gardner
gary
gas
gastroenterology
gate
gates
gay
gazeta
gazette
gazetteer
gb
gc
gd
ge
gemeinden
gemeindeverzeichnis
gemeinsame
gen
gender
gene
genealogics
genealogy
geneastar
general
generalitat
generation
genesis
genetic
genetics
genius
gennaio
genoa
genocide
genome
geoffrey
geographic
geographical
geographique
geography
geological
geonames
geonet
georg
george
georges
georgia
georgian
gerald
gerard
germain
german
germany
geschichte
gesellschaft
get
gets
getting
getty
gf
gfk
gg
gh
ghost
gi
giant
gibson
gift
gilbert
giorgio
giovanni
girl
girls
giuseppe
give
given
gives
gj
gk
gks
gl
glass
glenn
global
globe
gloria
glory
gm
gmbh
gn
go
goal
god
gods
goes
gogh
going
gold
goldberg
golden
gomez
gone
gonzalez
good
goodbye
google
gordon
gorkəmli
got
goud
gouv
gov
government
governor
gp
gq
gr
grace
graham
grammar
grammy
gran
granada
grand
grande
grant
grave
gray
great
greatest
greece
greek
green
greenwood
greg
gregory
grey
ground
group
groups
grove
growing
growth
grup
grupo
gruyter
gs
gt
gu
guardian
guide
guideline
guidelines
guides
guinness
guitar
gun
gustav
gutenberg
guy
gv
gw
gx
gy
gz
h
h0
h1
h2
h3
h4
h5
h6
h7
h8
h9
ha
haaretz
had
half
hall
halsey
ham
hamburg
hamilton
han
hand
handbook
hands
hanglemezkiadok
hannah
hans
hansen
happened
happiness
happy
haqqında
hard
harmony
harold
harper
harpercollins
harris
harrison
harry
hart
harvard
harvey
has
hat
hate
have
haven
hayazg
hb
hbar
hbo
hc
hcl
hd
hdl
he
head
health
hear
heart
hearts
heat
heaven
heavy
hebrew
heidelberg
heinrich
held
helen
hell
hello
help
helsinki
henri
henry
hepatitis
her
herald
herbert
here
heritage
herman
hermann
hero
heroes
het
hetq
hey
hf
hg
hh
hi
hidden
hier
high
higher
highest
highlights
hill
hills
him
hindu
hip
his
histoire
historia
historian
historic
historical
history
hit
hitler
hitlisten
hitparada
hitparade
hits
hiv
hj
hk
hl
hm
hn
ho
hold
holiday
holland
hollywood
holmes
holocaust
holt
holy
home
homepage
homme
homo
hong
honor
honorary
honors
hop
hope
hopkins
horror
horse
hospital
host
hot
hotel
houghton
houndmills
hour
hours
house
housing
houston
how
howard
hp
hq
hr
hrsg
hrvatska
hs
ht
htm
html
http
https
hu
hub
hudson
huffington
hugh
hughes
hugo
human
humanities
humans
hundred
hung
hungarian
hungary
hunt
hunter
hurriyet
hv
hw
hx
hy
hyun
hz
hɑ
hɑmɑ
hɑt
hɑŋk
hɑɾ
i
i0
i1
i2
i3
i4
i5
i6
i7
i8
i9
ia
ian
iana
iau
ib
ibm
ibn
ic
ice
ich
icon
id
idea
ideas
identification
identity
idioma
idol
idolator
ie
ieee
if
ifpi
ig
iggy
iglesias
ign
ignored
ih
ii
iii
ij
ik
il
ilbo
illegal
illinois
illustrated
im
image
images
imagine
imdb
impact
imperial
implications
important
in
inc
incidence
includes
including
independence
independent
index
india
indian
indiana
individual
indonesia
induced
industria
industrial
industry
ine
infection
infections
infectious
infinity
inflammatory
influence
info
informacion
information
infty
initiative
injury
insee
insert
inside
insider
inspired
instagram
institut
institute
institution
instituto
int
intel
intelligence
inter
interactive
interest
intermedia
internal
international
internationale
internet
interpretation
interview
interviews
into
introduction
investigation
investment
io
ios
ip
ipad
iphone
iq
ir
iran
iranian
iraq
ireland
irish
irma
iron
is
isabel
isbn
isis
islam
islamic
island
islands
iso
israel
israeli
iss
issn
issue
issues
ist
istanbul
istat
istituto
it
italia
italian
italiana
italiancharts
italiani
italy
itau
item
itemid
its
itunes
iu
iucn
iv
ivan
iw
ix
iy
iz
iŋk
j
j0
j1
j2
j3
j4
j5
j6
j7
j8
j9
ja
jaaroverzichten
jack
jackie
jackson
jacob
jacobs
jacques
jahrescharts
jahreshitparade
jam
jama
james
jamie
jan
jane
janet
january
japan
japanese
jason
jatszasi
java
jay
jazz
jb
jc
jd
je
jean
jeff
jefferson
jeffrey
jennifer
jeremy
jerry
jersey
jerusalem
jessica
jesus
jet
jewish
jews
jezyk
jf
jg
jh
ji
jill
jim
jimmy
jin
jj
jk
jl
jm
jn
jo
joan
joe
joel
johan
johann
johannes
john
johnny
johns
johnson
join
joins
joint
jon
jonas
jonathan
jones
joongang
jordan
jorge
jose
josef
joseph
josh
joshua
journal
journalist
journey
joy
joyce
jp
jpg
jpl
jq
jr
js
jstor
jt
ju
juan
judith
juice
jul
julia
julian
julie
julius
july
jump
jun
june
jung
junior
jupiter
just
justice
justin
jut
juventus
jv
jw
jx
jy
jyp
jz
jɑ
jɑk
jɑl
jɑn
jɑt
k
k0
k1
k2
k3
k4
k5
k6
k7
k8
k9
ka
kanye
karabakh
karen
karl
kate
katherine
katy
kb
kbs
kc
kd
ke
keep
keith
kelly
ken
kendrick
kennedy
kenneth
kent
kevin
key
keys
kf
kg
kh
khalid
khan
ki
kid
kids
kill
killed
killer
killing
kim
kind
kindred
king
kingdom
kings
kino
kinopoisk
kiss
kit
kj
kk
kl
klaus
klein
km
kn
knight
knopf
know
knowledge
known
ko
koln
kong
korea
korean
kosovo
kp
kq
kr
kroll
ks
kt
ku
kultur
kum
kumar
kunst
kurt
kv
kw
kx
ky
kz
kɑ
kɑl
kɑn
kɑp
kɑt
kɑɾ
kɑɾt
kɑɾɡ
kɔ
kɔt
kɛl
kɛt
kɛɾ
kɛɾp
l
l0
l1
l2
l3
l4
l5
l6
l7
l8
l9
la
lab
label
labor
laboratory
ladies
lady
lake
laliga
lamar
lambda
lambert
lana
lancet
land
landesamt
lands
landscape
lane
lang
language
languages
langue
large
largest
larry
las
last
late
later
latest
latin
latino
latvijas
launch
launches
laura
laureates
lauren
laurent
law
lawrence
laws
lazio
lb
lc
ld
ldots
le
lead
leader
leaders
leadership
leading
leads
league
learning
least
leave
leaves
lebanese
lebanon
leben
lecture
led
lee
left
legacy
legal
legales
legend
legends
lego
leicester
leiden
leipzig
leksikon
lenta
leo
leon
leonard
leonardo
les
lescharts
leslie
less
lessons
let
letter
letters
lettres
level
levine
lewis
lexicon
lexikon
lf
lg
lh
li
liam
lib
liberation
liberty
libraries
library
libre
libris
lie
lies
life
lifetime
liga
light
lights
ligue
lik
like
lil
lim
limited
limits
lin
lincoln
linda
line
lines
lingua
linguistics
link
linked
links
linux
lion
lipa
lippincott
lisa
list
lista
liste
listen
lists
listy
lit
literary
literature
little
littlefield
liu
live
liver
liverpool
lives
living
lj
lk
ll
llc
lloyd
lm
ln
lo
loan
local
location
log
logic
london
lonely
long
longrightarrow
look
looking
lopez
lord
lorde
los
lose
loss
lost
louis
louise
lovato
love
loved
lover
loves
low
lp
lq
lr
ls
lt
ltd
lu
lucas
lucy
ludwig
luis
luke
lundy
lung
luxembourg
lv
lw
lx
ly
lynn
lyon
lyrics
lz
lzmk
lɑ
lɛ
lɛl
m
m0
m1
m2
m3
m4
m5
m6
m7
m8
m9
ma
mac
macdonald
macedonia
machine
macmillan
mad
made
madison
madness
madonna
madrid
mafia
magazine
magic
magyar
mahasz
mai
mail
main
mainstream
maint
major
make
makes
making
malaysia
malcolm
male
malone
malta
mama
man
management
manager
manchester
manhattan
mann
manual
manuel
many
map
maps
mar
marc
marca
marcel
march
marco
marcus
margaret
maria
mariah
marie
marina
marine
mario
mark
market
marketing
markets
marks
maroon
marriage
married
mars
marseille
marshall
martha
martin
martinez
marvel
mary
maryland
mas
mason
mass
massachusetts
massacre
master
masters
match
matches
material
materials
math
mathbb
mathbf
mathematical
mathematics
mathrm
mathsf
matrix
matt
matter
matthew
maurice
max
may
mayer
mayo
mayor
mb
mbc
mbox
mc
mcfarland
mcgraw
md
me
mean
meaning
means
mechanisms
med
medal
media
medical
medicine
medicines
medien
medieval
mediterranean
meduza
meet
meeting
mega
megan
meghan
melissa
member
members
membership
memoir
memoirs
memorial
memories
memory
men
mendes
mental
menu
mercedes
mercury
merriam
message
met
meta
metacritic
metal
method
methods
metro
metropolitan
mexican
mexicana
mexico
meyer
mf
mg
mgm
mh
mi
mia
miami
michael
michel
michelle
michigan
microbiology
microrregiao
microsoft
mid
middle
midfielder
midnight
mifflin
might
migration
miguel
mike
milan
milano
miles
miley
military
millennium
miller
million
milton
min
minaj
mind
mine
mini
minister
ministere
ministry
minnesota
minor
minorplanetcenter
minute
minutes
miranda
mirror
miss
missing
mission
mit
mitchell
mix
mj
mk
ml
mm
mma
mn
mnet
mo
mobile
mod
mode
model
models
modern
mojo
mol
molecular
moment
mon
monaco
monday
monde
monetary
money
monitor
monster
montana
monte
month
monthly
months
montreal
monument
monuments
moon
moore
moral
more
morgan
morning
morris
mort
mortality
moscow
most
mother
motion
motor
mount
mountain
move
movement
moves
movie
movies
moving
mp
mq
mr
mrs
ms
msn
mt
mtv
mu
much
muhammad
muller
multiple
munchen
mundo
munich
municipal
municipality
municipios
municipis
munzinger
murder
murphy
murray
muse
musee
museo
museum
museums
music
musica
musical
musicale
musicline
musik
musikindustrie
muslim
must
mv
mw
mx
my
myspace
mystery
myth
mythology
mz
mɑ
mɑk
mɑn
mɑs
mɑt
mɔ
məlumat
mɛ
mɛt
n
n0
n1
n2
n3
n4
n5
n6
n7
n8
n9
na
nach
nacional
name
named
names
nancy
napoleon
napoli
nas
nasa
natalie
nathan
nation
national
nationale
nationalism
nations
native
nato
natur
natural
nature
naval
naver
navy
nazi
nazionale
nb
nba
nbc
nc
nct
nd
ne
near
necessary
nederlandse
need
neil
nel
nellie
nelson
neo
net
netflix
netherlands
network
networks
neue
neurology
neuroscience
never
new
newcastle
newman
news
newspaper
newspapers
newsru
newsweek
newton
next
nf
ng
nh
ni
nice
nicholas
nick
nickelodeon
nicki
nicolas
nicole
nielsen
nigeria
night
nih
nik
nina
nine
nineteenth
nintendo
nj
nk
nl
nla
nm
nme
nmhh
nn
no
nobel
nobelprize
noel
nokia
nom
nomination
nominations
nominees
non
normal
norman
normdatei
norsk
norske
north
northern
norton
norway
norwegian
norwegiancharts
norwich
nos
not
notable
note
notes
nothing
noticias
notre
nouvelle
nov
nova
novel
november
novgorodstat
now
np
npr
nq
nr
ns
nt
nu
nuclear
nuevo
num
number
numbered
numbers
nun
nutrition
nv
nw
nx
ny
nyc
nyilvantartasa
nytimes
nz
nɑ
nɑk
nɑl
nɑt
nɔt
nɛ
nɛl
nɛɾ
o
o0
o1
o2
o3
o4
o5
o6
o7
o8
o9
oa
ob
obama
obesity
obituary
object
observations
observatory
observer
oc
ocean
oceanic
och
oclc
oct
october
od
oder
oe
oecd
of
off
office
official
officially
officiel
officielle
oficial
oficiales
oficialna
oficialni
og
oglu
oh
ohio
oi
oil
oj
ok
ol
old
oldest
olimpbase
olis
oliver
olivia
olympic
olympics
om
omega
on
once
oncology
one
online
only
oo
op
open
opening
opens
opera
operation
operatorname
opinion
opublikowany
oq
or
ora
oral
orange
orchestra
order
org
organisation
organization
oricon
orient
oriental
origin
original
origins
orlando
oro
os
oscar
oscars
oslo
ost
osterreichischen
ot
other
others
ottawa
otto
ottoman
ou
oup
our
out
outside
ov
over
overview
ow
owen
own
ox
oxford
oy
oz
p
p0
p1
p2
p3
p4
p5
p6
p7
p8
p9
pa
pablo
pacific
padron
pagasts
page
pages
pagina
pain
painting
paintings
pais
pakistan
palace
palermo
palestine
palgrave
palmer
pan
panic
panorama
pantheon
paolo
paper
paperback
papers
par
para
parade
paradise
paramount
paris
parish
park
parker
parks
parliament
parque
part
partial
participle
partners
party
pas
passion
past
patent
path
pathology
patient
patients
patricia
patrick
patterns
paul
paulo
pay
payne
pays
pb
pbs
pc
pd
pdf
pe
peace
peak
pearl
pearson
pediatric
pediatrics
pedro
peerage
pen
penguin
pennsylvania
people
peoples
per
perez
perfect
performance
period
perry
persian
person
personal
personality
personen
persons
perspective
perspectives
peru
peter
petersburg
petit
pf
pg
ph
pharmacology
phi
phil
philadelphia
philip
philippe
philippines
phillips
philosophical
philosophy
phoenix
phone
phonographic
phonographique
phononet
photo
photographs
photography
photos
php
phys
physical
physician
physics
physiology
pi
piano
picture
pictures
piece
pierre
pilot
pilots
pink
pioneer
pitbull
pitchfork
pittsburgh
piu
pj
pk
pl
place
places
plan
planet
planetary
planets
planning
plans
plant
plants
platin
platina
platinum
play
played
player
players
playing
plays
playstation
plaza
please
plos
plus
pm
pmc
pmid
pn
pnas
po
poblacion
pocket
poe
poems
poet
poetry
poets
point
points
pokemon
poland
police
policy
polish
political
politics
pop
pope
popolazione
popular
population
populations
por
port
portal
porter
porto
portrait
portugal
portuguese
portuguesecharts
position
positions
positive
possible
post
postaux
poste
potential
potter
pour
power
powerful
powers
pp
pq
pr
practical
practice
practices
praha
pre
pregnancy
premier
premiere
prentice
present
presentation
presents
president
presidential
press
presse
pressure
pretty
prevalence
prevention
preview
price
primary
prime
prince
princess
princeton
principles
print
printing
prisa
prison
private
prix
prize
prizes
pro
problem
problems
proceedings
process
producentow
product
production
productions
productores
products
produkte
prof
professional
professor
profile
profiles
program
programme
programming
programs
progress
project
projects
proleksis
prometheus
properties
protection
protein
protest
protests
province
provincia
ps
psg
psi
psychiatric
psychiatry
psychological
psychology
pt
pu
pub
public
publicado
publication
publications
published
publisher
publishers
publishing
puerto
pulmonary
punk
pure
put
pv
pw
px
py
pz
pɑ
pɑn
pɑt
pɛs
pɛt
q
q0
q1
q2
q3
q4
q5
q6
q7
q8
q9
qa
qadınlar
qb
qc
qd
qe
qf
qg
qh
qi
qj
qk
ql
qm
qn
qo
qp
qq
qr
qs
qt
qu
quad
quality
quantum
quartal
quartale
quartalsende
quarterly
que
quebec
queen
queens
query
quest
question
questions
qui
qv
qw
qx
qy
qz
r
r0
r1
r2
r3
r4
r5
r6
r7
r8
r9
ra
race
rachel
rada
radio
radios
rafael
rai
rain
ralph
random
randomized
ranking
rankings
rap
rapper
rapports
rare
rate
ratings
ray
raymond
rb
rc
rca
rd
re
reach
read
reader
reading
ready
real
realgm
reality
really
reason
reasons
rebecca
recent
receptor
recipients
recognition
record
recorded
recording
recordings
records
red
reed
ref
reference
references
reform
region
regional
regions
register
regnum
regulation
reich
related
relations
relationship
release
released
releases
religion
religions
religious
remember
remix
remixes
renaissance
rene
report
reporter
reports
reprint
reprinted
repubblica
republic
republica
required
res
research
reserve
residente
resistance
resolution
resource
resources
respiratory
response
result
resultantes
resultat
results
retrieved
return
returns
reuters
rev
revealed
reveals
review
reviews
revised
revision
revista
revolution
revue
rey
reynolds
rf
rg
rh
rhin
rho
rhythmic
ri
riaa
rice
rich
richard
rick
ricordi
ride
right
rightarrow
rights
rihanna
ring
rio
rise
rising
risk
rita
river
rj
rk
rkd
rkdartists
rl
rm
rn
ro
road
rob
robert
roberto
roberts
robertson
robin
robinson
rock
rocky
rodrigo
rodriguez
roger
rogers
roland
role
roll
rolling
rom
roma
roman
romance
romania
romanian
rome
romeo
ron
ronald
room
roots
rosa
rose
roses
ross
rossetti
rosstat
rostov
rotten
round
routledge
row
rowman
roy
royal
rp
rpm
rq
rr
rs
rsssf
rt
ru
rudolf
rule
rules
run
running
rus
rush
russell
russia
russian
ruth
rv
rw
rx
ry
ryan
rz
s
s0
s1
s2
s3
s4
s5
s6
s7
s8
s9
sa
sacred
sad
safety
sage
said
saint
saints
sale
sales
salon
salt
salvador
salzburg
sam
same
samsung
samuel
san
sanchez
sans
sant
santa
santiago
santos
sao
sara
sarah
satellite
satellites
saturday
saudi
saunders
savage
save
say
says
sb
sbs
sc
scale
scarecrow
scene
scenes
schmidt
schneider
school
schools
schuster
schwartz
schweizer
sci
science
sciences
scientific
scientist
scientists
score
scores
scotland
scott
scottish
screen
script
sculpture
sd
se
sea
seal
sean
search
season
seattle
sebastian
sec
second
seconds
secret
secretary
secrets
section
security
see
seen
seine
select
selected
selection
selena
self
selling
semana
sen
senate
sense
seoul
sep
september
sequel
sera
serbia
serie
series
server
service
services
session
set
seth
sets
seven
sevilla
sex
sexual
sezione
sf
sg
sh
shadow
shakespeare
shakira
shape
share
shares
shaw
shawn
she
sheeran
sheet
shock
shooting
shop
short
shot
should
show
showing
shows
shtml
si
sia
side
sie
siecle
sierra
sigma
sign
signing
signs
silence
silent
silva
silver
simon
simple
simpson
sin
since
sing
singapore
singer
singh
singlar
single
singles
singoli
sings
sir
sister
sit
site
sites
six
size
sj
sk
skin
sky
skyscraperpage
sl
slagerlistak
sleep
slotop
slovenian
slow
sm
small
smart
smile
smith
smithsonian
sn
snep
snow
sns
so
sobre
soc
soccer
soccerbase
soccerway
social
societe
society
sofia
soft
software
sol
solar
soldier
solo
solution
some
somebody
something
somme
son
song
songs
sons
sony
soompi
soon
sophie
sorry
soul
sound
soundtrack
source
sources
sous
south
southampton
southern
soviet
sp
space
spain
spanish
spanishcharts
speak
spears
special
species
specific
specified
spectrum
speculative
speech
speed
spencer
spider
spiegel
spin
spirit
split
sport
sportbox
sporting
sports
spot
spotify
spring
springer
sputnik
spy
sq
sqrt
squad
square
sr
sri
ss
st
stadium
stadt
staff
stage
stand
standard
stanford
stanley
star
starring
stars
start
stat
state
statement
states
station
statistical
statistiche
statistics
statistik
statistikportal
stats
status
stay
steam
steel
stefan
steffen
stem
step
stephanie
stephen
steve
steven
stewart
stichtag
stichting
still
stock
stockholm
stone
stones
stop
stopklatka
store
storia
storico
stories
storm
story
straight
strange
stranger
strategic
strategies
strategy
strauss
stream
streaming
street
stress
strike
string
stroke
strong
structure
struggle
stuart
student
students
studies
studio
studios
study
stuttgart
style
styles
su
sub
subject
subscription
subtitle
success
such
sugar
suicide
sul
sullivan
sum
summary
summer
summit
sun
sunday
super
superlative
supernatural
suppl
supplement
support
supreme
sur
surgery
surgical
survey
survival
sus
susan
sut
sv
svensk
sveriges
sverigetopplistan
sw
sweden
swedish
swedishcharts
sweet
swift
swiss
swisscharts
switzerland
sx
sy
sydney
symbols
symphony
symptoms
syndicat
syndrome
synthesis
syracuse
syria
system
systematic
systems
sz
szovetsege
sɑ
sɑk
sɑt
sɔ
sɔt
sɛ
sɛl
sɛɾ
t
t0
t1
t2
t3
t4
t5
t6
t7
t8
t9
ta
table
tables
tag
take
takes
taking
tale
talent
tales
talk
talking
talks
tan
target
task
tate
tauris
taylor
tb
tc
td
te
tea
teaching
team
teams
tears
teaser
teatr
teatro
tech
technical
technologies
technology
ted
teen
telegraph
television
tell
temple
temps
ten
tennis
terjesztett
term
terms
terra
terror
terry
tesla
test
texas
text
texts
tf
tg
th
thames
than
thank
that
the
theater
theatre
theft
theguardian
their
them
theme
then
theories
theory
therapy
there
these
theta
they
thing
things
think
thinking
third
this
thomas
thompson
thomson
those
thought
thousand
three
thriller
thrones
through
thursday
ti
tidal
tiffany
tiger
tik
til
till
tim
timberlake
time
timeline
times
timothy
tin
tip
title
titre
titulo
tj
tk
tl
tm
tn
to
today
todd
together
tokyo
tom
tomatoes
tome
tomorrow
tonight
tony
too
top
tophit
topic
tops
torino
toronto
total
tottenham
touch
tour
tourism
tournament
tous
toward
towards
tower
town
towns
tp
tq
tr
track
tracklisten
tracks
trade
tradition
traditional
trailer
train
training
trans
transactions
transfer
transfermarkt
transition
translated
translation
translator
transport
travel
travis
treatment
treaty
treccani
tree
trends
trial
trials
tribune
tribute
triple
trouble
true
trump
trust
truth
ts
tt
tu
tucker
tuesday
tum
tun
turismo
turk
turkey
turkish
turks
turn
turner
turns
tut
tv
tw
twentieth
twenty
twice
twin
twitter
two
tx
ty
tyler
type
types
tytuł
tz
tɑ
tɑk
tɑɾ
tɔɾ
tɛ
tɛl
tɛɾ
u
u0
u1
u2
u3
u4
u5
u6
u7
u8
u9
ua
uab
ub
uber
uc
ud
ue
uefa
uf
ufc
ug
uh
ui
uj
uk
ukraine
ukrainian
ukrcensus
ul
ultimate
ultratip
ultratop
um
umb
un
una
und
under
understanding
une
unesco
union
unit
united
univ
universal
universe
universidad
universitat
universite
universities
university
unknown
uno
until
unveils
uo
up
uparrow
upcoming
update
updated
upon
upper
uq
ur
urban
url
uruguay
us
usa
use
used
user
using
ut
utc
utd
uu
uv
uw
ux
uy
uz
uʁ
v
v0
v1
v2
v3
v4
v5
v6
v7
v8
v9
va
vaccine
val
vald
valencia
valley
value
values
vampire
van
vancouver
vanity
var
varepsilon
variety
various
varphi
vauthors
vb
vc
vd
ve
vec
vegas
venezuela
venice
venus
ver
vera
verlag
version
versus
very
vevo
vf
vg
vh
vhs
vi
via
vice
victims
victor
victoria
victorian
victory
vida
video
videos
vie
vienna
viertes
view
views
vii
viii
viking
villa
village
villages
ville
villes
vilnius
vincent
vinyl
violence
viral
virgin
virginia
virtual
virus
visa
vision
visit
visual
vita
vitamin
viva
vj
vk
vl
vladimir
vlasenko
vm
vn
vo
vogue
voice
voices
void
vol
volume
volumes
vom
von
vote
voyage
vp
vq
vr
vs
vt
vu
vv
vw
vx
vy
vz
vɑ
vɑt
vɑɾ
vɔt
vɔɾ
vɛl
vɛɾ
w
w0
w1
w2
w3
w4
w5
w6
w7
w8
w9
wa
wagner
wake
wales
walk
walker
walking
wall
wallace
walt
walter
wang
wanna
want
wanted
wants
war
ward
warfare
warner
warren
wars
warszawa
was
washington
watch
water
watson
wave
way
wayback
wayne
wb
wc
wcm
wd
we
weapons
weather
web
webcitation
webcite
website
webster
wedding
wednesday
week
weekend
weekly
weeknd
welcome
well
welle
welt
were
werner
west
western
westport
wf
wg
wh
what
when
where
which
while
white
whitney
who
whole
whoscored
why
wi
wide
wien
wiener
wife
wiki
wikipedia
wild
wiley
wilhelm
wilkins
will
william
williams
wilson
win
wind
windows
wine
wings
winner
winners
winning
wins
winter
wired
wisconsin
wish
wissen
with
within
without
wj
wk
wl
wm
wn
wo
wolf
wolfgang
woman
women
won
wonder
woo
wood
woods
word
words
work
working
works
world
worldfootball
worlds
worldtimezone
worldwide
worth
would
wp
wps
wq
wr
wrestling
wright
writer
writers
writing
writings
written
wrld
wrong
ws
wt
wta
wu
wv
ww
wwe
www
wx
wy
wyroznienia
wz
x
x0
x1
x2
x3
x4
x5
x6
x7
x8
x9
xa
xb
xbox
xc
xd
xe
xf
xg
xh
xi
xii
xiii
xiv
xix
xj
xk
xl
xls
xlsx
xm
xn
xo
xp
xq
xr
xrightarrow
xs
xt
xu
xv
xvi
xvii
xviii
xw
xx
xxi
xxii
xxl
xxx
xxxtentacion
xy
xz
y
y0
y1
y2
y3
y4
y5
y6
y7
y8
y9
ya
yahoo
yale
yang
yb
yc
yd
ye
year
years
yellow
yerevan
yes
yet
yf
yg
yh
yi
yj
yk
yl
yle
ym
yn
yo
york
yorker
you
young
your
yourself
youth
youtube
yp
yq
yr
ys
yt
yu
yv
yw
yx
yy
yz
z
z0
z1
z2
z3
z4
z5
z6
z7
z8
z9
za
zagreb
zb
zc
zd
ze
zealand
zeit
zeitung
zero
zf
zg
zh
zhang
zi
zj
zk
zl
zm
zn
zo
zone
zp
zpav
zq
zr
zs
zt
zu
zum
zur
zurich
zv
zw
zwiazek
zx
zy
zz
zɑ
zɑjn
zɛv
{
|
}
~
¡
£
¦
§
©
ª
«
¬
®
¯
°
±
²
³
´
µ
·
¹
º
»
½
¿
×
ß
æ
ð
÷
ø
þ
đ
ħ
ı
ł
ŋ
œ
ɐ
ɑ
ɑd
ɑjin
ɑjt
ɑk
ɑkɑn
ɑl
ɑn
ɑnd
ɑnt
ɑp
ɑr
ɑrɑd
ɑt
ɑŋk
ɑɾ
ɑɾt
ɑɾɑ
ɑʁ
ɑʁɑk
ɑʃ
ɒ
ɔ
ɔk
ɔn
ɔs
ɔt
ɔɾ
ɔɾd
ɔʁ
ɘ
ə
ɛ
ɛk
ɛl
ɛt
ɛv
ɛɾ
ɛɾi
ɛɾt
ɜ
ɡ
ɡi
ɡit
ɡiɾ
ɡujn
ɡɔɾt
ɣ
ɨ
ɪ
ɫ
ɯ
ɹ
ɾ
ɾi
ɾik
ɾit
ɾum
ɾɑ
ɾɑk
ɾɑn
ɾɑt
ɾɑɾ
ɾɔ
ɾɔn
ɾɛl
ɾɛn
ʁ
ʁi
ʃ
ʃi
ʃɑ
ʃɑk
ʃɑn
ʃɑt
ʃɑɾ
ʃɾd
ʊ
ʌ
ʏ
ʒ
ʒin
ʒuɾ
ʒɑ
ʒɑn
ʒɔt
ʰ
ʰˈ
ʰː
ʲ
ʹ
ʻ
ʼ
ʾ
ʿ
ˈ
ˋ
ˌ
ː
˙
˚
΄
α
απογραφη
β
γ
δ
δημοκρατιας
ε
ζ
η
θ
ι
κ
και
κυπριακης
λ
μ
ν
ξ
ο
π
πληθυσμου
ρ
ς
σ
στατιστικη
τ
της
το
του
υ
υπηρεσια
φ
χ
ψ
ω
ϑ
ϕ
ϵ
а
августа
авт
автор
агентство
администрация
адыгея
азербаиджана
азербаиджанскои
акад
академии
академия
акчан
алгоритм
александр
александра
александрович
алексеи
аль
альбом
ан
анализ
анатолии
англ
андреи
анна
антон
апреля
аргументы
армении
армения
армии
армия
армян
армянская
армянскии
армянского
армянскои
архив
архивированная
архивировано
архитектура
архитектуры
аст
астрель
атлас
афиша
б
баку
банк
без
безопасности
беларуси
беларусь
белыи
би
библиотека
бизнес
биографии
биографическии
биография
более
большая
больше
большои
борис
брокгауз
брокгауза
будет
бы
был
была
были
было
быть
в
ва
валерии
василии
васильевич
вв
введение
ведомости
век
века
веков
великии
великого
великои
вера
версия
верховного
вести
вестник
вече
вечернии
взгляд
видатних
видео
визнала
виктор
владимир
владимира
владимирович
власти
власть
во
водныи
военная
военно
воина
воине
воины
вокруг
вопросу
вопросы
воспоминания
восток
востока
восточнои
впервые
времен
времени
временная
время
все
всесоюзная
всех
вставьте
вступ
вторая
второи
вузов
выборг
выдающихся
вып
выпуск
выставка
выставки
высшая
г
газета
галерея
гвардия
гг
где
гельбке
георгиевскии
георгии
германии
герои
гл
глава
главныи
главы
го
год
года
годов
году
годы
голос
город
города
городских
городского
городскои
горького
гос
государства
государственная
государственного
государственное
государственнои
государственныи
государственными
грудня
грузии
группа
группы
д
да
данные
данных
дата
два
две
двух
де
декабря
дел
дела
дело
делу
день
детеи
дети
деятельности
дж
джон
динамо
дипломатических
дипломатического
для
дмитрии
днеи
дня
до
документы
дом
дома
дон
дону
доп
достоевскии
др
древнеи
древностеи
другие
дсту
е
евгении
европы
его
ее
ежегодник
екатерина
екатеринбург
елена
ер
ереван
ес
если
есть
ефрон
ефрона
еще
ж
же
женщинах
живописи
живопись
животных
жизни
жизнь
журнал
журнала
жінок
з
за
завод
закарпатська
закон
заметки
занятость
записки
звезда
звезды
здесь
зелинскии
земли
земля
золотои
зональная
и
иван
иванов
иванович
игорь
игры
из
избранные
известия
изд
издание
издательскии
издательство
изобразительное
израиля
ил
или
илл
илья
им
имени
империи
имя
ин
иностранных
институт
института
интервью
интернет
интерфакс
информации
информация
иорк
ипээ
ирина
искусств
искусства
искусство
испании
испр
исследование
исследовании
исследования
истории
историко
историческая
исторические
историческии
история
итоги
их
июля
июня
к
как
канал
канскии
капков
карта
карты
каталог
киев
кино
классических
классическои
клуб
кн
книга
книге
книги
книжное
когда
комитет
комментарии
коммерсантъ
компании
комсомолец
комсомольская
константин
контракт
конференции
конца
копия
которые
которыи
красная
красныи
краткая
краткии
края
крым
крыма
кто
культура
культурного
культуры
курс
куторга
л
латвии
лев
лекции
ленинград
ленинграда
ленинградская
ленинградскии
ленинградских
ленинградскои
лента
леонид
лет
летию
ли
лит
литература
литературная
литературное
литературы
любви
любкер
любкеру
любовь
людеи
люди
м
максим
малая
марина
мария
марта
мастера
материалы
матча
мая
мгу
медиа
медицина
между
международная
международного
международнои
международныи
меня
места
место
мид
министерства
министерство
минск
мир
мира
мире
мировои
мифы
михаил
михаилович
млн
мн
мне
мо
мов
может
мои
молодая
москва
москве
москвы
московскии
московского
моя
музеи
музея
музыка
мультипликации
мультфильмы
муниципальным
мы
мысль
н
на
наградами
награждении
над
названии
назначении
народа
народов
нас
население
населения
населенным
населення
наследие
наследия
наталья
наук
наука
науки
науч
научно
научныи
научных
национальная
национальнои
национальныи
начала
начало
наш
наши
наявного
не
неизвестныи
некоторые
нем
нет
ни
никитин
николаевич
николаи
николая
но
новая
нового
новое
новои
новостеи
новости
новые
новыи
ноября
нп
нтв
нью
о
об
обзор
области
область
облрада
обозрение
обороны
образование
образования
образованиям
обращения
общ
общая
общеи
общества
общество
один
октября
олег
олма
ольга
он
она
они
онлаин
оон
ооо
описание
опыт
организации
осенняя
осипов
основные
основы
особенности
особливии
от
отв
отечественного
отечественнои
отношении
отношения
официальном
официальныи
очерк
очерки
п
павел
памяти
памятник
памятники
память
парк
партии
педагогики
пер
первая
первого
первои
первоисточника
первыи
перевод
перед
переписи
перепись
перераб
период
песни
песня
петербург
петербурга
петербурге
петербургского
петр
петров
петрович
писатели
писатель
письма
письмо
питер
по
победы
повести
повесть
под
подписал
поиска
политика
полное
полномочного
полномочным
получил
польск
портал
портрет
посла
после
последние
последнии
послом
пособие
постановление
постоянного
почему
права
правда
правительства
правительство
право
президент
президента
президиума
премии
премия
премьер
премьера
пресс
при
примечание
принт
присвоении
про
проблема
проблемы
проверено
программа
прогресс
проект
произведении
просвещение
против
протокол
проф
профиль
прохоров
прохорова
психологии
психология
пунктам
путеводитель
пути
путин
путина
путь
пушкин
пушкина
р
ра
работы
рабочии
рада
радио
раз
развитие
развития
раздел
раион
раиона
раионов
ран
ранга
рангов
распоряжение
рассказы
растении
рбк
реальныи
ред
редактор
редакциеи
редакция
редкол
реестр
режиссер
результаты
река
республика
республике
республики
рецензия
решение
риа
рождения
року
роль
роман
россии
россииская
россиискии
россииских
россииского
россиискои
россия
ростов
ростовскои
рсфср
ру
руководство
румунськоі
рус
русинськоі
русская
русские
русскии
русских
русского
русское
русскои
русском
рф
с
саит
саита
саите
самые
самыи
самых
санкт
сб
сборник
сборнои
света
светлана
свобода
свои
связи
себя
сегодня
семьи
сентября
сергеевич
сергеи
сергея
серия
си
система
системы
сказка
сказки
скончался
скульптуры
слова
словарь
слово
служба
см
смерти
смерть
сми
со
собрание
сов
совет
совета
советская
советскии
советского
советскои
современная
современник
современного
современнои
сост
состав
состоянию
софия
социально
соч
сочинении
сочинения
союз
союза
спартак
спб
список
спорт
спорта
справка
справочник
среди
сср
ссср
ст
стал
стала
статеи
статистика
статистики
статистическии
статус
статьи
статья
степени
стихи
стр
стран
страница
страницы
страны
строку
суд
сша
сын
сільська
січня
т
та
таганрог
так
также
такое
там
тасс
татьяна
тв
творчества
творчество
театр
театра
текст
телеканал
теории
теория
территории
тип
то
только
том
томах
традиции
три
труды
ты
у
угорськоі
уезд
уже
указ
украина
украине
украинская
украины
украіни
улица
умер
ун
университет
университета
управление
уткин
учеб
учебник
учебное
ученые
учтена
ф
факты
фантастики
февраля
федерации
федор
федоров
фестиваль
филологии
философии
философия
фильм
фильма
фильме
фильмов
фильмы
фк
фонд
фонда
фото
фотографии
фр
франции
футбол
х
химия
хорв
храм
хроника
художеств
художественная
художественныи
художник
художника
художники
художников
хх
ц
центр
церкви
церковь
цска
ч
частично
часть
человек
человека
чем
чемпионат
через
чехов
чисельність
численность
членов
члены
чрезвычаиного
чрезвычаиным
что
чтобы
ш
швед
школа
школы
шоу
щ
ъ
ы
ь
э
экз
экономика
экс
эксмо
экспресс
электронная
энциклопедии
энциклопедическии
энциклопедия
эпохи
это
эхо
ю
юбилеиныи
юлия
юрии
я
язык
языка
языке
января
яндекс
яп
ђ
є
і
інформаціі
ј
љ
њ
ћ
џ
ѣ
ґ
ғ
ҙ
қ
ҡ
ң
ҫ
ү
ұ
ҳ
ҷ
һ
ә
ө
ՙ
՚
՛
՜
՝
՞
ա
աա
աբ
աբաս
աբբաս
աբգար
աբդ
աբդուլ
աբել
աբելյան
աբեղյանի
աբխազական
աբխազիայի
աբովյան
աբովյանի
աբու
աբստրակտ
աբրահամ
աբրահամի
աբրահամյան
աբրահամյանը
ագ
ագաթա
ագահ
ագարակ
ագն
ագուլիս
ագռավ
ագրարային
ագրեսիայի
ագրեսիվ
ագրոէկոլոգիական
ադ
ադա
ադամ
ադամանդե
ադամը
ադամի
ադամյան
ադամս
ադամսը
ադանայի
ադիջե
ադմինիստրատիվ
ադոլֆ
ադրբ
ադրբեջան
ադրբեջանական
ադրբեջաներեն
ադրբեջանը
ադրբեջանի
ադրբեջանին
ադրբեջանում
ադրբեջանցի
ադրբեջանցիներ
ադրբեջանցիները
ադրբեջանցիների
ադրիան
ադրիատիկ
աեֆ
ազ
ազատ
ազատագրական
ազատագրել
ազատագրման
ազատագրմանը
ազատագրության
ազատագրում
ազատագրումը
ազատագրված
ազատագրվել
ազատազրկման
ազատական
ազատամարտի
ազատամարտիկ
ազատամարտիկների
ազատել
ազատելու
ազատի
ազատորեն
ազատության
ազատություն
ազատությունը
ազատությունների
ազատում
ազատված
ազատվել
ազատվելու
ազատվեց
ազատվում
ազգ
ազգաբնակչության
ազգագրագետ
ազգագրական
ազգագրության
ազգական
ազգակցական
ազգային
ազգայնական
ազգանուն
ազգանունը
ազգանունների
ազգանունով
ազգանվան
ազգերը
ազգերի
ազգը
ազգի
ազգին
ազգությամբ
ազգության
ազգությունների
ազդանշան
ազդանշանային
ազդանշանը
ազդանշանի
ազդանշանների
ազդել
ազդեցիկ
ազդեցությամբ
ազդեցության
ազդեցությանը
ազդեցություն
ազդեցությունը
ազդեցությունից
ազդեցությունն
ազդեցություններ
ազդեցությունները
ազդեցությունների
ազդող
ազդում
ազիզ
ազնիվ
ազնվական
ազնվականական
ազնվականների
ազնվականության
ազովի
ազոտի
աթաթուրքի
աթեիստի
աթենք
աթենքի
աթենքում
աթոռ
աթոռը
աթոռի
աթոռին
աթս
աժ
աիդա
ալ
ալաբամա
ալան
ալաշկերտ
ալաշկերտի
ալավերդու
ալբ
ալբանական
ալբանացի
ալբաներեն
ալբանիա
ալբանիայի
ալբանիայում
ալբեր
ալբերտ
ալբերտի
ալբերտո
ալբոմ
ալբոմը
ալբոմի
ալբոմից
ալբոմն
ալբոմներ
ալբոմները
ալբոմների
ալբոմում
ալգորիթմը
ալգորիթմի
ալեն
ալեսանդրո
ալերգիկ
ալեք
ալեքս
ալեքսանդր
ալեքսանդրա
ալեքսանդրապոլ
ալեքսանդրապոլի
ալեքսանդրը
ալեքսանդրի
ալեքսանդրիա
ալեքսանդրիայի
ալեքսանդրյան
ալեքսանդրովիչ
ալեքսանդրովկա
ալեքսանդրովնա
ալեքսանյան
ալեքսեյ
ալեքսեևիչ
ալթայի
ալժիր
ալժիրի
ալժիրում
ալի
ալիի
ալին
ալինա
ալիշան
ալիս
ալիսա
ալիսան
ալիսը
ալիք
ալիքային
ալիքը
ալիքի
ալիքներ
ալիքները
ալիքների
ալիքով
ալիքում
ալիևը
ալիևի
ալլա
ալկոհոլ
ալկոհոլային
ալկոհոլի
ալմա
ալմաստ
ալյասկայի
ալյումինի
ալյուր
ալյուրի
ալպեր
ալպերի
ալպիական
ալպյան
ալտերնատիվ
ալտո
ալֆա
ալֆոնս
ալֆոնսո
ալֆրեդ
ախ
ախալցխա
ախալցխայի
ախալքալաքի
ախորժելի
ախուրյան
ախուրյանի
ախչիկը
ախպեր
ախտաբանական
ախտահարման
ախտահարում
ախտահարված
ախտանիշներ
ախտանիշները
ախտանիշների
ախտանշանները
ախտանշանների
ախտորոշիչ
ախտորոշման
ախտորոշում
ախտորոշումը
ախտորոշվել
ախտորոշվում
ախր
ախֆսհ
ած
ածանցյալ
ածել
ածխաթթու
ածխածնի
ածխի
ածուխ
ածում
ածվում
ակ
ակադեմիա
ակադեմիական
ակադեմիայի
ակադեմիային
ակադեմիայում
ակադեմիան
ակադեմիկոս
ակամա
ական
ականավոր
ականատես
ականներ
ականները
ականների
ականներին
ականներից
ականջ
ականջը
ականջի
ականջին
ականջները
ակն
ակնառու
ակնարկ
ակնարկներ
ակնարկների
ակնարկում
ակնկալում
ակնհայտ
ակնհայտորեն
ակումբ
ակումբային
ակումբը
ակումբի
ակումբին
ակումբից
ակումբն
ակումբներ
ակումբները
ակումբների
ակումբներից
ակումբներում
ակումբում
ակունք
ակունքը
ակուստիկ
ակսել
ակվիտանիա
ակտ
ակտերի
ակտը
ակտի
ակտիվ
ակտիվացման
ակտիվացնում
ակտիվիստ
ակտիվիստների
ակտիվները
ակտիվների
ակտիվորեն
ակտիվության
ակտիվություն
ակտիվությունը
ակցիաների
ահ
ահա
ահաբեկիչների
ահաբեկչական
ահաբեկչության
ահագին
ահավոր
ահարկու
ահարոն
ահեղ
ահկ
ահմադ
ահմեդ
ահռելի
աղ
աղա
աղախինը
աղայան
աղայի
աղային
աղան
աղաչում
աղաջանյան
աղասի
աղասին
աղավաղված
աղավնի
աղավնին
աղացած
աղբ
աղբի
աղբյուր
աղբյուրը
աղբյուրի
աղբյուրից
աղբյուրն
աղբյուրներ
աղբյուրները
աղբյուրների
աղբյուրներից
աղբյուրներում
աղդամի
աղեկ
աղեղ
աղեղի
աղետ
աղետալի
աղետի
աղետների
աղեր
աղերի
աղը
աղի
աղիների
աղիքային
աղիքի
աղմկոտ
աղմուկ
աղմուկը
աղմուկի
աղյուսակ
աղյուսակը
աղյուսակի
աղյուսակում
աղյուսե
աղոթում
աղոթք
աղոթքը
աղոթքի
աղոտ
աղու
աղջի
աղջիկ
աղջիկը
աղջիկն
աղջիկներ
աղջիկները
աղջիկների
աղջիկներին
աղջիկս
աղջկա
աղջկան
աղջկանը
աղվանից
աղվես
աղվեսը
աղվեսի
աղտոտման
աղքատ
աղքատների
աղքատներին
աղքատության
աղքատությունը
աճ
աճառյան
աճառյանի
աճել
աճեմյան
աճեց
աճեցնում
աճեցվում
աճը
աճի
աճին
աճման
աճյունը
աճող
աճով
աճում
աճուրդի
ամ
ամա
ամայի
աման
ամանդա
ամանի
ամանորյա
ամաչկոտ
ամաչում
ամառ
ամառային
ամառանոց
ամառը
ամառներով
ամառվա
ամասիա
ամասիայի
ամատունի
ամարաս
ամբիոն
ամբիոնը
ամբիոնի
ամբիոնում
ամբոխը
ամբոխի
ամբողջ
ամբողջական
ամբողջականության
ամբողջականությունը
ամբողջապես
ամբողջովին
ամբողջությամբ
ամբողջության
ամբողջություն
ամբողջությունը
ամեն
ամենա
ամենաազդեցիկ
ամենաարագ
ամենաարդյունավետ
ամենաբարձր
ամենագեղեցիկ
ամենագործածական
ամենաերիտասարդ
ամենաերկար
ամենաթանկ
ամենալավ
ամենախոշոր
ամենակարևոր
ամենակարևորը
ամենահաճախ
ամենահայտնի
ամենահայտնին
ամենահաջողակ
ամենահարուստ
ամենահեղինակավոր
ամենահզոր
ամենահին
ամենամեծ
ամենամեծը
ամենամեծն
ամենամյա
ամենամոտ
ամենայն
ամենանշանավոր
ամենաշատ
ամենաշատը
ամենաուժեղ
ամենավաղ
ամենավառ
ամենավատ
ամենատարածված
ամենատարբեր
ամենացածր
ամենափոքր
ամենափրկիչ
ամենաքիչը
ամենեն
ամենը
ամենի
ամենին
ամենից
ամենն
ամենուր
ամենուրեք
ամենքը
ամենքի
ամենքին
ամենքն
ամենօրյա
ամենևին
ամերիկա
ամերիկական
ամերիկահայ
ամերիկայի
ամերիկայից
ամերիկայում
ամերիկան
ամերիկացի
ամերիկացիներ
ամերիկացիները
ամերիկացիների
ամերիկյան
ամէ
ամէն
ամին
ամինաթթուների
ամիս
ամիսը
ամիսներ
ամիսների
ամիսներին
ամիր
ամիրյան
ամկ
ամհ
ամյա
ամյակը
ամյակի
ամյակին
ամյեն
ամն
ամոթ
ամուսին
ամուսինը
ամուսինն
ամուսինները
ամուսինների
ամուսնալուծության
ամուսնալուծվել
ամուսնական
ամուսնանալ
ամուսնանալու
ամուսնանում
ամուսնացած
ամուսնացավ
ամուսնացել
ամուսնու
ամուսնության
ամուսնություն
ամուսնությունը
ամուսնությունից
ամուսնությունների
ամուսնուն
ամուսնուց
ամուր
ամուրի
ամպ
ամպեր
ամպերը
ամպերի
ամպի
ամռան
ամռանը
ամսագիր
ամսագիրը
ամսագրեր
ամսագրերի
ամսագրերում
ամսագրի
ամսագրին
ամսագրում
ամսաթիվ
ամսաթիվը
ամսական
ամսի
ամսին
ամսից
ամսով
ամսում
ամսվա
ամստերդամ
ամստերդամի
ամստերդամում
ամրագրված
ամրապնդել
ամրապնդելու
ամրապնդման
ամրապնդում
ամրացնել
ամրացնում
ամրացված
ամրացվում
ամրոց
ամրոցը
ամրոցի
ամրոցից
ամրոցն
ամրոցներ
ամրոցները
ամրոցների
ամրոցում
ամրության
ամրություն
ամրությունը
ամփոփիչ
ամփոփում
ամփոփված
այ
այբբենական
այբուբեն
այբուբենը
այբուբենի
այգեգործությամբ
այգի
այգին
այգիներ
այգիները
այգիների
այգիներում
այգու
այգում
այդ
այդմ
այդուհանդերձ
այդպես
այդպիսի
այդպիսին
այդպիսով
այդտեղ
այդտեղից
այդքան
այժմ
այժմյան
այլ
այլաբանական
այլանդակ
այլապես
այլեւ
այլեւս
այլընտրանք
այլընտրանքային
այլն
այլնի
այլոց
այլուր
այլք
այլև
այլևս
այծ
այծի
այն
այնինչ
այնշտայնի
այնուամենայնիվ
այնուհետ
այնուհետև
այնչափ
այնպես
այնպէս
այնպիսի
այնպիսին
այնտեղ
այնտեղի
այնտեղից
այնքա
այնքան
այո
այովա
այս
այսինչ
այսինքն
այսուամենայնիվ
այսուհետև
այսպես
այսպէս
այսպիսի
այսպիսով
այստեղ
այստեղից
այսքան
այսօր
այսօրվա
այվազյան
այտուց
այր
այրարատ
այրել
այրես
այրեսի
այրեսում
այրի
այրին
այրման
այրում
այրված
այրվել
այրվող
այրվում
այց
այցելել
այցելելու
այցելեց
այցելեք
այցելու
այցելության
այցելում
այցելուները
այցելուների
այցելուներին
այցը
այցի
ան
անա
անալիզի
անալիտիկ
անախորժ
անակնկալ
անահիտ
անանիա
անանկ
անանյան
անանուն
անաշխատանք
անաշխատունակ
անաշխատունակներից
անապատ
անապատային
անապատը
անապատի
անապատում
անառակ
անառիկ
անասն
անասնաբուժական
անասնապահությամբ
անասնապահությունն
անասուն
անասունների
անաստասիա
անավարտ
անատոլի
անատոմիական
անատոմիայի
անարատ
անարգ
անարգել
անարդար
անարդյունավետ
անարժան
անբաժան
անբաժանելի
անբախտ
անբասիր
անբավարար
անբավարարության
անբավարարություն
անբավարարությունը
անբարենպաստ
անբարոյական
անբացատրելի
անգամ
անգամն
անգամներ
անգին
անգիտակից
անգիր
անգլ
անգլալեզու
անգլերեն
անգլերենը
անգլերենի
անգլերենին
անգլերենից
անգլերենով
անգլերենում
անգլիա
անգլիական
անգլիայի
անգլիայից
անգլիայում
անգլիան
անգլիացի
անգլիացիները
անգլիացիների
անգլո
անգործ
անգործունակ
անգութ
անգուլեմ
անգույն
անդ
անդադար
անդալուսիա
անդամ
անդամագրվել
անդամակցել
անդամակցության
անդամակցում
անդամը
անդամի
անդամներ
անդամները
անդամների
անդամներին
անդամներից
անդամներն
անդերսենի
անդերսոն
անդերսոնը
անդերսոնի
անդին
անդրադառնալով
անդրադառնում
անդրադարձ
անդրադարձել
անդրանիկ
անդրանիկի
անդրե
անդրեա
անդրեաս
անդրեյ
անդրես
անդրծովյան
անդրկարպատյան
անդրկովկասի
անդրկովկասյան
անդրկովկասում
անե
անել
անելը
անելով
անելու
անեծք
անեծքը
անեմ
անեն
անենք
անես
աներ
անզեն
անզոր
անզուսպ
անընդհատ
անընդմեջ
անընդունելի
անթերի
անթիվ
անի
անիի
անիլ
անիծված
անիկա
անիմաստ
անիմատոր
անիմացիայի
անիմացիոն
անիմե
անիմեի
անին
անխնա
անխուսափելի
անծանոթ
անկախ
անկախության
անկախություն
անկախությունը
անկայուն
անկանոն
անկասկած
անկատար
անկարայի
անկարգությունների
անկարելի
անկարող
անկեղծ
անկեղծորեն
անկման
անկյան
անկյուն
անկյունային
անկյունը
անկյունները
անկյունների
անկյուններում
անկյունում
անկողին
անկողնում
անկում
անկումը
անկումից
անկուսակցական
անկրկնելի
անհամաչափ
անհամար
անհամբեր
անհամեմատ
անհայտ
անհանգիստ
անհանգստացնում
անհանգստության
անհանգստություն
անհաշտ
անհապաղ
անհաջող
անհաջողության
անհասանելի
անհասկանալի
անհավանական
անհավասար
անհավասարության
անհավատալի
անհատ
անհատական
անհատականության
անհատը
անհատի
անհատները
անհատների
անհարմար
անհեթեթ
անհետ
անհետաձգելի
անհետանում
անհետացած
անհետացել
անհետացման
անհիմն
անհնար
անհնարին
անհոգ
անհուն
անհրաժեշտ
անհրաժեշտության
անհրաժեշտություն
անհրաժեշտությունը
անձ
անձամբ
անձանց
անձանցից
անձը
անձի
անձին
անձինք
անձն
անձնագիր
անձնակազմ
անձնակազմը
անձնակազմի
անձնակազմին
անձնական
անձնային
անձնանունների
անձնավորություն
անձնատուր
անձրև
անձրևային
անձրևը
անձրևի
անձրևից
անձրևներ
անճոռնի
անմահ
անմատչելի
անմարդաբնակ
անմեղ
անմիջական
անմիջականորեն
անմիջապես
անմիտ
անմխիթար
անմշակ
աննա
աննախադեպ
աննայի
աննան
աննկատ
աննման
աննշան
անշարժ
անշուշտ
անոթ
անոթային
անոթի
անոթներ
անոթները
անոթների
անող
անողոք
անոնց
անոնք
անոր
անորոշ
անոց
անուղղակի
անում
անուն
անունը
անունից
անունն
անուններ
անունները
անունների
անուններով
անունով
անուշ
անչափ
անչափահաս
անպայման
անպաշտպան
անպատճառ
անպարկեշտ
անպարտելի
անպետք
անպիտան
անջատ
անջատել
անջատման
անջատում
անջատված
անջատվել
անջատվում
անջելես
անջելեսի
անջելեսում
անսահման
անսահմանափակ
անսամբլը
անսամբլի
անսբ
անսովոր
անսպառ
անսպասելի
անսպասելիորեն
անվամբ
անվան
անվանական
անվանակարգ
անվանակարգերում
անվանակարգում
անվանակոչվել
անվանափոխումներից
անվանել
անվանելով
անվանեց
անվանեցին
անվանը
անվանի
անվանմամբ
անվանման
անվանում
անվանումը
անվանումից
անվանումն
անվանումներ
անվանումները
անվանումների
անվանումներով
անվանումով
անվանված
անվանվել
անվանվեց
անվանվում
անվավեր
անվերջ
անվճար
անվնաս
անվտանգ
անվտանգային
անվտանգության
անվտանգություն
անվտանգությունը
անտանելի
անտանտի
անտառ
անտառագիտական
անտառային
անտառապատ
անտառը
անտառի
անտառներ
անտառները
անտառների
անտառներով
անտառներում
անտառում
անտարբեր
անտարես
անտեղի
անտեղյակ
անտեսանելի
անտեսել
անտեր
անտիկ
անտիոքի
անտիպ
անտոն
անտոնը
անտոնի
անտոնին
անտոնիո
անտուան
անտուն
անրի
անց
անցած
անցան
անցանկալի
անցավ
անցել
անցկացման
անցկացնել
անցկացնելով
անցկացնելու
անցկացնելուց
անցկացնում
անցկացումը
անցկացված
անցկացվել
անցկացվեց
անցկացվեցին
անցկացվող
անցկացվում
անցկացրած
անցկացրել
անցկացրեց
անցման
անցյալ
անցյալը
անցյալի
անցյալում
անցնել
անցնելը
անցնելիս
անցնելով
անցնելու
անցնելուց
անցնի
անցնող
անցնում
անցողիկ
անցում
անցումային
անցումը
անցք
անցքեր
անցքը
անփոխարինելի
անփորձ
անփույթ
անփոփոխ
անքուն
անօգնական
անօգուտ
անօդաչու
անօրգանական
անօրինական
աշ
աշակերտ
աշակերտել
աշակերտը
աշակերտի
աշակերտներ
աշակերտները
աշակերտների
աշակերտներին
աշակերտներից
աշխատակազմի
աշխատակից
աշխատակիցներ
աշխատակիցները
աշխատակիցների
աշխատակիցներին
աշխատակցել
աշխատանք
աշխատանքային
աշխատանքը
աշխատանքի
աշխատանքին
աշխատանքից
աշխատանքն
աշխատանքներ
աշխատանքները
աշխատանքների
աշխատանքներին
աշխատանքներից
աշխատանքներն
աշխատանքներով
աշխատանքներում
աշխատանքով
աշխատանքում
աշխատասեր
աշխատավարձ
աշխատավարձը
աշխատավարձի
աշխատավոր
աշխատավորական
աշխատավորների
աշխատել
աշխատելիս
աշխատելով
աշխատելու
աշխատելուց
աշխատեց
աշխատի
աշխատող
աշխատողի
աշխատողներ
աշխատողները
աշխատողների
աշխատողներին
աշխատության
աշխատություն
աշխատությունը
աշխատություններ
աշխատությունները
աշխատությունների
աշխատություններում
աշխատությունում
աշխատուժի
աշխատում
աշխատունակ
աշխատունակությունը
աշխարհ
աշխարհագրագետ
աշխարհագրական
աշխարհագրության
աշխարհագրություն
աշխարհահռչակ
աշխարհամարտի
աշխարհայացքի
աշխարհաքաղաքական
աշխարհը
աշխարհի
աշխարհիկ
աշխարհին
աշխարհիս
աշխարհից
աշխարհն
աշխարհների
աշխարհով
աշխարհում
աշխգր
աշխույժ
աշնան
աշնանային
աշնանը
աշոտ
աշոտի
աշուղ
աշուղական
աշուն
աշունը
աշտարակ
աշտարակը
աշտարակի
աշտարակներ
աշտարակները
աշտարակների
աշտարակում
աորտայի
աուդիո
աուտիզմի
աուտոիմուն
աչք
աչքդ
աչքեր
աչքերը
աչքերի
աչքերին
աչքերից
աչքերն
աչքերով
աչքերում
աչքերս
աչքը
աչքի
աչքին
աչքիս
աչքից
աչքն
աչքով
աչքում
աչքս
ապ
ապա
ապագա
ապագայի
ապագայում
ապագան
ապակե
ապակի
ապակյա
ապակու
ապահով
ապահովագրական
ապահովագրության
ապահովել
ապահովելով
ապահովելու
ապահովման
ապահովող
ապահովության
ապահովում
ապահովումը
ապահովված
ապահովվում
ապաստան
ապաստանել
ապար
ապարան
ապարանի
ապարանքը
ապարատի
ապարդյուն
ապարի
ապարների
ապացույց
ապացույցը
ապացույցներ
ապացույցները
ապացույցների
ապացուցել
ապացուցեց
ապացուցում
ապացուցված
ապացուցվել
ապհ
ապշած
ապոլոն
ապուշ
ապուր
ապստամբ
ապստամբել
ապստամբները
ապստամբների
ապստամբներին
ապստամբության
ապստամբությանը
ապստամբություն
ապստամբությունը
ապրած
ապրանք
ապրանքային
ապրանքանիշը
ապրանքանիշի
ապրանքը
ապրանքի
ապրանքներ
ապրանքները
ապրանքների
ապրել
ապրելով
ապրելու
ապրեց
ապրի
ապրիլ
ապրիլի
ապրիլին
ապրիլից
ապրիլյան
ապրող
ապրում
ապրումների
ապրուստի
ապօրինի
աջ
աջակողմյան
աջակցել
աջակցելու
աջակցող
աջակցությամբ
աջակցության
աջակցություն
աջակցությունը
աջակցում
աջարիայի
աջը
աջից
առ
առա
առած
առաձգական
առայժմ
առան
առանձին
առանձնակի
առանձնահատկություն
առանձնահատկությունը
առանձնահատկությունն
առանձնահատկություններ
առանձնահատկությունները
առանձնահատկությունների
առանձնահատկություններից
առանձնահատկություններով
առանձնահատուկ
առանձնանում
առանձնապես
առանձնատան
առանձնատանը
առանձնատուն
առանձնատունը
առանձնացել
առանձնացնել
առանձնացնում
առանձնացված
առանձնացվել
առանձնացվում
առանձնացրել
առանց
առանցքային
առանցքը
առանցքի
առաջ
առաջադեմ
առաջադիմական
առաջադրանք
առաջադրանքը
առաջադրանքների
առաջադրել
առաջադրում
առաջադրված
առաջադրվել
առաջադրվեց
առաջային
առաջանալ
առաջանում
առաջավոր
առաջատար
առաջատարը
առաջարկ
առաջարկած
առաջարկել
առաջարկելով
առաջարկեց
առաջարկեցին
առաջարկը
առաջարկի
առաջարկներ
առաջարկով
առաջարկությամբ
առաջարկություն
առաջարկությունը
առաջարկում
առաջարկված
առաջարկվել
առաջարկվող
առաջարկվում
առաջացած
առաջացան
առաջացավ
առաջացել
առաջացման
առաջացմանը
առաջացնել
առաջացնելով
առաջացնելու
առաջացնող
առաջացնում
առաջացող
առաջացում
առաջացումը
առաջացրած
առաջացրել
առաջացրեց
առաջը
առաջընթաց
առաջընթացը
առաջընթացի
առաջի
առաջիկա
առաջին
առաջինը
առաջինի
առաջինն
առաջիններից
առաջխաղացման
առաջխաղացումը
առաջն
առաջնաելույթ
առաջնախաղը
առաջնակարգ
առաջնահերթ
առաջնային
առաջնորդ
առաջնորդը
առաջնորդի
առաջնորդն
առաջնորդներ
առաջնորդները
առաջնորդների
առաջնորդներից
առաջնորդությամբ
առաջնորդության
առաջնորդում
առաջնորդվում
առաջնության
առաջնությանը
առաջնություն
առաջնությունը
առաջնությունից
առաջնությունների
առաջնություններում
առաջնությունում
առաջվա
առասպել
առասպելական
առասպելը
առասպելի
առաստաղը
առաստաղի
առավ
առավել
առավելագույն
առավելագույնը
առավելագույնս
առավելապես
առավելության
առավելություն
առավելությունը
առավելություններ
առավելությունները
առավոտ
առավոտը
առավոտյան
առատ
առատորեն
առարկա
առարկայական
առարկայի
առարկան
առարկաներ
առարկաները
առարկաների
առափնյա
առաքել
առաքելական
առաքելյան
առաքելոց
առաքելության
առաքելություն
առաքելությունը
առաքելությունն
առաքինի
առաքման
առաքյալը
առաքյալի
առաքյալների
առել
առեղծվածային
առեց
առընթեր
առթիվ
առիթ
առիթով
առկա
առկայությամբ
առկայության
առկայություն
առկայությունը
առհասարակ
առմամբ
առյուծ
առյուծը
առյուծի
առյուծների
առնել
առնելով
առնելու
առնեմ
առնի
առնո
առնոլդ
առնող
առնում
առնչությամբ
առնչություն
առնչվող
առնչվում
առնվազն
առնված
առնվել
առնվում
առողջ
առողջական
առողջապահական
առողջապահության
առողջարանային
առողջության
առողջություն
առողջությունը
առումներով
առումով
առջեւ
առջև
առջևի
առջևից
առջևում
առցանց
առօրյա
առևանգել
առևանգում
առևտուր
առևտուրը
առևտրական
առևտրականների
առևտրային
առևտրի
առևտրով
աս
ասա
ասած
ասածը
ասամբլեայի
ասավ
ասատուր
ասատրյան
ասաց
ասացեք
ասացի
ասացին
ասել
ասելով
ասելու
ասեմ
ասեն
ասենք
ասես
ասեց
ասեցին
ասէ
ասըմ
ասի
ասիա
ասիական
ասիայի
ասիայից
ասիայում
ասիան
ասիկյան
ասիստենտ
ասլան
ասլանը
ասլանյան
ասկերանի
ասողիկ
ասորական
ասորեստանի
ասորի
ասոցացված
ասոցացվում
ասոցիացիա
ասոցիացիայի
ասոցիացիան
ասում
ասույթներ
ասպարեզ
ասպարեզում
ասպետ
ասպետական
ասպետը
ասպետի
ասպետների
ասպիրանտուրայում
ասպիրանտուրան
ասված
ասվում
աստ
աստառը
աստերոիդ
աստերոիդը
աստերոիդի
աստերոիդներ
աստերոիդները
աստերոիդների
աստիճան
աստիճանաբար
աստիճանական
աստիճանը
աստիճանի
աստիճանին
աստիճանից
աստիճաններ
աստիճանները
աստիճանների
աստիճաններով
աստիճանով
աստծո
աստծու
աստծուն
աստծուց
աստղ
աստղագետ
աստղագիտական
աստղագիտության
աստղադիտարան
աստղադիտարանը
աստղադիտարանի
աստղադիտարանում
աստղային
աստղեր
աստղերը
աստղերի
աստղերից
աստղը
աստղի
աստղիկ
աստոն
աստուած
աստուծո
աստուծոյ
աստված
աստվածաբան
աստվածաբանական
աստվածաբանության
աստվածաբանություն
աստվածածին
աստվածածնի
աստվածամոր
աստվածային
աստվածաշնչի
աստվածաշնչյան
աստվածաշունչ
աստվածաշունչը
աստվածը
աստվածներ
աստվածները
աստվածների
աստվածներին
աստվածություն
աստվածուհի
աստվածուհին
աստվածուհու
աստրախանի
ավ
ավա
ավագ
ավագանու
ավագը
ավագի
ավագյան
ավագն
ավազ
ավազակ
ավազակների
ավազան
ավազանային
ավազաների
ավազանը
ավազանի
ավազանին
ավազանում
ավազի
ավան
ավանգարդ
ավանդ
ավանդաբար
ավանդական
ավանդի
ավանդության
ավանդույթ
ավանդույթը
ավանդույթի
ավանդույթներ
ավանդույթները
ավանդույթների
ավանդույթներին
ավանդույթներով
ավանը
ավանի
ավանում
ավատատիրական
ավարտ
ավարտական
ավարտել
ավարտելով
ավարտելու
ավարտելուց
ավարտեց
ավարտը
ավարտի
ավարտին
ավարտից
ավարտում
ավարտուն
ավարտված
ավարտվել
ավարտվեց
ավարտվեցին
ավարտվում
ավգուստ
ավել
ավելանում
ավելացավ
ավելացել
ավելացման
ավելացնել
ավելացնելով
ավելացնելու
ավելացնում
ավելացում
ավելացումը
ավելացված
ավելացվել
ավելացվում
ավելացրել
ավելացրեց
ավելի
ավելին
ավելորդ
ավետարան
ավետարանական
ավետարանը
ավետարանի
ավետիս
ավետիսյան
ավետիսյանը
ավետիք
ավերակ
ավերակներ
ավերակները
ավերակների
ավերել
ավերիչ
ավերոն
ավերում
ավերված
ավերվել
ավիաընկերության
ավիաընկերությունը
ավիացիայի
ավիացիոն
ավիվի
ավշային
ավստրալիա
ավստրալիական
ավստրալիայի
ավստրալիայում
ավստրալիան
ավստրալիացի
ավստրիա
ավստրիական
ավստրիայի
ավստրիայում
ավստրիան
ավստրիացի
ավստրո
ավտոբուսային
ավտոբուսի
ավտոմատ
ավտոմատացված
ավտոմեքենա
ավտոմեքենայի
ավտոմեքենան
ավտոմեքենաների
ավտոմոբիլային
ավտովթարի
ավրորա
ատ
ատամ
ատամի
ատամնավոր
ատամները
ատամների
ատելության
ատելություն
ատելությունը
ատեն
ատենախոսության
ատենախոսություն
ատենախոսությունը
ատլանտա
ատլանտյան
ատլաս
ատլետիկ
ատլետիկո
ատյանի
ատոմ
ատոմական
ատոմային
ատոմի
ատոմները
ատոմների
ատում
ատրճանակ
ատրճանակը
ատրպատականի
ար
արա
արաբ
արաբական
արաբերեն
արաբիա
արաբիայի
արաբիայում
արաբիան
արաբկիր
արաբները
արաբների
արագ
արագած
արագածի
արագածոտնի
արագընթաց
արագոնի
արագորեն
արագությամբ
արագության
արագություն
արագությունը
արած
արածանիի
արական
արամ
արամայիս
արամը
արամի
արանքում
արավ
արատ
արատների
արարած
արարածներ
արարածների
արարատ
արարատի
արարատյան
արարողության
արարողությանը
արարողություն
արարողությունը
արարողությունների
արարք
արարքը
արարքի
արարքները
արարքների
արաքս
արաքսի
արբանյակ
արբանյակային
արբանյակը
արբանյակի
արբանյակներ
արբանյակները
արբանյակների
արգամ
արգանդի
արգելակում
արգելել
արգելեց
արգելոց
արգելոցի
արգելում
արգելված
արգելվել
արգելվեց
արգելվում
արգելք
արգելքը
արգելքի
արգենտինա
արգենտինական
արգենտինայի
արգենտինայում
արգենտինան
արգենտինացի
արդ
արդար
արդարադատության
արդարացի
արդարության
արդարություն
արդարև
արդեն
արդեններ
արդեշ
արդէն
արդի
արդիական
արդիականացման
արդյո
արդյունաբերական
արդյունաբերության
արդյունաբերություն
արդյունաբերությունը
արդյունահանման
արդյունավետ
արդյունավետության
արդյունավետություն
արդյունավետությունը
արդյունք
արդյունքը
արդյունքի
արդյունքն
արդյունքներ
արդյունքները
արդյունքների
արդյունքներով
արդյունքով
արդյունքում
արդյոք
արեգակը
արեգակի
արեգակից
արեգակնային
արել
արեն
արեց
արեցին
արեւմտահայաստանի
արեւմտահայութեան
արեք
արզումանյան
արթնանում
արթուն
արթուր
արթուրը
արթուրի
արժանանալով
արժանանում
արժանապատվության
արժանապատվությունը
արժանավոր
արժանացած
արժանացավ
արժանացել
արժանի
արժանիքների
արժե
արժեթղթերի
արժեք
արժեքավոր
արժեքը
արժեքի
արժեքն
արժեքներ
արժեքները
արժեքների
արժեքով
արժողությամբ
արժութային
արժույթ
արժույթի
արի
արիզոնա
արին
արիության
արիստոտելի
արխանգելսկի
արխիվ
արխիվային
արխիվացված
արխիվը
արխիվի
արխիվում
արծաթ
արծաթագույն
արծաթե
արծաթի
արծաթից
արծաթյա
արծիվ
արծիվը
արծվի
արծրուն
արծրունի
արծրունին
արծրունու
արկ
արկադի
արկածային
արկածներ
արկածները
արկածների
արկի
արկղ
արկտիկական
արհեստագործական
արհեստական
արհեստականորեն
արհեստանոց
արհեստավոր
արհեստավորների
արհեստը
արհեստների
արհեստներով
արհմիությունների
արձագանք
արձագանքել
արձագանքը
արձագանքի
արձագանքներ
արձագանքների
արձագանքում
արձակ
արձակագիր
արձակել
արձակեց
արձակի
արձակման
արձակող
արձակում
արձակուրդ
արձակված
արձակվել
արձան
արձանագրել
արձանագրության
արձանագրություն
արձանագրությունը
արձանագրություններ
արձանագրությունները
արձանագրությունների
արձանագրություններում
արձանագրված
արձանագրվել
արձանը
արձանի
արձաններ
արձանները
արման
արմավենու
արմավիր
արմավիրի
արմատ
արմատական
արմատային
արմատապես
արմատը
արմատի
արմատից
արմատներ
արմատները
արմատների
արմատներով
արմեն
արմենակ
արմենիա
արմենուհի
արմսթրոնգը
արյան
արյեժ
արյուն
արյունալի
արյունահոսության
արյունահոսություն
արյունահոսությունը
արյունատար
արյունը
արյունով
արյունոտ
արշալույս
արշակ
արշակի
արշակունիների
արշավ
արշավախմբի
արշավախումբը
արշավանք
արշավանքը
արշավանքի
արշավանքին
արշավանքները
արշավանքների
արշավը
արշավի
արշավիր
արշավների
արշավում
արու
արուն
արուները
արուների
արջ
արջը
արջի
արսեն
արսենալ
արսենալի
արսենի
արված
արվարձան
արվարձանում
արվել
արվեստ
արվեստաբան
արվեստագետ
արվեստագետի
արվեստագետներ
արվեստագետների
արվեստագիտության
արվեստանոց
արվեստանոցը
արվեստանոցում
արվեստը
արվեստի
արվեստին
արվեստն
արվեստների
արվեստով
արվեստում
արվեց
արվում
արտ
արտագաղթել
արտագաղթի
արտագնա
արտադրական
արտադրանք
արտադրանքը
արտադրանքի
արտադրել
արտադրելու
արտադրման
արտադրող
արտադրողականության
արտադրողների
արտադրությամբ
արտադրության
արտադրություն
արտադրությունը
արտադրությունն
արտադրությունում
արտադրում
արտադրված
արտադրվել
արտադրվող
արտադրվում
արտակ
արտակարգ
արտահայտել
արտահայտելու
արտահայտիչ
արտահայտման
արտահայտող
արտահայտությամբ
արտահայտության
արտահայտություն
արտահայտությունը
արտահայտությունն
արտահայտություններ
արտահայտությունները
արտահայտությունների
արտահայտում
արտահայտված
արտահայտվել
արտահայտվում
արտահանման
արտահանում
արտահանումը
արտահերթ
արտաշատ
արտաշատի
արտաշես
արտաշեսի
արտասահման
արտասահմանյան
արտասահմանում
արտասանել
արտասանեց
արտասանության
արտասանություն
արտասանում
արտասանվում
արտասովոր
արտասուքը
արտավազդ
արտացոլել
արտացոլում
արտացոլումն
արտացոլված
արտացոլվել
արտացոլվում
արտաքին
արտաքինը
արտաքինից
արտաքուստ
արտաքսվել
արտեմ
արտերկրում
արտի
արտիստ
արտիստը
արտիստի
արտիստներ
արտիստների
արտիստուհի
արտյոմ
արտոնագիր
արտոնյալ
արտոնություններ
արցախ
արցախը
արցախի
արցախյան
արցախում
արցունք
արփա
արփի
արքա
արքայադուստր
արքայադուստրը
արքայադստեր
արքայազն
արքայազնը
արքայազնի
արքայական
արքայատոհմի
արքայի
արքային
արքայից
արքան
արքաների
արքեպիսկոպոս
արքունական
արքունի
արքունիքը
արքունիքի
արքունիքում
արև
արևադարձային
արևային
արևելագետ
արևելագիտության
արևելյան
արևելք
արևելքը
արևելքի
արևելքից
արևելքում
արևը
արևի
արևիկ
արևին
արևից
արևմուտք
արևմուտքի
արևմուտքից
արևմուտքում
արևմտաեվրոպական
արևմտահայ
արևմտհ
արևմտյան
արևն
արևոտ
ացտեկների
աւելի
ափ
ափամերձ
ափերը
ափերի
ափերին
ափը
ափի
ափին
ափից
ափով
ափում
աքեմենյան
աքսորի
աքսորվել
աֆղանական
աֆղանստան
աֆղանստանի
աֆղանստանում
աֆրիկա
աֆրիկայի
աֆրիկայից
աֆրիկայում
աֆրիկան
աֆրիկյան
աֆրոամերիկացի
բ
բա
բաբա
բաբայան
բաբելոնի
բաբելոնյան
բաբկեն
բագրատ
բագրատի
բագրատունի
բագրատունիների
բագրատունյաց
բադ
բադալյան
բադեյան
բադեն
բազ
բազա
բազայի
բազային
բազայում
բազան
բազիլիկ
բազիլիկի
բազմ
բազմաբնույթ
բազմագույն
բազմազան
բազմազանությամբ
բազմազանության
բազմազանություն
բազմազանությունը
բազմազգ
բազմաթիվ
բազմակի
բազմակողմանի
բազմամյա
բազմանում
բազմապիսի
բազմատեսակ
բազմացման
բազմիցս
բազմության
բազմություն
բազմությունը
բազմությունների
բազում
բաթում
բաթումի
բաժակ
բաժակը
բաժակի
բաժանել
բաժանելով
բաժանեց
բաժանման
բաժանմունք
բաժանմունքը
բաժանմունքի
բաժանմունքում
բաժանող
բաժանում
բաժանումը
բաժանումից
բաժանված
բաժանվել
բաժանվեց
բաժանվեցին
բաժանվում
բաժին
բաժինը
բաժիններ
բաժինները
բաժինների
բաժիններից
բաժնետիրական
բաժնետոմսերը
բաժնետոմսերի
բաժնի
բաժնում
բաիա
բալ
բալայան
բալետ
բալետային
բալետը
բալետի
բալթիկ
բալթյան
բալի
բալլադ
բալկանյան
բալկաններում
բալոյան
բալու
բախ
բախի
բախման
բախնիկին
բախշյան
բախում
բախումը
բախումներ
բախումները
բախումների
բախվել
բախվում
բախտ
բախտավոր
բախտը
բախտի
բախտիար
բակ
բակալավրի
բակը
բակի
բակում
բակունց
բակտերիալ
բակտերիաներ
բակտերիաները
բակտերիաների
բաղադրիչ
բաղադրիչը
բաղադրիչներ
բաղադրիչները
բաղադրիչների
բաղադրիչներից
բաղադրյալ
բաղադրության
բաղադրությունը
բաղդադ
բաղդադի
բաղդասարյան
բաղեշ
բաղեշի
բաղկացած
բաղկացուցիչ
բաղրամյան
բամբակ
բամբակի
բայ
բայադյան
բայազետ
բայազետի
բայական
բայեր
բայերը
բայերի
բայի
բայց
բան
բանալ
բանալի
բանալին
բանակ
բանակային
բանական
բանականության
բանականությունը
բանակը
բանակի
բանակին
բանակից
բանակն
բանակները
բանակների
բանակում
բանակցություններ
բանակցությունները
բանակցությունների
բանահյուսության
բանաձև
բանաձևը
բանաձևի
բանաձևով
բանասեր
բանասիրական
բանասիրության
բանաստեղծ
բանաստեղծական
բանաստեղծը
բանաստեղծի
բանաստեղծներ
բանաստեղծների
բանաստեղծության
բանաստեղծություն
բանաստեղծությունը
բանաստեղծություններ
բանաստեղծությունները
բանաստեղծությունների
բանաստեղծություններից
բանաստեղծուհի
բանավոր
բանբեր
բաներ
բաները
բաների
բանը
բանի
բանին
բանից
բանկ
բանկային
բանկերը
բանկերի
բանկը
բանկի
բանկում
բանն
բանով
բանում
բանջարեղեն
բանջարեղենի
բանվոր
բանվորական
բանվորների
բանտ
բանտային
բանտարկյալների
բանտարկության
բանտարկված
բանտարկվել
բանտը
բանտի
բանտից
բանտում
բաշ
բաշխման
բաշխում
բաշխումը
բաշխված
բաշկիրական
բաշկիրերեն
բաշկորտոստան
բաշկորտոստանի
բառ
բառակազմական
բառակապակցությունների
բառային
բառապաշարի
բառարան
բառարանը
բառարանի
բառարանում
բառացի
բառացիորեն
բառեր
բառերը
բառերի
բառերից
բառերն
բառերով
բառը
բառի
բառից
բառն
բառով
բաս
բասենի
բասի
բասկ
բասկետբոլ
բասկետբոլային
բասկետբոլի
բասկետբոլիստ
բասկերի
բավական
բավականաչափ
բավականին
բավարար
բավարարել
բավարարելու
բավարարում
բավարիա
բավարիայի
բատիստ
բար
բարաթյան
բարակ
բարաք
բարբառ
բարբառային
բարբառը
բարբառի
բարբառների
բարբառով
բարբարա
բարգավաճ
բարդ
բարդության
բարդություններ
բարդությունների
բարեբախտաբար
բարեգործական
բարելավել
բարելավելու
բարելավման
բարելավում
բարելավվել
բարեխառն
բարեխիղճ
բարեկամ
բարեկամական
բարեկամը
բարեկամներ
բարեկամները
բարեկամների
բարեկամության
բարեկամություն
բարեկամությունը
բարեկեցիկ
բարեկեցության
բարեհաջող
բարենպաստ
բարեպաշտ
բարեսիրտ
բարերար
բարեփոխման
բարեփոխումներ
բարեփոխումները
բարեփոխումների
բարի
բարին
բարիք
բարխուդարյան
բարկանում
բարկացած
բարձ
բարձի
բարձունքի
բարձր
բարձրագույն
բարձրադիր
բարձրակարգ
բարձրահասակ
բարձրաձայն
բարձրանալ
բարձրանալով
բարձրանալու
բարձրանում
բարձրաստիճան
բարձրավանդակի
բարձրացած
բարձրացավ
բարձրացել
բարձրացման
բարձրացմանը
բարձրացնել
բարձրացնելով
բարձրացնելու
բարձրացնում
բարձրացող
բարձրացում
բարձրացումը
բարձրացված
բարձրացվել
բարձրացրել
բարձրացրեց
բարձրորակ
բարձրությամբ
բարձրության
բարձրություն
բարձրությունը
բարձրությունից
բարձրությունների
բարձրություններում
բարոկկո
բարոկկոյի
բարոյագիտական
բարոյական
բարոյականության
բարոյապես
բարոն
բարով
բարորակ
բարու
բարսելոնա
բարսելոնայի
բարսելոնայում
բարսելոնան
բարսեղ
բարսեղյան
բարրի
բարև
բաց
բացած
բացակայությամբ
բացակայության
բացակայություն
բացակայությունը
բացակայում
բացականչեց
բացականչություն
բացահայտ
բացահայտել
բացահայտելու
բացահայտեց
բացահայտման
բացահայտում
բացահայտումը
բացահայտված
բացահայտվել
բացահայտվում
բացառապես
բացառել
բացառիկ
բացառությամբ
բացառություն
բացառում
բացառվում
բացասաբար
բացասական
բացատրական
բացատրել
բացատրելու
բացատրեց
բացատրություն
բացատրությունը
բացատրում
բացատրվում
բացարձակ
բացարձակապես
բացել
բացելով
բացելու
բացեց
բացի
բացման
բացմանը
բացում
բացումը
բացված
բացվածքը
բացվել
բացվեց
բացվեցին
բացվող
բացվում
բացօթյա
բաքու
բաքվի
բաքվում
բբը
բե
բեդիրյան
բեթ
բեթհովենի
բել
բելա
բելայա
բելառուս
բելառուսական
բելառուսի
բելառուսում
բելգիա
բելգիական
բելգիայի
բելգիայում
բելգիան
բելգիացի
բելգրադ
բելգրադի
բելենկի
բելի
բելով
բեկ
բեկը
բեկի
բեկորներ
բեկումնային
բեղմնավոր
բեմ
բեմադրել
բեմադրիչ
բեմադրող
բեմադրության
բեմադրությունը
բեմադրված
բեմադրվել
բեմադրվում
բեմական
բեմերում
բեմը
բեմի
բեմում
բեյ
բեյը
բեյի
բեյսբոլի
բեյրութ
բեյրութի
բեյրութում
բեն
բենդի
բենի
բենիամին
բենջամին
բեռ
բեռը
բեռլին
բեռլինի
բեռլինյան
բեռլինում
բեռնատար
բեռնարդ
բեռների
բեռնի
բետա
բետոնե
բեր
բերած
բերան
բերանը
բերանի
բերանից
բերանով
բերանում
բերդ
բերդը
բերդի
բերդում
բերե
բերել
բերելով
բերելու
բերեմ
բերեն
բերեց
բերեցին
բերի
բերին
բերման
բերնարդ
բերնին
բերող
բերում
բերումով
բերված
բերվել
բերվեց
բերվում
բերրի
բերք
բերքը
բերքի
բեք
բժիշկ
բժիշկը
բժիշկներ
բժիշկները
բժիշկների
բժշկ
բժշկագիտության
բժշկական
բժշկի
բժշկին
բժշկության
բժշկություն
բի
բիա
բիզնես
բիզնեսը
բիզնեսի
բիզնեսում
բիթ
բիթլիսի
բիլ
բիլի
բիլլ
բիլլի
բին
բիչ
բլեք
բլյուզ
բլոկ
բլոկի
բլուր
բլուրը
բլուրների
բլրի
բխող
բխում
բծեր
բկմա
բյուզանդական
բյուզանդիայի
բյուջե
բյուջեի
բյուջեն
բյուջետային
բյուրեղային
բյուրեղներ
բյուրեղների
բյուրո
բյուրոյի
բյուրոն
բնագավառ
բնագավառի
բնագավառների
բնագավառներում
բնագավառում
բնագետ
բնագիտական
բնագիտության
բնադրում
բնածին
բնական
բնականաբար
բնականոն
բնակավայր
բնակավայրեր
բնակավայրերը
բնակավայրերի
բնակավայրերից
բնակավայրերում
բնակավայրը
բնակավայրի
բնակավայրն
բնակավայրում
բնակարան
բնակարանային
բնակարանը
բնակարանի
բնակարանների
բնակարանում
բնակելի
բնակեցված
բնակեցվել
բնակիչ
բնակիչներ
բնակիչները
բնակիչների
բնակիչներին
բնակիչներից
բնակիչներն
բնակության
բնակություն
բնակչի
բնակչով
բնակչությամբ
բնակչության
բնակչությանը
բնակչություն
բնակչությունը
բնակչությունն
բնակվել
բնակվելու
բնակվող
բնակվում
բնանկար
բնանկարներ
բնաշխարհիկ
բնապ
բնապահպ
բնապահպանական
բնապահպանության
բնավ
բնավորությամբ
բնավորության
բնավորություն
բնավորությունը
բնի
բնիկ
բնիկների
բնորոշ
բնորոշում
բնորոշվում
բնութագիրը
բնութագրական
բնութագրել
բնութագրերը
բնութագրերի
բնութագրող
բնութագրում
բնութագրվում
բնության
բնություն
բնությունը
բնույթ
բնույթը
բնույթի
բնույթից
բնույթով
բնստ
բնօրինակ
բնօրինակը
բո
բոբ
բոբի
բոգդան
բոլիվիայի
բոլշայա
բոլշևիկ
բոլշևիկյան
բոլշևիկների
բոլոր
բոլորգրով
բոլորը
բոլորի
բոլորին
բոլորից
բոլորն
բոլորովին
բոլորս
բոհեմիայի
բողոք
բողոքական
բողոքել
բողոքը
բողոքի
բողոքում
բոյ
բոն
բոնապարտի
բոնդի
բոուելի
բոս
բոսնիա
բոսնիական
բոսնիայի
բոստոն
բոստոնի
բոստոնում
բոսֆորի
բովանդակությամբ
բովանդակության
բովանդակություն
բովանդակությունը
բոտվիննիկ
բոր
բորբոքային
բորբոքման
բորբոքում
բորբոքումը
բորբոքված
բորիս
բորուսիա
բորսայի
բոց
բու
բուդապեշտ
բուդապեշտի
բուդապեշտում
բուդդայական
բուդդայի
բուենոս
բութ
բուժական
բուժել
բուժելու
բուժիչ
բուժկետ
բուժման
բուժում
բուժումը
բուժվել
բուժվում
բուժքույր
բուլղ
բուլղար
բուլղարական
բուլղարացի
բուլղարերեն
բուլղարիա
բուլղարիայի
բուլղարիայում
բուլղարիան
բուխարեստ
բուխարեստի
բուխարեստում
բուհ
բուհերի
բույն
բույնը
բույս
բույսեր
բույսերը
բույսերի
բույսերից
բույսը
բույսի
բույր
բուն
բունդեսլիգայի
բունդեսլիգայում
բուշ
բուռ
բուռն
բուսաբան
բուսաբանական
բուսաբանության
բուսական
բուսականությամբ
բուսականության
բուսականությունը
բուրգ
բուրգի
բուրդ
բուրդը
բուրժուազիայի
բուրժուական
բուրկ
բջիջ
բջիջը
բջիջներ
բջիջները
բջիջների
բջիջներից
բջիջներում
բջջային
բջջի
բռնաբարության
բռնած
բռնակալ
բռնաճնշումների
բռնապետության
բռնել
բռնելով
բռնելու
բռնեց
բռնեցին
բռնի
բռնկման
բռնկված
բռնկվել
բռնությամբ
բռնության
բռնություն
բռնությունը
բռնությունների
բռնում
բռնված
բռնվել
բռնցքամարտի
բռնցքամարտիկ
բսբ
բրազիլական
բրազիլացի
բրազիլիա
բրազիլիայի
բրազիլիայում
բրազիլիան
բրածո
բրայան
բրաուն
բրաունը
բրաունի
բրբ
բրգաձև
բրդի
բրեդ
բրենդի
բրիգադ
բրիգադի
բրինձ
բրիտ
բրիտանական
բրիտանացի
բրիտանացիները
բրիտանացիների
բրիտանիա
բրիտանիայի
բրիտանիայից
բրիտանիայում
բրիտանիան
բրյուս
բրյուսել
բրյուսելի
բրյուսելում
բրյուսովի
բրնձի
բրոդվեյում
բրոնզ
բրոնզե
բրոնզի
բրոնզից
բրունո
բրուքլին
բրոքհաուզի
բևեռ
բևեռային
գ
գա
գաա
գաբրիել
գաբրիելյան
գագաթ
գագաթը
գագաթի
գագաթին
գագաթից
գագաթնակետը
գագաթնակետին
գագաթները
գագան
գագարինսկի
գագիկ
գազ
գազային
գազան
գազանի
գազանների
գազերի
գազը
գազի
գազով
գալ
գալակտիկայի
գալակտիկաների
գալը
գալի
գալինա
գալիս
գալիք
գալոյան
գալով
գալու
գալուն
գալուստ
գալուստը
գալուց
գալստյան
գահ
գահակալության
գահը
գահընկեց
գահի
գահին
գահից
գաղափար
գաղափարախոսության
գաղափարախոսությունը
գաղափարական
գաղափարը
գաղափարի
գաղափարին
գաղափարն
գաղափարներ
գաղափարները
գաղափարների
գաղափարներին
գաղափարներով
գաղթած
գաղթականների
գաղթել
գաղութ
գաղութային
գաղութացման
գաղութը
գաղութի
գաղութներ
գաղութների
գաղութներում
գաղտնի
գաղտնիք
գաղտնիքը
գաղտնիքները
գաճաճ
գամ
գամմա
գայ
գայանե
գայլ
գայլերի
գայլը
գայլի
գայոս
գան
գանայի
գանգի
գանձ
գանձակ
գանձակի
գանձարան
գանձերը
գանձերի
գառան
գառնիկ
գաս
գասարջյան
գասպար
գասպարյան
գասպարյանը
գավաթ
գավաթակիր
գավաթը
գավաթի
գավաթին
գավաթում
գավառ
գավառակ
գավառական
գավառակի
գավառակում
գավառային
գավառը
գավառի
գավառները
գավառների
գավառներից
գավառներում
գավառում
գավթի
գար
գարահիսարի
գարեգին
գարեգինի
գարեջուր
գարեջրի
գարի
գարնան
գարնանային
գարնանը
գարշելի
գարուն
գարունը
գարսիա
գդալ
գդհ
գե
գեթ
գել
գեղ
գեղագիտական
գեղագիտության
գեղամ
գեղամա
գեղանկարիչ
գեղանկարչական
գեղանկարչության
գեղանկարչություն
գեղասահքի
գեղատեսիլ
գեղարվեստա
գեղարվեստական
գեղարվեստի
գեղարքունիքի
գեղեցիկ
գեղեցկությամբ
գեղեցկության
գեղեցկություն
գեղեցկությունը
գեղեցկուհի
գեղեցկուհին
գեղի
գեղձերի
գեղձի
գեյ
գեն
գենադի
գենային
գենդերային
գենետիկ
գենետիկական
գենետիկայի
գենետիկորեն
գեներալ
գեներալի
գեների
գենը
գենի
գեոդեզիայի
գեորգ
գեորգի
գեորգիի
գետ
գետաբերանը
գետաբերանից
գետակ
գետակի
գետային
գետավազանը
գետեր
գետերը
գետերի
գետերն
գետը
գետի
գետին
գետինը
գետից
գետն
գետնի
գետնին
գետնից
գետով
գետում
գեր
գերագույն
գերադասում
գերազանց
գերազանցապես
գերազանցել
գերազանցեց
գերազանցող
գերազանցությամբ
գերազանցության
գերազանցում
գերակշիռ
գերակշռող
գերակշռում
գերբնական
գերեզման
գերեզմանատան
գերեզմանատանը
գերեզմանատուն
գերեզմանատունը
գերեզմանը
գերեզմանի
գերեզմանին
գերեզմանոց
գերեզմանոցը
գերեզմանոցի
գերեզմանոցում
գերելսի
գերի
գերիների
գերիշխանության
գերիշխանությունը
գերիշխող
գերիշխում
գերմ
գերման
գերմանա
գերմանական
գերմանացի
գերմանացիները
գերմանացիների
գերմաներեն
գերմանիա
գերմանիայի
գերմանիային
գերմանիայից
գերմանիայում
գերմանիան
գերության
գերությունից
գի
գիժ
գիլդիայի
գիծ
գիծը
գիմնազիա
գիմնազիայի
գիմնազիայում
գիմնազիան
գին
գինեսի
գինը
գինի
գինին
գինով
գինու
գիշատիչ
գիշեր
գիշերային
գիշերը
գիշերն
գիշերներ
գիշերները
գիշերով
գիշերվա
գիշերօթիկ
գիսաստղերի
գիտ
գիտա
գիտակ
գիտական
գիտակցաբար
գիտակցելով
գիտակցության
գիտակցությունը
գիտակցում
գիտակցված
գիտահետազոտական
գիտաշխատող
գիտատեխնիկական
գիտաֆանտաստիկ
գիտե
գիտեի
գիտեին
գիտելիք
գիտելիքը
գիտելիքի
գիտելիքներ
գիտելիքները
գիտելիքների
գիտեմ
գիտեն
գիտենք
գիտես
գիտեր
գիտեք
գիտի
գիտնական
գիտնականը
գիտնականի
գիտնականներ
գիտնականները
գիտնականների
գիտնականներին
գիտության
գիտություն
գիտությունը
գիտություններ
գիտությունների
գիր
գիրը
գիրկը
գիրք
գիրքը
գիրքն
գլանաձև
գլեն
գլխապտույտ
գլխավոր
գլխավորած
գլխավորապես
գլխավորել
գլխավորեց
գլխավորը
գլխավորությամբ
գլխավորում
գլխարկ
գլխարկը
գլխարկի
գլխարկով
գլխի
գլխին
գլխիս
գլխից
գլխով
գլխուղեղի
գլխում
գլխուն
գլյուկոզի
գլոբալ
գլոբուս
գլոբուսի
գլորիա
գլուխ
գլուխդ
գլուխը
գլուխն
գլուխներ
գլուխները
գլուխների
գլուխս
գծային
գծեր
գծերը
գծերի
գծերով
գծի
գծից
գծով
գծում
գհի
գմբեթ
գմբեթավոր
գմբեթը
գմբեթի
գյոթեի
գյուղ
գյուղակ
գյուղական
գյուղատնտեսական
գյուղատնտեսությամբ
գյուղատնտեսության
գյուղատնտեսությունը
գյուղացի
գյուղացիական
գյուղացին
գյուղացիները
գյուղացիների
գյուղացիներին
գյուղացու
գյուղաքաղաքից
գյուղեր
գյուղերը
գյուղերի
գյուղերից
գյուղերում
գյուղը
գյուղի
գյուղին
գյուղից
գյուղն
գյուղում
գյուղտնտ
գյումրի
գյումրիի
գյումրիում
գյումրու
գյուտարար
գյուտը
գյուրջինյան
գնա
գնալ
գնալը
գնալով
գնալու
գնալուց
գնահատական
գնահատականը
գնահատականի
գնահատականներ
գնահատականների
գնահատել
գնահատելով
գնահատելու
գնահատման
գնահատում
գնահատումը
գնահատվել
գնահատվում
գնաճի
գնամ
գնային
գնան
գնանք
գնաց
գնացած
գնացել
գնացեք
գնացի
գնացին
գնացող
գնացք
գնացքը
գնացքի
գնացքների
գնացքով
գնդակ
գնդակահարել
գնդակահարվել
գնդակը
գնդակի
գնդակով
գնդաձև
գնդային
գնդապետ
գնդապետի
գնդացիր
գնդի
գնդում
գնել
գնելու
գները
գների
գներով
գնեց
գնի
գնման
գնով
գնում
գնվել
գո
գոգը
գոգի
գոգոլի
գոթական
գոլ
գոլային
գոլդբերգ
գոլեր
գոլերի
գոլը
գոլի
գոլով
գոլորշու
գոհ
գոհար
գող
գողանալ
գողանում
գողացել
գողացված
գողության
գոմեսը
գոյական
գոյանում
գոյաս
գոյատևել
գոյատևման
գոյացած
գոյության
գոյություն
գոյությունը
գոնե
գոշի
գոչեց
գոռ
գոռաց
գոռոզ
գոռում
գովազդային
գովազդի
գովազդում
գոտի
գոտին
գոտիներ
գոտիները
գոտիների
գոտիներում
գոտու
գոտում
գոտուց
գոր
գորգ
գորգերի
գորգի
գորդոն
գորիի
գորիս
գորիսի
գործ
գործադիր
գործադրել
գործադրում
գործազուրկ
գործազրկության
գործած
գործածական
գործածել
գործածության
գործածությունների
գործածում
գործածվել
գործածվող
գործածվում
գործակալ
գործակալը
գործակալի
գործակալների
գործակալության
գործակալություն
գործակալությունը
գործակից
գործակիցը
գործառնական
գործառույթ
գործառույթը
գործառույթներ
գործառույթները
գործառույթների
գործարան
գործարանային
գործարանը
գործարանի
գործարաններ
գործարանները
գործարանների
գործարանում
գործարար
գործարկվել
գործարք
գործարքը
գործարքի
գործարքների
գործել
գործելով
գործելու
գործեր
գործերը
գործերի
գործերին
գործերից
գործերն
գործերով
գործերում
գործեց
գործը
գործընթաց
գործընթացը
գործընթացի
գործընթացին
գործընթացն
գործընթացներ
գործընթացները
գործընթացների
գործընթացում
գործընկեր
գործընկերը
գործընկերները
գործընկերների
գործընկերության
գործի
գործին
գործիչ
գործիչներ
գործիչները
գործիչների
գործիչներին
գործիչներից
գործից
գործիք
գործիքային
գործիքը
գործիքի
գործիքներ
գործիքները
գործիքների
գործիքներով
գործկոմի
գործն
գործնական
գործնականորեն
գործնականում
գործող
գործողությամբ
գործողության
գործողություն
գործողությունը
գործողություններ
գործողությունները
գործողությունների
գործողություններին
գործողություններից
գործողություններն
գործողություններով
գործողություններում
գործոն
գործոնը
գործոնի
գործոններ
գործոնները
գործոնների
գործոններից
գործոններն
գործոններով
գործով
գործուղվել
գործում
գործուն
գործունեությամբ
գործունեության
գործունեությանը
գործունեություն
գործունեությունը
գործունեությունից
գործունեությունն
գործչի
գործվածք
գործվածքների
գորկի
գորկին
գորկու
գորշ
գու
գութ
գումար
գումարած
գումարային
գումարը
գումարի
գումարման
գումարներ
գումարները
գումարով
գումարումների
գումարտակ
գումարտակը
գումարտակի
գույն
գույներ
գույները
գույների
գույներով
գույնզգույն
գույնը
գույնի
գույնով
գույք
գույքային
գույքը
գույքի
գուն
գունագեղ
գունային
գունավոր
գունավորում
գունավորումը
գունատ
գունդ
գունդը
գուշակել
գուստավ
գուտենբերգ
գուրգեն
գուրգենի
գուցե
գռեհիկ
գվարդիական
գվարդիայի
գվինեա
գվինեայի
գվռ
գտա
գտած
գտան
գտավ
գտել
գտնել
գտնելով
գտնելու
գտնի
գտնում
գտնված
գտնվել
գտնվելով
գտնվելու
գտնվող
գտնվում
գր
գրաբար
գրաբարի
գրագետ
գրագիտության
գրադ
գրադարան
գրադարանային
գրադարանը
գրադարանի
գրադարանն
գրադարաններ
գրադարանների
գրադարանում
գրած
գրական
գրականագետ
գրականագիտական
գրականությամբ
գրականության
գրականությանը
գրականություն
գրականությունը
գրամ
գրային
գրան
գրանադա
գրանդ
գրանդի
գրանիտե
գրանցամատյան
գրանցամատյանի
գրանցել
գրանցեց
գրանցմամբ
գրանցման
գրանցում
գրանցված
գրանցվել
գրանցվեց
գրանցվում
գրառման
գրառում
գրառումը
գրառումներ
գրառումները
գրառումների
գրասենյակ
գրասենյակային
գրասենյակը
գրասենյակի
գրասենյակում
գրավ
գրաված
գրավել
գրավելով
գրավելու
գրավեց
գրավեցին
գրավիչ
գրավիտացիոն
գրավման
գրավոր
գրավում
գրավումը
գրավումից
գրավված
գրավվել
գրաքննադատ
գրաքննության
գրաֆ
գրաֆիկ
գրաֆիկա
գրաֆիկական
գրաֆիկայի
գրգեարյան
գրգռման
գրգռում
գրգռված
գրեգ
գրեգորի
գրեթե
գրել
գրելը
գրելիս
գրելով
գրելու
գրեմ
գրեմմի
գրեյ
գրեյը
գրեյի
գրեյս
գրերի
գրեց
գրի
գրիգոր
գրիգորը
գրիգորի
գրիգորյան
գրիգորյանը
գրիգորյանի
գրիմ
գրին
գրիչ
գրիչը
գրիչի
գրկեց
գրկն
գրկում
գրոհ
գրոհը
գրոհի
գրող
գրողը
գրողի
գրողին
գրողն
գրողներ
գրողները
գրողների
գրողներից
գրոսմայստեր
գրոսու
գրոց
գրությամբ
գրության
գրություն
գրությունը
գրում
գրունտային
գրունևելդի
գրչի
գրչին
գրչության
գրպանի
գրված
գրվել
գրվում
գրք
գրքային
գրքեր
գրքերը
գրքերի
գրքերից
գրքերով
գրքերում
գրքի
գրքից
գրքով
գրքում
գցած
գցել
գցեց
գցում
գֆհ
գևորգ
գևորգը
գևորգի
գևորգյան
գևորգյանը
դ
դա
դագաղը
դադար
դադարել
դադարեց
դադարեցման
դադարեցնել
դադարեցնելու
դադարեցնում
դադարեցվել
դադարեցվեց
դադարեցրել
դադարեցրեց
դադարի
դադարում
դաժան
դաժանորեն
դալ
դալար
դալլ
դահլիճ
դահլիճը
դահլիճի
դահլիճում
դաղստանի
դամ
դամասկոսի
դամբարան
դամբարանը
դամբարանի
դամբարանում
դան
դանակ
դանակը
դանակի
դանակով
դանդաղ
դանթե
դանիա
դանիական
դանիայի
դանիայում
դանիան
դանիացի
դանիել
դանիելյան
դանիերեն
դանուբի
դաշինք
դաշինքը
դաշինքի
դաշնակահար
դաշնակահարուհի
դաշնակից
դաշնակիցները
դաշնակիցների
դաշնակցության
դաշնամուր
դաշնամուրային
դաշնամուրի
դաշնային
դաշնության
դաշնություն
դաշնությունում
դաշտ
դաշտային
դաշտանային
դաշտեր
դաշտերը
դաշտերի
դաշտերում
դաշտը
դաշտի
դաշտից
դաշտում
դառավ
դառել
դառը
դառն
դառնա
դառնալ
դառնալը
դառնալով
դառնալու
դառնալուց
դառնան
դառնար
դառնում
դաս
դասագիրք
դասագրքեր
դասագրքերի
դասախոս
դասախոսական
դասախոսել
դասախոսություն
դասախոսություններ
դասախոսությունների
դասական
դասակարգային
դասակարգել
դասակարգի
դասակարգման
դասակարգում
դասակարգումը
դասակարգված
դասակարգվում
դասակի
դասային
դասավանդել
դասավանդման
դասավանդում
դասավորությունը
դասավորված
դասարան
դասարանը
դասարանի
դասարանների
դասարաններում
դասարանում
դասել
դասեր
դասերը
դասերի
դասը
դասընթաց
դասընթացը
դասընթացի
դասընթացներ
դասընթացները
դասընթացների
դասընթացներին
դասի
դասին
դասում
դասվել
դասվում
դաստիարակել
դաստիարակության
դաստիարակություն
դաստիարակությունը
դաստիարակչական
դաստիարակվել
դավադրության
դավադրություն
դավաճան
դավաճանության
դավանանքի
դավանում
դավթի
դավթյան
դավթյանը
դավթյանի
դավիդ
դավիթ
դավիթը
դատ
դատախազ
դատախազի
դատախազության
դատական
դատապարտել
դատապարտում
դատապարտված
դատապարտվել
դատապարտվեց
դատապարտվում
դատաստան
դատաստանի
դատավարության
դատավարությունը
դատավճիռը
դատավոր
դատավորը
դատավորի
դատավորները
դատավորների
դատարան
դատարանը
դատարանի
դատարանին
դատարանների
դատարանում
դատարկ
դատել
դատելով
դատը
դատի
դար
դարակ
դարաշրջան
դարաշրջանը
դարաշրջանի
դարաշրջանում
դարասկզբին
դարավոր
դարբինյան
դարեր
դարերի
դարերին
դարերից
դարերով
դարերում
դարը
դարի
դարին
դարից
դարձած
դարձան
դարձավ
դարձեալ
դարձել
դարձյալ
դարձնել
դարձնելով
դարձնելու
դարձնում
դարձվածքների
դարձրել
դարձրեց
դարձրին
դարյա
դարում
դարչնագույն
դարպաս
դարպասապահ
դարպասապահը
դարպասը
դարպասի
դարպասին
դարպասներ
դարպասները
դարպասների
դաւթի
դափնեկիր
դդ
դե
դեբյուտ
դեբյուտային
դեբյուտը
դել
դելլա
դելտա
դեկան
դեկորատիվ
դեկտեմբեր
դեկտեմբերի
դեկտեմբերին
դեկտեմբերից
դեղ
դեղաբանական
դեղագիտական
դեղագործ
դեղագործական
դեղամիջոց
դեղամիջոցի
դեղամիջոցներ
դեղամիջոցները
դեղամիջոցների
դեղեր
դեղերը
դեղերի
դեղը
դեղի
դեղին
դեղնավուն
դեղորայք
դեղորայքային
դեղորայքի
դեմ
դեմիրճյան
դեմիրճյանի
դեմոկրատ
դեմոկրատական
դեմոկրատների
դեմս
դեմք
դեմքեր
դեմքերը
դեմքերի
դեմքերից
դեմքը
դեմքի
դեմքին
դեմքն
դեմքով
դեյվ
դեյվիդ
դեն
դենդրոֆլորան
դենի
դենիել
դենիս
դեպ
դեպարտամենտ
դեպարտամենտի
դեպարտամենտին
դեպարտամենտում
դեպի
դեպս
դեպրեսիայի
դեպք
դեպքեր
դեպքերը
դեպքերի
դեպքերից
դեպքերում
դեպքը
դեպքի
դեպքից
դեպքն
դեպքում
դեռ
դեռահաս
դեռահասների
դեռեւս
դեռևս
դես
դեսպան
դեսպանատան
դեսպանատուն
դեսպանատունը
դեսպանը
դեսպանի
դեսպանորդ
դեսպանության
դեսպանություն
դեվիդ
դետալների
դետեկտիվ
դեր
դերակատար
դերակատարը
դերակատարման
դերակատարում
դերասան
դերասանական
դերասանը
դերասանի
դերասաններ
դերասանները
դերասանների
դերասաններից
դերասանուհի
դերասանուհին
դերասանուհու
դերենիկ
դերեր
դերերը
դերերի
դերերից
դերերով
դերերում
դերը
դերի
դերին
դերն
դերով
դերում
դերսիմ
դէմ
դէպի
դը
դժբախտ
դժբախտաբար
դժբախտության
դժբախտություն
դժգոհ
դժգոհություն
դժգոհությունը
դժոխային
դժոխք
դժոխքի
դժվար
դժվարանում
դժվարին
դժվարությամբ
դժվարության
դժվարություն
դժվարություններ
դժվարությունները
դժվարությունների
դի
դիաբետի
դիակ
դիակը
դիակի
դիակները
դիանա
դիարբեքիր
դիարբեքիրի
դիեգո
դիզայն
դիզայներ
դիզայնը
դիզայնի
դիլիջան
դիլիջանի
դիկ
դիմադրել
դիմադրության
դիմադրությանը
դիմադրություն
դիմադրությունը
դիմակ
դիմակայել
դիմակը
դիմային
դիմանալ
դիմանկար
դիմանկարը
դիմանկարի
դիմանկարներ
դիմանկարները
դիմանկարների
դիմանում
դիմավորում
դիմաց
դիմացի
դիմացկուն
դիմել
դիմելով
դիմելու
դիմեց
դիմեցին
դիմում
դիմումը
դին
դինամիկ
դինամիկան
դինամո
դինամոյի
դինաստիայի
դինաստիան
դինը
դինի
դիպլոմ
դիպլոմային
դիպուկ
դիպչել
դիպչում
դիջեյ
դիսնեյ
դիսնեյի
դիվան
դիվանագետ
դիվանագիտական
դիվանագիտության
դիվիզիա
դիվիզիայի
դիվիզիան
դիվիզիոն
դիվիզիոնի
դիվիզիոնում
դիտավորյալ
դիտարկել
դիտարկման
դիտարկում
դիտարկումներ
դիտարկումները
դիտարկումների
դիտարկվել
դիտարկվում
դիտել
դիտելով
դիտելու
դիտման
դիտում
դիտումների
դիտվել
դիտվող
դիտվում
դիր
դիրիժոր
դիրք
դիրքեր
դիրքերը
դիրքերի
դիրքերից
դիրքերում
դիրքը
դիրքի
դիրքից
դիրքով
դիրքորոշման
դիրքորոշում
դիրքորոշումը
դիրքում
դից
դիցաբանական
դիցաբանության
դիցբ
դիք
դիֆերենցիալ
դղբն
դղյակ
դղյակը
դղյակի
դղյակում
դմիտրի
դյու
դյույմ
դյուրին
դնել
դնելով
դնելու
դնեպրոպետրովսկի
դնթ
դնի
դնում
դո
դոլար
դոլարը
դոլարի
դոլարով
դոլլար
դոկտոր
դոկտորական
դոկտորի
դող
դողդոջուն
դողում
դոմենիկո
դոմինանտ
դոմինիկ
դոմինիկյան
դոն
դոնալդ
դոնեցկի
դոնի
դոս
դոստոևսկին
դոստոևսկու
դորա
դոցենտ
դու
դուբլ
դուբլի
դուգլաս
դուետ
դուետը
դուետի
դումայի
դուն
դուռ
դուռը
դուռն
դուս
դուստր
դուստրերը
դուստրը
դուստրն
դուր
դուրեկան
դուրյան
դուրս
դուրսը
դուք
դուքս
դուքսը
դպրոց
դպրոցական
դպրոցականների
դպրոցը
դպրոցի
դպրոցին
դպրոցից
դպրոցն
դպրոցներ
դպրոցները
դպրոցների
դպրոցներից
դպրոցներում
դպրոցում
դռան
դռանը
դռները
դռների
դռնից
դստեր
դստերը
դվին
դվինա
դվինան
դվինի
դվինսկո
դրա
դրախտ
դրախտի
դրած
դրական
դրամ
դրամա
դրամական
դրամայի
դրամայում
դրաման
դրամավարկային
դրամատիկ
դրամատիկական
դրամատուրգ
դրամը
դրամի
դրան
դրանից
դրանով
դրանում
դրանց
դրանցից
դրանցով
դրանցում
դրանք
դրավ
դրաֆթի
դրդել
դրդում
դրեզդենի
դրել
դրեց
դրեցին
դրին
դրոշ
դրոշը
դրոշի
դրոշմազարդ
դրոշները
դրությամբ
դրության
դրություն
դրությունը
դրույթներ
դրույթները
դրույթների
դրսի
դրսից
դրսում
դրսևորել
դրսևորման
դրսևորում
դրսևորումները
դրսևորվել
դրսևորվում
դրվագ
դրվագը
դրվագներ
դրվագները
դրվագների
դրվագներից
դրվագներում
դրվագում
դրված
դրվել
դրվեց
դրվում
դքսության
դքսուհի
դև
դևը
դևի
դևիդ
դևիս
դևիսը
դևիսի
ե
եահկ
եբր
եբրայերեն
եգեա
եգեյան
եգիպտական
եգիպտացի
եգիպտացիները
եգիպտացիների
եգիպտացորենի
եգիպտոս
եգիպտոսը
եգիպտոսի
եգիպտոսից
եգիպտոսում
եգոր
եդ
եզ
եզակի
եզան
եզդի
եզր
եզրակացնել
եզրակացության
եզրակացություն
եզրակացությունը
եզրային
եզրափակիչ
եզրափակիչը
եզրափակիչի
եզրափակիչում
եզրափակչի
եզրափակչում
եզրերը
եզրերին
եզրը
եզրին
եզրույթը
եթե
եթեր
եթերային
եթերաշրջան
եթերաշրջանը
եթերաշրջանի
եթերաշրջանում
եթերում
եթէ
եթովպիայի
ել
ելած
ելան
ելավ
ելենա
ելենայի
ելենան
ելիզավետա
ելիզավետպոլի
ելնել
ելնելով
ելնում
ելույթ
ելույթը
ելույթի
ելույթներ
ելույթները
ելույթների
ելույթներով
ելույթում
ելք
ելքը
ելքի
եկ
եկա
եկած
եկամուտ
եկամուտը
եկամուտները
եկամուտների
եկամտաբեր
եկամտի
եկան
եկավ
եկատերինա
եկաւ
եկել
եկեղ
եկեղեցական
եկեղեցի
եկեղեցին
եկեղեցիներ
եկեղեցիները
եկեղեցիների
եկեղեցիներից
եկեղեցիներում
եկեղեցու
եկեղեցում
եկեղեցուն
եկեղեցուց
եկեք
եկող
եհովայի
եհովան
եղ
եղած
եղան
եղանակ
եղանակային
եղանակը
եղանակի
եղանակին
եղանակներ
եղանակները
եղանակների
եղանակներով
եղանակով
եղավ
եղաւ
եղբայր
եղբայրական
եղբայրը
եղբայրն
եղբայրներ
եղբայրները
եղբայրների
եղբայրներին
եղբայրներից
եղբայրության
եղբոր
եղբորը
եղել
եղեռնի
եղեր
եղեք
եղիազարյան
եղիշե
եղիսաբեթ
եղիր
եղող
եղջերավոր
եմ
եմենի
եյին
եյլի
են
ենթաավազանը
ենթադրաբար
ենթադրել
ենթադրելով
ենթադրենք
ենթադրյալ
ենթադրություն
ենթադրությունը
ենթադրում
ենթադրվում
ենթակա
ենթակայության
ենթակառուցվածքների
ենթաստամոքսային
ենթատեսակ
ենթարկել
ենթարկելու
ենթարկեց
ենթարկում
ենթարկված
ենթարկվել
ենթարկվելով
ենթարկվեց
ենթարկվեցին
ենթարկվում
ենք
եպբհ
եպիսկոպոս
եպիսկոպոսական
եպիսկոպոսը
եպիսկոպոսի
եպիսկոպոսների
եպհ
եռալեզու
եռակի
եռանդ
եռանդով
եռանդուն
եռանկյան
եռանկյուն
եռանկյունաձև
եռանկյունաչափական
եռանկյունի
եռաչափ
եռման
եռյակը
ես
եսայան
եսայի
եվ
եվա
եվայի
եվան
եվգենի
եվդոկիա
եվդոկիայի
եվս
եվրամիության
եվրասիական
եվրատեսիլ
եվրատեսիլի
եվրո
եվրոյի
եվրոպա
եվրոպական
եվրոպայի
եվրոպայից
եվրոպայում
եվրոպան
եվրոպացի
եվրոպացիների
ետ
ետին
ետքը
ետևի
ետևից
ետևում
եր
երազ
երազանք
երազանքը
երազել
երազը
երազի
երազներ
երազները
երազների
երազում
երաժիշտ
երաժիշտը
երաժիշտներ
երաժիշտները
երաժիշտների
երաժշտ
երաժշտագետ
երաժշտական
երաժշտի
երաժշտությամբ
երաժշտության
երաժշտությանը
երաժշտություն
երաժշտությունը
երաժշտությունն
երախտագիտության
երախտագիտություն
երակային
երակների
երանգ
երանգներ
երանգներով
երանգով
երանելի
երանի
երաշխավորում
երբ
երբեմն
երբեմնի
երբեք
երբևէ
երբևիցե
երգ
երգահան
երգել
երգելով
երգելու
երգեր
երգերը
երգերի
երգերից
երգերն
երգերով
երգերում
երգեցողության
երգը
երգի
երգիծական
երգին
երգիչ
երգիչը
երգիչներ
երգիչների
երգից
երգն
երգող
երգով
երգում
երգչախմբային
երգչախմբի
երգչախումբ
երգչախումբը
երգչի
երգչուհի
երգչուհին
երգչուհու
երդման
երդում
երդվել
երդվում
երեխա
երեխայի
երեխային
երեխան
երեխաներ
երեխաները
երեխաների
երեխաներին
երեխաներից
երեխաներն
երեկ
երեկո
երեկոյան
երեկոյի
երեկոն
երես
երեսը
երեսի
երեսին
երեսից
երեսով
երեսուն
երեց
երեւան
երեւանի
երեք
երեքը
երեքն
երեքշաբթի
երզնկա
երզնկայի
երզնկյան
երը
երթ
երթալ
երթուղին
երթևեկության
երժշտ
երի
երիկամային
երիկամի
երիկամների
երիտասարդ
երիտասարդական
երիտասարդը
երիտասարդի
երիտասարդին
երիտասարդներ
երիտասարդները
երիտասարդների
երիտասարդներին
երիտասարդության
երիտասարդություն
երիտասարդությունը
երկ
երկաթ
երկաթգծի
երկաթե
երկաթը
երկաթի
երկաթյա
երկաթուղային
երկաթուղին
երկաթուղու
երկակի
երկամյա
երկայն
երկայնական
երկայնքով
երկար
երկարաժամկետ
երկարաձգել
երկարաձգեց
երկարամյա
երկարավուն
երկարատև
երկարությամբ
երկարության
երկարություն
երկարությունը
երկեր
երկերը
երկերի
երկերում
երկը
երկի
երկինք
երկինքը
երկինքն
երկիր
երկիրը
երկիրն
երկխոսության
երկխոսություն
երկկողմ
երկկողմանի
երկհարկանի
երկյուղ
երկնագույն
երկնային
երկնքի
երկնքից
երկնքում
երկու
երկուական
երկուշաբթի
երկուսը
երկուսի
երկուսին
երկուսից
երկուսն
երկուսով
երկսեռ
երկսյուն
երկվորյակ
երկրաբան
երկրաբանական
երկրաբանության
երկրագնդի
երկրագործությամբ
երկրագործության
երկրագործությունն
երկրակեղևի
երկրամաս
երկրամասը
երկրամասի
երկրամասում
երկրային
երկրաշարժ
երկրաշարժը
երկրաշարժի
երկրաշարժից
երկրաչափական
երկրաչափության
երկրբ
երկրի
երկրին
երկրից
երկրներ
երկրները
երկրների
երկրներին
երկրներից
երկրներն
երկրներում
երկրով
երկրորդ
երկրորդական
երկրորդային
երկրորդը
երկրորդի
երկրորդն
երկրորդում
երկրում
երկրպագու
երկրպագում
երկրպագուներ
երկրպագուները
երկրպագուների
երկրպագուներին
երուսաղեմ
երուսաղեմը
երուսաղեմի
երուսաղեմում
երջանիկ
երջանկության
երջանկություն
երջանկությունը
երվանդ
երրորդ
երրորդը
երրորդն
երրորդության
երրորդություն
երևալ
երևակայական
երևակայել
երևակայության
երևակայությունը
երևան
երևանը
երևանի
երևանից
երևանյան
երևանում
երևանցի
երևաց
երևացող
երևելի
երևի
երևում
երևույթ
երևույթը
երևույթի
երևույթին
երևույթներ
երևույթները
երևույթների
եւ
եւս
եփած
եփում
եփրատ
եփրատի
եփրեմ
եք
եֆրոնի
զ
զա
զագրեբ
զագրեբի
զամենայն
զայն
զայս
զայրացած
զայրույթ
զայրույթը
զայրույթի
զան
զանազան
զանգ
զանգակ
զանգակատան
զանգակատուն
զանգակատունը
զանգեզուր
զանգեզուրի
զանգը
զանգի
զանգված
զանգվածային
զանգվածը
զանգվածի
զանգվածները
զանգվածների
զանգվածով
զանոնք
զառիթափ
զավակ
զավակը
զավակն
զավակներ
զավակները
զավակների
զավակներին
զավարյան
զավեն
զավթել
զավթիչների
զատ
զատկի
զար
զարգանալ
զարգանում
զարգացած
զարգացավ
զարգացել
զարգացմամբ
զարգացման
զարգացմանը
զարգացնել
զարգացնելով
զարգացնելու
զարգացնում
զարգացող
զարգացում
զարգացումը
զարգացումն
զարգացրել
զարդ
զարդարել
զարդարում
զարդարված
զարդեր
զարթոնք
զարկ
զարկել
զարկերակային
զարկերակի
զարկերակների
զարկում
զարհուրելի
զարմանալի
զարմանում
զարմանք
զարմացած
զարմացավ
զարմիկ
զարմիկը
զարմուհին
զարյան
զաքարիա
զաքարյան
զբաղեցնել
զբաղեցնելով
զբաղեցնելու
զբաղեցնող
զբաղեցնում
զբաղեցված
զբաղեցրած
զբաղեցրել
զբաղեցրեց
զբաղմունքը
զբաղված
զբաղվածության
զբաղվածությունը
զբաղվել
զբաղվելով
զբաղվելու
զբաղվող
զբաղվում
զբոսայգի
զբոսայգին
զբոսայգու
զբոսայգում
զբոսանքի
զբոսաշրջային
զբոսաշրջիկների
զբոսաշրջության
զբոսաշրջությունը
զգալ
զգալի
զգալիորեն
զգալով
զգայական
զգայուն
զգաց
զգացել
զգացի
զգացմունք
զգացմունքային
զգացմունքը
զգացմունքներ
զգացմունքները
զգացմունքների
զգացողության
զգացողություն
զգացողությունը
զգացում
զգացումը
զգացումով
զգացվում
զգեստ
զգեստը
զգեստի
զգեստներ
զգեստները
զգեստների
զգում
զգույշ
զգուշացնում
զգուշությամբ
զե
զելանդիա
զելանդիայի
զելանդիայում
զեկույց
զեկույցը
զեկույցի
զեկույցում
զեմո
զեյթուն
զեյթունի
զեյթունցյան
զենիթ
զենիթային
զենք
զենքեր
զենքերը
զենքերի
զենքը
զենքի
զենքով
զետեղված
զերծ
զզվելի
զի
զիգմունդ
զինադադարի
զինաիդա
զինամթերք
զինամթերքի
զինանշան
զինանշանը
զինանշանի
զինծառայող
զինծառայողների
զինված
զինվոր
զինվորական
զինվորականները
զինվորականների
զինվորը
զինվորի
զինվորներ
զինվորները
զինվորների
զինվորներին
զինվորներից
զինքը
զիջել
զիջելով
զիջեց
զիջում
զիս
զլմ
զնա
զո
զոհ
զոհեր
զոհերը
զոհերի
զոհերին
զոհը
զոհի
զոհին
զոհված
զոհվածների
զոհվել
զոհվեց
զոհվեցին
զոհվում
զոհրապ
զոյա
զով
զոր
զորակոչվել
զորահրամանատար
զորամասերը
զորամասերի
զորամասի
զորավար
զորավարի
զորավոր
զորացրվել
զորացրվելուց
զորեղ
զորյան
զորություն
զորությունը
զորք
զորքեր
զորքերը
զորքերի
զորքերին
զորքերն
զորքերում
զորքը
զորքի
զորքին
զորքով
զու
զուգախաղի
զուգախաղում
զուգակցված
զուգահեռ
զուգահեռաբար
զուգահեռական
զուգընթաց
զույգ
զույգերի
զույգը
զույգի
զույգին
զույգն
զուսպ
զուտ
զուր
զուրկ
զսպել
զվարթ
զվարթնոց
զվարճալի
զվարճանքի
զրահապատ
զրկել
զրկում
զրկված
զրկվել
զրկվում
զրո
զրոյական
զրոյի
զրույց
զրույցը
զրույցի
զրույցներ
զրուցում
զքեզ
զևսի
է
էակ
էական
էականորեն
էապես
էգ
էգեյան
էգերը
էգերի
էգը
էգուց
էդ
էդգար
էդի
էդիթ
էդինբուրգի
էդմունդ
էդուարդ
էդուարդը
էդուարդի
էդուարդո
էդպես
էդվարդ
էդվին
էթամ
էթիկական
էթիկայի
էթնիկ
էթնիկական
էթում
էժան
էժեն
էի
էին
էինք
էիր
էիք
էլ
էլա
էլավ
էլեանորա
էլեկտրաէներգիայի
էլեկտրական
էլեկտրամագնիսական
էլեկտրատեխնիկական
էլեկտրոնային
էլեկտրոնի
էլեկտրոնիկայի
էլեկտրոնների
էլեն
էլեոնորա
էլթոն
էլի
էլիզաբեթ
էլիզաբեթը
էլիզաբեթի
էլիպսաձև
էլիս
էլիտար
էլոյան
էկան
էկավ
էկել
էկզոտիկ
էկոլոգիական
էկոլոգիայի
էկոլոգիան
էկոնոմիկայի
էկվադորի
էկրան
էկրանավորման
էկրանավորումը
էկրանավորվել
էկրանի
էկրանին
էկրաններին
էմանուել
էմի
էմիլ
էմիլի
էմիլիա
էմին
էմմա
էմման
էմմի
էմոցիոնալ
էմպիրիկ
էյ
էյլերի
էն
էնա
էնդեմիկ
էնդի
էնդրյու
էներգետիկ
էներգետիկայի
էներգիա
էներգիայի
էներգիայով
էներգիան
էնթոնի
էնն
էննի
էնպես
էնտեղ
էնրիկե
էնքան
էշ
էշը
էշի
էշլի
էության
էությունը
էպիզոդ
էպիզոդիկ
էպիզոդում
էպիկական
էպոսի
էջ
էջեր
էջերը
էջերի
էջերում
էջը
էջի
էջմիածին
էջմիածնի
էջմիածնում
էջում
էռնեստ
էռնստ
էս
էսպես
էսպերանտո
էսսեներ
էստ
էստեղ
էստոնական
էստոնացի
էստոներեն
էստոնիա
էստոնիայի
էստոնիայում
էստրադային
էսքիզներ
էսօր
էվոլյուցիայի
էվոլյուցիան
էվոլյուցիոն
էտ
էր
էրեբունի
էրզրում
էրզրումի
էրիթրոցիտների
էրիխ
էրիկ
էրիկը
էրկու
էրմիտաժի
էրոտիկ
էք
էֆ
էֆեկտ
էֆեկտը
էֆեկտի
էֆեկտիվ
էֆեկտներ
էֆեկտները
էֆեկտների
էֆենդին
էֆենտի
ը
ըլի
ըլլա
ըլլալ
ըլլալու
ըլլար
ըլնի
ըլնում
ըլում
ըմ
ըմբշամարտի
ըմպելիք
ըն
ընդ
ընդամենը
ընդառաջ
ընդարձակ
ընդարձակվել
ընդգծել
ընդգծելով
ընդգծում
ընդգծված
ընդգծվում
ընդգրկել
ընդգրկելով
ընդգրկող
ընդգրկում
ընդգրկված
ընդգրկվել
ընդգրկվեց
ընդգրկվում
ընդդեմ
ընդդիմադիր
ընդդիմության
ընդդիմությունը
ընդլայնել
ընդլայնման
ընդլայնում
ընդլայնումը
ընդլայնված
ընդլայնվել
ընդհակառակը
ընդհակառակն
ընդհանուր
ընդհանրական
ընդհանրապես
ընդհանրացված
ընդհատակյա
ընդհատել
ընդհատեց
ընդհատում
ընդհատվել
ընդհատվում
ընդհուպ
ընդմիշտ
ընդմիջումից
ընդունած
ընդունակ
ընդունել
ընդունելի
ընդունելով
ընդունելու
ընդունելության
ընդունելություն
ընդունեց
ընդունեցին
ընդունի
ընդունման
ընդունող
ընդունում
ընդունումը
ընդունումից
ընդունված
ընդունվել
ընդունվելու
ընդունվեց
ընդունվում
ընդօրինակել
ընել
ընելու
ընենց
ընթանալ
ընթանում
ընթացել
ընթացիկ
ընթացող
ընթացք
ընթացքը
ընթացքի
ընթացքին
ընթացքով
ընթացքում
ընթերցանության
ընթերցող
ընթերցողը
ընթերցողի
ընթերցողին
ընթերցողների
ընթերցողներին
ընթրիք
ընթրիքի
ընծայել
ընկ
ընկալել
ընկալիչների
ընկալման
ընկալում
ընկալումը
ընկալվում
ընկած
ընկան
ընկավ
ընկել
ընկեր
ընկերական
ընկերակցության
ընկերը
ընկերն
ընկերներ
ընկերները
ընկերների
ընկերներին
ընկերներից
ընկերներն
ընկերոջ
ընկերոջը
ընկերության
ընկերությանը
ընկերություն
ընկերությունը
ընկերությունից
ընկերությունն
ընկերություններ
ընկերությունները
ընկերությունների
ընկերություններին
ընկերություններից
ընկերությունում
ընկերուհի
ընկերուհին
ընկերուհու
ընկնել
ընկնելով
ընկնելու
ընկնի
ընկնող
ընկնում
ընկույզ
ընկույզի
ընձեռում
ընձյուղները
ընչանք
ընչի
ընտանեկան
ընտանի
ընտանիք
ընտանիքը
ընտանիքի
ընտանիքին
ընտանիքից
ընտանիքն
ընտանիքներ
ընտանիքները
ընտանիքների
ընտանիքներին
ընտանիքներից
ընտանիքով
ընտանիքում
ընտիր
ընտրած
ընտրական
ընտրել
ընտրելով
ընտրելու
ընտրեց
ընտրյալ
ընտրողական
ընտրողների
ընտրովի
ընտրությամբ
ընտրության
ընտրություն
ընտրությունը
ընտրություններ
ընտրությունները
ընտրությունների
ընտրություններին
ընտրություններից
ընտրություններում
ընտրում
ընտրված
ընտրվել
ընտրվեց
ընտրվում
ըսավ
ըսաւ
ըսե
ըսել
ըսենց
ըսի
ըստ
ըտենց
ըրած
թ
թա
թագ
թագաժառանգ
թագավոր
թագավորական
թագավորը
թագավորի
թագավորին
թագավորից
թագավորն
թագավորները
թագավորների
թագավորության
թագավորությանը
թագավորություն
թագավորությունը
թագավորությունների
թագավորությունում
թագը
թագի
թագուհի
թագուհին
թագուհու
թագուհուն
թադևոսյան
թաթ
թաթար
թաթարական
թաթարերեն
թաթարների
թաթարստանի
թաթուլ
թաիլանդի
թալանել
թալեր
թալինի
թաղ
թաղամաս
թաղամասը
թաղամասի
թաղամասում
թաղանթ
թաղանթի
թաղանթների
թաղել
թաղի
թաղման
թաղում
թաղված
թաղվել
թամար
թամարա
թայ
թայլեր
թայմս
թայվանի
թան
թանգամյան
թանգարան
թանգարանային
թանգարանը
թանգարանի
թանգարանին
թանգարանն
թանգարաններ
թանգարանների
թանգարաններից
թանգարաններում
թանգարանում
թանկ
թանկագին
թանկարժեք
թանձր
թավ
թավշյա
թավջութակի
թավրիզ
թատերագիտական
թատերախմբի
թատերախումբ
թատերախումբը
թատերական
թատր
թատրոն
թատրոնը
թատրոնի
թատրոնին
թատրոնն
թատրոններ
թատրոնների
թատրոններում
թատրոնում
թարգմ
թարգմանաբար
թարգմանական
թարգմանել
թարգմանիչ
թարգմանությամբ
թարգմանության
թարգմանություն
թարգմանությունը
թարգմանություններ
թարգմանությունները
թարգմանված
թարգմանվել
թարգմանվում
թարմ
թաց
թափ
թափանցել
թափանցիկ
թափանցում
թափառական
թափառող
թափառում
թափել
թափոնների
թափով
թափում
թափուր
թափված
թափվել
թափվելը
թափվող
թափվում
թաքավորը
թաքավորի
թաքնված
թաքնվել
թաքնվում
թաքուն
թաքցնել
թաքցնելու
թաքցնում
թաքցրել
թբիլիսի
թբիլիսիի
թբիլիսիում
թե
թեգ
թեդ
թեզ
թեզը
թեթև
թեթևակի
թեժ
թել
թելը
թելի
թեկնածու
թեկնածուական
թեկնածությունը
թեկնածուի
թեկնածուն
թեկնածուներ
թեկնածուների
թեկուզ
թեհրան
թեհրանի
թեհրանում
թեմ
թեմա
թեմական
թեմայի
թեմային
թեմայով
թեման
թեմաներ
թեմաները
թեմաների
թեմաներով
թեմատիկ
թեմի
թեյ
թեյը
թեյի
թեյլոր
թեյլորը
թեյլորի
թենեսի
թենիսի
թեոդոր
թեոդորոս
թեորեմը
թեորեմի
թեպետ
թեստ
թեստը
թեստի
թեր
թերակղզի
թերակղզին
թերակղզու
թերակղզում
թերապիա
թերապիայի
թերապիան
թերապևտիկ
թերեզա
թերեւս
թերթ
թերթեր
թերթերը
թերթերի
թերթերում
թերթը
թերթի
թերթին
թերթից
թերթում
թերի
թերություններ
թերությունները
թերևս
թեք
թեքեյան
թեքում
թեքումը
թեքված
թեքվում
թեև
թզուկ
թէ
թը
թթ
թթու
թթուներ
թթուների
թթվածին
թթվածնի
թթվային
թթվի
թի
թիկունք
թիկունքի
թիկունքում
թիմ
թիմային
թիմեր
թիմերը
թիմերի
թիմը
թիմի
թիմին
թիմից
թիմն
թիմում
թիվ
թիվը
թիվն
թիվս
թիրախ
թիրախային
թիւ
թիֆլիս
թիֆլիսի
թիֆլիսում
թլկատինցի
թղթադրամների
թղթակից
թղթե
թղթերը
թղթի
թմբկահար
թմբուկ
թմրամիջոցների
թմրանյութերի
թյան
թյուն
թյուրքական
թնդանոթ
թշնամական
թշնամի
թշնամին
թշնամիներ
թշնամիները
թշնամիների
թշնամիներին
թշնամու
թշնամուն
թշվառ
թո
թոթովենց
թող
թողած
թողարկել
թողարկեց
թողարկման
թողարկում
թողարկումը
թողարկումից
թողարկումն
թողարկված
թողարկվել
թողարկվեց
թողարկվում
թողել
թողեց
թողեցին
թողեք
թողնել
թողնելով
թողնելու
թողնի
թողնում
թողնված
թողում
թոմ
թոմաս
թոմասը
թոմասի
թոմը
թոմի
թոնի
թոշակառու
թոշակառուներ
թոշակի
թոռ
թոռան
թոռը
թոռնուհին
թովմա
թովմաս
թոր
թորամանյան
թորոս
թորոսյան
թու
թութմոս
թուլանալ
թուլանում
թուլացած
թուլացել
թուլացման
թուլացնել
թուլուզ
թուլություն
թուլությունը
թուխ
թուղթ
թուղթը
թումանյան
թումանյանը
թումանյանի
թույլ
թույլատրել
թույլատրելի
թույլատրում
թույլատրվում
թույլտվությամբ
թույլտվության
թույլտվություն
թույն
թունավոր
թունավորման
թունավորում
թունդ
թունելի
թունիս
թունիսի
թուր
թուրը
թուրին
թուրինի
թուրք
թուրքական
թուրքեր
թուրքերեն
թուրքերը
թուրքերի
թուրքերին
թուրքի
թուրքիա
թուրքիայի
թուրքիային
թուրքիայից
թուրքիայում
թուրքիան
թուրքմենական
թուրքմենստանի
թուփ
թոփ
թոք
թոքային
թոքերի
թոքի
թռավ
թռիչք
թռիչքային
թռիչքը
թռիչքի
թռիչքներ
թռիչքների
թռչել
թռչնի
թռչող
թռչում
թռչուն
թռչունը
թռչունի
թռչուններ
թռչունները
թռչունների
թվ
թվաբանական
թվագրված
թվագրվող
թվագրվում
թվական
թվականը
թվականի
թվականին
թվականից
թվականն
թվականներ
թվականները
թվականների
թվականներին
թվականներից
թվականներն
թվային
թվարկության
թվարկությունից
թվարկված
թվաց
թվաքանակը
թվաքանակի
թվաքանակով
թվեր
թվերը
թվերի
թվերով
թվի
թվիթ
թվիթթերում
թվին
թվից
թվով
թվում
թրամփը
թրամփի
թրեյլերը
թրի
թփերի
թև
թևավոր
թևեր
թևերը
թևերի
թևերով
թևը
թևի
ժ
ժա
ժակ
ժամ
ժամային
ժամանած
ժամանակ
ժամանակագրական
ժամանակագրության
ժամանակագրություն
ժամանակագրությունը
ժամանակակից
ժամանակակիցների
ժամանակահատված
ժամանակահատվածը
ժամանակահատվածի
ժամանակահատվածում
ժամանակամիջոցում
ժամանակային
ժամանակաշրջան
ժամանակաշրջանը
ժամանակաշրջանի
ժամանակաշրջանին
ժամանակաշրջանից
ժամանակաշրջաններում
ժամանակաշրջանում
ժամանակավոր
ժամանակավորապես
ժամանակը
ժամանակի
ժամանակին
ժամանակից
ժամանակն
ժամանակներ
ժամանակները
ժամանակների
ժամանակներից
ժամանակներում
ժամանակով
ժամանակում
ժամանակվա
ժամանակվանից
ժամանել
ժամանեց
ժամանում
ժամանումը
ժամանցային
ժամանցի
ժամացույց
ժամացույցը
ժամացույցի
ժամեր
ժամերը
ժամերին
ժամերով
ժամը
ժամի
ժամին
ժամից
ժամկետը
ժամկետի
ժամկետով
ժամկետում
ժամում
ժամվա
ժայռ
ժայռերի
ժայռի
ժայռոտ
ժան
ժանեյրո
ժանեյրոյում
ժաննա
ժանտախտի
ժանր
ժանրային
ժանրերի
ժանրերում
ժանրը
ժանրի
ժանրում
ժապավեն
ժապավենը
ժապավենի
ժապավենով
ժառանգ
ժառանգական
ժառանգել
ժառանգները
ժառանգորդ
ժառանգորդը
ժառանգության
ժառանգություն
ժառանգությունը
ժասմեն
ժե
ժեստերի
ժերայս
ժերար
ժերմեն
ժիտոմիրի
ժիրայր
ժլատ
ժխտական
ժխտել
ժխտում
ժղ
ժյուլ
ժյուրիի
ժնև
ժնևի
ժնևում
ժո
ժոզե
ժոզեֆ
ժող
ժողով
ժողովածու
ժողովածուի
ժողովածուն
ժողովածուներ
ժողովածուները
ժողովածուների
ժողովածուներում
ժողովածուում
ժողովը
ժողովի
ժողովին
ժողովում
ժողովուրդ
ժողովուրդը
ժողովուրդն
ժողովուրդներ
ժողովուրդները
ժողովուրդների
ժողովուրդներին
ժողովրդագրական
ժողովրդական
ժողովրդականություն
ժողովրդավարական
ժողովրդավարության
ժողովրդի
ժողովրդին
ժորժ
ժուան
ժուռնալիստիկայի
ժուռնալիստների
ժպիտ
ժպիտը
ժպիտով
ժպտալով
ժպտաց
ժպտում
ի
իբն
իբր
իբրահիմ
իբրեւ
իբրև
իգական
իգոր
իդա
իդեալական
իզաբել
իզաբելլա
իզաբելլան
իզուր
իլ
իլինոյս
իլհամ
իլյա
իխսհ
իհարկե
իմ
իմամ
իմանա
իմանալ
իմանալով
իմանալու
իմանում
իմաստ
իմաստային
իմաստասեր
իմաստը
իմաստի
իմաստն
իմաստներ
իմաստով
իմաստության
իմաստուն
իմաց
իմացա
իմացավ
իմացել
իմացության
իմերեթի
իմն
իմուն
իմունային
իմպուլսի
ին
ինգրիդ
ինդեքս
ինդեքսը
ինդեքսի
ինդեքսն
ինդիանա
ինդիանայի
ինդոնեզերեն
ինդոնեզիա
ինդոնեզիայի
ինդոնեզիայում
ինը
ինժեներ
ինժեներաերկրաբանական
ինժեներական
ինժեներների
ինծի
ինկերի
ինձ
ինձանից
ինձի
ինձնից
ինն
իններորդ
ինչ
ինչը
ինչի
ինչին
ինչից
ինչն
ինչո
ինչով
ինչու
ինչպե
ինչպես
ինչպէս
ինչպիսի
ինչպիսին
ինչպիսիք
ինչքա
ինչքան
ինչևէ
ինսուլինի
ինստագրամ
ինստագրամի
ինստիտուտ
ինստիտուտը
ինստիտուտի
ինստիտուտն
ինստիտուտների
ինստիտուտում
ինստիտուցիոնալ
ինտեգրալ
ինտեգրման
ինտելեկտի
ինտելեկտուալ
ինտենսիվ
ինտեր
ինտերակտիվ
ինտերիերը
ինտերիերի
ինտերնետ
ինտերնետային
ինտերնետի
ինք
ինքդ
ինքզինքը
ինքը
ինքն
ինքնաբերաբար
ինքնագնաց
ինքնաթիռ
ինքնաթիռը
ինքնաթիռի
ինքնաթիռներ
ինքնաթիռները
ինքնաթիռների
ինքնաթիռով
ինքնակամ
ինքնակառավարման
ինքնակենսագրական
ինքնաձիգ
ինքնապաշտպանական
ինքնապաշտպանության
ինքնասպան
ինքնասպանության
ինքնասպանություն
ինքնավար
ինքնավարության
ինքնավարություն
ինքնատիպ
ինքնին
ինքնիշխան
ինքնիշխանության
ինքնորոշման
ինքնության
ինքնությունը
ինքնուրույն
ինքս
ինֆեկցիոն
ինֆորմատիկայի
ինֆորմացիա
ինֆորմացիայի
ինֆորմացիան
ինֆորմացիոն
ինֆրակարմիր
իշեմիկ
իշխան
իշխանական
իշխանը
իշխանի
իշխանին
իշխանյան
իշխանն
իշխաններ
իշխանները
իշխանների
իշխաններին
իշխանության
իշխանությանը
իշխանություն
իշխանությունը
իշխանությունից
իշխանությունն
իշխանությունները
իշխանությունների
իշխանություններին
իշխանուհի
իշխանուհին
իշխել
իշխող
իշխում
իոնների
իոսիֆ
իջած
իջավ
իջել
իջեցման
իջեցնել
իջեցնում
իջեցում
իջնել
իջնում
իջևան
իջևանի
իռլանդական
իռլանդացի
իռլանդիա
իռլանդիայի
իռլանդիայում
իս
իսահակ
իսահակյան
իսահակյանի
իսլամ
իսլամադավան
իսլամական
իսլամը
իսլամի
իսլանդական
իսլանդիա
իսլանդիայի
իսկ
իսկական
իսկապես
իսկի
իսկույն
իսպ
իսպանական
իսպանացի
իսպանացիները
իսպանացիների
իսպաներեն
իսպանիա
իսպանիայի
իսպանիայից
իսպանիայում
իսպանիան
իսպառ
իսպիրյան
իսսհ
իսրայել
իսրայելական
իսրայելը
իսրայելի
իսրայելում
իսրայելցի
իսրայէլի
իվ
իվան
իվանը
իվանի
իվանով
իվանովը
իվանովի
իվանովիչ
իվանովկա
իվանովնա
իտալ
իտալական
իտալացի
իտալերեն
իտալիա
իտալիայի
իտալիայից
իտալիայում
իտալիան
իր
իրա
իրագործել
իրագործման
իրագործվում
իրադարձության
իրադարձություն
իրադարձությունը
իրադարձություններ
իրադարձությունները
իրադարձությունների
իրադարձություններին
իրադարձություններից
իրադրության
իրադրությունը
իրական
իրականանում
իրականացման
իրականացմանը
իրականացնել
իրականացնելու
իրականացնող
իրականացնում
իրականացում
իրականացումը
իրականացված
իրականացվել
իրականացվեց
իրականացվող
իրականացվում
իրականացրած
իրականացրել
իրականացրեց
իրականության
իրականությանը
իրականություն
իրականությունը
իրականում
իրան
իրանական
իրանը
իրանի
իրանից
իրանում
իրանց
իրանցի
իրանք
իրավ
իրավաբան
իրավաբանական
իրավագիտության
իրավական
իրավահաջորդ
իրավահաջորդը
իրավապահ
իրավապաշտպան
իրավասու
իրավասության
իրավգ
իրավիճակ
իրավիճակը
իրավիճակի
իրավիճակից
իրավիճակների
իրավիճակներում
իրավիճակում
իրավունք
իրավունքը
իրավունքի
իրավունքից
իրավունքն
իրավունքներ
իրավունքները
իրավունքների
իրավունքներից
իրավունքներն
իրավունքով
իրավունքում
իրատեսական
իրար
իրարանցում
իրարից
իրարու
իրացման
իրաք
իրաքի
իրաքյան
իրաքում
իրեն
իրենից
իրենց
իրենցից
իրենք
իրեր
իրերը
իրերի
իրեք
իրիկուն
իրիկունը
իրինա
իրկուտսկի
իրողություն
իրողությունը
իրոք
իրտիշ
իրտիշի
ից
իցէ
իւր
իւրեանց
իքս
լ
լա
լաբորատոր
լաբորատորիա
լաբորատորիայի
լաբորատորիայում
լաբորատորիան
լազարյան
լազերային
լազուր
լալ
լալիս
լայն
լայնածավալ
լայնական
լայնակի
լայնամասշտաբ
լայնորեն
լայնությամբ
լայնության
լայնություն
լայնությունը
լայպցիգի
լան
լանդշաֆտային
լանդշաֆտի
լանջերը
լանջերին
լանջերից
լանջին
լաուրա
լաչինի
լաս
լավ
լավագույն
լավագույնը
լավագույնս
լավը
լավն
լատ
լատինական
լատիներեն
լատիներենի
լատիշ
լատիշերեն
լատվիա
լատվիական
լատվիայի
լատվիայում
լատվիերեն
լար
լարային
լարերի
լարի
լարիսա
լարման
լարում
լարված
լարվածության
լարվածություն
լարվածությունը
լաց
լացիո
լաւ
լգբտ
լե
լեգալ
լեգենդ
լեգենդար
լեգենդը
լեգենդի
լեգենդներ
լեգեոնի
լեդի
լեզ
լեզու
լեզուն
լեզուներ
լեզուները
լեզուների
լեզուներին
լեզուներից
լեզուներն
լեզուներով
լեզուներում
լեզվաբան
լեզվաբանական
լեզվաբանության
լեզվաբանություն
լեզվական
լեզվբ
լեզվի
լեզվին
լեզվից
լեզվով
լեզվում
լել
լեհ
լեհական
լեհաստան
լեհաստանը
լեհաստանի
լեհաստանում
լեհերեն
լեյբլը
լեյբլի
լեյբլում
լեյբորիստական
լեյտենանտ
լեյտենանտի
լեյք
լեն
լենա
լենին
լենինական
լենինականի
լենինգրադ
լենինգրադի
լենինգրադյան
լենինգրադում
լենինը
լենինի
լենինյան
լեո
լեոն
լեոնարդ
լեոնարդո
լեոնի
լեոնիդ
լեոպոլդ
լեռ
լեռան
լեռը
լեռն
լեռնագագաթ
լեռնադահուկային
լեռնահամակարգում
լեռնային
լեռնանցք
լեռնաշխարհի
լեռնաշխարհում
լեռնաշղթա
լեռնաշղթայի
լեռնաշղթայում
լեռնաշղթան
լեռներ
լեռները
լեռների
լեռներից
լեռներով
լեռներում
լեսթեր
լեսլի
լերմոնտովի
լեցուն
լը
լի
լիազոր
լիազորություններ
լիազորությունները
լիազորությունների
լիազորված
լիակատար
լիամետրաժ
լիարժեք
լիբանան
լիբանանի
լիբանանյան
լիբանանում
լիբերալ
լիբիայի
լիգա
լիգայի
լիգային
լիգայում
լիգան
լիդիա
լիզա
լիզան
լիի
լիիրավ
լիլ
լիլի
լիլիան
լիլիթ
լիկ
լիճ
լիճը
լիճն
լին
լինդա
լինեին
լինել
լինելը
լինելն
լինելով
լինելու
լինելուն
լինելուց
լինեմ
լինեն
լինենք
լինես
լիներ
լինի
լինին
լինում
լինքոլնի
լիոն
լիոնի
լիովին
լիպեցկի
լիս
լիսաբոնի
լիվերպուլ
լիվերպուլի
լիտ
լիտվա
լիտվական
լիտվայի
լիտվայում
լիտվացի
լիտվերեն
լիտր
լիր
լիրիկական
լից
լիցի
լիցք
լիցքանի
լիցքավորված
լիցքի
լիքը
լիքն
լլոյդ
լծի
լղիմ
լղհ
լճեր
լճերը
լճերի
լճի
լճից
լճում
լյաենե
լյարդային
լյարդի
լյարդում
լյու
լյուբով
լյուդմիլա
լյուդովիկոս
լյուդվիգ
լյութերական
լյուիս
լյուիսը
լյուիսի
լյուկ
լյուսի
լյուքսեմբուրգ
լյուքսեմբուրգի
լո
լոզանի
լոկ
լոկոմոտիվ
լողալ
լողացող
լողի
լողում
լոմբարդիա
լոմոնոսովի
լոնգ
լոնդոն
լոնդոնը
լոնդոնի
լոնդոնյան
լոնդոնում
լոուրենս
լոպես
լոռի
լոռու
լոս
լոր
լորան
լորդ
լորենցո
լորձաթաղանթի
լու
լուգանսկի
լուի
լուիզ
լուիզա
լուիզան
լուիզիանա
լուիջի
լուիս
լուծարվել
լուծել
լուծելու
լուծը
լուծման
լուծմանը
լուծում
լուծումը
լուծումներ
լուծումների
լուծույթ
լուծույթի
լուծված
լուծվել
լուծվող
լուծվում
լուկա
լուկաս
լույս
լույսը
լույսի
լույսն
լույսով
լուն
լուռ
լուս
լուսաբանել
լուսաբանում
լուսաբաց
լուսաբացին
լուսագրերում
լուսամուտի
լուսային
լուսանկար
լուսանկարել
լուսանկարը
լուսանկարի
լուսանկարիչ
լուսանկարներ
լուսանկարները
լուսանկարների
լուսանկարչական
լուսանկարչության
լուսանցազարդ
լուսավոր
լուսավորական
լուսավորիչ
լուսավորության
լուսավորություն
լուսավորում
լուսավորչի
լուսավորված
լուսին
լուսինե
լուսինը
լուսնային
լուսնի
լուվրի
լուր
լուրեր
լուրերը
լուրերի
լուրը
լուրջ
լուց
լռել
լռեց
լռության
լռություն
լռությունը
լռում
լսած
լսարանի
լսել
լսելի
լսելով
լսելու
լսեց
լսեցի
լսի
լսիր
լսողական
լսողության
լսում
լսումների
լսվեց
լսվում
լվանում
լվով
լվովի
լվովում
լրաբեր
լրագիր
լրագրող
լրագրողական
լրագրողի
լրագրողներ
լրագրողները
լրագրողների
լրագրության
լրատվական
լրատվամիջոցների
լրաց
լրացնել
լրացնում
լրացում
լրացուցիչ
լրացված
լրացվել
լրիվ
լրումն
լրջորեն
լրտես
լցնել
լցնելու
լցնում
լցված
լցվել
լցվում
լցրել
լքել
լքեց
լքեցին
լքում
լքված
լև
լևի
լևոն
լևոնը
լևոնի
խ
խա
խաբար
խաբեբա
խաբել
խաբում
խաթաբալա
խաժակ
խալիֆայության
խախտել
խախտելու
խախտման
խախտում
խախտումների
խախտվում
խակ
խաղ
խաղադաշտ
խաղադաշտից
խաղալ
խաղալիք
խաղալիքներ
խաղալիքների
խաղալով
խաղալու
խաղակեսում
խաղաղ
խաղաղապահ
խաղաղության
խաղաղություն
խաղաղությունը
խաղաղօվկիանոսյան
խաղային
խաղարկային
խաղարկության
խաղարկությանը
խաղարկությունն
խաղարկությունում
խաղաց
խաղացած
խաղացել
խաղացող
խաղացողը
խաղացողի
խաղացողին
խաղացողներ
խաղացողները
խաղացողների
խաղացողներից
խաղեր
խաղերը
խաղերի
խաղերին
խաղերից
խաղերն
խաղերում
խաղը
խաղի
խաղին
խաղից
խաղն
խաղող
խաղողի
խաղով
խաղում
խայտաբղետ
խայտառակ
խան
խանգարել
խանգարման
խանգարում
խանգարումը
խանգարումներ
խանգարումները
խանգարումների
խանզադյան
խանը
խանի
խանին
խանութ
խանութը
խանութի
խանության
խանութներ
խանութները
խանութների
խանութներում
խանութում
խանջյան
խաչ
խաչակիրները
խաչակիրների
խաչակրաց
խաչաձև
խաչատուր
խաչատուրի
խաչատրյան
խաչատրյանը
խաչատրյանի
խաչենի
խաչը
խաչի
խաչիկ
խաչիկյան
խաչմերուկում
խաչով
խաչքար
խաչքարեր
խաչքարը
խաչքարի
խառը
խառն
խառնաշփոթ
խառնել
խառնում
խառնուրդ
խառնուրդը
խառնուրդի
խառնված
խառնվել
խառնվում
խավար
խավարածրի
խավարը
խավարի
խավարում
խավերի
խավի
խար
խարբերդ
խարբերդի
խարդախ
խարկով
խարկովի
խե
խեթական
խել
խելագար
խելամիտ
խելացի
խելոք
խելք
խելքը
խելքի
խելքից
խեղդել
խեղճ
խենթ
խզել
խթան
խթանել
խթանելու
խթանման
խթանում
խի
խիզախ
խիզախության
խիղճը
խիստ
խիտ
խլել
խլեց
խլղաթյան
խլում
խղճի
խղճուկ
խճճված
խմբ
խմբագիր
խմբագիրը
խմբագիրն
խմբագրական
խմբագրել
խմբագրի
խմբագրությամբ
խմբագրության
խմբագրություն
խմբագրությունում
խմբակ
խմբակային
խմբակի
խմբակցության
խմբային
խմբավար
խմբավորման
խմբավորում
խմբավորումը
խմբավորումների
խմբեր
խմբերը
խմբերի
խմբերին
խմբերից
խմբերով
խմբերում
խմբի
խմբին
խմբից
խմբով
խմբում
խմել
խմելնիցկիի
խմելու
խմիչք
խմիչքների
խմկկ
խմորի
խմում
խնամակալ
խնամակալության
խնամել
խնամում
խնամք
խնամքը
խնամքի
խնամքով
խնայել
խնդիր
խնդիրը
խնդիրն
խնդիրներ
խնդիրները
խնդիրների
խնդիրներին
խնդիրներից
խնդիրներն
խնդիրներով
խնդրանքը
խնդրանքով
խնդրել
խնդրելով
խնդրելու
խնդրեմ
խնդրեց
խնդրի
խնդրին
խնդրում
խնձոր
խնձորի
խնջույք
խնջույքի
խո
խոզ
խոզերի
խոզի
խոլմ
խոհանոց
խոհանոցը
խոհանոցի
խոհանոցում
խոհարար
խոհարարական
խոհր
խողովակ
խողովակի
խողովակների
խոյ
խոնավ
խոնավության
խոնավությունը
խոնարհ
խոշոր
խոշորագույն
խոչընդոտ
խոչընդոտել
խոչընդոտում
խոջա
խոռոչ
խոռոչի
խոռոչում
խոս
խոսակցական
խոսակցության
խոսակցություն
խոսակցությունը
խոսե
խոսել
խոսելիս
խոսելով
խոսելու
խոսեց
խոսի
խոսնակ
խոսող
խոսում
խոսվում
խոստանալով
խոստանում
խոստացավ
խոստացել
խոստովանել
խոստովանում
խոստումը
խոստումնալից
խոսրով
խոսրովի
խոսք
խոսքային
խոսքեր
խոսքերը
խոսքերի
խոսքերից
խոսքերն
խոսքերով
խոսքը
խոսքի
խոսքին
խոսքն
խոսքով
խոսքում
խոտ
խոտաբույս
խոտաբույսերի
խոտը
խոտի
խոտուրջուր
խոր
խորագրով
խորամանկ
խորան
խորանարդ
խորանը
խորանի
խորանում
խորապես
խորեն
խորենացի
խորենացին
խորենացու
խորը
խորթ
խորին
խորխե
խորհուրդ
խորհուրդը
խորհուրդն
խորհուրդներ
խորհուրդները
խորհուրդների
խորհուրդում
խորհրդա
խորհրդական
խորհրդականի
խորհրդային
խորհրդանիշ
խորհրդանիշը
խորհրդանիշն
խորհրդանշական
խորհրդանշող
խորհրդանշում
խորհրդավոր
խորհրդատու
խորհրդատուն
խորհրդատվական
խորհրդարան
խորհրդարանական
խորհրդարանը
խորհրդարանի
խորհրդարանում
խորհրդի
խորհրդին
խորհրդով
խորհրդում
խորն
խորոված
խորությամբ
խորության
խորություն
խորությունը
խորունկ
խորվ
խորվաթ
խորվաթական
խորվաթերեն
խորվաթիա
խորվաթիայի
խորվաթիայում
խորքային
խորքերը
խորքը
խորքում
խոցել
խոցելի
խու
խուան
խուդավերդյան
խուզարկու
խուլ
խուճապի
խումբ
խումբը
խումբն
խույս
խուսափել
խուսափելով
խուսափելու
խուսափում
խուտոր
խռովության
խռովություն
խսկց
խսհ
խսհմ
խստորեն
խտությամբ
խտության
խտություն
խտությունը
խտրականության
խրախուսել
խրախուսում
խրատ
խրոնիկական
խփած
խփել
խփելով
խփեց
խփում
ծ
ծա
ծագած
ծագել
ծագեց
ծագմամբ
ծագման
ծագող
ծագում
ծագումը
ծագումն
ծագումով
ծախս
ծախսել
ծախսեր
ծախսերը
ծախսերի
ծախսը
ծախսում
ծախսվել
ծածկ
ծածկանունների
ծածկասերմ
ծածկել
ծածկելու
ծածկի
ծածկող
ծածկում
ծածկույթ
ծածկված
ծածկվել
ծածկվում
ծածուկ
ծակ
ծաղ
ծաղիկ
ծաղիկը
ծաղիկներ
ծաղիկները
ծաղիկների
ծաղիկներով
ծաղկաբույլը
ծաղկած
ծաղկել
ծաղկի
ծաղկման
ծաղկող
ծաղկում
ծաղրածու
ծաղրել
ծաղրի
ծաղրում
ծայր
ծայրահեղ
ծայրահեղական
ծայրամասային
ծայրամասում
ծայրերը
ծայրը
ծայրին
ծայրից
ծայրով
ծայրում
ծան
ծանոթ
ծանոթագրություններ
ծանոթանալ
ծանոթանալու
ծանոթանում
ծանոթացավ
ծանոթացել
ծանոթացնում
ծանր
ծանրակշիռ
ծանրության
ծանրությունը
ծառ
ծառա
ծառայել
ծառայելու
ծառայի
ծառային
ծառայող
ծառայողական
ծառայողների
ծառայության
ծառայություն
ծառայությունը
ծառայությունից
ծառայությունն
ծառայություններ
ծառայությունները
ծառայությունների
ծառայություններից
ծառայությունում
ծառայում
ծառան
ծառաները
ծառեր
ծառերը
ծառերի
ծառը
ծառի
ծառից
ծառյ
ծառուկյան
ծառուղում
ծավալ
ծավալային
ծավալել
ծավալը
ծավալի
ծավալները
ծավալների
ծավալով
ծավալում
ծավալուն
ծավալված
ծավալվել
ծավալվում
ծատուրյան
ծարավ
ծե
ծել
ծեծ
ծեծել
ծեծի
ծեծում
ծեր
ծերության
ծերուկ
ծերունի
ծերունին
ծերունու
ծի
ծիածան
ծիծաղ
ծիծաղել
ծիծաղելի
ծիծաղելով
ծիծաղեց
ծիծաղը
ծիծաղի
ծիծաղում
ծին
ծիսական
ծիր
ծիրան
ծիրանի
ծխախոտ
ծխախոտի
ծխական
ծխելը
ծխելու
ծխի
ծխում
ծծմբական
ծծմբի
ծն
ծնե
ծնել
ծնելիության
ծնկի
ծննդաբերության
ծննդավայր
ծննդյան
ծնող
ծնողական
ծնողները
ծնողների
ծնողներին
ծնողներից
ծնողներն
ծնոտի
ծնում
ծնունդ
ծնունդը
ծնունդից
ծնունդով
ծնվ
ծնված
ծնվել
ծնվելուց
ծնվեց
ծնվում
ծո
ծով
ծովածոցի
ծովակալ
ծովահենները
ծովահենների
ծովային
ծովափին
ծովափնյա
ծովերի
ծովը
ծովի
ծովին
ծովից
ծովն
ծովով
ծովում
ծոց
ծոցը
ծոցի
ծոցում
ծու
ծութ
ծուխ
ծուխը
ծույլ
ծուռ
ծռեր
ծրագիր
ծրագիրը
ծրագիրն
ծրագրային
ծրագրավորման
ծրագրել
ծրագրեր
ծրագրերը
ծրագրերի
ծրագրերին
ծրագրերում
ծրագրի
ծրագրին
ծրագրով
ծրագրում
կ
կա
կաբելային
կաբինետի
կադրեր
կադրերի
կազակական
կազակների
կազան
կազանի
կազմ
կազմած
կազմակերպած
կազմակերպական
կազմակերպել
կազմակերպելու
կազմակերպեց
կազմակերպեցին
կազմակերպիչ
կազմակերպիչները
կազմակերպիչներից
կազմակերպման
կազմակերպմանը
կազմակերպության
կազմակերպությանը
կազմակերպություն
կազմակերպությունը
կազմակերպությունն
կազմակերպություններ
կազմակերպությունները
կազմակերպությունների
կազմակերպություններին
կազմակերպություններից
կազմակերպություններում
կազմակերպությունում
կազմակերպում
կազմակերպումը
կազմակերպչական
կազմակերպված
կազմակերպվել
կազմակերպվեց
կազմակերպվում
կազմավորման
կազմավորում
կազմավորումը
կազմավորումների
կազմավորված
կազմավորվել
կազմավորվում
կազմել
կազմելով
կազմելու
կազմեց
կազմեցին
կազմը
կազմի
կազմին
կազմից
կազմող
կազմով
կազմության
կազմություն
կազմում
կազմված
կազմվել
կազմվում
կաթ
կաթը
կաթի
կաթիլ
կաթից
կաթնային
կաթնասուն
կաթնասունների
կաթոլիկ
կաթոլիկական
կաթոլիկների
կաթողիկե
կաթողիկոս
կաթողիկոսական
կաթողիկոսը
կաթողիկոսի
կաթողիկոսին
կաթողիկոսության
կաթով
կաթված
կաթվածի
կաթվածից
կալ
կալաբրիա
կալանքի
կալավ
կալինինգրադի
կալիումի
կալիֆոռնիա
կալիֆոռնիայի
կալիֆոռնիայում
կալիֆորնիա
կալիֆորնիայի
կալուգայի
կալվադոս
կալվածք
կալվածքը
կալվածքի
կալվածքում
կալցիումի
կախ
կախաղան
կախարդ
կախարդական
կախարդը
կախեթի
կախել
կախյալ
կախում
կախված
կախվածության
կախվածություն
կախվածությունը
կահիրե
կահիրեի
կահիրեում
կահույք
կահույքի
կաղ
կաղապար
կաղապարն
կաղնի
կաղնու
կամ
կամա
կամայական
կամային
կամավոր
կամավորական
կամավորների
կամար
կամարակապ
կամարի
կամարները
կամարների
կամաց
կամենեց
կամենկա
կամենում
կամեո
կամերային
կամերունի
կամիլ
կամո
կամուրջ
կամուրջը
կամուրջներ
կամուրջների
կամչատկա
կամչատկայի
կամպանիա
կամրջի
կամք
կամքը
կամքի
կամքին
կամքով
կայ
կայազորի
կայան
կայանալիք
կայանը
կայանի
կայաններ
կայանների
կայանում
կայարան
կայարանը
կայարանի
կայարանից
կայարանում
կայացած
կայացավ
կայացել
կայացման
կայացնել
կայացնելու
կայացնում
կայացվել
կայացրել
կայացրեց
կային
կայծակ
կայծակի
կայուն
կայունության
կայունություն
կայունությունը
կայսեր
կայսերական
կայսր
կայսրերի
կայսրը
կայսրի
կայսրին
կայսրության
կայսրությանը
կայսրություն
կայսրությունը
կայսրությունից
կայսրությունում
կայսրուհի
կայսրուհու
կայք
կայքերի
կայքէջ
կայքէջը
կայքէջում
կայքը
կայքի
կայքից
կայքում
կան
կանադա
կանադական
կանադայի
կանադայում
կանադան
կանադացի
կանայք
կանանց
կանանցից
կանաչ
կանաչապատման
կանաչավուն
կանարյան
կանացի
կանգ
կանգնած
կանգնել
կանգնելու
կանգնեց
կանգնեցնել
կանգնեցնում
կանգնեցված
կանգնեցվել
կանգնեցրել
կանգնում
կանգուն
կանեմ
կանզաս
կանի
կանխամտածված
կանխատեսել
կանխատեսման
կանխատեսում
կանխարգելիչ
կանխարգելման
կանխել
կանխելու
կանխիկ
կանխում
կաննի
կանոն
կանոնադրության
կանոնադրությունը
կանոնական
կանոնավոր
կանոնը
կանոնի
կանոններ
կանոնները
կանոնների
կանոններին
կանոններով
կանուխ
կանչ
կանչել
կանչեց
կանչում
կանտալ
կանտոն
կանտոնի
կանտոնն
կանտոնում
կանցլեր
կանցնի
կաշառք
կաշեպատ
կաշի
կաշին
կաշվե
կաշվի
կապ
կապած
կապակցությամբ
կապակցության
կապակցված
կապան
կապանի
կապարի
կապել
կապելով
կապելու
կապեր
կապերը
կապերի
կապերով
կապեց
կապը
կապի
կապիկների
կապիտալ
կապիտալը
կապիտալի
կապիտալիզմի
կապիտալիստական
կապիտան
կապիտանի
կապն
կապող
կապով
կապում
կապույտ
կապույտը
կապուտիկյան
կապված
կապվել
կապվում
կապտավուն
կառավ
կառավարական
կառավարել
կառավարելու
կառավարիչ
կառավարիչը
կառավարիչների
կառավարման
կառավարող
կառավարության
կառավարությանը
կառավարությանն
կառավարություն
կառավարությունը
կառավարությունից
կառավարությունն
կառավարությունները
կառավարությունների
կառավարությունում
կառավարում
կառավարումը
կառավարչի
կառավարվող
կառավարվում
կառլ
կառլո
կառլոս
կառույց
կառույցը
կառույցի
կառույցներ
կառույցները
կառույցների
կառույցներից
կառույցներում
կառուցած
կառուցապատման
կառուցել
կառուցելու
կառուցեց
կառուցման
կառուցմանը
կառուցողական
կառուցում
կառուցումը
կառուցումն
կառուցված
կառուցվածք
կառուցվածքային
կառուցվածքը
կառուցվածքի
կառուցվածքն
կառուցվածքներ
կառուցվածքների
կառուցվածքով
կառուցվածքում
կառուցվել
կառուցվեց
կառուցվեցին
կառուցվում
կառք
կառքը
կառքի
կաս
կասեմ
կասես
կասի
կասկադ
կասկած
կասկածել
կասկածելի
կասկածի
կասկածներ
կասկածում
կասպից
կաստիլիա
կաստիլիայի
կավ
կավային
կավե
կատ
կատալոգ
կատալոնական
կատալոնիա
կատալոնիայի
կատակ
կատակերգական
կատակերգու
կատակերգության
կատակերգություն
կատակերգությունը
կատակերգությունում
կատակով
կատաղած
կատաղի
կատար
կատարած
կատարել
կատարելագործել
կատարելագործման
կատարելագործված
կատարելապես
կատարելը
կատարելիս
կատարելով
կատարելու
կատարելության
կատարելուց
կատարեց
կատարեցին
կատարի
կատարինա
կատարմամբ
կատարման
կատարմանը
կատարյալ
կատարող
կատարողական
կատարողը
կատարողների
կատարում
կատարումը
կատարված
կատարվել
կատարվեց
կատարվեցին
կատարվի
կատարվող
կատարվում
կատեգորիա
կատեգորիայի
կատեգորիայում
կատեգորիաների
կատերինա
կատու
կատուն
կատուները
կատուների
կատվի
կար
կարա
կարապետ
կարապետի
կարապետյան
կարապետյանը
կարապի
կարգ
կարգադրությամբ
կարգախոսը
կարգախոսն
կարգավիճակ
կարգավիճակը
կարգավիճակի
կարգավիճակով
կարգավիճակում
կարգավորել
կարգավորելու
կարգավորման
կարգավորող
կարգավորում
կարգավորումը
կարգավորվում
կարգեր
կարգերը
կարգերի
կարգը
կարգի
կարգին
կարգով
կարգում
կարդա
կարդալ
կարդալով
կարդալու
կարդաց
կարդացե
կարդացել
կարդացվում
կարդինալ
կարդում
կարել
կարելական
կարելի
կարելիայի
կարեն
կարեւոր
կարի
կարիբյան
կարիերա
կարիերայի
կարիերայում
կարիերան
կարին
կարինե
կարինի
կարիք
կարիքը
կարիքները
կարիքների
կարլ
կարլոս
կարծել
կարծելով
կարծեմ
կարծես
կարծիք
կարծիքը
կարծիքի
կարծիքին
կարծիքն
կարծիքներ
կարծիքները
կարծիքների
կարծիքով
կարծում
կարծր
կարկասոն
կարճ
կարճաժամկետ
կարճահասակ
կարճամետրաժ
կարճատև
կարմեն
կարմիր
կարմիրը
կարմրավուն
կարո
կարոլին
կարոլինա
կարոլինայի
կարող
կարողանա
կարողանան
կարողանար
կարողանում
կարողացան
կարողացավ
կարողացել
կարողության
կարողություն
կարողությունը
կարողությունները
կարողությունների
կարոն
կարոտ
կարում
կարուսել
կարս
կարսի
կարված
կարտոֆիլ
կարտոֆիլի
կարևոր
կարևորագույն
կարևորության
կարևորություն
կարևորությունը
կաց
կացավ
կացարան
կացնում
կացության
կացվել
կացվում
կացրել
կբերի
կգ
կգա
կգամ
կգան
կդառնա
կե
կեանքը
կեդրոն
կել
կելտական
կեղծ
կեղծանունը
կեղծանունով
կեղծանվամբ
կեղտոտ
կեղև
կեղևը
կեղևի
կեմերովոյի
կեն
կենա
կենալ
կենաց
կենդանաբանական
կենդանական
կենդանի
կենդանին
կենդանիներ
կենդանիները
կենդանիների
կենդանիներին
կենդանիներից
կենդանու
կենդանության
կենդբ
կենում
կենս
կենսաբան
կենսաբանական
կենսաբանության
կենսաբանություն
կենսագիր
կենսագործունեության
կենսագրական
կենսագրության
կենսագրություն
կենսագրությունը
կենսաթոշակային
կենսական
կենսաքիմիական
կենսաքիմիայի
կենսունակ
կենսք
կենտ
կենտկոմի
կենտուկի
կենտրոն
կենտրոնական
կենտրոնանալ
կենտրոնանում
կենտրոնացած
կենտրոնացել
կենտրոնացված
կենտրոնը
կենտրոնի
կենտրոնին
կենտրոնից
կենտրոնն
կենտրոններ
կենտրոնները
կենտրոնների
կենտրոններից
կենտրոններում
կենտրոնով
կենտրոնում
կենցաղային
կենցաղը
կենցաղի
կեռ
կես
կեսար
կեսարը
կեսարի
կեսարիա
կեսգիշերին
կեսերը
կեսերին
կեսերից
կեսը
կեսի
կեսին
կեսից
կեսն
կեսում
կեսօրին
կետ
կետեր
կետերը
կետերի
կետերից
կետերում
կետը
կետի
կետին
կետից
կետն
կետով
կետում
կեր
կերած
կերակուր
կերակուրներ
կերակրափողի
կերակրել
կերակրի
կերակրման
կերակրում
կերամիկական
կերային
կերան
կերել
կերպ
կերպար
կերպարանք
կերպարանքը
կերպարանքով
կերպարը
կերպարի
կերպարին
կերպարն
կերպարներ
կերպարները
կերպարների
կերպարներից
կերպարով
կերպարում
կերպարվեստի
կերպով
կերտած
կերտել
կերտված
կեցության
կեցվածք
կեցցե
կզմխս
կը
կըլի
կի
կիթառ
կիթառահար
կիթառի
կիլիկիա
կիլիկիայի
կիլիկիայում
կիլիկյան
կիլոգրամ
կիլոմետր
կիխոտը
կիմ
կին
կինեմատոգրաֆիական
կինեմատոգրաֆիայի
կինեմատոգրաֆիստների
կինետիկ
կինը
կինն
կինո
կինոակադեմիայի
կինոարվեստի
կինոդերասան
կինոթատրոն
կինոթատրոններում
կինոյի
կինոյում
կինոն
կինոնկար
կինոնկարը
կինոնկարի
կինոնկարների
կինոնկարներում
կինոնկարում
կինոպոիսկ
կինոռեժիսոր
կինոստուդիայի
կինոստուդիայում
կինոփառատոն
կինոփառատոնի
կինոփառատոնում
կինոքննադատների
կիպրոս
կիպրոսի
կիպրոսում
կիսաանապատային
կիսագնդի
կիսագնդում
կիսաեզրափակիչ
կիսաեզրափակիչում
կիսաեզրափակչի
կիսաեզրափակչում
կիսախորան
կիսանդրի
կիսանդրին
կիսաշրջանաձև
կիսապաշտպան
կիսապաշտպանի
կիսավեր
կիսատ
կիսել
կիսով
կիսում
կիր
կիրակի
կիրակնօրյա
կիրակոս
կիրակոսյան
կիրառական
կիրառել
կիրառելի
կիրառելով
կիրառելու
կիրառմամբ
կիրառման
կիրառության
կիրառություն
կիրառությունը
կիրառում
կիրառումը
կիրառումներ
կիրառումների
կիրառված
կիրառվել
կիրառվող
կիրառվում
կիրիլ
կիրճ
կիրճը
կիրճի
կիրճում
կիրովական
կիրովականի
կիրովի
կիրովոգրադի
կիրք
կից
կիև
կիևի
կիևյան
կիևում
կլանման
կլանում
կլաուս
կլասիցիզմի
կլարա
կլեոպատրա
կլետում
կլերմոն
կլիմա
կլիմայական
կլիմայի
կլիման
կլինեն
կլիներ
կլինի
կլինիկական
կլինիկայում
կլոդ
կլոր
կլորավուն
կծու
կկ
կկարողանա
կհանգեցնի
կհասնի
կհվ
կղզեխմբի
կղզի
կղզին
կղզիներ
կղզիները
կղզիների
կղզիներից
կղզիներում
կղզու
կղզում
կղզուց
կմ
կմախքի
կմնա
կյանք
կյանքը
կյանքի
կյանքին
կյանքից
կյանքն
կյանքով
կյանքում
կնիկ
կնիկը
կնիք
կնիքը
կնկա
կնոջ
կնոջը
կնոջից
կնոջն
կնության
կնչ
կնքած
կնքել
կնքելով
կնքելու
կնքեց
կնքում
կնքված
կնքվել
կնքվեց
կնքվում
կշիռ
կշիռը
կշռում
կո
կոալիցիայի
կոալիցիոն
կոբալյան
կոգան
կոգնիտիվ
կոդ
կոդը
կոդի
կոթող
կոլեգիայի
կոլեկտիվ
կոլեկտիվի
կոլեկցիոներ
կոլորադո
կոլումբիա
կոլումբիայի
կոլումբիայում
կոլսկի
կոլտնտեսության
կոկորդը
կոկորդի
կող
կողային
կողմ
կողմեր
կողմերը
կողմերի
կողմերին
կողմերից
կողմերն
կողմերում
կողմը
կողմի
կողմին
կողմից
կողմն
կողմնակի
կողմնակից
կողմնակիցները
կողմնակիցների
կողմնային
կողմնորոշման
կողմնորոշումը
կողմով
կողմում
կողոպտել
կողք
կողքի
կողքին
կողքից
կողքով
կոմեդիայի
կոմերիտական
կոմերիտմիության
կոմերցիոն
կոմի
կոմիսար
կոմիտաս
կոմիտասի
կոմիտե
կոմիտեի
կոմիտեն
կոմիտեում
կոմիքսների
կոմկուսի
կոմունա
կոմունալ
կոմունայի
կոմունայում
կոմունան
կոմունաներ
կոմունիզմի
կոմունիստ
կոմունիստական
կոմունիստների
կոմպակտ
կոմպլեքս
կոմպոզիտոր
կոմպոզիտորը
կոմպոզիտորի
կոմպոզիտորներ
կոմպոզիտորների
կոմպոզիցիա
կոմպոզիցիայի
կոմպոզիցիան
կոմպոզիցիաներ
կոմպոզիցիոն
կոմս
կոմսը
կոմսի
կոմսության
կոմսություն
կոմսությունում
կոմսուհի
կոն
կոնաձև
կոնան
կոնգոյի
կոնգրես
կոնգրեսը
կոնգրեսի
կոնգրեսին
կոնգրեսում
կոնեկտիկուտ
կոնի
կոնկակաֆ
կոնկրետ
կոնյակի
կոնսերվատորիա
կոնսերվատորիայի
կոնսերվատորիայում
կոնսերվատորիան
կոնստանտին
կոնստրուկտոր
կոնվենցիայի
կոնվենցիան
կոնվենցիաների
կոնտակտային
կոնրադ
կոնցենտրացիան
կոնցերտ
կոնֆեդերացիայի
կոնֆերանս
կոնֆերանսը
կոնֆերանսի
կոնֆերանսում
կոնֆլիկտի
կոշիկ
կոշիկի
կոշիկներ
կոշիկները
կոշտ
կոորդինատների
կոչ
կոչել
կոչման
կոչմանը
կոչում
կոչումը
կոչումներ
կոչումների
կոչումով
կոչված
կոչվել
կոչվեց
կոչվող
կոչվում
կոպեկ
կոպենհագեն
կոպենհագենի
կոպենհագենում
կոպիտ
կոռնելիս
կոռուպցիայի
կոսովոյի
կոստա
կոստանդին
կոստանդնուպոլիս
կոստանդնուպոլսի
կոստանդնուպոլսում
կով
կովի
կովկաս
կովկասի
կովկասյան
կովկասում
կոտ
կոտայքի
կոտորած
կոտորածի
կոտորածների
կոտորել
կոտորվել
կոտրած
կոտրել
կոտրում
կոտրված
կոր
կորած
կորավ
կորեա
կորեական
կորեայի
կորեայում
կորեան
կորեերեն
կորել
կորը
կորի
կորիզը
կործանարար
կործանել
կործանիչ
կործանման
կործանումը
կործանվել
կորկոտյան
կորյուն
կորոնար
կորուստ
կորուստը
կորուստներ
կորուստները
կորուստների
կորչում
կորպորատիվ
կորպորացիայի
կորպուս
կորպուսը
կորպուսի
կորսված
կորստի
կորցնել
կորցնելով
կորցնելու
կորցնում
կորցրած
կորցրել
կորցրեց
կու
կուբա
կուբայի
կուբայում
կուբան
կուբանի
կուզե
կուզես
կութ
կուլ
կուլտնուս
կուլտուրական
կուլտուրայի
կուլտուրաների
կում
կույբիշևի
կույս
կույտ
կույր
կուն
կունենա
կունենան
կուշտ
կուշտը
կուչ
կուռ
կուսակցական
կուսակցության
կուսակցությանը
կուսակցություն
կուսակցությունը
կուսակցությունից
կուսակցությունն
կուսակցությունները
կուսակցությունների
կուտ
կուտակել
կուտակման
կուտակում
կուտակումը
կուտակված
կուտակվում
կուր
կուրի
կուրծքը
կուրս
կուրսը
կուրսի
կուրսկի
կուրտ
կպած
կպչուն
կռիլյա
կռիվ
կռիվը
կռիվների
կռունկ
կռվել
կռվելու
կռվի
կռվող
կռվում
կստանա
կվերադառնա
կվտ
կտա
կտակարանի
կտակի
կտամ
կտան
կտավ
կտավը
կտավի
կտավներ
կտավները
կտավների
կտավում
կտար
կտոր
կտորը
կտորի
կտորից
կտորներ
կտորները
կտորների
կտուցը
կտրած
կտրականապես
կտրել
կտրելով
կտրելու
կտրեց
կտրող
կտրուկ
կտրում
կտրված
կտրվածքով
կտրվել
կտրտված
կրած
կրակ
կրակային
կրակել
կրակը
կրակի
կրակից
կրակով
կրակովի
կրակոտ
կրակոց
կրակում
կրասնի
կրասնոդար
կրասնոդարի
կրասնոյարսկի
կրավորական
կրավորականը
կրավորականն
կրել
կրելով
կրելու
կրեմլի
կրետե
կրետեի
կրեց
կրեցին
կրթաթոշակ
կրթական
կրթությամբ
կրթության
կրթություն
կրթությունը
կրթությունն
կրթված
կրիտիկական
կրծքագեղձի
կրծքային
կրծքավանդակի
կրծքի
կրծքին
կրծքով
կրկեսային
կրկեսի
կրկին
կրկյաշարյան
կրկնակի
կրկնել
կրկնեց
կրկնում
կրկնվող
կրկնվում
կրկնօրինակ
կրկնօրինակը
կրճատ
կրճատել
կրճատման
կրճատում
կրճատվել
կրճատվում
կրնա
կրնար
կրող
կրոն
կրոնական
կրոնը
կրոնի
կրոնների
կրում
կրուս
կրտսեր
կրտսերը
կրտսերի
կրքոտ
կցված
կօգնի
հ
հա
հաա
հաբսբուրգների
հագած
հագել
հագեցած
հագին
հագնել
հագնում
հագնված
հագուստ
հագուստը
հագուստի
հագուստներ
հագուստները
հագուստների
հագուստով
հադրութի
հազ
հազար
հազարամյակ
հազարամյակի
հազարամյակում
հազարանոց
հազարավոր
հազարը
հազարի
հազարից
հազիվ
հազվագյուտ
հազվադեպ
հալ
հալածանքների
հալեպ
հալեպի
հալեպում
հալման
հախվերդյան
հակ
հակա
հակաբիոտիկների
հակաբորբոքային
հակադարձ
հակադիր
հակադրություն
հակադրվում
հակամարմինների
հակամարտության
հակամարտություն
հակամարտությունը
հակամարտությունների
հակառակ
հակառակը
հակառակորդ
հակառակորդը
հակառակորդի
հակառակորդին
հակառակորդները
հակառակորդների
հակասական
հակասություններ
հակասությունները
հակասությունների
հակասում
հակատանկային
հակաֆաշիստական
հակիրճ
հակոբ
հակոբի
հակոբյան
հակոբյանը
հակոբյանի
հակում
հակված
հահ
հաղթական
հաղթահարել
հաղթահարելու
հաղթահարման
հաղթահարում
հաղթանակ
հաղթանակը
հաղթանակի
հաղթանակից
հաղթանակն
հաղթանակներ
հաղթանակները
հաղթանակների
հաղթանակով
հաղթել
հաղթելով
հաղթելու
հաղթեց
հաղթեցին
հաղթող
հաղթողը
հաղթողի
հաղթողներ
հաղթում
հաղորդագրության
հաղորդագրություն
հաղորդագրությունը
հաղորդագրությունների
հաղորդակցման
հաղորդակցության
հաղորդակցություն
հաղորդակցությունը
հաղորդավար
հաղորդել
հաղորդելու
հաղորդեց
հաղորդման
հաղորդում
հաղորդումը
հաղորդումներ
հաղորդումների
հաղորդվել
հաղորդվում
հաճախ
հաճախականությամբ
հաճախականության
հաճախականությունը
հաճախակի
հաճախել
հաճախորդի
հաճախորդների
հաճախորդներին
հաճախում
հաճելի
հաճի
հաճն
հաճույք
հաճույքի
հաճույքով
համ
համա
համագործակցել
համագործակցելով
համագործակցությամբ
համագործակցության
համագործակցություն
համագործակցությունը
համագործակցում
համագումարը
համագումարի
համագումարում
համադաշնության
համադրություն
համադրությունը
համազ
համազգային
համազգեստ
համաժողովի
համաժողովրդական
համալիր
համալիրը
համալիրի
համալիրների
համալիրում
համալսարան
համալսարանական
համալսարանը
համալսարանի
համալսարանին
համալսարանից
համալսարանն
համալսարաններ
համալսարանները
համալսարանների
համալսարաններից
համալսարաններում
համալսարանում
համալրել
համալրում
համալրվել
համախառն
համախմբել
համախտանիշ
համախտանիշը
համախտանիշի
համախտանիշով
համակարգ
համակարգային
համակարգեր
համակարգերը
համակարգերի
համակարգերում
համակարգը
համակարգի
համակարգին
համակարգիչ
համակարգիչը
համակարգիչների
համակարգից
համակարգն
համակարգող
համակարգով
համակարգում
համակարգչային
համակարգչի
համակարգված
համակենտրոնացման
համակված
համակրանք
համակցված
համահայկական
համահեղինակ
համահեղինակությամբ
համահիմնադիր
համահունչ
համաձայն
համաձայնագիր
համաձայնագիրը
համաձայնագրի
համաձայնագրով
համաձայնել
համաձայնեց
համաձայնեցված
համաձայնությամբ
համաձայնության
համաձայնություն
համաձայնությունը
համաձայնում
համաձայնվել
համաձայնվեց
համաձայնվում
համաճարակի
համամասնական
համամարդկային
համամիութենական
համայն
համայնապատկերը
համայնք
համայնքային
համայնքը
համայնքի
համայնքին
համայնքն
համայնքներ
համայնքները
համայնքների
համայնքներին
համայնքներում
համայնքում
համանման
համանուն
համաշխարհային
համաչափ
համապատասխան
համապատասխանաբար
համապատասխանող
համապատասխանում
համապարփակ
համապետական
համառ
համառոտ
համառորեն
համառուսական
համառուսաստանյան
համառօտ
համասեռ
համաստեղություն
համատարած
համատեղ
համատեղել
համատեղում
համատեքստում
համար
համարանիշերի
համարել
համարելով
համարեց
համարը
համարժեք
համարի
համարձակ
համարձակվում
համարյա
համարներ
համարները
համարում
համարվել
համարվեց
համարվող
համարվում
համացանց
համացանցային
համացանցի
համացանցում
համբավ
համբավը
համբարձում
համբարձումյան
համբույր
համբուրգ
համբուրգի
համբուրել
համբուրեց
համբուրում
համեղ
համեմատ
համեմատաբար
համեմատած
համեմատական
համեմատել
համեմատելով
համեմատությամբ
համեմատության
համեմատում
համեմատվում
համեմունք
համենայն
համեստ
համերաշխության
համերգ
համերգային
համերգը
համերգի
համերգին
համերգներ
համերգների
համերգներով
համը
համընդհանուր
համընթաց
համընկնում
համիդ
համլետ
համշեն
համո
համոզել
համոզեց
համոզիչ
համոզմունքների
համոզում
համոզված
համով
համր
հայ
հայաբնակ
հայագետ
հայագիտական
հայագիտության
հայազգի
հայաստան
հայաստանը
հայաստանի
հայաստանին
հայաստանից
հայաստանյան
հայաստանն
հայաստանում
հայացք
հայացքը
հայացքից
հայացքներ
հայացքները
հայացքների
հայացքով
հայբուսակ
հայդելբերգում
հայելային
հայելի
հայելին
հայելու
հայեր
հայերեն
հայերենը
հայերենի
հայերենում
հայերէն
հայերը
հայերի
հայերին
հայերից
հայերն
հայեցակարգը
հայեցակարգի
հայը
հայի
հայկ
հայկազ
հայկական
հայկի
հայնրիխ
հայոց
հայության
հայպետհրատ
հայպետուսմանհրատ
հայտ
հայտարարել
հայտարարելով
հայտարարելու
հայտարարեց
հայտարարեցին
հայտարարությամբ
հայտարարության
հայտարարություն
հայտարարությունը
հայտարարում
հայտարարված
հայտարարվել
հայտարարվեց
հայտարարվում
հայտնաբերել
հայտնաբերելու
հայտնաբերեց
հայտնաբերեցին
հայտնաբերման
հայտնաբերում
հայտնաբերումը
հայտնաբերված
հայտնաբերվել
հայտնաբերվեց
հայտնաբերվեցին
հայտնաբերվում
հայտնագործել
հայտնել
հայտնելով
հայտնելու
հայտնեց
հայտնեցին
հայտնի
հայտնիություն
հայտնություն
հայտնում
հայտնված
հայտնվել
հայտնվելը
հայտնվելով
հայտնվելու
հայտնվեց
հայտնվեցին
հայտնվում
հայր
հայրական
հայրապետ
հայրապետական
հայրապետը
հայրապետի
հայրապետյան
հայրենական
հայրենականում
հայրենասեր
հայրենասիրական
հայրենի
հայրենիք
հայրենիքը
հայրենիքի
հայրենիքին
հայրենիքում
հայրերի
հայրը
հայրիկ
հայրիկը
հայրիկի
հայրն
հայրս
հայց
հայք
հայքի
հայքում
հայֆիլմ
հան
հանա
հանած
հանածոների
հանգամանք
հանգամանքը
հանգամանքի
հանգամանքին
հանգամանքները
հանգամանքների
հանգամանքներում
հանգամանքով
հանգել
հանգեցնել
հանգեցնում
հանգեցրել
հանգեցրեց
հանգեցրին
հանգըլ
հանգիստ
հանգում
հանգույց
հանգույցը
հանգույցի
հանգույցների
հանգուցյալ
հանգուցյալի
հանգչում
հանգստանալ
հանգստանալու
հանգստանում
հանգստի
հանգստյան
հանգստություն
հանդարտ
հանդեպ
հանդես
հանդեսը
հանդեսի
հանդերձ
հանդիպակաց
հանդիպել
հանդիպելով
հանդիպելու
հանդիպեց
հանդիպեցին
հանդիպման
հանդիպմանը
հանդիպող
հանդիպում
հանդիպումը
հանդիպումից
հանդիպումն
հանդիպումներ
հանդիպումները
հանդիպումների
հանդիպումներում
հանդիսանալ
հանդիսանալով
հանդիսանում
հանդիսավոր
հանդիսատես
հանդիսատեսը
հանդիսատեսի
հանդիսատեսին
հանդիսացավ
հանդիսացել
հանդիսացող
հանդուգն
հանել
հանելով
հանելու
հանեց
հանեցին
հանի
հանկարծ
հանկարծակի
հանձն
հանձնաժողով
հանձնաժողովը
հանձնաժողովի
հանձնարարել
հանձնարարությամբ
հանձնարարում
հանձնել
հանձնելու
հանձնեց
հանձնման
հանձնում
հանձնվել
հանձնվեց
հանձնվում
հանճար
հանճարեղ
հաննա
հանող
հանում
հանուն
հանս
հանված
հանվել
հանվեց
հանվում
հանրագիտակ
հանրագիտական
հանրագիտարան
հանրագիտարանի
հանրագիտարանում
հանրակրթական
հանրահայտ
հանրահաշվական
հանրաճանաչ
հանրամատչելի
հանրային
հանրապետական
հանրապետության
հանրապետությանը
հանրապետություն
հանրապետությունը
հանրապետությունների
հանրապետությունով
հանրապետությունում
հանրաքվե
հանրաքվեի
հանրության
հանրությանը
հանցագործ
հանցագործների
հանցագործության
հանցագործություն
հանցագործությունը
հանցագործություններ
հանցագործությունները
հանցագործությունների
հանցանք
հանցանքը
հանցանքի
հանցավոր
հանցավորության
հանք
հանքային
հանքավայր
հանքավայրեր
հանքավայրերի
հաշիվ
հաշիվը
հաշիվները
հաշիվների
հաշմանդամ
հաշմանդամություն
հաշվապահ
հաշվապահական
հաշվառման
հաշվառված
հաշվարկային
հաշվարկել
հաշվարկը
հաշվարկի
հաշվարկման
հաշվարկները
հաշվարկների
հաշվարկներով
հաշվարկով
հաշվարկված
հաշվարկվել
հաշվարկվում
հաշվել
հաշվեկշռի
հաշվետու
հաշվետվության
հաշվետվություն
հաշվի
հաշվին
հաշվիչ
հաշվողական
հաշվով
հաշվում
հաշվվել
հաշվվում
հաշտության
հաշտություն
հաշտվել
հաուս
հաուտեն
հաուտենի
հապա
հապավումների
հաջի
հաջող
հաջողակ
հաջողությամբ
հաջողության
հաջողությանը
հաջողություն
հաջողությունը
հաջողությունից
հաջողություններ
հաջողությունները
հաջողությունների
հաջողված
հաջողվել
հաջողվեց
հաջողվում
հաջորդ
հաջորդաբար
հաջորդած
հաջորդական
հաջորդականությամբ
հաջորդականության
հաջորդականություն
հաջորդականությունը
հաջորդել
հաջորդեց
հաջորդեցին
հաջորդը
հաջորդող
հաջորդում
հառաջ
հաս
հասած
հասակ
հասակը
հասակի
հասակից
հասակով
հասակում
հասան
հասանելի
հասանելիության
հասանելիություն
հասանելիությունը
հասավ
հասարակ
հասարակածային
հասարակածի
հասարակական
հասարակայնության
հասարակաց
հասարակության
հասարակությանը
հասարակություն
հասարակությունը
հասարակությունից
հասարակությունում
հասել
հասկանալ
հասկանալի
հասկանալով
հասկանալու
հասկանում
հասկացա
հասկացավ
հասկացել
հասկացության
հասկացություն
հասկացությունը
հասկացություններ
հասկացությունները
հասկացությունների
հասկացվում
հասմիկ
հասնել
հասնելը
հասնելով
հասնելու
հասնի
հասնող
հասնում
հասուն
հասունանում
հասունացման
հասունության
հաստ
հաստատ
հաստատել
հաստատելով
հաստատելու
հաստատեց
հաստատեցին
հաստատման
հաստատող
հաստատության
հաստատություն
հաստատությունը
հաստատություններ
հաստատությունները
հաստատությունների
հաստատություններում
հաստատում
հաստատումը
հաստատումից
հաստատուն
հաստատված
հաստատվել
հաստատվեց
հաստատվեցին
հաստատվում
հաստությամբ
հաստությունը
հասցե
հասցեին
հասցեն
հասցեում
հասցնել
հասցնելով
հասցնելու
հասցնում
հասցված
հասցվել
հասցրել
հասցրեց
հավ
հավակնորդ
հավակնում
հավայան
հավանաբար
հավանական
հավանականությամբ
հավանականության
հավանականություն
հավանականությունը
հավանության
հավանություն
հավանում
հավասար
հավասարազոր
հավասարակշռության
հավասարակշռություն
հավասարակշռությունը
հավասարակշռված
հավասարաչափ
հավասարապես
հավասարման
հավասարության
հավասարությունը
հավասարում
հավասարումը
հավասարումները
հավասարումների
հավաստի
հավաստում
հավատ
հավատա
հավատալ
հավատալիքների
հավատարիմ
հավատարմության
հավատարմությունը
հավատացած
հավատացյալ
հավատացյալների
հավատը
հավատի
հավատով
հավատում
հավատքի
հավարիկ
հավաք
հավաքած
հավաքածու
հավաքածուի
հավաքածուից
հավաքածուն
հավաքածուներ
հավաքածուները
հավաքածուների
հավաքածուներում
հավաքածուում
հավաքական
հավաքականը
հավաքականի
հավաքականին
հավաքականները
հավաքականների
հավաքականներում
հավաքականում
հավաքել
հավաքելով
հավաքելու
հավաքեց
հավաքի
հավաքման
հավաքող
հավաքում
հավաքված
հավաքվել
հավաքվեցին
հավաքվում
հավելյալ
հավելում
հավելված
հավելվածներում
հավերժ
հավերժական
հավի
հավիտենական
հավիտյան
հատ
հատակագիծը
հատակագծով
հատակը
հատակի
հատակին
հատակում
հատել
հատիկ
հատկանիշ
հատկանիշը
հատկանիշներ
հատկանիշները
հատկանիշների
հատկանիշներով
հատկանշական
հատկապես
հատկացնում
հատկացված
հատկացվել
հատկացվում
հատկացրել
հատկությամբ
հատկություն
հատկությունը
հատկություններ
հատկությունները
հատկությունների
հատկություններով
հատման
հատող
հատոր
հատորը
հատորի
հատորներ
հատորով
հատորում
հատուկ
հատում
հատուցում
հատված
հատվածը
հատվածի
հատվածից
հատվածն
հատվածներ
հատվածները
հատվածների
հատվածներից
հատվածներում
հատվածում
հատվել
հատվում
հար
հարաբերական
հարաբերականորեն
հարաբերականության
հարաբերակցությամբ
հարաբերակցությունը
հարաբերությամբ
հարաբերության
հարաբերություն
հարաբերությունը
հարաբերություններ
հարաբերությունները
հարաբերությունների
հարաբերություններին
հարաբերություններն
հարաբերություններում
հարազատ
հարազատները
հարազատների
հարազատներին
հարակից
հարավ
հարավային
հարավարևելյան
հարավարևմտյան
հարավաֆրիկյան
հարավի
հարավից
հարավկորեական
հարավկորեացի
հարավում
հարավսլավական
հարավսլավիայի
հարբած
հարգանք
հարգանքը
հարգանքի
հարգանքով
հարգել
հարգելի
հարգում
հարգված
հարել
հարթ
հարթակ
հարթակի
հարթակում
հարթավայր
հարթավայրային
հարթավայրի
հարթավայրում
հարթության
հարթությունները
հարի
հարիսոն
հարիր
հարկ
հարկադիր
հարկադրված
հարկային
հարկանի
հարկավոր
հարկատու
հարկեր
հարկերը
հարկերի
հարկերից
հարկը
հարկի
հարկում
հարձակման
հարձակմանը
հարձակողական
հարձակում
հարձակումը
հարձակումից
հարձակումներ
հարձակումները
հարձակումների
հարձակումներից
հարձակվել
հարձակվեց
հարձակվեցին
հարձակվող
հարձակվողը
հարձակվողի
հարձակվում
հարմար
հարմարանք
հարմարավետ
հարմարեցված
հարմարվել
հարյումաա
հարյուր
հարյուրամյա
հարյուրամյակի
հարյուրամյակում
հարյուրավոր
հարոլդ
հարող
հարության
հարություն
հարությունի
հարությունյան
հարությունյանը
հարությունյանի
հարում
հարուստ
հարուցել
հարուցում
հարուցված
հարս
հարսանեկան
հարսանիք
հարսանիքը
հարսանիքի
հարսանիքից
հարսը
հարսի
հարսին
հարսնացու
հարսնացուի
հարսնացուն
հարստության
հարստություն
հարստությունը
հարված
հարվածային
հարվածել
հարվածը
հարվածի
հարվածից
հարվածներ
հարվածները
հարվածների
հարվածով
հարվածում
հարվարդի
հարվի
հարրի
հարրին
հարց
հարցազրույց
հարցազրույցը
հարցազրույցի
հարցազրույցներ
հարցազրույցներից
հարցազրույցում
հարցական
հարցեր
հարցերը
հարցերի
հարցերին
հարցերով
հարցերու
հարցերում
հարցը
հարցի
հարցին
հարցման
հարցն
հարցնել
հարցնում
հարցով
հարցում
հարցումների
հարցուց
հարցրել
հարցրեց
հարցրի
հարցրուց
հարևան
հարևանի
հարևանների
հարևանությամբ
հաց
հացահատիկ
հացահատիկային
հացահատիկի
հացը
հացի
հափշտակել
հբըմ
հգա
հգմ
հդբ
հե
հեգնական
հեզ
հեթ
հեթանոս
հեթանոսական
հեթում
հելեն
հելենա
հելինի
հելլենիստական
հեծելազորային
հեծելազորը
հեծելազորի
հեծյալ
հեկտար
հեղ
հեղաշրջման
հեղաշրջում
հեղաշրջումից
հեղափոխական
հեղափոխության
հեղափոխությանը
հեղափոխություն
հեղափոխությունը
հեղափոխությունից
հեղինակ
հեղինակած
հեղինակային
հեղինակավոր
հեղինակել
հեղինակը
հեղինակի
հեղինակին
հեղինակն
հեղինակներ
հեղինակները
հեղինակների
հեղինակներից
հեղինակներն
հեղինակությամբ
հեղինակության
հեղինակություն
հեղինակությունը
հեղինակում
հեղուկ
հեղուկը
հեղուկի
հեղուկների
հեմ
հենարան
հենված
հենվելով
հենվում
հենրի
հենրիի
հենրիխ
հենրիկ
հենրին
հենց
հեշտ
հեշտությամբ
հեպատիտ
հեռագիր
հեռախոս
հեռախոսահամար
հեռախոսային
հեռախոսի
հեռախոսով
հեռակա
հեռահաղորդակցության
հեռահար
հեռանալ
հեռանալով
հեռանալու
հեռանալուց
հեռանկարային
հեռանում
հեռավոր
հեռավորությամբ
հեռավորության
հեռավորություն
հեռավորությունը
հեռավորությունից
հեռարձակման
հեռարձակում
հեռարձակումը
հեռարձակվել
հեռարձակվող
հեռարձակվում
հեռացած
հեռացան
հեռացավ
հեռացել
հեռացման
հեռացնել
հեռացնելու
հեռացնում
հեռացում
հեռացումը
հեռացվել
հեռացվեց
հեռացվում
հեռացրել
հեռու
հեռուն
հեռուստաալիք
հեռուստաալիքը
հեռուստաալիքի
հեռուստաալիքով
հեռուստաընկերության
հեռուստաընկերություն
հեռուստաընկերությունը
հեռուստահաղորդավար
հեռուստաշոուի
հեռուստասերիալ
հեռուստասերիալը
հեռուստասերիալի
հեռուստասերիալներում
հեռուստասերիալում
հեռուստատեսային
հեռուստատեսությամբ
հեռուստատեսության
հեռուստատեսություն
հեռուստատեսությունը
հեռուստատեսությունում
հեռուստաֆիլմ
հեռվից
հեռվում
հետ
հետագա
հետագայի
հետագայում
հետադարձ
հետազոտական
հետազոտել
հետազոտման
հետազոտող
հետազոտողներ
հետազոտողները
հետազոտողների
հետազոտությամբ
հետազոտության
հետազոտություն
հետազոտությունը
հետազոտություններ
հետազոտությունները
հետազոտությունների
հետազոտություններով
հետազոտություններում
հետազոտում
հետախուզական
հետախուզության
հետախույզ
հետաձգել
հետաձգվել
հետամուտ
հետապնդել
հետապնդման
հետապնդում
հետաքննության
հետաքննություն
հետաքննությունը
հետաքրքիր
հետաքրքրական
հետաքրքրել
հետաքրքրությամբ
հետաքրքրության
հետաքրքրություն
հետաքրքրությունը
հետաքրքրությունները
հետաքրքրությունների
հետաքրքրում
հետաքրքրված
հետաքրքրվել
հետաքրքրվում
հետզհետե
հետը
հետին
հետխաղյա
հետխորհրդային
հետմահու
հետո
հետպատերազմյան
հետք
հետքեր
հետքերը
հետքերով
հետքը
հետևաբար
հետևակային
հետևակի
հետևանք
հետևանքը
հետևանքներ
հետևանքները
հետևանքների
հետևանքով
հետևապես
հետևել
հետևելով
հետևելու
հետևեց
հետևեցին
հետևի
հետևից
հետևյալ
հետևյալը
հետևյալն
հետևող
հետևողական
հետևողականորեն
հետևորդ
հետևորդներ
հետևորդները
հետևորդների
հետևում
հեր
հերացու
հերբերտ
հերը
հերթական
հերթականությամբ
հերթին
հերթով
հերիք
հերման
հերոս
հերոսական
հերոսը
հերոսի
հերոսին
հերոսն
հերոսներ
հերոսները
հերոսների
հերոսներին
հերոսներից
հերոսուհի
հերոսուհին
հերոսուհու
հերցեգովինա
հերցեգովինայի
հերցեգովինայում
հերցոգ
հերքել
հերքում
հեքեքյան
հեքիաթ
հեքիաթային
հեքիաթը
հեքիաթի
հեքիաթներ
հեքիաթները
հեքիաթների
հեքյարիի
հզ
հզոր
հզորությամբ
հզորության
հզորություն
հզորությունը
հզվդ
հէկ
հը
հժհք
հի
հիանալի
հիանում
հիասթափված
հիասքանչ
հիացած
հիբրիդային
հիգիենայի
հիդրոլոգիական
հիթ
հիթը
հիլ
հիլարի
հիմա
հիման
հիմար
հիմի
հիմն
հիմնադիր
հիմնադիրը
հիմնադիրն
հիմնադիրներից
հիմնադրած
հիմնադրամ
հիմնադրամը
հիմնադրամի
հիմնադրել
հիմնադրեց
հիմնադրի
հիմնադրման
հիմնադրում
հիմնադրումը
հիմնադրումից
հիմնադրված
հիմնադրվել
հիմնադրվեց
հիմնախնդիրները
հիմնախնդիրների
հիմնած
հիմնական
հիմնականում
հիմնային
հիմնավոր
հիմնավորել
հիմնավորում
հիմնավորված
հիմնարար
հիմնարկ
հիմնարկների
հիմնել
հիմնելու
հիմնեց
հիմնեցին
հիմնովին
հիմնում
հիմնված
հիմնվել
հիմնվելով
հիմնվում
հիմունքներ
հիմունքները
հիմունքներով
հիմք
հիմքեր
հիմքերը
հիմքերի
հիմքը
հիմքի
հիմքից
հիմքն
հիմքով
հիմքում
հին
հինավուրց
հինգ
հինգերորդ
հինգը
հինգշաբթի
հինդի
հիշատակ
հիշատակարաններ
հիշատակել
հիշատակը
հիշատակի
հիշատակին
հիշատակում
հիշատակումը
հիշատակված
հիշատակվել
հիշատակվում
հիշարժան
հիշել
հիշելով
հիշեց
հիշեցնող
հիշեցնում
հիշյալ
հիշողության
հիշողություն
հիշողությունը
հիշողություններ
հիշողությունները
հիշողությունների
հիշում
հիշվում
հիսուն
հիսուս
հիսուսը
հիսուսի
հիվանդ
հիվանդագին
հիվանդանոց
հիվանդանոցը
հիվանդանոցի
հիվանդանոցում
հիվանդանում
հիվանդացել
հիվանդը
հիվանդի
հիվանդին
հիվանդները
հիվանդների
հիվանդներին
հիվանդությամբ
հիվանդության
հիվանդություն
հիվանդությունը
հիվանդությունից
հիվանդությունն
հիվանդություններ
հիվանդությունները
հիվանդությունների
հիվանդություններին
հիվանդություններից
հիվանդություններով
հիտլերը
հիտլերի
հիրավի
հիրոսի
հիփ
հխսհ
հկ
հկկ
հհ
հհկ
հհշ
հղի
հղիության
հղիությունը
հղում
հմայակ
հմայիչ
հմար
հմմտ
հմուտ
հմտություն
հմտություններ
հմտությունները
հմտությունների
հյդ
հյոն
հյու
հյուգո
հյուգոյի
հյուզը
հյութ
հյութը
հյուպատոս
հյուսիս
հյուսիսամերիկյան
հյուսիսային
հյուսիսարևելյան
հյուսիսարևմտյան
հյուսիսի
հյուսիսից
հյուսիսում
հյուսված
հյուսվածք
հյուսվածքային
հյուսվածքը
հյուսվածքի
հյուսվածքները
հյուսվածքների
հյուսվածքներում
հյուր
հյուրախաղերի
հյուրախաղերով
հյուրանոց
հյուրանոցային
հյուրանոցը
հյուրանոցի
հյուրանոցներ
հյուրանոցում
հյուրեր
հյուրերը
հյուրերի
հյուրերին
հյուրը
հնա
հնագետ
հնագիտական
հնագիտության
հնագույն
հնազանդ
հնար
հնարավոր
հնարավորինս
հնարավորության
հնարավորություն
հնարավորությունը
հնարավորությունից
հնարավորություններ
հնարավորությունները
հնարավորությունների
հնարք
հնարքներ
հնացած
հնգամյա
հնդեվրոպական
հնդիկ
հնդկական
հնդկաստան
հնդկաստանը
հնդկաստանի
հնդկաստանից
հնդկաստանում
հնդկացիական
հնդկացիների
հնդկերեն
հնում
հնուց
հնչակյան
հնչել
հնչյուն
հնչյունական
հնչյունային
հնչյունավորել
հնչյունը
հնչյունի
հնչյուններ
հնչյունները
հնչյունների
հնչող
հնչում
հնց
հշ
հո
հոբելյանական
հոգ
հոգաբարձուների
հոգանոց
հոգեբ
հոգեբան
հոգեբանական
հոգեբանության
հոգեբանություն
հոգեբանությունը
հոգեբուժական
հոգեբուժության
հոգեբույժ
հոգեկան
հոգեպես
հոգի
հոգին
հոգիները
հոգիների
հոգիս
հոգնած
հոգնակի
հոգնել
հոգով
հոգու
հոգում
հոգուն
հոգուց
հոգևոր
հոգևորական
հոգևորականների
հոգևորականության
հոդ
հոդակապ
հոդերի
հոդերով
հոդի
հոդված
հոդվածը
հոդվածի
հոդվածին
հոդվածներ
հոդվածները
հոդվածների
հոդվածներին
հոդվածներից
հոդվածներով
հոդվածներում
հոդվածով
հոդվածում
հոլ
հոլանդական
հոլանդացի
հոլանդերեն
հոլանդիա
հոլանդիայի
հոլանդիայում
հոլիվուդ
հոլիվուդի
հոլիվուդյան
հոլիվուդում
հոլմսը
հոլմսի
հոլով
հոլովակը
հոլովներ
հոլովում
հոլոքոստի
հոծ
հոկեյի
հոկտեմբեր
հոկտեմբերի
հոկտեմբերին
հոկտեմբերից
հոկտեմբերյան
հող
հողագործությամբ
հողային
հողեր
հողերը
հողերի
հողերում
հողը
հողի
հողին
հողից
հողմիկ
հողն
հողում
հոմանիշ
հոմանիշների
հոմերոսի
հոյակապ
հոն
հոնիական
հոնկոնգի
հոնսյու
հոս
հոսանք
հոսանքը
հոսանքի
հոսանքների
հոսանքով
հոսանքում
հոսել
հոսող
հոսում
հոսպիտալում
հոսք
հոսքերի
հոսքը
հոսքի
հով
հովակիմյան
հովանավոր
հովանավորել
հովանավորը
հովանավորն
հովանավորությամբ
հովանավորության
հովանավորում
հովանու
հովարդ
հովիկ
հովիվ
հովիտ
հովիտը
հովհ
հովհան
հովհաննես
հովհաննեսը
հովհաննեսի
հովհաննիսյան
հովհաննիսյանը
հովհաննիսյանի
հովսեփ
հովսեփի
հովսեփյան
հովտի
հովտում
հոտ
հոտը
հոտի
հոտով
հոր
հորադիզ
հորատման
հորդ
հորդանան
հորդանանի
հորեղբայր
հորեղբայրը
հորեղբոր
հորը
հորիզոն
հորիզոնական
հորիզոնականը
հորիզոնականին
հորիզոնականում
հորիզոնի
հորինել
հորինված
հորինվածք
հորից
հորմոն
հորմոնի
հորմոնների
հորն
հորս
հու
հուդայի
հուզական
հուզված
հուժկու
հուլիոս
հուլիս
հուլիսի
հուլիսին
հուլիսից
հուղարկավորության
հում
հումանիտար
հումորային
հումորի
հումք
հումքի
հույզերի
հույն
հույներ
հույները
հույների
հույս
հույսեր
հույսերը
հույսը
հույսի
հույսով
հուն
հունա
հունական
հունահռոմեական
հունաստան
հունաստանը
հունաստանի
հունաստանում
հունարեն
հունարենից
հունգ
հունգարական
հունգարացի
հունգարերեն
հունգարիա
հունգարիայի
հունգարիայում
հունգարիան
հունիս
հունիսի
հունիսին
հունիսից
հունվար
հունվարի
հունվարին
հունվարից
հուշահամալիր
հուշահամալիրը
հուշահամալիրի
հուշամեդալ
հուշատախտակ
հուշարձան
հուշարձանը
հուշարձանի
հուշարձանն
հուշարձաններ
հուշարձանները
հուշարձանների
հուշարձաններից
հուշեր
հուշերը
հուշերի
հուշերում
հուշում
հուսալի
հուսահատ
հուսահատության
հուսեյն
հուսով
հուր
հոփ
հպատակ
հպարտ
հպվ
հռենոս
հռենոսի
հռետորական
հռիփսիմե
հռոմ
հռոմեական
հռոմեացի
հռոմեացիները
հռոմեացիների
հռոմը
հռոմի
հռոմից
հռոմում
հռչակ
հռչակագիր
հռչակագիրը
հռչակագրի
հռչակավոր
հռչակել
հռչակեց
հռչակում
հռչակումից
հռչակված
հռչակվել
հռչակվեց
հս
հսկա
հսկայական
հսկիչ
հսկողության
հսկողություն
հսկողությունը
հսկում
հսսհ
հսսռ
հստակ
հստակորեն
հսֆհ
հտ
հր
հրաբխային
հրաբխի
հրաբուխ
հրազդան
հրազդանի
հրազենի
հրաժարական
հրաժարականը
հրաժարականի
հրաժարականից
հրաժարվել
հրաժարվելով
հրաժարվելու
հրաժարվեց
հրաժարվեցին
հրաժարվում
հրաժեշտ
հրաժեշտի
հրահանգիչ
հրաձգային
հրաձգության
հրամայել
հրամայեց
հրամայում
հրաման
հրամանագիր
հրամանագիրը
հրամանագրերը
հրամանագրով
հրամանատար
հրամանատարական
հրամանատարը
հրամանատարի
հրամանատարն
հրամանատարությամբ
հրամանատարության
հրամանատարությունը
հրամանը
հրամանի
հրամանով
հրայր
հրանտ
հրաշագործ
հրաշալի
հրաշք
հրաշքների
հրաշքով
հրաչ
հրաչյա
հրապարակ
հրապարակախոս
հրապարակախոսական
հրապարակային
հրապարակայնորեն
հրապարակավ
հրապարակել
հրապարակեց
հրապարակը
հրապարակի
հրապարակից
հրապարակման
հրապարակում
հրապարակումը
հրապարակումից
հրապարակումների
հրապարակված
հրապարակվել
հրապարակվեց
հրապարակվում
հրապուրիչ
հրավառություն
հրավեր
հրավերը
հրավերով
հրավիրել
հրավիրեց
հրավիրում
հրավիրված
հրավիրվել
հրավիրվեց
հրավիրվում
հրատ
հրատապ
հրատարակած
հրատարակել
հրատարակեց
հրատարակիչ
հրատարակման
հրատարակության
հրատարակություն
հրատարակությունը
հրատարակություններ
հրատարակությունների
հրատարակություններում
հրատարակում
հրատարակումը
հրատարակչական
հրատարակչատուն
հրատարակչության
հրատարակչություն
հրատարակչությունը
հրատարակչությունում
հրատարակված
հրատարակվել
հրատարակվեց
հրատարակվող
հրատարակվում
հրացան
հրացանը
հրացանի
հրդեհ
հրդեհը
հրդեհի
հրդեհից
հրե
հրեա
հրեական
հրեաներ
հրեաները
հրեաների
հրեաներին
հրեղեն
հրեշ
հրեշը
հրեշի
հրեշտակ
հրեշտակը
հրեշտակի
հրեշտակները
հրեշտակների
հրես
հրետանային
հրետանու
հրթիռ
հրթիռային
հրթիռի
հրթիռների
հրշեջ
հրում
հրուշակեղենի
հրտ
հրտմ
հօգուտ
ձ
ձա
ձագ
ձագերը
ձախ
ձախակողմյան
ձախից
ձախողման
ձախողվել
ձայն
ձայնագրել
ձայնագրեց
ձայնագրման
ձայնագրության
ձայնագրություն
ձայնագրությունը
ձայնագրություններ
ձայնագրությունները
ձայնագրությունների
ձայնագրում
ձայնագրված
ձայնագրվել
ձայնային
ձայնասկավառակը
ձայնասկավառակի
ձայնավոր
ձայներ
ձայները
ձայների
ձայնը
ձայնի
ձայնին
ձայնն
ձայնով
ձանձրալի
ձգել
ձգելով
ձգեց
ձգում
ձգված
ձգվել
ձգվող
ձգվում
ձգտել
ձգտելով
ձգտող
ձգտում
ձգտումը
ձե
ձեզ
ձեզանից
ձեզի
ձեն
ձենը
ձեռ
ձեռագիր
ձեռագիրը
ձեռագրաց
ձեռագրացում
ձեռագրեր
ձեռագրերը
ձեռագրերի
ձեռագրերում
ձեռագրի
ձեռը
ձեռին
ձեռն
ձեռնադրվել
ձեռնամուխ
ձեռնարկ
ձեռնարկատեր
ձեռնարկատիրական
ձեռնարկել
ձեռնարկության
ձեռնարկություն
ձեռնարկությունը
ձեռնարկություններ
ձեռնարկությունները
ձեռնարկությունների
ձեռնարկություններում
ձեռնարկում
ձեռները
ձեռնտու
ձեռք
ձեռքբերման
ձեռքբերումը
ձեռքբերումները
ձեռքբերումների
ձեռքեր
ձեռքերը
ձեռքերի
ձեռքերն
ձեռքերով
ձեռքերում
ձեռքը
ձեռքի
ձեռքին
ձեռքից
ձեռքն
ձեռքով
ձեռքում
ձեռքս
ձեր
ձերբակալել
ձերբակալում
ձերբակալված
ձերբակալվել
ձերբակալվեց
ձերբակալվում
ձերդ
ձի
ձիահ
ձիավոր
ձիգ
ձիեր
ձիերը
ձիերի
ձիթապտղի
ձին
ձիով
ձիու
ձիուն
ձկան
ձկներ
ձկները
ձկների
ձկնորսական
ձկնորսության
ձմեռ
ձմեռային
ձմեռը
ձմեռներով
ձմեռվա
ձմռան
ձմռանը
ձյան
ձյուն
ձյունե
ձյունը
ձող
ձոր
ձորը
ձորի
ձորում
ձու
ձուլման
ձուլվել
ձուկ
ձուկը
ձուն
ձվաձև
ձվեր
ձվերը
ձվի
ձև
ձևաբանական
ձևական
ձևականորեն
ձևակերպել
ձևակերպեց
ձևաչափը
ձևաչափով
ձևավոր
ձևավորել
ձևավորելով
ձևավորելու
ձևավորման
ձևավորմանը
ձևավորող
ձևավորում
ձևավորումը
ձևավորված
ձևավորվել
ձևավորվեց
ձևավորվում
ձևափոխված
ձևեր
ձևերը
ձևերի
ձևերից
ձևերն
ձևերով
ձևը
ձևի
ձևին
ձևից
ձևն
ձևով
ղ
ղա
ղազախ
ղազախական
ղազախի
ղազախստան
ղազախստանի
ղազախստանում
ղազար
ղազարյան
ղազարյանը
ղազարոս
ղահրամանյան
ղարաբաղ
ղարաբաղը
ղարաբաղի
ղարաբաղյան
ղարաբաղում
ղարագյուլյան
ղե
ղեկավար
ղեկավարած
ղեկավարել
ղեկավարելու
ղեկավարը
ղեկավարի
ղեկավարման
ղեկավարն
ղեկավարներ
ղեկավարները
ղեկավարների
ղեկավարներին
ղեկավարներից
ղեկավարող
ղեկավարությամբ
ղեկավարության
ղեկավարությանը
ղեկավարությունը
ղեկավարում
ղեկավարումը
ղեկավարվում
ղի
ղո
ղու
ղուկաս
ղուկասյան
ղուշչյան
ղուրանի
ղուրբան
ղրիմ
ղրիմի
ղրիմում
ղրղզստանի
ղևոնդ
ճ
ճա
ճակատ
ճակատագիր
ճակատագիրը
ճակատագրական
ճակատագրի
ճակատագրին
ճակատամարտ
ճակատամարտը
ճակատամարտի
ճակատամարտին
ճակատամարտից
ճակատամարտում
ճակատային
ճակատը
ճակատի
ճակատին
ճակատով
ճակատում
ճահճային
ճամբար
ճամբարը
ճամբարի
ճամբարներ
ճամբարներում
ճամբարում
ճամփա
ճամփան
ճամփեն
ճամփին
ճամփորդել
ճամփորդության
ճանաչել
ճանաչելու
ճանաչեց
ճանաչման
ճանաչողական
ճանաչողության
ճանաչում
ճանաչումը
ճանաչված
ճանաչվել
ճանաչվեց
ճանաչվում
ճանապարհ
ճանապարհային
ճանապարհը
ճանապարհի
ճանապարհին
ճանապարհից
ճանապարհն
ճանապարհներ
ճանապարհները
ճանապարհների
ճանապարհներով
ճանապարհով
ճանապարհորդ
ճանապարհորդական
ճանապարհորդել
ճանապարհորդության
ճանապարհորդություն
ճանապարհորդությունը
ճանապարհորդությունների
ճանապարհորդում
ճաշ
ճաշակի
ճաշի
ճապ
ճապոնական
ճապոնացի
ճապոներեն
ճապոնիա
ճապոնիայի
ճապոնիայում
ճապոնիան
ճառ
ճառագայթային
ճառագայթման
ճառագայթները
ճառագայթների
ճառագայթում
ճառագայթումը
ճար
ճարպ
ճարպային
ճարպի
ճարպիկ
ճարտար
ճարտարագետ
ճարտարագիտական
ճարտարագիտության
ճարտարապետ
ճարտարապետական
ճարտարապետը
ճարտարապետի
ճարտարապետներ
ճարտարապետների
ճարտարապետության
ճարտարապետություն
ճարտարապետությունը
ճարտարապետությունն
ճգնաժամ
ճգնաժամային
ճգնաժամը
ճգնաժամի
ճեղքել
ճեղքում
ճեմարանը
ճեմարանի
ճեմարանում
ճերմակ
ճի
ճիշտ
ճիչ
ճկուն
ճյուղ
ճյուղավորված
ճյուղեր
ճյուղերը
ճյուղերի
ճյուղերից
ճյուղերով
ճյուղը
ճյուղի
ճնշել
ճնշելու
ճնշման
ճնշմանը
ճնշող
ճնշում
ճնշումը
ճնշումից
ճնշումների
ճնշված
ճշգրիտ
ճշգրտությամբ
ճշմարիտ
ճշմարտության
ճշմարտություն
ճշմարտությունը
ճշտությամբ
ճոխ
ճորոխի
ճրագը
ճրտրպ
մ
մա
մագաղաթի
մագիստրոս
մագիստրոսի
մագնեզիումի
մագնիսական
մագնուս
մադամ
մադոննան
մադրիդ
մադրիդի
մադրիդում
մազ
մազեր
մազերը
մազերի
մազերով
մազութի
մաթ
մաթեմատիկա
մաթեմատիկական
մաթեմատիկայի
մաթեմատիկան
մաթեմատիկոս
մաթևոս
մաթևոսյան
մաժոր
մալ
մալաթիա
մալաթիայի
մալայա
մալթա
մալթայի
մալի
մալխասյանց
մախչանյան
մակ
մակաբույծ
մականունը
մականունով
մակար
մակարդակ
մակարդակը
մակարդակի
մակարդակին
մակարդակից
մակարդակն
մակարդակների
մակարդակներում
մակարդակով
մակարդակում
մակարյան
մակբեթ
մակեդոնական
մակեդոնացու
մակեդոներեն
մակեդոնիա
մակեդոնիայի
մակերես
մակերեսային
մակերեսը
մակերեսի
մակերեսին
մակերեսով
մակերևութային
մակերևույթ
մակերևույթը
մակերևույթի
մակերևույթին
մակերևույթից
մակմիլան
մակնիշի
մակտյուտոր
մահ
մահանում
մահապատժի
մահապատիժը
մահարի
մահացած
մահացածների
մահացավ
մահացել
մահացու
մահացության
մահացությունը
մահը
մահից
մահկանացուն
մահճակալի
մահմեդական
մահմուդ
մահն
մահով
մահու
մահվան
մահվանից
մամ
մամա
մամիկոնյան
մամիկոնյանը
մամիկոնյանի
մամլո
մամուլ
մամուլը
մամուլի
մամուլում
մայ
մայա
մայակովսկու
մայամի
մայաների
մայիս
մայիսի
մայիսին
մայիսից
մայիսյան
մայնի
մայոր
մայորի
մայր
մայրական
մայրաքաղաք
մայրաքաղաքային
մայրաքաղաքը
մայրաքաղաքի
մայրաքաղաքից
մայրաքաղաքն
մայրաքաղաքում
մայրենի
մայրերի
մայրը
մայրիկ
մայրիկը
մայրիկի
մայրն
մայրուղին
մայրուղու
մայրս
մայրցամաքային
մայրցամաքի
մայք
մայքլ
մայքլը
մայքլի
ման
մանանդյան
մանավանդ
մանաւանդ
մանգայի
մանգան
մանդատ
մանեթ
մանեն
մանի
մանկական
մանկահասակ
մանկան
մանկապատանեկան
մանկապարտեզ
մանկավարժ
մանկավարժական
մանկավարժության
մանկության
մանկություն
մանկությունը
մանկությունից
մանկությունն
մանկուց
մանհեթենի
մանուել
մանուկ
մանուկը
մանուկյան
մանուկյանը
մանուկյանի
մանուկների
մանուշակագույն
մանչեսթեր
մանվել
մանր
մանրածախ
մանրակրկիտ
մանրամասն
մանրամասներ
մանրամասները
մանրամասնորեն
մանրանկարներ
մանրանկարչության
մանրէների
մաշկ
մաշկային
մաշկը
մաշկի
մաշված
մաշտոց
մաշտոցը
մաշտոցի
մաս
մասամբ
մասաչուսեթս
մասաչուսեթսի
մասեր
մասերը
մասերի
մասերից
մասերում
մասը
մասի
մասին
մասիս
մասիսի
մասից
մասն
մասնաբաժինը
մասնագետ
մասնագետի
մասնագետներ
մասնագետները
մասնագետների
մասնագիտական
մասնագիտացած
մասնագիտացել
մասնագիտացված
մասնագիտությամբ
մասնագիտության
մասնագիտություն
մասնագիտությունը
մասնագիտությունների
մասնակի
մասնակիորեն
մասնակից
մասնակիցը
մասնակիցներ
մասնակիցները
մասնակիցների
մասնակիցներին
մասնակիցներից
մասնակցած
մասնակցել
մասնակցելով
մասնակցելու
մասնակցեց
մասնակցեցին
մասնակցի
մասնակցող
մասնակցությամբ
մասնակցության
մասնակցություն
մասնակցությունը
մասնակցությունն
մասնակցում
մասնաճյուղ
մասնաճյուղեր
մասնաճյուղը
մասնաճյուղի
մասնաշենքը
մասնավոր
մասնավորապես
մասնատված
մասնիկ
մասնիկը
մասնիկի
մասնիկներ
մասնիկները
մասնիկների
մասշտաբային
մասշտաբի
մասշտաբով
մասով
մասում
մասունքները
մասսայական
մատ
մատակարարման
մատակարարում
մատակարարումը
մատաղ
մատանի
մատանին
մատանիների
մատենագրության
մատենադարան
մատենադարանի
մատենադարանում
մատենաշար
մատը
մատթեոս
մատի
մատղաշ
մատյան
մատնանշում
մատնել
մատնելով
մատները
մատների
մատներով
մատնեց
մատնում
մատնված
մատնվել
մատու
մատուռ
մատուռը
մատուռի
մատուցած
մատուցել
մատուցման
մատուցող
մատուցում
մատուցվում
մատչելի
մար
մարադոնան
մարանիան
մարաշ
մարատ
մարգագետիններում
մարգար
մարգարե
մարգարեթ
մարգարեի
մարգարետ
մարգարիտ
մարգարիտա
մարգարիտան
մարգարյան
մարգարյանը
մարդ
մարդաբանության
մարդահամար
մարդահամարի
մարդասիրական
մարդասպան
մարդասպանը
մարդասպանի
մարդատար
մարդը
մարդի
մարդիկ
մարդիկը
մարդինի
մարդկային
մարդկանց
մարդկանցից
մարդկության
մարդկությանը
մարդկությունը
մարդն
մարդոց
մարդու
մարդուն
մարդուց
մարել
մարզ
մարզադաշտ
մարզադաշտը
մարզադաշտի
մարզադաշտում
մարզական
մարզային
մարզանունների
մարզել
մարզերի
մարզերում
մարզը
մարզի
մարզիկ
մարզիկը
մարզիկները
մարզիկների
մարզիչ
մարզիչը
մարզկենտրոն
մարզկենտրոնից
մարզում
մարզչական
մարզչի
մարզպետ
մարզպետարանի
մարզվել
մարթ
մարթա
մարթան
մարի
մարիա
մարիամ
մարիամը
մարիամի
մարիայի
մարիան
մարիի
մարին
մարինա
մարիո
մարիոն
մարկ
մարկո
մարկոս
մարկոսի
մարկոսյան
մարկուս
մարմար
մարմարե
մարմին
մարմինը
մարմինն
մարմիններ
մարմինները
մարմինների
մարմիններին
մարմիններում
մարմնական
մարմնամարզական
մարմնամարզության
մարմնավորել
մարմնավորելով
մարմնավորում
մարմնի
մարմնին
մարմնից
մարմնով
մարմնում
մարշալ
մարշալի
մարոկկո
մարոկկոյի
մարում
մարս
մարսել
մարսելի
մարսի
մարսողական
մարտ
մարտական
մարտակերտ
մարտակերտի
մարտահրավեր
մարտավարական
մարտեն
մարտեր
մարտերը
մարտերի
մարտերին
մարտերից
մարտերում
մարտը
մարտի
մարտիկ
մարտիկները
մարտիկների
մարտին
մարտինա
մարտինը
մարտինի
մարտիրոս
մարտիրոսյան
մարտիրոսյանը
մարտից
մարտնչել
մարտում
մարտունի
մարտունիի
մարտունու
մարքեթինգի
մարքսի
մարքսիստական
մաք
մաքուր
մաքս
մաքսային
մաքսը
մաքսիմ
մաքսիմիլիան
մաքրել
մաքրելու
մաքրման
մաքրության
մաքրում
մաֆիայի
մբ
մգ
մե
մեդալ
մեդալակիր
մեդալը
մեդալի
մեդալներ
մեդալների
մեդալներով
մեդալով
մեդիա
մեդիայի
մեդիսոն
մեզ
մեզանից
մեզի
մեզիեր
մեզնից
մեթ
մեթյու
մեթոդ
մեթոդական
մեթոդը
մեթոդի
մեթոդներ
մեթոդները
մեթոդների
մեթոդներից
մեթոդներով
մեթոդով
մել
մելիք
մելիքի
մելիքյան
մելիքյանի
մելս
մելքոնյան
մելքումյան
մեխանիզմ
մեխանիզմը
մեխանիզմի
մեխանիզմներ
մեխանիզմները
մեխանիզմների
մեխանիկ
մեխանիկա
մեխանիկական
մեխանիկայի
մեխիկո
մեխիկոյի
մեծ
մեծագույն
մեծաթիվ
մեծածախ
մեծածավալ
մեծահասակ
մեծահասակների
մեծահարուստ
մեծամասնությամբ
մեծամասնության
մեծամասնություն
մեծամասնությունը
մեծամեծ
մեծանալ
մեծանում
մեծանուն
մեծապես
մեծարենց
մեծացած
մեծացավ
մեծացել
մեծացման
մեծացնել
մեծացնելու
մեծացնում
մեծացում
մեծացրել
մեծաքանակ
մեծերի
մեծը
մեծի
մեծն
մեծությամբ
մեծության
մեծություն
մեծությունը
մեծությունների
մեկ
մեկական
մեկը
մեկի
մեկին
մեկից
մեկն
մեկնաբան
մեկնաբանել
մեկնաբանության
մեկնաբանություն
մեկնաբանությունը
մեկնաբանություններ
մեկնաբանում
մեկնաբանվում
մեկնարկային
մեկնարկել
մեկնարկեց
մեկնարկը
մեկնարկի
մեկնարկից
մեկնել
մեկնելու
մեկնեց
մեկնութիւն
մեկնում
մեկով
մեկուկես
մեկում
մեկուսացման
մեկուսացված
մեկտեղ
մեհմեդ
մեղ
մեղադրանք
մեղադրանքները
մեղադրանքով
մեղադրել
մեղադրելով
մեղադրում
մեղադրվել
մեղադրվում
մեղավոր
մեղեդի
մեղեդին
մեղմ
մեղու
մեղուների
մեղր
մեղրի
մեղրու
մեղք
մեղքերի
մեղքը
մեղքի
մեյ
մեյը
մեյթիխանյան
մեն
մենագրության
մենագրություն
մենախաղի
մենախաղում
մենակ
մենակատար
մենամարտ
մենամարտը
մենամարտի
մենամարտում
մենեջեր
մենք
մեջ
մեջբերում
մեջը
մեջն
մեջտեղ
մեջտեղը
մեջտեղում
մեջքը
մեջքի
մեջքին
մեռած
մեռավ
մեռել
մեռյալ
մեռնել
մեռնելու
մեռնի
մեռնում
մեսայում
մեսրոպ
մետ
մետալ
մետալուրգիական
մետաղ
մետաղադրամ
մետաղադրամի
մետաղադրամներ
մետաղադրամները
մետաղադրամների
մետաղական
մետաղե
մետաղի
մետաղից
մետաղյա
մետաղներ
մետաղների
մետաքս
մետաքսե
մետաքսի
մետաքսյա
մետր
մետրանոց
մետրի
մետրից
մետրո
մետրոյի
մետրոպոլիտեն
մետրոպոլիտենի
մեր
մերը
մերթ
մերժել
մերժեց
մերժում
մերժվել
մերի
մերիլենդ
մերին
մերկ
մերկուրի
մերկուրիի
մերձակա
մերձակայքում
մերձավոր
մերձարևադարձային
մերձբալթյան
մերն
մեք
մեքենա
մեքենայական
մեքենայի
մեքենայով
մեքենան
մեքենաներ
մեքենաները
մեքենաների
մեքենաշինական
մեքենաշինության
մեքսիկա
մեքսիկական
մեքսիկայի
մեքսիկայում
մեքսիկան
մեքսիկացի
մզկիթ
մզկիթը
մզկիթի
մէկ
մէկը
մէջ
մը
մըն
մթերքներ
մթերքների
մթիանեթ
մթին
մթնշաղ
մթնոլորտ
մթնոլորտային
մթնոլորտը
մթնոլորտի
մթնոլորտում
մթության
մի
միա
միաբանության
միաբանություն
միաբանությունը
միաժամանակ
միաժամանակյա
միախառնման
միախառնվում
միակ
միակը
միակն
միակողմանի
միաձայն
միաձուլման
միամիտ
միամյա
միայն
միայնակ
միանալ
միանալով
միանալու
միանավ
միանգամայն
միանգամից
միանձնյա
միանման
միանշանակ
միանում
միապետական
միապետի
միապետության
միապետություն
միասին
միասյուն
միասնական
միասնականության
միասնության
միասնություն
միասնությունը
միավ
միավոր
միավորել
միավորը
միավորի
միավորման
միավորներ
միավորները
միավորների
միավորներից
միավորներով
միավորով
միավորում
միավորումը
միավորումների
միավորված
միավորվել
միավորվեցին
միավորվում
միատարր
միատեսակ
միացած
միացան
միացավ
միացել
միացման
միացյալ
միացնել
միացնող
միացնում
միացություն
միացություններ
միացությունները
միացությունների
միացում
միացումը
միացված
միացվել
միգ
միգել
միգուցե
միգրացիայի
միզապարկի
միթե
միլան
միլանի
միլանում
միլիարդ
միլիոն
միլիոնավոր
միլիոնատեր
միլիոնը
միլիոնի
միլիոնից
միլլերը
միլլերի
միխայիլ
միխայլովիչ
միխայլովկա
միկի
միկրոօրգանիզմների
միհրան
միմիայն
միմյանց
միմյանցից
մին
մինաս
մինասյան
մինասյանը
մինեսոտա
միներալ
մինը
մինի
մինիստրների
մինն
մինոր
մինչ
մինչդեռ
մինչեւ
մինչև
մինսկ
մինսկի
մինսկում
միշա
միշել
միշտ
միութենական
միության
միությանը
միություն
միությունը
միությունից
միությունների
միությունում
միչիգան
միչիգանի
միջագետքի
միջագետքում
միջադեպը
միջադեպի
միջազգային
միջակայքում
միջամտել
միջամտության
միջամտություն
միջամտությունը
միջանկյալ
միջավայր
միջավայրը
միջավայրի
միջավայրին
միջավայրից
միջավայրում
միջատ
միջատներ
միջատների
միջատներով
միջերկրածովյան
միջերկրական
միջեւ
միջի
միջին
միջինը
միջինում
միջից
միջմայրցամաքային
միջնաբերդի
միջնադարի
միջնադարյան
միջնադարում
միջնակարգ
միջնորդ
միջնորդությամբ
միջով
միջոց
միջոցառման
միջոցառում
միջոցառումը
միջոցառումներ
միջոցառումները
միջոցառումների
միջոցառումներին
միջոցը
միջոցի
միջոցին
միջոցներ
միջոցները
միջոցների
միջոցներից
միջոցներն
միջոցներով
միջոցով
միջուկ
միջուկային
միջուկը
միջուկի
միջուկների
միջպետական
միջև
միս
միսաք
միսը
միսիս
միսս
միսսուրի
միստիկ
միստր
միտում
միտումը
միտումնավոր
միտումները
միտված
միտք
միտքը
միտքն
միր
միրզա
միրզոյան
միւս
միքայել
միքայելը
միքայելի
միքայելյան
միևնույն
մլ
մլն
մլրդ
մխիթար
մխիթարյան
մկ
մկան
մկանային
մկանները
մկանների
մկմ
մկների
մկրտիչ
մկրտության
մկրտչի
մկրտչյան
մկրտչյանը
մհա
մհեր
մղած
մղել
մղելու
մղեց
մղոն
մղում
մղված
մղվել
մղվող
մղվում
մմ
մյուզիքլ
մյուզիքլի
մյուզիքլում
մյունխեն
մյունխենի
մյունխենում
մյուս
մյուսը
մյուսի
մյուսին
մյուսից
մյուսն
մյուսները
մյուսների
մյուսներին
մյուսներից
մնա
մնալ
մնալով
մնալու
մնալուց
մնան
մնաս
մնար
մնաց
մնացած
մնացածը
մնացածները
մնացականյան
մնացել
մնացի
մնացին
մնացյալ
մնացորդ
մնացորդային
մնացորդը
մնացորդներ
մնացորդները
մնացորդների
մնում
մշակ
մշակաբույսերի
մշակած
մշակել
մշակելու
մշակեց
մշակմամբ
մշակման
մշակմանը
մշակող
մշակութային
մշակությամբ
մշակության
մշակում
մշակումը
մշակույթ
մշակույթը
մշակույթի
մշակույթին
մշակույթների
մշակույթներում
մշակույթում
մշակված
մշակվել
մշակվող
մշակվում
մշո
մշտադալար
մշտական
մշտապես
մո
մոգական
մոդել
մոդելային
մոդելավորման
մոդելը
մոդելի
մոդելներ
մոդելները
մոդելների
մոդեռն
մոլ
մոլդովա
մոլդովական
մոլդովայի
մոլեգին
մոլեկուլային
մոլեկուլի
մոլեկուլները
մոլեկուլների
մոլի
մոլորակ
մոլորակային
մոլորակը
մոլորակի
մոլորակների
մոխիր
մոխրագույն
մոկս
մոմ
մոն
մոնակոյի
մոնիկա
մոնղոլ
մոնղոլական
մոնղոլները
մոնղոլների
մոնումենտալ
մոնպելիե
մոնտաժ
մոնտաժող
մոնտե
մոնրեալ
մոնրեալի
մոռանալ
մոռանում
մոռացել
մոռացության
մոռացված
մոսկովյան
մոսկվա
մոսկվայի
մոսկվայից
մոսկվայում
մոսկվան
մոսֆիլմ
մովսես
մովսեսի
մովսիսյան
մոտ
մոտակա
մոտակայքում
մոտավոր
մոտավորապես
մոտենալ
մոտենալով
մոտենում
մոտեցան
մոտեցավ
մոտեցել
մոտեցման
մոտեցող
մոտեցում
մոտեցումը
մոտեցումներ
մոտեցումները
մոտիկ
մոտիվներով
մոտից
մոտոհրաձգային
մոտով
մոր
մորգան
մորը
մորթի
մորթին
մորթու
մորիս
մորից
մորն
մորս
մոցարտի
մու
մուգ
մութ
մութը
մութն
մուլտիպլիկատոր
մուլտիպլիկացիոն
մուլտսերիալի
մուլտֆիլմ
մուլտֆիլմերի
մուլտֆիլմը
մուլտֆիլմի
մուլտֆիլմում
մուկ
մուհամեդ
մուհամմադ
մուհամմեդ
մուղնեցյան
մուն
մունիցիպալ
մունիցիպալիտետ
մունիցիպալիտետը
մունիցիպալիտետի
մունիցիպալիտետում
մուշ
մուշեղ
մուշի
մուսա
մուսուլման
մուսուլմանական
մուսուլմաններ
մուսուլմանները
մուսուլմանների
մուստաֆա
մուտք
մուտքային
մուտքը
մուտքի
մուտքն
մուր
մուրադ
մուրադը
մուրադի
մուրադյան
մուրացան
մուրը
մուրի
մուրճ
մռայլ
մսի
մսից
մսնգ
մսով
մվտ
մտա
մտադիր
մտադրության
մտադրություն
մտադրությունը
մտած
մտածել
մտածելով
մտածելու
մտածեց
մտածեցի
մտածող
մտածողության
մտածողությունը
մտածում
մտածված
մտահոգված
մտան
մտավ
մտավոր
մտավորական
մտավորականների
մտավորականության
մտացածին
մտել
մտերիմ
մտիկ
մտնել
մտնելով
մտնելու
մտնելուց
մտնի
մտնող
մտնում
մտցնել
մտցնում
մտցվել
մտցրել
մտցրեց
մտքեր
մտքերը
մտքերի
մտքի
մտքին
մտքից
մտքով
մտքում
մր
մրգեր
մրգերի
մրմն
մրցախաղում
մրցակից
մրցակիցը
մրցակիցների
մրցակցային
մրցակցի
մրցակցին
մրցակցության
մրցակցություն
մրցակցությունը
մրցանակ
մրցանակաբաշխության
մրցանակաբաշխությանը
մրցանակաբաշխություն
մրցանակաբաշխությունում
մրցանակակիր
մրցանակային
մրցանակը
մրցանակի
մրցանակին
մրցանակներ
մրցանակները
մրցանակների
մրցանակով
մրցաշար
մրցաշարերի
մրցաշարերում
մրցաշարը
մրցաշարի
մրցաշարին
մրցաշարում
մրցաշրջան
մրցաշրջանը
մրցաշրջանի
մրցաշրջանից
մրցաշրջանն
մրցաշրջանում
մրցավար
մրցել
մրցութային
մրցության
մրցում
մրցումների
մրցումներում
մրցույթ
մրցույթը
մրցույթի
մրցույթին
մրցույթների
մրցույթներում
մրցույթում
մցխեթ
մօկ
մօտ
յ
յա
յալթա
յակ
յակոբ
յակով
յաղագս
յան
յանգ
յանգը
յար
յարոսլավ
յարոսլավլի
յե
յետոյ
յի
յին
յն
յո
յոզեֆ
յոթ
յոթերորդ
յոթը
յոլ
յոհան
յոհաննես
յոն
յովհ
յորք
յորքի
յորքում
յու
յուան
յություբ
յություբում
յուլիա
յուլյա
յուղ
յուղաներկ
յուղաներկով
յուղը
յուղի
յուղով
յուն
յունայթեդ
յունայթեդը
յունայթեդի
յունեսկօ
յուպիտերի
յուջին
յուվենտուսի
յուր
յուրահատուկ
յուրայի
յուրատեսակ
յուրացման
յուրացնել
յուրաքանչյուր
յուրաքանչյուրը
յուրաքանչյուրի
յուրաքանչյուրին
յուրաքանչյուրն
յուրաքանչյուրում
յուրի
յուրյանց
յուրովի
յուրօրինակ
յր
ն
նա
նադեժդա
նաեւ
նազար
նազարյան
նաիրի
նաիրյան
նալ
նալբանդյան
նալբանդյանը
նալբանդյանի
նալչաջյան
նախ
նախագահ
նախագահական
նախագահը
նախագահի
նախագահին
նախագահն
նախագահների
նախագահության
նախագիծ
նախագիծը
նախագիծն
նախագծային
նախագծել
նախագծեր
նախագծերը
նախագծերի
նախագծերում
նախագծի
նախագծին
նախագծման
նախագծով
նախագծում
նախագծված
նախագծվել
նախադասության
նախադասություն
նախադասությունը
նախադասությունները
նախադպրոցական
նախաձեռնել
նախաձեռնող
նախաձեռնությամբ
նախաձեռնության
նախաձեռնությունը
նախապատմական
նախապատվությունը
նախապատրաստական
նախապատրաստել
նախապատրաստման
նախապատրաստում
նախապես
նախատեսել
նախատեսում
նախատեսված
նախատեսվել
նախատեսվում
նախատիպ
նախատիպը
նախարար
նախարարական
նախարարը
նախարարի
նախարարները
նախարարների
նախարարության
նախարարությանը
նախարարություն
նախարարությունը
նախարարությունում
նախընտրական
նախընտրելի
նախընտրում
նախիջևան
նախիջևանի
նախիջևանում
նախկին
նախկինի
նախկինում
նախնադարյան
նախնական
նախնիները
նախնիների
նախշերով
նախորդ
նախորդել
նախորդի
նախորդների
նախորդող
նախորդում
նախքան
նախօրեին
նախօրյակին
նախօրոք
նակ
նահանգ
նահանգային
նահանգապետ
նահանգապետը
նահանգապետի
նահանգը
նահանգի
նահանգին
նահանգից
նահանգներ
նահանգները
նահանգների
նահանգներից
նահանգներում
նահանգում
նահանջ
նահանջել
նահանջում
նահապետ
նահապետական
նահապետի
նահատակ
նամ
նամակ
նամականիշ
նամակը
նամակի
նամակներ
նամակները
նամակների
նամակներից
նամակներում
նամակով
նամակում
նայել
նայելով
նայելու
նայեց
նայի
նայիր
նայող
նայում
նանի
նանսենի
նաուչնիում
նապաստակ
նապաստակը
նապաստակի
նապոլեոն
նապոլեոնը
նապոլեոնի
նապոլեոնյան
նասա
նավ
նավակ
նավակը
նավահանգիստ
նավահանգիստը
նավահանգստային
նավահանգստի
նավահանգստում
նավապետ
նավաստի
նավատորմ
նավատորմը
նավատորմի
նավարկելի
նավարկության
նավեր
նավերը
նավերի
նավը
նավթ
նավթային
նավթի
նավի
նավով
նատալի
նատալիա
նատալյա
նատաշա
նատյուրմորտ
նատրիումի
նատօ
նար
նարեկ
նարեկացի
նարեկացու
նարնջագույն
նարումով
նաց
նացիոնալ
նացիստական
նացիստների
նաև
նգ
նգժկ
նգն
նդ
նե
նեապոլ
նեապոլի
նեբրասկա
նել
նելլի
նելսոն
նեղ
նեղոսի
նեղություն
նեղուցը
նեղուցի
նեղուցով
նեյրոնների
նենգ
նենսի
նեպտունի
նետ
նետել
նետեց
նետում
նետվել
նետվում
ներ
ներածություն
ներառել
ներառելով
ներառյալ
ներառում
ներառված
ներառվել
ներառվում
ներարկման
ներգաղթել
ներգաղթի
ներգաղթյալների
ներգործության
ներգրավել
ներգրավված
ներգրավվել
ներդաշնակ
ներդաշնակության
ներդրած
ներդրել
ներդրման
ներդրում
ներդրումային
ներդրումը
ներդրումն
ներդրումներ
ներդրումները
ներդրումների
ներդրված
ներդրվել
ներել
ներերակային
ներեցեք
ները
ներթափանցել
ներթափանցում
ների
ներխուժել
ներխուժեց
ներխուժեցին
ներխուժման
ներխուժում
ներխուժումը
ներկ
ներկա
ներկայանալ
ներկայանում
ներկայացավ
ներկայացել
ներկայացմամբ
ներկայացման
ներկայացնել
ներկայացնելով
ներկայացնելու
ներկայացնող
ներկայացնում
ներկայացում
ներկայացումը
ներկայացումներ
ներկայացումները
ներկայացումների
ներկայացումներում
ներկայացուցիչ
ներկայացուցիչը
ներկայացուցիչն
ներկայացուցիչներ
ներկայացուցիչները
ներկայացուցիչների
ներկայացուցիչներին
ներկայացուցիչներից
ներկայացուցիչներն
ներկայացուցչական
ներկայացուցչի
ներկայացուցչության
ներկայացված
ներկայացվել
ներկայացվեց
ներկայացվող
ներկայացվում
ներկայացրած
ներկայացրել
ներկայացրեց
ներկայի
ներկայիս
ներկայությամբ
ներկայության
ներկայությունը
ներկայում
ներկայումս
ներկան
ներկառուցված
ներկված
ներմուծել
ներմուծման
ներմուծում
ներմուծումը
ներմուծվել
ներշնչել
ներշնչում
ներողություն
ներուժը
ներուժի
ներում
ներս
ներսես
ներսեսի
ներսը
ներսի
ներսիսյան
ներսից
ներսում
ներքին
ներքո
ներքուստ
ներքև
ներքևի
ներքևից
ներքևում
նը
նժդեհի
նի
նիգերիայի
նիդեռլանդների
նիդեր
նիդերլանդական
նիդերլանդներ
նիդերլանդների
նիդերլանդներում
նիժնի
նիլ
նիլս
նիկ
նիկա
նիկիտա
նիկոլ
նիկոլա
նիկոլայ
նիկոլայը
նիկոլայի
նիկոլաս
նիկոլաևի
նիկոլաևիչ
նիկոլաևկա
նիկոլաևնա
նիկողայոս
նիհար
նինա
նիշ
նիստ
նիստերի
նիստը
նիստի
նիստում
նիք
նիքի
նկ
նկատառումներով
նկատել
նկատելի
նկատելով
նկատեց
նկատի
նկատմամբ
նկատում
նկատվել
նկատվում
նկար
նկարագիրը
նկարագրել
նկարագրելով
նկարագրելու
նկարագրեց
նկարագրության
նկարագրություն
նկարագրությունը
նկարագրում
նկարագրված
նկարագրվել
նկարագրվում
նկարազարդել
նկարահանած
նկարահանել
նկարահանելու
նկարահանեց
նկարահանման
նկարահանող
նկարահանում
նկարահանումները
նկարահանումների
նկարահանումներին
նկարահանումներն
նկարահանված
նկարահանվել
նկարահանվելով
նկարահանվելու
նկարահանվեց
նկարահանվում
նկարել
նկարելու
նկարը
նկարի
նկարիչ
նկարիչը
նկարիչն
նկարիչներ
նկարիչները
նկարիչների
նկարիչներից
նկարն
նկարներ
նկարները
նկարների
նկարներից
նկարներով
նկարներում
նկարում
նկարչական
նկարչի
նկարչին
նկարչության
նկարչություն
նկարչուհի
նկարված
նկարվել
նկուղում
նմ
նմա
նման
նմանապես
նմանատիպ
նմանությամբ
նմանության
նմանություն
նմանությունը
նմանություններ
նմանվող
նմանվում
նմանօրինակ
նմուշ
նմուշը
նմուշի
նմուշներ
նմուշները
նմուշների
նմուշներից
նյարդաբանական
նյարդային
նյարդերի
նյարդի
նյու
նյութ
նյութական
նյութափոխանակության
նյութեր
նյութերը
նյութերի
նյութերից
նյութերով
նյութը
նյութի
նյութից
նյուտոնի
նյուքասլ
նշան
նշանակալի
նշանակալից
նշանակել
նշանակելու
նշանակեց
նշանակման
նշանակությամբ
նշանակության
նշանակություն
նշանակությունը
նշանակում
նշանակումը
նշանակված
նշանակվել
նշանակվեց
նշանակվում
նշանավոր
նշանը
նշանի
նշանն
նշաններ
նշանները
նշանների
նշաններով
նշանով
նշել
նշելով
նշելու
նշենք
նշեց
նշմարվում
նշում
նշումներ
նշված
նշվել
նշվեց
նշվում
նշտարաձև
նո
նոբելյան
նոյեմբեր
նոյեմբերի
նոյեմբերին
նոյեմբերից
նոյեմբերյանի
նոյի
նոյյան
նոյն
նոսր
նովա
նովայա
նովայի
նովգորոդ
նովգորոդի
նովի
նովիկովի
նովոսիբիրսկի
նոտր
նոտրգրով
նոր
նորա
նորաբանությունների
նորագույն
նորածանոթ
նորածին
նորածինների
նորակառույց
նորաձև
նորաձևության
նորամուտը
նորամուտն
նորայր
նորան
նորանոր
նորանց
նորաստեղծ
նորարարական
նորբ
նորեկ
նորեն
նորը
նորընտիր
նորին
նորից
նորմալ
նորման
նորմանդիա
նորմատիվ
նորմերը
նորմերի
նորովի
նորություն
նորություններ
նորությունների
նորվ
նորվեգական
նորվեգացի
նորվեգերեն
նորվեգիա
նորվեգիայի
նորվեգիայում
նորվեգիան
նորք
նոց
նոցա
նու
նութ
նում
նույն
նույնական
նույնականացման
նույնանուն
նույնացնում
նույնացվում
նույնը
նույնիսկ
նույնն
նույնպես
նույնպիսի
նույնքան
նուր
նուրբ
նոքա
նչ
նչն
նչպես
նպաստ
նպաստավոր
նպաստել
նպաստելով
նպաստեց
նպաստեցին
նպաստող
նպաստում
նպատակ
նպատակահարմար
նպատակային
նպատակաուղղված
նպատակը
նպատակի
նպատակին
նպատակն
նպատակներ
նպատակները
նպատակների
նպատակներին
նպատակներից
նպատակներով
նպատակով
նռան
նստած
նստակյաց
նստաշրջանի
նստավայր
նստավայրը
նստարանին
նստել
նստելու
նստեց
նստեցին
նստի
նստում
նստվածքային
նվագախմբային
նվագախմբի
նվագախմբում
նվագախումբ
նվագախումբը
նվագել
նվագելու
նվագող
նվագում
նվազ
նվազագույն
նվազագույնը
նվազագույնի
նվազել
նվազեց
նվազեցման
նվազեցնել
նվազեցնելու
նվազեցնում
նվազման
նվազում
նվազումը
նվաճել
նվաճելով
նվաճելու
նվաճեց
նվաճեցին
նվաճման
նվաճում
նվաճումը
նվաճումները
նվաճումների
նվաճումներից
նվաճված
նվեր
նվերը
նվերներ
նվիրաբերել
նվիրական
նվիրել
նվիրեց
նվիրում
նվիրված
նվիրվել
նրա
նրան
նրանից
նրանով
նրանում
նրանց
նրանցից
նրանցում
նրանք
նրբագեղ
նրբանցք
նրբանցքի
նց
նք
նևա
շ
շա
շաբաթ
շաբաթաթերթ
շաբաթաթերթի
շաբաթական
շաբաթը
շաբաթից
շաբաթում
շաբաթվա
շագանակագեղձի
շագանակագույն
շալոն
շախմատ
շախմատային
շախմատի
շախմատիստ
շահ
շահագործման
շահան
շահավետ
շահել
շահեն
շահերը
շահերի
շահերին
շահը
շահի
շահին
շահյանը
շահում
շահումյան
շահումյանի
շահույթ
շահույթը
շահույթի
շաղ
շամախի
շամպայն
շան
շանը
շանթ
շանհայի
շապիկ
շապիկը
շապիկի
շապիկին
շապին
շապուհ
շառլ
շառլվիլ
շատ
շատախ
շատերը
շատերի
շատերին
շատերն
շատո
շատրվան
շատրվանը
շար
շարադրել
շարադրված
շարակցական
շարահյուսական
շարանտ
շարանտա
շարանտի
շարժական
շարժել
շարժիչ
շարժիչը
շարժիչի
շարժիչների
շարժիչով
շարժման
շարժմանը
շարժողական
շարժում
շարժումը
շարժումն
շարժումներ
շարժումները
շարժումների
շարժումներով
շարժումով
շարժուն
շարժվել
շարժվելով
շարժվեց
շարժվեցին
շարժվող
շարժվում
շարունակ
շարունակաբար
շարունակական
շարունակել
շարունակելով
շարունակելու
շարունակեց
շարունակեցին
շարունակի
շարունակություն
շարունակությունը
շարունակությունն
շարունակում
շարունակվել
շարունակվեց
շարունակվեցին
շարունակվող
շարունակվում
շարված
շարք
շարքային
շարքեր
շարքերը
շարքերի
շարքերում
շարքը
շարքի
շարքին
շարքից
շարքով
շարքում
շաքար
շաքարային
շաքարի
շե
շելտ
շեղում
շեմին
շեյխ
շեն
շենք
շենքեր
շենքերը
շենքերի
շենքերից
շենքը
շենքի
շենքն
շենքում
շեշտը
շեշտում
շեշտված
շեր
շերլոկ
շերտ
շերտավոր
շերտեր
շերտերը
շերտերի
շերտերով
շերտերում
շերտը
շերտի
շերտով
շեքսպիր
շեքսպիրի
շի
շիա
շիդա
շիլլերի
շիկահեր
շին
շինած
շինանյութերի
շինարար
շինարարական
շինարարության
շինարարություն
շինարարությունը
շինարարությունն
շինել
շինեց
շինծու
շինության
շինություն
շինությունը
շինություններ
շինությունները
շինությունների
շինություններից
շինում
շինված
շիշ
շիտակ
շիրազ
շիրազի
շիրակ
շիրակացի
շիրակացու
շիրակի
շիրվանզադե
շիրվանզադեի
շլիմանը
շղթա
շղթայական
շղթայի
շղթան
շմադել
շներ
շները
շների
շներին
շնորհ
շնորհալի
շնորհակալ
շնորհակալություն
շնորհանդեսը
շնորհել
շնորհելու
շնորհեց
շնորհիվ
շնորհում
շնորհվել
շնորհվեց
շնորհվում
շնորհք
շնչառական
շնչառության
շնչառություն
շնչառությունը
շնչի
շնչում
շշնջաց
շո
շոգ
շոթա
շոկոլադ
շոկոլադե
շոկոլադի
շող
շոն
շոշափելի
շոշափում
շոու
շոուի
շոուին
շոուն
շոուում
շոտլանդական
շոտլանդացի
շոտլանդիա
շոտլանդիայի
շոտլանդիայում
շոր
շորերը
շու
շուկա
շուկայական
շուկայի
շուկայում
շուկան
շուկաների
շուկաներում
շումեյկերի
շուն
շունը
շունչ
շունչը
շուշան
շուշանիկ
շուշի
շուշիի
շուշիում
շուռ
շուտ
շուտով
շուրջ
շուրջը
շուրջն
շվեդ
շվեդական
շվեդերեն
շվեդիա
շվեդիայի
շվեդիայում
շվեդիան
շվեյցարական
շվեյցարացի
շվեյցարիա
շվեյցարիայի
շվեյցարիայում
շվեյցարիան
շտ
շտաբ
շտաբը
շտաբի
շտապ
շտապել
շտապեց
շտապով
շտապում
շտեմարան
շտեֆի
շտուտգարտի
շրթունքները
շրի
շրջագայել
շրջագայության
շրջագայություն
շրջագայությունը
շրջադարձ
շրջադարձային
շրջակա
շրջակայք
շրջակայքը
շրջակայքի
շրջակայքում
շրջան
շրջանագծի
շրջանակ
շրջանակը
շրջանակի
շրջանակների
շրջանակներում
շրջանակում
շրջանաձև
շրջանային
շրջանառության
շրջանառությունը
շրջանավարտ
շրջանավարտների
շրջանը
շրջանի
շրջանին
շրջանից
շրջանն
շրջաններ
շրջանները
շրջանների
շրջաններին
շրջաններից
շրջաններում
շրջանով
շրջանում
շրջանցել
շրջանցելով
շրջապատել
շրջապատի
շրջապատող
շրջապատում
շրջապատված
շրջափակման
շրջափակված
շրջել
շրջիկ
շրջկենտրոն
շրջկենտրոնից
շրջկենտրոնն
շրջկոմի
շրջում
շրջված
շփման
շփոթել
շփոթված
շփում
շփումը
շփվել
շփվում
շքանշան
շքանշանը
շքանշանի
շքանշաններով
շքանշանով
շքեղ
շքերթ
շքերթը
շքերթի
շքերթներում
շքերթում
շևչենկոյի
ո
ոգեշնչել
ոգեշնչման
ոգեշնչված
ոգեշնչվել
ոգի
ոգին
ոգով
ոգու
ոգևորված
ոլորտ
ոլորտը
ոլորտի
ոլորտները
ոլորտների
ոլորտներում
ոլորտում
ողբ
ողբերգական
ողբերգության
ողբերգություն
ողբերգությունը
ողնաշարի
ողնուղեղի
ողողում
ողորմելի
ողջ
ողջույն
ողջունում
ոճ
ոճաբանական
ոճական
ոճավորված
ոճբ
ոճերի
ոճը
ոճի
ոճին
ոճով
ոճում
ոմանց
ոմանք
ոմն
ոնց
ոչ
ոչինչ
ոչխար
ոչխարի
ոչխարների
ոչնչացման
ոչնչացնել
ոչնչացնելու
ոչնչացնում
ոչնչացում
ոչնչացումը
ոչնչացվել
ոչնչացրել
ոչնչով
ոռոգման
ոս
ոսկանյան
ոսկե
ոսկեգույն
ոսկեզօծ
ոսկերչական
ոսկերչյան
ոսկի
ոսկին
ոսկյա
ոսկով
ոսկորները
ոսկորների
ոսկու
ոսկուց
ոսկրային
ոսկրերի
ոսկրի
ոստիկան
ոստիկանական
ոստիկանը
ոստիկանի
ոստիկանները
ոստիկանների
ոստիկանության
ոստիկանությանը
ոստիկանություն
ոստիկանությունը
ով
ովքեր
ոտ
ոտը
ոտի
ոտնաչափ
ոտները
ոտք
ոտքեր
ոտքերը
ոտքերի
ոտքերով
ոտքը
ոտքի
ոտքով
որ
որակ
որակական
որակավորման
որակավորում
որակը
որակի
որակյալ
որակով
որբ
որդեգրել
որդի
որդին
որդիներ
որդիները
որդիների
որդիներին
որդիներից
որդիք
որդու
որդուն
որեւէ
որը
որի
որին
որից
որմնանկարները
որմնանկարների
որն
որո
որոնել
որոնելու
որոնման
որոնողական
որոնում
որոնումները
որոնումների
որոնց
որոնցից
որոնցով
որոնցում
որոնք
որոշ
որոշակի
որոշակիորեն
որոշել
որոշելով
որոշելու
որոշեց
որոշեցին
որոշիչ
որոշմամբ
որոշման
որոշմանը
որոշները
որոշող
որոշում
որոշումը
որոշումն
որոշումներ
որոշումները
որոշումների
որոշված
որոշվել
որոշվեց
որոշվում
որով
որովայնային
որովայնի
որովհետեւ
որովհետև
որում
որուն
որչափ
որպես
որպեսզի
որպէս
որպիսի
որս
որսալ
որսը
որսի
որսորդ
որսորդական
որսորդը
որսորդության
որսում
որտե
որտեղ
որտեղի
որտեղից
որք
որքա
որքան
որքանով
որևէ
որևիցե
ու
ուայթ
ուդմուրթական
ուելս
ուելսի
ուեյն
ուեֆա
ուզած
ուզբեկական
ուզբեկստանի
ուզեր
ուզեց
ուզում
ութ
ութերորդ
ուժ
ուժային
ուժասպառ
ուժգին
ուժեղ
ուժեղագույն
ուժեղանում
ուժեղացման
ուժեղացնում
ուժեր
ուժերը
ուժերի
ուժերին
ուժերից
ուժերն
ուժերով
ուժերում
ուժը
ուժի
ուժն
ուժով
ուիլ
ուիլիամ
ուիլյամ
ուիլյամս
ուիլյամսը
ուիլյամսի
ուիլսոն
ուիլսոնը
ուիմբլդոնի
ուինսթոն
ուլյանովսկի
ուլտրաձայնային
ուլտրամանուշակագույն
ուխտ
ուխտի
ուկր
ուկրաինա
ուկրաինական
ուկրաինայի
ուկրաինայում
ուկրաինան
ուկրաինացի
ուկրաիներեն
ուղարկել
ուղարկելով
ուղարկելու
ուղարկեց
ուղարկեցին
ուղարկում
ուղարկված
ուղարկվել
ուղարկվեց
ուղարկվում
ուղեծիրը
ուղեծրային
ուղեծրի
ուղեծրին
ուղեծրով
ուղեկից
ուղեկցել
ուղեկցող
ուղեկցությամբ
ուղեկցում
ուղեկցվել
ուղեկցվում
ուղեղ
ուղեղային
ուղեղը
ուղեղի
ուղեղում
ուղեցույց
ուղի
ուղիղ
ուղին
ուղիներ
ուղիները
ուղիների
ուղիով
ուղղագիծ
ուղղագրական
ուղղագրութեամբ
ուղղակի
ուղղակիորեն
ուղղահայաց
ուղղաձիգ
ուղղանկյուն
ուղղափառ
ուղղել
ուղղեց
ուղղիչ
ուղղությամբ
ուղղության
ուղղություն
ուղղությունը
ուղղություններ
ուղղությունները
ուղղությունների
ուղղություններից
ուղղություններով
ուղղում
ուղղված
ուղղվածության
ուղղվածություն
ուղղվում
ուղու
ուղևոր
ուղևորների
ուղևորության
ուղևորություն
ուղևորվել
ուղևորվեց
ուղևորվում
ում
ուն
ունակ
ունակության
ունակություն
ունակությունը
ունակությունները
ունակությունների
ունե
ունեի
ունեին
ունեմ
ունեն
ունենա
ունենալ
ունենալը
ունենալով
ունենալու
ունենալուց
ունենան
ունենար
ունենում
ունենք
ունես
ուներ
ունեցած
ունեցան
ունեցավ
ունեցել
ունեցող
ունեցողների
ունեցվածքը
ունեցվածքի
ունեք
ունէր
ունի
ունիմ
ունին
ունինք
ունիս
ունիվերսալ
ունևոր
ուշ
ուշագրավ
ուշադիր
ուշադրությամբ
ուշադրության
ուշադրություն
ուշադրությունը
ուշացած
ուշքի
ուոլթ
ուոլթեր
ուորեն
ուռուցիկ
ուռուցք
ուռուցքային
ուռուցքի
ուռուցքների
ուս
ուսա
ուսանել
ուսանելու
ուսանող
ուսանողական
ուսանողի
ուսանողներ
ուսանողները
ուսանողների
ուսանողներին
ուսերը
ուսերին
ուսի
ուսին
ուսման
ուսմունք
ուսմունքը
ուսմունքի
ուսում
ուսումը
ուսումն
ուսումնական
ուսումնառության
ուսումնասիրել
ուսումնասիրելով
ուսումնասիրելու
ուսումնասիրման
ուսումնասիրող
ուսումնասիրողների
ուսումնասիրութեան
ուսումնասիրությամբ
ուսումնասիրության
ուսումնասիրությանը
ուսումնասիրություն
ուսումնասիրությունը
ուսումնասիրություններ
ուսումնասիրությունները
ուսումնասիրությունների
ուսումնասիրում
ուսումնասիրված
ուսումնասիրվել
ուսումնասիրվում
ուսումնարան
ուսումնարանը
ուսումնարանի
ուսումնարանում
ուսուցանել
ուսուցիչ
ուսուցիչը
ուսուցիչներ
ուսուցիչները
ուսուցիչների
ուսուցման
ուսուցողական
ուսուցում
ուսուցումը
ուսուցչական
ուսուցչի
ուսուցչուհի
ուստ
ուստի
ուտել
ուտելի
ուտելիք
ուտելիքի
ուտելու
ուտեստ
ուտեստը
ուտի
ուտող
ուտում
ուր
ուրալ
ուրալի
ուրախ
ուրախանում
ուրախությամբ
ուրախության
ուրախություն
ուրախությունը
ուրախությունից
ուրանի
ուրարտական
ուրբաթ
ուրեմն
ուրիշ
ուրիշը
ուրիշի
ուրիշին
ուրիշներ
ուրիշները
ուրիշների
ուրիշներին
ուրմիա
ուրուգվայ
ուրուգվայի
ուրույն
ուրվական
ուրվականը
ուրֆայի
ոք
ոքի
չ
չա
չակ
չայկովսկու
չան
չանի
չանցած
չաշխատող
չար
չարագործ
չարագուշակ
չարաճճի
չարաչար
չարենց
չարենցը
չարենցի
չարը
չարթերում
չարթում
չարի
չարիք
չարլզ
չարլի
չարորակ
չափ
չափազանց
չափածո
չափահաս
չափանիշ
չափանիշները
չափանիշների
չափանիշներին
չափանիշներով
չափավոր
չափել
չափելու
չափեր
չափերը
չափերի
չափերն
չափերով
չափը
չափի
չափից
չափման
չափով
չափում
չափումների
չափս
չափսերը
չափսերի
չափսերով
չափվում
չգիտե
չգիտեմ
չգիտես
չգիտեր
չգիտի
չե
չեզոք
չեզոքը
չելսի
չելսիի
չեխ
չեխական
չեխերեն
չեխիա
չեխիայի
չեխիայում
չեխոսլովակիա
չեխոսլովակիայի
չեխով
չեխովը
չեխովի
չեկավ
չեղավ
չեղարկել
չեղյալ
չեմ
չեմպիոն
չեմպիոնական
չեմպիոնը
չեմպիոնի
չեմպիոնների
չեն
չենք
չեռնիգովի
չեռնիխի
չեռնոգորիայի
չեռնովցիի
չես
չեր
չեք
չէ
չէի
չէին
չէինք
չէր
չը
չժհ
չի
չիլի
չիլիի
չիլինգարյան
չիլիում
չիկագո
չիկագոյի
չիկագոյում
չիմանալով
չին
չինական
չինաստան
չինաստանը
չինաստանի
չինաստանից
չինաստանում
չինարեն
չինացի
չլինել
չլինելով
չլիներ
չլինի
չկա
չկային
չկան
չկար
չկարողանալով
չկարողացա
չկարողացան
չկարողացավ
չհաշված
չհաջողվեց
չճշտված
չմնաց
չնայած
չնայելով
չնչին
չո
չոն
չոր
չորային
չորացած
չորացնում
չորացրած
չորեքշաբթի
չորս
չորսը
չորրորդ
չորրորդը
չու
չուն
չունեին
չունեմ
չունեն
չունենալ
չունենալով
չունենք
չուներ
չունեցավ
չունեցող
չունի
չունիմ
չունքի
չպատասխանեց
չպետք
չպիտի
չվերթներ
չվող
չտալ
չտվեց
չքավ
չքավոր
չքնաղ
պ
պա
պաբլո
պալատ
պալատական
պալատը
պալատի
պալատից
պալատների
պալատում
պալոմարում
պակ
պակաս
պակասը
պակասի
պակասում
պակիստան
պակիստանի
պակիստանում
պահ
պահած
պահակ
պահանջ
պահանջարկ
պահանջարկը
պահանջարկի
պահանջել
պահանջելով
պահանջեց
պահանջը
պահանջի
պահանջկոտ
պահանջմունքների
պահանջներ
պահանջները
պահանջների
պահանջներին
պահանջող
պահանջով
պահանջում
պահանջվել
պահանջվող
պահանջվում
պահապան
պահել
պահելով
պահելու
պահեստ
պահեստային
պահեստի
պահեր
պահեց
պահը
պահի
պահին
պահից
պահող
պահում
պահուն
պահուստային
պահպանակը
պահպանել
պահպանելով
պահպանելու
պահպանեց
պահպանման
պահպանմանը
պահպանողական
պահպանության
պահպանում
պահպանումը
պահպանված
պահպանվել
պահպանվող
պահպանվում
պահված
պահվածքը
պահվել
պահվող
պահվում
պաղ
պաղեստին
պաղեստինի
պաղեստինյան
պաղեստինում
պայ
պայթյուն
պայթյունի
պայթյունից
պայթուցիկ
պայծառ
պայման
պայմանագիր
պայմանագիրը
պայմանագրային
պայմանագրեր
պայմանագրերը
պայմանագրերի
պայմանագրի
պայմանագրով
պայմանական
պայմանականորեն
պայմանավորում
պայմանավորված
պայմանավորվել
պայմանը
պայմաններ
պայմանները
պայմանների
պայմաններին
պայմաններից
պայմաններով
պայմաններում
պայմանով
պայքար
պայքարել
պայքարելու
պայքարը
պայքարի
պայքարին
պայքարից
պայքարն
պայքարող
պայքարում
պան
պանամա
պանամայի
պանի
պանիր
պանիրը
պանրի
պաշ
պաշար
պաշարել
պաշարը
պաշարման
պաշարներ
պաշարները
պաշարների
պաշարում
պաշարումը
պաշարված
պաշտամունքային
պաշտամունքը
պաշտամունքի
պաշտանվ
պաշտոն
պաշտոնաթող
պաշտոնական
պաշտոնակատար
պաշտոնանկ
պաշտոնապես
պաշտոնավարել
պաշտոնավարման
պաշտոնատար
պաշտոնը
պաշտոնի
պաշտոնին
պաշտոնից
պաշտոնյա
պաշտոնյաներ
պաշտոնյաները
պաշտոնյաների
պաշտոնն
պաշտոններ
պաշտոնները
պաշտոններում
պաշտոնում
պաշտում
պաշտպան
պաշտպանական
պաշտպանել
պաշտպանելով
պաշտպանելու
պաշտպանը
պաշտպանի
պաշտպանիչ
պաշտպանների
պաշտպանող
պաշտպանողական
պաշտպանությամբ
պաշտպանության
պաշտպանությանը
պաշտպանություն
պաշտպանությունը
պաշտպանում
պաշտպանված
պաշտպանվել
պաշտպանվելու
պաշտպանվում
պաոլո
պաուլ
պաուլո
պաուլու
պապ
պապական
պապեն
պապերի
պապը
պապի
պապիկը
պապիկի
պապիկյան
պապին
պապն
պառավ
պառավը
պառավի
պառլամենտի
պառկած
պառկել
պաս
պասիվ
պավել
պավլովիչ
պատ
պատած
պատահաբար
պատահած
պատահական
պատահականորեն
պատահար
պատահարի
պատահել
պատահեց
պատահի
պատահում
պատանդ
պատանեկան
պատանեկության
պատանի
պատանին
պատանիների
պատանու
պատառ
պատասխան
պատասխանատու
պատասխանատվության
պատասխանատվություն
պատասխանատվությունը
պատասխանել
պատասխանելու
պատասխանեց
պատասխանեցի
պատասխանը
պատասխանի
պատասխաններ
պատասխանները
պատասխանում
պատարագ
պատարագի
պատգամավոր
պատգամավորական
պատգամավորներ
պատգամավորները
պատգամավորների
պատել
պատեր
պատերազմ
պատերազմական
պատերազմը
պատերազմի
պատերազմին
պատերազմից
պատերազմն
պատերազմներ
պատերազմները
պատերազմների
պատերազմներում
պատերազմող
պատերազմում
պատերը
պատերի
պատերին
պատերից
պատերով
պատը
պատժել
պատժի
պատի
պատիժ
պատիժը
պատին
պատիվ
պատիվը
պատից
պատկանել
պատկանելության
պատկանյան
պատկանող
պատկանում
պատկառելի
պատկեր
պատկերազարդ
պատկերասրահ
պատկերասրահը
պատկերասրահի
պատկերասրահում
պատկերավոր
պատկերացնել
պատկերացնում
պատկերացում
պատկերացումները
պատկերացումների
պատկերել
պատկերը
պատկերի
պատկերման
պատկերն
պատկերներ
պատկերները
պատկերների
պատկերներով
պատկերող
պատկերով
պատկերում
պատկերված
պատկերվել
պատկերվում
պատճառ
պատճառաբանելով
պատճառել
պատճառը
պատճառի
պատճառն
պատճառներ
պատճառները
պատճառների
պատճառներից
պատճառներն
պատճառներով
պատճառող
պատճառով
պատճառում
պատճեն
պատճենը
պատմ
պատմա
պատմաբան
պատմաբանասիրական
պատմաբաններ
պատմաբանները
պատմաբանների
պատմագրության
պատմական
պատմականորեն
պատմամշակութային
պատմել
պատմելով
պատմեց
պատմիչ
պատմող
պատմութեան
պատմութիւն
պատմությամբ
պատմության
պատմությանը
պատմություն
պատմությունը
պատմությունից
պատմությունն
պատմություններ
պատմությունները
պատմությունների
պատմում
պատմվածք
պատմվածքը
պատմվածքի
պատմվածքներ
պատմվածքները
պատմվածքների
պատմվածքում
պատմվում
պատնեշ
պատշաճ
պատուհան
պատուհանը
պատուհանի
պատուհանից
պատուհաններ
պատուհանները
պատուհանների
պատում
պատված
պատվական
պատվանդանի
պատվավոր
պատվել
պատվեր
պատվերը
պատվերներ
պատվերով
պատվի
պատվին
պատվիրակ
պատվիրակության
պատվիրակությունը
պատվիրել
պատվիրեց
պատվիրում
պատվո
պատվոգիր
պատրանք
պատրաստ
պատրաստած
պատրաստել
պատրաստելու
պատրաստեց
պատրաստի
պատրաստման
պատրաստող
պատրաստության
պատրաստություն
պատրաստում
պատրաստումը
պատրաստված
պատրաստվել
պատրաստվող
պատրաստվում
պատրիարք
պատրիկ
պատրվակով
պար
պարագայում
պարագաներ
պարագվայի
պարաիբա
պարամետրերի
պարամետրը
պարային
պարան
պարանոցը
պարանոցի
պարապ
պարապել
պարապում
պարարվեստի
պարբերաբար
պարբերական
պարբերականը
պարբերականի
պարբերականների
պարբերականներում
պարգեվատրելու
պարգև
պարգևատրել
պարգևատրելու
պարգևատրման
պարգևատրում
պարգևատրվել
պարգևատրվում
պարգևելով
պարգևը
պարգևի
պարգևներ
պարգևների
պարել
պարենի
պարեր
պարերը
պարերի
պարզ
պարզագույն
պարզապես
պարզել
պարզելու
պարզեցված
պարզում
պարզունակ
պարզվել
պարզվեց
պարզվում
պարը
պարթև
պարթևական
պարի
պարիս
պարիսպները
պարիսպների
պարկ
պարկեշտ
պարկեր
պարկերի
պարկը
պարկի
պարկում
պարող
պարոն
պարոնը
պարոնյան
պարոնյանի
պարուհի
պարում
պարույր
պարունակել
պարունակող
պարունակությամբ
պարունակության
պարունակությունը
պարունակում
պարունակվող
պարունակվում
պարուրաձև
պարսիկ
պարսիկները
պարսիկների
պարսից
պարսկական
պարսկաստան
պարսկաստանի
պարսկաստանում
պարսկերեն
պարսպի
պարտադիր
պարտական
պարտականությունը
պարտականությունները
պարտականությունների
պարտավոր
պարտավորությունները
պարտավորությունների
պարտավորվում
պարտեզ
պարտեզի
պարտիզակ
պարտիզանական
պարտությամբ
պարտության
պարտություն
պարտությունը
պարտությունից
պարտված
պարտվել
պարտվելով
պարտվեց
պարտվում
պարտք
պարտքերը
պարտքերի
պարտքը
պարտքի
պացիենտների
պբ
պե
պեդրո
պեկին
պեկինի
պեկինում
պեղումներ
պեղումները
պեղումների
պենզայի
պեչարսկի
պեչորա
պես
պետ
պետական
պետականության
պետեր
պետերբուրգ
պետերբուրգի
պետերբուրգյան
պետերբուրգում
պետը
պետի
պետհրատ
պետության
պետությանը
պետություն
պետությունը
պետությունն
պետություններ
պետությունները
պետությունների
պետություններին
պետություններից
պետություններում
պետությունում
պետր
պետրոգրադի
պետրոս
պետրոսը
պետրոսի
պետրոսյան
պետրոսյանը
պետրոսյանի
պետրով
պետրովիչ
պետք
պեր
պերճ
պերմի
պերու
պերուի
պերվոմայսկի
պզտիկ
պէյրութ
պէս
պէտք
պըտի
պի
պիեմոնտ
պիեռ
պիես
պիեսը
պիեսի
պիեսներ
պիեսները
պիեսների
պիեսում
պիետրո
պիեր
պիկ
պիկասոյի
պիկարդիա
պիկարդիայի
պինդ
պիոներ
պիոս
պիտ
պիտակ
պիտանի
պիտեր
պիտի
պիրենեյան
պլազմայի
պլան
պլանավորել
պլանավորման
պլանավորում
պլանավորված
պլանը
պլանի
պլանկի
պլանները
պլանների
պլանում
պլաստիկ
պլատինե
պլատոնի
պլյուս
պղինձ
պղնձե
պղնձի
պղպեղ
պղտոր
պյարնումաա
պյոտր
պն
պնդել
պնդելով
պնդեց
պնդմամբ
պնդում
պնդումը
պո
պոակ
պոեզիա
պոեզիայի
պոեզիայում
պոեզիան
պոեմ
պոեմը
պոեմի
պոեմներ
պոեմում
պոետ
պոետի
պոլ
պոլիգրաֆիական
պոլինա
պոլիս
պոլիտեխնիկական
պոլյանա
պոլսի
պոլսում
պոլտավայի
պոկել
պոկում
պողոս
պողոսի
պողոսյան
պողոսյանը
պողոտա
պողոտայի
պողոտայում
պողոտան
պողպատե
պողպատի
պոն
պոնտոսի
պոչ
պոչը
պոչի
պոչինկովսկի
պոպուլյացիայի
պոտենցիալ
պոտենցիալը
պորտ
պորտալ
պորտու
պորտուգալական
պորտուգալացի
պորտուգալերեն
պորտուգալիա
պորտուգալիայի
պորտուգալիայում
պորտուգալիան
պու
պուատիե
պուատու
պուերտո
պուճուր
պուշկին
պուշկինը
պուշկինի
պուտինը
պուտինի
պուրակ
պուրակում
պռոշյան
պսակ
պսակը
պսակի
պսակված
պսկովի
պտի
պտղաբերության
պտղաբերում
պտղատու
պտղի
պտուղ
պտուղը
պտուղներ
պտուղները
պտուղների
պտույտ
պտույտի
պտտման
պտտվող
պտտվում
պրակ
պրակտիկ
պրակտիկա
պրակտիկայի
պրակտիկայում
պրակտիկան
պրահա
պրահայի
պրահայում
պրավդա
պրեմիեր
պրեմիերա
պրեմիերան
պրեֆեկտուրայի
պրեֆեկտուրայում
պրի
պրիի
պրինտ
պրոդյուսեր
պրոդյուսերական
պրոդյուսերը
պրոդյուսերն
պրոդյուսերներ
պրոլետարական
պրոլետարիատի
պրովանս
պրովանսի
պրովինցիա
պրովինցիայի
պրովինցիայում
պրոցես
պրոցեսը
պրոցեսի
պրոցեսները
պրոցեսների
պրոցեսում
պրուսական
պրուսիայի
պրոֆ
պրոֆեսիոնալ
պրոֆեսոր
պրոֆեսորը
պրոֆեսորի
պրոֆիլը
ջ
ջա
ջազ
ջազային
ջազի
ջալալ
ջախջախել
ջախջախեց
ջախջախիչ
ջակոմո
ջահել
ջան
ջանիկի
ջանք
ջանքեր
ջանքերը
ջանքերի
ջանքերով
ջասթին
ջավախք
ջավախքի
ջարդել
ջարդերի
ջարդում
ջարդված
ջե
ջեկ
ջեյ
ջեյմի
ջեյմս
ջեյմսը
ջեյմսի
ջեյն
ջեյսոն
ջենիֆեր
ջեսիկա
ջեր
ջերեմի
ջերի
ջերմ
ջերմային
ջերմաստիճան
ջերմաստիճանային
ջերմաստիճանը
ջերմաստիճանի
ջերմաստիճանից
ջերմաստիճանների
ջերմաստիճանում
ջերմությամբ
ջերմության
ջերմություն
ջերմությունը
ջերսի
ջեք
ջեքը
ջեքի
ջեքին
ջեքսոն
ջեքսոնը
ջեքսոնի
ջեֆ
ջեֆրի
ջի
ջիմ
ջիմի
ջին
ջինի
ջինջ
ջիվանի
ջհանգիրյան
ջնջել
ջո
ջոան
ջոել
ջոզեֆ
ջոկ
ջոկատ
ջոկատը
ջոկատի
ջոկատներ
ջոկատները
ջոկատների
ջոն
ջոնաթան
ջոնգ
ջոնը
ջոնի
ջոնին
ջոնս
ջոնսը
ջոնսի
ջոնսոն
ջոնսոնը
ջոնսոնի
ջոշ
ջովանի
ջովաննի
ջորդան
ջորջ
ջորջը
ջորջի
ջորջիա
ջորջո
ջու
ջուդի
ջուզեպպե
ջութակ
ջութակահար
ջութակի
ջուլի
ջուլիա
ջուլիան
ջուլիետ
ջուղա
ջուղայի
ջուն
ջունգ
ջուր
ջուրը
ջուրն
ջրաերկրաբանական
ջրածնի
ջրամատակարարման
ջրամբար
ջրամբարը
ջրամբարի
ջրային
ջրանցք
ջրանցքը
ջրանցքի
ջրառատ
ջրատար
ջրատնտեսային
ջրբաշյան
ջրբերկ
ջրեր
ջրերը
ջրերի
ջրերով
ջրերում
ջրի
ջրիմուռների
ջրից
ջրով
ջրում
ջրվեժ
ջրվեժը
ջրվեժի
ռ
ռա
ռաբինովիչ
ռադայի
ռադիո
ռադիոակտիվ
ռադիոկայան
ռադիոկայանի
ռադիոյի
ռադիոյով
ռադիոյում
ռազմ
ռազմա
ռազմագերիների
ռազմագիտական
ռազմածովային
ռազմական
ռազմաճակատ
ռազմաճակատի
ռազմաճակատում
ռազմավարական
ռազմավարության
ռազմավարություն
ռազմավարությունը
ռազմաքաղաքական
ռազմաօդային
ռազմիկ
ռալֆ
ռակետ
ռայան
ռան
ռաշիդ
ռաուլ
ռաունդի
ռաունդում
ռասայական
ռասայի
ռասաների
ռասել
ռացիոնալ
ռափայել
ռաֆայել
ռաֆայելի
ռաֆիկ
ռդ
ռե
ռեալ
ռեալի
ռեալիզմի
ռեալիթի
ռեալիստական
ռեակտիվ
ռեակցիա
ռեակցիայի
ռեակցիան
ռեակցիաներ
ռեակցիաները
ռեակցիաների
ռեբեկա
ռեգբիի
ռեդ
ռեժ
ռեժիմ
ռեժիմը
ռեժիմի
ռեժիսոր
ռեժիսորական
ռեժիսորը
ռեժիսորի
ռեժիսորն
ռեժիսորներ
ռեժիսորների
ռեժիսուրայի
ռել
ռելիեֆը
ռելիեֆի
ռեկորդ
ռեկորդակիր
ռեկորդային
ռեկորդը
ռեկորդների
ռեկտոր
ռեմիքս
ռեյ
ռեյը
ռեյի
ռեյնմուտի
ռեյչել
ռենե
ռենտգեն
ռենտգենյան
ռեչ
ռեպինի
ռեսուրսներ
ռեսուրսները
ռեսուրսների
ռեստորան
ռեստորանը
ռեստորանի
ռեստորաններ
ռեստորանում
ռետինե
ռեփ
ռեփեր
ռիգա
ռիգայի
ռիգայում
ռիթմ
ռիթմը
ռիթմի
ռիթմիկ
ռիխարդ
ռիկ
ռիկայի
ռիկարդո
ռիո
ռիոխա
ռիու
ռիչարդ
ռիչարդը
ռիսկ
ռիսկային
ռիսկերի
ռիսկը
ռիսկի
ռիվեր
ռիտա
ռխֆսհ
ռկ
ռմբարկու
ռմբարկուն
ռյազանի
ռնթ
ռշլ
ռո
ռոբ
ռոբեր
ռոբերտ
ռոբերտը
ռոբերտի
ռոբերտո
ռոբին
ռոբոտ
ռոդ
ռոզա
ռոզենտալի
ռոմա
ռոմայի
ռոման
ռոմանական
ռոմանիա
ռոմանոս
ռոմանտիզմի
ռոմանտիկ
ռոմանտիկական
ռոմեո
ռոյ
ռոն
ռոնալդ
ռոուզ
ռոջեր
ռոս
ռոսիա
ռոսլավլսկի
ռոստով
ռոստովի
ռոստովում
ռու
ռուբեն
ռուբենը
ռուբենի
ռուբենսի
ռուբին
ռուբլի
ռուբլու
ռուդոլֆ
ռուզան
ռուզաննա
ռուզվելտը
ռուզվելտի
ռութ
ռում
ռումբ
ռումբի
ռումինական
ռումինացի
ռումիներեն
ռումինիա
ռումինիայի
ռումինիայում
ռումինիան
ռուս
ռուսալեզու
ռուսական
ռուսաստան
ռուսաստանը
ռուսաստանի
ռուսաստանին
ռուսաստանից
ռուսաստանյան
ռուսաստանում
ռուսաստանցի
ռուսաց
ռուսերեն
ռուսերենից
ռուսիայի
ռուսլան
ռուսներ
ռուսները
ռուսների
ռոք
ռոքի
ռսդբկ
ռսֆսհ
ռօու
ս
սա
սաարեմաա
սաթենիկ
սալ
սալահ
սալոնիկի
սալվադոր
սալվադորի
սակ
սակայն
սակավ
սակավաթիվ
սահակ
սահակյան
սահակյանը
սահակյանի
սահինյան
սահման
սահմանադրական
սահմանադրությամբ
սահմանադրության
սահմանադրություն
սահմանադրությունը
սահմանած
սահմանակից
սահմանակցում
սահմանամերձ
սահմանային
սահմանապահ
սահմանափակ
սահմանափակել
սահմանափակման
սահմանափակում
սահմանափակումներ
սահմանափակումները
սահմանափակումների
սահմանափակված
սահմանափակվել
սահմանափակվում
սահմանել
սահմանելով
սահմանելու
սահմանեց
սահմանը
սահմանի
սահմանին
սահմանից
սահմանման
սահմանն
սահմաններ
սահմանները
սահմանների
սահմաններից
սահմաններում
սահմանում
սահմանումը
սահմանված
սահմանվել
սահմանվում
սահյան
սահուն
սաղ
սաղավարտի
սաղմնային
սամարայի
սամեգրելո
սամուել
սամսոն
սամվել
սամվելը
սամվելի
սամցխե
սայադյան
սայաթ
սայդինգ
սայմոն
սան
սանթոյան
սանիտարական
սանկտ
սանչես
սանչո
սանչոն
սանտ
սանտա
սանտիմետր
սանտյագո
սանտու
սաշա
սաուդյան
սաունդթրեք
սաունդթրեքը
սառա
սառած
սառան
սառը
սառն
սառույց
սառույցը
սառույցի
սառցե
սասանյան
սասնա
սասուն
սասունի
սասունցի
սաստիկ
սատանա
սատանայական
սատանայի
սատանան
սատանի
սատարել
սատարում
սատուրն
սատուրնի
սար
սարահարթի
սարատովի
սարգիս
սարգիսը
սարգսի
սարգսյան
սարգսյանը
սարգսյանի
սարգսյանին
սարդ
սարդինիա
սարերը
սարերի
սարը
սարի
սարկավագ
սարյան
սարյանը
սարյանի
սարոյան
սարսափ
սարսափելի
սարսափի
սարք
սարքած
սարքավորումներ
սարքավորումները
սարքավորումների
սարքել
սարքեր
սարքերը
սարքերի
սարքը
սարքի
սաքսոնիա
սաքսոնիայի
սբ
սգո
սե
սեբաստիա
սեբաստիայի
սեբաստիան
սեդա
սեդրակ
սեդրակյան
սեզար
սեզոնային
սեզոնը
սեզոնի
սեզոնում
սեթ
սեթում
սել
սելեցկի
սելջուկ
սելջուկյան
սեկտորի
սեղան
սեղանը
սեղանի
սեղանին
սեղմ
սեղմել
սեղմելով
սեղմեց
սեղմում
սեղմված
սեմ
սեմական
սեմը
սեմի
սեմին
սեմյոն
սեմյուել
սեյմի
սեյու
սեյսմիկ
սեյրան
սեն
սենատը
սենատի
սենատոր
սենատում
սենթ
սենյակ
սենյակը
սենյակի
սենյակից
սենյակներ
սենյակները
սենյակների
սենյակներից
սենյակում
սենտ
սեուլ
սեուլի
սեուլում
սեպագիր
սեպաձև
սեպուհ
սեպտեմբեր
սեպտեմբերի
սեպտեմբերին
սեպտեմբերից
սեռ
սեռական
սեռերի
սեռը
սեռի
սեր
սերբ
սերբական
սերբերեն
սերբերի
սերբիա
սերբիայի
սերբիայում
սերբիան
սերգեյ
սերգեյի
սերգեևիչ
սերենա
սերը
սերժ
սերժանտ
սերիա
սերիալ
սերիալը
սերիալի
սերիալներում
սերիալում
սերիական
սերիայի
սերիայում
սերիան
սերիաներ
սերիաների
սերմ
սերմեր
սերմերը
սերմերի
սերմերով
սերն
սերնդի
սերո
սերում
սերունդ
սերունդը
սերունդները
սերունդների
սերտ
սերտորեն
սեւ
սեփական
սեփականատեր
սեփականատերերի
սեփականատերը
սեփականատիրոջ
սեփականության
սեփականություն
սեփականությունը
սեքս
սեքսուալ
սը
սըր
սթենլի
սթենֆորդի
սթիվ
սթիվեն
սթրեսի
սի
սիբիր
սիբիրի
սիբիրյան
սիբիրում
սիդնեյ
սիդնեյի
սիդնի
սիթի
սիթիի
սիլյայում
սիլվա
սիկտիվկար
սիմ
սիմեոն
սիմետրիկ
սիմոն
սիմոնը
սիմոնի
սիմոնյան
սիմվոլիկ
սիմֆոնիա
սիմֆոնիայի
սիմֆոնիան
սիմֆոնիկ
սին
սինգապուր
սինգապուրի
սինգապուրում
սինգլ
սինգլը
սինգլի
սինգլն
սինգլներ
սինգլները
սինգլների
սինթեզը
սինթեզի
սինթեզվում
սինթետիկ
սիոնիստական
սիսիան
սիսիանի
սիրալիր
սիրած
սիրահար
սիրահարների
սիրահարված
սիրահարվել
սիրահարվում
սիրային
սիրանույշ
սիրավեպ
սիրել
սիրելի
սիրելին
սիրելիս
սիրիա
սիրիական
սիրիայի
սիրիայում
սիրիան
սիրո
սիրող
սիրողական
սիրով
սիրուհին
սիրում
սիրուն
սիրուց
սիրված
սիրտ
սիրտանոթային
սիրտդ
սիրտը
սիրտն
սիրտս
սիցիլիա
սիցիլիայի
սլավոնական
սլովակ
սլովակիա
սլովակիայի
սլովենիայի
սխալ
սխալը
սխալի
սխալմամբ
սխալներ
սխալները
սխալների
սխալվում
սխեման
սկանդալ
սկանդալային
սկանդալի
սկանդինավյան
սկավառակ
սկավառակը
սկավառակի
սկավառակների
սկզբանե
սկզբի
սկզբին
սկզբից
սկզբնական
սկզբնապես
սկզբնավորվել
սկզբներին
սկզբում
սկզբունք
սկզբունքային
[...]
