!
"
#
##0
##1
##10
##11
##12
##13
##14
##15
##16
##17
##18
##19
##2
##20
##21
##22
##23
##24
##25
##26
##27
##28
##29
##3
##30
##31
##32
##33
##34
##35
##36
##37
##38
##39
##4
##40
##41
##42
##43
##44
##45
##46
##47
##48
##49
##5
##50
##51
##52
##53
##54
##55
##56
##57
##58
##59
##6
##60
##61
##62
##63
##64
##65
##66
##67
##68
##69
##7
##70
##71
##72
##73
##74
##75
##76
##77
##78
##79
##8
##80
##81
##82
##83
##84
##85
##86
##87
##88
##89
##9
##90
##91
##92
##93
##94
##95
##96
##97
##98
##99
$
%
&
'
(
)
*
+
,
-
.
/
0
00
000
0000
001
002
003
004
005
006
007
008
009
01
010
011
012
013
015
019
02
03
030
031
035
04
045
05
06
07
08
081
09
1
10
100
1000
10000
100000
1001
1002
1003
1007
1008
1009
101
1010
1011
1012
1013
1014
1015
1016
1017
1018
1019
102
1020
1021
1022
1024
1025
1027
1029
103
1030
1031
1037
1038
104
1040
1042
1045
1048
105
1050
1054
1055
1058
106
1060
1065
1066
107
1070
1071
1072
1073
108
1080
1085
1086
109
1090
1093
1097
1098
1099
11
110
1100
1105
111
1111
1112
1113
1118
112
1120
1125
1127
113
1130
1136
114
1140
1145
1147
115
1150
1152
1154
116
1160
1166
117
1170
1173
118
1180
1184
1185
1187
1189
119
1190
1191
1193
1195
1198
12
120
1200
1201
1202
1203
1204
1205
1206
1207
1209
121
1210
1211
1212
1213
1214
1215
1216
1219
122
1220
1221
1225
1226
1227
1229
123
1230
1234
1236
1237
1238
124
1240
1241
1242
1243
1244
1246
1248
125
1250
1251
1254
1256
1258
126
1260
1261
1265
1266
1268
127
1270
1271
1272
1274
1276
1279
128
1280
1282
1284
1285
1286
1289
129
1290
1291
1292
1293
1296
1298
1299
13
130
1300
1301
1307
1308
131
1310
1311
1315
1316
132
1320
1321
1325
1327
133
1330
1332
1336
134
1340
1346
1347
1348
135
1350
1356
136
1360
1368
137
1370
1375
138
1380
1386
1389
139
1390
14
140
1400
1402
141
1410
142
1420
1425
1429
143
1430
144
1440
1441
145
1450
1453
1455
146
1460
1461
1465
1468
1469
147
1470
1471
1474
1475
1476
1477
1478
1479
148
1480
1481
1482
1483
1485
1487
1488
1489
149
1490
1492
1493
1494
1495
1496
1497
1498
1499
15
150
1500
15000
1501
1502
1503
1504
1505
1506
1507
1508
1509
151
1510
1511
1512
1513
1514
1515
1516
1517
1518
1519
152
1520
152000
1521
1522
1523
1524
1525
1526
1527
1528
1529
153
1530
1531
1532
1533
1534
1535
1536
1537
1538
1539
154
1540
1541
1542
1543
1545
1546
1547
1548
1549
155
1550
1551
1552
1553
1554
1555
1556
1557
1558
1559
156
1560
1561
1562
1563
1564
1565
1566
1567
1568
1569
157
1570
1571
1572
1573
1574
1575
1576
1577
1578
1579
158
1580
1581
1582
1583
1584
1585
1586
1587
1588
1589
159
1590
1591
1592
1593
1594
1595
1596
1597
1598
1599
16
160
1600
1601
1602
1603
1604
1605
1606
1607
1608
1609
161
1610
1611
1612
1613
1614
1615
1616
1617
1618
1619
162
1620
1621
1622
1623
1624
1625
1626
1627
1628
1629
163
1630
1631
1632
1633
1634
1635
1636
1637
1638
1639
164
1640
1641
1642
1643
1644
1645
1646
1647
1648
1649
165
1650
1651
1652
1653
1654
1655
1656
1657
1658
1659
166
1660
1661
1662
1663
1664
1665
1666
1667
1668
1669
167
1670
1671
1672
1673
1674
1675
1676
1677
1678
1679
168
1680
1681
1682
1683
1684
1685
1686
1687
1688
1689
169
1690
1691
1692
1693
1694
1695
1696
1697
1698
1699
17
170
1700
1701
1702
1703
1704
1705
1706
1707
1708
1709
171
1710
1711
1712
1713
1714
1715
1716
1717
1718
1719
172
1720
1721
1722
1723
1724
1725
1726
1727
1728
1729
173
1730
1731
1732
1733
1734
1735
1736
1737
1738
1739
174
1740
1741
1742
1743
1744
1745
1746
1747
1748
1749
175
1750
1751
1752
1753
1754
1755
1756
1757
1758
1759
176
1760
1761
1762
1763
1764
1765
1766
1767
1768
1769
177
1770
1771
1772
1773
1774
1775
1776
1777
1778
1779
178
1780
1781
1782
1783
1784
1785
1786
1787
1788
1789
179
1790
1791
1792
1793
1794
1795
1796
1797
1798
1799
18
180
1800
1801
1802
1803
1804
1805
1806
1807
1808
1809
181
1810
1811
1812
1813
1814
1815
1816
1817
1818
1819
182
1820
1821
1822
1823
1824
1825
1826
1827
1828
1829
183
1830
1831
1832
1833
1834
1835
1836
1837
1838
1839
184
1840
1841
1842
1843
1844
1845
1846
1847
1848
1849
185
1850
1851
1852
1853
1854
1855
1856
1857
1858
1859
186
1860
1861
1862
1863
1864
1865
1866
1867
1868
1869
187
1870
1871
1872
1873
1874
1875
1876
1877
1878
1879
188
1880
1881
1882
1883
1884
1885
1886
1887
1888
1889
189
1890
1891
1892
1893
1894
1895
1896
1897
1898
1899
19
190
1900
1901
1902
1903
1904
1905
1906
1907
1908
1909
191
1910
1911
1912
1913
1914
1915
1916
1917
1918
1919
192
1920
1921
1922
1923
1924
1925
1926
1927
1928
1929
193
1930
1931
1932
1933
1934
1935
1936
1937
1938
1939
194
1940
1941
1942
1943
1944
1945
1946
1947
1948
1949
195
1950
1951
1952
1953
1954
1955
1956
1957
1958
1959
196
1960
1961
1962
1963
1964
1965
1966
1967
1968
1969
197
1970
1971
1972
1973
1974
1975
1976
1977
1978
1979
198
1980
1981
1982
1983
1984
1985
1986
1987
1988
1989
199
1990
1991
1992
1993
1994
1995
1996
1997
1998
1999
2
20
200
2000
20000
2001
20012001
2002
2003
2004
2005
2006
2007
2008
2009
201
2010
2011
2012
2013
2014
2015
2016
2017
2018
2019
202
2020
2021
2022
2023
2024
2025
203
2030
204
205
2050
206
207
208
209
21
210
2100
211
212
213
214
215
216
217
218
219
22
220
2200
221
222
223
224
225
226
227
228
229
23
230
2300
231
232
233
234
235
236
237
238
2383265
239
24
240
2400
241
242
243
244
245
246
247
248
249
25
250
2500
25000
251
252
253
254
255
256
257
258
259
26
260
2600
261
262
263
264
265
266
267
268
269
27
270
2700
271
272
273
274
275
276
277
278
279
28
280
2800
281
282
283
284
285
286
287
288
289
29
290
291
292
293
294
295
296
297
298
299
3
30
300
3000
30000
301
302
303
304
305
306
307
308
309
31
310
311
312
313
314
315
316
317
318
319
32
320
3200
321
322
323
324
325
326
327
328
329
33
330
331
332
333
334
335
336
337
338
339
34
340
341
342
343
344
345
346
347
348
349
35
350
3500
351
352
353
354
355
356
357
358
359
36
360
3600
361
362
363
364
365
366
367
368
369
37
370
371
372
373
374
375
376
377
378
379
38
380
381
382
383
384
385
386
387
388
389
39
390
391
392
393
394
395
396
397
398
399
4
40
400
4000
401
402
403
404
405
406
407
408
409
41
410
411
412
413
414
415
416
417
418
419
42
420
421
422
423
424
425
426
427
428
429
43
430
431
432
433
434
435
436
437
438
439
44
440
441
442
443
444
445
446
447
448
449
45
450
4500
451
452
453
454
455
456
457
458
459
46
460
461
462
463
464
465
466
467
468
469
47
470
471
472
473
474
475
476
477
478
479
48
480
481
482
483
484
485
486
487
488
489
49
490
491
492
493
494
495
496
497
498
499
5
50
500
5000
50000
501
502
503
504
505
506
507
508
509
51
510
511
512
513
514
515
516
517
518
519
52
520
521
522
523
524
525
526
527
528
529
53
530
531
532
533
534
535
536
537
538
539
54
540
541
542
543
544
545
546
547
548
549
55
550
5500
551
552
553
554
555
5555
556
557
558
559
56
560
561
562
563
564
565
566
567
568
569
57
570
571
572
573
574
575
576
577
578
579
58
580
581
582
583
584
585
586
587
588
589
59
590
591
592
593
594
595
596
597
598
599
6
60
600
6000
601
602
603
604
605
606
607
608
609
61
610
611
612
613
614
615
616
617
618
619
62
620
621
622
623
624
625
626
627
628
629
63
630
631
632
633
634
635
636
637
638
639
64
640
641
642
643
644
645
646
647
648
649
65
650
651
652
653
654
655
656
657
658
659
66
660
661
662
663
664
665
666
667
668
669
67
670
671
672
673
674
675
676
677
678
679
68
680
681
682
683
684
685
686
687
688
689
69
690
691
692
693
694
695
696
697
698
699
7
70
700
7000
701
702
703
704
705
706
707
708
709
71
710
711
712
713
714
715
716
717
718
719
72
720
721
722
723
724
725
726
727
728
729
73
730
731
732
733
734
735
736
737
738
739
74
740
741
742
743
744
745
746
747
748
749
75
750
751
752
753
754
755
756
757
758
759
76
760
761
762
763
764
765
766
767
768
769
77
770
771
772
773
774
775
776
777
778
779
78
780
781
782
783
784
785
786
787
788
789
79
790
791
792
793
794
795
796
797
798
799
8
80
800
8000
801
802
803
804
805
806
807
808
809
81
810
811
812
813
814
815
816
817
818
819
82
820
821
822
823
824
825
826
827
828
829
83
830
831
832
833
834
835
836
837
838
839
84
840
841
842
843
844
845
846
847
848
849
85
850
851
852
853
854
855
856
857
858
859
86
860
861
862
863
864
865
866
867
868
869
87
870
871
872
873
874
875
876
877
878
879
88
880
881
882
883
884
885
886
887
888
889
89
890
891
892
893
894
895
896
897
898
899
9
90
900
9000
901
901724
902
903
904
905
906
907
908
909
91
910
911
912
913
914
915
916
917
918
919
92
920
921
922
923
924
925
926
927
928
929
93
930
931
932
933
934
935
936
937
938
939
94
940
941
942
943
944
945
946
947
948
949
95
950
951
952
953
954
955
956
957
958
959
96
960
961
962
963
964
965
966
967
968
969
97
970
971
972
973
974
975
976
977
978
979
98
980
981
982
983
984
985
986
987
988
989
99
990
991
992
993
994
995
996
997
998
999
:
;
<
=
>
?
@
\
^
_
`
a
aa
ab
abc
abgerufen
about
above
abstract
ac
academia
academic
academy
access
accessdate
accessed
according
account
accounts
accueil
acessodata
achey
acoustic
acrobat
across
act
action
actor
actress
ad
adam
adams
adaptation
add
added
address
administration
adobe
adult
advanced
adventure
adventures
ady
ae
af
affairs
africa
african
after
ag
again
against
age
agency
ages
aghamalyan
ah
ahaik
ai
aid
ain
air
airbus
aircraft
aires
airlines
airport
airways
ais
aise
ak
al
alan
alaverdyan
albert
album
albums
alex
alexander
alfa
alfred
ali
aliases
alice
align
alignbars
alive
all
alla
allen
alliance
allmusic
alone
alpha
already
als
also
alt
alternative
always
am
amazing
amazon
ame
america
american
amg
among
amor
amore
amour
amsterdam
amt
amtsfreien
amway
an
ana
anahit
analysis
anchor
ancient
and
andance
anderson
andre
andrea
andreas
andrew
andriasyan
android
angel
angeles
angels
ani
animal
animals
animated
animation
ann
anna
annals
anne
anniversary
annona
annual
another
anthology
anthony
anti
anton
antonio
any
ap
api
app
apple
applications
applied
approach
approx
apr
april
aq
ar
ara
arab
arabic
aram
arc
arch
archaeological
archaeology
architecture
archive
archived
archives
are
area
aren
arena
argentina
argine
args
argument
arguments
aria
ark
arm
armag
arman
arme
armen
armenia
armenian
armenians
armineaghayan
arms
army
arnold
around
arpi
array
ars
arsog
art
artashes
arte
arthur
arthurzq
arti
article
articles
artist
artists
arts
artsakh
artur
artureganyan
as
ashot
asia
asian
ask
asp
aspx
assembly
associated
association
at
athens
atlantic
atlas
atp
attack
attr
au
audio
auf
auflage
aug
august
aus
australia
australian
austria
austrian
author
authority
authors
auto
autor
autumn
aux
av
available
avant
avec
avenue
avetisyan
aviation
avproduction
award
awards
away
ax
ay
ayuntamiento
az
azerbaijan
azərbaycan
b
ba
babalyan
baby
back
background
backgroundcolors
bad
badalyan
bafta
baker
baku
balance
ball
ballet
baltimore
ban
banco
band
bang
bank
bar
barbara
barcelona
bardata
baron
barra
bas
base
based
basic
basilica
basketball
bass
batman
batters
battle
bay
bayerisches
bb
bbc
bc
bd
be
beach
beat
beatles
beautiful
beauty
became
because
beck
become
been
before
begin
beginning
behavior
behind
bei
being
beko
bel
believe
bell
bella
belle
below
ben
benjamin
benz
ber
berkeley
berlin
bernard
bernstein
best
bet
beta
better
betty
between
bevo
beyond
bf
bg
bh
bi
bible
bibliography
biblioteca
big
bild
bill
billboard
bin
bio
biographical
biographie
biography
biology
bird
birds
birth
birthday
bis
bj
bk
bl
black
blackwell
blank
blind
block
blog
blood
blu
blue
blues
blur
bm
bmatrix
bn
bo
board
bob
bocinyan
body
boeing
bon
book
books
border
boris
born
boston
bot
both
bottom
box
boy
boys
bp
br
brain
brand
brandenburg
brazil
break
breaking
brian
bridge
brief
brill
bring
brit
britain
britannica
british
broadcasting
broadway
broken
bronze
bros
brother
brothers
brown
bru
bruce
bruno
bry
bs
bts
bu
budapest
buenos
build
building
bulgaria
bulgarian
bull
bulletin
bureau
business
but
bw
by
c
ca
caesar
cafe
calendar
california
call
called
cambridge
came
cameron
camp
campaign
campbell
can
canada
canadian
canal
cancer
canvas
cape
capital
capitol
captain
caption
car
card
care
carl
carlo
carlos
carol
carolina
casa
case
cases
cassini
cast
castillo
castle
cat
catalog
catalogue
catalunya
categories
category
cathedral
catherine
catholic
caucasus
cause
cave
cb
cbs
cc
cd
cdc
cdot
cdots
ce
cee
cell
cemetery
census
center
central
centre
centro
centuries
century
cf
cfg
cgi
ch
cha
challenge
chamber
champion
championship
chance
change
changes
changing
channel
chaojoker
chapel
chapter
character
characters
charles
charlotte
chart
charts
che
check
chemical
chemistry
chess
chi
chicago
chief
chiesa
child
children
china
chinese
choice
chris
christ
christian
christmas
christopher
chronicle
church
chv
ci
cia
cine
cinema
cineos
circ
circle
cit
citar
citation
cite
cited
cites
cities
city
ciudad
civil
civilization
cj
ck
cl
claim
claims
clark
class
classic
classical
classics
classification
claude
cle
clear
click
climat
climate
clinical
close
club
cm
cn
cnn
co
coast
coat
code
coins
col
cold
cole
coll
collected
collection
collections
college
collins
color
colors
columbia
column
columns
com
combination
come
comedy
comes
comic
comics
coming
comment
commentary
commercial
commission
committee
common
commons
communication
communications
communities
community
como
companion
company
comparative
complete
complex
computer
comune
con
concept
concert
conference
config
conflict
congress
conquest
conservation
const
constitution
construction
contact
contains
contemporary
content
contest
context
control
convention
cook
cool
cooper
copy
core
cornell
corporation
corps
corpus
cos
could
council
count
countdown
countries
country
county
course
court
cover
covid
cp
cq
cr
crazy
cre
create
created
creation
creative
crew
crime
criminal
crisis
critical
critics
cropped
cross
crown
cry
cs
css
ct
cu
cube
cultura
cultural
culture
cup
current
cut
cv
cw
cx
cz
d
da
dag
daily
dal
dali
dame
dan
dance
dancing
dangerous
daniel
dans
dark
darkgrey
das
data
database
datavalue
date
dateformat
datenverarbeitung
dates
dato
daughter
dave
david
davis
dawn
day
days
db
dc
dd
de
dead
deal
dear
death
dec
december
declaration
deep
default
defense
definition
dei
del
delhi
dell
della
delle
delta
dem
demo
democracy
democratic
den
department
der
des
description
desert
design
destiny
det
detail
details
deutsche
deutschen
deutschland
deux
development
devil
dezember
di
dia
diagram
diamond
diana
diary
dictionary
dictionnaire
did
die
diego
dies
different
digital
din
dinas
dir
direct
direction
director
dirty
discogs
discovery
discussion
disease
diseases
disney
disorder
disorders
display
distribution
district
dition
ditions
div
division
dj
djvu
dk
dna
do
doc
doctor
document
documentary
documentation
documents
does
dog
doi
dom
domain
don
donald
done
door
doors
dos
dot
dots
double
douglas
down
download
dp
dq
dr
dragon
dragons
drama
dream
dreams
drive
drug
drugs
drums
ds
dsc
dsm
dt
du
due
duke
dur
during
dutch
dvd
dx
dynasty
dz
e
ea
each
eagle
early
earth
east
eastern
easy
ec
echo
economic
economics
economist
economy
ed
edgar
edge
edinburgh
edit
edita
edited
editing
edition
editions
editor
editorial
editors
edojanjan
eds
edu
education
edward
ee
eesti
effect
effects
egypt
egyptian
ehess
ein
eine
einer
ek
eki
el
election
elections
electric
electronic
elements
elen
elizabeth
elle
else
elseif
em
emi
emily
emma
emoji
emperor
empire
empty
emptyfear
en
encyclopaedia
encyclopedia
encyclopædia
end
energy
engine
engineering
england
english
enough
entertainment
entity
entityid
entre
entry
environment
environmental
ep
epic
episode
equiv
er
era
eric
erik
erjanik
ernst
error
es
espan
espn
essay
essays
essential
est
estadi
et
etc
ethics
ethnic
etter
eu
europa
europe
european
eurovision
ev
eva
evans
eve
even
evening
event
events
ever
every
everything
evidence
evil
evolution
ex
example
examples
excerpt
exchange
exclusive
exhibition
exists
exo
experience
explorer
expo
express
extended
external
extra
eye
eyes
f
fa
faber
face
facebook
fact
factor
facts
fair
faith
fall
falling
falls
false
fame
family
famous
fan
fantasy
far
fashion
fast
father
fc
fda
fe
fear
feat
feature
features
featuring
feb
february
fechaacceso
federal
federation
feedback
feel
female
femme
fernando
festival
few
ff
ffffff
fi
fiche
fiction
field
fields
fifa
fifth
fight
fighting
figure
figures
file
files
film
filmfare
films
fin
final
finance
financial
find
fine
fire
first
fischer
fish
five
fl
flag
flash
flight
float
floor
flora
florence
florida
flow
flower
flowers
fly
flying
fm
fo
focus
folk
following
font
fontsize
foo
food
foot
football
for
forbes
force
forces
ford
foreign
forest
forever
form
format
former
fort
fortress
fortschreibung
fortune
forum
forward
foto
found
foundation
four
fourth
fox
fr
fra
frac
frame
frameless
franc
france
francesco
francis
francisco
frank
frankfurt
franz
fre
fred
frederick
free
freedom
french
friday
friedrich
friend
friends
from
front
ft
fu
full
fun
function
functions
fund
future
g
ga
gabriel
gagik
gala
galaxy
galerie
gallery
gallimard
galstyan
game
games
gamma
gang
gaon
garci
garden
gary
gas
gate
gay
gayane
gazette
gb
ge
geghard
gemeinden
gen
gender
gene
general
generalitat
generation
genesis
genius
genocide
geographic
geography
geoo
georg
george
georges
georgia
georgian
german
germany
geschichte
gesellschaft
get
gets
gevorg
gevorgyan
ghazaryan
ghost
gif
gina
giovanni
girl
girls
give
given
gives
glass
global
globe
glory
go
goal
god
gods
goes
gogh
going
gold
golden
gone
good
goodbye
google
gordon
got
gov
government
gr
grace
graham
grammar
grammy
gran
grand
grande
grant
grave
gray
great
greatest
greece
greek
green
greenwood
gregory
grey
gridcolor
grigor
grigoryan
ground
group
groups
grove
growth
gsub
gt
gu
guardian
guerre
guide
guidelines
guitar
gun
guns
guy
gyumri
h
ha
had
haktorres
half
hall
hamburg
hamilton
han
hand
handbook
hands
hans
happy
hard
harper
harris
harrison
harry
harutyunyan
harvard
has
hasmik
hat
have
haven
haxpat
hay
hayarpi
hayk
hbar
hbo
hcl
hd
hdr
he
head
header
health
heart
hearts
heaven
heavy
hebrew
height
heinrich
held
helen
hell
hello
help
henri
henry
her
herald
herbert
here
heritage
hero
heroes
het
hey
hg
hh
hi
hidden
hier
high
higher
hill
hills
him
hip
his
histo
histoire
historia
historic
historical
history
hit
hitler
hits
hk
hl
ho
hold
holding
holiday
holland
hollywood
holmes
holocaust
holy
home
homme
homo
hong
honor
hop
hope
hopkins
horizontal
horse
hospital
hot
hotel
hour
hours
house
hovhannes
hovhannisyan
hovsepyan
how
howard
however
hp
hr
hripsime
hrsg
htm
html
http
https
hu
hudson
hugh
hughes
hugo
human
hungarian
hungary
hunter
hy
i
ia
ian
iana
ibid
ibm
ibn
ic
ice
ich
icon
id
idea
ideas
identity
idol
ieee
if
iglesia
ign
ii
iii
ij
ik
il
ill
illinois
illustrated
im
image
images
imagesize
imagine
imax
imdb
img
impact
imperial
important
in
inc
include
includes
including
increment
independence
independent
index
india
indian
indiana
individual
industrial
industry
ine
influence
info
infobox
informacio
information
infty
input
insee
insert
inside
instagram
instead
institut
institute
instituto
instrumental
int
intel
intelligence
interactive
interest
interior
international
internet
interscope
interview
into
introduction
io
ios
ip
ipad
ipairs
iphone
ipod
iq
ir
iran
iranian
iraq
ireland
irish
irk
iron
is
isbn
islam
islamic
island
islands
iso
israel
israeli
issn
issue
issues
ist
istanbul
istat
istituto
it
italia
italian
italy
itcitar
item
itf
its
itunes
iu
iv
iva
ivan
ix
iz
iza
j
ja
jack
jackson
jacob
jacques
jam
james
jan
jane
january
japan
japanese
jason
java
javascript
jay
jazz
je
jean
jerry
jersey
jerusalem
jesus
jewish
jews
ji
jim
jimmy
jo
joan
joe
johann
johannes
john
johnny
johns
johnson
join
joins
joint
jon
jonas
jonathan
jones
jordan
jose
joseph
journal
journey
joy
joyce
jpeg
jpg
jr
js
jstor
ju
juan
jul
julia
julius
july
jump
jun
june
junior
just
justice
justify
jyp
k
ka
kal
kar
kara
karabakh
karen
kareyac
karine
karl
karomu
kb
kbs
ke
keep
kelly
kem
kennedy
kenneth
kevin
key
kg
kh
khachatryan
ki
kid
kids
kill
killed
kim
kind
king
kingdom
kings
kino
kinopoisk
kir
kirche
kiss
klein
km
knight
know
knowledge
known
ko
koda
kom
kong
korea
korean
kos
kr
kra
krm
ku
kug
kunst
kur
kv
kya
l
la
label
ladies
lady
lake
lambda
land
landesamt
landscape
lane
lang
language
languages
large
las
last
lat
late
later
latest
latin
laura
law
lawrence
laws
layer
lb
lc
ldots
le
lead
leader
league
learn
learning
leave
leben
lecture
led
lee
left
legacy
legal
legend
legends
lego
leiden
leipzig
len
lena
length
lenta
leo
leonard
leqslant
les
less
let
letter
letters
level
lewis
lexikon
lg
li
liana
lib
liberty
library
libre
libris
license
lie
life
light
lightgrey
lights
ligne
like
lil
lilit
lilitik
lim
limited
limits
lincoln
linda
line
linear
lines
link
links
linux
lion
lip
list
lists
literary
literature
little
live
lives
living
lkerung
lkerungsstandes
ll
ller
lloyd
ln
lo
local
location
log
logic
logo
london
lonely
loneos
long
longrightarrow
look
looking
lord
los
lost
louis
louvre
love
loves
low
lower
lp
lt
ltd
lu
lua
ludwig
luis
lv
m
ma
mac
machine
macmillan
mad
made
madonna
madrid
magazine
magic
mai
mail
main
mainsnak
maison
major
make
makes
making
male
malta
mama
man
management
manchester
mane
mann
manual
manuel
manukyan
many
map
maps
mar
marc
march
marco
margaret
margaryan
mari
maria
mariam
marie
marina
marine
mario
mark
market
marmashen
marriage
mars
marshall
marti
martin
marvel
mary
mask
mass
massachusetts
massacre
massacres
master
masters
match
material
matevosyan
math
mathbb
mathbf
mathcal
mathematical
mathematics
mathrm
mathsf
matrix
matter
matthew
maurice
max
may
mb
mbc
mbox
mc
mcgraw
md
me
meaning
means
med
medal
media
mediawiki
medical
medicine
medieval
meet
meeting
member
members
memoirs
memorial
memory
men
mer
mercedes
mercury
meri
mes
message
messages
met
meta
metacritic
metal
metallica
method
methods
metro
metropolitan
mexico
mg
mgm
mi
michael
michel
michelangelo
michigan
microsoft
mid
middle
midnight
mie
might
mike
milan
milano
miles
military
millennium
miller
million
min
mind
mine
mini
minister
ministry
minor
minute
minutes
miranda
mirror
miss
missing
mission
mit
mix
mk
mkrtchyan
mkrtich
ml
mls
mm
mn
mnet
mo
mobile
mod
mode
model
models
modern
module
moi
moll
moment
mon
monastery
monde
money
monster
monte
month
monthly
months
montreal
monument
monuments
moon
moore
mor
moral
more
morgan
morning
morris
mos
moscow
mosque
most
mother
motion
motor
mount
mountain
move
movement
movie
movies
movsisyan
mp
mr
mrs
ms
msg
mt
mtern
mtv
mu
much
multiple
mundo
municipal
muradyan
murder
murray
muse
museo
museum
museums
music
musical
muslim
must
mw
my
myanmar
myspace
mystery
myth
mıcr
n
na
nach
nacional
nahapetyan
name
named
names
namespace
nancy
naoh
napoleon
narek
nasa
nation
national
nationale
nationalism
nations
native
natural
nature
naval
navy
nazi
nazionale
nb
nba
nbc
nchen
nct
nd
ne
near
neat
need
nelly
nelson
neo
net
netflix
netherlands
network
neue
never
new
news
newspaper
newsru
next
nf
nfc
ng
ngr
ngua
nh
ni
nice
nicholas
nick
nickelodeon
nie
night
nike
nil
nimeru
nin
nine
nintendo
niz
nj
nk
nl
nm
nme
no
nobel
node
noeditsection
nokia
nom
non
none
nooberella
nor
normal
norman
norske
north
northern
norton
norway
norwegian
nos
not
note
notes
nothing
notice
notoc
notre
nouvelle
nov
nova
novel
november
now
np
nr
ns
nt
nu
nuclear
num
number
numbers
nvs
ny
o
ob
obituary
object
obra
observer
oc
ocean
och
oclc
oct
october
odas
of
off
office
official
oficial
og
ogg
oh
oil
ois
ok
ol
ola
old
oliver
olympic
olympics
om
omega
omicron
oms
on
once
one
online
only
op
open
opening
opera
operation
operatorname
opinion
optional
options
or
orange
orchestra
order
ore
org
organization
orient
oriental
orientation
origin
original
origins
orl
os
oscar
oslo
ost
other
others
otto
ottoman
ou
our
out
output
outside
over
overview
own
oxford
p
pa
pablo
pacific
padding
page
pages
pain
painting
paintings
pairs
palace
palazzo
palgrave
pan
panorama
panoramio
paper
papers
par
para
parade
paradise
parameter
parameters
paramount
params
parent
paris
park
parliament
parms
part
partial
particular
parts
party
pas
passed
passion
past
path
patrick
pattern
paul
pb
pbs
pc
pd
pdf
pe
peace
pearl
pedro
pen
penguin
pennsylvania
people
peoples
per
perfect
performance
period
perry
persian
person
personal
personality
perspective
perspectives
peter
petersburg
petit
petrosyan
pg
ph
phi
philadelphia
philip
philippe
philips
philosophical
philosophy
phoenix
phone
photo
photos
php
physical
physics
pi
piano
picture
pictures
pie
pierre
pink
pl
place
places
plain
plan
planet
plant
plants
platinum
play
player
players
playstation
plaza
please
plotarea
plotdata
plus
pm
pmatrix
pmc
pmid
png
pnz
po
poe
poems
poetry
point
points
poke
poland
police
policy
polish
political
politics
poly
pop
popular
population
por
port
portal
portrait
portugal
pos
position
possible
post
potter
pour
power
pp
pr
practice
praha
pre
precision
prefix
premier
present
president
press
pressure
pretty
prevention
pri
price
primary
prime
prince
princess
princeton
principles
print
private
prix
prize
pro
problem
problems
proceedings
process
product
production
productions
products
professional
professor
profile
program
progress
project
projects
proof
properties
property
protected
protection
provided
province
provincia
ps
psi
psk
psychological
psychology
pt
pu
pub
public
publicado
publication
publications
published
publisher
publishers
publishing
puerto
purple
put
px
python
q
qid
qquad
qristine
qt
qu
quad
quality
quantum
quartal
quartale
quartalsende
quarterly
que
queen
quest
question
questions
qui
quote
quoted
r
ra
race
rada
radio
raf
rai
rain
rainbow
ralph
random
range
rank
rap
rare
ras
rate
raw
ray
raymond
rca
rd
re
read
reader
reading
ready
real
reality
really
reason
recent
record
recording
recordings
records
rect
red
redlink
ref
reference
references
region
regional
register
reich
related
relations
release
relief
religion
religious
remember
remix
remove
renaissance
rene
report
reporter
reports
reprinted
republic
request
require
required
res
research
resistance
resolution
resource
resources
result
resultat
results
ret
retrieved
return
returns
reuters
rev
review
reviews
revised
revista
revolution
revue
rez
rgb
rho
ri
ria
rica
rich
richard
rico
ride
right
rightarrow
rights
ring
rio
rise
rising
risk
rita
river
rk
rm
ro
road
rob
robert
robin
robinson
rock
roger
role
roll
rolling
rom
roma
roman
romance
rome
romeo
ronald
room
root
roots
ros
rosa
rose
roses
ross
rotten
round
routledge
row
roy
royal
rr
rs
rsssf
rt
ru
ruben
rudolf
rue
rule
rules
run
running
rus
rush
russell
russia
russian
rya
s
sa
safety
sah
sahakyan
said
saint
saints
salt
salvador
sam
same
samsung
samuel
san
sanahin
sandbox
sans
sant
santa
sar
sarah
sargis
sargsyan
satenik
saturday
save
say
says
sbs
sc
scale
scalemajor
scaleminor
scene
scho
school
schuster
sci
science
sciences
scientific
score
scotland
scott
scottish
scream
screen
screenplay
script
sculpture
sdss
se
sea
search
season
sec
second
seconds
secret
secrets
section
security
see
seen
seine
select
selected
self
sen
sense
seoul
sep
separator
september
serafima
seraydarian
series
server
service
services
ses
session
set
seven
several
sex
sexual
sf
sfondo
sh
shadow
shakespeare
sharbatyan
share
she
shift
ship
shop
short
shot
should
show
showing
shows
si
side
sie
sigma
sign
signs
silence
silent
silver
sim
sima
simon
simonyan
simple
sin
since
sing
singapore
singer
single
singles
sings
sir
sister
site
sites
six
size
sk
ska
ski
skin
sky
sl
sleep
sm
small
smile
smith
smo
snak
snow
so
sobre
soccer
soccerbase
soccerway
social
socie
society
software
soghomon
sol
solar
solid
solo
some
something
son
sona
song
songs
sons
sony
soon
sorry
sort
soul
sound
soundfile
soundtrack
source
sources
sous
south
southern
soviet
sp
space
spain
spanish
special
species
specific
specified
speech
speed
spider
spirit
split
sport
sports
spring
springer
sql
sqrt
square
sr
src
ss
st
sta
stadt
staff
stage
stamp
stand
standard
stanford
stanley
star
stars
start
stat
state
statement
states
station
statistical
statistiche
statistics
statistik
statue
status
stay
std
steel
stella
stem
step
stepanyan
stephen
steve
steven
stewart
stica
stichtag
still
stock
stockholm
stone
stones
stop
store
storia
stories
storm
story
str
strange
strategy
street
strike
string
strong
structure
struggle
stuart
students
studies
studio
studios
study
stuttgart
style
su
sub
subject
success
such
suffix
suicide
suite
sum
summary
summer
summit
sun
sunday
super
support
supporting
sur
surb
surgery
survey
sus
susan
susanna
susikmkr
sv
sve
svg
sweden
swedish
sweet
swift
swiss
switch
sydney
sylvia
symbol
symbols
symphony
syndrome
syria
system
systems
t
ta
tab
table
tables
tag
take
taken
takes
taking
tale
tales
talk
talks
tam
tan
target
tat
tatev
tatevik
tau
taylor
tbilisi
td
te
tea
teak
team
teams
tears
teatr
teatro
teau
tech
technical
technologies
technology
ted
teen
tel
telegraph
television
tell
template
templates
temple
temps
ten
tennis
ter
term
terms
terra
territory
tesla
test
texas
text
textcolor
textdata
texts
tfrac
tg
th
thames
than
thank
thanks
that
the
theater
theatre
thebabushka
theft
their
them
theme
then
theory
therapy
there
these
theta
they
thing
things
think
third
this
thomas
thompson
thomson
those
thought
thousand
three
thriller
through
thumb
thumbnail
ti
tica
tigran
til
till
tim
time
timeaxis
timeline
times
tina
title
titre
to
today
together
tokyo
tom
tomatoes
tomb
tome
tomorrow
tonight
tonj
tonumber
tony
too
tool
tools
top
topic
toramanyan
toronto
toros
torre
tostring
total
touch
tour
tourism
towards
tower
town
tr
track
tracks
trad
trade
tradition
traditional
train
trans
transfermarkt
translate
translated
translation
translations
translator
transport
travel
tre
treatment
treaty
tree
tres
trial
tribune
tribute
trim
trouble
trt
true
trust
truth
try
ts
tt
tu
tudes
tul
tulo
tumanyan
turismo
turkey
turkish
turks
turn
turner
tv
tve
twentieth
twenty
twitter
two
type
types
tyu
u
ua
udm
uefa
uesac
ufc
uk
ukraine
ukrainian
ukrcensus
ultimate
uly
um
un
una
und
under
understanding
une
unesco
union
unit
united
units
univ
universal
universe
universidad
universita
university
unix
unknown
until
up
uparrow
update
updated
upon
upper
upright
ur
urban
url
us
usa
usage
usb
use
used
user
users
uses
using
ustring
utc
utype
v
va
vacio
vadgt
vahe
val
valen
valid
valley
value
values
van
var
vardanyan
varepsilon
variety
various
varphi
vdots
ve
vec
vegas
venice
venus
verlag
version
vertical
very
vgg
vh
vhs
vi
via
victor
victoria
victory
vida
video
videos
vie
vienna
viertes
view
views
vii
viii
viking
villa
village
ville
vilnius
vincent
violence
virgin
virginia
virtual
vision
visit
vista
visual
vita
vla
vladimir
vlasenko
vlg
vo
vocal
vogue
voice
voices
void
vol
vols
volume
volumes
vom
von
vor
voskanyan
vous
vowel
voyage
vs
w
wa
wagner
waiting
wales
walk
walker
walking
wall
walt
walter
wanna
want
wanted
war
warfare
warner
warren
wars
warszawa
was
washington
watch
water
watson
wave
way
wayne
ways
wbc
we
web
website
webster
wedding
week
weekly
weeknd
welcome
well
welt
were
west
western
wga
what
when
where
whether
which
while
white
who
whole
whoscored
why
wi
wide
width
wie
wien
wiener
wife
wiki
wikibase
wikidata
wikimedia
wikipage
wikipedia
wikis
wikisource
wikitext
wild
wiley
wilhelm
will
william
williams
wilson
win
wind
windows
wine
wings
winner
winners
wins
winter
wish
with
within
without
wmf
wo
wolf
wolfgang
woman
women
won
wonder
wood
word
words
work
working
works
workshop
world
worlds
worldtimezone
worldwide
would
wp
wrestling
wright
write
writer
writers
writing
writings
written
wrong
wta
wu
wwe
wwf
www
x
xbox
xd
xe
xelgen
xi
xico
xii
xiii
xiv
xix
xml
xrightarrow
xs
xv
xvi
xvii
xviii
xx
xxi
xxii
xxiii
xxiv
xxv
xxvi
xxx
y
ya
yahoo
yale
yan
yar
year
years
yellow
yengoyan
yerevan
yes
yg
yo
york
yorker
you
young
your
yourself
youth
youtube
yu
yyyy
z
za
zab
zara
ze
zealand
zeit
zeitung
zero
zh
zn
zone
zoo
zu
zum
zur
{
|
}
~
¡
¢
£
¥
¦
§
©
ª
«
¬
­
®
°
±
²
³
´
µ
·
¹
º
»
¼
½
¾
¿
×
ß
æ
÷
ø
ı
ł
ŋ
ə
ɛ
ɪ
ɯ
ʰ
ʷ
ʻ
ʼ
ʾ
ʿ
ˀ
ˈ
ˋ
ː
ˑ
˚
̀
́
̂
̃
̄
̆
̇
̈
̉
̊
̋
̌
̓
̔
̛
̝
̞
̠
̣
̦
̧
̨
̪
̯
̱
̸
͂
ͅ
͡
΄
α
β
γ
γμα
δ
ε
η
θ
ι
κ
και
λ
μ
ν
να
ο
π
ρ
ς
σ
τ
της
το
του
υ
φ
χ
ψ
ω
ϑ
а
августа
авт
автор
азербаи
азии
аи
акад
академии
академического
академия
акте
александр
александра
александрович
алексеи
али
алтаи
алхимик
аль
альбом
амурская
ан
анализ
англ
англии
андреи
анна
апреля
апресян
арм
армении
армения
армии
армия
армян
армяне
армянская
армянские
армянскии
армянских
армянского
армянскои
архангельская
архив
архивировано
архитектура
архитектуры
аст
астраханская
б
баи
баку
башкортостан
без
безопасности
беларусь
белгородская
белыи
би
библиотека
биографическии
биография
бои
более
большая
больше
большои
борис
брокгауза
брянская
будет
бы
был
была
были
было
быть
в
ва
ваи
ван
василии
вв
введение
ведомости
век
века
веков
великии
великого
великои
версия
верх
верхнее
верхнии
верхняя
верховного
весе
весенняя
вести
вестник
взгляд
вид
видео
византии
виктор
владимир
владимира
власти
власть
вместе
во
военная
военно
вои
вокруг
волость
вопрос
вопросу
вопросы
воспоминания
восток
востока
восточнои
впервые
времени
временная
время
все
всего
всех
вступ
вторая
второи
вузов
вы
вып
выпуск
выпускников
выставка
выставки
г
газета
газете
гаи
галерея
гвардия
гг
где
география
георгии
германии
герои
гл
глава
главныи
главы
го
год
года
годов
году
годы
голос
гора
горка
горки
город
города
городское
городскои
горького
гос
государства
государственного
государственнои
государственныи
государственными
грузии
группа
группы
д
да
даже
дан
данные
данным
данных
дата
два
две
двух
де
деи
декабря
дел
дела
дело
дель
день
деревня
детеи
дети
деятельности
деятельность
дж
джана
джеи
джон
динамо
дипломатических
дипломатического
для
дмитрии
днеи
дня
до
доклад
документы
дом
дома
дон
дону
доп
др
древнеи
другие
других
е
евгении
евреи
европеи
европы
его
ее
екатеринбург
елена
ему
ер
ереван
ес
если
есть
ефрона
еще
ж
же
живописи
живопись
животных
жизни
жизнь
журнал
журнала
з
за
завод
заи
закон
заметки
занятость
записки
зве
звезда
здесь
зеленскии
земли
значение
золотои
зональная
и
иван
иванов
иванович
игорь
игры
из
избранные
известия
изд
издание
издательскии
издательство
изобразительное
ил
или
илл
им
имени
империи
имя
ин
индии
иностранных
институт
института
интервью
интернет
интерфакс
информация
ирина
искусств
искусства
искусство
испании
испр
исследование
исследовании
исследования
истории
историко
историческая
историческии
история
итар
итоги
их
июля
июня
к
ка
кавказа
кавказскии
как
канал
карта
карты
каталог
ки
киев
кино
китаи
кладбище
класса
клуб
км
кн
книга
книге
книги
ко
когда
комиссии
комитета
комментарии
коммерсантъ
компании
комсомольская
константин
контракт
конференции
конца
которои
которые
которыи
которых
краи
красная
красныи
краткая
краткии
края
кроме
крым
крыма
кто
культура
культуры
курс
л
ла
латвии
ле
лев
леи
лекции
ленинград
ленинграда
ленинградская
ленинградскии
ленинградских
ленинградскои
лента
лет
летию
ли
лит
литература
литературе
литературная
литературы
лишь
лович
лок
любви
любовь
людеи
люди
м
маи
малая
марии
мария
марта
материалов
материалы
мая
мгу
ме
медведев
между
международная
международного
международнои
международныи
меня
место
методы
мид
министерства
минск
мир
мира
мире
мировои
мифы
михаи
михаил
мн
мне
может
можно
мои
молодая
молоде
море
москва
москве
москвы
московская
московскии
московского
моя
музеи
музея
музыка
музыки
муниципальное
муниципальныи
мы
мысли
мысль
н
на
наградами
награждении
над
название
названии
назначении
наи
например
народа
народов
нас
население
населения
наследие
наследия
наук
наука
науки
науч
научно
научнои
научных
национальная
национальнои
национальныи
начала
начале
начало
наш
ная
не
него
неи
неизвестныи
некоторые
некоторых
нем
несколько
нет
ни
николаевич
николаи
николая
них
нная
нные
нных
но
новая
новеи
нового
новое
новои
новости
новые
новыи
ного
нои
ночь
ноября
нп
ны
ные
ныи
ным
ных
нью
о
об
обзор
области
область
обозрение
обороны
образование
образования
обращения
общ
общая
общеи
общества
общество
один
однако
одного
однои
около
округ
октябрь
октября
олимпии
он
она
они
оо
оон
ооо
оп
описание
опыт
организации
орк
осенняя
основные
основы
особенности
остров
от
отв
отечественного
отечественнои
отношении
отношения
официальном
официальныи
очень
очерк
очерки
п
памяти
памятник
памятники
париж
парк
партии
пе
пер
первая
первого
первои
первоцвет
первые
первыи
перевод
перед
переписи
перепись
перераб
период
песни
песня
петербург
петербурга
петербургского
писатели
писатель
письма
письмо
питер
план
по
победы
повести
повесть
под
поле
политика
полное
полномочного
полномочным
получил
портал
портрет
посвяще
посе
поселение
посла
после
последние
последнии
послом
пособие
постановление
почему
почти
поэзия
права
правда
правительства
право
президент
президента
президиума
премии
премьер
премьера
пресс
при
приведены
принт
присвоении
приток
про
проблема
проблемы
проверено
программа
прогресс
проект
произведении
произведения
против
проф
профиль
психологии
психология
псковская
путеводитель
пути
путин
путина
путь
пушкин
пушкина
р
ра
работы
рабочии
радио
раз
развитие
развития
раи
ран
ранга
рангов
распоряжение
рассказы
растении
рбк
революции
революция
ред
редактор
редакциеи
редкол
режиссе
результаты
реи
река
репина
республика
республике
республики
рецензия
решение
риа
рождения
роль
роман
россии
россию
россия
ростов
ростовская
рсфср
ру
рус
русская
русские
русскии
русских
русского
русское
русскои
русском
рф
с
саи
сам
самыи
сан
санкт
сб
сборник
сборнои
св
света
свобода
свое
своего
своеи
свои
своих
свою
связи
связь
се
себе
себя
сегодня
сеи
село
сельское
сельсовет
семеи
семьи
сентября
сер
сергеи
серия
си
сирии
система
системы
ск
сказка
сказки
ская
ские
скии
ских
ского
ское
скои
ском
скульптуры
слов
слова
словарь
слово
служба
см
смерти
сми
со
собр
собрание
сов
совет
совета
советская
советскии
советского
советскои
современная
современник
современного
современнои
согласно
сост
состав
софия
соцреализм
соч
сочинении
сочинения
союз
союза
спб
список
спорт
справочник
среди
сср
ссср
ссылка
ст
ставропольскии
стал
стала
стали
статеи
статистика
статьи
статья
ства
ствия
ство
степени
стихи
стихотворения
стр
стран
страница
страницы
страны
суд
сша
сын
ся
т
та
таганрог
таи
так
также
там
тасс
татьяна
тв
тверская
творчества
творчество
те
театр
театра
текст
тем
теории
теория
тер
территории
ти
тип
тифлис
то
того
толстого
толстои
только
том
томах
тр
традиции
три
труды
турции
ты
у
убии
уже
указ
украина
украине
украинская
украины
украі
улица
умер
ун
униан
университет
университета
уткин
уфа
уче
учеб
учебник
учебное
учтена
ф
факты
фе
февраля
федерации
философии
философия
фильм
фильма
фильме
фонд
фото
фотографии
фр
франции
футбол
х
хаи
химия
хозяи
храм
хроника
художеств
художественная
художник
художника
художники
художников
хутор
хх
ц
центр
церкви
церковь
ч
чаи
час
части
частично
часть
че
человек
человека
чем
чемпионат
через
четыре
чехов
членов
члены
чрезвычаи
что
чтобы
ш
ших
школа
школы
шоу
щ
ъ
ы
ь
э
эи
экз
экономика
эксмо
экспресс
энциклопедии
энциклопедическии
энциклопедия
эпохи
эти
это
этого
этои
этом
этот
эхо
ю
юбилеи
юрии
я
является
яз
язык
языка
языке
января
є
і
՚
՛
՜
՝
՞
ա
աա
աած
աակ
աահ
աահմ
աարոն
աբ
աբաս
աբասը
աբասի
աբբա
աբբայության
աբբաս
աբգար
աբգարյան
աբդ
աբդել
աբդուլ
աբել
աբելյան
աբելյանի
աբեղա
աբեղան
աբեղյան
աբեղյանը
աբեղյանի
աբիսողոմ
աբխազական
աբխազիայի
աբխազիայում
աբովյան
աբովյանը
աբովյանի
աբու
աբսիդի
աբստրակտ
աբրահամ
աբրահամի
աբրահամյան
աբրահամյանը
աբրահամյանի
աբրուցո
ագ
ագաթա
ագաթանգեղոսի
ագահ
ագարակ
ագարակի
ագն
ագնես
ագնետա
ագուլիս
ագուլիսի
ագուցված
ագռավ
ագռավը
ագրարային
ագրեսիա
ագրեսիայի
ագրեսիան
ագրեսիվ
ադ
ադա
ադամ
ադամանդ
ադամանդե
ադամանդի
ադամը
ադամի
ադամյան
ադամյանը
ադամյանի
ադամս
ադամսը
ադամսի
ադանա
ադանայի
ադապտացված
ադել
ադելի
ադեկվատ
ադիջե
ադիս
ադմին
ադմինական
ադմինը
ադմինի
ադմինիստրատիվ
ադմինիստրատոր
ադմինիստրատորի
ադմինիստրատորների
ադմիններ
ադմինները
ադմինների
ադմիններին
ադմիրալ
ադոլֆ
ադոնց
ադրբ
ադրբեջան
ադրբեջանական
ադրբեջաներեն
ադրբեջանը
ադրբեջանի
ադրբեջանին
ադրբեջանից
ադրբեջանում
ադրբեջանցի
ադրբեջանցիներ
ադրբեջանցիները
ադրբեջանցիների
ադրիան
ադրիատիկ
աես
աեսակ
աեֆ
ազ
ազա
ազատ
ազատագր
ազատագրական
ազատագրել
ազատագրելու
ազատագրեցին
ազատագրման
ազատագրմանը
ազատագրության
ազատագրում
ազատագրումը
ազատագրումից
ազատագրված
ազատագրվել
ազատագրվեց
ազատազրկման
ազատազրկում
ազատական
ազատամարտ
ազատամարտի
ազատամարտիկ
ազատամարտիկներ
ազատամարտիկների
ազատամիտ
ազատել
ազատելու
ազատեց
ազատի
ազատման
ազատյան
ազատորեն
ազատության
ազատություն
ազատությունը
ազատությունն
ազատությունները
ազատությունների
ազատում
ազատված
ազատվել
ազատվելով
ազատվելու
ազատվելուց
ազատվեց
ազատվում
ազգ
ազգաբնակչության
ազգագրագետ
ազգագրական
ազգագրության
ազգական
ազգականը
ազգականները
ազգականների
ազգակից
ազգակցական
ազգամիջյան
ազգային
ազգայնական
ազգայնականների
ազգայնականության
ազգայնականություն
ազգանուն
ազգանունը
ազգանուններ
ազգանունների
ազգանունով
ազգանունտիգրան
ազգանվան
ազգասեր
ազգեր
ազգերը
ազգերի
ազգերին
ազգը
ազգի
ազգին
ազգից
ազգն
ազգությամբ
ազգության
ազգություն
ազգությունը
ազգությունների
ազդակ
ազդակները
ազդակների
ազդանշան
ազդանշանային
ազդանշանը
ազդանշանի
ազդանշաններ
ազդանշանները
ազդանշանների
ազդել
ազդելով
ազդելու
ազդեց
ազդեցիկ
ազդեցությամբ
ազդեցության
ազդեցությանը
ազդեցություն
ազդեցությունը
ազդեցությունից
ազդեցությունն
ազդեցություններ
ազդեցությունները
ազդեցությունների
ազդեցություններից
ազդող
ազդու
ազդում
ազդրի
ազիզ
ազնիվ
ազնվական
ազնվականական
ազնվականի
ազնվականներ
ազնվականները
ազնվականների
ազնվականության
ազնվականությունը
ազնվամորի
ազովի
ազոտ
ազոտական
ազոտային
ազոտի
աէկ
աթա
աթաթուրքի
աթայան
աթանաս
աթեիստ
աթեիստական
աթեիստներ
աթենական
աթենք
աթենքը
աթենքի
աթենքում
աթերոսկլերոզի
աթոռ
աթոռը
աթոռի
աթոռին
աթս
աժ
աի
աիդա
ալ
ալա
ալաբամա
ալագոաս
ալան
ալանը
ալաշկերտ
ալաշկերտի
ալավերդի
ալավերդյան
ալավերդու
ալբա
ալբանական
ալբանացի
ալբանիա
ալբանիայի
ալբանիայում
ալբանիան
ալբեր
ալբերտ
ալբերտը
ալբերտի
ալբերտո
ալբիոնի
ալբոմ
ալբոմը
ալբոմի
ալբոմին
ալբոմից
ալբոմն
ալբոմներ
ալբոմները
ալբոմների
ալբոմներից
ալբոմով
ալբոմում
ալբրեխտ
ալգորիթմ
ալգորիթմը
ալգորիթմի
ալգորիթմներ
ալգորիթմների
ալեխանդրո
ալեն
ալենը
ալենի
ալեսանդրո
ալերգիա
ալերգիկ
ալեք
ալեքս
ալեքսան
ալեքսանդր
ալեքսանդրա
ալեքսանդրան
ալեքսանդրապոլ
ալեքսանդրապոլի
ալեքսանդրապոլում
ալեքսանդրը
ալեքսանդրի
ալեքսանդրիա
ալեքսանդրիայի
ալեքսանդրիայում
ալեքսանդրին
ալեքսանդրյան
ալեքսանդրն
ալեքսանդրովիչ
ալեքսանդրովկա
ալեքսանդրովնա
ալեքսանյան
ալեքսեյ
ալեքսեյը
ալեքսեյի
ալեքսեևիչ
ալեքսը
ալեքսի
ալեքսիս
ալթայի
ալժիր
ալժիրի
ալժիրում
ալի
ալիի
ալիին
ալին
ալինա
ալիշան
ալիշանը
ալիշանի
ալիս
ալիսա
ալիսան
ալիսը
ալիսիա
ալիք
ալիքաձև
ալիքային
ալիքավոր
ալիքը
ալիքի
ալիքներ
ալիքները
ալիքների
ալիքներով
ալիքով
ալիքում
ալիևը
ալիևի
ալլա
ալլահի
ալլան
ալլեն
ալկալիական
ալկալոիդներ
ալկոհոլ
ալկոհոլային
ալկոհոլը
ալկոհոլի
ալմա
ալմաստ
ալմերիա
ալյասկա
ալյասկայի
ալյեի
ալյոնա
ալյումինե
ալյումինի
ալյուր
ալյուրը
ալյուրի
ալյուրից
ալոնսո
ալպեր
ալպերի
ալպերում
ալպիական
ալպյան
ալտ
ալտերնատիվ
ալտո
ալֆա
ալֆոնս
ալֆոնսո
ալֆրեդ
ախ
ախալցխա
ախալցխայի
ախալքալաք
ախալքալաքի
ախար
ախորժակը
ախորժակի
ախորժելի
ախուրյան
ախուրյանի
ախչիկը
ախպեր
ախտաբան
ախտաբանական
ախտաբանության
ախտածին
ախտահարման
ախտահարում
ախտահարումը
ախտահարումների
ախտահարված
ախտահարվում
ախտանիշ
ախտանիշներ
ախտանիշները
ախտանիշների
ախտանիշներից
ախտանիշներն
ախտանշաններ
ախտանշանները
ախտանշանների
ախտանշաններն
ախտորոշել
ախտորոշիչ
ախտորոշման
ախտորոշում
ախտորոշումը
ախտորոշվել
ախտորոշվում
ախր
ած
ածական
ածանցյալ
ածանցյալները
ածանցյալների
ածել
ածխաթթու
ածխածին
ածխածնային
ածխածնի
ածխաջրածինների
ածխաջրեր
ածխաջրերի
ածխի
ածուխ
ածուխի
ածում
ածվել
ածվում
ակ
ակա
ակադեմիա
ակադեմիական
ակադեմիայի
ակադեմիային
ակադեմիայում
ակադեմիան
ակադեմիաների
ակադեմիկոս
ակադեմիկոսներ
ակամա
ակամայից
ական
ականավոր
ականատես
ականատեսների
ականներ
ականները
ականների
ականներին
ականներից
ականջ
ականջը
ականջի
ականջին
ականջները
ականջների
ակն
ակնառու
ակնարկ
ակնարկը
ակնարկներ
ակնարկները
ակնարկների
ակնարկում
ակներև
ակնթարթային
ակնկալում
ակնկալվող
ակնկալվում
ակնհայտ
ակնհայտորեն
ակումբ
ակումբային
ակումբը
ակումբի
ակումբին
ակումբից
ակումբն
ակումբներ
ակումբները
ակումբների
ակումբներից
ակումբներում
ակումբում
ակունք
ակունքը
ակունքից
ակունքն
ակունքները
ակունքների
ակուստիկ
ակսել
ակվիտանիա
ակտ
ակտեր
ակտերը
ակտերի
ակտը
ակտի
ակտիվ
ակտիվանում
ակտիվացման
ակտիվացնում
ակտիվացումը
ակտիվի
ակտիվիստ
ակտիվիստներ
ակտիվիստները
ակտիվիստների
ակտիվները
ակտիվների
ակտիվորեն
ակտիվությամբ
ակտիվության
ակտիվություն
ակտիվությունը
ակտով
ակտուալ
ակր
ակցիա
ակցիայի
ակցիան
ակցիաներ
ակցիաները
ակցիաների
ահ
ահա
ահաբեկիչները
ահաբեկիչների
ահաբեկչական
ահաբեկչության
ահաբեկչություն
ահաբեկչությունը
ահագին
ահավասիկ
ահավոր
ահարկու
ահարոն
ահարոնյան
ահեղ
ահկ
ահմադ
ահմեդ
ահռելի
աձև
աղ
աղա
աղաբաբյան
աղախին
աղախինը
աղախնի
աղաղակ
աղաղակում
աղայան
աղայանը
աղայանի
աղայի
աղային
աղան
աղանդեր
աղանդի
աղաչում
աղաջանյան
աղասի
աղասին
աղասու
աղավաղված
աղավնի
աղավնին
աղավնու
աղացած
աղբ
աղբար
աղբի
աղբյուր
աղբյուրը
աղբյուրի
աղբյուրից
աղբյուրն
աղբյուրներ
աղբյուրները
աղբյուրների
աղբյուրներին
աղբյուրներից
աղբյուրներն
աղբյուրներով
աղբյուրներում
աղդամի
աղեկ
աղեղ
աղեղը
աղեղի
աղեղնաձև
աղեղնավոր
աղեստամոքսային
աղետ
աղետալի
աղետը
աղետի
աղետից
աղետներ
աղետների
աղեր
աղերը
աղերի
աղէկ
աղը
աղթամար
աղթամարի
աղի
աղիների
աղիք
աղիքային
աղիքի
աղիքների
աղմկոտ
աղմկում
աղմուկ
աղմուկը
աղմուկի
աղմուկով
աղյուս
աղյուսակ
աղյուսակը
աղյուսակի
աղյուսակներ
աղյուսակները
աղյուսակների
աղյուսակում
աղյուսե
աղյուսի
աղյուսից
աղոթել
աղոթում
աղոթք
աղոթքը
աղոթքի
աղոթքներ
աղոտ
աղու
աղուանից
աղջի
աղջիկ
աղջիկը
աղջիկն
աղջիկներ
աղջիկները
աղջիկների
աղջիկներին
աղջիկներից
աղջիկներն
աղջիկս
աղջկա
աղջկան
աղջկանը
աղստև
աղստևի
աղվան
աղվանից
աղվանքի
աղվես
աղվեսը
աղվեսի
աղվեսն
աղվեսները
աղվոր
աղտոտման
աղտոտումը
աղտոտված
աղտոտվածության
աղքատ
աղքատի
աղքատիկ
աղքատների
աղքատներին
աղքատության
աղքատությունը
աճ
աճառյան
աճառյանի
աճել
աճեմյան
աճեց
աճեցման
աճեցնել
աճեցնում
աճեցվում
աճը
աճի
աճին
աճման
աճյունը
աճն
աճող
աճով
աճուկային
աճում
աճուրդի
աճուրդում
ամ
ամա
ամադեուս
ամազոնի
ամայի
աման
ամանդա
ամանի
ամանորի
ամանորյա
ամաչկոտ
ամաչում
ամառ
ամառային
ամառանոց
ամառանոցը
ամառանոցում
ամառը
ամառներով
ամառվա
ամասիայի
ամատունի
ամբարտակի
ամբերդ
ամբիոն
ամբիոնը
ամբիոնի
ամբիոնում
ամբոխը
ամբոխի
ամբոխին
ամբողջ
ամբողջական
ամբողջականության
ամբողջականությունը
ամբողջապես
ամբողջը
ամբողջովին
ամբողջությամբ
ամբողջության
ամբողջություն
ամբողջությունը
ամե
ամեն
ամենա
ամենաազդեցիկ
ամենաառաջին
ամենաարագ
ամենաարդյունավետ
ամենաարժեքավոր
ամենաբարդ
ամենաբարձր
ամենագեղեցիկ
ամենագլխավոր
ամենաերիտասարդ
ամենաերկար
ամենաթանկ
ամենալայն
ամենալավ
ամենախոշոր
ամենախոշորը
ամենածանր
ամենակարճ
ամենակարող
ամենակարևոր
ամենակարևորը
ամենահաճախ
ամենահայտնի
ամենահայտնին
ամենահաջողակ
ամենահաջողված
ամենահարուստ
ամենահեղինակավոր
ամենահզոր
ամենահին
ամենահինը
ամենաճանաչված
ամենամեծ
ամենամեծը
ամենամեծն
ամենամյա
ամենամոտ
ամենամսյա
ամենայն
ամենայնի
ամենաներքևի
ամենանշանակալի
ամենանշանավոր
ամենաշատ
ամենաշատը
ամենաուժեղ
ամենապայծառ
ամենապարզ
ամենասիրելի
ամենավաղ
ամենավաճառվող
ամենավառ
ամենավատ
ամենավերջին
ամենավտանգավոր
ամենատարածված
ամենատարբեր
ամենատաք
ամենացածր
ամենացուրտ
ամենափոքր
ամենափրկիչ
ամենաքիչ
ամենաքիչը
ամենեն
ամենեւին
ամենը
ամենի
ամենին
ամենից
ամենհոտեպ
ամենն
ամենուն
ամենուր
ամենուրեք
ամենքը
ամենքի
ամենքին
ամենքն
ամենքս
ամենօրյա
ամենևին
ամեր
ամերիկա
ամերիկական
ամերիկահայ
ամերիկայի
ամերիկայից
ամերիկայում
ամերիկան
ամերիկացի
ամերիկացիներ
ամերիկացիները
ամերիկացիների
ամերիկացիներին
ամերիկյան
ամէ
ամէն
ամի
ամին
ամինաթթուների
ամինաթթվային
ամիս
ամիսը
ամիսն
ամիսներ
ամիսները
ամիսների
ամիսներին
ամիր
ամիրա
ամիրյան
ամկ
ամհ
ամյա
ամյակ
ամյակը
ամյակի
ամյակին
ամյեն
ամն
ամո
ամոթ
ամոթալի
ամոթի
ամոնիակի
ամոնիումի
ամորձու
ամունդսենը
ամունդսենի
ամուսին
ամուսինը
ամուսինն
ամուսիններ
ամուսինները
ամուսինների
ամուսիններն
ամուսնալուծության
ամուսնալուծությունից
ամուսնալուծվել
ամուսնական
ամուսնանա
ամուսնանալ
ամուսնանալով
ամուսնանալու
ամուսնանում
ամուսնացած
ամուսնացան
ամուսնացավ
ամուսնացել
ամուսնացնել
ամուսնու
ամուսնությամբ
ամուսնության
ամուսնությանը
ամուսնություն
ամուսնությունը
ամուսնությունից
ամուսնությունն
ամուսնությունները
ամուսնությունների
ամուսնուն
ամուսնուց
ամուր
ամուրի
ամպ
ամպամած
ամպեր
ամպերը
ամպերի
ամպը
ամպի
ամպրոպի
ամռան
ամռանը
ամռանն
ամսագիր
ամսագիրը
ամսագրեր
ամսագրերը
ամսագրերի
ամսագրերում
ամսագրի
ամսագրին
ամսագրից
ամսագրում
ամսաթերթ
ամսաթիվ
ամսաթիվը
ամսաթվի
ամսական
ամսականում
ամսի
ամսին
ամսից
ամսով
ամսում
ամսվա
ամստերդամ
ամստերդամի
ամստերդամում
ամրագրում
ամրագրված
ամրանում
ամրապնդել
ամրապնդելու
ամրապնդեց
ամրապնդման
ամրապնդմանը
ամրապնդում
ամրապնդումը
ամրապնդվել
ամրապնդվեց
ամրապնդվում
ամրացման
ամրացնել
ամրացնելու
ամրացնում
ամրացված
ամրացվել
ամրացվում
ամրոց
ամրոցը
ամրոցի
ամրոցից
ամրոցն
ամրոցներ
ամրոցները
ամրոցների
ամրոցում
ամրության
ամրություն
ամրությունը
ամրություններ
ամրությունները
ամրությունների
ամփոփ
ամփոփել
ամփոփելով
ամփոփիչ
ամփոփում
ամփոփված
ամփոփվել
այ
այաքս
այաքսի
այբ
այբբենական
այբուբեն
այբուբենը
այբուբենի
այգ
այգեգործությամբ
այգեստան
այգի
այգին
այգիներ
այգիները
այգիների
այգիներով
այգիներում
այգու
այգում
այդ
այդմ
այդուհանդերձ
այդչափ
այդպես
այդպէս
այդպիսի
այդպիսին
այդպիսիք
այդպիսով
այդտեղ
այդտեղից
այդքան
այժմ
այժմյան
ային
այլ
այլաբանական
այլազգի
այլանդակ
այլապես
այլենդ
այլենդի
այլեւ
այլեւս
այլընտրանք
այլընտրանքային
այլմոլորակայինների
այլն
այլնի
այլոց
այլուր
այլք
այլև
այլևայլ
այլևս
այծ
այծը
այծի
այղ
այն
այնթապի
այնինչ
այնշտայնը
այնշտայնի
այնուամենայնիվ
այնուհանդերձ
այնուհետ
այնուհետեւ
այնուհետև
այնչափ
այնպես
այնպէս
այնպիսի
այնպիսին
այնպիսիք
այնտեղ
այնտեղի
այնտեղից
այնքա
այնքան
այնքանով
այո
այովա
այս
այսինչ
այսինքն
այսուամենայնիվ
այսուհանդերձ
այսուհետ
այսուհետև
այսչափ
այսպես
այսպէս
այսպիսի
այսպիսին
այսպիսով
այստեղ
այստեղի
այստեղից
այսքան
այսքանը
այսօր
այսօրվա
այսօրվան
այվազյան
այվազյանի
այվազովսկին
այվազովսկու
այտերը
այտուց
այտուցը
այտուցի
այր
այրարատ
այրել
այրես
այրեսի
այրեսում
այրի
այրին
այրման
այրող
այրու
այրում
այրված
այրվել
այրվող
այրվում
այց
այցելած
այցելել
այցելելով
այցելելու
այցելեց
այցելու
այցելության
այցելություն
այցելությունը
այցելությունների
այցելուի
այցելում
այցելուն
այցելուներ
այցելուները
այցելուների
այցելուներին
այցը
այցի
այցով
ան
անա
անաբոլիկ
անագի
անադիր
անալիզ
անալիզը
անալիզի
անալիտիկ
անալոգային
անախորժ
անախտանիշ
անակնկալ
անակնկալի
անահիտ
անահիտի
անաղբյուր
անանիա
անանկ
անանյան
անանուն
անաշխատանք
անաշխատունակ
անաշխատունակներից
անաչառ
անապահով
անապատ
անապատային
անապատը
անապատի
անապատներ
անապատներում
անապատում
անառակ
անառիկ
անասելի
անասնաբուժական
անասնաբուծական
անասնաբուծության
անասնապահական
անասնապահությամբ
անասնապահության
անասնապահություն
անասնապահությունը
անասնապահությունն
անասուն
անասուններ
անասունները
անասունների
անասուններին
անաստաս
անաստասիա
անավարտ
անատոլի
անատոլիա
անատոլիայի
անատոլիայում
անատոմիա
անատոմիական
անատոմիայի
անարատ
անարգ
անարգել
անարդար
անարդարության
անարդյունավետ
անարժան
անարխիստական
անբաժան
անբաժանելի
անբախտ
անբասիր
անբավարար
անբավարարությամբ
անբավարարության
անբավարարություն
անբավարարությունը
անբարենպաստ
անբարոյական
անբացատրելի
անբնական
անբուժելի
անգ
անգամ
անգամից
անգամն
անգամներ
անգելա
անգին
անգիտակից
անգիտակցաբար
անգիտակցական
անգիր
անգլ
անգլալեզու
անգլերեն
անգլերենը
անգլերենի
անգլերենին
անգլերենից
անգլերենով
անգլերենում
անգլիա
անգլիական
անգլիայի
անգլիային
անգլիայից
անգլիայում
անգլիան
անգլիացի
անգլիացին
անգլիացիները
անգլիացիների
անգլիացիներին
անգլիկան
անգլո
անգղ
անգնահատելի
անգոլայի
անգործ
անգործության
անգործունակ
անգութ
անգուլեմ
անգույն
անգրագետ
անդ
անդադար
անդալուսիա
անդալուսիայի
անդամ
անդամագրվել
անդամակցել
անդամակցելու
անդամակցության
անդամակցություն
անդամակցությունը
անդամակցում
անդամը
անդամի
անդամից
անդամն
անդամներ
անդամները
անդամների
անդամներին
անդամներից
անդամներն
անդամության
անդառնալի
անդեմ
անդերս
անդերսենի
անդերսոն
անդերսոնը
անդերսոնի
անդիմադրելի
անդին
անդորր
անդորրայի
անդունդը
անդունդի
անդր
անդրադառնալ
անդրադառնալով
անդրադառնում
անդրադարձ
անդրադարձավ
անդրադարձել
անդրադարձման
անդրանիկ
անդրանիկը
անդրանիկի
անդրբայկալյան
անդրե
անդրեա
անդրեաս
անդրեասի
անդրեասյանը
անդրեյ
անդրեյը
անդրեյի
անդրեն
անդրես
անդրեևիչ
անդրծովյան
անդրկարպատյան
անդրկովկաս
անդրկովկասը
անդրկովկասի
անդրկովկասյան
անդրկովկասում
անե
անել
անելը
անելիս
անելով
անելու
անելուց
անեծք
անեծքը
անեմ
անեն
անենք
անես
աներ
աներևակայելի
աներևույթ
անզգա
անզեն
անզոր
անզուգական
անզուսպ
անընդհատ
անընդմեջ
անընդունակ
անընդունելի
անթառամ
անթերի
անթիլիաս
անթիվ
անթույլատրելի
անթվակիր
անժամկետ
անժելա
անժելիկա
անի
անիի
անիլ
անիծյալ
անիծում
անիծված
անիկա
անիմաստ
անիմացիա
անիմացիայի
անիմացիոն
անիմե
անիմեի
անիմեն
անին
անիում
անիվը
անիվի
անիվների
անիտա
անիրագործելի
անիրական
անիրավ
անլար
անլեգալ
անլուծելի
անխախտ
անխափան
անխիղճ
անխնա
անխոնջ
անխոս
անխուսափելի
անխուսափելիորեն
անխտիր
անծանոթ
անծանոթը
անծանօթ
անկախ
անկախացումից
անկախության
անկախություն
անկախությունը
անկայուն
անկայունության
անկանխատեսելի
անկանոն
անկաշկանդ
անկասկած
անկատար
անկարա
անկարայի
անկարայում
անկարգ
անկարգություններ
անկարգությունները
անկարգությունների
անկարելի
անկարող
անկե
անկեղծ
անկեղծորեն
անկեղծությամբ
անկենդան
անկիրթ
անկման
անկմանը
անկյան
անկյուն
անկյունային
անկյունը
անկյունից
անկյունները
անկյունների
անկյուններից
անկյուններում
անկյունում
անկողին
անկողինը
անկողնի
անկողնում
անկում
անկումը
անկումից
անկուսակցական
անկրկնելի
անհաղթ
անհաղթահարելի
անհամաչափ
անհամապատասխան
անհամատեղելի
անհամար
անհամբեր
անհամբերությամբ
անհամեմատ
անհայտ
անհանգիստ
անհանգստանում
անհանգստացած
անհանգստացնում
անհանգստության
անհանգստություն
անհանգստությունը
անհաշտ
անհապաղ
անհաջող
անհաջողությամբ
անհաջողության
անհաջողություն
անհասանելի
անհասկանալի
անհավանական
անհավասար
անհավասարաչափ
անհավասարության
անհավասարությունը
անհավատալի
անհատ
անհատական
անհատականության
անհատականություն
անհատականությունը
անհատը
անհատի
անհատներ
անհատները
անհատների
անհատներին
անհարթ
անհարկի
անհարմար
անհեթեթ
անհետ
անհետաձգելի
անհետանում
անհետացած
անհետացավ
անհետացել
անհետացման
անհետացող
անհետացումը
անհերքելի
անհիմն
անհնազանդ
անհնազանդության
անհնար
անհնարին
անհնարինության
անհոգ
անհույս
անհուն
անհտ
անհրաժեշտ
անհրաժեշտության
անհրաժեշտություն
անհրաժեշտությունը
անձ
անձամբ
անձանց
անձանցից
անձեռնմխելի
անձեռնմխելիության
անձերի
անձը
անձի
անձին
անձինք
անձիք
անձն
անձնագիր
անձնակազմ
անձնակազմը
անձնակազմի
անձնակազմին
անձնական
անձնային
անձնանուններ
անձնանունների
անձնապես
անձնավորության
անձնավորություն
անձնավորությունը
անձնատուր
անձնվեր
անձրև
անձրևային
անձրևը
անձրևի
անձրևից
անձրևներ
անձրևները
անձրևների
անձրևոտ
անճոռնի
անմահ
անմահական
անմահության
անմահություն
անմատչելի
անմարդաբնակ
անմարդկային
անմաքուր
անմեղ
անմեղության
անմեղությունը
անմիջական
անմիջականորեն
անմիջապես
անմիջապէս
անմիտ
անմխիթար
անմշակ
անմոռանալի
անն
աննա
աննախադեպ
աննայի
աննային
աննան
աննկատ
աննկատելի
աննման
աննշան
աննպաստ
աննպատակ
անշարժ
անշնորհք
անշունչ
անշուշտ
անշուք
անո
անոթ
անոթային
անոթի
անոթներ
անոթները
անոթների
անող
անողնաշարավորներով
անողորմ
անողոք
անոմալ
անոնց
անոնցմե
անոնք
անոր
անորակ
անորոշ
անորոշության
անոց
անուամր
անուան
անուղղակի
անուղղակիորեն
անում
անուն
անունդ
անունը
անունից
անունն
անուններ
անունները
անունների
անուններից
անուններն
անուններով
անունով
անունս
անուշ
անուշադիր
անուշադրության
անուշահոտ
անուշավան
անչափ
անչափահաս
անչափահասների
անպակաս
անպայման
անպաշտպան
անպատասխան
անպատիժ
անպատճառ
անպարկեշտ
անպարտելի
անպետք
անպիտան
անպտուղ
անջատ
անջատել
անջատման
անջատողական
անջատում
անջատումը
անջատված
անջատվել
անջատվում
անջելես
անջելեսի
անջելեսում
անջելինա
անջելո
անսահման
անսահմանափակ
անսամբլ
անսամբլը
անսամբլի
անսանձ
անսասան
անսեռ
անսխալ
անսովոր
անսպառ
անսպասելի
անսպասելիորեն
անստորագիր
անվ
անվախ
անվամբ
անվայել
անվան
անվանական
անվանակարգ
անվանակարգեր
անվանակարգերում
անվանակարգի
անվանակարգում
անվանակոչվել
անվանափոխումներից
անվանափոխվել
անվանել
անվանելով
անվանեց
անվանեցին
անվանը
անվանի
անվանմամբ
անվանման
անվանում
անվանումը
անվանումից
անվանումն
անվանումներ
անվանումները
անվանումների
անվանումներով
անվանումով
անվանված
անվանվել
անվանվեց
անվանվում
անվավեր
անվերադարձ
անվերապահ
անվերապահորեն
անվերջ
անվերջության
անվիճելի
անվճար
անվնաս
անվստահություն
անվտանգ
անվտանգության
անվտանգություն
անվտանգությունը
անվտանգությունն
անտանելի
անտանտի
անտաշ
անտառ
անտառածածկ
անտառային
անտառապատ
անտառը
անտառի
անտառից
անտառներ
անտառները
անտառների
անտառներով
անտառներում
անտառում
անտարակույս
անտարբեր
անտարես
անտարկտիդա
անտարկտիդայի
անտարկտիկական
անտեղի
անտեղյակ
անտես
անտեսանելի
անտեսել
անտեսելով
անտեսում
անտեր
անտի
անտիկ
անտիոք
անտիոքի
անտիոքոս
անտիպ
անտոն
անտոնը
անտոնի
անտոնին
անտոնինա
անտոնիո
անտոնիոսը
անտոնիոսի
անտոնյան
անտուան
անտուն
անտվերպենի
անրի
անց
անցա
անցած
անցան
անցանկալի
անցանք
անցավ
անցեալ
անցել
անցկացման
անցկացնել
անցկացնելով
անցկացնելու
անցկացնելուց
անցկացնում
անցկացումը
անցկացված
անցկացվել
անցկացվեց
անցկացվեցին
անցկացվող
անցկացվում
անցկացրած
անցկացրել
անցկացրեց
անցման
անցյալ
անցյալը
անցյալի
անցյալին
անցյալից
անցյալում
անցնել
անցնելը
անցնելիս
անցնելով
անցնելու
անցնելուց
անցնեն
անցնենք
անցներ
անցնի
անցնող
անցնում
անցողիկ
անցուդարձ
անցուղիների
անցում
անցումային
անցումը
անցումների
անցք
անցքեր
անցքերը
անցքերի
անցքը
անցքի
անփոխարինելի
անփորձ
անփույթ
անփոփոխ
անքակտելի
անքուն
անօգնական
անօգուտ
անօդաչու
անօրգանական
անօրեն
անօրինակ
անօրինական
աշ
աշակերտ
աշակերտական
աշակերտել
աշակերտը
աշակերտի
աշակերտին
աշակերտն
աշակերտներ
աշակերտները
աշակերտների
աշակերտներին
աշակերտներից
աշակերտներն
աշակերտուհի
աշխ
աշխա
աշխատած
աշխատակազմի
աշխատակից
աշխատակիցը
աշխատակիցներ
աշխատակիցները
աշխատակիցների
աշխատակիցներին
աշխատակիցներից
աշխատակցել
աշխատակցի
աշխատանք
աշխատանքային
աշխատանքը
աշխատանքի
աշխատանքին
աշխատանքից
աշխատանքն
աշխատանքներ
աշխատանքները
աշխատանքների
աշխատանքներին
աշխատանքներից
աշխատանքներն
աշխատանքներով
աշխատանքներում
աշխատանքով
աշխատանքում
աշխատասենյակում
աշխատասեր
աշխատավարձ
աշխատավարձը
աշխատավարձի
աշխատավոր
աշխատավորական
աշխատավորները
աշխատավորների
աշխատավորության
աշխատատեղերի
աշխատել
աշխատելիս
աշխատելով
աշխատելու
աշխատելուց
աշխատեց
աշխատի
աշխատող
աշխատողի
աշխատողներ
աշխատողները
աշխատողների
աշխատողներին
աշխատության
աշխատություն
աշխատությունը
աշխատությունն
աշխատություններ
աշխատությունները
աշխատությունների
աշխատություններից
աշխատություններում
աշխատությունում
աշխատուժի
աշխատում
աշխատունակ
աշխատունակության
աշխար
աշխարհ
աշխարհաբար
աշխարհաբարի
աշխարհագրագետ
աշխարհագրական
աշխարհագրության
աշխարհագրություն
աշխարհագրությունը
աշխարհակալ
աշխարհական
աշխարհահռչակ
աշխարհամարտի
աշխարհամարտից
աշխարհամարտում
աշխարհայացքը
աշխարհայացքի
աշխարհացոյց
աշխարհաքաղաքական
աշխարհը
աշխարհի
աշխարհիկ
աշխարհին
աշխարհիս
աշխարհից
աշխարհն
աշխարհների
աշխարհով
աշխարհում
աշխարհքի
աշխեն
աշխենը
աշխույժ
աշնան
աշնանային
աշնանը
աշոտ
աշոտը
աշոտի
աշոտտնղ
աշուղ
աշուղական
աշուն
աշունը
աշտարակ
աշտարակը
աշտարակի
աշտարակից
աշտարակներ
աշտարակները
աշտարակների
աշտարակներով
աշտարակում
աո
աոանձին
աոաջին
աորտալ
աորտայի
աուդի
աուդիո
աուտիզմ
աուտիզմի
աուտոիմուն
աուրգազինսկի
աչք
աչքդ
աչքեր
աչքերդ
աչքերը
աչքերի
աչքերին
աչքերից
աչքերն
աչքերով
աչքերում
աչքերուն
աչքերս
աչքը
աչքի
աչքին
աչքիս
աչքից
աչքն
աչքով
աչքում
աչքս
ապ
ապա
ապագա
ապագայի
ապագային
ապագայում
ապագան
ապակե
ապակի
ապակին
ապակյա
ապակու
ապակուց
ապահով
ապահովագրական
ապահովագրության
ապահովել
ապահովելով
ապահովելու
ապահովեց
ապահովի
ապահովման
ապահովող
ապահովության
ապահովում
ապահովումը
ապահովված
ապահովվում
ապաչի
ապառնի
ապաստան
ապաստանած
ապաստանել
ապաստարան
ապար
ապարան
ապարանի
ապարանք
ապարանքը
ապարանքի
ապարատ
ապարատը
ապարատի
ապարատների
ապարդյուն
ապարներ
ապարները
ապարների
ապարներից
ապարներում
ապացույց
ապացույցը
ապացույցն
ապացույցներ
ապացույցները
ապացույցների
ապացուցել
ապացուցելու
ապացուցեց
ապացուցում
ապացուցված
ապացուցվել
ապաքինվելուց
ապենինյան
ապերը
ապհ
ապշած
ապշեցուցիչ
ապոլլոն
ապոլլոնի
ապոլոն
ապոլոնի
ապուլիա
ապուշ
ապուր
ապուրներ
ապստամբ
ապստամբած
ապստամբական
ապստամբել
ապստամբները
ապստամբների
ապստամբներին
ապստամբության
ապստամբությանը
ապստամբություն
ապստամբությունը
ապստամբությունից
ապստամբություններ
ապստամբությունները
ապստամբությունների
ապտակ
ապր
ապրած
ապրանք
ապրանքային
ապրանքանիշ
ապրանքանիշը
ապրանքանիշի
ապրանքը
ապրանքի
ապրանքներ
ապրանքները
ապրանքների
ապրել
ապրելակերպ
ապրելակերպը
ապրելակերպի
ապրելիությունը
ապրելով
ապրելու
ապրես
ապրեց
ապրեցին
ապրի
ապրիլ
ապրիլը
ապրիլի
ապրիլին
ապրիլից
ապրիլյան
ապրող
ապրում
ապրումները
ապրումների
ապրուստը
ապրուստի
ապօրինի
աջ
աջակից
աջակողմյան
աջակցել
աջակցելով
աջակցելու
աջակցեց
աջակցման
աջակցող
աջակցությամբ
աջակցության
աջակցություն
աջակցությունը
աջակցությունն
աջակցում
աջարիայի
աջափնյա
աջը
աջից
առ
առա
առած
առակ
առակը
առակի
առակներ
առակները
առակների
առաձգական
առաձգականության
առայժմ
առան
առանձին
առանձնակի
առանձնահատկություն
առանձնահատկությունը
առանձնահատկությունն
առանձնահատկություններ
առանձնահատկությունները
առանձնահատկությունների
առանձնահատկություններին
առանձնահատկություններից
առանձնահատկություններն
առանձնահատկություններով
առանձնահատուկ
առանձնանում
առանձնապես
առանձնատան
առանձնատանը
առանձնատուն
առանձնատունը
առանձնացած
առանձնացավ
առանձնացել
առանձնացնել
առանձնացնում
առանձնացված
առանձնացվել
առանձնացվում
առանձնացրել
առանձնյակների
առանց
առանցք
առանցքային
առանցքը
առանցքի
առանցքով
առաշին
առաջ
առաջա
առաջաբանը
առաջադեմ
առաջադիմական
առաջադիմության
առաջադիմություն
առաջադրած
առաջադրանք
առաջադրանքը
առաջադրանքի
առաջադրանքներ
առաջադրանքները
առաջադրանքների
առաջադրել
առաջադրեց
առաջադրման
առաջադրում
առաջադրումներ
առաջադրված
առաջադրվել
առաջադրվեց
առաջադրվում
առաջային
առաջանալ
առաջանում
առաջավոր
առաջատար
առաջատարը
առաջատարն
առաջատարներից
առաջարկ
առաջարկած
առաջարկել
առաջարկելով
առաջարկեց
առաջարկեցին
առաջարկը
առաջարկի
առաջարկին
առաջարկն
առաջարկներ
առաջարկները
առաջարկների
առաջարկով
առաջարկությամբ
առաջարկություն
առաջարկությունը
առաջարկություններ
առաջարկությունները
առաջարկում
առաջարկված
առաջարկվել
առաջարկվեց
առաջարկվող
առաջարկվում
առաջացած
առաջացան
առաջացավ
առաջացել
առաջացմամբ
առաջացման
առաջացմանը
առաջացնել
առաջացնելով
առաջացնելու
առաջացնող
առաջացնում
առաջացող
առաջացում
առաջացումը
առաջացրած
առաջացրել
առաջացրեց
առաջը
առաջընթաց
առաջընթացը
առաջընթացի
առաջընթացին
առաջի
առաջիկա
առաջիկայում
առաջին
առաջինը
առաջինի
առաջինին
առաջինից
առաջինն
առաջինները
առաջիններից
առաջինում
առաջխաղացման
առաջխաղացում
առաջխաղացումը
առաջն
առաջնաելույթ
առաջնաելույթը
առաջնախաղը
առաջնակարգ
առաջնահերթ
առաջնային
առաջնորդ
առաջնորդական
առաջնորդել
առաջնորդեց
առաջնորդը
առաջնորդի
առաջնորդին
առաջնորդն
առաջնորդներ
առաջնորդները
առաջնորդների
առաջնորդներին
առաջնորդներից
առաջնորդող
առաջնորդությամբ
առաջնորդության
առաջնորդում
առաջնորդվել
առաջնորդվում
առաջնության
առաջնությանը
առաջնություն
առաջնությունը
առաջնությունից
առաջնությունն
առաջնություններ
առաջնությունների
առաջնություններին
առաջնություններում
առաջնությունում
առաջուց
առաջվա
առասպել
առասպելական
առասպելը
առասպելի
առասպելներ
առասպելները
առասպելների
առաստաղը
առաստաղի
առավ
առավել
առավելագույն
առավելագույնը
առավելագույնի
առավելագույնս
առավելապես
առավելությամբ
առավելության
առավելություն
առավելությունը
առավելություններ
առավելությունները
առավելությունների
առավոտ
առավոտը
առավոտից
առավոտյան
առատ
առատաձեռն
առատորեն
առատությամբ
առատության
առարկա
առարկայական
առարկայի
առարկան
առարկաներ
առարկաները
առարկաների
առարկաներից
առաւ
առաւել
առափնյա
առաքել
առաքելական
առաքելյան
առաքելյանը
առաքելյանի
առաքելոց
առաքելության
առաքելություն
առաքելությունը
առաքելությունն
առաքինի
առաքինության
առաքինությունը
առաքման
առաքյալ
առաքյալը
առաքյալի
առաքյալների
առաքվում
առեալ
առել
առեղծվածային
առեղծվածը
առեց
առեք
առընթեր
առթիվ
առթիւ
առժամանակ
առի
առիթ
առիթը
առիթից
առիթներով
առիթով
առին
առկա
առկայությամբ
առկայության
առկայություն
առկայությունը
առկայությունն
առհասարակ
առմամբ
առյուծ
առյուծը
առյուծի
առյուծներ
առյուծները
առյուծների
առնական
առնանդամի
առնե
առնել
առնելով
առնելու
առնեմ
առնեն
առնենք
առնես
առնետների
առներ
առնէ
առնի
առնո
առնոլդ
առնող
առնուլ
առնում
առնչությամբ
առնչություն
առնչվող
առնչվում
առնվազն
առնված
առնվել
առնվում
առողջ
առողջական
առողջապահական
առողջապահության
առողջապահություն
առողջապահությունը
առողջարան
առողջարանային
առողջարաններ
առողջարար
առողջության
առողջությանը
առողջություն
առողջությունը
առումներով
առումով
առույգ
առուն
առջեւ
առջի
առջև
առջևը
առջևի
առջևից
առջևում
առվի
առտու
առցանց
առօրյա
առօրյան
առևանգել
առևանգման
առևանգում
առևանգումը
առևտուր
առևտուրը
առևտուրն
առևտր
առևտրա
առևտրական
առևտրականներ
առևտրականները
առևտրականների
առևտրային
առևտրի
առևտրով
առևտրում
աս
ասա
ասադի
ասած
ասածը
ասածները
ասամբլեայի
ասամբլեան
ասանկ
ասավ
ասատուր
ասատրյան
ասաց
ասացեք
ասացի
ասացին
ասացինք
ասացիր
ասե
ասել
ասելով
ասելու
ասեղ
ասեղի
ասեմ
ասեն
ասենք
ասես
ասեր
ասեց
ասեցի
ասեցին
ասեք
ասէ
ասըմ
ասթմայի
ասի
ասիա
ասիական
ասիայի
ասիայից
ասիայում
ասիան
ասիացի
ասիացիներ
ասիլ
ասիկա
ասիմետրիկ
ասիստենտ
ասլան
ասլանը
ասլանի
ասլանյան
ասխ
ասկե
ասկերան
ասկերանի
ասկից
ասողիկ
ասոնց
ասոնք
ասոր
ասորական
ասորեստանի
ասորեստանյան
ասորի
ասորիների
ասորիքի
ասոցացիայի
ասոցացման
ասոցացված
ասոցացվում
ասոցիացիա
ասոցիացիայի
ասոցիացիան
ասոցիացիաների
ասուլիսի
ասում
ասպարեզ
ասպարեզը
ասպարեզից
ասպարեզներում
ասպարեզում
ասպեկտները
ասպետ
ասպետական
ասպետը
ասպետի
ասպետներ
ասպետները
ասպետների
ասպիրանտ
ասպիրանտուրա
ասպիրանտուրայում
ասպիրանտուրան
ասսու
ասված
ասվել
ասվում
աստ
աստառը
աստերոիդ
աստերոիդը
աստերոիդի
աստերոիդներ
աստերոիդները
աստերոիդների
աստի
աստիճան
աստիճանաբար
աստիճանական
աստիճանը
աստիճանի
աստիճանին
աստիճանից
աստիճանն
աստիճաններ
աստիճանները
աստիճանների
աստիճաններով
աստիճանով
աստծո
աստծու
աստծուն
աստծուց
աստղ
աստղագետ
աստղագետներ
աստղագետների
աստղագիտական
աստղագիտության
աստղագիտություն
աստղադիտակ
աստղադիտակը
աստղադիտակի
աստղադիտարան
աստղադիտարանը
աստղադիտարանի
աստղադիտարանում
աստղային
աստղաֆիզիկայի
աստղեր
աստղերը
աստղերի
աստղերից
աստղը
աստղի
աստղիկ
աստոծ
աստոն
աստուած
աստուծո
աստուծոյ
աստուրիայի
աստվա
աստված
աստվածաբան
աստվածաբանական
աստվածաբաններ
աստվածաբանության
աստվածաբանություն
աստվածածին
աստվածածինը
աստվածածնի
աստվածամոր
աստվածային
աստվածաշնչի
աստվածաշնչյան
աստվածաշնչում
աստվածաշունչ
աստվածաշունչը
աստվածատուր
աստվածը
աստվածն
աստվածներ
աստվածները
աստվածների
աստվածներին
աստվածության
աստվածություն
աստվածուհի
աստվածուհին
աստվածուհու
աստրախան
աստրախանի
աստրախանում
ասրյան
ասք
ավ
ավա
ավագ
ավագանին
ավագանու
ավագը
ավագի
ավագյան
ավագյանը
ավագն
ավագների
ավազ
ավազակ
ավազակային
ավազակներ
ավազակները
ավազակների
ավազային
ավազան
ավազանային
ավազաների
ավազանը
ավազանի
ավազանին
ավազանում
ավազարկղ
ավազե
ավազը
ավազի
ավազոտ
ավան
ավանգարդ
ավանդ
ավանդաբար
ավանդական
ավանդը
ավանդի
ավանդները
ավանդների
ավանդության
ավանդություն
ավանդությունը
ավանդույթ
ավանդույթը
ավանդույթի
ավանդույթներ
ավանդույթները
ավանդույթների
ավանդույթներին
ավանդույթներից
ավանդույթներով
ավանեսյան
ավանը
ավանի
ավաններ
ավանները
ավանում
ավատատիրական
ավար
ավարայրի
ավարտ
ավարտած
ավարտական
ավարտել
ավարտելով
ավարտելու
ավարտելուց
ավարտեց
ավարտը
ավարտի
ավարտին
ավարտից
ավարտում
ավարտուն
ավարտված
ավարտվել
ավարտվեց
ավարտվեցին
ավարտվում
ավգուստ
ավե
ավել
ավելանում
ավելացան
ավելացավ
ավելացել
ավելացմամբ
ավելացման
ավելացմանը
ավելացնել
ավելացնելով
ավելացնելու
ավելացնում
ավելացում
ավելացումը
ավելացված
ավելացվել
ավելացվեց
ավելացվում
ավելացրել
ավելացրեց
ավելացրեք
ավելի
ավելին
ավելորդ
ավելցուկ
ավելցուկային
ավելցուկը
ավետ
ավետարան
ավետարանական
ավետարանը
ավետարանի
ավետիս
ավետիսի
ավետիսյան
ավետիսյանը
ավետիսյանի
ավետիք
ավերածություններ
ավերածությունների
ավերակ
ավերակներ
ավերակները
ավերակների
ավերել
ավերեցին
ավերիչ
ավերոն
ավերում
ավերված
ավերվել
ավերվեց
ավիաընկերության
ավիաընկերությունը
ավիացիա
ավիացիայի
ավիացիոն
ավիվ
ավիվի
ավշային
ավստրալիա
ավստրալիական
ավստրալիայի
ավստրալիայում
ավստրալիան
ավստրալիացի
ավստրիա
ավստրիական
ավստրիայի
ավստրիայում
ավստրիան
ավստրիացի
ավստրո
ավտո
ավտոբուս
ավտոբուսային
ավտոբուսի
ավտոբուսների
ավտոխճուղով
ավտոճանապարհների
ավտոմատ
ավտոմատացման
ավտոմատացված
ավտոմեքենա
ավտոմեքենայի
ավտոմեքենան
ավտոմեքենաներ
ավտոմեքենաների
ավտոմոբիլային
ավտովթարի
ավտորիտար
ավրորա
ատ
ատալանտայի
ատամ
ատամի
ատամնաբուժական
ատամնաբույժ
ատամնավոր
ատամներ
ատամները
ատամների
ատամներով
ատանկ
ատել
ատելի
ատելությամբ
ատելության
ատելություն
ատելությունը
ատեն
ատենախոսության
ատենախոսություն
ատենախոսությունը
ատիկա
ատիպիկ
ատլանտա
ատլանտայում
ատլանտյան
ատլաս
ատլետիկ
ատլետիկո
ատյանի
ատոմ
ատոմական
ատոմային
ատոմը
ատոմի
ատոմները
ատոմների
ատոմներից
ատոր
ատում
ատրճանակ
ատրճանակը
ատրճանակի
ատրպատականի
ատրպետի
ար
արա
արաբ
արաբա
արաբագետ
արաբական
արաբերեն
արաբերենի
արաբիա
արաբիայի
արաբիայում
արաբիան
արաբկիր
արաբներ
արաբները
արաբների
արաբներին
արագ
արագած
արագածի
արագածոտն
արագածոտնի
արագաշարժ
արագացման
արագացնել
արագացնում
արագացում
արագացումը
արագացված
արագընթաց
արագոն
արագոնի
արագորեն
արագությամբ
արագության
արագություն
արագությունը
արագությունից
արագությունն
արագությունների
արած
արածանի
արածանիի
արական
արամ
արամայիս
արամը
արամի
արամյան
արամյանը
արայի
արայիկ
արան
արանքում
արավ
արատ
արատավոր
արատներ
արատները
արատների
արար
արարած
արարածը
արարածի
արարածներ
արարածների
արարատ
արարատը
արարատի
արարատյան
արարողության
արարողությանը
արարողություն
արարողությունը
արարողություններ
արարողությունները
արարողությունների
արարք
արարքը
արարքի
արարքները
արարքների
արաքս
արաքսը
արաքսի
արաքսյան
արբանյակ
արբանյակային
արբանյակը
արբանյակի
արբանյակներ
արբանյակները
արբանյակների
արգանդի
արգասիք
արգավանդ
արգելակման
արգելակում
արգելափակել
արգելափակման
արգելափակում
արգելափակված
արգելափակվել
արգելել
արգելելու
արգելեց
արգելման
արգելոց
արգելոցը
արգելոցի
արգելոցում
արգելում
արգելված
արգելվել
արգելվեց
արգելվում
արգելք
արգելքը
արգելքի
արգելքներ
արգելքները
արգելքների
արգենտինա
արգենտինական
արգենտինայի
արգենտինայում
արգենտինան
արգենտինացի
արգիշտի
արդ
արդահանի
արդար
արդարադատության
արդարացի
արդարացնել
արդարացնելու
արդարացնում
արդարացված
արդարացվել
արդարության
արդարություն
արդարությունը
արդարև
արդեն
արդեններ
արդեշ
արդեօք
արդէն
արդի
արդիական
արդիականացման
արդյո
արդյու
արդյունա
արդյունաբերական
արդյունաբերող
արդյունաբերու
արդյունաբերության
արդյունաբերություն
արդյունաբերությունը
արդյունաբերությունն
արդյունահանման
արդյունահանում
արդյունահանումը
արդյունահանվում
արդյունավետ
արդյունավետորեն
արդյունավետությամբ
արդյունավետության
արդյունավետություն
արդյունավետությունը
արդյունք
արդյունքը
արդյունքի
արդյունքին
արդյունքն
արդյունքներ
արդյունքները
արդյունքների
արդյունքներից
արդյունքներն
արդյունքներով
արդյունքով
արդյունքում
արդյոք
արե
արեալը
արեգ
արեգակ
արեգակը
արեգակի
արեգակին
արեգակից
արեգակն
արեգակնային
արել
արեն
արենա
արենի
արեց
արեցի
արեցին
արեւմտահայաստանի
արեւմտահայերէն
արեւմտահայութեան
արեք
արզնի
արզումանը
արզումանյան
արթիկի
արթին
արթնանում
արթնացնում
արթուն
արթուր
արթուրը
արթուրի
արժան
արժանանալ
արժանանալով
արժանանալու
արժանանում
արժանապատիվ
արժանապատվության
արժանապատվությունը
արժանավոր
արժանացած
արժանացան
արժանացավ
արժանացել
արժանացրել
արժանի
արժանիքների
արժե
արժեթղթերի
արժեր
արժեցել
արժեք
արժեքային
արժեքավոր
արժեքը
արժեքի
արժեքին
արժեքից
արժեքն
արժեքներ
արժեքները
արժեքների
արժեքներին
արժեքներով
արժեքով
արժի
արժողությամբ
արժողության
արժութային
արժույթ
արժույթը
արժույթի
արի
արիադնան
արիական
արիանա
արիզոնա
արիզոնայի
արին
արիության
արիություն
արիստակես
արիստոկրատ
արիստոտելը
արիստոտելի
արիստոտէլի
արիր
արլ
արխանգելսկի
արխիվ
արխիվային
արխիվացված
արխիվը
արխիվի
արխիվների
արխիվներում
արխիվում
արծաթ
արծաթագույն
արծաթափայլ
արծաթե
արծաթը
արծաթի
արծաթից
արծաթյա
արծաթով
արծիվ
արծիվը
արծվի
արծրունի
արծրունին
արծրունիների
արծրունյաց
արծրունու
արկ
արկադի
արկածային
արկածներ
արկածները
արկածների
արկանզաս
արկի
արկղ
արկղը
արկղի
արկտիկական
արկտիկայի
արհամարհական
արհամարհանքով
արհամարհում
արհեստ
արհեստագործական
արհեստական
արհեստականորեն
արհեստակցական
արհեստանոց
արհեստանոցը
արհեստանոցներ
արհեստանոցում
արհեստավոր
արհեստավորներ
արհեստավորները
արհեստավորների
արհեստը
արհեստի
արհեստները
արհեստների
արհեստներով
արհմիութենական
արհմիության
արհմիությունները
արհմիությունների
արձագանք
արձագանքել
արձագանքեց
արձագանքը
արձագանքի
արձագանքներ
արձագանքները
արձագանքների
արձագանքում
արձակ
արձակագիր
արձակագիրներ
արձակած
արձակել
արձակելով
արձակելու
արձակեց
արձակը
արձակի
արձակման
արձակում
արձակուրդ
արձակուրդը
արձակուրդի
արձակուրդները
արձակուրդների
արձակված
արձակվել
արձակվեց
արձակվում
արձան
արձանագրել
արձանագրության
արձանագրություն
արձանագրությունը
արձանագրություններ
արձանագրությունները
արձանագրությունների
արձանագրություններով
արձանագրություններում
արձանագրում
արձանագրված
արձանագրվել
արձանը
արձանի
արձանիկ
արձանիկներ
արձանն
արձաններ
արձանները
արձանների
արճեշ
արճեշի
արմ
արման
արմավենի
արմավենու
արմավիր
արմավիրի
արմատ
արմատախիլ
արմատական
արմատային
արմատապես
արմատը
արմատի
արմատից
արմատներ
արմատները
արմատների
արմատներով
արմեն
արմենակ
արմենակի
արմենի
արմենիա
արմենուհի
արմինե
արմսթրոնգը
արմսթրոնգի
արյամբ
արյան
արյեժ
արյուն
արյունալի
արյունահեղ
արյունահոսության
արյունահոսություն
արյունահոսությունը
արյունատար
արյունը
արյունից
արյունն
արյունով
արյունոտ
արշալույս
արշալույսին
արշակ
արշակը
արշակի
արշակունի
արշակունիների
արշակունյաց
արշավ
արշավախմբի
արշավախումբը
արշավանք
արշավանքը
արշավանքի
արշավանքին
արշավանքից
արշավանքներ
արշավանքները
արշավանքների
արշավանքներին
արշավանքներից
արշավել
արշավը
արշավի
արշավին
արշավիր
արշավների
արշավում
արոմատիկ
արոտավայրեր
արու
արուի
արուն
արուները
արուների
արուս
արջ
արջերի
արջը
արջի
արսեն
արսենալ
արսենալը
արսենալի
արսենի
արվ
արված
արվարձան
արվարձաններում
արվարձանում
արվել
արվեստ
արվեստաբան
արվեստագետ
արվեստագետի
արվեստագետներ
արվեստագետները
արվեստագետների
արվեստագիտության
արվեստանոց
արվեստանոցը
արվեստանոցի
արվեստանոցում
արվեստը
արվեստի
արվեստին
արվեստից
արվեստն
արվեստների
արվեստով
արվեստում
արվեց
արվում
արտ
արտա
արտաբջջային
արտագաղթել
արտագաղթը
արտագաղթի
արտագնա
արտադր
արտադրած
արտադրական
արտադրամասի
արտադրանք
արտադրանքը
արտադրանքի
արտադրանքն
արտադրել
արտադրելու
արտադրման
արտադրյալը
արտադրող
արտադրողական
արտադրողականության
արտադրողականությունը
արտադրողը
արտադրողի
արտադրողներ
արտադրողները
արտադրողների
արտադրու
արտադրությամբ
արտադրության
արտադրությանը
արտադրություն
արտադրությունը
արտադրությունն
արտադրությունում
արտադրում
արտադրված
արտադրվել
արտադրվող
արտադրվում
արտազատում
արտազատումը
արտազատվում
արտակ
արտակարգ
արտահայտած
արտահայտել
արտահայտելով
արտահայտելու
արտահայտեց
արտահայտիչ
արտահայտման
արտահայտող
արտահայտությամբ
արտահայտության
արտահայտություն
արտահայտությունը
արտահայտությունն
արտահայտություններ
արտահայտությունները
արտահայտությունների
արտահայտություններից
արտահայտում
արտահայտչական
արտահայտված
արտահայտվել
արտահայտվեց
արտահայտվում
արտահանման
արտահանում
արտահանումը
արտահանվում
արտահերթ
արտահոսքը
արտահոսքի
արտանետումները
արտանետումների
արտաշատ
արտաշատի
արտաշատում
արտաշես
արտաշեսը
արտաշեսի
արտաշեսյան
արտաշեսյանների
արտասահման
արտասահմանից
արտասահմանյան
արտասահմանում
արտասահմանցի
արտասանել
արտասանեց
արտասանության
արտասանությունը
արտասանում
արտասանվում
արտասովոր
արտասուք
արտասուքը
արտասուքի
արտասուքով
արտավազդ
արտավազդը
արտավազդի
արտատպվում
արտարժույթի
արտացոլել
արտացոլման
արտացոլող
արտացոլում
արտացոլումը
արտացոլումն
արտացոլված
արտացոլվել
արտացոլվում
արտաքին
արտաքինը
արտաքինի
արտաքինից
արտաքինով
արտաքնապես
արտաքուստ
արտաքսել
արտաքսման
արտաքսվել
արտգործնախարար
արտեմ
արտեմի
արտերը
արտերկրում
արտը
արտի
արտիստ
արտիստական
արտիստը
արտիստի
արտիստներ
արտիստների
արտիստուհի
արտյոմ
արտոնագիր
արտոնագիրը
արտոնագրի
արտոնագրում
արտոնագրված
արտոնյալ
արտոնություն
արտոնություններ
արտոնությունները
արտոնությունների
արցախ
արցախահայության
արցախը
արցախի
արցախյան
արցախում
արցունք
արցունքի
արցունքներ
արցունքները
արփա
արփի
արք
արքա
արքայադուստր
արքայադուստրը
արքայադստեր
արքայազն
արքայազնը
արքայազնի
արքայազնին
արքայական
արքայատոհմի
արքայի
արքային
արքայից
արքան
արքաներ
արքաները
արքաների
արքեպիսկոպոս
արքեպիսկոպոսը
արքեպիսկոպոսի
արքունական
արքունի
արքունիք
արքունիքը
արքունիքի
արքունիքին
արքունիքում
արև
արևադարձային
արևադարձի
արևածաղկի
արևային
արևելա
արևելագետ
արևելագետներ
արևելագիտության
արևելաեվրոպական
արևելահայ
արևելահայերեն
արևելյան
արևելք
արևելքը
արևելքի
արևելքից
արևելքում
արևը
արևի
արևիկ
արևին
արևից
արևմուտք
արևմուտքը
արևմուտքի
արևմուտքից
արևմուտքում
արևմտա
արևմտաեվրոպական
արևմտահայ
արևմտահայերեն
արևմտահայերի
արևմտահայության
արևմտյան
արևն
արևոտ
ացտեկների
աւ
աւելի
ափ
ափամերձ
ափեր
ափերը
ափերի
ափերին
ափերից
ափը
ափի
ափին
ափից
ափով
ափում
ափսո
ափսոս
ափսոսում
աք
աքեմենյան
աքսորել
աքսորի
աքսորից
աքսորում
աքսորված
աքսորվել
աֆեկտիվ
աֆղանական
աֆղանստան
աֆղանստանի
աֆղանստանում
աֆրիկա
աֆրիկական
աֆրիկայի
աֆրիկայից
աֆրիկայում
աֆրիկան
աֆրիկացի
աֆրիկյան
աֆրոամերիկացի
աֆրոամերիկացիներ
բ
բա
բաա
բաբա
բաբայան
բաբայանը
բաբաջանյան
բաբաջանյանի
բաբելոն
բաբելոնի
բաբելոնյան
բաբի
բաբկեն
բագրատ
բագրատունի
բագրատունին
բագրատունիների
բագրատունյաց
բագրատունու
բադ
բադալյան
բադեն
բադի
բազ
բազա
բազալ
բազալտ
բազալտե
բազալտից
բազայի
բազային
բազայում
բազան
բազար
բազե
բազեի
բազել
բազելի
բազիլիկ
բազիլիկը
բազիլիկի
բազմա
բազմաբնակարան
բազմաբնույթ
բազմաբջիջ
բազմագույն
բազմադարյան
բազմազան
բազմազանությամբ
բազմազանության
բազմազանություն
բազմազանությունը
բազմազգ
բազմաթիվ
բազմաթիւ
բազմալեզու
բազմակի
բազմակողմանի
բազմահարկ
բազմամարդ
բազմամյա
բազմանդամ
բազմանիստ
բազմանում
բազմաշերտ
բազմապատիկ
բազմապատկման
բազմապիսի
բազմավեպ
բազմատեսակ
բազմացման
բազմացում
բազմացումը
բազմաքանակ
բազմաֆունկցիոնալ
բազմիցս
բազմոցի
բազմության
բազմություն
բազմությունը
բազմությունների
բազում
բաթում
բաթումի
բաթումում
բաժակ
բաժակը
բաժակի
բաժակները
բաժան
բաժանարար
բաժանել
բաժանելով
բաժանելու
բաժանեց
բաժանեցին
բաժանման
բաժանմունք
բաժանմունքը
բաժանմունքի
բաժանմունքներ
բաժանմունքում
բաժանող
բաժանորդ
բաժանում
բաժանումը
բաժանումից
բաժանված
բաժանվել
բաժանվեց
բաժանվեցին
բաժանվում
բաժին
բաժինը
բաժինն
բաժիններ
բաժինները
բաժինների
բաժիններից
բաժիններով
բաժիններում
բաժնետերերի
բաժնետիրական
բաժնետոմսերը
բաժնետոմսերի
բաժնի
բաժնից
բաժնում
բաիա
բալ
բալա
բալայան
բալդուին
բալետ
բալետային
բալետը
բալետի
բալետմայստեր
բալետներ
բալետում
բալթիական
բալթիկ
բալթյան
բալի
բալիստիկ
բալլադ
բալլադը
բալլադներ
բալկանյան
բալկաններում
բալքի
բախ
բախի
բախման
բախշյան
բախում
բախումը
բախումներ
բախումները
բախումների
բախչիսարայի
բախվել
բախվեց
բախվում
բախտ
բախտավոր
բախտը
բախտի
բախտին
բակ
բակալավրի
բակը
բակի
բակում
բակունց
բակունցը
բակունցի
բակտերիալ
բակտերիաներ
բակտերիաները
բակտերիաների
բահայի
բաղ
բաղադրատոմսը
բաղադրիչ
բաղադրիչը
բաղադրիչի
բաղադրիչն
բաղադրիչներ
բաղադրիչները
բաղադրիչների
բաղադրիչներից
բաղադրյալ
բաղադրությամբ
բաղադրության
բաղադրություն
բաղադրությունը
բաղաձայն
բաղաձայնների
բաղդադ
բաղդադի
բաղդադում
բաղդասար
բաղդասարյան
բաղդասարյանը
բաղկացած
բաղկացուցիչ
բաղնիք
բաղրամյան
բամբակ
բամբակե
բամբակի
բամբակյա
բայ
բայազետ
բայազետի
բայական
բայեր
բայերը
բայերի
բայը
բայթ
բայի
բայկալ
բայրոնի
բայց
բան
բանա
բանալ
բանալի
բանալին
բանալիները
բանալով
բանալու
բանակ
բանակային
բանական
բանականության
բանականություն
բանականությունը
բանակը
բանակի
բանակին
բանակից
բանակն
բանակները
բանակների
բանակով
բանակում
բանակցային
բանակցել
բանակցություններ
բանակցությունները
բանակցությունների
բանակցություններին
բանակցություններից
բանակցություններում
բանահավաք
բանահավաքի
բանահյուսական
բանահյուսության
բանահյուսություն
բանահյուսությունը
բանաձև
բանաձևեր
բանաձևերը
բանաձևերի
բանաձևը
բանաձևի
բանաձևով
բանան
բանանի
բանանց
բանաս
բանասեր
բանասերներ
բանասիրական
բանասիրության
բանաստեղծ
բանաստեղծական
բանաստեղծը
բանաստեղծի
բանաստեղծին
բանաստեղծն
բանաստեղծներ
բանաստեղծները
բանաստեղծների
բանաստեղծներից
բանաստեղծության
բանաստեղծություն
բանաստեղծությունը
բանաստեղծությունն
բանաստեղծություններ
բանաստեղծությունները
բանաստեղծությունների
բանաստեղծություններից
բանաստեղծություններում
բանաստեղծուհի
բանաստեղծուհիներ
բանավեճ
բանավեճերի
բանավեճի
բանավոր
բանբեր
բանգլադեշի
բաներ
բաները
բաների
բանը
բանի
բանին
բանից
բանկ
բանկային
բանկեր
բանկերը
բանկերի
բանկը
բանկի
բանկիր
բանկում
բանն
բանով
բանում
բանջարաբոստանային
բանջարաբուծությամբ
բանջարեղեն
բանջարեղենը
բանջարեղենի
բանվոր
բանվորա
բանվորական
բանվորի
բանվորներ
բանվորները
բանվորների
բանվորներին
բանտ
բանտային
բանտարկել
բանտարկյալ
բանտարկյալները
բանտարկյալների
բանտարկյալներին
բանտարկության
բանտարկված
բանտարկվել
բանտերում
բանտը
բանտի
բանտից
բանտում
բաշ
բաշխման
բաշխում
բաշխումը
բաշխված
բաշխվում
բաշկիրական
բաշկորտոստան
բաշկորտոստանի
բառ
բառային
բառապաշար
բառապաշարը
բառապաշարի
բառարան
բառարանը
բառարանի
բառարաններ
բառարանում
բառացի
բառացիորեն
բառգիրք
բառեր
բառերը
բառերի
բառերից
բառերն
բառերով
բառերում
բառը
բառի
բառին
բառից
բառն
բառով
բաս
բասենի
բասի
բասիստ
բասկետբոլ
բասկետբոլային
բասկետբոլի
բասկետբոլիստ
բասկետբոլիստներ
բասկերի
բավական
բավականաչափ
բավականին
բավականություն
բավարական
բավարար
բավարարել
բավարարելու
բավարարման
բավարարում
բավարարվել
բավարարվում
բավարիա
բավարիայի
բավարիայում
բավարիան
բատիստ
բատիստա
բատուտան
բար
բարակ
բարաք
բարբառ
բարբառային
բարբառը
բարբառի
բարբառներ
բարբառները
բարբառների
բարբառով
բարբարա
բարբարոս
բարբարոսական
բարբարոսների
բարգավաճ
բարգավաճման
բարդ
բարդանում
բարդի
բարդության
բարդություն
բարդությունը
բարդություններ
բարդությունները
բարդությունների
բարդություններից
բարդուղիմեոս
բարե
բարեբախտաբար
բարեբեր
բարեգործ
բարեգործական
բարեգործության
բարեգործություն
բարելավել
բարելավելու
բարելավման
բարելավմանը
բարելավում
բարելավումը
բարելավված
բարելավվել
բարելավվում
բարեխառն
բարեխիղճ
բարեկամ
բարեկամական
բարեկամը
բարեկամի
բարեկամին
բարեկամն
բարեկամներ
բարեկամները
բարեկամների
բարեկամներին
բարեկամներից
բարեկամության
բարեկամություն
բարեկամությունը
բարեկամս
բարեկարգման
բարեկեցիկ
բարեկեցության
բարեկեցությունը
բարեհաջող
բարենորոգումների
բարենպաստ
բարենցի
բարեպաշտ
բարեսիրտ
բարերար
բարերարներ
բարեփոխման
բարեփոխում
բարեփոխումներ
բարեփոխումները
բարեփոխումների
բարի
բարին
բարիտոն
բարիք
բարիքի
բարիքների
բարխուդարյան
բարկանում
բարկացած
բարկացավ
բարկությամբ
բարկությունը
բարձ
բարձի
բարձունք
բարձունքը
բարձունքի
բարձունքները
բարձունքների
բարձր
բարձրա
բարձրագույն
բարձրադիր
բարձրակարգ
բարձրահասակ
բարձրահարկ
բարձրաձայն
բարձրանա
բարձրանալ
բարձրանալով
բարձրանալու
բարձրանում
բարձրաստիճան
բարձրավանդակի
բարձրավանդակում
բարձրարժեք
բարձրարվեստ
բարձրացած
բարձրացան
բարձրացավ
բարձրացել
բարձրացմամբ
բարձրացման
բարձրացմանը
բարձրացնել
բարձրացնելով
բարձրացնելու
բարձրացնող
բարձրացնում
բարձրացող
բարձրացում
բարձրացումը
բարձրացված
բարձրացվել
բարձրացվում
բարձրացրած
բարձրացրել
բարձրացրեց
բարձրացրին
բարձրաքանդակ
բարձրլեռնային
բարձրորակ
բարձրությամբ
բարձրության
բարձրություն
բարձրությունը
բարձրությունից
բարձրությունները
բարձրությունների
բարձրություններում
բարյացակամ
բարո
բարոկկո
բարոկկոյի
բարոյական
բարոյականության
բարոյականությունը
բարոյապես
բարոն
բարով
բարորակ
բարու
բարության
բարպային
բարպան
բարսելոնա
բարսելոնայի
բարսելոնայում
բարսելոնան
բարսեղ
բարսեղյան
բարվոք
բարրի
բարքերը
բարքերի
բարօրության
բարև
բաց
բացած
բացակա
բացակայել
բացակայությամբ
բացակայության
բացակայությանը
բացակայություն
բացակայությունը
բացակայությունից
բացակայությունն
բացակայում
բացականչեց
բացականչում
բացահայտ
բացահայտել
բացահայտելով
բացահայտելու
բացահայտեց
բացահայտման
բացահայտմանը
բացահայտորեն
բացահայտում
բացահայտումը
բացահայտված
բացահայտվել
բացահայտվեց
բացահայտվում
բացառապես
բացառել
բացառիկ
բացառությամբ
բացառության
բացառություն
բացառություններ
բացառում
բացառված
բացառվում
բացասաբար
բացասական
բացավ
բացատրական
բացատրել
բացատրելով
բացատրելու
բացատրեց
բացատրության
բացատրություն
բացատրությունը
բացատրություններ
բացատրությունները
բացատրում
բացատրվել
բացատրվում
բացարձակ
բացարձակապես
բացել
բացելով
բացելու
բացեց
բացեցին
բացը
բացի
բացման
բացմանը
բացում
բացումը
բացումից
բացված
բացվածքը
բացվածքի
բացվել
բացվեց
բացվեցավ
բացվեցին
բացվի
բացվող
բացվում
բացօթյա
բաւական
բաքու
բաքուն
բաքվի
բաքվից
բաքվում
բբը
բգա
բե
բեատրիս
բեգլարյան
բեթ
բեթի
բեթհովենի
բեթմեն
բեթմենը
բեթմենի
բել
բելա
բելայա
բելառուս
բելառուսական
բելառուսը
բելառուսի
բելառուսում
բելգիա
բելգիական
բելգիայի
բելգիայում
բելգիան
բելգիացի
բելգորոդի
բելգրադ
բելգրադի
բելգրադում
բելը
բելի
բելլ
բելլա
բելլան
բելլի
բելոգորսկի
բելոպոլիեի
բեկ
բեկը
բեկի
բեկին
բեկման
բեկորային
բեկորներ
բեկորները
բեկորների
բեկում
բեկումնային
բեղմնավոր
բեղմնավորման
բեմ
բեմադրել
բեմադրիչ
բեմադրող
բեմադրությամբ
բեմադրության
բեմադրություն
բեմադրությունը
բեմադրություններ
բեմադրությունների
բեմադրություններում
բեմադրում
բեմադրված
բեմադրվել
բեմադրվում
բեմական
բեմերում
բեմը
բեմի
բեմին
բեմից
բեմում
բեյ
բեյը
բեյի
բեյսբոլի
բեյրութ
բեյրութի
բեյրութում
բեյքեր
բեն
բենգալյան
բենդ
բենդի
բենեդիկտ
բենեդիկտոս
բենը
բենի
բենիամին
բենին
բենիտո
բենջամին
բենֆիկա
բենֆիկայի
բեռ
բեռը
բեռի
բեռլին
բեռլինը
բեռլինի
բեռլինյան
բեռլինում
բեռն
բեռնակիր
բեռնատար
բեռնարդ
բեռնել
բեռները
բեռների
բեռնի
բեռնում
բեռնված
բեսթսելլեր
բետա
բետոնե
բետոնի
բեր
բերած
բերայի
բերան
բերանային
բերանացի
բերանը
բերանի
բերանին
բերանից
բերանն
բերանով
բերանում
բերավ
բերգիշ
բերդ
բերդաքաղաք
բերդեր
բերդերը
բերդերի
բերդը
բերդի
բերդից
բերդն
բերդում
բերե
բերել
բերելը
բերելով
բերելու
բերելուց
բերեմ
բերեն
բերենք
բերեր
բերեց
բերեցին
բերեք
բերէ
բերի
բերին
բերինգի
բերկլիի
բերձոր
բերման
բերնարդ
բերնին
բերող
բերում
բերումը
բերումով
բերված
բերվել
բերվեց
բերվեցին
բերվում
բերտա
բերտան
բերտրան
բերրի
բերք
բերքատվությունը
բերքը
բերքի
բեք
բեքեր
բը
բժիշկ
բժիշկը
բժիշկն
բժիշկներ
բժիշկները
բժիշկների
բժիշկներին
բժշկ
բժշկա
բժշկագիտության
բժշկական
բժշկապետ
բժշկի
բժշկին
բժշկության
բժշկություն
բժշկությունը
բի
բիա
բիբլիական
բիգ
բիզնես
բիզնեսը
բիզնեսի
բիզնեսմեն
բիզնեսով
բիզնեսում
բիթ
բիթլիս
բիթլիսի
բիլ
բիլբաոյի
բիլի
բիլլ
բիլլի
բիծ
բիկել
բին
բիչ
բիվեր
բիրմինգհեմ
բիրմինգհեմի
բիրտ
բլեյք
բլեյքը
բլեյքի
բլեք
բլյուզ
բլոգ
բլոգեր
բլոկ
բլոկը
բլոկի
բլոկների
բլուր
բլուրը
բլուրի
բլուրներ
բլուրները
բլուրների
բլրի
բխող
բխում
բծավոր
բծեր
բծերով
բկմա
բղավում
բմ
բյուգանդական
բյուզ
բյուզանդական
բյուզանդացի
բյուզանդացիները
բյուզանդացիների
բյուզանդիա
բյուզանդիայի
բյուզանդիայում
բյուզանդիան
բյուջե
բյուջեի
բյուջեից
բյուջեն
բյուջետային
բյուր
բյուրական
բյուրականի
բյուրավոր
բյուրեղային
բյուրեղապակյա
բյուրեղի
բյուրեղներ
բյուրեղները
բյուրեղների
բյուրո
բյուրոյի
բյուրոն
բն
բնա
բնագավառ
բնագավառի
բնագավառների
բնագավառներում
բնագավառում
բնագետ
բնագիտական
բնագիտության
բնագիր
բնագիրը
բնագրի
բնագրում
բնադրման
բնադրում
բնածին
բնակ
բնական
բնականաբար
բնականոն
բնակավայր
բնակավայրեր
բնակավայրերը
բնակավայրերի
բնակավայրերից
բնակավայրերն
բնակավայրերում
բնակավայրը
բնակավայրի
բնակավայրից
բնակավայրն
բնակավայրում
բնակատեղի
բնակարան
բնակարանային
բնակարանը
բնակարանի
բնակարաններ
բնակարանները
բնակարանների
բնակարանում
բնակելի
բնակեցման
բնակեցված
բնակեցվել
բնակիչ
բնակիչը
բնակիչներ
բնակիչները
բնակիչների
բնակիչներին
բնակիչներից
բնակիչներն
բնակլիմայական
բնակության
բնակություն
բնակչի
բնակչին
բնակչով
բնակչությամբ
բնակչության
բնակչությանը
բնակչություն
բնակչությունը
բնակչությունից
բնակչությունն
բնակվել
բնակվելու
բնակվող
բնակվում
բնանկար
բնանկարի
բնանկարներ
բնաշխարհ
բնաշխարհիկ
բնապահպանական
բնապահպանության
բնապատկեր
բնաջնջման
բնավ
բնավորությամբ
բնավորության
բնավորություն
բնավորությունը
բնաւ
բները
բներում
բնի
բնիկ
բնիկները
բնիկների
բնից
բնորոշ
բնորոշել
բնորոշող
բնորոշում
բնորոշվում
բնութագիր
բնութագիրը
բնութագրական
բնութագրել
բնութագրեր
բնութագրերը
բնութագրերի
բնութագրող
բնութագրում
բնութագրվել
բնութագրվում
բնութեան
բնության
բնությանը
բնություն
բնությունը
բնությունից
բնությունն
բնույթ
բնույթը
բնույթի
բնույթին
բնույթից
բնույթն
բնույթով
բնօրինակ
բնօրինակը
բնօրինակի
բնօրինակում
բո
բոբ
բոբբի
բոբի
բոբիկ
բոգդան
բոլ
բոլիվիա
բոլիվիայի
բոլշայա
բոլշևիկ
բոլշևիկյան
բոլշևիկները
բոլշևիկների
բոլոնիայի
բոլոր
բոլորակ
բոլորգրով
բոլորը
բոլորի
բոլորին
բոլորիս
բոլորից
բոլորն
բոլորովին
բոլորս
բոլցմանի
բոկա
բոհեմիայի
բողոք
բողոքական
բողոքականների
բողոքել
բողոքը
բողոքի
բողոքներ
բողոքները
բողոքների
բողոքում
բոյ
բոն
բոնապարտը
բոնապարտի
բոնդ
բոնդի
բոնի
բոննի
բոուել
բոուելի
բոսնիա
բոսնիական
բոսնիայի
բոսնիացի
բոստոն
բոստոնի
բոստոնում
բոսֆորի
բովանդակ
բովանդակային
բովանդակությամբ
բովանդակության
բովանդակությանը
բովանդակություն
բովանդակությունը
բովանդակությունից
բովանդակությունն
բովանդակում
բոր
բորբոքային
բորբոքման
բորբոքում
բորբոքումը
բորբոքումների
բորբոքված
բորդո
բորդոյի
բորի
բորիս
բորիսի
բորնգեն
բորնգենի
բորուսիա
բորուսիայի
բորսա
բորսայի
բորսայում
բորսան
բոց
բոցը
բու
բուդապեշտ
բուդապեշտի
բուդապեշտում
բուդդայական
բուդդայականության
բուդդայի
բուդդիզմի
բուենոս
բուզանդի
բութ
բուժ
բուժական
բուժել
բուժելու
բուժիչ
բուժկայան
բուժկետ
բուժման
բուժմանը
բուժում
բուժումը
բուժումից
բուժումն
բուժվել
բուժվում
բուժքույր
բուժքույրական
բուժքույրերի
բուժօգնության
բուժօգնություն
բուլ
բուլգակովի
բուլղար
բուլղարական
բուլղարացի
բուլղարերեն
բուլղարիա
բուլղարիայի
բուլղարիայում
բուլղարիան
բուխարեստ
բուխարեստի
բուխարեստում
բուծման
բուծում
բուհ
բուհական
բուհերի
բուհերում
բուհի
բույե
բույն
բույնը
բույս
բույսեր
բույսերը
բույսերի
բույսերին
բույսերից
բույսերն
բույսերով
բույսը
բույսի
բույր
բույրը
բուն
բունդեսլիգայի
բունդեսլիգայում
բունը
բուշ
բուշը
բուշի
բուռ
բուռն
բուս
բուսաբան
բուսաբանական
բուսաբանության
բուսական
բուսականությամբ
բուսականության
բուսականություն
բուսականությունը
բուսակեր
բուրավետ
բուրբոն
բուրբոնների
բուրգ
բուրգասի
բուրգեր
բուրգերի
բուրգը
բուրգի
բուրգունդիայի
բուրդ
բուրդը
բուրժ
բուրժուա
բուրժուազիայի
բուրժուազիան
բուրժուական
բուրկ
բուրկինա
բպհմ
բջիջ
բջիջը
բջիջներ
բջիջները
բջիջների
բջիջներին
բջիջներից
բջիջներն
բջիջներում
բջջային
բջջի
բջջից
բջջում
բռնաբարել
բռնաբարության
բռնագաղթի
բռնազավթված
բռնած
բռնակալ
բռնակալության
բռնաճնշումների
բռնապետական
բռնապետության
բռնել
բռնելով
բռնելու
բռնեց
բռնեցին
բռնի
բռնկման
բռնկումը
բռնկված
բռնկվել
բռնկվեց
բռնկվում
բռնությամբ
բռնության
բռնություն
բռնությունը
բռնությունները
բռնությունների
բռնում
բռնված
բռնվել
բռնվում
բռնցքամարտի
բռնցքամարտիկ
բռնցքամարտիկներ
բրազիլական
բրազիլացի
բրազիլացին
բրազիլիա
բրազիլիայի
բրազիլիայում
բրազիլիան
բրածո
բրամսի
բրայան
բրանդենբուրգ
բրանդենբուրգի
բրաուն
բրաունը
բրաունի
բրգաձև
բրդե
բրդի
բրդյա
բրեդ
բրեխտի
բրենդը
բրենդի
բրեշիա
բրեստ
բրեստի
բրիգադ
բրիգադը
բրիգադի
բրիթնի
բրինձ
բրինձը
բրիտանական
բրիտանացի
բրիտանացիները
բրիտանացիների
բրիտանիա
բրիտանիայի
բրիտանիային
բրիտանիայից
բրիտանիայում
բրիտանիան
բրյանսկի
բրյուս
բրյուսել
բրյուսելի
բրյուսելում
բրյուսը
բրյուսի
բրյուսովի
բրնձի
բրոդվեյի
բրոդվեյում
բրոմվիչ
բրոնզ
բրոնզե
բրոնզեդարյան
բրոնզի
բրոնզից
բրոուտոն
բրունո
բրունոն
բրուքլին
բրուքլինի
բևեռ
բևեռային
բևեռացման
բևեռը
բևեռի
գ
գա
գաա
գաբրիել
գաբրիելա
գաբրիելի
գաբրիելյան
գաբրիելյանը
գագաթ
գագաթը
գագաթի
գագաթին
գագաթից
գագաթնաժողովի
գագաթնակետը
գագաթնակետին
գագաթները
գագաթների
գագաթով
գագայի
գագան
գագարինի
գագարինսկի
գագիկ
գազ
գազայի
գազային
գազան
գազանը
գազանի
գազանների
գազար
գազետա
գազեր
գազերը
գազերի
գազը
գազի
գազով
գաթ
գալ
գալա
գալակտիկայի
գալակտիկաների
գալը
գալի
գալիլեյը
գալիլեյի
գալիլեո
գալինա
գալիս
գալիք
գալով
գալու
գալուն
գալուստ
գալուստը
գալուց
գալստյան
գալստյանը
գահ
գահաժառանգ
գահակալել
գահակալման
գահակալության
գահերի
գահը
գահընկեց
գահի
գահին
գահից
գաղափար
գաղափարախոսական
գաղափարախոսության
գաղափարախոսություն
գաղափարախոսությունը
գաղափարական
գաղափարը
գաղափարի
գաղափարին
գաղափարից
գաղափարն
գաղափարներ
գաղափարները
գաղափարների
գաղափարներին
գաղափարներից
գաղափարներն
գաղափարներով
գաղափարով
գաղթած
գաղթական
գաղթականներ
գաղթականների
գաղթականներին
գաղթականության
գաղթել
գաղթը
գաղթի
գաղութ
գաղութային
գաղութատիրական
գաղութատիրության
գաղութարարների
գաղութացման
գաղութը
գաղութի
գաղութներ
գաղութները
գաղութների
գաղութներում
գաղութում
գաղտնի
գաղտնիության
գաղտնիք
գաղտնիքը
գաղտնիքի
գաղտնիքներ
գաղտնիքները
գաղտնիքների
գաճաճ
գամ
գամմա
գայ
գայանե
գայանեն
գայի
գային
գայլ
գայլեր
գայլերը
գայլերի
գայլը
գայլի
գայոս
գան
գանա
գանայի
գանգ
գանգատ
գանգատվում
գանգը
գանգի
գանգուղեղային
գանգուր
գանդիի
գանդին
գանձ
գանձակ
գանձակի
գանձակում
գանձասար
գանձասարի
գանձարան
գանձարանը
գանձարանի
գանձեր
գանձերը
գանձերի
գանձը
գանք
գաուսի
գապոնը
գապոնի
գառան
գառնի
գառնիի
գառնիկ
գաս
գասպար
գասպարյան
գասպարյանը
գասպարյանի
գավազան
գավազանը
գավաթ
գավաթակիր
գավաթակիրների
գավաթը
գավաթի
գավաթին
գավաթում
գավառ
գավառագիտական
գավառակ
գավառական
գավառակի
գավառակում
գավառային
գավառը
գավառի
գավառին
գավառից
գավառն
գավառներ
գավառները
գավառների
գավառներից
գավառներում
գավառում
գավթի
գավիթ
գավիթը
գատչինսկի
գար
գարահիսարի
գարդեն
գարդմանահայ
գարեգին
գարեգինը
գարեգինի
գարեջուր
գարեջրի
գարի
գարիկ
գարին
գարնան
գարնանային
գարնանը
գարշելի
գարու
գարուն
գարունը
գարսիա
գարսիան
գացած
գացեր
գացման
գբ
գդալ
գդհ
գե
գեթ
գել
գեղ
գեղագիտական
գեղագիտության
գեղազարդիչ
գեղամ
գեղամա
գեղանի
գեղանկար
գեղանկարիչ
գեղանկարիչներ
գեղանկարչական
գեղանկարչությամբ
գեղանկարչության
գեղանկարչություն
գեղանկարչությունը
գեղասահքի
գեղատեսիլ
գեղարդ
գեղարվեստ
գեղարվեստա
գեղարվեստաթատերական
գեղարվեստական
գեղարվեստի
գեղարքունիք
գեղարքունիքի
գեղեցիկ
գեղեցիկը
գեղեցիկի
գեղեցկությամբ
գեղեցկության
գեղեցկություն
գեղեցկությունը
գեղեցկուհի
գեղեցկուհին
գեղը
գեղի
գեղին
գեղձերի
գեղձի
գեղջկական
գեյ
գեն
գենադի
գենային
գենդերային
գենետիկ
գենետիկա
գենետիկական
գենետիկայի
գենետիկորեն
գեներ
գեներալ
գեներալը
գեներալի
գեներալներ
գեները
գեների
գենը
գենի
գենոմի
գեշ
գեորգ
գեորգի
գեորգիի
գեորգիոս
գետ
գետաբերան
գետաբերանը
գետաբերանի
գետաբերանից
գետաբերանում
գետակ
գետակի
գետային
գետաշեն
գետաշենի
գետավազանը
գետեր
գետերը
գետերի
գետերից
գետերն
գետերով
գետերում
գետը
գետի
գետին
գետինը
գետից
գետն
գետնափոր
գետնի
գետնին
գետնից
գետով
գետում
գետտոյի
գեր
գերագույն
գերադասելի
գերադասում
գերազանց
գերազանցապես
գերազանցել
գերազանցելով
գերազանցեց
գերազանցող
գերազանցությամբ
գերազանցության
գերազանցում
գերակա
գերակայության
գերակայությունը
գերակշիռ
գերակշռել
գերակշռող
գերակշռում
գերասիմովի
գերատեսչական
գերատեսչությունների
գերբնական
գերդաստանի
գերեզման
գերեզմանատան
գերեզմանատանը
գերեզմանատուն
գերեզմանատունը
գերեզմանը
գերեզմանի
գերեզմանին
գերեզմաններ
գերեզմանները
գերեզմանների
գերեզմանոց
գերեզմանոցը
գերեզմանոցի
գերեզմանոցում
գերեզմանում
գերելս
գերելսի
գերի
գերին
գերիների
գերիներին
գերիշխանության
գերիշխանությունը
գերիշխող
գերիշխում
գերհարդ
գերձայնային
գերմ
գերման
գերմանա
գերմանալեզու
գերմանախոս
գերմանական
գերմանացի
գերմանացիներ
գերմանացիները
գերմանացիների
գերմանացիներին
գերմաներեն
գերմաներենի
գերմաներենից
գերմանիա
գերմանիայի
գերմանիային
գերմանիայից
գերմանիայում
գերմանիան
գերմարդկային
գերության
գերությունից
գէորգ
գը
գըլ
գթության
գի
գիա
գիժ
գիլդիայի
գիծ
գիծը
գիծն
գիմնազիա
գիմնազիայի
գիմնազիայում
գիմնազիան
գիյոմ
գին
գինեգործության
գինեսի
գինը
գինի
գինին
գինիներ
գինիների
գինն
գինով
գինու
գիշատիչ
գիշատիչների
գիշեր
գիշերային
գիշերը
գիշերին
գիշերն
գիշերներ
գիշերները
գիշերով
գիշերում
գիշերվա
գիշերվան
գիշերօթիկ
գիորգի
գիպս
գիսաստղ
գիսաստղերի
գիսաստղի
գիտ
գիտա
գիտաժողով
գիտաժողովի
գիտակ
գիտական
գիտականորեն
գիտակից
գիտակրթական
գիտակցաբար
գիտակցական
գիտակցել
գիտակցելով
գիտակցության
գիտակցություն
գիտակցությունը
գիտակցում
գիտակցված
գիտահանրամատչելի
գիտահետազոտական
գիտաշխատող
գիտատեխ
գիտատեխնիկական
գիտարշավի
գիտափորձի
գիտաֆանտաստիկ
գիտե
գիտեի
գիտեին
գիտելիք
գիտելիքը
գիտելիքի
գիտելիքներ
գիտելիքները
գիտելիքների
գիտեմ
գիտեն
գիտենալ
գիտենք
գիտես
գիտեր
գիտեք
գիտէ
գիտի
գիտնալ
գիտնական
գիտնականը
գիտնականի
գիտնականներ
գիտնականները
գիտնականների
գիտնականներին
գիտնականներից
գիտնականներն
գիտությամբ
գիտության
գիտությանը
գիտություն
գիտությունը
գիտությունն
գիտություններ
գիտությունները
գիտությունների
գիր
գիրը
գիրկը
գիրք
գիրքը
գիրքն
գիւղի
գլ
գլադբախ
գլազգոյի
գլաձորի
գլանաձև
գլանի
գլեբ
գլեն
գլինկայի
գլխ
գլխամասային
գլխապտույտ
գլխավերևում
գլխավոր
գլխավորած
գլխավորապես
գլխավորել
գլխավորելով
գլխավորեց
գլխավորը
գլխավորի
գլխավորն
գլխավորությամբ
գլխավորում
գլխարկ
գլխարկը
գլխարկի
գլխարկներ
գլխարկով
գլխացավ
գլխաւոր
գլխի
գլխիդ
գլխին
գլխիս
գլխիվայր
գլխից
գլխով
գլխովին
գլխուղեղը
գլխուղեղի
գլխուղեղում
գլխում
գլխուն
գլյուկոզի
գլոբալ
գլոբուս
գլոբուսի
գլորիա
գլորվում
գլուխ
գլուխգործոց
գլուխգործոցը
գլուխգործոցներ
գլուխդ
գլուխը
գլուխն
գլուխներ
գլուխները
գլուխների
գլուխներից
գլուխս
գխ
գծային
գծապատկեր
գծեր
գծերը
գծերի
գծերից
գծերն
գծերով
գծի
գծին
գծից
գծով
գծում
գհ
գհի
գմբեթ
գմբեթավոր
գմբեթը
գմբեթի
գմբեթով
գյոթեի
գյոթինգենի
գյու
գյուլիստանի
գյուղ
գյուղա
գյուղակ
գյուղական
գյուղատեղի
գյուղատնտ
գյուղատնտես
գյուղատնտեսական
գյուղատնտեսությամբ
գյուղատնտեսության
գյուղատնտեսությանը
գյուղատնտեսություն
գյուղատնտեսությունը
գյուղատնտեսությունն
գյուղացի
գյուղացիական
գյուղացին
գյուղացիներ
գյուղացիները
գյուղացիների
գյուղացիներին
գյուղացիներից
գյուղացիության
գյուղացիք
գյուղացու
գյուղացուն
գյուղաքաղաք
գյուղաքաղաքից
գյուղեր
գյուղերը
գյուղերի
գյուղերից
գյուղերն
գյուղերում
գյուղը
գյուղի
գյուղին
գյուղից
գյուղն
գյուղում
գյումրի
գյումրիի
գյումրիում
գյումրու
գյուստավ
գյուտ
գյուտարար
գյուտարարներ
գյուտերի
գյուտը
գյուտի
գնա
գնալ
գնալը
գնալիս
գնալով
գնալու
գնալուց
գնահատական
գնահատականը
գնահատականի
գնահատականներ
գնահատականները
գնահատականների
գնահատականներով
գնահատել
գնահատելով
գնահատելու
գնահատեց
գնահատմամբ
գնահատման
գնահատում
գնահատումը
գնահատված
գնահատվել
գնահատվում
գնաճը
գնաճի
գնամ
գնային
գնան
գնանք
գնաս
գնար
գնաց
գնացած
գնացել
գնացեք
գնացի
գնացին
գնացինք
գնացող
գնացք
գնացքը
գնացքի
գնացքները
գնացքների
գնացքով
գնացքում
գնդակ
գնդակահարել
գնդակահարվել
գնդակը
գնդակի
գնդակին
գնդակները
գնդակով
գնդաձև
գնդային
գնդապետ
գնդապետի
գնդացիր
գնդերը
գնդերի
գնդի
գնդում
գնել
գնելով
գնելու
գներ
գները
գների
գներով
գնեց
գնի
գնման
գնով
գնորդների
գնում
գնումներ
գնումների
գնչուների
գնված
գնվել
գո
գոգավոր
գոգենի
գոգը
գոգի
գոգոլի
գոթական
գոթերի
գոթֆրիդ
գոլ
գոլային
գոլդեն
գոլեր
գոլերը
գոլերի
գոլը
գոլի
գոլն
գոլով
գոլորշի
գոլորշիների
գոլորշու
գոլֆ
գոլֆի
գոհ
գոհար
գոհարիկ
գող
գողանալ
գողանում
գողացել
գողացված
գողը
գողթն
գողության
գողություն
գոմես
գոմեսը
գոմի
գոյա
գոյական
գոյականների
գոյանում
գոյաս
գոյատևել
գոյատևեց
գոյատևման
գոյատևում
գոյացած
գոյացել
գոյացման
գոյացնում
գոյութիւն
գոյության
գոյությանը
գոյություն
գոյությունը
գոյությունն
գոնե
գոնէ
գոնսալես
գոշ
գոշը
գոշի
գոչեց
գոռ
գոռաց
գոռոզ
գոռում
գովազդ
գովազդային
գովազդը
գովազդի
գովազդներում
գովազդում
գովասանքի
գովել
գովում
գոտի
գոտին
գոտիներ
գոտիները
գոտիների
գոտիներում
գոտկային
գոտու
գոտում
գոտուց
գոր
գորգ
գորգագործական
գորգեր
գորգերը
գորգերի
գորգը
գորգի
գորդոն
գորդոնը
գորդոնի
գորիի
գորիս
գորիսի
գորիսում
գործ
գործադիր
գործադուլ
գործադուլը
գործադուլի
գործադրել
գործադրելու
գործադրում
գործազուրկ
գործազրկության
գործազրկությունը
գործած
գործածական
գործածել
գործածության
գործածությունը
գործածությունից
գործածություններ
գործածում
գործածված
գործածվել
գործածվող
գործածվում
գործակալ
գործակալը
գործակալի
գործակալներ
գործակալները
գործակալների
գործակալության
գործակալություն
գործակալությունը
գործակալությունների
գործակալությունում
գործակից
գործակիցը
գործակցի
գործառնական
գործառնությունների
գործառույթ
գործառույթը
գործառույթի
գործառույթներ
գործառույթները
գործառույթների
գործարան
գործարանային
գործարանը
գործարանի
գործարաններ
գործարանները
գործարանների
գործարաններում
գործարանում
գործարար
գործարարներ
գործարարների
գործարկել
գործարկման
գործարկվել
գործարք
գործարքը
գործարքի
գործարքներ
գործարքները
գործարքների
գործել
գործելով
գործելու
գործեն
գործեր
գործերը
գործերի
գործերին
գործերից
գործերն
գործերով
գործերում
գործեց
գործեցին
գործը
գործընթաց
գործընթացը
գործընթացի
գործընթացին
գործընթացն
գործընթացներ
գործընթացները
գործընթացների
գործընթացներին
գործընթացներում
գործընթացում
գործընկեր
գործընկերը
գործընկերներ
գործընկերները
գործընկերների
գործընկերներին
գործընկերոջ
գործընկերության
գործի
գործին
գործիչ
գործիչը
գործիչներ
գործիչները
գործիչների
գործիչներին
գործիչներից
գործից
գործիք
գործիքային
գործիքը
գործիքի
գործիքներ
գործիքները
գործիքների
գործիքներից
գործիքներով
գործկոմի
գործն
գործնական
գործնականորեն
գործնականում
գործող
գործողությամբ
գործողության
գործողությանը
գործողություն
գործողությունը
գործողությունից
գործողությունն
գործողություններ
գործողությունները
գործողությունների
գործողություններին
գործողություններից
գործողություններն
գործողություններով
գործողություններում
գործոն
գործոնը
գործոնի
գործոններ
գործոնները
գործոնների
գործոններից
գործոններն
գործոններով
գործով
գործոց
գործուղվել
գործում
գործուն
գործունեու
գործունեությամբ
գործունեության
գործունեությանը
գործունեություն
գործունեությունը
գործունեությունից
գործունեությունն
գործունյա
գործչի
գործս
գործվածք
գործվածքի
գործվածքներ
գործվածքների
գործք
գորկի
գորկին
գորկու
գորշ
գորտ
գորտը
գու
գուգարաց
գուգարք
գուգարքի
գուդրիկ
գում
գումար
գումարած
գումարային
գումարել
գումարը
գումարի
գումարին
գումարման
գումարն
գումարներ
գումարները
գումարների
գումարով
գումարում
գումարումների
գումարվել
գումարվում
գումարտակ
գումարտակը
գումարտակի
գույն
գույներ
գույները
գույների
գույներն
գույներով
գույնզգույն
գույնը
գույնի
գույնն
գույնով
գույք
գույքային
գույքը
գույքի
գունագեղ
գունաթափ
գունային
գունավոր
գունավորմամբ
գունավորում
գունավորումը
գունավորված
գունատ
գունդ
գունդը
գունեղ
գուշակել
գուշակում
գուսան
գուսանական
գուստավ
գուրգեն
գուրգենը
գուրգենի
գուրիայի
գուցե
գուցէ
գռեհիկ
գվատեմալայի
գվարդիա
գվարդիական
գվարդիայի
գվարդիան
գվինեա
գվինեայի
գտա
գտած
գտածոներ
գտածոները
գտան
գտավ
գտել
գտնել
գտնելը
գտնելով
գտնելու
գտնեմ
գտնեն
գտներ
գտնի
գտնում
գտնված
գտնվել
գտնվելը
գտնվելով
գտնվելու
գտնվեր
գտնվեց
գտնվեցին
գտնվի
գտնվող
գտնվում
գր
գրա
գրաբար
գրաբարի
գրագետ
գրագիտության
գրագիր
գրադ
գրադարան
գրադարանային
գրադարանը
գրադարանի
գրադարանն
գրադարաններ
գրադարանները
գրադարանների
գրադարանում
գրած
գրածը
գրակ
գրական
գրականագետ
գրականագետներ
գրականագիտական
գրականագիտության
գրականական
գրականութեան
գրականութիւն
գրականությամբ
գրականության
գրականությանը
գրականություն
գրականությունը
գրականությունից
գրականությունն
գրականությունում
գրամ
գրային
գրան
գրանադա
գրանադայի
գրանդ
գրանդե
գրանդի
գրանիտ
գրանիտե
գրանտ
գրանցամատյանի
գրանցել
գրանցեց
գրանցմամբ
գրանցման
գրանցում
գրանցումը
գրանցված
գրանցվել
գրանցվեց
գրանցվում
գրառման
գրառում
գրառումը
գրառումներ
գրառումները
գրառումների
գրասեղանի
գրասենյակ
գրասենյակային
գրասենյակը
գրասենյակի
գրասենյակներ
գրասենյակները
գրասենյակում
գրավ
գրաված
գրավել
գրավելով
գրավելու
գրավելուց
գրավեց
գրավեցին
գրավի
գրավիչ
գրավիտացիոն
գրավման
գրավմանը
գրավոր
գրավում
գրավումը
գրավումից
գրավված
գրավվել
գրավվեց
գրացի
գրաքննադատ
գրաքննադատներ
գրաքննության
գրաքննությունը
գրաֆ
գրաֆի
գրաֆիկ
գրաֆիկա
գրաֆիկական
գրաֆիկայի
գրաֆիկան
գրաֆիկը
գրաֆների
գրգռման
գրգռում
գրգռված
գրե
գրեգ
գրեգորի
գրեթե
գրեթէ
գրել
գրելը
գրելիս
գրելով
գրելու
գրելուց
գրեմ
գրեմմի
գրեմմիի
գրեյ
գրեյը
գրեյի
գրեյս
գրեն
գրենլանդիայի
գրենք
գրետա
գրեր
գրերը
գրերի
գրեց
գրեցեք
գրեցի
գրեցին
գրեք
գրէ
գրի
գրիբոյեդովի
գրիգոր
գրիգորը
գրիգորի
գրիգորիս
գրիգորյան
գրիգորյանը
գրիգորյանի
գրիմ
գրին
գրինը
գրինի
գրիշա
գրիչ
գրիչը
գրիչի
գրիչների
գրիպի
գրիր
գրկ
գրկած
գրկել
գրկեց
գրկում
գրոհ
գրոհայինների
գրոհել
գրոհը
գրոհի
գրոհները
գրոհով
գրոհում
գրող
գրողը
գրողի
գրողին
գրողն
գրողներ
գրողները
գրողների
գրողներին
գրողներից
գրոսմայստեր
գրոսմայստերներ
գրոսու
գրով
գրոց
գրուած
գրությամբ
գրության
գրություն
գրությունը
գրություններ
գրությունները
գրում
գրունենվելդի
գրունտային
գրունևելդ
գրունևելդի
գրչի
գրչին
գրչության
գրպանը
գրպանի
գրպանից
գրպանում
գրված
գրվածքը
գրվածքի
գրվածքները
գրվածքների
գրվել
գրվեց
գրվի
գրվում
գրքային
գրքեր
գրքերը
գրքերի
գրքերից
գրքերն
գրքերով
գրքերում
գրքի
գրքին
գրքից
գրքով
գրքում
գրքույկ
գրքույկը
գցած
գցել
գցելով
գցելու
գցեց
գցում
գֆհ
գևորգ
գևորգը
գևորգի
գևորգյան
գևորգյանը
գևորգյանի
դ
դա
դագաղը
դագաղի
դադար
դադարել
դադարեց
դադարեցին
դադարեցման
դադարեցնել
դադարեցնելու
դադարեցնում
դադարեցումը
դադարեցվել
դադարեցվեց
դադարեցվում
դադարեցրել
դադարեցրեց
դադարի
դադարից
դադարում
դաժան
դաժանորեն
դաժանությամբ
դաժանության
դալ
դալայ
դալաս
դալար
դալի
դալիի
դակոտա
դահլիճ
դահլիճը
դահլիճի
դահլիճից
դահլիճում
դահուկային
դաղստան
դաղստանի
դամ
դամասկոս
դամասկոսի
դամասկոսում
դամբարան
դամբարանը
դամբարանի
դամբարաններ
դամբարանները
դամբարանների
դամբարանում
դամբլդորի
դայակ
դայան
դայանա
դային
դան
դանակ
դանակը
դանակի
դանակներ
դանակով
դանդաղ
դանդաղեցնում
դանդաղորեն
դանդաղում
դանթե
դանթեի
դանի
դանիա
դանիական
դանիայի
դանիայում
դանիան
դանիացի
դանիել
դանիելը
դանիելի
դանիելյան
դանիելյանը
դանիիլ
դանուբ
դանուբի
դաշ
դաշինք
դաշինքը
դաշինքի
դաշինքին
դաշնագիրը
դաշնագրի
դաշնակահար
դաշնակահարներ
դաշնակահարուհի
դաշնակից
դաշնակիցը
դաշնակիցներ
դաշնակիցները
դաշնակիցների
դաշնակիցներին
դաշնակցական
դաշնակցային
դաշնակցութեան
դաշնակցության
դաշնակցություն
դաշնակցությունը
դաշնամուր
դաշնամուրային
դաշնամուրի
դաշնային
դաշնության
դաշնություն
դաշնությունում
դաշտ
դաշտային
դաշտանային
դաշտավայր
դաշտավայրը
դաշտավարությամբ
դաշտեր
դաշտերը
դաշտերի
դաշտերում
դաշտը
դաշտի
դաշտին
դաշտից
դաշտն
դաշտով
դաշտում
դաունի
դառավ
դառել
դառը
դառն
դառնա
դառնալ
դառնալը
դառնալով
դառնալու
դառնալուց
դառնամ
դառնայ
դառնան
դառնանք
դառնար
դառնությամբ
դառնում
դաս
դասա
դասագիրք
դասագիրքը
դասագրքեր
դասագրքերի
դասագրքի
դասագրքում
դասախոս
դասախոսական
դասախոսել
դասախոսներ
դասախոսների
դասախոսության
դասախոսություն
դասախոսությունը
դասախոսություններ
դասախոսությունները
դասախոսությունների
դասական
դասականների
դասակարգային
դասակարգել
դասակարգերի
դասակարգը
դասակարգի
դասակարգման
դասակարգում
դասակարգումը
դասակարգված
դասակարգվել
դասակարգվում
դասակի
դասային
դասավանդել
դասավանդելու
դասավանդման
դասավանդում
դասավանդումը
դասավանդվում
դասավորությամբ
դասավորության
դասավորությունը
դասավորված
դասավորվում
դասատու
դասարան
դասարանը
դասարանի
դասարանից
դասարաններ
դասարանների
դասարաններում
դասարանում
դասել
դասեր
դասերը
դասերի
դասերին
դասերից
դասը
դասընթաց
դասընթացը
դասընթացի
դասընթացներ
դասընթացները
դասընթացների
դասընթացներին
դասընթացներում
դասի
դասին
դասից
դասում
դասվել
դասվում
դաստակերտ
դաստակերտը
դաստակերտի
դաստակի
դաստիարակ
դաստիարակել
դաստիարակությամբ
դաստիարակության
դաստիարակությանը
դաստիարակություն
դաստիարակությունը
դաստիարակում
դաստիարակչական
դաստիարակվել
դավադրության
դավադրություն
դավադրությունը
դավաճան
դավաճանել
դավաճանության
դավաճանություն
դավաճանությունը
դավաճանում
դավանաբանական
դավանանքը
դավանանքի
դավանում
դավթի
դավթյան
դավթյանը
դավթյանի
դավիդ
դավիդի
դավիթ
դավիթը
դավիթի
դավրիժեցու
դատ
դատաբժշկական
դատախազ
դատախազը
դատախազի
դատախազության
դատախազությունը
դատական
դատապարտել
դատապարտեց
դատապարտում
դատապարտված
դատապարտվել
դատապարտվեց
դատապարտվում
դատաստան
դատաստանի
դատավարական
դատավարության
դատավարություն
դատավարությունը
դատավճիռ
դատավճիռը
դատավճռի
դատավոր
դատավորը
դատավորի
դատավորներ
դատավորները
դատավորների
դատարան
դատարանը
դատարանի
դատարանին
դատարանն
դատարաններ
դատարանները
դատարանների
դատարանում
դատարկ
դատարկություն
դատել
դատելով
դատը
դատի
դատին
դատողության
դատողություններ
դատողությունները
դատողությունների
դատում
դար
դարաշրջան
դարաշրջանը
դարաշրջանի
դարաշրջանին
դարաշրջանից
դարաշրջանների
դարաշրջանում
դարասկզբի
դարասկզբին
դարավերջին
դարավոր
դարբին
դարբինյան
դարդ
դարեհ
դարեն
դարեր
դարերը
դարերի
դարերին
դարերից
դարերով
դարերում
դարը
դարի
դարին
դարից
դարձ
դարձա
դարձած
դարձան
դարձավ
դարձաւ
դարձեալ
դարձել
դարձելի
դարձի
դարձյալ
դարձնել
դարձնելով
դարձնելու
դարձնի
դարձնում
դարձվել
դարձվում
դարձրել
դարձրեց
դարձրին
դարման
դարյա
դարյան
դարն
դարով
դարու
դարում
դարուն
դարչնագույն
դարպաս
դարպասապահ
դարպասապահը
դարպասապահի
դարպասապահներ
դարպասը
դարպասի
դարպասին
դարպասներ
դարպասները
դարպասների
դարվինը
դարվինի
դաւթի
դաւիթ
դափնեկիր
դափնեկիրներ
դափնու
դդ
դե
դեբեոն
դեբեոնի
դեբյուտ
դեբյուտային
դեբյուտել
դեբյուտը
դեբյուտն
դեզերտ
դել
դելա
դելի
դելիի
դելլա
դելտա
դելֆին
դելֆինները
դելֆինների
դեկան
դեկարտը
դեկարտի
դեկորատիվ
դեկտ
դեկտեմբեր
դեկտեմբերը
դեկտեմբերի
դեկտեմբերին
դեկտեմբերից
դեհ
դեղ
դեղաբույս
դեղաբույսեր
դեղագործ
դեղագործական
դեղամիջոց
դեղամիջոցը
դեղամիջոցի
դեղամիջոցներ
դեղամիջոցները
դեղամիջոցների
դեղանյութեր
դեղանյութերի
դեղաչափը
դեղաչափի
դեղատուն
դեղեր
դեղերը
դեղերի
դեղը
դեղի
դեղին
դեղնած
դեղնավուն
դեղորայք
դեղորայքային
դեղորայքի
դեմ
դեմը
դեմի
դեմիդովսկի
դեմիրճյան
դեմիրճյանը
դեմիրճյանի
դեմո
դեմոկրատ
դեմոկրատական
դեմոկրատիայի
դեմոկրատները
դեմոկրատների
դեմս
դեմք
դեմքեր
դեմքերը
դեմքերի
դեմքերից
դեմքը
դեմքի
դեմքին
դեմքից
դեմքն
դեմքով
դեյ
դեյմոնը
դեյվ
դեյվիդ
դեյր
դեն
դենդրոֆլորա
դենը
դենի
դենիել
դենիս
դեննի
դենվեր
դեպ
դեպարտամենտ
դեպարտամենտը
դեպարտամենտի
դեպարտամենտին
դեպարտամենտում
դեպի
դեպորտիվո
դեպուտատ
դեպուտատների
դեպս
դեպրեսիա
դեպրեսիայի
դեպրեսիան
դեպրեսիվ
դեպք
դեպքեր
դեպքերը
դեպքերի
դեպքերին
դեպքերից
դեպքերն
դեպքերում
դեպքը
դեպքի
դեպքից
դեպքն
դեպքում
դեռ
դեռահաս
դեռահասի
դեռահասների
դեռահասության
դեռեւս
դեռևս
դես
դեսանտային
դեսպան
դեսպանատան
դեսպանատանը
դեսպանատուն
դեսպանատունը
դեսպանը
դեսպանի
դեսպաններ
դեսպանների
դեսպանորդ
դեսպանության
դեսպանություն
դեվիդ
դետալներ
դետալների
դետեկտիվ
դետրոյթ
դեր
դերակատար
դերակատարը
դերակատարմամբ
դերակատարման
դերակատարներ
դերակատարություն
դերակատարում
դերակատարումներ
դերասան
դերասանական
դերասանը
դերասանի
դերասանին
դերասանն
դերասաններ
դերասանները
դերասանների
դերասաններին
դերասաններից
դերասանուհի
դերասանուհին
դերասանուհիներ
դերասանուհու
դերասանուհուն
դերբի
դերենիկ
դերեր
դերերը
դերերի
դերերից
դերերով
դերերում
դերը
դերի
դերին
դերից
դերն
դերով
դերում
դեֆիցիտը
դեֆիցիտի
դէմ
դէպի
դը
դըպ
դժբախտ
դժբախտաբար
դժբախտության
դժբախտություն
դժբախտությունը
դժգոհ
դժգոհության
դժգոհություն
դժգոհությունը
դժգույն
դժհ
դժոխային
դժոխք
դժոխքը
դժոխքի
դժվար
դժվարանում
դժվարացնում
դժվարին
դժվարությամբ
դժվարության
դժվարություն
դժվարությունը
դժվարություններ
դժվարությունները
դժվարությունների
դի
դիաբետ
դիաբետի
դիալեկտիկական
դիակ
դիակը
դիակի
դիակներ
դիակները
դիակների
դիանա
դիարբեքիր
դիարբեքիրի
դիեգո
դիեգոյի
դիետիկ
դիզակի
դիզայն
դիզայներ
դիզայներներ
դիզայներների
դիզայնը
դիզայնի
դիզայնով
դիզելային
դիլան
դիլիջան
դիլիջանի
դիլիջանում
դիկ
դիկտատուրայի
դիմա
դիմադրել
դիմադրելու
դիմադրության
դիմադրությանը
դիմադրություն
դիմադրությունը
դիմադրում
դիմակ
դիմակահանդես
դիմակայել
դիմակայելու
դիմակայության
դիմակը
դիմակի
դիմակներ
դիմակով
դիմային
դիմանալ
դիմանկար
դիմանկարը
դիմանկարի
դիմանկարիչ
դիմանկարներ
դիմանկարները
դիմանկարների
դիմանում
դիմավորել
դիմավորեց
դիմավորում
դիմաց
դիմացը
դիմացի
դիմացկուն
դիմաքսյանը
դիմել
դիմելով
դիմելու
դիմեց
դիմեցին
դիմիտրովը
դիմում
դիմումը
դիմումի
դիմումներ
դին
դինա
դինամիկ
դինամիկա
դինամիկայի
դինամիկան
դինամո
դինամոյի
դինաստիա
դինաստիայի
դինաստիայից
դինաստիան
դինը
դինի
դինին
դինոզավրերի
դիոն
դիպավ
դիպլոմ
դիպլոմային
դիպլոմով
դիպուկ
դիպուկահար
դիպչել
դիպչում
դիջեյ
դիսերտացիա
դիսերտացիան
դիսկրետ
դիսնեյ
դիսնեյը
դիսնեյի
դիվային
դիվան
դիվանագետ
դիվանագետներ
դիվանագետների
դիվանագիտական
դիվանագիտության
դիվանագիտությունը
դիվերսիոն
դիվիզիա
դիվիզիայի
դիվիզիան
դիվիզիոն
դիվիզիոնի
դիվիզիոնում
դիտավորյալ
դիտարկել
դիտարկելով
դիտարկենք
դիտարկման
դիտարկում
դիտարկումը
դիտարկումներ
դիտարկումները
դիտարկումների
դիտարկվել
դիտարկվող
դիտարկվում
դիտել
դիտելով
դիտելու
դիտեց
դիտմամբ
դիտման
դիտողի
դիտողին
դիտողություններ
դիտորդ
դիտորդական
դիտորդի
դիտորդների
դիտում
դիտումներ
դիտումների
դիտվել
դիտվող
դիտվում
դիր
դիրեկտոր
դիրիժոր
դիրիժորներ
դիրք
դիրքային
դիրքեր
դիրքերը
դիրքերի
դիրքերից
դիրքերն
դիրքերում
դիրքը
դիրքի
դիրքին
դիրքից
դիրքն
դիրքով
դիրքորոշման
դիրքորոշում
դիրքորոշումը
դիրքում
դիցաբանական
դիցաբանության
դիցաբանություն
դիցուք
դիփ
դիք
դիֆերենցիալ
դղյակ
դղյակը
դղյակի
դղյակներ
դղյակում
դմիտրի
դմիտրին
դյու
դյումա
դյույմ
դյույմանոց
դյուսելդորֆի
դյուրերի
դյուրին
դնե
դնել
դնելը
դնելով
դնելու
դնեմ
դնեն
դնենք
դնեպր
դնեպրի
դնեպրոպետրովսկի
դնթ
դնի
դնում
դո
դոլար
դոլարը
դոլարի
դոլարից
դոլարով
դոլլար
դոկտոր
դոկտորական
դոկտորի
դոկտորներ
դող
դողդոջուն
դողում
դոմենիկո
դոմինանտ
դոմինիկ
դոմինիկյան
դոյլի
դոն
դոնալդ
դոնբասի
դոնբասում
դոնգ
դոնեցկ
դոնեցկի
դոնի
դոննա
դոս
դոսի
դոստոևսկին
դոստոևսկու
դորա
դորոգոբուժսկի
դորոթի
դորտմունդ
դորտմունդի
դոցենտ
դոցենտի
դու
դուբայի
դուբլ
դուբլի
դուբլինի
դուբլինում
դուգլաս
դուգլասը
դուգլասի
դուետ
դուետը
դուետի
դուխովշչինսկի
դում
դումայի
դուման
դուն
դունկան
դունչը
դուշեթի
դուռ
դուռը
դուռն
դուս
դուստր
դուստրերը
դուստրերի
դուստրը
դուստրն
դուր
դուրյան
դուրյանը
դուրյանի
դուրս
դուրսը
դուք
դուքս
դուքսը
դուքսի
դպիր
դպրոց
դպրոցական
դպրոցականների
դպրոցը
դպրոցի
դպրոցին
դպրոցից
դպրոցն
դպրոցներ
դպրոցները
դպրոցների
դպրոցներին
դպրոցներից
դպրոցներում
դպրոցում
դպրության
դռան
դռանը
դռներ
դռները
դռների
դռներով
դռնից
դռնով
դսեղ
դստեր
դստերը
դվին
դվինա
դվինան
դվինը
դվինի
դվինում
դվինսկո
դրա
դրախտ
դրախտը
դրախտի
դրած
դրական
դրականորեն
դրամ
դրամա
դրամական
դրամահատարանը
դրամահատարանի
դրամայի
դրամային
դրամայում
դրաման
դրամաներ
դրամավարկային
դրամատիկ
դրամատիկական
դրամատուրգ
դրամատուրգիայի
դրամատուրգիան
դրամատուրգներ
դրամատուրգների
դրամարկղային
դրամը
դրամի
դրամներ
դրամները
դրամների
դրան
դրանից
դրանով
դրանում
դրանց
դրանցից
դրանցով
դրանցում
դրանք
դրաստամատ
դրավ
դրացի
դրաֆթի
դրդել
դրդում
դրդված
դրեզդենի
դրեզդենում
դրել
դրեյքի
դրեց
դրեցին
դրի
դրին
դրոշ
դրոշակ
դրոշակը
դրոշը
դրոշի
դրոշմազարդ
դրոշմը
դրոշմված
դրոշներ
դրոշները
դրոշների
դրությամբ
դրության
դրություն
դրությունը
դրությունից
դրությունն
դրույթը
դրույթներ
դրույթները
դրույթների
դրուստ
դրսի
դրսից
դրսում
դրսևորել
դրսևորման
դրսևորում
դրսևորումը
դրսևորումներ
դրսևորումները
դրսևորումների
դրսևորումներից
դրսևորվել
դրսևորվում
դրվագ
դրվագը
դրվագի
դրվագներ
դրվագները
դրվագների
դրվագներից
դրվագներում
դրվագում
դրված
դրվել
դրվեց
դրվեցին
դրվի
դրվում
դքսի
դքսության
դքսությունը
դքսուհի
դև
դևերը
դևերի
դևը
դևի
դևիդ
դևիս
դևիսը
դևիսի
ե
եա
եահկ
եբրայական
եբրայերեն
եգ
եգեյան
եգիպտական
եգիպտահայ
եգիպտացի
եգիպտացիները
եգիպտացիների
եգիպտացորեն
եգիպտացորենի
եգիպտոս
եգիպտոսը
եգիպտոսի
եգիպտոսից
եգիպտոսում
եգոր
եդ
եդեսիայի
եզ
եզակի
եզան
եզդի
եզդիների
եզերքը
եզնիկ
եզր
եզրակացնել
եզրակացնում
եզրակացության
եզրակացություն
եզրակացությունը
եզրակացություններ
եզրակացությունները
եզրակացրել
եզրակացրեց
եզրահանգման
եզրային
եզրափակիչ
եզրափակիչը
եզրափակիչի
եզրափակիչներ
եզրափակիչներում
եզրափակիչում
եզրափակչի
եզրափակչում
եզրեր
եզրերը
եզրերի
եզրերին
եզրերով
եզրը
եզրի
եզրին
եզրով
եզրույթը
եթե
եթեր
եթերային
եթերաշրջան
եթերաշրջանը
եթերաշրջանի
եթերաշրջանում
եթերը
եթերի
եթերով
եթերում
եթէ
եթովպական
եթովպիա
եթովպիայի
եթովպիայում
եժ
ել
ելա
ելած
ելակետային
ելան
ելավ
ելել
ելենա
ելենայի
ելենային
ելենան
ելի
ելիզավետա
ելիզավետպոլի
ելնել
ելնելով
ելնինսկի
ելնում
ելույթ
ելույթը
ելույթի
ելույթից
ելույթն
ելույթներ
ելույթները
ելույթների
ելույթներից
ելույթներով
ելույթներում
ելույթով
ելույթում
ելունի
ելցինը
ելցինի
ելք
ելքային
ելքը
ելքի
եկ
եկա
եկած
եկամուտ
եկամուտը
եկամուտներ
եկամուտները
եկամուտների
եկամտաբեր
եկամտի
եկան
եկանք
եկավ
եկատերինա
եկատերինայի
եկատերինբուրգ
եկատերինբուրգի
եկար
եկաւ
եկե
եկել
եկեղեց
եկեղեցական
եկեղեցի
եկեղեցիի
եկեղեցիին
եկեղեցին
եկեղեցիներ
եկեղեցիները
եկեղեցիների
եկեղեցիներին
եկեղեցիներից
եկեղեցիներու
եկեղեցիներում
եկեղեցու
եկեղեցում
եկեղեցուն
եկեղեցուց
եկեղեցվո
եկեղեցւոյ
եկեր
եկեք
եկող
եկուր
եհովայի
եհովան
եղ
եղա
եղած
եղածը
եղան
եղանակ
եղանակային
եղանակը
եղանակի
եղանակին
եղանակից
եղանակն
եղանակներ
եղանակները
եղանակների
եղանակներին
եղանակներից
եղանակներով
եղանակով
եղավ
եղաւ
եղբայր
եղբայրական
եղբայրը
եղբայրն
եղբայրներ
եղբայրները
եղբայրների
եղբայրներին
եղբայրներից
եղբայրներն
եղբայրության
եղբայրություն
եղբայրս
եղբոր
եղբորը
եղբորորդին
եղբորս
եղե
եղեգնաձորի
եղել
եղեռնը
եղեռնի
եղեռնից
եղեր
եղեք
եղի
եղիա
եղիազարյան
եղիշե
եղիշեի
եղիշեն
եղիսաբեթ
եղիր
եղիցի
եղող
եղունգների
եղջերաթաղանթի
եղջերավոր
եղջերու
եղջերուն
եղվարդ
եղվարդի
եղև
եղևնի
եղևնու
եմ
եմենի
եմենում
եմք
եյին
եյլի
են
ենթաավազանը
ենթադրաբար
ենթադրել
ենթադրելով
ենթադրելու
ենթադրենք
ենթադրյալ
ենթադրության
ենթադրություն
ենթադրությունը
ենթադրություններ
ենթադրությունները
ենթադրությունների
ենթադրում
ենթադրվում
ենթալպյան
ենթախմբի
ենթակա
ենթակայության
ենթական
ենթակառուցվածք
ենթակառուցվածքներ
ենթակառուցվածքների
ենթամաշկային
ենթաշրջանի
ենթաստամոքսային
ենթատեսակ
ենթարկել
ենթարկելով
ենթարկելու
ենթարկեց
ենթարկում
ենթարկված
ենթարկվել
ենթարկվելով
ենթարկվելու
ենթարկվեց
ենթարկվեցին
ենթարկվող
ենթարկվում
եննա
ենք
եպբհ
եպիսկոպոս
եպիսկոպոսական
եպիսկոպոսը
եպիսկոպոսի
եպիսկոպոսին
եպիսկոպոսներ
եպիսկոպոսները
եպիսկոպոսների
եպհ
եպս
եռագույն
եռագրության
եռակի
եռակողմ
եռահարկ
եռամյա
եռամսյա
եռամսյակում
եռանավ
եռանդ
եռանդը
եռանդով
եռանդուն
եռանկյան
եռանկյուն
եռանկյունաձև
եռանկյունաչափական
եռանկյունի
եռաչափ
եռացող
եռման
եռմանը
եռյակ
եռյակը
եռյակի
եռում
եռօրյա
ես
եսայան
եսայանը
եսայի
եսենինի
եվ
եվա
եվայի
եվան
եվգենի
եվգենիա
եվգենյա
եվդոկիա
եվդոկիայի
եվս
եվրախորհրդարանի
եվրամայդանի
եվրամիության
եվրասիական
եվրասիայի
եվրատեսիլ
եվրատեսիլի
եվրո
եվրոյի
եվրոյով
եվրոպ
եվրոպա
եվրոպական
եվրոպայի
եվրոպային
եվրոպայից
եվրոպայով
եվրոպայում
եվրոպան
եվրոպացի
եվրոպացիներ
եվրոպացիները
եվրոպացիների
ետ
ետին
ետպատերազմյան
ետք
ետքը
ետև
ետևեն
ետևը
ետևի
ետևից
ետևում
եր
երա
երազ
երազանք
երազանքը
երազանքի
երազանքների
երազել
երազը
երազի
երազներ
երազները
երազների
երազում
երաժիշտ
երաժիշտը
երաժիշտներ
երաժիշտները
երաժիշտների
երաժշտ
երաժշտա
երաժշտագետ
երաժշտագետներ
երաժշտական
երաժշտի
երաժշտությամբ
երաժշտության
երաժշտությանը
երաժշտություն
երաժշտությունը
երաժշտությունից
երաժշտությունն
երախտագիտության
երախտագիտություն
երախտապարտ
երակային
երակների
երանգ
երանգը
երանգներ
երանգները
երանգների
երանգներով
երանգով
երանելի
երանի
երաշխավորել
երաշխավորում
երաշխավորված
երաշխիք
երաշխիքներ
երասխ
երբ
երբե
երբեմն
երբեմնի
երբեք
երբէք
երբոր
երբևէ
երբևիցե
երգ
երգահան
երգահաններ
երգացանկ
երգացանկում
երգել
երգելով
երգելու
երգեհոն
երգեհոնահար
երգեհոնի
երգեր
երգերը
երգերի
երգերին
երգերից
երգերն
երգերով
երգերում
երգեց
երգեցողության
երգեցողություն
երգը
երգի
երգիծաբան
երգիծական
երգին
երգիչ
երգիչը
երգիչներ
երգիչների
երգից
երգն
երգող
երգով
երգում
երգչախմբային
երգչախմբի
երգչախմբում
երգչախումբ
երգչախումբը
երգչի
երգչուհի
երգչուհին
երգչուհիներ
երգչուհու
երդման
երդմնակալության
երդում
երդումը
երդվել
երդվյալ
երդվում
երե
երեանի
երեխա
երեխայի
երեխային
երեխան
երեխաներ
երեխաները
երեխաների
երեխաներին
երեխաներից
երեխաներն
երեկ
երեկո
երեկոյան
երեկոյի
երեկոյին
երեկոն
երեկոներ
երեկոները
երեկույթ
երեկույթի
երեկվա
երեմիա
երեմյան
երես
երեսը
երեսի
երեսին
երեսից
երեսն
երեսնամյա
երեսները
երեսով
երեսուն
երեսս
երեսփոխան
երեց
երեւան
երեւանի
երեւի
երեւում
երեք
երեքը
երեքի
երեքին
երեքից
երեքն
երեքշաբթի
երզնկա
երզնկայի
երը
երթ
երթա
երթալ
երթալու
երթամ
երթանք
երթաս
երթար
երթը
երթի
երթուղային
երթուղի
երթուղին
երթուղու
երթևեկության
երթևեկությունը
երի
երիկամային
երիկամի
երիկամների
երիտասարդ
երիտասարդական
երիտասարդաց
երիտասարդը
երիտասարդի
երիտասարդին
երիտասարդն
երիտասարդներ
երիտասարդները
երիտասարդների
երիտասարդներին
երիտասարդության
երիտասարդությանը
երիտասարդություն
երիտասարդությունը
երիտթուրքական
երիտթուրքերի
երից
երիցյան
երկ
երկա
երկաթ
երկաթբետոնե
երկաթգիծը
երկաթգծի
երկաթե
երկաթը
երկաթի
երկաթյա
երկաթուղային
երկաթուղի
երկաթուղին
երկաթուղիների
երկաթուղով
երկաթուղու
երկակի
երկամյա
երկայն
երկայնական
երկայնակի
երկայնության
երկայնքով
երկար
երկարաժամկետ
երկարաձգել
երկարաձգեց
երկարամյա
երկարավուն
երկարատև
երկարությամբ
երկարության
երկարություն
երկարությունը
երկարությունն
երկբևեռ
երկեր
երկերը
երկերի
երկերից
երկերում
երկը
երկի
երկինք
երկինքը
երկինքն
երկիր
երկիրը
երկիրն
երկլեզու
երկխոսության
երկխոսություն
երկխոսությունը
երկկենցաղների
երկկողմ
երկկողմանի
երկհարկանի
երկյուղ
երկյուղը
երկյուղից
երկնագույն
երկնային
երկնից
երկնքի
երկնքին
երկնքից
երկնքում
երկու
երկուական
երկում
երկուշաբթի
երկուսը
երկուսի
երկուսին
երկուսից
երկուսն
երկուսով
երկուսուկես
երկուսում
երկուքն
երկչափ
երկչոտ
երկսեռ
երկսյուն
երկվորյակ
երկվորյակներ
երկվորյակների
երկրա
երկրաբան
երկրաբանական
երկրաբաններ
երկրաբանության
երկրաբանություն
երկրագիտական
երկրագնդի
երկրագործական
երկրագործությամբ
երկրագործության
երկրագործությունն
երկրակեղևի
երկրամաս
երկրամասը
երկրամասի
երկրամասում
երկրային
երկրաշարժ
երկրաշարժերի
երկրաշարժը
երկրաշարժի
երկրաշարժից
երկրաչափական
երկրաչափության
երկրաչափություն
երկրաչափությունը
երկրապահ
երկրաջերմային
երկրբ
երկրի
երկրին
երկրից
երկրներ
երկրները
երկրների
երկրներին
երկրներից
երկրներն
երկրներում
երկրով
երկրորդ
երկրորդական
երկրորդային
երկրորդը
երկրորդի
երկրորդին
երկրորդն
երկրորդում
երկրում
երկրպագու
երկրպագության
երկրպագում
երկրպագուն
երկրպագուներ
երկրպագուները
երկրպագուների
երկրպագուներին
երկօրյա
երնջակ
երուսաղեմ
երուսաղեմը
երուսաղեմի
երուսաղեմում
երջանիկ
երջանկության
երջանկություն
երջանկությունը
երվանդ
երվանդի
երվանդունիների
երր
երրորդ
երրորդը
երրորդի
երրորդն
երրորդության
երրորդություն
երևա
երևալ
երևակայական
երևակայել
երևակայության
երևակայությունը
երևակայում
երևան
երևանը
երևանի
երևանից
երևանյան
երևանում
երևանցի
երևաց
երևացել
երևացին
երևացող
երևելի
երևի
երևում
երևույթ
երևույթը
երևույթի
երևույթին
երևույթն
երևույթներ
երևույթները
երևույթների
երևույթներից
եւ
եւս
եփած
եփել
եփում
եփրատ
եփրատի
եփրեմ
եք
եֆիմ
եև
զ
զա
զաբել
զագրեբ
զագրեբի
զագրեբում
զադ
զալցբուրգ
զալցբուրգի
զամբյուղ
զամենայն
զայդ
զայն
զայս
զայրանում
զայրացած
զայրույթ
զայրույթը
զայրույթի
զան
զանազան
զանգ
զանգակ
զանգակատան
զանգակատուն
զանգակատունը
զանգահարել
զանգահարում
զանգեզուր
զանգեզուրի
զանգեզուրում
զանգելանի
զանգերը
զանգերի
զանգը
զանգի
զանգված
զանգվածաբար
զանգվածային
զանգվածը
զանգվածի
զանգվածին
զանգվածից
զանգվածն
զանգվածներ
զանգվածները
զանգվածների
զանգվածով
զանոնք
զապորոժիեի
զառա
զառիթափ
զավակ
զավակը
զավակի
զավակին
զավակն
զավակներ
զավակները
զավակների
զավակներին
զավակս
զավեն
զավեշտական
զավթել
զավթիչների
զատ
զատիկ
զատկի
զար
զարգա
զարգանալ
զարգանում
զարգաց
զարգացած
զարգացան
զարգացավ
զարգացել
զարգացմամբ
զարգացման
զարգացմանը
զարգացմանն
զարգացնել
զարգացնելով
զարգացնելու
զարգացնում
զարգացող
զարգացում
զարգացումը
զարգացումն
զարգացումները
զարգացրել
զարգացրեց
զարդ
զարդարած
զարդարել
զարդարելու
զարդարում
զարդարված
զարդեր
զարդերը
զարդերի
զարեհ
զարթնում
զարթոնք
զարկ
զարկերակային
զարկերակը
զարկերակի
զարկերակների
զարկեց
զարկում
զարհուրելի
զարմանալի
զարմանալիորեն
զարմանալով
զարմանահրաշ
զարմանում
զարմանս
զարմանք
զարմանքով
զարմացած
զարմացավ
զարմացնում
զարմիկ
զարմիկը
զարմուհին
զարյան
զարյանի
զարուհի
զաք
զաքար
զաքարե
զաքարը
զաքարիա
զաքարյան
զաքարյանը
զաքարյանի
զաքարյանների
զբաղ
զբաղեցնել
զբաղեցնելով
զբաղեցնելու
զբաղեցնող
զբաղեցնում
զբաղեցված
զբաղեցրած
զբաղեցրել
զբաղեցրեց
զբաղեցրին
զբաղմունք
զբաղմունքը
զբաղված
զբաղվածության
զբաղվածությունը
զբաղվել
զբաղվելով
զբաղվելու
զբաղվի
զբաղվող
զբաղվում
զբոսայգի
զբոսայգին
զբոսայգիներ
զբոսայգու
զբոսայգում
զբոսանք
զբոսանքի
զբոսաշրջային
զբոսաշրջիկ
զբոսաշրջիկներ
զբոսաշրջիկները
զբոսաշրջիկների
զբոսաշրջիկներին
զբոսաշրջության
զբոսաշրջություն
զբոսաշրջությունը
զբոսնում
զգա
զգալ
զգալի
զգալիորեն
զգալով
զգալու
զգայական
զգայուն
զգայունության
զգայունությունը
զգար
զգաց
զգացել
զգացի
զգացման
զգացմունք
զգացմունքային
զգացմունքը
զգացմունքի
զգացմունքներ
զգացմունքները
զգացմունքների
զգացող
զգացողության
զգացողություն
զգացողությունը
զգացում
զգացումը
զգացումները
զգացումով
զգացվում
զգեստ
զգեստը
զգեստի
զգեստներ
զգեստները
զգեստների
զգեստով
զգում
զգույշ
զգուշավոր
զգուշացնում
զգուշացում
զգուշացրել
զգուշորեն
զգուշությամբ
զելանդիա
զելանդիայի
զելանդիայում
զելանդիան
զելենսկին
զեկույց
զեկույցը
զեկույցի
զեկույցներ
զեկույցում
զեկուցել
զեկուցում
զեմո
զեյթուն
զեյթունի
զենիթ
զենիթային
զենիթի
զենք
զենքեր
զենքերը
զենքերի
զենքերով
զենքը
զենքի
զենքից
զենքն
զենքով
զետեղել
զետեղված
զետեղվել
զերծ
զզվելի
զի
զիգմունդ
զիլ
զիմբաբվեի
զին
զինադադար
զինադադարը
զինադադարի
զինաիդա
զինակից
զինամթերք
զինամթերքի
զինանշան
զինանշանը
զինանշանի
զինծառայող
զինծառայողներ
զինծառայողները
զինծառայողների
զինյալների
զինուժի
զինված
զինվոր
զինվորական
զինվորականներ
զինվորականները
զինվորականների
զինվորը
զինվորի
զինվորներ
զինվորները
զինվորների
զինվորներին
զինվորներից
զինվորներն
զինք
զինքը
զինքն
զիջել
զիջելով
զիջեց
զիջում
զիջումների
զիս
զիրար
զիրենք
զլմ
զձեզ
զղջում
զմեզ
զմյուռնիա
զմյուռնիայի
զնա
զննում
զնոսա
զո
զոլավոր
զոհ
զոհաբերել
զոհաբերության
զոհել
զոհեր
զոհերը
զոհերի
զոհերին
զոհը
զոհի
զոհին
զոհված
զոհվածների
զոհվել
զոհվեց
զոհվեցին
զոհվում
զոյա
զոնա
զոռով
զով
զոր
զորակոչվել
զորահրամանատար
զորամաս
զորամասեր
զորամասերը
զորամասերի
զորամասը
զորամասի
զորապետ
զորավար
զորավարը
զորավարի
զորավարներ
զորավոր
զորացրվել
զորացրվելուց
զորեղ
զորի
զորյան
զորյանը
զորյանի
զորությամբ
զորության
զորություն
զորությունը
զորս
զորք
զորքեր
զորքերը
զորքերի
զորքերին
զորքերից
զորքերն
զորքերով
զորքերում
զորքը
զորքի
զորքին
զորքն
զորքով
զու
զուգախաղ
զուգախաղի
զուգախաղում
զուգակցված
զուգակցվում
զուգահեռ
զուգահեռաբար
զուգահեռական
զուգահեռներ
զուգերգ
զուգընթաց
զուգորդված
զուգորդվում
զույգ
զույգեր
զույգերը
զույգերի
զույգերով
զույգը
զույգի
զույգին
զույգն
զույգով
զուսպ
զուտ
զուր
զուրաբ
զուրկ
զսպել
զվարթ
զվարթնոց
զվարթնոցի
զվարճալի
զվարճանում
զվարճանքի
զվեզդա
զրադաշտական
զրահ
զրահապատ
զրահատանկային
զրահը
զրկել
զրկելու
զրկում
զրկված
զրկվել
զրկվեց
զրկվում
զրո
զրոյական
զրոյի
զրոյից
զրույց
զրույցը
զրույցի
զրույցներ
զրույցները
զրույցների
զրուցել
զրուցում
զքեզ
զևսը
զևսի
է
էակ
էական
էականորեն
էակի
էակներ
էակների
էապես
էգ
էգեյան
էգերը
էգերի
էգը
էգի
էգուց
էդ
էդգար
էդդի
էդի
էդիթ
էդիկ
էդինբուրգի
էդմոն
էդմոնդ
էդմունդ
էդուարդ
էդուարդը
էդուարդի
էդուարդո
էդպես
էդվարդ
էդվարդը
էդվարդի
էդվին
էէ
էթա
էթամ
էթանք
էթըմ
էթիկա
էթիկական
էթիկայի
էթիկան
էթնիկ
էթնիկական
էթում
էժան
էժեն
էի
էին
էինք
էիր
էիք
էլ
էլա
էլավ
էլեանորա
էլել
էլեկ
էլեկտրա
էլեկտրաէներգիա
էլեկտրաէներգիայի
էլեկտրական
էլեկտրականության
էլեկտրամագնիսական
էլեկտրատեխնիկական
էլեկտրոն
էլեկտրոնային
էլեկտրոնի
էլեկտրոնիկա
էլեկտրոնիկայի
էլեկտրոնները
էլեկտրոնների
էլեն
էլեոնորա
էլզա
էլթոն
էլի
էլիզա
էլիզաբեթ
էլիզաբեթը
էլիզաբեթի
էլին
էլինա
էլիոթ
էլիպսաձև
էլիս
էլիսոն
էլիտար
էլլա
էլստ
էլստի
էլվիս
էլվիրա
էլֆերի
էկան
էկավ
էկար
էկե
էկել
էկզոտիկ
էկոլոգիա
էկոլոգիական
էկոլոգիայի
էկոլոգիան
էկոհամակարգերի
էկոհամակարգի
էկոնոմիկայի
էկվադորի
էկրան
էկրանավորման
էկրանավորում
էկրանավորումը
էկրանավորումն
էկրանավորումներ
էկրանավորված
էկրանավորվել
էկրանը
էկրանի
էկրանին
էկրաններին
էհ
էհմ
էմ
էմանուել
էմի
էմիլ
էմիլը
էմիլի
էմիլիա
էմիլին
էմիլիո
էմին
էմինը
էմինի
էմիր
էմմա
էմման
էմմի
էմոցիոնալ
էմպիրիկ
էյ
էյլերը
էյլերի
էյֆելյան
էն
էնա
էնգելս
էնգելսը
էնգելսի
էնդ
էնդատե
էնդատեի
էնդեմիկ
էնդի
էնդոմետրիալ
էնդրյու
էներգետիկ
էներգետիկա
էներգետիկական
էներգետիկայի
էներգիա
էներգիայի
էներգիայով
էներգիան
էներգիաների
էնթոնի
էնթոնիի
էնթոնին
էնի
էնն
էննի
էնպես
էնվեր
էնտեղ
էնրիկե
էնրիկո
էնքան
էշ
էշը
էշի
էշլի
էությամբ
էության
էություն
էությունը
էությունն
էպիզոդ
էպիզոդիկ
էպիզոդներում
էպիզոդում
էպիթելային
էպիլեպսիայի
էպիլեպտիկ
էպիկական
էպոսը
էպոսի
էջ
էջանոց
էջեր
էջերը
էջերի
էջերից
էջերում
էջը
էջի
էջին
էջից
էջմիածին
էջմիածինը
էջմիածնի
էջմիածնում
էջում
էռնեստ
էռնստ
էս
էսգ
էսթեր
էսպես
էսպերանտո
էսպիրիտու
էսսե
էսսեներ
էսսեների
էստ
էստեղ
էստոնական
էստոնացի
էստոներեն
էստոնիա
էստոնիայի
էստոնիայում
էստոնիան
էստրադայի
էստրադային
էսքան
էսքիզներ
էսքիզները
էսօր
էվա
էվան
էվանսը
էվերթոնի
էվկլիդեսյան
էվոլյուցիա
էվոլյուցիայի
էվոլյուցիան
էվոլյուցիոն
էտ
էտյուդ
էր
էրդողանը
էրեբունի
էրզրում
էրզրումի
էրիթրոցիտների
էրիխ
էրիկ
էրիկա
էրիկը
էրկու
էրմիտաժ
էրմիտաժի
էրոզիայի
էրոտիկ
էրվին
էւ
էք
էքշն
էքս
էքսպրես
էքսպրեսիոնիզմի
էքստրեմալ
էքսցենտրիկ
էֆ
էֆեկտ
էֆեկտը
էֆեկտի
էֆեկտիվ
էֆեկտներ
էֆեկտները
էֆեկտների
էֆենդի
էֆենդին
էֆենտի
էֆենտիի
էֆենտիին
էֆենտին
ը
ըլի
ըլլա
ըլլալ
ըլլալը
ըլլալով
ըլլալու
ըլլալուն
ըլլամ
ըլլայ
ըլլային
ըլլան
ըլլաս
ըլլար
ըլնի
ըլնում
ըլում
ըմբիշ
ըմբշամարտ
ըմբշամարտի
ըմբշամարտիկներ
ըմբոստ
ըմբռնել
ըմբռնման
ըմբռնում
ըմբռնումը
ըմպելիք
ըմպելիքներ
ըն
ընդ
ընդամենը
ընդառաջ
ընդարձակ
ընդարձակել
ընդարձակման
ընդարձակվել
ընդարձակվում
ընդգծել
ընդգծելով
ընդգծում
ընդգծված
ընդգծվում
ընդգրկել
ընդգրկելով
ընդգրկեց
ընդգրկման
ընդգրկող
ընդգրկում
ընդգրկված
ընդգրկվել
ընդգրկվելով
ընդգրկվեց
ընդգրկվեցին
ընդգրկվում
ընդդեմ
ընդդէմ
ընդդիմադիր
ընդդիմության
ընդդիմություն
ընդդիմությունը
ընդե
ընդերքի
ընդերքում
ընդլայնել
ընդլայնելու
ընդլայնեց
ընդլայնման
ընդլայնմանը
ընդլայնում
ընդլայնումը
ընդլայնված
ընդլայնվել
ընդլայնվեց
ընդլայնվում
ընդհակառակը
ընդհակառակն
ընդհանուր
ընդհանուրի
ընդհանրական
ընդհանրապես
ընդհանրացված
ընդհանրություններ
ընդհատ
ընդհատակյա
ընդհատել
ընդհատեց
ընդհատում
ընդհատումներով
ընդհատված
ընդհատվել
ընդհատվում
ընդհարման
ընդհարումներ
ընդհարումների
ընդհուպ
ընդմիշտ
ընդմիջման
ընդմիջում
ընդմիջումից
ընդմիջումներով
ընդունած
ընդունակ
ընդունակություն
ընդունակությունը
ընդունակությունները
ընդունակությունների
ընդունել
ընդունելի
ընդունելով
ընդունելու
ընդունելության
ընդունելություն
ընդունելությունը
ընդունելուց
ընդունեն
ընդունենք
ընդունեց
ընդունեցին
ընդունի
ընդունիլ
ընդունիր
ընդունման
ընդունմանը
ընդունող
ընդունում
ընդունումը
ընդունումից
ընդունված
ընդունվել
ընդունվելու
ընդունվեց
ընդունվեցին
ընդունվում
ընդօրինակել
ընե
ընել
ընելով
ընելու
ընեմ
ընենց
ընենք
ըներ
ընթանալ
ընթանում
ընթացակարգը
ընթացել
ընթացիկ
ընթացող
ընթացում
ընթացք
ընթացքը
ընթացքի
ընթացքին
ընթացքն
ընթացքով
ընթացքում
ընթերցանության
ընթերցանություն
ընթերցել
ընթերցման
ընթերցող
ընթերցողը
ընթերցողի
ընթերցողին
ընթերցողները
ընթերցողների
ընթերցողներին
ընթերցում
ընթերցումը
ընթրիք
ընթրիքը
ընթրիքի
ընծա
ընծայել
ընծայում
ընծայվել
ընկ
ընկա
ընկալել
ընկալիչներ
ընկալիչները
ընկալիչների
ընկալման
ընկալում
ընկալումը
ընկալվել
ընկալվում
ընկած
ընկան
ընկավ
ընկե
ընկել
ընկեր
ընկերական
ընկերակցության
ընկերակցություն
ընկերակցությունը
ընկերային
ընկերանում
ընկերացել
ընկերը
ընկերն
ընկերներ
ընկերները
ընկերների
ընկերներին
ընկերներից
ընկերներն
ընկերոջ
ընկերոջը
ընկերության
ընկերությանը
ընկերություն
ընկերությունը
ընկերությունից
ընկերությունն
ընկերություններ
ընկերությունները
ընկերությունների
ընկերություններին
ընկերություններից
ընկերություններում
ընկերությունում
ընկերուհի
ընկերուհին
ընկերուհու
ընկերուհուն
ընկերս
ընկղմված
ընկճում
ընկճված
ընկնել
ընկնելով
ընկնելու
ընկնելուց
ընկնի
ընկնող
ընկնում
ընկույզ
ընկույզի
ընձեռում
ընձյուղները
ընչանք
ընչի
ընտանեկան
ընտանի
ընտանիք
ընտանիքը
ընտանիքի
ընտանիքին
ընտանիքից
ընտանիքն
ընտանիքներ
ընտանիքները
ընտանիքների
ընտանիքներին
ընտանիքներից
ընտանիքներում
ընտանիքով
ընտանիքում
ընտիր
ընտրած
ընտրական
ընտրանի
ընտրատարածքից
ընտրել
ընտրելով
ընտրելու
ընտրեց
ընտրեցին
ընտրյալ
ընտրողական
ընտրողների
ընտրովի
ընտրությամբ
ընտրության
ընտրությանը
ընտրություն
ընտրությունը
ընտրությունից
ընտրությունն
ընտրություններ
ընտրությունները
ընտրությունների
ընտրություններին
ընտրություններից
ընտրություններում
ընտրում
ընտրված
ընտրվել
ընտրվելու
ընտրվելուց
ընտրվեց
ընտրվում
ըս
ըսա
ըսած
ըսավ
ըսաւ
ըսե
ըսել
ըսելով
ըսելու
ըսեմ
ըսեն
ըսենց
ըսեր
ըսէ
ըսի
ըսկի
ըստ
ըստե
ըստեղ
ըտենց
ըրած
ըրավ
ըրե
թ
թա
թագ
թագա
թագադրման
թագաժառանգ
թագավոր
թագավորական
թագավորեց
թագավորը
թագավորի
թագավորին
թագավորից
թագավորն
թագավորներ
թագավորները
թագավորների
թագավորության
թագավորությանը
թագավորություն
թագավորությունը
թագավորությունից
թագավորությունն
թագավորություններ
թագավորությունները
թագավորությունների
թագավորությունում
թագաւորին
թագը
թագի
թագուհի
թագուհին
թագուհու
թագուհուն
թադեոս
թադևոս
թադևոսյան
թաթար
թաթարական
թաթարներ
թաթարները
թաթարների
թաթարստան
թաթարստանի
թաթուլ
թաիլանդ
թաիլանդի
թաիլանդում
թալանել
թալանի
թալանում
թալեր
թալին
թալինի
թալիշ
թախիծ
թախտի
թակարդ
թաղ
թաղածածկ
թաղական
թաղակապ
թաղամաս
թաղամասեր
թաղամասերը
թաղամասերի
թաղամասերից
թաղամասերում
թաղամասը
թաղամասի
թաղամասում
թաղանթ
թաղանթային
թաղանթը
թաղանթի
թաղանթների
թաղանթով
թաղել
թաղեցին
թաղը
թաղի
թաղին
թաղման
թաղում
թաղումը
թաղված
թաղվածներ
թաղվել
թաղվեց
թամանյան
թամանյանի
թամար
թամարա
թայ
թայլեր
թայմ
թայմս
թայսոնը
թայվան
թայվանի
թայվանում
թան
թանգարան
թանգարանային
թանգարանը
թանգարանի
թանգարանին
թանգարանից
թանգարանն
թանգարաններ
թանգարանները
թանգարանների
թանգարաններից
թանգարաններում
թանգարանում
թանկ
թանկագին
թանկարժեք
թանձր
թաշկինակը
թաուն
թաունի
թառ
թավ
թավշյա
թավոտ
թավջութակ
թավջութակահար
թավջութակի
թավրիզ
թավրիզի
թավրիզում
թատ
թատեր
թատերաբեմ
թատերագիր
թատերախմբի
թատերախմբում
թատերախումբ
թատերախումբը
թատերական
թատրոն
թատրոնը
թատրոնի
թատրոնին
թատրոնից
թատրոնն
թատրոններ
թատրոնները
թատրոնների
թատրոններից
թատրոններում
թատրոնում
թարախային
թարգ
թարգմ
թարգմանաբար
թարգմանած
թարգմանական
թարգմանել
թարգմանելու
թարգմանիչ
թարգմանիչը
թարգմանիչներ
թարգմանությամբ
թարգմանության
թարգմանություն
թարգմանությունը
թարգմանությունն
թարգմանություններ
թարգմանությունները
թարգմանությունների
թարգմանում
թարգմանչական
թարգմանչաց
թարգմանչի
թարգմանչուհի
թարգմանված
թարգմանվել
թարգմանվում
թարթառ
թարմ
թարմացնել
թարմացված
թարմացվել
թարս
թաց
թափ
թափած
թափանցել
թափանցիկ
թափանցող
թափանցում
թափառական
թափառաշրջիկ
թափառող
թափառում
թափել
թափոնները
թափոնների
թափով
թափում
թափուր
թափված
թափվել
թափվելը
թափվող
թափվում
թաքավորը
թաքավորի
թաքնված
թաքնվել
թաքնվում
թաքուն
թաքցնել
թաքցնելու
թաքցնում
թաքցրել
թբիլիսի
թբիլիսիի
թբիլիսիում
թե
թեան
թեդ
թեեւ
թեզ
թեզը
թեթև
թեթևակի
թեժ
թել
թելադրում
թելեր
թելերը
թելերի
թելերով
թելը
թելի
թելով
թեկնածու
թեկնածուական
թեկնածությունը
թեկնածությունն
թեկնածուի
թեկնածուն
թեկնածուներ
թեկնածուները
թեկնածուների
թեկնածուներից
թեկուզ
թեհրան
թեհրանի
թեհրանում
թեմ
թեմա
թեմական
թեմայի
թեմային
թեմայով
թեման
թեմաներ
թեմաները
թեմաների
թեմաներին
թեմաներից
թեմաներով
թեմատիկ
թեմատիկայով
թեմատիկան
թեմը
թեմի
թեյ
թեյը
թեյթ
թեյի
թեյլոր
թեյլորը
թեյլորի
թենեսի
թենիս
թենիսի
թենիսիստ
թեոդոր
թեոդորոս
թեորեմ
թեորեմը
թեորեմի
թեպետ
թեպետև
թեստ
թեստեր
թեստերը
թեստերի
թեստը
թեստի
թեր
թերակղզի
թերակղզին
թերակղզու
թերակղզում
թերակղզուց
թերապիա
թերապիայի
թերապիան
թերապևտիկ
թերեզա
թերեզայի
թերեզան
թերեւս
թերթ
թերթեր
թերթերը
թերթերի
թերթերից
թերթերում
թերթը
թերթի
թերթին
թերթից
թերթն
թերթում
թերի
թերլեմեզյանի
թերմոդինամիկական
թերմոդինամիկայի
թերություն
թերությունը
թերություններ
թերությունները
թերությունների
թերևս
թեփուկները
թեփուկներով
թեք
թեքեյան
թեքում
թեքումը
թեքված
թեքվում
թեև
թզուկ
թզուկները
թզուկների
թէ
թէպէտ
թէև
թը
թթ
թթու
թթուն
թթուներ
թթուների
թթվածին
թթվածինը
թթվածնային
թթվածնի
թթվածնով
թթվային
թթվի
թի
թիթեղի
թիթեռ
թիթեռներ
թիթեռների
թիլ
թիկունք
թիկունքը
թիկունքի
թիկունքից
թիկունքում
թիմ
թիմային
թիմեր
թիմերը
թիմերի
թիմերում
թիմը
թիմի
թիմին
թիմից
թիմն
թիմում
թինա
թիվ
թիվը
թիվն
թիվս
թիրախ
թիրախային
թիրախը
թիւ
թիւն
թիֆլիս
թիֆլիսը
թիֆլիսի
թիֆլիսից
թիֆլիսում
թխում
թղթ
թղթադրամի
թղթադրամներ
թղթադրամները
թղթադրամների
թղթակից
թղթակիցը
թղթակցել
թղթե
թղթեր
թղթերը
թղթերի
թղթի
թմբկահար
թմբուկ
թմբուկը
թմբուկի
թմրամիջոցների
թմրանյութեր
թմրանյութերի
թյամբ
թյան
թյանը
թյությունճի
թյուն
թյունը
թյունից
թյունն
թյուններ
թյունները
թյունների
թյուրինգի
թյուրք
թյուրքական
թնդանոթ
թնդանոթի
թշնամական
թշնամի
թշնամին
թշնամիներ
թշնամիները
թշնամիների
թշնամիներին
թշնամիներից
թշնամու
թշնամուն
թշվառ
թշվառության
թշվառությունը
թո
թոդ
թող
թողած
թողարկած
թողարկել
թողարկելով
թողարկելու
թողարկեց
թողարկեցին
թողարկման
թողարկմանը
թողարկում
թողարկումը
թողարկումից
թողարկումն
թողարկումներ
թողարկված
թողարկվել
թողարկվելու
թողարկվեց
թողարկվեցին
թողարկվող
թողարկվում
թողել
թողելով
թողեց
թողեցին
թողեք
թողին
թողնել
թողնելով
թողնելու
թողնենք
թողնի
թողնում
թողնված
թողնվել
թողնվում
թողուլ
թողում
թոմ
թոմաս
թոմասը
թոմասի
թոմը
թոմի
թոմփսոնը
թոյլ
թոնի
թոշակ
թոշակառու
թոշակառուներ
թոշակի
թոռ
թոռան
թոռը
թոռն
թոռնիկ
թոռնուհին
թովմա
թովմաս
թովմասյան
թոր
թորամանյանը
թորամանյանի
թորգոմ
թորոս
թորոսյան
թու
թութմոս
թուի
թուին
թուլանում
թուլացած
թուլացավ
թուլացել
թուլացման
թուլացնել
թուլացնում
թուլացում
թուլացումը
թուլուզ
թուլուզի
թուլության
թուլություն
թուլությունը
թուխ
թուղթ
թուղթը
թուման
թումանյան
թումանյանը
թումանյանի
թումանյանին
թումանյանն
թույլ
թույլատրել
թույլատրելի
թույլատրեց
թույլատրում
թույլատրված
թույլատրվել
թույլատրվեց
թույլատրվում
թույլտվությամբ
թույլտվության
թույլտվություն
թույլտվությունը
թույն
թույնը
թույնի
թունավոր
թունավորել
թունավորման
թունավորում
թունավորումը
թունավորումների
թունդ
թունել
թունելի
թունիս
թունիսի
թուր
թուրը
թուրին
թուրինի
թուրք
թուրքական
թուրքահայ
թուրքեր
թուրքերեն
թուրքերը
թուրքերի
թուրքերին
թուրքերից
թուրքերն
թուրքը
թուրքի
թուրքիա
թուրքիայի
թուրքիային
թուրքիայից
թուրքիայում
թուրքիան
թուրքմենական
թուրքմենստանի
թուփ
թոփ
թոք
թոքաբորբ
թոքաբորբի
թոքաբորբից
թոքային
թոքեր
թոքերը
թոքերի
թոքերում
թոքի
թռան
թռավ
թռել
թռիչք
թռիչքային
թռիչքը
թռիչքի
թռիչքից
թռիչքներ
թռիչքները
թռիչքների
թռուցիկ
թռչել
թռչելով
թռչելու
թռչնի
թռչող
թռչում
թռչուն
թռչունը
թռչունի
թռչուններ
թռչունները
թռչունների
թռչուններին
թռչուններից
թվ
թվա
թվաբանական
թվաբանության
թվաբանություն
թվագրված
թվագրվող
թվագրվում
թվալ
թվական
թվականը
թվականի
թվականիի
թվականին
թվականից
թվականն
թվականներ
թվականները
թվականների
թվականներին
թվականներից
թվականներն
թվականով
թվային
թվանշանների
թվարկության
թվարկությունից
թվարկված
թվաց
թվացել
թվացյալ
թվացող
թվաքանակը
թվաքանակի
թվաքանակով
թվեր
թվերը
թվերի
թվերով
թվի
թվին
թվից
թվով
թվում
թրակիայի
թրամփը
թրամփի
թրգմ
թրեյլերը
թրեք
թրթուրները
թրի
թրիլեր
թրոմբոցիտների
թրքական
թփեր
թփերը
թփերի
թփի
թփուտներում
թֆ
թև
թևավոր
թևեր
թևերը
թևերի
թևերով
թևը
թևի
թևին
թևից
թևկապով
թևում
ժ
ժա
ժակ
ժամ
ժամա
ժամային
ժամանա
ժամանած
ժամանակ
ժամանակա
ժամանակագրական
ժամանակագրության
ժամանակագրություն
ժամանակագրությունը
ժամանակակից
ժամանակակիցները
ժամանակակիցների
ժամանակահատված
ժամանակահատվածը
ժամանակահատվածի
ժամանակահատվածում
ժամանակամիջոցում
ժամանակային
ժամանակաշրջան
ժամանակաշրջանը
ժամանակաշրջանի
ժամանակաշրջանին
ժամանակաշրջանից
ժամանակաշրջանն
ժամանակաշրջանների
ժամանակաշրջաններում
ժամանակաշրջանում
ժամանակավոր
ժամանակավորապես
ժամանակը
ժամանակի
ժամանակին
ժամանակից
ժամանակն
ժամանակներ
ժամանակները
ժամանակների
ժամանակներին
ժամանակներից
ժամանակներում
ժամանակներս
ժամանակով
ժամանակում
ժամանակս
ժամանակվա
ժամանակվանից
ժամանել
ժամանելով
ժամանեց
ժամանեցին
ժամանում
ժամանումը
ժամանց
ժամանցային
ժամանցի
ժամատուն
ժամացույց
ժամացույցը
ժամացույցի
ժամացույցներ
ժամացույցների
ժամեր
ժամերը
ժամերի
ժամերին
ժամերով
ժամը
ժամի
ժամին
ժամից
ժամկետ
ժամկետը
ժամկետի
ժամկետից
ժամկետները
ժամկետների
ժամկետով
ժամկետում
ժամյա
ժամն
ժամով
ժամում
ժամուն
ժամվա
ժայթքման
ժայթքումը
ժայռ
ժայռային
ժայռապատկերներ
ժայռափոր
ժայռեր
ժայռերը
ժայռերի
ժայռը
ժայռի
ժայռոտ
ժան
ժանեյրո
ժանեյրոյի
ժանեյրոյում
ժաննա
ժաննան
ժանտախտ
ժանտախտի
ժանր
ժանրային
ժանրեր
ժանրերը
ժանրերի
ժանրերում
ժանրը
ժանրի
ժանրին
ժանրում
ժապավեն
ժապավենը
ժապավենի
ժապավենով
ժառանգ
ժառանգաբար
ժառանգական
ժառանգականության
ժառանգել
ժառանգը
ժառանգման
ժառանգներ
ժառանգները
ժառանգների
ժառանգներին
ժառանգորդ
ժառանգորդը
ժառանգության
ժառանգություն
ժառանգությունը
ժառանգությունից
ժառանգում
ժբ
ժգ
ժդ
ժե
ժենյա
ժեստերի
ժերաիս
ժերայս
ժերար
ժերմեն
ժերմենի
ժթ
ժիտոմիրի
ժիրայր
ժիրովսկի
ժլատ
ժխտական
ժխտել
ժխտման
ժխտում
ժխտումը
ժյուլ
ժյուրիի
ժնև
ժնևի
ժնևում
ժո
ժոզե
ժոզեֆ
ժող
ժողկոմ
ժողկոմխորհի
ժողո
ժողով
ժողովածու
ժողովածուի
ժողովածուն
ժողովածուներ
ժողովածուները
ժողովածուների
ժողովածուներում
ժողովածուում
ժողովը
ժողովի
ժողովին
ժողովն
ժողովներ
ժողովների
ժողովո
ժողովում
ժողովուրդ
ժողովուրդը
ժողովուրդի
ժողովուրդին
ժողովուրդն
ժողովուրդներ
ժողովուրդները
ժողովուրդների
ժողովուրդներին
ժողովրդա
ժողովրդագրական
ժողովրդագրություն
ժողովրդական
ժողովրդականության
ժողովրդականություն
ժողովրդականությունը
ժողովրդավարական
ժողովրդավարության
ժողովրդավարություն
ժողովրդավարությունը
ժողովրդի
ժողովրդին
ժողովրդից
ժողովրդյան
ժողտնտեսության
ժորա
ժորժ
ժուան
ժուկովսկու
ժուռնալիստիկայի
ժուռնալիստների
ժուրավլյովայի
ժպիտ
ժպիտը
ժպիտով
ժպտալով
ժպտաց
ժպտում
ժպտուն
ի
իա
իբն
իբսենի
իբր
իբրահիմ
իբրեւ
իբրև
իգական
իգլ
իգոր
իդա
իդեալական
իդեալը
իդեալիստական
իդեալների
իեն
իզաբել
իզաբելլա
իզաբելլան
իզմիր
իզոտոպներ
իզուր
իժ
իլ
իլինոյս
իլինոյսի
իլիպ
իլհամ
իլյա
իլյիչ
իխսհ
իկոնիայի
իհարկե
իմ
իմամ
իմանա
իմանալ
իմանալով
իմանալու
իմանամ
իմանան
իմանաս
իմանում
իմաստ
իմաստալից
իմաստային
իմաստը
իմաստի
իմաստն
իմաստով
իմաստության
իմաստություն
իմաստությունը
իմաստուն
իմաստունի
իմաց
իմացա
իմացաբանական
իմացած
իմացական
իմացան
իմացավ
իմացել
իմացության
իմացություն
իմացությունը
իմերեթի
իմը
իմն
իմոյ
իմուն
իմունային
իմունիտետ
իմունիտետի
իմպերատորե
իմպերիալիզմի
իմպերիալիստական
իմպուլսային
իմպուլսի
իմպրեսիոնիզմի
իմս
ին
ինգրիդ
ինդեքս
ինդեքսը
ինդեքսի
ինդեքսն
ինդի
ինդիան
ինդիանա
ինդիանայի
ինդոնեզական
ինդոնեզիա
ինդոնեզիայի
ինդոնեզիայում
ինդուկցիայի
ինդուստրիալ
իներտ
իներցիալ
ինը
ինժեներ
ինժեներա
ինժեներական
ինժեների
ինժեներներ
ինժեներների
ինի
ինծի
ինկած
ինկերի
ինձ
ինձանից
ինձի
ինձմե
ինձնից
ինն
իննա
իններորդ
ինչ
ինչե
ինչեր
ինչը
ինչի
ինչին
ինչից
ինչն
ինչո
ինչով
ինչու
ինչում
ինչպե
ինչպես
ինչպէ
ինչպէս
ինչպիսի
ինչպիսին
ինչպիսիք
ինչքա
ինչքան
ինչքանով
ինչևէ
ինսուլինի
ինստ
ինստագրամի
ինստիտուտ
ինստիտուտը
ինստիտուտի
ինստիտուտին
ինստիտուտն
ինստիտուտներ
ինստիտուտները
ինստիտուտների
ինստիտուտում
ինստիտուցիոնալ
ինվազիվ
ինտեգրալ
ինտեգրման
ինտեգրված
ինտելեկտի
ինտելեկտուալ
ինտենսիվ
ինտենսիվության
ինտենսիվությունը
ինտեր
ինտերակտիվ
ինտերը
ինտերի
ինտերիերը
ինտերիերի
ինտերնացիոնալ
ինտերնացիոնալի
ինտերնետ
ինտերնետային
ինտերնետի
ինտերֆեյս
ինտերֆեյսի
ինտիմ
ինք
ինքդ
ինքզինքը
ինքզինքս
ինքը
ինքն
ինքնա
ինքնաբերաբար
ինքնաբուխ
ինքնագիտակցության
ինքնագիր
ինքնագիրը
ինքնագնաց
ինքնագործ
ինքնագրի
ինքնագրից
ինքնադիմանկար
ինքնաթիռ
ինքնաթիռը
ինքնաթիռի
ինքնաթիռներ
ինքնաթիռները
ինքնաթիռների
ինքնաթիռով
ինքնաթիռում
ինքնակամ
ինքնակառավարման
ինքնակենսագրական
ինքնակենսագրության
ինքնակենսագրությունը
ինքնապաշտպանական
ինքնապաշտպանության
ինքնապաշտպանությանը
ինքնապաշտպանություն
ինքնապաշտպանությունը
ինքնասպան
ինքնասպանության
ինքնասպանություն
ինքնասպանությունը
ինքնավար
ինքնավարության
ինքնավարություն
ինքնավարությունը
ինքնավստահ
ինքնատիպ
ինքներդ
ինքներս
ինքնըստինքյան
ինքնին
ինքնիշխան
ինքնիշխանության
ինքնիշխանությունը
ինքնիրեն
ինքնորոշման
ինքնության
ինքնություն
ինքնությունը
ինքնուրույն
ինքնուրույնության
ինքնուրույնությունը
ինքս
ինֆարկտ
ինֆարկտի
ինֆեկցիայի
ինֆեկցիաների
ինֆեկցիոն
ինֆորմատիկայի
ինֆորմացիա
ինֆորմացիայի
ինֆորմացիան
ինֆորմացիոն
ինֆրակարմիր
իշ
իշեմիկ
իշխան
իշխանական
իշխանաց
իշխանը
իշխանի
իշխանին
իշխանն
իշխաններ
իշխանները
իշխանների
իշխաններին
իշխաններից
իշխանու
իշխանութեան
իշխանության
իշխանությանը
իշխանություն
իշխանությունը
իշխանությունից
իշխանությունն
իշխանություններ
իշխանությունները
իշխանությունների
իշխանություններին
իշխանություններից
իշխանություններն
իշխանուհի
իշխանուհին
իշխանուհու
իշխել
իշխող
իշխում
իշտվան
իոն
իոնային
իոնացնող
իոններ
իոնները
իոնների
իոսիֆ
իպու
իջած
իջան
իջավ
իջել
իջեցման
իջեցնել
իջեցնելու
իջեցնում
իջեցում
իջեցումը
իջնել
իջնելով
իջնելու
իջնող
իջնում
իջևան
իջևանի
իռացիոնալ
իռլանդական
իռլանդացի
իռլանդիա
իռլանդիայի
իռլանդիայում
իռլանդիան
իս
իսահակ
իսահակի
իսահակյան
իսահակյանը
իսահակյանի
իսլամ
իսլամադավան
իսլամական
իսլամը
իսլամի
իսլանդական
իսլանդիա
իսլանդիայի
իսլանդիայում
իսլանդիան
իսկ
իսկական
իսկապես
իսկի
իսկոյն
իսկույն
իսմայիլ
իսոնզո
իսպ
իսպանական
իսպանացի
իսպանացին
իսպանացիները
իսպանացիների
իսպաներեն
իսպաներենի
իսպանիա
իսպանիայի
իսպանիային
իսպանիայից
իսպանիայում
իսպանիան
իսպառ
իսսհ
իսրայել
իսրայելական
իսրայելը
իսրայելի
իսրայելին
իսրայելյան
իսրայելում
իսրայելցի
իսրայէլի
իվ
իվան
իվանե
իվանը
իվանի
իվանիչը
իվանո
իվանով
իվանովը
իվանովի
իվանովիչ
իվանովկա
իվանովնա
իվանովնան
իվանովոյի
իվուարի
իտալ
իտալա
իտալական
իտալացի
իտալացին
իտալացիներ
իտալացիները
իտալացիների
իտալերեն
իտալիա
իտալիայի
իտալիային
իտալիայից
իտալիայում
իտալիան
իր
իրա
իրագործել
իրագործելու
իրագործման
իրագործում
իրագործումը
իրագործվել
իրագործվում
իրադարձության
իրադարձություն
իրադարձությունը
իրադարձություններ
իրադարձությունները
իրադարձությունների
իրադարձություններին
իրադարձություններից
իրադարձություններն
իրադրության
իրադրությունը
իրական
իրականանում
իրականացման
իրականացմանը
իրականացնել
իրականացնելով
իրականացնելու
իրականացնող
իրականացնում
իրականացում
իրականացումը
իրականացված
իրականացվել
իրականացվեց
իրականացվող
իրականացվում
իրականացրած
իրականացրել
իրականացրեց
իրականության
իրականությանը
իրականություն
իրականությունը
իրականությունից
իրականում
իրան
իրանական
իրանահայ
իրանը
իրանի
իրանին
իրանից
իրանում
իրանց
իրանցի
իրանք
իրապես
իրավ
իրավաբան
իրավաբանական
իրավաբանի
իրավաբաններ
իրավաբանների
իրավաբանորեն
իրավագիտության
իրավագիտություն
իրավական
իրավահաջորդ
իրավահաջորդը
իրավամբ
իրավապահ
իրավապաշտպան
իրավապաշտպաններ
իրավասու
իրավասության
իրավասություն
իրավարար
իրավացի
իրավիճակ
իրավիճակը
իրավիճակի
իրավիճակին
իրավիճակից
իրավիճակն
իրավիճակներ
իրավիճակների
իրավիճակներում
իրավիճակում
իրավունք
իրավունքը
իրավունքի
իրավունքին
իրավունքից
իրավունքն
իրավունքներ
իրավունքները
իրավունքների
իրավունքներին
իրավունքներից
իրավունքներն
իրավունքներով
իրավունքով
իրավունքում
իրատեսական
իրար
իրարանցում
իրարից
իրարու
իրացման
իրաւունք
իրաք
իրաքը
իրաքի
իրաքյան
իրաքում
իրեն
իրենը
իրենից
իրենով
իրենց
իրենցից
իրենք
իրեր
իրերը
իրերի
իրեք
իրը
իրի
իրիկուն
իրիկունը
իրինա
իրկուտսկի
իրմե
իրողության
իրողություն
իրողությունը
իրոք
իրտիշ
իրտիշի
ից
իցէ
իւր
իւրաքանչիւր
իւրեանց
իւրոյ
իւրոց
իքս
լ
լա
լաբորատոր
լաբորատորիա
լաբորատորիայի
լաբորատորիայում
լաբորատորիան
լաբորատորիաներ
լաբորատորիաներում
լազար
լազարյան
լազերային
լազուր
լալ
լալայան
լալիս
լամպը
լամպի
լայ
լայբնիցը
լայբնիցի
լայն
լայնածավալ
լայնական
լայնակի
լայնամասշտաբ
լայնանում
լայնատարած
լայնատերև
լայնացած
լայնորեն
լայնությամբ
լայնության
լայնություն
լայնությունը
լայնություններում
լայպցիգ
լայպցիգի
լայպցիգում
լան
լանա
լանդշաֆտային
լանդշաֆտը
լանդշաֆտի
լանդշաֆտները
լանդշաֆտների
լանկա
լանկայի
լանկայում
լանջերը
լանջերի
լանջերին
լանջերից
լանջերով
լանջի
լանջին
լանջից
լաշեզ
լաուրա
լաչինի
լաս
լասլո
լավ
լավագույն
լավագույնը
լավագույնն
լավագույններից
լավագույնս
լավային
լավը
լավն
լավրենտի
լատ
լատին
լատինաամերիկյան
լատինական
լատիներեն
լատիներենի
լատիներենից
լատիներենով
լատիշ
լատվիա
լատվիական
լատվիայի
լատվիայում
լատվիան
լատվիացի
լար
լարային
լարերը
լարերի
լարի
լարիսա
լարման
լարում
լարումը
լարս
լարված
լարվածության
լարվածություն
լարվածությունը
լաց
լացի
լացիո
լացիոյի
լաւ
լաւն
լգբտ
լե
լեբեդինի
լեգալ
լեգենդ
լեգենդար
լեգենդը
լեգենդի
լեգենդներ
լեգենդները
լեգենդների
լեգեոն
լեգեոներ
լեգեոնը
լեգեոնի
լեգեոնների
լեդի
լեզ
լեզու
լեզուի
լեզուն
լեզուներ
լեզուները
լեզուների
լեզուներին
լեզուներից
լեզուներն
լեզուներով
լեզուներում
լեզվաբան
լեզվաբանական
լեզվաբաններ
լեզվաբանության
լեզվաբանություն
լեզվաընտանիքի
լեզվական
լեզվի
լեզվին
լեզվից
լեզվով
լեզվում
լեհ
լեհական
լեհաստան
լեհաստանը
լեհաստանի
լեհաստանից
լեհաստանում
լեհեր
լեհերեն
լեհերի
լեղապարկի
լեմոն
լեյբլը
լեյբլի
լեյբլում
լեյբորիստական
լեյլա
լեյկոցիտների
լեյն
լեյտենանտ
լեյտենանտի
լեյք
լեյքերս
լեյքերսի
լեն
լենա
լենի
լենին
լենինական
լենինականի
լենինականում
լենինգրադ
լենինգրադի
լենինգրադյան
լենինգրադում
լենինը
լենինի
լենինիզմի
լենինին
լենինյան
լենկթեմուրի
լենոնը
լենոնի
լենֆիլմ
լեո
լեոյի
լեոն
լեոնարդ
լեոնարդո
լեոնի
լեոնիդ
լեոպոլդ
լեռ
լեռան
լեռը
լեռն
լեռնա
լեռնագագաթ
լեռնագագաթներ
լեռնադահուկային
լեռնահամակարգում
լեռնահանքային
լեռնամարգագետնային
լեռնային
լեռնանցք
լեռնանցքներ
լեռնաշխարհ
լեռնաշխարհը
լեռնաշխարհի
լեռնաշխարհում
լեռնաշղթա
լեռնաշղթայի
լեռնաշղթայից
լեռնաշղթայում
լեռնաշղթան
լեռնաշղթաներ
լեռնաշղթաները
լեռնաշղթաների
լեռնատափաստանային
լեռներ
լեռները
լեռների
լեռներից
լեռներն
լեռներով
լեռներում
լես
լեսթեր
լեսլի
լերմոնտովի
լեցուն
լեւոն
լէ
լը
լժհ
լի
լիա
լիազոր
լիազորություններ
լիազորությունները
լիազորությունների
լիազորված
լիակատար
լիամետրաժ
լիանա
լիարժեք
լիբանան
լիբանանահայ
լիբանանի
լիբանանից
լիբանանյան
լիբանանում
լիբանանցի
լիբերալ
լիբերիայի
լիբերտադորեսի
լիբիա
լիբիայի
լիբրետոն
լիգա
լիգայի
լիգային
լիգայից
լիգայում
լիգան
լիդիա
լիդիան
լիդս
լիզա
լիզայի
լիզան
լիթլ
լիի
լիին
լիիրավ
լիլ
լիլի
լիլիա
լիլիան
լիլիթ
լիլիթի
լիճ
լիճը
լիճն
լիմ
լիման
լիմֆոցիտների
լին
լինդա
լինեար
լինեի
լինեին
լինել
լինելը
լինելն
լինելով
լինելու
լինելուն
լինելուց
լինեմ
լինեն
լինենք
լինես
լիներ
լինեք
լինէր
լինի
լինիլ
լինին
լինում
լինքոլն
լինքոլնը
լինքոլնի
լիոն
լիոնել
լիոնի
լիոնում
լիովին
լիպեցկի
լիս
լիսաբոն
լիսաբոնի
լիսաբոնում
լիստ
լիստական
լիստի
լիվերպուլ
լիվերպուլը
լիվերպուլի
լիտվա
լիտվական
լիտվայի
լիտվայում
լիտվան
լիտվացի
լիտր
լիր
լիրա
լիրիկական
լիցեյում
լիցենզիա
լիցի
լիցք
լիցքավորման
լիցքավորված
լիցքերի
լիցքը
լիցքի
լիքը
լիքն
լլոյդ
լծի
լծից
լկս
լղ
լղիմ
լղհ
լճակ
լճային
լճեր
լճերը
լճերի
լճերից
լճերում
լճի
լճից
լճում
լյա
լյաենե
լյաենեմաա
լյարդ
լյարդային
լյարդը
լյարդի
լյարդում
լյու
լյուբով
լյուդմիլա
լյուդովիկոս
լյուդվիգ
լյութեր
լյութերական
լյուիս
լյուիսը
լյուիսի
լյուկ
լյուսի
լյուսին
լյուքսեմբուրգ
լյուքսեմբուրգի
լո
լոբի
լոգոն
լոզանի
լոլիկ
լոկ
լոկալ
լոկոմոտիվ
լոկոմոտիվի
լող
լողալ
լողացող
լողափ
լողի
լողում
լոմբարդիա
լոմոնոսովի
լոյս
լոնգ
լոնդոն
լոնդոնը
լոնդոնի
լոնդոնից
լոնդոնյան
լոնդոնում
լոուի
լոուրենս
լոուրենսը
լոուրենսի
լոպես
լոպեսը
լոռի
լոռու
լոռվա
լոս
լով
լոր
լորա
լորան
լորդ
լորդերի
լորդը
լորդի
լորեն
լորենի
լորենցի
լորենցո
լորի
լորձաթաղանթի
լորձաթաղանթների
լու
լուգանսկի
լուի
լուիզ
լուիզա
լուիզայի
լուիզան
լուիզիանա
լուին
լուիջի
լուիս
լուիսը
լուիսի
լուլին
լուծ
լուծարման
լուծարվել
լուծարվեց
լուծել
լուծելի
լուծելով
լուծելու
լուծը
լուծի
լուծիչներում
լուծման
լուծմանը
լուծմունք
լուծում
լուծումը
լուծումն
լուծումներ
լուծումները
լուծումների
լուծույթ
լուծույթը
լուծույթի
լուծույթների
լուծույթներում
լուծույթով
լուծույթում
լուծված
լուծվել
լուծվող
լուծվում
լուկա
լուկաս
լուկասը
լուկասի
լույս
լույսերը
լույսը
լույսի
լույսին
լույսից
լույսն
լույսով
լուն
լունա
լունան
լուռ
լուս
լուսաբանել
լուսաբանման
լուսաբանում
լուսաբաց
լուսաբացին
լուսագրերում
լուսամուտի
լուսամուտից
լուսամուտները
լուսամուտների
լուսային
լուսանկար
լուսանկարել
լուսանկարը
լուսանկարի
լուսանկարիչ
լուսանկարիչներ
լուսանկարներ
լուսանկարները
լուսանկարների
լուսանկարներով
լուսանկարում
լուսանկարչական
լուսանկարչության
լուսանկարչություն
լուսանցազարդ
լուսասեր
լուսավոր
լուսավորական
լուսավորիչ
լուսավորիչը
լուսավորման
լուսավորության
լուսավորություն
լուսավորությունը
լուսավորում
լուսավորչական
լուսավորչի
լուսավորված
լուսավորվում
լուսիկ
լուսին
լուսինե
լուսինը
լուսնային
լուսնի
լուսով
լուվր
լուվրի
լուր
լուրեր
լուրերը
լուրերի
լուրը
լուրն
լուրջ
լուցկի
լռել
լռելյայն
լռեց
լռությամբ
լռության
լռություն
լռությունը
լռությունից
լռում
լսած
լսարան
լսարանը
լսարանի
լսե
լսել
լսելի
լսելով
լսելու
լսելուց
լսեց
լսեցի
լսեցին
լսի
լսիր
լսո
լսող
լսողական
լսողության
լսում
լսումներ
լսումների
լսվեց
լսվում
լվանալ
լվանում
լվացման
լվով
լվովի
լվովում
լրաբեր
լրագիր
լրագիրը
լրագրի
լրագրող
լրագրողական
լրագրողը
լրագրողի
լրագրողներ
լրագրողները
լրագրողների
լրագրողներին
լրագրության
լրագրություն
լրանալուց
լրանում
լրատվական
լրատվամիջոցներ
լրատվամիջոցները
լրատվամիջոցների
լրատվամիջոցներում
լրատվության
լրացած
լրացավ
լրացել
լրացման
լրացնել
լրացնելով
լրացնելու
լրացնում
լրացում
լրացումներ
լրացուցիչ
լրացված
լրացվել
լրացվում
լրացրել
լրիվ
լրումն
լրջորեն
լրտես
լրտեսական
լրտեսության
լցնել
լցնելու
լցնում
լցված
լցվել
լցվեց
լցվում
լցրել
լցրեց
լքել
լքելու
լքեց
լքեցին
լքում
լքված
լքվել
լև
լևի
լևին
լևինը
լևոն
լևոնը
լևոնի
լևոնյան
խ
խա
խաբար
խաբարովսկի
խաբեբա
խաբել
խաբեությամբ
խաբեության
խաբում
խաբված
խաթունը
խալիլ
խալիֆ
խալիֆայության
խալիֆայությունը
խալիֆի
խախտել
խախտելով
խախտելու
խախտման
խախտում
խախտումը
խախտումներ
խախտումները
խախտումների
խախտված
խախտվել
խախտվում
խակասիա
խաղ
խաղա
խաղադաշտ
խաղադաշտից
խաղադաշտում
խաղալ
խաղալիք
խաղալիքներ
խաղալիքների
խաղալով
խաղալու
խաղակեսում
խաղաղ
խաղաղապահ
խաղաղությամբ
խաղաղության
խաղաղություն
խաղաղությունը
խաղաղօվկիանոսյան
խաղային
խաղատախտակ
խաղարկային
խաղարկության
խաղարկությանը
խաղարկությունն
խաղարկությունում
խաղաց
խաղացած
խաղացանկում
խաղացել
խաղացին
խաղացող
խաղացողը
խաղացողի
խաղացողին
խաղացողներ
խաղացողները
խաղացողների
խաղացողներին
խաղացողներից
խաղեր
խաղերը
խաղերի
խաղերին
խաղերից
խաղերն
խաղերում
խաղը
խաղի
խաղին
խաղից
խաղն
խաղող
խաղողը
խաղողի
խաղով
խաղում
խամսայի
խայտաբղետ
խայտառակ
խան
խանգարել
խանգարմամբ
խանգարման
խանգարում
խանգարումը
խանգարումներ
խանգարումները
խանգարումների
խանգարումներով
խանգարված
խանգարվում
խանդավառ
խանդավառությամբ
խաների
խանը
խանի
խանին
խանութ
խանութը
խանութի
խանութից
խանության
խանություն
խանությունը
խանութներ
խանութները
խանութների
խանութներում
խանութում
խանջյան
խանտի
խաշած
խաչ
խաչակիրները
խաչակիրների
խաչակրաց
խաչաձև
խաչատուր
խաչատուրի
խաչատրյան
խաչատրյանը
խաչատրյանի
խաչեն
խաչենի
խաչեր
խաչը
խաչի
խաչիկ
խաչիկյան
խաչին
խաչմերուկում
խաչն
խաչով
խաչված
խաչքար
խաչքարեր
խաչքարերը
խաչքարերի
խաչքարը
խաչքարի
խառը
խառն
խառնաշփոթ
խառնարան
խառնել
խառնելով
խառնում
խառնուրդ
խառնուրդը
խառնուրդի
խառնուրդից
խառնուրդներ
խառնուրդների
խառնուրդով
խառնված
խառնվել
խառնվում
խավար
խավարածրի
խավարը
խավարի
խավարում
խավերի
խավի
խավիեր
խարբերդ
խարբերդի
խարդախ
խարդախության
խարիսխ
խարկով
խարկովի
խարկովում
խարույկի
խափանման
խե
խեթ
խեթական
խելագար
խելագարի
խելագարության
խելահեղ
խելամիտ
խելացի
խելոք
խելք
խելքը
խելքի
խելքից
խելքով
խեղդամահ
խեղդել
խեղդում
խեղճ
խեղճը
խենթ
խենթը
խեցեղեն
խեցեղենի
խզել
խզեց
խզման
խզում
խթան
խթանել
խթանելու
խթանման
խթանող
խթանում
խթանումը
խի
խիզախ
խիզախության
խիղճ
խիղճը
խիսլավիչսկի
խիստ
խիտ
խլել
խլեց
խլում
խհ
խղճի
խղճուկ
խղճում
խճանկար
խճճված
խճուղու
խմ
խմբ
խմբագիր
խմբագիրը
խմբագիրն
խմբագիրներ
խմբագիրները
խմբագիրների
խմբագրական
խմբագրել
խմբագրի
խմբագրին
խմբագրման
խմբագրությամբ
խմբագրության
խմբագրություն
խմբագրությունը
խմբագրությունում
խմբագրում
խմբագրումը
խմբագրումներ
խմբագրումները
խմբագրումների
խմբակ
խմբակային
խմբակը
խմբակի
խմբակներ
խմբակցության
խմբային
խմբավար
խմբավորման
խմբավորում
խմբավորումը
խմբավորումներ
խմբավորումները
խմբավորումների
խմբեր
խմբերգային
խմբերը
խմբերի
խմբերին
խմբերից
խմբերն
խմբերով
խմբերում
խմբի
խմբին
խմբից
խմբով
խմբում
խմել
խմելնիցկիի
խմելու
խմեց
խմի
խմիչք
խմիչքի
խմիչքներ
խմիչքների
խմկկ
խմոր
խմորը
խմորի
խմորման
խմում
խնամակալ
խնամակալության
խնամել
խնամում
խնամք
խնամքը
խնամքի
խնամքին
խնամքով
խնայել
խնայողական
խնայողության
խնայում
խնդիր
խնդիրը
խնդիրն
խնդիրներ
խնդիրները
խնդիրների
խնդիրներին
խնդիրներից
խնդիրներն
խնդիրներով
խնդրահարույց
խնդրանք
խնդրանքը
խնդրանքով
խնդրել
խնդրելով
խնդրելու
խնդրեմ
խնդրեց
խնդրեցի
խնդրեցին
խնդրի
խնդրին
խնդրո
խնդրով
խնդրում
խնդրույն
խնձոր
խնձորեսկ
խնձորը
խնձորի
խնուսի
խնջույք
խնջույքի
խո
խոզ
խոզերի
խոզի
խոլերայի
խոլմ
խոհանոց
խոհանոցային
խոհանոցը
խոհանոցի
խոհանոցում
խոհարար
խոհարարական
խողովակ
խողովակը
խողովակի
խողովակներ
խողովակները
խողովակների
խոմ
խոյ
խոյանում
խոյի
խոնավ
խոնավության
խոնավություն
խոնավությունը
խոնարհ
խոնարհման
խոնարհվում
խոշոր
խոշորագույն
խոշտանգումների
խոչընդոտ
խոչընդոտել
խոչընդոտներ
խոչընդոտների
խոչընդոտում
խոպան
խոջա
խոռոչ
խոռոչը
խոռոչի
խոռոչների
խոռոչում
խոսակցական
խոսակցության
խոսակցություն
խոսակցությունը
խոսակցություններ
խոսակցությունները
խոսե
խոսել
խոսելը
խոսելիս
խոսելով
խոսելու
խոսենք
խոսեր
խոսեց
խոսի
խոսիլ
խոսիր
խոսնակ
խոսող
խոսողների
խոսում
խոսվում
խոստանալով
խոստանում
խոստացած
խոստացավ
խոստացել
խոստացված
խոստովանել
խոստովանեց
խոստովանություն
խոստովանությունը
խոստովանում
խոստում
խոստումը
խոստումնալից
խոսրով
խոսրովի
խոսք
խոսքային
խոսքեր
խոսքերը
խոսքերի
խոսքերին
խոսքերից
խոսքերն
խոսքերով
խոսքը
խոսքի
խոսքին
խոսքից
խոսքն
խոսքով
խոսքում
խոսքս
խոտ
խոտաբույս
խոտաբույսեր
խոտաբույսերի
խոտերի
խոտը
խոտի
խոր
խորագիրը
խորագրի
խորագրով
խորամանկ
խորան
խորանարդ
խորանը
խորանի
խորանին
խորանում
խորապես
խորացել
խորացման
խորացված
խորեն
խորենացի
խորենացին
խորենացու
խորեոգրաֆ
խորը
խորթ
խորին
խորխե
խորհուրդ
խորհուրդը
խորհուրդի
խորհուրդն
խորհուրդներ
խորհուրդները
խորհուրդների
խորհուրդում
խորհրդ
խորհրդա
խորհրդական
խորհրդականը
խորհրդականի
խորհրդակցական
խորհրդակցել
խորհրդակցության
խորհրդային
խորհրդանիշ
խորհրդանիշեր
խորհրդանիշը
խորհրդանիշն
խորհրդանիշներ
խորհրդանիշները
խորհրդանիշներից
խորհրդանշական
խորհրդանշող
խորհրդանշում
խորհրդավոր
խորհրդատու
խորհրդատուն
խորհրդատվական
խորհրդատվություն
խորհրդարան
խորհրդարանական
խորհրդարանը
խորհրդարանի
խորհրդարանին
խորհրդարանում
խորհրդի
խորհրդին
խորհրդից
խորհրդով
խորհրդում
խորն
խորոված
խորությամբ
խորության
խորություն
խորությունը
խորունկ
խորվաթ
խորվաթական
խորվաթիա
խորվաթիայի
խորվաթիայում
խորվաթիան
խորվաթներ
խորտակված
խորքային
խորքերը
խորքը
խորքից
խորքում
խոց
խոցային
խոցել
խոցելի
խոցի
խուան
խուզարկու
խուլ
խուճապ
խուճապային
խուճապի
խումբ
խումբը
խումբն
խույս
խուսափել
խուսափելով
խուսափելու
խուսափեն
խուսափում
խուտոր
խուտորներ
խռովության
խռովություն
խռովությունը
խռպոտ
խսհ
խսհմ
խստիվ
խստորեն
խստությամբ
խտացված
խտությամբ
խտության
խտություն
խտությունը
խտրականության
խտրականություն
խրախուսել
խրախուսում
խրախուսվում
խրատ
խրատական
խրատք
խրիմյան
խրճիթ
խրճիթը
խրճիթի
խրոխտ
խրոնիկ
խրոնիկական
խցիկ
խցիկի
խփած
խփել
խփելով
խփեց
խփում
խօսք
խօսքը
ծ
ծա
ծագած
ծագել
ծագեց
ծագմամբ
ծագման
ծագող
ծագում
ծագումը
ծագումն
ծագումնաբանական
ծագումնաբանություն
ծագումով
ծալած
ծալված
ծալքավոր
ծախել
ծախում
ծախս
ծախսել
ծախսեր
ծախսերը
ծախսերի
ծախսը
ծախսի
ծախսում
ծախսված
ծախսվել
ծախսվում
ծածկ
ծածկած
ծածկանունների
ծածկասերմ
ծածկասերմեր
ծածկել
ծածկելով
ծածկելու
ծածկեց
ծածկը
ծածկի
ծածկող
ծածկով
ծածկում
ծածկույթ
ծածկույթը
ծածկույթի
ծածկված
ծածկվել
ծածկվում
ծածուկ
ծակ
ծակոտկեն
ծակում
ծաղիկ
ծաղիկը
ծաղիկն
ծաղիկներ
ծաղիկները
ծաղիկների
ծաղիկներից
ծաղիկներն
ծաղիկներով
ծաղկաբույլը
ծաղկած
ծաղկային
ծաղկանց
ծաղկավոր
ծաղկել
ծաղկի
ծաղկման
ծաղկող
ծաղկում
ծաղկումը
ծաղկուն
ծաղր
ծաղրածու
ծաղրական
ծաղրել
ծաղրի
ծաղրում
ծայր
ծայրագույն
ծայրահեղ
ծայրահեղական
ծայրամասային
ծայրամասերում
ծայրամասում
ծայրային
ծայրաստիճան
ծայրերը
ծայրերին
ծայրերից
ծայրերում
ծայրը
ծայրի
ծայրին
ծայրից
ծայրով
ծայրում
ծանոթ
ծանոթագրություն
ծանոթագրությունը
ծանոթագրություններ
ծանոթագրությունները
ծանոթագրությունների
ծանոթանալ
ծանոթանալով
ծանոթանալու
ծանոթանում
ծանոթացավ
ծանոթացել
ծանոթացնել
ծանոթացնում
ծանոթացրել
ծանոթների
ծանոթության
ծանոթություն
ծանոթությունը
ծանուցում
ծանր
ծանրաբեռնված
ծանրաբեռնվածության
ծանրակշիռ
ծանրամարտի
ծանրությամբ
ծանրության
ծանրություն
ծանրությունը
ծանրքաշային
ծանօթ
ծառ
ծառա
ծառայած
ծառայել
ծառայելով
ծառայելու
ծառայեց
ծառայի
ծառային
ծառայող
ծառայողական
ծառայողներ
ծառայողները
ծառայողների
ծառայության
ծառայությանը
ծառայություն
ծառայությունը
ծառայությունից
ծառայությունն
ծառայություններ
ծառայությունները
ծառայությունների
ծառայություններից
ծառայությունում
ծառայում
ծառան
ծառաներ
ծառաները
ծառաների
ծառաներին
ծառացած
ծառեր
ծառերը
ծառերի
ծառերով
ծառը
ծառի
ծառին
ծառից
ծառն
ծառուղի
ծառուղում
ծավալ
ծավալած
ծավալային
ծավալել
ծավալելու
ծավալը
ծավալի
ծավալման
ծավալն
ծավալները
ծավալների
ծավալով
ծավալում
ծավալուն
ծավալված
ծավալվել
ծավալվեց
ծավալվում
ծատուրյան
ծատուրյանի
ծարավ
ծարավը
ծեծել
ծեծի
ծեծում
ծեսեր
ծեսերը
ծեսերի
ծեսը
ծեր
ծերացած
ծերացման
ծերերի
ծերության
ծերուկ
ծերունի
ծերունին
ծերունու
ծերունուն
ծիածան
ծիծաղ
ծիծաղել
ծիծաղելի
ծիծաղելով
ծիծաղեց
ծիծաղը
ծիծաղի
ծիծաղում
ծիծեռնակ
ծիսական
ծիր
ծիրան
ծիրանագույն
ծիրանի
ծխախոտ
ծխախոտը
ծխախոտի
ծխական
ծխել
ծխելը
ծխելու
ծխի
ծխում
ծծմբական
ծծմբային
ծծմբի
ծծումբ
ծն
ծնած
ծնե
ծնել
ծնելիության
ծնեց
ծնկան
ծնկի
ծնկները
ծնկների
ծննդաբերության
ծննդաբերությունից
ծննդավայր
ծննդավայրը
ծննդավայրի
ծննդավայրում
ծննդի
ծննդից
ծննդյան
ծննդոց
ծնող
ծնողական
ծնողաց
ծնողի
ծնողներ
ծնողները
ծնողների
ծնողներին
ծնողներից
ծնողներն
ծնոտը
ծնոտի
ծնում
ծնունդ
ծնունդը
ծնունդից
ծնունդն
ծնունդներ
ծնունդով
ծնվ
ծնված
ծնվածներ
ծնվել
ծնվելու
ծնվելուց
ծնվեց
ծնվում
ծո
ծով
ծովագնաց
ծովածոցի
ծովակալ
ծովահեն
ծովահենները
ծովահենների
ծովային
ծովափին
ծովափնյա
ծովեր
ծովերը
ծովերի
ծովերում
ծովը
ծովի
ծովին
ծովինար
ծովից
ծովն
ծովով
ծովում
ծովուն
ծոց
ծոցը
ծոցի
ծոցից
ծոցում
ծուխ
ծուխը
ծում
ծույլ
ծուռ
ծոփք
ծոփքի
ծռեր
ծրագիր
ծրագիրը
ծրագիրն
ծրագրային
ծրագրավորման
ծրագրավորող
ծրագրավորում
ծրագրավորված
ծրագրել
ծրագրեր
ծրագրերը
ծրագրերի
ծրագրերին
ծրագրերից
ծրագրերն
ծրագրերով
ծրագրերում
ծրագրի
ծրագրին
ծրագրից
ծրագրով
ծրագրում
ծրագրված
կ
կա
կաբելային
կաբինետ
կաբինետը
կաբինետի
կաբո
կադր
կադրային
կադրեր
կադրերը
կադրերի
կազ
կազակական
կազակները
կազակների
կազան
կազանի
կազանում
կազիմիր
կազմ
կազմա
կազմալուծումներ
կազմած
կազմակեր
կազմակերպած
կազմակերպական
կազմակերպել
կազմակերպելով
կազմակերպելու
կազմակերպեց
կազմակերպեցին
կազմակերպիչ
կազմակերպիչը
կազմակերպիչները
կազմակերպիչների
կազմակերպիչներից
կազմակերպման
կազմակերպմանը
կազմակերպու
կազմակերպության
կազմակերպությանը
կազմակերպություն
կազմակերպությունը
կազմակերպությունից
կազմակերպությունն
կազմակերպություններ
կազմակերպությունները
կազմակերպությունների
կազմակերպություններին
կազմակերպություններից
կազմակերպություններում
կազմակերպությունում
կազմակերպում
կազմակերպումը
կազմակերպչական
կազմակերպված
կազմակերպվել
կազմակերպվեց
կազմակերպվեցին
կազմակերպվող
կազմակերպվում
կազմավորել
կազմավորման
կազմավորում
կազմավորումը
կազմավորումից
կազմավորումներ
կազմավորումները
կազմավորումների
կազմավորված
կազմավորվել
կազմավորվեց
կազմավորվում
կազմել
կազմելով
կազմելու
կազմեն
կազմեր
կազմերի
կազմերում
կազմեց
կազմեցին
կազմը
կազմի
կազմին
կազմից
կազմման
կազմն
կազմող
կազմով
կազմության
կազմությունը
կազմում
կազմված
կազմվել
կազմվեց
կազմվում
կաթ
կաթը
կաթի
կաթիլ
կաթիլներ
կաթիլները
կաթից
կաթնաթթվային
կաթնամթերքի
կաթնային
կաթնասուն
կաթնասուններ
կաթնասունների
կաթոլիկ
կաթոլիկական
կաթոլիկներ
կաթոլիկների
կաթոլիկության
կաթոլիկություն
կաթողիկե
կաթողիկոս
կաթողիկոսական
կաթողիկոսը
կաթողիկոսի
կաթողիկոսին
կաթողիկոսն
կաթողիկոսների
կաթողիկոսության
կաթողիկոսությունը
կաթով
կաթում
կաթսայի
կաթված
կաթվածահար
կաթվածի
կաթվածից
կալ
կալաբրիա
կալանավոր
կալանավորներ
կալանավորների
կալանքի
կալավ
կալե
կալի
կալինինգրադի
կալինինի
կալիում
կալիումական
կալիումի
կալիֆոռնիա
կալիֆոռնիայի
կալիֆոռնիայում
կալիֆորնիա
կալիֆորնիայի
կալիֆորնիայում
կալկաթա
կալկաթայի
կալկաթայում
կալուգայի
կալվադոս
կալվածատեր
կալվածատիրական
կալվածք
կալվածքը
կալվածքի
կալվածքներ
կալվածքները
կալվածքների
կալվածքում
կալցիում
կալցիումական
կալցիումի
կախ
կախաղան
կախարդ
կախարդական
կախարդանքը
կախարդանքի
կախարդը
կախարդի
կախարդների
կախարդության
կախարդված
կախեթի
կախել
կախման
կախյալ
կախովի
կախում
կախումը
կախված
կախվածության
կախվածություն
կախվածությունը
կախվում
կական
կակաոյի
կահ
կահավորված
կահիրե
կահիրեի
կահիրեում
կահույք
կահույքը
կահույքի
կաձուրո
կաղ
կաղամբ
կաղամբի
կաղաչեմ
կաղապար
կաղապարը
կաղապարի
կաղապարներ
կաղապարները
կաղապարների
կաղապարով
կաղապարում
կաղնի
կաղնին
կաղնու
կամ
կամա
կամայական
կամային
կամավոր
կամավորական
կամավորներ
կամավորները
կամավորների
կամար
կամարակապ
կամարաձև
կամարը
կամարի
կամարներ
կամարները
կամարների
կամարներով
կամաց
կամացուկ
կամենալով
կամենեց
կամենկա
կամենում
կամենսկի
կամեո
կամերային
կամերունի
կամեցավ
կամեցել
կամի
կամիլ
կամո
կամոյի
կամուրջ
կամուրջը
կամուրջի
կամուրջն
կամուրջներ
կամուրջները
կամուրջների
կամչատկա
կամչատկայի
կամպանիա
կամպո
կամսարյանը
կամրջի
կամրջից
կամրջով
կամք
կամքը
կամքի
կամքին
կամքից
կամքն
կամքով
կայ
կայազորը
կայազորի
կայան
կայանալիք
կայանը
կայանի
կայաններ
կայանները
կայանների
կայանում
կայարան
կայարանը
կայարանի
կայարանից
կայարաններ
կայարանում
կայացած
կայացավ
կայացել
կայացման
կայացնել
կայացնելու
կայացնում
կայացվել
կայացրել
կայացրեց
կայի
կային
կայծ
կայծակ
կայծակի
կայծակնային
կայծեր
կայն
կայուն
կայունացման
կայունության
կայունություն
կայունությունը
կայսեր
կայսերական
կայսր
կայսրեր
կայսրերի
կայսրը
կայսրի
կայսրին
կայսրն
կայսրության
կայսրությանը
կայսրություն
կայսրությունը
կայսրությունից
կայսրությունն
կայսրությունների
կայսրությունում
կայսրուհի
կայսրուհին
կայսրուհու
կայտառ
կայք
կայքեր
կայքերը
կայքերի
կայքերում
կայքէջ
կայքէջը
կայքէջում
կայքը
կայքի
կայքից
կայքում
կան
կանադա
կանադական
կանադայի
կանադայում
կանադան
կանադացի
կանայք
կանանց
կանանցից
կանաչ
կանաչապատման
կանաչավուն
կանաչը
կանաչի
կանաչների
կանարյան
կանացի
կանգ
կանգնած
կանգնել
կանգնելով
կանգնելու
կանգնեց
կանգնեցին
կանգնեցնել
կանգնեցնելու
կանգնեցնում
կանգնեցված
կանգնեցվել
կանգնեցվեց
կանգնեցրել
կանգնեցրեց
կանգնի
կանգնում
կանգուն
կանեդա
կանեդայի
կանեմ
կանեն
կանես
կանեփի
կանզաս
կանզասի
կանի
կանխամտածված
կանխավ
կանխատեսել
կանխատեսման
կանխատեսում
կանխատեսումը
կանխարգելիչ
կանխարգելման
կանխարգելում
կանխարգելումը
կանխել
կանխելու
կանխիկ
կանխման
կանխում
կաննի
կանո
կանոն
կանոնադրական
կանոնադրությամբ
կանոնադրության
կանոնադրություն
կանոնադրությունը
կանոնական
կանոնակարգ
կանոնակարգը
կանոնակարգի
կանոնակարգում
կանոնավոր
կանոնը
կանոնի
կանոններ
կանոնները
կանոնների
կանոններին
կանոններից
կանոններով
կանության
կանուխ
կանում
կանչ
կանչել
կանչելու
կանչեց
կանչեցին
կանչը
կանչի
կանչում
կանչվել
կանտալ
կանտի
կանտոն
կանտոնի
կանտոնն
կանտոններ
կանտոնում
կանցլեր
կանցնի
կաշառք
կաշարսկի
կաշեպատ
կաշի
կաշին
կաշխատեմ
կաշխատի
կաշվե
կաշվի
կաշվից
կաուչուկի
կապ
կապադովկիայի
կապած
կապակցությամբ
կապակցված
կապան
կապանի
կապար
կապարի
կապել
կապելլա
կապելլայի
կապելով
կապելու
կապեր
կապերը
կապերի
կապերն
կապերով
կապեց
կապեցին
կապը
կապի
կապիկ
կապիկներ
կապիկները
կապիկների
կապիտ
կապիտալ
կապիտալը
կապիտալի
կապիտալիզմը
կապիտալիզմի
կապիտալիստական
կապիտան
կապիտանի
կապն
կապող
կապով
կապում
կապույտ
կապույտը
կապված
կապվել
կապվում
կապտավուն
կապրի
կառա
կառավարական
կառավարել
կառավարելու
կառավարիչ
կառավարիչը
կառավարիչներ
կառավարիչները
կառավարիչների
կառավարման
կառավարմանը
կառավարող
կառավարութեան
կառավարութիւնը
կառավարության
կառավարությանը
կառավարությանն
կառավարություն
կառավարությունը
կառավարությունից
կառավարությունն
կառավարությունները
կառավարությունների
կառավարությունում
կառավարում
կառավարումը
կառավարումն
կառավարչական
կառավարչի
կառավարվող
կառավարվում
կառլ
կառլեն
կառլը
կառլի
կառլո
կառլոս
կառլոսը
կառլոֆը
կառնե
կառնեմ
կառույց
կառույցը
կառույցի
կառույցն
կառույցներ
կառույցները
կառույցների
կառույցներից
կառույցներում
կառուց
կառուցած
կառուցապատման
կառուցել
կառուցելով
կառուցելու
կառուցեց
կառուցեցին
կառուցման
կառուցմանը
կառուցող
կառուցողական
կառուցում
կառուցումը
կառուցումից
կառուցումն
կառուցված
կառուցվածք
կառուցվածքային
կառուցվածքը
կառուցվածքի
կառուցվածքին
կառուցվածքից
կառուցվածքն
կառուցվածքներ
կառուցվածքները
կառուցվածքների
կառուցվածքով
կառուցվածքում
կառուցվել
կառուցվեց
կառուցվեցին
կառուցվող
կառուցվում
կառք
կառքը
կառքի
կառքով
կաս
կասեմ
կասեն
կասես
կասեցնել
կասեցնելու
կասեք
կասի
կասկադի
կասկած
կասկածանքով
կասկածել
կասկածելի
կասկածը
կասկածի
կասկածներ
կասկածները
կասկածում
կասկածվում
կասպար
կասպիական
կասպից
կաստել
կաստիելը
կաստիլիա
կաստիլիայի
կավ
կավային
կավե
կավի
կավից
կավճի
կատա
կատալինա
կատալիտիկ
կատալոգ
կատալոնական
կատալոնիա
կատալոնիայի
կատակ
կատակերգական
կատակերգու
կատակերգության
կատակերգություն
կատակերգությունը
կատակերգություններ
կատակերգությունում
կատակերգուներ
կատակներ
կատակով
կատաղած
կատաղի
կատաղության
կատաղությունը
կատար
կատարած
կատարավոր
կատարեալ
կատարել
կատարելագործել
կատարելագործման
կատարելագործումը
կատարելագործված
կատարելագործվել
կատարելապես
կատարելը
կատարելիս
կատարելով
կատարելու
կատարելության
կատարելուց
կատարեն
կատարեր
կատարեց
կատարեցին
կատարը
կատարի
կատարինա
կատարմամբ
կատարման
կատարմանը
կատարյալ
կատարող
կատարողական
կատարողը
կատարողի
կատարողներ
կատարողները
կատարողների
կատարողներից
կատարում
կատարումը
կատարումից
կատարումն
կատարումներ
կատարումները
կատարված
կատարվածը
կատարվածի
կատարվել
կատարվեց
կատարվեցին
կատարվի
կատարվող
կատարվում
կատեգորիա
կատեգորիայի
կատեգորիայից
կատեգորիայում
կատեգորիան
կատեգորիաներ
կատեգորիաները
կատեգորիաների
կատեգորիաներում
կատերինա
կատյա
կատոն
կատու
կատուն
կատուներ
կատուները
կատուների
կատվի
կատվին
կար
կարա
կարագ
կարապ
կարապետ
կարապետը
կարապետի
կարապետյան
կարապետյանը
կարապետյանի
կարապի
կարաս
կարգ
կարգադրել
կարգադրեց
կարգադրությամբ
կարգախոսը
կարգախոսն
կարգախոսով
կարգային
կարգապահական
կարգապահության
կարգավիճակ
կարգավիճակը
կարգավիճակի
կարգավիճակին
կարգավիճակից
կարգավիճակով
կարգավիճակում
կարգավորել
կարգավորելու
կարգավորիչ
կարգավորման
կարգավորմանը
կարգավորող
կարգավորում
կարգավորումը
կարգավորված
կարգավորվող
կարգավորվում
կարգել
կարգեր
կարգերը
կարգերի
կարգը
կարգի
կարգին
կարգն
կարգով
կարգում
կարդա
կարդալ
կարդալով
կարդալու
կարդալուց
կարդաց
կարդացած
կարդացել
կարդացեք
կարդացի
կարդացվում
կարդիմովսկի
կարդինալ
կարդում
կարել
կարելական
կարելի
կարելիայի
կարեն
կարեոր
կարեւոր
կարթագենի
կարի
կարիբյան
կարիերա
կարիերայի
կարիերային
կարիերայից
կարիերայում
կարիերան
կարին
կարինե
կարինի
կարիք
կարիքը
կարիքի
կարիքն
կարիքները
կարիքների
կարլ
կարլի
կարլո
կարլոս
կարծել
կարծելով
կարծեմ
կարծես
կարծեր
կարծեց
կարծիք
կարծիքը
կարծիքի
կարծիքին
կարծիքն
կարծիքներ
կարծիքները
կարծիքների
կարծիքով
կարծում
կարծր
կարծրությունը
կարկանդակ
կարկառուն
կարկասոն
կարճ
կարճաժամկետ
կարճահասակ
կարճամետրաժ
կարճատև
կարմեն
կարմիր
կարմիրը
կարմրած
կարմրավուն
կարո
կարոլին
կարոլինա
կարոլինայի
կարող
կարողանա
կարողանամ
կարողանային
կարողանան
կարողանանք
կարողանար
կարողանում
կարողացա
կարողացան
կարողացավ
կարողացել
կարողությամբ
կարողության
կարողություն
կարողությունը
կարողություններ
կարողությունները
կարողությունների
կարոյի
կարոն
կարոտ
կարոտը
կարոտի
կարոտին
կարոտով
կարոտում
կարում
կարուսել
կարս
կարսը
կարսի
կարսում
կարված
կարտոֆիլ
կարտոֆիլը
կարտոֆիլի
կարևոր
կարևորագույն
կարևորը
կարևորության
կարևորություն
կարևորությունը
կարևորում
կարևորվում
կաց
կացան
կացավ
կացարան
կացարանների
կացել
կացեք
կացին
կացնում
կացության
կացությունը
կացուուրա
կացվել
կացվում
կացրել
կաֆկայի
կբ
կբերեմ
կբերի
կգ
կգա
կգամ
կգան
կգաս
կգնա
կգնամ
կգտնի
կգտնվի
կգրեմ
կդառնա
կդառնան
կդառնար
կե
կեա
կեանք
կեանքը
կեանքի
կեանքին
կեդրոն
կեդրոնական
կել
կելտական
կեղծ
կեղծանունը
կեղծանուններ
կեղծանուններով
կեղծանունով
կեղծանվամբ
կեղտոտ
կեղև
կեղևային
կեղևը
կեղևի
կեղևով
կեմերովոյի
կեն
կենա
կենալ
կենաց
կենացը
կենդանաբանական
կենդանաբանության
կենդանական
կենդանակերպի
կենդանի
կենդանին
կենդանիներ
կենդանիները
կենդանիների
կենդանիներին
կենդանիներից
կենդանիներն
կենդանիներով
կենդանու
կենդանության
կենդանություն
կենդանուն
կենում
կենսաբազմազանության
կենսաբան
կենսաբանական
կենսաբաններ
կենսաբանորեն
կենսաբանության
կենսաբանություն
կենսագիր
կենսագործունեության
կենսագրական
կենսագրության
կենսագրություն
կենսագրությունը
կենսաթոշակային
կենսաթոշակի
կենսական
կենսակերպ
կենսակերպը
կենսակերպի
կենսաքիմիական
կենսաքիմիայի
կենսաքիմիկոս
կենսբ
կենսունակ
կենսուրախ
կենտ
կենտավրոսի
կենտգործկոմի
կենտկոմի
կենտուկի
կենտր
կենտրոն
կենտրոնագմբեթ
կենտրոնախույս
կենտրոնական
կենտրոնամետ
կենտրոնանալ
կենտրոնանալով
կենտրոնանում
կենտրոնացած
կենտրոնացել
կենտրոնացման
կենտրոնացնել
կենտրոնացնում
կենտրոնացումը
կենտրոնացված
կենտրոնացրել
կենտրոնը
կենտրոնի
կենտրոնին
կենտրոնից
կենտրոնն
կենտրոններ
կենտրոնները
կենտրոնների
կենտրոններից
կենտրոններն
կենտրոններում
կենտրոնով
կենտրոնում
կենցաղային
կենցաղը
կենցաղի
կենցաղում
կենցաղսպասարկման
կեչու
կեռ
կես
կեսար
կեսարացու
կեսարը
կեսարի
կեսարիա
կեսարիայի
կեսարին
կեսարն
կեսգիշերին
կեսերը
կեսերին
կեսերից
կեսը
կեսի
կեսին
կեսից
կեսն
կեսում
կեսօր
կեսօրին
կեսօրից
կետ
կետադրական
կետային
կետանման
կետեր
կետերը
կետերի
կետերից
կետերով
կետերում
կետը
կետի
կետին
կետից
կետն
կետով
կետում
կեր
կերած
կերակուր
կերակուրը
կերակրափողի
կերակրել
կերակրելու
կերակրի
կերակրման
կերակրում
կերամիկական
կերամիկայի
կերային
կերան
կերավ
կերել
կերը
կերթա
կերթամ
կերթան
կերի
կերչի
կերպ
կերպար
կերպարային
կերպարանք
կերպարանքը
կերպարանքով
կերպարը
կերպարի
կերպարին
կերպարն
կերպարներ
կերպարները
կերպարների
կերպարներին
կերպարներից
կերպարներն
կերպարներով
կերպարով
կերպարում
կերպարվեստ
կերպարվեստը
կերպարվեստի
կերպարվեստում
կերպով
կերտած
կերտել
կերտված
կերևա
կերևի
կեցած
կեցության
կեցվածք
կեցցե
կզգար
կէթա
կէս
կը
կըլի
կըլլա
կըլնի
կընդունի
կընե
կընկնի
կըսե
կըսեմ
կըսեն
կըսես
կըսեր
կթողարկվի
կժդհ
կի
կիթ
կիթառ
կիթառահար
կիթառահարներ
կիթառը
կիթառի
կիլիկիա
կիլիկիայի
կիլիկիայում
կիլիկիան
կիլիկիո
կիլիկիոյ
կիլիկյան
կիլոգրամ
կիլոմետր
կիլոմետրի
կիխոտ
կիխոտը
կիկլոպյան
կիմ
կիմանա
կին
կինեմատոգրաֆիա
կինեմատոգրաֆիական
կինեմատոգրաֆիայի
կինեմատոգրաֆիստների
կինետիկ
կիները
կինը
կինն
կինո
կինոակադեմիայի
կինոարվեստի
կինոարտադրության
կինոդերասան
կինոդերասաններ
կինոդերասանների
կինոդերասանուհիներ
կինոընկերության
կինոընկերությունը
կինոթատրոն
կինոթատրոնը
կինոթատրոնի
կինոթատրոններում
կինոթատրոնում
կինոկատակերգություններ
կինոմրցանակ
կինոմրցանակի
կինոյի
կինոյում
կինոն
կինոնկար
կինոնկարը
կինոնկարի
կինոնկարներ
կինոնկարները
կինոնկարների
կինոնկարներում
կինոնկարում
կինոպրոդյուսերներ
կինոռեժիսոր
կինոռեժիսորներ
կինոստուդիա
կինոստուդիայի
կինոստուդիայում
կինոստուդիան
կինոփառատոն
կինոփառատոնի
կինոփառատոնին
կինոփառատոնում
կինոքննադատ
կինոքննադատների
կինոօպերատոր
կինս
կիչան
կիպ
կիպրոս
կիպրոսը
կիպրոսի
կիպրոսում
կիսաանապատային
կիսագնդերի
կիսագնդի
կիսագնդում
կիսաեզրափակիչ
կիսաեզրափակիչում
կիսաեզրափակչի
կիսաեզրափակչում
կիսախորան
կիսահաղորդչային
կիսամերկ
կիսանդրի
կիսանդրին
կիսանկախ
կիսաշրջանաձև
կիսապաշտպան
կիսապաշտպանը
կիսապաշտպանի
կիսապաշտպաններ
կիսավեր
կիսատ
կիսել
կիսով
կիսում
կիսվել
կիսվում
կիտամի
կիտրոնի
կիր
կիրա
կիրակի
կիրակին
կիրակնօրյա
կիրակոս
կիրակոսյան
կիրառ
կիրառական
կիրառել
կիրառելի
կիրառելով
կիրառելու
կիրառեց
կիրառմամբ
կիրառման
կիրառմանը
կիրառության
կիրառություն
կիրառությունը
կիրառություններ
կիրառում
կիրառումը
կիրառումից
կիրառումն
կիրառումներ
կիրառված
կիրառվել
կիրառվող
կիրառվում
կիրիլ
կիրճ
կիրճը
կիրճի
կիրճում
կիրովական
կիրովականի
կիրովի
կիրովոգրադի
կիրք
կիրքը
կից
կիև
կիևը
կիևի
կիևյան
կիևում
կլանել
կլանի
կլանման
կլանում
կլանումը
կլաուդիո
կլաուս
կլաուսը
կլաուսի
կլասիցիզմի
կլավդիոս
կլարա
կլարկ
կլեյստերսը
կլեոպատրա
կլեոպատրայի
կլետ
կլետի
կլետում
կլերմոն
կլիմա
կլիմայական
կլիմայի
կլիման
կլիմենտ
կլինեին
կլինեմ
կլինեն
կլինենք
կլինես
կլիներ
կլինի
կլինիկ
կլինիկա
կլինիկական
կլինիկայի
կլինիկայում
կլիվլենդ
կլոդ
կլոր
կլորավուն
կխնդրեմ
կծկման
կծկումների
կծու
կծում
կկ
կկալ
կկատարի
կկարողանա
կկարողանան
կհայտնվի
կհանգեցնի
կհասնի
կհվ
կղեմես
կղերական
կղզեխմբի
կղզի
կղզին
կղզիներ
կղզիները
կղզիների
կղզիներից
կղզիներում
կղզու
կղզում
կղզուց
կմ
կմախք
կմախքային
կմախքը
կմախքի
կմնա
կմնան
կմնար
կյան
կյանք
կյանքը
կյանքի
կյանքին
կյանքից
կյանքն
կյանքով
կյանքում
կյանքս
կյուրեղ
կյուրոս
կներեք
կնիկ
կնիկը
կնիկն
կնիկները
կնիք
կնիքը
կնկա
կնկան
կնկանը
կնշանակե
կնշանակի
կնոջ
կնոջը
կնոջից
կնոջն
կնության
կնքած
կնքահայրը
կնքել
կնքելով
կնքելու
կնքեց
կնքեցին
կնքման
կնքում
կնքումը
կնքումից
կնքված
կնքվել
կնքվեց
կնքվում
կշարունակի
կշիռ
կշիռը
կշռի
կշռում
կշտին
կո
կոալիցիա
կոալիցիայի
կոալիցիան
կոալիցիոն
կոբայաշի
կոբայաշիի
կոգնիտիվ
կոդ
կոդավորման
կոդավորում
կոդավորված
կոդերի
կոդը
կոդի
կոդով
կոթող
կոթողը
կոթողի
կոթողներ
կոլ
կոլա
կոլեգիայի
կոլեկտիվ
կոլեկտիվը
կոլեկտիվի
կոլեկցիոներ
կոլոմենսկի
կոլորադո
կոլորադոյի
կոլումբիա
կոլումբիական
կոլումբիայի
կոլումբիայում
կոլումբիացի
կոլումբոսը
կոլումբոսի
կոլսկի
կոլտնտեսային
կոլտնտեսության
կոլտնտեսությունն
կոլտնտեսությունների
կոխ
կոկա
կոկաինի
կոկորդը
կոկորդի
կոկորդիլոս
կոկորդիլոսի
կոկորդիլոսների
կող
կողային
կողբի
կողերը
կողերի
կողմ
կողմանե
կողմե
կողմեն
կողմեր
կողմերը
կողմերի
կողմերին
կողմերից
կողմերն
կողմերով
կողմերում
կողմէ
կողմը
կողմի
կողմին
կողմից
կողմիցհայաստանի
կողմն
կողմնակի
կողմնակից
կողմնակիցներ
կողմնակիցները
կողմնակիցների
կողմնակիցներին
կողմնային
կողմնորոշման
կողմնորոշում
կողմնորոշումը
կողմնորոշված
կողմնորոշվել
կողմով
կողմում
կողոպուտի
կողոպտել
կողոպտում
կողք
կողքերին
կողքերից
կողքը
կողքի
կողքին
կողքից
կողքով
կոճակը
կոմ
կոմայի
կոմբա
կոմբինատ
կոմբինատը
կոմբինատի
կոմբինացված
կոմեդիա
կոմեդիայի
կոմերիտական
կոմերիտմիության
կոմերցիոն
կոմի
կոմիկական
կոմինտերնի
կոմիսար
կոմիսարիատի
կոմիսարների
կոմիտաս
կոմիտասը
կոմիտասի
կոմիտե
կոմիտեի
կոմիտեին
կոմիտեն
կոմիտեներ
կոմիտեների
կոմիտեում
կոմիքսի
կոմիքսների
կոմկուսի
կոմո
կոմունա
կոմունալ
կոմունայի
կոմունային
կոմունայում
կոմունան
կոմունաներ
կոմունիզմի
կոմունիստ
կոմունիստական
կոմունիստներ
կոմունիստները
կոմունիստների
կոմպակտ
կոմպլեքս
կոմպլեքսային
կոմպլեքսի
կոմպոզիտոր
կոմպոզիտորական
կոմպոզիտորը
կոմպոզիտորի
կոմպոզիտորներ
կոմպոզիտորների
կոմպոզիտորներից
կոմպոզիցիա
կոմպոզիցիայի
կոմպոզիցիան
կոմպոզիցիաներ
կոմպոզիցիաները
կոմպոզիցիաների
կոմպոզիցիոն
կոմպուլսիվ
կոմս
կոմսը
կոմսի
կոմսության
կոմսություն
կոմսությունը
կոմսությունում
կոմսուհի
կոն
կոնաձև
կոնան
կոնգո
կոնգոյի
կոնգրես
կոնգրեսը
կոնգրեսի
կոնգրեսին
կոնգրեսում
կոնդակով
կոնեկտիկուտ
կոնի
կոնկակաֆ
կոնկրետ
կոնյակ
կոնյակի
կոնսերվատորիա
կոնսերվատորիայի
կոնսերվատորիայում
կոնսերվատորիան
կոնսուլ
կոնստանտին
կոնստրուկտիվ
կոնստրուկտոր
կոնստրուկտորական
կոնստրուկցիաներ
կոնստրուկցիաների
կոնվենցիա
կոնվենցիայի
կոնվենցիան
կոնվենցիաների
կոնտակտային
կոնրադ
կոնցենտրացիայի
կոնցենտրացիան
կոնցեպտուալ
կոնցեպցիան
կոնցերտ
կոնցերտը
կոնքի
կոնֆեդերացիայի
կոնֆեդերացիաների
կոնֆերանս
կոնֆերանսը
կոնֆերանսի
կոնֆերանսին
կոնֆերանսներ
կոնֆերանսների
կոնֆերանսում
կոնֆերենցիայի
կոնֆլիկտ
կոնֆլիկտը
կոնֆլիկտի
կոնֆլիկտներ
կոնֆլիկտների
կոշիկ
կոշիկը
կոշիկի
կոշիկներ
կոշիկները
կոշիկների
կոշտ
կոոպերատիվ
կոորդինատային
կոորդինատներ
կոորդինատները
կոորդինատների
կոչ
կոչել
կոչելով
կոչեր
կոչեց
կոչեցին
կոչը
կոչի
կոչին
կոչման
կոչմանը
կոչով
կոչուի
կոչում
կոչումը
կոչումն
կոչումներ
կոչումները
կոչումների
կոչումով
կոչված
կոչվել
կոչվեց
կոչվող
կոչվում
կոպա
կոպեկ
կոպենհագեն
կոպենհագենի
կոպենհագենում
կոպիտ
կոռնելի
կոռնելիս
կոռուպցիայի
կոռուպցիան
կոռուպցիոն
կոս
կոսմետիկ
կոսոլ
կոսովոյի
կոսովոյում
կոստա
կոստանդիանոս
կոստանդին
կոստանդնուպոլիս
կոստանդնուպոլիսը
կոստանդնուպոլսի
կոստանդնուպոլսում
կոստյում
կով
կովերի
կովը
կովի
կովկաս
կովկասը
կովկասի
կովկասից
կովկասյան
կովկասում
կոտ
կոտայք
կոտայքի
կոտորած
կոտորածը
կոտորածի
կոտորածից
կոտորածները
կոտորածների
կոտորածներից
կոտորել
կոտորեցին
կոտորում
կոտորվել
կոտրած
կոտրել
կոտրում
կոտրված
կոտրվածք
կոտրվածքի
կոտրվածքների
կոտրվել
կոտրվում
կոր
կորած
կորավ
կորդովայի
կորեա
կորեական
կորեայի
կորեայում
կորեան
կորեացի
կորեերեն
կորել
կորեկ
կորը
կորի
կորիզ
կորիզը
կորիզի
կործանարար
կործանել
կործանիչ
կործանման
կործանում
կործանումը
կործանումից
կործանված
կործանվել
կորկոտյան
կորյուն
կորյունի
կորոլևիչ
կորոնավիրուսային
կորոնավիրուսի
կորոնավիրուսով
կորոնար
կորուսյալ
կորուստ
կորուստը
կորուստներ
կորուստները
կորուստների
կորչի
կորչում
կորպորատիվ
կորպորացիայի
կորպորացիան
կորպուս
կորպուսը
կորպուսի
կորսակովի
կորսված
կորստի
կորստից
կորստով
կորտեսը
կորտեսի
կորցնել
կորցնելով
կորցնելու
կորցնում
կորցրած
կորցրել
կորցրեց
կորցրեցին
կու
կուբա
կուբաթլուի
կուբայի
կուբայում
կուբան
կուբանի
կուբացի
կուբրիկը
կուբրիկի
կուգա
կուգան
կուգար
կուզե
կուզեի
կուզեմ
կուզեն
կուզենայի
կուզես
կուզեր
կուզեք
կուզի
կուզնեցով
կուզնեցովան
կության
կուլ
կուլտուր
կուլտուրա
կուլտուրական
կուլտուրայի
կուլտուրան
կուլտուրաներ
կուլտուրաների
կուկը
կուկի
կուղարկեմ
կում
կումայրի
կույբիշևի
կույս
կույսը
կույսի
կույտը
կույր
կույրերի
կուն
կունենա
կունենան
կունենանք
կունենար
կունեո
կուշիրո
կուշիրոյում
կուշտ
կուշտը
կուչ
կուպեր
կուպերը
կուպերի
կուռ
կուռք
կուս
կուսակ
կուսակալ
կուսական
կուսակցական
կուսակցու
կուսակցության
կուսակցությանը
կուսակցություն
կուսակցությունը
կուսակցությունից
կուսակցությունն
կուսակցություններ
կուսակցությունները
կուսակցությունների
կուսակցություններից
կուտա
կուտակել
կուտակման
կուտակում
կուտակումը
կուտակումներ
կուտակված
կուտակվել
կուտակվում
կուտամ
կուտան
կուտար
կուր
կուրի
կուրծքը
կուրծքի
կուրծքին
կուրս
կուրսը
կուրսի
կուրսկի
կուրսում
կուրտ
կպ
կպած
կպչում
կպչուն
կռիլյա
կռիվ
կռիվը
կռիվներ
կռիվները
կռիվների
կռիվներին
կռունկ
կռվել
կռվելու
կռվի
կռվից
կռվող
կռվում
կս
կսկսի
կստանա
կստանան
կստանանք
կստացվի
կվարտետ
կվերադառնա
կվտ
կտա
կտակ
կտակարանի
կտակարանում
կտակել
կտակը
կտակի
կտամ
կտան
կտանի
կտաս
կտավ
կտավը
կտավի
կտավն
կտավներ
կտավները
կտավների
կտավներում
կտավում
կտար
կտեսնենք
կտեսնես
կտեսնեք
կտեսնի
կտոր
կտորը
կտորի
կտորից
կտորներ
կտորները
կտորների
կտորներով
կտուրը
կտուրի
կտուց
կտուցը
կտրած
կտրականապես
կտրել
կտրելով
կտրելու
կտրեց
կտրեցին
կտրի
կտրող
կտրուկ
կտրում
կտրված
կտրվածք
կտրվածքը
կտրվածքի
կտրվածքով
կտրվել
կտրվում
կտրտած
կտրտված
կր
կրած
կրակ
կրակային
կրակե
կրակել
կրակը
կրակի
կրակին
կրակից
կրակն
կրակով
կրակովի
կրակոտ
կրակոց
կրակում
կրաշաղախով
կրասնայա
կրասնի
կրասնինսկի
կրասնոդար
կրասնոդարի
կրասնոյարսկի
կրաքարային
կրաքարի
կրել
կրելով
կրելու
կրելուց
կրեմլի
կրետե
կրետեի
կրեց
կրեցին
կրթաթոշակ
կրթական
կրթել
կրթությամբ
կրթության
կրթությանը
կրթություն
կրթությունը
կրթությունն
կրթված
կրի
կրիա
կրիշտիանու
կրիստինա
կրիտիկական
կրծողներ
կրծողների
կրծքագեղձի
կրծքային
կրծքանշան
կրծքավանդակի
կրծքի
կրծքին
կրծքից
կրծքով
կրկես
կրկեսային
կրկեսը
կրկեսի
կրկեսում
կրկին
կրկնակի
կրկնել
կրկնելով
կրկնեց
կրկնությունը
կրկնում
կրկնվել
կրկնվող
կրկնվում
կրկնօրինակ
կրկնօրինակել
կրկնօրինակը
կրկնօրինակում
կրճատ
կրճատել
կրճատման
կրճատում
կրճատումը
կրճատված
կրճատվել
կրճատվեց
կրճատվում
կրնա
կրնամ
կրնայ
կրնան
կրնանք
կրնար
կրող
կրողը
կրողներ
կրողները
կրոն
կրոնա
կրոնական
կրոնը
կրոնի
կրոնին
կրոնն
կրոններ
կրոնների
կրում
կրուս
կրտսեր
կրտսերը
կրտսերի
կրքերը
կրքերի
կրքի
կրքոտ
կցանկանայի
կցանկանար
կցել
կցկտուր
կցորդ
կցված
կցվել
կւէ
կփորձեմ
կօգնեն
կօգնի
հ
հա
հաա
հաագայի
հաահ
հաբեթական
հաբսբուրգների
հագած
հագել
հագեցած
հագեցված
հագին
հագնել
հագնում
հագնված
հագուստ
հագուստը
հագուստի
հագուստներ
հագուստները
հագուստների
հագուստներով
հագուստով
հագցնում
հադրութ
հադրութի
հազ
հազար
հազարամյա
հազարամյակ
հազարամյակի
հազարամյակներ
հազարամյակների
հազարամյակում
հազարան
հազարանոց
հազարավոր
հազարը
հազարի
հազարից
հազը
հազի
հազիվ
հազիր
հազիւ
հազվագյուտ
հազվադեպ
հաթերք
հալ
հալալ
հալած
հալածանքները
հալածանքների
հալածել
հալածում
հալածված
հալեկալա
հալեպ
հալեպի
հալեպում
հալէպ
հալման
հալվում
հակ
հակա
հակաահաբեկչական
հակաբիոտիկներ
հակաբիոտիկները
հակաբիոտիկների
հակաբորբոքային
հակադարձ
հակադիր
հակադրել
հակադրության
հակադրություն
հակադրությունը
հակադրում
հակադրվել
հակադրվում
հակախորհրդային
հակակառավարական
հակակշիռ
հակակոմունիստական
հակակոմունիստներ
հակակոռուպցիոն
հակահայկական
հակահարձակման
հակահարված
հակահեղափոխական
հակամարմիններ
հակամարմինները
հակամարմինների
հակամարտող
հակամարտության
հակամարտություն
հակամարտությունը
հակամարտություններ
հակամարտությունների
հակապատերազմական
հակառակ
հակառակը
հակառակն
հակառակորդ
հակառակորդը
հակառակորդի
հակառակորդին
հակառակորդն
հակառակորդները
հակառակորդների
հակառակորդներին
հակասական
հակասեմական
հակասող
հակասության
հակասություն
հակասությունը
հակասություններ
հակասությունները
հակասությունների
հակասում
հակավիրուսային
հակատանկային
հակացուցված
հակաօդային
հակաֆաշիստական
հակիրճ
հակոբ
հակոբը
հակոբի
հակոբյան
հակոբյանը
հակոբյանի
հակոբոս
հակում
հակումը
հակված
հահ
հահգբ
հաղթած
հաղթական
հաղթահարել
հաղթահարելով
հաղթահարելու
հաղթահարման
հաղթահարում
հաղթանակ
հաղթանակած
հաղթանակը
հաղթանակի
հաղթանակին
հաղթանակից
հաղթանակն
հաղթանակներ
հաղթանակները
հաղթանակների
հաղթանակով
հաղթել
հաղթելով
հաղթելու
հաղթելուց
հաղթեց
հաղթեցին
հաղթող
հաղթողը
հաղթողի
հաղթողին
հաղթողներ
հաղթողները
հաղթողների
հաղթում
հաղորդագրության
հաղորդագրություն
հաղորդագրությունը
հաղորդագրություններ
հաղորդագրությունները
հաղորդագրությունների
հաղորդած
հաղորդակից
հաղորդակցական
հաղորդակցման
հաղորդակցության
հաղորդակցություն
հաղորդակցությունը
հաղորդակցվում
հաղորդավար
հաղորդավարը
հաղորդավարներ
հաղորդավարուհի
հաղորդել
հաղորդելով
հաղորդելու
հաղորդեց
հաղորդիչ
հաղորդման
հաղորդում
հաղորդումը
հաղորդումներ
հաղորդումները
հաղորդումների
հաղորդվել
հաղորդվում
հաղպատ
հաղպատի
հաճախ
հաճախականությամբ
հաճախականության
հաճախականությունը
հաճախակի
հաճախել
հաճախորդ
հաճախորդը
հաճախորդի
հաճախորդները
հաճախորդների
հաճախորդներին
հաճախության
հաճախությունը
հաճախում
հաճելի
հաճի
հաճույք
հաճույքը
հաճույքի
հաճույքով
համ
համա
համագործակցել
համագործակցելով
համագործակցելու
համագործակցությամբ
համագործակցության
համագործակցությանը
համագործակցություն
համագործակցությունը
համագործակցում
համագումար
համագումարը
համագումարի
համագումարին
համագումարն
համագումարների
համագումարում
համադաշնության
համադրությամբ
համադրության
համադրություն
համադրությունը
համադրում
համադրվում
համաեվրոպական
համազասպ
համազգային
համազգեստ
համազգեստը
համազգեստի
համազգեստով
համաժողով
համաժողովը
համաժողովի
համաժողովին
համաժողովում
համաժողովրդական
համալիր
համալիրը
համալիրի
համալիրն
համալիրներ
համալիրները
համալիրների
համալիրում
համալսարան
համալսարանական
համալսարանը
համալսարանի
համալսարանին
համալսարանից
համալսարանն
համալսարաններ
համալսարանները
համալսարանների
համալսարաններից
համալսարաններում
համալսարանում
համալրել
համալրում
համալրված
համալրվել
համալրվում
համախառն
համախմբել
համախմբման
համախմբված
համախոհների
համախումբ
համախտանիշ
համախտանիշը
համախտանիշի
համախտանիշով
համակարգ
համակարգային
համակարգել
համակարգեր
համակարգերը
համակարգերի
համակարգերից
համակարգերով
համակարգերում
համակարգը
համակարգի
համակարգին
համակարգիչ
համակարգիչը
համակարգիչներ
համակարգիչները
համակարգիչների
համակարգից
համակարգման
համակարգն
համակարգող
համակարգով
համակարգում
համակարգչային
համակարգչի
համակարգված
համակարծիք
համակենտրոնացման
համակողմանի
համակված
համակրանք
համակրանքը
համակրանքի
համակրելի
համակրում
համակցված
համահայկական
համահեղինակ
համահեղինակությամբ
համահիմնադիր
համահունչ
համաձայն
համաձայնագիր
համաձայնագիրը
համաձայնագրեր
համաձայնագրերի
համաձայնագրի
համաձայնագրով
համաձայնել
համաձայնեց
համաձայնեցված
համաձայնությամբ
համաձայնության
համաձայնություն
համաձայնությունը
համաձայնում
համաձայնվել
համաձայնվեց
համաձայնվում
համաձուլվածքներ
համաձուլվածքների
համաճարակ
համաճարակաբանություն
համաճարակային
համաճարակը
համաճարակի
համամասնական
համամարդկային
համամիութենական
համամիտ
համային
համայն
համայնական
համայնապատկեր
համայնապատկերը
համայնք
համայնքային
համայնքը
համայնքի
համայնքին
համայնքից
համայնքն
համայնքներ
համայնքները
համայնքների
համայնքներին
համայնքներից
համայնքներում
համայնքում
համանախագահ
համանման
համանուն
համաշխարհային
համաչափ
համաչափության
համապատասխան
համապատասխանաբար
համապատասխանել
համապատասխանի
համապատասխանող
համապատասխանության
համապատասխանությունը
համապատասխանում
համապարփակ
համապետական
համառ
համառոտ
համառորեն
համառուսական
համառուսաստանյան
համառօտ
համասեռ
համաստեղության
համաստեղություն
համավարակի
համատարած
համատեղ
համատեղել
համատեղելի
համատեղության
համատեղում
համատեքստում
համար
համարակալված
համարել
համարելով
համարելու
համարեց
համարեցին
համարը
համարժեք
համարժեքության
համարի
համարձակ
համարձակություն
համարձակվում
համարյա
համարներ
համարները
համարների
համարներում
համարով
համարում
համարվել
համարվեց
համարվի
համարվող
համարվում
համացանց
համացանցային
համացանցի
համացանցում
համբավ
համբավը
համբարձման
համբարձում
համբարձումյան
համբարձումյանը
համբարձումյանի
համբերատար
համբերել
համբերություն
համբույր
համբույրը
համբուրգ
համբուրգի
համբուրգում
համբուրել
համբուրելով
համբուրեց
համբուրում
համեղ
համեմատ
համեմատաբար
համեմատած
համեմատական
համեմատել
համեմատելի
համեմատելով
համեմատությամբ
համեմատության
համեմատություն
համեմատությունը
համեմատում
համեմատվել
համեմատվում
համեմունք
համեմունքներ
համեմունքների
համեմված
համենայն
համեստ
համերաշխ
համերաշխության
համերաշխություն
համերգ
համերգային
համերգասրահում
համերգը
համերգի
համերգին
համերգներ
համերգները
համերգների
համերգներին
համերգներով
համերգով
համեցեք
համը
համընդհանուր
համընթաց
համընկել
համընկնում
համի
համիդ
համիդյան
համիլթոնը
համլետ
համլետի
համլկեմ
համկ
համո
համոզել
համոզելու
համոզեց
համոզիչ
համոզմամբ
համոզմունքը
համոզմունքները
համոզմունքների
համոզում
համոզված
համոզվել
համոզվում
համոյի
համոն
համով
համույթի
համր
հայ
հայաբնակ
հայագետ
հայագետներ
հայագիտական
հայագիտության
հայազգի
հայաթափվել
հայալեզու
հայաշատ
հայաս
հայաստա
հայաստան
հայաստանեայց
հայաստանը
հայաստանի
հայաստանին
հայաստանից
հայաստանյայց
հայաստանյան
հայաստանն
հայաստանում
հայատառ
հայացք
հայացքը
հայացքի
հայացքից
հայացքն
հայացքներ
հայացքները
հայացքների
հայացքներով
հայացքով
հայդ
հայդելբերգ
հայդելբերգի
հայդելբերգում
հայդնի
հայելային
հայելի
հայելին
հայելու
հայեր
հայերեն
հայերենը
հայերենի
հայերենից
հայերենով
հայերենում
հայերէն
հայերը
հայերի
հայերին
հայերից
հայերն
հայերով
հայեցակարգ
հայեցակարգը
հայեցակարգի
հայը
հայթայթելու
հայի
հայիթիի
հային
հայկ
հայկազ
հայկազեան
հայկազյան
հայկական
հայկը
հայկի
հայկուհի
հայհոյում
հայն
հայնրիխ
հայոց
հայության
հայությանը
հայությունը
հայպետհրատ
հայս
հայտ
հայտարարել
հայտարարելով
հայտարարելու
հայտարարեց
հայտարարեցին
հայտարարի
հայտարարությամբ
հայտարարության
հայտարարություն
հայտարարությունը
հայտարարությունից
հայտարարություններ
հայտարարությունները
հայտարարությունների
հայտարարում
հայտարարված
հայտարարվել
հայտարարվեց
հայտարարվում
հայտացուցակում
հայտի
հայտնաբերած
հայտնաբերել
հայտնաբերելու
հայտնաբերեց
հայտնաբերեցին
հայտնաբերման
հայտնաբերողներ
հայտնաբերում
հայտնաբերումը
հայտնաբերված
հայտնաբերվել
հայտնաբերվեց
հայտնաբերվեցին
հայտնաբերվում
հայտնագործել
հայտնագործությունը
հայտնագործություններ
հայտնագործությունները
հայտնագործությունների
հայտնագործումը
հայտնած
հայտնել
հայտնելով
հայտնելու
հայտնեց
հայտնեցի
հայտնեցին
հայտնի
հայտնիություն
հայտնության
հայտնություն
հայտնությունը
հայտնում
հայտնված
հայտնվել
հայտնվելը
հայտնվելով
հայտնվելու
հայտնվելուց
հայտնվեց
հայտնվեցավ
հայտնվեցին
հայտնվի
հայտնվում
հայր
հայրական
հայրապետ
հայրապետական
հայրապետը
հայրապետի
հայրապետյան
հայրապետյանը
հայրդ
հայրենական
հայրենականում
հայրենակից
հայրենակիցների
հայրենակցական
հայրենասեր
հայրենասիրական
հայրենասիրության
հայրենի
հայրենիք
հայրենիքը
հայրենիքի
հայրենիքին
հայրենիքից
հայրենիքն
հայրենիքում
հայրենյաց
հայրեր
հայրերը
հայրերի
հայրը
հայրիկ
հայրիկը
հայրիկի
հայրիյան
հայրն
հայրս
հայց
հայցը
հայք
հայքը
հայքի
հայքում
հայֆիլմ
հան
հանա
հանած
հանածո
հանածոներ
հանածոների
հանգած
հանգամանորեն
հանգամանք
հանգամանքը
հանգամանքի
հանգամանքին
հանգամանքից
հանգամանքներ
հանգամանքները
հանգամանքների
հանգամանքներից
հանգամանքներում
հանգամանքով
հանգել
հանգեցնել
հանգեցնելով
հանգեցնում
հանգեցրել
հանգեցրեց
հանգեցրին
հանգըլ
հանգի
հանգիստ
հանգիստը
հանգում
հանգույց
հանգույցը
հանգույցի
հանգույցներ
հանգույցները
հանգույցների
հանգուցային
հանգուցյալ
հանգուցյալի
հանգչում
հանգստանալ
հանգստանալու
հանգստանում
հանգստացնել
հանգստացնող
հանգստի
հանգստյան
հանգստության
հանգստություն
հանգստությունը
հանդարտ
հանդեպ
հանդես
հանդեսը
հանդեսի
հանդեսին
հանդեսներ
հանդեսում
հանդերձ
հանդերձանք
հանդերձյալ
հանդէպ
հանդէս
հանդիմանում
հանդիպած
հանդիպակաց
հանդիպել
հանդիպելով
հանդիպելու
հանդիպեց
հանդիպեցի
հանդիպեցին
հանդիպի
հանդիպման
հանդիպմանը
հանդիպող
հանդիպում
հանդիպումը
հանդիպումից
հանդիպումն
հանդիպումներ
հանդիպումները
հանդիպումների
հանդիպումներին
հանդիպումներից
հանդիպումներում
հանդիսական
հանդիսանալ
հանդիսանալով
հանդիսանում
հանդիսավոր
հանդիսավորությամբ
հանդիսատես
հանդիսատեսը
հանդիսատեսի
հանդիսատեսին
հանդիսատեսների
հանդիսացան
հանդիսացավ
հանդիսացել
հանդիսացող
հանդուգն
հանդուրժողականության
հանե
հանել
հանելով
հանելու
հանելուկ
հանեն
հաներ
հանեց
հանեցին
հանըմ
հանի
հանկարծ
հանկարծակի
հանկարծամահ
հանձին
հանձն
հանձնաժողով
հանձնաժողովը
հանձնաժողովի
հանձնաժողովին
հանձնաժողովներ
հանձնաժողովների
հանձնաժողովում
հանձնախմբի
հանձնակատար
հանձնարարել
հանձնարարեց
հանձնարարությամբ
հանձնարարություն
հանձնարարում
հանձնարարված
հանձնարարվել
հանձնել
հանձնելով
հանձնելու
հանձնեց
հանձնեցին
հանձնման
հանձնում
հանձնումը
հանձնված
հանձնվել
հանձնվեց
հանձնվեցին
հանձնվում
հանճար
հանճարեղ
հանճարը
հանճարի
հանման
հաննա
հաննան
հաննիբալը
հանում
հանուն
հանուր
հանս
հանված
հանվել
հանվեց
հանվեցին
հանվում
հանրա
հանրագիտական
հանրագիտարան
հանրագիտարանային
հանրագիտարանը
հանրագիտարանի
հանրագիտարանում
հանրակրթական
հանրահայտ
հանրահաշիվ
հանրահաշվական
հանրահաշվի
հանրահավաք
հանրահավաքի
հանրաճանաչ
հանրաճանաչություն
հանրամատչելի
հանրային
հանրապետական
հանրապետականների
հանրապետու
հանրապետութեան
հանրապետության
հանրապետությանը
հանրապետություն
հանրապետությունը
հանրապետությունից
հանրապետությունն
հանրապետություններ
հանրապետությունները
հանրապետությունների
հանրապետություններում
հանրապետությունով
հանրապետությունում
հանրաքվե
հանրաքվեի
հանրաքվեն
հանրության
հանրությանը
հանրությունը
հանցագործ
հանցագործը
հանցագործի
հանցագործներ
հանցագործները
հանցագործների
հանցագործներին
հանցագործության
հանցագործություն
հանցագործությունը
հանցագործություններ
հանցագործությունները
հանցագործությունների
հանցանք
հանցանքը
հանցանքի
հանցավոր
հանցավորության
հանք
հանքային
հանքանյութեր
հանքանյութերի
հանքավայր
հանքավայրեր
հանքավայրերը
հանքավայրերի
հանքավայրը
հանքավայրի
հանքարդյունաբերության
հանքաքարի
հանքեր
հանքերը
հանքերի
հաշ
հաշիվ
հաշիվը
հաշիվներ
հաշիվները
հաշիվների
հաշմանդամ
հաշմանդամների
հաշմանդամության
հաշմանդամություն
հաշված
հաշվապահ
հաշվապահական
հաշվառման
հաշվառում
հաշվառված
հաշվարկ
հաշվարկային
հաշվարկել
հաշվարկը
հաշվարկի
հաշվարկման
հաշվարկներ
հաշվարկները
հաշվարկների
հաշվարկներով
հաշվարկով
հաշվարկում
հաշվարկված
հաշվարկվել
հաշվարկվում
հաշվել
հաշվելու
հաշվեկշիռը
հաշվեկշռի
հաշվեհարդար
հաշվետու
հաշվետվության
հաշվետվություն
հաշվետվությունը
հաշվետվությունների
հաշվի
հաշվին
հաշվիչ
հաշվողական
հաշվով
հաշվում
հաշվվել
հաշվվում
հաշտ
հաշտարար
հաշտության
հաշտություն
հաշտությունը
հաշտվել
հաշտվում
հաուս
հաուտեն
հաուտենի
հապ
հապա
հապավումը
հապճեպ
հաջի
հաջող
հաջողակ
հաջողությամբ
հաջողության
հաջողությանը
հաջողություն
հաջողությունը
հաջողությունից
հաջողությունն
հաջողություններ
հաջողությունները
հաջողությունների
հաջողություններին
հաջողություններով
հաջողված
հաջողվել
հաջողվեց
հաջողվում
հաջորդ
հաջորդաբար
հաջորդած
հաջորդական
հաջորդականությամբ
հաջորդականության
հաջորդականություն
հաջորդականությունը
հաջորդել
հաջորդեց
հաջորդեցին
հաջորդը
հաջորդիվ
հաջորդող
հաջորդում
հառած
հառաջ
հաս
հասա
հասած
հասակ
հասակակիցների
հասակը
հասակի
հասակին
հասակից
հասակով
հասակում
հասան
հասանելի
հասանելիության
հասանելիություն
հասանելիությունը
հասանը
հասանի
հասանք
հասավ
հասարա
հասարակ
հասարակա
հասարակածային
հասարակածի
հասարակական
հասարակայնության
հասարակարգի
հասարակարգում
հասարակաց
հասարակության
հասարակությանը
հասարակություն
հասարակությունը
հասարակությունից
հասարակությունն
հասարակությունների
հասարակություններում
հասարակությունում
հասել
հասկանա
հասկանալ
հասկանալի
հասկանալով
հասկանալու
հասկանո
հասկանում
հասկացա
հասկացան
հասկացավ
հասկացել
հասկացնել
հասկացության
հասկացություն
հասկացությունը
հասկացությունն
հասկացություններ
հասկացությունները
հասկացությունների
հասկացվում
հասկնար
հասմիկ
հասնել
հասնելը
հասնելով
հասնելու
հասնելուն
հասնելուց
հասնեն
հասներ
հասնի
հասնող
հասնում
հասույթը
հասուն
հասունանում
հասունացած
հասունացման
հասունության
հաստ
հաստա
հաստատ
հաստատած
հաստատապես
հաստատել
հաստատելով
հաստատելու
հաստատեց
հաստատեցին
հաստատման
հաստատմանը
հաստատող
հաստատության
հաստատություն
հաստատությունը
հաստատություններ
հաստատությունները
հաստատությունների
հաստատություններից
հաստատություններում
հաստատությունում
հաստատում
հաստատումը
հաստատումից
հաստատուն
հաստատունը
հաստատված
հաստատվել
հաստատվելուց
հաստատվեց
հաստատվեցին
հաստատվում
հաստոցային
հաստոցներ
հաստոցների
հաստությամբ
հաստության
հաստությունը
հասրաթյան
հասցե
հասցեագրված
հասցեի
հասցեին
հասցեն
հասցեների
հասցեով
հասցեում
հասցնել
հասցնելով
հասցնելու
հասցնի
հասցնում
հասցված
հասցվել
հասցվում
հասցրած
հասցրել
հասցրեց
հասցրին
հավ
հավա
հավակնել
հավակնոտ
հավակնորդ
հավակնորդների
հավակնում
հավայան
հավանաբար
հավանական
հավանականությամբ
հավանականության
հավանականություն
հավանականությունը
հավանականությունների
հավանել
հավանորեն
հավանության
հավանություն
հավանում
հավասար
հավասարազոր
հավասարակշռության
հավասարակշռություն
հավասարակշռությունը
հավասարակշռված
հավասարաչափ
հավասարապես
հավասարման
հավասարության
հավասարություն
հավասարությունը
հավասարում
հավասարումը
հավասարումներ
հավասարումները
հավասարումների
հավասարվում
հավաստագիր
հավաստագրեր
հավաստագրումներ
հավաստի
հավաստիացնում
հավաստում
հավատ
հավատա
հավատալ
հավատալիքների
հավատալով
հավատարիմ
հավատարմության
հավատարմություն
հավատարմությունը
հավատացած
հավատացել
հավատացեք
հավատացյալ
հավատացյալների
հավատացնում
հավատը
հավատի
հավատն
հավատով
հավատում
հավատք
հավատքը
հավատքի
հավաք
հավաքագրել
հավաքագրման
հավաքագրում
հավաքած
հավաքածու
հավաքածուի
հավաքածուից
հավաքածուն
հավաքածուներ
հավաքածուները
հավաքածուների
հավաքածուներից
հավաքածուներում
հավաքածուում
հավաքական
հավաքականը
հավաքականի
հավաքականին
հավաքականներ
հավաքականները
հավաքականների
հավաքականներում
հավաքականում
հավաքել
հավաքելով
հավաքելու
հավաքեց
հավաքեցին
հավաքի
հավաքման
հավաքների
հավաքող
հավաքովի
հավաքում
հավաքումը
հավաքված
հավաքվել
հավաքվեցին
հավաքվում
հավելել
հավելյալ
հավելում
հավելումն
հավելումներ
հավելումների
հավելված
հավելվածը
հավելվածի
հավելվածներ
հավելվածների
հավելվածներում
հավերժ
հավերժական
հավերժության
հավերի
հավի
հավիտենական
հավիտյան
հատ
հատած
հատակ
հատակագիծ
հատակագիծը
հատակագծային
հատակագծի
հատակագծով
հատակագծում
հատակը
հատակի
հատակին
հատակից
հատակում
հատել
հատերը
հատը
հատընտիր
հատիկ
հատիկավոր
հատիկներ
հատիկները
հատիկների
հատկանիշ
հատկանիշը
հատկանիշի
հատկանիշներ
հատկանիշները
հատկանիշների
հատկանիշներից
հատկանիշներն
հատկանիշներով
հատկանշական
հատկապես
հատկացնել
հատկացնում
հատկացված
հատկացվել
հատկացվում
հատկացրել
հատկությամբ
հատկության
հատկություն
հատկությունը
հատկությունն
հատկություններ
հատկությունները
հատկությունների
հատկություններից
հատկություններն
հատկություններով
հատման
հատող
հատոր
հատորը
հատորի
հատորները
հատորով
հատորում
հատուկ
հատում
հատումը
հատուցման
հատուցում
հատված
հատվածը
հատվածի
հատվածին
հատվածից
հատվածն
հատվածներ
հատվածները
հատվածների
հատվածներից
հատվածներով
հատվածներում
հատվածով
հատվածում
հատվել
հատվող
հատվում
հար
հարա
հարաբերական
հարաբերականորեն
հարաբերականության
հարաբերակցությամբ
հարաբերակցության
հարաբերակցությունը
հարաբերությամբ
հարաբերության
հարաբերություն
հարաբերությունը
հարաբերություններ
հարաբերությունները
հարաբերությունների
հարաբերություններին
հարաբերություններից
հարաբերություններն
հարաբերություններով
հարաբերություններում
հարազատ
հարազատները
հարազատների
հարազատներին
հարալդ
հարակից
հարամ
հարանց
հարավ
հարավամերիկյան
հարավային
հարավարևելյան
հարավարևմտյան
հարավաֆրիկացի
հարավաֆրիկյան
հարավը
հարավի
հարավից
հարավկորեական
հարավկորեացի
հարավում
հարավսլավական
հարավսլավիա
հարավսլավիայի
հարավսլավիայում
հարատև
հարբած
հարբեցող
հարգալից
հարգանք
հարգանքը
հարգանքի
հարգանքներով
հարգանքով
հարգարժան
հարգել
հարգելի
հարգի
հարգում
հարգված
հարդ
հարդարանքը
հարդարանքի
հարդարման
հարդի
հարել
հարեց
հարթ
հարթակ
հարթակը
հարթակի
հարթակներում
հարթակում
հարթավայր
հարթավայրային
հարթավայրեր
հարթավայրերում
հարթավայրը
հարթավայրի
հարթավայրում
հարթել
հարթության
հարթություն
հարթությունը
հարթությունները
հարի
հարիս
հարիսը
հարիսի
հարիսոն
հարիր
հարիւր
հարկ
հարկաբյուջետային
հարկադիր
հարկադրաբար
հարկադրական
հարկադրել
հարկադրված
հարկային
հարկանի
հարկավ
հարկավոր
հարկատու
հարկաւոր
հարկեր
հարկերը
հարկերի
հարկերից
հարկերում
հարկը
հարկի
հարկին
հարկից
հարկման
հարկն
հարկում
հարձակման
հարձակմանը
հարձակողական
հարձակում
հարձակումը
հարձակումից
հարձակումներ
հարձակումները
հարձակումների
հարձակումներին
հարձակումներից
հարձակվել
հարձակվելու
հարձակվեց
հարձակվեցին
հարձակվող
հարձակվողական
հարձակվողը
հարձակվողի
հարձակվողներ
հարձակվում
հարմար
հարմարանք
հարմարանքներ
հարմարավետ
հարմարեցված
հարմարված
հարմարվել
հարմարվելու
հարմարվում
հարմոնիկ
հարյումաա
հարյուր
հարյուրամյա
հարյուրամյակի
հարյուրամյակում
հարյուրավոր
հարյուրից
հարոլդ
հարող
հարության
հարություն
հարությունը
հարությունի
հարությունյան
հարությունյանը
հարությունյանի
հարում
հարուստ
հարուստների
հարուցել
հարուցիչը
հարուցիչները
հարուցիչների
հարուցում
հարուցված
հարուցվել
հարս
հարսանեկան
հարսանիք
հարսանիքը
հարսանիքի
հարսանիքին
հարսանիքից
հարսանյաց
հարսը
հարսի
հարսին
հարսն
հարսնացու
հարսնացուի
հարսնացուն
հարստացել
հարստացման
հարստացրել
հարստությամբ
հարստության
հարստություն
հարստությունը
հարված
հարվածային
հարվածաշարում
հարվածել
հարվածելով
հարվածեց
հարվածը
հարվածի
հարվածից
հարվածներ
հարվածները
հարվածների
հարվածներից
հարվածներով
հարվածով
հարվածում
հարվարդի
հարվի
հարրի
հարրիի
հարրիին
հարրին
հարց
հարցազրույց
հարցազրույցը
հարցազրույցի
հարցազրույցներ
հարցազրույցներից
հարցազրույցում
հարցական
հարցականի
հարցաքննության
հարցեր
հարցերը
հարցերի
հարցերին
հարցերից
հարցերն
հարցերով
հարցերու
հարցերում
հարցը
հարցի
հարցին
հարցման
հարցմունք
հարցն
հարցնել
հարցնելով
հարցնելու
հարցնում
հարցով
հարցում
հարցումը
հարցումներ
հարցումները
հարցումների
հարցուց
հարցուփորձ
հարցրել
հարցրեց
հարցրի
հարցրին
հարցրուց
հարևան
հարևանը
հարևանի
հարևանները
հարևանների
հարևանությամբ
հաց
հացահատիկ
հացահատիկային
հացահատիկի
հացը
հացի
հացին
հացն
հացով
հաւատոյ
հափշտակել
հափշտակված
հբըմ
հգ
հգմ
հդբ
հե
հեա
հեգնական
հեգնանքով
հեզ
հեթ
հեթանոս
հեթանոսական
հեթում
հելեն
հելենա
հելին
հելինի
հելիումի
հելլենիստական
հելմուտ
հելսինկի
հելսինկիի
հելսինկիում
հեծանվային
հեծելազոր
հեծելազորային
հեծելազորը
հեծելազորի
հեծյալ
հեծյալների
հեկտար
հեկտոր
հեղ
հեղա
հեղաշրջման
հեղաշրջում
հեղաշրջումը
հեղաշրջումից
հեղափոխ
հեղափոխական
հեղափոխականներ
հեղափոխականների
հեղափոխության
հեղափոխությանը
հեղափոխություն
հեղափոխությունը
հեղափոխությունից
հեղափոխությունների
հեղինակ
հեղինակած
հեղինակակից
հեղինակային
հեղինակավոր
հեղինակել
հեղինակեց
հեղինակը
հեղինակի
հեղինակին
հեղինակն
հեղինակներ
հեղինակները
հեղինակների
հեղինակներին
հեղինակներից
հեղինակներն
հեղինակությամբ
հեղինակության
հեղինակություն
հեղինակությունը
հեղինակում
հեղինե
հեղկոմի
հեղուկ
հեղուկը
հեղուկի
հեղուկներ
հեղուկների
հեղուկով
հեմ
հեմինգուեյը
հեմինգուեյի
հեմոգլոբինի
հեյդար
հեյլի
հենակետ
հենակետային
հենակետը
հենարան
հեննա
հենված
հենվել
հենվելով
հենվում
հենրի
հենրիետա
հենրիի
հենրիխ
հենրիկ
հենրին
հենց
հենքի
հեշտ
հեշտացնելու
հեշտացնում
հեշտոցային
հեշտոցի
հեշտությամբ
հեպատիտ
հեռագիր
հեռագիրը
հեռագրական
հեռագրի
հեռագրով
հեռախոս
հեռախոսահամար
հեռախոսային
հեռախոսը
հեռախոսի
հեռախոսների
հեռախոսով
հեռակա
հեռահաղորդակցության
հեռահար
հեռանա
հեռանալ
հեռանալը
հեռանալով
հեռանալու
հեռանալուց
հեռանկար
հեռանկարային
հեռանկարը
հեռանկարներ
հեռանկարները
հեռանում
հեռավոր
հեռավորությամբ
հեռավորության
հեռավորություն
հեռավորությունը
հեռավորությունից
հեռավորությունների
հեռարձակման
հեռարձակող
հեռարձակում
հեռարձակումը
հեռարձակվել
հեռարձակվող
հեռարձակվում
հեռացա
հեռացած
հեռացան
հեռացավ
հեռացել
հեռացման
հեռացնել
հեռացնելով
հեռացնելու
հեռացնում
հեռացող
հեռացում
հեռացումը
հեռացված
հեռացվել
հեռացվեց
հեռացվում
հեռացրել
հեռացրեց
հեռո
հեռու
հեռուն
հեռուստաալիք
հեռուստաալիքը
հեռուստաալիքի
հեռուստաալիքներ
հեռուստաալիքով
հեռուստաալիքում
հեռուստադիտողների
հեռուստաընկերության
հեռուստաընկերություն
հեռուստաընկերությունը
հեռուստաընկերություններ
հեռուստաընկերությունում
հեռուստահաղորդավար
հեռուստաշոուի
հեռուստաշոուների
հեռուստասերիալ
հեռուստասերիալը
հեռուստասերիալի
հեռուստասերիալներ
հեռուստասերիալների
հեռուստասերիալներում
հեռուստասերիալում
հեռուստատեսային
հեռուստատեսությամբ
հեռուստատեսության
հեռուստատեսություն
հեռուստատեսությունը
հեռուստատեսությունում
հեռուստացույց
հեռուստաֆիլմ
հեռվից
հեռվում
հետ
հետա
հետագա
հետագայի
հետագայում
հետադարձ
հետադիմական
հետազոտական
հետազոտել
հետազոտելու
հետազոտման
հետազոտող
հետազոտողներ
հետազոտողները
հետազոտողների
հետազոտությամբ
հետազոտության
հետազոտություն
հետազոտությունը
հետազոտություններ
հետազոտությունները
հետազոտությունների
հետազոտություններին
հետազոտություններից
հետազոտություններն
հետազոտություններով
հետազոտություններում
հետազոտում
հետազոտվել
հետազոտվող
հետազոտվում
հետախուզական
հետախուզման
հետախուզության
հետախուզություն
հետախույզ
հետահայաց
հետաձգել
հետաձգվել
հետաձգվեց
հետաձգվում
հետամնաց
հետամուտ
հետապնդել
հետապնդման
հետապնդում
հետապնդումը
հետապնդումների
հետաքննության
հետաքննություն
հետաքննությունը
հետաքննությունների
հետաքրքիր
հետաքրքրական
հետաքրքրաշարժ
հետաքրքրել
հետաքրքրող
հետաքրքրությամբ
հետաքրքրության
հետաքրքրություն
հետաքրքրությունը
հետաքրքրություններ
հետաքրքրությունները
հետաքրքրությունների
հետաքրքրում
հետաքրքրված
հետաքրքրվել
հետաքրքրվում
հետբուհական
հետեւաբար
հետեւեալ
հետզհետե
հետզհետէ
հետը
հետին
հետիոտնային
հետխաղյա
հետխորհրդային
հետմահու
հետն
հետնորդները
հետո
հետպատերազմյան
հետս
հետվիրահատական
հետք
հետքեր
հետքերը
հետքերով
հետքը
հետևաբար
հետևակ
հետևակային
հետևակը
հետևակի
հետևանք
հետևանքը
հետևանքն
հետևանքներ
հետևանքները
հետևանքների
հետևանքներից
հետևանքով
հետևապես
հետևել
հետևելով
հետևելու
հետևեց
հետևեցին
հետևի
հետևից
հետևյալ
հետևյալը
հետևյալն
հետևող
հետևողական
հետևողականորեն
հետևորդ
հետևորդներ
հետևորդները
հետևորդների
հետևում
հեր
հերակլ
հերակլեսը
հերակլեսի
հերացու
հերբերտ
հերը
հերթադիր
հերթական
հերթականությամբ
հերթականությունը
հերթը
հերթին
հերթով
հերիք
հերման
հերմետիկ
հերն
հերոդոտոսը
հերոդոտոսի
հերոս
հերոսաբար
հերոսական
հերոսամարտի
հերոսը
հերոսի
հերոսին
հերոսն
հերոսներ
հերոսները
հերոսների
հերոսներին
հերոսներից
հերոսներն
հերոսության
հերոսուհի
հերոսուհին
հերոսուհու
հերցեգովինա
հերցեգովինայի
հերցեգովինայում
հերցոգ
հերքել
հերքեց
հերքում
հեքիաթ
հեքիաթային
հեքիաթը
հեքիաթի
հեքիաթներ
հեքիաթները
հեքիաթների
հեքիաթում
հզ
հզոր
հզորագույն
հզորությամբ
հզորության
հզորություն
հզորությունը
հէկ
հը
հի
հիանալի
հիանում
հիասթափություն
հիասթափված
հիասքանչ
հիացած
հիացմունքով
հիբրիդային
հիգիենայի
հիգիենային
հիդրավլիկական
հիդրոլոգիական
հիդրոհանգույց
հիդրոտեխնիկական
հիերարխիկ
հիթ
հիթեր
հիթերի
հիթը
հիլ
հիլարի
հիլի
հիլլզ
հիմ
հիմա
հիմակ
հիման
հիմանական
հիմար
հիմարություն
հիմի
հիմն
հիմնա
հիմնադիր
հիմնադիրը
հիմնադիրն
հիմնադիրներ
հիմնադիրները
հիմնադիրների
հիմնադիրներից
հիմնադիրներն
հիմնադրած
հիմնադրամ
հիմնադրամը
հիմնադրամի
հիմնադրամին
հիմնադրել
հիմնադրեց
հիմնադրի
հիմնադրման
հիմնադրմանը
հիմնադրում
հիմնադրումը
հիմնադրումից
հիմնադրումներ
հիմնադրված
հիմնադրվել
հիմնադրվեց
հիմնադրվում
հիմնախնդիրները
հիմնախնդիրների
հիմնախնդրի
հիմնած
հիմնական
հիմնականը
հիմնականում
հիմնահատակ
հիմնային
հիմնավոր
հիմնավորել
հիմնավորման
հիմնավորում
հիմնավորումը
հիմնավորված
հիմնարար
հիմնարկ
հիմնարկներ
հիմնարկները
հիմնարկների
հիմնարկներում
հիմնարկություն
հիմնել
հիմնելով
հիմնելու
հիմնեց
հիմնեցին
հիմնը
հիմնովին
հիմնում
հիմնված
հիմնվել
հիմնվելով
հիմնվեց
հիմնվում
հիմունքներ
հիմունքները
հիմունքների
հիմունքներով
հիմք
հիմքեր
հիմքերը
հիմքերի
հիմքերով
հիմքը
հիմքի
հիմքից
հիմքն
հիմքով
հիմքում
հին
հինավուրց
հինգ
հինգերորդ
հինգերորդը
հինգը
հինգշաբթի
հինդի
հինդու
հինդուիզմի
հինը
հիշատակ
հիշատակարան
հիշատակարանը
հիշատակարաններ
հիշատակարանում
հիշատակել
հիշատակը
հիշատակի
հիշատակին
հիշատակության
հիշատակություն
հիշատակությունը
հիշատակություններ
հիշատակում
հիշատակումը
հիշատակումներ
հիշատակումները
հիշատակված
հիշատակվել
հիշատակվող
հիշատակվում
հիշարժան
հիշել
հիշելով
հիշելու
հիշենք
հիշեց
հիշեցի
հիշեցնել
հիշեցնող
հիշեցնում
հիշյալ
հիշո
հիշողությամբ
հիշողության
հիշողություն
հիշողությունը
հիշողություններ
հիշողությունները
հիշողությունների
հիշում
հիշված
հիշվում
հիպերտոնիկ
հիպոթեզը
հիսուն
հիսուս
հիսուսը
հիսուսի
հիսուսին
հիվանդ
հիվանդագին
հիվանդանոց
հիվանդանոցային
հիվանդանոցը
հիվանդանոցի
հիվանդանոցից
հիվանդանոցներ
հիվանդանոցների
հիվանդանոցներում
հիվանդանոցում
հիվանդանում
հիվանդացավ
հիվանդացել
հիվանդացության
հիվանդը
հիվանդի
հիվանդին
հիվանդն
հիվանդներ
հիվանդները
հիվանդների
հիվանդներին
հիվանդոտ
հիվանդությամբ
հիվանդության
հիվանդությանը
հիվանդություն
հիվանդությունը
հիվանդությունից
հիվանդությունն
հիվանդություններ
հիվանդությունները
հիվանդությունների
հիվանդություններից
հիվանդություններով
հիտլերը
հիտլերի
հիտլերին
հիտլերյան
հիրավի
հիրոսի
հիփ
հիփոթեքային
հլա
հլկեմ
հլու
հխսհ
հկ
հկկ
հհ
հհդ
հհկ
հհշ
հղած
հղել
հղի
հղիության
հղիություն
հղիությունը
հղկված
հղման
հղում
հղումը
հղումներ
հղումները
հղումների
հմայակ
հմայիչ
հմայքը
հմար
հմի
հմմ
հմմտ
հմուտ
հմտորեն
հմտություն
հմտություններ
հմտությունները
հմտությունների
հյդ
հյոն
հյոնիգ
հյու
հյուգո
հյուգոյի
հյուզը
հյուզի
հյութ
հյութալի
հյութը
հյութի
հյուծված
հյուն
հյուպատոս
հյուպատոսական
հյուսել
հյուսթոն
հյուսթոնի
հյուսիս
հյուսիսամերիկյան
հյուսիսային
հյուսիսատլանտյան
հյուսիսարևելյան
հյուսիսարևմտյան
հյուսիսափայլ
հյուսիսափայլի
հյուսիսը
հյուսիսի
հյուսիսից
հյուսիսում
հյուսում
հյուսված
հյուսվածք
հյուսվածքային
հյուսվածքը
հյուսվածքի
հյուսվածքներ
հյուսվածքները
հյուսվածքների
հյուսվածքներում
հյուսվածքում
հյուստոն
հյուր
հյուրախաղերի
հյուրախաղերով
հյուրանոց
հյուրանոցային
հյուրանոցը
հյուրանոցի
հյուրանոցներ
հյուրանոցների
հյուրանոցում
հյուրեր
հյուրերը
հյուրերի
հյուրերին
հյուրը
հյուրընկալել
հյուրընկալող
հյուրընկալվել
հյուրի
հյուրին
հնա
հնագետ
հնագետներ
հնագետները
հնագիտական
հնագիտության
հնագիտություն
հնագույն
հնադարյան
հնազանդ
հնաոճ
հնար
հնարամիտ
հնարավո
հնարավոր
հնարավորինս
հնարավորից
հնարավորությամբ
հնարավորության
հնարավորություն
հնարավորությունը
հնարավորությունից
հնարավորություններ
հնարավորությունները
հնարավորությունների
հնարավորություններով
հնարել
հնարք
հնարքը
հնարքներ
հնարքները
հնարքների
հնացած
հնգամյա
հնգամյակի
հնդեվրոպական
հնդիկ
հնդիկների
հնդկական
հնդկաստան
հնդկաստանը
հնդկաստանի
հնդկաստանից
հնդկաստանում
հնդկացի
հնդկացիական
հնդկացիներ
հնդկացիները
հնդկացիների
հնէաբանական
հնի
հնության
հնությունների
հնում
հնուց
հնչակյան
հնչել
հնչեղ
հնչեց
հնչյուն
հնչյունաբանական
հնչյունական
հնչյունային
հնչյունավորել
հնչյունավորող
հնչյունավորողներ
հնչյունավորում
հնչյունը
հնչյունի
հնչյուններ
հնչյունները
հնչյունների
հնչող
հնչում
հշ
հո
հոբելյանական
հոբելյանը
հոբելյանի
հոգ
հոգաբարձու
հոգաբարձուների
հոգալ
հոգալու
հոգանոց
հոգատար
հոգեբան
հոգեբանական
հոգեբաններ
հոգեբանության
հոգեբանություն
հոգեբանությունը
հոգեբուժական
հոգեբուժության
հոգեբույժ
հոգեկան
հոգեկանի
հոգեմետ
հոգեպես
հոգեվերլուծության
հոգեւոր
հոգի
հոգին
հոգիներ
հոգիները
հոգիների
հոգիս
հոգնած
հոգնածության
հոգնածություն
հոգնածությունը
հոգնակի
հոգնել
հոգով
հոգու
հոգում
հոգուն
հոգուս
հոգուց
հոգս
հոգսը
հոգվույն
հոգևոր
հոգևորական
հոգևորականի
հոգևորականներ
հոգևորականները
հոգևորականների
հոգևորականության
հոգևորականությունը
հոդ
հոդային
հոդերի
հոդը
հոդի
հոդված
հոդվածը
հոդվածի
հոդվածին
հոդվածից
հոդվածն
հոդվածներ
հոդվածները
հոդվածների
հոդվածներին
հոդվածներից
հոդվածներն
հոդվածներով
հոդվածներում
հոդվածով
հոդվածում
հոլ
հոլանդական
հոլանդացի
հոլանդերեն
հոլանդիա
հոլանդիայի
հոլանդիայում
հոլը
հոլի
հոլիվուդ
հոլիվուդի
հոլիվուդյան
հոլիվուդում
հոլլի
հոլմս
հոլմսը
հոլմսի
հոլով
հոլովակ
հոլովակը
հոլովի
հոլովման
հոլովով
հոլոքոստը
հոլոքոստի
հոլտ
հոլտի
հոծ
հոկեյի
հոկտ
հոկտեմբեր
հոկտեմբերի
հոկտեմբերին
հոկտեմբերից
հոկտեմբերյան
հոկտեմբերյանի
հող
հողագործությամբ
հողագործության
հողային
հողատարածք
հողե
հողեր
հողերը
հողերի
հողերից
հողերն
հողերում
հողը
հողի
հողին
հողից
հողն
հողով
հողում
հոմանիշ
հոմանիշներ
հոմերոսի
հոյակապ
հոն
հոնգ
հոնդուրասի
հոնիական
հոնկոնգ
հոնկոնգի
հոնկոնգում
հոնսյու
հոնքերը
հոս
հոսանք
հոսանքը
հոսանքի
հոսանքին
հոսանքներ
հոսանքները
հոսանքների
հոսանքով
հոսանքում
հոսել
հոսող
հոսում
հոսպիտալ
հոսպիտալացվել
հոսպիտալում
հոսք
հոսքային
հոսքերը
հոսքերի
հոսքը
հոսքի
հով
հովակիմյան
հովանավոր
հովանավորել
հովանավորը
հովանավորն
հովանավորությամբ
հովանավորության
հովանավորությունը
հովանավորում
հովանու
հովարդ
հովարդը
հովարդի
հովիկ
հովիվ
հովիվը
հովիվների
հովիտ
հովիտը
հովիտները
հովիտներով
հովիտներում
հովհ
հովհան
հովհաննես
հովհաննեսը
հովհաննեսի
հովհաննիսյան
[...]
