!
"
#
##0
##1
##10
##11
##12
##13
##14
##15
##16
##17
##18
##19
##2
##20
##21
##22
##23
##24
##25
##26
##27
##28
##29
##3
##30
##31
##32
##33
##34
##35
##36
##37
##38
##39
##4
##40
##41
##42
##43
##44
##45
##46
##47
##48
##49
##5
##50
##51
##52
##53
##54
##55
##56
##57
##58
##59
##6
##60
##61
##62
##63
##64
##65
##66
##67
##68
##69
##7
##70
##71
##72
##73
##74
##75
##76
##77
##78
##79
##8
##80
##81
##82
##83
##84
##85
##86
##87
##88
##89
##9
##90
##91
##92
##93
##94
##95
##96
##97
##98
##99
$
%
&
'
(
)
*
+
,
-
.
/
0
00
000
001
002
003
004
005
006
007
008
01
010
013
017
02
03
033
04
05
050
0521335000
056
06
067
07
08
083
09
1
10
100
1000
1001
1002
1007
101
1016
1017
102
1020014
1021
103
1030
1035
1038
104
105
1050
106
1060
1066
107
1070
1073
108
1080
1086
109
1093
1097
1098
11
110
1100
1103
111
1111
112
1126
113
1130
1134
1135
1136
114
1146
115
1150
1157
116
1160
117
1170
1177
118
1180
1182
1185
1186
1189
119
1190
1194
12
120
1200
1202
1204
121
1215
1216
1219
122
1220
1225
1227
123
1230
1231
124
1240
1241
125
1250
126
1260
127
1270
1275
1279
128
1280
1286
129
1290
13
130
1300
131
1314
1319
132
1320
1325
1326
1327
1328
133
1330
134
1340
1346
1349
135
1350
136
1360
1362
1365
1368
137
1370
1371
1375
1377
138
1380
1385
1386
1387
1389
139
1390
1396
1397
1398
14
140
1400
1401
1404
1405
1408
141
1410
1412
1415
142
1420
1422
1425
143
1430
1435
1436
1439
144
1440
1443
1445
1447
1448
1449
145
1450
1451
1452
1453
1455
1456
1457
1458
1459
146
1460
1461
1462
1463
1464
1465
1467
1468
1469
147
1470
1471
1472
1474
1475
1476
1477
1478
1479
148
1480
1481
1482
1483
1484
1485
1486
1487
149
1490
1492
1493
1494
1495
1496
1497
1498
1499
15
150
1500
1501
1502
1503
1504
1505
1506
1507
1509
151
1510
1511
1512
1513
1514
1515
1516
1517
1518
1519
152
1520
1521
1522
1523
1524
1525
1526
1527
1528
1529
153
1530
1531
1532
1533
1534
1535
1536
1537
1538
1539
154
1540
1541
1542
1543
1544
1545
1546
1547
1548
1549
155
1550
1551
1552
1553
1554
1555
1556
1557
1558
1559
156
1560
1561
1562
1563
1564
1565
1566
1567
1568
1569
157
1570
1571
1572
1573
1574
1575
1576
1577
1578
1579
158
1580
1581
1582
1583
1584
1585
1586
1587
1588
1589
159
1590
1591
1592
1593
1594
1595
1596
1597
1598
1599
16
160
1600
1601
1602
1603
1604
1605
1606
1607
1608
1609
161
1610
1611
1612
1613
1614
1615
1616
1617
1618
1619
162
1620
1621
1622
1623
1624
1625
1626
1627
1628
1629
163
1630
1631
1632
1633
1634
1635
1636
1637
1638
1639
164
1640
1641
1642
1643
1644
1645
1646
1647
1648
1649
165
1650
1651
1652
1653
1654
1655
1656
1657
1658
1659
166
1660
1661
1662
1663
1664
1665
1666
1667
1668
1669
167
1670
1671
1672
1673
1674
1675
1676
1677
1678
1679
168
1680
1681
1682
1683
1684
1685
1686
1687
1688
1689
169
1690
1691
1692
1693
1694
1695
1696
1697
1698
1699
17
170
1700
1701
1702
1703
1704
1705
1706
1707
1708
1709
171
1710
1711
1712
1713
1714
1715
1716
1717
1718
1719
172
1720
1721
1722
1723
1724
1725
1726
1727
1728
1729
173
1730
1731
1732
1733
1734
1735
1736
1737
1738
1739
174
1740
1741
1742
1743
1744
1745
1746
1747
1748
1749
175
1750
1751
1752
1753
1754
1755
1756
1757
1758
1759
176
1760
1761
1762
1763
1764
1765
1766
1767
1768
1769
177
1770
1771
1772
1773
1774
1775
1776
1777
1778
1779
178
1780
1781
1782
1783
1784
1785
1786
1787
1788
1789
179
1790
1791
1792
1793
1794
1795
1796
1797
1798
1799
18
180
1800
1801
1802
1803
1804
1805
1806
1807
1808
1809
181
1810
1811
1812
1813
1814
1815
1816
1817
1818
1819
182
1820
1821
1822
1823
1824
1825
1826
1827
1828
1829
183
1830
1831
1832
1833
1834
1835
1836
1837
1838
1839
184
1840
1841
1842
1843
1844
1845
1846
1847
1848
1849
185
1850
1851
1852
1853
1854
1855
1856
1857
1858
1859
186
1860
1861
1862
1863
1864
1865
1866
1867
1868
1869
187
1870
1871
1872
1873
1874
1875
1876
1877
1878
1879
188
1880
1881
1882
1883
1884
1885
1886
1887
1888
1889
189
1890
1891
1892
1893
1894
1895
1896
1897
1898
1899
19
190
1900
1901
1902
1903
1904
1905
1906
1907
1908
1909
191
1910
1911
1912
1913
1914
1915
1916
1917
1918
1919
192
1920
1921
1922
1923
1924
1925
1926
1927
1928
1929
193
1930
1931
1932
1933
1934
1935
1936
1937
1938
1939
194
1940
1941
1942
1943
1944
1945
1946
1947
1948
1949
195
1950
1951
1952
1953
1954
1955
1956
1957
1958
1959
196
1960
1961
1962
1963
1964
1965
1966
1967
1968
1969
197
1970
1971
1972
1973
1974
1975
1976
1977
1978
1979
198
1980
1981
1982
1983
1984
1985
1986
1987
1988
1989
199
1990
1991
1992
1993
1994
1995
1996
1997
1998
1999
2
20
200
2000
2001
2002
2003
2004
2005
2006
2007
2008
2009
201
2010
2011
2012
2013
2014
2015
2016
2017
2018
2019
202
2020
2021
2022
2023
2024
2025
203
2030
204
205
2050
206
207
208
209
20917
21
210
2100
211
212
213
214
215
216
217
218
219
22
220
221
222
223
224
225
226
227
228
229
23
230
2307
231
232
233
234
235
236
237
238
239
24
240
241
242
243
244
245
246
247
248
249
25
250
2500
251
252
253
254
255
256
257
258
259
26
260
261
262
263
264
265
266
267
268
269
27
270
271
272
273
274
275
276
277
278
279
28
280
281
282
283
284
285
286
287
288
289
29
290
291
292
293
294
295
296
297
298
299
3
30
300
3000
301
302
303
304
305
306
307
308
309
31
310
311
312
313
314
315
316
317
318
319
32
320
321
322
323
324
325
326
327
328
329
33
330
331
332
333
334
335
336
337
338
339
34
340
341
342
343
344
345
346
347
348
349
35
350
3500
351
352
353
354
35469
355
356
35610
357
358
359
36
360
361
362
363
364
365
366
367
368
369
37
370
371
372
373
374
375
376
377
378
379
38
380
381
382
383
384
385
386
387
388
389
39
390
391
392
393
394
395
396
397
398
399
4
40
400
4000
401
402
403
404
405
406
407
408
409
41
410
411
412
413
414
415
416
417
418
419
42
420
421
422
423
424
425
426
427
428
429
43
430
431
432
433
434
435
436
437
438
439
44
440
441
442
443
444
445
446
447
448
449
45
450
451
452
453
454
455
456
457
458
459
46
460
461
462
463
464
465
466
467
468
469
47
470
471
472
473
474
475
476
477
478
479
48
480
481
482
483
484
485
486
487
488
489
49
490
491
492
493
494
495
496
497
498
499
5
50
500
5000
501
502
503
504
505
506
507
508
509
51
510
511
512
513
514
515
516
517
518
519
52
520
521
522
523
524
525
526
527
528
529
53
530
531
532
533
534
535
536
537
538
539
54
540
541
542
543
544
545
546
547
548
549
55
550
551
552
553
554
555
556
557
558
559
56
560
561
562
563
564
565
566
567
568
569
57
570
571
572
573
574
575
576
577
578
579
58
580
581
582
583
584
585
586
587
589
59
590
591
592
593
594
595
596
597
598
599
6
60
600
6000
601
602
603
604
605
606
607
608
609
61
610
611
612
613
614
615
616
617
618
619
62
620
621
622
62248
624
625
626
627
628
629
63
630
631
632
633
634
635
636
638
639
64
640
641
642
643
645
646
649
65
650
651
652
653
655
656
657
658
659
66
660
661
664
665
666
667
668
67
670
671
672
674
675
676
679
68
680
681
683
684
685
688
69
690
691
695
7
70
700
7000
701
705
707
71
710
711
712
714
7146
715
717
72
720
722
723
725
727
73
730
732
733
737
74
740
745
747
75
750
751
7526
755
756
757
76
760
765
767
768
77
770
775
777
78
780
783
787
788
79
790
8
80
800
8000
801
802
8047
808
81
810
812
815
81528
817
82
820
825
83
830
833
84
840
843
845
85
850
85177
85233
855
857
86
860
867
87
870
8702112191
871
87293
88
880
883
888
89
890
9
90
900
9000
90210
90286
907
91
910
911
912
913135
917
92
920
925
93
930
933
936
936389
94
940
95
950
951
96
960
965
967
97
970
975
978
98
980
983
985
987
99
990
995
999
99918
:
;
<
=
>
?
@
[
\
]
^
_
`
a
aa
aab
aaben
aabenbart
aabenraa
aabent
aabne
aabnede
aabnet
aaby
aabybro
aachen
aaen
aagaard
aage
aagesen
aakjær
aalborg
aalborgs
aalestrup
aand
aandelig
aandelige
aanden
aander
aar
aarbog
aarbøger
aarene
aarestrup
aaret
aarhundrede
aarhus
aaron
aars
aarsag
aarup
aase
aasmund
aastrup
aau
ab
abba
abbas
abbed
abbey
abbott
abc
abd
abdel
abdicere
abdicerede
abdul
abdullah
abe
abel
aber
aberdeen
abies
abigail
abildgaard
abonnement
abonnenter
abort
about
above
abraham
abrahams
abrahamsen
abrams
abruzzo
abs
absalon
absolut
absolute
absolutte
abstract
abstrakt
abstrakte
absurd
abu
ac
acade
academia
academic
academy
acceleration
accent
accept
acceptere
accepterede
accepterer
accepteres
accepteret
access
accessed
accident
accord
according
account
accreditations
ace
achievement
acid
across
act
acta
acting
action
actionfilm
active
activities
activity
actor
actors
actress
acts
actually
ad
ada
adam
adams
adaptation
adb
add
added
addison
addition
address
adds
ade
adel
adelaide
adele
adelen
adelens
adeler
adelgade
adelheid
adelig
adelige
adels
adelsmand
adelsmænd
adelsslægt
adfærd
adgang
adgangen
adhd
adi
adjektiv
adjudant
adjunkt
adjusted
adler
adlet
adlyde
adm
administration
administrationen
administrationsby
administrationsbygning
administrationscenter
administrativ
administrative
administrativt
administrator
administrere
administrerede
administrerende
administrerer
administreres
administreret
admiral
adn
adobe
adolf
adolfs
adolph
adolphe
adonis
adopterede
adopteret
adoption
adresse
adressen
adresser
adrian
adriaterhavet
adskille
adskillelse
adskiller
adskilles
adskillige
adskilt
adskilte
adult
advance
advanced
advances
advare
advarede
advarer
advaret
advarsel
advarsler
advent
adventure
adventures
advisory
advokat
advokaten
advokater
ae
aero
aeroflight
aerospace
af
afbildet
afbildning
afbildninger
afbrudt
afbryde
afbrydelse
afbrydelser
afbryder
afbrydes
afbrød
afbud
afc
afd
afdeling
afdelingen
afdelinger
afdækket
afdød
afdøde
afdødes
aff
affair
affairs
affald
affleck
affyre
affyrede
affyret
affære
affæren
affærer
affødte
afføring
afga
afgang
afgange
afgangseksamen
afgav
afghanistan
afghanistans
afghanske
afgift
afgifter
afgik
afgive
afgiver
afgivet
afgivne
afgjorde
afgjort
afgjøre
afgjørelse
afgjørende
afgrunden
afgrænsede
afgrænses
afgrænset
afgrænsning
afgrøde
afgrøder
afgør
afgøre
afgørelse
afgørelsen
afgørelser
afgørende
afgøres
afhandling
afhandlingen
afhandlinger
afhang
afhjælpe
afholde
afholdelse
afholder
afholdes
afholdt
afholdte
afholdtes
afhænger
afhængig
afhængige
afhængighed
afhængigt
afkald
afkast
afklaret
afkom
aflagde
aflagt
aflange
afledning
afledt
afledte
aflejret
aflejringer
aflevere
afleverede
afleveret
aflyst
aflyste
aflægge
aflægger
afløb
afløse
afløser
afløses
afløsning
afløst
afløste
afløstes
afp
afprøve
afprøvet
afrejse
afrejsende
africa
african
afrika
afrikaans
afrikansk
afrikanske
afrikas
afro
afrundede
afrundet
afsagt
afsat
afsatte
afsides
afska
afskaffe
afskaffede
afskaffelse
afskaffelsen
afskaffet
afskar
afsked
afskedige
afskedigelse
afskediget
afskrift
afsky
afskære
afsla
afslag
afslog
afslutning
afslutningen
afslutte
afsluttede
afsluttedes
afsluttende
afslutter
afsluttes
afsluttet
afsløre
afslørede
afslører
afsløres
afsløret
afsløring
afsløringen
afsløringer
afsnit
afsnittene
afsnittet
afspejle
afspejlede
afspejler
afspejles
afsta
afstamning
afstand
afstande
afstanden
afsted
afstedkom
afstemning
afstemningen
afstod
afsæt
afsætning
afsætte
afsættes
aftagende
aftager
aftale
aftalen
aftaler
aftalt
aftalte
aften
aftenen
aftenposten
after
aftog
aftonbladet
aftryk
afvander
afvandingsomra
afvente
afvigelse
afvigelser
afvigende
afviger
afvikle
afvikledes
afvikles
afviklet
afvikling
afviklingen
afvise
afvisende
afviser
afvises
afvisning
afvist
afviste
afværge
afzelius
ag
again
against
agatha
agder
age
aged
agency
agenda
agent
agenten
agenter
agents
agentur
ager
agerbrug
agere
ages
agf
agger
aggression
aggressiv
aggressive
agitation
agnes
agnete
ago
agrarstrukturer
agre
agreement
agricultural
agriculture
agt
agtede
agtelse
agter
agtet
agtig
agtige
aguilera
ah
ahead
ahlefeldt
ahlmann
ahmad
ahmed
ai
aid
aids
aik
aikido
aim
ain
air
airbus
aircraft
aires
airlines
airplay
airport
airways
ais
aise
aj
ajax
ak
aka
akademi
akademie
akademien
akademiens
akademiet
akademiets
akademikere
akademis
akademisk
akademiske
aker
akershus
akira
akka
akkord
akkorder
akkurat
akkusativ
akronym
aks
akse
aksel
aksemagterne
aksen
akt
akter
aktie
aktier
aktierne
aktieselskab
aktieselskabet
aktion
aktionen
aktioner
aktionærer
aktiv
aktive
aktiver
aktiveres
aktiveret
aktivist
aktivister
aktivitet
aktiviteten
aktiviteter
aktiviteterne
aktivt
aktuel
aktuelle
aktuelt
aktør
aktører
akustisk
akustiske
akut
akutte
akvarel
al
ala
alabama
aladdin
alain
alamein
alan
alarm
alaska
alba
alban
albania
albanien
albaniens
albansk
albanske
albany
albedo
albert
alberta
alberti
alberto
albertslund
albin
albion
albrecht
albrechtsen
album
albumet
albummer
albummet
albummets
albums
albæk
alcatraz
alcohol
aldeles
alder
alderdom
alderen
aldo
aldre
aldrende
aldrig
ale
alec
alejandro
aleksandar
aleksander
aleksandr
aleksandra
aleksandrovitj
aleksej
alen
alene
aleppo
alert
alessandro
alex
alexander
alexanders
alexandra
alexandre
alexandria
alexandrine
alexios
alexis
alf
alfa
alfabet
alfabetisk
alfons
alfonso
alfred
alfredo
algarve
algebra
alger
algeriet
algier
algoritme
algoritmer
ali
alias
alice
alicia
alien
aligned
alison
alive
alkohol
alkoholisme
all
alla
allah
allan
alle
allegro
allen
allende
aller
allerede
allerførste
allermest
allerslev
allerstørste
allerød
alles
allesammen
alletiders
alley
allgemeine
alliance
alliancen
alliancer
alliances
allied
allierede
allieredes
allieret
alligevel
alling
allinge
allison
allmovie
allmusic
allocine
allsvenskan
ally
alm
alma
almen
almene
almenheden
alment
almindelig
almindelige
almindelighed
almindeligste
almindeligt
almindeligvis
almost
almuen
alois
alone
along
alonso
alper
alperne
alpes
alpha
alphonse
alpin
alpine
als
alsace
alsidig
alslev
also
alstrup
alt
alta
alte
altenburg
alter
alteret
alternativ
alternative
alternativer
alternativet
alternativt
altertavle
altertavlen
altertavler
altfor
altid
altimetrica
alting
altinget
alto
altona
altsa
altsaa
altsammen
alufælge
aluminium
alverdens
alves
alvin
alvor
alvorlig
alvorlige
alvorligt
always
alzheimer
am
amadeus
amager
amalia
amalie
amalienborg
amanda
amateur
amatør
amatører
amazing
amazon
amazonas
ambassade
ambassader
ambassador
ambassadør
ambassadører
amber
ambition
ambitioner
ambitiøs
ambitiøse
ambrose
ambrosius
ambulance
ame
amelia
amen
america
american
americans
americas
amerika
amerikaner
amerikanere
amerikaneren
amerikanerne
amerikanernes
amerikansk
amerikanske
amerikas
amerikkalainen
ames
amg
ami
amiga
amin
aminosyrer
amir
ammoniak
ammunition
amnesti
amnesty
amok
among
amor
amore
amos
amour
amrum
amstel
amsterdam
amt
amter
amterne
amtet
amtets
amtmand
amtmanden
amts
amtsforvalter
amtskreds
amtsra
amundsen
amur
amy
an
ana
anakin
analog
analoge
analyse
analysen
analyser
analysere
analysis
analytisk
analytiske
anand
anarkistiske
anastasia
anastasija
anatolien
anatolij
anatomi
anatomiske
anatomy
anbefale
anbefalede
anbefaler
anbefales
anbefalet
anbefaling
anbefalinger
anbragt
anbragte
anbringe
anbringes
ancestry
ancher
anciennitet
ancient
and
andel
andelen
andelsmejeri
anden
andenplads
andenpladsen
andens
anderberg
anderlecht
anderledes
anders
andersen
andersens
anderson
andersons
andersson
andesbjergene
andet
andetsteds
andorra
andra
andre
andrea
andreas
andreasen
andreassen
andrei
andrej
andres
andresen
andrew
andrews
androg
android
andrzej
andy
ane
anede
anelse
anemone
aner
anerkende
anerkendelse
anerkender
anerkendes
anerkendt
anerkendte
anette
anfald
anfører
anføres
anført
anførte
ang
anga
angaaende
angaaer
angaar
angav
angel
angela
angeles
angelina
angeln
angelo
angels
angelsaksisk
angelsaksiske
anger
angik
angive
angiveligt
angivelse
angiver
angives
angivet
angivne
angkor
angle
anglia
anglikanske
anglo
angola
angreb
angrebene
angrebet
angribe
angribende
angriber
angribere
angriberne
angribes
angry
angst
angus
anhalt
anholdelse
anholdt
anholt
ani
animal
animals
animated
animation
animationsfilm
anime
animerede
animeret
anis
anita
anja
anjou
ankara
anker
anklage
anklagede
anklagemyndigheden
anklagen
anklager
anklagerne
anklaget
ankom
ankomme
ankommer
ankommet
ankomst
ankomsten
anlagde
anlagdes
anlagt
anlagte
anledning
anledningen
anliggende
anliggender
anlæg
anlægge
anlæggelse
anlæggelsen
anlægges
anlægget
anløb
anm
anmeldelse
anmeldelsen
anmeldelser
anmelder
anmeldere
anmelderen
anmelderne
anmelderroste
anmeldt
anmeldte
anmode
anmodede
anmodning
ann
anna
annaler
annales
annals
annas
anne
anneks
annekterede
annekteret
annekteringen
annelise
annes
annette
anni
annie
annika
anniversary
anno
annonce
annoncerede
annonceret
announce
announced
announcement
announces
annual
annulleret
annæ
anonym
anonyme
anonymt
anordning
another
ans
ansa
ansat
ansatte
ansattes
anse
anseelse
ansees
anser
anses
anset
ansete
ansgar
ansigt
ansigter
ansigtet
anskaffe
anskaffede
anskaffet
anskuelse
anskuelser
ansla
anslag
anslog
anstalten
anstrengelser
anstrengt
ansvar
ansvaret
ansvarlig
ansvarlige
ansvarshavende
ansvarsomra
answers
ansætte
ansættelse
ansøgning
ansøgningen
ansøgninger
ansøgte
ant
antage
antagelig
antagelse
antagelser
antager
antages
antaget
antal
antallet
antarctic
antarktis
antarktiske
ante
antenne
antenner
anthem
anthology
anthon
anthony
anthropology
anti
antibiotika
antietam
antigua
antik
antikke
antikken
antikkens
antiluftskyts
antiokia
antiquity
antisemitiske
antisemitisme
antiuba
anto
antog
antoine
antoinette
antologi
antologien
anton
antoni
antonia
antonio
antonius
antony
antropolog
antropologi
antvorskov
antwerpen
antyde
antydede
antyder
antydet
anvende
anvendelig
anvendelige
anvendelse
anvendelsen
anvendelser
anvender
anvendes
anvendt
anvendte
anvendtes
anvisning
anvisninger
any
anything
anzac
ao
aok
ap
apache
apartheid
apg
api
apollo
apollon
apostel
apostle
apostlen
apostlene
apostlenes
apostoliske
apotek
apoteker
apoteket
app
apparat
apparater
apparatet
appel
appellerede
appellerer
appendix
appetit
apple
apples
appleton
application
applications
applied
applikationer
approach
apps
apr
april
aps
apsis
apulien
aq
aqua
aquila
aquitaine
aquitanien
ar
ara
arab
arabere
araberne
arabia
arabien
arabisk
arabiske
aragonien
arbeide
arbeiderpartiet
arbejde
arbejdede
arbejdende
arbejder
arbejdere
arbejderen
arbejderklassen
arbejderne
arbejdernes
arbejderparti
arbejdes
arbejdet
arbejds
arbejdsgiver
arbejdsgivere
arbejdsgiverforening
arbejdsgruppe
arbejdsgruppen
arbejdskraft
arbejdslegat
arbejdsløse
arbejdsløshed
arbejdsløsheden
arbejdsmarked
arbejdsmarkedet
arbejdsomra
arbejdsplads
arbejdspladser
arbuckle
arc
arch
archaeological
archaeology
archer
archibald
archie
architects
architecture
archiv
archive
archived
archives
arctic
ard
arden
are
area
areal
arealer
arealerne
arealet
arealmæssigt
areas
arena
arenaen
arendal
arendt
arenfeldt
argentina
argentinas
argentinsk
argentinske
argument
argumentation
argumenter
argumenterede
argumenterer
argumenteret
ari
aria
arie
ariel
arild
aristokrati
aristokratiske
aristoteles
arizona
ark
arkansas
arken
arkhangelsk
arkitekt
arkitekten
arkitektens
arkitekter
arkitekterne
arkitektkontoret
arkitektonisk
arkitektoniske
arkitektskole
arkitektur
arkitekturen
arkiv
arkivalier
arkivalieronline
arkivar
arkiver
arkiveret
arkivet
arkivtitel
arktis
arktisk
arktiske
arkæolog
arkæologer
arkæologi
arkæologisk
arkæologiske
arla
arles
arlington
arm
armand
armba
arme
armed
armee
armen
armene
armenia
armenien
armensk
armenske
armin
arms
armstrong
army
arn
arndt
arne
arno
arnold
aron
aros
around
arrangement
arrangementer
arrangementet
arrangere
arrangerede
arrangerer
arrangeres
arrangeret
arrangør
arrangørerne
array
arrest
arrestere
arresterede
arresteret
arriva
arrondissement
arrow
ars
arsenal
art
arte
artemis
arten
arter
arterne
arthur
arthurs
article
articles
artikel
artiklen
artikler
artiklerne
artilleri
artilleriet
artillery
artist
artister
artists
arts
artur
arturo
arup
arv
arve
arvede
arvefølge
arvefølgekrig
arvefølgen
arvelig
arvelige
arven
arveprins
arveret
arvet
arvid
arving
arvingen
arvinger
arvingerne
arvtager
arxiv
as
asa
asbjørn
aschehoug
aserbajdsjan
aserne
asfalt
asga
asger
ash
ashes
ashley
ashton
asia
asian
asiatisk
asiatiske
asien
asiens
ask
aske
asken
askepot
asker
askov
asmussen
asnæs
aso
asp
aspects
aspekt
aspekter
aspx
ass
assad
assassin
assault
assembly
assens
assessment
assessor
assisi
assistance
assistens
assistent
assistenttræner
assisterende
assists
associated
association
associations
associeret
assyriske
asta
astana
aster
asterix
asteroide
asteroider
astma
aston
astra
astrid
astro
astrogeology
astrolink
astrologi
astronaut
astronauter
astronom
astronomer
astronomi
astronomical
astronomie
astronomihjemmeside
astronomisk
astronomiske
astronomy
astrosurf
astrup
asturien
asyl
asymmetrisk
at
ateisme
atelier
athen
athens
athletes
athletic
athletics
atkins
atkinson
atlanta
atlanten
atlanterhavet
atlantic
atlantis
atlas
atle
atlet
atleter
atletik
atletikudøver
atmosfære
atmosfæren
atmosfærisk
atmospheric
atom
atombombe
atomer
atomic
atomnummer
atomva
atp
att
attack
attacks
atten
attende
attentat
attentatet
atter
atterdag
attila
attitude
attraktion
attraktioner
attraktiv
attraktive
attraktivt
au
auch
auckland
aud
audi
audio
audition
audrey
auf
auflage
aug
augsburg
august
augusta
auguste
augustenborg
augustin
augustinus
augusto
augustus
auken
auktion
aura
auraen
aurelius
aurora
aus
auschwitz
austen
austin
australia
australian
australien
australiens
australierne
australsk
australske
austria
austrian
austriancharts
autentisk
autentiske
author
authority
authors
autisme
auto
autobiography
autodidakt
automatgear
automatic
automatisk
automatiske
automobil
automobile
autonom
autonome
autonomi
autorisation
autoriserede
autoriseret
autoritet
autoriteter
autoritære
autosport
autumn
aux
av
ava
available
avalon
avancerede
avanceret
avant
avantgarde
avatar
ave
avec
avedøre
avengers
avenue
average
avery
aviation
avibase
avignon
avis
avisen
avisens
aviser
aviserne
aviv
avl
avlede
avlet
avlsga
avn
avro
awakening
awakens
award
awarded
awards
away
awm
ax
axel
axelsen
axis
ayatollah
az
azerbaijan
aziz
azkaban
b
ba
baad
baade
baaden
baand
baaret
baba
babe
baby
babylon
bach
bache
bachelor
bachelorgrad
bachs
back
background
backing
backs
backstreet
backup
bacon
bad
bade
baden
badet
badminton
badmintonspiller
baekje
bafta
bag
bagage
bagdad
bagefter
bager
bageri
bagerste
bages
bageste
bagfra
bagga
bagge
bagger
baggesen
baggrund
baggrunden
baggrundsvokal
baghold
bagland
baglæns
bagside
bagsiden
bagsværd
bagt
bagtil
bagud
bagved
bagvokal
bahamas
bahn
bahnhof
bahrain
baht
bai
bailey
bak
baker
bakke
bakkede
bakken
bakker
bakkerne
bakket
bakterie
bakterien
bakterier
baku
bal
balance
balancen
balder
balduin
baldwin
bale
balhae
bali
balkan
ball
ballad
ballade
balladen
ballader
ballard
balle
ballerup
ballet
balletmusik
balletten
balling
ballon
balls
ballum
balslev
balthasar
balthazar
baltic
baltikum
baltimore
baltiske
baltzer
bam
bamberg
bambus
bamse
bamses
ban
band
bande
banden
bandens
bander
bandet
bandets
bandholm
bandicoot
bandidos
bands
bandt
bandy
bane
banebrydende
banecykling
banedanmark
banedata
banede
banega
banen
banens
baner
banerne
banetrace
bang
bange
bangkok
bangladesh
bangs
banjo
bank
bankdirektør
banke
bankede
banken
bankens
banker
bankerne
banket
banks
banner
baptiste
bar
bara
barack
barbados
barbano
barbara
barbarossa
barber
barcelona
bardenfleth
bare
baren
barer
barfod
barfoed
bari
bark
barken
barker
barlow
barmhjertighed
barn
barnard
barndom
barndommen
barndomshjem
barnebarn
barner
barnes
barnet
barnets
barnett
barney
barnløs
barnløse
barnløst
barns
barok
barokken
baron
baronen
baroner
baronesse
baroniet
barr
barre
barrett
barrie
barriere
barrow
barry
barrymore
barsk
barske
bart
barth
bartholin
barton
baryton
bas
basale
basalt
base
baseball
based
basel
basen
baser
baserede
baserer
baseret
basguitar
basic
basil
basin
basis
basisanalysen
baskerlandet
basketball
basketballspiller
baskisk
bass
basse
bassin
bassinet
bassist
bassisten
basso
bastian
bastien
bastion
bastogne
bat
bataljon
bataljoner
bates
bath
batista
batman
batteri
batterier
batteriet
battery
battista
battle
battlefield
battles
bauditz
bauer
baumann
bavnehøj
baxter
bay
bayer
bayern
bayerns
bayerske
bayreuth
bb
bbc
bbs
bc
bd
be
beach
bean
bear
bearbejde
bearbejdede
bearbejdelse
bearbejdet
bearbejdning
bears
beast
beat
beate
beatles
beatrice
beatrix
beats
beau
beaufort
beaumont
beautiful
beauty
beauvoir
beaux
beaver
bebe
beboede
beboelse
beboer
beboere
beboerne
beboet
bebyggede
bebyggelse
bebyggelsen
bebyggelser
bebyggelserne
bebygget
bec
became
because
bech
beck
becker
beckett
becks
become
becomes
bed
bede
beder
bedford
bedrag
bedrager
bedrageri
bedre
bedrift
bedrifter
bedrøvet
bedst
bedste
bedsted
bedstefader
bedstefar
bedsteforældre
bedstemoder
bedstemor
bedt
bedømme
bedømmelse
bedømmes
bedømt
bee
been
beer
beersheba
beethoven
beethovens
beetle
bef
befalede
befaling
befalinger
befandt
befinde
befinder
befolkede
befolket
befolkning
befolkningen
befolkningens
befolkninger
befolknings
befolkningsgruppe
befolkningsgrupper
befolkningstal
befolkningstallet
befolkningstæthed
befolkningstætheden
befolkningsvækst
before
befri
befriede
befrielse
befrielsen
befrier
befriet
befæstede
befæstet
befæstning
befæstninger
beføjelser
bega
begav
begavede
begavelse
begavet
begejstrede
begejstret
begejstring
begge
begik
begin
beginning
begins
begive
begivenhed
begivenheden
begivenheder
begivenhederne
begiver
begrave
begravede
begravelse
begravelsen
begravelser
begravelsesplads
begraves
begravet
begreb
begreber
begreberne
begrebet
begribe
begrundede
begrundelse
begrundelsen
begrundet
begrænse
begrænsede
begrænser
begrænses
begrænset
begrænsning
begrænsninger
begtrup
begynde
begyndelse
begyndelsen
begyndende
begynder
begyndere
begyndes
begyndt
begyndte
begyndtes
begær
beha
behag
behagelig
behageligt
behandle
behandlede
behandler
behandles
behandlet
behandling
behandlingen
behandlinger
behavior
beherske
beherskede
behind
behold
beholde
beholder
beholdt
behov
behovet
behøve
behøvede
behøver
behøves
bei
beijing
being
beirut
beitra
bek
bekendelse
bekender
bekendt
bekendte
bekendtgjorde
bekendtgørelse
bekendtskab
bekjendt
bekjendte
beklagede
beklager
beklædning
beklædt
beklædte
bekostning
bekræfte
bekræftede
bekræftelse
bekræfter
bekræftes
bekræftet
bekymrede
bekymret
bekymring
bekymringer
bekæmpe
bekæmpede
bekæmpelse
bekæmper
bel
bela
belagt
belarus
belastet
belastning
belejrede
belejret
belejring
belejringen
belfast
belgian
belgien
belgiens
belgierne
belgisk
belgiske
belgium
believe
beliggende
beliggenhed
beliggenheden
bell
bella
bellahøj
belle
bellevue
belli
bells
below
belt
belyse
belyser
belysning
belyst
belæg
belægning
beløb
beløbet
belønnet
belønning
bemandede
bemandet
bemyndigelse
bemærk
bemærke
bemærkede
bemærkelsesværdig
bemærkelsesværdige
bemærkelsesværdigt
bemærker
bemærkes
bemærket
bemærkning
bemærkninger
ben
bena
benbaring
benbart
bender
bendix
bendixen
bendt
bendtsen
bene
benedict
benedicte
benedikt
benedikte
benene
benet
benfica
bengalen
bengt
bengtsson
benhed
benhus
benhuset
benhvile
benhvilen
benin
benito
benjamin
benlyse
benlyst
bennett
benny
benoi
benoit
benra
bens
benskjold
benson
benstilstand
bent
bente
bentley
benton
bentsen
bentzon
benytte
benyttede
benyttedes
benyttelse
benytter
benyttes
benyttet
benz
benzin
benzinmotor
benzinmotorer
benzon
benægtede
benægter
benævnelse
benævnelsen
benævnes
benævnt
beograd
beordrede
beordrer
beordret
beowulf
ber
bera
beredne
beredskab
beredt
beregne
beregnede
beregner
beregnes
beregnet
beregning
beregningen
beregninger
beretning
beretningen
beretninger
berettede
beretter
berettes
berettigede
berettiget
berg
berge
bergen
bergens
bergensbanen
berger
bergman
bergmann
bergs
bergsøe
bering
berit
berkeley
berkshire
berlin
berliner
berling
berlingske
berlins
bermuda
bern
bernadotte
bernard
bernardo
bernburg
bernd
berner
bernhard
bernhardt
bernie
bernstein
bernstorff
bernt
berntsen
bero
beror
berry
bert
bertel
bertelsen
bertha
berthelsen
berthold
bertil
bertram
bertrand
beruset
berygtede
berygtet
beryllium
berømmelse
berømt
berømte
berøre
berører
berøring
berørt
berørte
bes
besad
besat
besatte
besejre
besejrede
besejrer
besejret
besidde
besiddelse
besiddelser
besidder
beskadigede
beskadiget
beskaffenhed
beskatning
besked
beskeden
beskedent
beskeder
beskedne
beskrev
beskrevet
beskrevne
beskrive
beskrivelse
beskrivelsen
beskrivelser
beskrivende
beskriver
beskrives
beskudt
beskyde
beskydning
beskylder
beskyldninger
beskyldt
beskyldte
beskytte
beskyttede
beskyttelse
beskyttelsen
beskyttende
beskytter
beskyttes
beskyttet
beskæftige
beskæftigede
beskæftigelse
beskæftiger
beskæftiget
beskød
beslag
beslaglagt
beslan
beslutning
beslutningen
beslutninger
beslutte
besluttede
beslutter
besluttet
beslægtede
beslægtet
besparelser
best
besta
bestaaende
bestaaer
bestaar
bestand
bestanddel
bestanddele
bestande
bestanden
bestandig
bestandigt
beste
besteg
bestemme
bestemmelse
bestemmelsen
bestemmelser
bestemmelserne
bestemmende
bestemmer
bestemmes
bestemt
bestemte
bestige
bestikkelse
bestille
bestilling
bestilt
bestilte
bestod
bestred
bestræbelser
bestræbelserne
bestseller
bestyrelse
bestyrelsen
bestyrelser
bestyrelsesformand
bestyrelsesmedlem
bestyrer
besvare
besvarede
besvarelse
besvær
besværlig
besværlige
besværligt
besynderlig
besynderligt
besætning
besætningen
besætninger
besætningsmedlemmer
besætte
besættelse
besættelsen
besættelsesmagt
besættelsesmagten
besøg
besøge
besøgende
besøger
besøges
besøget
besøgt
besøgte
bet
beta
betaget
betale
betaler
betales
betaling
betalinger
betalt
betalte
betegne
betegnede
betegnelse
betegnelsen
betegnelser
betegnelserne
betegnende
betegner
betegnes
betegnet
beth
betingede
betingelse
betingelser
betingelserne
betinget
betjene
betjener
betjenes
betjening
betjeningen
betjent
betjente
beton
betonede
betragte
betragtede
betragtedes
betragtelig
betragteligt
betragter
betragtes
betragtet
betragtning
betragtninger
betroede
betroet
bette
better
bettina
betty
between
betyde
betydelig
betydelige
betydeligste
betydeligt
betydende
betyder
betydet
betydning
betydningen
betydninger
betydningsfuld
betydningsfulde
betydningsfuldt
betænkning
betød
beundrede
beundrer
beundring
bevare
bevarede
bevarelse
bevarer
bevares
bevaret
bevaring
bevaringsværdige
beverly
bevidst
bevidste
bevidsthed
bevidstheden
bevidstløs
bevilgede
bevilget
bevilling
bevillinger
bevirke
bevirkede
bevirker
bevis
bevise
beviser
bevises
beviset
bevist
beviste
bevo
bevæbnede
bevæbnet
bevæbning
bevæge
bevægede
bevægelige
bevægelse
bevægelsen
bevægelsens
bevægelser
bevæger
bevæget
bey
beyer
beyonce
beyond
bezirk
bf
bg
bh
bhumibol
bhutan
bi
bianca
bibcode
bibeholdt
bibel
bibelen
bibelens
bibelsk
bibelske
bible
biblen
bibliografi
bibliography
bibliotek
bibliotekar
biblioteker
bibliotekerne
biblioteket
bibliotekets
biblioteks
bibliothek
bid
bide
biden
bidende
bider
bidrag
bidrage
bidrager
bidraget
bidragyder
bidrog
bidstrup
bidt
bie
bieber
bielke
bien
bier
bifald
biflod
bifloder
bifrost
big
biggest
bil
bilag
bilagskort
bilancio
bilande
bilbao
bild
bilde
bilder
bilen
bilens
biler
bilerne
bilfabrikant
bill
billboard
bille
billed
billedbog
billede
billeder
billederne
billedet
billedhugger
billedhuggeren
billedkunst
billedkunstner
biller
billet
billetsalg
billetter
billie
billig
billige
billigere
billigt
billion
billund
billy
bilmodel
bilmodeller
bilulykke
bin
bind
binde
bindende
binder
bindes
bindesbøll
binding
bindinger
bindingsværk
bing
bingen
binære
bio
biodiversitet
biograf
biografen
biografer
biograferne
biografi
biografien
biografier
biografisk
biografiske
biographical
biographie
biography
biolog
biologi
biological
biologisk
biologiske
biology
bios
bioteknologi
bipolar
bir
birch
bird
birdlife
birds
birger
birgit
birgitta
birgitte
birk
birkerød
birket
birmingham
birolle
biroller
birte
birth
birthday
birthe
bis
bisat
bischoff
bisgaard
bishop
biskop
biskoppen
biskopper
biskopperne
bismarck
bison
bisp
bispebjerg
bispedømme
bispedømmet
bispega
bispen
bispesæde
bissen
bista
bistand
bistrup
bit
bitcoin
bitre
bits
bitte
bitter
bitterhed
bittert
bivirkninger
bizarre
bjarke
bjarne
bjerg
bjergarter
bjergby
bjerge
bjergene
bjerget
bjergets
bjergkæde
bjergkæden
bjergkæder
bjergomra
bjergpas
bjergrige
bjergtoppe
bjerke
bjerre
bjerregaard
bjerringbro
bjerrum
bjo
bjælke
bjælker
bjærget
bjørn
bjørne
bjørnen
bjørnson
bjørnstjerne
bk
bkg
bl
bla
blaa
blabbermouth
blachman
black
blackburn
blackmore
blackpool
blackwell
blad
blade
bladene
bladet
bladets
bladhjørnerne
blaine
blair
blake
blanc
blanche
bland
blande
blandede
blander
blandes
blandet
blanding
blandingen
blandt
blank
blanke
blankt
blast
blavatsky
ble
bleg
blege
blekinge
blenheim
blev
bleve
bleven
blevet
blevne
bli
blicher
blid
blide
blidt
blik
blikke
blikket
blind
blinde
blink
blinkende
blir
bliss
blitz
bliv
blive
blivende
bliver
blixen
blizzard
blo
bloch
block
blod
blodbad
blodet
blodets
blodig
blodige
blodlegemer
blodprop
blodtryk
blog
blogs
blogspot
blok
blokade
blokaden
blokere
blokerede
blokeret
blokhus
blokke
blokken
blom
blomberg
blomst
blomsten
blomster
blomsterne
blomstre
blomstrede
blomstrende
blomstrer
blomstring
blomstringen
blond
blonde
blood
bloody
bloom
bloomberg
bloomsbury
blot
blotte
blottet
blow
blu
blue
blues
blume
blunt
blussede
bly
blyant
blæk
blændende
blæse
blæser
blæst
blæste
blæsten
blød
bløde
blødere
blødt
bm
bmc
bmg
bmi
bmw
bn
bne
bnede
bnedes
bnene
bner
bnes
bnet
bnets
bning
bningen
bninger
bnp
bo
board
boat
bob
bobby
boca
bock
bod
boder
bodies
bodil
bodilprisen
bodom
body
bodø
boe
boede
boeger
boeing
boel
boende
boer
boesen
boet
bog
bogen
bogens
bogense
bogform
boghandel
boghandels
boghandler
bogholder
bogs
bogsamling
bogstav
bogstavelig
bogstaveligt
bogstaver
bogstaverne
bogstavet
bogtrykker
bogtrykkeri
bogværket
bogø
bohr
bohusla
bois
boisen
boje
bojesen
bojsen
bok
bokma
boks
bokse
boksede
bokser
boksere
boksning
bold
bolde
bolden
boldklub
boldklubben
boldklubs
boldspil
bolette
boleyn
bolig
boligbyggeri
boligen
boliger
boligomra
bolivia
bolivias
bolle
boller
bollywood
bologna
bolsjevikkerne
bolt
bolton
bom
bomb
bombardement
bombardementet
bombardier
bombay
bombe
bombeangreb
bombefly
bomben
bomber
bombet
bombningen
bomuld
bon
bonanza
bonaparte
bond
bonde
bondega
bonden
bonds
bone
bones
bonn
bonne
bonnie
bonnier
bono
bonus
bonuses
boogie
book
booker
books
boom
boone
boost
boot
booth
boots
bopa
boplads
bopladsen
bopladser
bopæl
bor
bora
borch
bord
borde
bordeaux
border
bordet
bording
bordtennis
bore
borg
borge
borgen
borgens
borger
borgerdydskolen
borgere
borgerkrig
borgerkrigen
borgerlig
borgerlige
borgerligt
borgerne
borgernes
borgerrepræsentation
borgerrepræsentationen
borgerrettigheder
borgerskab
borgerskabet
borgmester
borgmesteren
borgmesterfakta
borgmesterposten
borgmestre
boring
boris
bork
born
bornemann
borneo
bornholm
bornholms
bornholmske
borough
borre
bort
borte
bortfaldt
bortført
bortset
borum
borup
borussia
bos
bosat
bosatte
bosch
bose
boserup
bosiddende
bosnien
bosnisk
bosniske
boss
bosse
boston
bosworth
bosætning
bosætte
bosættelse
bosættelsen
bosættelser
bosættere
bot
botanik
botaniker
botanisk
botaniske
botany
both
botswana
bottom
bouillon
boulevard
boulogne
boulton
bound
bounty
bourbon
bourgogne
bourne
bournemouth
bournonville
bov
bow
bowen
bowie
bowl
bowling
box
boxer
boxing
boxrec
boy
boyd
boydell
boye
boykot
boyle
boys
bp
br
bra
brabant
brabrand
brad
bradford
bradley
brady
brag
braga
bragg
bragt
bragte
brahe
brahes
brahms
brain
bramming
bramsen
branch
branche
branchen
brancher
brand
brande
branden
brandenburg
brandes
brandet
brandon
brands
brandt
brandts
brandvæsen
brandy
branner
brarup
brasen
brasil
brasiliansk
brasilianske
brasilien
brasiliens
brask
brass
brast
brat
bratislava
bratsch
bratte
braun
braunschweig
brav
brave
bravo
brazil
bre
break
breakfast
breaking
breaks
breakthrough
breathe
brecht
bred
breda
bredahl
bredba
bredde
breddegrad
breddekreds
bredden
bredder
brede
breder
bredere
bredeste
bredgade
bredning
bredsdorff
bredsted
bredt
bredte
bregentved
bregner
bregninge
breivik
bremen
bremse
bremser
brenda
brendan
brennan
brent
brescia
breslau
brest
bret
bretagne
brett
brev
breve
brevene
brevet
brevveksling
brewer
brexit
brian
briand
bricka
bride
bridge
bridges
brief
brien
brigade
brigadegeneral
brigaden
brigader
briggs
brigham
bright
brighton
brigitte
brik
brikker
brill
briller
brinch
brinck
bring
bringe
bringer
bringes
brink
brint
brisbane
bristol
brit
britain
britannia
britannica
britannien
briter
briterne
briternes
british
britisk
britiske
britney
britt
britta
brittany
brix
bro
broad
broadcast
broadcasting
broadway
broager
broberg
broby
brochure
brock
brockdorff
brockenhuus
broder
broderen
broders
broderskab
broen
broens
broer
broerne
brogede
broget
brohoved
brok
broken
bromwich
brondby
bronx
bronze
bronzealder
bronzealderen
bronzekampen
bronzemedalje
bronzemedaljer
bronzemedaljerne
brook
brooke
brooklyn
brooks
bror
brors
brorson
bros
brother
brothers
brovst
brown
browne
browning
browns
browser
brt
bru
bruce
brud
bruddet
bruden
brudstykker
brudt
brug
brugbar
brugbare
brugbart
bruge
brugen
bruger
brugere
brugeren
brugerne
bruges
brugge
brugt
brugte
brugtes
bruhn
brun
brune
brunei
bruno
brunswick
brunt
brussels
brutal
brutale
brutalitet
brutalt
bruun
bruuns
bruxelles
bryan
bryant
bryde
bryder
brydes
brydning
brygge
brygger
bryggeri
bryggerier
bryggeriet
bryghus
brygmann
bryllup
bryllupper
brylluppet
bryn
brynte
bryst
bryster
brystet
brædder
brædstrup
brækkede
brækket
brænde
brændende
brænder
brændes
brændevin
brændsel
brændstof
brændstoffer
brændt
brændte
bræt
brætspil
brættet
brød
brødet
brødre
brødrene
brøgger
brønd
brøndby
brønden
brønderslev
brøndsted
brøndum
brønnum
brønshøj
bs
bt
bte
bu
buble
buch
buchanan
buchwald
buck
buckingham
buckinghamshire
buckley
bud
budapest
buddha
buddhas
buddhism
buddhisme
buddhismen
buddhist
buddhister
buddhistisk
buddhistiske
buddinge
buddy
budget
budgettet
budo
budskab
budskabet
budt
budtz
bue
buede
buen
buenos
buer
bueskydning
buet
buffalo
bug
bugge
bugt
bugten
bugter
buhl
build
building
buildings
built
buk
bukarest
bukke
bukkede
bukser
bulgaria
bulgarien
bulgariens
bulgarsk
bulgarske
bull
bulldog
bullet
bulletin
bulls
bumble
bund
bunden
bundesen
bundesliga
bundesligaen
bundesstraße
bundet
bundgaard
bundne
bunds
bunke
bunker
bur
burde
bureau
burg
burger
burgess
burgund
burhan
burke
burkina
burma
burmeister
burn
burnham
burning
burns
burroughs
burt
burton
burundi
bury
bus
busch
busck
busfronten
bush
business
busk
buske
busken
buslinjer
bussen
busser
busserne
bussey
buste
buster
busterminal
but
butik
butikken
butikker
butikkerne
butler
butterfly
buxwv
buy
buzz
bwf
by
bybusser
byde
bydel
bydele
bydelen
bydelene
byder
bydistrikter
bydistriktet
bye
byen
byens
byer
byerne
byernes
byers
byfoged
byg
bygd
bygden
bygder
bygderne
bygge
byggede
byggedes
byggematerialer
bygger
byggeri
byggerier
byggeriet
bygges
byggeskik
bygget
bygherre
bygmester
bygning
bygningen
bygningens
bygninger
bygningerne
bygnings
bygningsinspektør
bygningsregistrering
bygningsværk
bygningsværker
byhistorie
bymidte
bymur
bymuren
bymæssig
bymæssige
byomra
byplan
byplanlægning
byport
byra
byrd
byrde
byret
byretten
byrettigheder
byrne
byron
bys
bysamfund
bystater
bystatus
bystyret
bytrafik
bytte
byttede
byttedyr
byttet
byudvikling
byudviklingen
byudviklingsplan
byva
byzans
byzantinerne
byzantinsk
byzantinske
byzantium
bz
bæger
bæk
bække
bækken
bælt
bælte
bælter
bælterne
bæltet
bænk
bænke
bænken
bær
bære
bæredygtig
bæredygtige
bæredygtighed
bæredygtigt
bærende
bærer
bæres
bærum
bød
bøde
bøder
bødker
bøg
bøge
bøger
bøgerne
bøgeskov
bøgh
bøhmen
bøje
bøjede
bøjer
bøjes
bøjet
bøjning
bøl
bølge
bølgelængde
bølgelængder
bølgen
bølger
bølgerne
bølget
bølle
bøn
bønder
bønderne
bøndernes
bønnen
bønner
bør
børge
børglum
børn
børne
børnebog
børnebøger
børnebørn
børnefilm
børnehave
børnehaven
børnehaver
børnehjem
børnehjemmet
børnehuset
børnene
børnenes
børns
børs
børsen
børsnoteret
bøsse
c
ca
cabaret
cabinet
cable
cabriolet
cactus
cadillac
caen
caesar
caf
cafe
cage
cai
cairo
calabrien
calais
calcio
calcium
calcutta
caldwell
calendar
calgary
california
californien
call
called
calling
calls
calvin
cam
cambodia
cambodja
cambridge
camden
came
camelot
cameo
camera
cameron
cameroun
camilla
camille
camp
campaign
campaigns
campbell
camping
campingplads
campo
campus
can
canada
canadas
canadian
canadierne
canadisk
canadiske
canal
canberra
cancer
cand
candidate
candy
cannabis
cannes
cannon
canoe
canon
canoo
canterbury
canton
canyon
cao
cap
cape
capital
capitol
capo
cappelen
captain
capture
capua
car
carbon
card
cardiff
cards
care
career
carey
cargo
caribbean
caribien
caribiske
carina
carit
carl
carla
carlisle
carlo
carlos
carlsberg
carlsbergfondet
carlsen
carlsson
carlton
carly
carmen
carnegie
carol
carole
carolina
caroline
carolyn
carpenter
carr
carrie
carrier
carroll
carry
cars
carson
carsten
carstens
carstensen
carta
carter
cartographie
cartoon
cas
casa
casablanca
case
cases
casey
cash
casino
caspar
casper
cassidy
cassino
cast
castel
castell
castello
castenschiold
castet
casting
castle
castles
castro
cat
catalanes
catalansk
catalanske
catalina
catalog
catalogue
catalonien
catch
category
catharina
cathedral
catherine
catholic
cathrine
cato
cats
cause
causes
cave
cavendish
cb
cbc
cbs
cc
cd
cdot
cdu
ce
cecil
cecilia
cecilie
cedar
cedric
celebration
celebrity
celestia
celestial
cell
celle
cellen
celler
cellerne
cello
cells
celsius
celtic
cembalo
cement
cemetery
cena
censor
censur
censuren
census
cent
center
centeret
centers
centimeter
central
centralasien
centralbank
centralbyra
centrale
centraleuropa
centraliseret
centralkomite
centralnervesystemet
centralt
centre
centreret
centret
centrum
centuries
century
ceo
ceremoni
ceremonielle
ceremonien
ceremonier
ceremony
ceres
cern
cerrone
certain
certifications
certificeret
certificeringer
certified
cesare
cessna
ceylon
cf
cgi
ch
cha
chad
chain
chair
challenge
challenger
challenges
chamber
chamberlain
chambers
champagne
champion
championnat
champions
championship
championships
champs
chan
chance
chancen
chancer
chandler
chandra
chanel
chang
change
changed
changes
changing
channel
chao
chaos
chapel
chaplin
chapman
chapter
character
characteristics
characters
charge
charing
charity
charles
charleston
charley
charlie
charlotte
charlottenborg
charlottenburg
charlottenlund
charlton
charme
charmerende
chart
charter
charts
chase
chassis
chat
chaucer
chauffør
chauvel
che
check
chef
chefen
chefer
chefredaktør
cheftræner
chelsea
chem
chemical
chemistry
chemnitz
chen
chengdu
cher
cherokee
cherokeserne
cherry
chess
chester
chevalier
chevalley
chevrolet
cheyenne
chi
chiang
chicago
chick
chicken
chico
chief
chiefs
chikane
child
children
chile
chilensk
chilenske
chiles
chili
china
chinese
ching
chip
chips
chloe
cho
chocolate
choice
choir
chok
chokolade
choose
chopin
chopins
chr
chris
christ
christen
christensen
christensens
christer
christi
christian
christiane
christiania
christianias
christianity
christians
christiansborg
christiansen
christiansfeld
christianshavn
christianshavns
christiansø
christie
christina
christine
christmas
christoffer
christoffersen
christoph
christophe
christopher
christophersen
christus
chronicle
chronicles
chronology
chrysler
chu
chuck
chung
church
churchill
ci
cia
cicero
cid
cie
ciffer
cifre
cifrene
cigar
cigarer
cigaretter
cijas
cincinnati
cindy
cine
cinema
cio
circle
circuit
circus
cirka
cirkel
cirkeline
cirklen
cirkler
cirkulær
cirkulære
cirkus
cirkusrevyen
cis
citadel
citat
citater
citatet
citation
cite
citerede
citerer
citeret
cities
citizen
citroe
citron
city
citypopulation
cityringen
citys
ciudad
civic
civil
civile
civilingeniør
civilisation
civilisationen
civilisationer
civilization
civilt
ck
cke
cken
cker
cksborg
ckstadt
cl
cla
claes
claim
claims
clair
claire
clancy
clapton
clara
clare
clarence
clarendon
clark
clarke
clarkson
clash
class
classement
classic
classical
classics
classification
claude
claudia
claudine
claudio
claudius
claus
clausen
clausens
claussen
clav
clay
clayton
cle
clean
clear
clemens
clement
clementine
clements
clemmensen
cleopatra
clermont
cleveland
click
cliff
clifford
climate
clinical
clint
clinton
clio
clive
clock
close
closer
cloud
club
clubs
clyde
cm
cn
cnn
co
coach
coal
coast
cobra
coburg
coca
cochrane
cockpit
cockpittet
cocks
coco
code
coded
codex
cody
coffee
cognitive
cohen
cohn
col
cola
colbert
cold
colding
coldplay
cole
coleman
colin
collected
collection
collections
college
collin
collins
colo
colombia
colombiansk
colombianske
colonel
colonial
colony
color
colorado
colour
colt
columbia
columbus
com
combat
combi
combined
come
comeback
comedy
comers
comes
comic
comics
coming
comingsoon
command
commander
commentary
commerce
commercial
commission
committee
commodore
common
commons
commonwealth
communication
communications
communist
communities
community
como
compact
compagnie
companies
companion
company
comparative
comparison
competition
compilation
complete
complex
composition
comprehensive
compton
computer
computere
computeren
computerspil
computerworld
computing
comte
comune
con
conan
concacaf
concept
concepts
concert
concerto
concise
conditions
confederation
confederations
conference
confessions
confirmed
confirms
conflict
congo
congress
connecticut
connection
connell
connie
connor
conor
conquest
conrad
cons
consciousness
conservation
conspiracy
constable
constance
constant
constantin
constantine
constitution
construction
consumer
contact
container
containere
contemporary
content
contents
contest
context
continental
continuum
contra
contract
contributions
control
convention
conversation
conway
cook
cooke
cool
coolidge
coop
cooper
cooperation
cop
copa
copenhagen
coppa
copy
copyright
cordelia
core
corey
corfitz
corgan
cork
cornelia
cornelis
cornelius
cornell
corner
cornwall
corona
coronavirus
coronaviruspandemien
corp
corporate
corporation
corps
corpus
corr
corrs
corsa
cort
cortex
cory
cos
cosimo
cosmic
cosmos
cost
costa
costello
cotton
could
council
count
counter
counties
countries
country
county
countys
coup
coupe
cour
courage
courier
course
court
courtney
cov
coventry
cover
coveret
covers
coverversion
coverversioner
covid
cowboy
cowboys
cox
coxed
coxless
cp
cph
cpr
cpu
cr
cradle
craft
craig
cramer
crane
crash
crater
craters
crawford
crazy
crc
cre
cream
create
created
creation
creative
creator
credit
credits
creed
creek
creme
crew
cricket
crime
crimes
criminal
crimson
crisis
cristian
cristina
cristo
critical
critics
critique
croatia
crockett
croft
croix
cromwell
crone
crosby
cross
crossing
crow
crowley
crown
cru
cruise
crusade
crusades
crust
cruz
cry
crystal
cs
csc
csi
cska
css
csu
ct
ctor
cu
cub
cuba
cubansk
cubanske
cubas
cullen
cult
cultural
culture
cum
cumberland
cummings
cunningham
cup
cupen
cuppen
cupturnering
cure
curie
curlie
curling
current
curry
curse
curt
curtis
cut
cuxhaven
cv
cvr
cw
cy
cycle
cyclebase
cycling
cyclingnews
cykel
cykelcross
cykelhold
cykelløb
cykelløbet
cykelrytter
cykelsiderne
cykelsti
cykle
cyklede
cyklen
cykler
cykling
cyklister
cyklus
cylinder
cylindre
cynthia
cypern
cyprus
cyril
cyrus
cz
czech
cæsar
cæsars
d
da
daa
daarlig
daarligt
dab
dachau
dacia
dad
daddy
daewoo
daf
daft
dag
dagblad
dagblade
dagbladet
dagblads
dagbog
dagbøger
dage
dagen
dagene
dagens
dages
daggry
daglig
dagligdagen
dagligdags
daglige
dagligstuen
dagligt
dagmar
dagmarteatret
dags
dagslys
dagsommerfugle
dagsorden
dagsordenen
dagtimerne
dahl
dahlerup
dai
daily
daimler
daisuke
daisy
dakota
dal
dalai
dalarna
dalby
dale
dalen
dalene
daler
dalgaard
dalgas
dali
dall
dallas
dalsgaard
dalton
dalum
daly
dam
damage
damallsvenskan
damaskus
dame
damedouble
dameha
damen
damer
damerne
damernes
damesingle
damgaard
damien
damm
damme
damon
damp
dampmaskine
dampskib
dampskibe
damsgaard
dan
dana
dance
dancer
dancing
dane
danerne
danes
danfoss
danger
dangerous
dani
dania
danica
daniel
danielle
daniels
danielsen
danilo
danish
danishcharts
danmark
danmarks
danmarkshistorie
danmarkshistorien
danmarkskirker
danmarksmester
danmarksmesterskab
danmarksmesterskabet
danmarksserien
danmarksturneringen
danne
dannebrog
dannebrogordenen
dannebrogsmand
dannede
dannedes
dannelse
dannelsen
danner
dannes
danneskiold
dannet
dannevirke
danny
danorum
dans
danse
dansede
dansen
dansende
danser
dansere
dansk
danske
danskefilm
danskefilmstemmer
dansker
danskere
danskeren
danskerne
danskernes
danskfilmogtv
danskfodbold
dant
dante
dantes
danzig
daphne
dar
dareios
darfur
darin
dario
dark
darkness
darling
darmstadt
darren
darth
darwin
darwins
das
dash
dass
dat
data
database
databasen
databaseolympics
databaser
datalogi
datanet
date
daterer
dateres
dateret
datering
dates
datidens
dating
dativ
dato
datoen
datoer
datoværdier
datter
datteren
datters
datterselskab
datterselskaber
datterselskabet
daugaard
daughter
dauphine
dave
davenport
david
davids
davidsen
davidson
davies
davis
davy
daværende
dawkins
dawn
dawson
day
days
dazu
db
dbl
dbnl
dbu
dbus
dc
dce
dcj
dcu
dd
ddo
ddr
de
dead
deadline
deadly
deal
dean
dear
death
debat
debate
debatten
debatter
debattør
debbie
deborah
debussy
debut
debutalbum
debutalbummet
debuten
debuterede
debutroman
debutsæson
dec
decade
decca
december
decideret
decision
declaration
decline
dede
dedikerede
dedikeret
dee
deel
deels
deep
def
default
defence
defender
defense
defensiv
defensive
definere
definerede
definerer
defineres
defineret
definition
definitionen
definitioner
definitive
definitivt
degli
degn
dehavn
dehn
dei
deilig
deilige
dej
dejen
dejlig
dejlige
dejligt
dekan
deklination
dekoration
dekorationer
dekorative
dekorerede
dekoreret
dekret
del
delaney
delaware
dele
delegation
delegerede
delen
delene
deler
deles
delfi
delfin
delfiner
delft
delhi
deling
delingen
dell
della
delle
dels
delstat
delstaten
delstatens
delstater
delstaterne
delt
delta
deltaet
deltage
deltagelse
deltagelsen
deltagende
deltager
deltagere
deltagerne
deltaget
delte
deltes
deltog
deluxe
delvis
delvist
dem
demand
demens
demi
demo
democracy
democratic
demografi
demografico
demografiske
demokrat
demokraten
demokrater
demokraterne
demokrati
demokratiet
demokratiets
demokratisk
demokratiske
demon
demonstranter
demonstranterne
demonstration
demonstrationen
demonstrationer
demonstrationerne
demonstrere
demonstrerede
demonstrerer
demonstreret
dempsey
den
denborg
dende
dene
deng
dengang
denis
denise
denmark
denne
dennes
dennis
dens
density
denstoredanske
denver
deo
departement
departementer
departementet
departementschef
department
deporteret
deportivo
depot
depp
depression
depressionen
deputeret
der
deraf
derby
derefter
derek
deres
derfor
derfra
derhen
derhjemme
derhos
deri
deriblandt
derigennem
derimod
derind
derinde
dermed
derne
derned
dernede
dernæst
derom
derop
deroppe
derover
derovre
derpa
derpaa
ders
dersom
derta
dertil
derude
derudover
derunder
derved
des
descartes
description
desert
design
designe
designede
designer
designere
designet
designs
desire
deskriptive
desmond
desperat
desperate
dessau
destation
destination
destinationer
destiny
desto
destroyer
destroyere
destruction
destyrker
desuden
desværre
det
detail
detailed
details
detalje
detaljer
detaljerede
detaljeret
detaljerne
detective
detektiv
detlev
detroit
dets
dette
dettes
deutsch
deutsche
deutschen
deutscher
deutsches
deutschland
deutschlands
deux
dev
development
device
devices
devil
devils
devon
dewey
dexter
df
dfb
dfds
dfi
dgi
dgivende
dgiver
dgivere
dgivning
dh
dhabi
dharma
dhdb
dhf
dhus
dhuset
dhuspladsen
di
dia
diabetes
diagnose
diagnosen
diagnosis
diagnosticeret
diagram
dialekt
dialekten
dialekter
dialog
dialogen
diamant
diamanter
diameter
diamond
diamonds
diana
diane
diaries
diarre
diary
diaz
dicaprio
diccionario
dich
diciona
dick
dickens
dickinson
dickson
dictionaries
dictionary
did
didier
didn
didrik
die
died
diego
diem
dies
diesel
dieselmotor
dieselmotoren
dieselmotorer
dieter
dietrich
dif
difference
different
diffusion
dig
dige
diger
diget
dighed
digital
digitale
digitales
digitaliserede
digitaliseret
digitalisering
digitalt
digt
digte
digtene
digter
digtere
digteren
digterens
digtet
digtning
digtsamling
digtsamlingen
digtsamlinger
diktator
diktatur
dilemma
dillon
dimension
dimensioner
dimitterede
dimitteredes
dimitteret
din
dina
dinamo
dine
dinesen
ding
dino
dinosaur
dinosaurer
dio
diode
dion
diplom
diplomat
diplomater
diplomati
diplomatisk
diplomatiske
dir
dirch
direct
direction
directions
director
directors
directory
direkte
direktion
direktionen
direktiv
direktoratet
direktør
direktøren
direktører
dirigent
dirigerede
dirigeret
dirk
dirty
dis
disaster
disc
discipel
disciple
disciplene
disciplin
disciplinen
discipliner
disco
discography
discogs
discovered
discovery
discussion
disease
diseases
disk
diskografi
diskoskast
diskret
diskrimination
diskussion
diskussionen
diskussioner
diskutere
diskuterede
diskuterer
diskuteres
diskuteret
diskvalificeret
disney
disneys
disorder
disorders
dispensation
display
displaystyle
disposition
disputats
disse
disses
dissing
distance
distancen
distancer
distinguished
distribueres
distribueret
distribution
district
distrikt
distrikter
distriktet
distriktets
dit
dithmarschen
ditions
ditlev
ditlevsen
ditmarsken
ditte
diu
div
diva
diverse
diversitet
diversity
divine
divisio
division
divisionen
divisioner
divisionerne
divisions
divisionsklubben
dixon
dizzy
dj
djengis
djibouti
djokovic
djurga
djurhuus
djurs
djursland
djvu
djævel
djævelen
djævelens
djævle
djøf
dk
dkk
dkp
dl
dløs
dløse
dm
dma
dmand
dmi
dmitrij
dn
dna
dne
dnepr
dnf
dning
dns
dnsap
do
dobbelt
dobbelte
dobbeltfirer
dobbeltsculler
dobbeltspor
dobbeltturnering
doc
docent
doctor
document
documentary
documentation
documents
dodge
does
doesn
dof
dog
doge
dogg
dogme
dogmer
dogs
doherty
doi
dok
doktor
doktoren
doktorgrad
doktorgraden
doktrin
doktrinen
dokument
dokumentar
dokumentaren
dokumentarfilm
dokumentarfilmen
dokumentarisk
dokumentarserie
dokumentation
dokumenter
dokumentere
dokumenterede
dokumenterer
dokumenteret
dokumenterne
dokumentet
dollar
dollars
dollerup
dollfus
dolls
dolly
dolores
dolph
dom
domain
dome
domenico
domesday
domestic
domicil
dominans
dominere
dominerede
dominerende
dominerer
domineres
domineret
domingo
dominic
dominikanske
dominique
domino
domkirke
domkirken
domme
dommedag
dommen
dommer
dommere
dommeren
dommerne
domprovsti
domra
domstol
domstole
domstolen
domstolene
domstolens
domus
domæne
domæner
don
donald
donation
donationer
donau
done
donerede
doneret
donetsk
dong
donna
donnell
donovan
dons
donsker
doo
doom
door
doors
doping
dora
dorian
doris
dorothea
dorothy
dorph
dorset
dorte
dorthe
dorthea
dortmund
dos
doser
dosis
dot
dots
douard
double
doubleday
doubles
doug
douglas
dover
down
downing
download
downloade
downloades
downloads
downs
doyle
dp
dr
dra
drab
drabene
drabet
drachmann
draco
dracula
draft
drag
drage
dragen
drager
drages
draget
dragon
dragoner
dragonregiment
dragons
dragsholm
dragt
dragter
dragør
drak
drake
drama
dramaer
dramaet
dramafilm
dramaserie
dramatic
dramatik
dramatiker
dramatisk
dramatiske
drammen
drastisk
draw
draws
dre
dreadnought
dream
dreams
dreamworks
drei
dreje
drejede
drejer
drejes
drejet
drejning
drejningsmoment
dreng
drenge
drengen
drengenavn
drengene
drengens
drenthe
dresden
drev
drevet
drevne
drew
drewsen
dreyer
dreyfus
drift
driften
driftsa
drik
drikke
drikken
drikker
drikkevand
drikkevarer
drink
dristig
dristige
drive
drivende
driver
drives
drivhusgasser
drivkraft
dro
drog
drone
dronning
dronningen
dronningens
dronninger
dronninglund
drop
dropkick
droppe
droppede
dropper
droppet
drs
druer
drug
drugs
druk
drukket
drukne
druknede
druknet
drum
dry
dræbe
dræber
dræbes
dræbt
dræbte
dræby
drøfte
drøm
drømme
drømmen
drømmer
drømt
drømte
ds
dsb
dsformand
dsm
dsmedlem
dst
dsu
dt
dte
dtu
du
dua
dub
dubai
dublin
dubliners
duc
duck
dudley
due
dueholm
duel
duer
duet
duff
duffy
duft
duftende
dug
duisburg
duke
dukke
dukkede
dukker
dukket
dum
dumas
dumbledore
dumhed
dumme
dumt
dun
duncan
duncker
dundee
dunja
dunkerque
dunkle
dunn
dunst
duo
duoen
dupont
dur
duran
durch
durham
during
dus
dusin
dust
dustin
dutch
dutchcharts
duty
duus
dvale
dvb
dvd
dvs
dværg
dværge
dw
dwight
dx
dy
dyb
dybbøl
dybde
dybden
dybder
dybe
dybere
dybest
dybeste
dybet
dybt
dybtga
dybvad
dyd
dyder
dygtig
dygtige
dygtighed
dygtigste
dygtigt
dying
dyke
dykke
dykker
dylan
dynamic
dynamics
dynamik
dynamisk
dynamiske
dynamit
dynamo
dynasti
dynastier
dynastiet
dynastiets
dynasty
dyr
dyre
dyrearter
dyrehave
dyrehaven
dyreliv
dyrelivet
dyrene
dyrenes
dyrere
dyreste
dyret
dyrets
dyreverden
dyrholm
dyrke
dyrkede
dyrkelse
dyrker
dyrkes
dyrket
dyrkning
dyrkningsformen
dyrkningssystemer
dyrlæge
dyrs
dyrt
dyster
dystre
dz
dæk
dække
dækkede
dækkende
dækker
dækkes
dækket
dækning
dæmning
dæmningen
dæmninger
dæmon
dæmoner
dæmpe
dæmpet
dø
døbe
døbefont
døbefonten
døbt
døbte
død
dødbringende
døde
dødelig
dødelige
dødelighed
dødeligt
døden
dødens
dødes
dødsa
dødsbo
dødsfald
dødsleje
dødsmetal
dødsregalierne
dødsriget
dødsstraf
dødt
døende
døgn
døgnet
dømme
dømmende
dømmer
dømmes
dømt
dømte
dør
døre
døren
dørene
dørs
døtre
døtrene
døve
e
ea
each
eagle
eagles
earl
early
earth
earthquake
east
easter
eastern
eastwood
easy
eat
eau
eb
ebba
ebbe
ebbesen
ebeltoft
eberhard
ebert
ebog
ebu
ec
ece
echo
eckersberg
eclipse
eco
ecology
economic
economics
economist
economy
ecuador
ecw
ed
edb
edda
edderkopper
eddie
eddike
eddikesyre
eddy
ede
edel
eden
eder
eders
edessa
edgar
edge
edinburgh
edison
edit
edited
edith
edition
editions
editor
editors
edmond
edmonton
edmund
edna
edo
edouard
eds
edson
edu
eduard
eduardo
education
educational
edvard
edvards
edward
edwards
edwin
ee
een
eengang
eesti
eet
ef
efb
effect
effects
effekt
effekten
effekter
effektiv
effektive
effektivitet
effektivt
efter
eftera
efterat
efterforskning
efterforskningen
efterfulgt
efterfulgte
efterfulgtes
efterfølge
efterfølgende
efterfølger
efterfølgere
efterfølgeren
efterfølges
efterha
efterhaanden
efterkommer
efterkommere
efterkrigstiden
efterkrigstidens
efterlade
efterlader
efterladt
efterladte
efterligne
efterligning
efterlod
eftermiddag
eftermiddagen
eftermæle
efternavn
efternavnet
efterretning
efterretninger
efterretningstjeneste
efterskole
efterskolen
efterskrift
efterslægt
eftersom
efterspurgt
efterspørgsel
efterspørgslen
eftersøgning
eftertiden
eftertragtede
eftertragtet
eg
ega
ege
egebjerg
egedal
egede
egelund
egen
egenlig
egenskab
egenskaber
egentlig
egentlige
egentligt
egern
egernførde
egeskov
eget
egetræ
eggers
eggert
egholm
egil
egmont
egn
egne
egnede
egnen
egnens
egner
egnet
ego
egon
egtved
egypt
egypten
egyptens
egyptian
egyptisk
egyptiske
eh
ehf
ehlers
ei
eicher
eichmann
eidsvoll
eiendom
eight
eights
eigil
eik
eileen
eiler
ein
einar
eindhoven
eine
einem
einer
eines
einstein
einsteins
eintracht
eirik
eisenach
eisenhower
eivind
ej
ejby
ejderen
ejdersted
eje
ejede
ejedes
ejendele
ejendom
ejendomme
ejendommelig
ejendommelige
ejendommen
ejendomsret
ejer
ejere
ejeren
ejerlav
ejerne
ejerskab
ejerskabet
ejes
ejet
ejler
ejnar
ejner
ejvind
ek
ekeby
ekko
ekman
eks
eksamen
eksempel
eksempelvis
eksemplar
eksemplarer
eksempler
eksemplet
eksil
eksistens
eksistensen
eksistentiel
eksistentielle
eksistere
eksisterede
eksisterende
eksisterer
eksisteret
ekskl
ekskluderet
eksklusiv
eksklusive
eksklusivt
eksotiske
ekspanderede
ekspansion
ekspedition
ekspeditionen
ekspeditionens
ekspeditioner
eksperiment
eksperimentalfilm
eksperimentel
eksperimentelle
eksperimenter
eksperimentere
eksperimenterede
eksperimenterende
eksperimentet
ekspert
eksperter
ekspertise
eksplicit
eksploderede
eksploderer
eksplosion
eksplosionen
eksplosioner
eksport
eksporten
eksporteret
ekstern
eksterne
ekstra
ekstrabladet
ekstraordinær
ekstraordinære
ekstraordinært
ekstraudstyr
ekstrem
ekstreme
ekstremt
el
elaine
elbe
elben
elberling
elbæk
elder
eleanor
elected
election
elections
electric
electro
electronic
electronica
electronics
elefant
elefanten
elefanter
elefantordenen
elegance
elegant
elegante
elektra
elektricitet
elektrificeret
elektrisk
elektriske
elektromagnetisk
elektromagnetiske
elektron
elektroner
elektronik
elektronisk
elektroniske
element
elementary
elementer
elementerne
elements
elena
elendig
elendige
elendighed
eleonora
eleonore
elephant
elev
elevator
elevatorer
elevbog
eleven
elever
eleverne
elevernes
elevra
elevskole
elf
elfenben
elfenbenskysten
elfsborg
elg
eli
elias
eliasen
elig
elige
eligt
elijah
eliminere
elimineret
elin
eliot
elis
elisa
elisabet
elisabeth
elise
elite
elitedivisionen
eliten
eliteprospects
eliteserien
elith
eliza
elizabeth
elkjær
ell
ella
elle
ellegaard
ellemann
ellen
eller
ellers
elleve
ellevte
ellie
elling
elliot
elliott
elliptiske
ellis
elm
elmer
elo
elsa
elsass
else
elsebeth
elsen
elser
elsevier
elske
elskede
elskende
elsker
elskerinde
elsket
elskov
elskværdig
elster
elton
elv
elve
elven
elvere
elvira
elvis
em
email
emanuel
embassy
embede
embeder
embedet
embedseksamen
embedsmand
embedsmanden
embedsmænd
embedsperiode
emblem
emdrup
emergency
emerging
emeritus
emerson
emi
emigrerede
emil
emile
emilia
emilie
emilio
emily
eminem
emir
emirater
emirates
emma
emmanuel
emmeline
emmy
emne
emner
emnerne
emnet
emperor
empire
empires
empirisk
empiriske
ems
emu
en
ena
enciclopedia
encyclopaedia
encyclopedia
encyclopædia
encyklopædi
end
endda
ende
endeavour
endegyldigt
endelig
endelige
endeligt
endelsen
endemiske
enden
ender
endestation
endestationen
endestillede
ending
endnu
endog
endogsaa
ends
endt
endte
endvidere
ene
enedes
eneejer
enemark
enemy
eneret
energi
energien
energisk
energiske
energy
enes
enesta
eneste
enevold
enevælde
enevælden
enevældens
enevældige
eng
engagement
engagere
engagerede
engageret
engang
engberg
enge
engel
engelbrecht
engell
engels
engelsk
engelske
engelsksprogede
engelsksproget
engelsktalende
engelstoft
engen
engene
enghave
engine
engineer
engineering
engineers
england
englands
englantilainen
engle
englen
englene
english
englænder
englændere
englænderen
englænderne
englændernes
enhed
enheden
enheder
enhederne
enhedslisten
enhver
enig
enige
enighed
enigma
enke
enkedronning
enkel
enkelt
enkelte
enkeltes
enkeltheder
enkeltpersoner
enkeltsta
enkeltstart
enkeltturnering
enkeltvis
enkemand
enken
enker
enkle
enklere
enlig
enlige
enorm
enorme
enormt
enough
enrico
enrique
ens
ensartede
ensartet
ensbetydende
ensemble
ensemblet
ensidig
ensom
ensomhed
ensomheden
ensomme
ensomt
enstemmig
enstemmigt
ental
enten
enter
enterprise
entertainer
entertainment
entre
entreprenør
entry
entydig
entydigt
environment
environmental
enya
enzo
enzym
enzymer
enzymet
ep
epic
epidemi
epidemier
epilog
episk
episke
episode
episoden
episoder
epitafium
epoke
epos
epsilon
epstein
equipment
er
era
erasmus
ere
eren
erfare
erfarede
erfaren
erfaring
erfaringer
erfaringerne
erfarne
erfurt
erhard
erholdt
erhverv
erhverve
erhvervede
erhvervet
erhvervs
erhvervsdrivende
erhvervsleder
erhvervsliv
erhvervslivet
erhvervsmand
erhvervsøkonomi
eric
erica
erich
erichsen
erickson
ericsson
erik
erika
eriks
eriksen
eriksson
erin
erindre
erindrer
erindring
erindringen
erindringer
eritrea
erkende
erkendelse
erkender
erkendt
erkendte
erklære
erklærede
erklærer
erklæres
erklæret
erklæring
erklæringen
erklæringer
erland
erlangen
erling
erna
erne
ernes
ernest
ernesto
ernst
ernærede
ernæring
erobre
erobrede
erobrer
erobreren
erobret
erobring
erobringen
erobringer
eroderet
eros
erosion
erotik
erotisk
erotiske
errol
ers
erslev
erslew
erstatning
erstatte
erstattede
erstatter
erstattes
erstattet
erwin
es
esa
esajas
esben
esbjerg
esc
escape
escobar
eskadre
eskadrille
eskadriller
eskadron
eske
eskil
eskild
esp
espan
espen
esperanto
espergærde
espersen
espn
esrum
essay
essays
essen
essential
essentielle
essex
est
esta
estadio
estate
este
ester
esther
estimates
estimeret
estisk
estiske
estland
estlands
estonia
estridsen
estrup
et
eta
etablere
etablerede
etableredes
etablerer
etableres
etableret
etablering
etableringen
etage
etager
etagers
etape
etapeløb
etapen
etaper
etapesejr
etapesejre
etatsra
etc
eternal
ethan
ethanol
ethel
ethics
ethnic
ethnologue
ethvert
etienne
etik
etiopien
etiopiske
etisk
etiske
etnicitet
etnisk
etniske
etnografiske
ett
etter
etymologi
etymologisk
eu
euge
eugen
eugene
eugenius
eur
eurasien
euro
euroen
eurohandball
europa
europamester
europamesterskab
europamesterskabet
europaparlamentet
europara
europas
europavej
europe
european
europæer
europæere
europæerne
europæisk
europæiske
eurosport
eurovision
eurovoix
eus
euston
ev
eva
evakuere
evakueret
evakuering
evakueringen
evald
evaluation
evaluering
evan
evangelier
evangelierne
evangeliet
evangelisk
evangeliske
evangelium
evans
eve
evelyn
even
evening
event
eventor
events
eventuel
eventuelle
eventuelt
eventyr
eventyrer
eventyret
eventyrland
ever
everest
everett
evert
everton
every
everybody
everyone
everything
evic
evidence
evidens
evig
evige
evighed
evigheden
evigt
evil
evne
evnen
evner
evolution
evolutionary
evp
evt
ewald
ewen
ex
exam
examen
example
excellence
exchange
exclusive
executive
exempel
exeter
exhibition
exile
exit
exner
exodus
exp
expansion
expedition
experience
experiment
experimental
expert
exploration
explorer
exploring
expo
exposition
express
expressen
extended
extension
extinction
extra
extreme
ey
eye
eyed
eyes
eysturoy
eyvind
ez
ezra
f
fa
faa
faaborg
faae
faaer
faaet
faar
faber
fabian
fabio
fabricius
fabrik
fabrikant
fabrikanten
fabrikanter
fabrikation
fabrikken
fabrikkens
fabrikker
fabrikkerne
fabritius
facade
facaden
facader
face
facebook
facebookkonto
facelift
faceliftet
faces
faciliteter
facon
fact
factbook
facto
factor
factory
facts
faculty
fad
fade
fader
faderen
faderens
faders
fag
fagene
faget
fagfolk
fagforbund
fagforening
fagforeninger
fagkendskab
faglig
faglige
fagligt
faglitteratur
fagomra
fahrenheit
fair
faire
faith
fake
fakse
fakta
faktaark
faktisk
faktiske
faktor
faktorer
faktum
fakultet
fakulteter
fakultetet
falbe
falch
falck
falco
falcon
fald
falde
falden
faldende
falder
faldet
faldne
faldskærm
faldskærmstropper
faldt
falk
falkenberg
falklandsøerne
fall
fallen
falling
fallit
falls
false
falsen
falsk
falske
falster
falsters
falun
fame
familia
familie
familiefilm
familiemedlemmer
familien
familiens
familier
familierne
families
familjebok
family
famous
fan
fanden
fandt
fandtes
fane
faner
fang
fange
fangede
fangen
fangenskab
fanger
fangerne
fanges
fanget
fangst
fangsten
fanklub
fanny
fans
fantasi
fantastic
fantastisk
fantastiske
fantasy
fanø
faq
far
farao
farbroder
farbror
fare
faren
farens
farer
farewell
farfar
farlig
farlige
farligste
farligt
farm
farmaceutiske
farmer
farmor
faroe
farooq
farrell
fars
farsø
fart
farten
fartøj
fartøjer
fartøjet
farum
farvand
farvande
farvandet
farve
farveblanding
farvede
farveindexet
farvel
farven
farver
farverige
farverne
farvet
fascinerende
fascineret
fascisme
fascistiske
fase
faser
fashion
faso
fast
fastboende
faste
faster
fastere
fastgjort
fasthed
fastholde
fastholder
fastholdes
fastholdt
fastlagde
fastlagt
fastland
fastlandet
fastlægge
fastlægger
fastsat
fastsatte
fastsla
fastslog
fastsætte
fastsætter
fastsættes
fat
fatal
fatale
fate
father
fatte
fattede
fatter
fattet
fattig
fattigdom
fattige
fattigste
fattigt
fatty
fauna
fausbøll
faust
favn
favorit
favorite
favoritter
favoritterne
favrskov
faxe
fay
faye
fb
fbi
fc
fci
fck
fcm
fcn
fdf
fdm
fdn
fdp
fe
fear
feat
feature
features
featuring
feb
feber
febr
februar
february
fed
feddersen
fede
federal
federation
federer
federico
federspiel
fedt
fedtsyrer
feed
feedback
feel
feeling
feet
feil
feilberg
fejde
fejl
fejlagtige
fejlagtigt
fejlen
fejlslagne
fejltagelse
fejre
fejrede
fejrer
fejres
fejret
fejring
fejringen
feldbæk
felice
felipe
felix
fellow
felt
felten
felter
feltet
feltmarskal
felttog
felttoget
fem
fema
female
femdørs
femern
feminin
feminisme
feminist
feministisk
femkamp
femme
femte
femtedel
femten
femteplads
femtepladsen
fender
feng
fenger
fer
ferdinand
ferguson
ferie
ferna
fernandes
fernandez
fernando
ferrante
ferrara
ferrari
ferreira
ferry
fersk
ferskvand
fest
festen
fester
festival
festivalen
festivaler
festlige
festskrift
feudale
fever
few
feyenoord
ff
fh
fhv
fi
fia
fiasko
fiat
fiber
fibiger
fibre
fiction
fide
fidel
field
fields
fifa
fifth
fifty
fig
figaro
fight
fighter
fighters
fighting
figur
figure
figuren
figurer
figurerne
figures
fiji
fik
fiktion
fiktiv
fiktive
fiktivt
fil
filantrop
file
filen
filer
files
filial
filialer
filialkirke
filip
filippinerne
filippinske
filippo
filips
film
filmaffinity
filmatiseret
filmatisering
filmatiseringen
filmdatabas
filmdatabase
filmdatabasen
filmdatabaser
filmdebut
filme
filmen
filmene
filmens
filmet
filmfestival
filmfestivalen
filmfotograf
filminstitut
filminstituts
filminstruktør
filminstruktøren
filmmagasinet
filmmusik
filmpris
filmproducent
filmproducer
films
filmskole
filmskuespiller
filolog
filologi
filosof
filosoffen
filosoffer
filosofi
filosofien
filosofiens
filosofikum
filosofisk
filosofiske
filter
fin
fina
final
finale
finalen
finaler
finalerne
finalesejr
finalist
finalister
finally
finals
finance
financial
finans
finanser
finansiel
finansielle
finansiere
finansierede
finansieres
finansieret
finansiering
finansieringen
finanskrisen
finanslov
finansloven
finansminister
finansministeriet
finansudvalget
finantsloven
find
finde
finder
finderup
findes
finding
finds
fine
finere
fineste
finger
fingeraftryk
fingeren
fingre
fingrene
fink
finland
finlands
finn
finner
finnerne
finnish
finnmark
finnur
finsen
finsk
finske
fint
fiona
fiorentina
fire
firea
firefly
firefox
firehjulstræk
firenze
firer
fires
firkant
firkantede
firkantet
firma
firmaer
firmaet
firmaets
first
firstcycling
firth
fis
fisa
fischer
fish
fisher
fisk
fiske
fisken
fiskene
fisker
fiskere
fiskeri
fiskeriet
fiskerleje
fiskerlejer
fiskerne
fit
fitness
fitzgerald
five
fix
fja
fjeld
fjelde
fjeldet
fjende
fjenden
fjendens
fjender
fjenderne
fjends
fjendskab
fjendtlig
fjendtlige
fjendtligt
fjer
fjerde
fjerdedel
fjerdeplads
fjerdepladsen
fjerdestørste
fjerkræ
fjern
fjerne
fjernede
fjernelse
fjerner
fjernere
fjernes
fjerneste
fjernet
fjernstyret
fjernsyn
fjernsynet
fjernt
fjernvarme
fjernøsten
fjerritslev
fjervægt
fjodor
fjord
fjordane
fjordarm
fjorde
fjorden
fjorten
fjortende
fk
fl
fla
flad
flade
flader
fladt
flag
flagermus
flaget
flags
flagskib
flair
flak
flakkebjerg
flame
flames
flamingo
flamme
flammen
flammende
flammer
flammerne
flammernes
flamsk
flamske
flandern
flanke
flanken
flanker
flash
flashback
flaske
flasken
flasker
flat
fle
fleet
fleischer
fleksibel
fleksibilitet
fleksible
fleming
flemming
flensborg
flensburg
flera
flere
flertal
flertallet
flertalsform
flertydig
flest
fleste
fletcher
flg
flid
flight
flinders
flindt
flink
flint
flip
fliser
flittig
flittige
flittigt
flo
flod
floden
flodens
floder
floderne
flok
flokke
flokken
flood
floor
floorball
flor
flora
floran
florence
flores
florian
florida
flot
flotte
flow
flower
flowers
floyd
flu
fluer
flughafen
flugt
flugten
flux
fly
flyde
flydende
flyder
flyene
flyet
flyets
flygte
flygtede
flygtende
flygter
flygtet
flygtige
flygtning
flygtninge
flying
flynn
flyselskab
flyselskaber
flyselskabet
flystyrt
flytning
flytningen
flytte
flyttede
flyttedes
flytter
flyttes
flyttet
flyve
flyvemaskine
flyvemaskiner
flyvende
flyveplads
flyvepladsen
flyvepladser
flyver
flyvestation
flyveva
flyvning
flyvningen
flyvninger
flæsk
flød
fløde
fløi
fløj
fløje
fløjet
fløjte
fløjtenist
fløjter
fm
fn
fns
fo
focus
fod
fodbold
fodbolddommer
fodboldforbund
fodboldhold
fodboldkamp
fodboldkarriere
fodboldklub
fodboldklubben
fodboldklubber
fodboldlandshold
fodboldliga
fodboldrække
fodboldspiller
fodboldspillere
fodboldstadion
fodboldtræner
fodboldturnering
fode
foden
foder
fodfolk
fodfæste
fodgængere
fodnotefejl
fods
fodspor
foer
fog
foged
fogh
fokker
fokus
fokusere
fokuserede
fokuserer
fokuseret
fold
foldede
folder
foldet
foley
folk
folke
folkeafstemning
folkeafstemningen
folkebevægelsen
folkeblad
folkedrab
folkeforbundet
folkehøjskole
folkekirke
folkekirkemedlemskab
folkekirken
folkekirkens
folkelig
folkelige
folkeligt
folkemunde
folkemusik
folkemængden
folkene
folkeparti
folkepartis
folkerepublik
folkerepublikken
folkeskole
folkeskolelærer
folkeskolen
folkeskolens
folkeskoler
folkeslag
folkesprog
folket
folketal
folketallet
folketeatret
folkethinget
folketidende
folketing
folketinget
folketingets
folketingsgruppe
folketingskandidat
folketingsmand
folketingsmedlem
folketingsmedlemmer
folketingsvalg
folketingsvalget
folkets
folketælling
folketællingen
folketællinger
folkevalgte
folkeviser
folklore
folkma
folks
folksam
follow
following
fond
fonda
fonde
fonden
fondens
fondet
fonds
fontaine
fontana
food
foods
fool
foot
football
footballdatabase
footballspiller
for
fora
foraaret
foragt
foran
forandre
forandrede
forandrer
forandres
forandret
forandring
forandringer
forankret
foranledigede
foranlediget
foranledning
foranstaltning
foranstaltninger
forarbejderne
forarbejdning
forargelse
forbandede
forbandelse
forbandet
forbandt
forbavselse
forbavsende
forbavset
forbedre
forbedrede
forbedrer
forbedres
forbedret
forbedring
forbedringer
forbehold
forbeholdt
forberede
forberedelse
forberedelser
forberedelserne
forberedende
forbereder
forberedt
forberedte
forbes
forbi
forbiga
forbillede
forbilleder
forbinde
forbindelse
forbindelsen
forbindelser
forbindelserne
forbinder
forbindes
forbipasserende
forblev
forblevet
forblive
forbliver
forbløffende
forbrug
forbruger
forbrugere
forbrugerne
forbruget
forbrydelse
forbrydelsen
forbrydelser
forbryder
forbrydere
forbryderen
forbrænding
forbud
forbuddet
forbudt
forbudte
forbund
forbundet
forbundets
forbundne
forbunds
forbundsdagen
forbundskansler
forbundsra
forbundsrepublikken
forbyde
forbyder
forbydes
forbød
force
forces
forchhammer
ford
fordampning
fordel
fordelagtige
fordelagtigt
fordele
fordelen
fordelene
fordeler
fordeles
fordeling
fordelingen
fordelt
fordelte
fordi
fordoblet
fordomme
fordre
fordrede
fordrer
fordrev
fordrevet
fordrevne
fordring
fordringer
fordrive
fordums
fordybning
fordømt
fordømte
fore
forebygge
forebyggelse
forebyggende
foredrag
foredragsholder
forefindes
forega
foregaaende
foregik
foreign
forekom
forekomme
forekommende
forekommer
forekommet
forekomst
forekomsten
forekomster
forela
forelagt
foreliggende
foreligger
forelskede
forelskelse
forelsker
forelsket
forelægges
forelæsning
forelæsninger
foreløbig
foreløbige
foreløbigt
forene
forenede
forener
forenes
forenet
forening
foreningen
foreningens
foreninger
forenings
forenklet
foreskrevne
foreskriver
foresla
foreslog
forespørgsel
forest
foresta
forestille
forestillede
forestillende
forestiller
forestilling
forestillingen
forestillinger
forestillingerne
forestod
forests
foretage
foretagende
foretagender
foretager
foretages
foretaget
foretagne
foretog
foretrak
foretrukket
foretrukne
foretrække
foretrækker
forever
forfader
forfald
forfaldt
forfatning
forfatningen
forfatningsmæssige
forfattede
forfatter
forfattere
forfatteren
forfatterens
forfatterforening
forfatterinde
forfatterleksikon
forfatterne
forfatterskab
forfatterskabet
forfattervirksomhed
forfattet
forflyttedes
forflyttet
forfra
forfremmedes
forfremmelse
forfremmet
forfulgt
forfulgte
forfædre
forfængelighed
forfærdelig
forfærdelige
forfærdeligt
forfærdet
forfølge
forfølgelse
forfølgelsen
forfølgelser
forfølger
forga
forget
forgiftet
forgjæves
forgotten
forgrenede
forgrenet
forgrunden
forgyldt
forgyldte
forgænger
forgængere
forgængeren
forgæves
forha
forhandle
forhandlede
forhandler
forhandlere
forhandles
forhandlet
forhandling
forhandlinger
forhandlingerne
forhen
forhenværende
forhindre
forhindrede
forhindrer
forhindret
forhindring
forhindringer
forhistorie
forhistorisk
forhistoriske
forhold
forholde
forholdene
forholder
forholdet
forholdsregler
forholdsvis
forholdsvist
forholdt
forhøjede
forhøjet
forhøjning
forhør
forinden
fork
forkastede
forkastet
forkert
forkerte
forklare
forklarede
forklarer
forklares
forklaret
forklaring
forklaringen
forklaringer
forklædning
forklædt
forkortede
forkortelse
forkortelsen
forkortelser
forkortes
forkortet
forkynde
forkyndelse
forkynder
forkyndte
forkæmper
forkærlighed
forlade
forladelse
forlader
forladt
forladte
forlag
forlaget
forlagets
forlagt
forlange
forlanger
forlangte
forleddet
forleden
forlegenhed
forlig
forliget
forlis
forliste
forlod
forlovede
forlovelse
forlovelsen
forlovet
forlygter
forlystelser
forlæg
forlægger
forlænge
forlængede
forlængelse
forlængelsen
forlænger
forlænges
forlænget
forløb
forløber
forløberen
forløbet
form
forma
formaal
formand
formanden
formandsposten
format
formater
formatet
formation
formationen
formationer
forme
formede
formel
formelig
formelle
formelt
formen
formentlig
formentligt
former
formering
formes
formet
formiddag
formiddagen
formidle
formidler
formidlet
formidling
formindsket
formlen
formler
formodede
formodentlig
formoder
formodes
formodet
formodning
forms
formsprog
formue
formuer
formula
formulere
formulerede
formuleret
formulering
formynder
formænd
fornam
fornavn
forneden
fornem
fornemme
fornemmelse
fornemste
fornuft
fornuften
fornuftig
fornuftige
fornuftigt
fornva
forny
fornyede
fornyelse
fornyet
fornærmet
fornødent
fornødne
fornøjelse
fornøjet
forord
forordet
forordning
forordningen
forordninger
foroven
forpagter
forpligtede
forpligtelse
forpligtelser
forpligter
forpligtet
forra
forrang
forrest
forreste
forresten
forretning
forretningen
forretninger
forretningsmand
forretningsomra
forretningsorden
forretningsudvalg
forretningsudvalget
forrige
forræderi
forsaavidt
forsamling
forsamlingen
forsamlinger
forsamlingshus
forsanger
forsangeren
forsat
forsatte
forside
forsiden
forsigtig
forsigtighed
forsigtigt
forsikrede
forsikring
forsikringsselskab
forsinkede
forsinkelse
forsinkelser
forsinket
forskel
forskelle
forskellen
forskellene
forskellig
forskelligartede
forskellige
forskelligt
forsker
forskere
forskeren
forskerne
forsket
forskjel
forskjellig
forskjellige
forskning
forskningen
forsknings
forskningscenter
forskningsministeriet
forskningsomra
forskningsra
forskrift
forskrifter
forskrækket
forskudt
forslag
forslaget
forsoning
forspring
forst
forsta
forstaa
forstaae
forstaaelse
forstaaer
forstaaet
forstaar
forstad
forstaden
forstand
forstanden
forstander
forster
forstod
forstyrre
forstyrrede
forstyrrelse
forstyrrelser
forstyrrer
forstyrret
forstæder
forstæderne
forstærke
forstærkede
forstærker
forstærket
forstærkning
forstærkninger
forsvandt
forsvar
forsvare
forsvarede
forsvarende
forsvarer
forsvarere
forsvarerne
forsvaret
forsvarets
forsvars
forsvarslinje
forsvarsminister
forsvarsministeriet
forsvarsministerium
forsvarsspiller
forsvarsværker
forsvinde
forsvinden
forsvinder
forsvunden
forsvundet
forsvundne
forsyne
forsynede
forsyner
forsynes
forsynet
forsyning
forsyninger
forsæt
forsætter
forsøg
forsøge
forsøgene
forsøger
forsøget
forsøgt
forsøgte
forsømt
forsømte
forsørge
fort
fortabt
fortabte
fortaler
fortalere
fortalt
fortalte
fortegn
fortegnelse
forter
fortet
fortid
fortiden
fortidens
fortidsminder
fortjener
fortjeneste
fortjenester
fortjenstmedaljen
fortjent
fortjente
fortolke
fortolker
fortolkes
fortolket
fortolkning
fortolkninger
fortress
fortrin
fortrinlig
fortrinlige
fortrinsvis
fortrolig
fortrolige
fortrolighed
fortræd
fortrængt
fortrængte
fortsat
fortsatte
fortsattes
fortschreibung
fortsætte
fortsættelse
fortsættelsen
fortsætter
fortsættes
fortuna
fortune
fortvivlelse
fortvivlet
forty
fortæl
fortælle
fortæller
fortælleren
fortælles
fortælling
fortællingen
fortællinger
fortællingerne
forud
foruden
forudga
forudsa
forudsat
forudsatte
forudset
forudsige
forudsigelser
forudsætning
forudsætningen
forudsætninger
forudsætter
forum
forunderlige
forundret
forundring
forurenet
forurening
forvalter
forvaltning
forvaltningen
forvaltningsret
forvandle
forvandlede
forvandler
forvandles
forvandlet
forvandling
forvejen
forveksle
forveksles
forvekslet
forveksling
forvente
forventede
forventedes
forventer
forventes
forventet
forventning
forventninger
forventningerne
forvildet
forvirrede
forvirret
forvirring
forvist
forværret
forward
forældede
forældet
forældre
forældreløse
forældrene
forældrenes
forældres
forærede
foræret
forøge
forøgede
forøgelse
forøges
forøget
forøvrigt
fosfat
fosfor
foss
fossil
fossile
fossiler
foster
foto
fotograf
fotografen
fotografer
fotograferet
fotografering
fotografi
fotografier
fotografisk
fotografiske
fotomodel
fotoner
fotos
fotosyntese
foucault
found
foundation
foundations
founder
four
fours
fourth
fowl
fowler
fox
fr
fra
frac
fragment
fragmenter
fragt
fragte
fragtet
frakke
fraktion
fraktioner
fram
frame
framework
franc
france
frances
francesca
francesco
franchise
francis
francisco
franck
franco
francois
francs
frands
frandsen
frank
franken
frankenstein
frankerne
frankerriget
frankfurt
frankfurter
frankie
frankisk
frankiske
franklin
frankrig
frankrigs
franks
frans
fransk
franske
franskmanden
franskmænd
franskmændene
fransktalende
frants
frantz
franz
frara
fraser
frasier
frataget
fratog
fratra
frauen
fraugde
fravær
fraværende
fraværet
fre
freak
fred
fredag
freddie
freddy
frede
fredede
fredelig
fredelige
fredeligt
freden
fredens
fredensborg
frederic
fredericia
frederick
fredericksburg
frederik
frederikke
frederiks
frederiksberg
frederiksborg
frederiksborgmuseet
frederiksdal
frederiksen
frederikshavn
frederiksstad
frederikssund
frederiksværk
fredet
fredløs
fredning
fredningen
fredninger
fredrik
fredrikstad
freds
fredsaftale
fredsaftalen
fredsbevarende
fredsforhandlinger
fredspris
fredsslutningen
fredstid
free
freedom
freelance
freeman
freestyle
fregat
fregatten
fregatter
freiburg
frej
freja
frekvens
frekvensen
frekvenser
frelse
frelser
frelsers
frelst
frem
fremad
frembragt
frembragte
frembringe
frembringelser
frembringer
frembringes
fremdeles
fremdrift
fremefter
fremfor
fremføre
fremføres
fremført
fremførte
fremga
fremgang
fremgangsma
fremgangsmaade
fremgik
fremherskende
fremhæve
fremhævede
fremhæver
fremhæves
fremhævet
fremkalde
fremkalder
fremkaldt
fremkaldte
fremkom
fremkomme
fremkommer
fremkommet
fremkomst
fremkomsten
fremlagde
fremlagt
fremlægge
fremmarch
fremme
fremmed
fremmede
fremmedsprog
fremmer
fremmest
fremmeste
fremmet
fremover
fremragende
fremrykkende
fremrykning
fremrykningen
fremsat
fremsatte
fremskridt
fremskridtspartiet
fremskudte
fremsta
fremstille
fremstillede
fremstiller
fremstilles
fremstillet
fremstilling
fremstillingen
fremstillinger
fremstod
fremstød
fremsætte
fremt
fremtid
fremtiden
fremtidens
fremtidig
fremtidige
fremtræden
fremtrædende
fremtræder
fremvise
fremvist
french
frequency
fresh
freud
fri
frida
friday
friderich
fridtjof
frie
friederich
friedman
friedrich
friend
friendly
friends
frier
friere
friesland
frifundet
frigive
frigivelse
frigives
frigivet
frigjort
frigøre
frigørelse
frihavn
frihed
friheden
frihedens
friheder
frihedsmuseets
friherre
friis
frijs
frijsenborg
frikendt
frikorps
frilandsmuseet
friluftsliv
frimurerorden
frimærke
frimærker
frisch
friserne
frisisk
frisiske
frisk
friske
friskole
friskt
frisland
frist
frisør
frit
fritaget
fritid
frits
fritsta
fritz
frivillig
frivillige
frivilligt
frk
fro
frode
frodig
frodige
frokost
from
fromhed
fromme
front
fronten
fronter
frontfigur
frontier
frosne
frosset
frost
frozen
fru
frue
fruen
fruentimmer
frugt
frugtbar
frugtbare
frugtbarhed
frugtbart
frugten
frugter
frugterne
frustration
fry
fryd
frydenlund
frygt
frygte
frygtede
frygtelig
frygtelige
frygteligt
frygten
frygter
frygtet
fryser
frække
frø
frøene
frøken
frøkenen
frøs
fs
ft
fu
fuchs
fuck
fucking
fuel
fuentes
fugl
fugle
fuglearter
fuglebeskyttelsesomra
fugleliv
fuglen
fuglene
fuglenes
fuglsang
fugtig
fugtige
fugtighed
fugtigt
fuji
fuld
fulde
fuldendt
fuldendte
fuldføre
fuldført
fuldførte
fuldkommen
fuldkommenhed
fuldkomment
fuldkomne
fuldma
fuldmagt
fuldmægtig
fuldstændig
fuldstændige
fuldstændigt
fuldt
fulgt
fulgte
fulgtes
fulham
full
fuller
fun
function
fund
fundament
fundamental
fundamentale
fundamentet
fundene
funder
funderet
fundet
fundne
funeral
fungere
fungerede
fungerende
fungerer
fungeret
funk
funktion
funktionalitet
funktionel
funktionelle
funktionen
funktioner
funny
fur
furesø
furet
furious
further
fury
fusion
fusionen
fusionere
fusionerede
fusioneret
fussballdaten
future
fv
fver
fvt
fx
fy
fyens
fyld
fylde
fylder
fyldes
fyldig
fyldige
fyldt
fyldte
fylke
fylkesvej
fyn
fyns
fynsk
fynske
fyr
fyre
fyrede
fyrer
fyret
fyrre
fyrst
fyrste
fyrstedømmet
fyrstelige
fyrsten
fyrstendømme
fyrstendømmet
fyrster
fyrsterne
fyrstinde
fyrta
fyrværkeri
fysik
fysiker
fysikken
fysiologi
fysiologiske
fysisk
fysiske
fædre
fædreland
fædrelandet
fædrelandets
fædrene
fægter
fægtning
fælde
fælder
fældet
fælled
fælledparken
fælles
fællesbetegnelse
fælleskøn
fællesra
fællesskab
fællesskaber
fællesskabet
fællesskabets
fællestræk
fændrik
fængsel
fængselsstraf
fængslede
fængsler
fængslet
fængsling
fænomen
fænomener
fænomenet
fænomenologi
færd
færdedes
færden
færdes
færdig
færdigbygget
færdige
færdiggjorde
færdiggjort
færdiggøre
færdiggørelsen
færdighed
færdigheder
færdigt
færdsel
færge
færgefart
færgeforbindelse
færgen
færger
færinger
færre
færrest
færreste
færø
færøerne
færøernes
færøsk
færøske
fæste
fæstede
fæstega
fæstet
fæstning
fæstningen
fæstninger
fætter
fødder
fødderne
føde
fødeby
føden
føder
føderal
føderale
føderalt
føderation
føderationen
fødes
fødested
fødevarer
fødsel
fødselsa
fødselsdag
fødslen
fødsler
født
fødte
fødtes
føje
føjede
føjet
føle
følelse
følelsen
følelser
følelsesmæssige
føler
føles
følg
følge
følgelig
følgen
følgende
følger
følgere
følgerne
følges
følgeskab
følsom
følsomme
følt
følte
fønixordenen
fønss
før
føre
førend
førende
fører
føreren
førertrøje
føres
førhen
føring
førnævnte
føroya
føroyar
føroysk
først
første
førstehold
førsteholdet
førsteplads
førstepladsen
førstnævnte
ført
førte
førtes
g
ga
gaa
gaae
gaaende
gaaer
gaaet
gaar
gaard
gaarde
gaarden
gaardmand
gab
gabel
gabon
gabriel
gabrielle
gad
gaddafi
gade
gaden
gadens
gader
gaderne
gads
gaffa
gaga
gagarin
gage
gaia
gaius
gal
gala
galakser
galatasaray
galathea
galaxy
galbraith
gale
galen
galerie
galicien
galilei
galileo
galilæa
galla
gallagher
gallen
galleri
gallerier
galleriet
gallery
gallien
gallipoli
gallup
galskab
galt
galten
gama
gambia
game
games
gamespot
gamla
gamle
gamles
gamma
gammel
gammeldags
gammelt
gan
gandhi
gane
gang
gange
gangen
ganger
ganges
gangster
ganske
gao
gaon
gap
gar
garage
garantere
garanteret
garanti
garci
garcia
garde
garden
gardens
gardiner
gardner
gareth
garfield
garland
garn
garner
garnison
garnisonen
garnisons
garrett
garros
garry
gartner
gartneri
gary
gas
gasolin
gassen
gasser
gaston
gasværk
gate
gates
gateway
gauguin
gaulle
gauss
gav
gave
gaven
gaver
gaves
gavin
gavl
gavle
gavn
gavne
gay
gaza
gazette
gazetteer
gb
gdan
ge
gear
gearkasse
ged
gedde
gede
geder
gedser
geert
gegen
gegenwart
gehejmekonferensra
gehejmera
geiger
geir
gejstlig
gejstlige
gejstligheden
gel
gelsted
gelting
gem
gemalinde
gemeinde
gemeinden
gemini
gemme
gemmer
gemmes
gemt
gemte
gen
gena
genbrug
genbrugt
gendannet
gender
gene
genealogy
gener
general
generaladjudant
generaldirektør
generalen
generaler
generalforsamling
generalforsamlingen
generalguvernør
generalkonsul
generalløjtnant
generalmajor
generals
generalsekretær
generalstab
generalstaben
generation
generationer
generations
generator
genere
generel
generelle
generelt
generere
genererer
generisk
generobre
generobrede
generobret
genesis
genet
genetic
genetics
genetik
genetisk
genetiske
geneve
genfindes
genforenet
genforening
genforeningen
gengive
gengivelse
gengiver
gengives
gengivet
gengæld
genhed
geni
geniale
genindført
genindsat
genindspillet
genindspilning
genitiv
genius
genkende
genkendelige
genkendes
gennaio
gennem
gennembrud
gennembruddet
gennembryde
gennemføre
gennemførelse
gennemførelsen
gennemfører
gennemføres
gennemført
gennemførte
gennemførtes
gennemga
gennemgang
gennemgik
gennemgribende
gennemillustreret
gennemlæses
gennemsnit
gennemsnitlig
gennemsnitlige
gennemsnitligt
gennemsnitsindkomsten
gennemsnitstemperatur
gennemsnittet
genocide
genom
genome
genopbygge
genopbygget
genopbygning
genopbygningen
genopført
genoplive
genoplivet
genoprette
genoprettet
genopsta
genopstillede
genopstod
genoptage
genoptaget
genoptog
genoptryk
genoptrykt
genova
genovese
genre
genren
genrer
gensidig
gensidige
gensidigt
genskabe
genskabt
genstand
genstande
gensyn
gent
gentage
gentagelse
gentager
gentages
gentaget
gentagne
gentleman
gentlemen
gentofte
gentog
genudgivelse
genudgivet
genudsendt
genus
genvalg
genvalgt
genvandt
genvinde
geo
geodatastyrelsen
geody
geoff
geoffrey
geograf
geografforlaget
geografi
geografisk
geografiske
geographic
geographical
geography
geolog
geologi
geological
geologisk
geologiske
geology
geometri
geometrisk
geometriske
georg
george
georges
georgia
georgien
georgij
georgisk
georgiske
georgs
ger
gera
gerald
gerard
gerd
gerda
gerhard
gerlach
gerlev
germain
german
germania
germansk
germanske
germany
gerne
gerning
gerninger
gerningsmanden
gerry
gers
gersdorff
gert
gertrud
gertrude
gerup
ges
gesandt
geschichte
gesellschaft
gesta
gestapo
get
getpubfile
gets
getting
gettysburg
geus
gevinst
gevær
gf
gfk
gg
ghana
ghetto
ghita
ghost
ghosts
ghz
gi
giacomo
giant
giants
gibbon
gibbons
gibbs
gibraltar
gibson
gid
gideon
gider
gidsel
gidsler
gif
gift
gifte
giftede
giften
gifter
gifterma
giftes
giftet
giftig
giftige
giftigt
gigantisk
gigantiske
gik
gil
gilbert
gilde
giles
gill
gilleleje
gilles
gillespie
gilmore
gin
gina
ginger
giorgio
giovanni
gips
girl
girls
giro
gis
gisselfeld
gitte
gitter
giuseppe
giv
give
given
givent
giver
gives
givet
givetvis
givne
giøre
gj
gjaldt
gjellerup
gjennem
gjensidige
gjenstand
gjentog
gjern
gjerne
gjerning
gjerrild
gjorde
gjordes
gjort
gjældende
gjælder
gjøe
gjør
gjøre
gjøres
gjøvikbanen
gks
gl
glacier
glad
glade
gladiator
gladsaxe
gladys
glahn
glans
glantz
glas
glasfiber
glasgow
glass
glasset
glasværk
glat
glatskalle
glatte
gled
glee
glem
glemme
glemmer
glemt
glemte
glen
glenn
gletsjer
gletsjere
gletsjeren
glide
glider
glimrende
glimt
glip
glistrup
glo
glob
global
globale
globalisering
globalt
globe
gloria
glory
glostrup
gloucester
gloucestershire
glover
glu
glud
glukose
glyptotek
glæde
glædede
glæden
glæder
glødende
gm
gmbh
gn
gnags
gne
gnede
gner
gning
gnu
go
goa
goal
goals
goble
god
goddag
goddard
gode
goder
godfather
godfred
godhed
godkende
godkendelse
godkendes
godkendt
godkendte
godnat
gods
godsejer
godsejere
godsejeren
godsejerne
godser
godserne
godset
godsets
godske
godstog
godstrafik
godt
godtha
godzilla
goebbels
goes
goethe
goethes
gog
gogh
goguryeo
going
gold
goldberg
golden
goldman
goldschmidt
goldstein
golf
golfkrigen
golfspiller
gomez
gone
gong
gonna
gonza
gonzalez
gonzalo
good
goodbye
goodman
goodwin
google
gorbatjov
gordon
gore
gorilla
gorm
gorman
goryeo
gospel
got
goterne
gotfred
gotha
gothersgade
gothic
gotisk
gotiske
gotland
gott
gottfried
gotthard
gottlieb
gottlob
gottorp
gottorpske
gould
gov
government
governor
gp
gps
gr
gra
graa
graad
grace
grad
grade
graden
grader
graderne
graduate
gradvis
gradvist
graeme
graf
grafen
graffiti
grafik
grafiker
grafisk
grafiske
graham
gram
grammar
grammatik
grammatisk
grammatiske
grammy
gran
granada
granat
granater
grand
grande
grandjean
grane
granger
granit
granitkvadre
grant
grants
grass
gratis
grau
grav
grave
gravede
graven
gravene
graver
graves
gravet
gravhøj
gravhøje
gravid
gravide
graviditet
gravity
gravkapel
gravlagt
gravplads
gravsted
gravsten
gray
graz
gre
great
greater
greatest
greb
grebet
greece
greek
green
greene
greenland
greens
greenwich
greenwood
greg
gregers
gregersen
gregg
gregor
gregorianske
gregory
greifswald
gren
grena
grenaa
grene
grenen
grenene
grenoble
greta
grete
grethe
grev
greve
greven
grevens
grever
greverne
grevinde
grevinden
grevskab
grevskaber
grevskabet
grey
gri
gribe
gribende
griber
gribskov
grid
grieg
griffin
griffith
griffiths
griffon
grigorij
grim
grimes
grimm
grimme
grin
grindsted
grip
gris
grise
grl
gro
groft
groningen
groote
groove
gror
gros
gross
grosserer
groth
grotte
grotten
ground
group
groupe
groups
grov
grove
groves
growing
growth
groß
große
großer
gru
grubbe
gruber
grue
grumman
grumme
grund
grundbog
grunde
grundede
grunden
grundene
grundet
grundig
grundige
grundigt
grundlag
grundlagde
grundlagdes
grundlaget
grundlagt
grundlov
grundloven
grundlovens
grundlovgivende
grundlægge
grundlæggelse
grundlæggelsen
grundlæggende
grundlægger
grundlæggere
grundlæggeren
grundlæggerne
grundlægges
grundplan
grundskole
grundskolen
grundspil
grundspillet
grundstenen
grundstof
grundstoffer
grundstoffet
grundsætninger
grundtvig
grundtvigs
grundvand
grunwald
gruppe
gruppeformand
gruppen
gruppens
grupper
gruppering
grupperinger
grupperne
gruppespil
gruppespillet
gruppevindere
grus
grusom
grusomme
gruyter
gry
gryde
gryden
græd
græde
grædende
græder
grækenland
grækenlands
grækere
grækerne
grænse
grænsede
grænsen
grænseomra
grænseoverskridende
grænser
grænserne
græs
græsk
græske
græsning
græsser
græsset
græsted
grød
grøft
grøfter
grøn
grønbech
grøndahl
grønholt
grønland
grønlands
grønlandsk
grønlandske
grønne
grønningen
grønt
grøntsager
gs
gskolan
gsm
gt
gti
gu
guadalcanal
guam
guangdong
guangzhou
guard
guardian
guatemala
gud
guddom
guddommelig
guddommelige
guden
gudena
guder
guderne
gudernes
gudhjem
gudinde
gudinden
gudme
gudmund
gudrun
guds
gudstjeneste
gudstjenesten
gudstjenester
gue
guerre
guerrero
guest
guevara
guez
guide
guides
guido
guild
guillaume
guillermo
guilty
guinea
guinness
guitar
guitaren
guitarer
guitarist
guitaristen
guitarister
guitars
gujarat
gul
gulag
guld
guldalder
guldberg
guldborgsund
guldet
guldhornene
guldkysten
guldmedalje
guldmedaljen
guldmedaljer
guldsmed
guldvinder
gule
gulf
gult
gulv
gulvet
gum
gummi
gun
gunhild
gunnar
guns
gunst
gunstig
gunstige
guo
gur
gurre
guru
gus
gustaf
gustafsson
gustav
gustave
gut
gutenberg
guvernement
guvernementet
guvernør
guvernøren
guvernører
guy
guyana
guys
gv
gvan
gwen
gylden
gyldendal
gyldendals
gyldendalske
gyldenløve
gyldenstierne
gyldent
gyldig
gyldige
gyldighed
gyldne
gyllenhaal
gylling
gym
gymnasiale
gymnasier
gymnasieskolen
gymnasiet
gymnasium
gymnast
gymnastik
gymnastikforening
gyo
gyserfilm
gæld
gælde
gælden
gældende
gælder
gælisk
gængse
gær
gærne
gæs
gæst
gæstebud
gæstede
gæsteoptræden
gæster
gæsterne
gætte
gødning
gøg
gør
gøre
gøres
gøs
gøsta
gøteborg
gøye
h
ha
haab
haabe
haaber
haabet
haag
haakon
haand
haandbog
haanden
haar
haard
haarde
haarder
haardt
haaret
haas
haase
habermas
habitat
habitatomra
habsburg
habsburgske
hack
had
hade
hadede
hader
haderslev
hades
hadet
hadrian
hadsten
hadsund
hafnia
haft
hage
hagemann
hagen
hagerup
hagrid
hahn
hai
haifa
hainaut
hair
haiti
hak
hakket
hakon
hal
hald
halden
hale
halen
haley
half
halfdan
halford
halifax
hall
halland
hallands
halle
hallen
haller
hallerne
halling
hallo
halloween
halls
halm
halmstad
halo
hals
halsen
halsey
halshugget
halv
halva
halvanden
halvandet
halvbror
halvdan
halvdel
halvdelen
halve
halveringstid
halvkugle
halvleg
halvma
halvsøster
halvt
halvtreds
halvvejs
halvø
halvøen
ham
hamar
hamas
hamborg
hamburg
hamburger
hamer
hamid
hamilton
hamlet
hammarby
hammel
hammer
hammeren
hammerich
hammerkast
hammershus
hammershøi
hammersmith
hammond
hamp
hampshire
hampton
hamsun
han
hana
hancock
hand
handball
handbook
handbuch
handel
handelen
handels
handelsby
handelsfla
handelsfolk
handelshøjskolen
handelsmand
handelsmænd
handelsplads
handelsskibe
handelsskole
handicap
handicappede
handle
handlede
handlen
handlende
handler
handles
handlet
handling
handlingen
handlinger
handlingsreferat
hands
handsker
hane
hanen
hang
hangarskib
hangarskibe
hangul
hangzhou
hank
hanks
hankøn
hanlige
hanna
hannah
hanne
hannen
hanner
hannerne
hannes
hannibal
hannover
hanoi
hans
hansa
hansdatter
hansen
hansens
hanson
hanssen
hansson
hanstholm
happened
happiness
happy
har
hara
harald
haralds
harboe
harbor
harbou
harbour
harboøre
hard
hardcore
hardcourt
hardenberg
harder
harding
hardinger
hardware
hardy
hare
harlem
harley
harme
harmoni
harmonika
harmonisk
harmoniske
harmony
harold
harpe
harper
harpercollins
harpiks
harrelson
harriet
harris
harrison
harry
harrys
harstad
hart
hartkorn
hartmann
hartvig
harvard
harvest
harvey
harzen
has
hasan
hash
hasle
haslev
haslund
hassan
hasse
hassel
hasselbalch
hassing
hast
hastig
hastige
hastighed
hastigheden
hastigheder
hastigt
hastings
hastrup
hat
hatchback
hate
hatt
hatte
hatten
hattrick
hauch
haugaard
hauge
haugen
haugesund
haus
haute
hav
havana
havbunden
havde
have
havel
haven
havene
havens
haver
haverne
haves
havet
havets
havfrue
havilland
havn
havne
havnebane
havneby
havnebyen
havnebyer
havnede
havnegade
havnen
havnene
havnens
havomra
havoverfladen
havre
havs
havt
havvand
hawaii
hawk
hawker
hawkins
hawks
haxthausen
hay
hayden
haydn
hayes
haymarket
haynes
hb
hbar
hbo
hc
hd
he
head
heads
healing
health
hear
heard
heart
hearts
heat
heath
heather
heats
heaven
heavy
heavyweight
hebraisk
hebraiske
hebræisk
hector
hed
hedde
hedder
heddet
heddinge
hede
hedeager
hedeby
hedegaard
hedehusene
heden
hedensk
hedenske
hedensted
heder
hedevig
hedningerne
hedvig
hee
heel
heelt
heeresgruppe
hefte
heftig
heftige
heftigt
hegel
hegn
hegnet
heiberg
heibergs
heick
heide
heidegger
heidelberg
heidi
heights
heim
heimskringla
hein
heine
heinesen
heino
heinrich
heinz
heise
hej
heks
hekse
heksen
hektar
hel
hela
helbred
helbrede
helbredelse
held
heldig
heldige
heldigt
heldigvis
hele
helen
helena
helene
helga
helge
helgen
helgener
helgenæs
helgoland
helhed
helikopter
helikoptere
helikopteren
helium
hell
hellas
helle
hellebæk
heller
hellere
helleristninger
hellerup
hellig
helliga
helligdag
helligdage
helligdom
helligdommen
hellige
helligede
hellighed
helligt
hello
hells
helm
helmer
helmig
helms
helmut
helmuth
help
helrandede
helsingborg
helsingborgs
helsinge
helsingfors
helsingør
helsinki
helst
helt
heltal
helte
helten
helvede
helvedes
helveg
helweg
hem
hemingway
hemmelig
hemmelige
hemmelighed
hemmeligheden
hemmeligheder
hemmelighedsfulde
hemmeligt
hemmingsen
hen
henad
henblik
hende
henderson
hendes
hendricks
hendrik
hendrix
henfald
henføres
hengivenhed
henhold
henholdsvis
henimod
henlagt
henne
henning
hennings
henningsen
henny
henover
henregnes
henrette
henrettede
henrettelse
henrettelsen
henrettelser
henrettes
henrettet
henri
henrich
henriette
henrik
henriks
henriksen
henrique
henriques
henry
henseende
henseender
hensigt
hensigten
hensigter
hensigtsmæssig
hensigtsmæssigt
hensyn
hensynet
hensyntagen
hente
hentede
henter
hentes
hentet
hentyde
hentyder
hentydning
henved
henvende
henvendelse
henvender
henvendt
henvendte
henvise
henviser
henvises
henvisning
henvisninger
henvist
henviste
hepatitis
hepburn
her
hera
heraf
herakles
herald
herbert
hercegovina
hercule
hercules
here
herefter
herfor
herfra
herfølge
herge
herhen
herhjemme
heri
heriblandt
heritage
herkomst
herkules
herlev
herlige
herlighed
herluf
herlufsholm
herman
hermann
hermansen
hermed
hermes
hermione
herna
herning
hero
herodes
herodot
heroes
heroin
herom
herover
herpa
herpaa
herr
herre
herred
herreder
herredet
herredouble
herreds
herredsfoged
herredømme
herredømmet
herrega
herreha
herrelandshold
herren
herrens
herrer
herrerne
herrernes
herres
herresingle
herskabet
herske
herskede
herskende
hersker
herskere
hertha
hertil
hertug
hertugdømme
hertugdømmer
hertugdømmerne
hertugdømmet
hertugen
hertugens
hertuger
hertugerne
hertuginde
hertuginden
hertz
herudover
herunder
herved
herzog
herzogtum
hess
hesse
hessen
hest
heste
hesten
hestene
het
hetsch
hey
hf
hg
hh
hhv
hhx
hi
hicks
hid
hidalgo
hidden
hide
hidtidige
hidtil
hierarki
hierarkiet
hieronimus
hieronymus
higgins
high
higher
highest
highland
highlights
highway
hiin
hik
hilary
hilda
hildebrand
hildesheim
hilfe
hill
hillary
hillerød
hills
hilmar
hilse
hilsen
hilser
hilste
hilton
him
himalaya
himlen
himlens
himmel
himmelen
himmelobjekter
himmelske
himmerland
himmler
himself
hin
hinanden
hinandens
hind
hindenburg
hinder
hindi
hindre
hindrede
hindrer
hindring
hindringer
hindu
hinduer
hinduisme
hinduismen
hinduistiske
hine
hinnerup
hinsides
hint
hiort
hip
hiphop
hiroki
hiroshi
hiroshima
hirsch
hirschsprungske
hirtshals
his
hist
histoire
historia
historic
historical
historie
historien
historiens
historier
historierne
histories
historieskrivning
historiker
historikere
historikeren
historikerne
historisches
historisk
historiske
history
hit
hitchcock
hitler
hitlers
hitliste
hitlisten
hitlister
hitlisterne
hitman
hitparade
hits
hittet
hiv
hja
hjalmar
hjalp
hjalte
hjejle
hjelm
hjelme
hjelmen
hjem
hjemby
hjembyen
hjemkomst
hjemkomsten
hjemland
hjemlandet
hjemlige
hjemløse
hjemme
hjemmebane
hjemmefra
hjemmeholdet
hjemmehørende
hjemmekamp
hjemmekampe
hjemmel
hjemmeside
hjemmesiden
hjemmesider
hjemmestyre
hjemmet
hjemmeværnet
hjemstavn
hjemsted
hjerne
hjernen
hjernens
hjernerystelse
hjerte
hjerteanfald
hjerter
hjertes
hjertestop
hjertet
hjertets
hjerting
hjort
hjorte
hjorth
hjortshøj
hjul
hjulene
hjulet
hjulpet
hjælp
hjælpe
hjælpemidler
hjælpen
hjælper
hjælpere
hjælpeside
hjærte
hjærtet
hjørne
hjørner
hjørnet
hjørring
hk
hl
hle
hler
hm
hmen
hms
hn
hne
ho
hob
hobart
hobby
hobro
hoc
hochschule
hockey
hodder
hodet
hodgson
hoel
hof
hofdame
hoff
hoffet
hoffman
hoffmann
hoffmeyer
hofjægermester
hofman
hogan
hogwarts
hohenzollern
hokkaido
holberg
holbergs
holbæk
holck
hold
holdbarhed
holde
holden
holdene
holdeplads
holder
holdes
holdet
holdets
holding
holdings
holdkammerat
holdkonkurrencen
holdning
holdninger
holds
holdt
holdtes
hole
holeby
holger
holgersen
holiday
holland
hollands
hollandsk
hollandske
hollow
holloway
holly
hollywood
hollænder
hollænderne
holm
holmblad
holme
holmegaard
holmen
holmens
holmes
holms
holocaust
holom
holst
holstebro
holsted
holstein
holsteinborg
holsten
holstens
holstensk
holstenske
holt
holte
holten
holy
home
homepage
homer
homers
homme
homo
homoseksualitet
homoseksuel
homoseksuelle
hon
honda
honduras
honey
hong
hongkong
honning
honolulu
honor
honore
honorius
honour
hood
hook
hooker
hoover
hop
hope
hopkins
hoppe
hoppede
hopper
hor
horace
hordaland
horde
horisont
horisontale
horisonten
horisonter
horizon
hormon
hormoner
horn
hornbæk
horne
hornemann
hornet
horns
hornslet
hornum
horror
horse
horsens
horses
horst
horton
hos
hospital
hospitaler
hospitalet
host
hoste
hostrup
hot
hotel
hoteller
hotellet
hotellets
hotels
hotspur
hou
houbraken
hough
houghton
hour
hours
house
houses
housewives
housing
houston
hov
hove
hoved
hoveda
hovedartikel
hovedartikler
hovedbanega
hovedbestyrelse
hovedbestyrelsen
hovedby
hovedbyen
hovedbygning
hovedbygningen
hoveder
hovederne
hovedet
hovedforma
hovedga
hovedgade
hovedgaden
hovedgrupper
hovedindgangen
hovedkontor
hovedkontoret
hovedkrateret
hovedkvarter
hovedkvarteret
hovedland
hovedma
hovedomra
hovedopgave
hovedparten
hovedperson
hovedpersonen
hovedpersoner
hovedpersonerne
hovedpine
hovedregel
hovedrolle
hovedrollen
hovedroller
hovedrollerne
hovedrunden
hovedrødder
hovedsagelig
hovedsageligt
hovedsagen
hovedsagligt
hovedstad
hovedstaden
hovedstadens
hovedstadsomra
hovedsæde
hovedsædet
hovedturneringen
hovedvej
hovedveje
hovedvejen
hovedvægten
hovedværk
hovedværker
hoveri
how
howard
howe
however
hp
hr
hren
hrer
hrsg
hrung
hs
ht
htm
html
http
https
htx
hu
hua
huang
hub
hubbard
hubble
huber
hubert
huck
hud
hude
huden
hudson
hue
huffington
hug
hugge
huggede
hugget
hugh
hughes
hugo
hui
huitfeldt
hukommelse
hukommelsen
hul
hule
hulen
huler
hulk
hull
huller
hullerne
hullet
hulrum
human
humane
humaniora
humanisme
humanist
humanisten
humanistisk
humanistiske
humanitær
humanitære
humans
humboldt
hume
humle
humlebæk
hummel
humor
humoristisk
humoristiske
humphrey
humør
hun
hund
hunde
hunden
hundene
hunderace
hunderacer
hundested
hundred
hundreda
hundrede
hundreder
hundredvis
hung
hungary
hunger
hungersnød
hungmedien
hunkøn
hunlige
hunnen
hunner
hunnerne
hunt
hunter
hunters
huntford
hunting
huntington
hur
hurley
hurra
hurricane
hurt
hurtig
hurtige
hurtigere
hurtighed
hurtigløb
hurtigst
hurtigste
hurtigt
hurup
hus
husarrest
husband
husbond
husby
husdyr
husdyrhold
huse
husede
husene
huser
huset
husets
husgerning
husholdning
husholdninger
husk
huske
huskede
husker
huskes
husket
huslærer
husmand
husmænd
hussein
husstand
husstande
huston
hustru
hustruen
hustruer
hustrus
husum
hutchinson
hutton
huus
huxley
huygens
hva
hvad
hval
hvalba
hvaler
hvalfangst
hvalpsund
hvalsø
hvam
hvass
hvede
hvem
hver
hverandre
hverdag
hverdage
hverdagen
hverken
hvert
hverv
hvervet
hvi
hvid
hvidbjerg
hvide
hviderusland
hviderussisk
hviderussiske
hvidløg
hvidovre
hvidt
hvidtfeldt
hviid
hvile
hvilede
hvilende
hviler
hvilke
hvilken
hvilket
hvirveldyr
hvis
hviskede
hvo
hvor
hvoraf
hvordan
hvorefter
hvorfor
hvorfra
hvorhen
hvori
hvorigennem
hvorimod
hvorledes
hvormed
hvorna
hvorom
hvorpa
hvorpaa
hvortil
hvorunder
hvorved
hvorvidt
hvælv
hvælvinger
hybrid
hyde
hyderabad
hydraulisk
hydrogen
hygge
hygiejne
hylde
hyldede
hylden
hylder
hyldest
hyldet
hyldgaard
hymne
hypotese
hypotesen
hypoteser
hyppig
hyppige
hyppigere
hyppigst
hyppigt
hyrde
hyrede
hyret
hytte
hytten
hytter
hyundai
hz
hæder
hæderlig
hædersbevisninger
hæderspris
hæderstegn
hædret
hæfte
hæfter
hæftet
hæk
hækkerup
hæld
hælder
hældes
hældning
hælene
hæmmer
hæmmet
hænde
hændelse
hændelsen
hændelser
hændelserne
hænder
hænderne
hændte
hænge
hængende
hænger
hængt
hængte
hær
hære
hæren
hærens
hærfører
hærgede
hærget
hærs
hærvejen
hærværk
hævde
hævdede
hævder
hævdes
hævdet
hæve
hævede
hæver
hæves
hævet
hævn
hævne
hø
høeg
høegh
høffding
høg
høgh
høgsbro
høi
høie
høiere
høieste
høist
høit
høj
højbjerg
højby
højde
højdedrag
højden
højdepunkt
højdepunktet
højder
højderne
højderyg
højderyggen
højdespring
høje
højen
højer
højere
højest
højeste
højesteret
højesterets
højesteretsdommer
højgaard
højhastighedstog
højhed
højhus
højhuse
højland
højlandet
højre
højrefløj
højreorienterede
højres
højrup
højskole
højskolen
højskoler
højst
højt
højtidelig
højtliggende
højtsta
højvande
høne
hønen
høng
høns
hør
hørby
høre
hørende
hører
høres
høring
hørning
hørsholm
hørt
hørte
hørtes
hørup
høst
høste
høstede
høsten
høvding
høvdinge
høvdingen
høy
høyer
høyre
i
ia
iaaf
iaften
iagttage
iagttagelse
iagttagelser
iagttager
ialt
ian
iata
iau
ib
iben
iberiske
ibid
ibiza
iblandt
ibm
ibn
ibrahim
ibsen
ibsens
ic
icao
icc
icd
ice
iceland
icelandic
ich
icke
icon
id
ida
idag
idaho
ide
idea
ideal
idealer
idealisme
ideas
idee
ideel
ideelle
ideelt
ideen
ideer
identification
identificere
identificerede
identificerer
identificeres
identificeret
identifikation
identisk
identiske
identitet
identity
ideologi
ideologier
ideologisk
ideologiske
idet
idetmindste
idiot
idol
idræt
idræts
idrætsanlæg
idrætscenter
idrætsforbund
idrætsforening
idrætshal
idrætspark
idrætsparken
idømmes
idømt
ie
iec
iedzi
ieee
ieg
if
ifk
iflg
ifpi
ifølge
iført
ig
igaar
igangsat
igangsatte
igangværende
igen
igennem
igjen
igjennem
ign
ignacio
ignorerede
ignoreret
igor
ihf
ihjel
ihre
ii
iihf
iii
ik
ikast
ike
ikea
ikke
ikkun
ikon
ikoniske
il
ild
ilde
ildebrand
ilden
ile
ilede
ili
ilja
ill
illegal
illegale
illegalt
illinois
illum
illusion
illustrated
illustration
illustrationer
illustrator
illustrere
illustrerede
illustrerer
illustreres
illustreret
ilse
ilt
ilulissat
im
image
images
imam
imdb
imellem
imens
imf
imidlertid
immanuel
immateriel
immigranter
immigration
immortal
immunitet
imod
imorgen
impact
imperativ
imperial
imperiet
imperium
implementere
implementeret
implementering
implications
imponerede
imponerende
imponeret
import
important
importere
importerede
importeret
impossible
improvisation
impuls
impulser
imøde
imødega
imødekomme
in
ina
inc
inch
includes
including
income
incorporated
ind
inda
indad
indb
indbefatter
indblandet
indblanding
indblik
indbragte
indbringende
indbudt
indbyggede
indbygger
indbyggere
indbyggerne
indbyggertal
indbyggertallet
indbygget
indbyrdes
inddele
inddeles
inddeling
inddelingen
inddelinger
inddelt
inddrage
inddragelse
inddrager
inddrages
inddraget
inddrog
inde
indebar
indebære
indebærer
indefra
indehaver
indeholde
indeholdende
indeholder
indeholdt
indeholdte
indeks
indekset
inden
indendørs
indenfor
indenforvoldene
indeni
indenlandske
indenrigs
indenrigsminister
indenrigsministeriet
independence
independent
inder
indere
inderlig
inderligt
indersiden
inderst
inderste
indesluttet
indespærret
index
indfald
indflydelse
indflydelsen
indflydelsesrig
indflydelsesrige
indfødsret
indfødt
indfødte
indføre
indførelse
indførelsen
indfører
indføres
indføring
indført
indførte
indførtes
indga
indgang
indgange
indgangen
indgav
indgik
indgreb
indgriben
indhegnet
indhente
indhentet
indhold
indholdet
indholdsfortegnelse
indholdsoversigt
india
indian
indiana
indianapolis
indianere
indianerne
indians
indianske
indie
indien
indiens
indiensportalens
indigo
indikere
indikerede
indikerer
indimellem
indirekte
indisk
indiske
individ
individer
individet
individets
individual
individuel
individuelle
individuellem
individuelt
indkalde
indkaldt
indkaldte
indkomst
indkomster
indkøb
indkøbscenter
indkøbt
indla
indlade
indlagt
indland
indlandet
indlandsis
indlandsisen
indlede
indledende
indleder
indledes
indledning
indledningen
indledningsvis
indledt
indledte
indledtes
indlemmede
indlemmelse
indlemmet
indlysende
indlæg
indløb
indløbet
indo
indoeuropæisk
indoeuropæiske
indonesia
indonesien
indonesisk
indonesiske
indpas
indre
indretning
indretningen
indrette
indrettede
indrettet
indrømme
indrømmede
indrømmelser
indrømmer
indrømmet
indsa
indsamle
indsamlede
indsamlet
indsamling
indsat
indsats
indsatsen
indsatser
indsatte
indse
indsejlingen
indsende
indsendt
indsendte
indser
indsigt
indskrevet
indskrift
indskriften
indskrifter
indskrænke
indskrænkede
indskrænket
indskrænkning
indskrænkninger
indslag
indspille
indspillede
indspillet
indspilning
indspilningen
indspilninger
indspilningerne
indsprøjtning
indstiftet
indstille
indstillede
indstiller
indstilles
indstillet
indstilling
indstævnte
indsætte
indsættelse
indsættelsen
indsættes
indtage
indtagelse
indtager
indtages
indtaget
indtil
indtjening
indtjente
indtog
indtra
indtraf
indtryk
indtrykket
indtræde
indtræden
indtræder
indtræffer
indtrængen
indtrængende
indtægt
indtægter
indtægterne
indtægtskilde
inducks
indus
industri
industrial
industrialiserede
industrialisering
industrialiseringen
industriby
industriel
industrielle
industrielt
industrien
industriens
industrier
industries
industriomra
industrivirksomheder
industry
indvalgt
indvandrede
indvandrere
indvandret
indvandring
indvendig
indvendige
indvendigt
indvendinger
indviede
indviedes
indvielse
indvielsen
indvies
indviet
indviklede
indviklet
indvilligede
indvirkning
indvortes
ine
inen
infanteri
infanteribrigade
infanteridivision
infanteriet
infanteriregiment
infantry
infektion
infektioner
infernal
inferno
inficeret
inflation
influence
influenza
info
information
informationen
informationer
informations
informationsside
informeret
infrastruktur
infrastrukturen
infty
ing
inga
inge
ingeborg
ingefær
ingemann
ingen
ingeniør
ingeniøren
ingeniører
ingeniørkorpset
ingenlunde
ingenting
inger
ingerslev
ingolf
ingredienser
ingrid
ingvar
initiativ
initiative
initiativer
initiativet
initiativtager
injury
inkl
inkludere
inkluderede
inkluderer
inkluderet
inklusiv
inklusive
inn
inner
innocens
innocent
innovation
innovative
innsbruck
input
inquiry
ins
insekt
insekter
inside
insider
insisterede
insisterer
inskription
inskriptionen
inskriptioner
inspector
inspektør
inspiration
inspirationen
inspirationskilde
inspirere
inspirerede
inspirerende
inspireret
instagram
installation
installationer
installere
installeret
instans
institut
institute
institutes
institutet
institution
institutionen
institutioner
institutions
instituto
institutter
instituttet
instituttets
instr
instruere
instruerede
instrueret
instruks
instruktion
instruktioner
instruktionsbog
instruktør
instruktøren
instruktører
instrument
instrumental
instrumentale
instrumenter
instrumentet
instruments
insulin
insurance
int
intakt
inte
integrated
integration
integrere
integrerede
integreret
integritet
intel
intellektuel
intellektuelle
intelligence
intelligens
intelligent
intelligente
intens
intense
intensitet
intensiv
intensive
intensivt
intenst
intention
intentioner
inter
interactive
interaktion
interaktive
intercity
intercontinental
interessant
interessante
interesse
interessen
interesseorganisation
interesser
interessere
interesserede
interesserer
interesseret
interest
interface
interim
interior
interiør
interiøret
intern
internal
international
internationale
internationalt
internazionale
interne
interneret
internet
internetova
internetsider
internettet
internt
interpretation
interstate
interval
intervaller
intervallet
intervention
interview
interviewet
interviews
intet
intetkøn
intime
into
intriger
intro
introducere
introducerede
introduceredes
introducerer
introduceres
introduceret
introduction
introduktion
introduktionen
inuit
invadere
invaderede
invaderet
invalid
invasion
invasionen
invasioner
invasive
inventar
invention
invest
investere
investerede
investeret
investering
investeringer
investigation
investment
investor
investorer
invincible
invisible
invitation
invitere
inviterede
inviterer
inviteret
involverede
involverer
involveret
involvering
io
ioc
iof
ion
iona
ioner
ios
iowa
ip
ipa
ipcc
iphone
ipod
ipsen
ipswich
iq
iqbal
ir
ira
irak
irakisk
irakiske
iraks
iran
iranian
irans
iransk
iranske
iraq
ireland
irene
irina
iris
irish
irkutsk
irland
irlands
irma
iron
ironi
ironisk
irriterende
irsk
irske
irving
irwin
is
isa
isaac
isabel
isabella
isabelle
isak
isbn
iscenesat
ise
isen
ishav
ishavet
ishockey
ishockeyspiller
ishøj
isis
isla
islam
islamic
islamisk
islamiske
islamisme
islams
island
islands
islandsk
islandske
isle
isles
ismail
iso
isolation
isolde
isolere
isolerede
isoleret
isotop
isotoper
israel
israeli
israels
israelsk
israelske
iss
issn
issue
issues
ist
istanbul
istand
istandsat
istandsættelse
istat
isted
istedetfor
istid
istiden
istituto
især
it
ita
itachi
italia
italian
italiana
italien
italienere
italieneren
italienerne
italiens
italiensk
italienske
italy
item
itf
ito
its
itu
itunes
itv
itzehoe
iucn
ius
iv
iva
ivan
ivanhoe
ivanov
ivanovitj
ivar
iver
iversen
ives
ivo
ivrig
ivrige
ivrigt
ivy
iværksat
iværksatte
iværksætte
iværksætter
iwanowna
ix
iz
iøjnefaldende
iøvrigt
j
ja
jack
jackie
jacks
jackson
jacksons
jacksonville
jacob
jacobi
jacobs
jacobsen
jacobsens
jacopo
jacqueline
jacques
jade
jag
jage
jagede
jager
jagere
jagerfly
jaget
jagger
jagt
jagten
jagter
jagtvej
jaguar
jahrbuch
jahre
jahrhundert
jaime
jainernes
jainisme
jak
jake
jakke
jakkesæt
jakob
jakobe
jakobs
jakobsen
jalousi
jaloux
jam
jamaica
jamen
james
jamestown
jamie
jammerbugt
jan
jana
jane
janeiro
janet
janis
janne
jannik
jansen
janssen
jansson
januar
january
janus
janusz
japan
japanere
japanerne
japanese
japans
japansk
japanske
jar
jardin
jared
jarl
jarlen
jarlsberg
jaroslav
jarrett
jasmin
jason
jasper
java
javier
javnaðarflokkurin
jay
jazeera
jazykova
jazz
jazzmusiker
je
jean
jeanette
jeanne
jeans
jedi
jef
jeff
jefferson
jeffrey
jeg
jehovas
jekaterina
jekyll
jelena
jelling
jena
jenkins
jenna
jenner
jennifer
jennings
jenny
jens
jensen
jensens
jeppe
jeppesen
jepsen
jer
jeremias
jeremy
jeres
jerichau
jericho
jern
jernalder
jernalderen
jernbane
jernbaneforbindelse
jernbanegade
jernbaneklubb
jernbaneklubbs
jernbaneknudepunkt
jernbanelinjen
jernbanemuseum
jernbanen
jernbanenet
jernbanenettet
jernbaner
jernbanerne
jernbaneselskab
jernbanestation
jernbanestationen
jernbaneverket
jernet
jernmalm
jernstøberi
jernverk
jerome
jerry
jersey
jerusalem
jerusalems
jerzy
jes
jesper
jespersen
jess
jesse
jessen
jessica
jessie
jesu
jesus
jet
jetfly
jets
jette
jevgenij
jewish
jews
jf
jfr
ji
jia
jian
jiang
jiddisch
jihad
jill
jim
jimi
jimmy
jin
jing
jinping
jl
jo
joa
joachim
joakim
joan
joanna
job
jobbet
jobs
joe
joel
joensen
joey
jog
joh
johan
johann
johanna
johanne
johannes
johannesburg
johannesen
johannesevangeliet
johannessen
johannsen
johans
johansen
johansens
johansson
john
johnny
johns
johnsen
johnson
johnsons
johnston
johs
join
joins
joint
joke
joker
jokeren
jomfru
jomfruen
jomfruer
jon
jonah
jonas
jonatan
jonathan
jones
jong
jonge
joni
jonny
jonsson
jord
jordan
jordanes
jordbrug
jordbund
jordbunden
jordbær
jorde
jordebog
jordegods
jorden
jordens
jorder
jordisk
jordiske
jordoverfladen
jordskælv
jordskælvet
jorge
jorn
jos
jose
josef
josefine
joseon
joseph
josephine
josh
joshua
josiah
journal
journalist
journalisten
journalister
journalisthøjskole
journalistik
journalistisk
journalistiske
journey
joy
joyce
jp
jpg
jpn
jr
jstor
ju
juan
jubel
jubilee
jubilæet
jubilæum
judas
jude
judge
judith
judo
judoinside
judy
judæa
juel
juelsminde
jugoslavien
jugoslaviske
juhl
juice
jul
juleaften
juledag
julekalender
julekalenderen
julemanden
julen
jules
juli
julia
julian
juliane
julie
julien
juliet
juliette
julio
julius
july
jumbo
jump
jun
juncker
junction
june
jung
junge
jungle
junglen
juni
junior
juniors
junker
junkers
juno
jupiter
jupiters
jur
jura
jurassic
jure
juridisk
juridiske
jurij
juris
jurisdiktion
jurist
juristen
jurister
jury
juryen
jus
juss
jussi
just
justice
justin
justine
justinian
justitiarius
justitsminister
justitsministeren
justitsministeriet
justitsministeriets
justitsra
justus
juul
juventus
jv
jvf
jyderup
jydsk
jydske
jydskevestkysten
jylland
jyllands
jyllandsposten
jysk
jyske
jytte
jæger
jægere
jægerne
jægersborg
jægerspris
jærnet
jævn
jævnaldrende
jævne
jævnfør
jævnlig
jævnligt
jævnt
jøde
jødedom
jødedommen
jøden
jøder
jøderne
jødernes
jødisk
jødiske
jørgen
jørgens
jørgensen
jørgensens
jørn
k
ka
kaalund
kaare
kaas
kabel
kabinen
kabinet
kabinettet
kabler
kabul
kadet
kaffe
kaffen
kage
kagen
kager
kahn
kai
kain
kairo
kaiser
kaj
kajak
kakao
kald
kalde
kalder
kaldes
kaldet
kaldt
kaldte
kaldtes
kalender
kalendera
kalenderen
kali
kaliber
kalif
kalifatet
kaliningrad
kalium
kalk
kalkmalerier
kalksten
kalle
kalliope
kalmar
kalmarunionen
kalmbach
kalundborg
kalv
kalvebod
kalvehave
kalø
kam
kameler
kamera
kameraer
kameraet
kamilla
kammer
kammerat
kammerater
kammeraterne
kammeret
kammerherre
kammerjunker
kammermusik
kammerorkester
kammerra
kamp
kampagne
kampagnen
kampagner
kampe
kampen
kampene
kampens
kampesten
kampfly
kamphandlinger
kampmann
kampsport
kampvogn
kampvogne
kampvognen
kamre
kamtjatka
kan
kana
kanal
kanalen
kanalens
kanaler
kanalerne
kanariske
kancelli
kancelliet
kancellira
kand
kandidat
kandidaten
kandidater
kandidaterne
kandidatgrad
kandidatur
kane
kanin
kaniner
kann
kano
kanon
kanonba
kanonen
kanoner
kanonerne
kanonta
kansas
kanske
kansler
kant
kantate
kantater
kantede
kanten
kanter
kantet
kanton
kantonen
kantoner
kanye
kaos
kaotisk
kaotiske
kap
kapacitet
kapaciteten
kapel
kapellan
kapellet
kapelmester
kapital
kapitalen
kapitalisme
kapitalismen
kapitalistiske
kapitel
kapitler
kapitlerne
kapitlet
kapitulation
kapitulerede
kappa
kappe
kappel
kappen
kapsel
kapsler
kaptajn
kaptajnen
kaptajnløjtnant
kar
kara
karakter
karakteren
karakterer
karakteriserede
karakteriserer
karakteriseres
karakteriseret
karakteristik
karakteristika
karakteristisk
karakteristiske
karaktertræk
karantæne
karate
kardinal
kardinalen
kardinaler
kardinalerne
karel
karelen
karelske
karen
kari
karim
karin
karina
karl
karla
karle
karls
karlsen
karlskrona
karlsruhe
karlsson
karlstad
karma
karneval
karoline
karpaterne
karpov
karre
karriere
karrieren
karrierens
karrierer
karrierestop
karrosseri
karsten
karthago
kartoffel
kartofler
kartografi
kartverk
karup
kasakhstan
kaserne
kasernen
kashmir
kaspar
kasparov
kasper
kaspiske
kasse
kassel
kassen
kasser
kasserer
kassetteba
kast
kaste
kastede
kastellet
kaster
kastes
kastet
kastilien
kastrup
kasus
kat
kata
katalog
kataloget
katalysator
katarina
katastrofale
katastrofe
katastrofen
katastrofer
kate
katedral
katedralen
katedralskole
kategori
kategorien
kategorier
kategorierne
kategoriseres
kategoriseret
katerina
katharina
katharine
katherine
kathleen
kathmandu
kathrine
kathryn
kathy
katie
katja
kato
katolicismen
katolik
katolikker
katolsk
katolske
katrin
katrine
katte
kattegat
katten
katy
katz
kauffmann
kaufman
kaufmann
kaukasus
kaunas
kautsky
kavaleri
kavaleriet
kawasaki
kay
kaya
kaye
kazan
kb
kbh
kbu
kc
ke
keaton
ked
keep
keeper
kei
keiser
keith
kejser
kejserdømme
kejsere
kejseren
kejserens
kejserinde
kejserlig
kejserlige
kejserrige
kejserriget
keld
keller
kelly
keltisk
keltiske
kelvin
kemi
kemikalier
kemiker
kemisk
kemiske
kemp
ken
kendall
kende
kendelse
kender
kendes
kendetegn
kendetegnende
kendetegner
kendetegnes
kendetegnet
kendo
kendsgerning
kendskab
kendskabet
kendt
kendte
kendteste
kenji
kennedy
kennedys
kennel
kenneth
kenny
kensington
kent
kentucky
kenya
kepler
ker
kerala
keramik
keramiker
keramiske
kern
kerne
kernen
kerneomra
kerner
kerneva
kerr
kerry
kerteminde
kesselring
kessler
kevin
key
keyboard
keyboards
keyboardspiller
keynes
keys
kf
kfum
kg
kgb
kgl
kh
khader
khalid
khalifa
khan
khanatet
khans
khaosod
kharkiv
kherson
khl
khomeini
khrusjtjov
khz
ki
kia
kiby
kick
kicker
kid
kidd
kidde
kidman
kidnappet
kids
kiel
kierkegaard
kierkegaards
kiev
kif
kig
kigge
kiggede
kigger
kijev
kilde
kildehenvisninger
kildemateriale
kilden
kilder
kilderne
kill
killed
killer
killers
killing
kills
kilo
kilogram
kilometer
kilometers
kim
kimball
kimberly
kin
kina
kinaportalen
kinas
kind
kinden
kinder
kineser
kinesere
kineserne
kinesisk
kinesiske
king
kingdom
kingo
kings
kingsley
kingston
kinks
kinney
kino
kiosk
kira
kirby
kirche
kirgisistan
kirill
kirjailija
kirk
kirke
kirkebog
kirkebogserier
kirkeby
kirkedistrikt
kirkega
kirkegaard
kirkegaarden
kirkehistorie
kirkelig
kirkelige
kirkeligt
kirkeminister
kirkemusik
kirken
kirkens
kirker
kirkerne
kirkerummet
kirkes
kirkesamfund
kirkeskibet
kirketa
kirkja
kirsebær
kirsten
kirstine
kirtler
kirurg
kirurgi
kirurgisk
kirurgiske
kiss
kiste
kisten
kister
kit
kitchen
kitty
kiøbenhavn
kjeld
kjeldsen
kjell
kjellerup
kjende
kjender
kjendt
kjendte
kjer
kjole
kjoler
kjær
kjære
kjærgaard
kjærlighed
kjærligheden
kjærsgaard
kjærulff
kjøbenhavn
kjøbenhavns
kjøbenhavnske
kjød
kjødet
kk
kl
kla
klage
klagede
klager
klaksvi
klampenborg
klan
klanen
klaner
klang
klap
klappede
klar
klara
klare
klarede
klarer
klarere
klaret
klarhed
klarhedsfaktorer
klarinet
klart
klaser
klasse
klassen
klassens
klasser
klasserne
klasses
klassetrin
klassificeres
klassificeret
klassificering
klassifikation
klassiker
klassikere
klassisk
klassiske
klatre
klaus
klaver
klaveret
klaverkoncert
klaverkoncerter
klaverstykker
klein
kleine
kleist
klem
klemme
kleopatra
kliche
klient
klienter
klik
klim
klima
klimaanlæg
klimaet
klimaforandringer
klimatiske
klimaændringer
klinge
klingenberg
klinger
klinik
klinisk
kliniske
klint
klip
klippe
klippen
klipper
klipperne
klippet
klit
klitgaard
klitplantage
klitter
klitterne
klo
kloden
klog
kloge
klogere
klogt
klokke
klokken
klokker
klokketa
kloster
klosteret
klosterets
klosterkirke
klosterkirken
klosters
klostre
klostret
klovn
klub
klubben
klubbens
klubber
klubberne
klubhold
klubhus
klubplan
klump
klæde
klædefabrik
klæder
klædning
klædt
klædte
kløer
kløft
kløften
kløfter
klør
kløvedal
kløver
km
kmd
kmdvalg
kn
knap
knapper
knapt
kneb
knibe
knife
knight
knights
kniv
knive
kniven
knob
knock
knockout
knogle
knogler
knoglerne
knopf
knopper
knopperne
know
knowledge
knowles
known
knows
knox
knr
knud
knude
knudepunkt
knuder
knuds
knudsen
knudsens
knuse
knust
knuste
knut
knuth
knuthenborg
knutzon
knytte
knyttede
knytter
knyttes
knyttet
knæ
knæet
knæk
knække
knækkede
knækket
ko
koalition
koalitionen
koalitionsregering
kobber
kobberstik
kobe
kobles
koblet
koch
kock
koda
kode
koden
kodenavnet
koder
koefoed
koen
kofod
kofoed
kog
koge
kogebog
kogende
koger
koges
kognitiv
kognitive
kogt
kogte
koh
kohei
kohl
koji
kok
kokain
kokkedal
koks
kold
kolde
koldere
koldeste
kolding
koldinghus
koldt
kolera
kolind
kolkata
kollaps
kollapsede
kollega
kollegaen
kollegaer
kolleger
kollegier
kollegiet
kollegium
kollektiv
kollektive
kollektivt
kolliderede
kollision
koloni
kolonien
koloniens
kolonier
kolonierne
kolonisering
kolonister
kolonne
kolonner
kom
koma
kombination
kombinationen
kombinationer
kombinere
kombinerede
kombinerer
kombineres
kombineret
komedie
komediefilm
komedien
komedier
komet
komi
komiker
komikere
komikeren
komisk
komiske
komite
komiteen
kommandant
kommandanten
kommanderede
kommanderende
kommando
kommandoen
kommandoer
kommandør
kommandørkaptajn
komme
kommen
kommende
kommentar
kommentarer
kommentator
kommentatorer
kommenterede
kommenteret
kommer
kommerciel
kommercielle
kommercielt
kommes
kommet
kommission
kommissionen
kommissionens
kommissioner
kommissær
kommitteret
kommun
kommuna
kommunal
kommunalbestyrelse
kommunalbestyrelsen
kommunale
kommunalreformen
kommunalt
kommunalvalg
kommunalvalget
kommune
kommunefællesskab
kommunegrænsen
kommunen
kommunens
kommuner
kommunerne
kommunernes
kommunes
kommunikation
kommunikationen
kommunikationstechnologie
kommunikere
kommunisme
kommunismen
kommunist
kommunister
kommunisterne
kommunistisk
kommunistiske
kommunistparti
kommunistpartiet
komne
komp
kompagni
kompagnichef
kompagnier
kompagniet
kompakt
kompakte
komparativ
kompas
kompatible
kompensation
kompensere
kompetence
kompetencer
kompleks
komplekse
komplekset
kompleksitet
komplekst
komplet
komplette
komplicerede
kompliceret
komplikationer
komponent
komponenter
komponere
komponerede
komponeret
komponist
komponisten
komponister
komposition
kompositionen
kompositioner
kompromis
komtesse
kon
koncentration
koncentrationen
koncentrationer
koncentrationslejr
koncentrationslejre
koncentrationslejren
koncentrere
koncentrerede
koncentreret
koncept
koncepter
konceptet
koncern
koncernen
koncernens
koncert
koncerten
koncerter
koncerterne
koncertmusik
koncertsal
koncession
koncil
konduktør
kone
konen
koner
kones
konference
konferencen
konferencer
konferensra
konfiguration
konfirmation
konfiskeret
konflikt
konflikten
konflikter
konfrontation
konføderationen
konfødererede
kong
konge
kongea
kongedømme
kongedømmer
kongedømmet
kongefamilie
kongefamilien
kongehus
kongehuset
kongehusets
kongelig
kongelige
kongeligt
kongemagt
kongemagten
kongen
kongens
kongensgade
konger
kongerige
kongeriger
kongeriget
kongerigets
kongerne
kongernes
kongers
konges
kongevej
kongo
kongres
kongressen
kongsberg
kongsga
kongsvinger
konjugation
konkluderede
konkluderer
konklusion
konklusionen
konklusioner
konkret
konkrete
konkurrence
konkurrencen
konkurrencer
konkurrencerne
konkurrent
konkurrenter
konkurrere
konkurrerede
konkurrerende
konkurrerer
konkurreret
konkurs
konrad
konseilspræsident
konsekvens
konsekvensen
konsekvenser
konsekvenserne
konsekvent
konsensus
konservativ
konservative
konservativt
konservatoriet
konsistens
konsonanter
konsortium
konstant
konstante
konstantin
konstantinopel
konstatere
konstaterede
konstateres
konstateret
konstituerende
konstitueret
konstitutionelle
konstitutionelt
konstruere
konstruerede
konstrueret
konstruktion
konstruktionen
konstruktioner
konstschilders
konsul
konsulent
kontakt
kontakte
kontaktede
kontakten
kontakter
kontaktet
kontant
kontekst
konti
kontinent
kontinentale
kontinenter
kontinentet
kontinuerlig
kontinuerligt
kontinuitet
konto
kontor
kontorchef
kontorer
kontoret
kontra
kontrabas
kontrakt
kontrakten
kontrakter
kontrast
kontreadmiral
kontrol
kontrollen
kontrollere
kontrollerede
kontrollerer
kontrolleres
kontrolleret
kontrovers
kontroverser
kontroversiel
kontroversielle
kontroversielt
konvention
konventionel
konventionelle
konventionen
konventioner
konversationsleksikon
konvertere
konverterede
konverteret
konvoj
konvojer
koordinater
koordinatsystem
koordinere
koordineret
kop
kopenhagen
kopernikus
kopi
kopier
kopiere
kopieret
koppel
kopper
kor
koralrev
koranen
korbuen
korch
korea
koreakrigen
korean
koreansk
koreanske
koreas
koreograf
koret
korets
korinth
korn
kornerup
kornet
korps
korpset
korrekt
korrekte
korrekthed
korrespondance
korrespondent
korresponderende
korridor
korridorer
korruption
kors
korsbæk
korset
korsfarerne
korsfæstelsen
korsgaard
korsika
korstog
korsør
kort
korte
kortene
kortere
korteste
kortet
kortfattet
kortfilm
kortfilmen
kortlægge
kortlægning
kortspil
korttilkirken
kortvarig
kortvarige
kortvarigt
kortviser
korværker
kos
kosmisk
kosmiske
kosmologi
kosmos
kosovo
kost
kostbar
kostbare
koste
kostede
kosten
koster
kostet
kostskole
kostume
kostumer
kova
kp
kr
kra
krabbe
kraft
kraften
kraftfulde
kraftig
kraftige
kraftigere
kraftigste
kraftigt
kraftværk
kraftværker
kraftværket
krag
krage
kragh
kraj
krak
krako
kraks
kramer
kramnik
kraniet
krans
krarup
krasnodar
krat
krater
kraterbunden
kratere
krateret
kraternavne
krause
krav
kravene
kravet
kravle
kreativ
kreative
kreativitet
kreaturer
krebs
krebsdyr
kredit
krediteret
kreditering
kreditorer
kreds
kredse
kredsen
kredser
kredsløb
kreis
kreisen
kreml
kresten
kreta
kridt
krieg
krieger
krig
krige
krigen
krigene
krigens
kriger
krigere
krigs
krigsa
krigsfanger
krigsforbrydelser
krigsførelse
krigsførende
krigsminister
krigsministeriet
krigsra
krigsskib
krigsskibe
krigstjeneste
krim
krimi
kriminalitet
kriminalroman
kriminel
kriminelle
krimkrigen
kringvarp
kris
krise
krisen
kriser
krishna
krishnamurti
kristelig
kristelige
kristeligt
kristen
kristendemokraterne
kristendom
kristendommen
kristendommens
kristensen
kristensens
kristent
kristi
kristian
kristiania
kristiansand
kristiansen
kristianstad
kristin
kristina
kristine
kristne
kristnes
kristoffer
kristus
kriterier
kriterierne
kritik
kritiker
kritikere
kritikerne
kritikken
kritisere
kritiserede
kritiserer
kritiseret
kritisk
kritiske
kro
kroatien
kroatiens
kroatisk
kroatiske
kroen
kroer
krog
krogen
krogh
krohn
kromosom
kromosomer
kronblade
kronborg
krone
kronede
kronen
kronens
kroner
krones
kronet
krongods
kronik
kroning
kroningen
kronisk
kroniske
kronologi
kronologisk
kronprins
kronprinsen
kronprinsens
kronprinsesse
krop
kroppe
kroppen
kroppens
kru
krucifiks
krudt
krumme
kruse
krybdyr
krybe
krybende
krydderi
krydderier
krydret
kryds
krydse
krydsede
krydser
krydsere
krydses
krydset
krydsning
krydsningsspor
krystal
krystaller
krzysztof
kræft
kræftens
kræfter
kræfterne
krænkelse
krænket
kræve
krævede
krævende
kræver
kræves
krævet
krøb
krønike
krøniken
krøniker
krøyer
ks
ku
kubikmeter
kuffert
kugle
kuglen
kugler
kuglestød
kuhn
kul
kuld
kulde
kulden
kuldioxid
kulhydrater
kull
kulminationen
kulminerede
kulstof
kult
kultur
kulturarv
kulturarvsstyrelsen
kulturarvsstyrelsens
kulturcenter
kulturel
kulturelle
kulturelt
kulturen
kulturens
kulturer
kulturfag
kulturhistorie
kulturhistorisk
kulturhistoriske
kulturhus
kulturhuset
kulturkanonen
kulturliv
kulturminister
kulturministeriet
kulturministeriets
kulturminnesok
kulturnett
kulturpris
kulturrevolutionen
kulturstyrelsen
kumar
kun
kunde
kunden
kunder
kunderne
kundskab
kundskaber
kung
kungliga
kunne
kunnen
kunnet
kuns
kunst
kunstakademi
kunstakademiet
kunstakademiets
kunsten
kunstens
kunster
kunstfond
kunstfonds
kunstforening
kunstforeningen
kunstha
kunsthal
kunsthistorie
kunsthistoriker
kunstig
kunstige
kunstigt
kunstindeks
kunstmaler
kunstmuseet
kunstmuseum
kunstner
kunstnere
kunstneren
kunstnerens
kunstneres
kunstnerisk
kunstneriske
kunstnerleksikon
kunstnernavn
kunstnernavnet
kunstnerne
kunstnernes
kunstudstilling
kunstværk
kunstværker
kup
kuperet
kuppel
kuppet
kur
kurator
kurdere
kurdisk
kurdiske
kurdistan
kure
kurfyrste
kurland
kurs
kursen
kurser
kursiv
kursk
kursus
kurt
kurv
kurve
kurven
kurver
kusine
kusk
kuwait
kv
kvad
kvadrat
kvadratisk
kvadratkilometer
kvadratmeter
kvalificere
kvalificerede
kvalificerer
kvalificeret
kvalifikation
kvalifikationen
kvalifikationer
kvalifikationskamp
kvalifikationskampe
kvalifikationsrunde
kvalifikationsrunden
kvalifikationsturneringen
kvalitet
kvaliteten
kvaliteter
kvalme
kvalt
kvart
kvartal
kvartalet
kvarter
kvarterer
kvarteret
kvartet
kvartetten
kvartfinale
kvartfinalen
kvartfinalerne
kvarts
kvf
kvik
kviksølv
kvinde
kvindebiografisk
kvindefodbold
kvindefodboldlandshold
kvindeha
kvindehold
kvindelig
kvindelige
kvindeligt
kvinden
kvindens
kvinder
kvinderne
kvindernes
kvinders
kvindes
kvinfo
kvist
kviste
kvæg
kvæget
kvælstof
kvæstelser
kvæstet
kw
kwh
kyi
kyiv
kyle
kylie
kylling
kyoto
kyrka
kys
kysse
kyssede
kysser
kysset
kyst
kystbanen
kysten
kyster
kysterne
kystlinje
kystlinjen
kystnære
kystomra
kyu
kz
kæde
kæden
kæder
kælder
kælderen
kæledyr
kælenavn
kælenavnet
kæmpe
kæmpede
kæmpende
kæmper
kæmpet
kær
kære
kæreste
kæresten
kærester
kærlig
kærlighed
kærligheden
kærlighedens
kærlighedshistorie
kætteri
kø
køb
købe
københavn
københavns
københavnsk
københavnske
køber
købes
købet
købmagergade
købmand
købmanden
købmandsga
købmænd
købstad
købstaden
købstadsrettigheder
købstæder
købstæderne
købstædernes
købt
købte
kød
kødet
køer
køge
køkken
køkkenet
køl
kølig
kølige
køligt
kølvandet
køn
kønnene
køre
kørekort
kørende
køreplan
kører
køres
køretøj
køretøjer
køretøjet
kørsel
kørslen
kørt
kørte
kørtes
l
la
laa
laae
lab
laban
label
labor
laboratorier
laboratoriet
laboratorium
laboratory
labour
labrador
labyrint
lac
lad
lada
lade
ladede
ladega
laden
ladeplads
lader
lades
ladet
ladies
ladning
ladoga
ladt
lady
lafayette
lag
laga
lagde
lagdes
lage
lager
lagmand
lago
lagre
lagret
lagring
lagt
lagtinget
lagtingets
lagtingsvalget
laguna
lai
laila
laine
lak
lake
lakes
laks
lam
lama
lamas
lamb
lambda
lambert
lammet
lampe
lampen
lamper
lan
lancashire
lancaster
lance
lancerede
lanceret
lanceringen
lancet
lancetformede
lancia
land
landareal
landau
landbohistorisk
landbohøjskolen
landboreformerne
landbrug
landbruget
landbrugets
landbrugs
landbrugsejendom
landbrugsjord
landbrugsminister
landbrugsomra
landbrugsprodukter
landbrugsskole
landdag
landdagen
landdistrikter
landdistrikterne
lande
landede
landene
landenes
lander
landes
landesbetrieb
landet
landets
landevej
landevejen
landevejscykelrytter
landevejscykling
landevejsløb
landflygtighed
landgang
landgangen
landgreve
landing
landingsbane
landingsbanen
landjorden
landkommune
landkort
landkreis
landkreisen
landlige
landma
landmand
landmænd
landomra
landon
lands
landsarkivet
landsat
landsby
landsbyen
landsbyens
landsbyer
landsbyerne
landscape
landschaft
landsdel
landsdele
landsdommer
landsdækkende
landsforening
landsforeningen
landsformand
landshold
landsholdet
landsholdsdatabase
landsholdsdatabasen
landsholdsspiller
landshut
landskab
landskabelige
landskaber
landskabet
landskabsmaler
landskamp
landskampe
landskapet
landskendt
landskrona
landsmand
landsmanden
landsmænd
landsmøde
landsplan
landspokalturnering
landsra
landsret
landsretssagfører
landsretten
landsstyre
landsted
landstedet
landsthinget
landsting
landstinget
landstingets
landstingsmand
landstræner
lane
lang
langa
langballe
langberg
lange
langebro
langeland
langelinie
langen
langer
langes
langkilde
langle
langobarderne
langrend
langs
langsigtede
langsigtet
langsom
langsomme
langsommere
langsomt
langstrakt
langstrakte
langt
langtfra
langtrækkende
language
languages
langvarig
langvarige
lanka
lao
laos
lapland
lara
laren
large
largest
larm
larry
lars
larsen
larsens
larson
larsson
larven
larver
larverne
larvik
las
laser
lasker
lasse
lassen
last
lastbil
lastbiler
lastet
lat
late
later
latest
latin
latinamerika
latinamerikanske
latinsk
latinske
latinskole
latinskolen
latter
latvia
latvijas
lau
laub
laudrup
lauenborg
lauenburg
lauge
launch
launches
laur
laura
laurbær
laurel
lauren
laurence
laurent
laurentius
laurids
lauridsen
laurie
lauring
laurits
lauritsen
lauritz
lauritzen
laursen
laurvig
lausanne
laust
lav
lava
laval
lavard
lave
lavede
laver
lavere
laves
lavest
laveste
lavestliggende
lavet
lavland
lavlandet
lavt
lavtliggende
lavvandede
lavvandet
law
lawn
lawrence
laws
lawson
lay
layout
lazio
lb
lborg
lc
lcd
ld
ldencrone
ldifference
le
lea
lead
leader
leaders
leadership
leading
leads
leaf
league
lean
leander
learn
learning
least
leave
leaves
leaving
lebech
leben
lebordsblad
lebordsblade
lech
lecture
led
lede
ledede
ledelse
ledelsen
ledende
leder
ledere
lederen
lederne
lederskab
ledes
ledet
ledger
ledig
ledige
ledning
ledninger
ledreborg
ledsage
ledsagede
ledsager
ledsagere
ledsaget
ledt
ledte
lee
leeds
leende
leenhed
leer
lees
left
leg
legacy
legal
legat
legater
legatet
lege
legede
legeme
legemer
legemet
legemets
legemlige
legen
legend
legendarisk
legendariske
legende
legenden
legender
legends
legene
legeplads
leger
legetøj
legion
legitime
lego
legoland
legrand
lehmann
lehn
lei
leibniz
leicester
leiden
leif
leigh
leilighed
leipzig
leje
lejeaftale
lejede
lejema
lejer
lejesoldater
lejet
lejlighed
lejligheden
lejligheder
lejlighedsvis
lejr
lejre
lejren
lejrene
leksikon
leksikons
lektor
lem
lemmer
lemvig
lemvigh
len
lena
lende
lene
length
lengua
lenin
leningrad
lenins
lennart
lennon
lenny
lens
lensbaron
lensgreve
lensmand
lensmanden
leo
leon
leonard
leonardo
leone
leonid
leonora
leopard
leopold
leq
ler
lerche
lerenga
leroy
les
lesbiske
lescharts
lesley
leslie
less
lessing
lesson
lessons
lester
lestok
lesund
let
letbane
letbanen
leth
lethed
letland
letlands
letour
letræer
letsværvægt
lette
lettede
lettelse
letter
lettere
letters
lettet
lettisk
lettiske
lettres
letvægt
lev
leve
levea
levede
level
levels
levende
lever
leverandør
leverandører
levere
leverede
leveren
leverer
leveres
leveret
levering
leverkusen
levested
levesteder
levet
levetid
levetzau
levetzow
levevilka
levevis
levi
levin
levine
levn
levned
levy
lewis
lex
lexicon
lexikon
lexin
lexington
lexopen
lez
lf
lforskel
lg
lgbt
lgruppe
lgruppen
lhasa
li
lia
liam
libanon
liber
liberal
liberale
liberalisme
liberalt
liberation
liberia
libertadores
liberty
library
libretto
libris
libyen
libyske
licens
license
licensen
lich
lichtenberg
lid
liddell
lide
lidegaard
lidelig
lidelige
lidelse
lidelsen
lidelser
liden
lidende
lidenskab
lider
lidet
lidt
lie
liebe
liechtenstein
lied
lieden
lieder
lies
lietu
lieutenant
life
lifetime
lift
lig
liga
ligaen
ligaens
ligaer
ligakampe
lige
ligefrem
ligeglad
ligegyldig
ligegyldighed
ligegyldigt
ligeledes
ligeligt
ligene
ligeoverfor
ligesa
ligesaa
ligesom
ligestilling
liget
ligevægt
ligge
liggende
ligger
ligget
lighed
ligheder
light
lighthouse
lightning
lights
lign
ligne
lignede
lignende
ligner
ligning
ligningen
ligninger
ligt
ligue
like
lil
lilholt
lili
lilian
lilla
lille
lilleasien
lillebror
lillebælt
lillehammer
lillesøster
lillian
lilly
lily
lim
lima
limburg
lime
limfjorden
limit
limited
limits
limousine
lin
lina
lincoln
lincolnshire
lind
linda
lindberg
linde
lindegaard
lindemann
linden
lindenov
lindgren
lindhardt
lindholm
lindsay
line
linear
lines
lineær
lineære
ling
lingen
linger
lingerne
lingvistik
linie
linien
linier
linje
linjeformede
linjeføring
linjeløb
linjen
linjer
linjerne
linjeændringer
link
linkedin
linkin
linko
links
linn
linne
linnet
linse
linser
linus
linux
linz
lion
lionel
lions
lippe
liquid
lis
lisa
lisbet
lisbeth
lisbjerg
lise
lissabon
list
lista
listan
liste
listed
listede
listen
lister
listet
lists
liszt
lit
litauen
litauens
litauisk
litauiske
liter
literacy
literary
literatur
literature
liters
litersmotor
lithium
lithuania
litografi
litra
litteratur
litteraturen
litteraturhistorie
litteraturhistoriker
litteraturpris
litteraturpriser
litteraturs
litteraturselskab
litteratursiden
litteraturvidenskab
litterær
litterære
litterært
little
littlefield
liu
liv
liva
live
livealbum
liverpool
lives
livet
livets
livgarde
livgarden
living
livingston
liviske
livland
livlig
livlige
livligt
livregiment
livs
livsform
livsformer
livskunst
livslang
livsstil
livssyn
livstid
livsvarigt
lix
liz
liza
lizzie
lizzy
lje
ljubljana
ljudmila
lk
lkaflokkurin
lkerung
lkvotient
ll
lla
llc
lle
ller
llers
lloyd
lm
lmand
lmanden
lmodighed
ln
lne
lo
loa
loan
local
location
locations
loch
lock
locke
lockheed
lod
lodge
lodret
lodrette
lodtrækning
lodtrækningen
loe
lofoten
loft
loftet
log
logan
loge
logi
logic
logik
logisk
logiske
logistik
logo
logoet
logos
lohmann
loire
lois
lokal
lokalavisen
lokalbefolkningen
lokale
lokaler
lokalerne
lokalhistorisk
lokalhistoriske
lokaliseret
lokalitet
lokaliteter
lokalomra
lokalplan
lokalra
lokalt
lokaltog
loke
lokke
lokkede
lokker
lokket
lokomotiv
lokomotiver
lola
lolland
lollands
lombardiet
lomme
lommen
lommer
lon
london
londons
lone
lonely
lonesome
long
longer
longest
longman
longstreet
look
looking
looks
loop
lopez
lorck
lord
lords
lorentz
lorentzen
lorenz
lorenzen
lorenzo
lorraine
lorry
lort
los
lose
loser
losere
loss
lost
lot
lothar
lothringen
lotta
lotte
lotto
lotus
lou
loud
louis
louisa
louise
louises
louisiana
lounge
louvre
lov
love
loved
lovede
loven
lovende
lovene
lovens
lover
lovers
loves
lovet
lovforslag
lovforslaget
lovgivende
lovgivning
lovgivningen
lovgivningsmagten
loving
lovlig
lovlige
lovligt
lovs
low
lowe
lower
loyal
loyale
loyalitet
lp
lpi
lrettet
ls
lsd
lstegn
lstregen
lsætning
lt
lta
ltd
lte
ltid
ltider
lu
lublin
luc
luca
lucas
lucca
lucia
luciano
lucie
lucien
lucifer
lucius
luck
lucky
lucy
ludvig
ludvigsen
ludwig
luft
luftangreb
luftba
luften
luftens
luftfart
luftfugtighed
lufthavn
lufthavne
lufthavnen
luftkaffe
luftrum
luftskib
luftskibe
luftskibet
luftva
luftwaffe
luger
lugt
lugter
luhansk
lui
luigi
luis
luise
luiz
luk
luka
lukas
luke
lukke
lukkede
lukker
lukkes
lukket
lukning
lukningen
luksus
lulea
lulu
lumbye
luna
lunaire
lunar
lund
lundberg
lundby
lundbye
lunde
lunden
lunderskov
lundgaard
lundgren
lundin
lunds
lundtofte
lune
lunge
lungebetændelse
lungekræft
lunger
lungerne
lupus
lur
lus
luther
luthers
luthersk
lutherske
luton
lutter
lux
luxembourg
luxembourgsk
luxemburg
luzern
lv
lvaro
lven
lviv
lvsty
ly
lyd
lyde
lyden
lydende
lyder
lydfiler
lydia
lydighed
lydtekniker
lygte
lygter
lyhne
lykke
lykkedes
lykkelig
lykkelige
lykkeligt
lykken
lykkens
lykkes
lyksalighed
lyksborg
lyn
lynch
lyne
lynet
lyng
lyngby
lynge
lynn
lynne
lynx
lyon
lyons
lyra
lyrics
lyrik
lyriker
lyrisk
lyriske
lys
lysa
lyse
lysebla
lysegrøn
lysegrønne
lysende
lysene
lyser
lysere
lyserød
lyserøde
lyset
lysets
lyst
lystba
lyste
lysten
lyster
lystig
lystige
lystrup
lystspil
lyt
lytte
lyttede
lytter
lyttere
lyve
lyver
lz
læ
læber
læberne
læder
læg
læge
lægemiddel
lægemidler
lægen
læger
lægerne
lægevidenskab
lægfolk
lægge
lægger
lægges
læk
lækket
lænestol
længde
længdegrad
længdekreds
længden
længdespring
længe
længer
længere
længerevarende
længes
længsel
længst
længste
længtes
lænker
lær
lærd
lærde
lærdom
lære
læreanstalt
lærebog
lærebøger
læren
lærer
lærere
læreren
lærerinde
lærerne
læreruddannelsen
læres
læring
lærke
lærling
lærred
lært
lærte
læs
læse
læser
læsere
læseren
læserne
læses
læsning
læssespor
læst
læste
læsø
løb
løbe
løbebane
løbende
løber
løbere
løbet
løbets
lød
løft
løfte
løftede
løfter
løftes
løftet
løg
løgn
løgne
løgstrup
løgstør
løgtingið
løgumkloster
løjtnant
løkke
løkken
løn
lønborg
lønnen
lønninger
lønstrup
lørdag
løs
løse
løser
løses
løsgænger
løsladelse
løsladt
løsning
løsningen
løsninger
løsrivelse
løst
løste
løv
løve
løven
løvenskiold
løver
løvet
løvfældende
løvskov
løvskove
m
ma
maa
maade
maader
maae
maal
maaned
maaneder
maanen
maas
maaske
maaskee
maastricht
maatte
maattet
mabel
mac
macao
macarthur
macbeth
maccabi
macdonald
mach
machine
machines
macintosh
mack
mackenzie
mackeprang
macmillan
macron
macy
mad
madagascar
madagaskar
madam
madame
made
madeira
madeleine
maden
madison
madlavning
madness
madonna
madras
madrid
mads
madsen
madsens
madvarer
mae
maersk
mafia
mafiaen
mag
magasin
magasiner
magasinet
magazin
magazine
magda
magdalena
magdalene
magdeburg
mage
magen
mager
maggie
magi
magic
magisk
magiske
magister
magisteren
magistrat
magistraten
magleby
magma
magna
magne
magnesium
magnet
magnetfelt
magnetic
magnetisk
magnetiske
magnu
magnum
magnus
magnussen
magnusson
magre
magt
magten
magtens
magter
magtfuld
magtfulde
magthavere
magtovertagelse
maguire
magyar
mahal
mahatma
mahler
mahmoud
mai
maid
maiden
mail
mails
main
maine
mainstream
mainz
maison
maj
maja
majesty
majestæt
major
majoritet
majoriteten
majs
make
makedonien
makedonsk
makedonske
maker
makes
making
makker
makkere
makoto
maks
maksim
maksimal
maksimale
maksimalt
maksimum
mal
mala
malaria
malawi
malaya
malaysia
malaysiske
malcolm
male
malede
malene
maler
malere
maleren
maleri
malerier
malerierne
maleriet
malerisamling
malerisk
maleriske
malerkunst
malerne
malet
malfoy
mali
malik
malin
maling
malling
mallorca
mallory
malm
malmo
malmros
malmø
malone
malt
malta
malte
malthe
mama
mamma
mammals
man
management
manager
managerprofil
manchester
manchuriet
mand
mandag
mandal
mandarin
mandat
mandater
mandatomra
mandela
manden
mandens
mandfolk
mandkøn
mandler
mandlig
mandlige
mandolin
mandrilaftalen
mands
mandskab
mandskabet
mandskor
mandy
mandø
mane
manet
manfred
manga
mangaen
mangan
mange
mangea
mangel
mangelfuld
mangen
mangfoldige
mangfoldighed
mangle
manglede
manglen
manglende
mangler
mangt
manhattan
mani
manifest
manila
manipulation
mann
mannheim
manning
manor
mans
mansfield
mansion
manson
mantova
manu
manual
manuel
manuelt
manufacturing
manus
manuskript
manuskripter
manuskriptet
manuskriptforfatter
many
manøvre
manøvrer
mao
maos
map
maple
mapping
maps
mar
mara
marathon
maraton
marburg
marc
marcel
marcelo
march
marche
marchen
marchere
marcherede
marcia
marco
marcos
marcus
marcussen
mare
marek
maren
mareridt
margaret
margareta
margaretha
margarita
marge
margit
margot
margrete
margrethe
marguerite
mari
maria
mariager
mariagerfjord
mariah
marian
mariane
marianne
marias
maribo
marie
marienlyst
maries
marija
marilyn
marin
marina
marine
marinen
marinens
mariner
marines
marinesoldater
marino
marinus
mario
marion
marit
maritim
maritime
marius
marjorie
mark
markant
markante
marked
markeder
markedet
markedsandel
markedsføre
markedsføres
markedsføring
markedsført
markedsplads
markedsøkonomi
marken
marker
markere
markerede
markerer
markeres
markeret
markering
markerne
market
marketing
markets
markgreve
markis
marko
marks
markt
markus
marlborough
marlene
marley
marlon
marmor
marne
marokkanske
marokko
marquis
marriage
married
mars
marsden
marseille
marselisborg
marsh
marshal
marshall
marsk
marskal
marsken
marstal
marstrand
marsvin
mart
marta
martens
martha
marti
martial
martin
martina
martine
martinez
martini
martins
martinus
marts
marty
martyr
marvel
marvin
marx
marxistisk
marxistiske
mary
maryland
mas
mask
maske
masken
masker
maskine
maskinen
maskiner
maskineri
maskinerne
maskinfabrik
maskingevær
maskingeværer
mason
mass
massachusetts
massacre
massakre
massakren
masse
massefylde
massen
masser
massey
massiv
massive
massivt
mast
masten
master
masters
mat
matador
matadora
match
matchen
matcher
matches
mate
matematik
matematiker
matematikere
matematikken
matematisk
matematiske
mater
material
materiale
materialer
materialerne
materialet
materialisme
materials
materiel
materielle
math
mathbb
mathbf
mathematical
mathematics
mathias
mathiesen
mathieu
mathilde
mathrm
matilda
matilde
matisse
matrikel
matrix
mats
matt
matteo
matter
matters
matthesen
matthew
matthews
matthias
matthæus
matti
mattias
mauboy
maud
maude
maureen
mauretanien
maurice
mauritius
maurits
mauro
mausoleum
mave
maven
max
maxi
maxim
maximilian
maximum
maximus
maxwell
may
maya
mayer
maynard
mayo
mayor
mazda
mazurka
mb
mba
mbox
mc
mccann
mccarthy
mccartney
mcclellan
mccoy
mcdonald
mcdonnell
mcdowell
mcfarland
mcgraw
mcgregor
mckenzie
mckinley
mclaren
mcmahon
mcmxxviii
mcpherson
md
mdr
me
mead
meade
mean
meaning
means
meat
mechanics
mecklenburg
med
medaillen
medal
medalje
medaljen
medaljer
medaljerne
medaljetabel
medarbejder
medarbejdere
medarbejderne
medborgere
medbragt
medbragte
medbringe
meddele
meddelelse
meddelelsen
meddelelser
meddeler
meddeles
meddelt
meddelte
medejer
medens
medforfatter
medfødt
medfødte
medfølelse
medfølgende
medfør
medføre
medfører
medført
medførte
medgift
medhjælper
medhold
media
medical
medici
medicin
medicine
medicinsk
medicinske
medie
medien
medier
mediera
medierne
mediernes
mediet
medieval
medina
medio
meditation
mediterranean
medium
medlem
medlemmer
medlemmerne
medlemmernes
medlemsblad
medlemskab
medlemslande
medlemslandene
medlemsstat
medlemsstater
medlemsstaterne
medlemsstaternes
medlemstal
medley
medlidenhed
medmindre
medredaktør
medregnes
medregnet
medstifter
medtaget
meduza
medvirke
medvirkede
medvirken
medvirkende
medvirker
medvirket
medvirkning
meel
meer
meest
meet
meeting
meets
meg
mega
megadeth
megan
megen
meget
mehdi
mehmet
mei
meier
mein
meine
meister
mejer
mejeri
mejeriet
mekanik
mekaniker
mekanisk
mekaniske
mekanisme
mekanismer
mekka
mel
melanie
melankolsk
melbourne
melchior
meldahl
melde
melder
melding
meldt
meldte
melinda
melissa
melk
mellem
mellemamerika
mellemklassebil
mellemkrigstiden
mellemliggende
mellemrum
mellemste
mellemstore
mellemtiden
mellemvægt
mellemøsten
mellom
melodi
melodien
melodier
melodisk
melodiske
melody
melville
member
members
membran
memoir
memoirs
memorial
memories
memory
memphis
men
mendelssohn
mendes
mene
mener
menes
mengele
menig
menige
menighed
menigheden
menighedens
menigheder
menighedsra
mening
meningen
meninger
meningsma
menneske
menneskealder
menneskeheden
menneskehedens
menneskelig
menneskelige
menneskeligt
menneskeliv
menneskene
menneskenes
mennesker
menneskerettigheder
menneskerettighederne
menneskers
menneskes
menneskeskabte
menneskesønnen
mennesket
menneskets
mens
ment
mental
mentale
mentalt
mente
mentes
mentor
menu
menved
menzel
mer
mera
merc
mercedes
mercer
mercury
mercy
mere
meredith
merete
merit
merkel
merkur
merlin
mermaid
merriam
merry
mertz
mes
mesa
mesopotamien
message
messe
messen
messenger
messer
messerschmitt
messias
messing
mest
meste
mester
mesteren
mesterhold
mesterholdenes
mesterskab
mesterskaber
mesterskaberne
mesterskabet
mesterværk
mestre
met
meta
metacritic
metafysik
metal
metalband
metaller
metallet
metallica
metallisk
metallum
meteor
meteoritics
meteorologiske
meter
meters
methling
method
methods
metode
metoden
metoder
metres
metro
metroen
metropol
metropolis
metropolitan
metropolitanskolen
metrostation
metroxpress
mette
metz
meulengracht
mew
mexican
mexicansk
mexicanske
mexico
mexicos
meyer
meyers
mez
mf
mfl
mg
mgm
mgp
mh
mht
mhz
mi
mia
miami
mich
michae
michael
michaelis
michaels
michaelsen
michel
michelangelo
michele
michelin
michelle
michelsen
michigan
mick
mickey
micro
microsoft
microsofts
mid
middag
middagstid
middel
middelalder
middelaldercentret
middelalderen
middelalderens
middelalderlig
middelalderlige
middelbilen
middelfart
middelhavet
middelhavsomra
middelklasse
middelklassen
middle
middlesbrough
middlesex
middleton
midga
midi
midland
midlands
midler
midlerne
midlertidig
midlertidige
midlertidigt
midnat
midnight
midt
midtbane
midtbanen
midtbanespiller
midtbyen
midte
midten
midterforsvarer
midterste
midtfyn
midtjylland
midtjyllands
midtjyske
midtpunkt
midtvejs
midtvest
midway
mie
miehe
mifflin
mig
might
mighty
migra
migration
miguel
mika
mikael
mike
mikhail
mikkel
mikkelsen
mikroorganismer
mil
milan
milano
mild
milde
mildere
mildt
mile
milepæl
miles
miley
milita
militant
militante
military
milits
militær
militære
militæret
militærkup
militært
militærtjeneste
miljø
miljøer
miljøet
miljøminister
miljøministeriet
miljømæssige
miljøstyrelsen
milk
mill
mille
millennium
miller
milliard
milliarder
millimeter
million
millioner
millionær
mills
milo
milos
milthers
milton
milwaukee
mimi
min
mina
mind
minde
mindede
mindedes
mindelegat
mindelunden
mindeord
mindeplade
minder
mindes
mindesmærke
mindesmærker
mindesmærket
mindesten
mindet
mindetavle
mindfulness
mindre
mindrea
mindretal
minds
mindske
mindsker
mindskes
mindst
mindste
mine
minedrift
minen
miner
mineral
mineraler
mineralogy
minerne
minerva
ming
minh
mini
miniature
minimal
minimere
minimum
minine
mining
miniserie
minister
ministeren
ministerier
ministeriet
ministeriets
ministerium
ministerpræsident
ministerra
ministre
ministrene
ministry
mink
minna
minnaert
minneapolis
minnesota
minogue
minona
minor
minoritet
minoriteter
minsk
minus
minut
minute
minuter
minutes
minutter
minutters
minuttet
mio
mir
mira
miracle
miracles
mirage
mirakel
mirakler
miraklet
miranda
miriam
mirror
mis
misbrug
misbrugt
mise
misforsta
mislykkede
mislykkedes
mislykkes
mislykket
miss
missil
missile
missiler
missilet
missing
mission
missionen
missionens
missioner
missions
missionshus
missionsspecialist
missionær
missionærer
mississippi
missouri
mistanke
miste
mistede
mister
mistet
mistillid
mistro
mistænkt
mistænkte
misundelse
misvisende
mit
mitch
mitchell
mito
mitsubishi
mitt
mitte
mix
mixed
mixet
mk
ml
mlb
mls
mm
mma
mmafighting
mmajunkie
mme
mn
mo
mob
mobil
mobile
mobilitet
mobility
mobiltelefon
mobiltelefoner
mobning
mod
modangreb
mode
model
modela
modellen
modeller
modelleret
modellerne
models
moden
modena
modenhed
moder
moderat
moderate
moderen
moderens
modern
moderne
moderniseret
modernisering
moderno
moders
modersma
modet
modgang
modi
modificerede
modificeret
modifikationer
modig
modige
modkandidat
modkraft
modne
modner
modsat
modsatte
modsigelse
modsta
modstand
modstanden
modstander
modstandere
modstanderen
modstanderens
modstanderne
modstandsbevægelse
modstandsbevægelsen
modstandsdatabase
modstandsfolk
modstandsmand
modstrid
modstridende
modstykke
modsvar
modsvarer
modsætning
modsætningen
modsætninger
modtage
modtagelse
modtagelsen
modtager
modtagere
modtageren
modtages
modtaget
modtog
modul
moduler
modvilje
modvirke
modvægt
moe
moesga
moeslund
mogens
mogensen
moh
mohamed
mohammad
mohammed
mohr
moi
mojo
mol
molbech
moldavien
molde
moldova
mole
molecular
molekyle
molekyler
molekylær
molekylære
molhave
moll
mollerup
molly
molotov
mols
moltke
moltkes
moment
moments
momentum
moms
mon
mona
monaco
monark
monarken
monarker
monarki
monarkiet
monarkiets
monday
monde
monet
money
mongolerne
mongoliet
mongolsk
mongolske
monica
monitor
monitoring
monk
monkey
monmouth
mono
monografier
monokromt
monolog
monopol
monrad
monroe
mons
monsieur
monster
monsters
monstre
mont
montagu
montana
monte
montenegro
monteres
monteret
monteverdi
montevideo
montgomery
month
monthly
months
montmartre
montpellier
montre
montreal
monty
monument
monumentale
monumenter
monumentet
monuments
moon
moonlight
moor
moore
mor
mora
moral
moralen
morales
moralsk
moralske
moran
morbror
mord
mordene
morder
morderen
mordet
more
moreau
morede
moren
moreno
morfar
morgan
morgen
morgenen
morgenmad
morison
moritz
morley
mormon
mormons
mormor
morning
morris
morrison
morrissey
mors
morse
morsom
morsomt
morsø
mort
morte
morten
mortens
mortensen
mortensens
mortimer
morton
mos
mosaik
moscow
mose
mosebog
mosen
moseomra
moser
moses
moske
moskeen
moskeer
moskva
moskvas
moss
mosser
most
moster
mot
moth
mother
motion
motiv
motivation
motiver
motiveret
motiverne
motivet
moto
motor
motorcykel
motorcykler
motoren
motorens
motorer
motorerne
motoriserede
motorprogrammet
motors
motorsport
motortrafikvej
motorvej
motorveje
motorvejen
motown
motte
motto
mottoet
mount
mountain
mountainbike
mountains
mountbatten
mounted
mourier
mouse
mouth
move
movement
moves
movia
movias
movie
moviemeter
movies
moving
mowgli
mozaffari
mozambique
mozart
mozarts
mozilla
mp
mpeg
mph
mpv
mr
mrs
ms
msf
msn
mst
mt
mtb
mtbo
mtland
mtv
mu
much
mudder
mueller
mufcinfo
muhammad
muhammed
muhammeds
muhl
muld
mule
mulig
mulige
muliggjorde
muliggør
muliggøre
mulighed
muligheden
muligheder
mulighederne
muligt
muligvis
multi
multinational
multiplayer
multiple
mumbai
mumlede
mun
munch
munck
mund
munden
munder
mundharmonika
munding
mundingen
mundtlig
mundtlige
mungo
munich
municipal
munk
munke
munken
munkene
munkesten
munksgaard
munro
munter
muntert
munthe
muntre
munzinger
mur
murder
mure
muren
murene
murer
murermester
muret
murmansk
murphy
murphys
murray
mursten
murværk
mus
musa
musculus
muse
museer
museet
museets
musen
museo
museum
museums
museumsinspektør
music
musica
musical
musicalen
musicals
musicbrainz
musicline
musicweb
musik
musikalsk
musikalske
musiken
musiker
musikere
musikeren
musikerne
musikfestival
musikgruppe
musikinstrument
musikinstrumenter
musikken
musikkens
musikkonservatoriet
musikkonservatorium
musiklærer
musikmagasinet
musikpris
musikproducer
musikskole
musikstil
musikteori
musikvideo
musikvideoen
musikvideoer
musique
musk
muskel
muskler
muslim
muslimer
muslimerne
muslimsk
muslimske
muslinger
musse
mussolini
must
mustafa
mustaine
mutant
mutation
mutationer
mutter
muus
muusmann
mv
mvp
mw
mx
my
myanmar
myers
mygind
myldretid
myldretiden
mylius
myndig
myndighed
myndigheder
myndighederne
myndighedernes
myndigheders
mynster
myrde
myrdede
myrdet
myself
myspace
mysterier
mysteriet
mysterious
mysterium
mystery
mystik
mystisk
mystiske
myte
myten
myter
myterne
myth
mythology
myths
mytiske
mytologi
mytologisk
mytologiske
mytteri
mægler
mægtig
mægtige
mægtigste
mægtigt
mælk
mælken
mælkevejen
mænd
mændene
mændenes
mænds
mængde
mængden
mængder
mængdetal
mærke
mærkede
mærkelig
mærkelige
mærkeligt
mærker
mærkes
mærket
mærsk
mø
møbel
møbler
mød
møde
møder
møderne
mødes
mødested
mødet
mødre
mødrene
mødt
mødte
mødtes
mølgaard
mølhave
mølle
møllea
møllen
møller
mølleren
møllers
møn
møns
mønsted
mønster
mønstre
mønt
mønter
mønterne
mørch
møre
mørk
mørke
mørkebla
mørkegrøn
mørkere
mørket
mørkets
mørkt
mørkøv
n
na
naa
naade
naaede
naaet
naalakkersuisut
naar
nabla
nabo
nabobyen
naboer
naboerne
nabokommuner
nabolande
nabolandene
nabolandet
nach
nacht
nacional
nad
nadal
nadia
nadver
nadveren
nag
nagasaki
nagel
nagoya
nairobi
naiv
naive
naja
naked
nakke
nakken
nakskov
nam
name
named
namen
names
namibia
naming
nan
nana
nancy
nanjing
nanna
nanny
nano
nanometer
nansen
nantes
naoki
naomi
napole
napoleon
napoleons
napoleonskrigene
napoli
nar
narkotika
narnia
narrative
narre
naruto
narva
narvik
nas
nasa
nasas
nasdaq
naser
nash
nashville
nassau
nasser
nat
natal
natalia
natalie
natalja
natasha
natasja
nate
nathalie
nathan
nathaniel
nation
national
nationalbank
nationalbanken
nationalbiblioteks
nationaldag
nationale
nationalforsamling
nationalforsamlingen
nationalhistoriske
nationalisme
nationalister
nationalistisk
nationalistiske
nationalitet
nationaliteter
nationalliberale
nationalmuseet
nationalmuseets
nationalmuseum
nationalpark
nationalparken
nationalparker
nationalra
nationalsang
nationalsocialistiske
nationalt
nationalva
nationaløkonomisk
nationen
nationens
nationer
nationers
nations
native
natklub
natmus
nato
natrium
natten
nattens
natur
natura
naturae
natural
naturaliseret
naturbasen
naturbeskyttelsesomra
nature
naturen
naturens
naturforsker
naturfredningsforening
naturgas
naturgeografi
naturhistorie
naturhistorisk
naturhistoriska
naturhistoriske
naturlig
naturlige
naturligt
naturligviis
naturligvis
naturomra
naturpark
naturparken
naturplanen
naturreservat
naturreservatet
naturressourcer
naturstyrelsen
naturstyrelsens
naturtyper
naturvidenskab
naturvidenskabelige
naturvidenskaben
nauru
naval
navarra
navigation
navn
navne
navneforandring
navnene
navneord
navnet
navngav
navngivet
navngivne
navngivning
navnlig
navy
nazareth
nazi
nazionale
nazismen
nazist
nazister
nazisterne
nazisternes
nazistisk
nazistiske
nazityskland
nb
nba
nbc
nberg
ncap
nchen
nchengladbach
nchez
ncis
nd
ndbog
ndbogen
ndbold
ndboldforbund
ndboldklub
ndboldlandshold
ndboldligaen
ndboldspiller
nde
ndede
ndel
ndelig
ndelige
ndeligt
ndels
nden
ndene
ndens
nder
ndet
ndez
ndfuld
nding
ndr
nds
ndskirken
ndskrift
ndskrifter
ndtag
ndtere
ndterer
ndtering
ndværk
ndværker
ndværkere
ne
neal
neapel
near
nearly
neatlas
neatlasset
nebel
nebetragterens
nebraska
neburg
nec
neckar
ned
nedad
nedbrudt
nedbryde
nedbrydes
nedbrydning
nedbrændt
nedbrændte
nedbør
nedbøren
nede
nedefra
neden
nedenfor
nedens
nedensta
nedenunder
neder
nedergaard
nederlag
nederlaget
nederland
nederlande
nederlandene
nederlandse
nederlandsk
nederlandske
nederlantsche
nederne
neders
nederst
nederste
nedgang
nedgraderet
nedkæmpe
nedkæmpet
nedlagde
nedlagdes
nedlagt
nedlagte
nedlige
nedlægge
nedlæggelse
nedlæggelsen
nedlægges
nedre
nedrevet
nedrivning
nedrivningen
nedrykning
neds
nedsat
nedsatte
nedskrev
nedskrevet
nedslag
nedslagskrater
nedslidt
nedstammede
nedstammer
nedsætte
nedsættelse
nedsættende
nedsættes
nedtur
need
needs
neergaard
negativ
negative
negativt
neger
negro
nei
neil
neill
nej
nekratere
nekrolog
nel
nell
nellie
nelly
nelson
nem
nemesis
nemlig
nemme
nemmere
nemo
nemt
nen
nende
nenomenklatur
nens
neo
neobservation
neon
neord
neoverfladen
nepal
nepals
nephew
neppe
neptun
ner
nero
nerver
nervesystem
nervøs
nervøse
nes
ness
net
netflix
netherlands
netop
nets
netsted
nettet
netto
netværk
netværket
network
networks
neu
neue
neues
neumann
neumu
neustadt
neutral
neutrale
neutralitet
neutralt
neutron
neutroner
nevada
never
neville
nevø
new
newark
newcastle
newfoundland
newman
newport
news
newspaper
newspapers
newton
newtons
newzealandsk
newzealandske
next
nexø
nez
nf
nfl
ng
nga
ngd
nge
ngel
ngen
nger
ngo
ngua
nguye
nh
nhl
ni
nia
nibe
nic
nicaragua
niccolo
nice
niche
nicholas
nichols
nicholson
nicht
nick
nickelodeon
nicki
nicklas
nicky
niclas
nico
nicola
nicolai
nicolaj
nicolas
nicolaus
nicole
nicoline
nidaros
nie
niebuhr
niece
niedero
niedersachsen
niels
nielsdatter
nielsen
nielsens
niende
nietzsche
nig
nigel
niger
nigeria
night
nightmare
nights
nightwish
nigsberg
nih
nik
nike
niki
nikita
nikkede
nikkel
nikki
niklas
nikola
nikolai
nikolaj
nikolajevitj
nikolaus
nikoline
nil
nilen
nils
nilsen
nilsson
nin
nina
nine
nineteenth
ning
ningen
ninger
ningerne
ninja
nintendo
nio
nippon
niro
nirvana
nis
nissan
nisse
nissen
nissum
nitro
nitrogen
nitten
nittende
niva
niveau
niveauer
niveauet
nixon
nj
nk
nko
nl
nm
nme
nn
nna
nndb
nnen
no
noa
noah
nobel
nobelprisen
nobelprismodtager
nobelprize
nobels
noble
nobody
node
noder
noe
noel
nogen
nogenlunde
nogensinde
noget
nogle
noir
noise
nok
nokia
nolan
nom
nomader
nomenclature
nomenklatur
nomination
nominations
nominativ
nominees
nominerede
nomineret
nominering
nomineringer
non
nonne
nonner
noord
nor
nora
norbert
norby
nord
nordafrika
nordahl
nordamerika
nordamerikanske
nordatlanten
nordboerne
nordborg
nordby
norddjurs
nordea
norden
nordens
nordenskirker
nordeuropa
nordeuropas
nordfra
nordfrisisk
nordfrisiske
nordfrisland
nordfrislands
nordfyns
nordga
nordhavn
nordhavnen
nordic
nordindien
nordirland
nordisk
nordiske
norditalien
nordjylland
nordjyllands
nordjyske
nordkorea
nordkoreanske
nordkysten
nordland
nordlandsbanen
nordlig
nordlige
nordligste
nordmakedonien
nordmand
nordmanden
nordmænd
nordmændene
nordnorge
nordover
nordpa
nordpolen
nordre
nordrhein
nordsamisk
nordside
nordsiden
nordsjælland
nordsjællands
nordslesvig
nordstrand
nordsø
nordsøen
nordtyske
nordtyskland
nordvest
nordvestlige
nordvestsjælland
nordøst
nordøstlige
norfolk
norge
norges
norgeskart
norm
norma
normal
normale
normalt
norman
normandie
normandiet
normann
normannerne
normannisk
normanniske
normen
normer
norra
norris
norrko
norrland
norrøn
norrøne
norrønt
nors
norse
norsk
norske
norsksprogede
norstedt
north
northampton
northern
northumberland
northumbria
northwest
norton
norup
norway
norwegian
norwegiancharts
norwich
nos
not
notable
notat
notater
notation
note
noter
noterede
noteret
notes
nothing
notre
nottingham
nouveau
nouvelle
nov
nova
novads
novak
novel
novelle
novellen
noveller
novellesamling
novellesamlingen
november
novgorod
novi
novo
now
nox
npr
nr
nrk
ns
nsb
nsbs
nsdap
nsk
nska
nske
nsson
nste
nster
nt
nte
nter
nther
nu
nuancer
nuclear
nul
nulevende
nulmeridianen
number
numbers
numerisk
numeriske
nummer
nummeret
numre
numrene
nur
nutid
nutiden
nutidens
nutidig
nutidige
nutrition
nuuk
nuværende
nv
nwa
nwo
ny
nya
nyboder
nyborg
nybyggede
nybyggere
nybøl
nydannede
nyde
nydelse
nyder
nydt
nye
nyere
nyerup
nyeste
nyfødte
nyga
nygaard
nyhavn
nyhed
nyheden
nyheder
nyhederne
nyhedsbrev
nyheter
nyholm
nykøbing
nylig
nylige
nyligt
nynne
nynorsk
nyoprettede
nyrop
nyrup
nys
nysgerrighed
nyskabende
nysted
nystiftede
nyt
nyta
nytimes
nytorv
nytte
nyttig
nyttige
nyttigt
nyvalg
nyvalgte
nz
næ
næb
næbbet
nægte
nægtede
nægter
nægtet
næppe
nær
nære
nærede
nærhed
nærheden
næring
næringsliv
næringsrig
næringsstoffer
næringsveje
nærliggende
nærme
nærmede
nærmer
nærmere
nærmest
nærmeste
nært
nærum
nærved
nærvær
nærværelse
nærværende
næs
næsby
næse
næsehorn
næsen
næss
næst
næstbedste
næste
næsten
næstformand
næsthøjeste
næstkommanderende
næstmest
næstsidste
næststørste
næstved
næstældste
nætter
nævn
nævne
nævner
nævnes
nævnet
nævnt
nævnte
nød
nødder
nødhjælp
nødig
nødsaget
nødt
nødvendig
nødvendige
nødvendighed
nødvendigheden
nødvendigt
nødvendigvis
nøgen
nøgle
nøglen
nøgler
nøgne
nøhr
nøjagtig
nøjagtige
nøjagtighed
nøjagtigt
nøje
nøjedes
nøjere
nøjes
nørager
nørby
nørga
nørgaard
nørholm
nørlund
nørre
nørrebro
nørrebrogade
nørrebros
nørrega
nørregaard
nørregade
nørrejylland
nørreport
nørresundby
o
oak
oakland
oasis
ob
obama
obe
oberbayern
oberfranken
obero
oberpfalz
oberst
obersten
oberstløjtnant
obi
obituary
object
objects
objekt
objekter
objektet
objektiv
objektive
oblast
oblasten
obligationer
obligatorisk
obligatoriske
obo
observation
observationer
observations
observatoriet
observatorium
observatory
observatører
observer
observere
observerede
observeres
observeret
observing
oc
ocean
oceania
oceanic
oceanien
och
oclc
oct
octavia
october
oculis
od
oda
odd
odde
odden
odder
odds
ode
odense
odenses
oder
odessa
odin
odins
ods
odsherred
odysseus
odyssey
oecd
oehlenschla
of
off
offensiv
offensive
offensiven
offentlig
offentlige
offentliggjorde
offentliggjort
offentliggjorte
offentliggøre
offentliggørelse
offentliggørelsen
offentliggøres
offentlighed
offentligheden
offentlighedens
offentligt
offer
offeret
office
officer
officeren
officerer
officererne
officersskole
official
officially
officials
officiel
officielle
officielt
offshore
ofre
ofrede
ofrene
ofret
ofte
oftere
oftest
og
ogsa
ogsaa
oh
ohio
ohm
ohne
oil
ois
oise
ok
okay
okinawa
okkupation
okkuperede
okkuperet
oklahoma
okrug
oksbøl
okse
oksekød
okser
okt
oktav
oktober
oktoberrevolutionen
ol
ola
olaf
olai
olav
olavs
old
oldebarn
oldefar
oldenborg
oldenborgske
oldenburg
oldengelsk
oldest
oldgræsk
oldhøjtysk
oldkyndighed
oldnordisk
oldsager
oldtid
oldtiden
oldtidens
ole
oleg
olesen
olfert
olga
olie
olien
olier
oliveira
oliven
olivenolie
oliver
olivia
olivier
olle
olof
olrik
olsen
olsenbanden
olsens
olson
olsson
oluf
olufsen
olympedia
olympia
olympiakos
olympic
olympicchannel
olympics
olympique
olympisk
olympiske
om
omaha
oman
omar
ombord
ombordværende
ombudsmand
ombyggede
ombygget
ombygning
ombygningen
ombygninger
omdanne
omdannede
omdannelse
omdanner
omdannes
omdannet
omdirigeres
omdiskuteret
omdr
omdrejningspunkt
omdøbt
omdøbte
omdømme
omega
omegn
omegnen
omegns
omend
omfang
omfanget
omfartsvej
omfartsvejen
omfatte
omfattede
omfattende
omfatter
omfattet
omga
omgang
omgange
omgav
omgivelser
omgivelserne
omgivende
omgiver
omgivet
omhandlede
omhandlende
omhandler
omhu
omhyggelig
omhyggeligt
omkom
omkommer
omkommet
omkomne
omkostninger
omkostningerne
omkr
omkranset
omkreds
omkring
omkringliggende
omkvæd
omkvædet
omlagt
omliggende
omlægning
omløb
omme
omnibus
omra
omraade
omraader
omrejsende
omrids
omringe
omringede
omringet
omsat
omsatte
omsider
omskæring
omslag
omslaget
omsorg
omstilling
omstridt
omstridte
omstændighed
omstændigheder
omstændighederne
omsætning
omsætningen
omsætte
omsætter
omtale
omtaler
omtales
omtalt
omtalte
omtrent
omvende
omvendelse
omvendt
omvendte
omverdenen
on
once
ond
onde
ondskab
ondt
one
ones
onkel
online
only
ono
ons
onsdag
ontario
op
opad
opbakning
opbevare
opbevares
opbevaret
opbevaring
opblomstring
opbrud
opbygge
opbyggede
opbygges
opbygget
opbygning
opbygningen
opdage
opdagede
opdagelse
opdagelsen
opdagelser
opdagelsesrejsende
opdager
opdages
opdaget
opdateret
opdatering
opdele
opdeles
opdeling
opdelingen
opdelt
opdelte
opdrage
opdragelse
opdraget
ope
opel
open
opening
opens
opera
operaen
operaer
operasanger
operation
operationelle
operationen
operationer
operationerne
operations
operationsomra
operativ
operative
operator
operatorname
operatør
operere
opererede
opererer
opereret
opf
opfandt
opfange
opfatte
opfattede
opfattelse
opfattelsen
opfattelser
opfatter
opfattes
opfattet
opfindelse
opfindelsen
opfindelser
opfinder
opfinderen
opfordre
opfordrede
opfordrer
opfordret
opfordring
opfostret
opfundet
opfylde
opfyldelse
opfylder
opfyldes
opfyldt
opfyldte
opfølgeren
opføre
opførelse
opførelsen
opførelser
opfører
opføres
opførsel
opførslen
opført
opførte
opførtes
opgav
opgave
opgaven
opgaver
opgaverne
opgive
opgiver
opgives
opgivet
opgjort
opgraderet
opgradering
opgør
opgørelse
opgøret
ophav
ophavsmand
ophavsmanden
ophavsret
ophold
opholde
opholder
opholdet
opholdssted
opholdt
ophugget
ophængt
ophæve
ophævede
ophævedes
ophævelse
ophævelsen
ophæver
ophæves
ophævet
ophøjede
ophøjet
ophør
ophøre
ophører
ophørt
ophørte
opinion
opium
opkald
opkaldt
opkaldte
opkomst
opkræve
opkøb
opkøbt
opkøbte
oplag
oplagt
opland
oplandet
opleve
oplevede
oplevelse
oplevelsen
oplevelser
oplever
opleves
oplevet
oplyse
oplyser
oplyses
oplysning
oplysningen
oplysninger
oplysningerne
oplysningstiden
oplysningstidens
oplyst
oplyste
oplæg
oplæring
oplært
oplæsning
opløse
opløses
opløsning
opløsningen
opløst
opløste
opløstes
opma
opmuntre
opmuntrede
opmærksom
opmærksomhed
opmærksomheden
opmærksomme
opmærksomt
opna
oppe
oppenheimer
opposition
oppositionen
opr
oprejst
opret
opretholde
opretholdelse
opretholder
opretholdes
opretholdt
oprette
oprettede
oprettedes
oprettelse
oprettelsen
opretter
oprettes
oprettet
oprigtig
oprindelig
oprindelige
oprindeligt
oprindelse
oprindelsen
oprustning
oprykning
oprykningspladser
oprør
oprørere
oprørerne
oprøret
oprørske
opsagde
opsamling
opsamlingsalbum
opsat
opsatte
opsendelsen
opsendt
opsigt
opsigtsvækkende
opskrift
opskrifter
opslag
opslaget
opslagsordet
opslugt
opspore
opsta
opstand
opstandelse
opstandelsen
opstanden
opstigende
opstille
opstillede
opstiller
opstilles
opstillet
opstilling
opstillingskreds
opstod
opsving
opsyn
opsætning
opsætningen
opsætte
opsøge
opsøger
opsøgte
optage
optagelse
optagelsen
optagelser
optagelserne
optager
optages
optaget
optagne
optakt
optegnelser
optik
optimal
optimale
optimalt
option
optisk
optiske
optog
optoges
optra
optrin
optræde
optræden
optrædende
optrædender
optrædener
optræder
optøjer
opus
opvarmes
opvarmet
opvarmning
opvokset
opvækst
or
oral
orange
oranien
oranje
orchestra
ord
ordbog
ordbok
ordbøger
orde
orden
ordene
ordenen
ordenens
ordener
ordens
ordentlig
ordentlige
ordentligt
order
orders
ordet
ordets
ordforra
ordfører
ordineret
ordinær
ordinære
ordliste
ordlyd
ordne
ordnede
ordner
ordnet
ordning
ordningen
ordre
ordren
ordrer
ordret
ordrup
ordspil
ordsprog
ore
oregon
org
organ
organer
organic
organisation
organisationen
organisationens
organisationer
organisatorisk
organisatoriske
organisere
organiserede
organiserer
organiseret
organisering
organisk
organiske
organisme
organismer
organist
organization
orgel
orgelet
orglet
oricon
orient
oriental
orientales
orientalsk
orientalske
orienteering
orienten
orienterede
orienteret
orientering
orienterings
origin
original
originale
originalen
originalt
originaltitel
origines
origins
orion
orkan
orkanen
orkester
orkesteret
orkesterleder
orkesterværker
orkestre
orkestret
orkide
orkneyøerne
orla
orlando
orle
orleans
orlov
orm
orme
ormen
ornamenter
orne
ornitologisk
ortodoks
ortodokse
orton
ortsnamenlexikon
orwell
orðabo
os
osaka
osama
osborne
osbourne
oscar
oscars
oscaruddelingen
oskar
oslo
oslofjorden
oslos
osm
osman
osmannerne
osmannerriget
osmannisk
osmanniske
osnabru
osprey
oss
ost
osten
ostenfeld
ostindien
ostindiske
osv
osvald
oswald
other
others
otis
ottawa
otte
ottekantet
ottende
ottendedelsfinalerne
otter
otteren
otterup
ottesen
otto
ottoman
ottomar
ottosen
ou
our
out
outer
outlander
outlaw
output
outside
outstanding
ouverture
ov
ova
oval
ovale
ove
oven
ovenfor
ovennævnte
ovenover
ovenpa
ovenpaa
ovensta
over
overalt
overbevise
overbevisende
overbevisning
overbevist
overbeviste
overblik
overborgmester
overbygning
overbygningen
overda
overdrage
overdragelse
overdraget
overdrev
overdreven
overdrevet
overdrevne
overdrog
overdækket
overens
overenskomst
overenskomster
overensstemmelse
overfald
overfaldet
overfarten
overflade
overfladedannelser
overfladen
overflader
overfladisk
overflod
overflyttet
overflødig
overflødige
overfor
overføre
overfører
overføres
overførsel
overført
overførte
overga
overgaard
overgang
overgangen
overgav
overgik
overgive
overgivelse
overgiver
overgivet
overgreb
overhalet
overherredømme
overholde
overholdelse
overholder
overholdt
overhoved
overhovedet
overhuset
overhængende
overhøjhed
overklasse
overklassen
overkommando
overkommandoen
overlade
overlader
overlades
overladt
overlappende
overlegen
overlegenhed
overlegne
overleve
overlevede
overlevelse
overlevende
overlever
overleverede
overleveret
overlevering
overleveringen
overleveringer
overlevet
overlod
overlord
overlæge
overlægen
overlærer
overnatning
overnatte
overnaturlige
overordentlig
overordentlige
overordnede
overordnet
overrakt
overraskede
overraskelse
overraskende
overrasket
overretssagfører
overs
oversat
oversatte
overset
overside
oversiden
oversigt
oversigten
oversigter
overskredet
overskriften
overskrifter
overskud
overskuddet
overskydende
oversta
oversteg
overstige
overstiger
oversvømmede
oversvømmelse
oversvømmelser
oversvømmet
oversætte
oversættelse
oversættelsen
oversættelser
oversætter
oversættes
oversøisk
oversøiske
overtage
overtagelse
overtagelsen
overtager
overtaget
overtale
overtalt
overtalte
overtog
overtra
overtro
overtrædelse
overtrædelser
overva
overvandt
overveje
overvejede
overvejelse
overvejelser
overvejende
overvejer
overvejet
overview
overvinde
overvintrer
overvundet
overvægt
overvældende
overvære
overværede
overværet
ovn
ovne
ovnen
ovre
owain
owe
owen
owens
own
oxe
oxford
oxholm
oxygen
oy
oz
ozzy
p
pa
paa
paafaldende
paagjældende
paany
pablo
pac
pace
pacific
pack
padborg
padder
paddington
paddy
paderborn
pagasten
pagasts
page
pages
pagh
pagt
pagten
pai
paige
pain
paint
painting
pair
paisja
pak
pakhus
pakistan
pakistans
pakistansk
pakistanske
pakke
pakken
pakker
pakket
pal
palace
palads
paladser
paladset
palais
palau
palazzo
pale
palermo
palestine
palgrave
pali
palladium
pallas
palle
pallesen
palm
palma
palme
palmer
palsbo
paludan
palæ
palæet
palæstina
palæstinensere
palæstinensisk
palæstinensiske
pamela
pan
panama
panathinaikos
panda
pande
pandemien
panden
pandora
panel
panik
panorama
panser
panserdivision
panserskib
panserskibe
pansrede
pansret
pant
panter
pantheon
panther
panthera
panzer
paolo
pap
papa
pape
paper
paperback
papers
papir
papirer
papiret
paprika
papua
papyrus
par
para
parade
paradis
paradise
paradox
paragraf
paraguay
parallel
parallelle
paralleller
parallelt
paralympiske
parameter
parametre
paramount
paraplyorganisation
parat
parc
parcelhuse
parentes
parents
parfume
paris
parish
parisiske
park
parken
parkens
parker
parkering
parkeringsplads
parkes
parks
parlament
parlamentarisk
parlamentariske
parlamentet
parlamentets
parlamentsmedlem
parlamentsvalg
parlamentsvalget
parliament
parma
parodi
parret
parrets
pars
parsberg
parsons
part
partei
parter
parterne
parti
partial
participium
partido
partiel
partier
partierne
parties
partiet
partiets
partiformand
partikel
partikler
partileder
partis
partisaner
partner
partnere
partners
partnership
partnerskab
parts
party
pas
pascal
pasha
pass
passage
passagen
passager
passagerer
passagererne
passagerfly
passagertal
passat
passe
passede
passende
passer
passere
passerede
passerer
passeres
passeret
passes
passet
passion
passiv
passive
past
pasta
pastor
pastorat
pastoratet
pat
patch
patent
patenter
pater
path
patient
patienten
patientens
patienter
patienterne
patients
patriark
patriarken
patrice
patricia
patrick
patrik
patriot
patriotiske
patriots
patrol
patron
patroner
patrulje
pattedyr
patterns
patterson
patti
patton
patursson
pau
paul
paula
pauli
pauline
paulo
pauls
paulsen
paulus
pause
pausen
pauser
pave
pavel
pavelig
pavelige
paven
pavens
pavia
pavillon
pavillonen
pavlus
paw
pax
pay
payne
pays
paz
pbs
pc
pct
pd
pdf
pdsmaps
pe
peabody
peace
peak
peaks
pearce
pearl
pearson
peber
pedal
peder
peders
pedersdatter
pedersen
pedersens
pederstrup
pedro
peer
peerage
pegasus
pege
pegede
peger
peget
peggy
peking
pele
pelle
peloponnes
pels
pelsen
pembroke
pen
pendant
penelope
penge
pengene
pengesedler
penguin
peninsula
penis
penn
pennsylvania
penny
pensel
pension
pensionerede
pensioneret
pensionering
pensionister
pentagon
people
peoples
pepper
peppers
per
percent
perception
percussion
percy
pereira
perez
perfect
perfekt
perfekte
performance
performer
performing
periferien
period
periode
perioden
periodens
perioder
perioderne
periodisk
periodiske
perkins
perle
perler
perm
permanent
permanente
pernille
perpignan
perron
perronen
perroner
perronerne
perry
pers
perserne
perseus
persian
persien
persisk
persiske
person
personal
personale
personalet
personalhistorisk
personality
personalunion
personbiler
personel
personen
personens
personer
personerne
personers
personlig
personlige
personlighed
personligheder
personligt
persons
persontog
persontrafikken
perspective
perspectives
perspektiv
perspektiver
persson
perth
peru
pest
pesten
pet
pete
peter
peters
petersborg
petersburg
petersen
petersens
peterskirken
peterson
petit
petr
petra
petri
petrine
petrograd
petroleum
petrov
petrowitsch
petrus
petter
pettersson
peugeot
pez
pfa
pfalz
pfeiffer
pg
pga
ph
pha
phane
phantom
phase
phd
phi
phil
philadelphia
philharmonic
philip
philipp
philippa
philippe
philips
philipsen
philipsens
phillip
phillips
philosophical
philosophie
philosophy
phoebe
phoenix
phone
phonographic
photo
photography
photos
php
phylogeny
phys
physical
physics
physiology
pi
pia
pianist
pianisten
piano
piazza
pibe
piber
pic
picasso
piccadilly
piccinino
pick
pickett
pickup
pico
picture
pictures
pie
piece
pieces
piemonte
pier
pierce
piero
pierre
piet
pieter
pieters
pietro
pige
pigen
pigenavn
piger
pigerne
pigernes
piges
pigtra
pihl
pike
pil
pilatus
pile
pilgaard
pilgrim
pilgrimme
pille
piller
pilot
piloten
piloter
piloterne
pilots
pilsoni
pin
pind
pinde
pine
ping
pings
pink
pinlig
pinneberg
pinus
pinyin
pio
pioneer
pioner
pionerer
piotr
piper
pippi
pirat
pirate
pirater
pirates
pisa
pisk
pistol
pistoler
pit
pitch
pitchfork
pitt
pittsburgh
pius
pizza
pjotr
pkt
pl
pla
place
placere
placerede
placerer
placeres
placeret
placering
placeringen
placeringer
placeringerne
placeringsinddeling
places
plade
pladekontrakt
pladen
plader
pladerne
pladeselskab
pladeselskaber
pladeselskabet
plads
pladsen
pladser
pladserne
plage
plaget
plain
plains
plakat
plakaten
plakater
plan
planck
plane
planen
planer
planerne
planet
planetary
planetarynames
planeten
planetens
planeter
planets
planker
planlagde
planlagt
planlagte
planlægge
planlægger
planlægges
planlægning
planlægningen
planning
plans
plant
plantage
plantagen
plantagenet
plantager
plante
plantearter
plantebeskrivelser
plantede
planten
plantens
planter
planterne
planternes
planters
plantesamfund
planteslægt
plantet
plants
plasma
plast
plastic
plastik
plat
plata
plate
plateau
plateauet
platform
platforme
platformen
platin
platinum
platon
platons
plattysk
platz
play
playboy
played
player
players
playground
playing
playoff
plays
playstation
plaza
plc
please
pleasure
pleje
plejede
plejehjem
plejer
plesner
plessen
plet
pletter
plettet
pligt
pligten
pligter
plinius
plo
plot
plottet
ploug
pludselig
pludselige
pludseligt
plum
pluralis
plus
pluto
plutonium
plymouth
plyndre
plyndrede
plyndret
plyndring
plyndringer
plys
pm
pmatrix
pmc
pmid
pnas
po
pocket
podcast
podebusk
podiet
poe
poems
poesi
poet
poeten
poetisk
poetiske
poetry
point
pointe
points
poirot
poitiers
pokal
pokalen
pokalfinalen
pokaltitler
pokalturnering
pokalturneringen
pokalvindernes
poke
pokemon
poker
pol
polakker
polakkerne
poland
polar
pole
polemik
polen
polens
police
policies
policy
poliitikko
polish
polit
politi
politibetjent
politibetjente
political
politico
politics
politiet
politiets
politifolk
politik
politiken
politikens
politiker
politikere
politikeren
politikerne
politikken
politikker
politimand
politimester
politisk
politiske
politistation
polk
poll
pollard
pollen
polly
polo
polsk
polska
polske
poltava
polynesien
polyt
polyteknisk
polytekniske
pommern
pompeji
pont
ponte
pontoppidan
pony
pool
poor
pop
pope
popgruppe
popmusik
popolazione
popsanger
popular
popularitet
population
populationer
populær
populære
populært
por
porcelæn
porno
porsche
porse
porsmose
port
porta
portail
portal
portalen
porte
portefølje
porten
portene
porter
portion
portland
porto
portrait
portræt
portrætfilm
portrætmaler
portrætmaleri
portrætter
portrætterede
portrætteret
portrættet
portsmouth
portugal
portugals
portugiserne
portugisisk
portugisiske
portuguesa
pose
posen
position
positionen
positioner
positions
positiv
positive
positivt
possible
post
postbutik
postdistrikt
posten
postens
poster
posthumt
posthus
posthuset
postkontor
postkontoret
postkort
postnord
postnummeret
postvæsen
postvæsenet
pot
potential
potentiale
potentiel
potentielle
potentielt
potomac
potsdam
potter
poul
poulsen
poulsens
pound
pour
povl
povlsen
powell
power
powers
poznan
pp
ppm
pr
pra
practical
practice
pradesh
prag
prags
pragt
pragtfulde
praksis
praktik
praktisere
praktiserede
praktiserende
praktiseres
praktiseret
praktisk
praktiske
pram
pramme
pratt
pravda
praxis
prayer
pre
preben
precure
preisler
preliminary
premier
premiere
premieren
premierløjtnant
premierminister
premierministeren
premio
prentice
pres
present
presented
presents
president
presidential
presley
presleys
press
presse
pressede
pressekonference
pressemeddelelse
pressemøde
pressen
presser
presses
presset
pressure
prestige
prestigefyldte
preston
pretty
preussen
preussens
preusserne
preussisk
preussiske
prevention
preview
pri
price
pride
priest
prik
prikker
prima
primary
prime
primera
primetime
primitiv
primitive
primo
primtal
primus
primær
primære
primærrute
primært
prince
princess
princeton
princip
principal
principielt
principles
principper
principperne
princippet
prins
prinsen
prinsens
prinser
prinsesse
prinsessen
prinsesser
print
printing
prinz
prior
prioriteret
prioritet
pris
prisbelønnede
prisen
priser
priserne
prison
prisuddeling
prisuddelingen
prisvindende
privat
privatbaner
privatdocent
private
privateje
privatejede
privatejet
privatliv
privatpersoner
privatskole
privilegerede
privilegier
privilegium
prix
prize
pro
problem
problematisk
problemer
problemerne
problemet
problems
problemstillinger
procedure
procedurer
proceedings
procent
proces
process
processen
processer
processing
procession
processor
procyclingstats
produced
producent
producenten
producenter
producenterne
producer
producere
producerede
produceren
producerer
produceres
produceret
producers
product
production
productions
products
produkt
produkter
produkterne
produktet
produktion
produktionen
produktioner
produktionsselskab
produktiv
produktive
produktivitet
produktliste
prof
profesionelle
profession
professional
professionel
professionelle
professionelt
professionnel
professor
professorat
professoren
professorer
profet
profeten
profeter
profil
profile
profiler
profiles
profit
program
programme
programmer
programmering
programmeringssprog
programmerne
programmet
programmets
programming
progress
progressiv
progressive
project
projects
projekt
projekter
projektet
projektets
proklamerede
prokurator
prolog
prometheus
promille
prominent
prominente
promise
promotion
promovere
proof
propaganda
properties
property
proprietær
prosa
prospector
prostituerede
prostitueret
prostitution
protection
protein
proteiner
protektor
protektorat
protest
protestanter
protestantisk
protestantiske
protester
protestere
protesterede
protesterne
proto
protocol
protokol
protokollen
protokoller
proton
protoner
prototype
prototypen
prototyper
protour
provence
proviant
providence
province
provins
provinsen
provinsens
provinser
provinserne
provisorisk
provisoriske
provokerende
provst
provsten
provsti
prunus
prydet
præ
præcis
præcise
præcision
præcist
prædikant
prædike
prædikede
prædiken
prædikener
prædikestol
prædikestolen
præfektur
præfekturet
præfekturniveau
præfiks
præg
præge
prægede
præger
præges
præget
prægtig
prægtige
præmie
præmier
præmieret
præmiesum
prærien
præsens
præsentation
præsentere
præsenterede
præsenterer
præsenteres
præsenteret
præsident
præsidenten
præsidentens
præsidenter
præsidentkandidat
præsidentvalg
præsidentvalget
præsidium
præst
præstation
præstationer
præstega
præstegaard
præstegd
præsten
præstens
præster
præsterne
præstø
præteritum
prøv
prøve
prøvede
prøven
prøver
prøvet
prøvetræning
ps
psa
psc
pseudonym
pseudonymet
psi
pskov
psv
psychiatry
psycho
psychological
psychology
psyke
psykiater
psykiatri
psykiatrien
psykiatrisk
psykiatriske
psykisk
psykiske
psykolog
psykologi
psykologisk
psykologiske
psykoterapi
pt
ptolemaios
pu
pub
publ
public
publication
publications
publicerede
publiceret
publikation
publikationer
publikum
publikums
publique
published
publisher
publishers
publishing
publius
puerto
puggaard
puk
pulje
puljen
puljer
puls
pulse
pulver
pumpe
pumper
pumpkins
punch
pund
punds
pung
punjab
punk
punkt
punkter
punktet
punktum
pure
purple
purpose
pursuit
push
pusher
put
putin
putnam
pyeongchang
pynt
pyntet
pyongyang
pyramide
pyramiden
pyre
pyrenæerne
pyrus
pythagoras
python
pædagog
pædagoger
pædagogik
pædagogisk
pædagogiske
pæle
pæn
pæne
pænt
pære
pølse
pølser
q
qaeda
qatar
qi
qin
qing
qu
quad
quake
qualification
qualifying
quality
quantum
quartal
quarter
quarterback
quarterly
quartet
quattro
que
quebec
queen
queens
queensland
quentin
quercus
query
quest
question
questions
qui
quick
quiet
quincy
quinn
quintus
quipe
quisling
quist
quiz
quo
quotient
qvist
qvistgaard
r
ra
raa
raab
raabe
raabte
raad
raade
rabat
rabaul
rabbit
raben
rables
race
racen
racer
racerkører
races
rachel
racing
racisme
racistiske
rad
radar
raderinger
radiation
radical
radikal
radikale
radikalt
radio
radioaktive
radioaktivt
radioen
radioer
radioprogram
radioprogrammet
radios
radiostation
radiostationer
radiovært
radius
raf
rafael
rafn
rage
rager
ragnar
ragnarok
ragnhild
rahbek
rahman
rai
raid
raider
raiders
rail
railroad
railway
railways
rain
rainbow
rainer
raja
rajon
raket
raketten
raketter
rakte
ral
ralf
rally
ralph
ram
rama
ramadan
ramasjang
rami
ramme
rammen
rammer
rammerne
rammes
rammstein
ramo
ramon
ramos
ramsar
ramsaromra
ramsay
ramsey
ramt
ramte
ran
rana
ranch
rand
randall
randen
randers
randi
randolph
random
randy
rang
range
ranger
rangerede
rangerende
rangerer
rangeret
rangering
rangers
rangle
rangliste
ranglisteplacering
rank
ranking
rankings
ranskalainen
rantzau
raoul
rap
raphael
rapid
rapper
rapperen
rapport
rapporten
rapporter
rapportere
rapporterede
rapporterer
rapporteret
rapporterne
rar
rard
rare
rart
ras
rasch
rasede
rasende
raser
raseri
rask
raske
raskolnikow
rasmus
rasmussen
rasmussens
rasumichin
rat
rate
rates
ratificeret
rating
ratings
ratio
ration
rationel
rationelle
ratzeburg
rau
rav
raven
ravenna
ravn
ravnen
raw
ray
raymond
rb
rbar
rbare
rbog
rbogen
rbundet
rbøger
rc
rca
rd
rde
rdejer
rden
rdene
rdens
rdere
rdeste
rdhed
rdl
rdoba
rds
rdspladsen
rdsvej
rdt
re
rea
reach
reaction
read
reader
reading
readings
ready
reagan
reagere
reagerede
reagerer
reaktion
reaktionen
reaktioner
reaktor
reaktorer
real
realdania
realeksamen
realisere
realiseret
realisme
realistisk
realistiske
realitet
realiteten
reality
really
realms
realskole
realunion
reason
reb
rebecca
rebekka
rebel
rebellion
rebels
rebild
rebro
rec
receiver
recent
reception
receptor
receptorer
recht
recognition
reconstruction
record
recorded
recording
recordings
records
recovery
red
redaktion
redaktionen
redaktør
redaktøren
redaktører
redde
reddede
redder
reddes
reddet
rede
redegørelse
reden
reder
rederi
rederiet
redigere
redigerede
redigeret
redning
redningsba
reds
redskab
redskaber
reducere
reducerede
reducerer
reduceres
reduceret
reduktion
ree
reed
reedtz
reel
reelle
reelt
reenberg
reent
reese
reeves
ref
referat
reference
referencer
referer
referere
refererede
refererer
refereres
refereret
reflections
refleksion
reflekterer
refn
reform
reformation
reformationen
reformator
reformen
reformer
reformere
reformerne
reformerte
reg
regel
regelmæssig
regelmæssige
regelmæssigt
regelsæt
regensburg
regent
regenter
regere
regerede
regerende
regerer
regeret
regering
regeringen
regeringens
regeringer
regeringerne
regerings
regeringschef
regeringsmagten
regeringsperiode
regeringstid
reggae
regi
regierungsbezirk
regime
regiment
regimenter
regimentet
regimer
regimet
regin
regina
reginald
region
regional
regionale
regionalt
regionaltog
regionen
regionens
regioner
regionerne
regions
regionskommune
regionsra
regis
register
registre
registrere
registrerede
registrerer
registreres
registreret
registrering
regitze
regjeringen
reglen
regler
reglerne
regn
regne
regnede
regnedes
regnen
regner
regnes
regnet
regning
regnskab
regnskaber
regnskabet
regnskov
regnskove
regnvejr
regulation
regulations
regulere
regulerede
regulerer
reguleres
reguleret
regulering
regulær
regulære
reich
reichhardt
reid
reign
reilly
reimer
reims
reiner
reinhard
reinhardt
reinhold
reise
reiser
reiste
reitzel
reitzels
rejer
rejse
rejseholdet
rejselegat
rejsen
rejsende
rejser
rejses
rejst
rejste
reklame
reklamefilm
reklamer
rekognoscering
rekognosceringsfly
rekonstrueret
rekonstruktion
rekord
rekorden
rekorder
rekordliste
rekreative
rekrutteret
rektangulære
rektor
related
relaterede
relateret
relation
relationer
relations
relationship
relativ
relative
relativitetsteori
relativt
relay
release
released
releases
relevans
relevant
relevante
relief
relieffarver
relieffer
religion
religionen
religionens
religioner
religions
religionsfrihed
religious
religiøs
religiøse
religiøst
relikvier
rem
remains
rembrandt
remee
remember
remis
remise
remix
remixes
ren
renaissance
renard
renata
renato
renault
rende
rendsborg
rene
renes
rengøring
renhed
rening
reningen
rennes
reno
renoveret
renovering
renoveringen
rensdyr
rense
renset
rensning
rent
rente
rentekammeret
renter
renæssance
renæssancen
renæssancens
renæssancestil
reorganiseret
reparation
reparationer
reparere
repareret
repertoire
repertoiret
replik
report
reportage
reporter
reports
reprint
reproduktion
reprotryk
repræsentant
repræsentanter
repræsentanternes
repræsentantskab
repræsentantskabet
repræsentation
repræsentative
repræsentere
repræsenterede
repræsenterer
repræsenteres
repræsenteret
republic
republican
republik
republikanere
republikanerne
republikansk
republikanske
republikken
republikkens
republikker
republiks
requiem
rer
rerne
res
rescue
research
researchers
resen
reservat
reservatet
reserve
reservedele
reserven
reserver
reserveret
reservoir
reservoiret
residens
resident
residente
resistance
resolution
resort
resource
resources
respekt
respektere
respekterede
respekteret
respektive
respons
response
ressource
ressourcer
rest
restaurant
restauranten
restauranter
restaurerede
restaureret
restaurering
restaureringen
resten
rester
resterende
resterne
restriktioner
result
resultat
resultater
resultaterne
resultatet
resultere
resulterede
resulterende
resulterer
resulteret
results
resume
resurser
ret
retfærdig
retfærdige
retfærdighed
retlige
retmæssige
retning
retningen
retninger
retningslinjer
retorik
retrieved
rets
retsakter
retsinformation
retskrivning
retskrivningsordbogen
retslige
retslærd
retssag
retssagen
retssager
retssystem
retsvidenskab
retsvæsen
rette
rettede
retten
rettens
retter
rettere
rettergang
rettes
rettet
rettigheder
rettighederne
retur
return
returnere
returnerede
returns
reumert
reunion
reuter
reuters
rev
revanche
reveal
revealed
reveals
revenge
reventlow
revet
reviderede
revideret
review
reviews
revis
revised
revision
revisited
revisor
revival
revner
revolution
revolutionary
revolutionen
revolutionens
revolutionerende
revolutions
revolutionær
revolutionære
revolver
revue
revy
revyen
revyer
rex
rey
reyes
reykjavi
reykjavik
reynolds
rez
rf
rfc
rg
rga
rgang
rgange
rgen
rgensen
rh
rhapsody
rhea
rhein
rheinland
rhin
rhinen
rho
rhode
rhodes
rhododendron
rhodos
rhundrede
rhundreder
rhundrederne
rhundredes
rhundredeskiftet
rhundredet
rhundredets
rhus
rhys
rhythm
ri
ria
riaa
ribben
ribbentrop
ribe
ric
rica
ricardo
rice
rich
richard
richards
richardson
richelieu
richie
richmond
richter
rick
ricky
rico
ridder
riddere
ridderen
ridderkorset
riddersalen
ride
ridende
rider
ridge
riding
ridley
rie
riegels
rifbjerg
riffel
rifle
rifler
rig
riga
rigas
rigdom
rigdomme
rige
rigelig
rigeligt
riger
rigere
riges
rigeste
riget
rigets
right
rightarrow
rights
rigmor
rigsarkivet
rigsdag
rigsdagen
rigsdagens
rigsdaler
rigsforsamling
rigsforstander
rigsgreve
rigshospitalet
rigskansler
rigsra
rigsretten
rigsva
rigsvej
rigt
rigtig
rigtige
rigtignok
rigtigt
rihanna
riis
riise
rikke
riksantikvarens
riksdagen
riksma
riksmuseet
riksvei
riley
rim
rimelig
rimeligt
rimeligvis
rimmer
rin
ring
ringe
ringede
ringen
ringenes
ringer
ringere
ringerike
ringeste
ringhof
ringkjøbing
ringkøbing
ringo
rings
ringsted
ringvej
ringvejen
rinpoche
rinville
rio
riot
rip
ripley
ripper
ris
rise
risikere
risikerer
risiko
risikoen
rising
risk
riskær
risskov
rist
rita
ritchie
rite
ritmester
ritter
ritual
ritualer
ritualet
rituelle
ritzau
ritzaus
rival
rivaler
rivaliserende
rivalisering
rive
river
rivera
rivers
rives
riwal
rk
rlag
rlig
rlige
rligere
rligste
rligt
rm
rmland
rmlands
rn
rna
rnberg
rnby
rne
rnene
rner
rnet
rnets
rnten
rnva
ro
roach
road
roads
roald
roar
rob
roba
robbie
robbins
robert
roberta
roberto
roberts
robertson
robin
robinson
robot
robotter
robson
robust
roche
rochester
rock
rockband
rockbandet
rockefeller
rocker
rocket
rockgruppe
rockmusik
rocks
rockwell
rocky
rod
roddy
rode
roden
rodgers
rodnettet
rodney
rodri
rodrigo
rodrigues
rodriguez
rodsystemet
roede
roer
roere
rogaland
roger
rogers
rogue
rohde
roi
roklub
roland
rold
role
rolf
rolig
rolige
rolighed
roligt
roll
rolle
rollelisten
rollen
roller
rollerne
rollespil
rolling
rollo
rolls
rom
roma
romaer
romain
roman
romana
romance
romanen
romanens
romaner
romanerne
romanforfatter
romani
romania
romano
romanov
romansk
romanske
romantik
romantikken
romantisk
romantiske
rome
romeo
romere
romerne
romernes
romero
romerriget
romerrigets
romersk
romerske
romerskkatolske
rommel
roms
romsdal
ron
ronald
ronaldo
rong
roning
ronnie
rookie
room
rooney
roos
roosevelt
roosevelts
root
roots
ror
roret
rory
ros
rosa
roscoe
rose
rosekrigene
rosemary
rosen
rosenberg
rosenborg
rosendahl
rosendal
rosenga
rosenholm
rosenkilde
rosenkrantz
rosenstand
rosenørn
roser
roses
rosie
rosinante
rosing
roskilde
ross
rossi
rossini
rost
roste
roster
rostock
rostov
rostrup
rot
rotation
roterende
roterer
roth
rothe
rotte
rotten
rotter
rotterdam
roubaix
rouen
rouge
rough
round
rousseau
roussillon
route
routledge
roux
rovdyr
rover
rovers
rovfugle
rovi
row
rowing
rowling
roy
royal
royale
royce
rozen
rp
rpm
rr
rrække
rs
rsaften
rsag
rsage
rsagede
rsagen
rsager
rsagerne
rsaget
rsalderen
rsamling
rsberetning
rsdag
rsdagen
rse
rshavn
rskrigen
rslev
rsrapport
rsskiftet
rsskrift
rsssf
rssæsonen
rst
rsta
rstal
rstallet
rstid
rstider
rsudstilling
rt
rta
rte
rterbuch
rth
rti
rtier
rtiet
rttemberg
rtusinde
rtusinder
rtusindskiftet
rtz
ru
ruben
rubens
rubin
ruby
ruc
rud
rude
ruden
ruder
rudersdal
rudi
rudkøbing
rudolf
rudolph
rudy
rue
rufus
rug
rugbrød
rugby
ruhr
ruin
ruinen
ruiner
ruinerne
rule
rules
rulle
rullede
rullende
ruller
rum
rumble
rumfang
rumfart
rumfartøj
rumfærge
rumfærgen
rumme
rummede
rummer
rummet
rumstation
rumstationen
rumvandring
rumænien
rumæniens
rumænsk
rumænske
run
runciman
rund
runde
rundede
runder
rundt
rune
runeberg
runeindskrifter
runer
runesten
runestenen
rung
rungsted
runner
running
runoilija
runs
rup
rupert
rural
rus
rush
rushdie
rusland
ruslands
russ
russell
russere
russerne
russia
russian
russisk
russiske
russo
rust
rustning
rute
ruten
ruter
ruterne
ruth
rutherford
ruud
rv
rva
rvalde
rvar
rvi
rwanda
ry
ryan
rydde
ryddet
ryde
ryder
rye
ryg
ryge
ryger
ryggen
rygning
rygte
rygter
rygterne
rygtet
ryk
rykke
rykkede
rykker
rykket
rynkeby
ryo
ryomga
ryslinge
ryste
rystede
rystende
ryster
rystet
rytme
rytmeguitar
rytmer
rytmisk
rytmiske
rytter
ryttere
rytteren
rytterne
ryu
ryvangen
rz
rzburg
rædsel
række
rækkefølge
rækkefølgen
rækkehuse
rækken
rækker
rækkerne
rækkevidde
ræv
ræve
ræven
rður
røbede
rød
rødbrun
rødby
rødder
rødderne
rødding
røde
rødekro
rødlig
rødlige
rødliste
rødovre
rødt
røg
røgen
røget
rømer
rømø
røn
rønde
rønne
rør
rørbæk
rørdam
røre
rørende
rører
røres
røret
rørosbanen
rørt
rørte
røst
røvere
røveri
s
sa
saa
saab
saabye
saadan
saadanne
saadant
saae
saafremt
saakaldte
saale
saaledes
saalænge
saameget
saamænd
saar
saare
saasnart
saasom
saavel
saavidt
saba
sabbath
sabel
sabina
sabine
sabotage
sabre
sabroe
sachs
sachsen
sacramento
sacred
sad
saddam
sadie
sadolin
safari
safe
safety
saft
sag
saga
sagaen
sagaer
sagaerne
sagan
sagde
sage
sagen
sagens
sager
sagerne
sagfører
sagn
sagnet
sags
sagsøgte
sagt
sagte
sagtens
sahara
sai
said
sailing
saint
sainte
saints
saks
saksiske
sakskøbing
sakuntala
sal
sala
saladin
salah
salat
sale
salem
salen
salerno
sales
salg
salget
salgstal
salig
salige
salisbury
salling
sally
salman
salme
salmebog
salmer
salmonsen
salmonsens
salomon
salomonsen
salomonøerne
salon
salpetersyre
salt
salte
salten
saltet
salto
saltvand
salvador
salvatore
salve
salzburg
sam
samantha
samara
samarbejde
samarbejdede
samarbejder
samarbejdet
samarbejdspartnere
sambandsflokkurin
same
samerne
samfund
samfundet
samfundets
samfunds
samfundsfag
samfundslitteratur
samfundsmæssige
samfundsvidenskab
samfundsvidenskabelige
samfærdsel
sami
samisk
samiske
saml
samle
samleba
samlede
samledes
samleje
samlende
samler
samlere
samles
samlet
samling
samlingen
samlinger
samlingerne
samlingspunkt
samlingssted
samliv
samme
sammen
sammenbrud
sammenfaldende
sammenfatning
sammenhold
sammenhæng
sammenhænge
sammenhængen
sammenhængende
sammenlagt
sammenlign
sammenligne
sammenlignede
sammenlignende
sammenligner
sammenlignes
sammenlignet
sammenligning
sammenligninger
sammenlægning
sammenlægningen
sammenløbet
sammensat
sammensatte
sammenslutning
sammenslutningen
sammenstød
sammensværgelse
sammensætning
sammensætningen
sammentrækning
sammenvoksede
sammesteds
sammy
samoa
sampa
sample
samra
samson
samspil
samspillet
samsung
samsø
samsøe
samt
samtale
samtalen
samtaler
samtgemeinde
samtid
samtiden
samtidens
samtidig
samtidige
samtidigt
samtidskunst
samtlige
samtykke
samuel
samuelsen
samui
samurai
samvirke
samvirkende
samvittighed
samvær
san
sanchez
sand
sandberg
sandbjerg
sande
sandede
sandefjord
sandelig
sander
sanders
sandet
sandhed
sandheden
sandheder
sandnes
sandoy
sandra
sandro
sands
sandsten
sandsynlig
sandsynlige
sandsynlighed
sandsynligheden
sandsynligt
sandsynligvis
sandt
sandvig
sandwich
sandy
sang
sange
sangen
sangene
sangens
sanger
sangere
sangeren
sangerinde
sangerinden
sangskriver
sangskrivere
sangtekster
sanjay
sank
sankt
sanktioner
sanne
sans
sanser
sanskrit
sant
santa
santana
santiago
santo
santos
sao
sapiens
sapporo
sar
sara
sarah
sarajevo
sardinien
sardisk
sareen
sarpsborg
sars
sartre
sas
sasha
saskatchewan
sass
sasuke
sat
satan
satans
satellit
satellite
satellitkratere
satellitkraterets
satellitter
satire
satirisk
satiriske
satoshi
sats
satse
satsede
satser
satsning
satte
sattes
saturday
saturn
saturns
sauce
saudi
saul
saunders
savage
savannah
save
savn
savnede
savner
savnet
savoyen
savtakket
savværk
saw
sawyer
saxo
saxofon
saxon
say
sayid
says
sb
sbs
sby
sc
scala
scale
scandal
scandia
scandinavia
scandinavian
scanning
scar
scarlet
scarlett
scavenius
scene
scenen
scener
scenerne
scenes
scenografi
scha
schack
schalke
scharling
schaumburg
schedule
scheel
schelde
scherfig
schilderessen
schiller
schimmelmann
schlegel
schlesien
schleswig
schloss
schlu
schmeichel
schmidt
schmidts
schneider
scho
scholten
school
schools
schou
schouburgh
schram
schriften
schro
schroeder
schrøder
schu
schubert
schultz
schulz
schumacher
schumann
schuster
schwa
schwaben
schwartz
schwarz
schweiz
schweizer
schweizisk
schweiziske
schwerin
schøller
schønberg
sci
science
sciencedaily
sciences
scient
scientific
scientist
scientists
scocozza
scope
score
scorede
scorende
scorer
scores
scoret
scoring
scoringer
scotia
scotland
scott
scottish
scotts
scout
scream
screen
script
scroll
sct
sculls
sd
sde
sdfe
sdr
sds
sdu
se
sea
seal
seals
sean
search
sears
seas
season
seasons
seat
seattle
sebastia
sebastian
sec
secher
second
seconds
secret
secretary
secrets
section
security
sed
sedan
seddel
sedler
see
seebach
seeberg
seedede
seedet
seen
seer
seere
seerne
seertal
sees
seest
seet
seg
sega
segafredo
segeberg
segl
segment
sehested
seidelin
seidenfaden
seidman
seier
sein
seine
seinen
sejl
sejlads
sejladsen
sejladser
sejlbar
sejle
sejlede
sejler
sejlet
sejr
sejre
sejrede
sejren
sejrende
sek
sekondløjtnant
sekretariat
sekretariatet
sekretær
seks
seksdagesløb
seksten
seksualitet
seksuel
seksuelle
seksuelt
sekt
sektion
sektioner
sektor
sektorer
sekulære
sekund
sekunder
sekunders
sekundet
sekundær
sekundære
sekundærrute
sekundært
sekvens
sekvenser
select
selected
selection
selektion
self
sell
sellers
selling
selma
selskab
selskaber
selskaberne
selskabet
selskabets
selskabs
selv
selvbestemmelse
selvbiografi
selvbiografisk
selvbiografiske
selve
selveje
selvejende
selvforsvar
selvfølge
selvfølgelig
selvmord
selvom
selvportræt
selvsamme
selvstyre
selvstyrende
selvstændig
selvstændige
selvstændighed
selvstændigt
selvtillid
sem
semi
semifinale
semifinalen
semifinaler
semifinalerne
seminar
seminariet
seminarium
sen
senat
senate
senatet
senator
senatorer
send
sendai
sende
sendebud
sender
sendes
sendt
sendte
sendtes
sene
seneca
senegal
senere
senest
seneste
seng
senge
sengekanten
sengen
sengotisk
senior
seniorkarriere
senmiddelalderen
sens
sensation
sense
sensommeren
sensorer
sent
sentralbyra
seoul
sep
separat
separate
separation
separeret
sept
september
ser
sera
serampore
serbere
serbien
serbiens
serbisk
serbiske
serena
serenade
serge
sergei
sergej
sergent
sergio
serial
serie
seriemorder
serien
seriens
serier
serierne
series
seriøs
seriøse
seriøst
sermitsiaq
serum
server
servere
serveres
serveret
service
services
ses
session
sessions
set
sete
seth
sets
settlement
sevastopol
seven
seventh
several
severin
severus
sevilla
seværdigheder
sex
sexual
sexy
seymour
sf
sfo
sfære
sg
sgt
sgu
sh
sha
shackleton
shaded
shades
shadow
shadows
shady
shah
shake
shakespeare
shakespeares
shall
shan
shandong
shane
shang
shanghai
shania
shannon
shape
share
sharia
sharon
sharp
sharpe
shaun
shaw
shawn
she
sheeran
sheet
sheffield
sheik
sheikh
shek
shelby
shell
shelley
shenandoah
shenzhen
shepard
shepherd
sherdog
sheridan
sheriff
sherlock
sherman
shermans
sherry
shetland
shi
shia
shield
shields
shift
shin
shinawatra
shine
ship
shipping
ships
shirley
shirt
shit
shiva
sho
shock
shoes
shoot
shooter
shooting
shop
shopping
shore
short
shorts
shot
should
show
showet
showets
shows
shrek
shrewsbury
shropshire
shtml
shu
shuttle
si
sia
siam
sibbern
sibelius
sibirien
sibiriske
sibylla
sic
sica
sich
sichuan
sicilien
sid
sidde
siddende
siddepladser
sidder
siddet
side
sideløbende
siden
sidenhen
sidenius
sider
siderne
siderødder
sides
sidespor
sidi
sidney
sidse
sidsel
sidst
sidste
sidstepladsen
sidstnævnte
sidstnævntes
sie
siege
siegel
siegfried
siemens
siena
sierra
sif
sig
sige
sigende
siger
siges
sigfred
sight
sigismund
sigma
sigmund
sign
signal
signaler
signalet
signatur
signe
signeret
signs
sigrid
sigt
sigte
sigtede
sigter
sigtet
sigurd
siig
sik
sikes
[...]
