!
"
#
##a
##aa
##ab
##ac
##ad
##ae
##af
##ag
##ah
##ai
##aj
##ak
##al
##am
##an
##ao
##ap
##aq
##ar
##as
##at
##au
##av
##aw
##ax
##ay
##az
##b
##ba
##bb
##bc
##bd
##be
##bf
##bg
##bh
##bi
##bj
##bk
##bl
##bm
##bn
##bo
##bp
##bq
##br
##bs
##bt
##bu
##bv
##bw
##bx
##by
##bz
##c
##ca
##cb
##cc
##cd
##ce
##cf
##cg
##ch
##ci
##cj
##ck
##cl
##cm
##cn
##co
##cp
##cq
##cr
##cs
##ct
##cu
##cv
##cw
##cx
##cy
##cz
##d
##da
##db
##dc
##dd
##de
##df
##dg
##dh
##di
##dj
##dk
##dl
##dm
##dn
##do
##dp
##dq
##dr
##ds
##dt
##du
##dv
##dw
##dx
##dy
##dz
##e
##ea
##eb
##ec
##ed
##ee
##ef
##eg
##eh
##ei
##ej
##ek
##el
##em
##en
##eo
##ep
##eq
##er
##es
##et
##eu
##ev
##ew
##ex
##ey
##ez
##f
##fa
##fb
##fc
##fd
##fe
##ff
##fg
##fh
##fi
##fj
##fk
##fl
##fm
##fn
##fo
##fp
##fq
##fr
##fs
##ft
##fu
##fv
##fw
##fx
##fy
##fz
##g
##ga
##gb
##gc
##gd
##ge
##gf
##gg
##gh
##gi
##gj
##gk
##gl
##gm
##gn
##go
##gp
##gq
##gr
##gs
##gt
##gu
##gv
##gw
##gx
##gy
##gz
##h
##ha
##hb
##hc
##hd
##he
##hf
##hg
##hh
##hi
##hj
##hk
##hl
##hm
##hn
##ho
##hp
##hq
##hr
##hs
##ht
##hu
##hv
##hw
##hx
##hy
##hz
##i
##ia
##ib
##ic
##id
##ie
##if
##ig
##ih
##ii
##ij
##ik
##il
##im
##in
##io
##ip
##iq
##ir
##is
##it
##iu
##iv
##iw
##ix
##iy
##iz
##j
##ja
##jb
##jc
##jd
##je
##jf
##jg
##jh
##ji
##jj
##jk
##jl
##jm
##jn
##jo
##jp
##jq
##jr
##js
##jt
##ju
##jv
##jw
##jx
##jy
##jz
##k
##ka
##kb
##kc
##kd
##ke
##kf
##kg
##kh
##ki
##kj
##kk
##kl
##km
##kn
##ko
##kp
##kq
##kr
##ks
##kt
##ku
##kv
##kw
##kx
##ky
##kz
##l
##la
##lb
##lc
##ld
##le
##lf
##lg
##lh
##li
##lj
##lk
##ll
##lm
##ln
##lo
##lp
##lq
##lr
##ls
##lt
##lu
##lv
##lw
##lx
##ly
##lz
##m
##ma
##mb
##mc
##md
##me
##mf
##mg
##mh
##mi
##mj
##mk
##ml
##mm
##mn
##mo
##mp
##mq
##mr
##ms
##mt
##mu
##mv
##mw
##mx
##my
##mz
##n
##na
##nb
##nc
##nd
##ne
##nf
##ng
##nh
##ni
##nj
##nk
##nl
##nm
##nn
##no
##np
##nq
##nr
##ns
##nt
##nu
##nv
##nw
##nx
##ny
##nz
##o
##oa
##ob
##oc
##od
##oe
##of
##og
##oh
##oi
##oj
##ok
##ol
##om
##on
##oo
##op
##oq
##or
##os
##ot
##ou
##ov
##ow
##ox
##oy
##oz
##p
##pa
##pb
##pc
##pd
##pe
##pf
##pg
##ph
##pi
##pj
##pk
##pl
##pm
##pn
##po
##pp
##pq
##pr
##ps
##pt
##pu
##pv
##pw
##px
##py
##pz
##q
##qa
##qb
##qc
##qd
##qe
##qf
##qg
##qh
##qi
##qj
##qk
##ql
##qm
##qn
##qo
##qp
##qq
##qr
##qs
##qt
##qu
##qv
##qw
##qx
##qy
##qz
##r
##ra
##rb
##rc
##rd
##re
##rf
##rg
##rh
##ri
##rj
##rk
##rl
##rm
##rn
##ro
##rp
##rq
##rr
##rs
##rt
##ru
##rv
##rw
##rx
##ry
##rz
##s
##sa
##sb
##sc
##sd
##se
##sf
##sg
##sh
##si
##sj
##sk
##sl
##sm
##sn
##so
##sp
##sq
##sr
##ss
##st
##su
##sv
##sw
##sx
##sy
##sz
##t
##ta
##tb
##tc
##td
##te
##tf
##tg
##th
##ti
##tj
##tk
##tl
##tm
##tn
##to
##tp
##tq
##tr
##ts
##tt
##tu
##tv
##tw
##tx
##ty
##tz
##u
##ua
##ub
##uc
##ud
##ue
##uf
##ug
##uh
##ui
##uj
##uk
##ul
##um
##un
##uo
##up
##uq
##ur
##us
##ut
##uu
##uv
##uw
##ux
##uy
##uz
##v
##va
##vb
##vc
##vd
##ve
##vf
##vg
##vh
##vi
##vj
##vk
##vl
##vm
##vn
##vo
##vp
##vq
##vr
##vs
##vt
##vu
##vv
##vw
##vx
##vy
##vz
##w
##wa
##wb
##wc
##wd
##we
##wf
##wg
##wh
##wi
##wj
##wk
##wl
##wm
##wn
##wo
##wp
##wq
##wr
##ws
##wt
##wu
##wv
##ww
##wx
##wy
##wz
##x
##xa
##xb
##xc
##xd
##xe
##xf
##xg
##xh
##xi
##xj
##xk
##xl
##xm
##xn
##xo
##xp
##xq
##xr
##xs
##xt
##xu
##xv
##xw
##xx
##xy
##xz
##y
##ya
##yb
##yc
##yd
##ye
##yf
##yg
##yh
##yi
##yj
##yk
##yl
##ym
##yn
##yo
##yp
##yq
##yr
##ys
##yt
##yu
##yv
##yw
##yx
##yy
##yz
##z
##za
##zb
##zc
##zd
##ze
##zf
##zg
##zh
##zi
##zj
##zk
##zl
##zm
##zn
##zo
##zp
##zq
##zr
##zs
##zt
##zu
##zv
##zw
##zx
##zy
##zz
$
%
&
'
(
)
*
+
,
-
.
/
0
00
000
001
002
005
007
01
017
02
03
033
04
05
050
0521335000
056
06
067
07
08
083
09
0a
0b
0c
0d
0e
0f
0g
0h
0i
0j
0k
0l
0m
0n
0o
0p
0q
0r
0s
0t
0u
0v
0w
0x
0y
0z
1
10
100
1000
1001
1002
1007
101
1016
1017
102
103
1038
104
105
1050
106
1066
107
1073
108
1080
1086
109
1093
1097
1098
11
110
1100
111
1111
112
1126
113
1130
1135
114
115
1150
1157
116
117
1170
1177
118
1180
119
12
120
1200
1202
1204
121
122
1220
1227
123
1230
1231
124
1240
1241
125
1250
126
1260
127
1270
128
1280
129
1290
13
130
1300
131
132
1320
133
1330
134
1340
1346
135
1350
136
1360
1368
137
1370
1371
1375
138
1380
1387
139
1390
1396
1397
1398
14
140
1400
1404
141
1410
1415
142
1420
143
1430
1435
1439
144
1440
1448
145
1450
1452
1453
1455
1459
146
1460
1461
1462
1464
1469
147
1470
1471
1472
1475
1479
148
1480
1481
1483
1485
149
1490
1492
1494
1497
1498
1499
15
150
1500
1501
1503
1504
1505
1506
1509
151
1510
1512
1513
1514
1515
1516
1517
1519
152
1520
1521
1522
1523
1524
1525
1526
1527
1528
1529
153
1530
1531
1532
1533
1534
1535
1536
1537
1538
1539
154
1540
1541
1542
1543
1544
1545
1546
1547
1548
155
1550
1551
1552
1553
1554
1555
1556
1557
1558
1559
156
1560
1561
1562
1563
1564
1565
1566
1567
1568
1569
157
1570
1571
1572
1573
1574
1575
1576
1577
1578
1579
158
1580
1581
1582
1583
1584
1585
1586
1587
1588
1589
159
1590
1591
1592
1593
1594
1595
1596
1597
1598
1599
16
160
1600
1601
1602
1603
1604
1605
1606
1607
1608
1609
161
1610
1611
1612
1613
1614
1615
1616
1617
1618
1619
162
1620
1621
1622
1623
1624
1625
1626
1627
1628
1629
163
1630
1631
1632
1633
1634
1635
1636
1637
1638
1639
164
1640
1641
1642
1643
1644
1645
1646
1647
1648
1649
165
1650
1651
1652
1653
1654
1655
1656
1657
1658
1659
166
1660
1661
1662
1663
1664
1665
1666
1667
1668
1669
167
1670
1671
1672
1673
1674
1675
1676
1677
1678
1679
168
1680
1681
1682
1683
1684
1685
1686
1687
1688
1689
169
1690
1691
1692
1693
1694
1695
1696
1697
1698
1699
17
170
1700
1701
1702
1703
1704
1705
1706
1707
1708
1709
171
1710
1711
1712
1713
1714
1715
1716
1717
1718
1719
172
1720
1721
1722
1723
1724
1725
1726
1727
1728
1729
173
1730
1731
1732
1733
1734
1735
1736
1737
1738
1739
174
1740
1741
1742
1743
1744
1745
1746
1747
1748
1749
175
1750
1751
1752
1753
1754
1755
1756
1757
1758
1759
176
1760
1761
1762
1763
1764
1765
1766
1767
1768
1769
177
1770
1771
1772
1773
1774
1775
1776
1777
1778
1779
178
1780
1781
1782
1783
1784
1785
1786
1787
1788
1789
179
1790
1791
1792
1793
1794
1795
1796
1797
1798
1799
18
180
1800
1801
1802
1803
1804
1805
1806
1807
1808
1809
181
1810
1811
1812
1813
1814
1815
1816
1817
1818
1819
182
1820
1821
1822
1823
1824
1825
1826
1827
1828
1829
183
1830
1831
1832
1833
1834
1835
1836
1837
1838
1839
184
1840
1841
1842
1843
1844
1845
1846
1847
1848
1849
185
1850
1851
1852
1853
1854
1855
1856
1857
1858
1859
186
1860
1861
1862
1863
1864
1865
1866
1867
1868
1869
187
1870
1871
1872
1873
1874
1875
1876
1877
1878
1879
188
1880
1881
1882
1883
1884
1885
1886
1887
1888
1889
189
1890
1891
1892
1893
1894
1895
1896
1897
1898
1899
19
190
1900
1901
1902
1903
1904
1905
1906
1907
1908
1909
191
1910
1911
1912
1913
1914
1915
1916
1917
1918
1919
192
1920
1921
1922
1923
1924
1925
1926
1927
1928
1929
193
1930
1931
1932
1933
1934
1935
1936
1937
1938
1939
194
1940
1941
1942
1943
1944
1945
1946
1947
1948
1949
195
1950
1951
1952
1953
1954
1955
1956
1957
1958
1959
196
1960
1961
1962
1963
1964
1965
1966
1967
1968
1969
197
1970
1971
1972
1973
1974
1975
1976
1977
1978
1979
198
1980
1981
1982
1983
1984
1985
1986
1987
1988
1989
199
1990
1991
1992
1993
1994
1995
1996
1997
1998
1999
1a
1b
1c
1d
1e
1f
1g
1h
1i
1j
1k
1l
1m
1n
1o
1p
1q
1r
1s
1t
1u
1v
1w
1x
1y
1z
2
20
200
2000
2001
2002
2003
2004
2005
2006
2007
2008
2009
201
2010
2011
2012
2013
2014
2015
2016
2017
2018
2019
202
2020
2021
2022
2023
2024
2025
203
2030
204
205
206
207
208
209
20917
21
210
211
212
213
214
215
216
217
218
219
22
220
221
222
223
224
225
226
227
228
229
23
230
2307
231
232
233
234
235
236
237
238
239
24
240
241
242
243
244
245
246
247
248
249
25
250
2500
251
252
253
254
255
256
257
258
259
26
260
261
262
263
264
265
266
267
268
269
27
270
271
272
273
274
275
276
277
278
279
28
280
281
282
283
284
285
286
287
288
289
29
290
291
292
293
294
295
296
297
298
299
2a
2b
2c
2d
2e
2f
2g
2h
2i
2j
2k
2l
2m
2n
2o
2p
2q
2r
2s
2t
2u
2v
2w
2x
2y
2z
3
30
300
3000
301
302
303
304
305
306
307
308
309
31
310
311
312
313
314
315
316
317
318
319
32
320
321
322
323
324
325
326
327
328
329
33
330
331
332
333
334
335
336
337
338
339
34
340
341
342
343
344
345
346
347
348
349
35
350
3500
351
352
353
354
35469
355
356
35610
357
358
359
36
360
361
362
363
364
365
366
367
368
369
37
370
371
372
373
374
375
376
377
378
379
38
380
381
382
383
384
385
386
387
388
389
39
390
391
392
393
394
395
396
397
398
399
3a
3b
3c
3d
3e
3f
3g
3h
3i
3j
3k
3l
3m
3n
3o
3p
3q
3r
3s
3t
3u
3v
3w
3x
3y
3z
4
40
400
4000
401
402
403
404
405
406
407
408
409
41
410
411
412
413
414
415
416
417
418
419
42
420
421
422
423
424
425
426
427
428
429
43
430
431
432
433
434
435
436
437
438
439
44
440
441
442
443
444
445
446
447
448
449
45
450
451
452
453
454
455
456
457
458
459
46
460
461
462
463
464
465
466
467
468
469
47
470
471
472
473
474
475
476
477
478
479
48
480
481
482
483
484
485
486
487
488
489
49
490
491
492
493
494
495
496
497
498
499
4a
4b
4c
4d
4e
4f
4g
4h
4i
4j
4k
4l
4m
4n
4o
4p
4q
4r
4s
4t
4u
4v
4w
4x
4y
4z
5
50
500
5000
501
502
503
504
505
506
507
508
509
51
510
511
512
513
514
515
516
517
518
52
520
521
522
523
524
525
527
528
529
53
530
531
532
533
534
535
536
537
538
539
54
540
541
542
543
544
545
546
547
548
549
55
550
551
552
553
554
555
557
559
56
560
561
562
563
565
567
568
57
570
571
574
575
578
58
580
581
582
583
585
586
587
589
59
590
593
595
596
597
5a
5b
5c
5d
5e
5f
5g
5h
5i
5j
5k
5l
5m
5n
5o
5p
5q
5r
5s
5t
5u
5v
5w
5x
5y
5z
6
60
600
6000
601
602
603
604
605
61
610
612
613
616
617
618
619
62
620
621
62248
625
626
628
63
630
631
632
633
635
638
639
64
640
641
642
645
65
650
655
66
660
666
667
67
670
671
674
679
68
680
683
684
69
690
691
6a
6b
6c
6d
6e
6f
6g
6h
6i
6j
6k
6l
6m
6n
6o
6p
6q
6r
6s
6t
6u
6v
6w
6x
6y
6z
7
70
700
7000
701
707
71
710
717
72
720
722
73
730
733
737
74
740
747
75
750
7526
76
760
767
77
770
777
78
780
79
790
7a
7b
7c
7d
7e
7f
7g
7h
7i
7j
7k
7l
7m
7n
7o
7p
7q
7r
7s
7t
7u
7v
7w
7x
7y
7z
8
80
800
8000
802
81
810
815
81528
817
82
820
83
830
833
84
840
85
850
85233
86
860
867
87
870
8702112191
88
880
888
89
890
8a
8b
8c
8d
8e
8f
8g
8h
8i
8j
8k
8l
8m
8n
8o
8p
8q
8r
8s
8t
8u
8v
8w
8x
8y
8z
9
90
900
9000
90210
90286
91
911
913135
917
92
93
930
933
936389
94
940
95
950
951
96
960
965
967
97
970
978
98
980
983
99
999
9a
9b
9c
9d
9e
9f
9g
9h
9i
9j
9k
9l
9m
9n
9o
9p
9q
9r
9s
9t
9u
9v
9w
9x
9y
9z
:
;
<
=
>
?
@
[
[CLS]
[MASK]
[PAD]
[SEP]
[UNK]
\
]
^
_
`
a
a0
a1
a2
a3
a4
a5
a6
a7
a8
a9
aa
aab
aaben
aabenbart
aabenraa
aabent
aabne
aabnede
aaby
aachen
aaen
aagaard
aage
aagesen
aakjær
aalborg
aalestrup
aand
aandelig
aandelige
aanden
aar
aarbog
aarene
aaret
aarhundrede
aarhus
aaron
aars
aarup
aase
aasmund
aau
ab
abba
abbas
abbed
abbey
abbott
abc
abd
abdel
abdicerede
abdul
abdullah
abe
abel
aben
abenbaring
abenbart
abenhed
abenlyst
abent
aber
aberdeen
abildgaard
abne
abnede
abnedes
abner
abnes
abnet
abning
abningen
abo
abonnement
abonnenter
abort
about
above
abraham
abrahams
abrahamsen
abrams
abruzzo
abs
absalon
absolut
absolute
absolutte
abstract
abstrakt
abstrakte
abu
aby
ac
academia
academic
academie
academy
acceleration
accent
accept
acceptere
accepterede
accepterer
accepteret
access
accessed
according
account
accreditations
ace
achievement
acid
across
act
acta
action
active
activity
actor
actors
actress
actually
ad
ada
adal
adam
adams
address
adel
adelaide
adele
adelen
adelens
adeler
adelheid
adelig
adelige
adels
adelsmand
adelsmænd
adelsslægt
adfærd
adgang
adgangen
adhd
adjudant
adjunkt
adjusted
adler
adlet
adlyde
adm
administration
administrationen
administrationsby
administrationscenter
administrativ
administrative
administrativt
administrator
administrere
administrerende
administrerer
administreres
administreret
admiral
adn
adobe
adolf
adolph
adopterede
adopteret
adresse
adressen
adresser
adrian
adriaterhavet
adskille
adskillelse
adskiller
adskilles
adskillige
adskilt
adskilte
adult
advance
advanced
advare
advarede
advarer
advaret
advarsel
advarsler
adventure
adventures
advokat
advokater
ae
aen
aer
aero
aerospace
af
afbildet
afbildning
afbildninger
afbrudt
afbryde
afbrydelse
afbrydes
afbrød
afbud
afc
afd
afdeling
afdelingen
afdelinger
afdækket
afdøde
aff
affair
affairs
affald
affleck
affyre
affyrede
affyret
affære
affæren
affærer
affødte
afføring
afgang
afgange
afgangseksamen
afgav
afghanistan
afghanske
afgift
afgifter
afgik
afgive
afgiver
afgivet
afgivne
afgjorde
afgjort
afgjørende
afgrænses
afgrænset
afgrænsning
afgrøder
afgør
afgøre
afgørelse
afgørelsen
afgørelser
afgørende
afgøres
afhandling
afhandlingen
afhandlinger
afhjælpe
afholde
afholdelse
afholder
afholdes
afholdt
afholdte
afholdtes
afhænger
afhængig
afhængige
afhængighed
afhængigt
afkald
afkom
aflagde
aflagt
aflange
afledning
afledt
afledte
aflejringer
aflevere
afleverede
afleveret
aflyst
aflægge
afløb
afløse
afløser
afløses
afløsning
afløst
afløste
afløstes
afp
afprøve
afprøvet
afrejse
africa
african
afrika
afrikansk
afrikanske
afrikas
afro
afrundede
afrundet
afsagt
afsat
afsatte
afsides
afskaffe
afskaffede
afskaffelse
afskaffet
afskaret
afsked
afskediget
afsky
afskære
afslaet
afslag
afslog
afslutning
afslutningen
afslutte
afsluttede
afsluttedes
afsluttende
afslutter
afsluttes
afsluttet
afsløre
afslørede
afslører
afsløres
afsløret
afsløringer
afsnit
afsnittene
afsnittet
afspejle
afspejlede
afspejler
afspejles
afsta
afstaet
afstamning
afstand
afstande
afstanden
afsted
afstemning
afstemningen
afstod
afsæt
afsætte
aftagende
aftager
aftale
aftalen
aftaler
aftalt
aftalte
aften
aftenen
aftenposten
after
aftog
aftonbladet
aftryk
afvander
afvandingsomrade
afvigelse
afvigelser
afvigende
afviger
afvikle
afvikledes
afvikles
afviklet
afvikling
afvise
afviser
afvisning
afvist
afviste
afværge
ag
again
against
agatha
agder
age
aged
agency
agent
agenter
ager
ages
agf
agger
aggression
aggressiv
aggressive
agnes
agnete
ago
agrarstrukturer
agre
agreement
agricultural
agriculture
agt
agtede
agtelse
agter
aguilera
ah
ahead
ahlefeldt
ahmad
ahmed
ai
aid
aids
aik
aikido
aim
ain
air
airbus
aircraft
aires
airlines
airplay
airport
airways
aj
ajax
ak
aka
akademi
akademie
akademiens
akademiet
akademiets
akademisk
akademiske
ake
aker
akershus
akira
akka
akkord
akkorder
akkurat
akkusativ
akronym
aks
akse
aksel
aksen
akt
akter
aktier
aktierne
aktieselskab
aktieselskabet
aktion
aktionen
aktioner
aktiv
aktive
aktiver
aktivist
aktivister
aktivitet
aktiviteten
aktiviteter
aktiviteterne
aktivt
aktuel
aktuelle
aktuelt
aktør
aktører
akustisk
akustiske
akut
akvarel
al
alabama
aladdin
alain
alan
aland
alarm
alaska
alba
albania
albanien
albaniens
albansk
albanske
albany
albedo
albert
alberta
alberti
alberto
albertslund
albion
alborg
albrecht
album
albumet
albummer
albummet
albummets
albums
albæk
alcatraz
aldeles
alder
alderdom
alderen
aldo
aldre
aldrende
aldrig
ale
alec
alejandro
aleksander
aleksandr
aleksej
alen
alene
alessandro
alesund
alex
alexander
alexandra
alexandre
alexandria
alexandrine
alexis
alf
alfa
alfabet
alfabetisk
alfons
alfonso
alfred
alfredo
algebra
alger
algeriet
algier
ali
alias
alice
alicia
alien
aligned
alison
alive
alkohol
all
alla
allah
allan
alle
allegro
allen
aller
allerede
allerførste
allerslev
allerød
alles
allesammen
alletiders
allgemeine
alliance
alliancen
alliancer
allied
allierede
allieredes
allieret
alligevel
alling
allinge
allison
allmovie
allmusic
allocine
allsvenskan
alm
alma
almen
almene
alment
almindelig
almindelige
almindelighed
almindeligste
almindeligt
almindeligvis
almost
alois
alone
along
alonso
alper
alperne
alpes
alpha
alpine
als
alsace
alsidig
alslev
also
alstrup
alt
alta
alte
alter
alteret
alternativ
alternative
alternativer
alternativet
alternativt
altertavle
altertavlen
altfor
altid
altimetrica
alting
altinget
alto
altona
altsa
altsaa
altsammen
alufælge
aluminium
alv
alvarez
alvaro
alverdens
alves
alvin
alvor
alvorlig
alvorlige
alvorligt
always
am
amadeus
amager
amalia
amalie
amalienborg
amanda
amateur
amatør
amatører
amazing
amazon
ambassade
ambassadør
amber
ambition
ambitioner
ambitiøse
ambrosius
ambulance
america
american
americans
amerika
amerikaner
amerikanere
amerikaneren
amerikanerne
amerikansk
amerikanske
amerikas
amerikkalainen
ames
amin
aminosyrer
amir
ammoniak
ammunition
amnesty
amok
among
amor
amos
amour
amrum
amsterdam
amt
amter
amterne
amtet
amtets
amtmand
amtmanden
amts
amtskreds
amtsrad
amundsen
amy
an
ana
analog
analoge
analyse
analysen
analyser
analysere
analysis
analytisk
anand
anastasia
anatolien
anatomi
anatomy
anbefalede
anbefaler
anbefales
anbefalet
anbefaling
anbefalinger
anbragt
anbragte
anbringe
anbringes
ancestry
ancher
anciennitet
ancient
and
ande
andel
andelen
andelig
andelige
andeligt
andelsmejeri
anden
andenplads
andenpladsen
andens
ander
anderberg
anderlecht
anderledes
anders
andersen
andersens
anderson
andersson
andesbjergene
andet
andetsteds
andorra
andre
andrea
andreas
andreasen
andrej
andres
andresen
andrew
andrews
androg
android
andy
ane
anede
anelse
anemone
aner
anerkende
anerkendelse
anerkender
anerkendes
anerkendt
anerkendte
anette
anfald
anfører
anføres
anført
anførte
ang
angaaende
angaaer
angaar
angaende
angar
angav
angel
angela
angeles
angelo
angels
angelsaksisk
angelsaksiske
anger
angik
angive
angiveligt
angivelse
angiver
angives
angivet
angivne
angkor
angle
anglia
anglikanske
anglo
angola
angreb
angrebene
angrebet
angribe
angribende
angriber
angribes
angst
angus
anhalt
anholdt
anholt
animal
animals
animated
animation
animationsfilm
anime
animerede
animeret
anita
anja
anjou
ankara
anker
anklage
anklagede
anklagemyndigheden
anklager
anklagerne
anklaget
ankom
ankomme
ankommer
ankommet
ankomst
ankomsten
anlagde
anlagdes
anlagt
anlagte
anledning
anledningen
anliggender
anlæg
anlægge
anlæggelse
anlæggelsen
anlægges
anlægget
anm
anmeldelse
anmeldelser
anmelder
anmeldere
anmelderne
anmeldt
anmodede
anmodning
ann
anna
annaler
annales
annals
annas
anne
anneks
annekterede
annekteret
annelise
annette
anni
annie
annika
anniversary
anno
annoncerede
annonceret
announce
announced
announces
annual
annulleret
annæ
anonym
anonyme
anonymt
anordning
another
ans
ansa
ansas
ansat
ansatte
ansattes
anse
anseelse
ansees
anser
anses
anset
ansete
ansgar
ansigt
ansigter
ansigtet
anskaffe
anskaffede
anskaffet
anskuelse
anskuelser
anslaet
anslar
anslas
anslog
anstrengelser
ansvar
ansvaret
ansvarlig
ansvarlige
ansvarshavende
ansætte
ansættelse
ansøgning
ansøgninger
ansøgte
ant
antage
antagelig
antagelse
antagelser
antager
antages
antaget
antal
antallet
antarctic
antarktis
antarktiske
antenne
anthology
anthon
anthony
anthropology
anti
antibiotika
antik
antikke
antikken
antikkens
antiluftskyts
antiokia
antisemitisme
antog
antoine
antoinette
antologi
antologien
anton
antonin
antonio
antonius
antony
antropologi
antvorskov
antwerpen
antydede
antyder
antydet
anvende
anvendelig
anvendelige
anvendelse
anvendelsen
anvendelser
anvender
anvendes
anvendt
anvendte
anvendtes
anvisninger
any
anzac
ao
ap
apache
apartheid
apg
apollo
apollon
apostel
apostle
apostlen
apostlene
apostlenes
apostoliske
apotek
apoteker
apoteket
app
apparat
apparater
appel
appellerede
appendix
apple
apples
application
applications
applied
applikationer
approach
apps
apr
april
aps
apsis
apulien
aq
aqua
ar
ara
arab
arabere
araberne
arabia
arabien
arabisk
arabiske
aragonien
arbeide
arbeiderpartiet
arbejde
arbejdede
arbejdende
arbejder
arbejdere
arbejderen
arbejderklassen
arbejderne
arbejdernes
arbejderparti
arbejdes
arbejdet
arbejds
arbejdsgiver
arbejdsgivere
arbejdsgruppen
arbejdskraft
arbejdslegat
arbejdsløse
arbejdsløshed
arbejdsmarkedet
arbejdsplads
arbejdspladser
arbog
arbøger
arc
arch
archaeological
archaeology
archer
archibald
architects
architecture
archiv
archive
archived
archives
arctic
arden
are
area
areal
arealer
arealet
areas
arena
arenaen
arendal
arene
arenes
arer
aret
arets
arevis
arg
argang
argange
argentina
argentinas
argentinsk
argentinske
argument
argumentation
argumenter
argumenterede
argumenterer
arh
arhundrede
arhundreder
arhundredes
arhundredeskiftet
arhundredet
arhus
ari
aria
ariel
arig
arige
arigt
arild
aristokrati
aristoteles
arizona
ark
arkansas
arken
arkhangelsk
arkitekt
arkitekten
arkitekter
arkitekterne
arkitektkontoret
arkitektonisk
arkitektoniske
arkitektskole
arkitektur
arkitekturen
arkiv
arkiver
arkiveret
arkivet
arktis
arktisk
arktiske
arkæolog
arkæologer
arkæologi
arkæologisk
arkæologiske
arla
arlig
arlige
arligt
arlington
arm
armand
arme
armed
armee
armeer
armekorps
armen
armene
armenien
armensk
armenske
armes
armin
arms
armstrong
army
arne
arno
arnold
aron
aros
around
arrangement
arrangementer
arrangementet
arrangere
arrangerede
arrangerer
arrangeres
arrangeret
arrangør
arrest
arrestere
arresterede
arresteret
arriva
arrondissement
arrow
arrække
ars
arsag
arsagen
arsager
arsagerne
arsberetning
arsdagen
arsenal
arslev
arsrapport
arsskiftet
arsskrift
arstal
arstallet
arstider
art
arte
artemis
arten
arter
arterne
arthur
arti
article
articles
artier
artikel
artiklen
artikler
artiklerne
artilleri
artilleriet
artillery
artist
artister
artists
arts
artusinde
arup
arv
arve
arvede
arvefølge
arvefølgekrig
arvefølgen
arvelig
arvelige
arven
arveprins
arveret
arvet
arvid
arving
arvinger
as
asa
asbjørn
aschehoug
ase
aserbajdsjan
aserne
asfalt
asger
ash
ashley
asia
asian
asiatisk
asiatiske
asien
ask
aske
asken
askepot
asker
askov
asmussen
aso
asp
aspects
aspekt
aspekter
aspx
ass
assassin
assembly
assens
assessment
assessor
assistance
assistens
assistent
assistenttræner
assisterende
associated
association
associations
associeret
asta
astana
aster
asterix
asteroide
astma
aston
astra
astrid
astro
astrogeology
astrolink
astrologi
astronaut
astronom
astronomer
astronomi
astronomical
astronomie
astronomihjemmeside
astronomisk
astronomiske
astronomy
astrosurf
astrup
asturien
asyl
at
atelier
athen
athens
athletes
athletic
athletics
atkins
atkinson
atlanta
atlanten
atlanterhavet
atlantic
atlantis
atlas
atlet
atleter
atletico
atletik
atmosfære
atmosfæren
atmosfærisk
atom
atombombe
atomer
atomic
atomnummer
atomvaben
atp
att
attack
attacks
atten
attentat
attentatet
atter
atterdag
attila
attitude
attraktioner
au
auckland
audi
audio
audition
audrey
auf
auflage
aug
augsburg
august
augusta
auguste
augustenborg
augustin
augustus
auken
auktion
aura
aurelius
aurora
aus
auschwitz
austen
austin
australia
australian
australien
australiens
australierne
australsk
australske
austria
austrian
austriancharts
autentisk
author
authority
authors
autisme
auto
autobiography
autodidakt
automatgear
automatic
automatisk
automatiske
automobil
automobile
autonom
autonome
autonomi
autoriserede
autoriseret
autoritet
autoriteter
autumn
aux
av
ava
available
avancerede
avanceret
avant
avantgarde
avatar
ave
avec
avedøre
avengers
avenue
average
aviation
avibase
avignon
avis
avisen
avisens
aviser
aviserne
aviv
avn
aw
awakens
award
awards
away
ax
axel
axelsen
ay
ayatollah
az
aziz
b
b0
b1
b2
b3
b4
b5
b6
b7
b8
b9
ba
baad
baade
baaden
baand
baba
baby
babylon
bach
bache
bachelor
bachelorgrad
bachs
back
background
backing
backstreet
backup
bacon
bad
bade
baden
badene
badens
badminton
badmintonspiller
baekje
bafta
bag
bagdad
bagefter
bager
bageri
bagerste
bages
bageste
bagfra
bagge
bagger
baggesen
baggrund
baggrunden
baggrundsvokal
baghold
baglæns
bagside
bagsiden
bagsværd
bagtil
bagud
bagved
bahamas
bahn
bahrain
baht
bailey
bak
baker
bakke
bakkede
bakken
bakker
bakkerne
bakket
bakterien
bakterier
baku
bal
balance
balancen
balder
balduin
baldwin
bale
balet
balkan
ball
ballade
balladen
ballader
ballard
balle
ballerup
ballet
balletmusik
balletten
balling
ballon
ballum
baltic
baltikum
baltimore
baltiske
baltzer
bamberg
bambus
bamse
ban
band
bande
banden
bandens
bander
bandet
bandets
bands
bandt
bandy
bane
banebrydende
banecykling
banedanmark
banedata
banede
banegard
banegarden
banen
banens
baner
banerne
bang
bange
bangkok
bangladesh
bangs
banjo
bank
bankdirektør
banke
bankede
banken
bankens
banker
banks
banner
baptiste
bar
barack
barbano
barbara
barbarossa
barber
barcelona
bare
barer
baret
barfod
barfoed
bari
bark
barken
barker
barlow
barn
barnard
barndom
barndommen
barnebarn
barnes
barnet
barnets
barney
barnløs
barns
barok
barokken
baron
baronen
baronesse
baroniet
barre
barrett
barrow
barry
barsk
barske
bart
barth
bartholin
barton
baryton
bas
basale
basalt
base
baseball
based
basel
basen
baser
baserede
baserer
baseret
basguitar
basic
basin
basis
baskerlandet
basketball
basketballspiller
bass
basse
bassin
bassinet
bassist
bassisten
basso
bastian
bastion
bat
bataljon
bataljoner
bates
bath
batista
batman
batteri
batterier
batteriet
battery
battle
battlefield
battles
bauer
baumann
bay
bayer
bayern
bayerske
bayreuth
bb
bbc
bbs
bc
bd
be
beach
bean
bear
bearbejdelse
bearbejdet
bearbejdning
bears
beast
beat
beate
beatles
beatrice
beats
beaufort
beaumont
beautiful
beauty
beaux
beboede
beboelse
beboer
beboere
beboerne
beboet
bebyggelse
bebyggelsen
bebyggelser
bebyggelserne
bebygget
became
because
bech
beck
becker
beckett
become
becomes
bed
bede
beder
bedford
bedrag
bedrageri
bedre
bedrift
bedrifter
bedrøvet
bedst
bedste
bedsted
bedstefader
bedstefar
bedsteforældre
bedstemoder
bedstemor
bedt
bedømme
bedømmelse
bee
been
beer
beersheba
beethoven
beethovens
beetle
bef
befalede
befaling
befandt
befinde
befinder
befolkede
befolket
befolkning
befolkningen
befolkningens
befolkninger
befolknings
befolkningsgrupper
befolkningstal
befolkningstallet
befolkningstæthed
befolkningstætheden
befolkningsvækst
before
befri
befriede
befrielse
befrielsen
befriet
befæstede
befæstet
befæstning
befæstninger
beføjelser
bega
begaet
begar
begav
begavede
begavelse
begavet
begejstrede
begejstret
begejstring
begge
begik
begin
beginning
begins
begivenhed
begivenheden
begivenheder
begivenhederne
begravede
begravelse
begravelsen
begravelser
begravet
begreb
begreber
begreberne
begrebet
begribe
begrundelse
begrundelsen
begrundet
begrænse
begrænsede
begrænser
begrænses
begrænset
begrænsning
begrænsninger
begtrup
begynde
begyndelse
begyndelsen
begyndende
begynder
begyndere
begyndt
begyndte
begær
behag
behagelig
behageligt
behandle
behandlede
behandler
behandles
behandlet
behandling
behandlingen
behandlinger
behavior
beherskede
behind
beholde
beholder
beholdt
behov
behovet
behøve
behøvede
behøver
behøves
bei
beijing
being
beirut
beitrage
bekendt
bekendte
bekendtgjorde
bekendtgørelse
bekendtskab
bekjendt
bekjendte
beklagede
beklædning
beklædt
beklædte
bekostning
bekræfte
bekræftede
bekræftelse
bekræfter
bekræftes
bekræftet
bekymrede
bekymret
bekymring
bekymringer
bekæmpe
bekæmpede
bekæmpelse
bel
bela
belagt
belastet
belastning
belejrede
belejret
belejring
belejringen
belfast
belgien
belgiens
belgisk
belgiske
belgium
believe
beliggende
beliggenhed
beliggenheden
bell
bella
belle
bellevue
belli
below
belt
belyse
belysning
belyst
beløb
beløbet
belønnet
belønning
bemandede
bemandet
bemyndigelse
bemærk
bemærke
bemærkede
bemærkelsesværdig
bemærkelsesværdige
bemærkelsesværdigt
bemærker
bemærkes
bemærket
bemærkning
bemærkninger
ben
benadet
bender
bendix
bendixen
bendt
bendtsen
benedict
benedikt
benedikte
benene
benet
benfica
bengt
bengtsson
benito
benjamin
bennett
benny
benoit
benson
bent
bente
bentley
bentsen
bentzon
benytte
benyttede
benyttedes
benyttelse
benytter
benyttes
benyttet
benz
benzin
benzinmotor
benzinmotorer
benzon
benægtede
benævnelse
benævnelsen
benævnes
benævnt
beograd
beordrede
beordret
beowulf
beredne
beredskab
beregne
beregnede
beregnes
beregnet
beregning
beregninger
beretning
beretningen
beretninger
berettede
beretter
berettigede
berettiget
berg
bergen
bergens
bergensbanen
berger
bergman
bergmann
bergs
bergsøe
bering
berit
berkeley
berlin
berliner
berlingske
berlins
bermuda
bern
bernadotte
bernard
bernardo
bernd
berner
bernhard
bernie
bernstein
bernstorff
bernt
berntsen
bero
beror
berry
bert
bertel
bertelsen
bertha
berthelsen
berthold
bertil
bertram
bertrand
beruset
berygtede
berygtet
beryllium
berømmelse
berømt
berømte
berører
berøring
berørt
berørte
besad
besat
besatte
besejre
besejrede
besejrer
besejret
besidde
besiddelse
besiddelser
besidder
beskadigede
beskadiget
beskaffenhed
beskatning
besked
beskeden
beskedent
beskeder
beskedne
beskrev
beskrevet
beskrevne
beskrive
beskrivelse
beskrivelsen
beskrivelser
beskriver
beskrives
beskudt
beskydning
beskyldninger
beskyldt
beskyldte
beskytte
beskyttede
beskyttelse
beskyttelsen
beskyttende
beskytter
beskyttes
beskyttet
beskæftige
beskæftigede
beskæftigelse
beskæftiger
beskæftiget
beskød
beslag
beslaglagt
beslutning
beslutningen
beslutninger
beslutte
besluttede
beslutter
besluttet
beslægtede
beslægtet
best
besta
bestaaende
bestaar
bestaende
bestaet
bestand
bestanddel
bestanddele
bestande
bestanden
bestandig
bestar
beste
besteg
bestemme
bestemmelse
bestemmelsen
bestemmelser
bestemmelserne
bestemmende
bestemmer
bestemmes
bestemt
bestemte
bestikkelse
bestille
bestilling
bestilt
bestilte
bestod
bestred
bestræbelser
bestræbelserne
bestseller
bestyrelse
bestyrelsen
bestyrelsesformand
bestyrelsesmedlem
bestyrer
besvare
besvarede
besvær
besværlig
besværligt
besynderlig
besynderligt
besætning
besætningen
besætninger
besætningsmedlemmer
besætte
besættelse
besættelsen
besættelsesmagt
besøg
besøge
besøgende
besøger
besøges
besøget
besøgt
besøgte
bet
beta
betale
betaler
betales
betaling
betalt
betalte
betegne
betegnede
betegnelse
betegnelsen
betegnelser
betegnelserne
betegner
betegnes
betegnet
beth
betingelse
betingelser
betingelserne
betinget
betjene
betjener
betjenes
betjening
betjeningen
betjent
betjente
beton
betragte
betragtede
betragteligt
betragter
betragtes
betragtet
betragtning
betragtninger
betroede
betroet
better
bettina
betty
between
betyde
betydelig
betydelige
betydeligste
betydeligt
betydende
betyder
betydet
betydning
betydningen
betydninger
betydningsfuld
betydningsfulde
betydningsfuldt
betænkning
betød
beundrede
beundrer
beundring
bevare
bevarede
bevarelse
bevarer
bevares
bevaret
bevaring
bevaringsværdige
beverly
bevidst
bevidste
bevidsthed
bevidstheden
bevilget
bevilling
bevillinger
bevirke
bevirkede
bevirker
bevis
bevise
beviser
bevist
beviste
bevolkerung
bevæbnede
bevæbnet
bevæge
bevægede
bevægelige
bevægelse
bevægelsen
bevægelsens
bevægelser
bevæger
bevæget
beyonce
beyond
bezirk
bf
bg
bh
bhutan
bi
bianca
bibcode
bibeholdt
bibel
bibelen
bibelske
bible
biblen
bibliografi
bibliotek
bibliotekar
biblioteker
bibliotekerne
biblioteket
biblioteks
bibliothek
bid
bide
biden
bidrag
bidrage
bidrager
bidraget
bidragyder
bidrog
bidt
bieber
bielke
bier
bifald
biflod
bifloder
bifrost
big
biggest
bil
bilag
bilagskort
bilancio
bilande
bilbao
bild
bilder
bilen
bilens
biler
bilerne
bilfabrikant
bill
billboard
bille
billed
billedbog
billede
billeder
billederne
billedet
billedhugger
billedhuggeren
billedkunst
billedkunstner
billet
billetter
billie
billig
billige
billigere
billigt
billion
billund
billy
bilmodel
bilmodeller
bilulykke
bin
bind
binde
bindende
binder
bindes
bindesbøll
binding
bindinger
bindingsværk
bing
binære
bio
biodiversitet
biograf
biografen
biografer
biograferne
biografi
biografier
biografisk
biografiske
biographical
biographie
biography
biolog
biologi
biological
biologisk
biologiske
biology
bios
bipolar
bir
birch
bird
birdlife
birds
birger
birgit
birgitta
birgitte
birk
birkerød
birket
birmingham
birolle
biroller
birte
birth
birthday
birthe
bis
bisat
bischoff
bisgaard
bishop
biskop
biskoppen
biskopper
biskopperne
bismarck
bison
bispebjerg
bispedømme
bispedømmet
bispen
bissen
bistand
bit
bitre
bits
bitter
bitterhed
bivirkninger
bj
bjarke
bjarne
bjerg
bjergarter
bjergby
bjerge
bjergene
bjerget
bjergkæde
bjergkæden
bjergkæder
bjerke
bjerre
bjerregaard
bjerringbro
bjerrum
bjorn
bjærget
bjørn
bjørne
bjørnen
bjørnson
bk
bl
bla
blaa
blabbermouth
blachman
black
blackburn
blackmore
blackwell
blad
blade
bladene
bladet
bladets
bladhjørnerne
blair
blake
blanc
blanche
bland
blande
blandede
blander
blandes
blandet
blanding
blandingen
blandt
blank
blanke
blast
blat
blatand
ble
bleg
blege
blekinge
blev
bleve
bleven
blevet
blevne
bli
blicher
blide
blik
blikke
blikket
blind
blinde
blink
blinkende
blir
bliv
blive
blivende
bliver
blixen
bloch
block
blod
blodet
blodig
blodige
blog
blogs
blogspot
blok
blokade
blokere
blokerede
blokeret
blokhus
blokke
blokken
blom
blomst
blomsten
blomster
blomsterne
blomstrede
blomstrende
blomstrer
blomstring
blomstringen
blond
blonde
blood
bloody
bloom
bloomberg
blot
blotte
blu
blucher
blue
blues
blunt
blussede
bly
blyant
blæk
blæse
blæser
blæst
blæste
blæsten
blød
bløde
blødt
bm
bmw
bn
bnp
bo
board
boat
bob
bobby
boca
bock
bod
bodies
bodil
bodilprisen
bodom
body
bodø
boe
boede
boeger
boeing
boel
boende
boer
boesen
boet
bog
bogen
bogens
bogense
bogform
boghandel
boghandels
boghandler
bogs
bogstav
bogstaveligt
bogstaver
bogstaverne
bogstavet
bogtrykker
bogtrykkeri
bogværket
bogø
bohmen
bohr
bois
bojsen
bok
bokmal
boks
bokse
boksede
bokser
boksere
boksning
bold
bolden
boldklub
boldklubben
boldklubs
boldspil
bolette
boleyn
bolig
boligbyggeri
boliger
boligomrade
boligomrader
bolivia
bolivias
bolle
boller
bologna
bolsjevikkerne
bolt
bolton
bom
bomb
bombardement
bombardementet
bombay
bombe
bombeangreb
bombefly
bomben
bomber
bombet
bomuld
bon
bonanza
bonaparte
bond
bonde
bonden
bone
bones
bonn
bonnie
bonnier
bonus
bonuses
boogie
book
booker
books
boom
boost
booth
boplads
bopladser
bopæl
bor
bora
borch
bord
borde
bordeaux
border
bordet
bording
bordtennis
borg
borge
borgen
borgens
borger
borgere
borgerkrig
borgerkrigen
borgerlig
borgerlige
borgerligt
borgerne
borgernes
borgerrepræsentation
borgerrepræsentationen
borgerskab
borgerskabet
borgmester
borgmesteren
borgmesterfakta
borgmesterposten
borgmestre
boring
boris
bork
born
bornemann
bornholm
bornholms
bornholmske
borough
borre
bort
borte
bortfaldt
bortført
bortset
borup
borussia
bosat
bosatte
bosch
bosiddende
bosnien
boss
boston
bosworth
bosætning
bosætte
bosættelse
bosættelser
bosættere
bot
botanik
botaniker
botanisk
botaniske
botany
both
botswana
bottom
boulevard
boulogne
bounty
bourbon
bourgogne
bourne
bournonville
bov
bowie
bowl
bowling
box
boxer
boxing
boxrec
boy
boyd
boydell
boye
boyle
boys
bp
bq
br
brabant
brabrand
brad
bradford
bradley
brady
bragg
bragt
bragte
brahe
brahms
brain
bramming
bramsen
branch
branche
branchen
brancher
brand
brande
branden
brandenburg
brandes
brandon
brands
brandt
brandts
brandvæsen
branner
brarup
brasen
brasil
brasiliansk
brasilianske
brasilien
brasiliens
brask
brast
brat
bratislava
bratsch
braun
braunschweig
brave
bravo
brazil
break
breakfast
breaking
bred
breda
bredde
breddegrad
breddekreds
bredden
bredder
brede
breder
bredere
bredeste
bredgade
bredning
bredsdorff
bredt
bredte
bregninge
breivik
bremen
bremse
bremser
brenda
brendan
brennan
brent
breslau
brest
bret
bretagne
brett
brev
breve
brevene
brevet
brian
bricka
bride
bridge
bridges
brief
brien
brigade
brigadegeneral
brigaden
brigader
brigham
bright
brighton
brigitte
brik
brikker
brill
briller
bring
bringe
bringer
bringes
brink
brint
brisbane
bristol
britain
britannica
britannien
briter
briterne
briternes
british
britisk
britiske
britney
britt
britta
brittany
brix
bro
broadcast
broadcasting
broadway
broager
broberg
broby
brock
brockdorff
brockenhuus
broder
broderen
broderskab
broen
broer
broerne
brogede
broget
broken
bromwich
brondby
bronx
bronze
bronzealder
bronzealderen
bronzekampen
bronzemedalje
bronzemedaljer
bronzemedaljerne
brooke
brooklyn
brooks
bror
brors
bros
brother
brothers
brovst
brown
browne
browning
browns
browser
brt
bruce
brud
bruddet
bruden
brudstykker
brudt
bruel
brug
brugbare
bruge
brugen
bruger
brugere
brugeren
brugerne
bruges
brugge
brugt
brugte
brugtes
bruhn
brun
brune
bruno
brunt
brussels
brutal
brutale
brutalt
bruun
bruxelles
bryan
bryde
bryder
brydes
brydning
brygge
brygger
bryggeri
bryggerier
bryggeriet
bryghus
brygmann
bryllup
bryllupper
brylluppet
bryst
bryster
brystet
brædder
brækkede
brækket
brænde
brændende
brænder
brændevin
brændsel
brændstof
brændt
brændte
bræt
brætspil
brættet
brød
brødet
brødre
brødrene
brøgger
brønd
brøndby
brønderslev
brøndsted
brøndum
brønshøj
bs
bt
bu
buble
buch
buchanan
buchwald
buck
buckingham
buckley
bucuresti
bud
budapest
buddha
buddhas
buddhism
buddhisme
buddhismen
buddhist
buddhistisk
buddhistiske
buddinge
buddy
budget
budgettet
budo
budskab
budskabet
budtz
bue
buen
buenos
buer
buffalo
bug
bugge
bugt
bugten
bugter
buhl
build
building
buildings
built
buk
bukarest
bukkede
bukser
bulgaria
bulgarien
bulgariens
bulgarsk
bulgarske
bull
bullet
bulletin
bulls
bulow
bumble
bund
bunden
bundesen
bundesliga
bundesligaen
bundesstraße
bundet
bundgaard
bundne
bunke
bunker
bur
burde
bureau
burg
burger
burgess
burgund
burhan
burke
burkina
burma
burmeister
burn
burning
burns
burt
burton
bury
bus
busch
busck
busfronten
bush
business
busk
buske
buslinjer
bussen
busser
busserne
bussey
buste
buster
but
butik
butikken
butikker
butikkerne
butler
butterfly
buxwv
buy
buzz
bv
bw
bwf
bx
by
byde
bydel
bydele
bydelen
bydelene
byder
bydistriktet
bye
byen
byens
byer
byerne
byernes
byers
byfoged
byg
bygd
bygden
bygder
bygge
byggede
byggedes
bygger
byggeri
byggerier
byggeriet
bygges
bygget
bygherre
bygmester
bygning
bygningen
bygningens
bygninger
bygningerne
bygningsinspektør
bygningsregistrering
bygningsværker
byhistorie
bymur
bymæssige
byomrade
byomrader
byomradet
byplan
byplanlægning
byrad
byradet
byradsmedlem
byrd
byrde
byret
byrne
byron
bys
bystater
bystatus
bystyret
bytrafik
bytte
byttede
byttet
byudvikling
byudviklingsplan
byzans
byzantinsk
byzantinske
bz
bæger
bæk
bække
bækken
bælt
bælte
bæltet
bænk
bænke
bænken
bær
bære
bæredygtig
bæredygtighed
bærende
bærer
bæres
bød
bøde
bøder
bødker
bøg
bøge
bøger
bøgerne
bøgh
bøhmen
bøje
bøjede
bøjer
bøjes
bøjet
bøjning
bølge
bølgelængde
bølgelængder
bølgen
bølger
bølgerne
bølle
bøn
bønder
bønderne
bøndernes
bønner
bør
børge
børglum
børn
børne
børnebog
børnebøger
børnebørn
børnefilm
børnehave
børnehaven
børnehjem
børnene
børnenes
børns
børs
børsen
børsnoteret
c
c0
c1
c2
c3
c4
c5
c6
c7
c8
c9
ca
cabinet
cable
cabriolet
cadillac
caen
caesar
cafe
cafeer
cage
cai
cairo
calabrien
calais
calcium
calcutta
caldwell
calendar
calgary
california
californien
call
called
calling
calls
calvin
cam
cambodia
cambodja
cambridge
came
cameo
camera
cameron
cameroun
camilla
camille
camp
campaign
campbell
camping
campus
can
canada
canadas
canadian
canadierne
canadisk
canadiske
canal
canberra
cancer
cand
candy
cannabis
cannes
cannon
canoo
canterbury
canyon
cap
cape
capital
capitol
capo
cappelen
captain
capture
car
carbon
card
cardiff
cards
care
career
carey
cargo
caribbean
caribien
caribiske
carina
carit
carl
carla
carlisle
carlo
carlos
carlsberg
carlsbergfondet
carlsen
carlsson
carlton
carmen
carnegie
carol
carolina
caroline
carpenter
carr
carrie
carrier
carroll
cars
carson
carsten
carstens
carstensen
carter
cartographie
cartoon
cas
casa
casablanca
case
cases
casey
cash
casino
caspar
casper
cassidy
cast
castet
castle
castles
castro
cat
catalansk
catalanske
catalog
catalogue
catalonien
catch
category
catharina
cathedral
catherine
catholic
cathrine
cato
cats
cause
cave
cavendish
cb
cbc
cbs
cc
cd
cdot
cdu
ce
cecil
cecilia
cecilie
cedric
celebrity
celestia
celestial
celine
cell
celle
cellen
celler
cellerne
cello
celsius
celtic
cembalo
cement
cemetery
cena
censor
censur
census
cent
center
centeret
centers
centimeter
central
centralasien
centralbank
centralbyran
centrale
centraleuropa
centralt
centre
centreret
centret
centrum
centuries
century
ceo
ceremoni
ceremonielle
ceremonien
ceremonier
ceremony
ceres
cern
certain
certifications
certificeret
certificeringer
cesar
cf
cg
ch
cha
chad
chain
challenge
challenger
chamber
chamberlain
chambers
champagne
champion
champions
championship
championships
chan
chance
chancen
chancer
chandler
chanel
chang
change
changed
changes
changing
channel
chaos
chapel
chaplin
chapman
chapter
character
characters
charge
charity
charles
charleston
charlie
charlotte
charlottenborg
charlottenlund
charlton
chart
charter
charts
chase
chat
chateau
chauffør
che
check
chef
chefen
chefredaktør
cheftræner
chelsea
chem
chemical
chemistry
chen
chengdu
cher
cherokee
cherokeserne
cherry
chess
chester
chevalley
chevrolet
chi
chiang
chicago
chick
chief
child
children
chile
chilensk
chilenske
chiles
chili
china
chinese
chip
chloe
choice
chok
chokolade
chopin
chopins
chr
chris
christ
christen
christensen
christensens
christer
christi
christian
christiane
christiania
christianity
christians
christiansborg
christiansen
christiansfeld
christianshavn
christianshavns
christie
christina
christine
christmas
christoffer
christoffersen
christoph
christophe
christopher
christus
chronicle
chronicles
chronology
chrysler
chuck
chung
church
churchill
ci
cia
cicero
cid
ciffer
cifre
cifrene
cigar
cigaretter
cincinnati
cindy
cinema
circle
circuit
circus
cirka
cirkel
cirklen
cirkler
cirkulær
cirkulære
cirkus
cis
citat
citater
citation
cite
citerede
citerer
citeret
cities
citizen
citroen
citron
citrus
city
civil
civile
civilingeniør
civilisation
civilisationer
civilization
civilt
cj
ck
cl
claes
claims
claire
clapton
clara
clare
clarence
clarendon
clark
clarke
clash
class
classic
classical
classics
classification
claude
claudia
claudine
claudio
claudius
claus
clausen
clausens
clay
clayton
clean
clemens
clement
clementine
clemmensen
clermont
cleveland
click
cliff
clifford
climate
clinical
clint
clinton
clio
clive
clock
close
closer
cloud
club
clubs
clyde
cm
cn
cnn
co
coach
coast
cobra
coburg
coca
cocks
coco
code
coded
codex
cody
coffee
cohen
col
cola
cold
coldplay
cole
coleman
colin
collection
college
collin
collins
colo
colombia
colombiansk
colombianske
colonial
color
colorado
colour
columbia
columbus
com
combat
combi
combined
come
comeback
comedy
comes
comic
comics
coming
command
commander
commentary
commerce
commercial
commission
committee
commodore
common
commons
commonwealth
communication
communications
communities
community
companies
companion
company
comparative
competition
compilation
complete
complex
compton
computer
computere
computeren
computerspil
computerworld
computing
comte
comune
con
conan
concacaf
concept
concepts
concert
concerto
concise
confederations
conference
confirmed
confirms
conflict
congo
congress
connecticut
connection
connie
connor
conquest
conrad
cons
conservation
conspiracy
constance
constant
constantin
constantine
constitution
construction
contact
container
containere
contemporary
content
contents
contest
context
continental
contract
control
convention
conway
cook
cool
coolidge
coop
cooper
cooperation
cop
copa
copenhagen
coppa
copy
copyright
cordoba
core
corey
corfitz
corgan
cork
cornelis
cornelius
cornell
corner
cornwall
corona
coronavirus
coronaviruspandemien
corporate
corporation
corps
corpus
corr
corrs
corsa
cort
cortex
cos
cost
costa
cote
could
council
count
counter
counties
countries
country
county
countys
coupe
cour
course
court
cov
coventry
cover
coveret
coverversion
covid
cowboy
cowboys
cox
coxed
cp
cph
cpu
cq
cr
craig
cramer
crane
crash
crater
craters
crawford
crazy
cream
creation
creative
credit
credits
creed
creek
creme
crew
cricket
crime
crimes
criminal
crimson
crisis
critical
critics
croatia
croft
croix
cromwell
crone
crosby
cross
crow
crown
cruise
crusades
crust
cruz
cry
crystal
cs
csc
cska
css
ct
cu
cuba
cubanske
cult
cultural
culture
cum
cumberland
cummings
cunningham
cup
cuppen
cupturnering
cure
curlie
curling
current
curry
curse
curt
curtis
cut
cv
cvr
cw
cx
cy
cycle
cyclebase
cycling
cyclingnews
cykel
cykelhold
cykelløb
cykelløbet
cykelrytter
cykelsiderne
cykle
cyklen
cykler
cykling
cyklister
cyklus
cylinder
cylindre
cynthia
cypern
cyprus
cyril
cyrus
cz
czech
cæsar
d
d0
d1
d2
d3
d4
d5
d6
d7
d8
d9
da
daa
daarlig
daarligt
dab
daben
dad
daddy
daewoo
daf
dag
dagblad
dagblade
dagbladet
dagbog
dagbøger
dage
dagen
dagene
dagens
dages
daggry
daglig
dagligdags
daglige
dagligstuen
dagligt
dagmar
dags
dagsorden
dagtimerne
dahl
dahlerup
dai
daily
daisuke
daisy
dakota
dal
dalai
dalby
dale
dalen
daler
dalgaard
dalgas
dali
dall
dallas
dalsgaard
dalton
dalum
dam
damaskus
dame
damedouble
damen
damer
damerne
damernes
damesingle
damgaard
damien
damm
damme
damon
damp
dampskib
dampskibe
dan
dana
dance
dancing
dane
danemark
danfoss
dangerous
danica
daniel
danielle
daniels
danielsen
danish
danishcharts
danmark
danmarks
danmarkshistorie
danmarkshistorien
danmarkskirker
danmarksmester
danmarksmesterskabet
danmarksserien
danmarksturneringen
danne
dannebrog
dannebrogordenen
dannebrogsmand
dannede
dannedes
dannelse
dannelsen
danner
dannes
danneskiold
dannet
dannevirke
danny
dans
danse
dansede
dansen
dansende
danser
dansere
dansk
danske
danskefilm
danskefilmstemmer
dansker
danskere
danskeren
danskerne
danskernes
danskfilmogtv
danskfodbold
dante
danzig
daphne
dar
darfur
dario
dark
darkness
darlig
darlige
darligere
darligste
darligt
darling
darmstadt
darren
darwin
das
dash
dass
dat
data
database
databasen
databaseolympics
datalogi
date
dateres
dateret
datering
dates
datidens
dating
dato
datoen
datoer
datoværdier
datter
datteren
datterselskab
datterselskaber
daugaard
daughter
dave
david
davids
davidsen
davidson
davies
davis
davy
daværende
dawn
dawson
day
days
db
dbnl
dbu
dbus
dc
dce
dd
ddr
de
dead
deadline
deal
dean
dear
death
debat
debatten
debatter
debattør
debbie
deborah
debussy
debut
debutalbum
debutalbummet
debuten
debuterede
dec
december
decideret
decision
decline
dedikerede
dedikeret
dee
deel
deels
deep
def
default
defence
defense
defensiv
defensive
definere
definerede
definerer
defineres
defineret
definition
definitionen
definitioner
definitive
definitivt
degn
dehn
dei
dejen
dejlig
dejlige
dejligt
deklination
dekoration
dekorationer
dekorative
dekorerede
dekoreret
dekret
del
delaware
dele
delegation
delegerede
delen
delene
deler
deles
delfin
delfiner
delft
delhi
deling
delingen
dell
della
delle
dels
delstat
delstaten
delstatens
delstater
delstaterne
delt
delta
deltage
deltagelse
deltagende
deltager
deltagere
deltagerne
deltaget
delte
deltes
deltog
deluxe
delvis
delvist
dem
demand
demi
demo
democracy
democratic
demografico
demokraten
demokrater
demokraterne
demokrati
demokratiet
demokratisk
demokratiske
demonstranter
demonstranterne
demonstration
demonstrationer
demonstrere
demonstrerede
demonstrerer
dempsey
den
denborg
deng
dengang
denis
denise
denmark
denne
dennes
dennis
dens
density
denstoredanske
denver
departement
departementer
departementet
departementschef
department
deporteret
deportivo
depot
depp
depression
depressionen
deputeret
der
deraf
derby
derefter
derek
deres
derfor
derfra
derhen
derhjemme
derhos
deri
deriblandt
derigennem
derimod
derind
derinde
dermed
dernede
dernæst
derom
deroppe
derover
derovre
derpa
derpaa
dersom
dertil
derude
derudover
derunder
derved
des
descartes
description
desert
design
designe
designede
designer
designere
designet
designs
desire
deskriptive
desmond
desperat
desperate
dessau
destination
destinationer
destiny
desto
destroyer
destroyere
destruction
desuden
desværre
det
detail
details
detalje
detaljer
detaljerede
detaljeret
detektiv
detroit
dets
dette
dettes
deutsch
deutsche
deutschen
deutscher
deutsches
deutschland
deutschlands
deux
development
devil
devon
dewey
dexter
df
dfb
dfds
dfi
dg
dgi
dh
dhabi
dhdb
dhf
di
diabetes
diagnose
diagnosen
diagnosticeret
diagram
dialekt
dialekter
dialog
diamant
diamanter
diameter
diamond
diamonds
diana
diane
diaries
diary
diaz
diccionario
dich
dicionario
dick
dickens
dickinson
dickson
dictionaries
dictionary
did
didier
didn
didrik
die
died
diego
diem
dies
diesel
dieselmotor
dieselmotorer
dieter
dietrich
dif
difference
different
dig
dige
diger
digital
digitale
digitales
digitaliseret
digitalisering
digitalt
digt
digte
digtene
digter
digtere
digteren
digtet
digtning
digtsamling
digtsamlingen
digtsamlinger
diktator
diktatur
dilemma
dimension
dimensioner
dimitterede
dimitteredes
dimitteret
din
dina
dinamo
dine
dinesen
dino
dinosaur
dinosaurer
dio
diode
dion
diplom
diplomat
diplomater
diplomatisk
diplomatiske
dir
dirch
direct
direction
director
directors
directory
direkte
direktion
direktionen
direktiv
direktør
direktøren
direktører
dirigent
dirigerede
dirigeret
dirk
dirty
dis
disaster
disc
discipel
disciple
disciplene
disciplin
disciplinen
discipliner
disco
discography
discogs
discovered
discovery
discussion
disease
diseases
disk
diskografi
diskoskast
diskret
diskrimination
diskussion
diskussionen
diskussioner
diskutere
diskuterede
diskuterer
diskuteres
diskuteret
diskvalificeret
disney
disneys
disorder
dispensation
display
displaystyle
disputats
disse
disses
dissing
distance
distancen
distancer
distinguished
distribueret
distribution
district
distrikt
distrikter
distriktet
distriktets
dit
dithmarschen
ditlev
ditmarsken
ditte
div
diverse
diversity
division
divisionen
divisioner
divisionerne
divisions
divisionsklubben
dixon
dizzy
dj
djokovic
djurhuus
djursland
djvu
djævelen
djævelens
djøf
dk
dkk
dkp
dl
dm
dma
dmi
dmitrij
dn
dna
dnepr
dnf
dnsap
do
dobbelt
dobbelte
dobbeltfirer
dobbeltsculler
dobbeltturnering
doc
docent
doctor
document
documentary
documents
dod
dodge
does
dog
dogg
dogs
doherty
doi
doktor
doktoren
doktorgrad
doktorgraden
doktrin
dokument
dokumentar
dokumentaren
dokumentarfilm
dokumentarfilmen
dokumentarisk
dokumentation
dokumenter
dokumentere
dokumenterede
dokumenterer
dokumenteret
dokumentet
dollar
dollars
dollfus
dolly
dom
domain
dome
domenico
dominans
dominere
dominerede
dominerende
dominerer
domineres
domineret
domingo
dominic
dominikanske
dominique
domino
domkirke
domkirken
domme
dommedag
dommen
dommer
dommere
dommeren
dommerne
domstol
domstole
domstolen
domstolene
domæne
domæner
don
donald
donation
donationer
donau
done
donerede
doneret
donetsk
dong
donna
donnell
donovan
dons
donsker
doo
doom
door
doors
doping
doris
dorothea
dorothy
dorph
dorset
dorte
dorthe
dortmund
dos
doser
dosis
dot
dots
double
doubleday
doubles
doug
douglas
dover
down
downing
download
downloades
downloads
downs
doyle
dp
dq
dr
drab
drabet
drachmann
dracula
draft
drag
drage
dragen
drager
drages
draget
dragon
dragonregiment
dragons
dragt
dragter
dragør
drak
drake
drama
dramaer
dramaet
dramafilm
dramaserie
dramatik
dramatiker
dramatisk
dramatiske
drammen
drastisk
draw
dre
dream
dreams
drei
dreje
drejede
drejer
drejes
drejet
drejning
drejningsmoment
dreng
drenge
drengen
drengenavn
drengene
dresden
drev
drevet
drew
drewsen
dreyer
drift
driften
driftsar
drik
drikke
drikker
drikkevand
drikkevarer
drink
dristig
dristige
drive
drivende
driver
drives
drivkraft
drog
dronning
dronningen
dronningens
dronninger
dronninglund
drop
droppe
droppede
dropper
droppet
drs
druer
drug
drugs
druk
drukket
drukne
druknede
dry
dræbe
dræber
dræbes
dræbt
dræbte
dræby
drøm
drømme
drømmen
drømmer
drømte
ds
dsb
dst
dsu
dt
dtu
du
dua
dubai
dublin
dubliners
duck
dudley
due
duel
duer
duet
duff
duft
dug
duke
dukke
dukkede
dukker
dum
dumbledore
dumme
dumt
dun
duncan
dundee
dune
dunja
dunkle
dunn
duo
duoen
dupont
dur
duran
durch
durham
during
dusin
dusseldorf
dust
dustin
dutch
dutchcharts
duty
dv
dvb
dvd
dvs
dværg
dværge
dw
dwight
dx
dy
dyb
dybbøl
dybde
dybden
dybder
dybe
dybere
dybeste
dybet
dybt
dybtgaende
dybvad
dyd
dyder
dygtig
dygtige
dygtighed
dygtigste
dying
dylan
dynamics
dynamik
dynamisk
dynamiske
dynamo
dynasti
dynastiet
dynastiets
dynasty
dyr
dyre
dyrearter
dyrehave
dyrehaven
dyreliv
dyrene
dyrenes
dyrere
dyreste
dyret
dyrets
dyrholm
dyrke
dyrkede
dyrker
dyrkes
dyrket
dyrkning
dyrkningsformen
dyrkningssystemer
dyrlæge
dyrs
dyrt
dyster
dystre
dz
dæk
dække
dækkede
dækkende
dækker
dækkes
dækket
dækning
dæmning
dæmningen
dæmninger
dæmon
dæmoner
dæmpe
dæmpet
dø
døbe
døbefont
døbefonten
døbt
døbte
død
døde
dødelig
dødelige
dødelighed
dødeligt
døden
dødens
dødes
dødsbo
dødsfald
dødsmetal
dødsstraf
dødt
døende
døgn
døgnet
dømme
dømmende
dømmer
dømmes
dømt
dømte
dør
døre
døren
dørene
dørs
døtre
døtrene
døve
e
e0
e1
e2
e3
e4
e5
e6
e7
e8
e9
ea
each
eagle
eagles
earl
early
earth
earthquake
east
eastern
eastwood
easy
eat
eb
ebba
ebbe
ebbesen
ebeltoft
eberhard
ebert
ebog
ebu
ec
ece
echo
eckersberg
eclipse
ecole
ecology
economic
economics
economist
economy
ecuador
ecw
ed
edb
edda
eddie
eddike
eddy
eden
eder
eders
edgar
edge
edinburgh
edison
edit
edited
edith
edition
editions
editor
editors
edmund
edo
edouard
eds
edu
eduard
eduardo
education
educational
edvard
edvards
edward
edwards
edwin
ee
een
eesti
eet
ef
efb
effect
effects
effekt
effekten
effekter
effektiv
effektive
effektivitet
effektivt
efter
efterar
efteraret
efterarsudstilling
efterat
efterforskning
efterforskningen
efterfulgt
efterfulgte
efterfulgtes
efterfølge
efterfølgende
efterfølger
efterfølgere
efterfølgeren
efterfølges
efterhaanden
efterhanden
efterkommer
efterkommere
efterkrigstiden
efterlade
efterlader
efterladt
efterladte
efterligne
efterlod
eftermiddag
eftermiddagen
efternavn
efternavnet
efterretninger
efterretningstjeneste
efterskole
efterskrift
efterslægt
eftersom
efterspurgt
efterspørgsel
efterspørgslen
eftertiden
eftertragtede
eg
ege
egedal
egede
egen
egenlig
egenskab
egenskaber
egentlig
egentlige
egentligt
egern
egernførde
egeskov
eget
egetræ
eggers
eggert
egholm
egil
egmont
egn
egne
egnede
egnen
egnens
egner
egnet
ego
egon
egtved
egypt
egypten
egyptens
egyptisk
egyptiske
eh
ehf
ei
eicher
eidsvoll
eight
eights
eigil
eik
eiler
ein
einar
eindhoven
eine
einer
eines
einstein
eisenhower
ej
ejby
ejderen
eje
ejede
ejedes
ejendele
ejendom
ejendomme
ejendommelig
ejendommelige
ejendommen
ejendomsret
ejer
ejere
ejeren
ejerlav
ejerne
ejerskab
ejerskabet
ejes
ejet
ejler
ejnar
ejner
ejvind
ek
ekko
eks
eksamen
eksempel
eksempelvis
eksemplar
eksemplarer
eksempler
eksemplet
eksil
eksistens
eksistensen
eksistentiel
eksistentielle
eksistere
eksisterede
eksisterende
eksisterer
eksisteret
ekskl
ekskluderet
eksklusiv
eksklusive
eksotiske
ekspansion
ekspedition
ekspeditionen
ekspeditionens
ekspeditioner
eksperiment
eksperimentalfilm
eksperimentel
eksperimentelle
eksperimenter
eksperimentere
eksperimenterede
eksperimenterende
eksperimentet
ekspert
eksperter
ekspertise
eksplicit
eksploderede
eksplosion
eksplosionen
eksport
eksporten
eksporteret
ekstern
eksterne
ekstra
ekstrabladet
ekstraordinær
ekstraordinære
ekstraordinært
ekstraudstyr
ekstrem
ekstreme
ekstremt
el
elaine
elbe
elben
elberling
elder
eleanor
election
elections
electric
electro
electronic
electronics
elefant
elefanten
elefanter
elegant
elegante
elektra
elektricitet
elektrisk
elektriske
elektromagnetisk
elektromagnetiske
elektron
elektroner
elektronik
elektronisk
elektroniske
element
elementer
elementerne
elements
elena
elendige
elendighed
eleonora
eleonore
elephant
elev
elevator
eleven
elever
eleverne
elevernes
elevskole
elfenben
elfenbenskysten
eli
elias
elijah
elimineret
elin
eliot
elisa
elisabeth
elise
elite
elitedivisionen
eliten
eliteprospects
eliteserien
elizabeth
elkjær
ella
elle
ellegaard
ellemann
ellen
eller
ellers
elleve
ellevte
elling
elliot
elliott
elliptiske
ellis
elm
elo
elsa
elsass
else
elsebeth
elsevier
elske
elskede
elskende
elsker
elskerinde
elsket
elskov
elskværdig
elton
elv
elven
elvere
elvira
elvis
em
emanuel
embede
embeder
embedet
embedseksamen
embedsmand
embedsmænd
embedsperiode
emblem
emergency
emeritus
emerson
emi
emigrerede
emil
emile
emilia
emilie
emilio
emily
eminem
emirater
emma
emmanuel
emmeline
emmy
emne
emner
emnerne
emnet
emperor
empire
empires
empirisk
empiriske
en
encyclopaedia
encyclopedia
encyclopædia
encyklopædi
end
endda
ende
endegyldigt
endelig
endelige
endeligt
endelsen
endemiske
enden
ender
endestation
endestillede
ending
endnu
endog
endogsaa
ends
endt
endte
endvidere
ene
enedes
enemy
eneret
energi
energien
energisk
energiske
energy
enes
enestaende
eneste
enevælden
enevældens
eng
engagement
engagere
engagerede
engageret
engang
engberg
enge
engel
engels
engelsk
engelske
engelsksprogede
engelsksproget
engelsktalende
engelstoft
engen
engene
enghave
engine
engineering
engineers
england
englands
englantilainen
engle
english
englændere
englænderen
englænderne
enhed
enheden
enheder
enhederne
enhedslisten
enhver
enig
enige
enighed
enigma
enke
enkedronning
enkel
enkelt
enkelte
enkeltheder
enkeltpersoner
enkeltstaende
enkeltstart
enkeltturnering
enkeltvis
enkemand
enken
enker
enkle
enlig
enlige
enorm
enorme
enormt
enough
enrico
enrique
ens
ensartede
ensartet
ensemble
ensidig
ensom
ensomhed
ensomme
enstemmig
enstemmigt
ental
enten
enter
enterprise
entertainer
entertainment
entre
entreprenør
entry
entydigt
environment
environmental
enya
enzym
enzymer
enzymet
eo
ep
epic
epidemi
epilog
episke
episode
episoden
episoder
epoke
eq
equipe
er
era
erasmus
ere
eren
erfarede
erfaren
erfaring
erfaringer
erfarne
erhard
erholdt
erhverv
erhverve
erhvervede
erhvervet
erhvervs
erhvervsdrivende
erhvervsleder
erhvervsliv
erhvervslivet
erhvervsmand
erhvervsøkonomi
eric
erich
erichsen
erickson
ericsson
erik
erika
eriks
eriksen
eriksson
erin
erindre
erindrer
erindring
erindringen
erindringer
eritrea
erkende
erkendelse
erkender
erkendt
erkendte
erklære
erklærede
erklærer
erklæret
erklæring
erklæringen
erland
erling
erna
erne
ernes
ernest
ernst
ernærede
ernæring
erobre
erobrede
erobrer
erobreren
erobret
erobring
erobringen
erobringer
eroderet
eros
erosion
erotisk
erotiske
ers
erslev
erslew
erstatning
erstatte
erstattede
erstatter
erstattes
erstattet
erwin
es
esa
esben
esbjerg
esc
escape
eskadre
eskadrille
eskadriller
eske
esp
espana
espanola
espen
esperanto
espergærde
espersen
espn
esrum
essay
essays
essen
essential
essex
est
estadio
estate
este
ester
esther
estimates
estimeret
estisk
estiske
estland
estlands
estonia
estrup
et
eta
etablere
etablerede
etableredes
etablerer
etableres
etableret
etablering
etableringen
etage
etager
etagers
etape
etapeløb
etapen
etaper
etapesejr
etatsrad
etc
eternal
ethan
ethnic
ethvert
etienne
etik
etiopien
etisk
etiske
etnisk
etniske
etnografiske
ett
etter
etudes
etymologisk
eu
eugen
eugene
eur
eurasien
euro
euroen
eurohandball
europa
europamester
europamesterskabet
europaradet
europas
europavej
europe
european
europæer
europæere
europæerne
europæisk
europæiske
eurovision
ev
eva
evakueret
evald
evaluering
evan
evangeliet
evangelisk
evangeliske
evangelium
evans
eve
evelyn
even
evening
event
events
eventuel
eventuelle
eventuelt
eventyr
eventyrer
eventyret
ever
everest
everett
evert
everton
every
everybody
everything
evidence
evig
evige
evighed
evigheden
evigt
evil
evne
evnen
evner
evolution
evp
evt
ew
ewald
ewen
ex
excellence
exchange
exclusive
executive
exempel
exeter
exhibition
exit
exner
exp
expedition
experience
experiment
experimental
expert
exploration
explorer
expo
exposition
express
expressen
extended
extra
extreme
ey
eye
eyes
eysturoy
eyvind
ez
ezra
f
f0
f1
f2
f3
f4
f5
f6
f7
f8
f9
fa
faa
faaborg
faae
faaer
faaet
faar
faber
fabian
fabio
faborg
fabricius
fabrik
fabrikant
fabrikken
fabrikker
fabrikkerne
fabritius
facade
facaden
facader
face
facebook
facebookkonto
facelift
faceliftet
faces
faciliteter
facon
fact
factbook
facto
factor
factory
facts
faculty
fad
fade
fader
faderen
faderens
faders
faet
fag
fagene
faget
fagforening
fagforeninger
fagkendskab
faglig
faglige
fagligt
fair
faith
fakse
fakta
faktaark
faktisk
faktiske
faktor
faktorer
faktum
fakultet
fakulteter
falbe
falch
falck
falcon
fald
falde
falden
faldende
falder
faldet
faldne
faldskærm
faldt
falk
fall
fallen
falling
fallit
falls
false
falsen
falsk
falske
falster
falsters
fame
familia
familie
familiemedlemmer
familien
familiens
familier
familierne
families
familjebok
family
famous
fan
fanden
fandt
fandtes
fane
fange
fangede
fangen
fangenskab
fanger
fangerne
fanges
fanget
fangst
fanny
fans
fantasi
fantastic
fantastisk
fantastiske
fantasy
fanø
faq
far
farao
farbroder
farbror
fare
faren
farens
farer
farfar
farlig
farlige
farligste
farligt
farm
farmaceutiske
farmer
farmor
faroe
farrell
fars
farsø
fart
farten
fartøj
fartøjer
fartøjet
farum
farup
farvand
farvande
farvandet
farve
farveblanding
farvede
farveindexet
farvel
farven
farver
farverige
farverne
farvet
fas
fascinerende
fascistiske
fase
faser
fashion
fast
fastboende
faste
faster
fastgjort
fastholde
fastholder
fastholdt
fastlagde
fastlagt
fastland
fastlandet
fastlægge
fastsat
fastsatte
fastsla
fastslaet
fastslar
fastslog
fastsætte
fastsætter
fastsættes
fat
fatal
fatale
fate
father
fatte
fattede
fatter
fattig
fattigdom
fattige
fattigste
fattigt
fatty
fauna
fausbøll
faust
favn
favorit
favorite
favoritter
favrskov
faxe
fb
fbi
fc
fci
fck
fcm
fcn
fd
fdf
fdn
fe
fear
feat
feature
features
featuring
feb
feber
febr
februar
february
fed
fede
federal
federation
federer
federico
fedt
fedtsyrer
feedback
feel
feeling
feet
feil
fejde
fejl
fejlagtigt
fejltagelse
fejre
fejrede
fejrer
fejres
fejret
fejring
fejringen
feldbæk
felipe
felix
fellow
felt
felten
felter
feltet
feltmarskal
felttog
felttoget
fem
female
femdørs
femern
feminin
feminine
feminisme
feminist
feministisk
femkamp
femme
femte
femten
femteplads
fender
feng
fenger
ferdinand
ferguson
ferie
fernandez
fernando
ferrante
ferrari
ferry
fersk
ferskvand
fest
festen
fester
festival
festivalen
festivaler
festskrift
feudale
fever
few
feyenoord
ff
fg
fh
fhv
fi
fiasko
fiat
fibiger
fibre
fiction
fide
fidel
field
fields
fifa
fifth
fifty
fig
fight
fighter
fighters
fighting
figur
figure
figuren
figurer
figurerne
figures
fiji
fik
fiktion
fiktiv
fiktive
fil
file
filer
files
filial
filialer
filip
filippinerne
filippo
film
filmaffinity
filmatiseret
filmatisering
filmatiseringen
filmdatabas
filmdatabase
filmdatabasen
filme
filmen
filmene
filmens
filmet
filmfestival
filmfestivalen
filmfotograf
filminstitut
filminstituts
filminstruktør
filminstruktøren
filmmagasinet
filmmusik
filmproducer
films
filmskole
filmskuespiller
filolog
filologi
filosof
filosoffen
filosoffer
filosofi
filosofien
filosofiens
filosofisk
filosofiske
filter
fin
final
finale
finalen
finaler
finalerne
finalesejr
finalist
finalister
finals
finance
financial
finans
finanser
finansiel
finansielle
finansiere
finansierede
finansieres
finansieret
finansiering
finansieringen
finanskrisen
finansloven
finansminister
finansministeriet
finantsloven
find
finde
finder
finderup
findes
fine
finere
fineste
finger
fingre
fingrene
fink
finland
finlands
finn
finner
finnerne
finnish
finnmark
finnur
finsen
finsk
finske
fint
fiorentina
fire
firearig
firehjulstræk
firenze
firer
firkant
firkantede
firkantet
firma
firmaer
firmaet
firmaets
first
firth
fis
fisa
fischer
fish
fisher
fisk
fiske
fisken
fiskene
fisker
fiskere
fiskeri
fiskeriet
fiskerleje
fiskerne
fitness
fitzgerald
five
fj
fjeld
fjelde
fjeldet
fjende
fjenden
fjendens
fjender
fjendskab
fjendtlig
fjendtlige
fjendtligt
fjer
fjerde
fjerdedel
fjerdeplads
fjerdepladsen
fjerdestørste
fjern
fjerne
fjernede
fjernelse
fjerner
fjernere
fjernes
fjernet
fjernstyret
fjernsyn
fjernsynet
fjernt
fjernvarme
fjernøsten
fjerritslev
fjodor
fjord
fjordarm
fjorde
fjorden
fjorten
fk
fl
flad
flade
fladen
fladens
flader
flades
fladt
flag
flagermus
flaget
flags
flagskib
flair
flames
flamme
flammen
flammer
flamsk
flamske
flandern
flanke
flash
flaske
flasken
flasker
fleet
fleischer
fleming
flemming
flensborg
flensburg
flerarig
flerarige
flere
flertal
flertallet
flertalsform
flertydig
flest
fleste
fletcher
flg
flid
flight
flinders
flindt
flink
flint
flip
flittig
flittigt
flod
floden
flodens
floder
floderne
flok
flokke
flokken
floor
floorball
flor
flora
floran
florence
flores
florian
florida
flot
flotte
flow
flower
flowers
floyd
fluer
flughafen
flugt
flugten
flux
fly
flyde
flydende
flyder
flyene
flyet
flyets
flygte
flygtede
flygter
flygtet
flygtning
flygtninge
flying
flynn
flyselskab
flystyrt
flytning
flytningen
flytte
flyttede
flyttedes
flytter
flyttes
flyttet
flyve
flyvemaskiner
flyvende
flyveplads
flyvepladsen
flyvepladser
flyver
flyvestation
flyvevabnet
flyvning
flyvninger
flød
fløde
fløi
fløj
fløje
fløjet
fløjte
fløjter
fm
fn
fns
fo
focus
fod
fodbold
fodbolddommer
fodboldforbund
fodboldhold
fodboldkamp
fodboldklub
fodboldklubben
fodboldklubber
fodboldlandshold
fodboldliga
fodboldrække
fodboldspiller
fodboldspillere
fodboldstadion
fodboldtræner
foden
foder
fodfæste
fodnotefejl
fods
fodspor
foer
fog
foged
fogh
fokker
fokus
fokusere
fokuserede
fokuserer
fokuseret
foldede
folder
foley
folk
folke
folkeafstemning
folkeafstemningen
folkebevægelsen
folkeblad
folkedrab
folkeforbundet
folkehøjskole
folkekirkemedlemskab
folkekirken
folkekirkens
folkelig
folkelige
folkemunde
folkemusik
folkemængden
folkene
folkeparti
folkepartis
folkerepublikken
folkeskole
folkeskolelærer
folkeskolen
folkeskoler
folkeslag
folkesprog
folket
folketal
folketeatret
folkethinget
folketidende
folketing
folketinget
folketingets
folketingskandidat
folketingsmand
folketingsmedlem
folketingsmedlemmer
folketingsvalg
folketingsvalget
folkets
folketælling
folketællingen
folketællinger
folkevalgte
folkeviser
folklore
folks
folksam
follow
following
fond
fonde
fonden
fondens
fontana
food
foods
fool
foot
football
footballdatabase
footballspiller
for
fora
foragt
foran
forandre
forandrede
forandres
forandret
forandring
forandringer
forankret
foranledigede
foranlediget
foranledning
foranstaltning
foranstaltninger
forar
forarbejderne
foraret
forargelse
forarsage
forarsagede
forarsager
forarsaget
forarsudstilling
forbandede
forbandelse
forbandet
forbandt
forbavset
forbedre
forbedrede
forbedret
forbedring
forbedringer
forbehold
forbeholdt
forberede
forberedelse
forberedelser
forberedelserne
forbereder
forberedt
forberedte
forbes
forbi
forbillede
forbilleder
forbinde
forbindelse
forbindelsen
forbindelser
forbinder
forbindes
forblev
forblevet
forblive
forbliver
forbrug
forbruger
forbrugere
forbrugerne
forbruget
forbrydelse
forbrydelsen
forbrydelser
forbryder
forbrydere
forbryderen
forbrænding
forbud
forbuddet
forbudt
forbudte
forbund
forbundet
forbundets
forbundne
forbunds
forbundsdagen
forbundsrepublikken
forbyde
forbyder
forbød
force
forces
forchhammer
ford
fordel
fordele
fordelen
fordelene
fordeler
fordeles
fordeling
fordelingen
fordelt
fordelte
fordi
fordoblet
fordomme
fordre
fordrer
fordrev
fordrevet
fordring
fordringer
fordrive
fordømt
fordømte
fore
forebygge
forebyggelse
forebyggende
foredrag
foredragsholder
forega
foregaaende
foregaende
foregaet
foregar
foregik
foreign
forekom
forekomme
forekommende
forekommer
forekomst
forekomsten
forekomster
forela
forelagt
foreliggende
foreligger
forelskede
forelskelse
forelsker
forelsket
forelægges
forelæsninger
foreløbig
foreløbige
foreløbigt
forene
forenede
forener
forenes
forenet
forening
foreningen
foreningens
foreninger
forenings
forenklet
foreskrevne
foresla
foreslaede
foreslaet
foreslar
foreslog
forest
forestaende
forestille
forestillede
forestiller
forestilling
forestillingen
forestillinger
forestod
foretage
foretagende
foretagender
foretager
foretages
foretaget
foretog
foretrak
foretrukket
foretrukne
foretrække
foretrækker
forever
forfader
forfald
forfaldt
forfatning
forfatningen
forfattede
forfatter
forfattere
forfatteren
forfatterens
forfatterinde
forfatterleksikon
forfatterne
forfatterskab
forfatterskabet
forfattervirksomhed
forfattet
forflyttedes
forflyttet
forfra
forfremmelse
forfremmet
forfulgt
forfulgte
forfædre
forfængelighed
forfærdelig
forfærdelige
forfærdeligt
forfølge
forfølgelse
forfølgelsen
forfølger
forgjæves
forgotten
forgrenede
forgrenet
forgrunden
forgyldt
forgyldte
forgænger
forgængere
forgængeren
forgæves
forhand
forhandle
forhandlede
forhandler
forhandlere
forhandlet
forhandling
forhandlinger
forhandlingerne
forhen
forhenværende
forhindre
forhindrede
forhindrer
forhindret
forhindring
forhindringer
forhistorie
forhistorisk
forhistoriske
forhold
forholde
forholdene
forholder
forholdet
forholdsregler
forholdsvis
forholdsvist
forholdt
forhøjet
forhør
forinden
fork
forkastet
forkert
forkerte
forklare
forklarede
forklarer
forklares
forklaret
forklaring
forklaringen
forklaringer
forklædt
forkortelse
forkortelsen
forkortes
forkortet
forkyndelse
forkæmper
forkærlighed
forlade
forladelse
forlader
forladt
forladte
forlag
forlaget
forlagets
forlange
forlanger
forlangte
forlig
forliget
forlis
forliste
forlod
forlovede
forlovelse
forlovet
forlæg
forlægger
forlænge
forlængede
forlængelse
forlængelsen
forlænger
forlænget
forløb
forløber
forløberen
forløbet
form
formaal
formaede
formaet
formal
formalet
formand
formanden
formar
format
formater
formatet
formation
formationer
forme
formede
formel
formelle
formelt
formen
formentlig
formentligt
former
formet
formiddag
formiddagen
formidle
formidler
formidling
formlen
formler
formodede
formodentlig
formodes
formodet
formodning
forms
formue
formula
formulerede
formuleret
formulering
formænd
fornavn
forneden
fornem
fornemme
fornemmelse
fornemste
fornuft
fornuften
fornuftig
fornuftige
fornuftigt
fornvannen
fornyede
fornyelse
fornyet
fornødne
fornøjelse
forord
forordet
forordning
forordningen
forordninger
foroven
forpagter
forpligtede
forpligtelse
forpligtelser
forpligtet
forrest
forreste
forresten
forretning
forretningen
forretninger
forretningsmand
forretningsudvalg
forretningsudvalget
forrige
forræderi
forsaavidt
forsamling
forsamlingen
forsamlinger
forsamlingshus
forsanger
forsangeren
forsat
forsatte
forside
forsiden
forsigtig
forsigtighed
forsigtigt
forsikrede
forsikring
forsikringsselskab
forsinkede
forsinkelse
forsinkelser
forsinket
forskel
forskelle
forskellen
forskellene
forskellig
forskelligartede
forskellige
forskelligt
forsker
forskere
forskerne
forsket
forskjel
forskjellig
forskjellige
forskning
forskningen
forsknings
forskningscenter
forskrifter
forskrækket
forskudt
forslag
forslaget
forsoning
forspring
forst
forsta
forstaa
forstaae
forstaaelse
forstaaer
forstaaet
forstaar
forstad
forstaden
forstaelse
forstaelsen
forstaet
forstand
forstander
forstar
forstas
forster
forstod
forstyrre
forstyrrelse
forstyrrelser
forstyrret
forstæder
forstæderne
forstærke
forstærkede
forstærker
forstærket
forstærkning
forstærkninger
forsvandt
forsvar
forsvare
forsvarede
forsvarende
forsvarer
forsvarere
forsvarerne
forsvaret
forsvarets
forsvarsminister
forsvarsministeriet
forsvarsspiller
forsvinde
forsvinden
forsvinder
forsvundet
forsvundne
forsyne
forsynede
forsyner
forsynet
forsyning
forsyninger
forsøg
forsøge
forsøgene
forsøger
forsøget
forsøgt
forsøgte
forsømte
forsørge
fort
fortabte
fortaler
fortalere
fortalt
fortalte
fortegnelse
forter
fortet
fortid
fortiden
fortidens
fortidsminder
fortjener
fortjeneste
fortjenester
fortjent
fortjente
fortolker
fortolkes
fortolket
fortolkning
fortolkninger
fortress
fortrinlig
fortrinsvis
fortrolig
fortrolige
fortrængt
fortsat
fortsatte
fortsattes
fortschreibung
fortsætte
fortsættelse
fortsættelsen
fortsætter
fortsættes
fortuna
fortune
fortvivlelse
fortvivlet
forty
fortæl
fortælle
fortæller
fortælleren
fortælles
fortælling
fortællingen
fortællinger
fortællingerne
forud
foruden
forudgaende
forudsat
forudsige
forudsætning
forudsætninger
forudsætter
forum
forunderlige
forundret
forundring
forurenet
forurening
forvalter
forvaltning
forvaltningen
forvandle
forvandlede
forvandler
forvandlet
forvandling
forvejen
forveksle
forveksles
forveksling
forvente
forventede
forventedes
forventer
forventes
forventet
forventning
forventninger
forvirret
forvirring
forvist
forværret
forward
forældede
forældet
forældre
forældreløse
forældrene
forældrenes
forældres
forærede
foræret
forøge
forøgede
forøgelse
forøges
forøget
forøvrigt
fosfor
foss
fossil
fossile
fossiler
foster
foto
fotograf
fotografen
fotografer
fotograferet
fotografering
fotografi
fotografier
fotografisk
fotografiske
fotos
fotosyntese
foucault
found
foundation
foundations
four
fours
fourth
fowl
fox
fp
fq
fr
fra
frac
fragment
fragmenter
fragt
fragtet
frakke
fraktion
fraktioner
fram
framework
fran
franc
francais
francaise
france
frances
francesco
franchise
francis
francisco
franck
franco
francois
frandsen
frank
frankenstein
frankerne
frankfurt
frankie
frankiske
franklin
frankrig
frankrigs
franks
frans
fransk
franske
franskmanden
franskmænd
franskmændene
frants
frantz
franz
fraser
frataget
fratradte
fravær
fraværende
fred
fredag
freddie
freddy
frede
fredede
fredelig
fredelige
fredeligt
freden
fredens
fredensborg
frederic
fredericia
frederick
frederik
frederikke
frederiks
frederiksberg
frederiksborg
frederiksborgmuseet
frederiksen
frederikshavn
frederikssund
frederiksværk
fredet
fredløs
fredning
fredningen
fredninger
fredrik
fredrikstad
freds
fredsaftale
fredsaftalen
fredsbevarende
fredsforhandlinger
fredspris
fredsslutningen
fredstid
free
freedom
freelance
freeman
freestyle
fregat
fregatten
fregatter
freiburg
frej
freja
frekvens
frekvensen
frekvenser
frelse
frelser
frelsers
frelst
frem
fremad
frembragt
frembragte
frembringe
frembringer
fremdeles
fremdrift
fremefter
fremfor
fremføre
fremføres
fremført
fremførte
fremgang
fremgangsmaade
fremgangsmade
fremgar
fremgik
fremherskende
fremhæve
fremhævede
fremhæver
fremhæves
fremhævet
fremkalde
fremkalder
fremkaldt
fremkaldte
fremkom
fremkommer
fremkommet
fremkomst
fremkomsten
fremlagde
fremlagt
fremlægge
fremme
fremmed
fremmede
fremmer
fremmest
fremmeste
fremmet
fremover
fremragende
fremrykning
fremrykningen
fremsat
fremsatte
fremskridt
fremskridtspartiet
fremsta
fremstar
fremstille
fremstillede
fremstiller
fremstilles
fremstillet
fremstilling
fremstillingen
fremstillinger
fremstod
fremstød
fremsætte
fremtid
fremtiden
fremtidens
fremtidig
fremtidige
fremtræden
fremtrædende
fremtræder
fremvise
french
frequency
fresh
freud
fri
frida
friday
frie
friedman
friedrich
friend
friends
friere
friesland
frigivelse
frigives
frigivet
frigjort
frigøre
frigørelse
frihavn
frihed
friheden
frihedens
friheder
frihedsmuseets
friherre
friis
frijs
frijsenborg
frikendt
frilandsmuseet
frimærke
frimærker
frisch
friserne
frisisk
frisiske
frisk
friske
friskole
frisland
frist
frisør
frit
fritaget
fritid
frits
fritstaende
fritz
frivillig
frivillige
frivilligt
frk
frode
frodige
frokost
from
fromme
front
fronten
frontier
frost
fru
frue
fruen
fruentimmer
frugt
frugtbar
frugtbare
frugtbarhed
frugten
frugter
frugterne
fry
fryd
frydenlund
frygt
frygte
frygtede
frygtelig
frygtelige
frygteligt
frygten
frygter
frygtet
fryser
frø
frøene
frøken
frøs
fs
ft
fu
fuchs
fuck
fuel
fugl
fugle
fuglearter
fuglebeskyttelsesomrade
fugleliv
fuglen
fuglene
fuglenes
fuglsang
fugtig
fugtige
fugtighed
fugtigt
fuld
fulde
fuldendt
fuldendte
fuldføre
fuldført
fuldførte
fuldkommen
fuldkomne
fuldmægtig
fuldstændig
fuldstændige
fuldstændigt
fuldt
fulgt
fulgte
fulgtes
fulham
full
fuller
fun
function
fund
fundament
fundamental
fundamentale
fundamentet
funder
fundet
fundne
fungere
fungerede
fungerende
fungerer
fungeret
funk
funktion
funktionelle
funktionen
funktioner
funny
fur
furesø
furious
further
fury
fusion
fusionen
fusionerede
fusioneret
fussballdaten
future
fv
fvt
fw
fx
fy
fyens
fyld
fylde
fylder
fyldes
fyldt
fyldte
fylke
fylkesvej
fyn
fyns
fynske
fyr
fyre
fyrede
fyret
fyrre
fyrst
fyrste
fyrsten
fyrstendømmet
fyrster
fyrsterne
fyrtarn
fyrtarnet
fyrværkeri
fysik
fysiker
fysiologi
fysiologiske
fysisk
fysiske
fz
fædre
fædreland
fædrelandet
fædrelandets
fædrene
fægter
fægtning
fælde
fældet
fælled
fælles
fællesbetegnelse
fælleskøn
fællesrad
fællesskab
fællesskaber
fællesskabet
fællestræk
fængsel
fængselsstraf
fængslede
fængsler
fængslet
fænomen
fænomener
fænomenet
fænomenologi
færd
færdedes
færdes
færdig
færdigbygget
færdige
færdiggjorde
færdiggjort
færdiggøre
færdiggørelsen
færdighed
færdigheder
færdigt
færdsel
færge
færgeforbindelse
færgen
færger
færinger
færre
færøerne
færøernes
færøsk
færøske
fæste
fæstede
fæstet
fæstning
fæstningen
fæstninger
fætter
fødder
fødderne
føde
fødeby
føden
føder
føderal
føderale
føderation
fødes
fødested
fødevarer
fødsel
fødselsdag
fødslen
født
fødte
fødtes
føje
føjet
føle
følelse
følelsen
følelser
føler
føles
følge
følgelig
følgen
følgende
følger
følgerne
følges
følsom
følsomme
følt
følte
fønss
før
føre
førend
førende
fører
føreren
føres
førhen
førnævnte
føroya
føroysk
først
første
førstehold
førsteholdet
førsteplads
førstepladsen
førstnævnte
ført
førte
førtes
g
g0
g1
g2
g3
g4
g5
g6
g7
g8
g9
ga
gaa
gaae
gaaer
gaaet
gaar
gaard
gaarde
gaarden
gaardmand
gab
gabel
gabriel
gabrielle
gad
gaddafi
gade
gaden
gadens
gader
gaderne
gads
gaende
gaet
gaffa
gaga
gage
gaia
gaius
gal
galakser
galathea
galaxy
gale
galerie
galicien
galileo
galilæa
galla
gallagher
gallen
galleri
gallerier
galleriet
gallery
gallien
gallup
galt
galten
gama
gambia
game
games
gamespot
gamla
gamle
gamles
gamma
gammel
gammeldags
gammelt
gandhi
gang
gange
gangen
ganges
gangster
ganske
gao
gap
gar
garage
garanti
garcia
gard
garde
gardejer
garden
gardene
gardens
gardiner
gardner
gareth
garfield
garland
garn
garner
garnison
garnisonen
garnisons
garrett
garros
garry
gartner
gary
gas
gasolin
gassen
gasser
gaston
gasværk
gate
gates
gateway
gaulle
gav
gave
gaver
gavin
gavle
gavn
gay
gaza
gazette
gazetteer
gb
gc
gd
gdansk
ge
gear
gearkasse
ged
geder
gedser
geert
gehejmekonferensrad
gehejmerad
geiger
geir
gejstlig
gejstlige
gelting
gem
gemeinden
gemini
gemme
gemmer
gemt
gemte
gen
genabnede
genabnet
genbrugt
gendannet
gender
gene
genealogy
gener
general
generaldirektør
generalen
generaler
generalforsamling
generalforsamlingen
generalguvernør
generalkonsul
generalløjtnant
generalmajor
generals
generalsekretær
generalstab
generalstaben
generation
generationer
generations
generator
generel
generelle
generelt
generisk
generobre
genesis
genet
genetic
genetics
genetisk
genetiske
geneve
genfindes
genforenet
genforening
genforeningen
gengive
gengivelse
gengiver
gengives
gengivet
gengæld
geni
geniale
genindført
genindspilning
genitiv
genius
genkende
gennaio
gennem
gennembrud
gennemføre
gennemførelse
gennemførelsen
gennemfører
gennemføres
gennemført
gennemførte
gennemførtes
gennemga
gennemgaende
gennemgaet
gennemgang
gennemgar
gennemgik
gennemgribende
gennemillustreret
gennemlæses
gennemsnit
gennemsnitlig
gennemsnitlige
gennemsnitligt
gennemsnittet
genom
genopbygge
genopbygget
genopbygning
genopbygningen
genopført
genoplive
genoplivet
genoprette
genoprettet
genopstod
genoptage
genoptaget
genoptog
genova
genre
genren
genrer
gensidig
gensidige
gensidigt
genskabe
genskabt
genstand
genstande
gensyn
gent
gentage
gentagelse
gentager
gentages
gentaget
gentagne
gentleman
gentlemen
gentofte
gentog
genudgivet
genus
genvalg
genvalgt
genvandt
genvinde
geo
geodatastyrelsen
geody
geoff
geoffrey
geograf
geografforlaget
geografi
geografisk
geografiske
geographic
geography
geolog
geologi
geological
geologisk
geologiske
geology
geometri
geometriske
georg
george
georges
georgia
georgien
georgij
georgisk
georgiske
gerald
gerard
gerd
gerda
gerhard
germain
german
germania
germansk
germanske
germany
gerne
gerning
gerninger
gerningsmanden
gerry
gersdorff
gert
gertrud
gesandt
geschichte
gesellschaft
gesta
gestapo
get
gets
getting
gettysburg
gevinst
gevær
gf
gfk
gg
gh
ghana
ghetto
ghita
ghost
ghosts
gi
giacomo
giant
giants
gibbs
gibraltar
gibson
gid
gidsel
gidsler
gif
gift
gifte
giftede
gifter
giftermal
giftes
giftet
giftig
giftige
gigantisk
gik
gil
gilbert
giles
gill
gilleleje
gilles
gillespie
gilmore
gina
giorgio
giovanni
gips
girl
girls
giro
gitte
giuseppe
giv
give
given
givent
giver
gives
givet
givne
giøre
gj
gjaldt
gjellerup
gjennem
gjensidige
gjenstand
gjern
gjerne
gjerning
gjorde
gjordes
gjort
gjældende
gjælder
gjør
gjøre
gjøres
gjøvikbanen
gk
gks
gl
glacier
glad
glade
gladsaxe
glahn
glans
glas
glasgow
glass
glasset
glasværk
glat
glatskalle
glatte
gled
glee
glemme
glemmer
glemt
glemte
glen
glenn
gletsjer
gletsjere
gletsjeren
glide
glider
glimrende
glimt
glip
glistrup
global
globale
globalisering
globalt
globe
gloria
glory
glostrup
gloucester
glover
glucksborg
gluckstadt
glud
glukose
glyptotek
glæde
glæden
glæder
glødende
gm
gmbh
gn
gnags
gnu
go
goa
goal
goals
god
gode
goder
godfred
godhed
godkende
godkendelse
godkendes
godkendt
godkendte
gods
godsejer
godsejere
godsejeren
godsejerne
godser
godserne
godset
godstog
godt
godthab
goebbels
goes
goethe
gog
gogh
goguryeo
going
gold
goldberg
golden
goldman
goldschmidt
goldstein
golf
golfspiller
gomez
gone
gong
gonna
gonzalez
good
goodbye
goodman
google
goran
gordon
gore
gorilla
goring
gorm
goryeo
gospel
gosta
got
gota
goteborg
goteborgs
goterne
gotha
gothersgade
gothic
gotisk
gotiske
gotland
gott
gottfried
gottingen
gottlieb
gottlob
gottorp
gottorpske
gould
gov
government
governor
gp
gps
gq
gr
gra
graa
graad
grace
grad
grade
graden
grader
gradvis
gradvist
graf
grafen
graffiti
grafik
grafiker
grafisk
grafiske
gragrøn
graham
gram
grammatik
grammy
gran
granada
granater
grand
grande
grandjean
granit
granitkvadre
grant
grants
grasten
grat
gratis
grav
grave
gravede
graven
gravene
graver
graves
gravet
gravhøj
gravhøje
gravid
gravide
graviditet
gravity
gravplads
gravsted
gravsten
gray
graz
great
greater
greatest
greb
grebet
greece
greek
green
greene
greenland
greenwich
greenwood
greg
gregers
gregersen
gregg
gregor
gregorianske
gregory
greifswald
gren
grenaa
grene
grenen
grenene
greta
grete
grethe
grev
greve
greven
grevens
grever
greverne
grevinde
grevskab
grevskaber
grevskabet
grey
gribe
griber
gribskov
grid
grieg
griffin
griffith
griffiths
grim
grimm
grimme
grin
grindsted
gris
grise
grl
gro
groft
groningen
groote
gror
gross
grosserer
groth
grotte
ground
group
groups
grov
grove
groves
growing
growth
groß
große
grubbe
grumman
grund
grundbog
grunde
grundede
grunden
grundene
grundet
grundig
grundige
grundigt
grundlag
grundlagde
grundlagdes
grundlaget
grundlagt
grundlov
grundloven
grundlovens
grundlovgivende
grundlægge
grundlæggelse
grundlæggelsen
grundlæggende
grundlægger
grundlæggere
grundlæggeren
grundlæggerne
grundlægges
grundskole
grundskolen
grundspil
grundspillet
grundstenen
grundstof
grundstoffer
grundstoffet
grundsætninger
grundtvig
grundtvigs
grundvand
gruner
gruppe
gruppen
gruppens
grupper
grupperinger
grupperne
gruppespil
gruppespillet
gruppevindere
grus
grusomme
gry
gryde
græd
græde
grædende
græder
grækenland
grækenlands
grækere
grækerne
grænse
grænsen
grænseoverskridende
grænser
grænserne
græs
græsk
græske
græsning
græsser
græsset
græsted
grøfter
grøn
grøndahl
grønland
grønlands
grønlandsk
grønlandske
grønne
grønningen
grønt
grøntsager
gs
gt
gu
guadalcanal
guangdong
guangzhou
guard
guardian
guatemala
gud
guddom
guddommelig
guddommelige
guden
gudenaen
guder
guderne
gudernes
gudhjem
gudinde
gudinden
gudme
gudmund
gudrun
guds
gudstjeneste
gudstjenesten
gudstjenester
guerrero
guest
guevara
guide
guides
guido
guild
guillaume
guillermo
guinea
guinness
guitar
guitaren
guitarer
guitarist
guitaristen
gul
guld
guldalder
guldberg
guldborgsund
guldet
guldmedalje
guldmedaljen
guldmedaljer
guldsmed
guldvinder
gule
gulf
gult
gulv
gulvet
gummi
gun
gunhild
gunnar
guns
gunst
gunstig
gunstige
gunter
gunther
guru
gus
gustaf
gustafsson
gustav
gustave
gut
gutenberg
guvernement
guvernør
guvernøren
guy
guyana
gv
gw
gwen
gx
gy
gylden
gyldendal
gyldendals
gyldendalske
gyldenløve
gyldenstierne
gyldig
gyldige
gyldighed
gyldne
gyllenhaal
gym
gymnasier
gymnasieskolen
gymnasiet
gymnasium
gymnast
gymnastik
gz
gæld
gælde
gælden
gældende
gælder
gælisk
gængse
gærne
gæs
gæst
gæsteoptræden
gæster
gæsterne
gødning
gør
gøre
gøres
gøs
gøteborg
gøye
h
h0
h1
h2
h3
h4
h5
h6
h7
h8
h9
ha
haab
haaber
haabet
haag
haakon
haand
haandbog
haanden
haar
haard
haarde
haarder
haardt
haaret
haas
hab
habe
habede
haber
habermas
habet
habitat
habitatomrade
habsburg
habsburgske
hack
had
hade
hadede
hader
haderslev
hades
hadsten
hadsund
haft
hage
hagen
hagerup
hahn
haifa
hair
haiti
hakan
hakket
hakon
hal
hald
hale
halen
haley
half
halfdan
halifax
hall
halland
halle
hallen
haller
hallo
halloween
halls
halm
halmstad
halo
hals
halsen
halsey
halshugget
halv
halvanden
halvandet
halvar
halvbror
halvdel
halvdelen
halve
halveringstid
halvkugle
halvleg
halvsøster
halvt
halvtreds
halvvejs
halvø
halvøen
ham
hamar
hamas
hamborg
hamburg
hamburger
hamer
hamilton
hamlet
hammarby
hammel
hammer
hammerich
hammerkast
hammersmith
hammond
hampshire
hampton
hamsun
han
hancock
hand
handball
handbog
handbold
handboldforbund
handboldklub
handboldlandshold
handboldspiller
handbook
handbuch
handel
handelen
handels
handelshøjskolen
handelsmand
handelsmænd
handelsplads
handelsskibe
handelsskole
handen
handfuld
handicap
handicappede
handle
handlede
handlen
handlende
handler
handlet
handling
handlingen
handlinger
handlingsreferat
hands
handsker
handskrift
handskrifter
handtag
handtere
handtering
handværk
handværker
handværkere
hane
hanen
hang
hangarskib
hangarskibe
hank
hankøn
hanlige
hanna
hannah
hanne
hannen
hanner
hannerne
hannes
hannibal
hannover
hans
hansen
hansens
hanson
hansson
hanstholm
happened
happiness
happy
har
hara
harald
harboe
harbor
harbou
harbour
hard
hardcore
hardcourt
harde
hardenberg
harder
hardere
hardeste
harding
hardinger
hardt
hardware
hardy
hare
haret
harlem
harley
harme
harmoni
harmonika
harmonisk
harmoniske
harmony
harold
harpe
harper
harpercollins
harrelson
harriet
harris
harrison
harry
harrys
harstad
hart
hartkorn
hartmann
hartvig
harvard
harvest
harvey
harzen
has
hash
hasle
haslev
haslund
hassan
hasse
hassel
hasselbalch
hassing
hast
hastig
hastighed
hastigheden
hastigheder
hastigt
hastings
hastrup
hat
hatchback
hate
hatt
hatte
hatten
hauch
haugaard
hauge
haus
haute
hav
havana
havbunden
havde
have
haven
havens
haver
haves
havet
havets
havfrue
havilland
havn
havne
havneby
havnebyen
havnebyer
havnede
havnen
havnene
havnens
havoverfladen
havre
havt
havvand
hawaii
hawk
hawker
hawkins
hawks
haxthausen
hayden
haydn
hayes
haymarket
hb
hbo
hc
hd
he
head
heads
health
hear
heard
heart
hearts
heat
heath
heather
heats
heaven
heavy
heavyweight
hebraisk
hebraiske
hector
hed
hedde
hedder
heddet
hede
hedeager
hedeby
hedegaard
hedehusene
heden
hedensk
hedenske
hedensted
heder
hedevig
hedvig
hee
heel
heeresgruppe
hefte
heftig
heftige
heftigt
hegel
hegn
hegnet
heiberg
heide
heidegger
heidelberg
heidi
heights
heimskringla
hein
heine
heinesen
heinrich
heinz
heise
hej
heks
hekse
heksen
hektar
hel
helbred
helbrede
helbredelse
held
heldig
heldige
heldigt
heldigvis
hele
helen
helena
helene
helga
helge
helgen
helgener
helgoland
helhed
helikopter
helikoptere
helium
hell
helle
hellebæk
heller
hellere
hellerup
hellig
helliganden
helligdag
helligdage
helligdom
helligdommen
hellige
helligede
helligt
hello
hells
helmer
helmig
helmut
helmuth
help
helrandede
helsingborg
helsinge
helsingfors
helsingør
helsinki
helst
helt
heltal
helte
helten
helvede
helvedes
helveg
helweg
hemmelig
hemmelige
hemmelighed
hemmeligheden
hemmeligheder
hemmeligt
hen
henad
henblik
hende
henderson
hendes
hendrik
hendrix
henføres
hengivenhed
henhold
henholdsvis
henimod
henlagt
henne
henning
henningsen
henny
henover
henregnes
henrettede
henrettelse
henrettelsen
henrettelser
henrettet
henri
henrich
henriette
henrik
henriks
henriksen
henriques
henry
henseende
henseender
hensigt
hensigten
hensigter
hensigtsmæssigt
hensyn
hensynet
hente
hentede
henter
hentes
hentet
hentyder
henved
henvendelse
henvender
henvendt
henvendte
henvise
henviser
henvises
henvisning
henvisninger
henvist
henviste
her
heraf
herald
herbert
hercegovina
hercules
here
herefter
herfor
herfra
herfølge
herhen
herhjemme
heri
heriblandt
heritage
herkomst
herkules
herlev
herlighed
herluf
herlufsholm
herman
hermann
hermansen
hermed
hermes
hermione
hernandez
herning
hero
herodes
herodot
heroes
heroin
herom
herover
herpa
herr
herre
herred
herreder
herredet
herredouble
herredsfoged
herredømme
herredømmet
herregard
herregarde
herregarden
herren
herrens
herrer
herrerne
herrernes
herres
herresingle
herske
herskede
herskende
hersker
herskere
hertil
hertug
hertugdømme
hertugdømmerne
hertugdømmet
hertugen
hertugens
hertuger
hertugerne
hertuginde
hertz
herudover
herunder
herved
herzog
herzogtum
hess
hessen
hest
heste
hesten
hestene
het
hey
hf
hg
hh
hhv
hi
hicks
hid
hidden
hide
hidtidige
hidtil
hierarki
hieronimus
hieronymus
higgins
high
higher
highland
highway
hiin
hik
hilary
hilda
hildebrand
hildesheim
hill
hillary
hillerød
hills
hilmar
hilse
hilsen
hilser
hilste
hilton
him
himalaya
himlen
himlens
himmel
himmelen
himmelobjekter
himmelske
himmerland
himmler
hin
hinanden
hinandens
hindenburg
hindi
hindre
hindrede
hindring
hindringer
hindu
hinduer
hinduisme
hinduistiske
hine
hinsides
hint
hiort
hip
hiphop
hiroshima
hirsch
hirtshals
his
hist
histoire
historia
historic
historical
historie
historien
historiens
historier
historierne
histories
historiker
historikere
historikeren
historisches
historisk
historiske
history
hit
hitchcock
hitler
hitlers
hitliste
hitlisten
hitlister
hitlisterne
hits
hittet
hiv
hj
hjalmar
hjalp
hjejle
hjelm
hjelmen
hjem
hjemby
hjembyen
hjemkomst
hjemkomsten
hjemland
hjemlandet
hjemlige
hjemløse
hjemme
hjemmebane
hjemmefra
hjemmehørende
hjemmekampe
hjemmel
hjemmeside
hjemmesiden
hjemmesider
hjemmestyre
hjemmet
hjemmeværnet
hjemsted
hjerne
hjernen
hjernens
hjerte
hjerteanfald
hjerter
hjertestop
hjertet
hjertets
hjort
hjorth
hjortshøj
hjul
hjulene
hjulet
hjulpet
hjælp
hjælpe
hjælpemidler
hjælper
hjælpere
hjælpeside
hjærte
hjørne
hjørner
hjørnet
hjørring
hk
hl
hm
hms
hn
ho
hobart
hobby
hobro
hockey
hodet
hof
hofdame
hoff
hoffet
hoffman
hoffmann
hofjægermester
hogan
hogwarts
hohenzollern
holberg
holbergs
holbæk
holck
hold
holdbarhed
holde
holden
holdene
holdeplads
holder
holdes
holdet
holdets
holding
holdings
holdkammerat
holdkonkurrencen
holdning
holdninger
holds
holdt
holdtes
hole
holger
holiday
holland
hollands
hollandsk
hollandske
hollow
holly
hollywood
hollænderne
holm
holme
holmen
holmens
holmes
holms
holocaust
holom
holst
holstebro
holsted
holstein
holsteinborg
holsten
holstensk
holstenske
holt
holte
holten
holy
home
homepage
homer
homers
homme
homo
homoseksualitet
homoseksuel
homoseksuelle
honda
honduras
honey
hong
hongkong
honning
honor
honorius
hood
hook
hooker
hoover
hop
hope
hopkins
hoppe
hoppede
hopper
horace
hordaland
horde
horisont
horisonten
horizon
hormoner
horn
hornbæk
horne
hornet
horns
hornum
horror
horse
horsens
horst
hos
hospital
hospitaler
hospitalet
host
hoste
hostrup
hot
hotel
hoteller
hotellet
hotels
hotspur
hou
houbraken
houghton
hour
hours
house
houston
hov
hove
hoved
hovedartikel
hovedartikler
hovedbanegard
hovedbanegarden
hovedbestyrelse
hovedbestyrelsen
hovedby
hovedbyen
hovedbygning
hovedbygningen
hoveder
hovedet
hovedgade
hovedgard
hovedgarden
hovedgrupper
hovedindgangen
hovedkontor
hovedkontoret
hovedkrateret
hovedkvarter
hovedkvarteret
hovedland
hovedparten
hovedperson
hovedpersonen
hovedpersoner
hovedpersonerne
hovedpine
hovedregel
hovedrolle
hovedrollen
hovedroller
hovedrollerne
hovedrunden
hovedsagelig
hovedsageligt
hovedsagen
hovedsagligt
hovedstad
hovedstaden
hovedstadens
hovedstadsomradet
hovedsæde
hovedsædet
hovedturneringen
hovedvej
hovedvejen
hovedværk
hovedværker
how
howard
howe
hp
hq
hr
hrsg
hs
ht
htm
html
http
https
hu
hua
huang
hub
hubble
hubert
hud
huden
hudson
hue
huffington
hug
huggede
hugget
hugh
hughes
hugo
hui
huitfeldt
hukommelse
hukommelsen
hul
hule
hulen
huler
hulk
hull
huller
hullet
human
humaniora
humanistisk
humanistiske
humanitære
humans
humboldt
hume
humlebæk
hummel
humor
humoristisk
humoristiske
humphrey
humør
hun
hund
hunde
hunden
hundene
hundested
hundred
hundrede
hundreder
hundredvis
hung
hunger
hungersnød
hungmedien
hunkøn
hunlige
hunnen
hunner
hunnerne
hunt
hunter
hur
hurley
hurra
hurricane
hurt
hurtig
hurtige
hurtigere
hurtighed
hurtigst
hurtigste
hurtigt
hurup
hus
husbond
husby
husdyr
huse
husede
husene
huser
huset
husets
husholdning
husk
huske
huskede
husker
huskes
husket
huslærer
husmænd
hussein
husstand
husstande
hustru
hustruen
hustruer
hustrus
husum
huus
hv
hva
hvad
hval
hvaler
hvalfangst
hvam
hvass
hvede
hvem
hver
hverandre
hverdag
hverdage
hverdagen
hverken
hvert
hverv
hvervet
hvid
hvidbjerg
hvide
hviderusland
hviderussisk
hviderussiske
hvidløg
hvidovre
hvidt
hviid
hvile
hvilede
hvilende
hviler
hvilke
hvilken
hvilket
hvis
hviskede
hvo
hvor
hvoraf
hvordan
hvorefter
hvorfor
hvorfra
hvorhen
hvori
hvorimod
hvorledes
hvormed
hvornar
hvorom
hvorpa
hvorpaa
hvortil
hvorunder
hvorved
hvorvidt
hw
hx
hy
hybrid
hyde
hyderabad
hydrogen
hygiejne
hylde
hyldede
hylder
hyldest
hyldet
hymne
hypotese
hyppig
hyppige
hyppigere
hyppigst
hyppigt
hyrde
hyrede
hyret
hytte
hytten
hytter
hyundai
hz
hæder
hæderspris
hæderstegn
hædret
hæfte
hæfter
hæftet
hæk
hækkerup
hælder
hældes
hældning
hæmmer
hænde
hændelse
hændelsen
hændelser
hænder
hænderne
hændte
hænge
hængende
hænger
hængt
hængte
hær
hære
hæren
hærens
hærfører
hærgede
hærget
hærs
hærværk
hævde
hævdede
hævder
hævdes
hævdet
hæve
hævede
hæver
hæves
hævet
hævn
hævne
hø
høeg
høegh
høg
høgh
høi
høie
høiere
høieste
høit
høj
højbjerg
højby
højde
højdedrag
højden
højdepunkt
højdepunktet
højder
højderyg
højderyggen
højdespring
høje
højen
højer
højere
højest
højeste
højesteret
højesterets
højgaard
højhed
højhuse
højland
højlandet
højre
højskole
højskolen
højst
højt
højtliggende
højtstaende
højvande
høng
høns
hør
hørby
høre
hørende
hører
høres
høring
hørsholm
hørt
hørte
hørtes
hørup
høst
høstede
høsten
høvding
høvdinge
høyer
i
i0
i1
i2
i3
i4
i5
i6
i7
i8
i9
ia
iaaf
iagttage
iagttagelse
iagttagelser
ialt
ian
iata
iau
ib
iben
iberiske
ibiza
iblandt
ibm
ibn
ibrahim
ibsen
ic
icao
icd
ice
iceland
icelandic
ich
id
ida
idag
idaho
ide
idea
ideal
idealer
idealisme
ideas
ideelle
ideelt
ideen
ideer
idehistorie
identificere
identificerede
identificerer
identificeres
identificeret
identifikation
identisk
identiske
identitet
identity
ideologi
ideologisk
ideologiske
idet
idol
idræt
idræts
idrætsanlæg
idrætsforening
idrætspark
idømt
ie
iedzivotaju
ieee
ieg
if
ifk
iflg
ifpi
ifølge
iført
ig
igangsat
igangsatte
igangværende
igen
igennem
igjen
igjennem
ign
ignoreret
igor
ih
ihf
ihjel
ii
iihf
iii
ij
ik
ikast
ikke
ikon
il
ild
ilde
ilden
ile
ilede
ilja
ill
illegal
illegale
illinois
illusion
illustrated
illustration
illustrationer
illustrator
illustrerede
illustrerer
illustreret
ilt
im
image
images
imam
imdb
imellem
imens
imf
imidlertid
immanuel
immateriel
immigranter
immigration
imod
imorgen
impact
imperativ
imperial
imperiet
imperium
implementeret
implications
imponerede
imponerende
imponeret
import
important
importerede
importeret
impossible
impulser
imødega
imødekomme
in
inc
includes
including
income
ind
indad
indb
indbefatter
indblandet
indblanding
indblik
indbragte
indbringende
indbygger
indbyggere
indbyggerne
indbyggertal
indbyggertallet
indbygget
indbyrdes
inddeles
inddeling
inddelinger
inddelt
inddrage
inddrages
inddraget
inde
indebar
indebærer
indefra
indehaver
indeholde
indeholdende
indeholder
indeholdt
indeholdte
indeks
inden
indendørs
indenfor
indenforvoldene
indeni
indenlandske
indenrigs
indenrigsminister
indenrigsministeriet
independence
independent
indere
inderlig
inderligt
indersiden
inderst
inderste
indespærret
index
indfald
indflydelse
indflydelsesrig
indflydelsesrige
indfødsret
indfødte
indføre
indførelse
indførelsen
indfører
indføres
indført
indførte
indførtes
indga
indgaelse
indgaende
indgaet
indgang
indgange
indgangen
indgar
indgav
indgik
indgreb
indgriben
indhegnet
indhente
indhentet
indhold
indholdet
indholdsfortegnelse
indholdsoversigt
india
indian
indiana
indianapolis
indianere
indianerne
indians
indianske
indie
indien
indiens
indiensportalens
indikerer
indimellem
indirekte
indisk
indiske
individ
individer
individet
individets
individual
individuel
individuelle
individuellem
individuelt
indkaldt
indkaldte
indkomst
indkomster
indkøb
indkøbscenter
indkøbt
indlagt
indland
indlandsisen
indlede
indledende
indleder
indledes
indledning
indledningen
indledningsvis
indledt
indledte
indledtes
indlemmet
indlysende
indlæg
indløb
indløbet
indo
indoeuropæiske
indonesien
indonesisk
indpas
indre
indretning
indrette
indrettede
indrettet
indrømme
indrømmede
indrømmelser
indrømmer
indsa
indsamle
indsamlede
indsamlet
indsamling
indsat
indsats
indsatsen
indsatte
indse
indsejlingen
indsendt
indsendte
indser
indsigt
indskrevet
indskrift
indskriften
indskrifter
indskrænkede
indskrænket
indslag
indspille
indspillede
indspillet
indspilning
indspilningen
indspilninger
indspilningerne
indsprøjtning
indstiftet
indstille
indstillede
indstilles
indstillet
indstilling
indsætte
indsættelse
indsættes
indtage
indtagelse
indtager
indtaget
indtil
indtjening
indtjente
indtog
indtradte
indtraf
indtryk
indtræde
indtræden
indtræder
indtrængende
indtægt
indtægter
indtægterne
indtægtskilde
inducks
industri
industrial
industrialisering
industrialiseringen
industriby
industriel
industrielle
industrielt
industrien
industriens
industrier
industries
industry
indvalgt
indvandrede
indvandrere
indvandring
indvendig
indvendige
indvendigt
indvendinger
indviede
indviedes
indvielse
indvielsen
indvies
indviet
indvilligede
indvirkning
infanteri
infanteribrigade
infanteridivision
infanteriet
infanteriregiment
infantry
infektion
infektioner
infernal
inferno
inflation
influence
influenza
info
information
informationer
informations
informationsside
informeret
infrastruktur
infrastrukturen
infty
ing
inga
inge
ingeborg
ingemann
ingen
ingeniør
ingeniøren
ingeniører
ingenlunde
ingenting
inger
ingerslev
ingolf
ingredienser
ingrid
ingvar
initiativ
initiative
initiativer
initiativet
initiativtager
injury
inkl
inkludere
inkluderede
inkluderer
inkluderet
inklusiv
inklusive
inn
inner
innocens
innovation
innovative
innsbruck
input
insekter
inside
insider
insisterede
inspektør
inspiration
inspirationen
inspirationskilde
inspirere
inspirerede
inspireret
instagram
installation
installationer
installere
installeret
instans
institut
institute
institutes
institutet
institution
institutionen
institutioner
instituttet
instituttets
instr
instruere
instruerede
instrueret
instruktion
instruktioner
instruktionsbog
instruktør
instruktøren
instruktører
instrument
instrumental
instrumenter
instrumentet
instruments
insulin
int
intakt
inte
integrated
integration
integrerede
integreret
integritet
intel
intellektuel
intellektuelle
intelligence
intelligens
intelligent
intelligente
intens
intense
intensitet
intensiv
intensive
intensivt
intenst
intention
intentioner
inter
interactive
interaktion
intercontinental
interessant
interessante
interesse
interessen
interesser
interessere
interesserede
interesserer
interesseret
interest
interface
interiør
intern
international
internationale
internationalt
internazionale
interne
interneret
internet
internetova
internetsider
internettet
internt
interstate
interval
intervaller
intervallet
intervention
interview
interviewet
interviews
intet
intetkøn
into
intriger
intro
introducere
introducerede
introduceredes
introducerer
introduceres
introduceret
introduction
introduktion
introduktionen
inuit
invadere
invaderede
invaderet
invalid
invasion
invasionen
invasioner
inventar
invention
investere
investeret
investering
investeringer
investigation
investor
investorer
invitation
inviterede
inviterer
inviteret
involverede
involverer
involveret
involvering
io
ioc
ion
ioner
ios
iowa
ip
ipa
iphone
ipsen
iq
iqbal
ir
ira
irak
irakiske
iraks
iran
irans
iransk
iranske
iraq
ireland
irene
irina
iris
irish
irland
irlands
irma
iron
ironi
ironisk
irsk
irske
irving
is
isaac
isabel
isabella
isabelle
isak
isbn
isen
ishav
ishavet
ishockey
ishockeyspiller
ishøj
isis
islam
islamic
islamisk
islamiske
islamisme
islams
island
islands
islandsk
islandske
isle
iso
isolation
isolde
isolere
isolerede
isoleret
isotoper
israel
israeli
israels
israelsk
israelske
iss
issn
issue
issues
ist
istanbul
istand
istat
isted
istedetfor
istid
istiden
istituto
især
it
italia
italian
italiana
italien
italienere
italienerne
italiens
italiensk
italienske
italy
item
itf
its
itu
itunes
itv
itzehoe
iu
iucn
iv
ivan
ivanov
ivar
iver
iversen
ivrig
ivrige
ivrigt
iværksat
iværksatte
iværksætte
iværksætter
iw
ix
iy
iz
iøjnefaldende
iøvrigt
j
j0
j1
j2
j3
j4
j5
j6
j7
j8
j9
ja
jack
jackie
jackson
jacksons
jacob
jacobi
jacobs
jacobsen
jacobsens
jacqueline
jacques
jade
jag
jage
jager
jagere
jagerfly
jaget
jagger
jagt
jagten
jagtvej
jaguar
jahre
jaime
jake
jakke
jakkesæt
jakob
jakobe
jakobs
jakobsen
jakup
jalousi
jaloux
jam
jamaica
james
jamie
jammerbugt
jamtland
jan
jane
janeiro
janet
janis
janne
jannik
jansen
janssen
januar
january
janus
japan
japanere
japanerne
japanese
japans
japansk
japanske
jared
jarl
jarlen
jarlsberg
jaroslav
jarv
jasmin
jason
jasper
java
javier
javnaðarflokkurin
jay
jazeera
jazykova
jazz
jazzmusiker
jb
jc
jd
je
jean
jeanette
jeanne
jedi
jeff
jefferson
jeffrey
jeg
jehovas
jelena
jelling
jena
jenkins
jenna
jenner
jennifer
jennings
jenny
jens
jensen
jensens
jeppe
jeppesen
jepsen
jer
jeremy
jeres
jericho
jern
jernalder
jernalderen
jernbane
jernbaneforbindelse
jernbanegade
jernbaneklubb
jernbaneklubbs
jernbanelinjen
jernbanemuseum
jernbanen
jernbaner
jernbanerne
jernbanestation
jernbanestationen
jernstøberi
jerome
jerry
jersey
jerusalem
jerusalems
jerzy
jes
jesper
jespersen
jess
jesse
jessen
jessica
jessie
jesu
jesus
jet
jets
jette
jevgenij
jewish
jews
jf
jfr
jg
jh
ji
jian
jiang
jihad
jill
jim
jimi
jimmy
jin
jj
jk
jl
jm
jn
jo
joachim
joakim
joan
joanna
joao
joaquin
job
jobbet
jobs
joe
joel
joensen
joey
jog
jogvan
joh
johan
johann
johanna
johanne
johannes
johannesburg
johannesen
johannessen
johannsen
johans
johansen
johansson
john
johnny
johns
johnsen
johnson
johnsons
johnston
johs
join
joins
joint
joke
jokeren
jomfru
jomfruen
jon
jonas
jonathan
jones
jong
jonge
joni
jonsson
jord
jordan
jordbrug
jordbund
jordbunden
jordbær
jorde
jordebog
jorden
jordens
jorder
jordiske
jordoverfladen
jordskælv
jordskælvet
jorg
jorge
jorn
jose
josef
josefine
joseon
joseph
josephine
josh
joshua
josiah
journal
journalist
journalisten
journalister
journalisthøjskole
journalistik
journalistiske
journey
joy
joyce
jozef
jp
jpg
jpn
jq
jr
js
jstor
jt
ju
juan
jubel
jubilee
jubilæet
jubilæum
judas
judge
judith
judo
judy
juel
jugoslavien
jugoslaviske
juhl
juice
jul
juleaften
juledag
julekalender
julekalenderen
julemanden
julen
jules
juli
julia
julian
juliane
julie
julien
juliet
juliette
julio
julius
july
jump
jun
junction
june
jung
junge
jungle
junglen
juni
junior
juniors
juno
jupiter
jupiters
jur
jura
jurassic
jurgen
jurgensen
juridisk
juridiske
jurij
juris
jurisdiktion
jurist
jurister
jury
juryen
just
justice
justin
justitsminister
justitsministeriet
justitsrad
justus
juul
juventus
jv
jvf
jw
jx
jy
jyderup
jydsk
jydske
jydskevestkysten
jylland
jyllands
jyllandsposten
jysk
jyske
jytte
jz
jæger
jægere
jægersborg
jægerspris
jævn
jævnaldrende
jævne
jævnfør
jævnlig
jævnligt
jævnt
jøde
jødedom
jødedommen
jøden
jøder
jøderne
jødernes
jødisk
jødiske
jørgen
jørgens
jørgensen
jørgensens
jørn
k
k0
k1
k2
k3
k4
k5
k6
k7
k8
k9
ka
kaalund
kaare
kaas
kabel
kabinen
kabinet
kabler
kabul
kadet
kaffe
kage
kager
kahn
kai
kairo
kaiser
kaj
kajak
kakao
kal
kald
kalde
kalder
kaldes
kaldet
kaldt
kaldte
kaldtes
kalender
kalenderen
kali
kaliber
kalif
kalifatet
kalium
kalk
kalkmalerier
kalksten
kalle
kalmar
kalmbach
kalundborg
kalv
kalø
kam
kamera
kameraer
kameraet
kammer
kammerat
kammerater
kammeret
kammerherre
kammerjunker
kammermusik
kammerorkester
kammerrad
kamp
kampagne
kampagnen
kampagner
kampe
kampen
kampene
kampens
kampesten
kampfly
kampmann
kampsport
kampvogn
kampvogne
kampvognen
kamre
kan
kana
kanal
kanalen
kanalens
kanaler
kanalerne
kanariske
kancelli
kancelliet
kancellirad
kand
kandidat
kandidater
kandidatgrad
kandidatur
kane
kanin
kann
kano
kanon
kanonen
kanoner
kanonerne
kansas
kanske
kansler
kant
kantate
kanten
kanter
kanton
kantonen
kantoner
kanye
kaos
kap
kapacitet
kapaciteten
kapel
kapellan
kapellet
kapelmester
kapital
kapitalisme
kapitalismen
kapitel
kapitler
kapitlet
kapitulation
kappe
kappel
kapsler
kaptajn
kaptajnen
kaptajnløjtnant
kar
kara
karakter
karakteren
karakterer
karakteriserede
karakteriserer
karakteriseres
karakteriseret
karakteristik
karakteristika
karakteristisk
karakteristiske
karantæne
karate
karde
kardinal
kardinalen
kardinaler
kardinalerne
kare
karel
karelen
karelske
karen
karet
kari
karim
karin
karina
karl
karla
karle
karls
karlsen
karlskrona
karlsruhe
karlsson
karma
karnten
karoline
karpov
karriere
karrieren
karrierestop
karsten
karthago
kartofler
kartografi
kartverk
karup
kasakhstan
kaserne
kasernen
kashmir
kaspar
kasparov
kasper
kaspiske
kasse
kassel
kassen
kasser
kasserer
kast
kaste
kastede
kastellet
kaster
kastes
kastet
kastilien
kastrup
kasus
kat
katalog
katalysator
katarina
katastrofale
katastrofe
katastrofen
katastrofer
kate
katedral
katedralen
katedralskole
kategori
kategorien
kategorier
kategoriseret
katerina
katharina
katharine
katherine
kathleen
kathrine
katie
katja
katolicismen
katolik
katolikker
katolsk
katolske
katrin
katrine
katte
kattegat
katten
katy
kaufman
kaufmann
kaukasus
kaunas
kautsky
kavaleri
kavaleriet
kay
kaye
kazan
kb
kbh
kc
kd
ke
ked
keep
keeper
keith
kejser
kejsere
kejseren
kejserens
kejserinde
kejserlig
kejserlige
kejserrige
kejserriget
keld
keller
kelly
keltisk
keltiske
kelvin
kemi
kemikalier
kemiker
kemisk
kemiske
ken
kende
kendelse
kender
kendes
kendetegn
kendetegnende
kendetegner
kendetegnes
kendetegnet
kendo
kendsgerning
kendskab
kendskabet
kendt
kendte
kendteste
kennedy
kennel
kenneth
kenny
kensington
kent
kentucky
kenya
kepler
keramik
kerne
kernen
kerner
kerr
kerry
kerteminde
kesselring
kessler
kevin
key
keyboard
keyboards
keynes
keys
kf
kfum
kg
kgb
kgl
kh
khader
khan
khaosod
kharkiv
khl
khz
ki
kia
kiby
kick
kicker
kid
kidde
kidman
kidnappet
kids
kiel
kierkegaard
kierkegaards
kiev
kif
kig
kigge
kiggede
kigger
kijev
kilde
kildehenvisninger
kildemateriale
kilden
kilder
kilderne
kill
killed
killer
killers
killing
kilo
kilogram
kilometer
kilometers
kim
kina
kinaportalen
kinas
kind
kinder
kinesere
kineserne
kinesisk
kinesiske
king
kingdom
kings
kingsley
kingston
kinks
kinney
kino
kiosk
kira
kirby
kirche
kirgisistan
kirjailija
kirk
kirke
kirkebog
kirkeby
kirkedistrikt
kirkegaard
kirkegard
kirkegarde
kirkegarden
kirkehistorie
kirkelig
kirkelige
kirken
kirkens
kirker
kirkerne
kirkerummet
kirkes
kirsebær
kirsten
kirstine
kirurg
kirurgi
kirurgisk
kirurgiske
kiss
kiste
kisten
kit
kitty
kiøbenhavn
kj
kjeld
kjeldsen
kjell
kjellerup
kjende
kjender
kjendt
kjendte
kjole
kjoler
kjær
kjære
kjærgaard
kjærlighed
kjærligheden
kjærsgaard
kjærulff
kjøbenhavn
kjøbenhavns
kk
kl
klage
klagede
klager
klaksvik
klampenborg
klan
klanen
klang
klappede
klar
klare
klarede
klarer
klarere
klaret
klarhed
klarhedsfaktorer
klarinet
klart
klasse
klassen
klassens
klasser
klassetrin
klassificeres
klassificeret
klassificering
klassifikation
klassiker
klassikere
klassisk
klassiske
klatre
klaus
klaver
klaveret
klaverkoncert
klaverstykker
klein
kleine
klem
klemme
kleopatra
klient
klienter
klik
klim
klima
klimaanlæg
klimaet
klimaforandringer
klinge
klinger
klinik
klinisk
kliniske
klint
klip
klippe
klippen
klipper
klipperne
klippet
klit
klitgaard
klitplantage
klitter
kloden
klog
kloge
klokke
klokken
klokker
kloster
klosteret
klostre
klostret
klovn
klub
klubben
klubbens
klubber
klubberne
klubhold
klubhus
klubplan
klump
klæde
klædefabrik
klæder
klædt
klædte
kløer
kløft
kløften
kløfter
kløvedal
kløver
km
kmd
kn
knap
knapper
knapt
kneb
knibe
knight
knights
kniv
knive
kniven
knob
knock
knockout
knogler
knopperne
know
knowledge
knowles
known
knox
knud
knude
knudepunkt
knuds
knudsen
knudsens
knuse
knust
knuste
knut
knuth
knytte
knyttede
knytter
knyttes
knyttet
knæ
knækkede
ko
koalition
koalitionen
kobber
kobberstik
kobe
koblet
koch
kock
kode
koden
kodenavnet
koder
koefoed
koen
kofod
kofoed
kog
koge
kogebog
kogende
koger
koges
kognitiv
kognitive
kogt
kogte
koh
kohl
kok
kokain
kokkedal
kold
kolde
koldere
kolding
koldinghus
koldt
kolkata
kollaps
kollapsede
kollega
kollegaen
kollegaer
kolleger
kollegiet
kollegium
kollektiv
kollektive
kollektivt
kollision
koln
koloni
kolonien
kolonier
kolonierne
kolonisering
kolonister
kolonne
kolonner
kom
koma
kombination
kombinationen
kombinationer
kombinere
kombinerede
kombinerer
kombineres
kombineret
komedie
komediefilm
komedien
komedier
komet
komiker
komikeren
komisk
komiske
komite
komiteen
kommandant
kommanderede
kommanderende
kommando
kommandoen
kommandør
kommandørkaptajn
komme
kommen
kommende
kommentar
kommentarer
kommentator
kommenterede
kommenteret
kommer
kommerciel
kommercielle
kommercielt
kommes
kommet
kommission
kommissionen
kommissionens
kommissioner
kommissær
kommun
kommuna
kommunal
kommunalbestyrelse
kommunalbestyrelsen
kommunale
kommunalreformen
kommunalt
kommunalvalg
kommunalvalget
kommune
kommunen
kommunens
kommuner
kommunerne
kommunernes
kommunes
kommunikation
kommunikere
kommunisme
kommunismen
kommunist
kommunister
kommunisterne
kommunistisk
kommunistiske
kommunistparti
kommunistpartiet
komne
komp
kompagni
kompagnier
kompagniet
kompakt
komparativ
kompas
kompensation
kompensere
kompetence
kompetencer
kompleks
komplekse
komplekset
kompleksitet
komplekst
komplet
komplette
komplicerede
kompliceret
komplikationer
komponent
komponenter
komponere
komponerede
komponeret
komponist
komponisten
komponister
komposition
kompositioner
kompromis
komtesse
kon
koncentration
koncentrationen
koncentrationer
koncentrationslejr
koncentrationslejre
koncentrationslejren
koncentrere
koncentrerede
koncentreret
koncept
konceptet
koncern
koncernen
koncernens
koncert
koncerten
koncerter
koncerterne
koncertmusik
koncertsal
kone
konen
koner
kones
konference
konferencen
konferencer
konferensrad
konfirmation
konfiskeret
konflikt
konflikten
konflikter
konfrontation
konføderationen
konfødererede
kong
konge
kongeaen
kongedømme
kongedømmer
kongedømmet
kongefamilie
kongefamilien
kongehus
kongehuset
kongelig
kongelige
kongeligt
kongemagten
kongen
kongens
kongensgade
konger
kongerige
kongeriger
kongeriget
kongerigets
kongerne
kongernes
kongers
konges
kongevej
kongo
kongres
kongressen
kongsberg
konig
konigsberg
konjugation
konkluderede
konkluderer
konklusion
konklusioner
konkret
konkrete
konkurrence
konkurrencen
konkurrencer
konkurrencerne
konkurrent
konkurrenter
konkurrere
konkurrerede
konkurrerende
konkurrerer
konkurreret
konkurs
konrad
konsekvens
konsekvensen
konsekvenser
konsekvenserne
konsekvent
konsensus
konservativ
konservative
konservativt
konservatoriet
konsortium
konstant
konstante
konstantin
konstantinopel
konstatere
konstaterede
konstateres
konstateret
konstitueret
konstitutionelle
konstruere
konstruerede
konstrueret
konstruktion
konstruktionen
konstruktioner
konstschilders
konsul
konsulent
kontakt
kontaktede
kontakten
kontakter
kontaktet
kontekst
konti
kontinent
kontinentale
kontinenter
kontinentet
kontinuitet
konto
kontor
kontorchef
kontorer
kontoret
kontrabas
kontrakt
kontrakten
kontrakter
kontrast
kontreadmiral
kontrol
kontrollen
kontrollere
kontrollerede
kontrollerer
kontrolleres
kontrolleret
kontroverser
kontroversiel
kontroversielle
kontroversielt
konvention
konventionel
konventionelle
konventionen
konversationsleksikon
konvertere
konverterede
konverteret
koordinater
koordinere
koordineret
kop
kopi
kopier
kopiere
kopieret
koppel
kopper
kor
koranen
korch
korea
koreakrigen
korean
koreansk
koreanske
koreas
koreograf
koret
korets
korinth
korn
kornerup
kornet
korps
korpset
korrekt
korrekte
korrekthed
korrespondance
korrespondent
korridor
korruption
kors
korset
korsfarerne
korsika
korstog
korsør
kort
korte
kortene
kortere
korteste
kortet
kortfattet
kortfilm
kortlægge
kortlægning
kortspil
korttilkirken
kortvarig
kortvarige
kortvarigt
korværker
kosmisk
kosmiske
kosmos
kosovo
kost
kostbar
kostbare
koste
kostede
koster
kostet
kostskole
kostumer
kp
kq
kr
krabbe
kraft
kraften
kraftig
kraftige
kraftigere
kraftigste
kraftigt
kraftværk
kraftværker
krag
kragh
kraj
krak
krakow
kraks
kramer
krans
krarup
krat
krater
kraterbunden
kratere
krateret
kraternavne
krause
krav
kravene
kravet
kreativ
kreative
kreativitet
kreaturer
krebs
kredit
krediteret
kreditering
kreds
kredse
kredsen
kredser
kredsløb
kreis
kreisen
kreta
kridt
krieger
krig
krige
krigen
krigene
krigens
kriger
krigere
krigs
krigsfanger
krigsforbrydelser
krigsførelse
krigsminister
krigsministeriet
krigsskib
krigsskibe
krigstjeneste
krim
krimi
kriminalitet
kriminel
kriminelle
kris
krise
krisen
kriser
krishna
kristelig
kristelige
kristeligt
kristen
kristendom
kristendommen
kristendommens
kristensen
kristent
kristi
kristian
kristiania
kristiansand
kristiansen
kristin
kristina
kristine
kristne
kristoffer
kristus
kriterier
kritik
kritiker
kritikere
kritikerne
kritikken
kritisere
kritiserede
kritiserer
kritiseret
kritisk
kritiske
kro
kroatien
kroatiens
kroatisk
kroatiske
kroen
krog
krogen
krogh
krohn
kronblade
kronborg
krone
kronede
kronen
kronens
kroner
krones
kronet
kronik
kroning
kroningen
kronisk
kroniske
kronologisk
kronprins
kronprinsen
kronprinsens
kronprinsesse
krop
kroppe
kroppen
kroppens
krudt
kruger
krumme
kruse
krybdyr
krybende
krydderier
krydret
kryds
krydse
krydsede
krydser
krydsere
krydses
krydset
krydsning
krydsningsspor
krystal
krystaller
kræft
kræfter
kræfterne
krænkelse
krænket
kræve
krævede
krævende
kræver
kræves
krævet
krøb
krønike
krøniken
krøniker
krøyer
ks
kt
ku
kubikmeter
kuffert
kugle
kuglen
kugler
kuglestød
kuhn
kul
kuld
kulde
kuldioxid
kulminerede
kulstof
kult
kultur
kulturarv
kulturarvsstyrelsen
kulturarvsstyrelsens
kulturcenter
kulturel
kulturelle
kulturelt
kulturen
kulturer
kulturhistorie
kulturhistorisk
kulturhistoriske
kulturhus
kulturhuset
kulturliv
kulturminister
kulturministeriet
kulturministeriets
kulturpris
kulturrevolutionen
kulturstyrelsen
kun
kunde
kunder
kunderne
kundskab
kundskaber
kung
kungliga
kunne
kunnet
kunst
kunstakademi
kunstakademiet
kunstakademiets
kunsten
kunstens
kunster
kunstfond
kunstfonds
kunsthandværk
kunsthistorie
kunsthistoriker
kunstig
kunstige
kunstigt
kunstindeks
kunstmaler
kunstmuseet
kunstmuseum
kunstner
kunstnere
kunstneren
kunstnerens
kunstneres
kunstnerisk
kunstneriske
kunstnerleksikon
kunstnernavn
kunstnernavnet
kunstnerne
kunstnernes
kunstværk
kunstværker
kup
kuperet
kuppel
kuppet
kur
kurator
kurdisk
kurdiske
kurfyrste
kurland
kurs
kursen
kurser
kursiv
kursk
kursus
kurt
kurv
kurve
kurven
kusine
kuwait
kv
kvad
kvadrat
kvadratisk
kvadratkilometer
kvadratmeter
kvalificere
kvalificerede
kvalificerer
kvalificeret
kvalifikation
kvalifikationen
kvalifikationer
kvalifikationskamp
kvalifikationsrunde
kvalifikationsturneringen
kvalitet
kvaliteten
kvaliteter
kvalme
kvart
kvartal
kvartalet
kvarter
kvarterer
kvarteret
kvartet
kvartfinale
kvartfinalen
kvartfinalerne
kvf
kvik
kviksølv
kvinde
kvindebiografisk
kvindefodboldlandshold
kvindehandbold
kvindehandboldlandshold
kvindelig
kvindelige
kvinden
kvindens
kvinder
kvinderne
kvindernes
kvinders
kvindes
kvinfo
kvist
kvæg
kvælstof
kw
kx
ky
kyiv
kyle
kylie
kylling
kyoto
kys
kysse
kyssede
kysser
kyst
kystbanen
kysten
kyster
kysterne
kystlinje
kystnære
kz
kæde
kæden
kæder
kælder
kælderen
kæledyr
kælenavn
kælenavnet
kæmpe
kæmpede
kæmpende
kæmper
kæmpet
kær
kære
kæreste
kæresten
kærester
kærlig
kærlighed
kærligheden
kærlighedens
kø
køb
købe
københavn
københavns
københavnsk
københavnske
køber
købes
købet
købmand
købmanden
købmænd
købstad
købstaden
købstæder
købstæderne
købstædernes
købt
købte
kød
kødet
køer
køge
køkken
køkkenet
kølig
kølige
kølvandet
køn
køre
kørende
køreplan
kører
køres
køretøj
køretøjer
køretøjet
kørsel
kørslen
kørt
kørte
l
l0
l1
l2
l3
l4
l5
l6
l7
l8
l9
la
laa
laae
lab
label
labor
laboratoriet
laboratorium
laboratory
labour
labrador
lad
lade
ladede
ladegard
laden
ladeplads
lader
ladet
ladies
ladning
ladoga
ladt
lady
lag
lagde
lagdes
lage
lager
laget
lagmand
lagre
lagt
lagtinget
laguna
lai
laila
laine
lake
laks
lam
lama
lamb
lambda
lambert
lampe
lampen
lamper
lan
lancashire
lancaster
lance
lancerede
lanceret
lanceringen
lancetformede
lancia
land
landareal
landbohistorisk
landbrug
landbruget
landbrugets
landbrugs
landbrugsejendom
landbrugsjord
landdagen
landdistrikter
landdistrikterne
lande
landede
landene
lander
landes
landet
landets
landevej
landevejen
landevejscykelrytter
landevejscykling
landgang
landgangen
landgreve
landing
landingsbane
landjorden
landkommune
landkreis
landkreisen
landlige
landmand
landmænd
landomrade
landomrader
lands
landsby
landsbyen
landsbyens
landsbyer
landsbyerne
landscape
landschaft
landsdel
landsdele
landsdommer
landsdækkende
landsforeningen
landsformand
landshold
landsholdet
landsholdsdatabase
landsholdsspiller
landskab
landskaber
landskabet
landskabsmaler
landskamp
landskampe
landskapet
landskrona
landsmand
landsmanden
landsmænd
landspokalturnering
landsret
landsretten
landsted
landstedet
landsthinget
landsting
landstinget
landstræner
lane
laneord
lang
langa
langberg
lange
langeland
langelinie
langer
langle
langrend
langs
langsigtede
langsom
langsomme
langsommere
langsomt
langt
langtfra
language
languages
langvarig
langvarige
lanka
lant
lante
laos
lapland
lara
large
largest
larm
larry
lars
larsen
larsens
larsson
larver
larvik
las
laser
lasse
lassen
last
lastbil
lastbiler
lat
late
later
latest
latin
latinamerika
latinsk
latinske
latinskole
latter
latvia
latvijas
lau
laub
laudrup
lauenborg
lauenburg
launch
laur
laura
laurbær
laurel
lauren
laurence
laurent
laurentius
laurids
lauridsen
laurie
lauring
laurits
lauritz
lauritzen
laursen
laurvig
lausanne
laust
lav
lava
laval
lave
lavede
laver
lavere
laves
lavest
laveste
lavestliggende
lavet
lavland
lavlandet
lavt
lavvandede
lavvandet
law
lawn
lawrence
laws
lay
layout
lazio
lb
lc
ld
le
lea
lead
leader
leaders
leadership
leading
leaf
league
learning
least
leave
leaves
leaving
leben
lech
lecture
led
lede
ledede
ledelse
ledelsen
ledende
leder
ledere
lederen
lederne
lederskab
ledes
ledet
ledger
ledig
ledige
ledning
ledninger
ledsagede
ledsager
ledsaget
ledt
ledte
lee
leeds
leende
lees
left
leg
legacy
legal
legat
legater
legatet
lege
legede
legeme
legemer
legemet
legend
legendarisk
legendariske
legende
legenden
legender
legends
legene
legeplads
leger
legetøj
legion
legitime
lego
legoland
legrand
lehmann
lehn
lei
leicester
leiden
leif
leigh
leilighed
leipzig
leje
lejeaftale
lejede
lejer
lejesoldater
lejet
lejlighed
lejligheden
lejligheder
lejlighedsvis
lejr
lejre
lejren
lejrene
leksikon
leksikons
lektor
lem
lemmer
lemvig
len
lena
lene
lengua
lenin
leningrad
lenins
lennart
lennon
lenny
lens
lensbaron
lensgreve
lensmand
lensmanden
leo
leon
leonard
leonardo
leone
leonid
leonora
leopard
leopold
ler
lerche
les
lescharts
leslie
less
lesson
lester
let
letbane
letbanen
leth
lethed
letland
letlands
letour
letsværvægt
lette
lettede
letter
lettere
letters
lettet
lettisk
lettiske
letvægt
lev
leve
levear
levede
level
levende
lever
leverandør
leverandører
levere
leverede
leveren
leverer
leveres
leveret
levering
leverkusen
levesteder
levet
levetid
levetzau
levevilkar
levevis
levi
levin
levine
levn
levned
levy
lewis
lex
lexicon
lexikon
lexin
lexington
lexopen
lf
lg
lgbt
lh
lhasa
li
liam
libanon
liber
liberal
liberale
liberalisme
liberalt
liberation
liberty
library
libretto
libris
libyen
libyske
licens
license
licensen
lide
lidelse
lidelser
liden
lidenskab
lider
lidet
lidt
lie
liebe
liechtenstein
lieden
lieder
liege
lies
lieutenant
life
lifetime
lift
lig
liga
ligaen
ligaens
ligaer
ligakampe
lige
ligefrem
ligegyldig
ligegyldigt
ligeledes
ligeligt
ligene
ligeoverfor
ligesa
ligesaa
ligesom
ligestilling
liget
ligevægt
ligge
liggende
ligger
ligget
lighed
ligheder
light
lighthouse
lightning
lights
lign
ligne
lignede
lignende
ligner
ligning
ligningen
ligninger
ligue
like
lil
lilholt
lili
lilla
lille
lilleasien
lillebror
lillebælt
lillehammer
lillesøster
lillian
lilly
lily
lim
lima
limburg
lime
limfjorden
limited
limousine
lin
lina
lincoln
lincolnshire
lind
linda
lindberg
linde
lindenov
lindgren
lindhardt
lindholm
lindsay
line
linear
lines
lineær
lineære
ling
lingua
lingvistik
linie
linien
linier
linje
linjeføring
linjeløb
linjen
linjer
linjerne
linjeændringer
link
linkedin
links
linne
linnet
linse
linux
linz
lion
lionel
lions
lippe
lis
lisa
lisbet
lisbeth
lisbjerg
lise
lissabon
list
lista
listan
liste
listed
listede
listen
lister
listet
liszt
lit
litauen
litauens
litauisk
litauiske
liter
literary
literatur
literature
liters
lithium
lithuania
litografi
litra
litteratur
litteraturen
litteraturhistorie
litteraturpris
litteraturpriser
litteraturs
litteraturselskab
litteratursiden
litterær
litterære
litterært
little
liu
liv
live
livealbum
liverpool
lives
livet
livets
livgarde
livgarden
living
liviske
livland
livlig
livlige
livregiment
livs
livsform
livsformer
livsstil
livstid
livsvarigt
lj
ljubljana
lk
ll
llc
lloyd
lm
ln
lo
local
location
loch
lock
locke
lockheed
lod
lodge
lodret
lodrette
lodtrækning
lodtrækningen
lofoten
loft
loftet
log
logan
logic
logik
logisk
logiske
logistik
logo
loire
lois
lokal
lokalavisen
lokalbefolkningen
lokale
lokaler
lokalhistorisk
lokalhistoriske
lokaliseret
lokalitet
lokaliteter
lokalplan
lokalt
lokaltog
loke
lokke
lokker
lokket
lokomotiv
lokomotiver
lola
lolland
lollands
lombardiet
lomme
lommen
lommer
london
londons
lone
lonely
long
longstreet
look
looking
loop
lopez
lorck
lord
lords
lorentz
lorentzen
lorenz
lorenzen
lorenzo
lorraine
lorry
los
lose
losere
loss
lost
lot
lothar
lothringen
lotte
lotto
lotus
lou
loud
louis
louise
louises
louisiana
louvre
lov
love
loved
lovede
loven
lovende
lovene
lovens
lover
lovers
loves
lovet
lovforslag
lovforslaget
lovgivende
lovgivning
lovgivningen
loving
lovlig
lovlige
lovligt
lovs
low
lowe
lower
loyal
loyale
loyalitet
lp
lpi
lq
lr
ls
lt
ltd
lu
lubeck
luc
luca
lucas
lucia
luciano
lucie
lucien
lucifer
lucius
luck
lucky
lucy
ludvig
ludvigsen
ludwig
luft
luftangreb
luftbarne
luften
luftens
luftfart
lufthavn
lufthavne
lufthavnen
luftskibet
luftvaben
luftwaffe
luger
lugt
luigi
luis
luise
luiz
luk
lukas
luke
lukke
lukkede
lukker
lukkes
lukket
lukning
lukningen
luksus
lulu
luna
lunaire
lunar
lund
lundberg
lundby
lundbye
lunde
lunden
lunderskov
lundgaard
lundin
lunds
lune
luneburg
lunge
lungebetændelse
lungerne
lupus
luther
luthers
luthersk
lutherske
lutken
lutter
luttichau
lutzow
luxembourg
luxemburg
luzern
lv
lviv
lw
lx
ly
lyd
lyde
lyden
lyder
lydfiler
lydighed
lyhne
lykke
lykkedes
lykkelig
lykkelige
lykkeligt
lykken
lykkens
lykkes
lyn
lynch
lyne
lynet
lyng
lyngby
lynge
lynn
lynx
lyon
lyra
lyrik
lyrisk
lyriske
lys
lysabne
lysar
lyse
lysegrøn
lysegrønne
lysende
lyser
lysere
lyserød
lyserøde
lyset
lysets
lyst
lystbadehavn
lyste
lyster
lystrup
lytte
lyttede
lytter
lyttere
lyve
lyver
lz
læ
læber
læberne
læder
læg
læge
lægemiddel
lægemidler
lægen
læger
lægerne
lægfolk
lægge
lægger
lægges
længde
længdegrad
længdekreds
længden
længdespring
længe
længer
længere
længerevarende
længes
længsel
længst
længste
længtes
lænker
lær
lærd
lærde
lærdom
lære
læreanstalt
lærebog
lærebøger
læren
lærer
lærere
læreren
lærerne
læring
lærke
lærling
lærred
lært
lærte
læs
læse
læser
læsere
læseren
læserne
læses
læsning
læssespor
læst
læste
læsø
løb
løbe
løbebane
løbende
løber
løbere
løbet
løbets
lød
løft
løfte
løftede
løfter
løftet
løg
løgn
løgne
løgstrup
løgstør
løgumkloster
løjtnant
løkke
løkken
løn
lønborg
lønnen
lørdag
løs
løse
løser
løses
løsgænger
løsladelse
løsladt
løsning
løsningen
løsninger
løsrivelse
løst
løste
løv
løve
løven
løvenskiold
løver
løvfældende
løvskov
løvskove
m
m0
m1
m2
m3
m4
m5
m6
m7
m8
m9
ma
maa
maade
maader
maae
maal
maaned
maaneder
maanen
maaske
maaskee
maastricht
maatte
maattet
mabel
mac
macarthur
macdonald
mach
machine
machines
mack
mackenzie
macmillan
macron
mad
madagaskar
madam
madame
made
madeira
madeleine
maden
mader
madison
madlavning
madness
madonna
madras
madrid
mads
madsen
madsens
mae
mafia
mafiaen
mag
magasin
magasiner
magasinet
magazin
magazine
magdalena
magdalene
magdeburg
mage
magen
mager
maggie
magi
magic
magisk
magiske
magister
magisteren
magistraten
magleby
magma
magna
magnesium
magnetfelt
magnetic
magnetisk
magnetiske
magnum
magnus
magnussen
magnusson
magre
magt
magten
magtens
magter
magtfuld
magtfulde
magtovertagelse
mahal
mahatma
mahler
mahmoud
mahren
mai
maiden
mail
main
maine
mainstream
mainz
maj
maja
majesty
majestæt
major
majoritet
majs
make
makedonien
makedonsk
makedonske
maker
makes
making
makker
maks
maksimal
maksimale
maksimalt
maksimum
mal
malaga
malaria
malawi
malaysia
malcolm
maldifference
male
malebordsblad
malebordsblade
malede
malene
maler
malere
maleren
maleri
malerier
malerierne
maleriet
malerisamling
malerkunst
malerne
males
malestok
malet
malforskel
malgruppe
malgruppen
mali
malik
maling
malinger
malling
mallorca
malm
malmand
malmo
malmø
malone
malrettet
malsætning
malt
malta
malte
maltid
maløv
mama
mammals
man
management
manager
managerprofil
manchester
manchuriet
mand
mandag
mandarin
mandat
mandater
mandela
manden
mandens
mandkøn
mandlig
mandlige
mandolin
mands
mandskab
mandskabet
mane
maneatlas
maneatlasset
manebetragterens
maned
maneden
manedens
maneder
maneders
manedlige
maneds
manekratere
manen
manenomenklatur
manens
maneobservation
maneoverfladen
maner
manet
manfred
manga
mange
mangearige
mangel
mangen
mangfoldige
mangfoldighed
mangle
manglede
manglen
manglende
mangler
manhattan
mani
manifest
manila
mann
mannheim
manning
manor
mans
manson
manu
manual
manuel
manuelt
manufacturing
manus
manuskript
manuskripter
manuskriptet
manuskriptforfatter
many
manøvre
mao
maos
map
mapping
maps
mar
mara
marathon
maraton
marburg
marc
marcel
marcelo
march
marche
marchen
marchere
marcherede
marco
marcos
marcus
marcussen
mare
maren
mareridt
margaret
margareta
margaretha
marge
margit
margot
margrete
margrethe
marguerite
mari
maria
mariager
mariagerfjord
marianne
marias
maribo
marie
marienlyst
maries
marija
marilyn
marin
marina
marine
marinen
marinens
marines
marino
mario
marion
marit
maritim
maritime
marius
mark
markant
markante
marked
markeder
markedet
markedsandel
markedsføring
markedsført
markedsplads
marken
marker
markere
markerede
markerer
markeres
markeret
markering
markerne
market
marketing
markgreve
markis
marks
markt
markus
marlborough
marley
marmor
marne
marokko
marquis
marriage
married
mars
marsden
marseille
marselisborg
marsh
marshal
marshall
marsk
marskal
marstal
marstrand
marsvin
marta
martha
martial
martin
martina
martinez
martins
martinus
marts
marty
martyr
marvel
marvin
marx
marxistisk
marxistiske
mary
maryland
mas
mask
maske
masker
maskine
maskinen
maskiner
maskinfabrik
maskingevær
maskingeværer
mason
mass
massachusetts
massacre
massakre
massakren
masse
massefylde
massen
masser
massiv
massive
massivt
mast
master
masters
mat
matador
matadora
match
matchen
mate
matematik
matematiker
matematikere
matematikken
matematisk
matematiske
material
materiale
materialer
materialet
materials
materiel
materielle
math
mathbb
mathbf
mathematical
mathematics
mathias
mathiesen
mathieu
mathilde
mathrm
matilda
matilde
matrikel
matrix
mats
matt
matte
matteo
matter
mattet
matthesen
matthew
matthews
matthias
matthæus
matti
mattias
mauboy
maud
maurice
mauritius
mausoleum
mave
maven
mavens
max
maxim
maximilian
maximus
maxwell
may
maya
mayer
mayo
mayor
mazda
mb
mbox
mc
mccarthy
mccartney
mcclellan
mccoy
mcdonald
mcdonnell
mcdowell
mcgraw
mcgregor
mckinley
mclaren
mcmahon
mcmxxviii
mcpherson
md
me
meade
mean
meaning
means
meat
mechanics
mecklenburg
med
medaillen
medal
medalje
medaljen
medaljer
medaljerne
medarbejder
medarbejdere
medarbejderne
medbragte
medbringe
meddele
meddelelse
meddelelsen
meddelelser
meddeler
meddelt
meddelte
medejer
medens
medforfatter
medfølelse
medfør
medføre
medfører
medført
medførte
medgift
medhjælper
media
medical
medici
medicin
medicine
medicinsk
medicinske
medie
medien
medier
medieradet
medierne
mediernes
mediet
medieval
medina
medio
meditation
mediterranean
medium
medlem
medlemmer
medlemmerne
medlemmernes
medlemsblad
medlemskab
medlemslande
medlemsstat
medlemsstater
medlemsstaterne
medlemsstaternes
medlemstal
medley
medlidenhed
medmindre
medredaktør
medregnet
medstifter
medtaget
medvirke
medvirkede
medvirken
medvirkende
medvirker
medvirket
meel
meer
meest
meet
meeting
meets
meg
mega
megadeth
megan
megen
meget
mehdi
meier
mein
meine
mejer
mejeri
mekanik
mekanisk
mekaniske
mekanisme
mekanismer
mekka
mel
melanie
melbourne
melchior
melde
melder
meldt
meldte
melies
melissa
melk
mellem
mellemamerika
mellemklassebil
mellemkrigstiden
mellemliggende
mellemrum
mellemste
mellemstore
mellemtiden
mellemvægt
mellemøsten
melodi
melodien
melodier
melodisk
melodiske
melody
melville
member
members
memoirs
memorial
memories
memory
memphis
men
mendelssohn
mendes
mene
mener
menes
mengele
menig
menige
menighed
menigheden
menighedens
menigheder
menighedsrad
mening
meningen
meninger
menneske
menneskeheden
menneskehedens
menneskelig
menneskelige
menneskeligt
menneskeliv
menneskene
menneskenes
mennesker
menneskerettigheder
menneskerettighederne
menneskers
menneskes
menneskeskabte
mennesket
menneskets
mens
ment
mental
mentale
mentalt
mente
mentor
menzel
mer
merc
mercedes
mercer
mercury
mercy
mere
meredith
merete
merkel
merkur
merlin
merry
mertz
mesopotamien
message
messe
messen
messenger
messer
messias
messing
mest
meste
mester
mesteren
mesterholdenes
mesterskab
mesterskaber
mesterskaberne
mesterskabet
mesterværk
mestre
met
meta
metacritic
metal
metaller
metallet
metallica
metallum
meteor
meteoritics
meteorologiske
meter
meters
method
methods
metode
metoden
metoder
metres
metro
metroen
metropol
metropolis
metropolitan
metropolitanskolen
metrostation
metroxpress
mette
metz
mexican
mexicansk
mexicanske
mexico
mexicos
meyer
meyers
mf
mfl
mg
mgm
mgp
mh
mht
mhz
mi
mia
miami
michael
michaelis
michaels
michaelsen
michel
michelangelo
michele
michelin
michelle
michelsen
michigan
mick
mickey
microsoft
mid
middag
middel
middelalder
middelaldercentret
middelalderen
middelalderens
middelalderlig
middelalderlige
middelbilen
middelfart
middelhavet
middelhavsomradet
middle
middlesbrough
midi
midland
midlands
midler
midlerne
midlertidig
midlertidige
midlertidigt
midnat
midnight
midt
midtbane
midtbanespiller
midte
midten
midterforsvarer
midterste
midtfyn
midtjylland
midtjyllands
midtjyske
midtpunkt
midtvejs
midway
mie
miehe
mifflin
mig
might
mighty
migration
miguel
mika
mikael
mike
mikhail
mikkel
mikkelsen
mikroorganismer
mil
milan
milano
mild
milde
mildere
mildt
mile
miles
miley
militante
military
milits
militær
militære
militæret
militærkup
militært
militærtjeneste
miljø
miljøer
miljøet
miljøministeriet
miljømæssige
miljøstyrelsen
milk
mill
mille
millennium
miller
milliard
milliarder
millimeter
million
millioner
mills
milo
milton
milwaukee
mimi
min
mind
minde
mindede
mindedes
mindelegat
minder
mindes
mindesmærke
mindesmærker
mindesten
mindet
mindfulness
mindre
mindrearige
mindretal
minds
mindske
mindst
mindste
mine
minedrift
minen
miner
mineral
mineraler
mineralogy
minerne
minerva
ming
minh
mini
miniature
minimal
minimum
miniserie
minister
ministeren
ministerier
ministeriet
ministeriets
ministerium
ministerpræsident
ministre
ministrene
ministry
mink
minna
minnaert
minneapolis
minnesota
minogue
minor
minoritet
minoriteter
minsk
minus
minut
minute
minutes
minutter
minutters
mio
mir
mira
mirage
mirakel
miranda
miriam
mirror
misbrug
misbrugt
miserables
misforstaelse
mislykkede
mislykkedes
mislykket
miss
missil
missile
missiler
missilet
missing
mission
missionen
missioner
missions
missionsspecialist
missionær
missionærer
mississippi
missouri
mistanke
miste
mistede
mister
mistet
mistillid
mistænkt
mistænkte
misvisende
mit
mitch
mitchell
mitsubishi
mitt
mitte
mix
mixed
mj
mk
ml
mm
mma
mmajunkie
mn
mo
mobil
mobile
mobilitet
mobility
mobiltelefon
mobiltelefoner
mod
modangreb
mode
model
modelar
modellen
modeller
modellerne
models
moden
modena
moder
moderat
moderate
moderen
moderens
modern
moderne
moderniseret
modernisering
moderno
moders
modersmal
modet
modi
modificerede
modificeret
modifikationer
modig
modige
modne
modner
modsat
modsatte
modsta
modstand
modstanden
modstander
modstandere
modstanderen
modstanderens
modstanderne
modstandsbevægelse
modstandsbevægelsen
modstandsdatabase
modstandsfolk
modstandsmand
modstrid
modstridende
modstykke
modsætning
modsætningen
modsætninger
modtage
modtagelse
modtagelsen
modtager
modtagere
modtageren
modtages
modtaget
modtog
modul
moduler
modvilje
modvirke
moe
moeslund
mogens
mogensen
moh
mohamed
mohammad
mohammed
mohr
moi
mojo
mol
molde
moldova
molecular
molekyle
molekyler
molhave
moll
mollerup
molly
molotov
mols
moltke
moment
moms
mon
mona
monaco
monark
monarken
monarker
monarki
monarkiet
monchengladbach
monday
monde
money
mongolerne
mongoliet
mongolsk
mongolske
monica
monitor
monk
monkey
mono
monokromt
monopol
monrad
monroe
mons
monsieur
monster
monsters
monstre
mont
montana
monte
montenegro
monteres
monteret
montevideo
montgomery
month
monthly
montmartre
montpellier
montreal
monty
monument
monumentale
monumenter
monumentet
monuments
moon
moore
mor
mora
moral
morales
moralsk
moralske
moran
morbror
mord
mordene
morder
morderen
mordet
more
moreau
moren
moreno
morfar
morgan
morgen
morgenen
morison
moritz
mormon
mormons
mormor
morning
morris
morrison
mors
morsø
mort
morten
mortensen
mortimer
morton
mos
mosaik
moscow
mose
mosebog
mosen
moser
moses
moske
moskeen
moskeer
moskva
moskvas
moss
mosser
most
moster
mot
moth
mother
motion
motiv
motivation
motiver
motiveret
motiverne
motivet
motor
motorcykel
motorcykler
motoren
motorer
motorerne
motoriserede
motors
motorsport
motortrafikvej
motorvej
motorveje
motorvejen
motown
motto
mount
mountain
mountainbike
mountains
mountbatten
mounted
mourier
mouse
mouth
move
movement
moves
movia
movie
moviemeter
movies
moving
mozambique
mozart
mozarts
mozilla
mp
mpv
mq
mr
mrs
ms
msn
mst
mt
mtv
mu
much
mudder
muhammad
muhammed
muhammeds
muhl
muld
mulig
mulige
muliggjorde
muliggør
muliggøre
mulighed
muligheden
muligheder
mulighederne
muligt
muligvis
muller
mullers
multi
multiple
mumbai
mumlede
munch
munchen
munck
mund
munden
munder
munding
mundingen
mundtlig
mundtlige
munich
munk
munke
munken
munkene
munkesten
munksgaard
munster
munter
muntert
munthe
muntre
munzinger
mur
murder
mure
muren
murene
murermester
muret
murmansk
murphy
murphys
murray
mursten
mus
musa
muse
musee
museer
museet
museets
museo
museum
museums
museumsinspektør
music
musica
musical
musicalen
musicals
musicbrainz
musicweb
musik
musikalsk
musikalske
musiker
musikere
musikeren
musikerne
musikfestival
musikgruppe
musikinstrument
musikken
musikkens
musikkonservatoriet
musikkonservatorium
musiklærer
musikmagasinet
musikproducer
musikvideo
musikvideoen
musikvideoer
muskel
muskler
muslim
muslimer
muslimerne
muslimsk
muslimske
muslinger
mussolini
must
mustafa
mutant
mutation
mutationer
muus
mv
mvp
mw
mx
my
myanmar
myers
mygind
myldretid
myldretiden
mylius
myndig
myndighed
myndigheder
myndighederne
mynster
myrde
myrdede
myrdet
myspace
mysterier
mysteriet
mysterium
mystery
mystik
mystisk
mystiske
myte
myten
myter
myth
mythology
myths
mytiske
mytologi
mytologisk
mytologiske
mz
mægtig
mægtige
mægtigste
mælk
mælkevejen
mænd
mændene
mændenes
mænds
mængde
mængden
mængder
mængdetal
mærke
mærkede
mærkelig
mærkelige
mærkeligt
mærker
mærkes
mærket
mærsk
møbler
mød
møde
møder
møderne
mødes
mødested
mødet
mødre
mødt
mødte
mødtes
mølhave
mølle
møllen
møller
mølleren
møllers
møn
mønsted
mønster
mønstre
mønt
mønter
mønterne
mørch
møre
mørk
mørke
mørkegrøn
mørkere
mørket
mørkets
mørkt
n
n0
n1
n2
n3
n4
n5
n6
n7
n8
n9
na
naa
naade
naaede
naaet
naar
nabo
naboer
naboerne
nabokommuner
nabolandene
nabolandet
nach
nacional
nad
nadal
nade
nadia
nadver
nadveren
naede
naet
nagasaki
nagoya
naja
naked
nakke
nakken
nakskov
nal
nale
naletræer
nam
name
named
namen
names
namibia
naming
nan
nana
nancy
nanjing
nanna
nanny
nanometer
nansen
nantes
naomi
napoleon
napoleons
napoleonskrigene
napoli
nar
narkotika
narnia
narrative
narre
naruto
narva
narvik
nas
nasa
nasas
nasdaq
nash
nashville
nassau
nat
natalie
natasha
nate
nathalie
nathan
nation
national
nationalbank
nationalbanken
nationaldag
nationale
nationalforsamling
nationalforsamlingen
nationalhistoriske
nationalisme
nationalister
nationalistisk
nationalistiske
nationalitet
nationalliberale
nationalmuseet
nationalmuseets
nationalmuseum
nationalpark
nationalparken
nationalparker
nationalsang
nationalsocialistiske
nationalt
nationaløkonomisk
nationen
nationens
nationer
nationers
nations
native
natmus
nato
natrium
natten
nattens
natur
natura
naturae
natural
naturaliseret
naturbasen
nature
naturen
naturens
naturfredningsforening
naturgas
naturgeografi
naturhistorie
naturhistorisk
naturhistoriska
naturhistoriske
naturlig
naturlige
naturligt
naturligviis
naturligvis
naturomrade
naturpark
naturplanen
naturreservat
naturressourcer
naturstyrelsen
naturtyper
naturvidenskab
naturvidenskabelige
nauru
naval
navarra
navigation
navn
navne
navneforandring
navnene
navneord
navnet
navngav
navngivet
navngivne
navngivning
navnlig
navy
nazi
nazionale
nazismen
nazist
nazister
nazisterne
nazisternes
nazistisk
nazistiske
nazityskland
nb
nba
nbc
nc
nd
ne
neal
near
nebel
nebraska
ned
nedad
nedbrudt
nedbryde
nedbrydes
nedbrydning
nedbrændte
nedbør
nedbøren
nede
neden
nedenfor
nedenstaende
nedenunder
nederlag
nederlaget
nederland
nederlande
nederlandene
nederlandse
nederlandsk
nederlandske
nederlantsche
nederst
nederste
nedgang
nedgraderet
nedkæmpe
nedkæmpet
nedlagde
nedlagt
nedlagte
nedlægge
nedlæggelse
nedlæggelsen
nedlægges
nedre
nedrevet
nedrivning
nedrykning
nedsat
nedsatte
nedskrevet
nedslag
nedslagskrater
nedslidt
nedstammede
nedstammer
nedsætte
nedsættende
need
needs
neergaard
negativ
negative
negativt
neger
nei
neil
neill
nej
nekrolog
nellie
nelly
nelson
nem
nemlig
nemmere
nemt
neo
neon
nepal
nepals
neppe
neptun
nero
nerver
nervøs
nes
ness
net
netflix
netherlands
netop
netsted
nettet
netto
netværk
netværket
network
networks
neu
neue
neumann
neumunster
neustadt
neutral
neutrale
neutralitet
neutralt
neutron
neutroner
nevada
never
neville
nevø
new
newark
newcastle
newfoundland
newman
newport
news
newspaper
newton
newtons
newzealandske
next
nexø
nf
nfl
ng
ngo
nguyen
nh
nhl
ni
nibe
nicaragua
nice
nicholas
nichols
nicholson
nicht
nick
nicki
nicklas
nicky
nico
nicola
nicolai
nicolaj
nicolas
nicolaus
nicole
nicoline
niece
niederosterreich
niedersachsen
niels
nielsdatter
nielsen
nielsens
niende
nietzsche
nigel
niger
nigeria
night
nightmare
nights
nik
nike
nikita
nikkede
nikkel
niklas
nikola
nikolai
nikolaj
nikolaus
nil
nilen
nils
nilsson
nina
nine
ning
ninja
nintendo
niro
nirvana
nis
nissan
nisse
nissen
nissum
nitrogen
nitten
nittende
niva
niveau
niveauer
niveauet
nixon
nj
nk
nl
nm
nme
nn
nndb
no
noah
nobel
nobelprisen
nobelprismodtager
nobelprize
nobels
noble
nobody
node
noder
noel
nogen
nogenlunde
nogensinde
noget
nogle
noir
noise
nok
nokia
nolan
nom
nomenclature
nomenklatur
nominations
nominativ
nominees
nominerede
nomineret
nominering
nomineringer
non
nonne
nonner
noord
nor
nora
norbert
nord
nordafrika
nordamerika
nordamerikanske
nordatlanten
nordborg
nordby
norddjurs
nordea
norden
nordens
nordenskirker
nordeuropa
nordfrisisk
nordfrisiske
nordfyns
nordhavn
nordhavnen
nordic
nordirland
nordisk
nordiske
norditalien
nordjylland
nordjyllands
nordjyske
nordkorea
nordkysten
nordland
nordlandsbanen
nordlig
nordlige
nordligste
nordmænd
nordmændene
nordnorge
nordover
nordpa
nordpolen
nordre
nordrhein
nordsamisk
nordsiden
nordsjælland
nordsjællands
nordslesvig
nordstrand
nordsøen
nordtyske
nordtyskland
nordvest
nordvestlige
nordøst
nordøstlige
norfolk
norge
norges
norgeskart
norm
normal
normale
normalt
norman
normandie
normandiet
normann
normannerne
normanniske
normen
normer
norra
norris
norrkoping
norrland
norrøn
norrøne
norrønt
nors
norse
norsk
norske
norsksprogede
north
northampton
northern
northumberland
northwest
norton
norup
norway
norwegian
norwegiancharts
norwich
nos
not
notable
notat
notater
notation
note
noter
noterede
noteret
notes
nothing
notre
nottingham
nouveau
nouvelle
nov
nova
novads
novak
novel
novelle
novellen
noveller
novellesamlingen
november
novgorod
novo
now
nox
np
npr
nq
nr
nrk
ns
nsb
nsbs
nsdap
nt
nu
nuancer
nuclear
nul
nulevende
nulmeridianen
number
numbers
nummer
nummeret
numre
numrene
nur
nurnberg
nutid
nutiden
nutidens
nutidig
nutidige
nuuk
nuværende
nv
nw
nwa
nwo
nx
ny
nya
nyboder
nyborg
nybyggede
nybyggere
nybøl
nydannede
nyde
nydelse
nyder
nydt
nye
nyere
nyeste
nyfødte
nygaard
nyhavn
nyhed
nyheden
nyheder
nyhederne
nyheter
nyholm
nykøbing
nylig
nyligt
nynorsk
nyoprettede
nyrop
nyrup
nys
nysgerrighed
nysted
nyt
nytar
nytimes
nytorv
nytte
nyttig
nyttige
nyttigt
nz
næb
næbbet
nægte
nægtede
nægter
nægtet
næppe
nær
nære
nærede
nærhed
nærheden
næring
næringsrig
næringsstoffer
næringsveje
nærliggende
nærme
nærmede
nærmer
nærmere
nærmest
nærmeste
nært
nærum
nærvær
nærværelse
nærværende
næs
næsby
næse
næsehorn
næsen
næst
næstbedste
næste
næsten
næstformand
næsthøjeste
næstkommanderende
næstmest
næstsidste
næststørste
næstved
næstældste
nætter
nævn
nævne
nævner
nævnes
nævnet
nævnt
nævnte
nød
nødder
nødhjælp
nødig
nødsaget
nødt
nødvendig
nødvendige
nødvendighed
nødvendigheden
nødvendigt
nødvendigvis
nøgen
nøgle
nøglen
nøgler
nøgne
nøhr
nøjagtig
nøjagtige
nøjagtighed
nøjagtigt
nøje
nøjes
nørager
nørby
nørgaard
nørlund
nørre
nørrebro
nørrebrogade
nørrebros
nørregaard
nørregade
nørrejylland
nørreport
nørresundby
o
o0
o1
o2
o3
o4
o5
o6
o7
o8
o9
oa
oak
oakland
oasis
ob
obama
oberbayern
oberosterreich
oberpfalz
oberst
obersten
oberstløjtnant
obituary
object
objects
objekt
objekter
objektet
objektiv
oblast
oblasten
obligatorisk
obligatoriske
obo
observation
observationer
observations
observatoriet
observatorium
observatory
observer
observere
observerede
observeres
observeret
observing
oc
ocean
oceania
oceanien
och
oclc
oct
octavia
october
oculis
od
oda
odd
odde
odden
odder
odds
ode
odense
oder
odessa
odin
odins
ods
odsherred
odysseus
oe
oecd
oehlenschlager
of
off
offensiv
offensive
offensiven
offentlig
offentlige
offentliggjorde
offentliggjort
offentliggøre
offentliggørelse
offentliggørelsen
offentlighed
offentligheden
offentlighedens
offentligt
offer
offeret
office
officer
officerer
official
officiel
officielle
officielt
offshore
ofre
ofrede
ofrene
ofret
ofte
oftere
oftest
og
ogsa
ogsaa
oh
ohio
oi
oil
oj
ok
okay
okinawa
oklahoma
oksbøl
oksekød
okt
oktav
oktober
ol
ola
olaf
olafur
olav
olavs
old
oldebarn
oldefar
oldenborg
oldenburg
oldest
oldgræsk
oldhøjtysk
oldnordisk
oldtid
oldtiden
oldtidens
ole
oleg
olesen
olga
olie
olien
olier
oliveira
olivenolie
oliver
olivia
olivier
olle
olof
olrik
olsen
olsenbanden
olsens
olsson
oluf
olufsen
olympedia
olympia
olympic
olympicchannel
olympics
olympique
olympisk
olympiske
om
oman
omar
ombord
ombordværende
ombyggede
ombygget
ombygning
ombygningen
omdanne
omdannede
omdannelse
omdannes
omdannet
omdirigeres
omdiskuteret
omdr
omdrejningspunkt
omdøbt
omdøbte
omdømme
omega
omegn
omegnen
omegns
omend
omfang
omfanget
omfartsvej
omfatte
omfattede
omfattende
omfatter
omfattet
omga
omgaende
omgang
omgange
omgivelser
omgivelserne
omgivende
omgiver
omgivet
omhandlede
omhandlende
omhandler
omhu
omhyggelig
omhyggeligt
omkom
omkommer
omkommet
omkomne
omkostninger
omkostningerne
omkr
omkranset
omkreds
omkring
omkringliggende
omkvæd
omlagt
omliggende
omlægning
omløb
omme
omraade
omraader
omrade
omrader
omraderne
omradet
omradets
omrejsende
omringede
omringet
omsat
omsider
omslag
omsorg
omstilling
omstridt
omstridte
omstændighed
omstændigheder
omstændighederne
omsætning
omsætningen
omtale
omtaler
omtales
omtalt
omtalte
omtrent
omvende
omvendelse
omvendt
omvendte
omverdenen
on
once
ond
onde
ondskab
ondt
one
onkel
online
only
ono
onsdag
ontario
oo
op
opad
opbakning
opbevare
opbevares
opbevaret
opbevaring
opblomstring
opbygge
opbyggede
opbygget
opbygning
opbygningen
opdage
opdagede
opdagelse
opdagelsen
opdagelser
opdagelsesrejsende
opdager
opdaget
opdateret
opdatering
opdele
opdeles
opdeling
opdelingen
opdelt
opdragelse
opdraget
opel
open
opening
opens
opera
operaen
operaer
operasanger
operation
operationen
operationer
operations
operative
operator
operatorname
operere
opererede
opererer
opereret
opf
opfandt
opfatte
opfattede
opfattelse
opfattelsen
opfattelser
opfatter
opfattes
opfattet
opfindelse
opfindelsen
opfindelser
opfinder
opfordre
opfordrede
opfordrer
opfordret
opfordring
opfundet
opfylde
opfyldelse
opfylder
opfyldes
opfyldt
opfyldte
opføre
opførelse
opførelsen
opførelser
opfører
opføres
opførsel
opført
opførte
opførtes
opgav
opgave
opgaven
opgaver
opgaverne
opgive
opgiver
opgives
opgivet
opgjort
opgraderet
opgradering
opgør
opgørelse
opgøret
ophav
ophavsmand
ophavsret
ophold
opholde
opholder
opholdet
opholdssted
opholdt
ophængt
ophæve
ophævede
ophævelse
ophæves
ophævet
ophøjede
ophøjet
ophør
ophøre
ophører
ophørt
ophørte
opinion
opkaldt
opkaldte
opkøb
opkøbt
opkøbte
oplag
oplagt
opland
opleve
oplevede
oplevelse
oplevelsen
oplevelser
oplever
opleves
oplevet
oplyse
oplyser
oplyses
oplysning
oplysninger
oplysningerne
oplysningstiden
oplyst
oplyste
oplæg
opløse
opløses
opløsning
opløsningen
opløst
opløste
opløstes
opmuntrede
opmærksom
opmærksomhed
opmærksomheden
opna
opnaede
opnaet
opnar
opnas
oppe
opposition
oppositionen
opr
oprejst
opret
opretholde
opretholdelse
opretholdes
opretholdt
oprette
oprettede
oprettedes
oprettelse
oprettelsen
opretter
oprettes
oprettet
oprindelig
oprindelige
oprindeligt
oprindelse
oprindelsen
oprykning
oprør
oprørere
oprørerne
oprøret
oprørske
opsamling
opsamlingsalbum
opsat
opsendelsen
opsendt
opsigt
opskrift
opskrifter
opslag
opslagsordet
opslugt
opsta
opstaen
opstaet
opstand
opstandelse
opstanden
opstar
opstigende
opstille
opstillede
opstiller
opstilles
opstillet
opstilling
opstillingskreds
opstod
opsving
opsyn
opsætning
opsøge
opsøger
opsøgte
optage
optagelse
optagelsen
optagelser
optagelserne
optager
optages
optaget
optakt
optegnelser
optik
optimal
optimale
option
optisk
optiske
optog
optoges
optradt
optradte
optrin
optræde
optræden
optrædender
optrædener
optræder
optøjer
opus
opvarmning
opvokset
opvækst
oq
or
oral
orange
oranien
oranje
orchestra
ord
ordbog
ordbok
ordbøger
orde
orden
ordene
ordenen
ordenens
ordener
ordens
ordentlig
ordentlige
ordentligt
order
orders
ordet
ordets
ordfører
ordinær
ordinære
ordne
ordnede
ordner
ordnet
ordning
ordningen
ordre
ordren
ordrer
ordret
ordrup
ordspil
ordsprog
orebro
oregon
org
organ
organer
organic
organisation
organisationen
organisationens
organisationer
organisatorisk
organisatoriske
organisere
organiserede
organiserer
organiseret
organisering
organisk
organiske
organisme
organismer
organist
organization
orgel
orglet
oricon
orient
oriental
orientales
orientalsk
orientalske
orienteering
orienterede
orienteret
orientering
origin
original
originale
originalen
originalt
originaltitel
origines
origins
orion
orkan
orkanen
orkester
orkesteret
orkesterværker
orkestre
orkestret
orla
orlando
orleans
orlov
orm
ornitologisk
ortodoks
ortodokse
orton
ortsnamenlexikon
orðabok
os
osaka
osama
osborne
osbourne
oscar
oscars
oscaruddelingen
oskar
oslo
osm
osmannerne
osmannisk
osmanniske
osnabruck
osprey
oss
ost
osten
osterreich
ostersund
ostindien
ostindiske
osv
oswald
ot
other
others
otis
ottawa
otte
ottende
ottendedelsfinalerne
otter
otteren
ottesen
otto
ou
our
out
outlander
output
outside
outstanding
ouverture
ov
oval
ovale
ove
oven
ovenfor
ovennævnte
ovenover
ovenpa
ovenstaende
over
overalt
overbevise
overbevisende
overbevisning
overbevist
overbeviste
overblik
overborgmester
overbygning
overdrage
overdragelse
overdraget
overdrev
overdreven
overdrevet
overdrog
overdækket
overens
overenskomst
overensstemmelse
overfald
overfaldet
overfarten
overflade
overfladedannelser
overfladen
overflader
overfladisk
overflod
overfor
overføre
overføres
overførsel
overført
overførte
overga
overgaard
overgaet
overgang
overgangen
overgar
overgav
overgik
overgive
overgivelse
overgivet
overgreb
overherredømme
overholde
overholdt
overhoved
overhovedet
overhuset
overhængende
overhøjhed
overkommando
overlade
overladt
overlegen
overlegenhed
overlegne
overleve
overlevede
overlevelse
overlevende
overlever
overleverede
overleveret
overlevering
overlevet
overlod
overlæge
overlægen
overlærer
overnaturlige
overordentlig
overordnede
overordnet
overrakt
overraskede
overraskelse
overraskende
overrasket
overretssagfører
overs
oversat
oversatte
overset
oversiden
oversigt
oversigten
overskriften
overskud
overskuddet
overskydende
overstaet
overstiger
oversvømmede
oversvømmelse
oversvømmelser
oversvømmet
oversætte
oversættelse
oversættelsen
oversættelser
oversætter
oversættes
oversøiske
overtage
overtagelse
overtagelsen
overtager
overtaget
overtale
overtalt
overtalte
overtog
overtro
overtrædelse
overvage
overvagning
overveje
overvejede
overvejelser
overvejende
overvejer
overvejet
overview
overvinde
overvintrer
overvundet
overvægt
overvældende
overværede
ovn
ovne
ovnen
ovre
ow
owain
owen
own
ox
oxe
oxford
oxholm
oxygen
oy
oz
p
p0
p1
p2
p3
p4
p5
p6
p7
p8
p9
pa
paa
paagjældende
paany
pabegynde
pabegyndt
pabegyndte
pabegyndtes
pablo
pac
pacific
pack
padborg
padder
paddington
paddy
padrog
pafaldende
pafølgende
paført
pagasten
pagasts
page
pages
pagt
pagten
pagældende
pain
painting
pair
pais
paisjarv
pak
pakhus
pakistan
pakistans
pakistanske
pakke
pakken
pakker
pakket
pakrævet
pal
palace
palads
paladser
paladset
palagde
palagt
palais
palazzo
palermo
palestine
palgrave
pali
palidelig
palidelige
palladium
palle
pallesen
palm
palma
palme
palmer
paludan
palæ
palæet
palæstina
palæstinensisk
palæstinensiske
pamela
pan
panama
panda
pande
pandemien
panden
pandora
panel
panik
panorama
panser
panserdivision
panserskib
panserskibe
pansrede
pansret
pant
panter
pantheon
panther
panthera
panzer
paolo
pap
papa
pape
papegede
papeger
papeget
paper
paperback
papers
papir
papirer
papiret
paprika
papua
papyrus
par
para
parade
paradis
paradise
paragraf
paraguay
parallel
parallelle
paralleller
parallelt
parameter
parametre
paramount
parat
parc
parentes
paris
park
parken
parkens
parker
parkeringsplads
parks
parlament
parlamentarisk
parlamentariske
parlamentet
parlamentets
parlamentsmedlem
parlamentsvalg
parlamentsvalget
parliament
parma
parodi
parret
parrets
parsons
part
partei
parter
parterne
parti
partial
participium
partido
partier
partierne
parties
partiet
partiets
partiformand
partikel
partikler
partileder
partis
partner
partnere
partners
partnerskab
parts
party
parørende
pas
pascal
pasha
paske
pasken
pass
passage
passagen
passager
passagerer
passagererne
passagerfly
passat
passe
passede
passende
passer
passere
passerede
passerer
passeret
passes
passet
passion
passiv
passive
past
pasta
pastaede
pastaet
pastand
pastande
pastanden
pastar
pastod
pastor
pastorat
pasvaldibas
pat
patage
patent
path
patient
patienten
patienter
patienterne
patients
patog
patriark
patricia
patrick
patrik
patriot
patriotiske
patriots
patron
patrulje
pattedyr
patterns
patterson
patti
patton
patursson
paul
paula
pauli
pauline
paulo
pauls
paulsen
paulus
pause
pave
pavel
pavelige
paven
pavens
pavillon
pavirke
pavirkede
pavirker
pavirkes
pavirket
pavirkning
pavirkninger
pavise
pavist
paviste
pavlus
pax
pay
payne
pays
paz
pb
pbs
pc
pct
pd
pdf
pdsmaps
pe
peace
peak
pearl
pearson
peber
peder
peders
pedersen
pedersens
pedro
peer
peerage
pege
pegede
peger
peggy
peking
pelle
pels
pelsen
pen
pendant
penelope
penge
pengene
pengesedler
penguin
peninsula
penis
penn
pennsylvania
penny
pension
pensioneret
pensionering
pentagon
people
peoples
pepper
per
perception
percussion
percy
perez
perfect
perfekt
perfekte
performance
period
periode
perioden
periodens
perioder
periodisk
periodiske
perkins
perle
perler
perm
permanent
permanente
pernille
perpignan
perron
perronen
perroner
perronerne
perry
pers
perserne
perseus
persian
persien
persisk
persiske
person
personal
personale
personalet
personalhistorisk
personalunion
personbiler
personel
personen
personens
personer
personerne
personers
personlig
personlige
personlighed
personligheder
personligt
persons
persontog
persontrafikken
perspective
perspectives
perspektiv
perspektiver
persson
perth
peru
pest
pesten
pet
pete
peter
peters
petersborg
petersburg
petersen
petersens
peterson
petit
petra
petri
petroleum
petter
pettersson
peugeot
pf
pfa
pfalz
pg
pga
ph
phantom
phase
phd
phi
phil
philadelphia
philip
philipp
philippe
philips
philipsen
philipsens
phillip
phillips
philosophical
philosophie
philosophy
phoebe
phoenix
phonographic
photo
photos
php
physical
physics
pi
pia
pianist
pianisten
piano
piazza
pibe
pic
picasso
piccadilly
pick
pickett
picture
pictures
pie
piece
pieces
piemonte
pierce
pierre
piet
pieter
pieters
pietro
pige
pigen
pigenavn
piger
pigerne
piges
pihl
pil
pilatus
pile
pilgaard
pilgrimme
pille
piller
pilot
piloten
piloter
piloterne
pind
pine
ping
pink
pinneberg
pinus
pinyin
pio
pioneer
pioner
pionerer
piotr
piper
pirater
pirates
pisa
pistol
pitch
pitt
pittsburgh
pius
pizza
pj
pjotr
pk
pkt
pl
place
placere
placerede
placerer
placeres
placeret
placering
placeringen
placeringer
placeringerne
placeringsinddeling
places
plade
pladekontrakt
pladen
plader
pladerne
pladeselskab
pladeselskaber
pladeselskabet
plads
pladsen
pladser
pladserne
plage
plaget
plain
plains
plakat
plakater
plan
plane
planen
planer
planerne
planet
planetary
planetarynames
planeten
planeter
planlagde
planlagt
planlagte
planlægge
planlægger
planlægning
planlægningen
planning
plans
plant
plantage
plantagen
plantagenet
plantager
plante
plantearter
planten
plantens
planter
planterne
planternes
plantesamfund
plantet
plants
plasma
plast
plastic
plastik
plat
plate
plateau
plateauet
platform
platforme
platformen
platin
platinum
platon
platons
plattysk
play
playboy
played
player
players
playing
playoff
plays
playstation
plaza
plc
please
pleje
plejede
plejehjem
plejer
plesner
plessen
plet
pletter
pligt
pligter
plinius
plo
plon
plot
plottet
ploug
pludselig
pludselige
pludseligt
plum
pluralis
plus
pluto
plutonium
plymouth
plyndrede
plyndret
plyndringer
pm
pmatrix
pmc
pmid
pn
pnas
po
pocket
podcast
poe
poems
poesi
poet
poetisk
poetiske
poetry
point
pointe
points
poirot
poitiers
pokal
pokalen
pokalfinalen
pokaltitler
pokalturnering
pokalturneringen
pokalvindernes
pokemon
poker
pol
polakker
polakkerne
poland
polar
pole
polemik
polen
polens
police
policy
poliitikko
polish
polit
politi
politibetjent
political
politics
politiet
politiets
politifolk
politik
politiken
politikens
politiker
politikere
politikeren
politikerne
politikken
politimand
politimester
politisk
politiske
poll
polo
polsk
polske
polyt
polyteknisk
pommern
pont
ponte
pontoppidan
pony
pool
poor
pop
pope
popolazione
popular
popularitet
population
populær
populære
populært
por
porcelæn
porno
porsche
porse
porsmose
port
portail
portal
portalen
porte
portefølje
porten
porter
portion
portland
porto
portrait
portræt
portrætfilm
portrætmaler
portrætmaleri
portrætter
portrætteret
portrættet
portsmouth
portugal
portugals
portugiserne
portugisisk
portugisiske
portuguesa
pose
posen
position
positionen
positioner
positions
positiv
positive
positivt
possible
post
postbutik
postdistrikt
posten
postens
poster
posthumt
posthus
postkontor
postkontoret
postkort
postnummeret
pot
potential
potentiale
potentiel
potentielle
potentielt
potomac
potsdam
potter
poul
poulsen
poulsens
pour
povl
povlsen
powell
power
powers
poznan
pp
pq
pr
practical
practice
pradesh
prag
pragt
praksis
praktiserede
praktiserende
praktiseret
praktisk
praktiske
pram
pratt
praxis
pre
preben
precure
preisler
premier
premiere
premieren
premierløjtnant
premierminister
premierministeren
pres
present
presents
president
presidential
presley
press
presse
pressede
pressemeddelelse
pressemøde
pressen
presser
presses
presset
pressure
prestige
prestigefyldte
preston
pretty
preussen
preussens
preussisk
preussiske
prevention
price
pride
priest
prikker
prima
primary
prime
primera
primitiv
primitive
primo
primtal
primær
primære
primærrute
primært
prince
princess
princeton
princip
principal
principe
principielt
principles
principper
principperne
princippet
prins
prinsen
prinsens
prinser
prinsesse
prinsessen
print
printing
prior
prioritet
prirucka
pris
prisen
priser
priserne
prison
privat
private
privatejet
privatliv
privatskole
privilegier
privilegium
prix
prize
pro
problem
problematisk
problemer
problemerne
problemet
problems
problemstillinger
procedure
procedurer
proceedings
procent
proces
process
processen
processer
processing
procyclingstats
producent
producenten
producenter
producenterne
producer
producere
producerede
produceren
producerer
produceres
produceret
product
production
productions
products
produkt
produkter
produkterne
produktet
produktion
produktionen
produktioner
produktiv
produktive
prof
profession
professional
professionel
professionelle
professionelt
professionnel
professor
professorat
professoren
professorer
profet
profeten
profeter
profil
profile
profiler
profit
program
programme
programmer
programmering
programmeringssprog
programmerne
programmet
programmets
programming
progress
progressiv
progressive
project
projects
projekt
projekter
projektet
projektets
proklamerede
prolog
prometheus
prominent
prominente
promovere
proof
propaganda
properties
proprietær
prosa
prospector
prostituerede
prostitueret
prostitution
protection
protein
proteiner
protektor
protektorat
protest
protestanter
protestantisk
protestantiske
protester
protesterede
protesterne
proto
protocol
protokol
protokollen
protokoller
proton
protoner
prototype
prototypen
prototyper
protour
provence
provins
provinsen
provinsens
provinser
provinserne
provisoriske
provst
provsten
provsti
prunus
præ
præcis
præcise
præcision
præcist
prædikant
prædike
prædiken
prædikener
prædikestol
prædikestolen
præfektur
præfekturet
præg
præge
prægede
præger
præges
præget
prægtige
præmie
præmieret
præmiesum
præsens
præsentation
præsentere
præsenterede
præsenterer
præsenteres
præsenteret
præsident
præsidenten
præsidentens
præsidenter
præsidentkandidat
præsidentvalg
præsidentvalget
præst
præstation
præstationer
præstegaard
præstegard
præstegarden
præsten
præstens
præster
præsterne
præstø
prøve
prøvede
prøven
prøver
prøvet
prøvetræning
ps
psa
psc
pseudonym
pseudonymet
psi
psv
psychiatry
psychology
psykiater
psykiatri
psykiatrisk
psykiatriske
psykisk
psykiske
psykolog
psykologi
psykologisk
psykologiske
psykoterapi
pt
pu
pub
publ
public
publication
publications
publicerede
publiceret
publikation
publikationer
publikum
publikums
published
publisher
publishers
publishing
puerto
puggaard
puk
pulje
puljer
puls
pulse
pulver
pumpe
pumper
pumpkins
punch
pund
punjab
punk
punkt
punkter
punktet
punktum
pure
purple
pusher
put
putin
putnam
pv
pw
px
py
pyeongchang
pynt
pyramide
pyrenees
pyrenæerne
python
pz
pædagog
pædagogik
pædagogisk
pædagogiske
pæle
pæn
pæne
pænt
pære
q
q0
q1
q2
q3
q4
q5
q6
q7
q8
q9
qa
qaeda
qatar
qb
qc
qd
qe
qf
qg
qh
qi
qin
qing
qj
qk
ql
qm
qn
qo
qp
qq
qr
qs
qt
qu
quad
qualification
qualifying
quality
quantum
quartal
quarter
quarterly
quartet
que
quebec
queen
queens
queensland
quentin
quercus
query
quest
question
questions
qui
quick
quiet
quincy
quinn
quist
quiz
quo
quotient
qv
qw
qx
qy
qz
r
r0
r1
r2
r3
r4
r5
r6
r7
r8
r9
ra
raa
raab
raabe
raabte
raad
rab
rabat
rabaul
rabbit
rabe
raben
raber
rabte
race
racen
racer
racerkører
races
rachel
racing
racisme
racistiske
rad
radar
rade
radede
rader
radet
radets
radgivende
radgiver
radgivere
radgivning
radhus
radhuset
radhuspladsen
radiation
radical
radighed
radikal
radikale
radikalt
radio
radioaktive
radioaktivt
radioen
radioprogram
radios
radiostation
radiostationer
radiovært
radius
radmand
rads
raf
rafael
rafn
rage
rager
ragnar
ragnarok
ragnhild
rahbek
rahman
raid
raider
raiders
rail
railroad
railway
railways
rain
rainbow
rainer
rajon
raket
raketter
rakte
ralf
rally
ralph
ram
rama
ramirez
ramme
rammen
rammer
rammerne
rammes
ramon
ramos
ramsar
ramsay
ramt
ramte
ran
rana
ranch
rand
randall
randen
randers
random
randy
rang
range
ranger
rangerede
rangerende
rangeret
rangering
rangers
rangle
rangliste
rank
ranking
rankings
rantzau
raoul
rap
raphael
rapid
rapper
rapperen
rapport
rapporten
rapporter
rapporterede
rapporteret
rare
rart
ras
rasede
rasende
raseri
rask
raske
raskolnikow
rasmus
rasmussen
rasmussens
rasted
rastoffer
rasumichin
rat
rate
ratificeret
rating
ratings
ratio
rationel
rationelle
raul
rav
ravarer
raven
ravenna
ravn
ravnen
raw
ray
raymond
rb
rc
rca
rd
rdl
re
reach
read
reader
reading
readings
ready
reagan
reagere
reagerede
reagerer
reaktion
reaktionen
reaktioner
real
realdania
realeksamen
realisere
realiseret
realisme
realistisk
realistiske
realitet
realiteten
reality
really
realms
realskole
realunion
reason
reb
rebecca
rebel
rebild
receiver
recent
receptor
receptorer
record
recorded
recording
recordings
records
recovery
red
redaktion
redaktionen
redaktør
redaktører
redde
reddede
redder
reddet
rede
redegørelse
reden
rederi
rederiet
redigerede
redigeret
redning
redskab
redskaber
reducere
reducerede
reducerer
reduceres
reduceret
reduktion
ree
reed
reedtz
reel
reelle
reelt
reenberg
reent
reeves
ref
referat
reference
referencer
referer
referere
refererede
refererer
refereret
reflekterer
refn
reform
reformation
reformationen
reformen
reformer
reformerte
rege
regel
regelmæssig
regelmæssige
regelmæssigt
regensburg
regent
regenter
regere
regerede
regerende
regeret
regering
regeringen
regeringens
regeringer
regeringerne
regerings
regeringschef
regeringsmagten
regeringstid
reggae
regi
regierungsbezirk
regime
regiment
regimenter
regimentet
regimet
regina
reginald
region
regional
regionale
regionalt
regionaltog
regionen
regionens
regioner
regionerne
regions
regis
register
registre
registrere
registrerede
registreres
registreret
registrering
regitze
regjeringen
reglen
regler
reglerne
regn
regne
regnede
regnedes
regnen
regner
regnes
regnet
regning
regnskab
regnskaber
regnskov
regulere
regulerer
reguleres
reguleret
regulering
regulær
regulære
reich
reichhardt
reid
reign
reilly
reimer
reims
reinhard
reinhardt
reinhold
reise
reiste
reitzel
reitzels
rejse
rejseholdet
rejselegat
rejsen
rejsende
rejser
rejst
rejste
reklame
reklamefilm
reklamer
rekognoscering
rekonstrueret
rekonstruktion
rekord
rekorden
rekorder
rekordliste
rekreative
rekrutteret
rektor
related
relaterede
relateret
relation
relationer
relations
relativ
relative
relativitetsteori
relativt
relay
release
released
releases
relevans
relevant
relevante
relief
relieffarver
relieffer
religion
religionen
religioner
religions
religionsfrihed
religious
religiøs
religiøse
religiøst
rem
remains
rembrandt
remee
remember
remise
remix
ren
renaissance
renard
renata
renault
rende
rendsborg
rene
renee
rengøring
renhed
reno
renoveret
renovering
renoveringen
rensdyr
rense
renset
rent
rente
rentekammeret
renter
renæssance
renæssancen
renæssancens
reparation
reparationer
reparere
repareret
repertoire
report
reportage
reporter
reports
reprint
reproduktion
reprotryk
repræsentant
repræsentanter
repræsentanternes
repræsentantskab
repræsentantskabet
repræsentation
repræsentative
repræsentere
repræsenterede
repræsenterer
repræsenteres
repræsenteret
republic
republik
republikanerne
republikansk
republikanske
republikken
republikkens
republikker
requiem
res
rescue
research
resen
reservatet
reserve
reservedele
reserven
reserver
reserveret
reservoir
residens
resident
residente
resistance
resolution
resort
resource
resources
respekt
respektere
respekterede
respekteret
respektive
respons
response
ressourcer
rest
restaurant
restauranten
restauranter
restaureret
restaurering
restaureringen
resten
rester
resterende
resterne
restriktioner
result
resultat
resultater
resultaterne
resultatet
resultere
resulterede
resulterende
resulterer
resulteret
results
resume
ret
retfærdig
retfærdige
retfærdighed
retlige
retning
retningen
retninger
retningslinjer
retorik
retrieved
retsinformation
retskrivning
retssag
retssagen
retssager
retsvidenskab
retsvæsen
rette
rettede
retten
rettens
retter
rettere
rettes
rettet
rettigheder
rettighederne
retur
return
returnerede
returns
reumert
reunion
reuter
reuters
rev
revanche
revealed
reveals
revenge
reventlow
revet
reviderede
revideret
review
reviews
revised
revision
revisited
revisor
revival
revner
revolution
revolutionary
revolutionen
revolutionær
revolutionære
revolver
revue
revy
revyen
rex
rey
reyes
reykjavik
reynolds
rf
rfc
rg
rh
rhein
rheinland
rhinen
rho
rhode
rhodes
rhododendron
rhodos
rhone
rhys
rhythm
ri
riaa
ribe
ric
rica
ricardo
rice
rich
richard
richards
richardson
richie
richmond
richter
rick
ricky
rico
ridder
riddere
ridderen
ride
rider
ridge
rie
riegels
rifbjerg
riffel
rifler
rig
riga
rigas
rigdom
rigdomme
rige
rigelig
rigeligt
riger
rigere
riges
rigeste
riget
rigets
right
rights
rigmor
rigsarkivet
rigsdag
rigsdagen
rigsdagens
rigsdaler
rigsforsamling
rigshospitalet
rigskansler
rigsrad
rigsradet
rigsretten
rigsvej
rigt
rigtig
rigtige
rigtignok
rigtigt
rihanna
riis
rikke
riksdagen
riksmuseet
riley
rim
rimelig
rimeligt
rimeligvis
ring
ringe
ringede
ringen
ringenes
ringer
ringere
ringeste
ringhof
ringkjøbing
ringkøbing
rings
ringsted
ringvej
rinpoche
rinville
rio
rip
ripper
ris
rise
risikere
risikerer
risiko
risikoen
rising
risk
risskov
rist
rita
ritchie
ritmester
ritter
ritual
ritualer
rituelle
ritzau
ritzaus
rival
rivaler
rivaliserende
rivalisering
rive
river
rivera
rivers
rives
rj
rk
rl
rm
rn
rna
ro
roach
road
roads
roald
roar
rob
robbie
robert
roberto
roberts
robertson
robin
robinson
robot
robotter
robust
rochester
rock
rockband
rockefeller
rocker
rocket
rockgruppe
rocks
rocky
rod
rode
roden
rodgers
rodnettet
rodney
rodrigo
rodrigues
rodriguez
rodsystemet
roede
roer
roere
rogaland
roger
rogers
rogue
rohde
roi
roklub
roland
role
rolf
rolig
rolige
roligt
roll
rolle
rollelisten
rollen
roller
rollerne
rollespil
rolling
rolls
rom
roma
roman
romance
romanen
romaner
romanerne
romani
romania
romano
romansk
romanske
romantik
romantikken
romantisk
romantiske
rome
romeo
romere
romerne
romernes
romerriget
romerrigets
romersk
romerske
rommel
roms
romsdal
ron
ronald
ronaldo
rong
roning
ronnie
room
rooney
roos
roosevelt
root
roots
ror
rory
ros
rosa
rose
rosen
rosenberg
rosenborg
rosendahl
rosendal
rosenholm
rosenkilde
rosenkrantz
rosenstand
rosenørn
roser
roses
rosie
rosinante
rosing
roskilde
ross
rossi
rost
roste
roster
rostock
rostov
rostrup
rotation
roterende
roterer
roth
rothe
rotten
rotter
rotterdam
roubaix
rouen
rouge
rough
round
rousseau
roussillon
route
routledge
rovdyr
rover
rovers
row
rowing
rowling
roy
royal
royale
royce
rp
rpm
rq
rr
rs
rsssf
rt
ru
ruben
rubin
ruby
ruc
rud
rude
ruder
rudersdal
rudi
rudkøbing
rudolf
rudolph
rudy
rue
rufus
rug
rugby
rugen
ruhr
ruin
ruinen
ruiner
ruinerne
rukl
rule
rules
rulle
rullede
rullende
ruller
rum
rumble
rumfang
rumfærge
rumfærgen
rumme
rummede
rummer
rummet
rumstation
rumstationen
rumænien
rumæniens
rumænsk
rumænske
run
runciman
rund
runde
rundede
runder
rundt
rune
runeberg
runer
runesten
rungsted
runner
running
runoilija
runs
rupert
rus
rush
rushdie
rusland
ruslands
russell
russere
russerne
russia
russian
russisk
russiske
russo
rust
rustning
rute
ruten
ruter
ruth
rutherford
rv
rvar
rw
rwanda
rx
ry
ryan
rydde
ryddet
ryder
rye
ryg
ryge
ryger
ryggen
rygning
rygte
rygter
rygterne
rygtet
ryk
rykke
rykkede
rykker
rykket
ryslinge
ryste
rystede
rystet
rytme
rytmeguitar
rytmer
rytmisk
rytmiske
rytter
ryttere
rytterne
ryu
ryvangen
rz
rædsel
række
rækkefølge
rækkefølgen
rækkehuse
rækken
rækker
rækkerne
rækkevidde
ræv
ræven
rød
rødbrun
rødby
rødder
rødderne
rødding
røde
rødliste
rødovre
rødt
røg
røgen
røget
rømer
rømø
røn
rønde
rønne
rør
rørbæk
rørdam
røre
rørende
rører
røres
røret
rørt
rørte
røst
røvere
røveri
s
s0
s1
s2
s3
s4
s5
s6
s7
s8
s9
sa
saa
saab
saadan
saadanne
saadant
saae
saakaldte
saale
saaledes
saalænge
saameget
saamænd
saar
saare
saasnart
saasom
saavel
saavidt
sabbath
sabel
sabine
sabotage
sabre
sachs
sachsen
sacramento
sacred
sad
sadan
sadanne
sadant
saddam
sadolin
safari
safe
safety
safremt
saft
sag
saga
sagaen
sagaer
sagan
sagar
sagde
sage
sagen
sagens
sager
sagerne
sagfører
sagn
sagnet
sags
sagsøgte
sagt
sagte
sagtens
sahara
said
saint
sainte
saints
sakaldt
sakaldte
saker
sakskøbing
sakuntala
sal
saladin
salat
sale
saledes
salen
sales
salg
salget
salig
salisbury
salling
sally
salman
salme
salmebog
salmer
salmonsen
salmonsens
salomon
salomonsen
salomonøerne
salon
salt
salte
saltet
saltvand
salvador
salzburg
sam
samantha
samarbejde
samarbejdede
samarbejder
samarbejdet
samarbejdspartnere
same
samfund
samfundet
samfundets
samfunds
samfundsfag
samfundsmæssige
samfundsvidenskab
samfundsvidenskabelige
sami
samisk
samiske
samle
samlede
samledes
samleje
samler
samlere
samles
samlet
samling
samlingen
samlinger
samlingerne
samlingssted
samliv
samme
sammen
sammenbrud
sammenfaldende
sammenhæng
sammenhænge
sammenhængen
sammenhængende
sammenlagt
sammenlign
sammenligne
sammenlignede
sammenligner
sammenlignes
sammenlignet
sammenligning
sammenligninger
sammenlægning
sammenlægningen
sammenløbet
sammensat
sammensatte
sammenslutning
sammenslutningen
sammenstød
sammensværgelse
sammensætning
sammensætningen
sammentrækning
sammesteds
samoa
sampa
samrad
samson
samspil
samspillet
samsø
samsøe
samt
samtale
samtalen
samtaler
samtgemeinde
samtid
samtiden
samtidens
samtidig
samtidige
samtidigt
samtlige
samtykke
samuel
samuelsen
samurai
samvirke
samvittighed
san
sanchez
sand
sandberg
sande
sandede
sandelig
sander
sanders
sandet
sandhed
sandheden
sandheder
sandra
sands
sandsten
sandsynlig
sandsynlige
sandsynlighed
sandsynligheden
sandsynligt
sandsynligvis
sandt
sandwich
sandy
sang
sange
sangen
sangene
sangens
sanger
sangere
sangeren
sangerinde
sangerinden
sangskriver
sangtekster
sank
sankt
sanktioner
sanne
sans
sanser
sanskrit
sant
santa
santana
santiago
santo
santos
sao
sapiens
sar
sara
sarah
sarajevo
sarbar
sarbare
sardinien
sardisk
sare
sarede
sareen
saret
sars
sartre
sas
sasom
sasuke
sat
satan
satans
satellit
satellite
satellitkratere
satellitkraterets
satellitter
satire
satirisk
satiriske
sats
satse
satsede
satser
satte
sattes
saturday
saturn
sauce
saudi
saul
saunders
savage
savannah
save
savel
savn
savnede
savner
savnet
savoyen
saw
sawyer
saxo
saxofon
saxon
say
says
sb
sbs
sc
scala
scale
scandia
scandinavia
scandinavian
scarlett
scavenius
scene
scenen
scener
scenerne
scenes
schack
schalke
schaumburg
schedule
scheel
schelde
scherfig
schilderessen
schiller
schimmelmann
schlegel
schlesien
schleswig
schloss
schluter
schmidt
schmidts
schneider
schonberg
school
schools
schou
schouburgh
schram
schriften
schroder
schrøder
schubert
schultz
schulz
schumacher
schumann
schuster
schutz
schwaben
schwartz
schwarz
schweiz
schweizisk
schweiziske
schwerin
schøller
schønberg
sci
science
sciencedaily
sciences
scient
scientific
scientist
scientists
scocozza
scope
score
scorede
scorende
scorer
scores
scoret
scoring
scoringer
scotia
scotland
scott
scottish
scotts
scream
screen
script
scroll
sct
sd
sde
sdfe
sdr
sdu
se
sea
seal
sean
search
sears
seas
season
seasons
seat
seattle
sebastian
sebastien
secher
second
secret
secretary
secrets
section
security
sed
sedan
sedler
see
seebach
seeberg
seedede
seedet
seen
seer
seere
seerne
seertal
sees
seet
seg
segeberg
segl
segment
sehested
seidelin
seidenfaden
sein
seine
seinen
sejl
sejlads
sejladsen
sejle
sejlede
sejler
sejlet
sejr
sejre
sejrede
sejren
sek
sekondløjtnant
sekretariat
sekretær
seks
seksdagesløb
seksten
seksualitet
seksuel
seksuelle
seksuelt
sektion
sektioner
sektor
sektorer
sekulære
sekund
sekunder
sekundet
sekundær
sekundære
sekundærrute
sekvens
sekvenser
select
selected
selection
selektion
self
selling
selma
selskab
selskaber
selskabet
selskabets
selskabs
selv
selvbiografi
selvbiografiske
selve
selvejende
selvfølgelig
selvmord
selvom
selvportræt
selvsamme
selvstyre
selvstyrende
selvstændig
selvstændige
selvstændighed
selvstændigt
selvtillid
semi
semifinale
semifinalen
semifinaler
semifinalerne
seminar
seminariet
seminarium
sen
senat
senate
senatet
senator
senatorer
send
sende
sender
sendes
sendt
sendte
sendtes
sene
seneca
senegal
senere
senest
seneste
seng
senge
sengekanten
sengen
sengotisk
senior
seniorkarriere
senmiddelalderen
sensation
sense
sensommeren
sent
seoul
sep
separat
separate
separeret
sept
september
ser
serampore
serbere
serbien
serbisk
serbiske
serena
serge
sergei
sergej
sergent
sergio
serie
seriemorder
serien
seriens
serier
serierne
series
seriøs
seriøse
seriøst
serum
server
servere
serveres
serveret
service
services
ses
session
sessions
set
sete
seth
sets
settlement
seven
seventh
several
severin
sevilla
seværdigheder
sex
sexual
seymour
sf
sfo
sg
sh
shackleton
shaded
shadow
shadows
shady
shah
shake
shakespeare
shakespeares
shall
shan
shane
shanghai
shania
shannon
shape
share
sharon
sharp
sharpe
shaun
shaw
shawn
she
sheet
sheffield
sheikh
shell
shelley
shepard
shepherd
sherdog
sheridan
sheriff
sherlock
sherman
shetland
shi
shia
shield
shin
shine
ship
shipping
ships
shirley
shock
shooting
shop
shore
short
shorts
shot
should
show
showet
showets
shows
shrewsbury
shu
si
sia
siam
sibelius
sibirien
sibiriske
sibylla
sic
sich
sichuan
sicilien
sid
sidde
siddende
siddepladser
sidder
siddet
side
sideløbende
siden
sidenhen
sider
siderne
siderødder
sides
sidespor
sidney
sidse
sidsel
sidst
sidste
sidstnævnte
sie
siecle
siege
siegel
siegfried
siemens
siena
sierra
sif
sig
sige
sigende
siger
siges
sigfred
sigismund
sigma
sigmund
sign
signal
signaler
signalet
signatur
signe
signs
sigrid
sigt
sigte
sigtede
sigter
sigtet
sigurd
sik
sikes
sikker
sikkerhed
sikkerheden
sikkerheds
sikkerhedsrad
sikkert
sikre
sikrede
sikrer
sikres
sikret
sikring
silas
sild
silence
silent
silicium
silja
silke
silkeborg
silkevejen
silkevejene
silla
silva
silvas
silver
silvio
simmons
simon
simone
simons
simonsen
simpel
simpelt
simpelthen
simple
simpleste
simpson
simpsons
sims
sin
sinai
since
sinclair
sind
sindberg
sinde
sindet
sinding
sindssyg
sindssyge
sine
sinfonietta
sing
singapore
singer
singh
single
singlen
singler
singlerne
singles
singlesculler
sint
sinus
sir
sirius
sisimiut
sister
sisters
sit
sitcom
site
sites
situation
situationen
situationer
siumut
siv
sivas
six
size
sj
sjette
sjov
sjove
sjovt
sjæl
sjælden
sjældent
sjældne
sjældnere
sjæle
sjælen
sjælens
sjælland
sjællands
sjællandske
sk
ska
skaarup
skab
skabe
skabelon
skabelse
skabelsen
skaber
skaberen
skabes
skabning
skabninger
skabt
skabte
skabtes
skade
skadede
skadelige
skaden
skader
skaderne
skadet
skaffe
skaffede
skaffer
skaffet
skagen
skagens
skagerrak
skaits
skak
skakspiller
skal
skala
skalaen
skalk
skaller
skam
skandale
skandalen
skanderborg
skandinavien
skandinaviens
skandinavisk
skandinaviske
skane
skanes
skanse
skansen
skanske
skar
skare
skaret
skarp
skarpe
skarpt
skat
skatte
skatten
skatter
ske
skee
skeel
skeer
skel
skelet
skelne
skelner
skelnes
skema
skepsis
skeptisk
sker
sket
sketch
skete
ski
skib
skibe
skibene
skibenes
skibet
skibets
skibsfart
skibsfarten
skibsreder
skibsværft
skidt
skien
skift
skifte
skiftede
skiftende
skifter
skiftes
skiftet
skiftevis
skik
skikke
skikkelse
skikkelser
skildre
skildrede
skildrer
skildres
skildret
skildring
skildringer
skille
skiller
skilles
skilling
skilsmisse
skilt
skilte
skiltes
skiløb
skin
skind
skinne
skinnede
skinnende
skinner
skinnerne
skipper
skitse
skitser
skive
skiver
skizofreni
skjern
skjold
skjoldenæsholm
skjoldet
skjul
skjule
skjuler
skjult
skjulte
skjød
skjøndt
skjønhed
skjønne
skjønt
sko
skoda
skole
skoleelever
skolegang
skolekom
skolelærer
skolemand
skolen
skolens
skoler
skolerne
skoles
skomager
skotland
skotlands
skotsk
skotske
skou
skov
skovbakken
skovbrug
skovbryn
skovby
skove
skoven
skovene
skovens
skovgaard
skovlunde
skovomrade
skovomrader
skovshoved
skra
skram
skraninger
skrat
skred
skreg
skrev
skrevet
skrevne
skribent
skribenter
skrider
skridt
skrift
skriften
skrifter
skriftet
skriftlig
skriftlige
skriftligt
skriftsprog
skrifttegn
skrig
skriv
skrive
skrivelse
skriver
skrives
skrivning
skrog
skroget
skrubbeltrang
skrue
skruer
skrædder
skræk
skræmme
skræmmende
skrænter
skrøbelige
skt
skubbe
skubbede
skubbet
skud
skudar
skuddene
skuddet
skudt
skue
skueplads
skuespil
skuespiller
skuespillere
skuespilleren
skuespillerinde
skuespillerinden
skuespillerne
skuespillerskolen
skuespillet
skuffelse
skuffende
skuffet
skulde
skuldelev
skulder
skulderen
skuldre
skuldrene
skulle
skulptur
skulpturen
skulpturer
skum
skurk
sky
skyde
skyder
skydes
skydevaben
skydning
skyer
skyerne
skygge
skyggen
skygger
skyggevirkninger
skyld
skylden
skylder
skyldes
skyldig
skyldige
skyldsat
skyldte
skyldtes
skyndte
skytshelgen
skytte
skyttegrave
skytten
skywalker
skæbne
skæbnen
skæg
skæl
skælskør
skænderi
skænkede
skænket
skær
skærbæk
skære
skærer
skæres
skærm
skærme
skærmen
skæve
skød
skøjter
skøn
skønhed
skønheden
skønlitteratur
skønlitterære
skønne
skønnes
skønt
skøre
skørping
sl
sla
slaa
slaaet
slaar
slaet
slag
slagelse
slagene
slaget
slagmark
slagmarken
slags
slagskib
slagskibe
slagsmal
slagter
slagtilfælde
slagtøj
slagvolume
slam
slang
slange
slanger
slangerup
slank
slanke
slap
slar
slas
slave
slavehandel
slaver
slaveri
slaveriet
slaverne
slavisk
slaviske
slayer
sleep
slem
slemt
slesvig
slesvigs
slesvigske
slet
slette
sletten
sletter
slettet
slid
slide
slidt
slien
slig
slige
sligt
slik
slim
slip
slipknot
slippe
slipper
slips
slog
slogan
slot
slots
slotsholmen
slotskirke
slott
slotte
slottet
slottets
slovakiet
slovakisk
slovakiske
slovenien
slovensk
slovenske
slow
slukke
slukket
sluppet
sluse
sluser
slut
slutning
slutningen
slutrunde
slutrunden
slutrunder
slutspil
slutspillet
slutte
sluttede
slutter
sluttet
sly
slægt
slægten
slægtens
slægter
slægtning
slægtninge
slægtskab
sløjd
slør
sløret
sm
sma
smaa
smackdown
smag
smagen
smager
smal
smaland
smalbladet
small
smalle
smallere
smalt
smart
smash
smashing
smat
smed
smedje
smelte
smeltede
smelter
smeltet
smerte
smerter
smetana
smide
smider
smidt
smidth
smil
smile
smilede
smilende
smiler
smilte
smith
smiths
smithsonian
smitte
smittede
smittet
sml
smoke
sms
smst
smuk
smukke
smukkeste
smukt
smule
smykker
smør
smørum
sn
snak
snake
snakke
snakkede
snakker
snarere
snarest
snart
sne
snede
snedker
sneen
snehvide
snes
snit
snl
snoede
snoop
snor
snorre
snorri
snow
snyder
snydt
snæver
snævert
snævre
so
soc
soccer
soccerbase
soccerdonna
soccerway
social
socialdemokrater
socialdemokraterne
socialdemokratiet
socialdemokratiets
socialdemokratisk
socialdemokratiske
sociale
socialisme
socialismen
socialist
socialister
socialistisk
socialistiske
socialminister
socialt
societe
society
sociolog
sociologi
socken
socrates
sodavand
sodra
soe
sofa
sofaen
sofia
sofie
soft
software
sofus
sogn
sogne
sognekirke
sognekommune
sognekommuner
sognepræst
sognet
sognets
sogns
sohn
soil
sojuz
sokkel
sokrates
sol
sola
solar
solberg
solbjerg
sold
soldat
soldaten
soldater
soldaterne
soldier
soldiers
solen
solens
solgt
solgte
solgtes
solid
solidaritet
solide
solidt
solist
solister
sollys
solnedgang
solo
soloalbum
solokarriere
solomon
solopgang
solrød
solskin
solsystemet
som
somalia
somaliland
some
somebody
somerset
something
somme
sommer
sommeren
sommerfugl
sommerfugle
sommerhalvaret
sommerhus
sommerhuse
sommerlege
sommetider
somre
son
sonata
sonate
sonden
song
songs
songwriter
sonic
sonja
sonne
sonny
sons
sony
soon
sophia
sophie
sophus
sopran
sopranos
sorg
sorgen
sorgenfri
sorger
sort
sorte
sortehavet
sorter
sorteret
sorø
soul
sound
soundcloud
sounds
soundtrack
soundtracket
soundvenue
source
sources
sous
south
southampton
southern
souza
sov
sove
sovende
sover
soviet
sovjet
sovjetisk
sovjetiske
sovjetrepublik
sovjetunionen
sovjetunionens
sp
spa
space
spain
spalte
spang
spanien
spaniens
spanierne
spanish
spansk
spanske
spar
spare
sparekasse
sparekassen
spark
sparks
sparre
sparta
spartak
spd
speak
speaker
spears
special
speciale
specialiserede
specialiseret
specialist
specialkarakter
speciel
specielle
specielt
species
specifik
specifikationer
specifikke
specifikt
spector
spectre
speech
speed
speedway
speer
spejdere
spejl
spejle
spejlet
spektakulære
spektrum
spekulationer
spencer
spider
spids
spidse
spidsen
spidser
spidskandidat
spiegel
spielberg
spies
spike
spil
spildevand
spille
spillede
spilledes
spillefilm
spillende
spillene
spiller
spillere
spilleren
spillerinfo
spillerne
spillerprofil
spilles
spillested
spillestil
spillet
spilletid
spillets
spin
spion
spionage
spioner
spir
spiral
spirer
spirit
spirituelle
spiritus
spise
spiselige
spiser
spises
spist
spiste
spitfire
spitfires
spitsbergen
splid
split
splittede
splittelse
splittet
sponsor
spontan
spontant
spor
sporadisk
spore
sporene
sporer
spores
sporet
sport
sporten
sporting
sports
sportsarchiv
sportsbegivenheder
sportschef
sportsdatabaser
sportsdirektør
sportsgren
sportsgrene
sportslige
sportsreference
sporveje
sporvejshistorisk
sporvejsmuseet
sporvidde
sporvogn
sporvogne
spot
spotify
sprache
sprang
sprede
spreder
spredes
spredning
spredt
spredte
spredtes
spring
springe
springer
springfield
springs
springsteen
springvand
sprint
sprinter
sprog
sprogbrug
sproget
sprogets
sprogforsker
sproglig
sproglige
sprogligt
sprogs
sprogøe
sprækker
sprænge
sprængning
sprængstof
sprængt
sprængte
spsk
spudis
spurgt
spurgte
sputnik
spy
spyd
spydkast
spyro
spæde
spænd
spænde
spændende
spænder
spænding
spændingen
spændinger
spændt
spændte
spærret
spøg
spøgelse
spøgelser
spørg
spørge
spørger
spørgsmaal
spørgsmaalet
spørgsmal
spørgsmalet
spørgsmalstegn
sq
sqrt
squad
squadron
square
squash
sr
sri
ss
ssp
ssr
st
sta
staa
staae
staaende
staaer
staaet
staal
staar
stab
stabil
stabile
stabilisere
stabilitet
stabilt
stabschef
stad
stade
staden
stadfæstede
stadfæstelse
stadfæstet
stadie
stadier
stadig
stadige
stadighed
stadigt
stadigvæk
stadion
stadionet
stadium
stadsarkiv
stadt
staende
staet
stafet
staff
stafford
stage
stak
stakkels
stal
stald
stalin
stalingrad
stalins
stamfader
stamhuset
stamme
stammede
stammen
stammens
stammer
stammerne
stampe
stan
stand
standard
standarden
standarder
standardiseret
standards
standardudstyr
stande
standing
standpunkt
standse
standsede
standser
standset
stanford
stang
stangspring
stanley
star
stark
starr
stars
start
starte
startede
starten
startende
starter
startes
startet
startopstillingen
stasi
stasjon
stat
state
statement
staten
statens
stater
staterne
staters
states
statholder
station
stationcar
stationen
stationens
stationer
stationeret
stationerne
stations
stationsby
stationsbyen
stationsbyer
stationsbygning
stationsbygningen
stationsdatabase
stationsvej
statisk
statistica
statistical
statistics
statistik
statistikamt
statistikbanken
statistikken
statistikker
statistiks
statistisk
statistiska
statistiske
statletik
stats
statsbiblioteket
statsborger
statsborgere
statsborgerskab
statsejede
statsforfatningsret
statsforvaltningsret
statskassen
statskundskab
statskup
statslig
statslige
statsligt
statsmand
statsminister
statsministeren
statsministeriet
statsoverhoved
statsrad
statsradet
statssekretær
statsskole
statue
statuen
statuer
status
stauder
stauning
stav
stavanger
stave
stavelse
stavelser
stavemade
staves
stavet
stay
ste
steam
sted
stede
steder
stedet
stedets
stedfar
stedfortræder
stedlige
stednavne
stednavnet
stedse
stedsegrønne
steel
steele
steen
steensen
steenstrup
stefan
stefano
steffan
steffen
steffensen
steg
stege
steget
stegt
steiermark
stein
steinburg
steiner
steinsland
steinway
stejl
stejle
stella
stellarium
stemme
stemmeberettigede
stemmen
stemmer
stemmeret
stemmerne
stemmes
stemning
stemningen
stemninger
stemplet
stemt
stemte
sten
stenalder
stenalderen
stenberg
stenderup
stene
stenen
stenene
stenløse
step
stephan
stephane
stephanie
stephen
stephens
stephensen
steppe
stepper
steps
stereo
sterling
stern
stettin
steve
steven
stevens
stevenson
stevie
stevns
stewart
sti
stieglitz
stien
stier
stift
stiftamtmand
stifte
stiftede
stiftedes
stiftelse
stiftelsen
stiften
stiftende
stifter
stiftes
stiftet
stifts
stiftstidende
stig
stige
stigende
stiger
stigning
stigningen
stigninger
stik
stikke
stikker
stikordsregister
stil
stilart
stilarter
stilen
stilhed
stilk
still
stille
stillede
stillehav
stillehavet
stiller
stilles
stillet
stilling
stillingen
stillinger
stimulere
stine
sting
stipendium
stirling
stirrede
stiv
stive
stjal
stjalet
stjerne
stjernen
stjerner
stjernerne
stjæle
stjæler
stk
stock
stockholm
stockholms
stod
stode
stof
stoffer
stoffet
stok
stoke
stoklund
stokværk
stol
stole
stolen
stolt
stolte
stolthed
stone
stones
stop
stoppe
stoppede
stopper
stoppested
stoppesteder
stoppet
stor
stora
storbritannien
storbritanniens
storby
storbyen
storbyens
storbyer
store
storebror
storebælt
stores
storesøster
storfyrst
storfyrste
storfyrstendømmet
storfyrstinde
storhed
storhedstid
storhertug
storhertugdømmet
stories
stork
storklub
storkors
storkorset
storkreds
storkøbenhavn
storm
stormagt
stormagter
stormarn
storme
stormede
stormen
stormester
stormflod
stormænd
storslaede
storslaet
storstilet
storstrøms
stort
stortinget
story
straalende
straf
straffe
straffelov
straffeloven
straffelovens
straffen
straffes
straffespark
straffesparkskonkurrence
straffet
straight
straks
strakt
strakte
stralende
straler
straling
stralsund
stram
stramme
strand
strandby
strande
strandede
stranden
strandenge
strandvej
strandvejen
strange
stranger
strasbourg
strategi
strategic
strategier
strategisk
strategiske
strategy
stratford
strauss
strax
straße
stream
streaming
stred
street
streets
streg
streger
strejke
strejker
streng
strenge
strengere
strengt
stress
stribe
striber
stribet
strid
stride
striden
stridende
strider
stridigheder
strike
strikes
string
strofe
strong
structure
struensee
struensees
struer
struggle
struktur
strukturelle
strukturen
strukturer
strukturreformen
strygekvartet
strygekvartetter
strygeorkester
strygere
stræben
stræber
stræbte
stræde
strædet
strække
strækker
strækning
strækningen
strækninger
strøg
strøget
strøm
strømme
strømmede
strømmen
strømmer
strømning
strømninger
strømper
sts
stuart
stub
stubbekøbing
student
studenten
studenter
studentereksamen
students
studere
studerede
studerende
studerer
studeret
studie
studiealbum
studieforberedelse
studien
studieophold
studier
studierejse
studierne
studies
studiet
studievært
studio
studios
studium
study
stue
stueetagen
stuen
stuer
stuff
stukket
stumfilm
stund
stundom
stunt
sture
sturm
stuttgart
stx
styk
stykke
stykker
stykket
style
styr
styre
styrede
styreform
styrelse
styrelsen
styrende
styrer
styres
styresystem
styret
styring
styringen
styrke
styrkede
styrken
styrker
styrkerne
styrket
styrmand
styrt
styrte
styrtede
styrter
styrtet
stænder
stænderforsamling
stænderne
stængel
stænglen
stængler
stænglerne
stærk
stærke
stærkere
stærkest
stærkeste
stærkt
stævne
stævner
stævnet
støbt
stød
støde
støder
stødt
stødte
støj
større
størrelse
størrelsen
størrelser
størst
største
størstedelen
størsteparten
støt
støtte
støttede
støtten
støtter
støttes
støttet
støv
støvet
støvler
støvring
su
suarez
sub
subjekt
subjektive
submission
subsp
substans
subtropiske
succes
succesen
succeser
succesfuld
succesfulde
succesfuldt
succesrige
success
such
sud
sudan
sue
suenson
suez
suffolk
sugar
suhm
suicide
suisse
suite
suk
sukhoj
sukkede
sukker
sullivan
sult
sultan
sultanen
sulten
sum
summary
summen
summer
summit
sun
sund
sundance
sunday
sundby
sunde
sunderland
sundet
sundeved
sundhed
sundheds
sundhedsstyrelsen
sunds
sundt
sune
sung
sunget
sunset
sunshine
suomalainen
suomen
super
superficie
superior
superlativ
superliga
superligaen
superman
supermarine
supermarked
supermarkeder
superstar
superstats
suppe
suppen
suppleant
supplement
supplere
supplerende
suppleres
suppleret
supply
support
supporting
supreme
sur
sure
surface
surrey
surt
survey
survival
survivor
sus
susan
susanna
susanne
suspekt
suspenderet
sussex
sutherland
sutton
suveræn
suveræne
suverænitet
suverænt
suzanne
suzhou
suzuki
suzukis
suðuroy
sv
svag
svage
svagere
svaghed
svagheder
svagt
svalbard
svamp
svampe
svandt
svane
svaner
svanholm
svar
svare
svarede
svarende
svarer
svaret
svarte
sved
sven
svend
svendborg
svendsen
svensk
svenska
svenske
svenskere
svenskeren
svenskerne
svenskt
svensson
svenstrup
sverige
sveriges
sverre
svigerfar
svigersøn
svigtede
svigtende
svin
svindel
sving
svinge
svingede
svingende
svinger
svingninger
svoger
svor
svovl
svovlsyre
svt
svække
svækkede
svækket
svær
sværd
sværdet
svære
sværere
svært
sværvægt
svævede
svævefly
svævende
svømme
svømmede
svømmehal
svømmer
svømning
sw
swan
swansea
sweden
swedish
swedishcharts
sweet
swift
swimming
swing
swiss
swisscharts
switch
switzerland
sword
sx
sy
syd
sydafrika
sydafrikansk
sydafrikanske
sydamerika
sydamerikanske
syddanmark
syddansk
syddjurs
syden
sydeuropa
sydfrankrig
sydfynske
sydgaende
syditalien
sydkinesiske
sydkorea
sydkoreansk
sydkoreanske
sydkoreas
sydkysten
sydlig
sydlige
sydligste
sydney
sydover
sydpa
sydpolen
sydsiden
sydsjælland
sydslesvig
sydslesvigs
sydstaterne
sydstaternes
sydvest
sydvestlige
sydøst
sydøstasien
sydøstlige
syet
syg
sygdom
sygdomme
sygdommen
syge
sygehus
sygehuse
sygehuset
sygeplejerske
sygeplejersker
sylvester
sylvia
symbol
symboler
symbolet
symbolisere
symboliserer
symbolsk
symbolske
symfoni
symfonier
symfoniorkester
symfonisk
symfoniske
symmetrisk
sympati
symphony
symposium
symptomer
symptomerne
syn
synagoge
synd
synder
synderlig
syndrom
syndrome
syne
synes
synet
synge
syngende
synger
synges
synke
synker
synlig
synlige
synligt
synonym
synonymt
synspunkt
synspunkter
synsvinkel
syntes
syntese
syntetisk
syntetiske
synthesizer
syre
syrer
syria
syrien
syrisk
syriske
sys
system
systema
systematic
systematik
systematisk
systematiske
systemer
systemet
systemets
systems
systime
sytten
syv
syvende
sz
sæbe
sæby
sæd
sæde
sæder
sædet
sædvane
sædvanlig
sædvanlige
sædvanligt
sædvanligvis
sæl
sæler
sælge
sælgende
sælger
sælges
sænke
sænkede
sænkes
sænket
sær
særdeles
særdeleshed
sære
særegen
særegne
særlig
særlige
særligt
særskilt
særskilte
sæson
sæsonen
sæsonens
sæsoner
sæsonerne
sæsons
sæt
sætning
sætningen
sætninger
sætte
sætter
sættes
sø
søborg
søby
sød
søde
sødt
søegaard
søen
søens
søer
søerne
søfart
søfolk
søg
søgaard
søge
søgemaskine
søgen
søger
søges
søgning
søgt
søgte
søjle
søjler
søllerød
sølv
sølvmedalje
sølvmedaljer
sølvmedaljerne
søm
sømand
sømil
sømænd
søn
søndag
søndagen
sønder
sønderborg
sønderby
søndergaard
sønderjylland
sønderjyllands
sønderjysk
sønderjyske
søndersø
søndre
sønnen
sønnens
sønner
sønnerne
sønnesøn
søns
søofficer
sør
søren
sørensen
sørensens
sørge
sørgede
sørgelige
sørger
sørget
sørlandsbanen
sørup
søs
søsat
søskende
søslag
søslaget
søster
søsteren
søsters
søstre
søstrene
søvn
søværnet
søværnets
t
t0
t1
t2
t3
t4
t5
t6
t7
t8
t9
ta
taale
taarbæk
taarer
taastrup
tab
tabe
tabel
tabellen
tabeller
tabelrække
tabelværk
tabende
tabene
taber
tabere
tabet
table
tables
tablesj
tabless
tabt
tabte
tabu
tacitus
tactical
tadsjikistan
tag
tage
tagen
tager
tages
taget
tai
taipei
taiwan
taj
tak
takashi
take
taken
takes
taking
takke
takkede
takker
takket
taksonomi
takt
taktik
taktisk
taktiske
takuya
tal
talbot
tale
talen
talende
talent
talenter
talentfulde
taler
tales
taliban
talk
talking
talks
talkshow
tallene
tallerken
tallet
tallets
tallige
tallinn
talrige
tals
talsmand
talt
talte
tam
tamil
tampa
tan
tanaka
tand
tandet
tandlæge
tang
tange
tango
tank
tanke
tankegang
tanken
tanker
tankerne
tanks
tante
tanzania
tao
tap
tape
tapperhed
tar
tara
tarer
target
tarm
tarn
tarnby
tarne
tarnet
tarnets
tarp
tars
tartu
tarup
tarzan
tasinge
task
tasmanien
tastatur
taste
tastrup
tate
tatorter
tatum
tau
taube
tauson
tav
tavle
tavler
tavs
tavse
tavshed
tax
taxa
taxi
taxon
taylor
tb
tbilisi
tc
tchad
td
tdc
tdi
tdr
te
tea
team
teamet
teams
tears
teater
teaterdirektør
teateret
teaters
teaterskole
teaterstykke
teaterstykker
teatre
teatret
teatrets
teatro
tech
technical
techno
technologies
technology
ted
teddy
teen
teenage
teenager
teenagere
tef
tegl
teglsten
teglværk
tegn
tegne
tegnede
tegnefilm
tegner
tegneserie
tegneserien
tegneserier
tegnestue
tegnet
tegning
tegningen
tegninger
tegningerne
teheran
teknik
tekniker
teknikken
teknikker
teknisk
tekniske
teknologi
teknologien
teknologier
teknologisk
teknologiske
tekst
teksten
tekster
teksterne
tekstforfatter
tekstiler
tel
tele
telefon
telefonen
telefoner
telegraf
telegram
telegraph
telemark
telescope
telescopes
teleskoper
television
tell
teller
telt
tema
temaer
temaet
temmelig
tempel
temperament
temperatur
temperaturen
temperaturer
tempererede
tempereret
temple
templer
templet
tempo
ten
tendens
tendenser
tenerife
tennessee
tennis
tennisspiller
tennisturnering
tenor
tenzin
teolog
teologer
teologi
teologisk
teologiske
teoretisk
teoretiske
teori
teorien
teorier
terapi
terence
teresa
terje
terkel
term
termen
terminal
terminator
terminologi
termisk
terning
terninger
terra
terre
terrier
territorial
territoriale
territorier
territoriet
territorium
territory
terror
terrorangreb
terrorangrebet
terrorisme
terrorist
terrorister
terry
terræn
terrænet
tese
tesla
tessier
test
testament
testamente
teste
testen
testet
tests
texas
text
texts
tf
tg
th
thai
thailand
thailands
thailandske
thames
than
that
the
theater
theatre
theben
theft
theguardian
their
them
theme
themsen
then
theo
theodor
theodore
theodosius
theol
theorie
theory
therapy
there
theresa
therese
theresia
these
thessaloniki
thestrup
theta
thetvdb
they
thi
thiago
thiele
thierry
thin
thing
things
think
third
this
thisted
thomas
thompson
thomsen
thomson
thor
thora
thorbjørn
thorkild
thorning
thors
thorsen
thorshavn
thorup
thorvald
thorvaldsen
thorvaldsens
those
thott
thought
thousand
thrakien
thrane
thrash
threat
threatened
three
thriller
thrones
through
thule
thunder
thurah
thuringen
thy
thyborøn
thygesen
thyra
thøger
thøgersen
ti
tianjin
tiar
tibet
tibetansk
tibetanske
tibets
tid
tide
tiden
tidende
tidens
tider
tiderne
tiders
tidl
tidlig
tidlige
tidligere
tidligst
tidligste
tidligt
tids
tidsalder
tidskrift
tidslinje
tidsperiode
tidspunkt
tidspunkter
tidspunktet
tidsregning
tidsrum
tidsrummet
tidsskrift
tidsskrifter
tidsskriftet
tidt
tie
tiende
tietgen
tiger
tikøb
til
tilbage
tilbageblik
tilbagegang
tilbageholdt
tilbageslag
tilbagetog
tilbagetrækning
tilbagetrækningen
tilbagevenden
tilbagevendende
tilbageværende
tilbedelse
tilbehør
tilblivelse
tilbragt
tilbragte
tilbringe
tilbringer
tilbud
tilbuddet
tilbudt
tilbyde
tilbyder
tilbydes
tilbygning
tilbød
tilbøjelighed
tildele
tildeles
tildeling
tildels
tildelt
tildelte
tilegnede
tilegnet
tilfaldt
tilflugt
tilfreds
tilfredse
tilfredshed
tilfredsstille
tilfredsstillende
tilfælde
tilfældet
tilfældig
tilfældige
tilfældighed
tilfældigt
tilfældigvis
tilføje
tilføjede
tilføjelse
tilføjelsen
tilføjelser
tilføjer
tilføjes
tilføjet
tilføres
tilført
tilgaet
tilgang
tilgange
tilgive
tilgivelse
tilgængelig
tilgængelige
tilgængeligt
tilhænger
tilhængere
tilhængerne
tilhøre
tilhørende
tilhører
tilhørere
tilhørsforhold
tilhørt
tilhørte
tilknytning
tilknyttede
tilknyttet
tilkom
tilkommende
tilkommer
till
tillade
tilladelse
tillader
tilladt
tilladte
tillagt
tillid
tillige
tilligemed
tillod
tillæg
tillægges
tilløb
tilmed
tilmeldt
tilnavn
tilnavnet
tilpas
tilpasning
tilpasse
tilpassede
tilpasset
tilrettelagt
tilsagn
tilsammen
tilsat
tilsidst
tilskrevet
tilskrives
tilskud
tilskuer
tilskuere
tilskueren
tilskuerne
tilslutning
tilslutte
tilsluttede
tilsluttet
tilstand
tilstande
tilstanden
tilstede
tilstedeværelse
tilstedeværelsen
tilstedeværende
tilstod
tilstrækkelig
tilstrækkelige
tilstrækkeligt
tilstødende
tilsvarende
tilsyn
tilsyneladende
tilsæt
tilsættes
tiltag
tiltagende
tiltale
tiltalende
tiltalt
tiltalte
tiltog
tiltradte
tiltrak
tiltrukket
tiltræde
tiltrædelse
tiltrække
tiltrækker
tiltrækning
tiltænkt
tilvækst
tilværelse
tilværelsen
tim
time
timeline
timen
timer
timers
times
timing
timm
timothy
tin
tina
tine
ting
tingene
tingenes
tinget
tinglev
tingsted
tintin
tip
tips
tipsbladet
tipton
tirsdag
tit
titan
titanic
titel
titelkamp
titelrollen
title
titlen
titler
titlerne
tito
titulær
titus
tivoli
tivolis
tj
tjek
tjekkiet
tjekkiets
tjekkisk
tjekkiske
tjekkoslovakiet
tjekkoslovakiske
tjele
tjene
tjener
tjenere
tjeneste
tjenestefolk
tjenesten
tjenestepige
tjenester
tjenesteydelser
tjent
tjente
tk
tko
tl
tm
tn
tna
to
toarig
tobak
tobias
toby
tod
today
todd
toer
toere
toft
tog
toge
togene
toget
together
togo
togsæt
togt
togter
toilet
toiletter
tokyo
told
toledo
tolerance
tolk
tolkes
tolket
tolkien
tolkiens
tolkning
tolstrup
tolv
tolvte
tom
tomas
tomatoes
tomb
tome
tomme
tommer
tommerup
tommy
tomorrow
tompkins
tomt
ton
tone
toneangivende
tonen
toner
tonerne
toni
tonight
tonny
tons
tony
too
took
tool
tools
top
topdomæne
topfart
topografi
topografien
topografisk
topografiske
topographie
topographisk
topography
toppe
toppede
toppen
tops
topscorer
topsøe
tor
tora
torben
tordenskjold
tore
torino
tornado
torne
toro
toronto
torp
torpedo
torpedoer
torres
torsdag
torshavn
torsk
torsten
tortur
torup
torv
torvet
toscana
tot
total
totale
totalt
tottenham
touch
toulouse
tour
touren
touring
tourism
tourist
tournament
tours
tove
towards
tower
towers
town
toy
toyota
tp
tq
tr
traadte
trace
track
tracklisten
tracks
tracy
trad
trade
tradition
traditional
traditionel
traditionelle
traditionelt
traditionen
traditioner
tradt
tradte
traf
traffic
trafik
trafikken
trafikselskab
tragedie
tragedien
tragedy
tragisk
tragiske
trail
trailer
train
training
trak
traktat
traktaten
traktatens
traktater
trampe
trance
tranekær
trang
trange
trankebar
tranquebar
trans
transactions
transaktioner
transfer
transfermarkt
transformation
transformers
transistor
transit
transition
translated
translation
transmission
transport
transportation
transporten
transporter
transportere
transporterede
transporteres
transporteret
transportfly
trap
trappe
trappen
trapper
travel
travis
travleste
travlt
tre
trearig
trearskrigen
treasure
treatment
treaty
tredie
tredive
tredivearskrigen
tredje
tredjebedste
tredjedel
tredjedele
tredjeplads
tredjepladsen
tredjestørste
tredobbelt
tree
trees
trek
trekant
trekantede
trekanten
trekantet
trelleborg
trend
trends
trent
tres
treschow
trespring
tretten
trevor
tri
trial
tribune
tribut
tribute
trick
tricks
trier
trieste
trilogi
trilogien
trin
trinbræt
trine
trinidad
trinitatis
trinity
trins
trio
trioen
trip
triple
tripoli
trist
tristan
triumf
triumph
trives
trivsel
tro
trods
troe
troede
troels
troen
troende
troens
troer
troet
trofast
trofaste
trofæet
trois
troja
trold
trolddom
trolde
troldmand
trolle
trommer
trommeslager
trommeslageren
trompet
troms
tromsø
tronbestigelse
trondheim
trondhjem
trone
tronen
tronfølger
trop
trophy
tropisk
tropiske
tropper
tropperne
tror
troskab
trossamfund
trouble
troværdige
troy
true
truede
truende
truer
truet
truffet
trukket
truman
trump
trumps
trup
truppen
truslen
trusler
trussel
trust
truth
try
tryg
tryghed
trygt
trygæos
tryk
trykke
trykkede
trykker
trykkeri
trykkes
trykket
trykt
trykte
træ
træde
træder
træer
træerne
træet
træets
træffe
træffer
træffes
træk
trækfugle
trække
trækker
trækkes
træne
trænede
træner
trænere
trænerprofil
trænes
trænet
trænge
trængende
trænger
trængt
trængte
træning
træningen
træsko
træsnit
træt
træthed
trætte
trøje
trøjen
trøjer
trøndelag
trøst
trøste
ts
tsar
tscherning
tsk
tsunami
tt
tu
tube
tuberkulose
tubingen
tuborg
tucker
tudor
tue
tuesday
tundra
tune
tunesien
tung
tunge
tungen
tungere
tungt
tunis
tunnel
tunnelen
tunneler
tur
turbine
turbo
turde
ture
turen
turisme
turismen
turist
turistattraktion
turister
turistmal
turk
turkey
turkish
turku
turn
turne
turneen
turneer
turner
turnerede
turneret
turnering
turneringen
turneringens
turneringer
turneringerne
tusculanums
tusind
tusinde
tusinder
tusindvis
tuxen
tv
tva
tvang
tved
tvede
tvende
tvilling
tvillinger
tvillingerne
tvinge
tvinger
tvinges
tvis
tvivl
tvivle
tvivlsom
tvivlsomt
tvungen
tvunget
tværfag
tværgaende
tværs
tværsnit
tværtimod
tvøroyri
tw
twain
twente
twentieth
twenty
twilight
twin
twins
twist
twitter
two
tx
ty
tycho
tyde
tydede
tydelig
tydelige
tydeligere
tydeligt
tydeligvis
tyder
tyge
tyk
tykke
tykkelse
tykkere
tykt
tyler
tynd
tynde
tyndere
tyndt
tyngdekraften
type
typen
typer
typisk
typiske
tyr
tyrkere
tyrkerne
tyrkiet
tyrkiets
tyrkisk
tyrkiske
tyrol
tys
tysk
tyske
tysker
tyskere
tyskeren
tyskerne
tyskernes
tyskland
tysklands
tysktalende
tyson
tyve
tyvende
tyveri
tz
tægt
tælle
tæller
tænde
tænder
tænderne
tændt
tændte
tænk
tænke
tænkende
tænker
tænkere
tænkes
tænkning
tænkt
tænkte
tæppe
tæpper
tæt
tæthed
tætte
tættere
tættest
tøj
tøjet
tølløse
tømmer
tømrer
tømt
tønde
tønder
tønning
tønsberg
tør
tørke
tørklæde
tørre
tørrede
tørret
tørring
tørst
tørt
tørv
u
u0
u1
u2
u3
u4
u5
u6
u7
u8
u9
ua
uafbrudt
uafgjort
uafgjorte
uafhængig
uafhængige
uafhængighed
uafhængigheden
uafhængighedskrig
uafhængigt
uagtet
ualmindelig
ualmindeligt
uanset
ub
ubad
ubade
ubaden
ubeboede
ubeboet
ubegrænset
ubehagelig
ubehagelige
ubehageligt
ubekendt
ubemandet
uber
ubesejret
ubestemt
ubetinget
ubetydelig
ubetydelige
ubevidst
ubevidste
ubuntu
uc
uci
ud
udad
udadtil
udarbejde
udarbejdede
udarbejdelse
udarbejdelsen
udarbejdet
udbetalt
udbrede
udbredelse
udbredelsen
udbredt
udbredte
udbrud
udbruddet
udbrød
udbud
udbuddet
udbyder
udbydes
udbygge
udbyggede
udbygget
udbygning
udbygningen
udbytte
udbyttet
uddanne
uddannede
uddannelse
uddannelsen
uddannelser
uddannelses
uddannelsesinstitution
uddannelsesinstitutioner
uddannet
uddeler
uddeles
uddeling
uddelingen
uddelt
uddelte
uddrag
uddybende
uddybes
uddød
uddøde
ude
udebane
udebanemal
udeblev
udefra
udeladt
udelukke
udelukkede
udelukkende
udelukker
udelukket
uden
udendørs
udenfor
udenlands
udenlandsk
udenlandske
udenlandsrejse
udenom
udenrigs
udenrigsminister
udenrigsministeriet
udenrigsministerium
udenrigspolitik
udenrigspolitisk
udenrigspolitiske
udfald
udfaldet
udfaset
udflugt
udfolde
udfoldede
udfordre
udfordrede
udfordrende
udfordrer
udfordret
udfordring
udfordringer
udformede
udformet
udformning
udformningen
udforske
udforskede
udforskning
udfylde
udføre
udførelse
udførelsen
udfører
udføres
udførlig
udførsel
udført
udførte
udførtes
udg
udgaet
udgang
udgangen
udgangspunkt
udgangspunktet
udgar
udgav
udgave
udgaven
udgaver
udgifter
udgifterne
udgik
udgive
udgivelse
udgivelsen
udgivelser
udgiver
udgives
udgivet
udgivne
udgjorde
udgjort
udgravet
udgravning
udgravningen
udgravninger
udgravningerne
udgør
udgøre
udgøres
udholde
udholdenhed
udi
udkant
udkanten
udkast
udkastet
udkig
udkom
udkomme
udkommer
udkommet
udkæmpet
udlagt
udlan
udland
udlandet
udlant
udledes
udlejet
udlejning
udlevere
udleveret
udlændinge
udlært
udløb
udløber
udløbere
udløbet
udløse
udløser
udløst
udløste
udmunder
udmunding
udmundingen
udmærkede
udmærkelse
udmærkelser
udmærker
udmærket
udnytte
udnyttede
udnyttelse
udnytter
udnyttes
udnyttet
udnævne
udnævnelse
udnævnelsen
udnævnes
udnævnt
udnævnte
udnævntes
udover
udpege
udpegede
udpeger
udpeges
udpeget
udprægede
udpræget
udrabt
udrabte
udrette
udrustet
udrustning
udrydde
udryddelse
udryddet
udsagn
udsat
udsatte
udseende
udsende
udsendelse
udsendelsen
udsendelser
udsender
udsendes
udsending
udsendinge
udsendt
udsendte
udsendtes
udset
udsigt
udsigten
udsigter
udskaret
udskifte
udskiftes
udskiftet
udskiftning
udskiftningen
udskilles
udskilt
[...]
