!
"
#
##0
##1
##10
##11
##12
##13
##14
##15
##16
##17
##18
##19
##2
##20
##21
##22
##23
##24
##25
##26
##27
##28
##29
##3
##30
##31
##32
##33
##34
##35
##36
##37
##38
##39
##4
##40
##41
##42
##43
##44
##45
##46
##47
##48
##49
##5
##50
##51
##52
##53
##54
##55
##56
##57
##58
##59
##6
##60
##61
##62
##63
##64
##65
##66
##67
##68
##69
##7
##70
##71
##72
##73
##74
##75
##76
##77
##78
##79
##8
##80
##81
##82
##83
##84
##85
##86
##87
##88
##89
##9
##90
##91
##92
##93
##94
##95
##96
##97
##98
##99
$
%
&
'
(
)
*
+
,
-
.
/
0
00
000
001
002
003
007
01
02
03
04
05
050
06
07
08
09
1
10
100
1000
1001
1007
101
1016
102
1020014
103
1030
1035
104
105
1050
106
1060
1066
107
1070
1072
108
1080
1086
109
11
110
1100
111
1111
112
113
1130
1135
114
115
1150
1154
1157
116
1160
117
1170
118
1180
1185
1189
119
1190
1191
1194
12
120
1200
1202
1204
121
1215
1219
122
1220
1225
1227
123
1230
1231
124
1240
1241
125
1250
126
1260
1268
127
1270
1275
128
1280
1282
1286
129
1290
1291
13
130
1300
131
1314
1319
132
1320
1325
1326
1327
1328
133
1330
134
1340
1346
1348
1349
135
1350
136
1360
1362
1368
137
1370
1375
1377
138
1380
1385
1386
1387
1389
139
1390
1396
1397
1398
14
140
1400
1401
1404
1408
141
1410
1412
1415
1419
142
1420
1422
1425
143
1430
1435
1436
1438
1439
144
1440
1441
1442
1443
1445
1447
1448
1449
145
1450
1452
1453
1454
1455
1456
1457
1458
1459
146
1460
1461
1462
1463
1464
1465
1467
1468
1469
147
1470
1471
1472
1474
1475
1477
1478
1479
148
1480
1481
1482
1483
1484
1485
1486
1487
149
1490
1492
1493
1494
1495
1496
1497
1498
1499
15
150
1500
1501
1502
1503
1504
1505
1506
1507
1508
1509
151
1510
1511
1512
1513
1514
1515
1516
1517
1518
1519
152
1520
1521
1522
1523
1524
1525
1526
1527
1528
1529
153
1530
1531
1532
1533
1534
1535
1536
1537
1538
1539
154
1540
1541
1542
1543
1544
1545
1546
1547
1548
1549
155
1550
1551
1552
1553
1554
1555
1556
1557
1558
1559
156
1560
1561
1562
1563
1564
1565
1566
1567
1568
1569
157
1570
1571
1572
1573
1574
1575
1576
1577
1578
1579
158
1580
1581
1582
1583
1584
1585
1586
1587
1588
1589
159
1590
1591
1592
1593
1594
1595
1596
1597
1598
1599
16
160
1600
1601
1602
1603
1604
1605
1606
1607
1608
1609
161
1610
1611
1612
1613
1614
1615
1616
1617
1618
1619
162
1620
1621
1622
1623
1624
1625
1626
1627
1628
1629
163
1630
1631
1632
1633
1634
1635
1636
1637
1638
1639
164
1640
1641
1642
1643
1644
1645
1646
1647
1648
1649
165
1650
1651
1652
1653
1654
1655
1656
1657
1658
1659
166
1660
1661
1662
1663
1664
1665
1666
1667
1668
1669
167
1670
1671
1672
1673
1674
1675
1676
1677
1678
1679
168
1680
1681
1682
1683
1684
1685
1686
1687
1688
1689
169
1690
1691
1692
1693
1694
1695
1696
1697
1698
1699
17
170
1700
1701
1702
1703
1704
1705
1706
1707
1708
1709
171
1710
1711
1712
1713
1714
1715
1716
1717
1718
1719
172
1720
1721
1722
1723
1724
1725
1726
1727
1728
1729
173
1730
1731
1732
1733
1734
1735
1736
1737
1738
1739
174
1740
1741
1742
1743
1744
1745
1746
1747
1748
1749
175
1750
1751
1752
1753
1754
1755
1756
1757
1758
1759
176
1760
1761
1762
1763
1764
1765
1766
1767
1768
1769
177
1770
1771
1772
1773
1774
1775
1776
1777
1778
1779
178
1780
1781
1782
1783
1784
1785
1786
1787
1788
1789
179
1790
1791
1792
1793
1794
1795
1796
1797
1798
1799
18
180
1800
1801
1802
1803
1804
1805
1806
1807
1808
1809
181
1810
1811
1812
1813
1814
1815
1816
1817
1818
1819
182
1820
1821
1822
1823
1824
1825
1826
1827
1828
1829
183
1830
1831
1832
1833
1834
1835
1836
1837
1838
1839
184
1840
1841
1842
1843
1844
1845
1846
1847
1848
1849
185
1850
1851
1852
1853
1854
1855
1856
1857
1858
1859
186
1860
1861
1862
1863
1864
1865
1866
1867
1868
1869
187
1870
1871
1872
1873
1874
1875
1876
1877
1878
1879
188
1880
1881
1882
1883
1884
1885
1886
1887
1888
1889
189
1890
1891
1892
1893
1894
1895
1896
1897
1898
1899
19
190
1900
1901
1902
1903
1904
1905
1906
1907
1908
1909
191
1910
1911
1912
1913
1914
1915
1916
1917
1918
1919
192
1920
1921
1922
1923
1924
1925
1926
1927
1928
1929
193
1930
1931
1932
1933
1934
1935
1936
1937
1938
1939
194
1940
1941
1942
1943
1944
1945
1946
1947
1948
1949
195
1950
1951
1952
1953
1954
1955
1956
1957
1958
1959
196
1960
1961
1962
1963
1964
1965
1966
1967
1968
1969
197
1970
1971
1972
1973
1974
1975
1976
1977
1978
1979
198
1980
1981
1982
1983
1984
1985
1986
1987
1988
1989
199
1990
1991
1992
1993
1994
1995
1996
1997
1998
1999
2
20
200
2000
2001
2002
2003
2004
2005
2006
2007
2008
2009
201
2010
2011
2012
2013
2014
2015
2016
2017
2018
2019
202
2020
2021
2022
2023
2024
2025
203
2030
204
205
206
207
208
209
21
210
2100
211
212
213
214
215
216
217
218
219
22
220
2200
221
222
223
224
225
226
227
228
229
23
230
231
232
233
234
235
236
237
238
239
24
240
241
242
243
244
245
246
247
248
249
25
250
2500
250000
251
252
253
254
255
256
257
258
259
26
260
261
262
263
264
265
266
267
268
269
27
270
271
272
273
274
275
276
277
278
279
28
280
281
282
283
284
285
286
287
288
289
29
290
2900
291
292
293
294
295
296
297
298
299
3
30
300
3000
301
302
303
304
305
306
307
308
309
31
310
311
312
313
314
315
316
317
318
319
32
320
321
322
323
324
325
326
327
328
329
33
330
331
332
333
334
335
336
337
338
339
34
340
341
342
343
344
345
346
347
348
349
35
350
3500
351
352
353
354
355
356
357
358
359
36
360
361
362
363
364
365
366
367
368
369
37
370
371
372
373
374
375
376
377
378
379
38
380
381
382
383
384
385
386
387
388
389
39
390
391
392
393
394
395
3950
396
397
398
399
4
40
400
4000
401
402
403
404
405
406
407
408
409
41
410
411
412
413
414
415
416
417
418
419
42
420
421
422
423
424
425
426
427
428
429
43
430
431
432
433
434
435
436
437
438
439
44
440
441
442
443
444
445
446
447
448
449
45
450
4500
451
452
453
454
455
456
457
458
459
46
460
461
462
463
464
465
466
467
468
469
47
470
471
472
473
474
475
476
477
478
479
48
480
481
482
483
484
485
486
487
488
489
49
490
491
492
493
494
495
496
497
498
499
5
50
500
5000
501
502
503
504
505
506
507
508
509
51
510
511
512
513
514
515
516
518
52
520
521
522
523
524
525
526
527
528
529
53
530
531
532
533
534
535
536
537
538
54
540
541
542
543
544
545
546
547
548
549
55
550
551
552
553
555
556
557
558
559
56
560
561
562
563
564
565
566
567
568
57
570
571
572
574
575
58
580
581
582
583
584
585
586
587
589
59
590
595
597
6
60
600
6000
601
602
603
604
605
607
609
61
610
612
615
616
618
62
620
621
622
625
626
628
63
630
632
634
635
636
639
64
640
641
642
65
650
66
660
661
666
67
670
68
680
69
690
7
70
700
7000
707
71
710
711
714
72
720
722
725
727
73
730
732
737
74
740
747
75
750
757
76
760
767
768
77
770
777
78
780
787
788
79
790
8
80
800
8000
802
81
810
812
814
815
82
820
825
83
830
84
840
843
85
850
86
860
87
870
88
880
888
89
890
9
90
900
9000
90210
91
910
911
912
92
929
93
930
936
94
940
95
950
96
960
965
97
970
978
98
980
985
99
990
995
999
:
;
<
=
>
?
@
\
^
_
`
a
aa
aab
aabenraa
aabne
aaby
aabybro
aachen
aaen
aagaard
aage
aagesen
aakirkeby
aakjær
aalborg
aalborgs
aalestrup
aand
aar
aarbog
aaret
aarhundrede
aarhus
aaron
aars
aarup
aase
aastrup
aau
ab
abba
abbas
abbed
abbey
abbott
abc
abd
abdel
abdicere
abdicerede
abdul
abdullah
abe
abel
aber
aberdeen
abgerufen
abies
abigail
abildgaard
abonnement
abonnenter
abort
about
above
abraham
abrahams
abrahamsen
abrams
abruf
abruzzo
abs
absalon
absalons
absolut
absolute
absolutte
abstract
abstrakt
abstrakte
absurd
abu
abyss
ac
acade
academia
academic
academy
acceleration
accent
accept
acceptere
accepterede
accepterer
accepteres
accepteret
access
accessed
accord
according
account
ace
achievement
achilleus
acid
acoustic
across
act
acta
action
actionfilm
active
activity
actor
actors
actress
acts
actually
ad
ada
adam
adams
add
addis
addison
addition
address
ade
adel
adelaide
adele
adelen
adelens
adeler
adelgade
adelheid
adelig
adelige
adels
adelsmand
adelsmænd
adelsslægt
adelsslægter
adfærd
adgang
adgangen
adhd
adi
adjudant
adjunkt
adler
adlet
adlyde
adm
administration
administrationen
administrationsby
administrationsbygning
administrationscenter
administrationskategori
administrativ
administrative
administrativt
administrator
administratorer
administrere
administrerede
administrerende
administrerer
administreres
administreret
admiral
admiraler
admiralitetet
adobe
adolf
adolfs
adolph
adonis
adopterede
adopteret
adoption
adresse
adressen
adresser
adrian
adriaterhavet
adskille
adskillelse
adskillelsen
adskiller
adskilles
adskillige
adskilt
adskilte
adult
advance
advanced
advare
advarede
advarer
advaret
advarsel
advarsler
adventure
adventures
advisory
advokat
advokaten
advokater
ae
aero
aeroflight
aerospace
af
afbildet
afbildning
afbildninger
afbrudt
afbryde
afbrydelse
afbrydelser
afbryder
afbrydes
afbrænding
afbrændte
afbrød
afbud
afc
afd
afdeling
afdelingen
afdelinger
afdække
afdækket
afdød
afdøde
afdødes
aff
affair
affairs
affald
affleck
affyre
affyrede
affyres
affyret
affære
affæren
affærer
affødte
afføring
afga
afgang
afgange
afgangseksamen
afgav
afghanistan
afghanistans
afghanske
afgift
afgifter
afgik
afgive
afgiver
afgivet
afgivne
afgjorde
afgjort
afgrænsede
afgrænses
afgrænset
afgrænsning
afgrøde
afgrøder
afgør
afgøre
afgørelse
afgørelsen
afgørelser
afgørende
afgøres
afhandling
afhandlingen
afhandlinger
afhang
afhjælpe
afholde
afholdelse
afholder
afholdes
afholdt
afholdte
afholdtes
afhænger
afhængig
afhængige
afhængighed
afhængigt
afhørt
afkald
afkast
afklaret
afkom
aflagde
aflagt
aflange
afledning
afledt
afledte
aflejret
aflejringer
aflevere
afleverede
afleveret
aflyse
aflyst
aflyste
aflægge
aflægger
afløb
afløse
afløser
afløses
afløsning
afløst
afløste
afløstes
afprøve
afprøvet
afrejse
afrejsende
africa
african
afrika
afrikansk
afrikanske
afrikas
afro
afroamerikanere
afrundede
afrundet
afsagt
afsat
afsatte
afsejlede
afsides
afska
afskaffe
afskaffede
afskaffelse
afskaffelsen
afskaffet
afskar
afsked
afskedige
afskedigede
afskedigelse
afskediget
afskrift
afsky
afskære
afsla
afslag
afslappet
afslog
afslutning
afslutningen
afslutte
afsluttede
afsluttedes
afsluttende
afslutter
afsluttes
afsluttet
afsløre
afslørede
afslører
afsløres
afsløret
afsløring
afsløringen
afsnit
afsnittene
afsnittet
afspejle
afspejlede
afspejler
afspejles
afspiller
afsta
afstamning
afstand
afstande
afstanden
afsted
afstedkom
afstemning
afstemningen
afstemninger
afstod
afstraffelse
afsæt
afsætning
afsætte
afsættes
aftagende
aftager
aftale
aftalen
aftaler
aftalerne
aftalt
aftalte
aften
aftenen
aftenposten
after
aftog
aftonbladet
aftryk
afvander
afvandingsareal
afvandingsomra
afvente
afventede
afvigelse
afvigelser
afvigende
afviger
afvikle
afvikledes
afvikles
afviklet
afvikling
afviklingen
afvise
afvisende
afviser
afvises
afvisning
afvist
afviste
afværge
ag
again
against
agatha
agder
age
agency
agenda
agent
agenten
agenter
agentur
ager
agerbrug
agere
ages
agf
agger
aggression
aggressiv
aggressive
aggressivt
agitation
agnes
agnete
ago
agrarstrukturer
agre
agreement
agricultural
agt
agtede
agter
agtig
agtige
aguilera
ah
ahead
ahlefeldt
ahlmann
ahmad
ahmed
ahnen
ai
aid
aids
aik
aikido
aim
ain
air
airbus
aircraft
aires
airlines
airport
airways
ais
aise
aix
aj
ajax
ak
aka
akademi
akademie
akademien
akademiet
akademiets
akademikere
akademis
akademisk
akademiske
akatsuki
aker
akershus
akira
akko
akkompagneret
akkord
akkorder
akkurat
akkusativ
akronym
akropolis
aks
akse
aksel
aksemagterne
aksemagternes
aksen
aksler
akt
akter
aktier
aktierne
aktieselskab
aktieselskabet
aktion
aktionen
aktioner
aktionærer
aktiv
aktive
aktiver
aktivere
aktiveres
aktiveret
aktivering
aktivisme
aktivist
aktivister
aktivitet
aktiviteten
aktiviteter
aktiviteterne
aktivt
aktuel
aktuelle
aktuelt
aktør
aktører
akureyri
akustisk
akustiske
akut
akutte
akvarel
akvareller
akvarium
al
ala
alabama
aladdin
alain
alamein
alan
alarik
alarm
alaska
alba
albanien
albaniens
albans
albansk
albanske
albany
albedo
albert
alberta
alberti
alberto
albertslund
albin
albion
albrecht
albrechtsen
album
albumet
albummer
albummet
albummets
albums
albus
albæk
alcatraz
aldeles
alder
alderdom
alderen
aldo
aldre
aldrende
aldrig
ale
alec
alejandro
aleksander
aleksandr
aleksandra
aleksej
alen
alene
aleppo
alessandro
alex
alexander
alexanders
alexandra
alexandre
alexandria
alexandrine
alexios
alexis
alf
alfa
alfabet
alfabetet
alfabetisk
alfons
alfonso
alfred
alfredo
algarve
algebra
alger
algeriet
algeriets
algier
algoritme
algoritmer
alhambra
ali
alias
alice
alicia
alien
align
alignbars
alison
alive
alkmaar
alkohol
alkoholisme
alkoholmisbrug
all
alla
allah
allan
alle
allegro
allen
allende
aller
allerede
allerførste
allerslev
allerød
alles
allesammen
alletiders
alley
allga
allgemeine
alliance
alliancen
alliancer
alliances
allied
allierede
allieredes
allieret
alligevel
alling
allinge
allison
allmusic
allsvenskan
ally
alm
alma
almen
almene
almenheden
alment
almindelig
almindelige
almindelighed
almindeligste
almindeligt
almindeligvis
almost
almuen
alois
alone
along
alonso
alper
alperne
alpes
alpha
alphonse
alpin
alpine
alpint
als
alsace
alsidig
alslev
also
alstrup
alt
alta
alte
altenburg
alter
alteret
alternativ
alternative
alternativer
alternativet
alternativt
altertavle
altertavlen
altertavler
altfor
altid
altimetrica
alting
altinget
alto
altona
altsa
altsaa
altsammen
alufælge
aluminium
alumni
alverdens
alves
alvin
alvor
alvorlig
alvorlige
alvorligt
always
alzheimers
am
amadeus
amager
amagerbro
amalia
amalie
amaliegade
amalienborg
amalrik
amanda
amateur
amatør
amatører
amazing
amazon
amazonas
ambassade
ambassaden
ambassader
ambassadør
ambassadører
amber
ambient
ambition
ambitioner
ambitiøs
ambitiøse
ambrose
ambrosius
ambulance
ame
amelia
america
american
americans
amerika
amerikaner
amerikanere
amerikaneren
amerikanerne
amerikanernes
amerikansk
amerikanske
amerikas
amg
ami
amiens
amin
aminosyrer
amir
ammoniak
ammunition
amnesti
amnesty
amok
among
amor
amore
amos
amour
amrum
amsterdam
amt
amter
amterne
amtet
amtets
amtmand
amtmænd
amts
amtsforvalter
amtskreds
amtsra
amundsen
amur
amy
an
ana
anakin
analog
analoge
analogt
analyse
analysen
analyser
analysere
analysis
analytisk
analytiske
anand
anarkistiske
anastasia
anatolien
anatolij
anatomi
anatomiske
anatomy
anbefale
anbefalede
anbefaler
anbefales
anbefalet
anbefaling
anbefalinger
anbragt
anbragte
anbringe
anbringes
ancher
anciennitet
ancient
ancona
and
andalusien
andante
andel
andelen
andelsmejeri
anden
andenplads
andenpladsen
andens
anderberg
anderlecht
anderledes
anders
andersen
andersens
anderson
andersson
andesbjergene
andet
andetsteds
andorra
andra
andre
andrea
andreas
andreasen
andrej
andres
andresen
andrew
andrews
androg
android
andy
ane
anelse
anemone
aner
anerkende
anerkendelse
anerkendelser
anerkender
anerkendes
anerkendt
anerkendte
anes
anetavle
anette
anfald
anfører
anføres
anført
anførte
ang
anga
angav
angel
angela
angeles
angelina
angeln
angelo
angels
angelsaksisk
angelsaksiske
anger
angik
angive
angiveligt
angivelse
angiver
angives
angivet
angivne
angkor
angle
anglia
anglikanske
anglo
angola
angreb
angrebene
angrebet
angribe
angribende
angriber
angribere
angriberen
angriberne
angribes
angst
angus
anhalt
anholdelse
anholdt
anholt
animal
animals
animated
animation
animationsfilm
anime
animerede
animeret
anis
aniston
anita
anja
anjou
ankara
anker
anklage
anklagede
anklagemyndigheden
anklagen
anklager
anklageren
anklagerne
anklaget
ankom
ankomme
ankommer
ankommet
ankomst
ankomsten
anlagde
anlagdes
anlagt
anlagte
anledning
anledningen
anliggende
anliggender
anlæg
anlægge
anlæggelse
anlæggelsen
anlægges
anlægget
anløb
anmeldelse
anmeldelser
anmelder
anmeldere
anmelderen
anmelderne
anmeldt
anmeldte
anmode
anmodede
anmodet
anmodning
ann
anna
annaler
annales
annals
annas
anne
anneks
annekterede
annekteret
annektering
annekteringen
annelise
annes
annette
anni
annie
annika
anniversary
anno
annonce
annoncerede
annonceret
annual
annulleret
annæ
anonym
anonyme
anonymt
anordning
another
ans
ansa
ansaldobreda
ansat
ansatte
ansattes
ansbach
anschluss
anse
anseelse
anser
anses
anset
ansete
ansgar
ansigt
ansigter
ansigtet
anskaffe
anskaffede
anskaffet
anskuelse
anskuelser
ansla
anslag
anslog
anstalten
anstrengelser
anstrengt
ansvar
ansvaret
ansvarlig
ansvarlige
ansvarshavende
ansvarsomra
ansætte
ansættelse
ansættelsen
ansøgere
ansøgning
ansøgningen
ansøgninger
ansøgte
ant
antage
antagelig
antagelse
antagelser
antager
antages
antaget
antal
antallet
antarctic
antarktis
antarktiske
antenne
antenner
anthology
anthon
anthony
anthropology
anti
antibiotika
antietam
antik
antikke
antikken
antikkens
antiluftskyts
antiochia
antiokia
antisemitiske
antisemitisme
antistoffer
antiuba
anto
antog
antoine
antoinette
antologi
antologien
antologier
anton
antoni
antonio
antonius
antony
antropologi
antvorskov
antwerpen
antydede
antyder
antydet
anvende
anvendelig
anvendelige
anvendelse
anvendelsen
anvendelser
anvender
anvendes
anvendt
anvendte
anvendtes
anvisninger
any
anything
anzac
ao
ap
apache
apartheid
apg
api
apollo
apollon
apostel
apostle
apostlen
apostlene
apostlenes
apostoliske
apotek
apoteker
apoteket
app
apparat
apparater
apparatet
appel
appellere
appellerede
appendix
apple
apples
application
applications
applied
applikationer
approach
apps
apr
april
aps
apsis
apulien
aqua
aquila
aquinas
aquitaine
aquitanien
ar
ara
arab
arabere
araberne
arabien
arabisk
arabiske
aragonien
arbeiderpartiet
arbejde
arbejdede
arbejdende
arbejder
arbejderbevægelsen
arbejderbevægelsens
arbejdere
arbejderen
arbejderklassen
arbejderne
arbejdernes
arbejderparti
arbejdes
arbejdet
arbejdets
arbejds
arbejdsgiver
arbejdsgivere
arbejdsgiverforening
arbejdsgruppe
arbejdskraft
arbejdslegat
arbejdsliv
arbejdsløse
arbejdsløshed
arbejdsløsheden
arbejdsmarked
arbejdsmarkedet
arbejdsmiljø
arbejdsomra
arbejdsplads
arbejdspladser
arbejdsstyrken
arbuckle
arc
arch
archaeological
archaeology
archer
archibald
archie
architects
architecture
archiv
archive
archived
archives
arctic
ard
arden
are
area
areal
arealer
arealet
arealmæssigt
areas
arena
arenaen
arenaer
arendal
arendt
arenfeldt
ares
argentina
argentinas
argentinsk
argentinske
argos
argument
argumentation
argumenter
argumentere
argumenterede
argumenterer
argumenteret
argumentet
ari
aria
arie
ariel
arier
arild
arish
aristokrati
aristokratiet
aristokratiske
aristoteles
arizona
ark
arkansas
arken
arkhangelsk
arkitekt
arkitekten
arkitektens
arkitekter
arkitekterne
arkitektonisk
arkitektoniske
arkitektskole
arkitektur
arkitekturen
arkiv
arkivalier
arkivar
arkiver
arkiveret
arkivet
arktis
arktisk
arktiske
arkæolog
arkæologen
arkæologer
arkæologerne
arkæologi
arkæologisk
arkæologiske
arla
arles
arlington
arm
armada
armand
armba
arme
armed
armee
armen
armene
armenien
armeniens
armensk
armenske
armin
arms
armstrong
army
arn
arne
arnhem
arno
arnold
arol
aron
aros
around
arrangement
arrangementer
arrangementet
arrangere
arrangerede
arrangerer
arrangeres
arrangeret
arrangør
arrangørerne
arras
array
arrest
arrestation
arrestere
arresterede
arresteret
arriva
arrondissement
arrondissementer
arrow
ars
arsenal
art
arte
artefakter
artemis
arten
arter
arteria
arterne
arthur
arthurs
arti
article
articles
artie
artikel
artiklen
artikler
artiklerne
artilleri
artilleribeskydning
artilleriet
artilleriregiment
artillery
artist
artister
artists
artois
arts
artur
arup
arv
arve
arvede
arvefølge
arvefølgekrig
arvefølgen
arvelig
arvelige
arven
arveprins
arveret
arvet
arvid
arving
arvingen
arvinger
arvingerne
arvtager
as
asa
asbjørn
aschehoug
ascii
asconius
aserbajdsjan
aserne
asfalt
asfalteret
asga
asger
ash
ashley
ashton
asia
asian
asiatisk
asiatiske
asien
asiens
ask
aske
asken
askepot
asker
askov
asmussen
asnæs
asp
aspects
aspekt
aspekter
aspergers
aspx
ass
assad
assassin
assembly
assens
assessment
assessor
assisi
assist
assistance
assistens
assistent
assistenttræner
assistere
assisterende
assisteret
assists
associated
association
associations
associeret
assyrien
assyriske
asta
astana
aster
asterix
asteroide
asteroider
astma
aston
astra
astrid
astro
astronaut
astronauter
astronom
astronomer
astronomi
astronomisk
astronomiske
astronomy
astrup
asturien
asyl
asylansøgere
asymmetrisk
at
atalanta
atatu
atc
ateisme
atelier
athen
athena
athene
athens
athletes
athletic
atkins
atkinson
atlanta
atlanten
atlanterhavet
atlantic
atlantis
atlantiske
atlas
atle
atlet
atleter
atletik
atletikudøver
atmosfære
atmosfæren
atmosfærisk
atmosfæriske
atollen
atom
atombombe
atomer
atomic
atomva
atp
att
attack
atten
attentat
attentatet
atter
atterdag
attila
attitude
attraktion
attraktioner
attraktiv
attraktive
attraktivt
au
auburn
auch
auckland
aud
audi
audio
audition
audrey
auf
auflage
aug
augsburg
august
augusta
auguste
augustenborg
augustin
augustinus
augusto
augustus
auken
auktion
auning
aura
aurelius
aurora
aus
auschwitz
austen
austin
australasien
australia
australian
australien
australiens
australierne
australsk
australske
austria
autentisk
autentiske
author
authority
autisme
auto
autobahn
autodidakt
automatgear
automatic
automatisk
automatiske
automobil
automobile
autonom
autonome
autonomi
autorisation
autoriserede
autoriseret
autoritet
autoriteter
autoritære
autumn
auvergne
aux
auxerre
av
ava
available
avalon
avancerede
avanceret
avant
avantgarde
avatar
ave
avec
avedøre
avengers
avenue
average
avery
aviation
avibase
avignon
avis
avisen
avisens
aviser
aviserne
aviv
avl
avlet
avlsga
avro
awakening
award
awards
away
awm
ax
axel
axelsen
ayatollah
az
aziz
azkaban
b
ba
baade
baba
babe
baby
babylon
bach
bache
bachelor
bachelorgrad
bachs
back
background
backing
backs
backstage
backstreet
backup
bacon
bad
baddeley
bade
badehotel
baden
badminton
badmintonspiller
badmintonspillere
baekje
bafta
bag
bagdad
bagefter
bager
bageri
bagerste
bages
bageste
bagfra
bagga
bagge
bagger
baggesen
baggrund
baggrunden
baggrundsvokal
baghjulstrukne
baghold
bagi
bagland
baglygter
baglæns
bagside
bagsiden
bagsværd
bagt
bagtil
bagud
bagved
bagvokal
bahamas
bahn
bahnhof
bahrain
baht
bai
bailey
bak
baker
bakerloo
bakke
bakkede
bakken
bakker
bakkerne
bakket
bakterie
bakterien
bakterier
baku
bal
balance
balancen
balder
balders
balduin
baldwin
bale
bali
balkan
ball
ballad
ballade
balladen
ballader
ballard
balle
ballerup
ballet
balletmusik
balletten
balletter
balling
ballon
balls
ballum
balslev
balthasar
balthazar
baltic
baltikum
baltimore
baltiske
bam
bamberg
bambus
bamse
bamses
ban
band
bande
banden
bandens
bander
bandet
bandets
bandholm
bandicoot
bandidos
bandlyst
bandmedlemmer
bands
bandt
bandy
bane
banebrydende
banecykling
banedanmark
banede
banega
banen
banens
baner
banerne
banetrace
bang
bange
bangkok
bangladesh
bangs
bangsbo
banjo
bank
bankdirektør
banke
bankede
banken
bankens
banker
bankerne
banks
banner
bantamvægt
baptiste
bar
bara
barack
barbados
barbano
barbara
barbarossa
barber
barcelona
bardenfleth
bare
baren
barer
barfod
barfoed
bari
bark
barken
barker
barlow
barmhjertighed
barn
barnard
barndom
barndommen
barndomshjem
barnebarn
barner
barnes
barnet
barnets
barnett
barney
barnløs
barnløse
barnløst
barns
barok
barokken
barokstil
baron
baroner
baronesse
baroniet
barr
barra
barre
barrett
barriere
barrieren
barrow
barry
barrymore
bars
barsk
barske
bart
barth
bartholin
barton
baryton
bas
basale
basalt
base
baseball
based
basel
basen
baser
baserede
baserer
baseres
baseret
basguitar
bash
basic
basil
basilika
basin
basis
basisanalysen
baskerlandet
basketball
basketballspiller
basketballspillere
baskiske
bass
basse
bassin
bassiner
bassinet
bassist
bassisten
bassister
basso
bastian
bastien
bastion
bat
bataljon
bataljonen
bataljoner
bates
bath
batista
batman
battalion
battenberg
batteren
batteri
batterier
batteriet
battery
battista
battle
battlefield
battles
battleships
bauditz
bauer
baum
baumann
bavnehøj
baxter
bay
bayer
bayern
bayerns
bayerske
bayreuth
bb
bbc
bc
bd
be
beach
bean
bear
bearbejde
bearbejdede
bearbejdelse
bearbejdet
bearbejdning
bears
beast
beat
beate
beatles
beatrice
beatrix
beats
beaufort
beaumont
beautiful
beauty
beaux
beaver
beboede
beboelse
beboer
beboere
beboerne
beboet
bebyggede
bebyggelse
bebyggelsen
bebyggelser
bebyggelserne
bebygget
bec
because
bech
beck
becker
becket
beckett
becks
become
bed
bede
beder
bedford
bedrag
bedrageri
bedre
bedrift
bedrifter
bedrøvet
bedst
bedste
bedsted
bedstefader
bedstefar
bedsteforældre
bedstemoder
bedstemor
bedt
bedømme
bedømmelse
bedømt
bee
been
beer
beersheba
beethoven
beethovens
beetle
beevor
bef
befalede
befaling
befandt
befinde
befinder
befolkede
befolket
befolkning
befolkningen
befolkningens
befolkninger
befolknings
befolkningsgruppe
befolkningsgrupper
befolkningstal
befolkningstallet
befolkningstilvækst
befolkningstæthed
befolkningstætheden
befolkningsudvikling
befolkningsvækst
before
befri
befriede
befrielse
befrielsen
befrier
befriet
befæste
befæstede
befæstet
befæstning
befæstninger
beføjelser
bega
begav
begavede
begavelse
begavet
begejstrede
begejstret
begejstring
begge
begik
begin
beginning
begins
begivenhed
begivenheden
begivenheder
begivenhederne
begrave
begravede
begravelse
begravelsen
begravelser
begravelsesplads
begraves
begravet
begreb
begreber
begreberne
begrebet
begrundede
begrundelse
begrundelsen
begrundet
begrænse
begrænsede
begrænser
begrænses
begrænset
begrænsning
begrænsninger
begtrup
begynde
begyndelse
begyndelsen
begyndende
begynder
begyndere
begyndes
begyndt
begyndte
begyndtes
begær
beha
behag
behagelig
behageligt
behandle
behandlede
behandler
behandles
behandlet
behandling
behandlingen
behandlinger
behavior
beherskede
behind
behold
beholde
beholder
beholdere
beholdt
behov
behovet
behøvede
behøver
behøves
bei
beijing
being
beirut
beitra
bek
bekendelse
bekender
bekendt
bekendte
bekendtgjorde
bekendtgjort
bekendtgørelse
bekendtskab
beklagede
beklædning
beklædt
beklædte
bekostning
bekræfte
bekræftede
bekræftelse
bekræfter
bekræftes
bekræftet
bekymrede
bekymret
bekymring
bekymringer
bekæmpe
bekæmpede
bekæmpelse
bekæmper
bel
bela
belagt
belastet
belastning
belejrede
belejret
belejring
belejringen
belfast
belgien
belgiens
belgierne
belgisk
belgiske
believe
beliggende
beliggenhed
beliggenheden
bell
bella
bellahøj
belle
bellevue
belli
bells
below
belt
belyse
belysning
belyst
belæg
belægning
beløb
beløbet
belønnet
belønning
bemaling
bemandede
bemandet
bemærk
bemærke
bemærkede
bemærkelsesværdig
bemærkelsesværdige
bemærkelsesværdigt
bemærker
bemærkes
bemærket
bemærkning
bemærkninger
ben
bena
benbaring
benbart
bend
bender
bendix
bendixen
bendt
bendtsen
bene
benedict
benedicte
benedikt
benedikte
benene
benet
benfica
bengt
bengtsson
benhed
benhus
benhuset
benhvile
benhvilen
benin
benito
benjamin
benlyse
benlyst
bennett
benny
benoit
benra
bens
benskjold
benson
benstilstand
benstilstanden
bent
bente
bentley
bentsen
bentzon
benytte
benyttede
benyttedes
benyttelse
benytter
benyttes
benyttet
benz
benzin
benzinmotor
benzinmotorer
benzon
benægtede
benægter
benævnelse
benævnelsen
benævnes
benævnt
beograd
beordre
beordrede
beordrer
beordret
beowulf
ber
bera
beredne
beredskab
beredskabsstyrelsen
beregne
beregnede
beregnes
beregnet
beregning
beregninger
beretning
beretningen
beretninger
berettede
beretter
berettes
berettigede
berettiget
berg
berge
bergen
bergenhus
bergens
bergensbanen
berger
bergman
bergmann
bergs
bergsøe
bering
berit
berkeley
berkshire
berlin
berliner
berling
berlingske
berlinmuren
berlins
bermuda
bern
bernadotte
bernard
bernardo
bernburg
bernd
berner
bernhard
bernie
bernstein
bernstorff
bernt
berntsen
bero
beror
berry
bert
bertel
bertelsen
bertha
berthelsen
berthold
bertil
bertram
bertrand
beruset
berygtede
berygtet
beryllium
berømmelse
berømt
berømte
berømtheder
berører
berøring
berørt
berørte
bes
besad
besat
besatte
besejre
besejrede
besejrer
besejret
besidde
besiddelse
besiddelser
besidder
beskadigede
beskadiget
beskaffenhed
beskatning
besked
beskeden
beskedent
beskeder
beskedne
beskidte
beskrev
beskrevet
beskrevne
beskrive
beskrivelse
beskrivelsen
beskrivelser
beskrivende
beskriver
beskrives
beskudt
beskueren
beskyde
beskydning
beskydningen
beskylder
beskyldninger
beskyldt
beskyldte
beskytte
beskyttede
beskyttelse
beskyttelsen
beskyttende
beskytter
beskyttes
beskyttet
beskæftige
beskæftigede
beskæftigelse
beskæftigelsen
beskæftiger
beskæftiget
beskød
beslag
beslaglagt
beslan
beslutning
beslutningen
beslutninger
beslutte
besluttede
besluttedes
beslutter
besluttet
beslægtede
beslægtet
besparelser
best
besta
bestaar
bestand
bestanddel
bestanddele
bestande
bestanden
bestandig
beste
besteg
bestemme
bestemmelse
bestemmelsen
bestemmelser
bestemmelserne
bestemmende
bestemmer
bestemmes
bestemt
bestemte
bestige
bestikkelse
bestille
bestilling
bestilt
bestilte
bestod
bestred
bestræbelser
bestræbelserne
bestseller
bestyrelse
bestyrelsen
bestyrelser
bestyrelsesformand
bestyrelsesmedlem
bestyrelsesmedlemmer
bestyrer
besvare
besvarede
besvær
besværlig
besværlige
besværligt
besætning
besætningen
besætninger
besætningsmedlemmer
besætte
besættelse
besættelsen
besættelsesmagt
besættelsesmagten
besøg
besøge
besøgende
besøger
besøges
besøget
besøgt
besøgte
bet
beta
betale
betaler
betales
betaling
betalinger
betalt
betalte
betegne
betegnede
betegnelse
betegnelsen
betegnelser
betegnelserne
betegner
betegnes
betegnet
beth
betingede
betingelse
betingelser
betingelserne
betinget
betis
betjene
betjener
betjenes
betjening
betjeningen
betjent
betjente
beton
betonede
betragte
betragtede
betragtedes
betragtelig
betragteligt
betragter
betragtes
betragtet
betragtning
betragtninger
betroede
betroet
better
bettina
betty
between
betyde
betydelig
betydelige
betydeligste
betydeligt
betydende
betyder
betydet
betydning
betydningen
betydninger
betydningsfuld
betydningsfulde
betydningsfuldt
betænkning
betød
beundrede
beundrer
beundring
bevare
bevarede
bevarelse
bevarer
bevares
bevaret
bevaring
bevaringsværdige
beverly
bevidst
bevidste
bevidsthed
bevidstheden
bevidstløs
bevilgede
bevilget
bevilling
bevillinger
bevirkede
bevirker
bevis
bevise
beviser
bevises
bevist
beviste
bevo
bevogtede
bevogtet
bevæbnede
bevæbnet
bevæbning
bevæge
bevægede
bevægelige
bevægelse
bevægelsen
bevægelsens
bevægelser
bevæger
bevæget
bey
beyer
beyonce
beyond
bezirk
bf
bg
bh
bhumibol
bhutan
bi
bianca
bibeholdt
bibel
bibelen
bibelens
bibelsk
bibelske
bible
biblen
bibliografi
bibliotek
bibliotekar
bibliotekarer
biblioteker
bibliotekerne
biblioteket
bibliotekets
biblioteks
bibliothek
bid
bide
biden
bidrag
bidrage
bidrager
bidraget
bidrog
bidstrup
bidt
bie
bieber
bielefeld
bielke
bier
bifald
biflod
bifloder
bifrost
big
bil
bilag
bilagskort
bilancio
bilande
bilbao
bild
bilde
bilder
bilen
bilens
biler
bilerne
bilfabrikant
bill
billboard
billboards
bille
billed
billedbog
billede
billeder
billederne
billedet
billedets
billedgalleri
billedhugger
billedhuggere
billedhuggeren
billedkunst
billedkunstner
billedkunstnere
biller
billet
billetsalg
billetter
billie
billig
billige
billigere
billigt
billion
billund
billy
bilmodel
bilmodeller
bilulykke
bin
bind
binde
bindende
binder
bindes
bindesbøll
binding
bindinger
bindingsværk
bing
bingen
binære
bio
biodiversitet
biograf
biografen
biografer
biograferne
biografi
biografien
biografier
biografiforfattere
biografisk
biografiske
biographical
biographie
biography
biokemi
biolog
biologer
biologi
biological
biologisk
biologiske
biology
bios
biosfærereservat
bioteknologi
bipolar
bir
birch
bird
birds
birger
birgit
birgitta
birgitte
birk
birkerød
birket
birmingham
birolle
biroller
birte
birth
birthday
birthe
bis
bisat
bischoff
bisgaard
bishop
biskop
biskoppen
biskopper
biskopperne
bismarck
bismarcks
bison
bispebjerg
bispedømme
bispedømmet
bispega
bispesæde
bissen
bista
bistand
bit
bitcoin
bitre
bits
bitter
bitterhed
bivirkninger
bizarre
bjarke
bjarne
bjerg
bjergarter
bjergby
bjerge
bjergene
bjerget
bjergkonkurrencen
bjergkæde
bjergkæden
bjergkæder
bjergomra
bjergpas
bjergrige
bjergspurt
bjergtoppe
bjerke
bjerre
bjerregaard
bjerringbro
bjerrum
bjo
bjælke
bjælker
bjørn
bjørne
bjørnen
bjørnson
bk
bl
bla
blaa
blachman
black
blackburn
blackmore
blackpool
blackwell
blad
blade
bladene
bladet
bladets
bladhjørnerne
blaine
blair
blake
blanc
blanche
bland
blande
blandede
blander
blandes
blandet
blanding
blandingen
blandinger
blandt
blank
blanke
blast
blavatsky
ble
bleg
blege
blekinge
blenheim
blev
bleve
bleven
blevet
blevne
bli
blicher
blide
blik
blikket
blind
blinde
blink
blinkende
blir
bliv
blive
blivende
bliver
blixen
blo
bloch
block
blod
blodbad
blodet
blodig
blodige
blodigt
blodlegemer
blodprop
blodtryk
blog
blogs
blogspot
blok
blokade
blokaden
blokere
blokerede
blokeret
blokhus
blokke
blokken
blom
blomst
blomsten
blomster
blomsterne
blomstre
blomstrede
blomstrende
blomstrer
blomstring
blomstringen
blond
blonde
blood
bloody
bloom
bloomberg
blot
blotte
blow
blu
blue
blues
blume
blunt
blussede
bly
blyant
blæk
blæksprutter
blæser
blæst
blæste
blød
bløde
blødere
blødt
bm
bmg
bmw
bmx
bne
bnede
bnedes
bnene
bner
bnes
bnet
bnets
bni
bning
bningen
bninger
bningsceremonien
bnp
bo
board
boat
bob
bobby
bobler
boca
bochum
bock
bod
bodensøen
boder
bodil
bodilprisen
bodom
body
bodø
boe
boede
boeing
boel
boende
boer
boerne
boesen
boet
bog
bogen
bogens
bogense
bogform
boghandel
boghandler
bogholder
bogs
bogsamling
bogstav
bogstavelig
bogstaveligt
bogstaver
bogstaverne
bogstavet
bogtrykker
bogtrykkeri
bogværket
bogø
bohr
bohrs
bohusla
bois
boisen
bojsen
bok
bokma
boks
bokse
boksede
boksen
bokser
boksere
boksning
bokssæt
bold
bolde
bolden
boldklub
boldklubben
boldklubs
boldspil
bolette
boleyn
bolig
boligbyggeri
boligen
boliger
boligomra
bolivia
bolivias
bolle
boller
bologna
bolsjevikkerne
bolt
bolton
bom
bomb
bombardement
bombardementer
bombardementet
bombarderede
bombardier
bombay
bombe
bombeangreb
bombede
bombefly
bomben
bomber
bomberne
bombet
bombning
bombningen
bomuld
bon
bonanza
bonaparte
bond
bonde
bondega
bonden
bonds
bone
bones
bonn
bonne
bonnie
bonnier
bonus
bonusspor
boogie
book
booker
books
boom
boone
boost
boot
booth
bopa
boplads
bopladsen
bopladser
bopæl
bor
bora
borch
bord
borde
bordeaux
border
bordet
bording
bordtennis
borg
borge
borgen
borgens
borger
borgerdyd
borgerdydskolen
borgere
borgeren
borgerkrig
borgerkrige
borgerkrigen
borgerlig
borgerlige
borgerligt
borgerne
borgernes
borgerrepræsentation
borgerrepræsentationen
borgerrettigheder
borgerskab
borgerskabet
borgmester
borgmesteren
borgmesterfakta
borgmesterposten
borgmestre
borgmestredanske
boring
boris
bork
born
bornemann
borneo
bornholm
bornholms
bornholmske
borough
borre
bort
borte
bortfaldt
bortført
bortset
bortvist
borum
borup
borussia
bosat
bosatte
bosch
bosiddende
bosnien
bosnisk
bosniske
boss
bosse
boston
bosworth
bosætning
bosætte
bosættelse
bosættelsen
bosættelser
bosættere
botanik
botaniker
botanikere
botanisk
botaniske
botany
both
botswana
bottom
boulevard
boulevarden
boulogne
boulton
bound
bounty
bourbon
bourgeois
bourgogne
bourne
bournemouth
bournonville
bov
bow
bowie
bowl
bowling
box
boxer
boxing
boy
boyd
boye
boykot
boyle
boys
bp
br
bra
brabant
brabrand
brad
bradford
bradley
brady
bragg
bragt
bragte
brahe
brahes
brahetrolleborg
brahms
brain
bramming
bramsen
branch
branche
branchen
brancher
brand
brande
branden
brandenburg
brandes
brandet
brandon
brands
brandt
brandts
brandvæsen
brandy
branner
brarup
brasiliansk
brasilianske
brasilien
brasiliens
brask
brass
brast
brat
bratislava
bratsch
braun
braunschweig
brave
bravo
brazil
bre
break
breakfast
breaking
breakthrough
brecht
bred
breda
bredahl
bredba
bredde
breddegrad
breddekreds
bredden
bredder
brede
breder
bredere
bredeste
bredgade
bredning
bredsdorff
bredsted
bredt
bredte
bregentved
bregenz
bregner
bregninge
breivik
bremen
bremse
bremser
bremset
brenda
brendan
brennan
brent
brentford
breschel
brescia
breslau
brest
bret
bretagne
brett
brev
breve
brevene
brevet
brevveksling
brian
briand
bricka
bride
bridge
bridges
brief
brien
brigade
brigadegeneral
brigaden
brigader
brigades
briggs
brigham
bright
brighton
brigitte
brik
brikker
brill
briller
brinch
bring
bringe
bringer
bringes
brink
brint
brisbane
bristol
brit
britain
britannia
britannica
britannien
briter
briterne
briternes
british
britisk
britiske
britney
britt
britta
brittany
brix
brno
bro
broad
broadcast
broadcasting
broadway
broager
broberg
broby
brochure
brock
brockdorff
brockenhuus
broder
broderen
broderskab
broen
broendby
broens
broer
broerne
brogede
broget
broholm
brohoved
brohovedet
brok
broken
bromwich
bronx
bronze
bronzealder
bronzealderen
bronzekamp
bronzekampen
bronzemedalje
bronzemedaljen
bronzemedaljer
bronzemedaljerne
bronzemedaljevindere
brook
brooke
brooklyn
brooks
bror
brors
brorson
bros
brother
brothers
brovst
brown
browning
browns
browser
broz
brt
bru
bruce
brud
bruddet
bruden
brudens
brudstykker
brudt
brug
brugbar
brugbare
brugbart
bruge
brugen
bruger
brugere
brugeren
brugerens
brugerne
bruges
brugge
brugsforening
brugt
brugte
brugtes
bruhn
brun
brune
brunei
bruno
brunswick
brunt
brutal
brutale
brutalitet
brutalt
brutus
bruun
bruuns
bruxelles
bryan
bryant
bryde
bryder
brydes
brydning
brygge
bryggen
brygger
bryggeren
bryggeri
bryggerier
bryggeriet
bryghus
brygmann
bryllup
bryllupper
brylluppet
bryrup
bryssel
bryst
bryster
brystet
brædder
brædstrup
brækkede
brækket
brænde
brændende
brænder
brændes
brændevin
brændsel
brændstof
brændstoffer
brændstofforbrug
brændt
brændte
bræt
brætspil
brættet
brød
brødet
brødre
brødrene
brødrenes
brøgger
brønd
brøndby
brønde
brønden
brønderslev
brøndsted
brøndum
brønshøj
bs
bsc
bt
bte
bu
buch
buchanan
buchwald
buck
buckingham
buckinghamshire
buckley
bud
budapest
buddha
buddhisme
buddhismen
buddhist
buddhistisk
buddhistiske
buddinge
buddy
budget
budgettet
budo
budskab
budskaber
budskabet
budt
budtz
bue
buede
buen
buenos
buer
bueskydning
bueskytter
buet
buffalo
buffer
bug
bugge
bugt
bugten
bugter
buhl
build
building
buildings
built
buk
bukarest
bukkede
bukser
bulgarerne
bulgarien
bulgariens
bulgarsk
bulgarske
bull
bulldog
bulldogs
bullet
bulletin
bulls
bund
bunden
bundesen
bundesliga
bundesligaen
bundesstraße
bundet
bundgaard
bundne
bunds
bunke
bunker
bunkeren
bunkers
bur
burde
bureau
buret
burg
burger
burgess
burgund
burgunderne
burgundiske
burhan
burke
burkina
burma
burmeister
burn
burning
burnley
burns
burnside
burroughs
burt
burton
burundi
bury
burzum
bus
busch
busck
busfronten
bush
business
busk
buske
busken
buslinje
buslinjer
bussen
busser
busserne
buste
buster
busterminal
but
butik
butikken
butikker
butikkerne
butler
butterfly
buxwv
buy
buzz
bwv
by
bybusser
byde
bydel
bydele
bydelen
bydelene
byder
bydistrikter
bydistriktet
bye
byen
byens
byer
byerne
byernes
byers
byfoged
byg
bygd
bygden
bygder
bygderne
bygge
byggede
byggedes
byggematerialer
bygger
byggeri
byggerier
byggeriet
bygges
byggeskik
bygget
bygherre
bygmester
bygning
bygningen
bygningens
bygninger
bygningerne
bygnings
bygningsdele
bygningsinspektør
bygningsværk
bygningsværker
byhøj
bymidte
bymidten
bymur
bymure
bymuren
bymuseum
bymæssig
bymæssige
bynet
byomra
byplan
byplanlægning
bypræfekturer
bypræfekturet
byra
byrd
byrde
byret
byretten
byrettigheder
byrne
byron
bys
bysamfund
bystater
bystatus
bystyre
bystyret
bytrafik
bytte
byttede
byttedyr
byttet
byudvikling
byudviklingen
byudviklingsomra
byudviklingsplan
byva
byzans
byzantinerne
byzantinsk
byzantinske
bz
bæger
bæk
bække
bækken
bælt
bælte
bælter
bælterne
bæltet
bænk
bænke
bænken
bær
bærbare
bære
bæredygtig
bæredygtige
bæredygtighed
bæredygtigt
bærende
bærer
bæres
bærum
bød
bøde
bøder
bødker
bøg
bøge
bøger
bøgerne
bøgh
bøhmen
bøhmiske
bøje
bøjede
bøjer
bøjes
bøjet
bøjning
bøl
bølge
bølgelængde
bølgelængder
bølgen
bølger
bølgerne
bølget
bølle
bøn
bønder
bønderne
bøndernes
bønnen
bønner
bør
børge
børglum
børn
børne
børnebog
børnebogsforfattere
børnebogspris
børnebøger
børnebørn
børnefilm
børnehave
børnehaven
børnehaver
børnehjem
børnehuset
børnene
børnenes
børns
børs
børsen
børsnoteret
c
ca
cabaret
cable
cabriolet
cactus
cadillac
caen
caesar
caf
cafe
cage
cai
cairo
calabrien
calais
calcio
calcium
calcutta
caldwell
calendar
calgary
california
californien
californiens
calixtus
call
called
calling
calvin
cam
cambodia
cambodja
cambridge
camden
came
camel
camelot
cameo
camera
cameron
cameroun
camilla
camille
camino
camp
campaign
campania
campbell
camping
campingplads
campo
campus
can
canada
canadas
canadian
canadiere
canadierne
canadisk
canadiske
canal
canberra
cancer
cand
candy
cannabis
cannes
cannon
canon
canterbury
canto
canvas
canyon
cao
cap
cape
capital
capitol
capo
cappelen
cappella
captain
capture
capua
car
carbon
card
cardiff
cards
care
career
carey
cargo
caribbean
caribien
caribiske
carina
carit
carl
carla
carlisle
carlo
carlos
carlsberg
carlsbergfondet
carlsen
carlsson
carlton
carmen
carnegie
carol
carolina
caroline
carpenter
carr
carrie
carrier
carroll
cars
carson
carsten
carstens
carstensen
carter
cartoon
cas
casa
casablanca
case
cases
casey
cash
casino
caspar
casper
cassidy
cassino
cast
castel
castello
castenschiold
castet
castilla
casting
castle
castles
castro
cat
catalanes
catalansk
catalanske
catalina
catalogue
catalonien
catch
category
catharina
cathedral
catherine
catholic
cathrine
cato
cats
cause
cavalry
cave
cavendish
cb
cbc
cbs
cc
cd
cdi
cdot
cdu
ce
cecil
cecilia
cecilie
cedar
cedric
celebration
celebrity
cell
celle
cellen
cellens
celler
cellerne
cello
cellulose
celsius
celtic
celtics
cembalo
cement
cemetery
cena
censor
censur
censuren
census
cent
center
centeret
centers
centimeter
central
centralafrikanske
centralasien
centralbank
centrale
centraleuropa
centraliseret
centralkomite
centralla
centralnervesystemet
centralt
centre
centreret
centret
centrum
centuries
century
ceo
ceremoni
ceremonielle
ceremonien
ceremonier
ceres
cern
cerro
cerrone
certain
certificeret
certificering
certificeringer
cesare
cessna
cest
cet
ceylon
cf
cgi
ch
cha
chad
chain
chair
challenge
challenger
chamber
chamberlain
chambers
champagne
champion
championnat
champions
championship
championships
champs
chan
chance
chancellorsville
chancen
chancer
chandler
chanel
chang
change
changes
changing
channel
chao
chaos
chapel
chaplin
chapman
chapter
character
characters
charge
charing
charity
charles
charleston
charlie
charlotte
charlottenborg
charlottenburg
charlottenlund
charlton
charme
charmerende
chart
charter
charts
chase
chassis
chat
chatham
chattanooga
chaucer
chauffør
chauvel
che
check
chef
chefen
chefer
chefredaktør
chefredaktører
cheftræner
chelsea
chem
chemical
chemistry
chemnitz
chen
chengdu
cher
cherbourg
cherokee
cherokeserne
cherry
cheshire
chess
chester
chevrolet
chewbacca
cheyenne
chi
chiang
chicago
chick
chicken
chief
chiefs
chikane
child
children
chile
chilensk
chilenske
chiles
chili
china
chinese
chip
chips
chloe
cho
choice
choir
chok
choke
chokeret
chokolade
choose
chopin
chopins
chr
chris
christ
christen
christensen
christensens
christer
christi
christian
christiane
christiania
christianity
christians
christiansborg
christiansen
christiansfeld
christianshavn
christianshavns
christiansø
christie
christina
christine
christmas
christoffer
christoffersen
christoph
christophe
christopher
christus
chronicle
chronicles
chrysler
chu
chuck
chung
church
churchill
churchills
ci
cia
cicero
cid
cie
ciffer
cifre
cifrene
cigaretter
cincinnati
cindy
cinema
cio
circ
circle
circuit
circus
cirka
cirkel
cirklen
cirkler
cirkulation
cirkulær
cirkulære
cirkus
cirkusrevyen
cis
cisco
citadel
citadellet
citat
citater
citatet
citerede
citerer
citeret
cities
citizen
citroe
citron
city
cityringen
citys
ciudad
civic
civil
civilbefolkningen
civile
civilingeniør
civilisation
civilisationen
civilisationer
civilization
civilt
ck
cke
cken
cker
cksborg
ckstadt
cl
claes
claims
clair
claire
clan
clancy
clapham
clapton
clara
clare
clarence
clarendon
clark
clarke
clary
clash
class
classic
classical
classics
classification
claude
claudia
claudio
claudius
claus
clausen
clausens
clay
clayton
cle
clean
clear
clemens
clement
clemmensen
cleopatra
clermont
cleveland
cliff
clifford
climate
clinical
clint
clinton
clio
clive
clock
close
closer
cloud
club
clube
clubs
clunies
clyde
cm
cn
cnn
co
coach
coast
coat
cobra
coburg
coca
cocker
cockpit
cockpittet
coco
cod
codan
code
codex
cody
coffee
cohen
cohn
col
cola
colbert
cold
coldplay
cole
coleman
colin
collected
collection
college
collin
collins
colo
colombia
colombiansk
colombianske
colonel
colonial
color
colorado
colors
colour
colt
columbia
columbus
com
combat
combi
combination
combined
come
comeback
comedy
comers
comes
comfort
comic
comics
coming
command
commander
commando
commentary
commerce
commercial
commission
committee
commodore
common
commonrail
commons
commonwealth
communication
communications
communities
community
como
compagnie
companion
company
comparative
competition
compilation
complete
complex
compton
computer
computere
computeren
computerspil
computerworld
computing
comte
comune
con
conan
concacaf
concept
concert
concerto
concord
confederations
conference
conflict
congo
congress
connecticut
connection
connell
connie
connor
conquest
conrad
cons
consciousness
conservation
constance
constant
constantin
constantius
constitution
construction
contact
container
containere
contemporary
content
contest
continental
contributions
control
convention
conway
cook
cooke
cool
coop
cooper
cooperation
cop
copa
copenhagen
coppa
copyright
coq
core
corey
corfitz
corgan
cork
cornelis
cornelius
cornell
corner
cornwall
corolla
corona
coronavirus
coronaviruspandemien
corp
corporate
corporation
corps
corpus
corr
corrs
corsa
cort
corte
cortex
corun
cos
cosimo
cost
costa
costello
cottage
cotton
could
council
count
counter
counties
countries
country
county
countys
coupe
cour
courbet
course
court
courtney
cov
coventry
cover
coverage
coveret
coverversion
coverversioner
covid
cowboy
cowboys
cox
cp
cph
cpr
cpu
cr
cradle
craft
craig
cramer
crane
crash
crawford
crazy
cre
cream
creation
creative
creed
creek
creme
crew
cricket
crime
crimes
criminal
crimson
crisis
cristo
critical
critics
crockett
croft
croix
cromwell
crone
cropped
crosby
cross
crossing
crow
crowley
crown
cru
cruise
crusade
crush
cruz
cry
crystal
cs
csc
csi
cska
css
csu
ct
ctor
cu
cub
cuba
cubansk
cubanske
cubas
cullen
culp
cult
cultural
culture
cum
cumberland
cumbria
cummings
cunningham
cup
cupen
cuppen
cupturnering
cure
curie
curling
current
curse
curt
curtis
cut
cuxhaven
cv
cw
cy
cycle
cycling
cykel
cykelhold
cykelløb
cykelløbet
cykelrytter
cykelryttere
cykelsport
cykelsti
cykle
cyklede
cyklen
cykler
cykling
cyklister
cyklus
cyl
cylinder
cylindre
cylindret
cynthia
cypern
cypriotiske
cyprus
cyril
cyrus
czech
cæsar
cæsars
d
da
daa
dab
dachau
dacia
dad
daddy
daewoo
daf
daft
dag
dagblad
dagblade
dagbladet
dagbog
dagbogen
dagbøger
dage
dagen
dagene
dagens
dages
dagestan
daggry
daglig
dagligdagen
dagligdags
daglige
dagligliv
dagligt
dagmar
dagmarteatret
dags
dagslys
dagsommerfugle
dagsorden
dagsordenen
dagtimerne
dahl
dahlerup
dai
daily
daimler
daisy
dakar
dakota
dal
dalai
dalarna
dalby
dale
dalen
dalene
daler
dalgaard
dalgas
dali
dall
dallas
dalmatien
dalsgaard
dalton
dalum
daly
dam
damage
damallsvenskan
damaskus
dame
damedouble
dameha
damer
damerne
damernes
damesingle
damgaard
damien
damm
damme
damon
damp
damplokomotiver
dampmaskine
dampskib
dampskibe
dan
dana
dance
dancer
dancing
dane
danerne
danes
danfoss
danger
dangerous
dania
danica
daniel
danielle
daniels
danielsen
danish
danmark
danmarks
danmarkshistorie
danmarkshistorien
danmarkskirker
danmarksmester
danmarksmesterskab
danmarksmesterskaber
danmarksmesterskabet
danmarksserien
danmarksturneringen
danne
dannebrog
dannebrogordenen
dannebrogsmand
dannede
dannedes
dannelse
dannelsen
danner
dannes
danneskiold
dannet
dannevirke
danny
danorum
dans
danse
dansede
dansen
dansende
danser
dansere
dansk
danske
danskefilm
dansker
danskere
danskeren
danskerne
danskernes
danskfodbold
dansksprogede
dant
dante
danzig
daphne
dar
dareios
darfur
darin
dario
dark
darkness
darling
darmstadt
darren
darth
darwin
darwins
das
dash
dass
dassault
dat
data
database
databasen
databaser
datalogi
datanet
date
dateformat
daterer
dateres
dateret
datering
datiden
datidens
dativ
dato
datoen
datoer
datter
datteren
datters
datterselskab
datterselskaber
datterselskabet
daugaard
daughter
dauphine
dave
davenport
david
davids
davidsen
davidson
davies
davis
davy
daværende
dawn
dawson
day
days
db
dbnl
dbu
dbus
dc
dcu
dd
ddo
ddr
de
dead
deadline
deal
dean
dear
death
debase
debat
debatten
debatter
debattør
debattører
debbie
deborah
debussy
debut
debutalbum
debutalbummet
debuten
debuterede
debutsæson
dec
decca
december
decideret
decision
decline
dede
dedikerede
dedikeret
dee
deel
deep
def
default
defence
defender
defense
defensiv
defensive
definere
definerede
definerer
defineres
defineret
definition
definitionen
definitioner
definitive
definitivt
degeneres
degli
degn
dehavn
dehn
dei
deigen
dej
dejlig
dejlige
dejligt
dekan
deklarationen
dekoration
dekorationer
dekorativ
dekorative
dekorerede
dekoreret
dekret
del
delaware
dele
delegation
delegerede
delen
delene
deler
deles
delfin
delfiner
delft
delhi
deling
delingen
delinger
dell
della
delle
delmængde
delomra
dels
delstat
delstaten
delstatens
delstater
delstaterne
delt
delta
deltaet
deltage
deltagelse
deltagelsen
deltagende
deltager
deltagere
deltageren
deltagerne
deltaget
delte
deltes
deltog
deluxe
delvis
delvist
dem
demand
demens
demi
demo
democracy
democratic
demoen
demoer
demografi
demografico
demografiske
demokraten
demokrater
demokraterne
demokraternes
demokrati
demokratiet
demokratiets
demokratisk
demokratiske
demon
demonstranter
demonstranterne
demonstration
demonstrationen
demonstrationer
demonstrationerne
demonstrere
demonstrerede
demonstrerer
demonstreret
dempsey
den
denborg
dende
dene
dengang
denis
denise
denmark
denne
dennes
dennis
dens
denstoredanske
denver
deo
departement
departementer
departementet
departementschef
department
depeche
deplacement
deporteret
deportivo
depot
depoter
depotet
depp
depression
depressionen
deputerede
deputeret
der
deraf
derby
derefter
derek
deres
derfor
derfra
derhen
derhjemme
deri
deriblandt
derigennem
derimod
derinde
dermanland
dermed
derne
dernæst
derom
derover
derpa
derpaa
ders
dersom
derta
dertil
derude
derudover
derunder
derved
des
descartes
description
desert
design
designe
designede
designer
designere
designet
designs
desire
desmond
desperat
desperate
dessau
destation
destination
destinationer
destiny
desto
destroyer
destroyere
destroyeren
destruction
destyrke
destyrker
desuden
desværre
det
detail
detailhandel
details
detailvirksomheder
detalje
detaljer
detaljerede
detaljeret
detaljerne
detective
detektiv
detlev
detroit
dets
dette
dettes
deutsch
deutsche
deutschen
deutscher
deutsches
deutschland
deutschlands
deux
development
device
devil
devils
devon
dewey
dexter
df
dfb
dfds
dfi
dgi
dgivende
dgiver
dgivere
dgivning
dh
dhabi
dhc
dhf
dhus
dhuset
dhuspladsen
di
dia
diabetes
diagnose
diagnosen
diagnosticeret
diagram
diagrammet
dialekt
dialekten
dialekter
dialog
dialogen
diamant
diamanter
diameter
diamond
diamonds
diana
diane
diaries
diarre
diary
diaz
dicaprio
dich
dick
dickens
dickinson
dickson
dictionary
did
diderik
didier
didn
didrik
die
died
diego
diem
dies
diesel
dieselmotor
dieselmotoren
dieselmotorer
dieter
dietrich
dif
different
diffusion
dig
dige
diger
diget
dighed
digital
digitale
digitaliserede
digitaliseret
digitalisering
digitalt
digt
digte
digtene
digter
digtere
digteren
digtet
digtning
digtsamling
digtsamlingen
digtsamlinger
diktator
diktatur
dilemma
dillon
dimension
dimensioner
dimitterede
dimitteredes
dimitteret
din
dina
dinamo
dine
dinesen
ding
dino
dinosaur
dinosaurer
dio
diode
dion
diplom
diplomat
diplomater
diplomati
diplomatisk
diplomatiske
diplomuddannelse
dir
dirch
direct
direction
directions
director
directors
direkte
direktion
direktionen
direktiv
direktør
direktøren
direktører
dirigent
dirigenten
dirigenter
dirigerede
dirigeret
dirk
dirt
dirty
dis
disaster
disc
discipel
disciple
disciplene
disciplin
disciplinen
discipliner
disco
discography
discogs
discovered
discovery
discussion
disease
disk
diskografi
diskoskast
diskret
diskrimination
diskurs
diskussion
diskussionen
diskussioner
diskutere
diskuterede
diskuterer
diskuteres
diskuteret
diskvalificeret
diskvalifikation
disney
disneys
dispensation
display
displaystyle
disposition
disputats
disse
disses
dissing
distance
distancen
distancer
distinguished
distribueres
distribueret
distribution
district
distrikt
distrikter
distrikterne
distriktet
distriktets
dit
dithmarschen
ditions
ditlev
ditlevsen
ditmarsken
ditte
div
diverse
diversitet
diversity
divine
divisio
division
divisionen
divisionens
divisioner
divisionerne
divisions
divisionsklubben
dixon
dizzy
dj
djibouti
djokovic
djurga
djurhuus
djurs
djursland
djævel
djævelen
djævelens
djøf
dk
dkk
dkp
dl
dløs
dløse
dm
dma
dmand
dmi
dmitrij
dmju
dmænd
dn
dna
dnepr
dnf
dning
dns
dnsap
do
dobbelt
dobbelte
dobbeltfirer
dobbeltsculler
dobbeltspor
dobbeltturnering
doc
docent
doctor
document
documentary
documents
dodge
does
dog
doge
dogg
dogme
dogmer
dogs
doha
doherty
doi
dok
doktor
doktoren
doktorgrad
doktorgraden
doktrin
doktrinen
dokument
dokumentar
dokumentaren
dokumentarfilm
dokumentarfilmen
dokumentarisk
dokumentariske
dokumentarserie
dokumentation
dokumenter
dokumentere
dokumenterede
dokumenterer
dokumenteret
dokumenterne
dokumentet
dollar
dollars
dollerup
dolls
dolly
dolph
dom
domain
dome
domenico
domicil
dominans
dominere
dominerede
dominerende
dominerer
domineres
domineret
domingo
dominic
dominikanske
dominique
domino
domkirke
domkirken
domme
dommedag
dommen
dommer
dommere
dommeren
dommerne
domprovsti
domra
domstol
domstole
domstolen
domstolene
domstolens
domus
domæne
domæner
don
donald
donation
donationer
donau
done
donerede
doneret
donetsk
dong
donn
donna
donnell
donovan
dons
doo
doom
door
doors
doping
dora
doris
dorothea
dorothy
dorph
dorset
dorte
dorthe
dortmund
dos
doser
dosis
dot
dots
douard
double
doubleday
doubles
doug
douglas
dover
down
downing
download
downloade
downloades
downloads
downs
downtown
doyle
dr
dra
drab
drabene
drabet
drachmann
draco
dracula
draeger
draft
draften
draftet
drag
drage
dragen
drager
draget
dragon
dragoner
dragonregiment
dragons
dragsholm
dragt
dragter
dragør
drak
drake
draken
drama
dramaer
dramaet
dramafilm
dramaserie
dramaserier
dramatic
dramatik
dramatiker
dramatikere
dramatisk
dramatiske
drammen
drastisk
draw
dre
dreadnought
dreadnoughts
dream
dreams
dreamworks
drei
dreje
drejede
drejer
drejes
drejeskive
drejet
drejning
drejningsmoment
dreng
drenge
drengen
drengenavn
drengenavne
drengene
drenthe
dresden
drev
drevet
drevne
drew
drewsen
dreyer
dreyfus
drift
driften
driftsa
drik
drikke
drikker
drikkevand
drikkevarer
drink
dristig
dristige
drive
drivende
driver
drives
drivhusgasser
drivkraft
dro
drog
droner
dronning
dronningborg
dronningen
dronningens
dronninger
dronninglund
drop
droppe
droppede
dropper
droppet
drs
druer
drug
drugs
druk
drukket
drukne
druknede
drum
drums
dry
dræbe
dræber
dræbes
dræbt
dræbte
dræby
drøfte
drøm
drømme
drømmen
drømmer
drømte
ds
dsb
dsformand
dsmedlem
dsmedlemmer
dst
dsu
dt
dte
dtu
du
dua
dub
dubai
dublin
dubliners
duc
duck
dudley
due
dueholm
duel
duer
duet
duff
duft
dug
duisburg
dukater
duke
dukke
dukkede
dukker
dukket
dum
dumas
dumbledore
dumme
dun
duncan
dundee
dungeon
dungeons
dunkerque
dunn
dunst
duo
duoen
dupont
dur
duran
durch
durham
during
dusin
dust
dustin
dutch
duty
dvb
dvd
dvs
dværg
dværge
dw
dwight
dx
dy
dyb
dybbøl
dybde
dybden
dybder
dybe
dybere
dybeste
dybet
dybgang
dybt
dybtga
dybtliggende
dybvad
dyd
dyder
dygtig
dygtige
dygtighed
dygtigste
dying
dyk
dykke
dykker
dykkere
dykning
dylan
dynamic
dynamics
dynamik
dynamisk
dynamiske
dynamit
dynamo
dynasti
dynastier
dynastiet
dynastiets
dynasty
dyr
dyrberg
dyre
dyrearter
dyrehave
dyrehaven
dyrehavsbakken
dyreliv
dyrelivet
dyrene
dyrenes
dyrere
dyreste
dyret
dyrets
dyrholm
dyrke
dyrkede
dyrkelse
dyrker
dyrkes
dyrket
dyrkning
dyrkningsformen
dyrkningssystemer
dyrlæge
dyrs
dyrt
dyst
dyster
dystre
dz
dæk
dækfrøede
dække
dækkede
dækkende
dækker
dækkes
dækket
dækning
dæmning
dæmningen
dæmninger
dæmon
dæmoner
dæmpe
dæmper
dæmpet
dø
døbe
døbefont
døbefonten
døberen
døbt
døbte
død
døde
dødelig
dødelige
dødelighed
dødeligheden
dødeligt
døden
dødens
dødes
dødsa
dødsbo
dødsfald
dødsleje
dødsmetal
dødsregalierne
dødsriget
dødsstraf
dødt
døende
døgn
døgnet
dømme
dømmende
dømmer
dømmes
dømt
dømte
dør
døre
døren
dørene
dørs
døtre
døtrene
døve
e
ea
each
eagle
eagles
earl
early
earth
earthquake
east
easter
eastern
eastwood
easy
eat
eb
ebba
ebbe
ebbesen
ebeltoft
eberhard
ebert
ebu
ec
ece
echo
eckersberg
eclipse
eco
ecology
economic
economics
economist
economy
ecuador
ecw
ed
edb
edda
edderkopper
eddie
eddike
eddikesyre
eddy
ede
edel
eden
eder
eders
edes
edessa
edgar
edge
edgware
edinburgh
edison
edit
edited
edith
edition
editions
editor
editors
edmonton
edmund
edna
edo
edouard
eds
edson
edu
eduard
eduardo
education
educational
edvard
edvards
edward
edwards
edwin
ee
een
eesti
eet
ef
efb
effect
effects
effekt
effekten
effekter
effektiv
effektive
effektivitet
effektiviteten
effektivt
efter
eftera
efterforskning
efterforskningen
efterfulgt
efterfulgte
efterfulgtes
efterfølge
efterfølgende
efterfølger
efterfølgere
efterfølgeren
efterfølges
efterha
efterhaanden
efterkommer
efterkommere
efterkrigstiden
efterkrigstidens
efterlade
efterlader
efterladt
efterladte
efterligne
efterligning
efterlod
eftermiddag
eftermiddagen
eftermæle
efternavn
efternavne
efternavnet
efterretning
efterretninger
efterretningstjeneste
efterretningstjenester
efterskole
efterskolen
efterskoler
eftersom
efterspil
efterspurgt
efterspurgte
efterspørgsel
efterspørgslen
eftersøgning
eftertiden
eftertragtede
eftertragtet
eg
ega
ege
egedal
egede
egelund
egen
egenskab
egenskaber
egentlig
egentlige
egentligt
egern
egernførde
egeskov
eget
egetræ
eggers
eggert
egholm
egil
egmont
egn
egne
egnede
egnen
egnens
egner
egnet
ego
egon
egtved
egypt
egypten
egyptens
egypterne
egyptian
egyptisk
egyptiske
eh
ehf
ei
eicher
eichmann
eidsvoll
eight
eigil
eigtved
eik
eiler
ein
einar
eindhoven
eine
einem
einer
eines
einstein
einsteins
eintracht
eirik
eisenach
eisenhower
ej
ejby
ejderen
ejdersted
eje
ejede
ejedes
ejendele
ejendom
ejendomme
ejendommelig
ejendommelige
ejendommen
ejendomsret
ejendomsretten
ejer
ejere
ejeren
ejerlav
ejerne
ejerskab
ejerskabet
ejes
ejet
ejler
ejnar
ejner
ejvind
ek
ekeby
ekko
eks
eksamen
eksempel
eksempelvis
eksemplar
eksemplarer
eksempler
eksemplet
eksil
eksistens
eksistensen
eksistentiel
eksistentielle
eksistere
eksisterede
eksisterende
eksisterer
eksisteret
ekskl
ekskluderet
eksklusiv
eksklusive
eksklusivt
eksotiske
ekspanderede
ekspansion
ekspedition
ekspeditionen
ekspeditionens
ekspeditioner
ekspeditionsstyrke
eksperiment
eksperimentalfilm
eksperimentel
eksperimentelle
eksperimenter
eksperimentere
eksperimenterede
eksperimenterende
eksperimentet
ekspert
eksperter
ekspertise
eksplicit
eksploderede
eksploderer
eksplosion
eksplosionen
eksplosioner
eksport
eksporten
eksporterede
eksporteres
eksporteret
ekstern
eksterne
eksternt
ekstra
ekstrabladet
ekstraordinær
ekstraordinære
ekstraordinært
ekstraudstyr
ekstrem
ekstreme
ekstremt
el
elaine
elbe
elben
elberling
elbæk
elder
eleanor
election
elections
electric
electro
electronic
electronica
electronics
elefant
elefanten
elefanter
elefantordenen
elegance
elegant
elegante
elektra
elektricitet
elektricitetsværk
elektrificeret
elektrificering
elektrisk
elektriske
elektromagnetisk
elektromagnetiske
elektron
elektroner
elektronik
elektronikvirksomheder
elektronisk
elektroniske
element
elementary
elementer
elementerne
elements
elena
elendige
elendighed
eleonora
eleonore
elephant
elev
elevator
elevatorer
eleven
elever
eleverne
elevernes
elevra
elevskole
elf
elfenben
elfenbenskysten
elfsborg
eli
elias
elig
elige
eligt
elimination
eliminere
elimineret
elin
eliot
elisa
elisabet
elisabeth
elise
elite
elitedivisionen
eliten
eliteserien
elith
eliza
elizabeth
elkjær
ell
ella
elle
ellebjerg
ellegaard
ellemann
ellen
eller
ellers
elleve
ellevte
elling
elliot
elliott
elliptiske
ellis
elm
elmer
elo
elsa
else
elsebeth
elsen
elser
elske
elskede
elsker
elskerinde
elsket
elster
elton
elv
elve
elven
elvere
elverne
elvira
elvis
em
emanuel
embede
embeder
embedet
embedseksamen
embedsmand
embedsmænd
embedsperiode
emblem
emdrup
emergency
emeritus
emerson
emi
emigrerede
emil
emile
emilia
emilie
emilio
emily
eminem
emir
emirater
emma
emmanuel
emmy
emne
emner
emnerne
emnet
emperor
empire
empires
empirisk
empiriske
ems
en
ena
encyclopaedia
encyclopedia
encyclopædia
encyklopædi
end
endda
ende
endeavour
endegyldigt
endelig
endelige
endeligt
endelsen
endemisk
endemiske
enden
ender
endestation
endestationen
endestillede
endnu
endog
ends
endt
endte
endvidere
ene
enedes
eneejer
enemark
enemy
enera
eneret
energi
energien
energiforbrug
energisk
energiske
energy
enes
enesta
eneste
enevold
enevælde
enevælden
enevældens
enevældige
eng
engagement
engagere
engagerede
engageret
engang
engberg
enge
engel
engell
engels
engelsk
engelske
engelsksprogede
engelsksproget
engelsktalende
engelstoft
engen
engene
enghave
engine
engineer
engineering
engineers
england
englands
englandskrigene
engle
englen
english
englændere
englænderen
englænderne
englændernes
enhed
enheden
enheder
enhederne
enhedslisten
enhver
enig
enige
enighed
enigma
enke
enkedronning
enkel
enkelt
enkelte
enkeltes
enkeltheder
enkeltpersoner
enkeltsta
enkeltstart
enkeltturnering
enkeltvis
enkemand
enken
enker
enklave
enklaver
enkle
enklere
enlig
enlige
enorm
enorme
enormt
enough
enrico
enrique
ens
ensartede
ensartet
ensbetydende
ensemble
ensemblet
ensidig
ensidigt
ensign
ensom
ensomhed
ensomme
enstemmig
enstemmigt
ental
enten
enter
enterprise
entertainer
entertainment
entre
entreprenør
entreprenører
entry
entydig
entydigt
environment
environmental
enya
enzym
enzymer
enzymet
eo
ep
epic
epidemi
epidemien
epidemier
episke
episode
episoden
episoder
epitafium
epo
epoke
epos
epstein
er
era
erasmus
ere
eredivisie
eren
erfarede
erfaren
erfarer
erfaring
erfaringer
erfaringerne
erfarne
erfurt
erhard
erholdt
erhverv
erhverve
erhvervede
erhvervet
erhvervs
erhvervsdrivende
erhvervsfolk
erhvervsleder
erhvervsliv
erhvervslivet
erhvervsmand
erhvervsøkonomi
eric
erica
erich
erichsen
erickson
ericsson
erik
erika
eriks
eriksen
eriksson
erin
erindring
erindringer
eritrea
erkende
erkendelse
erkendelsen
erkender
erkendt
erkendte
erklære
erklærede
erklærer
erklæres
erklæret
erklæring
erklæringen
erklæringer
erland
erlangen
erling
erna
erne
ernes
ernest
ernesto
ernst
ernærede
ernæring
erobre
erobrede
erobrer
erobreren
erobret
erobring
erobringen
erobringer
eroderet
eros
erosion
erotisk
erotiske
errol
ers
erslev
erslew
erstatning
erstatte
erstattede
erstattedes
erstatter
erstattes
erstattet
erwin
es
esa
esajas
esben
esbern
esbjerg
esc
escape
escobar
escort
eskadre
eskadrille
eskadriller
eskadron
eskadroner
eskalerede
eske
eskil
eskild
eskorte
esp
espace
espan
espanyol
esperanto
espergærde
espersen
espn
esrum
essay
essayister
essays
essen
essenbæk
essential
essentielle
essex
est
estadio
estate
este
ester
estere
esterne
esther
estimater
estimeret
estisk
estiske
estland
estlands
estonia
estridsen
estrup
et
eta
etablere
etablerede
etableredes
etablerer
etableres
etableret
etablering
etableringen
etage
etageejendomme
etager
etagers
etape
etapeløb
etapen
etaper
etaperesultat
etaperne
etapesejr
etapesejre
etatsra
etc
eternal
ethan
ethanol
ethel
ethics
ethnic
ethvert
etienne
etik
etiopien
etiopiens
etiopiske
etisk
etiske
etnicitet
etnisk
etniske
etnografiske
eto
ett
etter
etude
etymologi
etymologisk
eu
euge
eugen
eugene
eugenia
eugenius
euphorbia
eur
eurasien
euro
euroen
europa
europamester
europamesterskab
europamesterskaberne
europamesterskabet
europaparlamentet
europara
europas
europavej
europe
european
europæer
europæere
europæerne
europæisk
europæiske
eurovision
eus
eusebius
euston
ev
eva
evakuere
evakuerede
evakueret
evakuering
evakueringen
evald
evaluering
evan
evangelier
evangelierne
evangeliet
evangelisk
evangeliske
evangelium
evans
eve
evelyn
even
evening
event
events
eventuel
eventuelle
eventuelt
eventyr
eventyrer
eventyret
ever
everest
everett
evert
everton
every
everybody
everything
evic
evidence
evidens
evig
evige
evighed
evigt
evil
evne
evnen
evner
evo
evolution
evp
evt
ewald
ewell
ex
excellence
exchange
exclusive
executive
exeter
exhibition
exile
existential
exit
exner
exodus
exp
expedition
experience
experiment
experimental
expert
exploration
explorer
expo
exposition
express
expressen
extended
extension
extra
extreme
ey
eye
eyed
eyes
eysturoy
ez
ezra
f
fa
faa
faaborg
faae
faaer
faaet
faar
faber
fabia
fabian
fabio
fabricius
fabrik
fabrikant
fabrikanten
fabrikanter
fabrikation
fabrikken
fabrikkens
fabrikker
fabrikkerne
fabritius
facade
facaden
facader
face
facebook
facelift
faceliftede
faceliftet
faces
faciliteter
facon
fact
factbook
facto
factor
factory
facts
faculty
fad
fade
fader
faderen
faderens
faders
fag
faget
fagfolk
fagforbund
fagforening
fagforeninger
faglig
faglige
fagligt
faglitteratur
faglitterære
fagomra
fagot
fahrenheit
fair
faith
fakse
fakta
faktisk
faktiske
faktor
faktorer
faktum
fakultet
fakulteter
fakultetet
falaise
falbe
falch
falck
falco
falcon
fald
falde
faldende
falder
faldet
faldne
faldskærm
faldskærmstropper
faldt
falk
falkenberg
falklandsøerne
falkoner
fall
fallen
falling
fallit
falls
false
falsen
falsk
falske
falster
falsters
fame
familia
familie
familiefilm
familieliv
familiemedlemmer
familien
familiens
familier
familierne
families
familjebok
family
famous
fan
fanden
fandt
fandtes
fane
faner
fange
fangede
fangelejr
fangen
fangenskab
fanger
fangerne
fanges
fanget
fangst
fanklub
fanny
fans
fansene
fantasi
fantasia
fantastic
fantastisk
fantastiske
fantasy
fanø
faq
far
farao
farbror
farce
fare
faren
farens
farer
farfar
farlig
farlige
farligste
farligt
farm
farmaceutiske
farmakologi
farmer
farmor
faroe
farrell
fars
farsø
fart
farten
fartøj
fartøjer
fartøjet
farum
farvand
farvande
farvandet
farve
farvede
farvel
farven
farver
farverige
farverne
farvestof
farvestoffer
farvet
fasanvej
fascineret
fascisme
fascistiske
fase
faser
fashion
faso
fast
fastboende
faste
faster
fastgjort
fastholde
fastholder
fastholdt
fastla
fastlagde
fastlagt
fastlagte
fastland
fastlandet
fastlandsklima
fastlægge
fastlægger
fastsat
fastsatte
fastsla
fastslog
fastsætte
fastsætter
fastsættes
fat
fatal
fatale
fate
father
fattede
fattig
fattigdom
fattige
fattigste
fattigt
fatty
fauna
fausbøll
faust
favorit
favorite
favoritter
favoritterne
favrskov
faxe
fay
fb
fbi
fc
fci
fck
fcm
fcn
fdf
fdp
fe
fear
feat
feature
features
featuring
feb
feber
februar
february
fed
fede
federal
federation
federer
federico
fedt
fedtsyrer
feedback
feel
feeling
feet
feilberg
fejde
fejden
fejl
fejlagtig
fejlagtige
fejlagtigt
fejlede
fejlen
fejlslagne
fejltagelse
fejre
fejrede
fejrer
fejres
fejret
fejring
fejringen
feldbæk
felice
felipe
felix
fellow
felt
felten
felter
felterne
feltet
feltmarskal
felttog
felttoget
fem
fema
female
femdørs
femern
feminine
feminisme
feminist
feminister
feministisk
femkamp
femme
femte
femtedel
femten
femteplads
femtepladsen
femtrins
fender
fenerbahc
fenger
fer
ferdinand
ferguson
ferie
ferna
fernandez
fernando
ferrante
ferrara
ferrari
ferry
fersk
ferskvand
fest
festen
fester
festival
festivalen
festivalens
festivaler
festlige
festskrift
feudale
fever
few
feyenoord
feynman
ff
fh
fhv
fi
fiasko
fiat
fiber
fibiger
fibre
fiction
fide
fidel
field
fields
fiesta
fifa
fifth
fifty
fig
figaro
fight
fighter
fighters
fighting
figur
figure
figuren
figurer
figurerne
figures
fiji
fik
fiktion
fiktiv
fiktive
fiktivt
fil
filantroper
file
filen
filer
files
filial
filialer
filip
filippinerne
filippinske
filippo
filips
film
filmatiseret
filmatisering
filmatiseringen
filmdebut
filme
filmede
filmen
filmene
filmens
filmet
filmfestival
filmfestivalen
filmfotograf
filminstitut
filminstruktør
filminstruktøren
filminstruktører
filmmagasinet
filmmusik
filmografi
filmproducent
filmproducer
filmproducere
films
filmskole
filmskolefilm
filmskuespiller
filmskuespillere
filolog
filologer
filologi
filosof
filosoffen
filosoffer
filosofi
filosofien
filosofiens
filosofikum
filosofisk
filosofiske
filter
filtre
fin
final
finale
finalekampe
finalen
finaler
finalerne
finalerunden
finalesejr
finalist
finalister
finals
finance
financial
finans
finanser
finansiel
finansielle
finansiere
finansierede
finansieres
finansieret
finansiering
finansieringen
finanskrisen
finansloven
finansminister
finansministeriet
finansministre
finanspolitik
find
finde
finder
finderup
findes
finding
fine
finere
fineste
finger
fingeraftryk
fingre
fingrene
fink
finland
finlands
finn
finner
finnerne
finnmark
finnur
finsen
finsk
finske
fint
fiorentina
fire
firea
firecylindret
firefox
firehjulstræk
firenze
firer
firkant
firkantede
firkantet
firma
firmaer
firmaet
firmaets
first
firth
fis
fischer
fish
fisher
fisk
fiske
fisken
fiskene
fisker
fiskere
fiskeri
fiskeriet
fiskerleje
fiskerne
fission
fist
fitness
fitzgerald
five
fix
fja
fjeld
fjelde
fjeldet
fjende
fjenden
fjendens
fjender
fjenderne
fjends
fjendskab
fjendtlig
fjendtlige
fjendtligt
fjer
fjerde
fjerdedel
fjerdedele
fjerdeplads
fjerdepladsen
fjerdestørste
fjerkræ
fjern
fjerne
fjernede
fjernelse
fjerner
fjernere
fjernes
fjernet
fjernstyret
fjernsyn
fjernsynet
fjernt
fjerntliggende
fjernvarme
fjernøsten
fjerritslev
fjervægt
fjodor
fjord
fjordane
fjordarm
fjorde
fjorden
fjorten
fjortende
fk
fl
fla
flad
flade
flader
fladt
flag
flagermus
flaget
flags
flagskib
flair
flak
flakkebjerg
flame
flames
flamingo
flamme
flammen
flammer
flammernes
flamsk
flamske
flandern
flanke
flanken
flanker
flankeret
flash
flashback
flaske
flasken
flasker
flat
fleet
fleischer
fleksibel
fleksibilitet
fleksible
fleming
flemming
flensborg
flensburg
flera
flere
flertal
flertallet
flertydig
flest
fleste
fletcher
fleuret
flg
flickr
flid
flight
flinders
flindt
flint
flip
fliser
flittig
flittige
flittigt
flo
flod
floden
flodens
floder
floderne
flodheste
flok
flokke
flokken
floor
floorball
flop
flor
flora
floran
floraprovins
florence
flores
florian
florida
flot
flotte
flow
flower
flowers
floyd
flu
fluer
flughafen
flugt
flugten
fly
flyde
flydende
flyder
flyene
flyet
flyets
flyfla
flygte
flygtede
flygtende
flygter
flygtet
flygtige
flygtning
flygtninge
flygtningene
flying
flynn
flyselskab
flyselskaber
flyselskabet
flystel
flystyrker
flystyrt
flystyrtet
flytning
flytningen
flytte
flyttede
flyttedes
flytter
flyttes
flyttet
flytyper
flyulykker
flyve
flyvehøjde
flyvemaskine
flyvemaskiner
flyvende
flyveplads
flyvepladsen
flyvepladser
flyver
flyvestation
flyveva
flyvning
flyvningen
flyvninger
flæsk
flød
fløde
fløj
fløje
fløjet
fløjte
fløjtenist
fløjter
fm
fn
fns
fo
focus
fod
fodbold
fodbolddommer
fodbolddommere
fodbolden
fodboldforbund
fodboldhold
fodboldkamp
fodboldkarriere
fodboldklub
fodboldklubben
fodboldklubber
fodboldlandshold
fodboldlandsholdsspillere
fodboldliga
fodboldrække
fodboldspiller
fodboldspillere
fodboldstadion
fodboldstadioner
fodboldsæson
fodboldtræner
fodboldtrænere
fodboldturnering
fodboldturneringer
fode
foden
foder
fodfolk
fodfæste
fodgængere
fodnote
fodnoter
fods
fodspor
foer
fog
foged
fogh
fokker
fokus
fokusere
fokuserede
fokuserer
fokuseret
fold
foldede
folder
foldet
foley
folk
folke
folkeafstemning
folkeafstemningen
folkeafstemninger
folkebevægelsen
folkeblad
folkedrab
folkeforbundet
folkehøjskole
folkekirke
folkekirken
folkekirkens
folkelig
folkelige
folkeligt
folkemunde
folkemusik
folkemængde
folkemængden
folkene
folkeparti
folkepartis
folkerepublik
folkerepublikken
folkeretten
folkesagn
folkesange
folkeskole
folkeskolelærer
folkeskolen
folkeskolens
folkeskoler
folkeslag
folkesprog
folket
folketal
folketallet
folketeatret
folketidende
folketing
folketinget
folketingets
folketingsgruppe
folketingskandidat
folketingskandidater
folketingsmand
folketingsmedlem
folketingsmedlemmer
folketingsvalg
folketingsvalget
folkets
folketælling
folketællingen
folketællinger
folkevalgt
folkevalgte
folkevandringstiden
folkeviser
folklore
folks
folksam
follow
following
fond
fonde
fonden
fondens
fondet
fonds
font
fontaine
fontana
fontsize
food
foods
fool
foot
football
footballdatabase
footballspiller
for
fora
foragt
foran
forandre
forandrede
forandres
forandret
forandring
forandringer
forankret
foranledigede
foranlediget
foranledning
foranstaltning
foranstaltninger
forarbejderne
forarbejdning
forargelse
forbandede
forbandelse
forbandet
forbandt
forbedre
forbedrede
forbedrer
forbedres
forbedret
forbedring
forbedringer
forbehold
forbeholdt
forberede
forberedelse
forberedelser
forberedelserne
forberedende
forbereder
forberedt
forberedte
forbes
forbi
forbiga
forbillede
forbilleder
forbinde
forbindelse
forbindelsen
forbindelser
forbindelserne
forbinder
forbindes
forbipasserende
forblev
forblevet
forblive
forbliver
forbrug
forbruger
forbrugere
forbrugerne
forbruget
forbrydelse
forbrydelsen
forbrydelser
forbryder
forbrydere
forbrænding
forbud
forbuddet
forbudt
forbudte
forbund
forbundet
forbundets
forbundne
forbunds
forbundsdagen
forbundskansler
forbundsra
forbundsrepublikken
forbyde
forbyder
forbydes
forbød
force
forces
forchhammer
ford
fordampning
fordel
fordelagtig
fordelagtige
fordelagtigt
fordele
fordelen
fordelene
fordeler
fordeles
fordeling
fordelingen
fordelt
fordelte
fordi
fordoblet
fordomme
fordrev
fordrevet
fordrevne
fordring
fordringer
fordrive
fordybning
fordømmer
fordømt
fordømte
forebygge
forebyggelse
forebyggende
foredrag
foredragsholder
forefindes
forega
foregik
foreign
forekom
forekomme
forekommende
forekommer
forekommet
forekomst
forekomsten
forekomster
forela
forelagt
foreligger
forelskede
forelskelse
forelsker
forelsket
forelæsninger
foreløbig
foreløbige
foreløbigt
foreman
forene
forenede
forener
forenes
forenet
forening
foreningen
foreningens
foreninger
forenings
foreningsformænd
forenklet
foresla
foreslog
forespørgsel
forest
foresta
forestille
forestillede
forestillende
forestiller
forestilling
forestillingen
forestillinger
forestillingerne
forestod
foretage
foretagende
foretagender
foretager
foretages
foretaget
foretog
foretoges
foretrak
foretrukket
foretrukne
foretrække
foretrækker
forever
forfader
forfald
forfaldt
forfatning
forfatningen
forfattede
forfatter
forfattere
forfatteren
forfatterens
forfatterforening
forfatterinde
forfatterleksikon
forfatterne
forfatterskab
forfatterskabet
forfattervirksomhed
forfattet
forflyttedes
forflyttet
forfra
forfremmedes
forfremmelse
forfremmet
forfulgt
forfulgte
forfædre
forfærdelig
forfærdelige
forfølge
forfølgelse
forfølgelsen
forfølgelser
forfølger
forga
forget
forgiftet
forgotten
forgrenede
forgrenet
forgreninger
forgrunden
forgyldt
forgyldte
forgænger
forgængere
forgængeren
forgæves
forha
forhandle
forhandlede
forhandler
forhandlere
forhandles
forhandlet
forhandling
forhandlinger
forhandlingerne
forhen
forhenværende
forhindre
forhindrede
forhindrer
forhindret
forhindring
forhindringer
forhistorie
forhistorisk
forhistoriske
forhjulstrukne
forhold
forholde
forholdene
forholder
forholdet
forholdsregler
forholdsvis
forholdsvist
forholdt
forhøjede
forhøjet
forhøjning
forhør
forinden
fork
forkastede
forkastet
forkert
forkerte
forklare
forklarede
forklarer
forklares
forklaret
forklaring
forklaringen
forklaringer
forklædning
forklædt
forkortelse
forkortelsen
forkortelser
forkortes
forkortet
forkyndelse
forkæmper
forkærlighed
forlade
forladelse
forlader
forladt
forladte
forlag
forlaget
forlange
forlanger
forlangte
forleddet
forlig
forliget
forlis
forliset
forliste
forlod
forlovede
forlovelse
forlovelsen
forlovet
forlygter
forlystelser
forlæg
forlægger
forlænge
forlængede
forlængelse
forlængelsen
forlænger
forlænges
forlænget
forløb
forløber
forløberen
forløbet
form
forma
formand
formanden
formandskab
formandsposten
format
formater
formatet
formation
formationen
formationer
forme
formede
formel
formelle
formelt
formen
formentlig
formentligt
former
formering
formes
formet
formiddag
formiddagen
formidle
formidler
formidlet
formidling
formindsket
formlen
formler
formodede
formodentlig
formoder
formodes
formodet
formodning
forms
formsprog
formue
formuer
formula
formulere
formulerede
formuleret
formulering
formynder
formænd
fornavn
forneden
fornem
fornemme
fornemmelse
fornemste
fornuft
fornuften
fornuftig
fornuftige
fornuftigt
fornva
forny
fornyede
fornyelse
fornyet
fornødne
fornøjelse
forord
forordet
forordning
forordningen
forordninger
foroven
forpagter
forpligtede
forpligtelse
forpligtelser
forpligter
forpligtet
forra
forrang
forrest
forreste
forretning
forretningen
forretninger
forretningsmand
forretningsomra
forretningsudvalg
forretningsudvalget
forrige
forræder
forræderi
forsamling
forsamlingen
forsamlinger
forsamlingshus
forsamlingshuset
forsanger
forsangeren
forsat
forsatte
forseglet
forside
forsiden
forsigtig
forsigtighed
forsigtigt
forsikrede
forsikring
forsikringsselskab
forsinke
forsinkede
forsinkelse
forsinkelser
forsinket
forskel
forskelle
forskellen
forskellene
forskellig
forskelligartede
forskellige
forskelligt
forsker
forskere
forskeren
forskerne
forsket
forskjellige
forskning
forskningen
forsknings
forskningscenter
forskningsomra
forskningsra
forskrifter
forskudt
forslag
forslaget
forsonet
forsoning
forspring
forst
forsta
forstaa
forstaar
forstad
forstaden
forstand
forstander
forstod
forstyrre
forstyrrede
forstyrrelse
forstyrrelser
forstyrret
forstæder
forstæderne
forstærke
forstærkede
forstærker
forstærkes
forstærket
forstærkning
forstærkninger
forstørret
forsvandt
forsvar
forsvare
forsvarede
forsvarende
forsvarer
forsvarere
forsvarerne
forsvares
forsvaret
forsvarets
forsvars
forsvarslinje
forsvarsminister
forsvarsministeriet
forsvarsministerium
forsvarsspiller
forsvarsstillinger
forsvarsværker
forsvinde
forsvinden
forsvinder
forsvundet
forsvundne
forsyne
forsynede
forsyner
forsynes
forsynet
forsyning
forsyninger
forsyningslinjer
forsætter
forsøg
forsøge
forsøgene
forsøger
forsøges
forsøget
forsøgt
forsøgte
forsømte
forsørge
fort
fortabte
fortaler
fortalere
fortalt
fortalte
fortegn
fortegnelse
forter
fortet
fortid
fortiden
fortidens
fortidsminder
fortil
fortjener
fortjeneste
fortjenester
fortjenstmedaljen
fortjenstorden
fortjent
fortjente
fortolke
fortolker
fortolkes
fortolket
fortolkning
fortolkninger
fortress
fortrinlig
fortrinsvis
fortrolig
fortrolige
fortrængt
fortrængte
fortsat
fortsatte
fortsattes
fortschreibung
fortsætte
fortsættelse
fortsættelsen
fortsættelseskrigen
fortsætter
fortsættes
fortuna
fortune
fortvivlelse
fortvivlet
forty
fortælle
fortæller
fortælleren
fortælles
fortælling
fortællingen
fortællinger
fortællingerne
forud
foruden
forudga
forudsa
forudsat
forudsatte
forudset
forudsige
forudsigelser
forudsætning
forudsætningen
forudsætninger
forudsætter
forum
forurenet
forurening
forvalter
forvaltes
forvaltning
forvaltningen
forvaltningsret
forvandle
forvandlede
forvandler
forvandles
forvandlet
forvandling
forvejen
forveksle
forveksles
forvekslet
forveksling
forvente
forventede
forventedes
forventer
forventes
forventet
forventning
forventninger
forventningerne
forvirrende
forvirret
forvirring
forvist
forværret
forward
forældede
forældet
forældre
forældreløse
forældrene
forældrenes
forældres
forærede
foræret
forøge
forøgede
forøgelse
forøger
forøges
forøget
fosfat
fosfor
foss
fossil
fossile
fossiler
foster
fotball
foto
fotograf
fotografen
fotografer
fotografere
fotograferet
fotografering
fotografi
fotografier
fotografisk
fotografiske
fotomodel
fotoner
fotos
fotosyntese
foucault
found
foundation
foundations
four
fourth
fowl
fowler
fox
fr
fra
frac
fradrag
fragment
fragmenter
fragt
fragte
fragtet
fraktion
fraktionen
fraktioner
fram
frame
framework
franc
france
frances
francesca
francesco
franchise
francis
francisco
franck
franco
francois
frands
frandsen
frank
franken
frankenstein
frankerne
frankerriget
frankfurt
frankfurter
frankie
frankisk
frankiske
franklin
frankrig
frankrigs
franks
frans
fransk
franske
franskmanden
franskmænd
franskmændene
franskmændenes
fransksprogede
fransktalende
frants
frantz
franz
frara
frasagde
fraser
frasier
fratage
frataget
fratog
fratra
frauen
fraugde
fravær
fraværende
fraværet
fre
freak
fred
fredag
freddie
freddy
frede
fredede
fredelig
fredelige
fredeligt
freden
fredens
fredensborg
frederic
fredericia
frederick
fredericks
fredericksburg
frederik
frederikke
frederiks
frederiksberg
frederiksborg
frederiksborgmuseet
frederiksdal
frederiksen
frederikshavn
frederiksholms
frederiksstad
frederikssund
frederiksværk
fredet
fredløs
fredning
fredningen
fredninger
fredrik
fredrikstad
freds
fredsaftale
fredsaftalen
fredsbevarende
fredsforhandlinger
fredsforhandlingerne
fredspris
fredsslutningen
fredstid
fredstraktaten
free
freedom
freelance
freeman
freestyle
fregat
fregatten
fregatter
freiburg
frej
freja
frekvens
frekvensen
frekvenser
frelse
frelser
frelsers
frelst
frem
fremad
frembragt
frembragte
frembringe
frembringer
frembringes
fremdeles
fremdrift
fremefter
fremfor
fremføre
fremfører
fremføres
fremført
fremførte
fremga
fremgang
fremgangsma
fremgik
fremherskende
fremhæve
fremhævede
fremhæver
fremhæves
fremhævet
fremkalde
fremkalder
fremkaldt
fremkaldte
fremkom
fremkommer
fremkommet
fremkomst
fremkomsten
fremlagde
fremlagt
fremlægge
fremmarch
fremme
fremmed
fremmede
fremmedsprog
fremmer
fremmest
fremmeste
fremmet
fremover
fremragende
fremrykkende
fremrykning
fremrykningen
fremsat
fremsatte
fremskridt
fremskridtspartiet
fremskudt
fremskudte
fremsta
fremstille
fremstillede
fremstiller
fremstilles
fremstillet
fremstilling
fremstillingen
fremstillinger
fremstillingsvirksomheder
fremstod
fremstød
fremsætte
fremt
fremtid
fremtiden
fremtidens
fremtidig
fremtidige
fremtidigt
fremtoning
fremtræden
fremtrædende
fremtræder
fremvise
fremviser
fremvist
fremviste
french
frequency
fresh
freud
fri
frida
friday
friderich
fridtjof
frie
friederich
friedman
friedrich
friedrichshafen
friend
friends
frier
friere
friesland
frifundet
frigav
frigg
frigive
frigivelse
frigives
frigivet
frigjort
frigøre
frigørelse
frigøres
frihavn
frihed
friheden
frihedens
friheder
friherre
friis
frijs
frijsenborg
frikendt
frikorps
frilandsmuseet
friluftsliv
frimurer
frimurere
frimurerorden
frimærke
frimærker
frisch
friserne
frisisk
frisiske
frisk
friske
friskole
frisland
frist
fristaten
frisør
frit
fritaget
fritid
frits
fritsta
fritz
frivillig
frivillige
frivilligt
frk
fro
frode
frodige
frokost
from
fromhed
fromme
front
frontansicht
fronten
fronter
frontfigur
frontier
frontlinjen
frosne
frosset
frost
frozen
fru
frue
fruen
frugt
frugtbar
frugtbare
frugtbarhed
frugtbart
frugten
frugter
frugterne
frustration
fry
fryd
frydenlund
frygt
frygte
frygtede
frygtelig
frygtelige
frygten
frygter
frygtet
fryser
frø
frøene
frøken
frølich
frøs
fs
ft
fu
fuchs
fuck
fuel
fuentes
fuga
fugl
fugle
fuglearter
fuglebeskyttelsesomra
fugleliv
fuglen
fuglene
fuglenes
fuglsang
fugtig
fugtige
fugtighed
fugtigt
fuji
fuld
fulde
fuldendt
fuldendte
fuldføre
fuldført
fuldførte
fuldkommen
fuldkomne
fuldma
fuldmagt
fuldmægtig
fuldstændig
fuldstændige
fuldstændigt
fuldt
fulgt
fulgte
fulgtes
fulham
full
fuller
fun
function
fund
fundament
fundamental
fundamentale
fundamentet
fundene
funder
funderet
fundet
fundne
fundogfortidsminder
funeral
fungere
fungerede
fungerende
fungerer
fungeret
funk
funktion
funktionalitet
funktionel
funktionelle
funktionen
funktioner
funny
fur
furesø
furious
further
fury
fusion
fusionen
fusionere
fusionerede
fusioneret
future
fv
fvt
fx
fy
fyens
fyld
fylde
fylder
fyldes
fyldt
fyldte
fylke
fylkesvej
fyn
fyns
fynsk
fynske
fyr
fyre
fyrede
fyrer
fyret
fyring
fyrre
fyrst
fyrste
fyrstedømmet
fyrstelige
fyrsten
fyrstendømme
fyrstendømmet
fyrster
fyrsterne
fyrstinde
fyrta
fyrværkeri
fysik
fysiker
fysikere
fysikken
fysiologi
fysiologiske
fysisk
fysiske
fædre
fædreland
fædrelandet
fædrelandets
fædrene
fægter
fægtere
fægtning
fælde
fælder
fældet
fælled
fælledparken
fælles
fællesbetegnelse
fællesra
fællesskab
fællesskaber
fællesskabet
fællestræk
fængsel
fængselsstraf
fængslede
fængsler
fængslet
fængsling
fænomen
fænomener
fænomenet
fænomenologi
færd
færdedes
færden
færdes
færdig
færdigbygget
færdige
færdiggjorde
færdiggjort
færdiggøre
færdiggørelse
færdiggørelsen
færdighed
færdigheder
færdigt
færdsel
færge
færgefart
færgeforbindelse
færgehavn
færgen
færger
færinger
færre
færrest
færreste
færø
færøerne
færøernes
færøsk
færøske
fæste
fæstega
fæstet
fæstning
fæstningen
fæstninger
fæstningsanlæg
fætter
fødder
fødderne
føde
fødeby
føden
føder
føderal
føderale
føderalt
føderation
føderationen
fødes
fødested
fødevare
fødevarer
fødsel
fødsels
fødselsa
fødselsdag
fødslen
fødsler
født
fødte
fødtes
føje
føjede
føjet
føle
følelse
følelsen
følelser
følelsesmæssige
føler
føles
følge
følgelig
følgen
følgende
følger
følgere
følgerne
følges
følgeskab
følsom
følsomhed
følsomme
følt
følte
fønixordenen
fønss
før
føre
førend
førende
fører
føreren
førertrøje
føres
førhen
føring
føringen
førnævnte
føroya
først
første
førstehold
førsteholdet
førsteholdsdebut
førsteholdstrup
førsteholdstruppen
førsteplads
førstepladsen
førstevalg
førstnævnte
ført
førte
førtes
g
ga
gaa
gaae
gaaer
gaaet
gaar
gaard
gaarde
gaarden
gaardmand
gab
gabel
gabon
gabriel
gabriella
gabrielle
gad
gaddafi
gade
gaden
gadens
gader
gaderne
gads
gaffa
gaga
gagarin
gage
gaia
gaius
gal
gala
galakser
galatasaray
galathea
galaxy
galbraith
gale
galen
galerie
galicien
galilei
galileo
galilæa
galla
gallagher
gallen
galleri
gallerier
galleriet
gallery
gallien
gallipoli
gallo
gallup
galt
galten
gama
gambia
game
gameplay
games
gamla
gamle
gamles
gamma
gammastra
gammel
gammeldags
gammelt
gan
gandhi
gane
gang
gange
gangen
ganges
gangster
ganske
gap
gar
garage
garantere
garanterede
garanteret
garanti
garci
garcia
garde
garden
gardens
garder
gardiner
gardner
gare
gareth
garfield
garland
garn
garner
garnison
garnisonen
garnisoner
garnisons
garrett
garros
gartner
gartneri
gary
gas
gasolin
gassen
gasser
gaston
gasværk
gate
gates
gateway
gauguin
gaulle
gauss
gav
gave
gaver
gavin
gavl
gavle
gavn
gavne
gay
gaza
gazastriben
gazette
gb
gdan
ge
gear
gearkasse
ged
gede
geder
gedser
geert
geforlygter
gegen
gegenwart
gehejmekonferensra
gehejmera
geiger
geir
geisha
gejstlig
gejstlige
gejstligheden
gel
gelsted
gelting
gem
gemalinde
gemeinden
gemini
gemme
gemmer
gemmes
gemt
gemte
gen
gena
genbrug
genbrugt
gendannet
gender
gene
gener
general
generaladjudant
generalbas
generaldirektør
generalen
generaler
generalerne
generalforsamling
generalforsamlingen
generalguvernør
generalguvernøren
generalkonsul
generalløjtnant
generalløjtnanter
generalmajor
generalmajorer
generaloberst
generals
generalsekretær
generalstab
generalstaben
generation
generationer
generations
generator
genere
generel
generelle
generelt
generere
genererer
generobre
generobrede
generobret
genesis
genet
genetableret
genetic
genetik
genetisk
genetiske
geneve
genfindes
genforenes
genforenet
genforening
genforeningen
genforeningssten
genfødsel
gengive
gengivelse
gengivelser
gengiver
gengives
gengivet
gengæld
gengældelse
genhed
geni
geniale
genindført
genindsat
genindspillet
genindspilning
genitiv
genius
genkende
genkendelige
genkender
genkendes
gennem
gennembrud
gennembruddet
gennembryde
gennemføre
gennemførelse
gennemførelsen
gennemfører
gennemføres
gennemført
gennemførte
gennemførtes
gennemga
gennemgang
gennemgik
gennemgribende
gennemkørende
gennemska
gennemskæres
gennemsnit
gennemsnitlig
gennemsnitlige
gennemsnitligt
gennemsnitsindkomsten
gennemsnitstemperatur
gennemsnittet
genoa
genom
genopbygge
genopbyggede
genopbygget
genopbygning
genopbygningen
genopført
genoplive
genoplivet
genoprette
genoprettede
genoprettet
genopsta
genopstillede
genopstod
genoptage
genoptaget
genoptog
genoptryk
genoptrykt
genova
genovese
genre
genren
genrer
gensidig
gensidige
gensidigt
genskabe
genskabt
genstand
genstande
gent
gentage
gentagelse
gentagende
gentager
gentages
gentaget
gentagne
gentleman
gentlemen
gentofte
gentog
genudgivelse
genudgivelsen
genudgivet
genudsendt
genus
genvalg
genvalgt
genvandt
genvinde
geo
geodatastyrelsen
geodætisk
geoff
geoffrey
geograf
geografi
geografisk
geografiske
geographic
geography
geolog
geologer
geologi
geological
geologisk
geologiske
geometri
geometrisk
geometriske
georg
george
georges
georgia
georgien
georgij
georgisk
georgiske
georgs
ger
gera
gerald
gerard
gerd
gerda
gerhard
gerlach
germain
german
germanerne
germania
germansk
germanske
germany
gerne
gerning
gerninger
gerningsmanden
gerry
gers
gersdorff
gert
gertrud
gertrude
gerup
ges
gesandt
gesandter
geschichte
gesellschaft
gesta
gestapo
get
getpubfile
gets
getting
gettysburg
gevinst
gevinster
gevær
geværer
gf
gg
ghana
ghetto
ghettoen
ghita
ghost
ghz
gi
giacomo
giant
giants
gibbon
gibbons
gibbs
gibraltar
gibson
gid
gideon
gidsel
gidsler
gif
gift
gifte
giftede
gifter
gifterma
giftes
giftet
giftig
giftige
giftigt
gigantisk
gigantiske
gik
gil
gilbert
gilde
giles
gill
gilleleje
gilles
gillespie
gilmore
gilmour
gimmick
gin
gina
giorgio
giovanni
gips
girl
girls
giro
girondins
gis
gisselfeld
gitte
gitter
giulio
giuseppe
giv
give
given
givent
giver
gives
givet
givetvis
givne
giøre
gjaldt
gje
gjellerup
gjennem
gjensidige
gjern
gjerne
gjerrild
gjorde
gjordes
gjort
gjør
gjøre
gl
glacier
glad
glade
gladiator
gladsaxe
gladys
glahn
glans
glas
glasfiber
glasgow
glass
glasset
glasværk
glat
glatte
gled
glee
glemme
glemmer
glemt
glemte
glen
glenn
gletsjer
gletsjere
gletsjeren
glide
glider
glimrende
glimt
glip
glistrup
glo
global
globale
globalisering
globalt
globe
gloria
glory
gloster
glostrup
gloucester
glover
glu
gluck
glud
glukose
glyngøre
glyptotek
glæde
glæden
glæder
glødende
gm
gmbh
gn
gnags
gnavere
gne
gnede
gner
gning
gnu
go
goa
goal
goble
god
gode
goder
godfather
godfred
godhed
godkende
godkendelse
godkendes
godkendt
godkendte
gods
godsejer
godsejere
godsejeren
godsejerne
godser
godserne
godset
godsets
godske
godstog
godstrafik
godstrafikken
godsvogne
godt
godtgørelse
godtha
goebbels
goes
goethe
goethes
gog
gogh
goguryeo
going
gold
goldberg
golden
goldman
goldschmidt
goldstein
golf
golfkrigen
golfspiller
golfspillere
gomez
gone
gong
gonna
gonza
good
goodbye
goodman
goodwin
google
goose
gorbatjov
gordon
gore
gorilla
gorm
goryeo
gospel
got
goterne
gotfred
goth
gotha
gothersgade
gothic
gotisk
gotiske
gotland
gott
gottfried
gotthard
gottlieb
gottlob
gottorp
gottorpske
gould
gov
government
governor
gp
gps
gr
gra
graa
grace
grad
grade
graden
grader
graderne
gradvis
gradvist
graf
grafen
graff
graffiti
grafik
grafiker
grafikere
grafisk
grafiske
grafit
graham
gram
grammatik
grammatisk
grammatiske
grammy
gran
granada
granat
granater
grand
grande
grandjean
grane
granger
granit
granitkvadre
grant
grants
grass
gratis
grav
grave
gravede
graven
gravene
graver
graves
gravet
gravhøj
gravhøje
gravid
gravide
graviditet
graviditeten
gravity
gravkapel
gravlagt
gravmæle
gravplads
gravsted
gravsten
gray
graz
gre
great
greater
greatest
greb
grebet
greece
greek
green
greene
greenland
greenwich
greenwood
greg
gregers
gregersen
gregg
gregor
gregorianske
gregory
greifswald
gren
grena
grenaa
grenaabanen
grene
grenen
grenene
grenoble
greta
grete
grethe
grev
greve
greven
grevens
grever
greverne
grevinde
grevinden
grevskab
grevskaber
grevskabet
grey
gri
gribe
griber
gribskov
grid
grieg
griffin
griffith
griffiths
griffon
grigorij
grim
grimm
grimme
grin
grindedrab
grindefangst
grindehvaler
grindsted
gris
grise
gro
groening
groft
groningen
groote
groove
gror
gros
gross
grosserer
groth
grotte
grotten
grotter
ground
group
groupe
groups
grov
grove
groves
growth
groß
große
großer
gru
grubbe
grue
grumman
grund
grunde
grunden
grundene
grundet
grundig
grundige
grundigt
grundlag
grundlagde
grundlagdes
grundlaget
grundlagt
grundlov
grundloven
grundlovens
grundlovgivende
grundlægge
grundlæggelse
grundlæggelsen
grundlæggende
grundlægger
grundlæggere
grundlæggeren
grundlæggerne
grundlægges
grundplan
grundskole
grundskolen
grundskoler
grundspil
grundspillet
grundstenen
grundstof
grundstoffer
grundstoffet
grundtvig
grundtvigs
grundvand
gruppe
gruppeformand
gruppen
gruppens
grupper
gruppering
grupperinger
grupperne
gruppespil
gruppespillet
gruppevindere
grus
grusomme
gry
græd
græde
græder
grækenland
grækenlands
grækere
grækerne
grænse
grænsede
grænsen
grænsende
grænseomra
grænseoverskridende
grænser
grænserne
græs
græsk
græske
græsning
græsser
græsset
græsted
grød
grøft
grøfter
grøn
grøndahl
grønholt
grønland
grønlands
grønlandsk
grønlandske
grønlændere
grønne
grønningen
grønt
grøntsager
gs
gskolan
gsm
gt
gti
gu
guadalcanal
guam
guangdong
guangzhou
guard
guardian
guards
guatemala
gud
guddom
guddomme
guddommelig
guddommelige
guden
gudena
guder
guderian
guderne
gudernes
gudhjem
gudinde
gudinden
gudinder
gudme
gudmund
gudrun
guds
gudstjeneste
gudstjenesten
gudstjenester
gue
guerre
guerrero
guest
guevara
guez
guide
guido
guild
guillaume
guillermo
guinea
guinness
guitar
guitaren
guitarer
guitarist
guitaristen
guitarister
guitars
gul
gulag
guld
guldalder
guldberg
guldborgsund
guldet
guldkysten
guldmedalje
guldmedaljen
guldmedaljer
guldsmed
guldvinder
gule
gulf
gult
gulv
gulve
gulvet
gum
gummi
gun
gunhild
gunn
gunnar
guns
gunst
gunstig
gunstige
gur
gurre
guru
gus
gustaf
gustafsson
gustav
gustave
gut
gutenberg
guvernement
guvernementet
guvernør
guvernøren
guvernører
guy
guyana
guys
gv
gvan
gwen
gylden
gyldendal
gyldendals
gyldenløve
gyldenstierne
gyldent
gyldig
gyldige
gyldighed
gyldne
gyllenhaal
gylling
gymnasiale
gymnasier
gymnasiet
gymnasium
gymnast
gymnaster
gymnastik
gymnastikforening
gyo
gyserfilm
gæld
gælde
gælden
gældende
gælder
gælisk
gængse
gæs
gæst
gæstede
gæsteoptræden
gæsteoptrædener
gæster
gæsterne
gætte
gødning
gøg
gøgeurt
gøngehøvdingen
gør
gøre
gøres
gørlev
gøs
gøsta
gøteborg
gøye
h
ha
haab
haag
haakon
haand
haandbog
haanden
haar
haarder
haardt
haarlem
haas
habermas
habitat
habitatomra
habsburg
habsburgerne
habsburgske
hack
had
hade
hadede
hader
haderslev
hades
hadet
hadrian
hadsten
hadsund
hafnia
haft
hage
hagen
hagerup
hagrid
hahn
hai
haifa
haile
hainaut
hair
haiti
hajer
hakket
hakon
hal
hald
halden
hale
halen
haley
half
halfdan
halford
halifax
hall
halland
halle
halleck
hallen
haller
hallerne
halloween
halls
halm
halmstad
halo
hals
halsen
halsey
halshugget
halshugning
halsnæs
halv
halva
halvanden
halvandet
halvblodsprinsen
halvbror
halvdan
halvdel
halvdelen
halve
halveret
halveringstid
halvkugle
halvleg
halvma
halvsøster
halvt
halvtreds
halvvejs
halvø
halvøen
halvøer
ham
hamar
hamas
hamborg
hamborgs
hamburg
hamburger
hamer
hamid
hamilton
hamlet
hammarby
hammel
hammer
hammeren
hammerfest
hammerich
hammerkast
hammershus
hammershøi
hammersmith
hammerum
hammond
hamp
hampshire
hampton
hamsun
han
hancock
hand
handball
handbook
handbuch
handel
handelen
handels
handelsby
handelsfla
handelsfolk
handelshøjskolen
handelsmand
handelsminister
handelsmænd
handelsplads
handelsskibe
handelsskole
handicap
handicappede
handle
handlede
handlen
handlende
handler
handlet
handling
handlingen
handlinger
hands
handsker
hane
hanen
hang
hangar
hangarskib
hangarskibe
hangarskibet
hangul
hank
hanks
hanlige
hanna
hannah
hanne
hannen
hanner
hannerne
hannes
hannibal
hannover
hanoi
hans
hansa
hansdatter
hanseforbundet
hansen
hansens
hansestæderne
hanson
hanssen
hansson
hanstholm
happened
happiness
happy
har
hara
harald
haralds
harboe
harbor
harbou
harbour
harboøre
hard
hardcore
hardcourt
hardenberg
harder
harding
hardinger
hardware
hardy
hare
harlem
harley
harme
harmoni
harmonika
harmonisk
harmoniske
harmony
harold
harpe
harper
harpiks
harrelson
harriet
harris
harrison
harrow
harry
harrys
harstad
hart
hartkorn
hartley
hartmann
hartvig
harvard
harvest
harvey
harzen
has
hash
hasle
haslev
haslund
haslunds
hassan
hasse
hassel
hasselbalch
hassing
hast
hastig
hastighed
hastigheden
hastigheder
hastigt
hastings
hastrup
hat
hatchback
hate
hatt
hatte
hatten
hatting
hattrick
hauch
haugaard
hauge
haugen
haugesund
haus
haute
hauteville
hav
havana
havbunden
havde
have
haveanlæg
havel
haven
havene
havens
haveplanter
haver
haverne
haves
havet
havets
havfrue
havilland
havn
havne
havnebane
havneby
havnebyen
havnebyer
havnede
havnegade
havnen
havnene
havneomra
havniveau
havomra
havoverfladen
havre
havs
havt
havvand
hawaii
hawk
hawker
hawkins
hawks
haxthausen
hay
haydn
hayes
haynes
hb
hbar
hbo
hc
hd
hdi
he
head
heads
healing
health
hear
heard
heart
hearts
heat
heath
heather
heats
heaven
heavy
heavyweight
hebraisk
hebraiske
heck
heckansicht
hector
hed
hedde
hedder
heddet
heddinge
hede
hedeby
hedegaard
hedehusene
heden
hedensk
hedenske
hedensted
heder
hedevig
hedmark
hedvig
hee
heel
heerenveen
heeresgruppe
heerup
hefte
heftig
heftige
heftigt
hegel
hegels
hegn
hegnet
heiberg
heibergs
heick
heide
heidegger
heidelberg
heidi
height
heights
heihachi
heim
heimskringla
hein
heine
heinesen
heino
heinrich
heinz
heise
hej
hejst
heks
hekse
heksen
hektar
hel
hela
helbred
helbrede
helbredelse
held
heldig
heldige
heldigt
heldigvis
hele
helen
helena
helene
helga
helge
helgen
helgener
helgoland
helhed
helikopter
helikoptere
helikopteren
helium
hell
hellas
hellcat
helle
hellebæk
hellenistiske
heller
hellere
helleristninger
hellerup
hellig
helliga
helligdag
helligdage
helligdom
helligdommen
hellige
helligede
helligt
hello
hells
helmer
helmig
helms
helmut
helmuth
help
helrandede
helsingborg
helsingborgs
helsinge
helsingfors
helsingør
helsinki
helst
helt
heltal
helte
helten
helvede
helveg
helweg
hem
hemingway
hemmelig
hemmelige
hemmelighed
hemmeligheden
hemmeligheder
hemmelighedernes
hemmeligt
hemmingsen
hen
henad
henblik
hende
henderson
hendes
hendricks
hendrik
hendrix
henfald
henføres
hengivenhed
henhold
henholdsvis
henimod
henlagt
henne
henning
henningsen
henny
henover
henregnes
henrette
henrettede
henrettelse
henrettelsen
henrettelser
henrettes
henrettet
henri
henrich
henriette
henrik
henriks
henriksen
henriques
henry
henseende
henseender
hensigt
hensigten
hensigter
hensigtsmæssigt
hensyn
hensynet
hensyntagen
hente
hentede
henter
hentes
hentet
hentyde
hentyder
hentydning
henved
henvende
henvendelse
henvender
henvendt
henvendte
henvise
henviser
henvises
henvisning
henvisninger
henvist
henviste
hepburn
her
hera
heraf
herakles
herald
heraldik
herbert
hercegovina
hercule
hercules
here
herefter
herfor
herfra
herfølge
herge
herhjemme
heri
heriblandt
heritage
herkomst
herkules
herlev
herlighed
herluf
herlufsholm
herman
hermann
hermansen
hermed
hermes
hermione
herna
herning
hero
herodes
herodot
heroes
heroin
heroiske
herom
herover
herpa
herr
herre
herred
herreder
herredet
herredouble
herreds
herredsfoged
herredømme
herredømmet
herrega
herreha
herrehold
herrelandshold
herren
herrens
herrer
herrerne
herrernes
herres
herresingle
herske
herskede
herskende
hersker
herskere
hertha
hertil
hertug
hertugdømme
hertugdømmer
hertugdømmerne
hertugdømmernes
hertugdømmet
hertugen
hertugens
hertuger
hertugerne
hertuginde
hertuginden
hertz
herudover
herunder
herved
herzog
herzogtum
hess
hessen
hest
heste
hesten
hestene
het
hetsch
hey
hf
hg
hh
hhv
hhx
hi
hicks
hidalgo
hidden
hidtidige
hidtil
hierarki
hierarkiet
hieronimus
hieronymus
higgins
high
higher
highland
highway
hik
hilary
hilda
hildebrand
hildesheim
hill
hillary
hillerød
hills
hilmar
hilse
hilsen
hilser
hilste
hilton
him
himalaya
himlen
himlens
himmel
himmelen
himmellegemer
himmelske
himmerland
himmler
hin
hinanden
hinandens
hind
hindenburg
hindi
hindre
hindrede
hindrer
hindring
hindringer
hindu
hinduer
hinduisme
hinduismen
hinduistiske
hine
hinnerup
hinsides
hiort
hip
hiphop
hiroshima
hirsch
hirschsprungske
hirtshals
his
hispania
hist
histoire
historia
historic
historical
historie
historien
historiens
historier
historierne
histories
historieskrivning
historik
historiker
historikere
historikeren
historikerne
historisches
historisk
historiske
history
hit
hitchcock
hitler
hitlers
hitliste
hitlisten
hitlister
hitlisterne
hits
hittet
hiv
hizbollah
hja
hjallerup
hjalmar
hjalp
hjejle
hjelm
hjelme
hjelmen
hjem
hjemby
hjembyen
hjemkomst
hjemkomsten
hjemland
hjemlandet
hjemlige
hjemløse
hjemme
hjemmebane
hjemmefra
hjemmeholdet
hjemmehørende
hjemmekamp
hjemmekampe
hjemmel
hjemmeside
hjemmesiden
hjemmesider
hjemmestyre
hjemmet
hjemmeværnet
hjemrejsen
hjemsted
hjerm
hjerne
hjernen
hjernens
hjernerystelse
hjerte
hjerteanfald
hjerter
hjertestop
hjertet
hjertets
hjort
hjorte
hjorth
hjortshøj
hjul
hjulene
hjulet
hjulpet
hjælp
hjælpe
hjælpemidler
hjælpen
hjælper
hjælpere
hjælpeside
hjælpetropper
hjørne
hjørner
hjørnet
hjørring
hk
hka
hl
hle
hler
hm
hmen
hms
hn
hne
ho
hob
hobart
hobbes
hobby
hobro
hoc
hochschule
hockey
hodet
hodgson
hoel
hof
hofdame
hoff
hoffenheim
hoffet
hoffman
hoffmann
hoffmeyer
hofjægermester
hofjægermestre
hofman
hogan
hogans
hogwarts
hohenzollern
hokkaido
holberg
holbergs
holbæk
holck
hold
holdbar
holdbarhed
holde
holden
holdene
holdenes
holdeplads
holder
holdes
holdet
holdets
holding
holdings
holdkammerat
holdkammerater
holdkonkurrencen
holdning
holdninger
holds
holdt
holdtes
hole
holeby
holger
holiday
holland
hollands
hollandsk
hollandske
hollow
holloway
holly
hollywood
hollænder
hollændere
hollænderne
holm
holme
holmegaard
holmen
holmens
holmes
holms
holocaust
holst
holstebro
holsted
holstein
holsteinborg
holsten
holstens
holstensk
holstenske
holt
holte
holten
holy
home
homepage
homer
homers
homme
homo
homolka
homoseksualitet
homoseksuel
homoseksuelle
honda
honduras
honey
hong
hongkong
honning
honolulu
honor
honore
honorius
hood
hoods
hook
hooker
hoover
hop
hope
hopkins
hoppe
hoppede
hopper
horace
hordaland
horde
horisont
horisontale
horisonten
horizon
horizontal
hormon
hormoner
horn
hornbæk
horne
hornet
hornets
horns
hornslet
hornum
horrocks
horror
horse
horsemen
horsens
horses
horsfieldia
horst
hos
hoseba
hospital
hospitaler
hospitalet
host
hoste
hostrup
hot
hotel
hoteller
hotellet
hotels
hotspur
hou
houbraken
hough
houghton
hour
hours
house
houses
houston
hov
hove
hoved
hoveda
hovedbanega
hovedbestyrelse
hovedbestyrelsen
hovedby
hovedbyen
hovedbygning
hovedbygningen
hoveder
hovedet
hovedforma
hovedga
hovedgade
hovedgaden
hovedgrupper
hovedindgangen
hovedkontor
hovedkontoret
hovedkrateret
hovedkvarter
hovedkvarteret
hovedland
hovedma
hovedomra
hovedopgave
hovedparten
hovedperson
hovedpersonen
hovedpersoner
hovedpersonerne
hovedpine
hovedregel
hovedrolle
hovedrollen
hovedroller
hovedrollerne
hovedrunden
hovedrødder
hovedsagelig
hovedsageligt
hovedsagen
hovedsagligt
hovedstad
hovedstaden
hovedstadens
hovedstadsomra
hovedstyrke
hovedstæder
hovedsæde
hovedsædet
hovedtræk
hovedturnering
hovedturneringen
hovedvej
hovedveje
hovedvejen
hovedvægten
hovedværk
hovedværker
hoveri
how
howard
howe
hoydal
hp
hr
hren
hrer
hrsg
hrung
hs
hsv
ht
htm
html
http
https
htx
hu
hua
hub
hubbard
hubble
hubert
huck
hud
huddersfield
hude
huden
hudfarve
hudson
hue
hug
hugge
hugget
hugh
hughes
hugo
hui
huitfeldt
hukommelse
hukommelsen
hul
hule
hulen
huler
hulk
hull
huller
hullerne
hullet
hulrum
human
humane
humaniora
humanisme
humanist
humanistisk
humanistiske
humanitær
humanitære
humboldt
hume
humle
humlebæk
hummel
humor
humoristisk
humoristiske
humphrey
humør
hun
hunan
hund
hunde
hunden
hundene
hunderacer
hundested
hundige
hundred
hundreda
hundrede
hundreder
hundredvis
hunger
hungersnød
hunlige
hunnen
hunner
hunnerne
hunt
hunter
huntford
hunting
hur
hurley
hurra
hurricane
hurt
hurtig
hurtige
hurtigere
hurtighed
hurtigløb
hurtigst
hurtigste
hurtigt
hurup
hus
husarrest
husby
husdyr
husdyrhold
huse
husede
husene
huser
huset
husets
husgerning
husholdning
husholdninger
husk
huske
huskede
husker
huskes
husket
huslærer
husmand
husmænd
hussein
husserl
husstand
husstande
hustru
hustruen
hustruer
hustrus
husum
hutchinson
huus
huxley
huygens
hva
hvad
hval
hvalba
hvalen
hvaler
hvalerne
hvalfangst
hvalpsund
hvalsø
hvam
hvass
hvede
hvem
hver
hverandre
hverdag
hverdage
hverdagen
hverken
hvert
hverv
hverve
hvervet
hvid
hvidbjerg
hvide
hvidehavet
hviderusland
hviderussisk
hviderussiske
hvidovre
hvidt
hviid
hvile
hvilede
hvilende
hviler
hvilke
hvilken
hvilket
hvirveldyr
hvirvelløse
hvis
hviskede
hvor
hvoraf
hvordan
hvorefter
hvorfor
hvorfra
hvori
hvorigennem
hvorimod
hvorledes
hvormed
hvorna
hvorom
hvorpa
hvorpaa
hvortil
hvorunder
hvorved
hvorvidt
hvælv
hvælvinger
hybrid
hyde
hyderabad
hydraulisk
hydrogen
hygiejne
hylde
hyldede
hylden
hylder
hyldest
hyldet
hymne
hypotese
hypotesen
hypoteser
hyppig
hyppige
hyppigere
hyppigst
hyppigste
hyppigt
hyrde
hyre
hyrede
hyret
hytte
hytten
hytter
hyundai
hz
hæder
hædersbevisninger
hæderspris
hæderstegn
hædret
hæfte
hæfter
hæftet
hæk
hækkerup
hælder
hældes
hældning
hæmmer
hæmmet
hændelse
hændelsen
hændelser
hændelserne
hænder
hænderne
hænge
hængende
hænger
hængning
hængt
hængte
hær
hære
hæren
hærene
hærens
hærfører
hærgede
hærget
hærs
hærvejen
hærværk
hævde
hævdede
hævder
hævdes
hævdet
hæve
hævede
hæver
hæves
hævet
hævn
hævne
hø
høeg
høegh
høffding
høg
høgh
høgsbro
høit
høj
højbjerg
højbro
højby
højde
højdedrag
højden
højdepunkt
højdepunkter
højdepunktet
højder
højderne
højderyg
højderyggen
højdespring
høje
højen
højer
højere
højest
højeste
højesteret
højesterets
højesteretsdommer
højesteretsdommere
højgaard
højhastighedstog
højhed
højhus
højhuse
højland
højlandet
højmiddelalderen
højre
højrefløj
højreorienterede
højskole
højskolen
højskoler
højst
højt
højtider
højtliggende
højtsta
højttalere
højvande
høne
hønen
høng
høns
hør
hørby
høre
hørelse
hørende
hører
høres
hørespil
høring
hørning
hørsholm
hørsted
hørt
hørte
hørup
høst
høstede
høsten
høvding
høvdinge
høvdingen
høyer
høyre
i
ia
iaaf
iagttage
iagttagelser
ian
iata
iau
ib
iben
iberiske
ibid
ibiza
iblandt
ibm
ibn
ibrahim
ibsen
ibsens
ic
icao
icc
icd
ice
iceland
ich
icon
id
ida
idag
idaho
ide
idea
ideal
idealer
idealisme
ideas
idee
ideel
ideelle
ideelt
ideen
ideer
ideerne
idehistorie
identificere
identificerede
identificerer
identificeres
identificeret
identifikation
identisk
identiske
identitet
identity
ideologi
ideologier
ideologisk
ideologiske
idet
idiot
idol
idræt
idræts
idrætsanlæg
idrætscenter
idrætsforbund
idrætsforening
idrætsforeninger
idrætshal
idrætspark
idrætsparken
idømmes
idømt
ie
iec
ieee
if
ifk
iflg
ifpi
ifs
ifølge
iført
ig
igangsat
igangsatte
igangsætte
igangværende
igen
igennem
igjen
igjennem
ignacio
ignorere
ignorerede
ignoreret
igor
ihf
ihjel
ihr
ihre
ihærdigt
ii
iihf
iii
iis
ik
ikast
ike
ikea
ikke
iklædt
ikon
ikoner
ikoniske
il
ild
ilde
ildebrand
ilden
ilex
ilja
ill
illegal
illegale
illegalt
illinois
illum
illusion
illustrated
illustration
illustrationen
illustrationer
illustrator
illustratorer
illustrere
illustrerede
illustrerer
illustreres
illustreret
ilt
ilulissat
im
image
images
imagesize
imam
imdb
imellem
imens
imf
img
imidlertid
immanuel
immateriel
immigranter
immigration
immortal
immunitet
imod
impact
imperativ
imperial
imperialisme
imperiet
imperiets
imperium
implementere
implementeret
implementering
imponerede
imponerende
imponeret
import
important
importen
importere
importerede
importeret
impossible
improvisation
improviserede
improviseret
impuls
impulser
imødega
imødekomme
in
ina
inc
inch
including
increment
ind
inda
indad
indarbejdet
indb
indbefattede
indbefatter
indblandet
indblanding
indblik
indbragte
indbringende
indbrud
indbyggede
indbygger
indbyggere
indbyggerne
indbyggertal
indbyggertallet
indbygget
indbyrdes
inddeles
inddeling
inddelingen
inddelinger
inddelt
inddrage
inddragelse
inddrages
inddraget
inddrog
inde
indebar
indebære
indebærer
indefra
indehaver
indeholde
indeholdende
indeholder
indeholdt
indeholdte
indeks
indekset
inden
indendørs
indenfor
indenforvoldene
indeni
indenlandsk
indenlandske
indenrigs
indenrigsminister
indenrigsministeriet
independence
independent
independiente
inderlig
indersiden
inderst
inderste
indesluttet
indespærret
index
indfald
indflydelse
indflydelsen
indflydelsesrig
indflydelsesrige
indfødsret
indfødt
indfødte
indføre
indførelse
indførelsen
indfører
indføres
indføring
indførsel
indført
indførte
indførtes
indga
indgang
indgange
indgangen
indgav
indgik
indgreb
indgriben
indhegnet
indhente
indhentet
indhold
indholdet
india
indian
indiana
indianapolis
indianere
indianerne
indians
indiansk
indianske
indie
indien
indiens
indigo
indikation
indikator
indikere
indikerede
indikerer
indimellem
indirekte
indisk
indiske
individ
individer
individet
individets
individual
individuel
individuelle
individuelt
indkalde
indkaldt
indkaldte
indkomst
indkomster
indkomstkilde
indkvartering
indkøb
indkøbscenter
indkøbscentre
indkøbt
indkøbte
indla
indlagt
indland
indlandet
indlandsisen
indlede
indledende
indleder
indledes
indledning
indledningen
indledningsvis
indledt
indledte
indledtes
indlejret
indlemmede
indlemmelse
indlemmelsen
indlemmet
indlysende
indlæg
indløb
indløbet
indo
indoeuropæisk
indoeuropæiske
indokina
indonesien
indonesisk
indonesiske
indpas
indre
indretning
indretningen
indrette
indrettede
indrettet
indrømme
indrømmede
indrømmelser
indrømmer
indsa
indsamle
indsamlede
indsamler
indsamlet
indsamling
indsamlingen
indsat
indsats
indsatsen
indsatser
indsatte
indsattes
indse
indsejlingen
indsendt
indsendte
indser
indset
indsigt
indskifter
indskiftet
indskrevet
indskrift
indskriften
indskrifter
indskrænkede
indskrænket
indslag
indspille
indspillede
indspillet
indspilning
indspilningen
indspilninger
indspilningerne
indsprøjtning
indstiftet
indstille
indstillede
indstilles
indstillet
indstilling
indstillinger
indsætte
indsættelse
indsættelsen
indsættes
indtage
indtagelse
indtager
indtages
indtaget
indtil
indtjening
indtjente
indtog
indtra
indtraf
indtryk
indtræde
indtræden
indtræder
indtræffer
indtrængen
indtrængende
indtægt
indtægter
indtægterne
indtægtskilde
industri
industrial
industrialiserede
industrialisering
industrialiseringen
industriby
industriel
industrielle
industrielt
industrien
industriens
industrier
industries
industriomra
industrivirksomheder
industry
indvalgt
indvandrede
indvandrere
indvandret
indvandring
indvandringen
indvendig
indvendige
indvendigt
indvendinger
indviede
indviedes
indvielse
indvielsen
indvies
indviet
indviklede
indviklet
indvilligede
indvirkning
infanteri
infanteribrigade
infanteridivision
infanteridivisioner
infanteriet
infanteriregiment
infantry
infektion
infektioner
inferior
infernal
inferno
inficeret
infinite
inflation
inflationen
influence
influenza
influeret
info
information
informationen
informationer
informations
informationsteknologi
informere
informerede
informeret
infrastruktur
infrastrukturen
infty
ing
inga
inge
ingeborg
ingemann
ingen
ingenio
ingeniør
ingeniøren
ingeniører
ingeniørkorpset
ingenlunde
ingenting
inger
ingermanland
ingerslev
ingolf
ingolstadt
ingredienser
ingrid
ingvar
initialer
initiativ
initiative
initiativer
initiativet
initiativtager
inkl
inkludere
inkluderede
inkluderer
inkluderet
inklusiv
inklusive
inkorporeret
inn
inner
innlandet
innocens
innovation
innovative
innsbruck
input
insekter
inside
insisterede
insisterer
inskription
inskriptionen
inskriptioner
inspector
inspektion
inspektør
inspiration
inspirationen
inspirationskilde
inspirere
inspirerede
inspireret
instagram
installation
installationer
installere
installerede
installeret
instans
instant
institut
institute
institutet
institution
institutionen
institutioner
institutter
instituttet
instituttets
instr
instruere
instruerede
instrueret
instruks
instruktion
instruktioner
instruktionsbog
instruktør
instruktøren
instruktører
instrument
instrumental
instrumentale
instrumenter
instrumenterne
instrumentet
instruments
insulin
insurance
int
intakt
intakte
inte
integrated
integration
integrere
integrerede
integreret
integritet
intel
intellektuel
intellektuelle
intelligence
intelligens
intelligent
intelligente
intens
intense
intensitet
intensiv
intensive
intensivt
intenst
intention
intentioner
inter
interactive
interaktion
interaktioner
interaktive
intercity
intercontinental
interessant
interessante
interesse
interessen
interesseorganisation
interesser
interessere
interesserede
interesserer
interesseret
interest
interface
interior
interiør
interiøret
intern
internacional
international
internationale
internationalt
internazionale
interne
interneret
internet
internettet
internt
interstate
interval
intervaller
intervallet
intervention
interview
interviewet
interviews
intet
intime
into
intriger
intro
introducere
introducerede
introduceredes
introducerer
introduceres
introduceret
introduction
introduktion
introduktionen
inuit
invadere
invaderede
invaderende
invaderer
invaderet
invaliditet
invasion
invasionen
invasioner
invasive
inventar
invention
invest
investere
investerede
investeret
investering
investeringer
investigation
investment
investor
investorer
invitation
invitere
inviterede
inviterer
inviteret
involvere
involverede
involverer
involveret
involvering
io
ioc
ion
ioner
ios
iowa
ip
ipa
iphone
ipod
ipsen
ipswich
iq
ir
ira
irak
irakisk
irakiske
irakkrigen
iraks
iran
irans
iransk
iranske
iraq
irc
ireland
irene
irina
iris
irish
irkutsk
irland
irlands
irma
iron
ironi
ironisk
irsk
irske
irving
irwin
is
isa
isaac
isabel
isabella
isabellas
isabelle
isak
isbn
iscenesat
ise
isen
ishav
ishavet
ishockey
ishockeyklubber
ishockeyspiller
ishockeyspillere
ishøj
isil
isis
isla
islam
islamic
islamisk
islamiske
islamistiske
islams
island
islands
islandsk
islandske
isle
islæt
iso
isola
isolation
isolde
isolere
isolerede
isoleret
isolering
isotop
isotoper
israel
israeli
israels
israelsk
israelske
iss
issn
issue
issues
ist
istanbul
istandsat
istandsættelse
istat
isted
istedetfor
istid
istiden
istituto
især
it
itachi
italia
italian
italiana
italien
italienere
italieneren
italienerne
italiens
italiensk
italienske
italy
itf
ito
its
itt
itu
itunes
itv
itzehoe
iucn
ius
iv
iva
ivan
ivanhoe
ivanov
ivanovitj
ivar
iver
iversen
ivo
ivrig
ivrige
ivrigt
ivy
iværksat
iværksatte
iværksætte
iværksætter
iværksættere
ix
iøjnefaldende
iøvrigt
j
ja
jack
jackie
jacks
jackson
jacksons
jacksonville
jacob
jacobi
jacobs
jacobsen
jacobsens
jacopo
jacqueline
jacques
jade
jaffa
jag
jage
jagede
jager
jagere
jagerfly
jaget
jagger
jagt
jagten
jagter
jagthunde
jagtvej
jaguar
jahrbuch
jahre
jahrhundert
jaime
jak
jake
jakke
jakkesæt
jakob
jakobs
jakobsen
jalousi
jaloux
jam
jamaica
james
jamestown
jamie
jammerbugt
jan
jana
jane
janeiro
janet
janne
jannik
jansen
janssen
jansson
januar
january
janus
japan
japanere
japanerne
japanese
japans
japansk
japanske
jar
jardin
jared
jarl
jarlen
jarler
jarlsberg
jaroslav
jaroslavl
jarrett
jason
jasper
java
javier
javnaðarflokkurin
jay
jazeera
jazz
jazzmusiker
jazzmusikere
je
jean
jeanette
jeanne
jeans
jedi
jeep
jeff
jefferson
jeffrey
jeg
jehovas
jekaterina
jelena
jelling
jeltsin
jena
jenkins
jenna
jennifer
jennings
jenny
jens
jensen
jensens
jeppe
jeppesen
jepsen
jer
jeremias
jeremy
jeres
jerichau
jericho
jern
jernalder
jernalderen
jernbane
jernbanebro
jernbanebroen
jernbaneforbindelse
jernbanegade
jernbaneknudepunkt
jernbanelinje
jernbanelinjen
jernbanemuseum
jernbanen
jernbanenet
jernbanenettet
jernbanens
jernbaner
jernbanerne
jernbaneselskab
jernbaneselskaber
jernbanestation
jernbanestationen
jernbanestationer
jernbanestrækning
jernbanestrækninger
jernet
jernkorset
jernmalm
jernstøberi
jernverk
jerome
jerry
jersey
jerusalem
jerusalems
jes
jesper
jespersen
jess
jesse
jessen
jessica
jessie
jesu
jesus
jet
jetfly
jets
jetta
jette
jevgenij
jewish
jf
jfr
ji
jiang
jihad
jill
jim
jimi
jimmy
jin
jitsu
jiu
jo
joa
joachim
joakim
joan
joanna
job
jobbet
jobs
joe
joel
joensen
joey
joh
johan
johann
johanna
johanne
johannes
johannesburg
johannesen
johannesevangeliet
johannessen
johannsen
johans
johansen
johansson
john
johnny
johns
johnsen
johnson
johnsons
johnston
johs
join
joins
joint
joke
joker
jokeren
jolie
jolly
jomfru
jomfruen
jomfruøer
jon
jonah
jonas
jonatan
jonathan
jones
jong
jonge
joni
jonsson
jord
jordan
jordanes
jordbrug
jordbund
jordbunden
jordbær
jorde
jordebog
jorden
jordens
jorder
jordiske
jordoverfladen
jordskælv
jordskælvet
jorge
jorn
jose
josef
josefine
josefs
joseon
joseph
josephine
josh
joshua
journal
journalist
journalisten
journalister
journalisthøjskole
journalistik
journalistisk
journalistiske
journey
joy
joyce
jp
jpeg
jpg
jr
jstor
ju
juan
jubel
jubilee
jubilæet
jubilæum
judas
jude
judge
judith
judo
judy
juel
juels
juelsminde
jugoslavien
jugoslaviens
jugoslaviske
juhl
juice
jul
juleaften
juledag
julekalender
julekalendere
julekalenderen
julemanden
julen
jules
juli
julia
julian
juliane
julie
julien
juliet
juliette
julio
julius
july
jump
jun
juncker
junction
june
jung
junge
jungle
junglen
juni
junior
juniorer
juniors
juniperus
junker
junkers
juno
jupiter
jupiters
jur
jura
jurassic
jure
juridisk
juridiske
jurij
juris
jurisdiktion
jurist
jurister
jury
juryen
juss
just
justere
justeres
justeret
justice
justin
justinian
justitiarius
justitsminister
justitsministeren
justitsministeriet
justitsra
justus
jutland
jutsu
juul
juventus
jv
jvf
jyderup
jydsk
jydske
jylland
jyllands
jyllandsposten
jysk
jyske
jytte
jæger
jægere
jægersborg
jægerspris
jætter
jævn
jævnaldrende
jævne
jævnfør
jævnlig
jævnligt
jævnt
jøde
jødedom
jødedommen
jøder
jøderne
jødernes
jødisk
jødiske
jørgen
jørgens
jørgensen
jørgensens
jørn
k
ka
kaalund
kaare
kaas
kabel
kabine
kabinen
kabinet
kabinettet
kabler
kabul
kadet
kaffe
kage
kager
kahn
kai
kain
kairo
kaiser
kaiserreich
kaiserslautern
kaj
kajak
kajen
kakao
kakashi
kald
kalde
kaldenavn
kalder
kaldes
kaldet
kaldt
kaldte
kaldtes
kalender
kalendera
kalenderen
kali
kaliber
kalif
kalifatet
kaliningrad
kalium
kalk
kalkmalerier
kalksten
kalle
kalmar
kalmarunionen
kalundborg
kalv
kalvebod
kalvehave
kalø
kam
kameler
kamera
kameraer
kameraet
kammer
kammerat
kammerater
kammeret
kammerherre
kammerherrer
kammerjunker
kammermusik
kammerorkester
kammerra
kamp
kampagne
kampagnen
kampagner
kampe
kampen
kampene
kampens
kampesten
kampf
kampfly
kamphandlinger
kampmann
kampsport
kampvogn
kampvogne
kampvognen
kampvognene
kamre
kamtjatka
kan
kana
kanal
kanalen
kanalens
kanaler
kanalerne
kanariske
kancelli
kancelliet
kancellira
kand
kandidat
kandidaten
kandidater
kandidaterne
kandidatgrad
kandidatur
kane
kanin
kaniner
kann
kano
kanon
kanonba
kanonen
kanoner
kanonerne
kanoniske
kanonta
kansas
kansler
kant
kantate
kantater
kantede
kanten
kanter
kantet
kanton
kantonen
kantoner
kants
kanye
kaos
kaotisk
kaotiske
kap
kapacitet
kapaciteten
kapel
kapellan
kapeller
kapellet
kapelmester
kapital
kapitalen
kapitalisme
kapitalismen
kapitalistiske
kapitel
kapitler
kapitlet
kapitulation
kapitulerede
kapkolonien
kaplan
kapp
kappa
kappe
kappel
kappen
kapsel
kapsler
kaptajn
kaptajnen
kaptajnløjtnant
kar
kara
karakter
karakteren
karakterer
karaktererne
karakteriserede
karakteriserer
karakteriseres
karakteriseret
karakteristik
karakteristika
karakteristisk
karakteristiske
karaktertræk
karantæne
karate
karburator
kardinal
kardinalen
kardinaler
kardinalerne
karel
karelen
karelske
karen
kari
karin
karina
karise
karl
karla
karle
karls
karlsen
karlskrona
karlsruhe
karlsson
karlstad
karma
karneval
karoline
karpaterne
karpov
karre
karriere
karrieren
karrierens
karrierer
karrierestop
karrosseri
karsten
karthago
kartofler
kartverk
karup
kasakhstan
kaserne
kasernen
kaserner
kashmir
kaspar
kasparov
kasper
kaspersen
kaspiske
kasse
kassel
kassen
kasser
kasserer
kasseret
kassetteba
kast
kaste
kastede
kastellet
kaster
kastes
kastet
kastilien
kastrup
kasus
kat
kata
katalog
kataloget
katalysator
katarina
katastrofale
katastrofe
katastrofen
katastrofer
kate
katedral
katedralen
katedralskole
kategori
kategorien
kategorier
kategorierne
kategoriseres
kategoriseret
katekismus
katharina
katharine
katherine
kathleen
kathrine
kathy
katie
katja
kato
katolicismen
katolik
katolikker
katolsk
katolske
katrine
katte
kattegat
katten
katy
kauffmann
kaufmann
kaukasus
kaunas
kautsky
kavaleri
kavaleridivision
kavaleriet
kavaleriofficerer
kawasaki
kay
kaye
kazan
kb
kbh
kbu
kc
ke
keaton
ked
keep
keeper
keith
kejser
kejserdømme
kejsere
kejseren
kejserens
kejserinde
kejserlig
kejserlige
kejserrige
kejserriget
keld
keller
kelly
keltisk
keltiske
kelvin
kemi
kemikalier
kemiker
kemikere
kemisk
kemiske
kemoterapi
kemp
ken
kendall
kende
kendelse
kender
kendes
kendetegn
kendetegnende
kendetegner
kendetegnes
kendetegnet
kendo
kendsgerning
kendskab
kendskabet
kendt
kendte
kendteste
kennedy
kennedys
kennel
kenneth
kenny
kensington
kent
kentucky
kenya
kepler
ker
keramik
keramiker
keramiske
kern
kerne
kernekraft
kernen
kerneomra
kerner
kerneva
kerr
kerry
kerteminde
kesselring
kessler
kevin
key
keyboard
keyboards
keyboardspiller
keynes
keys
kf
kfum
kg
kgb
kgl
kh
khader
khalid
khan
khanatet
kharkiv
kherson
khl
khrusjtjov
khz
ki
kia
kiby
kick
kicker
kid
kidd
kidde
kidman
kidnappet
kids
kiel
kierkegaard
kierkegaards
kiev
kif
kig
kigge
kiggede
kigger
kijev
kijevriget
kilde
kildeangivelser
kildehenvisninger
kilden
kilder
kilderne
kill
killed
killer
killers
killing
kilo
kilogram
kilometer
kilometers
kim
kin
kina
kinas
kind
kinder
kinesere
kineserne
kinesisk
kinesiske
king
kingdom
kingo
kings
kingsley
kingston
kinks
kinney
kino
kiosk
kira
kirby
kirche
kirgisistan
kirk
kirke
kirkebog
kirkeby
kirkebygning
kirkebygningen
kirkedistrikt
kirkega
kirkegaard
kirkehistorie
kirkelig
kirkelige
kirkeligt
kirkeminister
kirkemusik
kirken
kirkenes
kirkens
kirker
kirkerne
kirkerummet
kirkes
kirkesamfund
kirkeskibet
kirketa
kirkja
kirsebær
kirsten
kirstine
kirtler
kirurg
kirurgi
kirurgisk
kirurgiske
kiss
kiste
kisten
kister
kit
kitty
kj
kjeld
kjeldsen
kjell
kjellerup
kjender
kjendte
kjer
kjole
kjoler
kjv
kjær
kjære
kjærgaard
kjærlighed
kjærsgaard
kjærulff
kjøbenhavn
kjøbenhavns
kjødet
kk
kl
klage
klagede
klager
klaksvi
klampenborg
klan
klanen
klaner
klang
klapper
klar
klara
klare
klarede
klarer
klarere
klaret
klarhed
klarinet
klart
klasse
klassement
klassen
klassens
klasser
klasserne
klasses
klassetrin
klassificere
klassificeres
klassificeret
klassificering
klassifikation
klassiker
klassikere
klassisk
klassiske
klatre
klaus
klaver
klaveret
klaverkoncert
klaverkoncerter
klaversonate
klaverstykker
klein
kleine
kleist
klemme
kleopatra
kliche
klient
klienten
klienter
klik
klikke
klim
klima
klimaanlæg
klimaet
klimaforandringer
klimatiske
klimaændringer
klinge
klingenberg
klinger
klinik
klinisk
kliniske
klint
klip
klipning
klippe
klippede
klippen
klipper
klipperne
klippet
klipping
klit
klitgaard
klitplantage
klitter
klitterne
klo
kloden
klog
kloge
klokke
klokken
klokker
klokketa
kloster
klosteret
klosterets
klosterkirke
klosterkirken
klosters
klostre
klostrene
klostret
klovn
klub
klubben
klubbens
klubber
klubberne
klubhold
klubhus
klubkarriere
klubplan
klump
klæde
klædefabrik
klæder
klædning
klædt
klædte
kløer
kløft
kløften
kløfter
klør
kløvedal
kløver
km
kmd
kn
knap
knapper
knapt
kneb
knema
knesset
knibe
knife
knight
knights
kniv
knive
kniven
knob
knock
knockout
knogle
knogler
knoglerne
knopperne
know
knowledge
knowles
known
knox
knud
knude
knudepunkt
knuder
knuds
knudsen
knudsens
knuse
knust
knuste
knut
knuth
knutzon
knvb
knytte
knyttede
knytter
knyttes
knyttet
knæ
knæet
knæk
knække
knækkede
knækket
knæskade
ko
koalition
koalitionen
koalitionsregering
kobber
kobberstik
kobe
koblenz
kobles
koblet
kobling
koch
kock
koda
kode
koden
kodenavn
kodenavnet
koder
koefoed
koen
kofangere
kofod
kofoed
kog
koge
kogebog
kogende
koger
koges
kognitiv
kognitive
kogt
kogte
koh
kohl
kok
kokain
kokke
kokkedal
koks
kold
kolde
koldere
koldeste
kolding
koldinghus
koldt
kollaps
kollapsede
kollapset
kollega
kollegaen
kollegaer
kolleger
kollegier
kollegiet
kollegium
kollektiv
kollektive
kollektivt
kolliderede
kollision
koloni
koloniale
kolonien
koloniens
kolonier
kolonierne
koloniseret
kolonisering
kolonister
kolonisterne
kolonitiden
kolonne
kolonnen
kolonner
kolstrup
kom
koma
kombination
kombinationen
kombinationer
kombinere
kombinerede
kombinerer
kombineres
kombineret
komedie
komediefilm
komedien
komedier
komet
komfort
komi
komiker
komikere
komikeren
komisk
komiske
komite
komiteen
komma
kommandant
kommandanten
kommanderede
kommanderende
kommando
kommandoen
kommandoer
kommandør
kommandører
kommandørkaptajn
komme
kommen
kommende
kommentar
kommentarer
kommentator
kommentatorer
kommenterede
kommenterer
kommenteret
kommer
kommerciel
kommercielle
kommercielt
kommes
kommet
kommission
kommissionen
kommissionens
kommissioner
kommissær
kommissærer
kommitteret
kommun
kommuna
kommunal
kommunalbestyrelse
kommunalbestyrelsen
kommunalbestyrelsesmedlemmer
kommunale
kommunalreformen
kommunalt
kommunalvalg
kommunalvalget
kommune
kommunefællesskab
kommunegrænsen
kommunen
kommunens
kommuner
kommunerne
kommunernes
kommunes
kommunikation
kommunikationen
kommunikationstechnologie
kommunikere
kommunisme
kommunismen
kommunist
kommunister
kommunisterne
kommunistisk
kommunistiske
kommunistparti
kommunistpartiet
komne
komnenos
komp
kompagni
kompagnichef
kompagnier
kompagniet
kompakt
kompakte
kompas
kompatible
kompensation
kompensere
kompetence
kompetencer
kompleks
komplekse
komplekset
kompleksitet
komplekst
komplet
komplette
komplicerede
kompliceret
komplikationer
komponent
komponenter
komponere
komponerede
komponeret
komponist
komponisten
komponister
komposition
kompositionen
kompositioner
kompressor
kompromis
komtesse
kon
koncentration
koncentrationen
koncentrationer
koncentrationslejr
koncentrationslejre
koncentrationslejren
koncentrere
koncentrerede
koncentrerer
koncentreret
koncept
koncepter
konceptet
koncern
koncernen
koncernens
koncert
koncerten
koncerter
koncerterne
koncertmusik
koncertsal
koncession
koncil
konciliet
kondensator
konduktør
kone
konen
koner
kones
konference
konferencen
konferencer
konferensra
konfiguration
konfirmation
konfiskeret
konflikt
konflikten
konflikter
konfrontation
konfrontationer
konfronterer
konfronteret
konføderationen
konføderationens
konfødererede
konfødereret
kong
konge
kongea
kongedømme
kongedømmer
kongedømmet
kongefamilie
kongefamilien
kongehus
kongehuset
kongehusets
kongelig
kongelige
kongeligt
kongemagt
kongemagten
kongen
kongens
kongensgade
konger
kongerige
kongeriger
kongeriget
kongerigets
kongerne
kongernes
kongers
konges
kongevej
kongevejen
kongo
kongres
kongressen
kongressens
kongsberg
kongsga
kongsvinger
konkludere
konkluderede
konkluderer
konklusion
konklusionen
konklusioner
konkret
konkrete
konkurrence
konkurrencen
konkurrencer
konkurrencerne
konkurrent
konkurrenten
konkurrenter
konkurrere
konkurrerede
konkurrerende
konkurrerer
konkurreret
konkurs
konoha
konrad
konseilspræsident
konsekvens
konsekvensen
konsekvenser
konsekvenserne
konsekvent
konsensus
konservatisme
konservativ
konservative
konservativt
konservatoriet
konsistens
konsolidere
konsollen
konsonant
konsonanter
konsortium
konspirationsteorier
konstant
konstante
konstantin
konstantinopel
konstanz
konstatere
konstaterede
konstateres
konstateret
konstituerende
konstitueret
konstitutionelle
konstitutionelt
konstruere
konstruerede
konstrueret
konstruktion
konstruktionen
konstruktioner
konstschilders
konsul
konsulent
kontakt
kontakte
kontaktede
kontakten
kontakter
kontaktet
kontant
kontekst
konti
kontinent
kontinentale
kontinenter
kontinentet
kontingent
kontinuerlig
kontinuerligt
kontinuert
kontinuitet
konto
kontor
kontorbygning
kontorchef
kontorer
kontoret
kontra
kontrabas
kontrakt
kontrakten
kontrakter
kontraktudløb
kontrast
kontreadmiral
kontrol
kontrollen
kontrollere
kontrollerede
kontrollerer
kontrolleres
kontrolleret
kontrovers
kontroverser
kontroversiel
kontroversielle
kontroversielt
konvention
konventionel
konventionelle
konventionen
konventioner
konversationsleksikon
konvertere
konverterede
konverteret
konvertering
konvoj
konvojer
koordinater
koordination
koordinatsystem
koordinere
koordinerede
koordineret
kop
kopenhagen
kopi
kopier
kopiere
kopieret
koppel
kopper
kor
koralrev
koranen
korbuen
korch
korczak
korea
koreakrigen
korean
koreansk
koreanske
koreas
koreograf
koret
korets
korinth
korn
kornerup
kornet
korporal
korps
korpset
korrekt
korrekte
korrespondance
korrespondent
korresponderende
korridor
korridorer
korruption
kors
korsbæk
korset
korsfarerne
korsfæstelsen
korsika
korstog
korstogene
korsør
kort
kortbane
korte
kortene
kortere
korteste
kortet
kortfattet
kortfilm
kortfilmen
kortlagt
kortlivede
kortlægge
kortlægning
kortspil
korttilkirken
kortvarig
kortvarige
kortvarigt
kortviser
korværker
kos
kosakker
kosmisk
kosmiske
kosmologi
kosmos
kosovo
kost
kostbar
kostbare
koste
kostede
kosten
koster
kostet
kostskole
kostumer
kosygin
kova
kr
kra
krabbe
kraft
kraften
kraftfulde
kraftig
kraftige
kraftigere
kraftigste
kraftigt
kraftværk
kraftværker
kraftværket
krag
kragh
kraj
krako
kraks
kramer
kramnik
kraniet
krans
krarup
krasnodar
krat
krater
kraterbunden
kratere
krateret
krause
krav
kravene
kravet
kravle
kreativ
kreative
kreativitet
kreaturer
krebs
krebsdyr
kredit
krediteret
kreditorer
kreds
kredse
kredsen
kredser
kredsløb
kredsløbet
kredsmandater
kreis
kreisen
kreml
kreta
kridt
krieg
krieger
kriegsmarine
krig
krige
krigen
krigene
krigens
kriger
krigere
krigs
krigsa
krigsbytte
krigserklæring
krigsfanger
krigsfilm
krigsforbrydelser
krigsførelse
krigsførende
krigshandlinger
krigsminister
krigsministeriet
krigsra
krigsret
krigsskib
krigsskibe
krigstid
krigstjeneste
krigsudbruddet
krim
krimi
kriminalitet
kriminalromaner
kriminel
kriminelle
krimkrigen
kris
krise
krisen
kriser
krishnamurti
kristelig
kristelige
kristeligt
kristen
kristendemokraterne
kristendom
kristendommen
kristendommens
kristensen
kristent
kristi
kristian
kristiania
kristiansand
kristiansen
kristianstad
kristin
kristina
kristine
kristne
kristnes
kristoffer
kristus
kriterier
kriterierne
kritik
kritiker
kritikere
kritikerne
kritikken
kritisere
kritiserede
kritiserer
kritiseret
kritisk
kritiske
kro
kroatien
kroatiens
kroatisk
kroatiske
kroen
kroer
krog
krogen
krogh
krohn
kromosom
kromosomer
kronblade
kronborg
krone
kronede
kronen
kronens
kroner
krones
kronet
krongods
kronik
kroning
kroningen
kronisk
kroniske
kronologi
kronologisk
kronprins
kronprinsen
kronprinsens
kronprinsesse
krop
kroppe
kroppen
kroppens
kru
krucifiks
krudt
krumme
krummedige
kruse
krybdyr
krybende
krydderier
krydret
kryds
krydse
krydsede
krydser
krydsere
krydseren
krydses
krydset
krydsning
krydsningsspor
krypten
krystal
krystaller
kræft
kræftens
kræfter
kræfterne
krænkelse
krænkelser
krænket
kræve
krævede
krævedes
krævende
kræver
kræves
krævet
krønike
krøniken
krøniker
krøyer
ks
ku
kubikmeter
kuffert
kugle
kuglen
kugler
kuglestød
kuhn
kul
kuld
kulde
kuldioxid
kulhydrater
kull
kulminationen
kulminerede
kulstof
kult
kultur
kulturarv
kulturarvsstyrelsen
kulturcenter
kulturel
kulturelle
kulturelt
kulturen
kulturens
kulturer
kulturhistorie
kulturhistorisk
kulturhistoriske
kulturhus
kulturhuset
kulturkanonen
kulturliv
kulturminister
kulturministeriet
kulturministeriets
kulturnett
kulturpris
kulturstyrelsen
kun
kunde
kunden
kunder
kunderne
kundskab
kundskaber
kung
kungliga
kunne
kunnen
kunnet
kunst
kunstakademi
kunstakademiet
kunstakademiets
kunsten
kunstens
kunster
kunstfond
kunstfonds
kunstforening
kunstforeningen
kunstha
kunsthal
kunsthistorie
kunsthistoriker
kunsthistorikere
kunstig
kunstige
kunstigt
kunstmaler
kunstmuseer
kunstmuseet
kunstmuseum
kunstner
kunstnere
kunstneren
kunstnerens
kunstneres
kunstnerisk
kunstneriske
kunstnerleksikon
kunstnernavn
kunstnernavnet
kunstnerne
kunstnernes
kunstudstilling
kunstværk
kunstværker
kup
kuperet
kuppel
kuppet
kur
kurator
kurdere
kurdisk
kurdiske
kurdistan
kure
kurfyrst
kurfyrste
kurfyrsten
kurland
kurs
kursen
kurser
kursiv
kursk
kursus
kurt
kurv
kurvblomst
kurve
kurven
kurver
kusine
kusk
kuwait
kv
kvad
kvadrat
kvadratisk
kvadratkilometer
kvadratmeter
kvalificere
kvalificerede
kvalificerer
kvalificeres
kvalificeret
kvalifikanter
kvalifikation
kvalifikationen
kvalifikationer
kvalifikationskamp
kvalifikationskampe
kvalifikationsrunde
kvalifikationsrunden
kvalifikationsturnering
kvalifikationsturneringen
kvalitet
kvaliteten
kvaliteter
kvalme
kvalt
kvantemekanik
kvantitative
kvart
kvartal
kvarter
kvarterer
kvarteret
kvartet
kvartetten
kvartfinale
kvartfinalen
kvartfinaler
kvartfinalerne
kvarts
kvf
kvik
kviksølv
kvinde
kvindebiografisk
kvindefodbold
kvindefodboldlandshold
kvindeha
kvindehold
kvindelig
kvindelige
kvindeligt
kvinden
kvindens
kvinder
kvinderne
kvindernes
kvinders
kvindes
kvinfo
kvist
kvoteplads
kvotepladser
kvæg
kvælstof
kvæstelser
kvæstet
kw
kwh
kyiv
kyle
kylie
kylling
kyoto
kyrka
kys
kysse
kyssede
kysser
kyst
kystbanen
kysten
kyster
kysterne
kystlinje
kystlinjen
kystnære
kystomra
kyu
kz
kæde
kæden
kæder
kælder
kælderen
kæledyr
kælenavn
kælenavnet
kæmpe
kæmpede
kæmpende
kæmper
kæmpet
kær
kære
kæreste
kæresten
kærester
kærlig
kærlighed
kærligheden
kærlighedens
kætteri
kø
køb
købe
københavn
københavns
københavnsk
københavnske
køber
købes
købet
købmagergade
købmand
købmanden
købmandsga
købmænd
købmændene
købstad
købstaden
købstadsrettigheder
købstæder
købstæderne
købstædernes
købt
købte
kød
kødet
køer
køge
køkken
køkkenet
kølergrill
kølig
kølige
køligt
kølvandet
køn
kønnene
kønsorganer
køre
kørekort
kørende
køreplan
kører
kørere
køres
køretøj
køretøjer
køretøjet
kørsel
kørslen
kørt
kørte
kørtes
l
la
laa
laae
lab
laban
label
labor
laboratorier
laboratoriet
laboratorium
laboratory
labour
labrador
labyrint
lac
lad
lada
lade
ladede
ladega
laden
ladeplads
lader
lades
ladet
ladies
ladning
ladoga
ladt
lady
lafayette
lag
laga
lagde
lagdes
lager
lagmand
lago
lagre
lagret
lagring
lagt
lagtinget
lagtingets
lagtingsmedlemmer
lagtingsvalget
laguna
lai
laiho
laila
laine
lak
lake
lakes
laks
lam
lama
lamb
lambda
lambert
lammet
lampe
lampen
lamper
lan
lancashire
lancaster
lance
lancerede
lanceret
lanceringen
lancetformede
lancia
land
landau
landbohistorisk
landbohøjskole
landbohøjskolen
landboreformerne
landbrug
landbruget
landbrugets
landbrugs
landbrugsejendom
landbrugsjord
landbrugsomra
landbrugsprodukter
landbrugsskole
landdag
landdagen
landdistrikter
landdistrikterne
lande
landede
landegrænser
landene
landenes
lander
landes
landesbetrieb
landet
landets
landevej
landeveje
landevejen
landevejscykelrytter
landevejscykling
landevejsløb
landflygtighed
landgang
landgangen
landgilde
landgreve
landing
landingen
landingsbane
landingsbanen
landjorden
landkommune
landkreis
landkreisen
landlige
landma
landmand
landmænd
landomra
landon
lands
landsarkivet
landsat
landsby
landsbyen
landsbyens
landsbyer
landsbyerne
landscape
landschaft
landsdel
landsdele
landsdelen
landsdommer
landsdækkende
landsforening
landsforeningen
landsformand
landshold
landsholdet
landsholdskarriere
landsholdsspiller
landshut
landskab
landskaber
landskabet
landskabsmaler
landskabsmalere
landskamp
landskampe
landskap
landskapet
landskendt
landskrona
landsmand
landsmanden
landsmænd
landsmøde
landsogn
landsplan
landspokalturnering
landsra
landsret
landsretssagfører
landsretten
landsstyre
landsstyret
landsted
landstedet
landsting
landstinget
landstingets
landstingsmand
landstingsmedlemmer
landstræner
lane
lang
langa
langberg
langdistance
lange
langebro
langeland
langelands
langelinie
langen
langer
langes
langle
langobarderne
langrend
langs
langsigtede
langsigtet
langsom
langsomme
langsommere
langsomt
langstrakt
langstrakte
langt
langtfra
langtrækkende
language
languages
langvarig
langvarige
lanka
lao
laos
lapland
lara
laren
large
largest
larm
larry
lars
larsen
larsens
larson
larsson
larven
larver
larverne
larvik
las
laser
lasker
lasse
lassen
last
lastbil
lastbiler
lasten
lastet
lat
late
later
latin
latinamerika
latinamerikanske
latinsk
latinske
latinskole
latinskolen
latter
lau
laub
laudrup
lauenborg
lauenburg
lauge
launch
laur
laura
laurbær
laurel
lauren
laurence
laurent
laurentius
laurids
lauridsen
laurie
lauring
laurits
lauritsen
lauritz
lauritzen
laursen
laurvig
lausanne
lav
lava
laval
lavard
lave
lavede
laver
lavere
laves
lavest
laveste
lavet
lavland
lavlandet
lavt
lavtliggende
lavvandede
lavvandet
law
lawn
lawrence
laws
lawson
lay
layer
layout
lazio
lb
lborg
lc
lcd
ld
ldencrone
ldots
le
lea
lead
leader
leaders
leadership
leading
leaf
league
lean
leander
learning
leave
leaves
leaving
lebehandling
leben
lebordsblad
lebordsblade
lech
led
lede
ledede
ledelse
ledelsen
ledende
leder
ledere
lederen
lederne
lederskab
ledes
ledet
ledger
ledig
ledige
ledning
ledninger
ledreborg
ledsage
ledsagede
ledsager
ledsagere
ledsaget
ledt
ledte
lee
leeds
leer
lees
left
leg
legacy
legal
legat
legater
legatet
lege
legede
legeme
legemer
legemet
legend
legendarisk
legendariske
legende
legenden
legender
legends
legene
legeplads
leger
legetøj
legion
legioner
legitime
legitimitet
lego
legoland
lehmann
lehn
lei
leibniz
leicester
leiden
leif
leigh
leipzig
leje
lejeaftale
lejeaftalen
lejede
lejema
lejer
lejesoldater
lejet
lejlighed
lejligheden
lejligheder
lejlighedsvis
lejr
lejre
lejren
lejrene
lejrens
leksikon
lektor
lem
lemmer
lemvig
lemvigh
len
lena
lende
lene
lenet
lenin
leningrad
lenins
lennart
lennon
lenny
lens
lensbaron
lensgreve
lensmand
lensmanden
lensmænd
leo
leon
leonard
leonardo
leone
leonid
leonora
leopard
leopold
ler
lerche
lerenga
lerne
leroy
les
lesbiske
leskov
leskove
leslie
less
lessing
lester
lestok
lesund
let
letbane
letbanen
leth
lethed
letland
letlands
letræer
lets
letsværvægt
lette
lettede
lettelse
letter
lettere
letters
lettet
lettisk
lettiske
lettres
letvægt
leuven
lev
levanten
leve
levea
levealder
levede
level
levels
levende
lever
leverancer
leverandør
leverandører
levere
leverede
leveredes
leveren
leverer
leveres
leveret
levering
leverkusen
levested
levesteder
levet
levetid
levetzau
levevilka
levevis
levi
levin
levn
levned
levy
lewis
lex
lexicon
lexikon
lexington
leyland
leyte
lez
lf
lg
lgbt
lgruppe
lholm
li
lia
liam
libanesiske
libanon
liber
liberal
liberale
liberalisme
liberalt
liberation
liberia
libertadores
liberty
library
libretto
librettoen
libris
libyen
libyens
libyske
licens
license
licensen
licenser
lich
lichtenberg
lid
liddell
lide
lidegaard
lidelig
lidelige
lidelighed
lidelse
lidelsen
lidelser
liden
lidenskab
lider
lidet
lidt
lie
liebe
liechtenstein
lied
lieden
lieder
lies
lieutenant
life
lifetime
lift
lig
liga
ligaen
ligaens
ligaer
ligakampe
lige
ligefrem
ligeglad
ligegyldigt
ligeledes
ligeligt
ligene
ligesa
ligesaa
ligesom
ligestilling
liget
ligevægt
ligge
liggende
ligger
ligget
lighed
ligheder
light
lighthouse
lightning
lights
lign
ligne
lignede
lignende
ligner
lignin
ligning
ligningen
ligninger
ligue
like
likvideret
lil
lilholt
lili
lilian
lilla
lille
lilleasien
lillebror
lillebælt
lillehammer
lillestrøm
lillesøster
lillian
lilly
lily
lim
lima
limburg
lime
limfjorden
limit
limited
limousine
lin
lina
lincoln
lincolnshire
lind
linda
lindberg
linde
lindemann
linden
lindenov
lindgren
lindh
lindhardt
lindholm
lindsay
line
linear
lines
lineær
lineære
ling
lingen
linger
lingerne
lingvistik
linie
linien
linje
linjeføring
linjeløb
linjen
linjer
linjerne
linjeændringer
link
linke
linkedin
linket
linkin
linko
links
linn
linne
linnet
linse
linser
linus
linux
linz
lion
lionel
lions
lippe
liquid
lis
lisa
lisbet
lisbeth
lisbjerg
lise
lissabon
list
liste
listed
listen
lister
listet
liszt
lit
litauen
litauens
litauisk
litauiske
liter
literary
literatur
literature
liters
litersmotor
lithium
litografi
litra
litteratur
litteraturen
litteraturhistorie
litteraturhistoriker
litteraturpris
litteraturpriser
litteraturs
litteraturselskab
litteratursiden
litteraturvidenskab
litterær
litterære
litterært
little
liu
liv
liva
live
livealbum
liverpool
lives
livet
livets
livgarde
livgarden
living
livingston
liviske
livland
livlig
livlige
livmoderen
livorno
livregiment
livs
livscyklus
livsform
livsformer
livslang
livsstil
livssyn
livstid
livstruende
livsvarigt
lix
liz
lizzy
lje
ljubljana
ljudmila
lk
lkaflokkurin
lkerung
ll
lla
lle
ller
llers
lln
lloyd
lm
lmand
lmanden
lmænd
ln
lne
lo
loa
loan
local
location
loch
lock
locke
lockheed
lod
lodge
lodret
lodrette
lodtrækning
lodtrækningen
lofoten
loft
loftet
log
logan
loge
logi
logic
logik
logisk
logiske
logistik
logo
logoet
logos
loire
lois
lokal
lokalavisen
lokalbefolkningen
lokale
lokaler
lokalerne
lokalhistorisk
lokalhistoriske
lokalisere
lokaliseret
lokalitet
lokaliteter
lokalomra
lokalplan
lokalra
lokalt
lokaltog
lokationer
loke
lokke
lokker
lokket
lokomotiv
lokomotiver
lokomotivet
lola
lolland
lollands
lombardiet
lomme
lommen
lommer
lon
london
londons
lone
lonely
long
longstreet
look
looking
loop
lopez
lorck
lord
lords
lorentz
lorentzen
lorenz
lorenzen
lorenzo
lorraine
lorry
los
lose
loser
losere
loss
lost
lot
lothar
lothringen
lotta
lotte
lotto
lotus
lou
loud
louie
louis
louisa
louise
louises
louisiana
louisville
lounge
louvre
lov
love
loved
lovede
loven
lovende
lovene
lovens
lover
lovers
loves
lovet
lovforslag
lovforslaget
lovgivende
lovgivning
lovgivningen
loving
lovlig
lovlige
lovligt
low
lowe
lower
loyal
loyale
loyalitet
lp
lpi
lrettet
ls
lscorer
lscorere
lsd
lsingland
lst
lstegn
lstregen
lsætning
lsætningen
lt
lta
ltd
lte
ltid
ltider
lu
lublin
luc
luca
lucas
lucca
lucia
luciano
lucie
lucien
lucifer
lucius
luck
lucky
lucy
ludendorff
ludvig
ludvigsen
ludwig
luffy
luft
luftangreb
luftba
luften
luftens
luftfart
luftforsvar
luftfoto
luftfugtighed
lufthansa
lufthavn
lufthavne
lufthavnen
lufthavnens
luftkaffe
luftkamp
luftrum
luftskib
luftskibe
luftskibet
luftva
luftwaffe
luftwaffes
luger
lugt
luhansk
lui
luigi
luis
luise
luk
luka
lukas
lukasevangeliet
luke
lukke
lukkede
lukker
lukkes
lukket
lukning
lukningen
luksus
lulea
lulu
lumbye
luna
lunar
lund
lundberg
lundby
lundbye
lunde
lunden
lunderskov
lundgaard
lundgren
lundin
lunds
lundtofte
lune
lunga
lunge
lungebetændelse
lungekræft
lungerne
lupus
luther
luthers
luthersk
lutherske
luton
lutter
lux
luxembourg
luxemburg
luzern
lv
lven
lviv
lvsty
ly
lyd
lyde
lyden
lydende
lyder
lydia
lydighed
lydtekniker
lygter
lyhne
lykke
lykkedes
lykkelig
lykkelige
lykkeligt
lykken
lykkens
lykkes
lyksborg
lyn
lynch
lyne
lynet
lyng
lyngby
lynge
lynn
lyntog
lynx
lyon
lyra
lyrik
lyriker
lyrisk
lyriske
lys
lysa
lyse
lysebla
lysegra
lysegrøn
lysegrønne
lysende
lyser
lysere
lyserød
lyserøde
lyset
lysets
lysstyrke
lyst
lystba
lyste
lyster
lystrup
lystspil
lytte
lyttede
lytter
lyttere
lyve
lyver
lz
læ
læber
læder
læg
læge
lægebolig
lægemiddel
lægemidler
lægen
læger
lægerne
lægevidenskab
lægge
lægger
lægges
læk
lækket
længde
længdegrad
længdekreds
længdekredse
længden
længder
længdespring
længe
længer
længere
længerevarende
længes
længsel
længst
længste
længtes
lænker
lærd
lærde
lærdom
lære
læreanstalt
lærebog
lærebøger
læren
lærer
lærere
læreren
lærerne
læring
lærke
lærling
lærred
lært
lærte
læs
læse
læser
læsere
læseren
læserne
læses
læsning
læssespor
læst
læste
læsø
løb
løbe
løbebane
løbende
løbene
løber
løbere
løbet
løbets
lød
løft
løfte
løftede
løfter
løftes
løftet
løg
løgn
løgne
løgstrup
løgstør
løgum
løgumkloster
løjtnant
løkke
løkken
løn
lønborg
lønnen
lønninger
lønstrup
lørdag
løs
løse
løser
løses
løsgænger
løsladelse
løsladt
løsning
løsningen
løsninger
løsrivelse
løst
løste
løv
løve
løven
løvenskiold
løver
løvfældende
løvskov
løvskove
m
ma
maa
maade
maae
maal
maas
maaske
maaskee
maastricht
maatte
mabel
mac
macao
macarthur
macbeth
macdonald
mach
machine
machines
macintosh
mack
mackenzie
macmillan
macron
mad
madagaskar
madam
madame
madara
made
madeira
madeleine
maden
madison
madlavning
madness
madonna
madrid
mads
madsen
madsens
madvarer
mae
maersk
mafia
mafiaen
mag
magasin
magasiner
magasinet
magazin
magazine
magda
magdalena
magdalene
magdeburg
mage
magen
mager
maggie
magi
magic
magisk
magiske
magister
magistrat
magistraten
magleby
magma
magna
magne
magnesium
magnet
magnetfelt
magnetic
magnetisk
magnetiske
magnu
magnum
magnus
magnussen
magnusson
magt
magten
magtens
magter
magtfuld
magtfulde
magthavere
magtkamp
magtovertagelse
maguire
maha
mahler
mahmoud
mai
maiden
mail
main
maine
mainstream
mainz
maison
maj
maja
majeste
majesty
majestæt
major
majoritet
majoriteten
majs
make
makedonien
makedonsk
makedonske
maker
makes
making
makker
makkere
maks
maksimal
maksimale
maksimalt
maksimum
mal
mala
malaria
malatesta
malawi
malaya
malaysia
malaysiske
malcolm
male
malede
malene
maler
malere
maleren
maleri
malerier
malerierne
maleriet
malerisamling
maleriske
malerkunst
malerne
malet
malfoy
mali
malik
maling
malling
mallorca
mallory
malm
malmo
malmros
malmø
malone
malt
malta
malte
malthe
mama
mamma
man
management
manager
manchester
manchuriet
mand
mandag
mandal
mandarin
mandat
mandater
mandatomra
mandela
manden
mandens
mandler
mandlig
mandlige
mandolin
mands
mandskab
mandskabet
mandskor
mandy
mandø
mane
manet
manfred
manga
mangaen
mange
mangea
mangel
mangelfuld
mangen
mangfoldige
mangfoldighed
mangle
manglede
manglen
manglende
mangler
manhattan
mani
manifest
manila
manipulation
manipulere
manitoba
mankiller
mankind
mann
mannheim
manning
manor
mans
mansion
manson
manstein
mantova
manual
manualer
manuel
manuelt
manufacturing
manus
manuskript
manuskripter
manuskriptet
manuskriptforfatter
manuskriptforfattere
many
manøvre
manøvrer
manøvrere
mao
map
maple
maps
mar
mara
marathon
maraton
marburg
marc
marcel
marcelo
march
marche
marchen
marchere
marcherede
marco
marcos
marcus
marcussen
mare
maren
mareridt
margaret
margareta
margaretha
margarita
marge
margit
margot
margrete
margretes
margrethe
marguerite
mari
maria
mariager
mariagerfjord
mariah
marian
mariane
marianne
marias
maribo
marie
marienlyst
maries
marija
marilyn
marin
marina
marine
marinen
marinens
mariner
marines
marinesoldater
marino
marinus
mario
marion
marit
maritim
maritime
marius
mark
markant
markante
marked
markeder
markedet
markedsandel
markedsføre
markedsføres
markedsføring
markedsført
markedsplads
markedsøkonomi
marken
marker
markere
markerede
markerer
markeres
markeret
markering
markerne
market
marketing
markgreve
markis
marko
marks
markt
markus
markusevangeliet
marlborough
marlene
marley
marmor
marne
marokkanske
marokko
marquis
marriage
married
marriott
mars
marsden
marseille
marselis
marselisborg
marsh
marshal
marshall
marshals
marsk
marskal
marsken
marstal
marstrand
marsvin
marta
martell
martha
marti
martial
martin
martina
martine
martinez
martini
martins
martinus
marts
marty
martyr
marvel
marvin
marx
marxisme
marxistisk
marxistiske
mary
maryland
mas
mask
maske
masken
masker
maskine
maskinen
maskiner
maskineri
maskinerne
maskinfabrik
maskingevær
maskingeværer
maskingeværet
mason
mass
massachusetts
massacre
massakre
massakren
massakrer
masse
massefylde
massen
masser
massiv
massive
massivt
mast
masten
master
mastering
masters
mat
matador
matanikau
match
matche
matchen
matcher
mate
matematik
matematiker
matematikere
matematikken
matematisk
matematiske
mater
material
materiale
materialer
materialerne
materialet
materialisme
materials
materiel
materielle
mathbb
mathbf
mathematical
mathematics
mathias
mathiesen
mathilde
mathrm
matilda
matilde
matisse
matricer
matrikel
matrix
mats
matt
matteo
matter
matters
matthesen
matthew
matthews
matthias
matthæus
matti
mattias
mauboy
maud
maude
mauretanien
maurice
mauritius
mausoleum
mave
maven
max
maxi
maxim
maximilian
maximum
maximus
maxwell
may
maya
mayer
mayhem
maynard
mayo
mayor
mazda
mazurka
mb
mbox
mc
mccann
mccarthy
mccartney
mcclellan
mccoy
mcdonald
mcdonnell
mcdowell
mcgraw
mcgregor
mckinley
mclaren
mcmahon
mcmxxviii
mcpherson
md
mdr
me
mead
meade
mean
meaning
means
meat
mechanics
mecklenburg
med
medaillen
medal
medalje
medaljefordeling
medaljen
medaljeoversigt
medaljer
medaljerne
medaljevindere
medaljevinderne
medarbejder
medarbejdere
medarbejderne
medborgere
medbragt
medbragte
medbringe
meddele
meddelelse
meddelelsen
meddelelser
meddeler
meddelt
meddelte
medejer
medens
medforfatter
medfødt
medfødte
medfølelse
medfølgende
medfør
medføre
medfører
medført
medførte
medgift
medhjælper
medhold
media
medical
medici
medicin
medicine
medicinsk
medicinske
medie
medier
medierne
mediernes
mediet
medieval
medina
medio
meditation
mediterranean
medium
medlem
medlemmer
medlemmerne
medlemmernes
medlemsblad
medlemskab
medlemslande
medlemslandene
medlemsstat
medlemsstater
medlemsstaterne
medlemsstaternes
medlemstal
medley
medlidenhed
medmindre
medredaktør
medregnes
medregnet
medstifter
medtage
medtager
medtaget
meduza
medvirke
medvirkede
medvirken
medvirkende
medvirker
medvirket
meel
meer
meet
meeting
meets
meg
mega
megadeth
megan
megen
meget
mei
meier
meiji
mein
meine
meister
mejer
mejeri
mejerier
mejeriet
mekanik
mekaniker
mekaniserede
mekanisk
mekaniske
mekanisme
mekanismer
mekka
mel
melanie
melbourne
melchior
meldahl
melde
melder
melding
meldinger
meldt
meldte
melinda
melissa
melk
mellem
mellemamerika
mellemdistanceløbere
mellemklassebil
mellemklassebiler
mellemkrigstiden
mellemliggende
mellemrum
mellemrunden
mellemste
mellemstore
mellemtiden
mellemvægt
mellemøsten
mellom
melodi
melodien
melodier
melodisk
melodiske
melody
melville
member
members
membran
membranen
memoirer
memoirs
memorandum
memorial
memories
memory
memphis
men
mendelssohn
mendelssohns
mendes
mene
mener
menes
mengele
menig
menige
menighed
menigheden
menighedens
menigheder
menighedsra
mening
meningen
meninger
meningsma
menneske
menneskeheden
menneskehedens
menneskelig
menneskelige
menneskeligt
menneskeliv
menneskene
menneskenes
mennesker
menneskerettigheder
menneskerettighederne
menneskers
menneskes
menneskeskabte
menneskesønnen
mennesket
menneskets
mens
ment
mental
mentale
mentalt
mente
mentes
mentor
menved
mer
merc
mercedes
mercer
merchandise
mercury
mercy
mere
meredith
merete
merit
meritter
merkel
merkur
merlin
merløse
mermaid
mern
merry
meryl
mes
mesa
mesopotamien
message
messe
messen
messenger
messer
messerschmitt
messias
messina
messing
mest
meste
mester
mesteren
mesterhold
mesterholdenes
mesterskab
mesterskaber
mesterskaberne
mesterskabet
mesterværk
mestre
met
meta
metacritic
metafysik
metafysiske
metal
metalband
metalgrupper
metaller
metallet
metallica
metallisk
metan
meteor
meteorologi
meteorologiske
meter
meters
methling
method
methods
metode
metoden
metoder
metro
metroen
metropol
metropolis
metropolitan
metropolitanskolen
metrostation
mette
metz
meulengracht
meuse
mew
mexican
mexicansk
mexicanske
mexico
mexicos
meyer
meyers
mez
meza
mezzosopran
mf
mfl
mg
mgm
mgp
mh
mht
mhz
mi
mia
miami
mich
michae
michael
michaels
michaelsen
michel
michelangelo
michele
michelin
michelle
michelsen
michigan
mick
mickey
miconia
microsoft
microsofts
micrurus
mid
middag
middagstid
middel
middelalder
middelaldercentret
middelalderen
middelalderens
middelalderlig
middelalderlige
middelbilen
middelbilenhur
middelfart
middelhavet
middelhavsomra
middelklasse
middelklassen
middelma
middle
middlesbrough
middlesex
middleton
midga
midi
midland
midlands
midler
midlerne
midlertidig
midlertidige
midlertidigt
midnat
midnight
midt
midtbane
midtbanen
midtbanespiller
midtbyen
midte
midten
midterforsvarer
midterste
midtfyn
midtjylland
midtjyllands
midtjyske
midtpunkt
midttrafik
midtvejs
midway
mie
miehe
mig
might
mighty
migration
miguel
mika
mikael
mike
mikhail
mikkel
mikkelsen
mikojan
mikrofon
mikroorganismer
mikroskopiske
mil
milan
milano
mild
milde
mildere
mildt
mile
milepæl
miles
miley
milita
militante
military
milits
militser
militær
militære
militæret
militærets
militærfly
militærfolk
militærkup
militært
militærtjeneste
miljø
miljøer
miljøet
miljøminister
miljøministeriet
miljømæssige
miljøstyrelsen
milk
mill
mille
millennium
miller
milliard
milliarder
millimeter
million
millioner
millionær
mills
milo
milos
milthers
milton
milwaukee
mimi
min
mind
minde
mindede
mindelegat
mindelunden
mindeplade
minder
mindes
mindesmærke
mindesmærker
mindesmærket
mindesten
mindet
mindetavle
mindre
mindrea
mindretal
minds
mindske
mindsker
mindskes
mindsket
mindst
mindste
mine
minedrift
minen
miner
mineral
mineraler
minerne
minerva
ming
minh
mini
miniature
minimal
minimale
minimere
minimum
minine
miniserie
minister
ministeren
ministerier
ministeriet
ministeriets
ministerium
ministerpræsident
ministerra
ministre
ministrene
ministry
mink
minna
minneapolis
minnesota
minogue
minor
minoritet
minoriteter
minsk
minus
minut
minute
minutes
minutter
minutters
minuttet
mio
mir
mira
miracle
miracles
mirage
mirakel
mirakler
miranda
miriam
mirror
mis
misbrug
misbrugt
mise
misforsta
mishima
mislykkede
mislykkedes
mislykkes
mislykket
miss
missede
missil
missile
missiler
missilet
missing
mission
missionen
missionens
missioner
missions
missionshus
missionsspecialist
missionær
missionærer
mississippi
mississippifloden
missouri
mistanke
miste
mistede
mister
mistet
mistillid
mistillidsvotum
mistro
mistænkt
mistænkte
misvisende
mit
mitchell
mitsubishi
mitt
mitte
mix
mixed
mixet
mixtape
mk
ml
mls
mm
mma
mme
mo
mob
mobil
mobile
mobilisering
mobilitet
mobility
mobiltelefon
mobiltelefoner
mobning
mod
modangreb
modarbejde
mode
model
modela
modellen
modellens
modeller
modelleret
modellerne
models
moden
modena
moder
moderat
moderate
moderen
moderens
modern
moderne
modernisere
moderniseret
modernisering
modernistiske
moders
modersma
modet
modgang
modificerede
modificeret
modifikationer
modig
modige
modkraft
modne
modner
modoffensiv
modparten
modsat
modsatte
modsta
modstand
modstanden
modstander
modstandere
modstanderen
modstanderens
modstanderne
modstandsbevægelse
modstandsbevægelsen
modstandsfolk
modstandsmand
modstod
modstrid
modstridende
modstykke
modsvar
modsætning
modsætningen
modsætninger
modtage
modtagelse
modtagelsen
modtager
modtagere
modtageren
modtages
modtaget
modtog
modul
moduler
modvilje
modvilligt
modvirke
modvægt
moe
moesga
mogadishu
mogens
mogensen
moh
mohamed
mohammad
mohammed
mohr
moi
mojo
mol
moldavien
molde
moldova
mole
molecular
molekyle
molekyler
molekylær
molekylære
moll
mollerup
molly
molotov
mols
moltke
moltkes
moment
momentum
moms
mon
mona
monaco
monark
monarken
monarker
monarki
monarkier
monarkiet
monarkiets
monberg
monday
monde
monet
money
mongolerne
mongoliet
mongolsk
mongolske
monica
monitor
monk
monkey
monmouth
mono
monografier
monogram
monopol
monpezat
monrad
monroe
mons
monsieur
monster
monsters
monstre
mont
montagu
montana
monte
montenegro
monteres
monteret
monteverdi
montevideo
montgomery
month
montmartre
montpellier
montre
montreal
monty
monument
monumentale
monumenter
monumentet
monuments
moon
moor
moore
mor
mora
moral
moralen
morales
moralsk
moralske
morbror
mord
mordene
morder
mordere
morderen
mordet
more
moreau
moren
moreno
morfar
morfologi
morgan
morgana
morgen
morgenen
mori
morison
moritz
morley
mormon
mormoner
mormons
mormor
morning
morris
morrison
morrissey
mors
morsø
mort
morte
morten
mortens
mortensen
mortimer
morton
mos
mosaik
moscow
mose
mosebog
mosen
moseomra
moser
moses
moske
moskeen
moskeer
moskva
moskvas
moss
mosser
most
moster
mot
moth
mother
motion
motiv
motivation
motiver
motiveret
motiverne
motivet
moto
motor
motorba
motorcykel
motorcykler
motoren
motorens
motorer
motorerne
motoriserede
motoriseret
motorprogrammet
motorring
motors
motorsport
motortrafikvej
motorvej
motorveje
motorvejen
motorvejskryds
motorvogne
motown
motto
mottoet
mount
mountain
mountainbike
mountains
mountbatten
mounted
mourier
mouse
mouth
move
movement
moves
movia
movias
movie
movies
moving
mowbray
mowgli
mozambique
mozart
mozarts
mozilla
mp
mpeg
mph
mpv
mr
mrna
mrs
ms
msf
msn
mst
mt
mtbo
mtland
mtv
mu
much
mudder
mueller
muhammad
muhammed
muhammeds
muhl
muld
mule
mulig
mulige
muliggjorde
muliggjort
muliggør
muliggøre
mulighed
muligheden
muligheder
mulighederne
muligt
muligvis
multi
multinational
multinationale
multiple
multiplikation
mumbai
mun
munch
munck
mund
munden
munder
mundharmonika
munding
mundingen
mundtlig
mundtlige
munich
municipal
munk
munke
munken
munkene
munkesten
munksgaard
munro
munter
munthe
muntre
mur
murder
mure
muren
murene
murer
murermester
muret
murmansk
murphy
murray
mursten
murværk
mus
musa
musculus
muse
museer
museerne
museet
museets
museo
museum
museums
museumsfolk
museumsinspektør
music
musica
musical
musicalen
musicals
musicweb
musik
musikalsk
musikalske
musiker
musikere
musikeren
musikerne
musikfestival
musikgenrer
musikgruppe
musikgrupper
musikhistorie
musikhuset
musikinstrumenter
musikken
musikkens
musikkonservatoriet
musikkonservatorium
musikleksikon
musikliv
musiklærer
musikmagasinet
musikpris
musikproducer
musikproducere
musikskole
musikstil
musikteori
musikvideo
musikvideoen
musikvideoer
musique
musk
muskel
muskler
muslim
muslimer
muslimerne
muslimsk
muslimske
muslinger
musse
mussolini
must
mustafa
mustaine
mustang
mutation
mutationer
mutter
muus
mv
mvh
mvp
mw
mx
my
myanmar
myers
mygind
mykines
mykorrhiza
myldretid
myldretiden
myldretiderne
mylius
myndig
myndighed
myndigheder
myndighederne
myndighedernes
mynster
myrde
myrdede
myrdet
myrer
myristica
myself
myspace
mysterier
mysteriet
mysterio
mysterium
mystery
mystic
mystik
mystisk
mystiske
myte
myten
myter
myterne
myth
mythology
myths
mytiske
mytologi
mytologien
mytologisk
mytologiske
mytteri
mæcen
mægler
mægtig
mægtige
mægtigste
mælk
mælken
mælkevejen
mænd
mændene
mændenes
mænds
mængde
mængden
mængder
mærke
mærkede
mærkelig
mærkelige
mærkeligt
mærker
mærkes
mærket
mærsk
møbler
møde
møder
møderne
mødes
mødested
mødet
mødre
mødrene
mødt
mødte
mødtes
mølgaard
mølle
møllea
møllen
møller
møllers
møn
møns
mønsted
mønster
mønstre
mønt
mønten
mønter
mønterne
mørch
møre
mørk
mørke
mørkebla
mørkegrøn
mørkere
mørket
mørkets
mørkt
mørkøv
n
na
naa
naade
naaede
naar
nabla
nabo
nabobyen
naboer
naboerne
nabokommuner
nabolande
nabolandene
nabolandet
nach
nacht
nacional
nad
nadal
nadia
nadver
nadveren
nag
nagasaki
nagel
nagoya
nairobi
naja
nak
naked
nakke
nakken
nakskov
nam
name
named
names
namibia
namur
nan
nana
nancy
nanjing
nanna
nansen
nantes
naomi
napole
napoleon
napoleons
napoleonskrigene
napoli
nar
narkotika
narnia
narrative
narre
naruto
narva
narvik
nas
nasa
nasdaq
naser
nash
nashville
nasjonal
nassau
nasser
nat
natal
natalie
natalja
natasha
natasja
nate
nathalie
nathan
nathaniel
nation
national
nationalbank
nationalbanken
nationaldag
nationale
nationalforsamling
nationalforsamlingen
nationalhistoriske
nationalisme
nationalister
nationalistisk
nationalistiske
nationalitet
nationaliteter
nationalliberale
nationalmuseet
nationalmuseets
nationalmuseum
nationalpark
nationalparken
nationalparker
nationalra
nationalromantiske
nationalsang
nationalsocialistiske
nationalt
nationalva
nationaløkonomisk
nationen
nationens
nationer
nationers
nations
native
natklub
natklubber
natlige
natmus
nato
natrium
natten
nattens
natur
natura
naturae
natural
naturaliseret
naturbeskyttelse
naturbeskyttelsesomra
nature
naturen
naturens
naturfredningsforening
naturgas
naturhistorie
naturhistorisk
naturhistoriska
naturhistoriske
naturkatastrofer
naturlig
naturlige
naturligt
naturligvis
naturomra
naturpark
naturparken
naturplanen
naturreservat
naturreservater
naturreservatet
naturressourcer
naturstyrelsen
naturtyper
naturvidenskab
naturvidenskabelig
naturvidenskabelige
naturvidenskaben
nauru
naval
navarra
navigation
navn
navne
navneforandring
navnene
navneord
navnet
navnets
navngav
navngivet
navngivne
navngivning
navnlig
navy
nazareth
nazi
nazionale
nazisme
nazismen
nazist
nazister
nazisterne
nazisternes
nazistisk
nazistiske
nazityskland
nb
nba
nbc
nberg
nchen
nchengladbach
nchens
nchez
ncipe
nct
nd
ndbog
ndbogen
ndbold
ndboldforbund
ndboldklub
ndboldklubber
ndboldlandshold
ndboldligaen
ndboldspiller
ndboldspillere
nde
ndede
ndel
ndelig
ndelige
ndeligt
ndels
nden
ndene
ndens
nder
ndet
ndez
ndfuld
ndhæve
nds
ndskirken
ndskrift
ndskrifter
ndsordenen
ndtag
ndtere
ndterer
ndteres
ndtering
ndur
ndva
ndværk
ndværker
ndværkere
ndværket
ne
neal
neapel
near
neatlas
nebel
nebraska
neburg
nec
neckar
ned
nedad
nedadga
nedbrudt
nedbryde
nedbrydes
nedbrydning
nedbrændt
nedbrændte
nedbør
nedbøren
nede
nedefra
neden
nedenfor
nedens
nedensta
nedenunder
neder
nedergaard
nederlag
nederlaget
nederland
nederlande
nederlandene
nederlandenes
nederlandsk
nederlandske
nederlantsche
nederlændere
nederne
neders
nederst
nederste
nedgang
nedgangen
nedgraderet
nedkæmpe
nedkæmpede
nedkæmpet
nedlagde
nedlagdes
nedlagt
nedlagte
nedlige
nedlægge
nedlæggelse
nedlæggelsen
nedlægges
nedre
nedrevet
nedrive
nedrivning
nedrivningen
nedrykning
neds
nedsat
nedsatte
nedsattes
nedskrev
nedskrevet
nedskudt
nedskydningen
nedskød
nedslag
nedslagskrater
nedslidt
nedstammede
nedstammer
nedsætte
nedsættelse
nedsættende
nedsættes
nedtur
need
needs
neergaard
negativ
negative
negativt
neger
negro
nei
neil
neill
nej
nekratere
nekrolog
nel
nelandene
nell
nellie
nelly
nelson
nem
nemesis
nemlig
nemme
nemmere
nemt
nen
nende
nens
neo
neon
neord
nepal
nepals
nephew
neppe
neptun
ner
nero
neruda
nerver
nervesystem
nervesystemet
nervus
nervøs
nes
ness
nestor
net
netflix
netherlands
netop
nets
netsted
nettet
netto
netværk
netværket
network
networks
neu
neue
neues
neuhausenske
neumann
neumu
neurologiske
neustadt
neutral
neutrale
neutralitet
neutralt
neutron
neutroner
nevada
never
neville
nevins
nevø
new
newark
newcastle
newfoundland
newman
newport
news
newton
newtons
newzealandsk
newzealandske
next
nexus
nexø
nez
nf
nfl
ng
nga
ngbok
nge
ngel
ngen
nger
ngo
nh
nhl
ni
nia
nibe
nic
nicaragua
niccolo
nice
niche
nicholas
nichols
nicholson
nicht
nick
nickelodeon
nicki
nicklas
nicky
niclas
niclasen
nico
nicola
nicolai
nicolaj
nicolas
nicolaus
nicole
nicoline
nicosia
nidaros
nie
niebuhr
niece
niedero
niedersachsen
niels
nielsdatter
nielsen
nielsens
niende
nietzsche
nig
nigel
niger
nigeria
night
nightmare
nights
nigsberg
nih
nijmegen
nik
nike
nikita
nikkede
nikkel
nikki
niklas
nikola
nikolai
nikolaj
nikolaus
nilen
nils
nilsen
nilsson
nimitz
nimrod
nin
nina
nine
ning
ningen
ninger
ningerne
ninja
nintendo
nio
nippon
niro
nirvana
nis
nissan
nisse
nissen
nissum
nitro
nitrogen
nitten
nittende
niva
niveau
niveauer
niveauet
nixon
nj
nk
nko
nkvd
nl
nm
nme
nn
nna
nnen
no
noa
noah
nobel
nobelprisen
nobelprismodtager
nobelprismodtagere
nobelprize
nobels
noble
nobody
nocturne
node
noder
noe
noel
nogen
nogenlunde
nogensinde
noget
nogle
noir
noise
nok
nokia
nolan
nom
nomader
nomenclature
nomenklatur
nominativ
nominerede
nomineret
nominering
nomineringer
non
none
nonne
nonner
nonstop
noord
nor
nora
norbert
norby
nord
nordafrika
nordahl
nordamerika
nordamerikanske
nordamerikas
nordatlanten
nordatlantiske
nordbanen
nordboerne
nordborg
nordby
norddjurs
nordea
norden
nordenden
nordens
nordenskirker
nordeuropa
nordeuropas
nordeuropæiske
nordfra
nordfrankrig
nordfriesland
nordfrisisk
nordfrisiske
nordfrisland
nordfrislands
nordfyns
nordga
nordhavn
nordhavnen
nordic
nordirland
nordisk
nordiske
norditalien
nordjylland
nordjyllands
nordjyske
nordkorea
nordkoreanske
nordkyst
nordkysten
nordland
nordlandsbanen
nordlig
nordlige
nordligste
nordmakedonien
nordmanden
nordmænd
nordmændene
nordnorge
nordover
nordpa
nordpolen
nordre
nordrhein
nordsamisk
nordside
nordsiden
nordsjælland
nordsjællands
nordslesvig
nordstaterne
nordstjerneordenen
nordstrand
nordsø
nordsøen
nordtyske
nordtyskland
nordvest
nordvestlige
nordvietnam
nordøst
nordøstlige
norfolk
norge
norges
norgeskart
norm
norma
normal
normale
normalspor
normalt
norman
normandie
normandiet
normann
normannerne
normannisk
normanniske
normen
normer
norra
norris
norrko
norrland
norrøn
norrøne
norrønt
nors
norse
norsk
norske
norsksprogede
norstedt
north
northampton
northern
northumberland
northumbria
northwest
norton
norup
norway
norwegian
norwich
nos
not
notable
notat
notater
notation
note
noter
noterede
noteret
notes
nothing
notoc
notre
nottingham
nouveau
nouvelle
nov
nova
novads
novak
novel
novelle
novelleforfattere
novellen
noveller
novellesamling
novellesamlingen
november
novgorod
novo
now
nr
nrk
ns
nsb
nsdap
nsk
nske
nsson
nste
nster
nt
nte
nter
nther
nu
nuancer
nuclear
nul
nulevende
nulmeridianen
number
numbers
numerisk
numeriske
nummer
nummererede
nummereret
nummeret
nummerplader
numre
numrene
nunavut
nur
nutid
nutiden
nutidens
nutidig
nutidige
nuuk
nuværende
nv
nwa
nwo
ny
nya
nyboder
nyborg
nybyggede
nybyggere
nybyggeri
nybyggerne
nybygget
nybøl
nydam
nydannede
nyde
nydelse
nyder
nydt
nye
nyere
nyerup
nyeste
nyfødte
nyga
nygaard
nyhavn
nyhed
nyheden
nyheder
nyhederne
nyhedsbrev
nyheter
nyholm
nykirke
nyklassicistiske
nykøbing
nylig
nylige
nyligt
nynorsk
nyopførte
nyoprettede
nyrop
nyrup
nys
nyskabende
nystartede
nysted
nystiftede
nyt
nyta
nytimes
nytorv
nytte
nytteplanter
nyttig
nyttige
nyttigt
nyvalg
nyvalgte
nz
næb
næbbet
nægte
nægtede
nægter
nægtet
næppe
nær
nære
nærede
nærhed
nærheden
næring
næringsliv
næringsrig
næringsstoffer
næringsvej
næringsveje
nærkamp
nærliggende
nærme
nærmede
nærmer
nærmere
nærmest
nærmeste
nært
nærtliggende
nærum
nærvær
nærværelse
nærværende
næs
næsby
næse
næsehorn
næsen
næss
næst
næstbedste
næste
næsten
næstformand
næsthøjeste
næstkommanderende
næstmest
næstsidste
næststørste
næstved
næstældste
nætter
nævn
nævne
nævner
nævnes
nævnet
nævneværdig
nævneværdige
nævnt
nævnte
nød
nødder
nødhjælp
nødsaget
nødt
nødvendig
nødvendige
nødvendighed
nødvendigheden
nødvendigt
nødvendigvis
nøgen
nøgle
nøglen
nøgler
nøgne
nøhr
nøjagtig
nøjagtige
nøjagtighed
nøjagtigt
nøje
nøjedes
nøjes
nørager
nørby
nørga
nørgaard
nørholm
nørlund
nørre
nørrebro
nørrebrogade
nørrebros
nørregaard
nørregade
nørrejylland
nørreport
nørresundby
o
oak
oakland
oasis
ob
obama
oberbayern
obero
oberpfalz
oberst
obersten
oberstløjtnant
obi
obituary
object
objekt
objekter
objektet
objektiv
objektive
oblast
oblasten
obligationer
obligatorisk
obligatoriske
obo
obs
observation
observationer
observatoriet
observatorium
observatory
observatør
observatører
observer
observere
observerede
observeres
observeret
oc
ocean
oceania
oceanic
oceanien
och
oclc
oct
octavia
october
od
oda
odd
odde
odden
odder
odds
ode
odense
odenses
oder
odessa
odin
odins
ods
odsherred
odysseus
odyssey
oecd
oehlenschla
of
off
offenbach
offensiv
offensive
offensiven
offentlig
offentlige
offentliggjorde
offentliggjort
offentliggjorte
offentliggør
offentliggøre
offentliggørelse
offentliggørelsen
offentliggøres
offentlighed
offentligheden
offentlighedens
offentligt
offer
offeret
office
officer
officerer
officererne
officersskole
official
officiel
officielle
officielt
offshore
ofre
ofrede
ofrene
ofret
ofringer
ofte
oftere
oftest
og
ogsa
ogsaa
oh
ohio
ohm
ohne
oil
ois
oise
ok
okay
okinawa
okkupation
okkuperede
okkuperet
oklahoma
okrug
oksbøl
okse
oksekød
okser
okt
oktav
oktober
oktoberrevolutionen
ol
ola
olaf
olai
olav
olavs
old
oldebarn
oldefar
oldenborg
oldenborgske
oldenburg
oldgræsk
oldham
oldkyndighed
oldnordisk
oldsager
oldtid
oldtiden
oldtidens
ole
oleg
olesen
olga
olie
oliemaleri
olien
olier
oliveira
oliven
olivenolie
oliver
olivia
olivier
olle
olof
olrik
olsen
olsenbanden
olsens
olson
olsson
oluf
olufsen
olympia
olympiakos
olympic
olympics
olympique
olympisk
olympiske
om
omaha
oman
omar
ombord
ombordværende
ombudsmand
ombudsmanden
ombygge
ombyggede
ombygget
ombygning
ombygningen
ombygninger
omdanne
omdannede
omdannelse
omdannelsen
omdanner
omdannes
omdannet
omdiskuteret
omdr
omdrejninger
omdrejningspunkt
omdøbt
omdøbte
omdømme
omega
omegn
omegnen
omegns
omend
omfang
omfanget
omfartsvej
omfatte
omfattede
omfattende
omfatter
omfattet
omga
omgang
omgange
omgivelser
omgivelserne
omgivende
omgiver
omgivet
omhandlede
omhandlende
omhandler
omhu
omhyggelig
omhyggeligt
omkamp
omkom
omkommer
omkommet
omkomne
omkostninger
omkostningerne
omkr
omkranset
omkreds
omkring
omkringliggende
omkvæd
omkvædet
omlagt
omliggende
omlægning
omlægningen
omløb
omme
omra
omrejsende
omringe
omringede
omringet
omsat
omsatte
omsider
omsk
omskrevet
omskæring
omslag
omslaget
omsorg
omstilling
omstridt
omstridte
omstændighed
omstændigheder
omstændighederne
omsætning
omsætningen
omsætte
omsætter
omsættes
omtale
omtaler
omtales
omtalt
omtalte
omtrent
omvende
omvendelse
omvendt
omvendte
omverdenen
omvæltninger
on
once
ond
onde
ondskab
ondt
one
ones
onkel
online
only
ono
ons
onsdag
ontario
op
opad
opbakning
opbevare
opbevares
opbevaret
opbevaring
opblomstring
opbygge
opbyggede
opbygges
opbygget
opbygning
opbygningen
opdage
opdagede
opdagelse
opdagelsen
opdagelser
opdagelsesrejsende
opdager
opdages
opdaget
opdaterede
opdateret
opdatering
opdateringer
opdele
opdeles
opdeling
opdelingen
opdelt
opdelte
opdrage
opdragelse
opdraget
opdrift
ope
opel
open
opera
operaen
operaer
operahus
operahuset
operakomponister
operasanger
operasangere
operation
operationelle
operationen
operationer
operationerne
operations
operationsomra
operativ
operative
operator
operatorname
operatør
operatører
operere
opererede
opererer
opereret
opf
opfandt
opfange
opfatte
opfattede
opfattelse
opfattelsen
opfattelser
opfatter
opfattes
opfattet
opfindelse
opfindelsen
opfindelser
opfinder
opfindere
opfinderen
opfordre
opfordrede
opfordrer
opfordret
opfordring
opfordringer
opfostret
opfundet
opfylde
opfyldelse
opfylder
opfyldes
opfyldt
opfyldte
opfølger
opfølgeren
opføre
opførelse
opførelsen
opførelser
opfører
opføres
opførsel
opførslen
opført
opførte
opførtes
opgav
opgave
opgaven
opgaver
opgaverne
opgive
opgiver
opgives
opgivet
opgjort
opgradere
opgraderet
opgradering
opgør
opgørelse
opgøret
ophav
ophavsmand
ophavsmanden
ophavsret
ophavsretten
ophold
opholde
opholder
opholdet
opholdssted
opholdt
ophugget
ophængt
ophæve
ophævede
ophævedes
ophævelse
ophævelsen
ophæver
ophæves
ophævet
ophøjede
ophøjet
ophør
ophøre
ophører
ophørt
ophørte
opinion
opkald
opkaldt
opkaldte
opklare
opkræve
opkøb
opkøbe
opkøbt
opkøbte
oplag
oplagt
opland
oplandet
opleve
oplevede
oplevelse
oplevelsen
oplevelser
oplever
opleves
oplevet
oplyse
oplyser
oplyses
oplysning
oplysningen
oplysninger
oplysningerne
oplysningsfilm
oplysningstiden
oplysningstidens
oplyst
oplyste
oplæg
oplæring
oplært
opløse
opløses
opløsning
opløsningen
opløsninger
opløst
opløste
opløstes
opma
opmuntre
opmuntrede
opmuntret
opmærksom
opmærksomhed
opmærksomheden
opmærksomme
opna
oppe
oppenheimer
oppland
opposition
oppositionen
opr
oprejst
opret
opretholde
opretholdelse
opretholder
opretholdes
opretholdt
oprette
oprettede
oprettedes
oprettelse
oprettelsen
opretter
oprettes
oprettet
oprindelig
oprindelige
oprindeligt
oprindelse
oprindelsen
oprustning
oprykning
oprykningen
oprykningsplads
oprykningspladser
oprykningsspil
oprør
oprørere
oprørerne
oprøret
oprørske
opsagde
opsagt
opsamling
opsamlingsalbum
opsamlingsalbummet
opsamlingsheat
opsat
opsatte
opsendelse
opsendelsen
opsendt
opsigt
opsigtsvækkende
opskrift
opskrifter
opslag
opslugt
opsparing
opspore
opsta
opstand
opstande
opstandelse
opstandelsen
opstanden
opstigende
opstille
opstillede
opstiller
opstilles
opstillet
opstilling
opstillingskreds
opstod
opsving
opsyn
opsætning
opsætningen
opsætte
opsøge
opsøger
opsøgte
optage
optagelse
optagelsen
optagelser
optagelserne
optager
optages
optaget
optagne
optakt
optakten
optegnelser
optik
optimal
optimale
optimalt
optimeret
option
optisk
optiske
optog
optoges
optra
optrykt
optræde
optræden
optrædende
optrædender
optrædener
optræder
optøjer
opus
opvarmes
opvarmet
opvarmning
opvokset
opvækst
or
oral
orange
oranien
oranje
oratorier
oratorium
orbiter
orchestra
ord
ordbog
ordbogen
ordbøger
orde
orden
ordene
ordenen
ordenens
ordener
ordens
ordentlig
ordentligt
order
ordet
ordets
ordforra
ordfører
ordineret
ordinær
ordinære
ordlyd
ordne
ordnede
ordner
ordnet
ordning
ordningen
ordninger
ordre
ordren
ordrer
ordret
ordrup
ordspil
ordsprog
ore
oregon
org
organ
organer
organic
organisation
organisationen
organisationens
organisationer
organisatorisk
organisatoriske
organisere
organiserede
organiserer
organiseres
organiseret
organisering
organiseringen
organisk
organiske
organisme
organismer
organist
organister
organization
orgel
orgelet
orglet
orient
oriental
orientales
orientalsk
orientalske
orientation
orienten
orienterede
orienteret
orientering
origin
original
originale
originalen
originalt
originaltitel
origins
orion
orkan
orkanen
orker
orkester
orkesteret
orkesterværker
orkestre
orkestret
orkide
orkneyøerne
orla
orlando
orle
orleans
orlogsværftet
orlov
orm
ormen
ornamenter
orne
ornitologisk
orochimaru
ortodoks
ortodokse
orton
ortsnamenlexikon
orwell
os
osaka
osama
osborne
osbourne
oscar
oscars
oscaruddelingen
oscillator
oskar
oslo
oslofjorden
oslos
osman
osmannerne
osmannisk
osmanniske
osnabru
osprey
oss
ost
oste
osten
ostindien
ostindiske
osv
oswald
other
others
otis
ottawa
otte
ottekantet
ottende
ottendedelsfinaler
ottendedelsfinalerne
otter
otteren
otterup
ottesen
otto
ottosen
ou
our
out
outer
output
outside
outstanding
ouverture
ov
ova
oval
ovale
ove
oven
ovenfor
ovennævnte
ovenover
ovenpa
ovensta
over
overalt
overbevise
overbevisende
overbevisning
overbevisninger
overbevist
overbeviste
overblik
overborgmester
overbygning
overbygningen
overda
overdosis
overdrage
overdragelse
overdrages
overdraget
overdrev
overdreven
overdrevet
overdrevne
overdrog
overdækket
overens
overenskomst
overenskomster
overensstemmelse
overfald
overfaldet
overfaldt
overfarten
overflade
overfladen
overflader
overfladisk
overflod
overflyttet
overflødige
overfor
overføre
overfører
overføres
overførsel
overført
overførte
overførtes
overga
overgaard
overgang
overgangen
overgav
overgik
overgive
overgivelse
overgiver
overgivet
overgreb
overhalet
overherredømme
overholde
overholdelse
overholder
overholdes
overholdt
overhoved
overhovedet
overhuset
overhængende
overhøjhed
overhøvding
overklasse
overklassen
overkommando
overkommandoen
overlade
overladt
overlappende
overlapper
overlegen
overlegenhed
overlegne
overleve
overlevede
overlevelse
overlevende
overlever
overleverede
overleveret
overlevering
overleveringen
overleveringer
overlevet
overliggende
overlod
overlord
overlæge
overlægen
overlærer
overnatning
overnatte
overnaturlige
overordentlig
overordnede
overordnet
overpræsident
overrakt
overraskede
overraskelse
overraskelsesangreb
overraskende
overrasket
overretssagfører
overs
oversat
oversatte
overset
oversiden
oversigt
oversigter
overskred
overskredet
overskride
overskrift
overskriften
overskrifter
overskud
overskuddet
overskydende
oversta
oversteg
overstige
overstiger
oversvømmede
oversvømmelse
oversvømmelser
oversvømmet
oversætte
oversættelse
oversættelsen
oversættelser
oversætter
oversættere
oversættes
oversøisk
oversøiske
overtage
overtagelse
overtagelsen
overtager
overtaget
overtale
overtalt
overtalte
overtog
overtra
overtro
overtrædelse
overtrædelser
overva
overvandt
overveje
overvejede
overvejelse
overvejelser
overvejende
overvejer
overvejet
overview
overvinde
overvintrede
overvintrer
overvundet
overvægt
overvældende
overvære
overværede
overværelse
overværet
ovn
ovne
ovnen
ovre
owain
owen
owens
own
oxe
oxford
oxholm
oxygen
oy
oz
ozzy
p
pa
paa
pablo
pac
pace
pacific
pack
packard
packers
padborg
padder
paddington
paddy
paderborn
padova
pagasten
pagasts
page
pages
pagt
pagten
paige
pain
paint
painting
paintings
pair
paisja
pak
pakhus
pakistan
pakistans
pakistansk
pakistanske
pakke
pakken
pakker
pakket
pal
palace
palads
paladser
paladset
palais
palau
palazzo
pale
palermo
palestine
palgrave
palladium
pallas
palle
pallesen
palm
palma
palme
palmer
palsbo
paludan
palæ
palæer
palæet
palæstina
palæstinensere
palæstinensisk
palæstinensiske
pamela
pan
panama
panathinaikos
pancras
panda
pande
pandemien
panden
panel
paneler
panik
panorama
panser
panserarme
panserdivision
panserkorps
panserskib
panserskibe
pansrede
pansret
pansring
pant
panter
pantheon
panther
panthera
panzer
panzerdivision
paolo
pap
papa
pape
paper
paperback
papers
papir
papirer
papiret
paprika
papua
papyrus
par
para
parade
paradis
paradise
paradoks
paragraf
paraguay
parallel
parallelle
paralleller
parallelt
paralympiske
parameter
parametre
paramount
paraplyorganisation
parat
parc
parcelhuse
parentes
parfaite
parfume
paris
parish
parisiske
park
parken
parkens
parker
parkering
parkeringsplads
parkeringspladser
parkes
parks
parlament
parlamentarisk
parlamentariske
parlamenter
parlamentet
parlamentets
parlamentsmedlem
parlamentsmedlemmer
parlamentsvalg
parlamentsvalget
parliament
parløb
parma
parodi
parrene
parret
parrets
pars
parsberg
parsifal
parsons
part
partei
parter
parterne
parti
partial
partido
partiel
partier
partierne
parties
partiet
partiets
partiformand
partikel
partikler
partileder
partis
partisaner
partner
partnere
partners
partnerskab
parts
party
pas
pascal
pasha
pass
passage
passagen
passager
passagerer
passagererne
passagerfly
passagertal
passat
passe
passede
passende
passer
passere
passerede
passerer
passeres
passeret
passet
passion
passiv
passive
past
pasta
pastor
pastorat
pastorater
pastoratet
pat
patent
patenter
path
patient
patienten
patientens
patienter
patienterne
patriark
patriarken
patricia
patrick
patrik
patriot
patriotisk
patriotiske
patriots
patrol
patron
patroner
patrulje
patruljeba
patruljer
pattedyr
patterson
patti
patton
patursson
pau
paul
paula
pauli
pauline
paulo
pauls
paulsen
paulus
pause
pausen
pave
pavel
pavelig
pavelige
paven
pavens
paver
pavia
pavillon
pavillonen
pax
pay
payne
pays
paz
pbs
pc
pct
pd
pdf
pe
peace
peak
pearl
pearson
peber
pedal
peder
peders
pedersdatter
pedersen
pedersens
pederstrup
pedro
peel
peer
pegasus
pege
pegede
peger
peget
peggy
peking
pele
pelle
peloponnes
pels
pelsen
pembroke
pen
pendant
penelope
penge
pengene
pengepræmier
pengesedler
penguin
peninsula
penis
penkowa
penn
pennsylvania
penny
pension
pensionerede
pensioneret
pensionering
pensionister
pentagon
people
peoples
pepper
peppers
per
perception
percussion
percy
pereira
perez
perfect
perfekt
perfekte
performance
periferien
period
periode
perioden
periodens
perioder
perioderne
periodisk
periodiske
perkins
perle
perler
perm
permanent
permanente
pernille
perpignan
perron
perronen
perroner
perronerne
perry
perserne
perseus
persien
persisk
persiske
person
personal
personale
personalet
personalhistorisk
personalunion
personbiler
personel
personen
personens
personer
personerne
personers
personlig
personlige
personlighed
personligheder
personligt
persons
persontog
persontrafik
persontrafikken
perspective
perspectives
perspektiv
perspektiver
persson
perth
peru
perugia
perus
pest
pesten
pesticider
pet
pete
peter
peters
petersborg
petersburg
petersen
petersens
peterskirken
peterson
petit
petra
petri
petrograd
petroleum
petrov
petrus
petter
pettersson
peugeot
pez
pfa
pfalz
pfanz
pg
pga
ph
pha
phantom
phase
phd
phi
phil
philadelphia
philharmonic
philip
philipp
philippa
philippe
philips
philipsen
phillip
phillips
philosophical
philosophie
philosophy
phoebe
phoenix
phone
photo
photos
php
phra
physical
physics
pi
pia
pianist
pianisten
pianister
piano
piazza
pibe
pic
picasso
piccadilly
piccinino
piccolo
pick
pickett
pickup
pico
picture
pictures
pie
piece
pieces
piemonte
pier
pierce
piero
pierre
piet
pieter
pietro
pige
pigen
pigenavn
pigenavne
piger
pigerne
pigtra
pihl
pike
pil
pilatus
pile
pilgaard
pilgrimme
pille
piller
pilot
piloten
piloter
piloterne
pin
pind
pinde
pine
ping
pings
pink
pinneberg
pinus
pinyin
pio
pioneer
pioner
pionerer
piotr
piper
pippi
pirat
pirater
pirates
pisa
pistol
pistoler
pit
pitch
pitt
pittsburgh
pius
pizza
pjotr
pkt
pl
pla
place
placere
placerede
placerer
placeres
placeret
placering
placeringen
placeringer
placeringerne
placeringskampe
placeringskampene
placeringsrunden
places
plade
pladekontrakt
pladen
plader
pladerne
pladeselskab
pladeselskaber
pladeselskabet
plads
pladsen
pladser
pladserne
plage
plaget
plains
plakat
plakaten
plakater
plan
planck
plane
planen
planer
planerne
planet
planeten
planetens
planeter
planeterne
planker
planlagde
planlagt
planlagte
planlægge
planlægger
planlægges
planlægning
planlægningen
planning
plans
plant
plantage
plantagen
plantagenet
plantager
plante
plantearter
plantebeskrivelser
planten
plantens
planter
planterne
planternes
planters
plantesamfund
planteslægter
plantet
plantevækst
plants
plasma
plass
plast
plastic
plastik
plat
plata
plate
plateau
plateauet
platform
platforme
platformen
platin
platinum
platon
platons
plattysk
platz
play
playboy
player
players
playing
playlistnyt
playoff
plays
playstation
plaza
plc
please
pleasure
pleje
plejede
plejehjem
plejer
plesner
plessen
plet
pletter
plettet
pligt
pligter
plinius
plo
plot
plotarea
plotdata
plottet
ploug
pludselig
pludselige
pludseligt
plum
plus
pluto
plutonium
plymouth
plyndre
plyndrede
plyndret
plyndring
plyndringer
pm
pmatrix
pmc
pmid
png
po
podcast
podebusk
podiet
poe
poems
poesi
poet
poetisk
poetiske
poetry
point
pointe
pointkonkurrencen
points
poirot
poitiers
pokal
pokalen
pokalfinalen
pokaltitler
pokalturnering
pokalturneringen
pokalvinder
pokalvindernes
poke
poker
pol
polakker
polakkerne
poland
polar
pole
polemik
polen
polens
police
policy
polis
polish
polit
politi
politibetjent
politibetjente
political
politics
politiet
politiets
politifolk
politik
politiken
politikens
politiker
politikere
politikeren
politikerne
politikken
politikker
politimand
politimester
politisk
politiske
politistation
polk
polka
pollard
pollen
polly
polo
polsk
polske
poltava
polydor
polynesien
polyt
polyteknisk
polytekniske
pommern
pompeji
pompejus
pont
ponte
pontoppidan
pony
pool
poor
pop
pope
popgruppe
popmusik
popular
popularitet
population
populationer
populær
populære
populærkultur
populærkulturen
populært
porcelæn
porno
porosjenko
porsche
porse
porsmose
port
porta
portal
portalen
porte
portefølje
porten
portene
porter
portion
portland
porto
portrait
portræt
portrætfilm
portrætmaler
portrætmalere
portrætmaleri
portrætter
portrætterede
portrætteret
portrættet
portsmouth
portugal
portugals
portugiserne
portugisisk
portugisiske
pose
poseidon
posen
position
positionen
positioner
positiv
positive
positivt
possible
post
postbutik
postdistrikt
posten
postens
poster
posthumt
posthus
posthuset
postkontor
postkontoret
postkort
postmoderne
postnummer
postnummeret
postvæsen
postvæsenet
pot
potential
potentiale
potentiel
potentielle
potentielt
potomac
potsdam
potter
poul
poulsen
pour
povl
povlsen
powell
power
powers
powles
poznan
pp
ppm
pr
pra
practical
practice
pradesh
prag
pragmatiske
prags
pragt
praksis
praktik
praktisere
praktiserede
praktiserende
praktiserer
praktiseres
praktiseret
praktisk
praktiske
pram
pratt
prayer
pre
preben
premier
premiere
premieren
premierløjtnant
premierminister
premierministeren
premierministre
premium
pres
present
presents
president
presidential
presley
presleys
press
presse
pressede
pressekonference
pressemeddelelse
pressemøde
pressen
presser
presses
presset
pressure
prestige
prestigefyldte
preston
pretty
preussen
preussens
preusserne
preussisk
preussiske
pri
price
pride
priest
priestley
prikker
prima
primary
primater
prime
primera
primetime
primitiv
primitive
primo
primtal
primus
primær
primære
primærrute
primært
prince
princess
princeton
princip
principal
principielt
principles
principper
principperne
princippet
prins
prinsen
prinsens
prinser
prinserne
prinsesse
prinsessen
prinsesser
print
prinz
prior
prioriteret
prioritet
pris
prisen
priser
priserne
prismodtagere
prison
prisuddeling
prisuddelingen
prisvindende
privat
privatbaner
privatdocent
private
privateje
privatejede
privatejet
privatliv
privatpersoner
privatskole
privatskoler
privilegier
privilegium
prix
prize
pro
problem
problematisk
problemer
problemerne
problemet
problems
problemstillinger
procedure
procedurer
proceedings
procent
procentdel
proces
process
processen
processer
processing
procession
processor
produced
producent
producenten
producenter
producenterne
producer
producere
producerede
produceren
producerer
produceres
produceret
producerne
product
production
productions
products
produkt
produkter
produkterne
produktet
produktion
produktionen
produktioner
produktions
produktionsselskab
produktionsselskabet
produktiv
produktive
produktivitet
prof
profession
professional
professionel
professionelle
professionelt
professor
professorat
professoren
professorer
profet
profeten
profeter
profil
profile
profiler
profit
program
programme
programmer
programmering
programmeringssprog
programmerne
programmet
programmets
programming
progress
progressiv
progressive
project
projects
projekt
projekter
projekteret
projektet
projektets
proklamerede
proklameret
prokurator
prolog
prometheus
promille
prominent
prominente
promise
promo
promotion
promovere
proof
propaganda
propagandafilm
propel
propelfly
properties
proportional
proportioner
proprietær
prosa
proseries
prostituerede
prostitueret
prostitution
protection
protein
proteiner
protektor
protektorat
protest
protestanter
protestantisk
protestantiske
protester
protestere
protesterede
protesterne
proto
protocol
protokol
protokollen
protokoller
proton
protoner
prototype
prototypen
prototyper
protour
provence
proviant
providence
provins
provinsen
provinsens
provinser
provinserne
provisorisk
provisoriske
provokerende
provst
provsti
provstier
prydet
præ
præcis
præcise
præcision
præcist
prædikant
prædikat
prædikater
prædike
prædikede
prædiken
prædikener
prædikestol
prædikestolen
præfektur
præfekturer
præfekturet
præfekturniveau
præfiks
præg
præge
prægede
præger
præges
præget
prægtige
præludium
præmie
præmien
præmier
præmieret
præmiesum
prærien
præsentation
præsentere
præsenterede
præsenterer
præsenteres
præsenteret
præsident
præsidenten
præsidentens
præsidenter
præsidentkandidat
præsidentperiode
præsidentposten
præsidentvalg
præsidentvalget
præsidium
præst
præstation
præstationer
præstega
præstegaard
præstegd
præsten
præstens
præster
præsterne
præstø
prøve
prøvede
prøven
prøver
prøvet
prøvetræning
ps
psa
pseudo
pseudonym
pseudonymer
pseudonymet
psg
psi
pskov
psv
psycho
psychology
psyke
psykedelisk
psykiater
psykiatri
psykiatrien
psykiatrisk
psykiatriske
psykisk
psykiske
psykolog
psykologer
psykologi
psykologisk
psykologiske
psykoterapi
pt
ptolemaios
ptolemæus
pu
pub
publ
public
publication
publications
publicerede
publiceret
publikation
publikationer
publikum
publikums
publique
published
publisher
publishers
publishing
puerto
puggaard
puk
pulje
puljen
puljer
puljevindere
pulp
puls
pulse
pulver
pumpe
pumper
pumpkins
punch
pund
punds
punjab
punk
punkt
punkter
punktet
punktum
pure
purple
push
pusher
put
putin
putnam
px
pyeongchang
pynt
pyongyang
pyramide
pyramiden
pyre
pyrenæerne
pyrus
pythagoras
python
pædagog
pædagoger
pædagogik
pædagogisk
pædagogiske
pægel
pæle
pæn
pæne
pænt
pære
pølser
q
qaeda
qatar
qi
qin
qing
qu
quad
quality
quantum
quartal
quarter
quarterback
quarterly
quartet
quattro
que
quebec
queen
queens
queensland
quentin
quercus
query
quest
question
questions
qui
quick
quidditch
quiet
quincy
quinn
quintus
quisling
quist
quiz
quo
quoted
qvistgaard
r
ra
raab
raabte
raad
rabat
rabaul
rabbit
raben
rables
race
racen
racer
racerkører
races
rachel
racing
racisme
racistiske
rad
radar
radaren
raderinger
radiation
radical
radikal
radikale
radikalt
radio
radioaktive
radioaktivt
radioavis
radiobølger
radioen
radioer
radioprogram
radioprogrammer
radioprogrammet
radios
radiostation
radiostationen
radiostationer
radiovært
radius
raf
rafael
rafah
rafn
rage
rager
ragnar
ragnarok
ragnhild
rahbek
rahman
rai
raid
raider
raiders
raids
rail
railroad
railway
railways
rain
rainbow
rainer
raja
rajon
rajoner
raket
raketten
raketter
rakte
ral
ralf
rally
ralph
ram
rama
ramadan
ramasjang
rami
ramme
rammen
rammer
rammerne
rammes
rammstein
ramon
ramos
ramsar
ramsaromra
ramsay
ramsey
ramt
ramte
ran
rana
ranch
rand
randall
randen
randers
randolph
random
randy
rang
range
ranger
rangerede
rangerende
rangerer
rangeret
rangering
rangers
rangle
rangliste
ranglisten
ranglisteplacering
rank
ranking
rantzau
raoul
rap
raphael
rapid
rapper
rappere
rapperen
rapport
rapporten
rapporter
rapportere
rapporterede
rapporterer
rapporteret
rapporterne
rar
rard
rare
ras
rasch
rasede
rasende
raseri
rask
raske
rasmus
rasmussen
rasmussens
rat
rate
rathlou
ratificeret
rating
ratio
ration
rationel
rationelle
rationelt
rattet
ratzeburg
rau
rav
raven
ravenna
ravn
raw
ray
raymond
rb
rbar
rbare
rbog
rbogen
rbundet
rbøger
rc
rca
rcd
rd
rde
rdejer
rden
rdene
rdens
rdere
rdeste
rdhed
rdl
rdoba
rds
rdspladsen
rdsvej
rdt
re
reach
read
reader
reading
ready
reagan
reagere
reagerede
reagerer
reaktion
reaktionen
reaktioner
reaktor
real
realdania
realeksamen
realisere
realiseret
realisme
realistisk
realistiske
realitet
realiteten
reality
really
realms
realskole
realunion
rear
reason
reb
rebecca
rebekka
rebel
rebellion
rebild
rebro
receiver
recent
reception
receptor
receptorer
recht
record
recorded
recording
recordings
records
recovery
red
redaktion
redaktionen
redaktør
redaktøren
redaktører
redde
reddede
redder
reddes
reddet
rede
redegørelse
reden
reder
rederi
rederier
rederiet
redigere
redigerede
redigeret
redigering
redigeringer
redning
redningsba
reds
redskab
redskaber
reducere
reducerede
reducerer
reduceres
reduceret
reduktion
reed
reedtz
reel
reelle
reelt
reenberg
reese
reeves
ref
referat
reference
referencer
referer
referere
refererede
refererer
refereres
refereret
reflections
refleksion
reflekterer
refn
reform
reformation
reformationen
reformen
reformer
reformere
reformerne
reformerte
refshaleøen
regel
regelmæssig
regelmæssige
regelmæssigt
regelsæt
regensburg
regent
regenter
regere
regerede
regerende
regerer
regeret
regering
regeringen
regeringens
regeringer
regeringerne
regerings
regeringschef
regeringsleder
regeringsmagten
regeringsperiode
regeringstid
reggae
regi
regierungsbezirk
regime
regiment
regimenter
regimentet
regimer
regimet
regina
reginald
regio
region
regional
regionale
regionalt
regionaltog
regionen
regionens
regioner
regionerne
regions
regionskommune
regionsra
regis
register
registre
registrere
registrerede
registrerer
registreres
registreret
registrering
regitze
reglen
regler
reglerne
regn
regne
regnede
regnedes
regnen
regner
regnes
regnet
regning
regnskab
regnskaber
regnskabet
regnskov
regnskove
regnvejr
regulere
regulerede
regulerer
reguleres
reguleret
regulering
regulær
regulære
reich
reichhardt
reid
reign
reilly
reimer
reims
reinhard
reinhardt
reinhold
reise
reitzel
reitzels
rejer
rejse
rejseholdet
rejsekort
rejsekortet
rejselegat
rejsen
rejsende
rejser
rejses
rejsetiden
rejst
rejste
rejstes
reklame
reklamefilm
reklamer
rekognoscering
rekognosceringsfly
rekonstruerede
rekonstrueret
rekonstruktion
rekonstruktioner
rekord
rekorden
rekorder
rekordliste
rekreative
rekreativt
rekrutter
rekruttere
rekrutterede
rekrutteret
rekruttering
rektangulær
rektangulære
rektor
rektorer
related
relaterede
relateret
relation
relationen
relationer
relationerne
relations
relativ
relative
relativitetsteori
relativt
release
released
relevans
relevant
relevante
relief
relieffer
religion
religionen
religionens
religioner
religions
religionsfrihed
religious
religiøs
religiøse
religiøst
relikvier
rem
remains
rematch
rembrandt
remee
remember
remis
remise
remisen
remix
remixes
remus
ren
renaissance
renard
renault
rende
rendsborg
rene
renes
rengøring
renhed
rennes
reno
renoir
renoveret
renovering
renoveringen
rensdyr
rense
renset
rensning
rent
rente
rentekammeret
renter
renæssance
renæssancen
renæssancens
renæssancestil
reorganiseret
reparation
reparationer
reparere
repareret
repertoire
repertoiret
replikker
report
reportage
reportager
reporter
reports
reprint
reprise
reproduktion
reprotryk
repræsentant
repræsentanter
repræsentanternes
repræsentantskab
repræsentantskabet
repræsentation
repræsentative
repræsentere
repræsenterede
repræsenterer
repræsenteres
repræsenteret
republic
republik
republikanere
republikanerne
republikansk
republikanske
republikken
republikkens
republikker
republiks
requiem
rer
rerne
res
rescue
research
resen
reservat
reservatet
reserve
reservedele
reservehold
reserven
reserver
reserveret
reservoir
reservoiret
residens
resident
resistance
resolution
resort
resource
resources
respekt
respektere
respekterede
respekteret
respektive
respons
response
ressource
ressourcer
rest
restaurant
restauranten
restauranter
restaurerede
restaureret
restaurering
restaureringen
restaureringer
resten
rester
resterende
resterne
restriktioner
restrup
resultat
resultater
resultaterne
resultatet
resultere
resulterede
resulterende
resulterer
resulteret
results
resume
resurser
ret
retfærdig
retfærdige
retfærdiggøre
retfærdighed
retlige
retmæssige
retning
retningen
retninger
retningslinjer
retorik
retrieved
retræte
rets
retsinformation
retskrivning
retslige
retsopgøret
retssag
retssagen
retssager
retssystem
retsvidenskab
retsvæsen
rette
rettede
rettelser
retten
rettens
retter
rettere
rettergang
rettes
rettet
rettigheder
rettighederne
retur
returkamp
returkampen
returkampene
return
returnere
returnerede
returneret
returns
reumert
reunion
reuter
reuters
rev
reval
revanche
reveals
revenge
reventlow
revet
reviderede
revideret
review
reviews
revis
revised
revision
revisited
revisor
revival
revner
revolution
revolutionary
revolutionen
revolutioner
revolutionerende
revolutions
revolutionær
revolutionære
revolver
revue
revy
revyen
revyer
rex
rey
reyes
reykjavi
reykjavik
reynolds
rez
rf
rfc
rg
rga
rgang
rgange
rgb
rgen
rgensen
rh
rhea
rhead
rhein
rheinland
rhin
rhinen
rhinens
rho
rhode
rhodes
rhododendron
rhodos
rhundrede
rhundreder
rhundredes
rhundredeskiftet
rhundredet
rhundredets
rhus
rhys
rhythm
ri
ria
riaa
ribbentrop
ribe
ric
rica
ricardo
rice
rich
richard
richards
richardson
richelieu
richie
richmond
richter
rick
ricky
rico
ridder
riddere
ridderen
ridderkorset
ridderne
riddersalen
ride
ridende
rider
ridge
ridning
rie
riegels
rifbjerg
riff
riffel
riffelbrigade
riffs
rifler
rifles
rig
riga
rigas
rigdom
rigdomme
rige
rigelig
rigeligt
riger
rigere
riges
rigeste
riget
rigets
right
rightarrow
rights
rigmor
rigsarkivet
rigsdag
rigsdagen
rigsdagens
rigsdaler
rigsforsamling
rigsforstander
rigsgreve
rigshospitalet
rigskansler
rigsra
rigsretssag
rigsretten
rigsva
rigsvej
rigt
rigtig
rigtige
rigtignok
rigtigt
rihanna
riis
riise
rikke
riksdagen
riksma
riksmuseet
riksvei
riley
rim
rimelig
rimeligt
rimeligvis
rimini
rimmer
rin
ring
ringe
ringede
ringen
ringenes
ringer
ringere
ringhof
ringkjøbing
ringkøbing
ringnavnet
ringo
rings
ringsted
ringvej
ringvejen
rio
riot
rip
ripper
ris
rise
risici
risikere
risikerede
risikerer
risiko
risikoen
rising
risk
riskær
risskov
rita
ritchie
rite
ritmester
ritt
ritter
ritual
ritualer
ritualet
rituelle
ritzau
rival
rivaler
rivaliserende
rivalisering
rive
river
rivera
rivers
rives
rk
rlag
rlig
rlige
rligere
rligste
rligt
rm
rmland
rn
rna
rnberg
rnby
rne
rnene
rner
rnet
rnets
rnten
rnva
ro
roach
road
roads
roadster
roald
roar
rob
roba
robbie
robbins
robert
roberta
roberto
robertprisen
roberts
robertson
robin
robinson
robot
robotter
robson
robust
robuste
rocca
roche
rochester
rock
rockband
rockbandet
rockefeller
rocker
rocket
rockgruppe
rockgrupper
rockmusik
rockmusikere
rocks
rocky
rod
roddy
rode
roden
rodgers
rodnettet
rodney
rodri
rodrigo
rodriguez
rodsystemet
roede
roer
roere
rogaland
roger
rogers
rogue
rohde
roi
roklub
roland
rold
role
rolf
rolig
rolige
roligt
roll
rolle
rolleliste
rollelisten
rollen
roller
rollerne
rollespil
rolling
rollo
rolls
rom
roma
romaer
roman
romana
romance
romanen
romanens
romaner
romanerne
romanforfatter
romanforfattere
romani
romano
romanov
romansk
romanske
romantik
romantikken
romantikkens
romantisk
romantiske
rome
romeo
romere
romerne
romernes
romerriget
romerrigets
romersk
romerske
romerskkatolske
romertiden
rommel
roms
romsdal
romulus
ron
ronald
ronaldo
rondo
roning
ronnie
rookie
room
rooney
roos
roosevelt
roosevelts
root
roots
ror
roret
rory
ros
rosa
rosario
roscoe
rose
rosecrans
rosekrigene
rosemary
rosen
rosenberg
rosenborg
rosendahl
rosendal
rosende
rosenga
rosenholm
rosenkilde
rosenkrantz
rosenstand
rosenørn
roser
roses
rosie
rosinante
rosing
roskilde
ross
rossi
rossini
rosso
rost
roste
rostock
rostov
rostrup
rot
rotation
rotere
roterende
roterer
roth
rothe
rotte
rotten
rotter
rotterdam
roubaix
rouen
rouge
rough
round
rousseau
roussillon
route
routledge
rovdyr
rover
rovers
rovfugle
row
rowling
roy
royal
royale
royce
rozen
rpm
rr
rrække
rs
rsaften
rsag
rsage
rsagede
rsagen
rsager
rsagerne
rsaget
rsalderen
rsamling
rsberetning
rsdag
rsdagen
rshavn
rskrig
rskrigen
rslev
rslister
rsrapport
rsskiftet
rsskrift
rsssf
rssæsonen
rst
rsta
rstal
rstallet
rstid
rstider
rsudstilling
rt
rte
rth
rtha
rti
rtier
rtiet
rttemberg
rtusinde
rtusinder
rtusindskiftet
rtz
ru
ruben
rubens
rubin
ruby
ruc
rud
rude
ruder
rudersdal
rudi
rudkøbing
rudolf
rudolph
rudy
rue
rufus
rug
rugbrød
rugby
ruhr
ruin
ruinen
ruiner
ruinerne
rule
rules
rulle
rullede
rullende
ruller
rum
rumble
rumfang
rumfart
rumfartøj
rumfærge
rumfærgen
rumme
rummede
rummer
rummet
rumsonden
rumstation
rumstationen
rumvandring
rumænien
rumæniens
rumænsk
rumænske
run
rund
runddel
runde
rundede
runden
runder
rundeta
rundhøj
rundt
rune
runeberg
runeindskrifter
runer
runesten
runestenen
rung
rungsted
runner
running
runs
rup
rupert
ruprecht
rus
rush
rusland
ruslands
russel
russell
russere
russerne
russia
russian
russisk
russiske
russo
rust
rustning
rute
ruten
ruter
ruterne
ruth
rutherford
ruud
rv
rva
rvi
rwanda
ry
ryan
rydde
ryddet
ryde
ryder
rye
ryg
ryge
ryger
ryggen
rygning
rygte
rygter
rygterne
rygtet
rykke
rykkede
rykker
rykket
ryomga
ryslinge
rystede
rystet
rytme
rytmeguitar
rytmer
rytmisk
rytmiske
rytter
ryttere
rytteren
rytteriet
rytterne
ryu
ryvangen
rz
rzburg
rædsel
række
rækkefølge
rækkefølgen
rækkehuse
rækken
rækker
rækkerne
rækkevidde
rækkevidden
ræv
ræve
rður
rø
rød
rødbrun
rødby
rødder
rødderne
rødding
røde
rødekro
rødlig
rødlige
rødliste
rødovre
rødt
røg
røgen
røget
rømer
rømme
rømø
røn
rønde
rønne
rønnow
røntgenstra
rør
rørbæk
rørdam
røre
rørende
rører
røres
røret
rørt
rørte
røst
røvere
røveri
s
sa
saa
saab
saadan
saadanne
saadant
saae
saakaldte
saale
saaledes
saarbru
saasnart
saavel
saba
sabbath
sabel
sabina
sabine
sabotage
sabre
sabroe
sachs
sachsen
sachsiske
sacramento
sacred
sad
saddam
sadie
sadolin
safari
safe
safety
saft
sag
saga
sagaen
sagaer
sagaerne
sagan
sagde
sage
sagen
sagens
sager
sagerne
sagfører
sagn
sagnet
sagsøgte
sagt
sagte
sagtens
sahara
sai
said
saigon
saint
sainte
saints
saks
saksiske
sakskøbing
sakura
sal
sala
saladin
salah
salat
sale
salem
salen
salerno
sales
salg
salget
salgstal
salisbury
salling
sally
salme
salmebog
salmer
salmonsen
salmonsens
salomon
salomonsen
salomonøerne
salon
salpetersyre
salt
salte
saltet
salto
saltvand
salvador
salvatore
salve
salzburg
sam
samantha
samara
samarbejde
samarbejdede
samarbejder
samarbejdet
samarbejdspartner
samarbejdspartnere
samba
sambandsflokkurin
same
samer
samerne
samfund
samfundet
samfundets
samfunds
samfundsfag
samfundslitteratur
samfundsmæssige
samfundsvidenskab
samfundsvidenskabelige
samfærdsel
sami
samisk
samiske
samle
samleba
samlede
samledes
samleje
samlende
samler
samlere
samles
samlet
samling
samlingen
samlinger
samlingerne
samlingspunkt
samlingssted
samliv
samme
sammen
sammenbrud
sammenbruddet
sammenfaldende
sammenhold
sammenhæng
sammenhænge
sammenhængen
sammenhængende
sammenkoblede
sammenlagt
sammenligne
sammenlignede
sammenlignende
sammenligner
sammenlignes
sammenlignet
sammenligning
sammenligninger
sammenlægning
sammenlægningen
sammenløbet
sammensat
sammensatte
sammenslutning
sammenslutningen
sammensmeltning
sammenstød
sammensværgelse
sammensætning
sammensætningen
sammentrækning
sammenvoksede
sammesteds
sammy
samoa
sampdoria
samra
samson
samspil
samspillet
samsung
samsø
samsøe
samt
samtale
samtalen
samtaler
samtgemeinde
samtid
samtiden
samtidens
samtidig
samtidige
samtidigt
samtidskunst
samtlige
samtykke
samuel
samuelsen
samui
samurai
samvirke
samvirkende
samvittighed
samvær
san
sanchez
sand
sandberg
sandbjerg
sande
sandede
sandefjord
sandelig
sander
sanders
sandet
sandhed
sandheden
sandheder
sandnes
sandoy
sandra
sands
sandsten
sandsynlig
sandsynlige
sandsynlighed
sandsynligheden
sandsynligt
sandsynligvis
sandt
sandvig
sandwich
sandy
sang
sange
sangen
sangene
sangens
sanger
sangere
sangeren
sangerinde
sangerinden
sangskriver
sangskrivere
sangtekster
sank
sankt
sanktioner
sanne
sans
sanser
sanskrit
sant
santa
santana
santander
santiago
santo
santos
sao
sap
sapiens
sapporo
sar
sara
sarah
sarajevo
sardegna
sardinien
sardisk
sarpsborg
sars
sartre
sas
saskatchewan
sass
sassari
sasuke
sat
satan
satans
satellit
satellite
satellitkratere
satellitkraterets
satellitter
satire
satirisk
satiriske
sats
satse
satsede
satser
satsning
satte
sattes
saturday
saturn
saturns
sauce
saudi
saul
saunders
savage
savannah
save
savnede
savner
savnet
savoie
savoyen
savværk
saw
sawyer
saxo
saxofon
saxon
saxos
say
sayid
says
sb
sbs
sby
sc
scala
scale
scalemajor
scandal
scandia
scandinavia
scandinavian
scanning
scar
scarlet
scarlett
scavenius
sce
scene
scenekunst
scenen
scener
scenerne
scenografi
scha
schack
schalke
schaumburg
scheel
schelde
schelling
scherfig
schilderessen
schiller
schimmelmann
schjødt
schlegel
schlesien
schleswig
schloss
schlu
schmeichel
schmidt
schmidts
schneider
scho
scholten
school
schools
schott
schou
schouburgh
schriften
schro
schrøder
schu
schubert
schule
schultz
schulz
schumacher
schumann
schuster
schwa
schwaben
schwartz
schwarz
schweiz
schweizisk
schweiziske
schwerin
schøller
schønberg
sci
science
sciencedaily
sciences
scient
scientific
scientist
scientists
score
scorede
scorende
scorer
scoret
scoring
scoringer
scorpions
scotia
scotland
scott
scottish
scotts
scout
scream
screen
sct
sculpture
sd
sdfe
sdr
sds
sdu
se
sea
seal
sean
search
sears
seas
season
seasons
seat
seattle
sebastia
sebastian
secher
second
secret
secretary
secrets
section
security
sed
sedan
sedgwick
sediment
sedimenter
sedler
see
seebach
seeberg
seedede
seedet
seedning
seen
seer
seere
seerne
seertal
seest
seet
seg
sega
segeberg
segl
segment
segmenter
sehested
seidelin
seidenfaden
seier
sein
seine
seinen
sejl
sejlads
sejladsen
sejladser
sejlba
sejlbar
sejle
sejlede
sejler
sejles
sejlet
sejlskibe
sejlsport
sejr
sejre
sejrede
sejren
sejrende
sek
sekondløjtnant
sekretariat
sekretariatet
sekretær
seks
seksdageskrigen
seksdagesløb
seksten
seksualitet
seksuel
seksuelle
seksuelt
sekt
sektion
sektionen
sektioner
sektor
sektorer
sekulære
sekund
sekunder
sekunders
sekundet
sekundær
sekundære
sekundærrute
sekundært
sekvens
sekvensen
sekvenser
select
selected
selection
selektion
self
selma
selskab
selskaber
selskaberne
selskabet
selskabets
selskabs
selv
selvbestemmelse
selvbevidsthed
selvbiografer
selvbiografi
selvbiografiske
selve
selveje
selvejende
selvforsvar
selvforsynende
selvfølgelig
selvkørende
selvmord
selvom
selvportræt
selvsamme
selvstyre
selvstyrende
selvstændig
selvstændige
selvstændighed
selvstændigheden
selvstændigt
selvtillid
sem
semi
semifinale
semifinalen
semifinaler
semifinalerne
semifinalister
seminar
seminariet
seminarium
sen
senantikken
senat
senate
senatet
senatets
senator
senatorer
send
sendai
sende
sendebud
sender
senderen
sendes
sendt
sendte
sendtes
sene
seneca
senegal
senere
senest
seneste
seng
senge
sengen
sengotisk
senior
seniorhold
seniorkarriere
seniorlandshold
senmiddelalderen
sens
sensation
sense
sensommeren
sensor
sensorer
sent
seoul
sep
separat
separate
separation
separeret
sept
september
ser
serafimerordenen
serbere
serberne
serbien
serbiens
serbisk
serbiske
serena
serenade
serge
sergei
sergej
sergent
sergio
serial
serie
seriemorder
serien
seriens
serier
serierne
series
seriøs
seriøse
[...]
