!
"
#
##0
##1
##10
##11
##12
##13
##14
##15
##16
##17
##18
##19
##2
##20
##21
##22
##23
##24
##25
##26
##27
##28
##29
##3
##30
##31
##32
##33
##34
##35
##36
##37
##38
##39
##4
##40
##41
##42
##43
##44
##45
##46
##47
##48
##49
##5
##50
##51
##52
##53
##54
##55
##56
##57
##58
##59
##6
##60
##61
##62
##63
##64
##65
##66
##67
##68
##69
##7
##70
##71
##72
##73
##74
##75
##76
##77
##78
##79
##8
##80
##81
##82
##83
##84
##85
##86
##87
##88
##89
##9
##90
##91
##92
##93
##94
##95
##96
##97
##98
##99
$
%
&
'
(
)
*
+
,
-
.
/
0
00
000
0000
0001
0002
000291
0003
0004
0006
0008
001
0014
002
0021
0022
0024
0027
0028
003
0031
004
00411
00439
005
006
007
008
009
0092
01
010
011
012
013
014
0140
015
016
0167
017
018
019
02
020
021
022
023
024
0240
025
026
027
028
029
03
030
0304
031
032
033
034
035
037
0378
04
042
04209
0432
05
050
051
0521820486
058
06
07
0736
08
0888
09
091
0960
0962
1
10
100
1000
10000
1001
1002
1004
1006
1007
101
1012
1014
1016
1017
1018
102
1021
1023
1024
1029
103
1031
1033
1034
1035
1037
1038
1039
104
1040
1042
1043
1046
1048
105
1050
1051
1053
1054
1055
1056
106
1063
1066
1067
107
1070
1071
1073
1074
1078
108
1080
1081
1083
1083732
1084
1086
1088
1089
109
1091
1093
1094
1095
1096
1097
1098
1099
11
110
1100
1101
1103
1104
1105
1107
11076863
1109
111
1110
1111
1113
1119
112
11230166
1124
11256614
1126
1128
113
1130
1134
1136
1139
114
1146
115
1150
1152
1155
1158
1159
116
1160
1161
1163
11646
1165
1167
117
1172
1173
1177
118
1180
1182
1185
1186
1189
119
1194
1196
1198
1199
12
120
1200
1203
1204
121
1210
1211
1212
12130
1215
1217
122
1220
123
1231
1235
12385
124
1240
1242
1244
12477932
1248
1249
125
1250
1258
126
1260
1261
127
1270
128
1280
1285
129
1293003
12975309
13
130
1300
131
1315
132
1320
1321
1322
1324
1325
1326
1327
133
1330
134
1340
1345
1346
1347
1347501
1348
1349
135
1350
1351
1353
1356129
1357
1358
1359
136
1365
1366
137
1370
1371
1373
1377
1378
138
1380
1385
1386
1387
1389
139
1390
1391
1392
139241
1393
1395
1396
1397
1398
1399
14
140
1400
1402
1403
1404
1405
1406
1409
141
1410
1411
1412
1413
1415
1416
1419
142
1420
1421
1422
1423
1425
1426
1427
1428
1429
143
1430
143000
1432
1433
1434
1435
14356007
1436
1437
144
1440
1442
1443
1444
1446
1448
1449
145
1450
1453
1454
1455
1456
1458
1459
146
1460
1461
1462
1463
1464
1465
14651858
1466
1467
1468
1469
147
1470
14702039
1471
1472
1474
1475
1476
1477
1479
148
1480
1481
1482
1483
1485
1489
149
1490
1492
1493
1496
1497
1498
1499
15
150
1500
1501
1502
1503
1504
1505
1506
1509
151
1511
1512
1513
1515
1516
1517
1519
152
1520
1521
1522
1523
1524
1525
1526
1527
1528
1529
153
1530
1531
1533
1534
1535
1536
1537
1538
154
1540
1541
1542
1543
1545
1546
1547
1548
15489334
15489336
1549
155
1550
1551
1552
1553
1554
1555
1556
1557
1558
156
1560
1564
1565
1566
157
1570
1571
1572
1573
1574
1579
158
1580
1588
159
1590
1592
1593
1595
1598
16
160
1600
1601
1603
1604
1605
1606
1609
161
1610
1612
1618
16189514
1619
162
1620
1621
1625
1627
163
1630
1634
16344560
16381901
164
1640
1642
1643
1644
1648
1649
165
1650
1651
1654
166
1660
1664
1665
1667
1669
167
1670
1677
1679
168
1680
1681
1683
1685
1687
1688
1689
16899
169
1690
1694
1697
1699
17
170
1700
1701
1703
1704
1707
1708
17081983
171
1711
1713
1714
1715
1716
1717
1718
1719
172
1720
1721
1723
1725
1727
1728
173
1730
1735
17353931
1736
1737
1739
174
1740
1741
1742
1743
1744
1745
1746
1747
1748
1749
175
1750
1751
1752
1753
1754
1755
1756
1757
1758
1759
176
1760
1761
1762
1763
1764
1765
1766
1767
1768
1769
177
1770
1771
1772
1773
1774
1775
1776
1777
1778
1779
178
1780
1781
1782
1783
1784
1785
1786
1787
1788
1789
179
1790
1791
1792
1793
1794
1795
1796
1797
1798
1799
18
180
1800
1801
1802
1803
1804
1805
1806
1807
1808
1809
181
1810
1811
1812
1813
1814
1815
1816
1817
1818
1819
182
1820
1821
1822
1823
1824
1825
1826
1827
1828
1829
183
1830
1831
1832
1833
1834
1835
1836
1837
1838
1839
184
1840
1841
1842
1843
1844
1845
1846
1847
1847948
1848
1849
185
1850
1851
1852
1852337520
1853
1854
1855
1856
1857
1858
1859
186
1860
1861
1862
1863
1864
1865
1866
1867
1868
1869
187
1870
1871
1872
1873
1874
1875
1876
1877
1878
1879
188
1880
1881
1882
1883
1884
1885
1886
1887
1888
1889
189
1890
1891
1892
1893
1894
1895
1896
1897
1898
1899
19
190
1900
1901
1902
1903
1904
1905
1906
1907
1908
1909
191
1910
1911
1912
1913
1914
1915
1916
1917
1918
1919
192
1920
1921
1922
1923
1924
1925
1926
1927
1928
1929
193
1930
1931
1932
1933
1934
1935
1936
1937
1938
1939
194
1940
1941
1942
1943
1944
1945
1946
1947
1948
1949
195
1950
1951
1952
1953
1954
1955
1956
1957
1958
1959
196
1960
1961
1962
1963
1964
1965
1966
1967
1968
1969
197
1970
1971
1972
1973
1974
1975
1976
1977
1978
1979
198
1980
1981
1982
1983
1984
1985
1986
1987
1988
1989
199
1990
1991
1992
1993
1994
1995
1996
1997
1998
1999
2
20
200
2000
2001
2002
2003
2004
2005
2006
2007
2008
2009
201
2010
2011
2012
2013
2014
2015
2016
2017
2018
2019
202
2020
2021
2022
2023
2024
2025
2027
203
2030
204
205
206
207
2075
208
209
21
210
211
212
2121
213
2136
214
2147
215
216
217
2174
218
219
22
220
221
222
223
224
225
226
2265
227
228
229
23
230
2307
231
232
233
2337
234
235
236
237
238
239
24
240
2400
241
242
242603899
243
244
245
246
247
248
249
25
250
2500
251
252
253
254
255
256
257
2576704
258
259
2596504
26
260
261
2616
262
263
264
265
266
267
268
269
27
270
271
272
273
274
275
276
2765
277
278
279
28
280
281
282
283
2836
284
285
286
287
288
289
29
290
291
292
293
294
295
296
297
298
299
3
30
300
3000
301
302
303
304
305
306
307
308
309
31
310
3109
310948
311
311072
312
313
314
315
316
3166
317
318
319
32
320
321
322
323
324
325
326
327
328
329
33
330
331
332
333
334
335
336
337
338
3389
339
3390
34
340
341
342
343
344
345
346
347
348
349
35
350
3500
351
352
353
354
355
356
357
358
359
36
360
361
361811
362
363
364
365
366
367
368
369
37
370
371
372
373
3732
374
375
376
3768
377
378
379
38
380
381
382
383
384
385
386
387
388
389
3892
39
390
391
392
393
394
395
396
397
398
399
4
40
400
4000
401
402
4020
403
403697
4039406
404
4049
405
4051
406
407
4072
4074
408
409
41
410
4100134
4103
411
412
413
414
4142
415
4159
416
4160
4161
417
418
419
42
420
421
422
423
424
425
426
427
428
429
43
430
431
432
433
4331
434
435
436
437
438
439
44
440
441
442
4427026
443
444
445
446
447
448
449
45
450
451
452
453
454
455
456
457
458
459
46
460
461
462
463
464
4641
465
466
467
468
469
47
470
471
472
473
474
475
476
477
478
4781
479
48
480
481
482
483
484
485
486
487
488
489
49
490
491
492
493
494
495
496
497
498
499
5
50
500
5000
501
502
503
504
505
506
507
508
509
51
510
511
512
513
514
515
516
517
518
519
52
520
521
522
523
524
525
526
527
528
528928
528930
529
53
530
531
532
533
534
535
536
53616
537
538
539
54
540
541
542
543
544
545
546
547
5472
548
549
55
550
551
552
553
554
555
556
557
558
559
56
560
561
562
563
564
565
566
567
568
5680
569
57
570
571
572
573
574
575
576
577
578
579
5793
58
580
581
582
583
584
585
586
587
588
589
59
590
591
592
593
594
595
596
597
598
599
6
60
600
6000
601
602
603
604
605
606
607
608
609
61
610
611
612
613
614
615
616
617
618
619
62
620
621
622
623
624
625
626
627
628
629
63
630
631
632
633
634
635
636
637
638
639
64
640
641
642
643
644
645
646
647
648
649
65
650
651
652
653
654
655
656
657
658
659
66
660
661
662
663
664
665
666
6667
667
668
669
67
670
671
672
673
6736
674
675
676
677
678
679
68
680
681
682
683
684
685
686
687
688
689
69
690
691
692
693
694
695
696
697
698
699
7
70
700
7000
701
702
703
704
705
706
7062
707
708
709
7091
71
710
711
712
713
714
715
716
7167
717
718
719
72
720
721
7216
722
723
724
725
726
727
728
729
73
730
731
732
733
734
735
7351
736
737
738
739
74
740
741
742
743
744
745
746
747
748
749
75
750
751
752
753
754
7543
755
756
757
758
759
76
760
761
762
763
764
765
766
767
768
769
77
770
771
772
773
775
776
777
7776
778
779
78
780
781
7817
782
7827573
783
784
785
786
787
788
789
79
790
791
792
793
794
795
796
797
798
799
8
80
800
8000
801
802
803
804
805
8053
806
807
808
809
81
810
811
812
8125298
813
814
815
8153
816
817
818
819
82
820
821
822
823
824
825
826
827
828
829
83
830
831
832
833
8339
835
836
837
838
839
84
840
841
842
843
844
84433
845
846
847
848
849
8493
85
850
851
852
853
854
855
856
857
858
859
86
860
861
862
863
864
865
866
867
8674
868
869
87
870
871
872
873
874
875
876
877
878
87893
879
88
880
881
882
883
884
885
886
887
888
8889548
889
89
890
891
892
893
895
897
898
899
9
90
900
901
902
903
904
905
906
907
908
90802
909
91
910
911
912
913
914
915
916
917
918
919
92
920
921
922
923
924
925
9258
927
928
929
93
930
931
932
933
933346
934
9344
935
936
937
9373149
939
94
940
941
942
943
944
945
946
947
948
949
95
950
951
952
953
954
955
956
957
958
959
96
960
961
962
963
964
965
966
967
968
969
97
970
971
972
973
974
975
977
978
979
98
980
981
9822
983
984
985
986
987
988
989
99
990
991
993
995
9958
996
997
998
999
:
;
<
=
>
?
@
[
\
]
^
_
`
a
aa
aaron
aas
ab
aba
abac
abanovic
abar
abasidskog
abat
abata
abaya
abba
abbas
abbott
abc
abca
abcg
abd
abdest
abdic
abdicirao
abdul
abdulah
abdullah
abe
abeceda
abel
abi
abic
ability
abl
ablativ
ablon
abnormalities
abnormalne
abnormalni
abnormalno
abnormalnost
abnormalnosti
abo
about
abra
abraham
abrams
abs
absalom
absence
absorption
abstract
abu
abucay
ac
aca
acad
academia
academic
academy
access
accessdate
accessed
according
account
accumulation
ace
acer
acetat
acetil
acetiltransferaza
aci
acid
acids
acil
acima
acm
across
acs
act
acta
acth
actin
action
actions
activated
activates
activating
activation
activator
active
activities
activity
actor
acts
acute
acyl
ad
ada
adam
adama
adams
adamts
adaptacija
adaptacije
adaptaciji
adaptation
adapter
adaptirani
adaptor
adar
addison
additional
address
adekvatno
adela
adele
adem
adema
adenin
adenosine
adenozin
adha
adhd
adhesion
adhezije
adi
adija
adije
adijska
adijske
adijski
adipose
adis
aditiv
adler
administracija
administracije
administraciji
administraciju
administration
administrativna
administrativne
administrativni
administrativnih
administrativnim
administrativno
administrativnom
administrator
admir
admiral
admirala
adnan
adolf
adolfa
adp
adrenal
adrenalin
adrenergic
adresa
adrese
adresu
adria
adrian
adu
adult
adults
adv
advanced
advances
adventure
adventures
advokat
advokata
adz
ae
aek
aerodinamic
aerodrom
aerodroma
aerodromu
aes
af
afc
afera
afere
aferu
affairs
affected
affinity
afganistan
afganistana
afganistanu
afi
afinitet
afiniteta
afinitetom
afric
africa
african
africi
afrika
afrike
afriku
after
ag
aga
again
against
agatha
agathe
age
agencija
agencije
agency
agens
agensi
agent
agenta
agenti
agents
ages
agic
aging
ago
agonist
agonita
agreement
agresije
agricultural
agriculture
ah
aha
ahist
ahista
ahmad
ahmed
ahmeda
ahmet
ahmic
ahovska
ahovske
ahovski
ahovskih
ahovsko
ahovskog
ahovskoj
ahovskom
ahtar
ahu
ahunbay
ahura
ai
aid
aida
aids
ain
air
airbus
aire
aires
airlines
airport
airways
ais
aise
aj
aja
ajan
ajanovic
ajax
ajb
ajdovs
aje
ajem
ajen
ajena
ajene
ajeni
ajenih
ajenim
ajeno
ajenog
ajenom
ajet
ajeta
ajeti
ajetu
ajeva
ajeve
ajevi
ajevima
ajhg
aji
ajima
ajke
ajmg
ajna
ajne
ajni
ajnic
ajnih
ajnija
ajnije
ajniji
ajnijih
ajnijim
ajnim
ajno
ajnog
ajnoj
ajnom
ajnost
ajnosti
ajnu
ajr
ajte
aju
ajuc
ak
aka
akademija
akademije
akademiji
akademiju
akademik
akademske
akademski
akata
akc
akcija
akcijama
akcije
akciji
akcijski
akciju
ake
aki
ako
akom
akovec
aks
aksona
akt
akta
akte
akti
aktin
aktina
aktivacija
aktivacije
aktivacijom
aktivaciju
aktivan
aktivator
aktivira
aktiviraju
aktivirajuc
aktivirane
aktivirani
aktiviranja
aktiviranje
aktivirati
aktivista
aktivna
aktivne
aktivni
aktivnih
aktivnim
aktivno
aktivnog
aktivnom
aktivnos
aktivnost
aktivnosti
aktivnostima
aktivnu
aktom
aktualni
aktuelni
aku
akumulacija
akumulacije
akumulira
akumuliraju
akustic
akutna
akutne
akutni
akuzativ
al
ala
alabama
aladin
alaga
alah
alaha
alain
alajbegovic
alan
alanin
alat
alata
alate
alati
alayhim
alba
albanaca
albanci
albania
albanija
albanije
albaniji
albanska
albanske
albanski
albanskog
albanskom
albe
albeno
albert
alberta
alberto
alberts
albion
albrecht
albu
album
albuma
albume
albumi
albumima
albumin
albumom
albums
albumu
alcohol
aldosteron
ale
alec
alef
alejandro
alejhi
aleksa
aleksandar
aleksander
aleksandra
aleksandrije
aleksandriji
aleksej
alel
alela
aleli
alen
alessandro
alex
alexander
alexandra
alexandre
alexis
alfa
alfabet
alfons
alfonsa
alfonso
alfred
alfreda
algae
algama
alge
algebra
algi
algoritam
ali
alic
alica
alice
alien
aligned
alignment
alija
alije
aliji
aliju
alimanovic
alio
alison
aliti
alive
alj
aljaske
aljazeera
alje
aljehin
alju
alkil
alkohol
alkohola
alkoholic
all
alla
allah
allaha
allahe
allahom
allahov
allahova
allahove
allahovi
allahovih
allahovim
allahovo
allahovog
allahovoj
allahovom
allahovu
allahu
allan
allegro
allele
allen
allergy
alliance
allison
allmovieju
allmusic
alma
almeida
almir
alo
alojz
alone
along
alonso
alos
alost
alosti
alpa
alpe
alpha
alpine
alpinista
alpinistic
alpska
alpski
alpskom
als
also
alt
alter
alterations
altered
alternativa
alternative
alternativna
alternativne
alternativni
alternativnih
alternativno
alu
aluk
aluka
aluminij
aluminija
aluzija
alvarez
alyga
alz
alzheimer
alzheimerove
am
ama
amac
amadeus
aman
amanda
amar
amaranthus
amazon
amazonas
ambasada
ambasade
ambasador
ambasadora
ambasadori
amber
amblem
amca
amcu
amd
ame
amen
amer
americ
america
american
americi
amerika
amerikanac
amerikanaca
amerikanci
amerike
ameriku
amg
ami
amid
amidz
amija
amije
amiji
amiju
amil
amila
amin
amina
amino
aminokiselina
aminokiseline
aminokiselinska
aminokiselinske
aminokiselinski
aminokiselinskih
aminokiselinu
amir
aml
amnesty
amo
amon
among
amonij
amonijak
amonijaka
amor
amorita
amos
amp
ampion
ampiona
ampionatu
ampionsku
amr
amra
amsterdam
amsterdamu
amun
amx
amy
amyloid
amyotrophic
an
ana
anabolic
anac
anadolija
anadolije
anadoliji
anakin
anal
anali
analitic
analiza
analizama
analize
analizi
analizira
analizom
analizu
analog
analogni
analogno
analyses
analysis
analytical
anand
anatomical
anatomija
anatomije
anatomiji
anatomska
anatomski
anatomy
anbya
anc
anci
ancient
and
anderlecht
anders
andersen
anderson
andersson
andora
andre
andrea
andreas
andreeva
andrej
andreja
andrew
andrews
andric
andrija
andrijevica
androgen
androgena
androgene
androgeni
android
andromeda
andrzej
andy
andz
ane
aneksije
anemia
anemija
anemije
anemone
ang
angaz
angel
angela
angeles
angelesa
angelesu
angelo
angiogenesis
angiosperm
angiospermi
angiotenzin
anglo
angola
angole
ani
anic
anica
anice
anici
anih
anik
anim
anima
animacije
animal
animals
animation
anime
animirane
animirani
animiranoj
anin
anina
anion
aniona
anj
anja
anje
anjem
anjima
anju
ank
anka
ankara
ankrd
anksioznost
ankyrin
ann
anna
annales
annals
anne
anni
annie
anniversary
anno
annotation
announce
announced
announces
annu
annual
annurev
ano
anog
anoj
anom
anomalija
anomalije
anost
anosti
another
anovic
anr
anra
anrova
anru
ans
ansa
ansambl
anse
anska
anske
anski
anskih
anskim
ansko
anskog
anskoj
anskom
ansku
anstava
anstva
anstvo
anstvu
ansu
answers
antagonist
antarktic
antarktik
antarktika
antarktiku
ante
antene
anthony
anthropology
anti
antibiotika
antibodies
antibody
antic
antici
antifas
antigen
antigena
antigene
antigeni
antigens
antike
antisens
antitijela
antitijelo
anto
antoine
antologija
anton
antonija
antonije
antonio
antropogeneze
antropologija
antropolos
antun
antwerp
anu
anubih
anuhu
anus
any
anz
anđela
anđeli
anđelic
anđeo
ao
aorta
aorte
ap
apa
aparat
aparata
apc
ape
apetita
apg
aphex
api
aplikacija
aplikacijama
aplikacije
aplikaciju
apljina
apljine
apoe
apoel
apoenima
apolipoprotein
apollo
apolon
apoptosis
apoptotic
apoptoza
apoptoze
apoptozu
apostol
apostola
app
apparatus
appearances
appl
apple
application
applications
applied
approach
approaches
approx
apps
apr
april
aprila
aprilu
apsolutna
apsolutne
apsolutni
apsolutno
apsolutnu
apsorbira
apsorbiraju
apsorpcija
apsorpcije
apsorpciju
aq
aquilegia
ar
ara
arab
arabia
arabic
arabica
arabidopsis
arabija
arabije
arabiji
arac
aram
arama
aran
arana
arani
aranz
arap
arapa
arape
arapi
arapska
arapske
arapski
arapskih
arapskim
arapsko
arapskog
arapskom
aravajuc
arbih
arbitraz
arc
arch
archaea
archaeology
architecture
archiv
archive
archived
archives
arci
arcsin
arctan
ard
are
area
areas
arena
arene
areni
arenja
arenje
arevic
arf
arg
argentina
argentine
argentini
argentinski
argentinu
arginin
arginina
arginine
argon
argument
argumenti
arhaic
arheolog
arheologija
arheologije
arheologiju
arheolos
arheolozi
arhipelag
arhipelaga
arhipelagu
arhitekata
arhitekt
arhitekta
arhitekte
arhitekti
arhitektonski
arhitektonskih
arhitektura
arhitekture
arhitekturi
arhitekturu
arhiv
arhiva
arhivirana
arhivirano
arhivu
ari
aric
arif
arija
arije
arima
aris
aristotel
aritmetic
aritmija
aritmije
arizona
arka
arkas
arke
arki
arko
arktic
arku
arlt
arm
armenci
armenia
armenija
armenije
armenski
armija
armije
armiji
armiju
armin
arms
armstrong
army
arn
arnautalic
arnautovic
arne
arnold
arobnjac
arobnjaci
arobnjak
arobnjaka
arolija
arolije
aroliju
arom
aromatic
aromatski
arondisman
arondismanu
around
arp
array
arrest
ars
arsen
arsenal
arsenala
arska
arske
arski
arskih
arskim
arskog
arskom
arslanagic
arstva
arstvo
arstvom
art
arte
arterija
arterije
arterijske
arteriole
artery
arthritis
arthur
arthura
article
articles
artificial
artiljerija
artiljerije
artist
artists
artritis
artritisa
arts
artur
aru
arxiv
arđi
as
asa
asd
ash
asha
ashaba
ashley
asia
asian
asija
asim
asimetric
asimov
asirije
asistencija
asistent
asistenta
asn
asna
asne
asni
asno
asnog
asocijacija
asocijacije
asopis
asopisa
asopisima
asopisu
asova
asove
asp
asparagin
asparaginska
aspartat
aspects
aspekata
aspekt
aspekta
aspekte
aspekti
aspektima
asperula
aspidimorpha
aspirin
aspirina
asplenium
aspx
assay
assembly
assessment
assignment
associated
associates
association
associations
ast
asta
astana
aste
aster
asteraceae
asteroid
asteroida
asti
astih
astim
asto
astog
astom
aston
astro
astronaut
astronom
astronoma
astronomi
astronomical
astronomija
astronomije
astronomiji
astronomiju
astronomska
astronomski
astronomskih
astronomy
astrophoto
astrophysics
astu
asu
at
ata
ataksija
atatu
ataxia
ate
ateisti
ateizam
atena
atene
atentat
atentata
atf
atheism
athens
athletes
athletic
athletics
ati
atic
atina
atine
atini
atkins
atlanta
atlantic
atlantika
atlantis
atlantski
atlantskog
atlas
atle
atletic
atletici
atletskog
atm
atmosfera
atmosfere
atmosferi
atmosferu
atmospheric
atom
atoma
atome
atomi
atomic
atomima
atomska
atomske
atomski
atomskih
atomskim
atomsko
atomskog
atomsku
atomu
ator
atora
atorima
atoru
atp
atpase
atpaza
atrakcija
atribut
atriplex
atrofija
atrophy
attack
attacks
au
audi
audiciju
audio
audiozapisom
audrey
auf
aug
august
augusta
auguste
augustin
augustu
aurelije
aureus
aurora
aus
auschwitz
austin
australia
australian
australija
australije
australiji
australijska
australijski
australiju
australopithecus
austria
austrian
austrija
austrijanci
austrije
austriji
austrijom
austrijska
austrijske
austrijski
austrijskih
austrijsko
austrijskog
austrijskoj
austrijskom
austrijsku
austriju
austro
austrougarska
austrougarske
austrougarskog
auta
autarijati
autentic
author
authority
authors
autism
autistic
autizam
autizma
auto
autobus
autobusa
autocesta
autoceste
autogol
autohtonih
autoimmune
automat
automata
automatska
automatski
automatsko
automobil
automobila
automobile
automobili
automobilska
automobilu
autonomija
autonomije
autonomiju
autonomna
autonomne
autonomni
autonomnih
autonomnog
autoput
autoputa
autoputeva
autor
autora
autori
autorica
autorima
autoritet
autoriteta
autorska
autorskih
autorsko
autoru
autosomal
autosomno
av
ava
avac
available
avajte
avaju
avajuc
avala
avale
avali
avalo
avam
avama
avamo
avan
avana
avane
avani
avanja
avanje
avanjem
avanjima
avanju
avano
avantura
avanture
avao
avas
avate
avati
avaz
avdaga
avdic
avdo
ave
avenue
avgust
avgusta
avgustu
avi
avijacije
avina
avine
avinu
avio
avion
aviona
avione
avioni
avionima
avionom
avionu
aviv
avljana
avljani
avljanin
avljanstva
avljanstvo
avna
avne
avni
avnih
avnik
avnim
avno
avnog
avnoj
avnom
avnosti
avnu
avom
avs
avskog
avu
aw
award
awards
away
ax
axb
axel
axis
ay
az
aza
azerbaijan
azerbejdz
azija
azije
aziji
azijske
azijski
azijskih
azijskog
aziju
aziz
azkabana
azma
azra
b
ba
baba
babic
babilon
babilona
babilonije
baby
bac
baca
bacac
bacanja
bacanje
bacanju
bach
bacha
baci
bacila
bacili
bacio
baciti
back
background
bacon
bacteria
bacterial
bad
baden
bafta
bagdad
bagdada
bagdadu
bahrein
bahreina
bai
bailey
baillargeon
bailly
baja
bajic
bajka
bajke
bajram
bajramovic
bajrovic
baka
bakar
baker
bakra
bakterija
bakterijama
bakterije
bakterijske
bakterijski
bakterijskih
baku
bakuu
bal
bala
balada
balade
balance
balas
baldwin
bale
balet
bali
balic
balistic
balkan
balkana
balkanolos
balkans
balkanske
balkanski
balkanskih
balkanskim
balkanskog
balkanskom
balkanu
ball
bals
baltic
baltimore
baly
bama
ban
bana
banaka
banana
banane
banci
band
banda
bande
bang
banglades
bani
banic
banja
banjaluc
banjaluci
banjaluka
banjas
banje
banjoj
banju
bank
banka
banke
banks
banku
banovic
banovina
banovine
banu
bao
baptiste
bar
bara
baranjska
baraz
barbara
barber
barcelona
barcelone
barceloni
bare
barem
bari
barij
barijera
barijere
barijeru
barilovic
barker
barlow
barnard
barnes
baroka
barokni
baron
barr
barre
barrett
barrier
barry
bartlett
barton
baru
barut
baruta
bas
basal
base
based
basel
basic
basis
basist
basista
basketball
basler
bass
bat
bataljon
bataljona
bate
baterija
baterije
bates
batman
battle
bauer
bavarska
bavarske
bave
bavi
bavila
bavili
bavio
baviti
bay
bayer
bayern
baza
bazama
baze
bazen
bazena
bazenu
bazi
bazic
bazilici
bazilika
bazilike
bazira
baziran
bazirana
bazirano
bazna
bazne
bazni
baznih
baznog
baznom
bazom
bazu
bb
bba
bbc
bbrc
bbs
bc
bcl
bcr
bd
bdfutbol
bdnf
bdp
be
beach
bean
bear
beat
beatles
beats
beausoleil
beautiful
beba
bebe
bebek
bec
became
because
beck
becker
become
becomes
bedem
bedema
bee
been
beer
beethoven
before
beg
bega
begic
begin
begins
begova
begove
begovic
behar
behavior
behavioral
behaviour
behind
bei
beijing
being
bejtic
bek
beka
bekr
bel
bela
bele
belgija
belgijanci
belgije
belgiji
belgijski
belgium
belgrade
beli
belknap
bell
bella
belo
ben
bena
benac
bend
benda
bendova
bendu
bene
benedikt
benfica
beni
benici
benigni
benih
benik
benika
benike
benim
benin
benito
benjamin
benjamina
benkovac
bennett
benny
beno
benog
benoj
benom
benson
benth
bentley
benu
benz
beograd
beograda
beogradski
beogradskog
beogradskoj
beogradskom
beogradu
ber
berane
berberovic
berenikina
berg
berger
bergerov
bergman
berkeley
berkovic
berlin
berlina
berlinskog
berlinskom
berlinu
bernard
bernd
bernhard
bernstein
berry
bert
bertrand
berza
berze
berzi
bes
besima
beskic
beskonac
besmrtnici
besplatni
besplatno
bespomoc
best
bet
beta
betel
betis
betona
better
betty
betula
between
beverly
beyer
beyonce
beyond
bez
bezbjednosti
bezbojna
bezboz
bezbroj
bezjac
beznac
bezuspjes
bf
bg
bh
bhrt
bi
biathlon
biatlon
biatlonac
biatlonaca
biatlonca
biatlonka
biatlonu
bibcode
biber
biblija
biblije
bibliji
bibliografija
biblioteci
biblioteka
biblioteke
biblioteku
bic
bici
biciklistic
bid
biden
big
bigourdan
bih
bihac
bihi
bijah
bijahu
bijas
bijase
bijasmo
bijaste
bijeg
bijega
bijegu
bijela
bijelaca
bijele
bijeli
bijelih
bijelim
bijeljina
bijeljine
bijeljini
bijelo
bijelog
bijeloj
bijelom
bijelu
bijes
bijesa
bik
bika
bikova
bil
bila
bilbao
bile
bilec
bili
bilingvista
bilja
biljaka
biljci
bilje
biljes
biljesku
biljez
biljka
biljkama
biljke
biljku
biljna
biljne
biljni
biljnih
biljnim
biljnog
bill
billa
billboard
billion
billy
bilo
bilogorska
bilten
bima
bin
bina
binarni
bind
binder
binding
bindon
binds
bine
bing
bini
bint
binu
bio
bioantropologija
biochem
biochemical
biochemistry
biochim
biochimica
biodiversity
biodiverzitet
biogenesis
biografija
biografijama
biografije
biografski
biographical
biography
biohemijski
bioinformatics
biol
biolog
biological
biologija
biologije
biologiji
biologiju
biology
biolos
biomarker
biomarkers
biomedical
biophys
biophysica
biophysical
biophysics
bioraspoloz
bios
biosinteze
biosintezi
biosintezu
biosynthesis
biotechnol
biotechnology
biotehnologiju
biotin
bir
bira
birac
biraju
birali
biran
birani
birano
birati
bird
birdman
birds
birmingham
biro
biroa
birth
bis
biser
bisera
bishop
biskup
biskupa
biskupija
biskupije
bismo
biste
bistra
bistrica
bit
bitaka
bitan
bitci
biti
bitka
bitkama
bitke
bitki
bitku
bitna
bitne
bitni
bitno
bitnu
biva
bivaju
bivs
biz
bizantije
bizantijska
bizantijske
bizantijski
bizantijskih
bizantijskim
bizantijsko
bizantijskog
bizantijskoj
bizantijskom
bizantijsku
bizantski
bizantskog
biznis
biznismen
bj
bjelanc
bjelas
bjelorusija
bjelorusije
bjelorusiji
bjeloruski
bjelovar
bjelovarsko
bjes
bjez
bjo
bk
bl
black
blackburn
blackwell
bladder
blag
blaga
blagaj
blagajnama
blagdan
blage
blagi
blagim
blago
blagoev
blagoje
blagom
blagoslov
blagoslovi
blagoslovljen
blagostanja
blagostanje
blagu
blair
blake
blanco
blas
blast
blata
blato
blaz
blic
blind
bliska
bliske
bliski
bliskih
bliskim
blisko
bliskog
bliskoj
bliskom
bliz
blizak
blizanaca
blizanci
blizina
blizine
blizini
blizu
bljes
bljesak
block
blocks
blog
blogspot
blok
bloka
blokada
blokade
blokadu
blokatori
bloke
blokira
blokiraju
blokova
blokovi
blood
bloom
bloomberg
blot
blu
blue
blues
blum
blume
bm
bmatrix
bmc
bmi
bmj
bmp
bmw
bn
bnp
bo
board
bob
boba
boban
bobby
bobo
bobovac
boc
boca
bocvana
bod
boda
bodez
bodies
bodlje
bodo
bodova
bodovanje
bodove
bodovi
body
boeing
bog
boga
bogat
bogata
bogatas
bogate
bogati
bogatih
bogatim
bogato
bogatog
bogatoj
bogatom
bogatstva
bogatstvo
bogatstvu
bogatu
bogdan
bogdanovic
bogic
boginja
boginje
bogom
bogorodica
bogorodice
bogosluz
bogova
bogove
bogovi
bogovima
bogu
boheman
bohemian
bohr
boiss
boj
boja
bojali
bojama
bojan
bojanovski
bojao
bojati
boje
bojec
bojenje
boji
bojim
bojis
bojite
bojna
bojne
bojni
bojnom
bojom
bojte
boju
bok
boks
bokser
bol
bola
bolan
boldsymbol
boldu
boles
bolesna
bolesni
bolesnici
bolesnik
bolesnika
bolest
bolestan
bolesti
bolestima
boleyn
boli
bolid
bolida
bolivija
bolivije
bolja
bolje
boljeg
bolji
boljim
boljs
bolju
bolna
bolnic
bolnica
bolnice
bolnici
bolnicu
bolno
bolova
bolove
bolovi
bolt
bolton
bolus
bom
bomba
bombardera
bombardiranja
bombardovanja
bombas
bombe
bombi
bombu
bon
bona
bonaldo
bonaparte
bond
bone
bones
bonn
bono
bonus
book
books
boot
booth
bor
bora
borac
boraca
boravak
borave
boravi
boravili
boravio
boravis
boraviti
boravka
borba
borbama
borbe
borbena
borbene
borbeni
borbenih
borbenim
borbi
borbom
borbu
borca
borci
borcima
bordeaux
border
bore
borg
borges
bori
boric
borila
borilac
borili
borio
boris
borisa
borislav
boriti
borivoj
born
borneo
borowiec
borussia
bos
bosanac
bosanc
bosanci
bosanska
bosanske
bosanski
bosanskih
bosanskim
bosansko
bosanskog
bosanskoga
bosanskohercegovac
bosanskoj
bosanskom
bosansku
bosch
bosiljevo
bosna
bosnae
bosne
bosni
bosnia
bosnian
bosnien
bosnom
bosnu
boss
boston
bot
botanic
botanical
botanici
botanika
botany
both
bottas
bound
boundary
bourgoin
bovine
bowman
box
boy
boyd
boyle
boys
boz
bp
br
bra
brac
brad
brada
bradavica
bradavice
brade
bradley
bradu
brady
braga
brain
brak
braka
brakom
brakova
braku
brana
brand
brandenburg
brando
brandon
brandt
brane
brani
branic
branila
branilac
branimir
branio
branislav
branitelja
braniti
branka
branko
brankovic
bras
brasch
brasil
brassica
brat
brata
brate
bratic
bratislava
bratom
bratstva
bratstvo
bratu
bratunac
braun
braunschweig
bravo
brazda
brazde
brazil
brazila
brazilska
brazilski
brazilu
brc
brca
brda
brdima
brdo
brdska
brdske
brdsko
brdu
break
breaking
breaks
breast
breg
bregovic
brejk
brembo
bremen
brenda
brennan
bres
brest
brestovac
brett
brez
breza
brezje
breznica
brezovica
brian
bridge
brief
brien
briga
brigada
brigade
brigadi
brigadu
brige
briggs
bright
brigu
brijeg
brijega
brijegu
brill
brine
brinu
brinuti
bris
bristol
britain
britanaca
britanci
britanija
britanije
britaniji
britaniju
britannica
britanska
britanske
britanski
britanskih
britanskim
britansko
britanskog
britanskoj
britanskom
britansku
british
britton
briz
brkic
broad
broadcast
broadcasting
broadway
broc
brock
brod
broda
brodogradilis
brodom
brodova
brodove
brodovi
brodovima
brodski
brodsko
brodu
broj
broja
brojala
brojc
broje
brojem
brojeva
brojeve
brojevi
brojevima
broji
brojna
brojne
brojni
brojnih
brojnim
brojnost
brojnosti
broju
broken
brom
bromus
bronc
bronce
bronza
bronzana
bronzane
bronzano
bronzanog
bronzanu
bronze
brooklyn
brooks
bros
brother
brothers
brown
browning
browser
browseru
broz
broza
brs
bru
bruce
brugada
brugge
brunner
bruno
brus
bruto
bruxelles
bruxellesu
bruyns
bryan
bryant
brz
brza
brze
brzi
brzih
brzim
brzina
brzinama
brzine
brzini
brzinom
brzinu
brzo
brzog
brzom
brzu
brđani
bs
bsd
bt
bu
buba
bubanj
bubnjar
bubnjara
bubnjevi
bubreg
bubrega
bubrege
bubrez
bubrezi
bubrezima
buc
buchanan
buck
bucures
budala
budapest
bude
budem
budemo
budes
budete
budi
budimpes
budistic
budite
budizam
budu
buduc
budva
budz
buenos
buffalo
bug
bugara
bugari
bugarska
bugarske
bugarski
bugarskog
bugarskoj
bugarskom
bugarsku
bugojno
bugojnu
buha
buhari
build
building
buje
buka
bukic
bukovac
bukovica
bukures
bukva
bulgaria
bulgarian
bull
bulletin
bun
buna
bunar
bunara
bundesliga
bundeslige
bundesligi
bune
burden
bureau
burgess
burgundije
burke
burkill
burkina
burn
burns
burri
burton
burz
bus
bush
business
busovac
busuladz
but
buta
butch
butler
buybook
buz
buzet
buzeta
bv
bw
bxc
by
byng
byrne
byron
byzantine
byzantium
c
ca
cable
cad
caenorhabditis
caf
cafonline
cah
cai
calcio
calcium
calendar
california
call
called
callispa
callosum
calvin
cam
cambridge
cambridgeu
camera
cameron
camille
camp
campaign
campanula
campbell
camus
can
canada
canadian
cancellariae
cancer
cancers
candidate
cannes
cantrell
cao
cap
capablanca
cape
capital
capping
captain
car
cara
carbohydrate
carbon
carcinogenesis
carcinoma
card
cardiac
cardiff
cardiology
cardiomyopathy
cardiovascular
care
career
carem
careva
careve
carevi
carey
carica
carice
carigrad
carigrada
carigradski
carigradu
carina
carine
carl
carla
carlo
carlos
carlsen
carlson
carnitine
carol
carolina
caroline
carpenter
carr
carrie
carrier
carroll
carska
carske
carski
carskih
carskog
carskoj
carskom
carsku
carstava
carstva
carstvo
carstvom
carstvu
carter
cartilage
caru
caruana
cas
casablanca
casanova
case
cases
casey
cash
caspase
cassida
cassidy
cast
castle
castro
cat
catalog
catalogue
catalogues
catalytic
catenin
catherine
catholic
cause
caused
causes
causing
cav
cavalier
cavalli
cazin
cazina
cazinu
cb
cbc
cbs
cc
cca
ccdc
ccds
ccl
ccm
ccr
cct
cd
cdc
cdk
cdna
cdnas
cdnk
cdot
cdots
cds
ce
ceca
cecil
celje
celju
cell
cells
cellular
celta
celtic
celuloza
celuloze
cementa
cen
census
centar
centara
center
centers
centimetara
centra
central
centralna
centralne
centralni
centralnih
centralnim
centralno
centralnog
centralnoj
centralnom
centralnu
centre
centri
centrima
centrom
centromere
centru
centuries
centurion
century
ceo
cep
cephaloleia
cerebral
ceremonija
ceremonije
ceremoniji
ceres
cerevisiae
ceric
cerij
cerknica
cest
cesta
cestama
ceste
cesti
cestom
cestu
cet
cetingrad
cetinje
cezar
cezara
cezij
cf
cfrac
cg
cgi
ch
cha
chad
chain
chains
chalepus
challenge
challenger
challenges
chamberlain
champion
champions
championship
championships
chan
chandler
chang
change
changes
changing
channel
channels
chao
chaperonin
chaplin
chapman
chapter
chapterurl
chapuis
character
characterisation
characteristics
characterization
characters
charcot
charidotella
charidotis
charity
charles
charlesa
charlie
charlotte
charlton
chart
charts
chase
chat
che
checklist
chelsea
chem
chemical
chemie
chemischen
chemistry
chemokine
chen
cheng
chenopodium
cherry
chess
chessgames
chi
chicago
chicagu
chief
child
childhood
children
chile
chin
china
chinese
chip
chlamydomonas
chloroplast
cho
choi
choice
cholesterol
chou
chr
chris
chrisa
christ
christenhusz
christensen
christian
christiana
christie
christina
christine
christmas
christoph
christopher
chromatin
chromosomal
chromosome
chromosomes
chronic
chronicle
chronology
chu
chuck
chung
church
churchill
ci
cia
ciceron
cid
cigareta
cigle
cijela
cijele
cijeli
cijelih
cijelim
cijelo
cijelog
cijeloj
cijelom
cijelosti
cijelu
cijena
cijene
cijeni
cijenjen
cijenu
cijepa
cijepanja
cijepanje
cijev
cijevi
cik
ciklic
ciklus
ciklusa
ciklusu
cilija
cilindar
cilindara
cilindra
cilindric
cilj
cilja
ciljaju
ciljane
ciljanje
ciljem
ciljeva
ciljeve
ciljevi
ciljevima
ciljne
ciljnih
cilju
cima
cin
cincari
cinema
cink
cinka
cinkovih
cinkovog
cinturato
cio
cipele
circ
circuit
circulation
cirkulacije
cirkulaciji
cirkulaciju
cirkus
cis
cisplatin
cista
ciste
cistein
cisteina
citat
cite
citerefmus
citeseerx
cities
citira
citiranja
citogenetic
citohrom
citohroma
citokina
citoplazmatski
citoplazme
citoplazmi
citoplazmu
citoskeleta
citosolu
citotoksic
citozin
citrus
city
cityja
cityju
ciudad
civil
civila
civile
civili
civilizacija
civilizacije
civilization
civilna
civilne
civilni
civilnih
civilnim
civilno
civilnog
cj
cjelina
cjeline
cjelini
cjelinu
cjelokupna
cjelokupne
cjelokupni
cjelokupno
cjelokupnog
cjelokupnoj
cjelokupnu
cjevc
ck
cken
cker
cl
claims
claire
clanak
clara
clark
clarke
class
classic
classical
classics
classification
claude
claudia
claudio
clayton
cle
cleavage
clematis
cleveland
cliff
clifford
climate
clin
clinic
clinical
clinics
clinton
clio
clive
clock
clones
cloning
close
cloud
club
cluster
clusters
cm
cn
cnet
cnn
cns
co
coa
coach
coactivator
coast
coauthors
cobiss
coca
cochrane
code
codes
codex
coding
coenzyme
cognitive
cohen
cohn
coil
coiled
col
cold
cole
coleman
coli
colin
collagen
collection
college
collins
colon
color
colorado
colorectal
columbia
com
combat
combined
combretum
come
comedy
comes
coming
command
commission
committee
common
commons
commonsu
commonwealth
commonwealtha
commun
communication
communications
communities
community
comp
companion
company
comparative
comparison
compendium
competition
complete
complex
complexes
complications
component
components
composition
compound
compounds
comprehensive
compton
computational
computer
computers
computing
con
concacaf
concept
concepts
concert
concise
condita
conditional
conditions
conference
confirmed
confirms
conflict
cong
congenital
congress
conmebol
connecticut
connection
connell
connor
conquest
conrad
cons
consensus
consequences
conservation
conserved
consortium
constant
constellation
constitution
constitutional
construction
consuls
contact
containing
contains
conte
contemporary
content
contest
context
continental
contributes
contribution
contributions
control
controlled
controls
convention
conversion
cooh
cook
cool
cooper
cooperation
cop
copa
copeland
copenhagen
copper
coppola
copy
copyright
cord
core
corelli
corneal
cornelius
cornell
coronary
coronavirus
corporation
corpus
corrected
correlation
cortex
corwin
cos
cosh
costa
cot
could
council
counter
countries
country
county
coupled
course
court
cov
cover
covid
cox
cp
cpg
cpt
cpu
cr
craig
crane
crataegus
crawford
crazy
crc
cre
creatine
creation
creative
creb
creek
crepis
cres
cretaceous
crick
crijeva
crijevima
crijevo
crijevu
crikvenica
crime
crimes
criminal
crisis
cristiano
critical
critics
crkava
crkva
crkvama
crkve
crkvena
crkvene
crkveni
crkvenih
crkvenim
crkveno
crkvenog
crkvi
crkvina
crkvom
crkvu
crna
crnac
crnaca
crne
crni
crnih
crnim
crno
crnog
crnogorac
crnogorci
crnogorska
crnogorske
crnogorski
crnogorskog
crnoj
crnojevic
crnom
crnu
croatia
croatian
cronquist
cross
crown
crp
crta
crtac
crte
crtez
cruz
crv
crva
crven
crvena
crvene
crveni
crvenih
crvenim
crveno
crvenog
crvenoj
crvenom
crvenu
crvi
cry
cryptocephalus
crystal
cs
csc
csi
cska
csv
ct
cu
cub
cuddy
cui
culham
cultural
culture
cultures
cum
cummings
cunningham
cup
cupa
cupu
cure
curie
curlie
curling
curr
current
curry
curtis
cut
cv
cvasti
cvetkovic
cvijec
cvijet
cvijeta
cvjeta
cvjetanja
cvjetanje
cvjetnica
cvjetnice
cvjetova
cvjetove
cvjetovi
cvjetovima
cvrc
cw
cx
cxcl
cxcr
cxd
cxorf
cy
cycas
cycle
cyclin
cyp
cyr
cyril
cys
cysteine
cystic
cytochrome
cytogenet
cytogenetic
cytogenetics
cytokine
cytoplasmic
cytoskeletal
cytoskeleton
cytosolic
cz
czech
d
da
dabar
dabis
dac
dactylispa
dade
dadne
dado
dados
dag
dah
daha
dahlgren
dai
daily
daj
daje
dajem
dajemo
dajte
daju
dajuc
dakle
dala
dale
daleka
daleki
daleko
dalekog
dalekom
dali
dalj
dalja
dalje
daljeg
daljem
dalji
daljim
daljine
daljinu
daljnja
daljnje
daljnjeg
daljnji
dallas
dalmacija
dalmacije
dalmaciji
dalmaciju
dalmati
dalmatinska
dalmatinske
dalmatinskoj
dalo
dalton
dam
dama
damage
damask
damaska
damasku
dame
damin
damir
damon
damu
dan
dana
danak
danas
dance
danci
dancing
dane
dani
danica
daniel
daniela
daniels
danih
danijel
danilo
danima
danju
danny
dano
danog
danom
dans
danska
danske
danski
danskog
danskoj
danskom
dansku
dante
danu
dao
dar
dara
dare
darija
darije
dario
dark
darkness
darko
darovao
darove
daruvar
darwin
das
dat
data
database
date
dates
dati
datih
datira
datiraju
datiranje
dativ
dato
datog
datoj
datom
datoteka
datoteke
datu
datum
datuma
datumi
datura
davala
davali
davanja
davanje
davao
davati
dave
david
davida
davidovic
davidson
davies
davis
davnina
davno
davor
davorin
davud
davuda
davudu
dawn
dawson
day
days
daz
db
dc
dd
ddr
ddx
de
deacetylase
deacon
dead
deadline
deafness
deal
deaminase
dean
death
debate
debeli
debelim
debelo
debelog
debelom
debi
debitantski
debitirao
debitovao
debljina
debljine
deborah
dec
decay
decembar
december
decembra
decembru
decenija
decenijama
decenije
deceniji
decision
decock
dede
dedic
deep
defect
defective
defects
defekt
defekti
defence
defense
deficiency
deficient
deficit
definicija
definicije
definiciji
definiciju
definira
definiraju
definiran
definirana
definirane
definirani
definirano
definirao
definirati
definis
definisan
definisana
definisane
definisano
definisati
definition
definitivno
deformacija
deformacije
degeneration
degradacije
degradation
dehidrataza
dehidrogenaza
dehidrogenaze
dehydrogenase
dei
dejan
dejean
dejstva
dejstvo
dejtonskog
dekan
dekarboksilaza
deklaracija
deklaracije
deklaraciju
deklinacija
dekoracije
del
dela
delaware
delecija
delecije
delecijom
delegacija
delegacije
delegata
delegati
deletion
delfin
delhi
delic
delisle
delivery
dell
della
delnica
delnice
delo
delta
delte
delti
dem
dementia
demo
democracy
democratic
demokrata
demokrati
demokratija
demokratije
demokratiju
demokratska
demokratske
demokratski
demokratskih
demokratskim
demokratskog
demokratskoj
demokratskom
demokratsku
demon
demona
demonstracija
demonstracije
den
dendritic
dendritske
deng
denis
denmark
dennis
density
denver
deo
departman
departmana
department
dependent
deportacija
deportacije
deportivo
depresija
depresije
depresiju
depression
der
derbi
derby
derek
deri
derivat
derivata
derivati
derived
dermatol
dermatology
derventa
dervente
derventi
dervis
des
desanka
description
desert
deset
desetak
deseti
desetina
desetine
desetljec
desetogodis
desi
design
desila
desilo
desinic
desio
desiti
desktop
desna
desne
desni
desnic
desno
desnog
desnoj
desnom
desnu
despot
despota
destinacija
destiny
det
detailed
details
detalj
detalja
detaljan
detalje
detalji
detaljima
detaljne
detaljnije
detaljno
detection
detekciju
detektiv
detektiva
determination
detroit
deutsch
deutsche
deutschen
deutscher
deutschland
dev
deve
devedeset
devedesetih
developing
development
developmental
devet
deveta
devete
deveti
devices
devil
dez
df
dfb
dfl
dg
dh
dha
dhea
di
diabetes
diagnosis
diagnostic
diagram
diamond
diana
diane
dias
dic
dicer
dick
dickinson
dickson
dicladispa
dicti
dictionary
dicto
dictum
dictus
did
didz
die
diego
diels
dies
diesel
diet
dietary
dieter
dietrich
diferencijacija
diferencijacije
diferencijaciji
diferencijaciju
diferencijalna
diferenciraju
differences
different
differential
differentially
differentiation
difosfat
difuzije
digao
digimon
digital
digitalna
digitalne
digitalni
digitalnih
digos
dijabetes
dijabetesa
dijagnostic
dijagnosticira
dijagnosticiran
dijagnosticirati
dijagnoza
dijagnoze
dijagnozi
dijagnozu
dijagram
dijagramu
dijalekata
dijalekt
dijalog
dijaloga
dijamant
dijamantne
dijela
dijele
dijeli
dijelili
dijelio
dijeliti
dijeljenja
dijeljenje
dijeljenjem
dijelom
dijelova
dijelove
dijelovi
dijelovima
dijelu
dijete
diktator
diktature
diljem
dim
dima
dimensional
dimenzija
dimenzijama
dimenzije
dimer
dimiti
dimitrija
dimitrije
dimitrijevic
din
dina
dinama
dinamic
dinamika
dinamike
dinamiku
dinamo
dinar
dinara
dinarida
dinastic
dinastija
dinastije
dinastiji
dinastiju
dine
ding
dini
dinic
dino
dinska
dinu
dio
dioba
diobe
diobu
dioklecijan
dioksid
dioksida
dioksigenaza
dion
dionic
dionica
dionice
dioscorea
diplomat
diplomata
diplomatske
diplomatski
diplomatskih
diplomatskim
diplomirala
diplomirao
diplomu
dire
direct
directed
directly
director
directory
direktan
direktna
direktne
direktni
direktnim
direktno
direktnog
direktnom
direktnu
direktor
direktora
dirigent
dirk
dis
disability
disanja
disanje
disc
disciplina
disciplinama
discipline
disciplini
disciplinu
discogs
discovered
discovery
discus
discussion
disease
diseases
disertacija
disertaciju
disfunkcija
disfunkcije
disk
diska
diskografija
diskografske
diskoton
diskovi
diskriminacije
disku
diskusije
diskvalificiran
disney
disocijacije
disorder
disorders
display
displaystyle
displazija
distalni
distance
distinct
distribucija
distribucije
distribuciji
distribuciju
distribution
district
distrikt
distrikta
distriktu
distrofija
distrofije
div
diva
divac
divan
divergencije
diversa
diverse
diversification
diversity
divic
divisio
division
divizija
divizije
diviziji
diviziju
divlja
divljac
divlje
divljeg
divlji
divljih
divljim
divljini
divove
divovi
dixon
diz
dizajn
dizajna
dizajner
dizajniran
dizajnirana
dizajnirani
dizajnirao
dizajnu
dizdar
dizdarevic
dizel
dj
djec
djeca
djece
djeci
djecom
djecu
djed
djeda
djela
djelatnost
djelatnosti
djelic
djelima
djelimic
djeljiv
djelo
djelom
djelomic
djelovala
djelovali
djelovanja
djelovanje
djelovanjem
djelovanju
djelovao
djelovati
djelu
djeluje
djeluju
djelujuc
djeteta
djetetom
djetetu
djetinjstva
djetinjstvo
djetinjstvu
djevic
djevica
djevice
djevojac
djevojaka
djevojc
djevojka
djevojke
djevojkom
djevojku
djibouti
djokovic
dk
dl
dlac
dlaka
dlakavost
dlake
dlaku
dm
dmitrij
dn
dna
dnares
dnevna
dnevne
dnevni
dnevnih
dnevnik
dnevnika
dnevniku
dnevnim
dnevno
dnevnog
dnevnom
dnf
dnk
dno
dns
dnu
do
dob
doba
dobar
dobara
dobi
dobija
dobijaju
dobijali
dobijamo
dobijanja
dobijanje
dobijao
dobije
dobijen
dobijena
dobijene
dobijeni
dobijenih
dobiju
dobila
dobile
dobili
dobilo
dobio
dobit
dobitak
dobiti
dobitnica
dobitnici
dobitnik
dobitnika
dobiva
dobivaju
dobivs
doboj
doboja
dobojskog
doboju
dobra
dobrava
dobre
dobretic
dobri
dobrih
dobrim
dobrima
dobro
dobrobit
dobroc
dobrodos
dobrog
dobroj
dobrom
dobrova
dobrovoljac
dobrovoljaca
dobrovoljno
dobru
dobu
doc
docenta
docs
doctor
document
documentary
documents
doda
dodaci
dodaje
dodaju
dodajuc
dodan
dodana
dodao
dodatak
dodataka
dodati
dodatkom
dodatna
dodatne
dodatni
dodatnih
dodatnim
dodatno
dodatnog
dodatnom
dodatnu
dodavanja
dodavanje
dodavanjem
dodijeli
dodijelili
dodijelio
dodijeliti
dodijeljen
dodijeljena
dodijeljene
dodijeljeno
dodik
dodir
dodira
dodirne
dodiru
dodiruje
dodjela
dodjele
dodjeli
dodjeljuje
dodjeljuju
dodjelu
dodus
does
dog
događa
događaj
događaja
događaje
događaji
događajima
događaju
događanja
dogodi
dogodila
dogodilo
dogodio
dogoditi
dogovor
dogovora
dogovoreno
dogovorili
dogovoru
dogs
doherty
dohodak
dohotka
doi
doigravanja
doigravanje
doigravanju
doista
dojam
dojenc
dojke
dok
dokaz
dokaza
dokazana
dokazano
dokazao
dokazati
dokaze
dokazi
dokazima
dokazuje
dokazuju
dokle
doktor
doktora
doktorat
doktorirao
doktorsku
doktrina
doktrine
dokumenata
dokument
dokumenta
dokumentacija
dokumentacije
dokumentarac
dokumentarni
dokumente
dokumenti
dokumentima
dokumentu
dol
dolac
dolar
dolara
dolaska
dolaskom
dolasku
dolazak
dolaze
dolazec
dolazi
dolazila
dolazili
dolazilo
dolazim
dolazio
dolaziti
dole
dolenja
dolenje
dolina
dolinama
doline
dolini
dolinom
dolinu
dolje
dolores
dom
doma
domac
domain
domains
domen
domena
domene
domeni
domenico
domenima
domenom
domenu
domestic
domet
dometa
dominacija
dominacije
dominaciju
dominant
dominantan
dominantna
dominantne
dominantni
dominantno
dominantnog
dominantnom
domingo
domini
dominic
dominique
dominira
dominiraju
dominirala
dominirali
domino
domorodac
domova
domovina
domovine
domovini
domovinu
domu
domz
don
donald
done
donekle
dones
donese
donesen
donesena
dong
donijela
donijeli
donijelo
donijeti
donio
donja
donje
donjeck
donjeg
donjem
donji
donjih
donjim
donjoj
donju
donna
donor
donora
donos
donose
donosi
donositi
doo
doors
dopamin
dopamina
dopamine
doping
dopisnog
doprinijela
doprinijeli
doprinijelo
doprinijeti
doprinio
doprinos
doprinosa
doprinose
doprinosi
dopunite
dopuniti
dopus
dopusti
dopustio
dopustiti
dora
doris
dorothy
dortmund
doruc
dos
dosad
dosada
dosadas
dose
dosec
dosegao
dosegla
dosegne
dosegnuti
doselili
doseljenici
doseljenika
dosez
dosljedno
doslovno
dospio
dospjeli
dosta
dostaje
dostic
dostigao
dostigla
dostigne
dostignuc
dostiz
dostojan
dostojanstva
dostojanstvo
dostupan
dostupna
dostupne
dostupni
dostupnih
dostupnim
dostupno
dostupnost
dostupnosti
dot
dotad
dotada
dotadas
dotic
dotle
dotok
dots
double
doug
douglas
dovede
doveden
dovedena
dovedeni
dovedu
dovela
dovele
doveli
dovelo
doveo
dover
dovesti
dovode
dovodec
dovodi
dovoljan
dovoljna
dovoljne
dovoljno
dovrs
down
download
doyle
doz
doza
dozama
doze
dozu
dozvola
dozvole
dozvoli
dozvolio
dozvoliti
dozvoljava
dozvoljavaju
dozvoljena
dozvoljeno
dozvolu
dođe
dođi
dođite
dođos
dođu
dp
dq
dr
dra
drac
draft
draftu
drag
draga
dragan
dragana
draganic
drage
dragi
dragic
dragis
drago
dragojevic
dragoljub
dragon
dragutin
drake
dral
drama
dramatic
drame
drami
dramska
dramske
dramski
dramskih
dramu
dras
drastic
dravi
dravograd
draw
draz
drb
dream
dreams
dres
dresden
dresu
drevna
drevne
drevni
drevnih
drevnim
drevnog
drevnoj
drew
drez
drift
drina
drine
drini
drinskog
drinu
drive
driven
driver
drnis
droga
droge
drosophila
drs
drug
druga
drugac
drugdje
druge
drugi
drugih
drugim
drugima
drugo
drugog
drugoga
drugoj
drugom
drugome
drugoplasirana
drugoplasirane
drugoplasirani
drugovi
drugs
drugu
drukc
drus
druz
drva
drvar
drvec
drvena
drvene
drveni
drvenih
drvenim
drvenom
drveta
drvetu
drvo
dry
drz
ds
dsq
dss
dt
du
dual
duan
dub
dubai
dubaiju
dubica
dubina
dubinama
dubine
dubini
dubinu
dublin
dublinu
dublje
duboc
dubok
duboka
duboke
duboki
dubokim
duboko
dubokog
dubokom
duboku
dubrava
dubrave
dubravka
dubravko
dubrovac
dubrovc
dubrovnik
dubrovnika
dubrovniku
duc
ductus
dudley
due
duet
duf
dug
duga
dugac
duge
dugi
dugih
dugim
dugme
dugmeta
dugo
dugog
dugogodis
dugoj
dugolanc
dugom
dugometraz
dugoroc
dugotrajna
dugotrajne
dugotrajno
dugotrajnog
dugova
dugovjec
dugu
duguje
duh
duha
duhan
duhana
duhom
duhova
duhovi
duhovna
duhovne
duhovni
duhovno
duhovnog
duhu
dukata
duke
dule
dumbledore
dunav
dunava
dunavu
duncan
dunham
dunlop
dunn
duo
duplication
duplikacija
duplikacije
duplo
durakovic
during
duru
dus
dutch
dux
duz
dv
dva
dvadeset
dvadesetak
dvadesetog
dvaju
dvanaest
dvaput
dvd
dve
dvije
dviju
dvjema
dvoboj
dvoboja
dvogodis
dvojako
dvoje
dvojezic
dvojica
dvojice
dvojici
dvojicu
dvolanc
dvonoz
dvor
dvora
dvorac
dvorana
dvorane
dvorani
dvoranu
dvorca
dvorcu
dvoris
dvorski
dvoru
dvostruka
dvostruke
dvostruki
dvostrukih
dvostrukim
dvostruko
dvostrukog
dvostrukom
dvostruku
dw
dx
dxc
dxd
dxe
dxf
dy
dyer
dylan
dynamic
dynamics
dysfunction
dysplasia
dystrophy
dz
e
ea
each
ear
earl
earliest
early
earnshaw
earth
earthquake
east
eastern
easy
eb
eberhard
ebert
ebi
ebu
ec
eci
ecima
eclipse
ecm
eco
ecological
ecology
economic
economics
economist
economy
ed
edaj
eddie
edem
eden
edgar
edge
edhem
edin
edinburgh
edirne
edison
edited
edith
editing
edition
editions
editor
editorial
editors
edmund
ednrb
edo
edom
edouard
eds
edta
edu
eduard
eduarda
eduardo
education
educational
edvard
edvarda
edward
edwarda
edwards
edwin
ee
ef
efa
efekat
efekata
efekt
efekta
efekte
efekti
efektima
efektivno
efendija
effect
effective
effector
effects
efficacy
effort
efik
efikasan
efikasna
efikasni
efikasnije
efikasno
efikasnost
efikasnosti
efraim
eg
ega
egf
egfr
egipat
egipatska
egipatske
egipatski
egipatskih
egipatskog
egipatskoj
egipatskom
egipc
egipta
egiptom
egiptu
ego
egodis
egrad
egradu
egypt
egyptian
egzilu
egzistencije
egzon
egzona
egzotic
eh
eha
ehennem
ehf
ehic
ehir
ehlers
ehoslovac
ei
eichler
eif
eight
ein
eindhoven
eine
einer
einstein
ej
eje
ejh
ejha
ejhg
ejtan
ek
eka
ekaj
ekaju
ekajuc
ekala
ekali
ekao
ekati
ekg
ekic
ekipa
ekipe
ekipi
ekipnim
ekipom
ekipu
ekivali
ekivalo
ekivana
ekivane
ekivani
ekivanja
ekivanju
ekivano
ekivanog
ekivao
ekivati
eko
ekologija
ekologije
ekologiju
ekolos
ekonomic
ekonomija
ekonomije
ekonomiji
ekonomiju
ekonomista
ekonomska
ekonomske
ekonomski
ekonomskih
ekonomskim
ekonomsko
ekonomskog
ekonomskoj
ekonomskom
ekonomsku
ekosistema
ekovic
ekran
ekrana
ekranu
ekrem
ekscentric
ekspanzija
ekspanzije
ekspanziju
ekspedicija
ekspedicije
ekspediciji
ekspediciju
eksperimenata
eksperiment
eksperimenta
eksperimentalne
eksperimentalni
eksperimentalnim
eksperimentalno
eksperimente
eksperimenti
eksperimentima
eksplicitna
eksplicitno
eksploatacija
eksploatacije
eksploataciju
eksplozija
eksplozije
eksploziva
eksplozivno
ekspresija
ekspresije
ekspresiji
ekspresijom
ekspresiju
eksprimira
eksprimiraju
eksprimiran
eksprimirani
ekstremiteta
ekstremnim
ekstremno
ekuje
ekuju
ekujuc
ekvador
ekvatora
ekvivalent
ekvivalentno
el
ela
elaine
elastic
ele
eleanor
elebic
elebija
elec
election
electric
electron
electronic
electronics
elegans
elektrana
elektrane
elektric
elektro
elektroda
elektrode
elektrolita
elektromagnetnog
elektron
elektrona
elektrone
elektroni
elektronic
elektronika
elektronska
elektronske
elektronski
elektronskih
elektronskim
elektronskog
elektroprivreda
elektrotehnic
elektrotehnike
elemenat
elemenata
element
elementa
elementarne
elementarni
elementarnih
elementarnog
elementary
elemente
elementi
elementima
elements
elementu
elena
eleonora
eli
elias
elic
elif
elija
elijama
elije
eliji
elijska
elijske
elijski
elijskih
elijskim
elijsko
elijskog
elijskoj
elijskom
elijsku
eliju
elik
elika
elim
elima
eliminacije
elimo
elinac
elio
eliptic
elis
elisa
elisabeth
elisma
elita
elite
elizabeta
elizabete
elizabeth
elizabetu
elize
elj
elja
eljama
elje
eljela
eljeli
eljene
eljeni
eljenih
eljeza
eljezna
eljezne
eljezni
eljeznic
eljeznica
eljeznice
eljezno
eljeznog
eljeznom
eljezo
elji
eljka
eljko
eljne
eljno
eljom
elju
eljusti
ell
elle
ellen
elliott
ellis
elnici
elnik
elnika
elo
elsa
elsevier
elu
eluc
eluca
elucu
eludac
elvis
em
ema
email
emal
emanuel
emat
emberk
embo
emboj
embriogeneze
embrion
embriona
embrionskog
embryo
embryology
embryonic
eme
emedicine
emend
emergency
emerging
emerson
emi
emil
emily
emina
emir
emira
emirat
emirata
emirates
emirati
emisija
emisijama
emisije
emisiji
emisijska
emisiju
emitira
emitiraju
emitirana
emitiranja
emitiranje
emitiranjem
emitovanje
emituje
emma
emmanuel
emmy
emo
emocija
emocije
empire
ems
emu
en
ena
enama
enciklopedija
enciklopedije
enciklopediji
encoded
encodes
encoding
encyclopaedia
encyclopedia
encyclopædia
end
endem
endemi
endemic
endl
endo
endocrine
endocrinol
endocrinology
endogeni
endogenous
endometrija
endoplasmic
endoplazmatski
endoplazmatskog
endoplazmatskom
endotela
endotelne
endotelnih
endothelial
ends
ene
energetska
energetske
energetski
energetskih
energic
energija
energije
energiji
energijom
energiju
energy
enes
enevi
eng
engel
engelm
engels
engic
engine
engineering
engineers
engl
england
engleska
engleske
engleski
engleskih
engleskim
englesko
engleskog
engleskoj
engleskom
englesku
engleza
englezi
english
enhanced
enhances
eni
enic
enica
enice
enici
enicima
enicu
enih
enija
enije
eniji
enijih
enik
enika
enike
eniku
enim
enio
enis
eniti
enito
enja
enjaci
enjak
enjaka
enje
enjem
enjen
enjer
enjera
enjeri
enjerstva
enjerstvo
enjima
enju
enka
enke
enki
enko
ennet
eno
enog
enoj
enom
enos
enost
enosti
enriched
enrique
ensembl
ensg
enska
enske
enski
enskih
enskim
ensko
enskog
enskoj
enskom
ensku
ensmusg
enstva
enstvo
entdeckung
enterprise
entertainment
entitet
entiteta
entjernej
entjur
entrez
entries
entrupert
entry
enu
envelope
enver
environment
environmental
enzim
enzima
enzime
enzimi
enzimima
enzimom
enzimske
enzimski
enzymatic
enzyme
enzymes
eo
ep
epa
epc
ephedra
epi
epic
epidemija
epidemije
epidemiology
epidermal
epiderme
epigenetic
epigrafika
episode
epistemic
epitel
epitela
epitelne
epitelnih
epitelnim
epitet
epithelial
epithelium
epizoda
epizodama
epizode
epizodi
epizodu
eplasirana
epoha
epohe
eprihvac
epsilon
epstein
epu
equisetum
er
era
eras
erbb
ere
erectus
erg
eri
eric
erica
erich
ericsson
eridan
erif
erigeron
erik
eriksson
erima
eritreja
eritrocita
erk
erka
erke
erki
erkom
erku
erna
erne
ernest
ernje
ernji
ernst
erom
eros
erozije
error
ers
eru
erupcija
erupcije
erwin
es
esa
esad
esc
escherichia
esej
eseja
eseji
esejist
esencijalni
esi
eskadrila
esma
esme
esnaest
esnici
esnik
esnika
eso
esophageal
espan
espn
essays
essential
essentials
est
esta
estadio
estalost
estalosti
este
esteban
ester
estera
estero
esti
estica
esticama
estice
estih
estim
estimates
esto
estoaprilska
estog
estoj
estoki
estoko
estom
estonija
estonije
estoniji
estonski
estradiol
estradiola
estranac
estrogen
estrogena
estruke
estruki
estrukih
estrukim
estruko
estvovala
estvovale
estvovali
estvovalo
estvovanja
estvovanje
estvovao
estvovati
estvuje
estvuju
et
eta
etak
etaka
etalis
etanol
etanola
etapa
etaz
etc
ete
eteric
ethan
ethernet
ethics
ethnic
eti
etic
etienne
etika
etike
etil
etiopija
etiopije
etiri
etka
etke
etkom
etku
etna
etne
etni
etnic
etnici
etnicima
etnih
etnik
etnika
etnike
etnim
etno
etnog
etnoj
etnom
etnu
eto
etom
etrdeset
etrnaest
ets
ettl
etu
etve
etvero
etverogodis
etvorica
etvrt
etvrta
etvrtak
etvrte
etvrtfinala
etvrtfinale
etvrtfinalu
etvrti
etvrtina
etvrtine
etvrto
etvrtog
etvrtoj
etvrtom
etvrtu
etymology
eu
eufrat
eufrata
euge
eugen
eugene
eukariota
eukarioti
eukariotima
eukariotske
eukariotskih
eukariotskim
eukaryotes
eukaryotic
euklidsku
euler
euphorbia
eur
eura
euro
eurobasket
europa
europe
european
europi
europske
eurosong
eurosonga
eurosongu
eurosport
eurovision
eurovizije
ev
eva
evac
evaca
evad
evaluation
evan
evans
evanđelja
evanđelje
evc
evci
eve
evec
even
evening
event
events
eventualno
ever
everest
everesta
everton
every
everything
evi
evic
evica
evice
evidence
evidenciju
evih
evil
evim
evima
evina
evinama
evine
evinu
evje
evlija
evljakovic
evna
evne
evni
evnica
evnih
evnik
evnika
evnim
evno
evnog
evnoj
evnom
evnost
evnosti
evnu
evo
evog
evoj
evol
evolucija
evolucije
evoluciji
evolucijska
evolucijske
evolucijski
evoluciju
evoluirala
evoluirale
evoluirali
evoluirao
evolution
evolutionarily
evolutionary
evom
evropa
evrope
evropi
evropljana
evropljani
evropom
evropska
evropske
evropski
evropskih
evropskim
evropsko
evropskog
evropskoj
evropskom
evropsku
evropu
evs
evski
evu
ew
ewing
ex
example
exchange
exclusive
exd
executive
exercise
exon
exp
expansion
expasy
experience
experimental
expert
exploration
explorer
exploring
export
exposure
express
expressed
expression
extended
extracellular
extragalactic
extreme
eye
eyes
ez
ezav
ezdeset
ezdesetih
ezekias
f
fa
fabaceae
fabrici
fabricius
fabrika
fabrike
face
facebook
facilitate
fact
factbook
facto
factor
factors
facts
fad
fadil
fagerstr
fahrudin
failure
fair
faith
faktic
faktor
faktora
faktore
faktori
faktorima
faktorom
fakultet
fakulteta
fakultetu
fala
fall
false
fam
fame
familial
families
familija
familije
family
famous
fan
fang
fans
fantastic
fantastike
fantasy
fao
fap
faq
far
faraon
faraona
faraonu
farma
farmakolos
farmer
farmi
farska
faruk
fas
fasada
fasade
fascija
fascism
faseb
faso
fast
fat
fate
father
fatigue
fatima
fatty
fauna
faune
faza
fazama
faze
fazi
fazu
fbi
fbih
fbihvlada
fc
fd
fda
fe
fear
feat
feature
features
feb
februar
februara
februaru
february
febs
febslet
federacija
federacije
federaciji
federaciju
federal
federalna
federalne
federalni
federalnih
federalno
federalnog
federation
federativna
federativne
federer
federera
federico
feed
feeding
feingold
felipe
felix
female
fenerbahc
feng
fenic
feniks
feniksa
fenilalanin
fenilalanina
fenomen
fenomena
fenomeni
fenotip
fenotipa
fenotipova
fenotipski
fer
ferdinand
ferdinanda
ferenc
ferguson
ferhad
ferhadija
ferna
fernandez
fernando
ferrari
ferrarija
fertility
fes
fest
festival
festivala
festivalima
festivalu
fetal
fetus
fetusa
fever
feynman
ff
ffa
fg
fgf
fgfr
fh
fi
fia
fiat
fiba
fiber
fibroblast
fibroblasta
fibrosis
fibroza
fiction
fide
fidz
field
fields
fifa
fifth
fight
fighting
figura
figurama
figure
figures
figuru
fikret
fiktivni
fil
filament
file
files
filip
filipa
filipina
filipini
filipinima
filipovic
filistinaca
filistinci
film
filma
filmom
filmova
filmove
filmovi
filmovima
films
filmska
filmske
filmski
filmskih
filmskim
filmskog
filmskoj
filmskom
filmsku
filmu
filogenetic
filogenija
filolog
filologiju
filolos
filozof
filozofa
filozofi
filozofija
filozofije
filozofiji
filozofiju
filozofska
filozofske
filozofski
filozofsko
filozofskog
filozofskom
filter
filtracije
fin
fina
final
finala
finale
finalist
finalna
finalne
finalni
finalnoj
finals
finalu
financial
finansija
finansije
finansijska
finansijske
finansijski
finansijskih
finansijsku
finansira
finansiranja
finansiranje
finci
find
findings
fine
finger
finland
fino
finska
finske
finski
finskoj
finskom
fiorentina
fir
fire
firenci
firma
firme
firmi
firmu
first
firth
fis
fischer
fish
fisher
fitzgerald
fitzpatrick
five
fizic
fizici
fizika
fizike
fiziku
fiziologija
fiziologiju
fiziolos
fj
fk
fkzeljeznicar
fl
flag
flas
flash
flavin
fleksibilnost
fleming
fletcher
flight
flora
flore
florence
flores
florida
floridi
flota
flote
flotu
flow
flowering
flowers
floyd
fluid
fluida
fluor
fluora
fluorid
fly
flynn
fm
fmo
fn
fnr
fnrj
fo
fobos
foc
focal
focke
focus
fojnic
fojnica
fojnici
fokus
fokusira
folding
folija
folikul
folikula
folk
follow
following
fon
fond
fonda
fondacija
fondacije
fonetski
fontaine
fontana
food
fool
foot
football
for
forbes
force
forces
ford
foreign
foreman
forensic
forenzic
forest
forever
form
forma
formacija
formacije
formalna
formalne
formalni
formalno
formama
format
formata
formation
formatu
forme
former
formi
formira
formiraju
formirajuc
formirala
formirale
formirali
formiran
formirana
formirane
formirani
formiranja
formiranje
formiranjem
formiranju
formirano
formirao
formirati
forms
formu
formula
formule
formuli
formulom
formulu
forrest
fort
fortnite
fortuna
fortune
forum
foruma
fosfat
fosfata
fosfataza
fosfataze
fosfatidilinozitol
fosfatne
fosfor
fosfora
fosforilacija
fosforilacije
fosforilaciju
fosil
fosila
fosili
fosilni
fosilnih
fossil
foster
foto
fotograf
fotografija
fotografijama
fotografije
fotografiju
fotona
fotoreceptora
fotosinteze
fotosintezu
foucault
found
foundation
foundations
founder
four
fourth
fowler
fox
foxp
fp
fr
fra
frac
fragaria
fragmenata
fragment
fragmente
fragmenti
frakcija
frakcije
frame
framework
fran
franac
franaka
franc
franca
france
frances
francesco
franch
francis
francisco
franciska
francisku
franck
franco
francuska
francuske
francuski
francuskih
francuskim
francusko
francuskog
francuskoj
francuskom
francusku
francuz
francuza
francuzi
franje
franjevac
franjevaca
franjevci
franjo
frank
franka
frankfurt
frankfurtu
franklin
frankopan
frans
franz
franza
fraser
fraxinus
fraza
fre
fred
freddie
frederic
frederick
frederik
free
freebsd
freedom
freeman
freestyle
frekvencija
frekvencije
frekvenciji
french
frequency
frequently
freska
freske
freud
fridrik
fridrika
friedman
friedrich
friedricha
friend
friends
fritz
friz
from
front
fronta
frontiers
frontu
frost
frozen
fruit
fruktoza
fry
fs
fsh
ft
fu
fuad
fuchs
fudbal
fudbaler
fudbalski
fudbalskog
fuit
fujiwara
fukuda
full
fuller
fulton
fun
function
functional
functions
fund
fundamentals
fungi
funk
funkcija
funkcijama
funkcije
funkciji
funkcijom
funkciju
funkcionalna
funkcionalne
funkcionalni
funkcionalnih
funkcionalno
funkcionalnog
funkcionalnost
funkcionalnu
funkcionira
funkcioniraju
funkcioniranje
funkcionirati
funkcionis
funti
furnir
furnira
further
fus
fusion
futbol
futsal
future
fuzija
fuzije
fuzijom
fuziju
fußball
fv
fw
fzs
g
ga
gaba
gabon
gabor
gabriel
gabriela
gac
gacko
gad
gain
gaj
gaja
gal
gala
galad
galaksija
galaksije
galaksiji
galaktic
galaktoza
galatasaray
galaxies
galaxy
gale
galerija
galerije
galeriji
galeriju
galex
galic
galij
galija
galileo
gallery
galnac
gama
gambit
game
games
gameta
gamete
gameti
gamma
gana
gandhi
gane
ganglija
ganglije
ganglijskih
gao
gap
garaz
garci
garcia
gard
garda
garde
garden
gardens
gardner
gares
garfield
garland
garnitura
garnizon
garnizona
garrett
garros
gary
gas
gasa
gasova
gasovi
gaston
gastric
gastroenterology
gastrointestinal
gastrointestinalnog
gat
gata
gate
gated
gates
gateway
gavran
gay
gaza
gaze
gazette
gazi
gađanja
gađanje
gb
gc
gd
gde
gdi
gdje
gdp
ge
gedeon
gej
gel
gelo
gen
gena
genbank
gender
gene
genealogy
genecards
genera
generacija
generacijama
generacije
generaciji
generaciju
general
generala
generale
generali
generalna
generalne
generalni
generalno
generalnog
generalom
generals
generation
generator
generatora
genereviews
generic
generira
generiraju
generiranje
generis
genes
genesis
genet
genetic
genetici
genetics
genetika
genetike
genetski
genetype
geneva
geni
genima
genitalija
genitalije
genitiv
genius
geno
genocid
genocida
genocide
genocidu
genom
genoma
genomatix
genome
genomes
genomic
genomics
genomske
genomu
genotip
genotipa
genotype
genska
genske
genski
genskih
genskog
gentiana
genu
genus
geo
geodetski
geoffrey
geofizic
geograf
geografija
geografije
geografiji
geografiju
geografska
geografske
geografski
geografskih
geografskim
geografsko
geografskog
geografskoj
geografskom
geographic
geographical
geography
geological
geologija
geology
geolos
geometrija
geometrije
geometriji
geometrijske
geometrijski
geometrijskih
geomorfolos
geopolitic
georg
georga
george
georgea
georges
georgia
georgija
georgije
geq
ger
gerald
gerard
gerber
gerdin
gerhard
germ
germain
german
germanij
germanskih
germany
germplasm
gers
ges
geschichte
gesellschaft
gesta
gestacije
gestro
get
gets
gf
gfr
gg
gh
gha
ghb
ghosh
gi
giant
gibbs
gibraltar
gibraltara
gibson
gif
gil
gilbert
gilgames
gill
gilles
gimnastic
gimnazija
gimnazije
gimnaziji
gimnaziju
gine
ginny
giorgio
giovanni
girl
girls
gitara
gitare
gitari
gitarist
gitarista
gitaru
giuseppe
give
gives
gj
gkj
gl
glad
gladi
gladiolus
glagol
glagola
glamoc
gland
glas
glasa
glasac
glasaju
glasalo
glasanja
glasanje
glasanjem
glasati
glasgow
glasi
glasinac
glasine
glasnik
glasnika
glasniku
glasno
glasom
glasonos
glasova
glasove
glasovi
glass
glasu
glatka
glatke
glatki
glatkih
glaukom
glava
glavama
glave
glavi
glavic
glavica
glavice
glavna
glavne
glavni
glavnih
glavnim
glavnina
glavno
glavnog
glavnoj
glavnom
glavnu
glavobolja
glavobolje
glavom
glavu
gle
glec
gleda
gledaj
gledaju
gledajuc
gledala
gledalaca
gledali
gledalo
gledam
gledanja
gledanje
gledano
gledao
gledatelja
gledati
glede
gledis
glen
glenn
glez
glial
glicerol
glicin
glicina
glikogena
glikoprotein
glikoproteina
glikozilacije
glina
gline
glise
glista
gliste
gljiva
gljivama
gljive
gljivic
gljivica
global
globalna
globalne
globalni
globalno
globalnog
globalnom
globe
globes
globin
globina
globus
globusa
glodara
gloria
glory
glosaru
glossary
glover
glu
glucose
gluhoc
glukoza
glukoze
glukozu
glumac
glumaca
glumca
glumci
glumcima
glume
glumi
glumica
glumice
glumicom
glumicu
glumila
glumio
glumiti
glumu
glupost
gluposti
glus
glutamat
glutamata
glutamate
glutamin
glutaminska
glutation
gly
glycine
glycoprotein
glycosylation
gm
gmbh
gmizavaca
gmizavci
gmo
gn
gnad
gnetum
gnijezda
gnijezdo
gnjev
gnjeva
gnrh
gnu
go
goa
goal
goals
god
goddard
godi
godina
godinama
godine
godini
godinom
godinu
godis
gods
goes
goethe
going
gojaznost
gojko
gol
gola
gold
goldberg
goldblatt
golden
goldman
goldstein
gole
golf
golgi
goli
golim
golman
golmana
golo
golom
golova
golove
golovi
golovima
golub
golubic
gomez
gomila
gomile
gonadotropin
gone
gong
gonza
gonzalez
good
goodman
google
gora
goran
gorana
goranska
goranski
goraz
gorbac
gorc
gordana
gordon
gore
gorenja
gorenje
gorenjska
gori
goric
gorica
goricah
gorice
gorila
gorile
gorilla
goris
goriva
gorivo
gorja
gorje
gorki
gorko
gornja
gornje
gornjeg
gornjem
gornji
gornjih
gornjim
gornjoj
gornju
gorom
gorski
goru
gos
gospa
gospe
gospic
gospod
gospoda
gospodar
gospodara
gospodare
gospodari
gospodarom
gospodaru
gospode
gospodin
gospodina
gospodine
gospodinu
gospodov
gospodova
gospodovo
gospodu
gospođa
gost
goste
gosti
gostiju
gostima
gostujuc
got
gota
gotic
gotovo
gottfried
gottlieb
gould
gov
goveda
govedo
government
governor
govor
govora
govoras
govore
govorec
govori
govorila
govorili
govorilo
govorim
govorimo
govorio
govoris
govorite
govoriti
govornici
govornik
govornika
govornog
govornom
govorom
govoru
gp
gpa
gpcr
gpr
gps
gr
gra
grab
grabez
grabovac
grabovica
grac
grace
grad
grada
gradac
gradas
grade
gradec
gradi
gradic
gradijent
gradijenta
gradili
gradina
gradine
gradis
graditelj
graditeljska
graditeljske
graditi
gradnja
gradnje
gradnji
gradnjom
gradnju
gradom
gradonac
gradova
gradove
gradovi
gradovima
gradska
gradske
gradski
gradskih
gradskim
gradsko
gradskog
gradskoj
gradskom
gradsku
gradu
graf
grafic
grafika
grafike
grafiku
grah
graham
grahovo
gram
grama
gramatic
gramatici
gramatika
gramatike
grammy
gran
grana
granada
granama
granata
granate
granc
grand
grande
grane
granger
granic
granica
granicama
granice
granici
granicom
granicu
grant
granu
granula
granule
graphics
gras
grass
graves
gravitacija
gravitacije
gravity
gray
graz
grazu
građa
građana
građane
građani
građanima
građanin
građanina
građanska
građanske
građanski
građanskih
građanskim
građanskog
građanskom
građe
građen
građena
građene
građeni
građevina
građevinarstvo
građevine
građevinski
građevinskih
građevinskog
građi
građu
grb
grba
grbavica
grbom
grbu
grc
grch
grci
grcima
grcm
great
greatest
greben
grebena
grebenom
grebenu
greda
grede
greece
greek
green
greene
greenwood
greg
gregor
gregorijanskom
gregory
grenland
grenlanda
gres
gressitt
grey
grgur
grgura
gric
grid
griffin
griffith
griffiths
grijanje
grijeh
grijeha
grijehe
grijehova
grijehove
grijes
grimaldi
grimm
grin
gripe
griseb
grissom
griz
grjes
grka
grla
grlic
grlo
grm
grmec
grmova
grmovi
gro
grob
groba
groblja
groblje
groblju
grobnica
grobnice
grobnici
grobnicu
grobova
grobovi
grobovima
grobu
grof
grofa
grofica
grofovija
gros
gross
grosso
grosuplje
ground
group
groups
grouse
grove
growth
groz
groznica
groznice
gru
gruba
grube
grubis
grubo
grude
grudi
grudima
grudne
grudni
grudnog
grupa
grupacija
grupacije
grupama
grupe
grupi
grupirani
grupna
grupne
grupnoj
grupnu
grupom
grupu
grus
gruyter
gruzija
gruzije
gruzijski
gs
gsd
gsk
gt
gtp
gtpase
gtpaza
gu
guan
guanin
guardian
gube
gubi
gubici
gubitak
gubitaka
gubitka
gubitke
gubitkom
gubitku
guc
gudac
gue
guez
gui
guide
guideline
guidelines
guido
guillaume
guillermo
guinea
guinness
guitar
gulf
guma
gume
gun
guns
guo
gupta
gurney
gus
gusta
gustav
gustave
guste
gustim
gustina
gustine
gusto
gustoc
gut
gutenberg
guthrie
guverner
guvernera
guvernorata
guy
guyton
guz
gvajana
gvatemala
gvatemale
gvineja
gvineje
gvineji
gvoz
gw
gwh
gy
gyo
gzm
gđa
h
ha
haagu
haas
habsburg
habsburs
had
hadis
hadisa
hadz
haematology
hafiz
hagen
hagu
hahn
hair
haiti
hajde
hajdemo
hajduc
hajduk
hajduka
hajrudin
hal
hala
halal
hale
half
halid
halida
halifa
halifat
halifata
halife
halil
halilovic
haljine
hall
halo
ham
hamam
hamburg
hamburger
hamburgu
hamdija
hamid
hamilton
hamlet
hammer
hammond
hamza
hamzu
han
hana
hand
handbook
handz
hangul
hanibal
hanks
hannah
hannover
hans
hansen
hanson
hanuma
hao
haplogrupa
haplogrupe
haploidne
happy
haps
hara
harald
haram
harbor
hard
harding
hardver
hardvera
hardy
harem
haremu
hari
haris
harmonika
harold
harper
harris
harrison
harry
harryja
harryju
hart
hartley
hartmann
harun
haruna
harunu
harv
harvard
harvey
harvnb
harwood
has
hasan
hasana
hasandedic
hashimoto
hassan
hat
hattori
hava
havaja
havaji
havajima
havana
have
haven
haveric
hawaii
hawaiian
hawkins
hay
hayashi
hayat
haydn
hayek
hayes
hazard
hazim
hb
hbo
hc
hcg
hcl
hco
hd
hdac
hdl
hdmi
hdz
he
head
headings
health
healthy
hearing
heart
heat
heath
heather
heats
heaven
heavy
hebreji
hebrejski
hebrejskog
hebrejskom
hedgehog
hedonista
hegel
heidelberg
heiligenkreuz
heinemann
heinrich
heinz
heise
hej
hektara
hela
helen
helena
helenistic
helicase
helicobacter
heliconia
helij
helija
helikaza
helikopter
helikoptera
heliks
heliksa
helix
hell
heller
hello
helmut
help
helsinki
helsinkiju
hem
hema
hematology
hematopoietic
hemic
hemija
hemije
hemiji
hemijska
hemijske
hemijski
hemijskih
hemijskim
hemijsko
hemijskog
hemijskoj
hemijskom
hemijsku
hemiju
hemikalija
hemikalije
hemisfera
hemisfere
hemisferi
hemoglobin
hemoglobina
hemoterapija
henderson
hendry
henri
henrik
henrika
henry
henryja
heparan
heparin
hepatic
hepatitis
hepatitisa
hepatocellular
hepburn
her
hera
heraklo
herald
heraldic
herbert
herceg
hercega
hercegovac
hercegovaca
hercegovina
hercegovine
hercegovini
hercegovinom
hercegovinu
herculis
here
hereditary
heritage
herkul
herman
hermann
hermes
hermiona
herna
hernandez
hero
herodot
heroes
heroj
heroja
heroji
herschel
hertha
herzegovina
herzog
hes
hess
hesse
het
heterodimer
heterogeneity
hf
hg
hh
hi
hibiscus
hibridizacija
hibridizacije
hibridni
hidden
hide
hidraulic
hidroelektrana
hidroelektrane
hidrofobni
hidroksi
hidroksid
hidroksida
hidroksilaza
hidroksilaze
hidrolaza
hidrolize
hidrolizira
hidrolizom
hidrolizu
hidrolos
hidz
hif
higgins
high
higher
highly
hiljada
hiljadama
hiljade
hiljadu
hill
hills
hilmo
hilton
him
himalaja
himna
himne
himnu
hindu
hinduistic
hinduizam
hip
hiperplazija
hipertenzija
hipertenzije
hipofize
hipotalamus
hipotalamusa
hipotetic
hipoteza
hipoteze
hipotezu
hirsch
hirurg
hirurgija
hirurs
hirzel
his
histidin
histoire
histology
histolos
histon
histona
histone
historia
historic
historical
historija
historije
historiji
historijom
historijska
historijske
historijski
historijskih
historijskim
historijsko
historijskog
historijskoj
historijskom
historijsku
historiju
history
hit
hitchcock
hitler
hitlera
hitne
hitno
hitova
hitovi
hits
hiv
hivzija
hj
hk
hl
hla
hladna
hladne
hladni
hladnim
hladno
hladnoc
hladnog
hladnom
hlađenja
hlađenje
hler
hljeb
hljeba
hlor
hlora
hlorid
hlorida
hloroplasta
hloroplasti
hlorovodic
hm
hmg
hms
hmsh
hn
hnk
hnl
hns
ho
hoc
hod
hoda
hodati
hodoc
hodz
hoffman
hoffmann
hofmann
hogwarts
hogwartsa
hogwartsu
hokejas
holandija
holandije
holandiji
holandiju
holandska
holandske
holandski
holandskog
hold
holden
holding
holesterol
holesterola
holiday
holland
holleman
holly
hollywood
hollywoodu
holm
holmes
holmesa
holmesu
holocaust
holokaust
holokausta
holokauste
holstein
holt
home
homeostasis
homeostaze
homepage
homer
homo
homolog
homologa
homologije
homologna
homologne
homologni
homolognih
homologous
homologue
homology
homoseksualnost
homozigotni
honda
honduras
honey
hong
honore
hood
hook
hooper
hop
hope
hopkins
hor
hora
horatio
horde
horizontalna
horizontalne
horizontalno
hormon
hormona
hormone
hormones
hormoni
horn
horor
horse
horst
horvat
hos
hospital
host
hot
hotel
hotela
hotelu
hotmail
hotspur
houghton
hour
house
housea
houston
how
howard
howe
howell
hox
hp
hr
hrabar
hrabri
hrabro
hrabrost
hrabrosti
hram
hrama
hramova
hramovi
hramu
hrana
hrane
hrani
hranic
hranjenje
hranjive
hranjivih
hranom
hranu
hras
hrast
hrasta
hrastnik
hrc
hrer
hrib
hris
hrista
hrom
hroma
hromatide
hromatina
hromosom
hromosoma
hromosome
hromosomi
hromosomima
hromosomska
hromosomske
hromosomski
hromosomskih
hromosomskoj
hromosomu
hromozoma
hronic
hronika
hronike
hronologija
hronolos
hrpelje
hrsg
hrskavic
hrskavica
hrskavice
hrt
hrus
hrvac
hrvat
hrvata
hrvate
hrvati
hrvatima
hrvatinic
hrvatska
hrvatske
hrvatski
hrvatskih
hrvatskim
hrvatsko
hrvatskog
hrvatskoj
hrvatskom
hrvatskosrpski
hrvatsku
hrvoja
hrvoje
hs
hsieh
hsp
hss
hsu
ht
htio
htjede
htjela
htjeli
htm
html
http
https
hu
huang
hub
hubble
huber
hubert
hudson
huffington
hugh
hughes
hugo
hui
hull
hum
huma
human
humanistic
humanitarne
humans
humanu
hume
humor
humoristic
humu
hung
hungary
hunt
hunter
huntington
hurdles
hus
husein
husref
husrev
huston
hutchinson
huwa
huygens
hv
hvala
hvale
hvaljen
hvar
hvata
hvataju
hvatanje
hvatis
hvo
hw
hwang
hy
hybrid
hybridization
hydrogen
hydrolase
hydroxylase
hypericum
hyperplasia
hypertension
hypothesis
hypoxia
hz
i
ia
iaaf
iako
ian
iana
iata
ib
iba
ibabic
ibenik
ibenika
ibensko
ibid
ibis
ibm
ibn
ibrahim
ibrahima
ibrahimovic
ibrahimu
ibris
ibu
ibuprofen
ibuti
ibutija
ic
ica
icama
icao
icd
ice
ich
ici
icom
icty
icu
id
ida
idah
idar
ide
idea
ideal
ideala
idealni
idealno
idealnog
ideas
ideja
idejama
ideje
ideji
idejom
ideju
idem
idemo
identic
identification
identificira
identificiraju
identificirali
identificiran
identificirana
identificirane
identificirani
identificirano
identificirao
identificirati
identified
identifies
identifikacija
identifikacije
identifikaciju
identify
identitet
identiteta
identity
ideologija
ideologije
ideolos
ides
idh
idha
idi
idite
idol
idola
idole
idova
idove
idovi
idovima
idovske
idovski
idovskog
idrija
idu
iduc
ie
ieee
if
ifk
ifn
ift
ig
iga
igara
ige
igf
igg
igla
igle
igledno
igm
igman
ign
igor
igorin
igra
igrac
igraju
igrajuc
igrala
igrale
igrali
igralis
igralo
igrama
igrana
igrane
igrani
igranja
igranje
igrano
igrao
igrati
igre
igri
igrom
igru
ih
ii
iia
iii
ij
ija
ijama
ijas
ijc
ije
ijeg
ijem
iji
ijih
ijim
ijoj
ijom
ijska
iju
ik
ika
ikad
ikada
ikakve
ikakvih
ikakvog
ike
ikeda
ikistan
ikko
iko
ikona
ikone
ikonostas
iktas
il
ila
ilac
ilas
ile
ilea
ileu
ilex
ili
ilic
ilidz
ilija
ilijac
ilijas
ilije
ilira
iliri
ilirska
ilirske
ilirski
ilirskih
ilirsko
ilirskog
ilis
iljac
iljak
iljke
illa
illinois
illustrated
ilo
ilovac
ilustracija
ilustracije
iluzija
im
ima
imac
imade
image
images
imaginarni
imaging
imaju
imajuc
imala
imale
imali
imalo
imam
imama
imamo
imamovic
imanja
imanje
imanju
imao
imas
imat
imate
imati
imdb
ime
imena
imenica
imenice
imenima
imenom
imenovan
imenovana
imenovani
imenovanja
imenovanje
imenovao
imenu
imenuje
imi
imic
imigranata
imir
immune
immunity
immunodeficiency
immunoglobulin
immunol
immunology
imo
imotski
imovic
imovina
imovine
imovinu
impact
impairment
impanze
imperator
imperfecta
imperial
imperija
imperije
implications
implicira
implikacije
import
importance
important
improved
impuls
impulsa
impulse
imra
ims
imu
imuc
imuhamedovic
imun
imuni
imunitet
imunog
imunogenetiku
imunoglobulina
imunolos
imunost
imunske
imunski
imunskih
imunskog
in
ina
inac
inactivation
inak
inaka
inama
inbegovic
inc
incertae
inci
incidence
incidencija
incident
incidenta
includes
including
increase
increased
increases
ind
indeks
indeksa
independence
independent
index
indexa
indexi
india
indian
indiana
indija
indijanac
indijanaca
indijanci
indije
indiji
indijska
indijske
indijski
indijskog
indijskom
indiju
indirektno
individua
individual
individualne
individualni
individualnih
individualno
individualnog
individuals
individue
indo
indonezija
indonezije
indoneziji
induced
induces
inducible
inducira
inducirani
induction
indukcije
industrial
industries
industrija
industrije
industriji
industrijska
industrijske
industrijski
industrijskih
industrijskim
industrijskog
industriju
industry
indz
ine
inec
inervira
infection
infectious
infekcija
infekcijama
infekcije
infekciju
infertility
inflacija
inflacije
inflammation
inflammatory
influence
info
informacija
informacijama
informacije
informaciju
informatic
information
informativni
infrared
infrastruktura
infrastrukture
infrastrukturu
infty
ing
ingeb
ingis
ingrid
inheritance
inherited
inhibicija
inhibicije
inhibiciju
inhibira
inhibiraju
inhibition
inhibitor
inhibitora
inhibitori
inhibitorni
inhibitors
inhibitory
inhibits
ini
inic
inicijativa
inicijative
inicijativu
inih
inila
inilac
inilaca
inile
inili
inilo
inim
inima
inimo
inio
inis
inite
initi
initial
initiation
initiative
inj
injava
injavaju
injavali
inje
injekcija
injekcije
injen
injena
injene
injeni
injenic
injenica
injenicama
injenice
injenici
injenicom
injenicu
injenih
injeno
injer
inju
injury
inka
inke
inkom
inkovito
inkovitost
inn
inna
inner
ino
inog
inoj
inom
inorganic
inostranstvu
inoue
inova
inovacija
inovacije
inovi
inovic
inozemstvu
inozitol
ins
insect
insects
insekata
insekte
insekti
insektima
inside
insider
insight
insights
inska
inske
inski
inskih
inskim
insko
inskog
inskoj
inskom
insku
inspektor
inspiracija
inspiraciju
inspirisan
instalacija
instalacije
instava
institucija
institucijama
institucije
institut
instituta
institute
institutes
institution
institutu
instrukcija
instrukcije
instrumenata
instrument
instrumenta
instrumental
instrumente
instrumenti
instrumentima
instva
instvo
instvu
insuficijencija
insuficijencije
insulin
insulina
int
integracija
integracije
integraciju
integral
integrala
integralni
integrated
integration
integrative
integrin
integrirani
integritet
integriteta
integrity
intel
intelektualaca
intelektualna
intelektualne
intelektualno
inteligencija
inteligencije
inteligenciju
intellectual
intelligence
intenzitet
intenziteta
intenzivne
intenzivno
inter
intera
interact
interacting
interaction
interactions
interactive
interacts
interakcija
interakcijama
interakcije
interakciji
interakcijom
interakciju
interaktivni
interes
interesa
interesantno
interese
interesi
interesima
interesovanja
interesovanje
interesu
interface
interfejs
interfejsa
interferon
interkontinentalni
interleukin
intermediate
internacionalni
internal
international
internationale
internazionale
internet
interneta
internetski
internetskih
internetu
interpretacija
interpretacije
interpretaciju
interpretation
interpunkcija
intertoto
interval
intervala
intervalima
intervalu
intervencija
intervencije
intervenciju
interview
intervju
intervjua
intervjuu
intestinal
into
intracellular
introduction
intron
introna
inu
invaliditetom
invalidnost
invalidnosti
invasion
invasive
invazija
invazije
invaziji
invaziju
invertebrate
invest
investicija
investicije
investigation
investigative
involved
involvement
inz
io
ioc
ioca
ion
iona
ionako
ione
ioni
ionima
ionizacije
ionizirajuc
ions
ionska
ionske
ionski
ionskih
ios
iowa
ip
ipa
ipac
ipak
ipcc
iphone
ipka
ipova
ipovo
iprage
iq
ir
ira
irac
irafa
irak
iraka
iraku
iran
irana
iranska
iranske
iranski
iranskih
iranskog
iranu
irao
iraq
iras
ire
ireg
ireland
irem
iren
irena
irene
ireni
irenim
irenja
irenje
irenjem
irenju
ireno
irevic
irf
irfan
iri
irija
irila
irile
irili
irilic
irilica
irilicom
irilo
irina
irine
irini
irinu
irio
iris
irish
iriti
irkovic
irnk
iro
iroj
irok
iroka
iroke
iroki
irokih
irokim
iroko
irokog
irokoj
irokom
iroku
irom
iron
ironic
irska
irske
irski
irskog
irskoj
irsku
iru
iruje
irving
is
isa
isaac
isakovic
isbn
ise
iselimovic
iser
isera
ishak
ishaka
ishikawa
ishod
ishoda
ishodis
ishrana
ishrane
ishrani
ishranu
isjec
iskaz
iskazano
iskazivano
iskazuje
iskazuju
iskljuc
iskopavanja
iskoris
iskoristi
iskoristila
iskoristili
iskoristio
iskoristiti
iskra
iskreno
iskus
iskustava
iskustva
iskustvima
iskustvo
iskustvom
iskustvu
islam
islama
islamic
islamska
islamske
islamski
islamskih
islamskim
islamsko
islamskog
islamskoj
islamskom
islamsku
islamu
island
islanda
islands
islandu
ismail
ismet
ismeta
iso
isoform
isoforms
isolated
isolation
isovic
ispada
ispadaju
ispala
ispali
ispao
isparavanja
ispas
ispit
ispita
ispitanika
ispitivanja
ispitivanje
ispitivanjima
ispitivanju
ispituje
isplac
ispoc
ispod
ispoljava
ispoljavaju
ispoljavanja
ispoljavanje
isporuc
isporuke
isporuku
ispostavilo
ispravan
isprave
ispravno
ispred
ispric
ispruz
isprva
ispuni
ispunio
ispuniti
ispunjava
ispunjavaju
ispunjen
ispunjena
ispunjene
ispunjeni
ispupc
ispus
isra
israel
issn
issue
issues
ist
ista
istac
istakao
istakli
istaknuta
istaknute
istaknuti
istaknutih
istaknutim
istaknuto
istanbul
istanbula
istanbulu
istarska
istat
iste
isteka
isti
istic
isticao
istih
istim
istina
istine
istini
istinito
istinom
istinski
istinu
istiti
istituto
isto
istoc
istodobno
istog
istoimene
istoimeni
istoimenog
istoimenoj
istoimenom
istoj
istok
istoka
istoku
istom
istoric
istorija
istorije
istoriji
istorijski
istoriju
istovremeno
istra
istraga
istrage
istragu
istraz
istre
istri
istu
isu
isus
isusa
isuse
isusova
isusu
isuvis
it
ita
itaj
itaju
itak
ital
italia
italian
italiana
italicu
italija
italijana
italijani
italijanska
italijanske
italijanski
italijanskih
italijanskim
italijansko
italijanskog
italijanskoj
italijanskom
italijansku
italije
italiji
italijom
italiju
italy
itanja
itanje
itano
itao
itarica
itarice
itati
itav
itava
itave
itavo
itavog
itavoj
itavom
itavu
itd
ite
itelj
itelja
itelje
itelji
iteljica
itelju
item
itemid
iti
itih
itim
itis
itki
itluk
ito
itog
itom
itosti
itrij
its
itu
ituje
iu
iucn
iulis
iupac
iure
ius
iv
iva
ivac
ivaca
ivaju
ivala
ivale
ivali
ivalo
ivan
ivana
ivanc
ivane
ivanec
ivani
ivanic
ivanis
ivanja
ivanje
ivanjem
ivanjima
ivanju
ivanom
ivanov
ivanovic
ivanu
ivao
ivati
ivc
ivca
ivci
ive
ivec
ivi
ivic
ivica
ivice
ivici
ivih
ivim
ivimo
ivinice
ivio
ivjela
ivjele
ivjeli
ivjelih
ivjelo
ivjeti
ivkovic
ivljava
ivljavaju
ivljavanja
ivljavanje
ivljenja
ivo
ivog
ivoj
ivom
ivost
ivosti
ivot
ivota
ivote
ivotinja
ivotinjama
ivotinje
ivotinjske
ivotinjski
ivotinjskih
ivotinjskim
ivotinjskog
ivotinju
ivotna
ivotne
ivotni
ivotnih
ivotnim
ivotno
ivotnog
ivotnoj
ivotnom
ivotnu
ivotom
ivotu
ivs
ivu
ivuc
ix
iyer
iz
iza
izabela
izabere
izabrala
izabrali
izabran
izabrana
izabrane
izabrani
izabranih
izabrano
izabrao
izabrati
izac
izam
izas
izaslanika
izaziva
izazivaju
izazivajuc
izazivanje
izazov
izazove
izazvala
izazvali
izazvalo
izazvan
izazvana
izazvane
izazvao
izazvati
izađe
izbac
izbacila
izbacio
izbaciti
izbacivanje
izbacuje
izbacuju
izbija
izbijanja
izbijanje
izbila
izbio
izbjec
izbjegao
izbjegava
izbjegavaju
izbjegavanje
izbjegavati
izbjegla
izbjegli
izbjeglica
izbjeglice
izbjegne
izboc
izbor
izbora
izbore
izbori
izborima
izborio
izboriti
izborna
izborne
izborni
izbornih
izbornog
izbornoj
izborom
izboru
izconstellation
izd
izdaje
izdaju
izdala
izdali
izdan
izdana
izdanak
izdanci
izdanja
izdanje
izdanjima
izdanju
izdao
izdat
izdata
izdati
izdavac
izdavanja
izdavanje
izdavas
izdrz
izduz
izdvaja
izdvajaju
izdvajanje
izdvajanjem
izdvojiti
ize
izet
izetbegovic
izgled
izgleda
izgledaju
izgledalo
izgledao
izgledati
izgledom
izgledu
izgovara
izgovor
izgovori
izgradi
izgradila
izgradili
izgradio
izgraditi
izgradnja
izgradnje
izgradnji
izgradnjom
izgradnju
izgrađen
izgrađena
izgrađene
izgrađeni
izgrađeno
izgube
izgubi
izgubila
izgubile
izgubili
izgubilo
izgubio
izgubiti
izgubivs
izgubljen
izgubljena
izgubljene
izgubljeni
izgubljenih
izgubljeno
izgubljenog
izic
izis
iziđe
iziđos
izjas
izjasne
izjasnila
izjasnili
izjasnilo
izjava
izjave
izjavi
izjavila
izjavili
izjavio
izjavljuje
izjavu
izjednac
izl
izlaganja
izlaganje
izlaska
izlaskom
izlasku
izlaz
izlaza
izlazak
izlaze
izlazi
izlazio
izlaziti
izlazu
izletis
izlijec
izloz
izluc
izma
izmedu
između
izmijeniti
izmijenjen
izmijenjena
izmis
izmislio
izmjena
izmjenama
izmjene
izmjenjivac
izmjenu
izmjerena
izmjeriti
iznad
iznenada
iznenadne
iznenađenje
iznenađujuc
iznimno
iznio
iznos
iznose
iznosi
iznosila
iznosili
iznosilo
iznosio
iznositi
iznosu
iznova
iznutra
izobilju
izoblic
izoelektric
izoforma
izoforme
izoformi
izohipse
izolacija
izolacije
izolaciju
izoleucin
izoliran
izolirane
izolirani
izomer
izomera
izomeraza
izopac
izotop
izotopa
izotopi
izrac
izrada
izrade
izradi
izradio
izradu
izrael
izraela
izraelovi
izraelovih
izraelska
izraelske
izraelski
izraelskih
izraelu
izrail
izraila
izrailom
izrailov
izrailova
izrailove
izrailovi
izrailovih
izrailovim
izrailovog
izrailu
izravno
izraz
izraza
izraze
izrazi
izrazio
izraziti
izrazito
izrazom
izrazu
izrađen
izrađena
izrađene
izrađeni
izrađuje
izrađuju
izrec
izrekao
izric
izruc
izuc
izum
izumio
izumiranja
izumiranje
izumitelj
izumrla
izumrle
izumrli
izumrlih
izuzeci
izuzetak
izuzetaka
izuzetan
izuzetkom
izuzetne
izuzetno
izuzev
izvadi
izvan
izvana
izvanredan
izvanredne
izvanredno
izvedba
izvedbe
izvedbi
izvedbu
izvede
izveden
izvedena
izvedene
izvedeni
izvedenih
izvedeno
izvela
izveli
izveo
izves
izvesti
izvijestili
izvijestio
izvire
izviru
izviđac
izvjes
izvjesne
izvjesni
izvjesno
izvlac
izvode
izvodi
izvodili
izvodio
izvoditi
izvor
izvora
izvore
izvori
izvorima
izvoris
izvorna
izvorne
izvorni
izvornih
izvorno
izvornog
izvornom
izvorom
izvoru
izvoz
izvoza
izvođac
izvođenja
izvođenje
izvođenjem
izvođenju
izvrs
izvuc
izvukao
j
ja
jablanic
jablanica
jabuc
jabuka
jabuke
jac
jaci
jack
jacka
jackie
jackson
jacob
jacobs
jacq
jacques
jad
jada
jadrana
jadranka
jadransko
jadranskog
jadranskom
jaffe
jagoda
jagode
jagodic
jahac
jahic
jahija
jaja
jajas
jajca
jajce
jajcu
jaje
jajeta
jajne
jajnicima
jajnik
jajnika
jak
jaka
jake
jaki
jakiel
jakih
jakim
jako
jakob
jakog
jakom
jakov
jakova
jaks
jaku
jakub
jakuba
jakubu
jala
jam
jama
jamajka
jamc
jame
james
jamesa
jami
jamie
jamu
jan
jana
jane
janeiro
janeiru
janet
janez
janje
janjic
janko
jankovic
jansen
januar
januara
januaru
january
jap
japan
japana
japanci
japanese
japanska
japanske
japanski
japanskih
japansko
japanskog
japanskom
japanu
jar
jarac
jaram
jarca
jas
jasan
jasenovac
jasmin
jasmina
jasna
jasne
jasni
jasno
jasnu
jason
jastrebarsko
jastrebarskog
jastuc
jata
jato
java
jave
javelin
javelle
javi
javier
javio
javiti
javlja
javljaju
javna
javne
javni
javnih
javnim
javno
javnog
javnom
javnost
javnosti
javnu
javor
jay
jaz
jazeera
jazz
jb
jbc
jc
jcb
jci
jcs
jd
je
jean
jeanne
jec
jedan
jedanaest
jedanaesteraca
jedanput
jedara
jedarne
jedarni
jedarnih
jedarnog
jede
jedi
jedina
jedine
jedini
jedinic
jedinica
jedinicama
jedinice
jedinici
jedinicom
jedinicu
jedinim
jedinjenja
jedinka
jedinke
jedinki
jedino
jedinog
jedinom
jedinstva
jedinstven
jedinstvena
jedinstvene
jedinstveni
jedinstvenih
jedinstvenim
jedinstveno
jedinstvenog
jedinstvenom
jedinstvenu
jedinstvo
jedinstvu
jedinu
jedite
jedna
jednac
jednadz
jednak
jednaka
jednake
jednaki
jednakih
jednakim
jednako
jednakog
jednakost
jednakosti
jednaku
jedne
jedni
jednih
jednim
jednina
jednine
jednjak
jednjaka
jedno
jednoc
jednog
jednoga
jednoglasno
jednogodis
jednoj
jednolanc
jednom
jednorog
jednostavan
jednostavna
jednostavne
jednostavni
jednostavnih
jednostavnije
jednostavnim
jednostavno
jednostavnog
jednostavnom
jednostavnu
jednu
jedra
jedro
jedru
jedrychowski
jedu
jedva
jeff
jefferson
jeffrey
jeg
jehovini
jehu
jela
jelac
jelen
jelena
jelene
jeli
jelic
jelo
jels
jem
jemen
jemena
jen
jena
jenkins
jennifer
jens
jensen
jeo
jer
jeremija
jeremy
jergovic
jerihona
jerome
jerry
jersey
jerusalem
jerusalema
jerusalemu
jeruzalem
jeruzalema
jeruzalemu
jes
jesam
jesen
jeseni
jesenice
jesi
jesmo
jesse
jessica
jest
jeste
jesti
jesu
jesus
jet
jetra
jetre
jetri
jetru
jevrej
jevreja
jevreje
jevreji
jevrejima
jevrejska
jevrejske
jevrejski
jevrejsko
jevrejskog
jevric
jewish
jez
jezera
jezerima
jezero
jezeru
jezgara
jezgra
jezgre
jezgri
jezgro
jezgru
jezic
jezici
jezicima
jezik
jezika
jezike
jezikom
jeziku
jf
jg
jh
ji
jia
jiang
jih
jill
jim
jima
jimmunol
jimmy
jin
jj
jk
jl
jm
jmb
jmbi
jmg
jn
jna
jneurosci
jnk
jo
joa
joab
joachim
joan
jod
joda
jodid
joe
joel
joey
johan
johann
johanna
johannes
johansson
john
johna
johnny
johnom
johns
johnson
johnston
johnstone
joins
joint
joj
jom
jon
jona
jonas
jonathan
jones
jong
jordan
jordana
jordanu
jorge
jos
jose
josef
joseph
josepha
josh
joshua
josip
josipa
josipovic
journal
journey
jovan
jovana
jovanc
jovanovic
jovi
jovic
jovo
joy
joyce
joz
jozo
jp
jpg
jpl
jr
js
jstor
jt
ju
juan
juana
juc
juda
judd
jude
judeje
judi
judith
judu
judy
jug
juga
jugo
jugoistoc
jugoistok
jugoistoka
jugoistoku
jugoslavena
jugoslaveni
jugoslavenska
jugoslavenske
jugoslavenski
jugoslavenskih
jugoslavenskim
jugoslavenskog
jugoslavenskoj
jugoslavensku
jugoslavija
jugoslavije
jugoslaviji
jugoslaviju
jugoslovenska
jugoslovenske
jugoslovenski
jugoslovenskih
jugoslovenskog
jugoton
jugozapadna
jugozapadne
jugozapadno
jugozapadnoj
jugozapadnom
jugozapadu
jugu
jukic
jul
jula
jules
juli
julia
julian
julie
julija
julijanskom
julije
julin
julius
julu
july
jump
jun
juna
junac
junaci
junak
junaka
junction
june
jung
juni
junior
juniorski
juniperus
junu
jupiter
jupitera
jur
juraj
jure
juri
juric
jurij
juris
jus
jusic
juss
just
justice
justin
justinijan
jusuf
jusufa
jutarnji
jutra
jutro
juventus
juventusa
juz
jv
jvi
jw
jy
k
ka
kabinet
kabineta
kac
kad
kada
kadar
kades
kadic
kadija
kadijevic
kadra
kafa
kafaru
kafe
kafic
kafu
kahf
kahn
kahva
kahve
kai
kaira
kairo
kairu
kaiser
kaju
kakanj
kakav
kaknja
kako
kakva
kakve
kakvi
kakvih
kakvim
kakvo
kakvog
kakvom
kakvu
kal
kalaj
kalaja
kalcij
kalcija
kalem
kalendar
kalendara
kalendarska
kalendaru
kalesija
kali
kalibar
kalibra
kalifornija
kalifornije
kaliforniji
kalij
kalija
kalije
kalinovik
kama
kamberovic
kambodz
kamc
kameleon
kamen
kamena
kamene
kameni
kamenica
kamenih
kamenim
kamenja
kamenje
kamenjem
kameno
kamenog
kamenom
kamenu
kamera
kamere
kamerom
kameru
kamerun
kamil
kamion
kamiona
kamnik
kamo
kamp
kampa
kampanja
kampanje
kampanji
kampanju
kampus
kan
kana
kanada
kanade
kanadi
kanadska
kanadske
kanadski
kanadu
kanal
kanala
kanale
kanali
kanalima
kanalom
kanalu
kancelar
kancelara
kancelarije
kancera
kandidat
kandidata
kandidate
kandidati
kandidaturu
kandz
kane
kang
kanjon
kanjona
kano
kansas
kant
kantautor
kanton
kantona
kantonalna
kantonu
kanu
kao
kap
kapa
kapacitet
kapaciteta
kapacitetom
kape
kapela
kapele
kapeli
kapelica
kapetan
kapetana
kapetanija
kapetanije
kapetanovic
kapi
kapidz
kapija
kapije
kapilara
kapital
kapitala
kapitalistic
kapitalizam
kapitalizma
kapiten
kaplan
kapljica
kapljice
kappa
kappab
kapsula
kapsule
kapur
kar
kara
karac
karaca
karadz
karakter
karaktera
karakteris
karakteristic
karakteristika
karakteristikama
karakteristike
karakterizira
karakteriziraju
karakteriziran
karakteru
karanovic
karata
karate
karavan
karađorđevic
karboksilne
karbon
karbonat
karbonata
karca
karce
karci
karcima
karcinom
karcinoma
karcinomom
kardinal
kardinala
karel
karen
kariba
karic
karijera
karijere
karijeri
karijeru
karim
karin
karl
karla
karlic
karlice
karlo
karlovac
karlovca
karlu
karnitin
karolina
karoline
karpata
karpov
karta
kartage
kartama
karte
karti
kartica
kartice
karton
kartona
kartu
kas
kasarne
kasim
kasiopeja
kasne
kasni
kasnih
kasnija
kasnije
kasnijeg
kasnijem
kasniji
kasnijih
kasnijim
kasnijoj
kasnim
kasno
kasnoantic
kasnog
kasnom
kasparov
kaspaze
kaspijskog
kasta
kaste
kastilje
kat
kata
katalitic
katalitske
katalitski
katalizator
katalizatora
katalizatori
katalizira
kataliziraju
katalog
kataloga
katalogisierung
katalogu
katalos
katar
katara
katarina
katarine
katastarske
katastrofa
katastrofe
kate
katedra
katedrala
katedrale
katedrali
katedre
kategoric
kategorija
kategorijama
kategorije
kategoriji
kategoriju
katepsin
katherine
kathleen
kathy
kati
katie
kation
kationa
katkad
kato
katolic
katolici
katolika
katyn
katz
kavkaz
kavkaza
kay
kaz
kaza
kazahstan
kazahstana
kazalis
kazaljke
kazao
kazas
kazati
kazna
kazne
kazni
kaznio
kazniti
kaznom
kaznu
kazuje
kb
kc
kcne
kcnq
kd
kda
kdm
ke
keaton
keep
keith
keller
kelley
kelly
kelti
kem
kemal
ken
kenan
kenija
kenije
kennedy
kenneth
kenny
kenobi
kent
kenta
kentaur
kentucky
kepler
keramic
keramika
keramike
kerim
kern
kernel
kerr
kerry
kes
kesira
keto
kevin
kew
key
kf
kg
kh
kha
khan
ki
kiaa
kic
kicker
kid
kidney
kids
kif
kih
kijev
kijeva
kijevske
kijevu
kikuchi
kikuno
kila
kill
killed
killer
kilograma
kilometar
kilometara
kilometra
kilometres
kim
kimi
kimura
kin
kina
kinase
kinases
kinaza
kinaze
kinazu
kind
kine
kineska
kineske
kineski
kineskih
kineskim
kinesko
kineskog
kineskoj
kineskom
kinesku
kinetic
kinetics
kinezi
king
kingdom
kings
kini
kinima
kinja
kino
kinom
kinu
kip
kipar
kipra
kipru
kir
kira
kirgistan
kirk
kis
kisela
kisele
kiseli
kiselina
kiselinama
kiseline
kiselini
kiselinom
kiselinu
kiseljak
kisik
kisika
kisikom
kiss
kit
kita
kitovi
kj
kk
kl
kladanj
kladogram
kladus
kladusa
klaic
klan
klana
klanac
klanja
klanjaju
klanjati
klanjec
klarinet
klas
klasa
klase
klasi
klasic
klasificiraju
klasificiran
klasificirani
klasificirati
klasifikacija
klasifikacije
klasifikaciji
klasifikaciju
klaster
klastera
klasu
klaudija
klaudije
klaus
klavijature
klavijaturista
klavir
klavira
klec
klein
klement
kleopatra
klic
klijent
klima
klimatske
klimatskih
klimatskim
klime
klimi
klimom
klimu
klinic
klinika
klis
klix
klizac
klizanje
klizanju
klizis
kljuc
klobuk
klonirali
klonova
klotzsch
klub
kluba
klubom
klubova
klubove
klubovi
klubovima
klubu
klupe
klupi
klupsko
klupskog
klupskom
kluwer
km
kn
knautia
knez
kneza
knezu
knight
knin
kninska
knj
knjaz
knjiga
knjigama
knjige
knjigom
knjigu
knjiz
knjizi
knockout
know
knowledge
knowles
known
knuth
ko
koa
koagulacije
koalicija
koalicije
koaliciji
koaliciju
koautor
kobalt
kobas
kobayashi
kobilica
koc
koch
kocjan
kocka
kocke
kod
koda
kodeks
kodeksa
kodira
kodiraju
kodirajuc
kodiran
kodirana
kodirani
kodiranja
kodiranje
kodon
kodona
kodovi
kodu
koeficijent
koeficijenta
koenzim
kofaktor
kofaktora
kofja
kog
koga
kognitivne
koj
koja
koje
kojeg
kojega
kojem
kojemu
koji
kojic
kojih
kojim
kojima
kojoj
kojom
koju
kokain
kokaina
kokos
kol
kola
kolac
kolagen
kolagena
kolama
kolaps
kolapsa
kolas
kole
koledz
kolega
kolegama
kolege
kolekcija
kolekcije
kolekciju
kolektivno
koli
kolic
kolica
koliko
kolima
koljena
koljeno
koljenu
koljke
kolo
kolom
kolona
kolone
koloni
kolonija
kolonijalne
kolonijama
kolonije
koloniju
kolonizacije
kolovanja
kolovanje
kolovao
kolska
kolske
kolski
kolskih
kolskim
kolsko
kolskog
kolu
kolumbija
kolumbije
kolumbiji
kolumbo
kom
komad
komada
komade
komadi
komadic
komanda
komandant
komandanta
komande
komandi
komandir
komandira
komandom
komandovao
komandu
kombinacija
kombinacije
kombinaciji
kombinacijom
kombinaciju
kombinira
kombiniraju
kome
komedija
komedije
komediji
komediju
komentar
komentara
komentare
komentari
komentirao
komercijalna
komercijalne
komercijalni
komercijalnih
komercijalno
komesar
komesara
kometa
komete
komic
komisija
komisije
komisiju
komitet
komiteta
komnen
komnena
komora
komore
komori
komoru
kompaktna
kompanija
kompanijama
kompanije
kompaniji
kompanijom
kompaniju
kompilacija
kompilacijski
kompjuterski
kompleks
kompleksa
komplekse
kompleksi
kompleksima
kompleksna
kompleksne
kompleksni
kompleksnih
kompleksom
kompleksu
komplementa
kompletan
kompletna
kompletne
kompletno
kompletnu
komplikacija
komplikacije
komponenata
komponenta
komponentama
komponente
komponenti
komponentu
komponirao
komponist
komponovao
kompozicija
kompozicije
kompoziciju
kompozitor
kompozitora
kompozitori
kompresije
kompromis
koms
komu
komuna
komune
komunicira
komuniciraju
komunicirati
komunikacija
komunikacije
komunikaciji
komunikaciju
komunista
komunisti
komunistic
komunizam
komunizma
kon
konac
konak
konavle
konc
koncentracija
koncentracijama
koncentracije
koncentraciji
koncentracijom
koncentraciju
koncentracioni
koncentric
koncepcija
koncepcije
koncept
koncepta
koncepte
koncepti
konceptu
koncerata
koncert
koncerta
koncerte
koncerti
koncertima
koncertna
koncertne
koncertni
koncertu
kondenzacije
kondo
konfederacija
konfederacije
konferencija
konferencije
konferenciji
konferenciju
konfiguracija
konfiguracije
konfiguraciji
konfiguraciju
konflikt
konformacije
konformaciju
konfuc
kong
konga
kongenitalna
kongenitalne
kongo
kongres
kongresa
kongresu
kongu
konj
konja
konjanika
konje
konji
konjic
konjica
konjice
konjicu
konjima
konju
konkretne
konkretno
konkurencije
konkurenciji
konkurencijsko
konkurenciju
konrad
kons
konsenzus
konstanta
konstantan
konstante
konstantin
konstantina
konstantinopolj
konstantinopolja
konstantinopolju
konstantna
konstantno
konstrukcija
konstrukcije
konstrukciji
konstrukciju
kontakt
kontakta
kontakte
kontakti
kontaktu
kontekst
konteksta
kontekstu
kontinenata
kontinent
kontinenta
kontinentalna
kontinentalne
kontinentalni
kontinentalno
kontinentalnom
kontinentima
kontinentu
kontinuirana
kontinuirani
kontinuirano
kontinuitet
kontinuiteta
kontinuitetu
kontra
kontrakcija
kontrakcije
kontrast
kontrola
kontrole
kontroli
kontrolira
kontroliraju
kontrolirati
kontrolis
kontrolna
kontrolne
kontrolni
kontrolom
kontrolu
kontroverze
kontroverzna
konusa
konvencija
konvencije
konvenciji
konvergencije
konvergira
konverzija
konverzije
konverziju
konzervativne
konzerviran
konzervirana
konzervirane
konzervirani
konzola
konzole
konzul
konzula
konzulstva
konzumiraju
koordinacije
koordinaciju
koordinatama
koordinate
koordinira
kopac
kopc
kopenhagen
kopenhagenu
koper
kopija
kopije
kopiju
koplja
koplje
kopljem
kopna
kopnena
kopnene
kopneni
kopnenih
kopnenim
kopno
kopnu
koprivnic
koprivnica
kor
kora
korac
koraci
korak
koraka
korake
koraku
korc
kordic
kore
korea
korean
koreja
koreje
koreji
korejski
korelacija
korelacije
korelaciji
korene
korenica
kori
koric
korijen
korijena
korijene
korijeni
korijenje
korijenu
koris
korisna
korisne
korisni
korisnic
korisnici
korisnicima
korisnik
korisnika
korisnike
korisniku
korisnim
korisno
korist
koristan
koriste
koristec
koristi
koristila
koristile
koristili
koristilo
koristimo
koristio
koristiti
korita
korito
korkut
korkuta
korn
kornelije
kornjac
koronavirusa
koros
korpion
korporacija
korporacije
korpus
korpusa
korteks
korteksa
koru
korupcije
korus
kos
kosa
kosac
kose
kosi
kosmic
kosmopolit
kosom
kosova
kosovo
kosovski
kosovu
kost
kosta
kostajnica
kostanjevica
kostarika
kostel
kosti
kostic
kostiju
kostima
kostur
kosu
kot
kota
kotac
kotar
kotara
kotaru
koti
kotor
kotromanic
kotska
kotske
kotski
kotskog
kotskoj
kotsku
kov
kova
kovac
kovalentno
kovanica
kovanice
kovc
kovci
kove
kovec
kovi
kovic
kovima
koz
koza
kozara
kozarac
kozarska
koze
kozina
kozmetic
kp
kpj
kr
kra
krac
kraft
kragujevac
kraj
kraja
krajem
krajeva
krajeve
krajevi
krajevima
krajina
krajine
krajini
krajinu
krajis
krajnje
krajnjeg
krajnjem
krajnji
krajolik
krajolika
kraju
krak
kraka
krakova
kraku
kralj
kralja
kraljem
kraljev
kraljeva
kraljeve
kraljevi
kraljevic
kraljevima
kraljevina
kraljevine
kraljevini
kraljevinom
kraljevinu
kraljevo
kraljevoj
kraljevska
kraljevske
kraljevski
kraljevskih
kraljevskim
kraljevsko
kraljevskog
kraljevskoj
kraljevskom
kraljevsku
kraljevstva
kraljevstvo
kraljevstvom
kraljevstvu
kraljevu
kraljic
kraljica
kraljice
kraljici
kraljicom
kraljicu
kralju
kramer
kramnik
kranj
kranjc
krapina
krapinsko
kras
kratak
krater
kratera
kratka
kratke
kratki
kratkih
kratkim
kratko
kratkog
kratkom
kratkoroc
kratkotrajno
kratku
krause
krava
krave
krađe
krc
kreatin
krec
kreda
krede
kreira
kreiranje
kreirao
krene
krenu
krenula
krenuli
krenuo
krenuti
kres
kretanja
kretanje
kretanjem
kretanju
kretao
kretati
krevet
kreveta
krevetu
kric
krieger
krije
krijumc
krik
krila
krilima
krilo
krilu
krim
krima
kriminal
kriminala
kriminalistic
krimski
krimskih
kris
krist
krista
kristal
kristala
kristali
kristalizira
kristalna
kristalne
kristalni
kristalnu
kristofor
kristu
kriterij
kriterija
kriterije
kriteriji
kriterijima
kritic
kritici
kritika
kritike
kritiku
kritizirao
kriv
kriva
krivac
krivaja
krive
krivi
krivic
krivice
krivicu
krivim
krivo
kriz
kriza
krize
krizu
krk
krka
krki
krku
krlez
krlj
krljus
krn
krojac
krompir
krompira
kronberg
kros
krov
krova
krovna
krovom
krovu
kroz
krs
krst
krsta
krstac
krstas
krstic
krsto
kru
krug
kruga
krugova
krugovi
krugovima
krugu
kruh
kruha
kruna
krune
kruni
krunica
krunice
krunidbe
krunisan
krunom
krunu
krupa
krupe
krupne
krus
kruz
krv
krvarenja
krvarenje
krvavi
krvi
krvlju
krvna
krvne
krvni
krvnih
krvnim
krvno
krvnog
krvotok
krvotoka
krz
krzna
krzno
ks
ksenon
ksv
kt
ku
kuba
kube
kubi
kubic
kubikaz
kuc
kud
kuda
kuga
kuge
kugla
kuglasto
kugle
kugli
kuglu
kuhanje
kuhinja
kuhinje
kuhinji
kuje
kuk
kuka
kukavic
kuke
kukuruz
kukuruza
kula
kule
kulenovic
kuli
kulin
kulina
kult
kulta
kultova
kultura
kulturama
kulture
kulturi
kulturna
kulturne
kulturni
kulturnih
kulturnim
kulturno
kulturnog
kulturnoj
kulturnom
kulturnu
kulturolos
kulturom
kulturu
kulu
kum
kumar
kuna
kunic
kunth
kuntum
kunze
kuo
kup
kupa
kupac
kupe
kupi
kupila
kupio
kupiti
kupola
kupole
kupoli
kupolom
kupolu
kupova
kupovinu
kupres
kupu
kupuje
kur
kurejs
kurs
kurt
kurto
kurtovic
kus
kusturica
kut
kutija
kutije
kutiju
kuvajt
kv
kvadrat
kvadrata
kvadratna
kvadratne
kvadratni
kvadratnih
kvadratnom
kvalificirala
kvalificirale
kvalificirali
kvalificiran
kvalificirao
kvalificirati
kvalifikacija
kvalifikacijama
kvalifikacije
kvalifikacijska
kvalifikacijske
kvalifikacijskoj
kvalitet
kvaliteta
kvalitete
kvalitetu
kvantna
kvantne
kvantni
kvartet
kvas
kvasac
kvasca
kvd
kvrz
kw
ky
kyle
l
la
lab
labin
laboratorija
laboratorijama
laboratorije
laboratoriji
laboratorijski
laboratorijskim
laboratoriju
laboratory
labs
labud
lac
lack
ladhi
ladies
ladislav
lady
laga
lagano
lager
lagic
laguna
lahka
lahke
lahki
lahko
lahkoc
lahkog
lahu
lahum
lai
laidler
lajos
lak
laka
lakat
lakata
lake
laki
lako
laks
lakta
laktas
laktoze
lakum
lalic
lalinski
lam
lama
lamb
lambda
lambert
lamina
lamu
lan
lana
lanac
lanaca
lanak
lanaka
lanc
lanca
lancaster
lance
lancem
lancet
lanci
lancima
lancu
land
landscape
lane
lang
lange
langer
language
languages
lani
lanica
lanicama
lanice
lanis
lanka
lanke
lanku
lanom
lanova
lanove
lanovi
lanovima
lansiran
lansiranja
lansiranje
lanstva
lanstvo
lantanoida
lanu
laos
lapac
laqad
lar
lara
large
largest
larry
lars
larsen
larve
las
laser
laserski
lasker
last
lastauthoramp
lat
late
later
lateral
latest
lathyrus
latica
latice
latin
latinic
latinica
latinoameric
latinska
latinske
latinski
latinskih
latinskim
latinskog
latinskoj
latinskom
latvija
latvije
lau
launch
launches
laura
lauren
laurence
laurent
laurie
lausanne
lav
lava
lave
laver
lavigne
lavova
lavovi
law
lawrence
laws
lawson
lay
layer
laz
lazar
lazara
lazarevic
laze
lazic
lazio
lađa
lađe
lađu
lb
lc
ld
le
lea
leach
lead
leader
leaders
leading
leads
league
learning
least
leavenworth
leaves
leberecht
lec
lech
leclerc
leconte
lecture
lectures
led
leda
ledena
ledene
ledeni
ledenih
ledenog
ledi
lednika
ledom
ledu
lee
leeds
left
leg
legacy
legal
legend
legenda
legendarni
legende
legendi
legends
legia
legija
legije
legio
legitimitet
legitimnost
legura
legure
lehninger
lehrbuch
lei
leicester
leiden
leigh
leipzig
leipzigu
lejla
leksikografski
leksikon
len
lena
lenart
lendava
length
lenjin
lennon
lens
leo
leon
leona
leonard
leonardo
leone
leonid
leopard
leoparda
leopold
leopolda
lepa
lepenica
lepidoptera
leptin
leptira
leq
ler
les
leslie
less
lessons
let
leta
letac
lete
letec
letenja
lethal
leti
letjelica
letjelice
letjeti
letova
letove
letovi
letovima
lett
letter
letters
letu
leu
leucin
leucine
leukemia
leukemija
leukemije
leukocita
leukocyte
leung
lev
level
levels
leverkusen
levi
levine
leviti
levy
lewis
lewisa
lex
lexikon
lez
lezija
lezije
leđa
leđima
lf
lg
lgbt
lh
li
liang
liao
liban
libana
liber
liberalna
liberalne
liberalni
liberty
libija
libije
libiji
libraries
library
lic
lica
lice
licem
licence
licenci
licencom
licencu
licima
licu
lider
lidera
lideri
lie
life
lifedb
lig
liga
ligama
ligament
ligand
liganda
ligandi
ligands
ligas
ligase
ligaza
lige
light
ligi
ligu
ligue
lih
lihtens
lijaza
lijec
lijek
lijeka
lijekova
lijekove
lijekovi
lijekovima
lijep
lijepa
lijepe
lijepi
lijepih
lijepim
lijepo
lijepom
lijepu
lijeva
lijeve
lijevi
lijevo
lijevog
lijevoj
lijevom
lijevu
lijezda
lijezdama
lijezde
lik
lika
like
liki
likom
likova
likove
likovi
likovima
likovna
likovne
likovni
likovnih
liku
lillehammer
lily
lim
lima
limb
limfne
limfni
limfnih
limfnim
limfnog
limfocita
limfociti
limfom
limfoma
limited
limits
limun
lin
linc
lincoln
linda
lindau
lindsay
line
lineage
linear
linearna
linearne
linearni
linearno
lines
lingvistic
linija
linijama
linije
liniji
linijom
liniju
link
linka
linkage
linked
links
linnaeus
linnean
linus
linux
lionel
lipa
lipid
lipida
lipidi
lipoprotein
lipovac
lippincott
liquid
lira
lis
lisa
lisabon
lisac
lise
lisic
lisica
lisice
list
lista
listama
liste
listi
listic
listova
listove
listovi
listovima
lists
listu
litara
literary
literatura
literature
literaturi
literaturu
litij
litija
litiji
lito
little
litvanija
litvanije
litvaniji
litvanski
liu
livade
livanjskog
live
liver
liverpool
liverpoola
lives
livescore
livije
living
livingstone
livna
livno
livnu
lix
liz
lizin
lizina
lj
lja
ljaju
ljali
ljanja
ljanje
ljao
ljati
ljava
ljavanje
lje
ljec
ljekar
ljekara
ljekari
ljekovita
ljen
ljena
ljene
ljeni
ljenja
ljenje
ljenju
ljeno
ljenova
ljepila
ljepota
ljepote
ljepoti
ljepotom
ljepotu
ljeps
ljes
ljestvica
ljestvice
ljestvici
ljeta
ljeti
ljetima
ljetna
ljetne
ljetnih
ljetnim
ljetnom
ljeto
ljetopis
ljevic
ljiljan
ljiljana
ljiljani
ljiv
ljiva
ljive
ljivi
ljivim
ljivo
ljivost
ljivosti
ljubav
ljubavi
ljubavlju
ljubavna
ljubavne
ljubavni
ljubavnica
ljubavnika
ljube
ljubi
ljubic
ljubim
ljubinje
ljubis
ljubitelj
ljubitelja
ljubitelji
ljubiti
ljubljana
ljubljane
ljubljani
ljubo
ljubomir
ljubomora
ljubus
ljude
ljudi
ljudima
ljudska
ljudske
ljudski
ljudskih
ljudskim
ljudsko
ljudskog
ljudskoj
ljudskom
ljudsku
ljudstva
ljus
ljuska
ljuske
ljut
ljuti
ljutomer
lk
ll
llc
ller
lloyd
lm
ln
lo
loa
lobanja
lobanje
loc
local
localization
localized
located
location
loci
lociran
locirana
locus
log
logan
logaritam
logatec
logic
logici
logika
logike
logiku
logistic
logo
logor
logora
logoras
logore
logori
logorima
logoru
logos
loka
lokacija
lokacijama
lokacije
lokaciji
lokaciju
lokalitet
lokaliteta
lokaliteti
lokalitetu
lokalizacija
lokalizacije
lokalizaciju
lokaliziran
lokalna
lokalne
lokalni
lokalnih
lokalnim
lokalno
lokalnog
lokalnoj
lokalnom
lokalnu
lokativ
lokomotiva
lokomotive
lokus
lokusa
lokusu
lola
lom
loma
lonc
london
londona
londonski
londonu
lonely
long
longman
longrightarrow
look
loop
lopare
lopatice
lopez
lopta
lopte
lopti
loptica
loptu
lord
lorda
lorenzo
los
loss
lost
losti
lotus
lou
louis
louisa
louise
louisu
louvre
lov
lova
lovac
lovaca
lovca
lovci
love
lovi
lovrec
lovrenovic
lovu
low
lowe
lower
loz
loza
loze
lp
lps
lr
lrrc
ls
lt
ltd
lu
luc
luca
lucas
luci
lucija
lucije
lucy
lud
luda
ludilo
ludovik
ludovika
ludwig
lug
luigi
luis
luj
luja
luk
luka
lukac
lukas
lukavac
luke
lukic
lukom
lukova
lukovi
lukovica
luksemburg
luksemburga
luksemburgu
luksemburs
luku
lumen
luna
lung
lunja
luo
lupus
lus
luta
luther
luxembourg
luz
lv
lw
lxc
lxd
lxe
lxf
ly
lyga
lymphocytes
lymphoma
lynch
lynn
lyon
lys
lysine
m
ma
mac
maccabi
macdonald
macedonia
machine
machinemaa
machines
macintosh
mackenzie
macmillan
macrophage
macrophages
mad
mada
madagaskar
madame
madan
made
mader
madison
madona
madrid
madrida
madridu
madz
mag
magazin
magazina
magazine
magazinu
magdalena
magic
magija
magije
magistarski
magistralne
magistralni
magistralnih
magistrirao
maglaj
magle
maglina
magnetic
magnetna
magnetne
magnetni
magnetno
magnetnog
magnezij
magnezija
magnituda
magnitude
magnolia
magnoliopsida
magnus
maguire
mah
mahala
mahale
mahali
mahathir
mahmud
mahom
mahovina
mahovine
mai
maiden
mail
main
maine
maintenance
mainz
maj
maja
majc
majci
majdan
majka
majke
majki
majko
majkom
majku
majmun
majmuna
majmuni
major
majora
majstor
majstora
majstori
maju
mak
maka
makar
make
makedonac
makedonci
makedonija
makedonije
makedoniji
makedoniju
makedonska
makedonske
makedonski
makedonskog
makedonskom
makes
making
makrofaga
makrofagi
makromolekula
maksim
maksimalna
maksimalne
maksimalni
maksimalno
maksimalnu
maksimum
mal
mala
malarije
malavi
malaysia
malcolm
male
malen
malena
males
malezija
malezije
maleziji
malformacije
malfoy
mali
malignant
maligni
malignih
malih
malik
malim
malina
malis
malmo
malo
malog
maloj
malom
malta
malte
maltes
malti
malu
mama
mammal
mammalian
mammals
man
mana
management
manager
manase
manastir
manastira
manastiri
manastiru
manchester
mandat
mandata
mandatom
mandic
mandz
mane
manfred
manga
mangan
mangana
mango
manhattan
mani
manifestacija
manifestacije
manifestira
manifestuje
manin
manipulacije
manja
manjak
manje
manjeg
manjem
manji
manjih
manjim
manjina
manjine
manjinski
manjka
manjoj
manjom
manju
mann
mannheim
manning
manu
manual
manuel
manuela
many
mao
map
mapa
mape
mapirali
mapiranje
mapk
mapping
maps
mar
mara
maraka
marathon
marc
marcel
march
marco
marcus
mare
marek
margaret
margareta
mari
maria
marian
maribor
maric
marie
marija
marijan
marije
mariji
marijin
marijina
marijom
mariju
marilyn
marin
marina
marine
mariner
marinkovic
marino
mario
marion
marjan
marjanovic
marje
mark
marka
markama
marke
marker
markera
markeri
markers
market
marketing
marketins
marki
markl
marko
markom
markovic
marks
marksistic
markt
marku
markus
marof
maroka
maroko
maroku
mars
marsa
marseille
marshall
marsu
mart
marta
marth
martha
marti
martin
martina
martinez
martini
martinovic
martno
martu
marty
marus
maruyama
marvin
marx
mary
maryland
mas
masa
masakr
masakra
masama
mase
masi
masiv
masiva
maske
maslac
masles
maslic
maslina
masline
masna
masne
masnih
masnim
masno
masnoc
masnog
masnom
masom
mason
masovna
masovne
masovni
masovnih
masovnim
masovno
masovnog
masovnom
mass
massachusetts
massacre
mast
master
masters
mastersa
mastersu
masti
masu
mat
mata
match
matches
mate
matej
matematic
matematici
matematika
matematike
matematiku
mateo
mater
material
materials
materice
materija
materijal
materijala
materijale
materijali
materijalima
materijalna
materijalne
materijalni
materijalnih
materijalno
materijalnu
materijalom
materijalu
materije
materiju
maternal
maternice
maternjem
maternji
math
mathbb
mathbf
mathematical
mathematics
mathrm
mathworld
mati
matic
matica
matice
matija
matilda
mato
matrica
matrice
matriks
matriksa
matrix
matsuda
matsumoto
matt
matter
matthew
matthews
matthias
maturation
mature
maulik
maurice
mauricijus
mauzolej
max
maxim
maximilian
maximus
maxwell
may
maya
mayer
mayo
mayor
mayr
maz
maziva
mađ
mađara
mađari
mađarska
mađarske
mađarski
mađarskog
mađarskoj
mađarskom
mađarsku
mb
mbc
mbox
mc
mcb
mccarthy
mccartney
mcdonald
mcg
mcgill
mcgraw
mclaren
mcmaster
mcp
md
mds
me
mea
mead
mean
meaning
means
measurement
mec
mechanical
mechanics
mechanism
mechanisms
med
meda
medal
medalja
medalje
medaljom
medalju
media
mediate
mediated
mediates
mediator
medicago
medical
medici
medicina
medicinal
medicine
medicini
medicinska
medicinske
medicinski
medicinskih
medicinskim
medicinsko
medicinskog
medicinskoj
medicinskom
medicinsku
medicinu
medieval
medij
medija
medije
mediji
medijima
medijska
medijske
medijski
mediju
medina
medine
medini
medinu
mediteran
mediterana
mediteranska
mediteranske
mediteranu
mediterranean
medium
medlineplus
medresa
medrese
medresu
medvjed
medvjeda
medz
meet
meeting
mega
mehanic
mehanici
mehanika
mehanike
mehanizam
mehanizama
mehanizma
mehanizme
mehanizmi
mehanizmima
mehanizmom
mehanizmu
mehkog
mehkus
mehmed
mehmeda
meho
mehrle
mejoza
mejoze
mek
mekanske
meke
meki
mekke
mekki
meksic
meksika
meksiko
meksiku
mekteb
mel
melanina
melanogaster
melanoma
melatonin
melbourne
meleci
melek
meleka
meleki
melissa
mellitus
melodija
melodije
melvin
member
members
membrana
membranama
membrane
membranes
membrani
membranom
membranske
membranski
membranskih
membranu
memic
memoirs
memorandum
memorial
memoriam
memorija
memorijalni
memorije
memoriju
memory
men
mena
menadz
mene
meni
menjaci
menjacima
menjaka
menlo
menog
menstruacije
mensur
ment
menta
mental
mentalna
mentalne
mentalnih
mentalno
mentalnog
mentor
menu
mer
mercedes
mercedesa
merck
mercury
meri
meridijan
meridijana
merkel
merkur
merlin
merriam
mes
mesa
mesdz
mesh
mesic
mesihovic
meso
mesoz
mess
messenger
messi
messier
mesta
mesto
mestu
met
meta
metab
metabolic
metabolism
metabolit
metabolita
metaboliti
metabolizam
metabolizma
metabolizmu
metacritic
metafizic
metak
metaka
metal
metala
metale
metali
metalima
metallica
metalne
metalni
metalnih
metalnim
metalnog
metals
metalurs
metan
metana
metar
metara
metastasis
metastaza
metastaze
metazoa
mete
meteorolos
method
methods
methyl
methylation
methyltransferase
meti
metil
metilacija
metilacije
metiltransferaza
metionin
metka
metkovic
metlika
metod
metoda
metodama
metode
metodi
metodima
metodom
metodu
metra
metres
metric
metro
metroa
metropolitan
metu
mexico
mey
meyer
mez
mezoderm
mezoderma
mezopotamije
mezopotamiji
međedovic
međimurska
među
međuc
međunarodna
međunarodne
međunarodni
međunarodnih
međunarodnim
međunarodno
međunarodnog
međunarodnoj
međunarodnom
međunarodnu
međusobna
međusobne
međusobni
međusobnih
međusobnim
međusobno
međusobnog
međusobnom
međusobnu
međutim
međuvremenu
mf
mfa
mg
mgc
mgm
mgu
mh
mhc
mhn
mhz
mi
mia
miami
miamiju
mic
mice
michael
michaela
michel
michelangelo
michele
michelle
michigan
mick
micro
microbial
microbiol
microbiology
microctenochira
microrna
micrornas
microsoft
microtubule
mid
middle
middleton
midhat
mie
mifflin
mig
migracija
migracije
migraciju
migration
migriraju
miguel
miha
mihael
mihail
mihaila
mihailo
mihailovic
mihajlo
mihajlovic
mijatovic
mijenja
mijenjaju
mijenjajuc
mijenjala
mijenjali
mijenjanje
mijenjao
mijenjati
mijes
mika
mike
miki
mikro
mikroorganizama
mikrornk
mikroskop
mikroskopa
mikroskopom
mikrotubula
mikrotubule
mikulic
mil
mila
milan
milana
milano
milanovac
milanovic
milanu
mile
milena
milenija
milenijuma
milenko
miles
miletic
mili
milic
milica
milicije
milijarde
milijardi
milijardu
milijuna
milimetara
milion
miliona
milione
military
milja
miljacke
milje
miljenko
milka
mill
millennium
miller
million
mills
milo
milodar
milorad
milos
milosrdan
milosrdnog
milosrđa
milosrđe
milost
milosti
milostinju
milostivog
milovan
milton
milutin
milwaukee
mim
mimo
min
mina
minas
mind
minds
mine
mineral
minerala
minerale
minerali
mineralima
mineralne
mineralnih
ming
minhen
minhenu
minhum
mini
minijature
minimalna
minimalne
minimalni
minimalno
minimum
mining
ministar
ministara
ministarstava
ministarstva
ministarstvo
ministarstvu
minister
ministra
ministre
ministri
ministrica
ministry
minj
minnesota
minobacac
minor
minsk
minus
minuta
minute
minuti
minutu
miodrag
miokarda
miozin
miozina
mir
mira
miralem
miran
miranda
miraz
miri
miris
mirisa
mirisni
mirisom
mirjana
mirko
mirkovic
mirna
mirni
mirnk
mirno
miro
mirom
miroslav
miroslava
mirovanja
mirovanju
mirovne
mirovni
mirovnim
mirovnog
mirror
mirsad
miru
mirza
mis
misa
misao
mise
misens
misija
misije
misiji
misiju
misle
mislec
misli
mislilac
mislili
mislilo
mislim
mislima
mislimo
mislio
mislis
mislite
misliti
miss
missense
missing
mission
mississippi
missouri
misterija
misterije
mistic
mistik
misty
mit
mita
mitchell
mitf
mitinga
mitochondria
mitochondrial
mitogen
mitohondrija
mitohondrijama
mitohondrije
mitohondrijska
mitohondrijske
mitohondrijski
mitohondrijskog
mitologija
mitologije
mitologiji
mitolos
mitotic
mitovi
mitoza
mitoze
mitraljez
mitraljeza
mitraljezom
mitropolit
mitrovic
mitrovica
mitu
mix
mixed
miyajima
mj
mjanmar
mjehur
mjehura
mjehuric
mjenjac
mjera
mjerama
mjere
mjerenja
mjerenje
mjerenjem
mjereno
mjeri
mjerilo
mjeriti
mjerna
mjernih
mjeru
mjes
mjesec
mjeseca
mjeseci
mjesecima
mjesecu
mjesna
mjesne
mjesnih
mjesta
mjestima
mjesto
mjestom
mjestu
mjuzikl
mjuziklu
mk
mksj
ml
mlad
mlada
mlade
mladen
mladez
mladi
mladic
mladih
mladim
mladima
mlado
mladog
mladoj
mladom
mladost
mladosti
mladu
mladunaca
mladunc
mlaka
mlađa
mlađe
mlađeg
mlađi
mlađih
mlađim
mlec
mletac
mlijec
mlijeka
mlijeko
mlijeku
mlin
mls
mm
mmp
mn
mno
mnoga
mnoge
mnogi
mnogih
mnogim
mnogima
mnogo
mnogobos
mnogoboz
mnogobrojne
mnogobrojni
mnogobrojnih
mnogobrojnim
mnom
mnos
mnoz
mo
moab
moaba
mobile
mobilne
mobilni
mobilnih
moc
mod
modalitet
mode
model
modela
modele
modeli
modelima
modeling
modeliranje
modelni
modelom
models
modelu
modern
moderna
moderne
moderni
modernih
modernim
modernizacija
modernizacije
moderno
modernog
modernoj
modernom
modernu
modi
modification
modificirane
modificirani
modifikacija
modifikacije
modni
modric
modrus
modul
modula
modulates
modulation
modulator
module
mog
moga
mogao
mogla
mogle
mogli
moglo
mogu
moguc
mohamed
mohammed
moj
moja
moje
mojeg
mojega
mojem
moji
mojih
mojim
mojo
mojoj
mojsije
moju
mok
mokrac
mokronog
mol
molbev
molbu
molcel
moldavija
moldavije
mole
molec
molecular
molecule
molecules
molekula
molekulama
molekularna
molekularne
molekularni
molekule
molekuli
molekulska
molekulske
molekulski
molekulskih
molekulskoj
molekulskom
molekulsku
molekulu
moli
molibden
molim
molimo
molina
molio
molite
moliti
molitva
molitve
molitvi
molitvu
molly
molu
mom
momak
momc
momci
mome
moment
momenta
momentu
mon
mona
monaco
monah
monaka
monako
monarh
monarha
monarhija
monarhije
monarhiji
monarhiju
monas
mondo
mone
money
mongola
mongoli
mongolija
moni
monica
monitor
monitoring
monk
mono
monografija
monokotiledone
monoksid
monomer
monomera
monooksigenaza
monopol
monroe
mont
montana
montaz
monte
montenegro
monteno
montgomery
month
monthly
montreal
moon
moonlight
moore
mora
morac
moraju
moral
morala
morale
morales
morali
moralna
moralne
moralni
moralnih
moralnim
moralno
moralnog
moralnost
moralnosti
moralnu
moralo
moram
moramo
moran
morao
moras
morate
morati
moravc
morave
moravice
moravske
more
morem
moreno
moreuz
moreuza
morfologija
morfologije
morfolos
morgan
mori
morima
moritz
mornaric
mornarica
mornarice
mornarici
mornaricu
morning
morocco
morphogenesis
morphogenetic
morphological
morphology
morris
morrison
morrissey
morska
morske
morski
morskih
morskim
morskog
morskoj
morskom
mortality
morton
moru
mos
mosby
moscow
moser
moses
moskva
moskve
moskvi
moskvu
moslavac
mosque
moss
most
mosta
mostar
mostara
mostarski
mostaru
mostom
mostova
mostovi
mostu
mother
motif
motifs
motility
motion
motiv
motiva
motive
motivi
motivima
motivom
moto
motor
motora
motore
motori
motorima
motorizovane
motorne
motorni
motornih
motorom
motors
mount
mountain
mountains
mouse
move
movement
movie
movies
moz
mozaic
mozaici
mozaik
mozaika
mozak
mozambik
mozart
mozarta
moze
mozga
mozgu
mozirje
mp
mps
mr
mrac
mrak
mraka
mraku
mramor
mraz
mrez
mri
mrkonjic
mrlja
mrlje
mrna
mrnas
mrs
mrtav
mrtva
mrtvac
mrtve
mrtvi
mrtvih
mrtvo
mrtvog
mrz
mrze
mrzi
ms
msb
msh
msi
msn
mt
mtdnk
mtor
mtv
mu
muc
much
mudar
mudraca
mudri
mudrost
mudrosti
mudz
mueller
muftija
muh
muha
muhamed
muhameda
muhammad
muhammed
muhammeda
muhammedu
muharem
muhe
mujezinovic
mujo
muka
muke
muku
mula
mulholland
muller
multi
multietnic
multipla
multiple
muminovic
mun
munara
munare
munarom
munich
municije
municiju
munja
munje
mup
murat
murata
muratovic
murder
murine
murphy
murray
murska
mus
musa
muscle
muscular
musculus
muse
museum
musi
music
musical
muslim
musliman
muslimana
muslimane
muslimani
muslimanima
muslimanska
muslimanske
muslimanski
muslimanskih
muslimanskim
muslimansko
muslimanskog
muslimanskom
muslimansku
muslims
must
mustafa
mustafe
mustafic
musu
mutacija
mutacijama
mutacije
mutacijom
mutaciju
mutant
mutat
mutated
mutation
mutations
mutirani
muz
muzej
muzeja
muzeji
muzeju
muzic
muzici
muzika
muzike
muzikom
muziku
mv
mvp
mw
my
myc
myelin
myeloid
myers
myh
myosin
mystery
myth
mz
n
na
nabijenih
nabla
naboj
naboja
nabor
nabora
nabukodonozor
nac
nach
nacija
nacijama
nacije
naciju
nacional
nacionalista
nacionalisti
nacionalistic
nacionalizam
nacionalizma
nacionalna
nacionalne
nacionalni
nacionalnih
nacionalnim
nacionalno
nacionalnog
nacionalnoj
nacionalnom
nacionalnost
nacionalnosti
nacionalnu
nacista
nacisti
nacistic
nacl
nacrt
nad
nada
nadahnuc
nadajuc
nadal
nadala
nadalje
nadam
nadao
nadbiskup
nadbiskupa
nadbiskupije
nadbubrez
nade
nadgleda
nadgrobni
nadgrobnih
nadh
nadi
nadimak
nadimkom
nadjac
nadlez
nadmas
nadmoc
nadmorska
nadmorske
nadmorskim
nadmorskoj
nadoknaditi
nadolazec
nadovezuje
nadp
nadph
nadraz
nadred
nadu
nadvojvoda
nadz
nadzor
nadzora
nadzorom
nafta
nafte
naftnih
nagase
nagib
naglas
naglasak
naglasio
naglasiti
naglaskom
nagli
naglo
nagovjes
nagovor
nagrada
nagrade
nagradi
nagradom
nagradu
nagrađen
nagrađena
nagrađeni
nah
nahija
nahije
nailazi
naime
nais
naizgled
naizmjenic
naj
najavila
najavio
najavljeno
najavljuje
najbliz
najbogatijih
najbolja
najbolje
najboljeg
najboljem
najbolji
najboljih
najboljim
najboljom
najbolju
najbrojniji
najbrz
najc
najdraz
najduz
najefikasnija
najgore
najgori
najgus
najistaknutiji
najistaknutijih
najistoc
najjac
najjednostavniji
najjuz
najkasnije
najkrac
najlaks
najljeps
najmanja
najmanje
najmanji
najmanjih
najmanju
najmlađa
najmlađi
najmoc
najniz
najnovija
najnovije
najnoviji
najoc
najpopularniji
najpopularnijih
najpoznatija
najpoznatije
najpoznatiji
najpoznatijih
najprestiz
najprije
najprodavaniji
najranije
najraniji
najranijih
najras
najs
najsiromas
najsjajnija
najsnaz
najstabilniji
najstarija
najstarije
najstarijeg
najstariji
najstarijih
najstarijim
najtez
najuspjes
najuz
najvaz
najvec
najvis
najvjerojatnije
najvjerovatnije
najzad
najzastupljeniji
najznac
nakagawa
nakai
nakajima
nakamura
nakayama
nakit
nakita
naklada
naklonost
naknada
naknade
naknadno
naknadu
nakon
nakratko
nakupljanje
nalaz
nalaza
nalaze
nalazi
nalazila
nalazile
nalazili
nalazilo
nalazima
nalazimo
nalazio
nalazis
nalaziti
nalic
nalik
nalikuje
nalikuju
nalog
nalogu
naloz
nam
nama
namaz
namaza
name
namec
named
names
nametnuo
nametnuti
namibija
namibije
namijenjen
namijenjena
namijenjene
namijenjeni
namijenjeno
namirnica
namirnice
namjena
namjene
namjenu
namjera
namjerava
namjeravao
namjere
namjeri
namjerno
namjerom
namjeru
namjes
namjesnik
namjesnika
nana
nancy
nanijeti
nano
nanoc
nanog
nanos
nanosi
nanovo
naoc
naoruz
napad
napada
napadac
napadaju
napadali
napade
napadi
napadima
napadne
napadnu
napadom
napadu
napala
napali
napao
napasti
napetost
napetosti
napis
napisala
napisali
napisan
napisana
napisane
napisani
napisano
napisao
napisati
napitak
naplac
napokon
napole
napoleon
napoleona
napoli
napolje
napomena
napomene
napomenu
napomenuti
napon
napona
napor
napora
napore
napori
naporima
naposljetku
naprave
napravi
napravila
napravili
napravio
napraviti
napravljen
napravljena
napravljene
napravljeni
napravljeno
napredak
napredna
napredne
napredovala
napredovanja
napredovanje
napredovao
napredovati
napreduje
napreduju
napretka
naprezanja
naprijed
naprimjer
naprotiv
napulj
napulja
napus
napuste
napusti
napustila
napustili
napustio
napustiti
nar
naranc
narandz
naras
naraste
narasti
narav
naravi
naravno
naredba
naredbe
naredbi
naredbom
naredbu
naredi
naredio
naredna
naredne
naredni
narednih
narednik
narednim
narednog
narednoj
narednom
narednu
naređenja
naređenje
naređenju
naređeno
naređuje
narjec
naroc
narod
naroda
narode
narodi
narodima
narodna
narodne
narodni
narodnih
narodnim
narodno
narodnog
narodnoj
narodnom
narodnooslobodilac
narodnosni
narodnosti
narodnu
narodom
narodu
naruc
narudz
narus
nas
nasa
naselili
naselja
naseljava
naseljavaju
naseljavali
naseljavanja
naseljavanje
naselje
naseljem
naseljen
naseljena
naseljeni
naseljenih
naseljenim
naseljeno
naseljenosti
naseljima
naselju
nash
nasilja
nasilje
nasiljem
nasilju
nasilno
naslaga
naslage
naslijedi
naslijedila
naslijedio
naslijediti
naslijeđa
naslijeđe
naslikao
nasljedna
nasljedne
nasljedni
nasljednica
nasljednici
nasljednicima
nasljednih
nasljednik
nasljednika
nasljednikom
nasljednom
nasljedstvo
nasljeđa
nasljeđe
nasljeđivanja
nasljeđivanje
nasljeđuje
nasljeđuju
naslov
naslova
naslovna
naslovom
naslovu
naspram
nastaje
nastaju
nastala
nastale
nastali
nastalih
nastalo
nastanak
nastanio
nastanjuje
nastanjuju
nastanka
nastanku
nastao
nastati
nastava
nastavak
nastavaka
nastavci
nastave
nastavi
nastavila
nastavile
nastavili
nastavilo
nastavio
nastaviti
nastavka
nastavku
nastavlja
nastavljaju
nastavljajuc
nastavljen
nastavljena
nastavna
nastavni
nastavnik
nastavnika
nastavu
nastojali
nastojanja
nastojanju
nastojao
nastoje
nastojec
nastoji
nastup
nastupa
nastupaju
nastupala
nastupali
nastupao
nastupati
nastupe
nastupi
nastupila
nastupili
nastupilo
nastupima
nastupio
nastupiti
nastupom
nastupu
nasumic
nasuprot
nat
natalie
natas
natco
nathan
nation
national
nationalism
nations
native
natjec
natjecanja
natl
nato
natpis
natpisa
natpisi
natpisima
natpisom
natpisu
natporodica
natporodice
natrag
natrij
natrija
natriuretic
natur
natural
nature
nauc
nauci
nauk
nauka
naukama
nauke
nauku
nauru
nav
naval
navare
navec
naveden
navedena
navedene
navedeni
navedenih
navedenim
navedeno
navedenog
navedenom
navela
naveli
navelo
naveo
navesti
navijac
navika
navike
navode
navodec
navodi
navodima
navodni
navodnjavanje
navodno
navrata
navrs
naz
nazad
nazionale
naziv
naziva
nazivaju
nazivajuc
nazivala
nazivali
nazivamo
nazivan
nazivao
nazivati
nazive
nazivi
nazivima
nazivom
nazivu
naznac
naznake
nazoc
nazove
nazva
nazvala
nazvali
nazvan
nazvana
nazvane
nazvani
nazvanih
nazvano
nazvanog
nazvanu
nazvao
nazvati
nađe
nađen
nađena
nađene
nađeni
nađeno
nađos
nađu
nb
nba
nbc
nbt
nc
ncb
ncbi
nchen
nchenu
nchez
ncl
nd
nda
ndez
ndh
ne
neal
near
neba
nebeln
nebesa
nebesima
nebeska
nebeske
nebeski
nebeskih
nebesko
nebeskog
nebeskom
nebo
neboder
nebojs
nebom
nebraska
nebu
nebula
nebulae
nebuleuses
nec
neck
necrosis
neda
nedaleko
nedavna
nedavne
nedavni
nedavno
nedd
nedelja
nedic
nedim
nedjelja
nedjelje
nedjelju
nedostaci
nedostaje
nedostaju
nedostajuc
nedostatak
nedostataka
nedostatka
nedostatke
nedostatkom
nedostatku
nedovoljno
nedovrs
nedugo
neduz
nedz
need
nees
neformalno
nefrona
neg
negativan
negative
negativna
negativne
negativni
negativnih
negativnim
negativno
negativnog
negativnom
negativnu
negdje
negev
nego
negoli
nehrđajuc
neil
neill
neispravna
neizbjez
neizjas
nejasan
nejasna
nejasno
nejednakost
nejednakosti
nejm
nejmoa
nek
neka
nekad
nekada
nekadas
nekako
neke
neki
nekih
nekim
nekima
neko
nekodirajuc
nekog
nekoga
nekoj
nekolicina
nekoliko
nekom
nekome
nekropola
nekropole
nekropoli
nekroze
neku
nellie
nelson
nema
nemac
nemaju
nemam
nemamo
nemanja
nemanjic
nemas
nemate
nematoda
nemir
nemira
nemiri
nemoc
nemoguc
nemoj
nemojte
nen
nenad
neo
neobic
neobisium
neobjas
neoc
neodluc
neogranic
neolita
neon
neonatal
neophodan
neophodna
neophodne
neophodni
neophodno
neoplasia
neopredijeljeni
neovisno
neovisnost
nepal
nepca
nepenthes
nephrology
neplodnost
neplodnosti
nepodnos
nepomic
nepos
neposlus
neposredne
neposredni
neposredno
neposrednoj
nepostojec
nepotpuni
nepoz
nepoznat
nepoznata
nepoznate
nepoznati
nepoznatih
nepoznato
nepoznatog
nepoznatom
nepravda
nepravde
nepravdu
nepravedni
nepravedno
nepravilna
nepravilno
nepravilnog
neprekidna
neprekidno
nepreporuc
neprestano
neprijatelj
neprijatelja
neprijatelje
neprijateljem
neprijatelji
neprijateljima
neprijateljske
neprijateljski
neprijateljskih
neprijateljstvo
neprijatelju
nepristupac
neptun
neq
ner
nerava
neravnotez
nered
nereda
neretva
neretvanska
neretve
neretvi
neretvu
nerijes
nerijetko
nermin
nerv
nerva
nerve
nervi
nervna
nervne
nervni
nervnih
nervnim
nervnog
nervnom
nervous
nes
nesavrs
nesiguran
nesis
neslaganja
neslaganje
nesluz
nespecific
nesposobnost
nesrec
nesretan
nesretni
nestabilnost
nestabilnosti
nestaje
nestaju
nestala
nestali
nestalih
nestalo
nestanak
nestane
nestanka
nestao
nestas
nestati
nesumnjivo
nesvjesno
nesvrstanih
net
netac
netflix
netherlands
netko
neto
netretic
network
networks
neu
neuc
neue
neum
neumann
neuobic
neupisani
neupisanih
neural
neuro
neuroanatomy
neurobiology
neurol
neurological
neurology
neurolos
neuron
neurona
neuronal
neurone
neuroni
neuronima
neurons
neuronske
neuronskih
neuropathy
neurosci
neuroscience
neurotransmiter
neurotransmitera
neuspjeh
neuspjeha
neuspjehom
neuspjes
neutralna
neutralne
neutralni
neutron
neutrona
nevada
nevade
nevaljana
nevaz
never
nevesinje
neville
nevjerni
nevjernici
nevjernicima
nevjernika
nevjernike
nevjerovatno
nevolja
nevolje
nevolji
new
newborn
newcastle
newman
news
newton
next
nez
nezadovoljan
nezadovoljstvo
nezaposlenost
nezaposlenosti
nezasic
nezavisan
nezavisna
nezavisne
nezavisni
nezavisnih
nezavisno
nezavisnog
nezavisnost
nezavisnosti
nezavisnu
neznanja
neznatno
nezvanic
nf
nfl
nfsbih
ng
nga
ngc
ngf
nguyen
nh
nhl
ni
nia
nic
nica
nicama
niccolo
nice
nicholas
nichols
nicholson
nicht
nici
nicima
nick
nico
nicola
nicolas
nicole
nicom
nicu
nie
nielsen
niemann
nietzsche
nig
nigdje
nigel
niger
nigerija
nigerije
night
nigra
nih
nihad
nija
nijanse
nijaz
nije
nijec
nijedan
nijedna
nijedno
nijednog
nijednu
nijeg
nijem
nijemaca
nijemci
nijemcima
niji
nijih
nijim
nijom
niju
nik
nika
nikad
nikada
nikakav
nikako
nikakva
nikakve
nikakvih
nikakvo
nikakvog
nikakvu
nikaragva
nike
niki
nikl
nikla
niko
nikog
nikoga
nikola
nikolaj
nikole
nikolic
nikom
nikome
niks
niku
nil
nila
nils
nilsson
nim
nima
nimalo
nimfe
nin
nina
nine
ninja
nintendo
ninu
niro
nis
nisa
nisam
nishikawa
nisi
niska
niske
niski
niskih
niskim
nisko
niskog
niskom
nisku
nismo
niste
nisu
nit
niti
nitko
nitrat
nitrata
nitrogen
nivo
nivoa
nivoe
nivoi
nivoima
nivoom
nivou
niz
niza
nizak
nizije
nizom
nizozemska
nizozemske
nizozemski
nizu
nizvodno
nj
nja
njac
njaci
njacima
njak
njaka
njake
njama
njan
njava
njavaju
njavajuc
njavanja
njavanje
njavanju
nje
njeg
njega
njege
njegos
njegov
njegova
njegove
njegovi
njegovih
njegovim
njegovo
njegovog
njegovoj
njegovom
njegovu
njegu
njem
njemac
njemu
njen
njena
njene
njeni
njenih
njenim
njenja
njenje
njenju
njeno
njenog
njenoj
njenom
njenu
njeva
njez
njezin
njezina
njezine
njezinu
nji
njic
njica
njice
njici
njicu
njih
njihov
njihova
njihove
njihovi
njihovih
njihovim
njihovo
njihovog
njihovoj
njihovom
njihovu
njim
njima
njime
njiva
njive
njoj
njom
njome
njost
njosti
nju
njujors
njus
nk
nkvd
nl
nlm
nm
nmda
nmr
nn
no
noafric
noameric
noarmenski
nob
nobel
nobelova
nobelove
nobelovu
nobelprize
noble
noc
node
noel
nofantastic
nog
noga
nogama
noge
nogo
nogom
nogomet
nogometa
nogometas
nogometna
nogometne
nogometni
nogometnih
nogometnim
nogometno
nogometnog
nogometnoj
nogometnom
nogometnu
nogometu
nogu
noj
nokaut
nokia
nolte
nom
nome
nomenclature
nomenklatura
nomenklature
nomenklaturi
nomenklaturu
nominacija
nominacije
nominaciju
nominativ
nominees
nominiran
nominirana
nominovan
nomura
non
nonjemac
nonsens
nop
nor
nord
norma
normal
normalan
normalization
normalna
normalne
normalni
normalnih
normalnim
normalno
normalnog
normalnoj
normalnom
normalnu
normama
norman
norme
normi
normu
norris
north
northern
norton
norves
norvez
norway
nos
nosa
nosac
nose
nosec
nosi
nosila
nosilac
nosilaca
nosile
nosili
nosio
nosioca
nosioci
nositelj
nositelja
nositelji
nositi
noslavenskih
nosne
nost
nosti
nostima
not
notariae
notch
note
notes
nothing
notosacantha
notranjska
notre
nou
nov
nova
novac
novak
novaki
novakovic
novc
novca
novcem
novcu
nove
novel
novela
novele
novembar
november
novembra
novembru
novi
novih
novija
novije
noviji
novijim
novim
novina
novinama
novinar
novinara
novinare
novinari
novinarima
novinarka
novinarstvo
novine
novinski
novj
novkovic
novo
novog
novogodis
novoj
novom
novorođenc
novost
novosti
novu
now
noz
np
npc
npr
nr
nrg
ns
nsa
nsdap
nt
nter
nther
nu
nuclear
nucleic
nucleolar
nucleolus
nucleotide
nucleus
nude
nudi
nuh
nuklearna
nuklearne
nuklearni
nuklearnih
nuklearnim
nuklearno
nuklearnog
nuklearnoj
nuklearnom
nuklearnu
nukleinske
nukleinskih
nukleotid
nukleotida
nula
nule
nuli
null
nulti
nultog
number
numbers
numeric
nun
nur
nus
nuspojava
nuspojave
nutrition
nuts
nutt
nuz
nv
nw
ny
nytimes
nz
o
oa
oak
ob
oba
obala
obalama
obale
obali
obalno
obalom
obalu
obama
obaveza
obavezama
obavezan
obaveze
obavezna
obavezni
obavezno
obavezu
obavezuje
obavezujuc
obavi
obavijes
obavijesti
obavijestio
obavio
obaviti
obavjes
obavlja
obavljaju
obavljala
obavljali
obavljanja
obavljanje
obavljao
obavljati
obavljen
obavljena
obavljeno
obe
obec
oberkrain
oberliga
obes
obesity
obezbjedila
obezbjeđuje
obi
obic
obilja
obilje
obiljez
obilno
obiluje
obim
obima
obimu
obis
obitelj
obitelji
objas
objasni
objasnio
objasniti
objava
objave
objavi
objavila
objavile
objavili
objavio
objaviti
objavljen
objavljena
objavljene
objavljeni
objavljenih
objavljeno
objavljenom
objavljivanja
objavljivanje
objavljivao
objavljuje
objavljuju
obje
object
objedinjuje
objekat
objekata
objekt
objekta
objekte
objekti
objektima
objektivno
objektu
objema
objes
oblac
oblaci
oblacima
oblak
oblaka
oblake
oblaku
oblas
oblast
oblasti
oblastima
oblaz
oblic
oblici
oblicima
oblik
oblika
oblike
oblikom
oblikovanje
oblikovanju
obliku
oblikuje
oblikuju
obliz
obloz
obnas
obnavlja
obnavljanje
obnova
obnove
obnovi
obnovio
obnoviti
obnovljen
obnovljena
obnovu
obodu
obogac
oboje
obojena
obojene
obojeni
obojica
oboljelih
oboljenja
oboljenje
oboren
oborio
oboriti
oboz
obr
obrac
obrada
obrade
obradi
obradovic
obradu
obrane
obranu
obrasca
obrasce
obrasci
obrascima
obrascu
obrati
obratio
obratiti
obratno
obraz
obrazac
obrazaca
obrazloz
obrazovanja
obrazovanje
obrazovanju
obrazovne
obrazovni
obrazovno
obrazuje
obrazuju
obrađeni
obrađuje
obrađuju
obred
obreda
obrenovic
obrisano
obrnuto
obroka
obroncima
obrtaja
obruc
observations
observatoire
observatory
observe
observer
obstetrics
obuc
obuhvac
obuhvata
obuhvataju
obuhvatala
obuhvatao
obuke
obuku
obzir
obzira
obzirom
oc
oca
ocean
ocem
och
ocijenio
ocjena
ocjene
ocjenjuje
ocjenom
ocjenu
oclc
oct
octhispa
october
ocu
od
oda
odabir
odabira
odabrali
odabran
odabrana
odabrane
odabrani
odabranih
odabrao
odabrati
odaje
odaju
odakle
odanost
odas
odatle
odavde
odavno
odbac
odbacili
odbacio
odbaciti
odbacivanje
odbacuje
odbacuju
odbija
odbijaju
odbijanja
odbijanje
odbije
odbijen
odbijeni
odbila
odbili
odbio
odbiti
odbojkas
odbor
odbora
odbori
odboru
odbrambene
odbrambeni
odbrambenih
odbrambenog
odbrana
odbrane
odbrani
odbranila
odbranio
odbraniti
odbranu
ode
odewahn
odgoj
odgovara
odgovaraju
odgovarajuc
odgovarala
odgovarao
odgovarati
odgovor
odgovora
odgovoran
odgovore
odgovori
odgovorila
odgovorili
odgovorio
odgovoris
odgovoriti
odgovorna
odgovorne
odgovorni
odgovornih
odgovornim
odgovorno
odgovornog
odgovornost
odgovornosti
odgovoru
odigrala
odigrale
odigrali
odigralo
odigran
odigrana
odigrane
odigranih
odigrano
odigrao
odigrati
odigravanja
odijela
odijelo
odisej
odiseja
odjec
odjednom
odjek
odjel
odjela
odjeljak
odjeljenja
odjeljenje
odjelu
odlaska
odlazak
odlaze
odlazi
odlic
odlika
odlike
odlikovan
odlikovanja
odlikovanje
odlikuje
odlikuju
odlomak
odloz
odluc
odluci
odluka
odlukama
odluke
odlukom
odluku
odmah
odmor
odmora
odn
odnese
odnijela
odnijeti
odnio
odnos
odnosa
odnose
odnosi
odnosila
odnosima
odnosio
odnositi
odnosno
odnosom
odnosu
odobrava
odobren
odobrena
odobrenja
odobrenje
odobrila
odobrio
odos
odozdo
odozgo
odrasla
odrasle
odrasli
odraslih
odraslog
odrasloj
odrastao
odraz
odrec
odred
odreda
odredbama
odredbe
odredbi
odrede
odredi
odredila
odredili
odredio
odredis
odrediti
odrednica
odrekao
određen
određena
određene
određeni
određenih
određenim
određeno
određenog
određenoj
određenom
određenu
određivanja
određivanje
određivanju
određuje
određuju
odric
odrjes
odrz
ods
odsjec
odsjek
odsjeka
odsjeku
odsluz
odstupanja
odstupanje
odsustva
odsustvo
odsustvu
odsutan
odsutnosti
odu
oduprijeti
odus
odustala
odustao
oduvijek
oduzeo
oduzeta
oduzeti
oduzima
oduzimanje
oduzimanjem
odvaja
odvajaju
odvajanja
odvajanje
odvaz
odvede
odveden
odveli
odveo
odvesti
odvija
odvijaju
odvijala
odvijao
odvijati
odvode
odvodi
odvojen
odvojena
odvojene
odvojeni
odvojenih
odvojenim
odvojeno
odvoji
odvojila
odvojili
odvojio
odvojiti
odvrac
odz
oecd
of
ofanziva
ofanzive
ofanzivu
off
office
official
oficir
oficira
oficiri
og
oganj
ogawa
oglas
ogleda
ogledala
ogledalo
ogledalu
ognjen
ognjis
ogorc
ogranak
ogranic
ogranka
ogroman
ogromna
ogromne
ogromni
ogromnih
ogromnim
ogromno
ogromnog
ogromnom
ogromnu
ogrtac
ogulin
oh
ohara
ohio
oi
oil
ois
oj
ojac
ok
oka
okci
okean
okeana
okeanije
okeanu
okidac
oklahoma
oklop
oklopa
oklopna
oklopne
oklopni
oklopnih
oklopno
oklopom
oko
okolina
okoline
okolini
okolinom
okolinu
okolis
okolna
okolne
okolnih
okolnim
okolnog
okolnosti
okolnostima
okolo
okom
okomito
okonc
okos
okrec
okrene
okrenu
okrenuli
okrenuo
okrenut
okrenuta
okrenuti
okriljem
okrs
okrug
okruga
okruge
okrugli
okrugom
okrugu
okrunjen
okruz
okruzi
okruzima
oksid
oksida
oksidacija
oksidacije
oksidacijsko
oksidaciju
oksidaza
oksidi
oksidira
oktavijan
oktobar
oktobra
oktobru
oku
okupacija
okupacije
okupacijom
okupatora
okupili
okupio
okupirala
okuplja
okupljaju
okupljanja
okupljanje
okus
okusa
okvir
okvira
okvire
okviri
okvirima
okviru
ol
ola
olaf
olajuwon
olakovic
olaks
old
ole
oleg
olga
olic
oligo
oligoribonucleotides
olimpijada
olimpijade
olimpijadi
olimpijska
olimpijske
olimpijski
olimpijskih
olimpijskim
olimpijskog
olimpijskom
oliv
oliveira
oliver
olivera
olivia
olivier
oljan
olova
olovo
olovom
olovu
olsen
olson
oltar
oltara
oltaru
oluja
oluje
olympiacos
olympic
olympics
om
oman
omar
omega
omer
omera
ometa
ometaju
omiljena
omiljeni
omim
omis
omjer
omjera
omjerom
omjeru
omladine
omladinske
omladinski
omladinskim
omladinskom
omnia
omnibus
omoguc
omot
omotac
on
ona
onaj
onako
onamo
onc
once
oncogene
oncol
oncology
onda
ondas
ondje
one
onemoguc
oni
onih
onim
onima
online
only
ono
onog
onoga
onoj
onoliko
onom
onome
onosma
onset
ontario
ontolos
onu
op
opac
opada
opadanja
opala
opasan
opasna
opasne
opasni
opasnih
opasnim
opasno
opasnost
opasnosti
opatija
opatije
opatiji
opaz
opc
opcija
opcije
opciju
open
opena
openai
opening
openu
opera
operacija
operacijama
operacije
operaciji
operacijom
operaciju
operatera
operation
operativna
operativne
operativni
operativnih
operativnim
operativnog
operativnom
operativnu
operator
operatora
operatorname
opere
operi
operon
operona
operu
opet
ophthalmol
ophthalmology
opi
opic
opin
opinion
opis
opisa
opisala
opisali
opisan
opisana
opisane
opisani
opisanih
opisano
opisao
opisati
opisi
opisivanje
opisu
opisuje
opisuju
opisujuc
opljac
oplodnja
oplodnje
opomena
oponas
oporavak
oporavka
opozicija
opozicije
opoziciju
opras
oprati
opravdanja
opravdanje
opravdano
opredijeljeni
oprema
opreme
opremljen
opremljena
opremljeni
opremom
opremu
opros
oprost
oprosti
oprostio
oprostiti
ops
opsada
opsade
opsadi
opsadom
opsadu
opseg
opsega
opsegu
opservatorija
opservatorije
opsez
opskrbe
opskrbu
opsluz
opstanak
opstanka
opterec
optic
opticaj
opticaju
optical
optics
option
optuz
opus
opusa
opustos
or
orah
orahovica
oral
oralno
orange
oranje
orao
oras
orbita
orbitala
orbitale
orbitalni
orbite
orbiti
orbitu
orchis
orden
ordena
ordenom
order
orders
oregon
orehovec
ores
orf
orfeome
org
organ
organa
organe
organela
organele
organi
organic
organima
organisation
organism
organisms
organizacija
organizacijama
organizacije
organizaciji
organizacijom
organizaciju
organizam
organizama
organization
organizator
organizatora
organizatori
organizing
organizira
organiziraju
organizirala
organizirali
organiziran
organizirana
organizirane
organizirani
organiziranje
organizirano
organizirao
organizirati
organizma
organizme
organizmi
organizmima
organizmu
organizovan
organizovana
organizovane
organizovani
organizovao
organizuje
organizuju
organska
organske
organski
organskih
organskim
organskog
organskoj
orgazam
orguljas
orgulje
orhan
orhideja
oric
origin
original
originala
originalna
originalne
originalni
originalnih
originalnim
originalno
originalnog
originalnoj
originalnom
originalnu
origins
orijentacija
orijentacije
orijentaciji
orijentaciju
orijentalni
orijentalnu
orion
orkestar
orkestra
orkestrom
orla
orlando
orle
orleans
ormond
ormoz
oro
orovic
orphanet
orrell
ortologa
ortolozi
oruz
oruđa
oruđe
os
osa
osam
osamdeset
osamdesetih
osamnaest
osborne
oscar
oscara
oscars
ose
osec
osi
osic
osigura
osigurala
osigurali
osiguralo
osigurana
osiguranja
osiguranje
osigurao
osigurati
osigurava
osiguravaju
osiguravajuc
osijek
osijeku
osim
osiromas
osjec
osjeti
osjetila
osjetio
osjetiti
osjetljiv
osjetljiva
osjetljive
osjetljivi
osjetljivost
osjetljivosti
oskar
oskara
oslanja
oslanjaju
oslanjajuc
oslo
oslobađa
oslobađaju
oslobađajuc
oslobađanja
oslobađanje
oslobađanjem
oslobodi
oslobodila
oslobodilac
oslobodili
oslobodio
osloboditi
oslobodjenje
oslobođen
oslobođena
oslobođeni
oslobođenja
oslobođenje
oslonac
oslovi
oslu
osma
osman
osmana
osmanagic
osmanlija
osmanlijama
osmanlije
osmanlijska
osmanlijske
osmanlijski
osmanlijskih
osmanlijskim
osmanlijsko
osmanlijskog
osmanlijskom
osmanlijsku
osmanska
osmanske
osmanski
osmansko
osmanskog
osmanskom
osmatrac
osme
osmi
osmini
osminu
osmis
osmislio
osmog
osnaz
osniva
osnivac
osnivaju
osnivanja
osnivanje
osnivanjem
osnivanju
osnov
osnova
osnovala
osnovali
osnovama
osnovan
osnovana
osnovane
osnovani
osnovano
osnovao
osnovati
osnove
osnovi
osnovna
osnovne
osnovni
osnovnih
osnovnim
osnovno
osnovnog
osnovnoj
osnovnom
osnovnu
osnovu
osoba
osobama
osobe
osobenosti
osobi
osobina
osobinama
osobine
osobinu
osobito
osoblja
osoblje
osobne
osobno
osobom
osobu
osovina
osovine
osta
ostac
ostaci
ostacima
ostade
ostaje
ostaju
ostala
ostale
ostali
ostalih
ostalim
ostalima
ostalo
ostalog
ostane
ostani
ostanu
ostao
ostatak
ostataka
ostati
ostatka
ostatke
ostatkom
ostatku
ostavi
ostavila
ostavili
ostavilo
ostavio
ostaviti
ostavivs
ostavke
ostavku
ostavlja
ostavljaju
ostavljajuc
ostavljeni
ostavs
osteogenesis
ostoja
ostoje
ostojic
ostroz
ostrva
ostrvima
ostrvo
ostrvom
ostrvu
ostvare
ostvaren
ostvarena
ostvarenja
ostvarenje
ostvari
ostvarila
ostvarili
ostvario
ostvariti
ostvarivanja
ostvarivanje
ostvarivanju
ostvaruje
ostvaruju
osu
osudio
osudu
osumnjic
osus
osuđen
osuđena
osuđeni
osuđuje
osvaja
osvajac
osvajaju
osvajali
osvajanja
osvajanje
osvajanjem
osvajanju
osvajao
osveta
osvete
osveti
osvetiti
osvetu
osvjez
osvojen
osvojena
osvojene
osvojenih
osvoji
osvojila
osvojile
osvojili
osvojio
osvojiti
osvojivs
oswald
ot
ota
otac
otaca
otad
otada
otadz
oteo
oteti
otez
other
others
otic
oticanje
otis
otk
otkad
otkako
otkaz
otkric
otkrije
otkriju
otkrila
otkrile
otkrili
otkrilo
otkrio
otkriti
otkriva
otkrivaju
otkrivajuc
otkrivanja
otkrivanje
otkrivanju
otkriven
otkrivena
otkrivene
otkriveni
otkrivenih
otkriveno
otkucaja
otkud
otkupio
otoc
otoci
otocima
otok
otoka
otoke
otoku
oton
otopina
otopine
otopini
otpad
otpada
otpadnih
otpjevao
otpoc
otpor
otpora
otporan
otpornost
otpornosti
otprilike
otpus
otpusti
otputovao
otrov
otrova
otrovan
otrovne
otrovni
otto
ottoman
otud
otuda
otvara
otvaraju
otvaranja
otvaranje
otvaranjem
otvaranju
otvor
otvora
otvore
otvoren
otvorena
otvorene
otvoreni
otvorenih
otvorenim
otvoreno
otvorenog
otvorenom
otvorenu
otvori
otvorila
otvorili
otvorio
otvoriti
otvorom
ou
our
out
outcome
outcomes
outer
outlook
ov
ova
ovaca
ovaj
ovakav
ovako
ovakva
ovakve
ovakvi
ovakvih
ovakvim
ovakvo
ovakvog
ovamo
ovan
ovarian
ovc
ovca
ovce
ovde
ovdje
ove
ovec
over
overexpression
overline
overrightarrow
overview
ovi
ovic
ovih
ovim
ovima
ovisan
ovise
ovisi
ovisna
ovisne
ovisni
ovisno
ovisnost
ovisnosti
ovita
ovite
oviti
ovito
ovitoj
ovjec
ovjek
ovjeka
ovjekom
ovjekov
ovjekova
ovjekove
ovjeku
ovjes
ovlas
ovlasti
ovna
ovo
ovog
ovoga
ovoj
ovojnice
ovom
ovome
ovu
ovulacije
owen
own
oxford
oxfordjournals
oxfordu
oxidase
oxidation
oxidative
oxide
oxygen
oz
ozalj
ozbiljan
ozbiljna
ozbiljne
ozbiljnih
ozbiljnije
ozbiljnim
ozbiljno
ozbiljnost
ozbiljnosti
ozbiljnu
ozlja
ozljeda
ozljede
oznac
oznaka
oznakama
oznake
oznakom
oznaku
ozren
p
pa
pablo
pac
pachybrachis
pacific
pacifika
pacifiku
pacifista
pacijenata
pacijent
pacijenta
pacijente
pacijenti
pacijentima
pacijentu
pacova
pad
pada
padaju
padavina
padavine
pade
padez
padina
padinama
padine
padne
padom
padu
pag
page
pages
paglinawan
pagon
pah
pai
pain
pak
paka
pakao
paket
paketa
pakistan
pakistana
pakistanu
pakla
paklu
pakrac
pakt
pakta
pala
palac
palace
palanka
palata
palate
palati
palca
pale
paleolita
paleolog
palestina
palestine
palestini
palestinu
palgrave
pali
paljbe
paljenje
palm
palma
palme
palmer
palo
pamc
pamela
pamet
pametan
pameti
pametni
pamti
pamuk
pamuka
pan
panama
panathinaikos
panc
panci
pancreatic
pandan
pandemije
pandz
panel
panela
panic
panija
panije
paniji
panijom
paniju
pankreasa
panonije
panorama
panska
panske
panski
panskih
panskim
pansko
panskog
panskoj
panskom
pansku
panzer
pao
paolo
papa
pape
paper
papers
papi
papir
papira
papiru
papom
paprati
paprika
papu
papua
par
para
paracetamol
parade
paradoks
paragvaj
paralela
paralelna
paralelne
paralelni
paralelnih
paralelno
paraliza
paralize
parametar
parametara
parametars
parameter
parametra
parametru
paramount
parasimpatic
parasite
paravojne
paravojnih
parazit
parazita
paraziti
parc
pare
parenja
parenje
pari
paris
pariski
pariskog
pariz
pariza
parizu
park
parka
parker
parkin
parkinson
parkova
parkovi
parks
parku
parlament
parlamenta
parlamentarna
parlamentarne
parlamentarni
parlamentarnih
parlamentarnim
parlamentu
parliament
parma
parne
parni
parom
parova
parove
parovi
parovima
parry
pars
parsons
part
partial
particle
partija
partijama
partije
partiji
partiju
partizan
partizana
partizani
partizanima
partizanska
partizanske
partizanski
partizanskih
partizanskog
partner
partnera
partneri
partners
partnerstva
partnerstvo
parts
party
paru
pas
pasa
pascal
pascher
pasiv
pasivno
pasmina
pasos
pass
past
pasti
pastir
pastira
pat
pate
patel
patent
path
pathogenesis
pathol
pathology
pathophysiology
pathway
pathways
pati
patient
patients
patio
patnja
patnje
patnju
patogena
patogene
patogeni
patologija
patolos
patricia
patrick
patrijarh
patrijarha
patrijars
patriotske
pattern
patterns
patterson
patton
patuljak
patuljaka
patuljasta
patuljci
pauk
paul
paula
pauling
paulo
paun
pauza
pauze
pavao
pavel
pavelic
pavic
pavla
pavle
pavlic
pavlovic
pax
paz
pazar
pazi
pazin
pazite
paziti
pazus
pb
pbs
pc
pcr
pd
pdb
pdf
pdgf
pdp
pdz
pe
pea
peace
peak
pearl
pearson
pec
pedagog
pedagos
pedersen
pedeset
pedesetih
pediatr
pediatric
pediatrics
pedro
pegamber
pegambera
pegamberim
pegaz
pehar
pei
pejzaz
pekic
pekingu
pelagic
pele
peljes
pen
penala
pendz
peng
penguin
penis
penisa
penjac
penjanje
penje
penn
pennsylvania
penziju
people
peoples
pepela
pepeo
pepsi
pepsin
peptid
peptida
peptidaza
peptide
peptides
peptidi
per
pera
peraja
peraje
percepcija
percepcije
pereira
perez
performance
performanse
performansi
peric
periferiji
periferne
periferni
perifernih
perifernim
period
perioda
periode
periodi
periodic
periodima
periodnog
periodnom
periodom
periodu
peripheral
perja
perje
perk
perkovic
pero
peroksid
perovic
perpera
perrier
perry
pers
person
personal
perspective
perspectives
perspektiva
perspektive
peru
perua
perufootball
perus
peruu
perz
perzej
perzija
perzijanaca
perzijanci
perzije
perzijska
perzijske
perzijski
perzijskih
perzijsko
perzijskog
perzijskom
pes
pesme
pesnica
pet
peta
petak
petar
pete
peteljke
peter
petera
peterburg
peterburgu
petero
peters
petersburg
petersen
peterson
peti
petit
petkovic
petlja
petlje
petlji
petlju
petnaest
peto
petog
petogodis
petoj
petom
petra
petric
petrinja
petrinje
petrov
petrova
petrovac
petrovic
petrovo
petru
petu
pez
pf
pfam
pg
pgc
pgen
pgp
ph
pharmaceutical
pharmacol
pharmacological
pharmacology
phase
phaseolus
phd
phe
phenotype
phenotypes
phenotypic
phi
phil
philadelphia
philip
philipp
philippe
phillip
phillips
philosophical
philosophy
phlox
phoebe
phoenix
phone
phosphatase
phosphate
phosphatidylinositol
phosphoproteins
phosphorylation
photo
photos
php
phylogenetic
phylogenetics
phylogeny
phylum
phys
physical
physics
physiol
physiological
physiology
physrev
phytotaxa
pi
pic
pick
picture
pictures
pierce
pierre
pietro
pigment
pigmenta
pigmenti
pijanist
pije
pijesak
pijeska
pijesku
piju
pik
pili
pilot
pilota
pin
ping
pink
pinus
pio
pioneer
pionir
pionira
piotr
pipeline
piper
pir
piramida
piramide
pirati
pirelli
piruvat
pis
pisac
pisaca
pisala
pisali
pisalo
pisama
pisan
pisana
pisane
pisani
pisanih
pisanim
pisanja
pisanje
pisanjem
pisanju
pisano
pisao
pisati
pisca
pisce
pisci
pisma
pismenost
pismenosti
pismima
pismo
pismom
pismu
pit
pita
pitaju
pitali
pitanja
pitanje
pitanjem
pitanjima
pitanju
pitao
pitati
piti
pitke
pitt
pittsburgh
pituitary
piva
pivka
pivo
piwi
pj
pjege
pjes
pjesama
pjesma
pjesmama
pjesme
pjesmi
pjesmom
pjesmu
pjesnic
pjesnici
pjesnik
pjesnika
pjesnikinja
pjesnis
pjeva
pjevac
pjevaju
pjevala
pjevali
pjevanja
pjevanje
pjevanjem
pjevao
pjevati
pk
pka
pl
plac
place
placebo
placenta
placente
places
plakati
plaketa
plamen
plamena
plamenom
plan
plana
planck
plane
planet
planeta
planetarna
planetary
planete
planeti
planetu
planica
planina
planinama
planinarski
planine
planini
planinom
planinska
planinske
planinski
planinskih
planinskim
planinsko
planinskog
planinskom
planinu
planira
planiraju
planiran
planirana
planiranja
planiranje
planirano
planirao
plankton
planning
planom
planova
planove
planovi
planovima
plans
plant
plantae
plantarum
plantaz
plants
planu
plas
plasirala
plasirale
plasirali
plasirao
plasma
plasman
plasmana
plasmanu
plasmodium
plastic
plasticity
plastid
plastike
plata
plate
platelet
platform
platforma
platforme
platformi
platformu
plati
platina
platine
platinum
platio
platiti
platna
platnu
plato
platoa
platon
platou
plav
plava
plave
plavi
plavih
plavim
plavo
plavog
plavoj
plavom
plavs
plavu
play
player
players
plays
playstation
plaz
plazma
plazme
plazmi
plc
please
plec
pleme
plemena
plemenima
plemeniti
plemenitih
plemenitog
plemenu
plemic
plemkinja
plemstva
plemstvo
ples
plesa
plesac
plijen
plijena
plijesni
plin
plina
plinije
plinova
plinovi
plitvic
pliva
plivac
plivanje
plivanju
pljac
pljevlja
pljuvac
ploc
plod
ploda
plodna
plodne
plodno
plodnost
plodnosti
plodova
plodove
plodovi
plodovima
plos
ploso
pluc
plus
plutajuc
plutarh
pluton
plutonija
pluz
plzen
pm
pmc
pmid
pml
pn
pnas
pne
po
poa
pobac
pobijedi
pobijedila
pobijedili
pobijedio
pobijediti
pobijedivs
pobjec
pobjeda
pobjedama
pobjede
pobjedi
pobjedila
pobjedio
pobjednic
pobjednica
pobjednici
pobjednik
pobjednika
pobjedom
pobjedu
pobjegao
pobjegla
pobjegli
pobjegne
pobjez
pobjeđuje
pobjeđuju
poboljs
poboz
pobuna
pobune
pobuni
pobunili
pobunio
pobunjenic
pobunjenici
pobunjenika
pobunu
poc
pocket
pod
poda
podaci
podacima
podanika
podatak
podataka
podatke
podc
podebljani
podes
podgora
podgorica
podgorice
podgorici
podgorje
podgrađe
podic
podigao
podigli
podigne
podignut
podignuta
podignute
podignuti
podijeli
podijelili
podijelio
podijeliti
podijeljen
podijeljena
podijeljene
podijeljeni
podijeljenih
podijeljeno
podiz
podizanja
podizanje
podjedinica
podjedinice
podjedinicu
podjednako
podjela
podjele
podjeli
podjeljena
podjelom
podjelu
podlijez
podloga
podloge
podlogu
podloz
podlozi
podmornica
podne
podnese
podnijela
podnijeti
podnio
podnos
podnose
podnosi
podnoz
podobnosti
podravska
podravskoj
podraz
podrazred
podrazumijeva
podrazumijevaju
podred
podrinje
podrs
podruc
podruz
podrz
podsjec
podsjetnik
podskup
podstic
podsticanje
podstrana
podtip
podu
poduc
podudara
poduhvat
poduhvata
poduzec
podvrgnut
podvrgnuti
podvrsta
podvrste
podzemna
podzemne
podzemni
podzemnih
podzemnim
poe
poema
poena
poeni
poetry
poezija
poezije
poeziji
poeziju
pogana
pogađa
pogađaju
poginula
poginuli
poginulih
poginulo
poginuo
pogl
poglavar
poglavara
poglavari
poglavica
poglavlja
poglavlje
pogled
pogleda
pogledaj
pogledajte
pogledati
poglede
pogledi
pogledom
pogledu
pogodak
pogodaka
pogodan
pogodi
pogodila
pogodio
pogodna
pogodne
pogodnim
pogodno
pogon
pogona
pogors
pogotka
pogotovo
pogođen
pogođena
pogođene
pogođeni
pogođenih
pogođeno
pogranic
pogres
pogrijes
pogubljen
pogubljenja
pogubljenje
pohađa
pohađala
pohađao
pohod
pohoda
pohodu
pohorju
pohranu
pohvale
pohvalio
point
points
poirot
poistovjec
poj
pojac
pojam
pojas
pojasa
pojasu
pojava
pojavama
pojave
pojavi
pojavila
pojavile
pojavili
pojavilo
pojavio
pojaviti
pojavljivanja
pojavljivanje
pojavljivao
pojavljivati
pojavljuje
pojavljuju
pojavom
pojavu
pojedinac
pojedinaca
pojedinca
pojedince
pojedinci
pojedincima
pojedine
pojedini
pojedinih
pojedinim
pojesti
pojma
pojmom
pojmova
pojmove
pojmovi
pojskic
pokal
pokaz
pokaza
pokazala
pokazale
pokazali
pokazalo
pokazano
pokazao
pokazatelj
pokazatelja
pokazatelji
pokazati
pokazivac
pokazivao
pokazivati
pokazuje
pokazuju
pokazujuc
poke
pokemon
poklapa
poklon
poklone
pokloni
poklonio
poklopac
pokojnika
pokolj
pokopan
pokraj
pokrajina
pokrajinama
pokrajine
pokrajini
pokrajinom
pokrajinu
pokrec
pokrene
pokrenula
pokrenuli
pokrenuo
pokrenut
pokrenuta
pokrenuti
pokret
pokreta
pokretac
pokretanja
pokretanje
pokrete
pokreti
pokretima
pokretljivost
pokretljivosti
pokretne
pokretni
pokretnih
pokretom
pokretu
pokriti
pokriva
pokrivac
pokrivaju
pokriven
pokrivena
pokriveni
pokrov
pokroviteljstvom
pokrs
pokus
pol
pola
polaganje
polahko
polako
poland
polarna
polarne
polaz
polaze
polazec
polazi
polazis
pole
polen
polena
polhov
poli
policajac
policajaca
policajca
policajci
police
policija
policije
policiji
policijska
policijske
policijski
policijskih
policiju
policy
poliglota
polimera
polimeraza
polimeraze
polimorfizam
polimorfizama
polipeptid
polipeptidnog
polish
politic
political
politici
politics
politika
politike
politikom
politiku
polja
poljaci
poljaka
poljana
poljane
polje
poljem
poljice
poljima
poljoprivreda
poljoprivrede
poljoprivredi
poljoprivredna
poljoprivredne
poljoprivredni
poljoprivrednih
poljoprivredno
poljoprivredom
poljoprivredu
poljska
poljske
poljski
poljskih
poljskim
poljsko
poljskog
poljskoj
poljskom
poljsku
polju
poljubac
poljubi
polka
polo
polova
polovici
polovima
polovina
polovine
polovini
polovinom
polovinu
poloz
polu
poluautomatski
polubrat
polubrata
polufinala
polufinale
polufinalu
poluge
polukruz
polumjesec
poluostrva
poluostrvo
poluostrvu
poluotoka
poluotoku
poluprec
poluraspada
poluvremenu
poluz
poly
polycystic
polygon
polymerase
polymorphism
polymorphisms
polypeptide
pomagac
pomagala
pomagali
pomaganje
pomagao
pomagati
pomak
pomaka
pomalo
pomaz
pomenute
pomenuti
pomenutih
pomic
pomicanje
pomijes
pominje
pominju
pomirenja
pomisli
pomjera
pomnoz
pomoc
pomogao
pomogla
pomogli
pomoglo
pomogne
pomognu
pomorska
pomorske
pomorski
pomorskih
pomorsku
pompej
pomrac
pomurska
ponajvis
ponas
ponavlja
ponavljaju
ponavljajuc
ponavljanja
ponavljanje
pone
ponedjeljak
ponegdje
ponekad
ponis
poniz
ponoc
ponor
ponos
ponosa
ponovi
ponovio
ponoviti
ponovni
ponovno
ponovnog
ponovnom
ponovo
pont
ponuda
ponude
ponudi
ponudili
ponudio
ponuditi
ponudu
ponuđena
pony
poor
pop
popa
pope
popeo
popis
popisa
popisnika
popisu
poplava
poplave
popov
popovac
popovic
popovo
poprac
popravak
popravio
popraviti
popravka
popravke
popravku
poprec
poprilic
poprima
populacija
populacijama
populacije
populaciji
populacijom
populaciju
popular
popularan
popularna
popularne
popularni
popularnih
popularnim
popularno
popularnog
popularnoj
popularnost
popularnosti
population
populations
popus
poput
por
pora
porasla
porast
porasta
porastao
porastom
porastu
poravnanja
poraz
poraza
porazila
porazili
porazio
porazom
porazu
pore
porec
pored
poredak
poredani
porediti
poremec
poretka
poretku
porez
poreza
poreze
poređenja
poređenje
poređenju
porfirija
poric
porijekla
porijeklo
porijeklom
porijeklu
porodi
porodic
porodica
porodicama
porodice
porodici
porodicom
porodicu
porođaja
porphyria
porsche
port
porta
portal
portala
portalu
porte
porter
portland
porto
portoriko
portret
portreta
portugal
portugala
portugalci
portugalske
portugalski
portugalskog
portugalu
portulaca
poruc
poruka
poruke
poruku
porus
pos
posada
posade
posadom
posadu
posao
posavine
posavska
poseban
posebice
posebna
posebne
posebni
posebnih
posebnim
posebno
posebnog
posebnoj
posebnom
posebnost
posebnosti
posebnu
position
positive
posjec
posjed
posjeda
posjede
posjedi
posjedovanje
posjedovao
posjedovati
posjedu
posjeduje
posjeduju
posjeta
posjete
posjeti
posjetilaca
posjetio
posjetiti
posjetu
posla
poslala
poslali
poslan
poslana
poslani
poslanic
poslanici
poslanik
poslanika
poslanike
poslaniku
poslao
poslati
posle
poslije
posljedic
posljedica
posljedicama
posljedice
posljedicu
posljednja
posljednje
posljednjeg
posljednjem
posljednji
posljednjih
posljednjim
posljednjoj
posljednju
poslom
poslova
poslovanja
poslovanje
poslovanju
poslove
poslovi
poslovice
poslovima
poslovna
poslovne
poslovni
poslovnih
poslovnim
poslovnog
poslu
poslus
posluz
posmatra
posmatrac
posmatraju
posmatranja
posmatranje
posmatrao
posmatrati
posmrtni
pospjes
posrednik
posrednika
posrednis
posredno
posredovana
posredovane
posredovanje
posredstvom
posreduje
posreduju
possible
post
posta
postac
postade
postaje
postaju
postajuc
postala
postale
postali
postalo
postanak
postane
postanka
postanu
postao
postati
postava
postave
postavi
postavila
postavili
postavio
postaviti
postavke
postavlja
postavljaju
postavljanja
postavljanje
postavljanjem
postavljen
postavljena
postavljene
postavljeni
postavljenih
postavljeno
postavs
postdiplomski
postepeno
posthumno
postic
postigao
postigla
postigli
postigne
postignuc
postignut
postignuta
postignuti
postignutih
postignuto
postiz
postizanja
postizanje
posto
postojala
postojale
postojali
postojalo
postojanja
postojanje
postojanju
postojao
postojati
postoje
postojec
postoji
postojna
postolja
postolje
postotak
postrojbe
postrojenja
postupa
postupak
postupaka
postupanja
postupanje
postupati
postupci
postupcima
postupi
postupio
postupiti
postupka
postupke
postupkom
postupku
postupno
posuda
posude
posudu
posus
posve
posvec
posveti
posvetio
posvetiti
posvjedoc
posvuda
potajno
potassium
potc
potekla
potencijal
potencijala
potencijalna
potencijalne
potencijalni
potencijalnih
potencijalno
potencijalnu
potential
potes
potez
poteza
potezi
potezima
potezom
potezu
potic
poticaj
potiljac
potiskuje
potisnuti
potjec
potjera
potjere
potjeri
potjeru
potkoz
potkraj
potlac
potoc
potoci
potok
potoka
potom
potomak
potomaka
potomci
potomcima
potomke
potomstva
potomstvo
potomstvu
potonji
potpis
potpisala
potpisale
potpisali
potpisan
potpisao
potpisivanja
potpisivanje
potpisivanjem
potpisuje
potpisuju
potporodica
potporodice
potporu
potpredsjednik
potpredsjednika
potpukovnik
potpuna
potpune
potpuni
potpunim
potpuno
potpunog
potpunoj
potpunom
potpunosti
potpunu
potraga
potragu
potraz
potrazi
potrc
potreba
potrebama
potreban
potrebe
potrebi
potrebna
potrebne
potrebni
potrebnih
potrebno
potrebnu
potrebu
potres
potresa
potros
potter
pottera
potteru
potuc
potvrda
potvrde
potvrdi
potvrdila
potvrdili
potvrdio
potvrditi
potvrdu
potvrđen
potvrđena
potvrđeni
potvrđeno
potvrđuje
potvrđuju
pouc
pour
poustka
pouzdan
pouzdani
pouzdano
pouzdanosti
povec
povelja
povelje
povelji
povelju
poveo
povez
povezan
povezana
povezane
povezani
povezanih
povezanim
povezano
povezanog
povezanost
povezanosti
povezao
povezati
povezivanja
povezivanje
povezuje
povezuju
povezujuc
povijest
povijesti
povika
povis
povjerenja
povjerenje
povjerio
povlac
povlastice
povod
povodom
povodu
povoljan
povoljne
povrac
povratak
povrati
povratiti
povratka
povratku
povratne
povrc
povreda
povrede
povredu
povremeno
povrijeđen
povrijeđeno
povrs
povuc
povukao
povukla
povukli
povuku
powell
power
powerbook
powers
poz
pozadina
pozadine
pozadini
pozadinu
pozdrav
pozicija
pozicijama
pozicije
poziciji
poziciju
pozitivan
pozitivna
pozitivne
pozitivni
pozitivnih
pozitivnim
pozitivno
pozitivnog
pozitivnom
pozitivnu
poziv
poziva
pozivaju
pozivajuc
pozivao
pozivu
pozlac
poznaje
poznajem
poznajemo
poznajes
poznaju
poznan
poznat
poznata
poznate
poznati
poznatih
poznatija
poznatije
poznatiji
poznatijih
poznatim
poznato
poznatog
poznatoj
poznatom
poznatu
poznavali
poznavanje
poznavao
poznavati
pozoris
pozornici
pozove
pozva
pozvala
pozvali
pozvan
pozvani
pozvao
pozvati
pođe
pođos
pp
ppm
ppp
pr
pra
prac
practical
practice
practices
prag
praga
pragmatic
pragu
prah
praha
prain
praksa
prakse
praksi
praksu
praktic
pranje
pras
prate
pratec
prati
pratila
pratili
pratio
pratiti
pratnji
pratnju
pratt
prava
pravac
pravaca
pravca
pravcem
pravci
pravcima
pravcu
pravda
pravde
pravdi
pravdu
prave
pravec
pravedan
pravedni
pravednika
pravedno
pravednog
pravednost
pravednosti
pravi
pravic
pravih
pravila
pravilan
pravili
pravilima
pravilno
pravilo
pravilu
pravim
pravima
pravio
praviti
pravljenje
pravna
pravne
pravni
pravnih
pravnik
pravnim
pravno
pravnog
pravnoj
pravnom
pravnu
pravo
pravog
pravoj
pravom
pravopis
pravoslavci
pravoslavlje
pravoslavna
pravoslavne
pravoslavni
pravoslavnih
pravoslavnog
pravoslavnoj
pravosuđa
pravougaone
pravu
praz
prazan
prazna
prazne
prazni
praznik
praznika
praznina
praznine
pre
prebac
prebacuje
prebivalis
prec
preci
precima
precizan
precizna
precizne
preciznije
precizno
preciznost
preciznosti
precursor
pred
preda
predac
predaja
predaje
predaji
predaju
predak
predaka
predala
predali
predanju
predao
predati
predator
predatora
predavac
predavanja
predavanje
predavao
predgovor
predgrađa
predgrađu
prediction
predio
predjelima
predjelu
predlaz
predlog
predloz
predmet
predmeta
predmete
predmeti
predmetima
predmetom
predmetu
prednja
prednje
prednjeg
prednjem
prednji
prednjih
prednjim
prednjoj
prednju
prednost
prednosti
predoc
predrag
predragocjena
predrasuda
predrasude
preds
predsednik
predsednika
predsjedavajuc
predsjednic
predsjednica
predsjednici
predsjednik
predsjednika
predsjednikom
predsjedniku
predsjednis
predstava
predstavama
predstave
predstavi
predstavila
predstavili
predstavio
predstaviti
predstavlja
predstavljaju
predstavljajuc
predstavljala
predstavljale
predstavljali
predstavljalo
predstavljanja
predstavljanje
predstavljao
predstavljati
predstavljen
predstavljena
predstavljene
predstavljeni
predstavljeno
predstavnic
predstavnici
predstavnicima
predstavnik
predstavnika
predstavnike
predstavnis
predstavu
predstojec
preduzec
predvidio
predvidjeti
predviđa
predviđaju
predviđanja
predviđanje
predviđen
predviđena
predviđene
predviđeni
predviđenih
predviđeno
predvodi
predvodio
predvođena
predvođeni
prefekt
preferira
preferiraju
prefiks
prefiksi
pregled
pregleda
pregledac
preglednik
pregledniku
pregledom
pregledu
pregnancy
pregovora
pregovore
pregovori
pregovorima
pregrada
pregrade
prehrambena
prehrambene
prehrambeni
prehrambenih
prehrane
prehrani
prehranu
preimenovan
preimenovana
prekid
prekida
prekidac
prekine
prekinula
prekinuo
prekinut
prekinuta
prekinuti
preklapa
preklapaju
preklapanja
preklapanje
preko
prekomjerna
prekomjerne
prekomjerno
prekorac
prekretnica
prekriva
prekriven
prekrivena
prekrivene
prekriveni
prekriveno
prekrs
prekursor
prekursora
prelaska
prelaz
prelazak
prelaze
prelazec
prelazi
prelazni
preliminarni
preliminary
prema
premalo
premas
premda
premier
premiere
premierleague
premijer
premijera
premijere
premijerno
premijerom
premijeru
preminula
preminuo
premjes
premos
prenese
prenijeti
prenio
prenos
prenosa
prenose
prenosi
prenositi
prentice
preobraz
preokret
preopterec
preostala
preostale
preostali
preostalih
preostalo
preovladava
preporod
preporuc
preporuke
prepozna
prepoznaje
prepoznaju
prepoznao
prepoznat
prepoznati
prepoznatljiv
prepoznatljiva
prepoznatljive
prepoznatljivi
prepoznavanja
prepoznavanje
prepreka
prepreke
prepreku
prepus
prepustio
prerada
prerade
preradi
preradu
prerano
prerađene
prerus
pres
preselila
preselili
preselio
preseljenja
presence
presenilin
present
presentation
presented
presenti
preserved
president
presidential
presijeca
presjec
presjek
presjeka
presjeku
preskoc
presl
press
presse
pressure
prestaje
prestaju
prestala
prestali
prestalo
prestanak
prestane
prestanka
prestao
prestati
prestiz
prestolonasljednik
prestras
prestupnoj
presuda
presude
presudi
presudu
presus
presvete
pretec
pretez
prethodi
prethodna
prethodne
prethodni
prethodnici
prethodnih
prethodnik
prethodnika
prethodnim
prethodno
prethodnog
prethodnoj
prethodnom
prethodnu
pretjerano
pretka
pretke
pretkomore
pretpostavimo
pretpostavio
pretpostaviti
pretpostavka
pretpostavke
pretpostavki
pretpostavkom
pretpostavku
pretpostavlja
pretpostavljaju
pretpostavljeni
pretraga
pretrage
pretraz
pretresno
pretresnog
pretrpio
pretrpjela
pretrpjeli
pretvara
pretvaraju
pretvarajuc
pretvaranja
pretvaranje
pretvoren
pretvorena
pretvori
pretvorila
pretvorili
pretvorio
pretvoriti
preusmjerite
preuze
preuzela
preuzeli
preuzeo
preuzet
preuzeta
preuzeti
preuzeto
preuzima
preuzimaju
preuzimanja
preuzimanje
preuzme
prevalence
prevalencija
preveden
prevedena
prevedene
prevedeno
prevenciju
prevent
prevention
preveo
prevesti
preview
previously
previs
prevladava
prevladavaju
prevladavajuc
prevlast
prevod
prevode
prevodi
prevodilac
prevodu
prevoz
prevođenje
prez
prezentacija
prezentacije
prezime
prezimena
pređe
pređu
pri
pribliz
pribor
pribrajaju
pric
price
pride
pridjev
pridruz
pridrz
prigradske
prigus
prihod
prihoda
prihode
prihodi
prihodima
prihvac
prihvata
prihvataju
prihvatanja
prihvatanje
prihvate
prihvati
prihvatila
prihvatili
prihvatio
prihvatiti
prijas
prijatelj
prijatelja
prijatelje
prijateljem
prijatelji
prijateljica
prijateljima
prijateljska
prijateljske
prijateljski
prijateljskoj
prijateljstva
prijateljstvo
prijatelju
prijave
prijavio
prijaviti
prijavljeni
prijavljenih
prijavljeno
prije
prijec
prijedlog
prijedloga
prijedloge
prijedor
prijedora
prijedoru
prijelaz
prijelaza
prijelazu
prijem
prijema
prijenos
prijenosa
prijepolje
prijesto
prijestol
prijestolja
prijestolje
prijestolju
prijestolnica
prijestolnicu
prijestolonasljednika
prijestupna
prijetec
prijeti
prijetnja
prijetnje
prijetnji
prijetnjom
prijetnju
prijevod
prijevoda
prijevodi
prijevodom
prijevodu
prijevoz
prijevoza
prikaz
prikaza
prikazan
prikazana
prikazane
prikazani
prikazano
prikazao
prikazati
prikazi
prikazivala
prikazivanja
prikazivanje
prikazivao
prikazivati
prikazom
prikazu
prikazuje
prikazuju
prikladno
prikljuc
prikupio
prikuplja
prikupljaju
prikupljanja
prikupljanje
prilagodbe
prilagoditi
prilagođavanja
prilagođavanje
prilagođen
prilagođena
prilagođene
prilagođeni
prilaz
prilic
prilici
prilika
prilikama
prilike
prilikom
priliku
priliv
prilog
priloga
priloz
prilozi
prima
primaju
primanja
primanje
primarna
primarne
primarni
primarnih
primarnim
primarno
primarnog
primarnom
primarnu
primary
primat
primata
primate
primates
primati
prime
primer
primera
primi
primijec
primijeniti
primijenjen
primijenjena
primijenjene
primijetili
primijetio
primijetiti
primila
primili
primio
primirja
primirje
primiti
primitivne
primitivni
primjec
primjedbe
primjena
primjene
primjeni
primjenjivati
primjenjuje
primjenjuju
primjenom
primjenu
primjer
primjera
primjerak
primjeraka
primjerci
primjere
primjeri
primjerice
primjerima
primjerka
primjeru
primljen
primljena
primoran
primorja
primorje
primorju
primorsko
princ
princa
prince
princess
princeton
princeza
princeze
princezu
princip
principa
principe
principi
principima
principles
principu
princu
prinos
print
printing
prion
priopc
prioritet
pripada
pripadaju
pripadajuc
pripadala
pripadale
pripadali
pripadalo
pripadao
pripadnici
pripadnicima
pripadnik
pripadnika
pripadnike
pripadnos
pripadnost
pripadnosti
pripajanjem
pripala
pripalo
pripao
pripasti
pripisati
pripisuje
pripisuju
pripojen
pripojena
pripojeno
pripovijetke
pripovjedac
priprema
pripremaju
pripremama
pripremao
pripreme
pripremi
pripremio
pripremiti
pripremu
priredio
priroda
prirodan
prirode
prirodi
prirodna
prirodne
prirodni
prirodnih
prirodnim
prirodno
prirodnog
prirodnoj
prirodnom
prirodnu
prirodom
prirodu
priruc
pris
prisegu
prisez
prisilio
prisiljava
prisiljen
prisiljena
prisiljeni
prisilno
prisjec
prislus
pristaje
pristala
pristali
pristalica
pristalice
pristanak
pristanis
pristao
pristas
pristava
pristup
pristupa
pristupac
pristupanje
pristupe
pristupi
pristupilo
pristupio
pristupiti
pristupljeno
pristupom
pristupu
prisustva
prisustvo
prisustvom
prisustvovali
prisustvovalo
prisustvovao
prisustvu
prisustvuje
prisutan
prisutna
prisutne
prisutni
prisutnih
prisutno
prisutnost
prisutnosti
prisvojnim
pritisak
pritiska
pritiskom
pritisku
pritoka
pritoke
pritom
prius
private
privatna
privatne
privatni
privatnih
privatnim
privatno
privatnog
privatnom
privatnu
prividan
prividna
prividno
prividnom
privilegija
privilegije
privlac
privreda
privrede
privredi
privredna
privredne
privredni
privrednih
privrednim
privredno
privrednog
privrednom
privredu
privremena
privremene
privremeni
privremeno
privrz
privuc
privukao
privukla
prix
prize
prizemlje
prizemlju
prizna
priznaje
priznaju
priznala
priznali
priznanja
priznanje
priznanjem
priznao
priznat
priznata
priznate
priznati
priznatih
priznavanje
priđe
prljavs
prnjavor
pro
proba
probavni
probavnog
probe
probiti
problem
problema
problematic
probleme
problemi
problemima
problems
problemu
proboj
probudi
proc
procedura
procedure
proceedings
procenat
proces
procesa
procese
procesi
procesima
procesom
procesor
procesora
process
processes
processing
procesu
procijenio
procijeniti
procijenjena
procijenjeno
procjena
procjenama
procjene
procjeni
procjenjuje
procjenjuju
procjenu
procvat
prodaja
prodaje
prodaji
prodajom
prodaju
prodali
prodan
prodano
prodao
prodat
prodati
prodavac
prodavati
prodavnica
prodire
prodiru
prodor
prodora
producent
producenta
producenti
producirao
product
production
productions
products
produkata
produkcija
produkcije
produkciji
produkciju
produkt
produz
prof
profesionalna
profesionalne
profesionalni
profesionalnih
profesionalnim
profesionalno
profesionalnog
profesionalnom
profesionalnu
profesor
profesora
profesori
profesorica
professional
professor
profil
profila
profile
profiles
profiling
profit
progenitor
progesteron
progesterona
progesterone
proglas
proglasi
proglasila
proglasili
proglasio
proglasiti
prognosis
prognostic
prognoza
prognozu
progon
progona
progoni
program
programa
programe
programi
programima
programiranje
programme
programming
programom
programski
programskih
programu
progresije
progresivna
progresivne
progresivni
progresivno
progresivnog
progress
progression
progressive
proguta
proizas
proizilazi
proizlaze
proizlazi
proizvede
proizveden
proizvedena
proizvedene
proizvedeni
proizvedenih
proizvedeno
proizvela
proizveli
proizveo
proizvesti
proizvod
proizvoda
proizvode
proizvodec
proizvodi
proizvodila
proizvodima
proizvodio
proizvoditi
proizvodni
proizvodnih
proizvodnja
proizvodnje
proizvodnji
proizvodnjom
proizvodnju
proizvodu
proizvođac
project
projekat
projekata
projekcija
projekcije
projekt
projekta
projekte
projekti
projektil
projektila
projektima
projektom
projektu
prokariota
proklet
prokleti
prokletstvo
prolaska
prolaz
prolaza
prolazak
prolaze
prolazec
prolazi
prolazila
prolazili
prolazio
prolazu
prolec
proliferacije
proliferaciju
proliferation
prolin
proline
prolinom
proljec
promas
promatrac
promet
prometa
prometej
prometu
promijene
promijeni
promijenila
promijenili
promijenilo
promijenio
promijeniti
promijenjen
promijenjena
promijenjeno
promis
promjena
promjenama
promjene
promjeni
promjenljive
promjenom
promjenu
promjer
promjera
promocija
promocije
promociju
promoter
promoters
promotes
promotor
promotora
promovira
promoviraju
promovirao
promovis
pronac
pronalaz
pronalazac
pronalazak
pronalaze
pronalazi
pronas
pronađe
pronađen
pronađena
pronađene
pronađeni
pronađenih
pronađeno
pronađu
proorijentalnih
prop
propada
propadanja
propaganda
propagande
propala
propali
propao
propast
propasti
properties
property
propis
propisa
propisao
propise
propisi
propisima
propisuje
proporcija
proporcije
proporcionalna
proporcionalno
propus
propustio
prorac
proroc
proroci
prorocima
prorok
proroka
proroke
pros
prosjec
prosjek
prosjeka
prosjeku
proslava
proslave
proslavi
proslavio
prost
prostate
prosti
prostih
prostirala
prostire
prostiru
prosto
prostor
prostora
prostore
prostori
prostorija
prostorijama
prostorije
prostorima
prostorna
prostorne
prostorni
prostorno
prostornog
prostorom
prostoru
prosveta
prosvjeta
prosvjete
prot
protease
proteaza
proteaze
protectedplanet
protection
protein
proteina
proteine
proteini
proteinima
proteinom
proteins
proteinska
proteinske
proteinski
proteinskih
proteinskog
proteinu
proteklih
protektorat
proteome
proteomic
proteomics
protest
protesta
protestanata
protestanti
protestantske
protesti
protestima
protez
protic
protista
protiv
protivi
protivio
protivnic
protivnici
protivnik
protivnika
protivnike
protivzrac
protjec
protjeran
protjerani
protjerao
protjerivanja
proto
protocol
protok
protoka
protokol
protokola
proton
protona
prototip
prototipa
protozoa
protumac
prouc
prouzroc
prouzrokovati
provede
proveden
provedena
provedene
provedenih
provedeno
provela
proveli
proveo
provesti
provides
provincija
provincijama
provincije
provinciji
provinciju
provjere
provjerite
provjeru
provlac
provode
provoden
provodi
provodio
provoditi
provodljivost
provodljivosti
provođenja
provođenje
proxime
proz
proza
proze
prozi
prozor
prozora
prozore
prozori
prozoru
prozu
prođe
prođu
prp
prs
prsa
prsima
prst
prsta
prste
prsten
prstena
prstenova
prstenovi
prstenu
prsti
prstiju
prstima
prstom
pruga
prugama
pruge
prugu
prunus
pruska
pruske
pruz
prva
prvaci
prvak
prvaka
prvakinja
prve
prvenstava
prvenstva
prvenstveno
prvenstvima
prvenstvo
prvenstvu
prvi
prvih
prvim
prvima
prvo
prvobitna
prvobitne
prvobitni
prvobitno
prvobitnog
prvog
prvoj
prvoligas
prvom
prvoplasirana
prvorođeni
prvu
prz
ps
psa
psalam
pse
psec
pseudo
pseudonimom
psi
psihic
psihijatrijska
psiholog
psihologija
psihologije
psihologiju
psiholos
psv
psychiatric
psychiatry
psychological
psychology
pt
ptc
pten
pth
ptic
ptica
pticama
ptice
pticu
ptolemej
ptuj
pu
pub
pubertet
puberteta
public
publication
publications
publici
publicist
publika
publikacija
publikacijama
publikacije
publike
publikom
publiku
published
publisher
publishers
publishing
pubmed
puc
puca
puerto
puhac
puk
puka
pukotina
pukotine
pukovnik
pukovnika
pula
puli
pullrod
pulmonary
pumpa
pumpe
pun
puna
pune
puni
punih
punim
punjac
punjenja
punjenje
punk
puno
punog
punoj
punoljetnih
punom
punu
pupc
pupka
pupoljak
pupoljci
pur
pure
purification
purple
purpura
pus
pushrod
pusti
pustinja
pustinje
pustinji
pustinjska
pustinju
pustio
pustite
pustiti
pustos
put
puta
putanja
putanje
putative
putem
puteva
puteve
putevi
putevima
putin
putnic
putnici
putnik
putnika
putnike
putopis
putopisac
putovali
putovanja
putovanje
putovanjima
putovanju
putovao
putovati
putu
putuje
putuju
putujuc
puz
pv
pvo
pw
pylori
q
qa
qas
qf
qh
qi
qian
qin
qquad
qt
qu
quad
qualification
qualifiers
qualifying
quality
quantitative
quantum
quarterly
que
queen
queens
quentin
quercus
quest
question
questions
qui
quia
quinn
qul
quo
quod
r
ra
rab
rabbi
rac
race
races
rachel
racing
rad
rada
radar
rade
radec
radgona
radi
radiation
radic
radical
radij
radija
radijacije
radije
radiju
radijus
radijusa
radikal
radikala
radikalne
radila
radile
radili
radilo
radim
radinovic
radio
radioaktivni
radioaktivnih
radioaktivnog
radioaktivnost
radionica
radionice
radiosarajevo
radiotelevizija
radis
radislav
radite
raditi
radivoj
radivojevic
radna
radne
radni
radnic
radnici
radnicima
radnih
radnik
radnika
radnike
radnim
radnja
radnje
radnji
radnju
radno
radnog
radnoj
radnom
radnu
rado
radoje
radom
radomir
rados
radoslav
radost
radosti
radova
radovan
radove
radovi
radovic
radovima
radovljica
radu
raf
rafael
rafinerija
rag
ragbi
ragusii
rah
rahman
rai
rain
rainbow
rainer
raj
raja
rajha
rajko
rajna
rajne
raju
rak
raka
raketa
rakete
raketni
raketnih
rakom
rakova
rakovica
raku
ralph
ram
rama
ramazana
rame
ramena
ramenima
ramenu
rami
ramiz
ramos
ran
rana
rand
random
randy
rane
rang
ranga
range
ranger
rangera
rangeri
rangers
rangirane
rangirani
rangu
rani
ranih
ranija
ranije
ranijeg
ranijem
raniji
ranijih
ranijim
ranim
ranjen
ranjenih
ranjenika
ranjeno
ranking
rankings
ranko
rankovic
rano
ranog
ranoj
ranom
ranu
ranunculus
rao
rap
rapid
rare
ras
rasa
rascjep
rase
raskos
raskrs
rasla
rasmussen
rasne
raspad
raspada
raspadaju
raspadanja
raspadom
raspala
raspao
raspec
raspodjela
raspodjele
raspodjelu
raspolaganje
raspolaganju
raspolaz
raspoloz
raspon
raspona
rasponu
raspored
rasporeda
rasporedu
raspoređen
raspoređena
raspoređene
raspoređeni
raspoređenih
rasprava
rasprave
raspravlja
raspravljaju
raspravu
rasprostranjen
rasprostranjena
rasprostranjene
rasprostranjeni
rasprostranjenost
rasprostranjenosti
rasprs
raspus
rast
rasta
rastao
raste
rasti
rastojanje
rastom
rastu
rastuc
rastvara
rastvarac
rastvor
rastvora
rastvorene
rastvori
rastvorima
rastvorljiv
rastvorljivi
rastvoru
rasu
rat
rata
rate
rates
ratings
ration
ratis
ratko
ratna
ratne
ratni
ratnic
ratnici
ratnih
ratnik
ratnika
ratnim
ratno
ratnog
ratnom
ratnu
ratom
raton
ratova
ratovanja
ratovanje
ratove
ratovi
ratovima
rats
rattus
ratu
rau
ravan
raven
ravna
ravne
ravni
ravnic
ravnica
ravnice
ravnici
ravnim
ravno
ravnodus
ravnom
ravnomjerno
ravnopravno
ravnopravnost
ravnopravnosti
ravnotez
ray
raya
raymond
raz
razarac
razaranja
razblaz
razdoblja
razdoblje
razdoblju
razdraz
razdvaja
razdvajaju
razdvajanja
razdvajanje
razdvojiti
razgovara
razgovaraju
razgovarao
razgovarati
razgovor
razgovora
razgovori
razgovoru
razgradnje
razgradnju
razgranic
razgrađuje
razgrađuju
razina
razinama
razine
razini
razinu
razis
razjas
razlaganje
razlaz
razlic
razlika
razlikama
razlike
razlikom
razlikovala
razlikovali
razlikovanja
razlikovanje
razlikovao
razlikovati
razliku
razlikuje
razlikujemo
razlikuju
razlog
razloga
razloge
razlozi
razlozima
razluc
razmak
razmatra
razmatranja
razmatranje
razmis
razmjena
razmjene
razmjeni
razmjenu
razmjera
razmjes
razmnoz
razna
razne
razni
raznih
raznim
raznolika
raznolike
raznolikost
raznolikosti
raznovrsne
razoc
razoruz
razred
razreda
razredu
razrijes
razrjes
razrus
razum
razuma
razumije
razumijevanja
razumijevanje
razumijevanju
razumiju
razumjeti
razumno
razumom
razvic
razvija
razvijaju
razvijala
razvijali
razvijanje
razvijao
razvijati
razvije
razvijen
razvijena
razvijene
razvijeni
razvijenih
razvijenim
razvijeno
razvijenom
razvijenu
razviju
razvila
razvile
razvili
razvilo
razvio
razvitak
razviti
razvitka
razvod
razvoda
razvoj
razvoja
razvojem
razvojna
razvojne
razvojni
razvojnih
razvojnim
razvoju
rađa
rađaju
rađanje
rađen
rađena
rb
rbih
rc
rd
re
reaction
reactions
read
reader
reading
ready
reagens
reagira
reagiraju
reagirati
reaguje
reaguju
reakcija
reakcijama
reakcije
reakciji
reakcijom
reakciju
reaktivni
reaktivnost
reaktor
reaktora
real
realan
realistic
reality
realizam
realizma
realne
realni
realnih
realnom
reason
reasons
rebecca
rebra
rec
recent
recentnog
recenzija
recenzije
recept
receptor
receptora
receptore
receptori
receptorima
receptorom
receptors
recesivna
recesivni
recesivno
recessive
reci
recimo
reciproc
recite
recognition
recombinant
recombination
recommendations
reconstruction
record
records
recovery
recruitment
recurrent
red
reda
redak
redakcija
redakcije
reddy
redka
redoks
redom
redoslijed
redoslijedu
redova
redove
redovi
redovima
redovito
redovna
redovne
redovni
redovnim
redovno
redovnog
redu
reduced
reducira
reductase
reduction
redukcija
redukcije
redukcijom
redukciju
reduktaza
reduktaze
redz
reed
ref
referenca
reference
references
referendum
referenduma
referendumu
referentni
refleks
refleksa
reforma
reformama
reforme
reformi
reformom
reformu
refseq
regeneration
regent
regenta
regija
regijama
regije
regiji
regijom
regiju
regimenta
region
regiona
regional
regionalna
regionalne
regionalni
regionalnih
regionalnim
regionalno
regionalnog
regionalnom
regionalnu
regions
regionu
registar
register
registriranih
registry
regulacija
regulacije
regulaciji
regulacijom
regulaciju
regularnog
regulate
regulated
regulates
regulating
regulation
regulations
regulator
regulatorne
regulatorni
regulatornih
regulatory
regulira
reguliraju
reguliran
regulirana
regulirati
regulis
reich
reid
reilly
reinhard
reinhold
reis
reisu
rejonu
rejting
reka
rekao
rekavs
rekla
reklama
reklame
rekli
rekoh
rekom
rekombinacija
rekombinacije
rekonstrukcija
rekonstrukcije
rekonstrukciju
rekord
rekorda
rekorder
rekordi
rekordnih
rekos
relacija
relacije
relaciji
related
relation
relations
relationship
relationships
relative
relativistic
relativna
relativne
relativni
relativno
relativnom
relativnosti
relay
release
released
releases
releasing
relevance
relevantne
religija
religije
religiji
religijske
religijski
religijskih
religiju
religion
religious
religiozne
religiozni
religioznoj
religioznom
religioznu
reljef
reljefa
reljefu
rem
remake
remek
remi
remija
remix
ren
renal
renault
rene
renesanse
renin
renuntiando
reorganizacije
rep
repa
repair
repeat
reper
repertoar
repertoara
replace
replication
replikacija
replikacije
replikaciju
repom
report
reportaz
reporter
reports
represije
represor
repression
repressor
reprezentacija
reprezentacije
reprezentaciji
reprezentacijom
reprezentaciju
reprezentativac
reprint
reprod
reproduction
reproductive
reprodukcija
reprodukcije
reprodukciju
reproduktivni
reproduktivnih
repu
republic
republici
republika
republikama
republikanci
republikanska
republikanske
republike
republikom
republiku
reputaciju
required
requirements
requires
rer
res
resa
research
resident
residues
resistance
resolution
resonance
resource
resources
respektivno
respiratorne
respiratorni
respiratornog
respiratory
response
responses
responsible
responsive
restauracije
restoran
restorana
restoranu
restriction
result
results
resursa
resurse
resursi
resursima
ret
retardation
reticulum
retikulum
retikuluma
retikulumu
retina
retinal
retinoblastoma
retinoic
retrieved
return
reuters
rev
revans
reveal
revealed
reveals
revidirani
review
reviews
revised
revision
revisited
reviziju
revizirani
revolucija
revolucije
revoluciji
revoluciju
revolucionar
revolucionarne
revolucionarni
revolution
rex
rey
reyes
reynolds
rez
reza
rezervat
rezerve
rezervi
rezervni
rezervoar
rezervoara
rezidencija
rezidenciju
rezolucija
rezolucije
rezoluciji
rezolucijom
rezoluciju
rezonanca
rezultat
rezultata
rezultate
rezultati
rezultatima
rezultatom
rezultatu
rezultira
rezultiraju
rezultirajuc
rezultirala
rezultiralo
rezultirao
rezultirati
rezus
rf
rfc
rg
rgen
rh
rhapsody
rheumatology
rho
rhodes
rhododendron
ri
ria
riba
ribama
ribar
ribe
ribes
ribnica
ribnik
ribolov
ribosoma
ribosomal
ribu
ric
rica
ricafrente
ricardo
rice
rich
richard
richarda
richards
richardson
richmond
richter
richu
rick
ride
ridge
right
rightarrow
rightleftharpoons
rights
rijeb
rijec
rijeci
rijedak
rijeka
rijekama
rijeke
rijekom
rijeku
rijes
rijetka
rijetke
rijetki
rijetkih
rijetkim
rijetko
rijetkost
rijetkosti
rikard
rikarda
riley
rim
rima
rimljana
rimljane
rimljani
rimljanima
rimokatolic
rimska
rimske
rimski
rimskih
rimskim
rimsko
rimskog
rimskoj
rimskom
rimsku
rimu
rin
ring
rio
ris
risc
rise
risk
rita
ritam
ritchie
ritma
ritmic
ritmu
ritter
ritual
rival
rivala
rivalstvo
river
rivera
rivers
riz
rizic
rizik
rizika
rizikom
riziku
rizvanbegovic
rj
rjec
rjes
rjeđe
rjeđi
rk
rl
rm
rn
rna
rnas
rnberg
rnk
rnomelj
rnr
ro
road
rob
roba
robbie
robbins
robe
robert
roberta
roberto
roberts
robertson
robin
robinson
robom
robot
robota
roboti
robova
robove
robovi
robovima
robson
robu
roc
rock
rocka
rocks
rocky
rod
roda
rodbine
rodi
rodila
rodio
roditelj
roditelja
roditelje
roditelji
roditeljima
roditi
rodni
rodno
rodnog
rodnom
rodom
rodova
rodove
rodovi
rodovima
rodri
rodriguez
rodu
rog
roga
rogas
rogatica
roger
rogera
rogers
rogova
rogove
rogovi
rok
roka
roker
roku
roland
role
roles
rolf
roll
rolling
rom
roma
romain
roman
romana
romane
romani
romanic
romanima
romano
romanom
romanopisac
romantic
romantizma
romanu
rome
romeo
romero
romi
rommel
ron
rona
ronald
ronaldo
rondo
ronnie
room
roosevelt
root
roots
ropstva
ropstvo
ros
rosa
rosberg
rose
rosen
rosenberg
rosenborg
rosenfelder
roses
roskov
ross
rossi
rossington
rosso
rotacija
rotacije
rotaciju
roth
rotira
rotirajuc
rotor
rotora
rotten
round
rousseau
routledge
rover
rovers
rovinj
row
rowling
roy
royal
royale
roz
rozeta
rođ
rođaci
rođak
rođaka
rođen
rođena
rođendan
rođendana
rođene
rođeni
rođenih
rođenja
rođenje
rođenju
rođeno
rođenog
rp
rpg
rpm
rr
rritu
rrnk
rs
rsssf
rt
rta
rtava
rtb
rtrs
rts
rttemberg
rtv
rtva
rtvama
rtve
rtvi
rtvom
rtvovanja
rtvovanje
rtvu
ru
rual
rub
ruba
rubber
ruben
rubia
rubin
rubinstein
rubovima
rubu
rubus
ruby
ruc
ruci
ruda
rudar
rudara
rudarstva
rudarstvo
rude
rudi
rudnici
rudnicima
rudnik
rudnika
rudniku
rudo
rudolf
rudolfa
rue
rugby
ruiz
ruka
rukama
ruke
rukom
rukometas
rukometna
rukometni
rukometu
rukopis
rukopisa
rukopisi
rukopisima
rukovodi
rukovodio
rukovodstva
rukovodstvo
rukovodstvom
ruku
rule
rules
rum
rumuni
rumunija
rumunije
rumuniji
rumunski
run
runda
runde
rundi
rundu
running
rupa
rupe
rupu
rus
rusa
rush
rusi
rusija
rusije
rusiji
rusijom
rusiju
ruska
ruske
ruski
ruskih
ruskim
rusko
ruskog
ruskoj
ruskom
rusku
russell
russia
russian
ruta
rute
ruth
rutinski
ruz
rv
rvi
rw
ry
ryan
ryu
rz
s
sa
saa
saarbru
saba
sabah
sabi
sabiranje
sablja
sabor
sabora
saboru
sac
saccharomyces
sachs
sad
sada
sadas
sadrz
sadu
safet
safety
safvet
saga
sage
saglasnost
saglasnosti
sagorijevanja
sagorijevanjem
sagradi
sagradili
sagradio
sagraditi
sagrađen
sagrađena
sahara
sahare
sahat
sahrane
sahrani
sahranjen
sahranjena
said
saint
saito
sajam
sajt
sajta
sajtu
sakrio
sakriti
saksofon
sakupio
sakupiti
sakupljac
sakupljanje
sala
sale
salem
sales
sali
salih
salisb
salix
salko
sall
sallallahu
salmedin
salmonella
salomon
salon
salona
salt
salvador
salzburg
sam
sama
samardz
samarije
same
sami
samih
samilosnog
samim
samima
samir
samo
samoa
samobor
samobora
samoc
samog
samoga
samoglasnika
samoj
samom
samoproglas
samostalan
samostalna
samostalne
samostalni
samostalnih
samostalno
samostalnost
samostalnosti
samostalnu
samostan
samostana
samostanu
samoubistva
samoubistvo
samouprave
samoupravljanja
samoupravne
samoupravnih
samoupravnim
samson
samsung
samu
samuel
san
sana
sanc
sanchez
sand
sandalj
sandalja
sanders
sandra
sanduk
sanduka
sandz
sane
sanger
sanja
sanjao
sankcija
sankcije
sankovic
sankt
sanski
sanskog
sanskom
sant
santa
santiago
santo
santos
sanu
sao
saobrac
saopc
saops
sap
sapiens
sapna
sar
sara
sarac
saradnici
saradnik
saradnika
saradnja
saradnje
saradnji
saradnju
sarah
saraj
sarajeva
sarajevo
sarajevska
sarajevske
sarajevski
sarajevskih
sarajevskim
sarajevsko
sarajevskog
sarajevskoj
sarajevskom
sarajevu
sarajlic
sarađivao
sarađuje
sarcoma
sarg
sars
sas
sasaki
saslus
sastaje
sastaju
sastali
sastanak
sastanka
sastanke
sastanku
sastao
sastav
sastava
sastavi
sastavio
sastavljanje
sastavljen
sastavljena
sastavljene
sastavljeni
sastavljeno
sastavni
sastavu
sastojak
sastojaka
sastojala
sastojalo
sastojao
sastojati
sastojci
sastoje
sastoji
sastojke
sasus
sasvim
sat
sata
satelit
satelita
sateliti
satellite
sati
satima
satiric
sato
satovi
satu
saturn
saturna
sauc
saudi
saudijska
saudijske
saudijskoj
sauer
saul
saula
saunders
sauron
sav
sava
savage
save
savez
saveza
savezi
savezna
savezne
savezni
saveznic
saveznici
saveznicima
saveznih
saveznik
saveznika
saveznike
saveznim
saveznis
savezno
saveznog
saveznoj
saveznom
saveznu
savezom
savezu
savi
savic
savija
savijanja
savijanje
savinjska
savjest
savjesti
savjet
savjeta
savjete
savjetnik
savjetnika
savjetovanje
savjetuje
savladao
savo
savremena
savremene
savremeni
savremenih
savremenim
savremeno
savremenog
savremenoj
savremenom
savremenu
savrs
savu
say
says
saz
saziv
saziva
sazna
saznaje
saznaju
saznanja
saznao
saznati
sazrijevanja
sazrijevanje
sazvijez
sb
sbb
sbd
sc
scale
sceloenopla
scena
scenama
scenarij
scenarija
scenariju
scenario
scenarist
scenarista
scenaristi
scene
sceni
scenskih
scenu
scha
schaefer
schaeffer
schalke
schedule
scherer
schiller
schizophrenia
schleswig
schmidt
schmitz
schneider
scho
school
schools
schott
schro
schu
schubert
schultz
schulz
schumacher
schupp
schuster
schwartz
schwarz
schwassmann
sci
science
sciences
scientific
scientist
scientists
scl
sclerosis
scn
score
scotland
scott
scottish
screen
screening
scully
sd
sda
sdc
sdp
sds
sdsc
sdss
se
sea
sead
seal
sean
search
season
seat
seattle
sebastia
sebastian
sebe
sebi
sebic
sec
secesije
second
secondary
secret
secreted
secretion
secretory
secrets
section
security
sedai
sedam
sedamdeset
sedamdesetih
sedamnaest
sedis
sedma
sedme
sedmi
sedmic
sedmica
sedmice
sedmici
sedmicu
sedmo
sedmog
sedmogodis
sedmoj
sedmom
seds
sedz
see
seed
sega
segmenata
segment
segmenta
segmenti
segmentu
seid
seine
seizmic
sejs
sejtarija
sekcija
sekcije
seki
sekrecije
sekretar
sekretara
sekretarijat
seks
sekstant
seksualna
seksualne
seksualni
seksualnih
seksualnim
seksualno
seksualnog
seksualnu
sektor
sektora
sektoru
sekundarna
sekundarne
sekundarni
sekundarnih
sekundarnim
sekundarno
sekundarnog
sekunde
sekundi
sekvenca
sekvencama
sekvence
sekvenci
sekvenciranja
sekvenciranje
sekvenciranjem
sekvencom
sekvencu
sela
selaginella
selam
selby
selce
seldz
sele
selected
selection
selective
selekcija
selekcije
selekciju
selektivni
selektivno
selektor
selen
selena
self
seli
selim
selima
selimovic
selis
seljac
seljaci
seljaka
sellem
selma
selnica
selo
selu
sem
semantic
semi
semic
seminars
semir
sen
senad
senat
senata
senator
senatora
senatu
sendvic
senegal
senior
seniorsku
senj
senjska
senna
sense
sensitive
sensitivity
sensory
sensu
senzor
senzornih
seobe
seoska
seoske
seoski
seoskog
seoul
sep
septembar
september
septembra
septembru
sequence
sequences
sequencing
ser
serbia
serbian
serbs
sergei
sergej
sergio
serie
series
serija
serijal
serijala
serijalu
serijama
serije
seriji
serijom
serijska
serijski
seriju
serin
serina
serine
serotonin
serotonina
serum
serumu
server
servera
service
services
servis
servisa
sestara
sestra
sestrama
sestre
sestri
sestrinska
sestrinske
sestrom
sestru
set
seta
seth
sets
setu
sevdah
sevdalinka
sevdalinke
sevdalinki
seven
sever
several
severe
severin
sevilla
sevnica
sex
sexual
seymour
sez
sezona
sezonama
sezone
sezoni
sezonu
sf
sfera
sfere
sferi
sfor
sforza
sfr
sfrj
sg
sh
sha
shadow
shadows
shah
shakespeare
shameless
shang
shanghai
shannon
shape
shapiro
share
sharif
sharma
sharon
sharp
sharpe
shaw
shay
she
sheet
sheffield
shell
shema
shen
sherlock
sherlocka
sherman
shi
shield
shimizu
shin
shirley
shock
shodno
shore
short
shot
shotgun
should
show
shows
shs
shtml
shu
shuttle
shvac
shvata
shvatanja
shvatanje
shvati
shvatili
shvatio
shvatiti
si
sibi
sibir
sibira
sibiru
sic
sici
sicilijanska
sicilije
siciliji
siciliju
sid
side
sidney
sie
siemens
sierra
sigismund
sigma
sign
signal
signala
signale
signali
signaling
signalizacija
signalizacije
signalizaciju
signalling
signalne
signalni
signalnih
signalnog
signals
significance
signs
siguran
sigurna
sigurni
sigurno
sigurnos
sigurnosne
sigurnosni
sigurnosnih
sigurnost
sigurnosti
sihr
sijec
sijera
sikala
sila
silajdz
silama
silan
silazi
sile
silencing
sili
silicij
silicija
silico
silicon
silom
silovanja
silovanje
silu
silva
silver
sim
sima
simbad
simbol
simbola
simbole
simboli
simbolic
simbolima
simbolizira
simboliziraju
simbolom
simeon
simetric
simetrija
simetrije
simfonija
simfonije
simic
similar
similarity
simmons
simo
simon
simona
simone
simpatic
simpatije
simple
simpson
simptom
simptoma
simptome
simptomi
simptomima
sims
sin
sina
sinagoga
sinaj
sinan
sinapse
sinapsi
sinauer
since
sindikata
sindrom
sindroma
sindromom
sindromu
sine
sing
singapore
singapur
singer
singh
singl
singla
single
singles
singlova
singlovi
sinh
sinis
sinj
sinnott
sinoc
sinom
sinonim
sinonimi
sinova
sinove
sinovi
sinovima
sintaza
sintaze
sintetaza
sintetic
sintetizira
sintetiziraju
sintetizirati
sintetski
sinteza
sinteze
sintezi
sintezu
sinu
sinus
sinusa
sio
sion
sipa
sir
sira
sirc
sirija
sirije
siriji
sirijske
sirijski
siriju
sirius
sirnk
siroc
siromah
siromaha
siromas
sirovina
sirovine
sis
sisac
sisak
sisara
sisare
sisari
siska
sistem
sistema
sistematski
sistematsko
sisteme
sistemi
sistemima
sistemom
sistemske
sistemski
sistemu
sister
sit
site
sites
sitne
sitni
sitnih
sitnim
situ
situacija
situacijama
situacije
situaciji
situaciju
siv
siva
sive
sivi
sivo
six
sixth
size
siđe
sj
sjaj
sjaja
sjajan
sjajem
sjajna
sjajne
sjajni
sjajno
sjaju
sjec
sjede
sjedec
sjedi
sjedinjene
sjedinjenih
sjedinjenim
sjedio
sjedis
sjednica
sjednice
sjednici
sjekira
sjekire
sjeme
sjemena
sjemenicima
sjemenke
sjemenki
sjena
sjene
sjeni
sjenica
sjeti
sjetite
sjetiti
sjever
sjevera
sjeverna
sjeverne
sjeverni
sjevernih
sjevernim
sjeverno
sjevernoameric
sjevernog
sjevernoj
sjevernom
sjevernu
sjevero
sjeveroistoc
sjeveroistoku
sjeverozapad
sjeverozapada
sjeverozapadne
sjeverozapadni
sjeverozapadno
sjeverozapadnoj
sjeverozapadnom
sjeverozapadu
sjeveru
sjo
sk
ska
skac
skakac
skakaonica
skakaonice
skakaonici
skala
skale
skali
skandal
skandala
skandinaviji
skarnes
skating
ske
skelet
skeleta
skeletal
skeletne
skeletni
skeletnih
skeletnim
skender
skeniranje
ski
skijanje
skijanju
skijas
skin
skinuti
skj
skladis
skladu
sklapa
sklapanja
sklapanje
skleroza
skleroze
sklon
skloni
sklonis
sklonost
sklonosti
sklop
sklopio
sklopiti
sklopljen
sklopu
skoc
skoj
skok
skoka
skokova
skokovi
skokovima
skoku
skopje
skoplje
skoplju
skoro
skovao
skr
skrac
skrec
skrenuo
skrining
skriva
skriven
skrivena
skrivene
skriveni
skriveno
skrovis
skroz
skrs
skulptor
skulptura
skulpture
skup
skupa
skupi
skupina
skupinama
skupine
skupini
skupinu
skuplja
skupljaju
skupljanje
skupova
skupovi
skups
skupu
sky
sl
slab
slaba
slabe
slabi
slabih
slabija
slabije
slabiji
slabim
slabljenje
slabo
slabog
slabost
slabosti
slabu
slam
slana
slanje
slao
slati
slatina
slatka
slatke
slatki
slatko
slava
slavan
slave
slaven
slavena
slaveni
slavenima
slavenska
slavenske
slavenski
slavenskih
slavenskim
slavenskog
slavi
slavic
slavija
slavio
slaviti
slavko
slavna
slavne
slavni
slavnih
slavnog
slavoluk
slavonija
slavonije
slavoniji
slavonska
slavonski
slavu
slaz
slc
sledec
sleep
slezene
slezeni
slfn
slic
slici
slijed
slijede
slijedec
slijedi
slijedila
slijedile
slijedili
slijedio
slijedis
slijedite
slijediti
slijepa
slijepe
slijepi
slijetanje
slika
slikama
slikanja
slikar
slikara
slikari
slikarski
slikarstva
slikarstvo
slikarstvu
slike
slikom
sliku
sliv
sliva
slivno
slivu
sljedbenici
sljedbenika
sljedec
sljemenjak
sljemenjaka
sljepilo
sljepoc
sljepooc
sloboda
slobodan
slobodana
slobode
slobodi
slobodna
slobodnaevropa
slobodne
slobodni
slobodnih
slobodnim
slobodno
slobodnog
slobodnoj
slobodnom
slobodnu
slobodu
sloga
sloj
sloja
slojem
slojeva
slojeve
slojevi
slojevima
sloju
slom
sloma
slomio
slon
slonovac
slonovi
slova
slovac
slovan
slovenac
slovenaca
slovenci
slovenia
slovenija
slovenije
sloveniji
sloveniju
slovenj
slovenska
slovenske
slovenski
slovenskih
slovenskog
slovenskom
slovima
slovo
slovom
sloz
sluc
sluga
slugama
sluge
slugu
sluh
sluha
slunj
slunja
slus
sluz
sluzi
sluznice
sluzokoz
slx
sm
sma
smad
smail
smajlovic
smak
small
smallville
smanjen
smanjena
smanjene
smanjeni
smanjenim
smanjenja
smanjenje
smanjenjem
smanjenju
smanjeno
smanjenog
smanjenom
smanjenu
smanji
smanjila
smanjilo
smanjio
smanjiti
smanjuje
smanjuju
smanjujuc
smart
smatra
smatraju
smatrajuc
smatrala
smatrali
smatralo
smatram
smatran
smatrana
smatrane
smatrani
smatrao
smatrati
smec
smeta
smetnje
smeđa
smeđe
smeđi
smije
smijeh
smijenjen
smijes
smiju
smis
smisao
smisla
smislu
smith
smithsonian
smjene
smjer
smjera
smjernice
smjerovima
smjeru
smjes
smjesa
smjese
smjesti
smjestio
smjestiti
smn
smo
smole
smooth
smrc
smrt
smrti
smrtna
smrtne
smrtnih
smrtno
smrtnost
smrtnosti
smrtnu
smrtonos
smrtonosna
sms
sn
sna
snabdijevanje
snaga
snagama
snage
snagom
snagu
snap
snape
snare
snaz
snazi
snez
snf
snijeg
snijega
snijegom
snijez
snima
snimaju
snimak
snimaka
sniman
snimana
snimanja
snimanje
snimanjem
snimanju
snimao
snimatelj
snimati
snimci
snimi
snimila
snimili
snimio
snimiti
snimka
snimke
snimljen
snimljena
snimljene
snimljeni
snimljenih
sniz
snjez
snooker
snop
snopa
snos
snova
snove
snovi
snow
snp
snsd
snu
snukerska
snyder
so
soares
soba
sobe
sobi
sobnoj
sobom
sobota
sobu
soc
soccer
soccerbase
soccerway
soccerworldcups
sochi
social
sociedad
society
socijaldemokrata
socijaldemokratska
socijaldemokratske
socijalistic
socijalizam
socijalizma
socijalna
socijalne
socijalni
socijalnih
socijalnim
socijalno
socijalnog
socijalnoj
socijalnom
socijalnu
sociolog
sociologija
sociologije
sociolos
sod
sodium
sofia
sofija
sofije
sofiji
sofradz
soft
softver
softvera
softverski
software
soja
sojuz
sok
soka
soko
sokol
sokola
sokolac
sokolovac
sokolovic
sokrat
sol
solar
solarni
soli
solid
solidago
solidarnost
solidarnosti
solin
solista
solistic
solo
solomon
soltis
solun
solunu
solution
solutions
somalija
somatic
somatostatin
some
son
sonata
sonate
sonda
sonde
song
songs
sonic
sonja
sons
sony
sophie
sopstvene
sopstveni
sopstvenim
sopstvenu
sorbus
sorte
sorti
sorting
sos
soul
sound
soundtrack
source
sources
south
southamerican
southampton
southeast
southern
sova
sove
soviet
sovjeti
sovjetska
sovjetske
sovjetski
sovjetskih
sovjetskim
sovjetsko
sovjetskog
sovjetskoj
sovjetskom
sovjetsku
sox
sp
spa
space
spada
spadaju
spaeth
spahic
spain
spaja
spajaju
spajanja
spajanje
spajanjem
spaljeno
spanish
sparta
spartak
sparte
spas
spasa
spasenja
spasenje
spasi
spasila
spasili
spasio
spasitelja
spasiti
spava
spavac
spavaju
spavanja
spavanje
spavao
spd
spdi
special
species
specific
specificity
specifikacija
specijacija
specijalizirana
specijalizirane
specijalizirani
specijaliziranih
specijalna
specijalne
specijalni
specijalnih
specijalnim
specijalno
specijalnu
spectrometry
spectroscopy
spectrum
speech
speed
spektar
spektra
spektralne
spektroskopija
spektru
spencer
sperm
sperma
spermatozoida
sperme
spiegel
spielberg
spin
spina
spinal
spindle
spirala
spirale
spiralna
spiralne
spiralno
spirit
spis
spisa
spisak
spisi
spisima
spiska
spisku
splice
splicing
split
splita
splitski
splitsko
splitskom
splitu
spljos
spo
spodnja
spodnje
spodnji
spoj
spoja
spoje
spojen
spojena
spojene
spojeni
spojenih
spojeva
spojeve
spojevi
spojevima
spojio
spojiti
spoju
spol
spola
spoljas
spoljne
spolna
spolne
spolni
spolnih
spolnim
spolno
spolnog
spolova
spolu
spomen
spomenica
spomenici
spomenicima
spomenik
spomenika
spomenike
spomenikom
spomenuo
spomenut
spomenuta
spomenute
spomenuti
spomenutih
spomenuto
spominjanje
spominje
spominju
spongebob
spontano
sponzor
spor
spora
sporadic
sporazum
sporazuma
sporazume
sporazumom
sporazumu
spore
sporedna
sporedni
sporednog
sporednu
sporije
sporo
sporova
sport
sporta
sportas
sporting
sportista
sportisti
sportova
sportovi
sportovima
sports
sportska
sportske
sportski
sportskih
sportskim
sportsko
sportskog
sportsport
sportu
sposoban
sposobna
sposobne
sposobni
sposobnos
sposobnost
sposobnosti
sposobnostima
spot
spotify
spoznaja
spoznaje
spoznati
spp
spram
sprat
sprata
spratu
sprava
sprave
sprec
sprege
spregnuti
sprema
spreman
spremis
spremna
spremni
spremnik
spremnika
spremno
spremnost
sprijec
sprijeda
spring
springer
springfield
sprint
sprinta
sprintu
sprjec
sprovodi
sprovođenje
spus
spusti
spustili
spustio
spustiti
spuz
sqrt
squad
squamous
square
squarepants
sr
sramota
srba
srbac
srbe
srbi
srbija
srbijanska
srbijanske
srbijanski
srbije
srbiji
srbijom
srbiju
srbima
srbin
src
srca
srce
srcem
srcima
srcu
srdz
srebra
srebrene
srebrenic
srebrenica
srebrenice
srebrenici
srebrenicu
srebrenik
srebrenika
srebrna
srebrne
srebrni
srebrnu
srebro
srec
sred
sredina
sredinama
sredine
sredini
sredinom
sredinu
sredis
srednja
srednje
srednjeg
srednjem
srednji
srednjih
srednjim
srednjobosanska
srednjoevropskom
srednjoj
srednjom
srednjos
srednjovjekovna
srednjovjekovne
srednjovjekovni
srednjovjekovnih
srednjovjekovno
srednjovjekovnog
srednjovjekovnoj
srednjovjekovnom
srednju
sredozemlja
sredozemno
sredozemnog
sredstava
sredstva
sredstvima
sredstvo
sreli
sreo
sretan
sretna
sretni
sretno
srez
sreza
srijedu
srijemska
srj
srodna
srodne
srodni
srodnici
srodnih
srodnika
srodnim
srodstvu
srp
srpska
srpske
srpski
srpskih
srpskim
srpsko
srpskog
srpskohrvatski
srpskoj
srpskom
srpsku
srs
srus
sry
srz
srđan
ss
sseldorf
ssp
ssr
sssr
st
sta
stabala
stabilan
stability
stabilizacije
stabilizaciji
stabilizaciju
stabilizira
stabilna
stabilne
stabilni
stabilnih
stabilno
stabilnost
stabilnosti
stabla
stablas
stable
stabljici
stabljika
stabljike
stablo
stablu
stada
stade
stadij
stadija
stadiju
stadion
stadiona
stadionu
stadium
stadiumdb
stadiumguide
stado
stadt
staff
stage
stajac
stajala
stajalis
stajao
stajati
stakla
staklo
stala
stalez
staljin
staljina
stalna
stalne
stalni
stalnih
stalnim
stalno
stalnog
stalnom
stalnu
stalo
stambena
stambene
stambeni
stambenih
stambeno
stan
stana
stanari
stanbul
stand
standard
standarda
standarde
standardi
standardima
standardna
standardne
standardni
standardnih
standardnim
standardno
standardnog
standardnom
standardom
standards
standardu
standings
stane
stanford
stani
stanic
stanica
stanicama
stanice
stanici
stanicu
stanis
stanislav
stanja
stanje
stanjem
stanjima
stanju
stanko
stankovic
stanley
stanova
stanovanje
stanovati
stanovis
stanovnici
stanovnicima
stanovnik
stanovnika
stanovnike
stanovniku
stanovnis
stanu
stanuje
stao
star
stara
starac
starc
stare
starenja
starenje
stargate
stari
starih
starija
starije
starijeg
stariji
starijih
starijim
starijoj
stariju
starim
starine
starjes
stark
staro
starog
starogrc
staroj
starom
starost
starosti
stars
start
startao
startna
startnu
startu
staru
stat
state
statement
states
stati
static
station
statistic
statistica
statistical
statistics
statistik
statistika
statistike
statistiku
stats
statsf
statua
statue
status
statusa
statusom
statusu
statut
statuta
statutom
stav
stava
stavak
stave
stavi
stavic
stavila
stavili
stavio
stavis
staviti
stavka
stavlja
stavljaju
stavljajuc
stavljate
stavljen
stavljena
stavljeni
stavova
stavove
stavovi
stavu
staz
staza
stazama
staze
stazi
stazu
ste
steaua
stec
steel
steeplechase
stefan
stefana
stefano
stefanovic
steiermark
stein
steiner
steinicke
steinickea
steinitz
stekao
stekla
stekli
stela
stele
stella
stem
step
stepa
stepanovic
stepe
stepen
stepena
stepeni
stepenice
stepenis
stepenom
stepenu
stephan
stephane
stephanie
stephen
stephens
stepinac
steps
sterling
stern
sternhaufen
steroid
steroida
steroidi
steroids
sterreich
stevan
stevanovic
steve
steven
stevens
stevenson
stewart
stic
sticanja
sticanje
stidne
stigao
stigla
stigle
stigli
stiglo
stigne
stignu
stigos
stih
stiha
stihova
stihove
stihovi
stihovima
stijena
stijenama
stijene
stijeni
stijenu
stil
stila
still
stilom
stilova
stilski
stilu
stimulacija
stimulacije
stimulaciju
stimulated
stimulates
stimulation
stimulira
stimuliraju
stimulirajuc
stimulis
sting
stipe
stipendiju
stis
stiz
stjec
stjepan
stjepana
sto
stoc
stoca
stock
stockholm
stockholmu
stocu
stoga
stogodis
stojan
stojanovic
stoje
stojec
stoji
stoka
stoke
stoku
stol
stola
stolac
stolas
stolica
stolice
stoljec
stolom
stolpersteine
stolu
stone
stoney
stop
stopa
stopala
stopalo
stopama
stope
stopi
stopom
stopu
storage
store
stories
storm
story
stotina
stotinama
stotine
stotinjak
stotinu
stoz
str
stradalo
stradanja
stradao
straga
strah
straha
strahom
strahu
strana
stranac
stranaca
stranaka
stranama
strance
stranci
strand
strane
strange
strani
stranica
stranicama
stranice
stranici
stranicu
stranih
stranim
stranka
strankama
stranke
strankom
stranku
stranog
stranom
stranu
stras
strast
strasti
strategies
strategija
strategije
strategiju
strategy
strates
stratigraphy
strausberg
strauss
straz
strazburg
strazburs
stream
streaming
street
stres
stresa
stresom
stress
stric
strica
strijela
strijelac
strijelaca
strijelci
strijele
strike
striktno
string
strip
stripa
stripova
strmec
stroga
strogo
stroke
strong
strs
struc
structural
structure
structures
[...]
