!
"
#
##a
##aa
##ab
##ac
##ad
##ae
##af
##ag
##ah
##ai
##aj
##ak
##al
##am
##an
##ao
##ap
##aq
##ar
##as
##at
##au
##av
##aw
##ax
##ay
##az
##b
##ba
##bb
##bc
##bd
##be
##bf
##bg
##bh
##bi
##bj
##bk
##bl
##bm
##bn
##bo
##bp
##bq
##br
##bs
##bt
##bu
##bv
##bw
##bx
##by
##bz
##c
##ca
##cb
##cc
##cd
##ce
##cf
##cg
##ch
##ci
##cj
##ck
##cl
##cm
##cn
##co
##cp
##cq
##cr
##cs
##ct
##cu
##cv
##cw
##cx
##cy
##cz
##d
##da
##db
##dc
##dd
##de
##df
##dg
##dh
##di
##dj
##dk
##dl
##dm
##dn
##do
##dp
##dq
##dr
##ds
##dt
##du
##dv
##dw
##dx
##dy
##dz
##e
##ea
##eb
##ec
##ed
##ee
##ef
##eg
##eh
##ei
##ej
##ek
##el
##em
##en
##eo
##ep
##eq
##er
##es
##et
##eu
##ev
##ew
##ex
##ey
##ez
##f
##fa
##fb
##fc
##fd
##fe
##ff
##fg
##fh
##fi
##fj
##fk
##fl
##fm
##fn
##fo
##fp
##fq
##fr
##fs
##ft
##fu
##fv
##fw
##fx
##fy
##fz
##g
##ga
##gb
##gc
##gd
##ge
##gf
##gg
##gh
##gi
##gj
##gk
##gl
##gm
##gn
##go
##gp
##gq
##gr
##gs
##gt
##gu
##gv
##gw
##gx
##gy
##gz
##h
##ha
##hb
##hc
##hd
##he
##hf
##hg
##hh
##hi
##hj
##hk
##hl
##hm
##hn
##ho
##hp
##hq
##hr
##hs
##ht
##hu
##hv
##hw
##hx
##hy
##hz
##i
##ia
##ib
##ic
##id
##ie
##if
##ig
##ih
##ii
##ij
##ik
##il
##im
##in
##io
##ip
##iq
##ir
##is
##it
##iu
##iv
##iw
##ix
##iy
##iz
##j
##ja
##jb
##jc
##jd
##je
##jf
##jg
##jh
##ji
##jj
##jk
##jl
##jm
##jn
##jo
##jp
##jq
##jr
##js
##jt
##ju
##jv
##jw
##jx
##jy
##jz
##k
##ka
##kb
##kc
##kd
##ke
##kf
##kg
##kh
##ki
##kj
##kk
##kl
##km
##kn
##ko
##kp
##kq
##kr
##ks
##kt
##ku
##kv
##kw
##kx
##ky
##kz
##l
##la
##lb
##lc
##ld
##le
##lf
##lg
##lh
##li
##lj
##lk
##ll
##lm
##ln
##lo
##lp
##lq
##lr
##ls
##lt
##lu
##lv
##lw
##lx
##ly
##lz
##m
##ma
##mb
##mc
##md
##me
##mf
##mg
##mh
##mi
##mj
##mk
##ml
##mm
##mn
##mo
##mp
##mq
##mr
##ms
##mt
##mu
##mv
##mw
##mx
##my
##mz
##n
##na
##nb
##nc
##nd
##ne
##nf
##ng
##nh
##ni
##nj
##nk
##nl
##nm
##nn
##no
##np
##nq
##nr
##ns
##nt
##nu
##nv
##nw
##nx
##ny
##nz
##o
##oa
##ob
##oc
##od
##oe
##of
##og
##oh
##oi
##oj
##ok
##ol
##om
##on
##oo
##op
##oq
##or
##os
##ot
##ou
##ov
##ow
##ox
##oy
##oz
##p
##pa
##pb
##pc
##pd
##pe
##pf
##pg
##ph
##pi
##pj
##pk
##pl
##pm
##pn
##po
##pp
##pq
##pr
##ps
##pt
##pu
##pv
##pw
##px
##py
##pz
##q
##qa
##qb
##qc
##qd
##qe
##qf
##qg
##qh
##qi
##qj
##qk
##ql
##qm
##qn
##qo
##qp
##qq
##qr
##qs
##qt
##qu
##qv
##qw
##qx
##qy
##qz
##r
##ra
##rb
##rc
##rd
##re
##rf
##rg
##rh
##ri
##rj
##rk
##rl
##rm
##rn
##ro
##rp
##rq
##rr
##rs
##rt
##ru
##rv
##rw
##rx
##ry
##rz
##s
##sa
##sb
##sc
##sd
##se
##sf
##sg
##sh
##si
##sj
##sk
##sl
##sm
##sn
##so
##sp
##sq
##sr
##ss
##st
##su
##sv
##sw
##sx
##sy
##sz
##t
##ta
##tb
##tc
##td
##te
##tf
##tg
##th
##ti
##tj
##tk
##tl
##tm
##tn
##to
##tp
##tq
##tr
##ts
##tt
##tu
##tv
##tw
##tx
##ty
##tz
##u
##ua
##ub
##uc
##ud
##ue
##uf
##ug
##uh
##ui
##uj
##uk
##ul
##um
##un
##uo
##up
##uq
##ur
##us
##ut
##uu
##uv
##uw
##ux
##uy
##uz
##v
##va
##vb
##vc
##vd
##ve
##vf
##vg
##vh
##vi
##vj
##vk
##vl
##vm
##vn
##vo
##vp
##vq
##vr
##vs
##vt
##vu
##vv
##vw
##vx
##vy
##vz
##w
##wa
##wb
##wc
##wd
##we
##wf
##wg
##wh
##wi
##wj
##wk
##wl
##wm
##wn
##wo
##wp
##wq
##wr
##ws
##wt
##wu
##wv
##ww
##wx
##wy
##wz
##x
##xa
##xb
##xc
##xd
##xe
##xf
##xg
##xh
##xi
##xj
##xk
##xl
##xm
##xn
##xo
##xp
##xq
##xr
##xs
##xt
##xu
##xv
##xw
##xx
##xy
##xz
##y
##ya
##yb
##yc
##yd
##ye
##yf
##yg
##yh
##yi
##yj
##yk
##yl
##ym
##yn
##yo
##yp
##yq
##yr
##ys
##yt
##yu
##yv
##yw
##yx
##yy
##yz
##z
##za
##zb
##zc
##zd
##ze
##zf
##zg
##zh
##zi
##zj
##zk
##zl
##zm
##zn
##zo
##zp
##zq
##zr
##zs
##zt
##zu
##zv
##zw
##zx
##zy
##zz
$
%
&
'
(
)
*
+
,
-
.
/
0
00
000
0000
0002
000291
0003
0004
0006
0008
001
0014
002
0021
0022
0024
003
004
00411
005
006
007
008
009
0092
01
010
011
012
013
014
0140
015
016
0167
017
018
019
02
020
021
022
023
024
0240
025
026
027
028
029
03
030
032
0378
04
04209
05
050
0521820486
058
06
07
0736
08
0888
09
091
0960
0962
0a
0b
0c
0d
0e
0f
0g
0h
0i
0j
0k
0l
0m
0n
0o
0p
0q
0r
0s
0t
0u
0v
0w
0x
0y
0z
1
10
100
1000
1001
1002
1004
1006
1007
101
1012
1016
1017
102
1021
1023
1029
103
1033
1034
1037
1038
1039
104
1040
1042
1046
105
1050
1051
1053
1054
1055
1056
106
1063
1066
107
1073
1074
1078
108
1080
1081
1083
1083732
1084
1086
1089
109
1091
1093
1095
1096
1097
1098
1099
11
110
1100
1101
1103
1104
1107
11076863
1109
111
1110
1111
1113
1119
112
11230166
1124
11256614
1126
1128
113
1136
1139
114
1146
115
1152
1155
1158
1159
116
1161
1165
1167
117
1172
1173
1177
118
1180
1182
1185
1186
1189
119
1194
1196
1198
12
120
1200
1203
1204
121
1210
1212
122
1220
123
1231
12385
124
1240
1242
1244
12477932
125
1250
126
1261
127
128
1285
129
13
130
1300
131
132
1322
1324
1327
133
134
1347501
1349
135
1350
1351
1353
1356129
1357
136
1365
137
1371
1373
1377
138
1380
1385
1386
1389
139
1390
1391
1392
139241
1395
1396
1397
1398
1399
14
140
1400
1403
1404
1405
1406
141
1413
1415
1419
142
1420
1421
1422
1423
1425
1426
1427
143
1430
143000
1432
1434
1435
14356007
1436
1437
144
1440
1444
1448
145
1450
1453
1454
1455
1456
1459
146
1460
1461
1462
1463
1464
1465
14651858
1468
1469
147
1470
14702039
1471
1474
1476
1477
148
1482
1483
1485
149
1490
1492
1493
1499
15
150
1500
1501
1502
1503
1504
1506
151
1512
1513
1515
1516
1517
1519
152
1520
1521
1523
1524
1525
1526
1527
1528
1529
153
1530
1531
1533
1534
1535
1536
1537
154
1540
1541
1542
1543
1546
1547
15489334
15489336
155
1550
1553
1555
1556
1557
1558
156
1560
1564
1565
1566
157
1570
1572
1573
1574
1579
158
1580
159
1590
1592
1593
1595
1598
16
160
1600
1601
1603
1604
1606
161
1610
16189514
1619
162
1620
1621
163
1630
1634
16344560
16381901
164
1640
1642
1643
1648
165
1650
166
1660
1664
1667
167
1670
1677
168
1681
1683
1685
1687
1689
16899
169
1690
1697
1699
17
170
1700
1701
1703
1707
17081983
171
1711
1713
1714
1715
1718
1719
172
1720
1721
1723
1725
173
1730
1735
17353931
1737
1739
174
1740
1741
1742
1743
1744
1745
1746
1747
1748
1749
175
1750
1751
1752
1753
1754
1755
1756
1757
1758
1759
176
1760
1762
1763
1764
1765
1766
1767
1768
1769
177
1770
1771
1772
1773
1774
1775
1776
1777
1778
1779
178
1780
1781
1782
1783
1784
1785
1786
1787
1788
1789
179
1790
1791
1792
1793
1794
1795
1796
1797
1798
1799
18
180
1800
1801
1802
1803
1804
1805
1806
1807
1808
1809
181
1810
1811
1812
1813
1814
1815
1816
1817
1818
1819
182
1820
1821
1822
1823
1824
1825
1826
1827
1828
1829
183
1830
1831
1832
1833
1834
1835
1836
1837
1838
1839
184
1840
1841
1842
1843
1844
1845
1846
1847
1847948
1848
1849
185
1850
1851
1852
1852337520
1853
1854
1855
1856
1857
1858
1859
186
1860
1861
1862
1863
1864
1865
1866
1867
1868
1869
187
1870
1871
1872
1873
1874
1875
1876
1877
1878
1879
188
1880
1881
1882
1883
1884
1885
1886
1887
1888
1889
189
1890
1891
1892
1893
1894
1895
1896
1897
1898
1899
19
190
1900
1901
1902
1903
1904
1905
1906
1907
1908
1909
191
1910
1911
1912
1913
1914
1915
1916
1917
1918
1919
192
1920
1921
1922
1923
1924
1925
1926
1927
1928
1929
193
1930
1931
1932
1933
1934
1935
1936
1937
1938
1939
194
1940
1941
1942
1943
1944
1945
1946
1947
1948
1949
195
1950
1951
1952
1953
1954
1955
1956
1957
1958
1959
196
1960
1961
1962
1963
1964
1965
1966
1967
1968
1969
197
1970
1971
1972
1973
1974
1975
1976
1977
1978
1979
198
1980
1981
1982
1983
1984
1985
1986
1987
1988
1989
199
1990
1991
1992
1993
1994
1995
1996
1997
1998
1999
1a
1b
1c
1d
1e
1f
1g
1h
1i
1j
1k
1l
1m
1n
1o
1p
1q
1r
1s
1t
1u
1v
1w
1x
1y
1z
2
20
200
2000
2001
2002
2003
2004
2005
2006
2007
2008
2009
201
2010
2011
2012
2013
2014
2015
2016
2017
2018
2019
202
2020
2021
2022
203
204
205
206
207
2075
208
209
21
210
211
212
2121
213
2136
214
215
216
217
2174
218
219
22
220
221
222
223
224
225
226
2265
227
228
229
23
230
2307
231
232
233
2337
234
235
236
237
238
239
24
240
241
242
242603899
243
244
245
246
247
248
249
25
250
2500
251
252
253
254
255
256
257
2576704
258
259
2596504
26
260
261
2616
262
263
264
265
266
267
268
269
27
270
271
272
273
274
275
276
2765
277
278
279
28
280
281
282
283
2836
284
285
286
287
288
289
29
290
291
292
293
294
295
296
297
298
299
2a
2b
2c
2d
2e
2f
2g
2h
2i
2j
2k
2l
2m
2n
2o
2p
2q
2r
2s
2t
2u
2v
2w
2x
2y
2z
3
30
300
3000
301
302
303
304
305
306
307
308
309
31
310
3109
310948
311
311072
312
313
314
315
316
3166
317
318
319
32
320
321
322
323
324
325
326
327
328
329
33
330
331
332
333
334
335
336
337
338
3389
339
3390
34
340
341
342
343
344
345
346
347
348
349
35
350
351
352
353
354
355
356
357
358
359
36
360
361
361811
362
363
364
365
366
367
368
369
37
370
371
372
373
3732
374
375
376
377
378
379
38
380
381
382
383
384
385
386
387
388
389
3892
39
390
391
392
393
394
395
396
397
398
399
3a
3b
3c
3d
3e
3f
3g
3h
3i
3j
3k
3l
3m
3n
3o
3p
3q
3r
3s
3t
3u
3v
3w
3x
3y
3z
4
40
400
4000
401
402
4020
403
4039406
404
4049
405
406
407
4072
4074
408
409
41
410
4100134
411
412
413
414
415
4159
416
4160
4161
417
418
419
42
420
421
422
423
424
425
426
427
428
429
43
430
431
432
433
434
435
436
437
438
439
44
440
441
442
4427026
443
444
445
446
447
448
449
45
450
451
452
453
454
455
456
457
458
459
46
460
461
462
463
464
4641
465
466
467
468
469
47
470
471
472
473
474
475
476
477
478
479
48
480
481
482
483
484
485
486
487
488
489
49
490
491
492
493
494
495
496
497
498
499
4a
4b
4c
4d
4e
4f
4g
4h
4i
4j
4k
4l
4m
4n
4o
4p
4q
4r
4s
4t
4u
4v
4w
4x
4y
4z
5
50
500
5000
501
502
503
504
505
506
507
508
509
51
510
511
512
513
514
515
516
517
518
519
52
520
521
522
523
524
525
526
527
528
528928
528930
529
53
530
531
532
533
534
535
536
53616
537
538
539
54
540
541
542
543
544
545
546
547
5472
548
549
55
550
551
552
553
554
555
556
557
558
559
56
560
561
562
563
564
565
566
567
568
5680
569
57
570
571
572
573
574
575
576
577
578
579
5793
58
580
581
582
583
584
585
586
587
588
589
59
590
591
592
593
594
595
596
597
598
599
5a
5b
5c
5d
5e
5f
5g
5h
5i
5j
5k
5l
5m
5n
5o
5p
5q
5r
5s
5t
5u
5v
5w
5x
5y
5z
6
60
600
6000
601
602
603
604
605
606
607
608
609
61
610
611
612
613
614
615
616
617
618
619
62
620
621
622
623
624
625
626
627
628
629
63
630
631
632
633
634
635
636
637
638
639
64
640
641
642
643
644
645
646
647
648
649
65
650
651
652
653
654
655
656
657
658
659
66
660
661
662
663
664
665
666
6667
667
668
669
67
670
671
672
673
6736
674
675
676
677
679
68
680
681
682
683
684
685
686
687
688
689
69
690
691
692
693
694
695
696
697
698
699
6a
6b
6c
6d
6e
6f
6g
6h
6i
6j
6k
6l
6m
6n
6o
6p
6q
6r
6s
6t
6u
6v
6w
6x
6y
6z
7
70
700
701
702
703
704
705
706
7062
707
709
7091
71
710
711
712
713
714
715
716
7167
717
718
719
72
720
721
7216
722
723
724
725
726
727
728
729
73
730
731
732
733
734
735
7351
736
737
738
739
74
740
741
742
743
744
745
746
747
748
749
75
750
751
752
753
754
7543
755
756
757
758
759
76
760
761
762
763
764
765
766
767
768
769
77
770
771
772
773
775
776
777
7776
778
779
78
780
781
7817
7827573
783
785
786
787
788
789
79
790
791
792
793
795
796
797
799
7a
7b
7c
7d
7e
7f
7g
7h
7i
7j
7k
7l
7m
7n
7o
7p
7q
7r
7s
7t
7u
7v
7w
7x
7y
7z
8
80
800
8000
801
802
803
804
805
8053
806
807
808
809
81
810
811
812
8125298
813
814
815
8153
816
817
82
820
821
822
823
824
825
826
827
828
829
83
830
832
833
8339
835
836
838
839
84
840
841
842
843
844
84433
845
847
848
849
8493
85
850
851
852
853
855
856
857
858
859
86
860
862
864
865
866
867
8674
868
869
87
870
871
873
874
875
877
87893
879
88
880
884
885
886
887
888
8889548
889
89
890
891
892
893
895
897
899
8a
8b
8c
8d
8e
8f
8g
8h
8i
8j
8k
8l
8m
8n
8o
8p
8q
8r
8s
8t
8u
8v
8w
8x
8y
8z
9
90
900
901
902
903
904
905
906
907
908
90802
909
91
910
911
912
914
915
917
919
92
920
921
922
924
925
9258
927
928
929
93
930
931
932
933
933346
934
9344
935
936
937
9373149
939
94
940
941
943
945
947
949
95
950
951
953
954
955
956
957
959
96
960
961
962
963
965
967
969
97
970
971
972
973
975
977
978
98
980
981
9822
983
985
987
99
990
995
9958
997
999
9a
9b
9c
9d
9e
9f
9g
9h
9i
9j
9k
9l
9m
9n
9o
9p
9q
9r
9s
9t
9u
9v
9w
9x
9y
9z
:
;
<
=
>
?
@
[
[CLS]
[MASK]
[PAD]
[SEP]
[UNK]
\
]
^
_
`
a
a0
a1
a2
a3
a4
a5
a6
a7
a8
a9
aa
aan
aaron
aas
ab
aba
abba
abbas
abbott
abc
abcg
abd
abdest
abdic
abdul
abdulah
abdullah
abe
abeceda
abel
abl
ablativ
abnormalities
abnormalne
abnormalni
abnormalno
abnormalnosti
abo
about
abraham
abrams
absalom
abstract
abu
abucay
ac
acad
academia
academic
academy
access
accessdate
accessed
according
account
ace
acer
acetat
acetil
acetiltransferaza
acid
acids
acil
acm
across
acs
act
acta
acth
actin
action
actions
activated
activates
activating
activation
activator
active
activities
activity
acute
acyl
ad
ada
adam
adama
adams
adamts
adaptacija
adaptacije
adaptation
adapter
adaptirani
adaptor
addison
adele
adem
adema
adenin
adenosine
adenozin
adhd
adhesion
adhezije
adi
adis
adler
administracija
administracije
administraciju
administration
administrativna
administrativne
administrativni
administrativnih
administrativnim
administrativno
admir
admiral
admirala
adnan
adolf
adolfa
adp
adrenal
adresa
adrese
adresu
adrian
adult
adults
advanced
advances
adventure
advokat
ae
aerodrom
aerodroma
aerodromu
aes
af
afc
afera
affairs
affinity
afganistan
afganistana
afganistanu
afi
afinitet
afiniteta
africa
african
africi
africka
africke
africki
africkih
africkog
africkom
afrika
afrike
afriku
after
ag
aga
again
against
agatha
agathe
age
agencija
agencije
agency
agens
agensi
agent
agenta
agents
ages
aging
agonist
agonita
agreement
agresije
agriculture
ah
ahmad
ahmed
ahmeda
ahmet
ahunbay
ai
aid
aida
aids
ain
air
airbus
aires
airlines
airport
airways
aj
aja
ajax
ajb
ajdovscina
ajet
ajeta
ajeti
ajhg
ajmg
ak
akademija
akademije
akademiji
akademiju
akademik
akademske
akademski
akata
akcija
akcijama
akcije
akciji
akcijski
akciju
ako
aksona
akt
akta
akte
akti
aktin
aktina
aktivacija
aktivacije
aktivacijom
aktivaciju
aktivan
aktivator
aktivira
aktiviraju
aktivirani
aktiviranja
aktiviranje
aktivirati
aktivista
aktivna
aktivne
aktivni
aktivnih
aktivnim
aktivno
aktivnog
aktivnom
aktivnoscu
aktivnost
aktivnosti
aktivnostima
aktivnu
aktualni
aktuelni
akumulacija
akumulacije
akusticna
akutna
akutne
akutni
akuzativ
al
ala
alabama
aladin
alaga
alah
alaha
alain
alan
alanin
alat
alata
alate
alati
alba
albanaca
albanci
albania
albanija
albanije
albaniji
albanske
albanski
albanskog
albanskom
albert
alberta
alberto
alberts
album
albuma
albume
albumi
albumima
albumom
albums
albumu
alcohol
aldosteron
alejandro
alejhi
aleksa
aleksandar
aleksander
aleksandra
aleksandrije
alel
alela
aleli
alen
alessandro
alex
alexander
alexandra
alexandre
alexis
alfa
alfabet
alfons
alfonsa
alfonso
alfred
alfreda
algae
algama
alge
algebra
algi
algoritam
ali
alice
alien
aligned
alija
alije
aliju
alimanovic
alive
aljazeera
aljehin
alkil
alkohol
alkohola
all
allah
allaha
allahe
allahi
allahom
allahov
allahova
allahove
allahovi
allahovih
allahovim
allahovo
allahovog
allahovoj
allahovom
allahovu
allahu
allan
allegro
allen
allergy
alliance
allison
allmusic
alma
almir
alojz
along
alonso
alpa
alpe
alpha
alpine
alpinista
alpski
alpskom
als
also
alt
alter
altered
alternativa
alternative
alternativna
alternativne
alternativni
alternativnih
alternativno
alu
aluminij
aluminija
aluzija
alvarez
alyga
alzheimer
alzir
alzira
alziru
am
ama
amadeus
aman
amanda
amanu
amar
amaranthus
amazon
amazonas
ambasada
ambasade
ambasador
ambasadora
amber
amd
amen
america
american
americi
americka
americke
americki
americkih
americkim
americko
americkog
americkoj
americkom
americku
amerika
amerikanac
amerikanaca
amerikanci
amerike
ameriku
amin
amina
amino
aminokiselina
aminokiseline
aminokiselinska
aminokiselinske
aminokiselinski
aminokiselinskih
aminokiselinu
amir
aml
amon
among
amonij
amonijak
amonijaka
amor
amos
amp
amra
amsterdam
amsterdamu
amun
amx
amy
amyloid
an
ana
anadolija
anal
anali
analiza
analizama
analize
analizi
analizira
analizom
analizu
analog
analogno
analyses
analysis
analytical
anand
anatomical
anatomija
anatomije
anatomiji
anatomska
anatomski
anatomy
anbya
ancient
and
anderlecht
anders
andersen
anderson
andersson
andora
andre
andrea
andreas
andreeva
andrej
andreja
andres
andrew
andrews
andric
andrija
andrijevica
androgen
androgena
androgeni
android
andromeda
andrzej
andy
ane
aneksije
anemija
anemije
anemone
ang
angazman
angel
angela
angeles
angelesa
angelesu
angelo
angiogenesis
angiosperm
angiospermi
angiotenzin
anglo
angola
angole
ani
animal
animals
animation
animirane
animirani
animiranoj
anion
ankara
ankyrin
ann
anna
annales
annals
anne
anni
annie
anno
annotation
announced
announces
annu
annual
annurev
anom
anomalija
anomalije
another
ansambl
answers
antagonist
antarktika
ante
antene
anthony
anthropology
anti
antibiotika
antibodies
antibody
anticka
anticke
anticki
antickih
anticko
antickog
antigen
antigena
antigene
antigeni
antigens
antike
antisens
antitijela
antitijelo
anto
antoine
antologija
anton
antonija
antonije
antonio
antropogeneze
antropologija
antun
anu
anubih
any
anđela
anđeli
anđelic
anđeo
ao
aorta
aorte
ap
aparat
aparata
apc
apg
api
aplikacija
aplikacijama
aplikacije
apoe
apoel
apoenima
apolipoprotein
apollo
apolon
apoptosis
apoptoza
apoptoze
apoptozu
apostol
apostola
app
appearances
apple
application
applications
applied
approach
approaches
apps
apr
april
aprila
aprilu
apsolutna
apsolutne
apsolutni
apsolutno
apsolutnu
apsorbira
apsorpcije
apsorpciju
aq
aquilegia
ar
ara
arab
arabia
arabic
arabica
arabidopsis
arabija
arabije
arabiji
aragon
arama
aranzman
arap
arapa
arapi
arapska
arapske
arapski
arapskih
arapskim
arapsko
arapskog
arapskom
arbih
arc
arch
archaea
archaeology
architecture
archiv
archive
archived
archives
arctan
are
area
areas
arena
areni
arf
arg
argentina
argentine
argentini
argentinski
argentinu
arginin
argon
argument
arheolog
arheologija
arheoloska
arheoloski
arheoloskih
arheoloskim
arheolosko
arheoloskog
arheoloskom
arheolozi
arhipelag
arhipelagu
arhitekata
arhitekt
arhitekta
arhitekte
arhitekti
arhitektonski
arhitektura
arhitekture
arhitekturi
arhitekturu
arhiv
arhiva
arhivirana
arhivirano
arhivu
aristotel
arizona
arlt
arm
armenci
armenija
armenije
armenski
armija
armije
armiji
armiju
armin
arms
armstrong
army
arnold
aromatski
arondisman
arondismanu
around
arp
array
arrest
ars
arsen
arsenal
arsenala
art
arte
arterija
arterije
arthritis
arthur
arthura
article
articles
artificial
artiljerije
artist
artists
artritis
arts
arxiv
arđi
as
asa
asd
ash
ashaba
ashley
asia
asian
asim
asimov
asirije
asistent
asistenta
ask
askalije
asn
asocijacija
asocijacije
asp
asparagin
asparaginska
aspartat
aspects
aspekata
aspekt
aspekta
aspekte
aspekti
aspektima
asperula
aspidimorpha
aspirin
aspirina
asplenium
aspx
assembly
assessment
assignment
associated
associates
association
associations
astana
aster
asteraceae
asteroid
asteroida
aston
astro
astronom
astronoma
astronomi
astronomical
astronomija
astronomije
astronomiji
astronomska
astronomski
astronomskih
astronomy
astrophoto
at
ata
ataksija
ataturk
ataxia
ateizam
atena
atene
atentat
atentata
atf
atheism
athletes
athletic
athletics
ati
atina
atine
atini
atkins
atlanta
atlantic
atlantika
atlantski
atlantskog
atlas
atleticar
atleticara
atleticarki
atletici
atletico
atletskog
atm
atmosfera
atmosfere
atmosferi
atmosferu
atmospheric
atom
atoma
atome
atomi
atomic
atomima
atomska
atomske
atomski
atomskih
atomskim
atomskog
atomu
atp
atpase
atpaza
atrakcija
atribut
atriplex
atrofija
atrophy
attack
attacks
au
audi
audiciju
audio
audiozapisom
audrey
auf
aug
august
augusta
auguste
augustin
augustu
aurora
aus
auschwitz
austin
australia
australian
australija
australije
australiji
australijska
australijski
australiju
australopithecus
austria
austrian
austrija
austrijanci
austrije
austriji
austrijom
austrijska
austrijske
austrijski
austrijskih
austrijsko
austrijskog
austrijskoj
austrijskom
austriju
austro
austrougarske
austrougarskog
auta
autarijati
author
authority
authors
autism
autizam
autizma
auto
autobus
autobusa
autoceste
autogol
autoimmune
automat
automata
automatski
automobil
automobila
automobile
automobili
automobilska
autonomije
autonomiju
autonomna
autonomne
autonomni
autonomnih
autoput
autoputa
autoputeva
autor
autora
autori
autorica
autorima
autoritet
autoriteta
autorska
autoru
autosomal
autosomno
av
available
avanture
avaz
avdaga
avdo
avgusta
avijacije
avio
avion
aviona
avione
avioni
avionima
avionom
avionu
aviv
avnoj
aw
award
awards
away
ax
axel
axis
ay
az
azerbaijan
azerbejdzan
azerbejdzana
azerbejdzanu
azija
azije
aziji
azijske
azijski
azijskih
aziju
aziz
azra
azurirano
b
b0
b1
b2
b3
b4
b5
b6
b7
b8
b9
ba
baba
babic
babilon
babilona
babilonije
baby
baca
bacac
bacanja
bacanje
bacanju
bach
bacha
baci
bacila
bacio
baciti
back
background
bacon
bacteria
bacterial
bad
baden
bafta
bagdad
bagdada
bagdadu
bahrein
bailey
baillargeon
bailly
baja
bajka
bajke
bajram
bajrovic
baka
bakar
baker
bakra
bakterija
bakterijama
bakterije
bakterijske
bakterijski
bakterijskih
baku
bal
bala
balada
balade
balance
baldwin
balet
balkan
balkana
balkanoloska
balkans
balkanski
balkanskih
balkanskim
balkanskog
balkanskom
balkanu
ball
baltickog
baltimore
baly
ban
bana
banaka
banana
banane
banci
band
banda
bande
bang
banglades
banja
banjaluci
banjaluka
banjasi
banje
banjoj
bank
banka
banke
banks
banovici
banovina
banovine
baptiste
bar
bara
baranjska
baraz
baraza
barazu
barbara
barcelona
barcelone
barceloni
bare
barem
bari
barij
barijera
barijere
barijeru
barker
barlow
barnard
barnes
baroka
baron
barrett
barry
bartlett
barton
barut
bas
basagic
basal
base
based
basel
basic
basis
basist
basista
basketball
basler
bass
basta
baste
bastina
bastine
bastini
bastinu
bat
bataljon
bataljona
baterija
baterije
bates
batman
battle
bauer
bavarske
bave
bavi
bavila
bavili
bavio
baviti
bay
bayer
bayern
baza
bazama
baze
bazen
bazena
bazenu
bazi
bazilici
bazilika
bazilike
bazira
baziran
bazirana
bazirano
bazna
bazne
bazni
baznih
baznog
bazom
bazu
bb
bba
bbc
bbrc
bc
bcl
bcr
bd
bdfutbol
bdnf
bdp
be
beach
bean
beat
beatles
beats
beausoleil
beautiful
beba
bebe
bec
beca
beck
becker
becki
beckog
beckom
becu
bedem
bedema
been
before
beg
bega
begin
begova
begove
begovic
behar
behavior
behavioral
behaviour
behind
bei
beijing
being
bejtic
bek
beka
bekr
bela
bele
belgija
belgijanci
belgije
belgiji
belgijski
belgium
belgrade
beli
belknap
bell
ben
benac
bend
benda
bendova
bendu
benedikt
benfica
benin
benjamin
benjamina
benkovac
bennett
benny
benth
benu
benz
beograd
beograda
beogradski
beogradskom
beogradu
ber
berane
berberovic
berenikina
berg
berger
bergerov
bergman
berkeley
berkovici
berlin
berlina
berlinskog
berlinu
bernard
bernd
bernhard
bernstein
berry
bertrand
berze
berzi
besike
besiktas
besima
beskicmenjaka
beskonacno
beslagic
besmrtnici
besplatni
besplatno
best
bet
beta
betis
betona
better
betty
betula
between
beverly
beyonce
beyond
bez
bezbjednosti
bezbojna
bezbroj
bezuspjesno
bf
bg
bh
bhrt
bi
biathlon
biatlon
biatlonac
biatlonka
biatlonu
bibcode
biblija
biblije
bibliji
bibliografija
biblioteci
biblioteka
biblioteke
biblioteku
bic
bica
bice
bici
bicima
bicu
bid
biden
big
bigourdan
bih
bihac
bihaca
bihacu
bihi
bijah
bijahu
bijase
bijasmo
bijeg
bijega
bijegu
bijela
bijelaca
bijele
bijeli
bijelih
bijelim
bijeljina
bijeljine
bijeljini
bijelo
bijelog
bijeloj
bijelom
bijelu
bijes
bijesa
bik
bika
bil
bila
bilbao
bile
bileca
bili
bilingvista
bilja
biljaka
biljci
bilje
biljeske
biljesku
biljeze
biljezi
biljka
biljkama
biljke
biljku
biljna
biljne
biljni
biljnih
biljnim
biljnog
bill
billa
billboard
billion
billy
bilo
bilogorska
bilten
bima
bin
bind
binder
binding
binds
bing
bint
bio
bioantropologija
biochem
biochemical
biochemistry
biochim
biochimica
biodiverzitet
biografija
biografijama
biografije
biografski
biographical
biography
biohemijski
bioinformatics
biol
biolog
biological
biologija
biologije
biologiji
biologiju
biology
bioloska
bioloske
bioloski
bioloskih
bioloskim
bioloskog
biolosku
biomarker
biophys
biophysica
biophysical
biosynthesis
biotechnol
biotechnology
biotehnologiju
bir
bira
biraca
birackih
biracko
biraju
biran
birani
birano
birati
bird
birdman
birds
birmingham
biro
birth
bis
bise
biser
bisera
bishop
biskup
biskupa
biskupija
biskupije
bismo
biste
bistra
bistrica
bit
bitaka
bitan
bitci
biti
bitka
bitkama
bitke
bitki
bitku
bitna
bitne
bitni
bitno
bitnu
biva
bivaju
bivsa
bivse
bivseg
bivsem
bivsi
bivsih
bivsim
bivsoj
bivsu
bizantije
bizantijska
bizantijske
bizantijski
bizantijskih
bizantijsko
bizantijskog
bizantijskom
bizantski
biznis
biznismen
bj
bjelancevina
bjelancevine
bjelorusija
bjelorusije
bjeloruski
bjelovar
bjelovarsko
bjeze
bjezi
bjorn
bk
bl
black
blackburn
blackwell
bladder
blaga
blagaj
blagdan
blage
blagi
blagim
blago
blagoev
blagom
blagoslov
blagoslovi
blagoslovljen
blair
blake
blast
blato
blic
blind
bliska
bliske
bliski
blisko
bliskog
bliskoj
bliskom
blizak
blizanaca
blizanci
blize
blizi
blizina
blizine
blizini
blizu
bljesak
block
blog
blogspot
blok
bloka
blokada
blokade
bloke
blokira
blokiraju
blokova
blokovi
blood
bloom
bloomberg
blot
blu
blue
blues
blum
blume
bm
bmatrix
bmc
bmi
bmj
bmp
bmw
bn
bnp
bo
board
bob
boba
boban
bobby
bobo
boca
bocna
bocne
bocni
bocnih
bocnim
bocno
bocnog
bocvana
bod
boda
bodies
bodlje
bodo
bodova
bodove
bodovi
body
boeing
bog
boga
bogat
bogata
bogate
bogati
bogatih
bogatim
bogato
bogatog
bogatom
bogatstva
bogatstvo
bogatstvu
bogatu
bogdan
bogdanovic
boginja
boginje
bogom
bogorodice
bogova
bogove
bogovi
bogovima
bogu
boheman
boiss
boj
boja
bojali
bojama
bojan
bojanovski
bojao
bojati
boje
bojenje
boji
bojim
bojite
bojna
bojne
bojnom
bojom
bojte
boju
bok
bokser
bol
bola
boldsymbol
boldu
bolescu
bolesna
bolesnici
bolesnik
bolesnika
bolest
bolestan
bolesti
bolestima
boleyn
boli
bolid
bolida
bolivija
bolja
bolje
boljeg
bolji
boljim
bolju
bolna
bolnica
bolnice
bolnici
bolnicu
bolno
bolova
bolove
bolus
bomba
bombardovanja
bombe
bombi
bombu
bon
bona
bonaldo
bonaparte
bond
bone
bones
bonn
bonus
book
books
booth
bor
bora
borac
boraca
boravak
boravi
boravio
boravista
boraviste
boraviti
boravka
borba
borbama
borbe
borbena
borbene
borbeni
borbenih
borbenim
borbi
borbu
borca
borci
borcima
bordeaux
bore
borges
bori
borila
borili
borio
boris
borisa
borislav
boriti
borivoj
born
borowiec
borussia
bos
bosanac
bosanci
bosanska
bosanske
bosanski
bosanskih
bosanskim
bosansko
bosanskog
bosanskohercegovacka
bosanskohercegovacke
bosanskohercegovacki
bosanskohercegovackih
bosanskohercegovackim
bosanskohercegovackog
bosanskoj
bosanskom
bosansku
bosiljevo
bosko
bosna
bosne
bosni
bosnia
bosnian
bosnien
bosnjaci
bosnjacima
bosnjacka
bosnjacke
bosnjacki
bosnjackih
bosnjacko
bosnjackog
bosnjak
bosnjaka
bosnjake
bosnom
bosnu
boston
bot
botanic
botanical
botanicar
botanika
botany
both
bound
boundary
bourgoin
bovine
box
boy
boyd
boyle
boys
bozanske
bozanski
bozanskog
bozanstava
bozanstva
bozanstvo
boze
bozic
bozica
bozice
bozidar
bozije
boziji
bozja
bozje
bozjeg
bozji
bozjoj
bp
bq
br
braca
brace
braci
braco
bracom
bracu
brad
brada
bradavice
brade
bradley
brain
brak
braka
brakom
brakova
braku
brana
brand
brane
brani
branila
branio
branislav
braniti
branka
branko
brankovic
brasch
brasil
brasna
brassica
brat
brata
brate
bratislava
bratom
bratstva
bratstvo
bratu
bratunac
braun
bravo
brazda
brazil
brazila
brazilski
brazilu
brca
brcko
brckom
brda
brdima
brdo
brdska
brdske
brdu
break
breaking
breaks
breast
breg
bregovic
brejk
bremen
brenda
brennan
brestovac
brett
breza
brezice
brezje
breznica
brezovica
brian
bridge
brief
brien
briga
brigada
brigade
brigadi
brigadu
brige
briggs
bright
brigu
brijeg
brijega
brijegu
brill
brine
brinu
brinuti
brise
bristol
britain
britanaca
britanci
britanija
britanije
britaniji
britaniju
britannica
britanska
britanske
britanski
britanskih
britanskim
britansko
britanskog
britanskoj
britanskom
britansku
british
britton
broadcasting
brock
brod
broda
brodom
brodova
brodove
brodovi
brodovima
brodsko
brodu
broj
broja
brojala
broje
brojem
brojeva
brojeve
brojevi
brojevima
broji
brojna
brojne
brojni
brojnih
brojnim
brojnost
brojnosti
broju
bromus
bronce
bronza
bronzana
bronzane
bronzano
bronzanog
bronzanu
bronze
brooklyn
brooks
bros
brother
brothers
brown
browning
browser
browseru
broz
broza
bruce
bruno
bruto
bryan
bryant
brz
brza
brze
brzi
brzih
brzim
brzina
brzinama
brzine
brzini
brzinom
brzinu
brzo
brzog
brzom
brzu
brđani
bs
bsd
bt
bu
buba
bubanj
bubnjar
bubnjara
bubnjevi
bubreg
bubrega
bubrezi
bubrezima
bubrezna
bubrezne
bubreznih
buck
bucuresti
budala
budapest
bude
budem
budemo
budes
budete
budi
budimpesta
budimpesti
budite
budizam
budu
buduce
buduceg
buducem
buduci
buducih
buducim
buducnost
buducnosti
buducu
budzet
budzeta
buenos
bug
bugari
bugarska
bugarske
bugarski
bugarskog
bugarskoj
bugarskom
bugarsku
bugojno
buha
build
building
buje
buka
bukic
bukovica
bukva
bulgarian
bull
bulletin
buna
bunar
bunara
bundesliga
bundeslige
bundesligi
bune
bureau
burgess
burke
burkill
burkina
burn
burns
burton
bush
business
busovaca
but
buta
butler
buzet
buzeta
buzim
bv
bw
bx
bxc
by
byron
byzantine
bz
c
c0
c1
c2
c3
c4
c5
c6
c7
c8
c9
ca
cable
cad
caenorhabditis
caf
cafonline
cai
caj
caja
cajnice
cak
cakovec
calcio
calcium
california
call
called
callispa
cam
cambridge
cambridgeu
cameron
camille
camp
campaign
campanula
campbell
camus
can
canada
canadian
cancer
cancers
candidate
cantrell
cao
cap
capablanca
cape
capital
capljina
capping
car
cara
carbohydrate
carbon
carcinogenesis
carcinoma
card
cardiac
cardiology
cardiomyopathy
cardiovascular
care
career
carem
careva
carevi
carey
carica
carice
carigrad
carigrada
carigradu
carina
carine
carl
carla
carlo
carlos
carlsen
carlson
carnitine
carobnjaci
carobnjak
carobnjaka
carol
carolija
caroliju
carolina
caroline
carpenter
carrier
carroll
carsija
carsije
carsiji
carska
carske
carski
carskog
carskoj
carskom
carsku
carstva
carstvo
carstvom
carstvu
carter
caru
cas
casa
casanova
case
cases
casey
casica
casice
casni
casopis
casopisa
casopisima
casopisu
casove
caspase
cassida
cast
casti
castle
castro
casu
cat
catalog
catalogue
catalogues
catalytic
catenin
catherine
cause
caused
causes
causevic
causing
cavalier
cazin
cazinu
cb
cbs
cc
cca
ccdc
ccds
ccl
ccr
cd
cdc
cdk
cdna
cdnas
cdnk
cdot
cdots
cds
ce
ceca
cecil
cega
cehoslovacka
cehoslovacke
ceka
cekaju
cekajuci
cekao
cekati
cekic
cela
celebija
celic
celija
celijama
celije
celiji
celijska
celijske
celijski
celijskih
celijskim
celijsko
celijskog
celijskoj
celijskom
celijsku
celiju
celik
celika
celinac
celje
celju
celjusti
cell
cells
cellular
celo
celom
celta
celtic
celu
celuloze
cementa
cemo
cemu
cen
cengic
census
centar
centara
center
centers
centimetara
centra
central
centralna
centralne
centralni
centralnih
centralnim
centralno
centralnog
centralnoj
centralnom
centralnu
centre
centri
centrima
centrom
centromere
centru
centurion
century
cep
cephaloleia
cepica
cerebral
ceremonija
ceremonije
ceremoniji
ceres
cerevisiae
cerij
cerknica
ces
cesar
cesca
cesce
cesci
cesi
ceska
ceske
ceski
ceskog
ceskoj
ceskom
cesma
cest
cesta
ceste
cesti
cestica
cesticama
cestice
cestih
cestim
cesto
cestom
cestu
cet
ceta
cete
cetingrad
cetinje
cetiri
cetnici
cetnika
cetrdeset
cetrnaest
cetvero
cetvrt
cetvrta
cetvrtak
cetvrte
cetvrtfinala
cetvrtfinale
cetvrtfinalu
cetvrti
cetvrtina
cetvrtine
cetvrto
cetvrtog
cetvrtoj
cetvrtom
cetvrtu
cezar
cezara
cf
cg
cgi
ch
cha
chain
chains
challenge
challenger
challenges
chamberlain
champion
champions
championship
championships
chan
chandler
chang
change
changes
changing
channel
channels
chao
chaplin
chapman
chapter
chapterurl
chapuis
character
characterisation
characteristics
characterization
charcot
charidotella
charidotis
charles
charlesa
charlie
charlotte
chart
charts
chase
chat
che
checklist
chelsea
chem
chemical
chemie
chemischen
chemistry
chemokine
chen
cheng
chenopodium
cherry
chess
chessgames
chi
chicago
chicagu
chief
child
childhood
children
chile
chin
china
chinese
chip
chlamydomonas
cho
choi
choice
cholesterol
chou
chr
chris
chrisa
christenhusz
christian
christie
christina
christine
christmas
christoph
christopher
chromatin
chromosomal
chromosome
chromosomes
chronic
chronicle
chu
chuck
chung
church
churchill
ci
cia
cicak
ciceron
cid
cigareta
cigorin
cija
cije
cijela
cijele
cijeli
cijelih
cijelim
cijelo
cijelog
cijeloj
cijelom
cijelosti
cijelu
cijem
cijena
cijene
cijeni
cijenjen
cijenu
cijepa
cijepanja
cijepanje
cijev
cijevi
ciji
cijim
cijoj
ciju
cik
ciklicni
ciklus
ciklusa
ciklusu
cile
cilea
cileu
cilija
cilindara
cilindra
cilj
cilja
ciljem
ciljeva
ciljeve
ciljevi
ciljevima
ciljne
ciljnih
cilju
cim
cime
cimpanze
cin
cina
cincari
cine
cineci
cinema
cini
cinila
cinilaca
cinile
cinili
cinilo
cinim
cinimo
cinio
cinise
cinite
ciniti
cinjenica
cinjenicama
cinjenice
cinjenici
cinjenicom
cinjenicu
cink
cinka
cinkovog
cinom
cinovi
cinu
cip
cipele
cir
circ
circuit
circulation
cirilica
cirkovic
cirkulacije
cirkulaciju
ciro
cis
ciscenja
ciscenje
cist
cista
ciste
cistein
cisteina
cisti
cistim
cisto
cistoce
cistog
cistom
cistu
cita
citaju
citanja
citanje
citao
citat
citati
citav
citava
citave
citavo
citavog
citavoj
citavom
citavu
cite
citerefmusinbegovic
citeseerx
cities
citiranja
citluk
citohrom
citokina
citoplazmatski
citoplazme
citoplazmi
citoplazmu
citosolu
citrus
city
cityja
cityju
civil
civila
civile
civilizacija
civilizacije
civilne
civilni
civilnih
civilno
civilnog
cj
cjelina
cjeline
cjelini
cjelinu
cjelokupne
cjelokupno
cjelokupnog
cjelokupnoj
ck
cl
claire
clan
clana
clanak
clanaka
clanci
clanica
clanicama
clanice
clanka
clanke
clanku
clanom
clanova
clanove
clanovi
clanovima
clanstva
clanstvo
clanu
clara
clark
clarke
class
classic
classical
classification
claude
claudia
claudio
clayton
cleavage
clematis
cleveland
cliff
clifford
climate
clin
clinic
clinical
clinton
clock
clones
cloning
close
cloud
club
cluster
clusters
cm
cn
cnet
cnn
cns
co
coa
coactivator
coauthors
cobiss
cochrane
code
coding
coenzyme
cognitive
cohen
coil
coiled
col
colakovic
cold
cole
coleman
coli
colic
colin
collagen
collection
college
collins
colon
color
colorado
colorectal
columbia
com
combined
combretum
come
comes
coming
command
commission
committee
common
commons
commonsu
commonwealtha
commun
communication
communications
community
comp
companion
company
comparative
comparison
competition
complete
complex
complexes
component
components
composition
compound
compounds
comprehensive
compton
computational
computer
computing
con
concacaf
concept
concepts
concert
concise
condita
conditions
conference
confirmed
conflict
cong
congenital
congress
conmebol
connecticut
connor
conrad
cons
consensus
consequences
conservation
conserved
consortium
constellation
constitution
constitutional
construction
consuls
containing
contains
conte
contemporary
content
contest
context
continental
contribution
control
controlled
controls
convention
conversion
cooh
cook
cool
cooper
cooperation
cop
copa
copeland
copenhagen
copper
coppola
copy
cord
cordoba
core
corelli
corneal
cornell
coronavirus
corovic
corporation
corpus
correlation
cortex
corwin
cos
cosh
cosic
costa
cot
could
council
counter
countries
country
county
coupled
course
court
cov
cover
covic
covid
covjecanstva
covjecanstvo
covjece
covjecnosti
covjek
covjeka
covjekom
covjekov
covjeku
cox
cp
cpg
cpt
cpu
cq
cr
craig
crane
crataegus
crawford
crazy
crc
creatine
creative
crepis
cretaceous
crijeva
crijevima
crijevo
crijevu
crikvenica
crime
crimes
criminal
crisis
critical
crkava
crkva
crkvama
crkve
crkvena
crkvene
crkveni
crkvenih
crkvenim
crkvenog
crkvi
crkvina
crkvom
crkvu
crna
crnac
crnaca
crne
crni
crnih
crnim
crno
crnog
crnogorac
crnogorci
crnogorska
crnogorske
crnogorski
crnogorskog
crnoj
crnom
crnomelj
crnu
croatia
croatian
cross
crown
crp
crta
crte
crtez
crteza
crtezi
cruz
crva
crvena
crvene
crveni
crvenih
crvenim
crveno
crvenog
crvenoj
crvenom
crvenu
crvi
cryptocephalus
crystal
cs
csi
cska
csv
ct
cu
cub
cuda
cudno
cudo
cudovista
cudoviste
cuje
cujem
cuju
cula
culham
culi
culo
cultural
culture
cum
cummings
cunningham
cuo
cup
cupa
cuprija
cupu
curie
curlie
curr
current
curry
curtis
cut
cuti
cuva
cuvaj
cuvaju
cuvanje
cuvao
cuvar
cuvara
cuvari
cuvati
cuveni
cv
cvasti
cvijeca
cvijece
cvijet
cvijeta
cvjeta
cvjetnica
cvjetnice
cvjetova
cvjetove
cvjetovi
cvjetovima
cvor
cvora
cvorova
cvorove
cvorovi
cvorovima
cvrsta
cvrste
cvrsti
cvrstih
cvrstim
cvrsto
cvrstog
cvrstom
cvrstu
cw
cx
cxcl
cxcr
cxd
cxorf
cy
cycas
cycle
cyp
cyr
cys
cysteine
cystic
cytogenet
cytogenetic
cytogenetics
cytokine
cytoplasmic
cz
czech
d
d0
d1
d2
d3
d4
d5
d6
d7
d8
d9
da
dabar
dace
dactylispa
dade
dadne
dado
dadose
dag
dah
daha
dai
daily
daj
daje
dajem
dajemo
dajte
daju
dajuci
dakle
dala
dale
daleki
daleko
dali
dalja
dalje
daljeg
daljem
dalji
daljine
daljinu
daljnja
daljnje
daljnjeg
daljnji
dallas
dalmacija
dalmacije
dalmaciji
dalmaciju
dalmatinska
dalmatinske
dalmatinskoj
dalo
dalton
dam
dama
damage
damask
damaska
damasku
dame
damin
damir
damu
dan
dana
danak
danas
danasnja
danasnje
danasnjeg
danasnjem
danasnji
danasnjice
danasnjih
danasnjim
danasnjoj
danasnju
dance
danci
dane
dani
danica
daniel
daniela
daniels
danijel
danilo
danima
danju
danny
dano
danom
dans
danska
danske
danski
danskog
danskoj
danskom
dansku
dante
danu
dao
dar
dare
darija
darije
dario
dark
darkness
darko
darovao
darove
daruvar
darwin
das
dat
data
database
date
dates
dati
datih
datira
datiraju
datiranje
dativ
dato
datog
datom
datoteka
datoteke
datu
datum
datuma
datura
davala
davali
davanja
davanje
davao
davati
dave
david
davida
davidson
davies
davis
davno
davor
davorin
davud
davuda
davudu
dawn
dawson
day
days
db
dc
dd
ddr
ddx
de
deacon
dead
deadline
deafness
deal
dean
death
debate
debeli
debelo
debelog
debelom
debi
debitantski
debitirao
debitovao
debljina
debljine
deborah
dec
decay
decembar
december
decembra
decembru
decenija
decenijama
decenije
deceniji
decision
decock
dedic
deep
defects
defekt
defekti
defence
defense
deficiency
deficient
deficit
definicija
definicije
definiciji
definiciju
definira
definiraju
definiran
definirana
definirane
definirani
definirao
definirati
definisan
definisana
definisano
definisati
definise
definition
definitivno
deformacija
deformacije
degeneration
degradacije
degradation
dehidrogenaza
dehidrogenaze
dehydrogenase
dei
dejan
dejstva
dejstvo
dejtonskog
dekan
dekarboksilaza
deklaracija
deklaracije
deklaraciju
deklinacija
del
dela
delaware
delecija
delecije
delecijom
delegacija
delegacije
delegata
deletion
delfin
delhi
delic
delisle
dell
della
delnice
delo
delta
delte
dem
dementia
demo
democracy
democratic
demokratija
demokratije
demokratiju
demokratska
demokratske
demokratski
demokratskih
demokratskim
demokratskog
demokratsku
demon
demonstracija
demonstracije
den
dendritic
dendritske
deng
denis
denmark
dennis
density
deo
departmana
department
dependent
deportacije
deportivo
depresija
depresije
der
derbi
derby
derek
derivat
derivata
derivati
derived
dermatol
dermatology
derventa
dervente
derventi
dervis
des
desanka
desava
desavaju
desavanja
description
desert
deset
desetak
deseti
desetina
desetine
desetljeca
desi
design
desila
desilo
desio
desiti
desktop
desna
desne
desni
desno
desnog
desnoj
desnom
desnu
despot
despota
destinacija
destiny
det
details
detalj
detalja
detalje
detalji
detaljima
detaljnije
detaljno
detection
detektiv
detektiva
determination
detroit
deutsch
deutsche
deutschen
deutscher
deutschland
dev
devedeset
devedesetih
developing
development
developmental
devet
devete
deveti
devil
df
dfb
dfl
dg
dh
dhalika
dhea
di
diabetes
diagnosis
diagnostic
diagram
diamond
diana
diane
diaz
dicer
dick
dickinson
dicladispa
dicti
dictionary
dicto
dictus
did
didziulis
die
diego
diels
dies
dietary
dieter
dietrich
diferencijacija
diferencijacije
diferencijaciji
diferencijaciju
diferencijalna
differences
different
differential
differentially
differentiation
difosfat
difuzije
digimon
digital
digitalna
digitalne
digitalni
digitalnih
dijabetes
dijabetesa
dijagnosticira
dijagnosticiran
dijagnosticirati
dijagnosticki
dijagnoza
dijagnoze
dijagnozi
dijagnozu
dijagram
dijagramu
dijalekt
dijalog
dijaloga
dijamantne
dijela
dijele
dijeli
dijelili
dijelio
dijeliti
dijeljenja
dijeljenje
dijeljenjem
dijelom
dijelova
dijelove
dijelovi
dijelovima
dijelu
dijete
diktator
diktature
diljem
dim
dima
dimensional
dimenzija
dimenzijama
dimenzije
dimer
dimitrije
dimitrijevic
din
dina
dinama
dinamika
dinamike
dinamo
dinar
dinara
dinarida
dinastija
dinastije
dinastiji
dinastiju
dine
ding
dino
dio
dioba
diobe
diobu
dioksid
dioksida
dioksigenaza
dionica
dionice
dioscorea
diplomat
diplomata
diplomatske
diplomatskih
diplomirala
diplomirao
diplomu
direct
directed
director
directory
direktan
direktna
direktne
direktni
direktnim
direktno
direktnog
direktnom
direktnu
direktor
direktora
dirigent
dirk
dis
disanja
disanje
disc
disciplina
disciplinama
discipline
disciplini
discogs
discovered
discovery
discussion
disease
diseases
disertaciju
disfunkcija
disfunkcije
disk
diska
diskografske
diskoton
diskovi
diskriminacije
diskvalificiran
disney
disocijacije
disorder
disorders
display
displaystyle
displazija
distalni
distance
distinct
distribucija
distribucije
distribuciju
distribution
distrikt
distrikta
distriktu
distrofija
distrofije
div
diva
divan
diversa
diverse
diversification
diversity
division
divizija
divizije
diviziji
diviziju
divlja
divljaci
divlje
divljeg
divlji
divljih
divljim
divljini
divove
dixon
dizajn
dizajna
dizajner
dizajniran
dizajnirana
dizajnirao
dizajnu
dizdar
dizdarevic
dize
dizel
dizu
dj
djeca
djecaci
djecak
djecaka
djece
djeci
djecije
djecom
djecu
djed
djeda
djela
djelatnost
djelatnosti
djelima
djelimicno
djelo
djelom
djelomicno
djelovala
djelovali
djelovanja
djelovanje
djelovanjem
djelovanju
djelovao
djelovati
djelu
djeluje
djeluju
djelujuci
djeteta
djetetom
djetetu
djetinjstva
djetinjstvo
djetinjstvu
djevica
djevice
djevojaka
djevojcica
djevojcice
djevojka
djevojke
djevojkom
djevojku
djibouti
djokovic
dk
dl
dlaka
dlake
dlaku
dm
dn
dna
dnares
dnevna
dnevne
dnevni
dnevnih
dnevnik
dnevnika
dnevniku
dnevno
dnevnog
dnevnom
dnf
dnk
dno
dns
dnu
do
dob
doba
dobar
dobara
dobi
dobija
dobijaju
dobijali
dobijamo
dobijanja
dobijanje
dobijao
dobije
dobijen
dobijena
dobijeni
dobijenih
dobiju
dobila
dobile
dobili
dobilo
dobio
dobit
dobitak
dobiti
dobitnica
dobitnici
dobitnik
dobitnika
dobiva
dobivsi
doboj
doboja
dobojskog
doboju
dobra
dobrava
dobre
dobri
dobrih
dobrim
dobrima
dobro
dobrocinstvo
dobrog
dobrom
dobrova
dobrovoljaca
dobrovoljno
dobru
dobu
doc
doceka
docekao
doci
docs
doctor
document
documents
doda
dodaci
dodaje
dodaju
dodan
dodana
dodao
dodatak
dodataka
dodati
dodatkom
dodatna
dodatne
dodatni
dodatnih
dodatnim
dodatno
dodatnog
dodatnu
dodavanja
dodavanje
dodavanjem
dodijeli
dodijelili
dodijelio
dodijeliti
dodijeljen
dodijeljena
dodijeljene
dodijeljeno
dodik
dodir
dodira
dodirne
dodjela
dodjele
dodjeli
dodjeljuje
dodjeljuju
doduse
does
dog
događa
događaj
događaja
događaje
događaji
događajima
događaju
događanja
dogodi
dogodila
dogodilo
dogodio
dogoditi
dogovor
dogovora
dogovorili
dogovoru
dohodak
dohotka
doi
doigravanje
doigravanju
doista
dojam
dojencadi
dojke
dok
dokaz
dokaza
dokazano
dokazao
dokazati
dokaze
dokazi
dokazima
dokazuje
dokazuju
dokle
doktor
doktora
doktorat
doktorirao
doktorsku
doktrina
doktrine
dokumenata
dokument
dokumenta
dokumentarac
dokumentarni
dokumente
dokumenti
dokumentima
dokumentu
dol
dolac
dolar
dolara
dolaska
dolaskom
dolasku
dolazak
dolaze
dolazi
dolazila
dolazili
dolazilo
dolazio
dolaziti
dole
dolenja
dolenje
dolina
dolinama
doline
dolini
dolinom
dolinu
dolje
dolores
dom
doma
domaca
domace
domaceg
domacem
domaci
domacih
domacim
domacin
domacina
domacini
domacinstava
domacinstva
domacinstvo
domain
domains
domen
domena
domene
domeni
domenom
domenu
domestic
domet
dometa
dominacije
dominaciju
dominant
dominantan
dominantna
dominantne
dominantni
dominantno
domini
dominic
dominira
dominiraju
dominirali
domino
domova
domovina
domovine
domovini
domovinu
domu
domzale
don
donald
donekle
donese
donesen
donesena
dong
donijela
donijeli
donijelo
donijeti
donio
donja
donje
donjeg
donjem
donji
donjih
donjim
donjoj
donju
donna
donose
donosenja
donosenje
donosenjem
donosenju
donosi
donositi
doo
doors
dopamin
dopamina
dopamine
doping
doprinijeli
doprinijeti
doprinio
doprinos
doprinosa
doprinose
doprinosi
dopunite
dopuniti
dopusta
dopustaju
dopustajuci
dopustenje
dopusteno
dopusti
dopustio
dopustiti
dora
dorothy
dortmund
dos
dosad
dosao
dosavsi
dose
doseci
dosegla
doselili
doseljenici
doseljenika
doseze
dosezu
dosla
dosle
dosli
dosljedno
doslo
doslovno
dospio
dospjeli
dosta
dostaje
dostici
dostigao
dostigla
dostigne
dostignuca
dostize
dostizu
dostojan
dostojanstva
dostojanstvo
dostupan
dostupna
dostupne
dostupni
dostupnih
dostupnim
dostupno
dostupnost
dot
dotad
dotada
dotadasnji
dotle
dots
double
doug
douglas
dovede
doveden
dovedena
dovedeni
dovela
dovele
doveli
dovelo
doveo
dover
dovesti
dovode
dovodi
dovoljan
dovoljna
dovoljne
dovoljno
dovrsen
dovrsena
dovrsio
down
download
doyle
doza
dozama
doze
dozivio
dozivjela
dozivjeli
dozivjeti
dozivljava
dozivljavaju
dozu
dozvola
dozvole
dozvoli
dozvolio
dozvoliti
dozvoljava
dozvoljavaju
dozvoljena
dozvoljeno
dozvolu
dođe
dođi
dođite
dođose
dođu
dp
dq
dr
draftu
drag
draga
dragan
dragana
drage
dragi
drago
dragon
dragutin
drake
drama
dramaticar
dramaticno
drame
drami
dramski
dramskih
dramu
drasticno
dravi
draw
drazen
drazi
drb
dream
dreams
dres
dresu
drevna
drevne
drevni
drevnih
drevnim
drevnog
drew
drift
drina
drine
drini
drinskog
drinu
drive
driven
drnis
droga
droge
drosophila
drske
drug
druga
drugacija
drugacije
drugaciji
drugdje
druge
drugi
drugih
drugim
drugima
drugo
drugog
drugoga
drugoj
drugom
drugome
drugoplasirana
drugoplasirane
drugoplasirani
drugovi
drugs
drugu
drukcije
drustava
drustva
drustvena
drustvene
drustveni
drustvenih
drustvenim
drustveno
drustvenog
drustvenoj
drustvenom
drustvenu
drustvima
drustvo
drustvu
druzina
drva
drvar
drveca
drvece
drvecu
drvena
drvene
drveni
drvenih
drvenim
drvenom
drveta
drvetu
drvo
drzala
drzali
drzanje
drzao
drzati
drzava
drzavama
drzave
drzavi
drzavljana
drzavljani
drzavljanin
drzavljanstva
drzavljanstvo
drzavna
drzavne
drzavni
drzavnih
drzavnik
drzavnim
drzavno
drzavnog
drzavnoj
drzavnom
drzavnosti
drzavnu
drzavom
drzavu
drze
drzeci
drzi
ds
dsq
dss
dt
du
dual
duan
dubai
dubica
dubina
dubine
dubini
dubinu
dublin
dublje
dubok
duboka
duboke
duboki
dubokim
duboko
dubokog
duboku
dubrava
dubrave
dubravko
dubrovacka
dubrovacke
dubrovacki
dubrovackih
dubrovacko
dubrovackog
dubrovcani
dubrovcanima
dubrovnik
dubrovnika
dubrovniku
dudley
due
duet
duf
dug
duga
dugacak
dugacka
duge
dugi
dugih
dugim
dugme
dugmeta
dugo
dugog
dugogodisnji
dugom
dugometrazni
dugorocno
dugotrajne
dugu
duguje
duh
duha
duhan
duhana
duhom
duhova
duhovi
duhovne
duhovni
duhovno
duhovnog
duhu
dukata
duke
dule
dumbledore
dunav
dunava
dunavu
duncan
dunlop
dunn
duo
duplikacija
duplo
durakovic
during
duru
dusa
dusama
dusan
duse
dusi
dusik
dusika
dusko
duso
dusseldorf
dusu
dutch
duz
duza
duzan
duze
duzeg
duzi
duzim
duzina
duzine
duzini
duzinom
duzinu
duzni
duznost
duznosti
dv
dva
dvadeset
dvadesetak
dvadesetog
dvaju
dvanaest
dvaput
dvd
dve
dvije
dviju
dvjema
dvoboj
dvoboja
dvojako
dvoje
dvojica
dvojice
dvojicu
dvor
dvora
dvorac
dvorana
dvorane
dvorani
dvoranu
dvorca
dvorcu
dvorista
dvoriste
dvoristu
dvorski
dvoru
dvostruka
dvostruke
dvostruki
dvostrukih
dvostrukim
dvostruko
dvostrukog
dvostrukom
dvostruku
dw
dx
dxc
dxd
dxe
dxf
dy
dylan
dynamic
dynamics
dysfunction
dysplasia
dystrophy
dz
dzamija
dzamije
dzamiji
dzamiju
dzedaj
dzehennem
dzeko
dzelle
dzemal
dzemat
dzennet
dzevad
dzez
dzibuti
dzibutija
dzin
e
e0
e1
e2
e3
e4
e5
e6
e7
e8
e9
ea
each
ear
earl
early
earnshaw
earth
earthquake
east
eastern
eb
ebert
ebi
ebu
ec
eclipse
eco
ecole
ecological
ecology
economic
economics
economist
economy
ed
eddie
eden
edgar
edge
edhem
edin
edinburgh
edited
edith
edition
editions
editor
editors
edmund
edo
edom
edouard
eds
edu
eduard
eduarda
eduardo
education
educational
edvard
edvarda
edward
edwarda
edwards
edwin
ee
ef
efekat
efekata
efekt
efekta
efekte
efekti
efektima
efektivno
efendija
effect
effects
efficacy
effort
efikasan
efikasno
efikasnost
efikasnosti
efraim
eg
egf
egfr
egipat
egipatska
egipatske
egipatski
egipatskih
egipatskog
egipcani
egipta
egiptom
egiptu
eglise
ego
egypt
egzilu
egzon
egzona
eh
ehf
ehlers
ei
eif
eight
ein
eine
einstein
ej
ejhg
ek
ekg
ekipa
ekipe
ekipi
ekipom
ekipu
ekologija
ekoloske
ekoloski
ekoloskih
ekonomija
ekonomije
ekonomiji
ekonomiju
ekonomista
ekonomska
ekonomske
ekonomski
ekonomskih
ekonomskim
ekonomsko
ekonomskog
ekonomskoj
ekonomskom
ekonomsku
ekosistema
ekran
ekrana
ekranu
ekrem
ekspanzija
ekspanzije
ekspedicija
ekspedicije
ekspediciji
ekspediciju
eksperimenata
eksperiment
eksperimentalne
eksperimentalni
eksperimentalno
eksperimente
eksperimenti
eksperimentima
eksplicitna
eksploatacija
eksploatacije
eksploataciju
eksplozija
eksplozije
ekspresija
ekspresije
ekspresiji
ekspresijom
ekspresiju
eksprimira
eksprimiraju
eksprimiran
ekstremiteta
ekstremnim
ekstremno
ekvador
ekvatora
ekvivalent
el
election
electric
electron
electronic
electronics
elegans
elektrana
elektrane
elektricna
elektricne
elektricni
elektricnih
elektricnim
elektricno
elektricnog
elektricnom
elektricnu
elektroda
elektrode
elektrolita
elektron
elektrona
elektrone
elektroni
elektronika
elektronska
elektronske
elektronski
elektronskih
elektronskim
elektronskog
elektroprivreda
elemenata
element
elementa
elementarni
elementarnog
elementary
elemente
elementi
elementima
elements
elementu
elena
eli
elias
eliminacije
elipticna
elisa
elisabeth
elisma
elite
elizabeta
elizabete
elizabeth
elizabetu
elize
ell
ellen
elliott
ellis
elsevier
elvis
em
email
emanuel
embo
emboj
embrion
embriona
embrionskog
embryo
embryology
embryonic
emedicine
emend
emergency
emerging
emerson
emil
emile
emily
emina
emir
emira
emirata
emirati
emisija
emisije
emisiji
emisijska
emisiju
emitira
emitirana
emitiranje
emitiranjem
emituje
emma
emmanuel
emmy
emocija
emocije
empire
en
enciklopedija
enciklopedije
enciklopediji
encoded
encodes
encoding
encyclopaedia
encyclopedia
encyclopædia
end
endem
endo
endocrine
endocrinol
endocrinology
endogeni
endogenous
endometrija
endoplasmic
endoplazmatski
endoplazmatskog
endoplazmatskom
endotelne
endotelnih
endothelial
ends
energetska
energetske
energetski
energija
energije
energijom
energiju
energy
enes
eng
engel
engine
engineering
engl
england
engleska
engleske
engleski
engleskih
engleskim
englesko
engleskog
engleskoj
engleskom
englesku
englezi
english
enhanced
enhances
eno
enriched
enrique
ensembl
ensg
ensmusg
entdeckung
enterprise
entertainment
entitet
entiteta
entrez
entries
entry
envelope
enver
environment
environmental
enzim
enzima
enzime
enzimi
enzimima
enzimom
enzimske
enzimski
enzyme
enzymes
eo
ep
epa
ephedra
epic
epidemija
epidemije
epidemiology
epidermal
epiderme
epigrafika
episode
epitel
epitela
epitelne
epitelnih
epitet
epithelial
epizoda
epizodama
epizode
epizodi
epizodu
epoha
epohe
epsilon
epstein
eq
er
era
ere
erectus
erg
eri
eric
erica
erich
ericsson
eridan
erigeron
erik
eritrocita
erk
ernest
ernst
error
ers
erupcija
erupcije
erwin
es
esa
esad
esc
escherichia
esej
eseja
eseji
esejist
eso
espana
espn
essays
essential
essentials
est
estadio
esteban
ester
estera
estimates
estonija
estonije
estoniji
estonski
estradiol
estradiola
estrogen
estrogena
et
eta
etanol
etapa
etc
ethnic
etienne
etika
etil
etiopija
etiopije
etnicka
etnicke
etnicki
etnickih
etnickim
etnicko
etnickog
etnickoj
etnicku
etno
eto
ets
etymology
eu
eufrat
eugen
eugene
eukariota
eukariotskih
eukaryotes
eukaryotic
euklidsku
euler
euphorbia
eur
eura
euro
eurobasket
europa
europe
european
europi
eurosong
eurosongu
eurosport
eurovision
eurovizije
ev
eva
evaluation
evan
evans
evanđelja
evanđelje
eve
even
event
events
eventualno
ever
everest
everesta
everton
every
everything
evidence
evidenciju
evil
evlija
evo
evol
evolucija
evolucije
evoluciji
evolucijska
evolucijske
evolucijski
evoluciju
evoluirali
evoluirao
evolution
evolutionary
evropa
evrope
evropi
evropljana
evropljani
evropom
evropska
evropske
evropski
evropskih
evropskim
evropsko
evropskog
evropskoj
evropskom
evropsku
evropu
ew
ewing
ex
example
exchange
exclusive
exd
executive
exon
exp
expansion
expasy
experience
experimental
expert
exploration
explorer
exploring
export
exposure
express
expressed
expression
extended
extracellular
extragalactic
ey
eye
eyes
ez
ezav
f
f0
f1
f2
f3
f4
f5
f6
f7
f8
f9
fa
fabaceae
fabrici
fabricius
fabrika
fabrike
face
facebook
facilitate
fact
factbook
facto
factor
factors
facts
fadil
fagerstr
fahrudin
failure
fair
faith
faktor
faktora
faktore
faktori
faktorima
faktorom
fakultet
fakulteta
fakultetu
fala
fall
false
fam
fame
familial
families
familija
familije
family
famous
fan
fang
fantastike
fap
faq
far
faraon
faraona
faraonu
farmi
farska
faruk
fas
fasada
fasade
fascija
fascism
faseb
fasizma
faso
fast
fat
fate
father
fatigue
fatima
fatty
fauna
faune
faza
fazama
faze
fazi
fazu
fb
fbi
fbih
fbihvlada
fc
fd
fda
fe
fear
feat
feature
features
feb
februar
februara
februaru
february
febs
federacija
federacije
federaciji
federaciju
federal
federalna
federalne
federalni
federalnih
federalnog
federation
federativne
federer
federera
feed
feingold
felipe
felix
female
fenerbahce
feng
feniks
feniksa
fenilalanin
fenomen
fenomena
fenotip
fenotipa
fenotipova
fenotipski
fer
ferdinand
ferdinanda
ferenc
ferguson
fernandez
fernando
ferrari
fertility
fes
festival
festivala
festivalima
festivalu
fetal
fetus
fetusa
fever
ff
fg
fgf
fgfr
fh
fi
fia
fiat
fiba
fibroblast
fibroblasta
fibrosis
fiction
fide
field
fields
fifa
fifth
fight
figura
figure
figures
figuru
fiha
fikret
fiktivni
filament
file
files
filip
filipa
filipina
filipini
filipinima
filipovic
filistinaca
filistinci
film
filma
filmom
filmova
filmove
filmovi
filmovima
films
filmska
filmske
filmski
filmskih
filmskim
filmskog
filmskoj
filmskom
filmsku
filmu
filogenija
filolog
filologiju
filozof
filozofa
filozofi
filozofija
filozofije
filozofiji
filozofiju
filozofska
filozofske
filozofski
filozofskog
filozofskom
fin
fina
final
finala
finale
finalist
finalna
finalne
finalnoj
finals
finalu
financial
finansija
finansije
finansijska
finansijske
finansijski
finansijskih
finansijsku
finansiranje
finci
find
findings
fine
finger
finland
fino
finska
finske
finski
finskoj
finskom
fiorentina
fire
firenci
firma
firme
firmi
firmu
first
firth
fis
fischer
fish
fisher
fitzgerald
five
fizicar
fizici
fizicka
fizicke
fizicki
fizickih
fizickim
fizicko
fizickog
fizickom
fizicku
fizika
fizike
fiziku
fiziologija
fiziologiju
fizioloske
fizioloski
fj
fk
fkzeljeznicar
fl
flag
flash
fleming
fletcher
flight
flora
flore
florence
flores
florida
flota
flote
flotu
flow
flowering
flowers
floyd
fluid
fluida
fluora
fly
fm
fn
fnr
fnrj
fo
fobos
foca
foce
foci
focke
focus
fojnica
fokus
fokusira
folding
folija
folikula
folk
following
fon
fond
fonda
fondacija
fondacije
fonetski
fontaine
fontana
food
foot
football
for
forbes
force
forces
ford
foreign
forensic
forest
forever
form
forma
formacija
formacije
formalna
formalne
formalni
formalno
format
formata
formation
formatu
forme
former
formi
formira
formiraju
formirajuci
formirala
formirale
formirali
formiran
formirana
formirane
formirani
formiranja
formiranje
formiranjem
formiranju
formirano
formirao
formirati
forms
formu
formula
formule
formuli
formulom
formulu
fort
fortune
forum
foruma
fosfat
fosfata
fosfataza
fosfatidilinozitol
fosfatne
fosfor
fosfora
fosforilacija
fosforilacije
fosforilaciju
fosila
fosili
fosilni
fosilnih
fossil
foster
foto
fotograf
fotografija
fotografije
fotografiju
fotona
fotosinteze
foucault
found
foundation
founder
four
fourth
fowler
fox
fp
fq
fr
fra
frac
fragaria
fragmenata
fragment
fragmente
fragmenti
frakcija
frakcije
frame
framework
fran
franacki
franaka
franc
franca
france
frances
francesco
franch
francis
francisco
franciska
franck
franco
francois
francuska
francuske
francuski
francuskih
francuskim
francusko
francuskog
francuskoj
francuskom
francusku
francuz
francuza
francuzi
franje
franjevacki
franjevci
franjo
frank
franka
frankfurt
frankfurtu
franklin
fransize
franz
franza
fraser
fraza
fred
freddie
frederic
frederick
frederik
free
freedom
freeman
frekvencija
frekvencije
frekvenciji
french
frequency
frequently
freske
freud
fridrik
fridrika
friedman
friedrich
friends
fritz
from
front
fronta
frontiers
frontu
frost
frozen
fruktoza
fry
fs
fsh
ft
fu
fuad
fuchs
fudbaler
fudbalski
fuit
full
fuller
fulton
function
functional
functions
fund
fundamentals
fungi
funk
funkcija
funkcijama
funkcije
funkciji
funkcijom
funkciju
funkcionalna
funkcionalne
funkcionalni
funkcionalnih
funkcionalno
funkcionalnu
funkcionira
funkcioniraju
funkcioniranje
funkcionirati
funkcionise
funti
fur
furnira
further
fusion
futbol
futsal
future
fuzija
fuzije
fuziju
fv
fw
fx
fy
fz
fzs
g
g0
g1
g2
g3
g4
g5
g6
g7
g8
g9
ga
gaba
gabon
gabor
gabriel
gacko
gad
gaj
gaja
gal
gala
galaksija
galaksije
galatasaray
galaxies
galaxy
gale
galerija
galerije
galeriji
galex
galij
galija
galileo
gallery
galnac
gama
gambit
game
games
gameta
gamma
gana
gandhi
ganglija
ganglije
gao
gap
garcia
gard
garda
garde
garden
gardens
gardner
garland
garnizon
garrett
garros
gary
gas
gasa
gasova
gaston
gastric
gastroenterology
gastrointestinal
gata
gate
gates
gavran
gay
gaza
gaze
gazette
gazi
gađanja
gb
gc
gd
gde
gdi
gdje
gdp
ge
gej
gel
gelo
gen
gena
genbank
gender
gene
genecards
genera
generacija
generacije
generaciji
generaciju
general
generala
generale
generali
generalna
generalni
generalno
generalnog
generalom
generalstaba
generation
generator
generatora
genereviews
generira
generiranje
genes
genet
genetic
genetici
geneticka
geneticke
geneticki
genetickih
genetickim
geneticko
genetickog
genetickom
geneticku
genetics
genetika
genetike
genetski
genetype
geni
genima
genitiv
genius
geno
genocid
genocida
genocide
genocidu
genom
genoma
genomatix
genome
genomes
genomic
genomics
genomske
genomu
genotip
genotipa
genotype
genska
genske
genski
genskih
genskog
gentiana
genu
genus
geo
geodetski
geoffrey
geografija
geografije
geografiji
geografska
geografske
geografski
geografskih
geografskim
geografsko
geografskog
geografskoj
geografskom
geographic
geographical
geography
geological
geologija
geology
geoloska
geoloske
geoloski
geoloskih
geometrija
geometrije
geometriji
geometrijski
georg
george
georgea
georges
georgia
georgija
georgije
geq
gerald
gerard
gerhard
germ
germain
german
germanskih
germany
geschichte
gesellschaft
gesta
gestro
get
gets
gf
gfr
gg
gh
ghb
gi
giant
gibbs
gibraltar
gibraltara
gibson
gil
gilbert
gill
gimnazija
gimnazije
gimnaziji
gimnaziju
gine
ginny
giorgio
giovanni
girl
girls
gitara
gitare
gitari
gitarist
gitarista
gitaru
giuseppe
give
gj
gk
gkj
gl
glad
gladi
gladiolus
glagol
glagola
glamoc
gland
glas
glasa
glasaca
glasaju
glasalo
glasanja
glasanje
glasanjem
glasati
glasgow
glasi
glasine
glasnik
glasnika
glasno
glasom
glasonose
glasova
glasove
glasovi
glass
glasu
glatke
glatkih
glaukom
glava
glave
glavi
glavica
glavice
glavna
glavne
glavni
glavnih
glavnim
glavnina
glavno
glavnog
glavnoj
glavnom
glavnu
glavobolja
glavobolje
glavom
glavu
gle
gleda
gledaj
gledaju
gledajuci
gledalaca
gledali
gledano
gledao
gledati
glede
gledista
glediste
glenn
glicerol
glicin
glikogena
glikoprotein
glikozilacije
glina
gline
glista
gljiva
gljivama
gljive
global
globalna
globalne
globalni
globalno
globalnog
globalnom
globe
globina
globus
globusa
glodara
gloria
glosaru
glossary
glover
glu
glucose
glukoza
glukoze
glukozu
glumac
glumaca
glumacke
glumca
glumci
glumcima
glume
glumi
glumica
glumice
glumicu
glumila
glumio
glumiti
glumu
gluposti
glutamat
glutamata
glutamin
glutaminska
glutation
gly
glycoprotein
glycosylation
gm
gmbh
gmizavaca
gmo
gn
gnad
gnetum
gnijezda
gnijezdo
gnjev
gnjeva
gnrh
gnu
go
goa
goal
goals
god
goddard
godina
godinama
godine
godini
godinom
godinu
godisnja
godisnjak
godisnje
godisnjeg
godisnji
godisnjica
godisnjice
godisnjicu
godisnjih
godisnju
gods
goes
goethe
going
gojko
gol
gola
gold
goldberg
golden
goldman
goldstein
golf
golgi
goli
golim
golman
golo
golom
golova
golove
golovi
golub
gomez
gomila
gomile
gonadotropin
gone
gong
gonzalez
good
goodman
google
gora
goran
goranska
goranski
gorazda
gorazde
gorazdu
gordana
gordon
gore
gorenja
gorenje
gorenjska
gori
gorica
gorice
goriska
goriva
gorivo
gorja
gorje
gorki
gornja
gornje
gornjeg
gornjem
gornji
gornjih
gornjim
gornjoj
gornju
gorom
gorski
goru
gosk
gospa
gospe
gospic
gospod
gospoda
gospodar
gospodara
gospodare
gospodari
gospodaru
gospode
gospodin
gospodina
gospodine
gospodov
gospodova
gospodovo
gospodu
gospođa
gost
gosti
gostiju
gostima
gostujuci
got
gota
goteborg
gotovo
gottfried
gottlieb
gould
gov
goveda
govedo
government
governor
govor
govora
govorase
govore
govoreci
govori
govorila
govorili
govorilo
govorim
govorimo
govorio
govorise
govorite
govoriti
govornika
govornog
govoru
gp
gpcr
gpr
gps
gq
gr
gracac
gracanica
gracanici
grace
grad
grada
gradac
gradacac
gradaccu
gradascevic
grade
gradec
gradeci
gradi
gradic
gradicu
gradijent
gradili
gradina
gradine
gradisce
gradisci
gradiska
gradiske
graditelj
graditeljska
graditi
gradnja
gradnje
gradnji
gradnjom
gradnju
gradom
gradonacelnik
gradonacelnika
gradova
gradove
gradovi
gradovima
gradska
gradske
gradski
gradskih
gradskim
gradsko
gradskog
gradskoj
gradskom
gradsku
gradu
graf
graficar
graficke
graficki
grafickih
grafickog
grafika
grafike
grafiku
grah
graham
grahovo
gram
grama
gramatici
gramatika
grammy
gran
grana
granada
granama
granata
granate
grand
grande
grane
granger
granica
granicama
granice
granici
granicna
granicne
granicni
granicom
granicu
grant
granu
granula
granule
graphics
grass
graves
gravitacija
gravitacije
gravity
gray
graz
grazu
građa
građana
građane
građani
građanima
građanin
građanina
građanska
građanske
građanski
građanskih
građanskim
građanskog
građanskom
građe
građen
građena
građene
građeni
građevina
građevine
građevinski
građevinskih
građu
grb
grba
grbavica
grbom
grbu
grc
grch
grci
grcka
grcke
grcki
grckih
grckim
grcko
grckog
grckoj
grckom
grcku
grcm
great
greatest
greben
grebena
grebenom
grebenu
greda
grede
greece
greek
green
greene
greenwood
greg
gregor
gregorijanskom
gregory
grenland
gresaka
greska
greske
greskom
gresku
gressitt
grey
grgur
gric
grid
griffin
griffith
griffiths
grijeh
grijeha
grijehe
grijehova
grijesi
grin
gripe
griseb
grissom
grjeske
grka
grla
grlica
grlo
grm
grmova
grmovi
grob
groba
groblja
groblje
groblju
grobnica
grobnice
grobnicu
grobova
grobovi
grobovima
grobu
grof
grofa
grofica
grofovija
gross
grosso
grosuplje
ground
group
groups
grouse
grove
growth
groznica
groznice
grozđa
grozđe
grube
grubo
grude
grudi
grudima
grudni
grudnog
grupa
grupama
grupe
grupi
grupna
grupne
grupnoj
grupnu
grupom
grupu
gruyter
gruzija
gruzije
gruzijski
gs
gsk
gt
gtp
gtpase
gu
guanin
guardian
gube
gubi
gubici
gubitak
gubitaka
gubitka
gubitke
gubitkom
gudacki
guerin
guide
guidelines
guido
guillaume
guinea
guinness
guitar
gulen
gulf
guma
gume
gun
guns
gunter
gunther
guo
gupta
gurney
gusta
gustav
gustave
guste
gusterace
gustim
gustina
gusto
gustoca
gustoce
gustocom
gustocu
gut
gutenberg
guthrie
guverner
guvernera
guy
guyton
gv
gvajana
gvatemala
gvatemale
gvineja
gvineje
gvineji
gvozđa
gvozđe
gw
gwh
gx
gy
gz
gzm
gđa
h
h0
h1
h2
h3
h4
h5
h6
h7
h8
h9
ha
haagu
haas
habsburg
habsburske
had
hadha
hadis
hadisa
hadz
hadzi
hadzic
hadzici
hadzimuhamedovic
hadziselimovic
hafiz
hahn
hair
haiti
hajde
hajdemo
hajduk
hajr
hajrudin
hal
halal
hale
half
halid
halifa
halifat
halifata
halife
halilovic
hall
ham
hamam
hamburg
hamburgu
hamdija
hamid
hamilton
hamlet
hammer
hammond
hamza
hamzu
han
hana
hand
handbook
hangul
hanibal
hanks
hannah
hans
hansen
hanson
hao
haplogrupa
haplogrupe
happy
hapsenja
hapsenje
hara
harald
harbor
hard
harding
hardver
hardy
harem
haremu
hari
haris
harold
harper
harris
harrison
harry
harryja
harryju
hart
hartley
harun
haruna
harunu
harv
harvard
harvey
harvnb
harwood
has
hasan
hasana
hassan
hat
hattori
havajima
have
haven
haveric
hawaii
hawaiian
hawkins
hayashi
hayat
haydn
hayes
hazard
hazim
hb
hbo
hc
hcg
hcl
hd
hdac
hdl
hdmi
hdz
he
head
headings
health
hearing
heart
heat
heath
heather
heats
heaven
heavy
hebreji
hebrejski
hebrejskog
hebrejskom
hector
hedgehog
hedonista
heidelberg
heinemann
heinrich
heinz
heise
hej
hektara
hela
helen
helena
helicobacter
heliconia
helij
helija
helikopter
helikoptera
heliks
heliksa
helix
hell
heller
hello
helmut
help
helsinki
helsinkiju
hem
hema
hematology
hematopoietic
hemicar
hemija
hemije
hemiji
hemijska
hemijske
hemijski
hemijskih
hemijskim
hemijskog
hemijskoj
hemijskom
hemijsku
hemiju
hemikalija
hemikalije
hemisfere
hemisferi
hemoglobin
hemoglobina
hemoterapija
henderson
hendry
henri
henrik
henrika
henry
heparin
hepatitis
hepatitisa
hepatocellular
hepburn
her
hera
heraklo
herald
herbert
herceg
hercega
hercegovaca
hercegovacki
hercegovacko
hercegovina
hercegovine
hercegovini
hercegovinom
hercegovinu
herculis
here
hereditary
heritage
herkul
herman
hermann
hermes
hermiona
hernandez
hero
herodot
heroes
heroj
heroja
heroji
herschel
herzegovina
herzog
hess
heterodimer
heterogeneity
hf
hg
hh
hi
hibiscus
hibridizacije
hibridni
hidden
hide
hidroelektrana
hidroelektrane
hidroksi
hidroksid
hidroksida
hidroksilaza
hidroksilaze
hidrolaza
hidrolizira
hif
higgins
high
higher
highly
hiljada
hiljadama
hiljade
hiljadu
hill
hills
hilmo
himna
himne
himnu
hinduizam
hip
hipertenzija
hipofize
hipotalamus
hipotalamusa
hipoteza
hipoteze
hipotezu
hirurg
hirurski
hirzel
his
histidin
histoire
histology
histona
histone
historia
historic
historical
historicar
historicara
historicari
historija
historije
historiji
historijom
historijska
historijske
historijski
historijskih
historijskim
historijsko
historijskog
historijskoj
historijskom
historijsku
historiju
history
hit
hitchcock
hitler
hitlera
hitova
hitovi
hits
hiv
hj
hk
hl
hla
hladna
hladne
hladni
hladnim
hladno
hladnog
hlađenja
hlađenje
hljeba
hlor
hlora
hlorid
hlorida
hloroplasta
hloroplasti
hm
hmg
hn
hnk
hns
ho
hoc
hoce
hocemo
hoces
hocete
hocu
hod
hoda
hodati
hodzic
hoffman
hoffmann
hofmann
hogwarts
hogwartsa
hogwartsu
holandija
holandije
holandiji
holandiju
holandska
holandske
holandski
holandskog
hold
holden
holding
holesterol
holesterola
holland
holly
hollywood
hollywoodu
holm
holmes
holmesa
holmesu
holokaust
holokausta
holokauste
holstein
holt
home
homeostasis
homeostaze
homepage
homer
homo
homolog
homologa
homologije
homologna
homologne
homologni
homolognih
homologous
homologue
homology
honda
honduras
hong
honore
hook
hooper
hop
hope
hopkins
hor
hora
horatio
horizontalne
horizontalno
hormon
hormona
hormone
hormones
hormoni
horn
horor
horvat
hos
hospital
host
hot
hotel
hotela
hotelu
hotspur
houghton
hour
house
housea
houston
how
howard
howe
hox
hp
hq
hr
hrabar
hrabri
hrabrost
hrabrosti
hram
hrama
hramova
hramovi
hramu
hrana
hrane
hrani
hranic
hranica
hranjenje
hranjive
hranjivih
hranom
hranu
hrast
hrasta
hrib
hriscanske
hriscanski
hrista
hrom
hroma
hromatina
hromosom
hromosoma
hromosomi
hromosomima
hromosomska
hromosomske
hromosomski
hromosomskih
hromosomskoj
hromosomu
hromozoma
hronicna
hronicne
hronicni
hronika
hronologija
hronoloski
hrsg
hrskavica
hrskavice
hrt
hrvat
hrvata
hrvate
hrvati
hrvatima
hrvatinica
hrvatska
hrvatske
hrvatski
hrvatskih
hrvatskim
hrvatsko
hrvatskog
hrvatskoj
hrvatskom
hrvatskosrpski
hrvatsku
hrvoje
hs
hsp
hss
hsu
ht
htio
htjela
htjeli
htm
html
http
https
hu
huang
hub
hubble
huber
hudson
hugh
hughes
hugo
hui
hum
huma
human
humanitarne
humans
humanu
humor
humu
hung
hunt
hunter
hurdles
husein
husrev
huston
hutchinson
huwa
hv
hvala
hvale
hvaljen
hvar
hvata
hvatanje
hvo
hw
hx
hy
hybrid
hybridization
hydrogen
hydrolase
hydroxylase
hypericum
hyperplasia
hypertension
hypothesis
hypoxia
hz
i
i0
i1
i2
i3
i4
i5
i6
i7
i8
i9
ia
iaaf
iako
ian
iana
ib
ibid
ibm
ibn
ibrahim
ibrahima
ibrahimu
ibu
ic
ice
ich
ici
icty
id
ida
idah
ide
ideal
idealno
idealnog
ideja
idejama
ideje
ideji
idejom
ideju
idem
idemo
identican
identicna
identicne
identicni
identification
identificira
identificiraju
identificirali
identificiran
identificirana
identificirane
identificirani
identificirano
identificirati
identified
identifies
identifikacija
identifikacije
identifikaciju
identify
identitet
identiteta
identity
ideologija
ideologije
ideoloski
ides
idh
idha
idi
idite
idol
idola
idrija
idu
iduce
iduci
ie
ieee
if
ifk
ifn
ift
ig
iga
igara
ige
igf
igg
igle
igm
igman
ign
igor
igra
igrac
igraca
igrace
igracem
igraci
igracima
igracke
igracu
igraju
igrajuci
igrala
igrale
igrali
igraliste
igralo
igrama
igrana
igrane
igrani
igranja
igranje
igrano
igrao
igrati
igre
igri
igrom
igru
ih
ii
iii
ij
ijc
ik
ika
ikad
ikada
ikakve
ikakvih
ikakvog
ikona
ikone
il
ila
ile
ilex
ili
ilic
ilidza
ilija
ilijas
ilira
iliri
ilirska
ilirske
ilirski
ilirskih
ilirsko
ilirskog
illa
illinois
illustrated
ilustracija
ilustracije
im
ima
imade
image
images
imaging
imaju
imajuci
imala
imale
imali
imalo
imam
imama
imamo
imamovic
imanja
imanje
imanju
imao
imas
imase
imat
imate
imati
imdb
ime
imena
imenica
imenice
imenima
imenom
imenovan
imenovana
imenovani
imenovanja
imenovanje
imenovao
imenu
imenuje
imigranata
immune
immunity
immunodeficiency
immunoglobulin
immunol
immunology
imotski
imovina
imovine
imovinu
impact
impairment
imperfecta
imperija
imperije
implications
implicira
implikacije
importance
important
improved
impuls
impulsa
impulse
imran
imuni
imunitet
imunog
imunogenetiku
imunoglobulina
imunske
imunski
imunskog
in
ina
inace
inactivation
inarritu
inc
incidence
incidencija
incident
includes
including
increase
increased
increases
ind
indeks
indeksa
independence
independent
index
indexa
indexi
india
indian
indiana
indija
indijanac
indijanaca
indijanci
indije
indiji
indijska
indijske
indijski
indijskog
indijskom
indiju
indirektno
individua
individual
individualne
individualnih
individualno
individuals
individue
indo
indonezija
indonezije
indoneziji
induced
induces
inducible
inducira
induction
industrial
industrija
industrije
industriji
industrijska
industrijske
industrijski
industrijskih
industrijskim
industriju
industry
ine
infection
infectious
infekcija
infekcijama
infekcije
infekciju
inflacija
inflacije
inflammation
inflammatory
influence
info
informacija
informacijama
informacije
informaciju
information
infrared
infrastruktura
infrastrukture
infrastrukturu
infty
ingeb
ingrid
inheritance
inherited
inhibicija
inhibicije
inhibiciju
inhibira
inhibiraju
inhibition
inhibitor
inhibitora
inhibitori
inhibitors
inhibitory
inhibits
inicijativa
inicijative
inicijativu
initial
initiation
initiative
injekcija
injekcije
injury
inn
inna
inner
inog
inorganic
inostranstvu
inoue
inovacija
inovacije
inozemstvu
insect
insects
insekata
insekte
insekti
insektima
inside
insider
insight
insights
inspektor
inspiracija
inspiraciju
inspirisan
instalacija
instalacije
institucija
institucijama
institucije
institut
instituta
institute
institutes
institution
institutu
instrukcija
instrukcije
instrumenata
instrument
instrumenta
instrumental
instrumente
instrumenti
instrumentima
insuficijencija
insulin
insulina
int
integracija
integracije
integraciju
integral
integrala
integralni
integrated
integration
integrin
integrirani
integritet
integriteta
intel
intelektualaca
intelektualna
intelektualne
inteligencija
inteligencije
intelligence
intenzitet
intenziteta
intenzivne
intenzivno
inter
intera
interact
interacting
interaction
interactions
interactive
interacts
interakcija
interakcijama
interakcije
interakciji
interakcijom
interakciju
interaktivni
interes
interesa
interese
interesi
interesima
interesovanja
interesovanje
interesu
interface
interfejs
interfejsa
interferon
interleukin
intermediate
internacionalni
internal
international
internationale
internazionale
internet
interneta
internetski
internetskih
internetu
interpretacija
interpretaciju
interpunkcija
intertoto
interval
intervala
intervalima
intervalu
intervencija
intervencije
intervenciju
interview
intervju
intervjuu
intestinal
into
intracellular
introduction
intron
introna
invalidnost
invasion
invasive
invazija
invazije
invaziju
invest
investicija
investicije
investigation
investigative
involved
involvement
inzenjer
inzenjera
inzenjerstva
inzenjerstvo
io
ion
iona
ione
ioni
ionima
ionizacije
ions
ionske
ionski
ionskih
ios
iowa
ip
ipa
ipac
ipak
ipcc
iphone
iq
ir
ira
irak
iraka
iraku
iran
irana
iranska
iranske
iranski
iranu
iras
ireland
irena
irene
irf
iris
irish
irnk
iron
irska
irske
irski
irskog
irskoj
irsku
irving
is
isa
isaac
isakovic
isao
isbn
ise
ishak
ishikawa
ishod
ishoda
ishrana
ishrane
ishrani
ishranu
iskaz
iskazano
iskazivano
iskazuje
iskazuju
iskljucen
iskljuciti
iskljucivo
iskljucuje
iskopavanja
iskoristi
iskoristila
iskoristili
iskoristio
iskoristiti
iskra
iskreno
iskusenje
iskustava
iskustva
iskustvo
iskustvom
iskustvu
isla
islam
islama
islamic
islamska
islamske
islamski
islamskih
islamskim
islamsko
islamskog
islamskoj
islamskom
islamsku
islamu
island
islanda
islands
islandu
isli
ismail
ismet
iso
isoform
isoforms
isolated
isolation
ispada
ispali
ispao
isparavanja
ispit
ispita
ispitanika
ispitivanja
ispitivanje
ispituje
ispocetka
ispod
ispoljava
ispoljavaju
ispoljavanje
ispostavilo
ispravan
isprave
ispravno
ispred
isprva
ispuni
ispunio
ispuniti
ispunjava
ispunjavaju
ispunjen
ispunjena
ispunjene
ispunjeni
ispusta
isra
israel
issn
issue
issues
ist
ista
istakao
istaknuta
istaknute
istaknuti
istaknutih
istaknutim
istanbul
istanbula
istanbulu
istarska
istat
iste
isteka
isti
isticao
istice
isticu
istih
istim
istina
istine
istini
istinito
istinom
istinski
istinu
istituto
isto
istocna
istocne
istocni
istocnih
istocnim
istocnjacke
istocno
istocnoarmenski
istocnog
istocnoj
istocnom
istocnu
istodobno
istog
istoimene
istoimeni
istoimenog
istoimenoj
istoimenom
istoj
istok
istoka
istoku
istom
istorija
istorije
istoriji
istorijski
istoriju
istovremeno
istra
istraga
istrage
istragu
istrazi
istrazivac
istrazivaca
istrazivaci
istrazivacke
istrazivacki
istrazivackih
istrazivackog
istrazivanja
istrazivanje
istrazivanjem
istrazivanjima
istrazivanju
istrazivao
istrazuje
istrazuju
istre
istri
istu
isus
isusa
isuse
isusova
isusu
it
ital
italia
italian
italicu
italija
italijani
italijanska
italijanske
italijanski
italijanskih
italijanskim
italijansko
italijanskog
italijanskoj
italijanskom
italijansku
italije
italiji
italijom
italiju
italy
itd
itemid
itis
ito
itrij
its
iu
iucn
iupac
iure
iv
iva
ivan
ivana
ivancna
ivanec
ivanic
ivanom
ivanovic
ivanu
ive
ivica
ivice
ivici
ivo
iw
ix
iy
iz
iza
izabela
izabere
izabrala
izabrali
izabran
izabrana
izabrane
izabrani
izabranih
izabrano
izabrao
izabrati
izaci
izasao
izasla
izasli
izaslo
izaziva
izazivaju
izazivajuci
izazivanje
izazov
izazove
izazvala
izazvali
izazvalo
izazvana
izazvane
izazvao
izazvati
izađe
izbacen
izbacio
izbacivanje
izbacuje
izbija
izbijanja
izbila
izbio
izbjeci
izbjegao
izbjegava
izbjegavaju
izbjegavanje
izbjegavati
izbjegla
izbjegli
izbjeglica
izbjeglice
izbjegne
izbor
izbora
izbore
izbori
izborima
izborio
izboriti
izborna
izborne
izborni
izbornih
izborom
izboru
izconstellation
izd
izdaje
izdaju
izdala
izdali
izdan
izdana
izdanja
izdanje
izdanjima
izdanju
izdao
izdat
izdata
izdati
izdavac
izdavaca
izdavacka
izdavacke
izdavacko
izdavacku
izdavanja
izdavanje
izdrzati
izdvaja
izdvajaju
izdvajanje
izdvajanjem
izdvojiti
izet
izetbegovic
izetbegovica
izgled
izgleda
izgledaju
izgledalo
izgledati
izgledom
izgledu
izgovara
izgovor
izgovori
izgradi
izgradila
izgradili
izgradio
izgraditi
izgradnja
izgradnje
izgradnji
izgradnjom
izgradnju
izgrađen
izgrađena
izgrađene
izgrađeni
izgrađeno
izgube
izgubi
izgubila
izgubile
izgubili
izgubilo
izgubio
izgubiti
izgubivsi
izgubljen
izgubljena
izgubljene
izgubljeni
izgubljeno
izici
izisao
iziđe
izjasne
izjasnila
izjasnili
izjasnjavaju
izjasnjavanje
izjava
izjave
izjavi
izjavila
izjavili
izjavio
izjavljuje
izjavu
izjednacio
izl
izlaganja
izlaganje
izlaska
izlaskom
izlasku
izlaz
izlaza
izlazak
izlaze
izlazi
izlazio
izlaziti
izlazu
izlozba
izlozbe
izlozbi
izlozbu
izlozen
izlozena
izlozene
izlozeni
izlozenost
izlozenosti
izlucivanje
izlucuje
izlucuju
između
izmijeniti
izmislio
izmjena
izmjenama
izmjene
izmjenu
izmjerena
iznad
iznenada
iznenađenje
iznenađujuce
iznimno
iznio
iznos
iznose
iznosi
iznosila
iznosilo
iznosio
iznositi
iznosu
iznova
iznutra
izobilju
izoforma
izoforme
izoformi
izolacija
izolacije
izolaciju
izoleucin
izoliran
izolirani
izomer
izomera
izomeraza
izotop
izotopa
izotopi
izracunati
izracunavanje
izrada
izrade
izradi
izradio
izradu
izrael
izraela
izraelovi
izraelovih
izraelska
izraelske
izraelski
izraelu
izrail
izraila
izrailom
izrailov
izrailova
izrailove
izrailovi
izrailovih
izrailovim
izrailovog
izrailu
izravno
izraz
izraza
izrazaja
izrazava
izrazavaju
izrazavanja
izrazavanje
izraze
izrazen
izrazena
izrazene
izrazeno
izrazi
izrazio
izraziti
izrazito
izrazom
izrazu
izrađen
izrađena
izrađene
izrađeni
izrađuje
izrekao
izricito
izrucio
izruciti
izucavanje
izum
izumio
izumiranja
izumiranje
izumitelj
izumrle
izumrli
izuzeci
izuzetak
izuzetan
izuzetkom
izuzetne
izuzetno
izuzev
izvan
izvana
izvanredno
izvedba
izvedbe
izvedbi
izvedbu
izvede
izveden
izvedena
izvedene
izvedeni
izvedenih
izvedeno
izvela
izveli
izveo
izvesti
izvijestili
izvijestio
izvire
izviru
izvjesne
izvjesni
izvjesno
izvjestaj
izvjestaja
izvjestaje
izvjestaji
izvjestajima
izvjestaju
izvjestava
izvlacenja
izvlacenje
izvlaci
izvode
izvodi
izvodili
izvodio
izvoditi
izvor
izvora
izvore
izvori
izvorima
izvorne
izvorni
izvornih
izvorno
izvornog
izvornom
izvoru
izvoz
izvoza
izvođac
izvođaca
izvođaci
izvođenja
izvođenje
izvođenjem
izvođenju
izvrsava
izvrsavaju
izvrsavanja
izvrsavanje
izvrsen
izvrsena
izvrsene
izvrsenja
izvrsenje
izvrseno
izvrsi
izvrsila
izvrsili
izvrsio
izvrsiti
izvrsna
izvrsne
izvrsni
izvrsno
izvrsnog
izvrsnu
izvuci
j
j0
j1
j2
j3
j4
j5
j6
j7
j8
j9
ja
jablanica
jabuka
jabuke
jaca
jacanja
jacanje
jace
jaci
jacim
jacina
jacine
jack
jacka
jackie
jackson
jacob
jacobs
jacq
jacques
jadrana
jadransko
jadranskog
jadranskom
jagoda
jagode
jahija
jaja
jajasca
jajca
jajce
jajcu
jaje
jajeta
jajne
jajnik
jajnika
jak
jaka
jake
jaki
jakiel
jakih
jakim
jako
jakob
jakog
jakom
jakov
jakova
jaku
jakub
jakuba
jakubu
jala
jam
jama
jamajka
jame
james
jamesa
jami
jamie
jamu
jan
jana
jane
janeiro
janeiru
janet
janez
janje
janko
jankovic
jansen
januar
januara
januaru
january
jap
japan
japana
japanci
japanese
japanska
japanske
japanski
japanskih
japansko
japanskog
japanskom
japanu
jarac
jasan
jasenovac
jasmin
jasmina
jasna
jasne
jasni
jasno
jason
jastrebarsko
jastucici
jata
jato
java
javelin
javelle
javi
javier
javio
javiti
javlja
javljaju
javna
javne
javni
javnih
javnim
javno
javnog
javnom
javnost
javnosti
javnu
javor
jay
jazeera
jazz
jb
jbc
jc
jcb
jci
jcs
jd
je
jean
jecam
jedan
jedanaest
jedanaesteraca
jedanput
jedarne
jedarni
jedarnih
jede
jedi
jedina
jedine
jedini
jedinica
jedinicama
jedinice
jedinici
jedinicu
jedinjenja
jedinka
jedinke
jedinki
jedino
jedinog
jedinom
jedinstva
jedinstven
jedinstvena
jedinstvene
jedinstveni
jedinstvenih
jedinstvenim
jedinstveno
jedinstvenog
jedinstvenom
jedinstvenu
jedinstvo
jedinu
jedite
jedna
jednacina
jednacine
jednacinu
jednak
jednaka
jednake
jednaki
jednakim
jednako
jednakost
jednakosti
jednaku
jedne
jedni
jednih
jednim
jednine
jednjak
jednjaka
jedno
jednog
jednoga
jednoglasno
jednoj
jednom
jednorog
jednostavan
jednostavna
jednostavne
jednostavni
jednostavnih
jednostavnije
jednostavnim
jednostavno
jednostavnog
jednostavnom
jednu
jedra
jedro
jedru
jedu
jedva
jeff
jefferson
jeffrey
jehovini
jela
jelena
jelene
jeli
jelo
jelsah
jem
jemen
jen
jena
jenkins
jennifer
jensen
jeo
jer
jeremija
jeremy
jerome
jerry
jersey
jerusalem
jerusalema
jeruzalem
jeruzalema
jeruzalemu
jesam
jesen
jeseni
jesenice
jesi
jesmo
jessica
jest
jeste
jesti
jesu
jesus
jet
jetra
jetre
jetri
jetru
jevrej
jevreja
jevreje
jevreji
jevrejima
jevrejske
jevrejski
jevrejskog
jevric
jewish
jez
jezera
jezerima
jezero
jezeru
jezgara
jezgra
jezgre
jezgro
jezgru
jezici
jezicima
jezicke
jezicki
jezik
jezika
jezike
jezikom
jeziku
jf
jg
jh
ji
jiang
jill
jim
jimenez
jimmunol
jimmy
jin
jj
jk
jl
jm
jmg
jn
jna
jneurosci
jo
joab
joachim
joan
jod
joda
joe
joel
joey
johan
johann
johanna
johannes
johansson
john
johna
johnny
johnom
johns
johnson
johnston
johnstone
joins
joint
joj
jon
jonas
jonathan
jones
jong
jordan
jordana
jorge
jos
jose
josef
joseph
josepha
josh
joshua
josip
josipa
josua
journal
journey
jovan
jovana
jovance
jovanovic
jovi
jovo
joy
joyce
joz
joze
jozef
jozo
jp
jpg
jpl
jq
jr
js
jstor
jt
ju
juan
jucer
juda
judd
jude
judeje
judi
judith
judu
jug
juga
jugo
jugoistocna
jugoistocne
jugoistocno
jugoistocnoj
jugoistocnom
jugoistok
jugoistoka
jugoistoku
jugoslavena
jugoslaveni
jugoslavenska
jugoslavenske
jugoslavenski
jugoslavenskih
jugoslavenskim
jugoslavenskog
jugoslavenskoj
jugoslavensku
jugoslavija
jugoslavije
jugoslaviji
jugoslaviju
jugoslovenska
jugoslovenske
jugoslovenski
jugoslovenskih
jugoslovenskog
jugoton
jugozapadna
jugozapadne
jugozapadno
jugozapadnoj
jugozapadnom
jugozapadu
jugu
jul
jula
jules
juli
julia
julian
julie
julija
julijanskom
julije
julin
julio
julius
julu
july
jump
jun
juna
junaci
junak
junaka
june
jung
juni
junior
juniorski
juniperus
junu
jupiter
jupitera
juraj
jure
jurgen
juri
jurij
jusic
juss
just
justice
justin
jusuf
jusufa
jutarnji
jutra
jutro
juventus
juventusa
juzna
juzne
juzni
juznih
juznim
juzno
juznoafricka
juznoafricke
juznoafrickoj
juznog
juznoj
juznom
juznu
jv
jvi
jw
jx
jy
jz
k
k0
k1
k2
k3
k4
k5
k6
k7
k8
k9
ka
kabinet
kabineta
kad
kada
kadar
kadic
kadija
kafa
kafe
kafu
kahf
kahn
kahva
kahve
kai
kaira
kairo
kairu
kaiser
kakanj
kakav
kako
kakva
kakve
kakvi
kakvih
kakvim
kakvo
kakvog
kakvom
kakvu
kal
kalaj
kalaja
kalcij
kalcija
kalem
kalendar
kalendara
kalendarska
kalendaru
kalesija
kalibar
kalibra
kalifornija
kalifornije
kaliforniji
kalij
kalija
kalinovik
kambodza
kamen
kamena
kamene
kameni
kamenica
kamenih
kamenim
kamenja
kamenje
kamenjem
kameno
kamenog
kamenom
kamenu
kamera
kamere
kamerun
kamion
kamiona
kamnik
kamo
kamp
kampa
kampanja
kampanje
kampanji
kampanju
kan
kana
kanada
kanade
kanadi
kanadska
kanadske
kanadski
kanadu
kanal
kanala
kanale
kanali
kanalima
kanalom
kanalu
kancelar
kancelara
kancera
kandidat
kandidata
kandidati
kane
kang
kanjon
kanjona
kano
kansas
kantautor
kanton
kantona
kantonu
kanu
kao
kap
kapa
kapacitet
kapaciteta
kapacitetom
kapela
kapele
kapelica
kapetan
kapetana
kapetanije
kapetanovic
kapi
kapija
kapije
kapilara
kapital
kapitala
kapitalizma
kapiten
kaplan
kapljica
kapljice
kappa
kappab
kapsula
kapsule
kapur
kara
karadzic
karadzica
karakter
karaktera
karakterise
karakteristican
karakteristicna
karakteristicne
karakteristicni
karakteristicnih
karakteristicnim
karakteristicno
karakteristika
karakteristikama
karakteristike
karakterisu
karakterizira
karakteriziraju
karakteru
karata
karate
karbon
karbonat
karbonata
karcinom
karcinoma
karcinomom
kardinal
kardinala
karel
karen
kariba
karic
karijera
karijere
karijeri
karijeru
karin
karl
karla
karlice
karlo
karlovac
karlovacka
karlovca
karnitin
karolina
karpata
karpov
karta
kartage
kartama
karte
karti
kartica
kartice
karton
kartona
kartu
kasim
kasiopeja
kasne
kasni
kasnih
kasnija
kasnije
kasnijeg
kasnijem
kasniji
kasnijih
kasnijim
kasnim
kasnjenja
kasnjenje
kasno
kasnog
kasnom
kasparov
kaspaze
kaspijskog
kastel
kastilje
kat
katalitski
katalizator
katalizatora
katalizira
kataliziraju
katalog
katalogisierung
katalogu
katar
katarina
katarine
katastarske
katastrofa
katastrofe
kate
katedra
katedrala
katedrale
katedrali
katedre
kategorija
kategorijama
kategorije
kategoriji
kategoriju
katepsin
katherine
kathleen
katie
katkad
kato
katolicanstvo
katolici
katolicka
katolicke
katolicki
katolickih
katolickog
katolickoj
katolicku
katolika
katz
kavkaz
kavkaza
kay
kaza
kazahstan
kazahstana
kazaljke
kazao
kazati
kaze
kazem
kazemo
kazes
kazna
kazne
kazni
kazniti
kaznjava
kaznjen
kaznom
kaznu
kazu
kb
kc
kcer
kceri
kcerka
kcerke
kcerkom
kcerku
kci
kcne
kcnq
kd
kda
kdm
ke
keep
keith
keller
kelly
kelti
kemal
ken
kenija
kennedy
kenneth
kenny
kenobi
kent
kentaur
kentucky
kepler
keramika
keramike
kerim
kernel
kerr
kesira
keto
kevin
kew
key
kf
kg
kh
khan
ki
kiaa
kicker
kicme
kicmene
kicmenjaka
kid
kidney
kids
kijev
kijevske
kijevu
kikuno
kill
killer
kilograma
kilometara
kilometra
kilometres
kim
kimi
kimura
kina
kinase
kinases
kinaza
kinaze
kinazu
kind
kine
kineska
kineske
kineski
kineskih
kineskim
kinesko
kineskog
kineskoj
kineskom
kinezi
king
kingdom
kings
kini
kinima
kino
kinom
kinu
kip
kipar
kipra
kipru
kir
kira
kirgistan
kirk
kisa
kise
kiseli
kiselina
kiselinama
kiseline
kiselini
kiselinom
kiselinu
kiseljak
kisik
kisika
kisikom
kisne
kiss
kisu
kit
kj
kk
kl
kladanj
kladogram
kladus
kladusa
klaic
klana
klanac
klanja
klanjaju
klanjati
klarinet
klasa
klase
klasi
klasicna
klasicne
klasicni
klasicnih
klasicnim
klasicno
klasicnog
klasicnoj
klasicnom
klasicnu
klasificiraju
klasificirati
klasifikacija
klasifikacije
klasifikaciji
klasifikaciju
klaster
klastera
klasu
klaudije
klaus
klavijature
klavir
klavira
klein
klement
kleopatra
klima
klimatske
klimatskih
klimatskim
klime
klimi
klimom
klimu
klinicka
klinicke
klinicki
klinickih
klinickim
klinika
klix
klizanje
klizanju
kljuc
kljuca
kljucanja
kljucna
kljucne
kljucni
kljucnih
kljucno
kljucnu
kljucu
klonirali
klonova
klotzsch
klub
kluba
klubom
klubova
klubove
klubovi
klubovima
klubu
klupe
klupi
klupsko
klupskog
klupskom
kluwer
km
kn
knautia
knez
kneza
knezevi
knezevic
knezevina
knezevine
knezevo
knezu
knight
knin
kninska
knj
knjiga
knjigama
knjige
knjigu
knjizevna
knjizevne
knjizevni
knjizevnica
knjizevnih
knjizevnik
knjizevnika
knjizevnim
knjizevno
knjizevnog
knjizevnom
knjizevnost
knjizevnosti
knjizevnu
knjizi
knockout
know
knowledge
knowles
known
knuth
ko
koa
koalicija
koalicije
koaliciji
koaliciju
koautor
kobalt
kobayashi
kobilica
kocevje
koch
kocijas
kocka
kocnice
kod
koda
kodeks
kodira
kodiraju
kodiran
kodirani
kodiranja
kodiranje
kodon
kodona
koeficijent
koeficijenta
koenzim
kofaktor
kog
koga
kognitivne
koja
koje
kojeg
kojega
kojem
kojemu
koji
kojic
kojih
kojim
kojima
kojoj
kojom
koju
kokaina
kola
kolac
kolagen
kolagena
koledz
koledza
koledzu
kolega
kolegama
kolege
kolekcija
kolekcije
kolekciju
kolektivno
kolica
kolicina
kolicinama
kolicine
kolicini
kolicinom
kolicinu
koliko
kolima
koljena
koljeno
koln
kolo
kolona
kolone
koloni
kolonija
kolonijalne
kolonijama
kolonije
koloniju
kolonizacije
kolu
kolumbija
kolumbije
kolumbiji
kolumbo
kom
komad
komada
komade
komadi
komanda
komandant
komandanta
komande
komandi
komandir
komandira
komandom
komandovao
komandu
kombinacija
kombinacije
kombinaciji
kombinacijom
kombinaciju
kombinira
kombiniraju
kome
komedija
komedije
komediji
komentar
komentara
komentare
komentari
komercijalne
komercijalni
komercijalno
komesar
komesara
kometa
komicar
komisija
komisije
komisiju
komitet
komiteta
komnen
komnena
komora
komore
komori
komoru
kompaktna
kompanija
kompanijama
kompanije
kompaniji
kompanijom
kompaniju
kompilacija
kompilacijski
kompleks
kompleksa
komplekse
kompleksi
kompleksima
kompleksne
kompleksni
kompleksnih
kompleksom
kompleksu
komplementa
kompletan
kompletna
kompletno
kompletnu
komplikacija
komplikacije
komponenata
komponenta
komponente
komponenti
komponentu
komponirao
komponist
komponovao
kompozicija
kompozicije
kompoziciju
kompozitor
kompozitora
kompozitori
kompromis
komsija
komu
komuna
komunicira
komuniciraju
komunicirati
komunikacija
komunikacije
komunikaciji
komunikaciju
komunista
komunisti
komunisticka
komunisticke
komunisticki
komunizam
komunizma
konacan
konacna
konacne
konacni
konacnici
konacno
konacnog
konacnom
konacnu
konak
konavle
koncentracija
koncentracijama
koncentracije
koncentraciji
koncentracijom
koncentraciju
koncentracioni
koncepcija
koncept
koncepta
koncepte
konceptu
koncerata
koncert
koncerta
koncerte
koncerti
koncertima
koncertni
koncertu
kondo
konfederacija
konfederacije
konferencija
konferencije
konferenciji
konfiguracija
konfiguracije
konfiguraciju
konformacije
kong
konga
kongo
kongres
kongresa
kongresu
kongu
konj
konja
konjanika
konje
konji
konjic
konjica
konjice
konjicu
konjima
konju
konkretno
konkurencije
konkurenciji
konrad
kons
konsenzus
konstanta
konstante
konstantin
konstantina
konstantinopolj
konstantinopolja
konstantinopolju
konstantna
konstantno
konstrukcija
konstrukcije
konstrukciji
konstrukciju
kontakt
kontakta
kontakte
kontaktu
kontekst
konteksta
kontekstu
kontinenata
kontinent
kontinenta
kontinentalna
kontinentalne
kontinentalni
kontinentalno
kontinentalnom
kontinentu
kontinuirani
kontinuirano
kontinuitet
kontra
kontrakcija
kontrakcije
kontrast
kontrola
kontrole
kontroli
kontrolira
kontroliraju
kontrolirati
kontrolise
kontrolne
kontrolom
kontrolu
kontroverze
konvencija
konvencije
konvenciji
konvergencije
konvergira
konverzija
konverzije
konverziju
konzerviran
konzervirana
konzervirane
konzervirani
konzul
konzula
konzulstva
koordinaciju
koordinatama
koordinate
koordinira
kopenhagen
koper
kopija
kopije
kopiju
koplja
koplje
kopna
kopnena
kopnene
kopnenih
kopno
kopnu
koprivnica
koprivnicko
kor
kora
koraci
korak
koraka
korake
koraku
kordic
kore
korea
koreja
koreje
koreji
korejski
korelacija
korelacije
korelaciji
korene
korenica
kori
korijen
korijena
korijene
korijeni
korijenje
korijenu
korisna
korisne
korisni
korisnici
korisnicima
korisnicki
korisnik
korisnika
korisnike
korisno
korist
koristan
koriste
koristeci
koristen
koristena
koristene
koristeni
koristenih
koristenja
koristenje
koristenjem
koristenju
koristeno
koristi
koristila
koristile
koristili
koristilo
koristio
koristiti
korita
korito
korkuta
korn
kornelije
kornjaca
kornjace
koroskem
korporacija
korporacije
korpus
korpusa
korteks
korteksa
koru
korupcije
koruska
kos
kosa
kosaca
kosace
kosarci
kosarka
kosarkas
kosarkaska
kosarkaske
kosarkaski
kosarke
kose
kosi
kosmopolit
kosom
kosova
kosovo
kosovski
kosovu
kost
kosta
kostajnica
kostane
kostanjevica
kostanoj
kostarika
kostel
kosti
kostic
kostiju
kostima
kostur
kosu
kot
kotar
kotara
kotaru
kotor
kotromanic
kotromanica
kovac
kovacevic
kovaci
kovacic
kovalentno
kovanica
kovanice
kovceg
kovcega
koza
kozara
kozarska
koze
kozi
kozne
kozni
koznih
kozom
kozu
kp
kpj
kq
kr
kraca
krace
kraci
kraj
kraja
krajem
krajeva
krajeve
krajevi
krajevima
krajina
krajine
krajini
krajinu
krajiska
krajiske
krajisnik
krajnje
krajnjem
krajnji
krajolik
kraju
krak
kraka
krakova
kraku
kralj
kralja
kraljem
kraljev
kraljeva
kraljeve
kraljevi
kraljevic
kraljevima
kraljevina
kraljevine
kraljevini
kraljevinu
kraljevo
kraljevoj
kraljevska
kraljevske
kraljevski
kraljevskih
kraljevskim
kraljevsko
kraljevskog
kraljevskoj
kraljevskom
kraljevsku
kraljevstva
kraljevstvo
kraljevstvom
kraljevstvu
kraljica
kraljice
kraljici
kraljicom
kraljicu
kralju
kramer
kramnik
kranj
krapina
krapinsko
kras
kraska
kratak
krater
kratera
kratka
kratke
kratki
kratkih
kratkim
kratko
kratkog
kratkom
kratku
krava
krave
krece
krecnjaka
krecu
krede
kreiranje
kreirao
krene
krenu
krenula
krenuli
krenuo
krenuti
kresevljakovic
kresevo
kresimir
kretanja
kretanje
kretanjem
kretanju
kretati
krevet
kreveta
krevetu
krieger
krije
krila
krilima
krilo
krilu
krim
krima
kriminala
krist
krista
kristala
kristali
kristalizira
kristalna
kristalne
kristalni
kristalnu
kristu
kriterij
kriterija
kriterije
kriteriji
kriterijima
kriticar
kriticara
kriticari
kriticki
kriticna
kriticne
kriticno
kritika
kritike
kritiku
kriv
kriva
krive
krivi
krivice
krivicna
krivicni
krivicnih
krivicno
krivicnog
krivicu
krivim
krivo
kriz
kriza
krize
krizevacka
krizevci
krizu
krk
krka
krleza
krlj
krn
krompir
kronberg
krov
krova
krovna
krovom
krovu
kroz
krs
krscana
krscani
krscanska
krscanske
krscanski
krscanskih
krscanskog
krscanstva
krscanstvo
krsenja
krsenje
krsko
krst
krsta
krstaski
krstic
krstica
krsto
krug
kruga
krugova
krugovi
krugovima
krugu
kruh
kruha
kruna
krune
krunica
krunice
krunidbe
krunisan
krunom
krunu
krupa
krupe
krupne
krusevo
kruzi
kruzni
kruznice
krv
krvarenja
krvarenje
krvi
krvlju
krvna
krvne
krvni
krvnih
krvnim
krvno
krvnog
krvotok
krzna
krzno
ks
ksenon
ksv
kt
ku
kuba
kubikaza
kuca
kucama
kucanstava
kuce
kuci
kucne
kucni
kucom
kucu
kud
kuda
kuga
kuge
kugla
kuglasto
kugle
kugli
kuglu
kuhinja
kuhinje
kuk
kuka
kukuruz
kukuruza
kula
kule
kulenovic
kuli
kulin
kulina
kult
kulta
kultova
kultura
kulturama
kulture
kulturi
kulturna
kulturne
kulturni
kulturnih
kulturnim
kulturno
kulturnog
kulturnoj
kulturnom
kulturnu
kulturom
kulturu
kulu
kum
kumar
kuna
kunth
kunze
kuo
kup
kupa
kupe
kupi
kupila
kupio
kupiti
kupola
kupole
kupoli
kupolom
kupolu
kupova
kupovinu
kupres
kupu
kupuje
kur
kurs
kurt
kurto
kurtovic
kut
kutija
kutije
kutiju
kuvajt
kv
kvadrat
kvadrata
kvadratna
kvadratne
kvadratni
kvadratnih
kvalificirala
kvalificirale
kvalificirali
kvalificiran
kvalificirao
kvalificirati
kvalifikacija
kvalifikacijama
kvalifikacije
kvalifikacijske
kvalifikacijskoj
kvalitet
kvaliteta
kvalitete
kvalitetu
kvantne
kvartet
kvasca
kvd
kvrzice
kw
kx
ky
kyle
kz
l
l0
l1
l2
l3
l4
l5
l6
l7
l8
l9
la
lab
labin
laboratorija
laboratorije
laboratoriji
laboratoriju
laboratory
labud
lac
ladhi
ladhina
ladies
ladislav
lady
lagano
laguna
lahka
lahke
lahki
lahko
lahu
lahum
lai
laidler
laka
lakat
lakata
lake
laki
lako
lakse
laksi
lakta
laktasi
lakum
lalinski
lam
lama
lambda
lambert
lamina
lan
lana
lanac
lanaca
lanca
lancaster
lance
lancem
lancet
lanci
lancima
lancu
land
lane
lang
lange
langer
language
languages
lanka
lansiran
lansiranja
lansiranje
lantanoida
laos
lapac
laqad
lara
large
largest
larry
lars
larsen
larve
las
lasce
laser
laserski
lasker
lasko
last
lastauthoramp
laszlo
lat
late
later
lateral
latest
lathyrus
latica
latice
latin
latinica
latinska
latinske
latinski
latinskim
latinskog
latinskoj
latinskom
latvija
latvije
lau
launch
launches
laura
lauren
laurence
laurent
laurie
lav
lava
law
lawrence
layer
laz
lazar
lazara
laze
lazi
lazio
lazna
lazne
lazni
laznih
laznim
lazno
lađe
lađu
lb
lc
ld
le
lea
lead
leader
leaders
leads
league
learning
leavenworth
leberecht
leca
lece
lech
leconte
lecture
led
leda
ledena
ledene
ledenog
ledi
lednika
ledu
lee
leeds
left
leg
legacy
legal
legend
legenda
legendarni
legende
legendi
legends
legia
legija
legije
legio
legitimnost
legura
legure
lehninger
lehrbuch
leicester
leiden
leigh
leipzig
lejla
leksikografski
leksikon
lena
lenart
lendava
length
lenjin
lennon
lens
leo
leon
leona
leonard
leonardo
leone
leonid
leopard
leoparda
leopold
leopolda
lepa
lepenica
leptin
leq
les
leslie
less
let
leta
lete
leteca
leteci
letenja
lethal
leti
letjelica
letjelice
letova
letove
letovima
lett
letter
letters
letu
leu
leucin
leucine
leukemia
leukemija
leukemije
leung
lev
level
levels
leverkusen
levi
levine
leviti
levy
lewis
lewisa
lex
lexikon
lezao
leze
lezi
lezija
lezije
lezista
leđa
leđima
lf
lg
lh
li
liang
liao
liban
libana
liber
liberalna
liberalne
liberalni
liberty
libija
libije
libiji
libraries
library
lica
lice
licem
licence
licencom
licencu
lici
licima
licko
licna
licne
licni
licnih
licnim
licno
licnog
licnost
licnosti
licnu
licu
lider
lidera
life
lifedb
liga
ligama
ligament
ligand
liganda
ligandi
ligands
ligase
ligaza
lige
light
ligi
ligu
ligue
lihtenstajn
lihtenstajna
lijaza
lijece
lijecenja
lijecenje
lijecenju
lijeci
lijeciti
lijecnik
lijecnika
lijek
lijeka
lijekova
lijekove
lijekovi
lijekovima
lijep
lijepa
lijepe
lijepi
lijepim
lijepo
lijepom
lijepu
lijeva
lijeve
lijevi
lijevo
lijevog
lijevoj
lijevom
lijevu
lik
lika
like
likom
likova
likove
likovi
likovima
likovne
likovni
likovnih
liku
lillehammer
lily
lim
lima
limb
limfne
limfni
limfnih
limfocita
limfociti
limfom
limfoma
limited
limits
limun
lin
lincoln
linda
lindau
lindsay
line
lineage
linearna
linearne
linearni
linearno
lines
linija
linijama
linije
liniji
linijom
liniju
link
linka
linkage
linked
links
linnaeus
linnean
linus
linux
lionel
lipa
lipid
lipida
lipoprotein
lipovac
lippincott
lira
lisa
lisac
lisca
lisce
liscem
lise
lisica
lisice
list
lista
listama
liste
listi
listica
listova
listove
listovi
listovima
listu
litara
literatura
literature
literaturi
literaturu
litij
litija
litiji
lito
little
litvanija
litvanije
litvaniji
litvanski
liu
livade
live
liver
liverpool
liverpoola
lives
livescore
livije
living
livingstone
livna
livno
livnu
lizin
lizina
lj
ljekar
ljekara
ljekari
ljepota
ljepote
ljepoti
ljepotu
ljestvica
ljestvice
ljestvici
ljeta
ljeti
ljetne
ljetnih
ljetnim
ljetnom
ljeto
ljetopis
ljiljan
ljiljana
ljiljani
ljubav
ljubavi
ljubavlju
ljubavna
ljubavne
ljubavni
ljubavnica
ljubavnika
ljubi
ljubim
ljubinje
ljubljana
ljubljane
ljubljani
ljubomir
ljubuski
ljude
ljudi
ljudima
ljudska
ljudske
ljudski
ljudskih
ljudskim
ljudsko
ljudskog
ljudskoj
ljudskom
ljudsku
ljudstva
ljuska
ljuske
ljut
ljuti
ljutomer
lk
ll
llc
lloyd
lm
ln
lo
lobanja
lobanje
loc
local
localization
localized
located
location
loci
lociran
locus
log
logan
logatec
logic
logicki
logika
logike
logo
logor
logora
logorasa
logore
logorima
logoru
logos
loka
lokacija
lokacijama
lokacije
lokaciji
lokaciju
lokalitet
lokaliteta
lokalitetu
lokalizacije
lokalizaciju
lokaliziran
lokalna
lokalne
lokalni
lokalnih
lokalnim
lokalno
lokalnog
lokalnoj
lokalnom
lokalnu
lokativ
lokomotiva
lokus
lokusa
lokusu
lola
lom
london
londona
londonski
londonu
lonely
long
longman
longrightarrow
look
loop
lopare
lopatice
lopez
lopta
lopte
loptu
lord
lorda
lorenzo
los
losa
lose
loseg
losem
losih
losim
loss
lost
losu
lotus
lou
louis
louisa
louise
louvre
lov
lova
lovac
lovaca
lovacki
lovca
lovci
love
lovrenovic
lovu
low
lowe
lower
loza
loze
lp
lq
lr
ls
lt
ltd
lu
luc
luca
lucas
luce
lucenja
lucenje
luci
lucija
lucije
lucy
lud
luda
ludilo
ludovik
ludovika
ludwig
lug
luigi
luis
luj
luja
luk
luka
lukas
lukavac
luke
lukic
lukom
lukova
lukovica
luksemburg
luksemburga
luku
lumen
luna
lung
lunja
luo
lupus
luta
luther
luxembourg
lv
lw
lx
lxc
lxd
lxe
lxf
ly
lyga
lymphocytes
lymphoma
lynch
lynn
lyon
lys
lz
m
m0
m1
m2
m3
m4
m5
m6
m7
m8
m9
ma
mac
maca
macak
macaka
maccabi
macdonald
macedonia
macek
macem
machine
machinemaa
macintosh
macka
macke
mackenzie
macmillan
macrophage
mad
mada
madagaskar
madame
made
mader
madison
madrid
madrida
madridu
mag
magazin
magazina
magazine
magazinu
magdalena
magic
magije
magistralni
magistralnih
magistrirao
maglaj
maglina
magnetic
magnetna
magnetne
magnetno
magnetnog
magnezij
magnezija
magnituda
magnitude
magnolia
magnoliopsida
magnus
mah
mahala
mahale
mahali
mahmud
mahom
mahovine
mai
mail
main
maine
mainz
maj
maja
majci
majcine
majdan
majka
majke
majki
majko
majkom
majku
majmun
majmuna
majmuni
major
majora
majstor
majstora
majstori
maju
mak
makar
make
makedonac
makedonci
makedonija
makedonije
makedoniji
makedoniju
makedonska
makedonske
makedonski
makedonskog
makes
making
makrofaga
maksim
maksimalna
maksimalne
maksimalni
maksimalno
maksimalnu
maksimum
mal
mala
malaga
malcolm
male
malen
malena
malezija
malformacije
malfoy
mali
malignant
malih
malik
malim
malmo
malo
malog
maloj
malom
malta
malte
malteski
malti
malu
mama
mammalian
mammals
man
mana
management
manager
manase
manastir
manastira
manastiru
manchester
mandat
mandata
mandic
mane
manfred
manga
mangan
mangana
manhattan
manifestacija
manifestacije
manifestira
manja
manjak
manje
manjeg
manjem
manji
manjih
manjim
manjina
manjine
manjinski
manjka
manjoj
manjom
manju
mann
mannheim
manning
manu
manual
manuel
many
mao
map
mapa
mape
mapiranje
mapk
mapping
maps
mar
mara
maraka
marathon
marc
marcel
march
marco
marcus
mare
margaret
margareta
mari
maria
maribor
maric
marie
marija
marijan
marije
mariji
marijin
marijina
marijom
mariju
marilyn
marin
marina
marine
mariner
marino
mario
marjan
marjanovic
mark
marka
marke
marker
markera
markers
market
marketing
marki
markl
marko
markom
markovic
marks
markt
marku
markus
marof
maroka
maroko
maroku
mars
marsa
marsala
marseille
marshall
marsu
mart
marta
marth
martha
martin
martina
martinez
martini
martu
marty
maruyama
marx
mary
maryland
mas
masa
masakr
masakra
masama
mase
masi
masina
masine
masinski
masinu
masiv
masiva
maske
maslesa
maslic
maslina
masline
masna
masne
masnih
masno
masnog
masom
mason
masovna
masovne
masovni
masovnih
masovnim
masovno
masovnog
masovnom
mass
massachusetts
mast
master
masters
mastersa
mastersu
masti
masu
mat
mata
match
matches
mate
matematicar
matematici
matematicka
matematicke
matematicki
matematickih
matematika
matematike
matematiku
mater
material
materials
materice
materija
materijal
materijala
materijale
materijali
materijalima
materijalna
materijalne
materijalni
materijalnih
materijalno
materijalom
materijalu
materije
materiju
maternal
maternice
maternjem
maternji
math
mathbb
mathbf
mathematical
mathematics
mathrm
mati
matic
matica
matice
maticna
maticne
maticnih
matija
mato
matrica
matrice
matriks
matriksa
matrix
matsuda
matsumoto
matt
matter
matthew
matthews
matthias
maulik
maurice
mauzolej
max
maxim
maxwell
may
maya
mayer
mayo
mayr
maziva
mađ
mađara
mađari
mađarska
mađarske
mađarski
mađarskog
mađarskoj
mađarskom
mađarsku
mb
mbc
mbox
mc
mcb
mccarthy
mcdonald
mcg
mcgraw
mclaren
mcp
md
me
meaning
means
measurement
mec
meca
meceva
mechanics
mechanism
mechanisms
mecu
med
meda
medal
medalja
medalje
medalju
media
mediated
mediates
medicago
medical
medici
medicina
medicinal
medicine
medicini
medicinska
medicinske
medicinski
medicinskih
medicinskim
medicinsko
medicinskog
medicinskoj
medicinskom
medicinsku
medicinu
medieval
medij
medija
medije
mediji
medijima
medijske
mediju
medina
medine
medini
medinu
mediterana
mediteranska
mediteranske
mediteranu
mediterranean
medium
medlineplus
medresa
medrese
medresu
medvjed
medvjeda
medzlis
meet
meeting
mega
mehanicka
mehanicke
mehanicki
mehanickih
mehanika
mehanike
mehanizam
mehanizama
mehanizma
mehanizme
mehanizmi
mehanizmima
mehmed
mehmeda
meho
mehrle
mejoza
mejoze
meki
mekke
mekki
meksika
meksiko
meksiku
mekteb
mel
melanina
melanogaster
melanoma
melatonin
melbourne
meleci
melek
meleka
mellitus
melodija
melodije
member
members
membrana
membranama
membrane
membranes
membrani
membranom
membranski
membranskih
membranu
memorial
memoriam
memorija
memorijalni
memorije
memoriju
memory
men
menadzer
menadzera
menadzment
mene
menesis
meneville
meni
menlo
menstruacije
mensur
mental
mentalna
mentalne
mentalno
mentor
mer
mercedes
mercedesa
merck
mercury
meri
meridijan
meridijana
merkur
merlin
merriam
mes
mesa
mesh
mesic
mesihovic
meso
mess
messenger
messier
mesta
mesto
met
meta
metab
metabolic
metabolicke
metabolicki
metabolickih
metabolism
metabolita
metabolizam
metabolizma
metabolizmu
metacritic
metak
metaka
metal
metala
metale
metali
metalima
metalne
metalni
metalnih
metalnim
metalnog
metals
metan
metana
metar
metara
metastasis
metastaze
metazoa
mete
method
methods
methylation
methyltransferase
meti
metil
metilacija
metilacije
metiltransferaza
metionin
metka
metkovic
metlika
metod
metoda
metodama
metode
metodi
metodom
metodu
metra
metres
metro
metroa
metropolitan
metu
mexico
mey
meyer
mezoderm
mezoderma
mezopotamije
mezopotamiji
međedovic
međimurska
među
međunarodna
međunarodne
međunarodni
međunarodnih
međunarodnim
međunarodno
međunarodnog
međunarodnoj
međunarodnom
međunarodnu
međusobna
međusobne
međusobni
međusobnih
međusobnim
međusobno
međusobnog
međusobnom
međutim
međuvremenu
mf
mfa
mg
mgc
mgu
mh
mhc
mhn
mhz
mi
mia
miami
mice
michael
michaela
michel
michelangelo
michele
michelle
michigan
micro
microbiol
microbiology
microctenochira
microrna
microsoft
mid
middle
midhat
mig
migracija
migracije
migraciju
migration
migriraju
miguel
mihael
mihail
mihaila
mihailo
mihajlo
mihajlovic
mijenja
mijenjaju
mijenjajuci
mijenjala
mijenjanje
mijenjao
mijenjati
mijesa
mijesaju
mijesane
mijesanja
mijesanje
mijesati
mika
mike
miki
mikro
mikroorganizama
mikrornk
mikroskop
mikroskopom
mikrotubula
mikrotubule
mil
mila
milan
milana
milano
milanovac
milanu
mile
milenija
milenijuma
milenko
miles
miletic
milic
milica
milicevic
milici
milicije
milijarde
milijardi
milijardu
milijuna
milion
miliona
military
milja
miljacke
milka
mill
miller
million
mills
milo
milodar
milorad
milos
miloscu
milosevic
milosevica
milosrdan
milosrdnog
milosrđa
milosrđe
milost
milosti
milostinju
milostivog
milovan
milton
milutin
milwaukee
mim
mimo
min
mina
minas
mind
minds
mine
mineral
minerala
minerali
mineralima
mineralne
mineralnih
ming
minhenu
minhum
mini
minimalna
minimalne
minimalno
minimum
ministar
ministara
ministarstava
ministarstva
ministarstvo
ministarstvu
minister
ministra
ministri
ministry
minnesota
minor
minsk
minus
minuta
minute
minuti
minutu
miodrag
miokarda
miozina
mir
mira
miran
miranda
miraz
miris
mirisa
mirise
mirko
mirna
mirnk
mirno
miro
mirom
miroslav
mirovanja
mirovanju
mirovne
mirovni
mirovnim
mirovnog
mirror
mirsad
miru
mirza
mis
misa
misao
mise
misens
miseva
miseve
misevi
misevima
misic
misica
misice
misici
misicima
misicna
misicne
misicni
misicnih
misicnim
misicno
misicnog
misija
misije
misiju
misji
misle
misleci
misli
mislili
mislilo
mislim
mislimo
mislio
mislis
mislite
misliti
misljenja
misljenje
misljenju
miso
miss
missense
missing
mission
mississippi
missouri
misterija
mistik
misty
mit
mita
mitchell
mitf
mitinga
mitochondria
mitochondrial
mitogen
mitohondrija
mitohondrijama
mitohondrije
mitohondrijska
mitohondrijske
mitohondrijski
mitologija
mitologije
mitologiji
mitotic
mitovi
mitoza
mitoze
mitraljez
mitraljeza
mitraljezom
mitropolit
mitrovica
mix
mixed
miyajima
mj
mjehur
mjehura
mjenjac
mjenjaca
mjera
mjerama
mjere
mjerenja
mjerenje
mjerenjem
mjereno
mjeri
mjeriti
mjerna
mjernih
mjeru
mjesavina
mjesavine
mjesavinu
mjesec
mjeseca
mjeseci
mjesecima
mjesecno
mjesecu
mjesna
mjesne
mjesovite
mjesoviti
mjesta
mjestani
mjestima
mjesto
mjestom
mjestu
mjuzikl
mjuziklu
mk
mksj
ml
mlad
mlada
mlade
mladen
mladi
mladic
mladica
mladih
mladim
mladog
mladoj
mladom
mladost
mladosti
mladu
mlađa
mlađe
mlađeg
mlađi
mlađih
mlađim
mletacke
mlijecne
mlijecni
mlijeka
mlijeko
mlin
mls
mm
mmp
mn
mno
mnoga
mnoge
mnogi
mnogih
mnogim
mnogima
mnogo
mnogobrojne
mnogobrojni
mnogobrojnih
mnogobrojnim
mnom
mnostva
mnostvo
mnostvu
mnozina
mnozine
mo
moab
moaba
mobile
mobilne
mobilnih
moc
mocan
moci
mocna
mocne
mocni
mocnog
mocvara
mocvare
mod
modalitet
mode
model
modela
modele
modeli
modelima
modeling
modeliranje
modelni
modelom
models
modelu
modern
moderna
moderne
moderni
modernih
modernim
modernizacije
moderno
modernog
modernoj
modernom
modernu
modification
modificirane
modificirani
modifikacija
modifikacije
modrica
modul
modula
modulates
modulation
mog
moga
mogao
mogla
mogle
mogli
moglo
mogu
moguc
moguca
moguce
moguceg
moguci
mogucih
mogucim
mogucnoscu
mogucnost
mogucnosti
mogucnostima
mogucu
mohamed
mohammed
moj
moja
moje
mojeg
mojem
moji
mojih
mojim
mojo
mojoj
mojsije
moju
mok
mokrace
mokracne
mokracnog
mokronog
mol
molbev
molbu
molcel
moldavija
moldavije
mole
molecular
molecule
molecules
molekula
molekulama
molekularna
molekularne
molekularni
molekule
molekuli
molekulska
molekulske
molekulski
molekulskih
molekulskoj
molekulskom
molekulsku
molekulu
moli
molibden
molim
molimo
molio
molite
moliti
molitva
molitve
molitvi
molitvu
molly
molu
mom
momak
momci
momcilo
moment
momenta
momentu
mon
monaco
monaka
monako
monarh
monarha
monarhija
monarhije
monarhiji
money
mongoli
mongolija
monica
monitor
monitoring
monk
mono
monografija
monoksid
monomera
monooksigenaza
monopol
monroe
mont
montana
montazu
monte
montenegro
monteno
montgomery
month
montreal
moon
moore
mora
moraju
moral
morala
morale
morali
moralna
moralne
moralni
moralnih
moralno
moralnog
moralnost
moralnosti
moralo
moram
moramo
moran
morao
moras
morate
morati
moravce
moravice
moravske
more
morem
moreno
moreuz
morfologija
morfologije
morfoloske
morfoloski
morgan
mori
morima
mornarica
mornarice
mornarici
morning
morphogenetic
morphological
morphology
morris
morrison
morska
morske
morski
morskih
morskim
morskog
mortality
morton
moru
mosby
moscow
moses
moskva
moskve
moskvi
moskvu
moslavacka
moss
most
mosta
mostar
mostara
mostaru
mostom
mostova
mostovi
mostu
mother
motif
motion
motiv
motiva
motive
motivi
motivima
motivom
moto
motor
motora
motore
motori
motorima
motorizovane
motorne
motorni
motornih
motorom
motors
mount
mountain
mouse
move
movement
movie
movies
mozaici
mozaik
mozaika
mozak
mozambik
mozart
mozarta
mozda
mozdane
mozdani
mozdanih
mozdanog
mozdine
moze
mozemo
mozes
mozete
mozga
mozgu
mp
mps
mq
mr
mracnih
mrak
mraka
mraku
mramor
mraz
mreza
mrezama
mreze
mrezi
mreznjace
mrezom
mrezu
mri
mrkonjic
mrlja
mrlje
mrna
mrnas
mrtav
mrtva
mrtve
mrtvi
mrtvih
mrtvo
mrtvog
mrze
mrzi
mrznja
mrznje
mrznju
ms
msb
msh
msn
mt
mtdnk
mtor
mtv
mu
mucenja
much
muci
mucibabic
mudar
mudraca
mudri
mudrost
mudrosti
mueller
muftija
muhamed
muhameda
muhammad
muhammed
muhammeda
muhe
mujezinovic
mujo
muka
muke
mula
mull
muller
multi
multipla
multiple
munara
munare
munarom
munchen
munchenu
munich
municije
munja
munje
mup
murat
murata
murine
murphy
murray
murska
mus
musa
muscle
muscular
musculus
muse
musee
museum
musi
music
musica
musical
musinbegovic
muska
muskarac
muskaraca
muskarca
muskarce
muskarci
muskarcima
muske
muski
muskih
muskim
musko
muskog
muskoj
muskom
musku
muslim
musliman
muslimana
muslimane
muslimani
muslimanima
muslimanska
muslimanske
muslimanski
muslimanskih
muslimanskim
muslimansko
muslimanskog
muslimansku
muslims
must
mustafa
mustafe
musu
mutacija
mutacijama
mutacije
mutacijom
mutaciju
mutant
mutat
mutated
mutation
mutations
mutirani
muz
muza
muzej
muzeja
muzeju
muzem
muzicar
muzicara
muzicari
muzicarima
muzici
muzicka
muzicke
muzicki
muzickih
muzickim
muzicko
muzickog
muzickoj
muzickom
muzicku
muzika
muzike
muzikom
muziku
muzjaci
muzjak
muzjaka
muzu
mv
mvp
mw
mx
my
myc
myeloid
myers
myh
myosin
mystery
mz
n
n0
n1
n2
n3
n4
n5
n6
n7
n8
n9
na
nabla
naboj
naboja
nabor
nabora
nacela
nacelima
nacelnik
nacelnika
nacelo
nacelu
nach
naci
nacija
nacije
nacin
nacina
nacine
nacini
nacinili
nacinio
naciniti
nacinom
nacinu
nacional
nacionalista
nacionalizam
nacionalizma
nacionalna
nacionalne
nacionalni
nacionalnih
nacionalnim
nacionalno
nacionalnog
nacionalnoj
nacionalnom
nacionalnosti
nacionalnu
nacisti
nacisticke
nacl
nacrt
nad
nada
nadajuci
nadal
nadala
nadalje
nadam
nadao
nadbiskup
nadbiskupa
nadbubrezne
nade
nadgleda
nadgrobni
nadh
nadi
nadimak
nadimkom
nadlezno
nadleznost
nadleznosti
nadmorska
nadmorske
nadmorskim
nadmorskoj
nadp
nadph
nadred
nadu
nadzor
nadzorom
nafta
nafte
nagase
nagib
naglasak
naglasava
naglasio
naglasiti
naglo
nagovor
nagrada
nagrade
nagradi
nagradom
nagradu
nagrađen
nahija
nahl
nailazi
naime
naisao
naizgled
naizmjenicno
naj
najavio
najavljeno
najavljuje
najbliza
najblize
najblizi
najblizih
najbolja
najbolje
najboljeg
najboljem
najbolji
najboljih
najboljim
najbolju
najbrojniji
najbrze
najbrzi
najcesca
najcesce
najcesci
najcescih
najduza
najduze
najduzi
najgore
najgusce
najistaknutiji
najjaca
najjace
najjaci
najjacih
najjednostavniji
najkasnije
najlakse
najljepsa
najljepse
najljepsi
najljepsih
najmanja
najmanje
najmanji
najmanjih
najmanju
najmlađa
najmlađi
najniza
najnize
najnizi
najnovija
najnovije
najnoviji
najpopularniji
najpopularnijih
najpoznatija
najpoznatije
najpoznatiji
najpoznatijih
najprije
najprodavaniji
najranije
najraniji
najranijih
najsirem
najsjajnija
najstabilniji
najstarija
najstarije
najstarijeg
najstariji
najstarijih
najstarijim
najteze
najtezi
najuspjesnija
najuspjesniji
najuspjesnijih
najvaznija
najvaznije
najvazniji
najvaznijih
najvaznijim
najveca
najvece
najveceg
najvecem
najveci
najvecih
najvecim
najvecoj
najvecom
najvecu
najvisa
najvise
najviseg
najvisem
najvisi
najvisih
najvisim
najvisu
najvjerovatnije
najzad
najznacajnija
najznacajnije
najznacajniji
najznacajnijih
nakagawa
nakai
nakajima
nakamura
nakayama
nakit
nakita
naklada
naklonost
naknade
naknadno
naknadu
nakon
nakratko
nakupljanje
nalaz
nalaza
nalaze
nalazi
nalazila
nalazile
nalazili
nalazilo
nalazima
nalazimo
nalazio
nalazise
nalazista
nalaziste
nalaziti
nalik
nalikuje
nalog
nalogu
nam
nama
namaz
namaza
name
namece
named
names
nametnuti
namibija
namijenjen
namijenjena
namijenjene
namijenjeni
namijenjeno
namirnica
namirnice
namjena
namjene
namjenu
namjera
namjerava
namjeravao
namjere
namjeri
namjerno
namjerom
namjeru
namjesnik
namjesnika
namjestaj
namjestaja
nana
nancy
nano
nanosi
nanovo
naocale
naoruzan
naoruzana
naoruzani
naoruzanja
naoruzanje
napad
napada
napadac
napadaca
napadaju
napade
napadi
napadima
napadne
napadnu
napadom
napadu
napala
napali
napao
napasti
napetost
napetosti
napisala
napisali
napisan
napisana
napisane
napisani
napisano
napisao
napisati
napise
napisite
napitak
napokon
napoleon
napoleona
napoli
napolje
napomena
napomene
napomenu
napomenuti
napon
napona
napor
napora
napore
napori
naporima
naposljetku
naprave
napravi
napravila
napravili
napravio
napraviti
napravljen
napravljena
napravljene
napravljeni
napravljeno
napredak
napredne
napredovanja
napredovanje
napredovao
napredovati
napreduje
napretka
naprijed
naprimjer
naprotiv
napulja
napusta
napustaju
napustanja
napuste
napusten
napustena
napusti
napustila
napustili
napustio
napustiti
nar
naraste
narasti
narav
naravi
naravno
naredba
naredbe
naredbi
naredbu
naredio
naredna
naredne
naredni
narednih
narednik
narednim
narednog
narednoj
narednom
naređenja
naređenje
naređenju
naređeno
naređuje
narocito
narod
naroda
narode
narodi
narodima
narodna
narodne
narodni
narodnih
narodnim
narodno
narodnog
narodnoj
narodnom
narodnooslobodilacke
narodnooslobodilackog
narodnosni
narodnosti
narodnu
narodom
narodu
nas
nasa
nasao
nase
naseg
nasega
naselili
naselja
naseljava
naseljavaju
naseljavali
naseljavanja
naseljavanje
naselje
naseljem
naseljen
naseljena
naseljeni
naseljenih
naseljenim
naseljeno
naseljenosti
naseljima
naselju
nasem
nash
nasi
nasih
nasilja
nasilje
nasilno
nasim
nasiroko
nasla
naslage
nasle
nasli
naslijedi
naslijedila
naslijedio
naslijediti
naslijeđa
naslijeđe
naslikao
nasljedna
nasljedne
nasljedni
nasljednica
nasljednici
nasljednih
nasljednik
nasljednika
nasljednikom
nasljednom
nasljedstvo
nasljeđe
nasljeđivanja
nasljeđivanje
nasljeđuje
nasljeđuju
naslo
naslov
naslova
naslovom
naslovu
nasoj
naspram
nastaje
nastaju
nastala
nastale
nastali
nastalih
nastalo
nastanak
nastanjuje
nastanjuju
nastanka
nastanku
nastao
nastati
nastava
nastavak
nastavci
nastave
nastavi
nastavila
nastavile
nastavili
nastavilo
nastavio
nastaviti
nastavka
nastavku
nastavlja
nastavljaju
nastavljena
nastavnik
nastavnika
nastavu
nastojanja
nastojanju
nastojao
nastoje
nastojeci
nastoji
nastup
nastupa
nastupaju
nastupala
nastupali
nastupao
nastupati
nastupe
nastupi
nastupila
nastupili
nastupilo
nastupima
nastupio
nastupiti
nastupu
nasu
nasuprot
nat
nathan
nation
national
nations
native
natjecanja
natl
nato
natpis
natpisa
natpisi
natpisima
natpisom
natporodica
natrag
natrij
natrija
natriuretic
natur
natural
nature
nauci
naucili
naucio
nauciti
naucna
naucne
naucni
naucnici
naucnicima
naucnih
naucnik
naucnika
naucnim
naucno
naucnog
naucnoj
naucnom
naucnu
nauk
nauka
naukama
nauke
nauku
navare
navecer
naveden
navedena
navedene
navedeni
navedenih
navedenim
navedeno
navedenog
navedenom
navelo
naveo
navesti
navijaca
navijaci
navika
navike
navode
navodeci
navodi
navodima
navodnjavanje
navodno
navrata
nazad
nazalost
nazionale
naziv
naziva
nazivaju
nazivala
nazivali
nazivamo
nazivan
nazivao
nazivati
nazive
nazivi
nazivima
nazivom
nazivu
naznake
nazove
nazva
nazvala
nazvali
nazvan
nazvana
nazvane
nazvani
nazvanih
nazvano
nazvanu
nazvao
nazvati
nađe
nađen
nađena
nađene
nađeni
nađeno
nađose
nađu
nb
nba
nbc
nbt
nc
ncb
ncbi
ncl
nd
nda
ndh
ne
neal
near
neba
nebeln
nebesa
nebesima
nebeska
nebeske
nebeski
nebeskih
nebeskog
nebo
nebom
nebraska
nebu
nebula
nebulae
nebuleuses
necak
nece
necega
necemo
neces
necete
necist
necistim
necistoce
necitak
necitki
neck
necrosis
necu
neda
nedaleko
nedavna
nedavne
nedavni
nedavno
nedd
nedelja
nedim
nedjelja
nedjelje
nedjelju
nedostaci
nedostaje
nedostaju
nedostatak
nedostataka
nedostatka
nedostatke
nedostatkom
nedostatku
nedovoljno
nedovrseni
nedugo
nedzad
need
nees
neformalno
neg
negativan
negative
negativna
negativne
negativni
negativnih
negativnim
negativno
negativnog
negativnu
negdje
negev
nego
neil
neill
neispravna
neizjasnjeni
nejasan
nejasna
nejasno
nejednakost
nejednakosti
nejm
nek
neka
nekad
nekada
nekadasnja
nekadasnje
nekadasnjeg
nekadasnji
nekako
neke
neki
nekih
nekim
nekima
neko
nekodirajuce
nekog
nekoga
nekoj
nekolicina
nekoliko
nekom
nekome
nekropola
nekropole
nekroze
neku
nellie
nelson
nema
nemaju
nemam
nemamo
nemanja
nemira
nemiri
nemoguce
nemogucnost
nemogucnosti
nemoj
nemojte
nenad
neo
neobican
neobicna
neobicne
neobicno
neobisium
neocekivano
neograniceno
neolita
neonatal
neophodan
neophodna
neophodne
neophodni
neophodno
neopredijeljeni
neovisno
nepal
nepca
nepenthes
nephrology
neplodnost
neposredne
neposredno
neposrednoj
nepostojeci
nepoznat
nepoznata
nepoznate
nepoznati
nepoznatih
nepoznato
nepoznatog
nepoznatom
nepravda
nepravde
nepravdu
nepravedni
nepravedno
nepravilna
nepravilno
nepravilnog
neprekidno
nepreporuceni
neprestano
neprijatelj
neprijatelja
neprijatelje
neprijateljem
neprijatelji
neprijateljima
neprijateljske
neprijateljski
neprijateljskih
neprijateljstvo
neprijatelju
neptun
neq
nerava
nered
nereda
neretva
neretvanska
neretve
neretvi
neretvu
nerijesen
nerijeseno
nerijetko
nermin
nerv
nerva
nerve
nervi
nervna
nervne
nervni
nervnih
nervnim
nervnog
nervnom
nervous
nesiguran
neslaganja
neslaganje
nesreca
nesrece
nesreci
nesrecu
nesretan
nesretni
nestabilnost
nestabilnosti
nestaje
nestaju
nestala
nestali
nestalo
nestanak
nestane
nestanka
nestao
nestati
nesto
nesumnjivo
net
netflix
netherlands
netko
neto
network
networks
neue
neum
neumann
neuobicajeno
neupisani
neupisanih
neural
neuroanatomy
neurobiology
neurol
neurological
neurology
neuron
neurona
neuronal
neurone
neuroni
neuronima
neurons
neuronske
neurosci
neuroscience
neurotransmiter
neurotransmitera
neuspjeh
neuspjeha
neuspjehom
neuspjesno
neutralna
neutralne
neutralni
neutron
neutrona
nevada
nevaljana
nevazecih
never
nevesinje
nevjerni
nevjernici
nevjernicima
nevjernika
nevjernike
nevjerovatno
nevolja
nevolje
nevolji
new
newcastle
newman
news
newton
next
nezadovoljan
nezadovoljstvo
nezaposlenost
nezaposlenosti
nezavisan
nezavisna
nezavisne
nezavisni
nezavisnih
nezavisno
nezavisnog
nezavisnost
nezavisnosti
nezavisnu
neznatno
nf
nfsbih
ng
ngc
ngf
nguyen
nh
ni
nice
niceg
nicega
nicemu
nicholas
nichols
nicholson
nicht
nick
nico
nicola
nicolas
nicole
nielsen
niemann
nigdje
nigel
niger
nigerija
nigerije
night
nigra
nih
nije
nijedan
nijedna
nijedno
nijednog
nijednu
nijemaca
nijemci
nijemcima
nikad
nikada
nikakav
nikako
nikakva
nikakve
nikakvih
nikakvo
nikakvog
nikakvu
nikl
nikla
niko
nikog
nikoga
nikola
nikolaj
nikole
nikolic
nikolica
nikom
nikome
niksic
nil
nila
nilsson
nima
nimalo
nimfe
nin
nina
nine
nintendo
nis
nisa
nisam
nisan
nisana
nisani
nisanima
nishikawa
nisi
niska
niske
niski
niskih
niskim
nisko
niskog
niskoj
niskom
nisku
nismo
nista
niste
nisu
nit
niti
nitko
nitrat
nitrata
nivo
nivoa
nivoe
nivoi
nivoima
nivoom
nivou
niz
niza
nizak
nize
nizeg
nizi
nizih
nizije
nizim
nizom
nizozemska
nizozemske
nizu
nizvodno
nj
nje
njega
njege
njegov
njegova
njegove
njegovi
njegovih
njegovim
njegovo
njegovog
njegovoj
njegovom
njegovu
njegu
njem
njemacka
njemacke
njemacki
njemackih
njemackim
njemacko
njemackog
njemackoj
njemackom
njemacku
njemu
njen
njena
njene
njeni
njenih
njenim
njeno
njenog
njenoj
njenom
njenu
njezin
njezina
njezine
njih
njihov
njihova
njihove
njihovi
njihovih
njihovim
njihovo
njihovog
njihovoj
njihovom
njihovu
njim
njima
njime
njive
njoj
njom
njome
nju
nk
nkvd
nl
nlm
nm
nmr
nn
no
nob
nobel
nobelova
nobelove
nobelovu
nobelprize
noble
noc
nocas
noci
nocna
nocne
nocni
nocno
nocu
noel
noga
nogama
noge
nogom
nogomet
nogometa
nogometas
nogometasa
nogometasi
nogometna
nogometne
nogometni
nogometnih
nogometnim
nogometno
nogometnog
nogometnoj
nogometnom
nogometnu
nogometu
nogu
nokaut
nokia
nolte
nom
nome
nomenclature
nomenklatura
nomenklature
nomenklaturi
nominacija
nominacije
nominaciju
nominativ
nominiran
nominirana
nomura
non
nonsens
nop
nor
nord
norma
normal
normalan
normalization
normalna
normalne
normalni
normalnih
normalnim
normalno
normalnog
normalnoj
normalnom
normalnu
norman
norme
normi
normu
norris
north
northern
norton
norveska
norveske
norveski
norveskog
norveskoj
norveskom
norvesku
norvezani
norway
nos
nosa
nosac
nosaca
nose
noseci
nosi
nosila
nosilac
nosilaca
nosili
nosio
nosioca
nosioci
nositelja
nositelji
nositi
nosne
not
notariae
notch
note
notes
notosacantha
notranjska
notre
nou
nov
nova
novac
novak
novaki
novakovic
novca
novcane
novcanica
novcanice
novcanu
novcem
novcica
novcu
nove
novel
novela
novele
novembar
november
novembra
novembru
novi
novih
novija
novije
noviji
novijim
novim
novina
novinama
novinar
novinara
novinari
novinarka
novine
novinski
novj
novo
novog
novoj
novom
novorođencadi
novorođenceta
novost
novosti
novu
now
noz
nozem
np
npc
npr
nq
nr
ns
nsa
nsdap
nt
nu
nuclear
nucleic
nucleolar
nucleotide
nucleus
nude
nudi
nuh
nuklearna
nuklearne
nuklearni
nuklearnih
nuklearnim
nuklearno
nuklearnog
nukleinske
nukleinskih
nukleotid
nukleotida
nula
nule
nuli
nultog
number
numbers
nur
nuspojave
nutrition
nuts
nutt
nuzno
nv
nw
nx
ny
nytimes
nz
o
o0
o1
o2
o3
o4
o5
o6
o7
o8
o9
oa
ob
oba
obala
obalama
obale
obali
obalno
obalom
obalu
obama
obaveza
obavezan
obaveze
obavezna
obavezni
obavezno
obavezu
obavezuje
obavi
obavijesten
obavio
obaviti
obavjestajne
obavjestava
obavlja
obavljaju
obavljali
obavljanja
obavljanje
obavljao
obavljati
obavljen
obavljena
obe
obecanja
obecanje
obecao
obecava
oberkrain
oberliga
obesity
obezbjedila
obezbjeđuje
obi
obicaj
obicaja
obicaje
obicaji
obicajima
obicaju
obican
obicna
obicne
obicni
obicnih
obicnim
obicno
obicnog
obilja
obilje
obiljezava
obiljezavaju
obiljezavanja
obiljezavanje
obiljezen
obiljezena
obiljezila
obiljezio
obiljezja
obiljezje
obiljezjima
obilno
obiluje
obim
obima
obimu
obitelj
obitelji
objasni
objasnio
objasniti
objasnjava
objasnjavaju
objasnjenja
objasnjenje
objava
objave
objavi
objavila
objavili
objavio
objaviti
objavljen
objavljena
objavljene
objavljeni
objavljenih
objavljeno
objavljenom
objavljivanja
objavljivanje
objavljivao
objavljuje
objavljuju
obje
object
objedinjuje
objekat
objekata
objekt
objekta
objekte
objekti
objektima
objektu
oblaci
oblak
oblaka
oblascu
oblast
oblasti
oblastima
oblici
oblicima
oblik
oblika
oblike
oblikom
oblikovanje
oblikovanju
obliku
oblikuje
oblikuju
obliznje
obnavlja
obnavljanje
obnova
obnove
obnovi
obnovio
obnoviti
obnovljen
obnovljena
obnovu
oboje
obojena
obojene
obojeni
obojica
oboljelih
oboljenja
oboren
oborio
obr
obraca
obracun
obrada
obrade
obradi
obradovic
obradu
obrane
obranu
obrasca
obrasce
obrasci
obrascu
obrati
obratio
obratno
obraz
obrazac
obrazaca
obrazovanja
obrazovanje
obrazovanju
obrazovne
obrazovni
obrazovno
obrazuje
obrazuju
obrađuje
obrađuju
obred
obreda
obrenovic
obrisano
obrnuto
obroncima
obrtaja
observations
observatoire
observatory
observe
obuce
obuhvaca
obuhvata
obuhvataju
obuhvatala
obuke
obuku
obzir
obzira
obzirom
oc
oca
oce
ocean
ocekivali
ocekivalo
ocekivani
ocekivanja
ocekivao
ocekivati
ocekuje
ocekuju
ocem
oceva
oceve
ocevi
ocevima
oci
ocigledno
ociju
ocima
ocistiti
ocito
ocituje
ocjena
ocjene
ocjenom
ocjenu
oclc
ocne
ocni
ocnih
ocnog
oct
octhispa
october
ocu
ocuvana
ocuvani
ocuvanja
ocuvanje
ocuvanju
od
oda
odabir
odabira
odabran
odabrana
odabrani
odabranih
odabrao
odabrati
odaje
odaju
odakle
odanost
odatle
odavde
odavno
odbacio
odbaciti
odbacivanje
odbacuje
odbacuju
odbija
odbijaju
odbijanja
odbijanje
odbije
odbijen
odbijeni
odbila
odbili
odbio
odbiti
odbor
odbora
odboru
odbrambene
odbrambeni
odbrambenih
odbrambenog
odbrana
odbrane
odbrani
odbranio
odbraniti
odbranu
ode
odewahn
odgoj
odgovara
odgovaraju
odgovarajuca
odgovarajuce
odgovarajuceg
odgovarajuci
odgovarajucih
odgovarajucim
odgovarajucu
odgovarao
odgovarati
odgovor
odgovora
odgovoran
odgovore
odgovori
odgovorili
odgovorio
odgovorise
odgovoriti
odgovorna
odgovorne
odgovorni
odgovornih
odgovorno
odgovornost
odgovornosti
odgovoru
odigrala
odigrale
odigrali
odigralo
odigran
odigrana
odigrane
odigranih
odigrano
odigrao
odigrati
odigravanja
odijelo
odisej
odiseja
odjeca
odjece
odjeci
odjecu
odjednom
odjek
odjel
odjela
odjeljak
odjeljenja
odjeljenje
odjelu
odlaska
odlazak
odlaze
odlazi
odlican
odlicne
odlicno
odlika
odlike
odlikovan
odlikovanja
odlikuje
odlikuju
odlucan
odluceno
odluci
odlucila
odlucili
odlucio
odluciti
odlucivanja
odlucno
odlucuje
odlucuju
odlucujuci
odluka
odlukama
odluke
odlukom
odluku
odmah
odmor
odmora
odn
odnese
odnio
odnos
odnosa
odnose
odnosi
odnosima
odnosio
odnositi
odnosno
odnosom
odnosu
odobrava
odobren
odobrena
odobrenja
odobrenje
odobrila
odobrio
odose
odozdo
odozgo
odrasla
odrasle
odrasli
odraslih
odraslog
odrasloj
odrastao
odraz
odrazava
odrazavaju
odreci
odred
odreda
odredbama
odredbe
odredbi
odredi
odredila
odredili
odredio
odrediste
odrediti
odrednica
odrekao
određen
određena
određene
određeni
određenih
određenim
određeno
određenog
određenoj
određenom
određenu
određivanja
određivanje
određivanju
određuje
određuju
odrjesenja
odrzala
odrzali
odrzalo
odrzan
odrzana
odrzane
odrzani
odrzanim
odrzano
odrzanog
odrzanoj
odrzanom
odrzao
odrzati
odrzava
odrzavaju
odrzavala
odrzavali
odrzavana
odrzavanja
odrzavanje
odrzavanju
odrzavao
odrzavati
odrzi
odsjek
odsjeka
odsjeku
odstupanja
odsustva
odsustvo
odsustvu
odsutan
odu
odustao
oduvijek
oduzeo
oduzeti
oduzimanje
odvaja
odvajaju
odvajanja
odvajanje
odvede
odveden
odveli
odveo
odvesti
odvija
odvijaju
odvijala
odvijao
odvijati
odvode
odvodi
odvojen
odvojena
odvojene
odvojeni
odvojenih
odvojenim
odvojeno
odvojila
odvojio
odvojiti
odzak
oe
of
ofanziva
ofanzive
ofanzivu
off
office
official
oficir
oficira
oficiri
og
oganj
ogleda
ogledala
ogledalo
ogledalu
ognjen
ognjista
ogranak
ogranicava
ogranicavaju
ogranicen
ogranicena
ogranicene
ograniceni
ogranicenim
ogranicenja
ogranicenje
ograniceno
ogranicenom
ogranicenu
ograniciti
ogranka
ogroman
ogromna
ogromne
ogromni
ogromnim
ogromno
ogromnog
ogromnom
ogromnu
ogrtac
ogulin
oh
ohara
ohio
oi
oil
oj
ok
oka
okean
okeana
okeanu
oklop
oklopa
oklopna
oklopne
oklopnih
oklopno
oklopom
oko
okolina
okoline
okolini
okolinom
okolinu
okolis
okolisa
okolna
okolne
okolnih
okolnim
okolnog
okolnosti
okolnostima
okolo
okom
okomito
okoncan
okoncana
okoncao
okrece
okrecu
okrene
okrenu
okrenuli
okrenuo
okrenut
okrenuta
okrenuti
okriljem
okrug
okruga
okruge
okrugli
okrugom
okrugu
okrunjen
okruzen
okruzena
okruzenja
okruzenje
okruzenjima
okruzenju
okruzeno
okruzi
okruzima
okruzni
okruzuje
okruzuju
oksid
oksida
oksidacija
oksidacije
oksidacijsko
oksidaciju
oksidaza
oksidi
oksidira
oktavijan
oktobar
oktobra
oktobru
oku
okupacija
okupacije
okupacijom
okupatora
okupio
okupirala
okuplja
okupljaju
okupljanja
okus
okusa
okvir
okvira
okvire
okvirima
okviru
ol
olajuwon
olaksava
old
ole
olga
oligo
oligoribonucleotides
olimpijada
olimpijade
olimpijadi
olimpijska
olimpijske
olimpijski
olimpijskih
olimpijskim
olimpijskog
olimpijskom
oliv
oliver
olivera
olivier
olova
olovo
olsen
oltar
oltara
oltaru
oluja
oluje
olympic
olympics
om
oman
omar
omega
omer
omera
ometa
ometaju
omiljena
omiljeni
omim
omjer
omjerom
omjeru
omladine
omladinske
omladinski
omnia
omogucava
omogucavaju
omogucavajuci
omoguceno
omoguci
omogucila
omogucili
omogucilo
omogucio
omoguciti
omogucuje
omogucuju
omotac
omotaca
on
ona
onaj
onako
onamo
onc
once
oncogene
oncology
onda
ondje
one
oni
onih
onim
onima
online
only
ono
onog
onoga
onoj
onoliko
onom
onome
onset
ontario
onu
oo
op
opada
opasan
opasna
opasne
opasnih
opasnim
opasno
opasnost
opasnosti
opatija
opatije
opatiji
opca
opce
opceg
opcem
opcenito
opci
opcih
opcija
opcije
opcim
opcina
opcinama
opcine
opcini
opcinski
opcinskih
opcinskim
opcinsko
opcinskog
opcinu
opcoj
opcu
open
opena
opening
openu
opera
operacija
operacijama
operacije
operaciji
operacijom
operaciju
operation
operativna
operativne
operativni
operativnih
operativnim
operativnog
operativnu
operator
operatora
operatorname
opere
operi
operona
operu
opet
ophthalmology
opin
opinion
opis
opisa
opisala
opisali
opisan
opisana
opisane
opisani
opisano
opisao
opisati
opise
opisi
opisivanje
opisu
opisuje
opisuju
oplodnje
opomena
oporavak
oporavka
opozicija
opozicije
oprasivanje
oprasta
oprati
opravdanje
opravdano
opredijeljeni
oprema
opreme
opremljen
opremljena
opremljeni
opremom
opremu
oprost
oprosti
oprostiti
opsada
opsade
opsadom
opsadu
opseg
opsega
opsegu
opservatorija
opskrbu
opsta
opstanak
opstanka
opste
opsti
opstina
opstinama
opstine
opterecenja
opterecenje
opticaj
opticaju
opticka
opticke
opticki
optickih
optickog
option
optuzba
optuzbe
optuzbi
optuzen
optuzeni
optuzio
optuznica
optuznice
optuzuje
opus
opusa
oq
or
orah
orahovica
oral
oralno
orange
orao
orasje
orbita
orbitala
orbitale
orbitalni
orbite
orbiti
orbitu
orchis
orden
ordena
ordenom
order
orders
oregon
orehovec
orf
orfeome
org
organ
organa
organe
organela
organele
organi
organic
organima
organisation
organism
organisms
organizacija
organizacijama
organizacije
organizaciji
organizacijom
organizaciju
organizam
organizama
organization
organizator
organizatora
organizing
organizira
organiziraju
organizirala
organiziran
organizirana
organizirane
organizirani
organizirao
organizirati
organizma
organizme
organizmi
organizmima
organizmu
organizovan
organizovana
organizovane
organizovani
organizovao
organizuje
organizuju
organska
organske
organski
organskih
organskim
organskoj
orgulje
orhan
origin
original
originala
originalna
originalne
originalni
originalnih
originalnim
originalno
originalnog
originalnom
originalnu
origins
orijentacija
orijentacije
orijentaciju
orijentalni
orijentalnu
orion
orkestar
orkestra
orla
orlando
orleans
ormond
ormoz
orphanet
orrell
ortologa
ortolozi
oruzane
oruzani
oruzanih
oruzanim
oruzja
oruzje
oruzjem
oruzju
oruđa
oruđe
os
osa
osam
osamdeset
osamdesetih
osamnaest
oscar
oscara
oscars
ose
osi
osigura
osigurala
osigurali
osiguralo
osiguranja
osiguranje
osigurao
osigurati
osigurava
osiguravaju
osijek
osijeku
osim
osjeca
osjecaj
osjecaja
osjecaje
osjecaju
osjecam
osjecanja
osjecao
osjecati
osjecko
osjeti
osjetio
osjetiti
osjetljiv
osjetljiva
osjetljive
osjetljivi
osjetljivost
osjetljivosti
oskar
oskara
oslanja
oslanjaju
oslo
oslobađa
oslobađaju
oslobađajuci
oslobađanja
oslobađanje
oslobađanjem
oslobodi
oslobodilackog
oslobodio
osloboditi
oslobodjenje
oslobođen
oslobođena
oslobođeni
oslobođenja
oslobođenje
oslonac
oslovi
oslu
osma
osman
osmana
osmanlija
osmanlijama
osmanlije
osmanlijska
osmanlijske
osmanlijski
osmanlijskih
osmanlijsko
osmanlijskog
osmanlijskom
osmanske
osmanski
osmansko
osmanskog
osmanskom
osmi
osmini
osminu
osmislio
osmog
osniva
osnivac
osnivaca
osnivacem
osnivaci
osnivaju
osnivanja
osnivanje
osnivanjem
osnivanju
osnov
osnova
osnovala
osnovali
osnovama
osnovan
osnovana
osnovane
osnovani
osnovano
osnovao
osnove
osnovi
osnovna
osnovne
osnovni
osnovnih
osnovnim
osnovno
osnovnog
osnovnoj
osnovnom
osnovnu
osnovu
osoba
osobama
osobe
osobenosti
osobi
osobina
osobinama
osobine
osobinu
osobito
osoblja
osoblje
osobne
osobno
osobom
osobu
osovina
osovine
osta
ostaci
ostacima
ostade
ostaje
ostaju
ostala
ostale
ostali
ostalih
ostalim
ostalima
ostalo
ostalog
ostane
ostani
ostanu
ostao
ostar
ostatak
ostataka
ostati
ostatka
ostatke
ostatkom
ostatku
ostavi
ostavila
ostavili
ostavio
ostaviti
ostavivsi
ostavke
ostavku
ostavlja
ostavljaju
ostavljajuci
ostecen
ostecena
ostecene
osteceni
ostecenja
ostecenje
ostecenjem
osteogenesis
osterreich
ostetiti
ostoja
ostoje
ostojic
ostra
ostre
ostri
ostrim
ostro
ostrva
ostrvima
ostrvo
ostrvu
ostvare
ostvaren
ostvarena
ostvarenja
ostvarenje
ostvari
ostvarila
ostvarili
ostvario
ostvariti
ostvarivanja
ostvarivanje
ostvarivanju
ostvaruje
ostvaruju
osudio
osudu
osuđen
osuđeni
osuđuje
osvaja
osvajac
osvajaca
osvajaci
osvajaju
osvajanja
osvajanje
osvajanjem
osvajanju
osvajao
osveta
osvete
osvetiti
osvetu
osvojen
osvojena
osvojene
osvojenih
osvoji
osvojila
osvojile
osvojili
osvojio
osvojiti
osvojivsi
oswald
ot
ota
otac
otaca
otad
otada
oteo
otezava
other
others
otici
otisao
otisla
otisli
otk
otkad
otkako
otkaz
otkrica
otkrice
otkricu
otkrije
otkriju
otkrila
otkrile
otkrili
otkrilo
otkrio
otkriti
otkriva
otkrivaju
otkrivanja
otkrivanje
otkrivanju
otkriven
otkrivena
otkrivene
otkriveni
otkriveno
otkucaja
otkud
otoci
otocima
otok
otoka
otoke
otoku
oton
otopine
otopini
otpada
otpjevao
otpoceo
otpor
otpora
otporan
otpornost
otpornosti
otprilike
otpusta
otpustanje
otpusten
otputovao
otrov
otrova
otrovan
otrovne
otrovni
otto
ottoman
otud
otuda
otvara
otvaraju
otvaranja
otvaranje
otvaranjem
otvaranju
otvor
otvora
otvore
otvoren
otvorena
otvorene
otvoreni
otvorenih
otvorenim
otvoreno
otvorenog
otvorenom
otvori
otvorila
otvorili
otvorio
otvoriti
ou
our
out
outcome
outer
outlook
ov
ova
ovaca
ovaj
ovakav
ovako
ovakva
ovakve
ovakvi
ovakvih
ovakvim
ovakvo
ovakvog
ovamo
ovan
ovarian
ovca
ovce
ovdje
ove
over
overexpression
overline
overrightarrow
overview
ovi
ovih
ovim
ovima
ovisan
ovise
ovisi
ovisna
ovisni
ovisno
ovisnost
ovisnosti
ovjes
ovlascenja
ovlastenja
ovlasti
ovna
ovo
ovog
ovoga
ovoj
ovom
ovome
ovp
ovu
ovulacije
ow
owen
own
ox
oxford
oxfordjournals
oxfordu
oxidase
oxidation
oxidative
oxide
oxygen
oy
oz
ozalj
ozbiljan
ozbiljna
ozbiljne
ozbiljnih
ozbiljnije
ozbiljno
ozbiljnost
ozeni
ozenio
ozeniti
ozenjen
ozivljavanja
ozlja
ozljeda
ozljede
oznacava
oznacavaju
oznacavanja
oznacavanje
oznacen
oznacena
oznacene
oznaceni
oznaceno
oznaci
oznacila
oznacili
oznacio
oznaciti
oznacuju
oznaka
oznakama
oznake
oznakom
oznaku
p
p0
p1
p2
p3
p4
p5
p6
p7
p8
p9
pa
pablo
pac
pace
pachybrachis
pacific
pacifika
pacifiku
pacifista
pacijenata
pacijent
pacijenta
pacijente
pacijenti
pacijentima
pacova
pad
pada
padaju
padavina
padavine
pade
padez
padezima
padina
padinama
padine
padne
padom
padu
page
pages
paglinawan
pagon
pain
pak
paka
pakao
paket
paketa
pakistan
pakistana
pakistanu
pakla
paklu
pakrac
pakt
pakta
pala
palac
palaca
palace
palaci
palacu
palanka
palata
palate
palca
pale
paleolita
paleolog
palestina
palestine
palestini
palestinu
palgrave
pali
paljbe
palm
palma
palme
palmer
palo
pamcenja
pamcenje
pamela
pamet
pametan
pameti
pamti
pamuk
pamuka
pan
panama
pancreatic
pandan
pandemije
panel
pankreasa
panorama
panzer
pao
paolo
papa
pape
paper
papers
papi
papir
papira
papiru
paprati
papu
papua
par
para
paradoks
paragvaj
paralela
paralelna
paralelne
paralelno
paraliza
parametar
parametara
parametars
parameter
parametra
parametru
paramount
parasite
paravojne
paravojnih
parazita
paraziti
pare
parenja
parenje
pari
paris
pariski
pariskog
pariskom
pariz
pariza
parizu
park
parka
parker
parkin
parkinson
parkova
parkovi
parku
parlament
parlamenta
parlamentarna
parlamentarne
parlamentarni
parlamentarnim
parlamentu
parma
parni
parom
parova
parovi
parovima
parsons
part
partial
partija
partijama
partije
partiji
partiju
partizan
partizana
partizani
partizanska
partizanske
partizanski
partizanskih
partner
partnera
partneri
partners
partnerstvo
party
paru
pas
pasa
pasalic
pasaluk
pascal
pascher
pase
pasic
pasina
pasiv
pasos
pasosa
pass
past
pasti
pastir
pasu
pat
pate
patel
patent
path
pathogenesis
pathol
pathology
pathophysiology
pathway
pathways
pati
patient
patients
patnja
patnje
patnju
patogena
patogene
patricia
patrick
patrijarh
patrijarha
patriotske
pattern
patterns
patterson
patton
patuljak
patuljaka
patuljasta
patuljci
paul
paula
paulo
paun
pauze
pavao
pavel
pavla
pavle
pavlovic
pavlovica
pax
paz
pazar
pazi
pazin
pazite
pazljivo
paznja
paznje
paznju
pb
pbs
pc
pcela
pcele
pcr
pd
pdb
pdf
pe
pea
peace
peak
pearl
pearson
pec
pecat
peci
pecina
pecinama
pecine
pecini
pecinu
pedagog
pedeset
pedesetih
pediatr
pediatric
pediatrics
pedro
pegamber
pegambera
pegamberim
pegaz
pehar
pejzaz
pekingu
pen
penala
peng
penguin
penis
penisa
penjaca
penjanje
penje
penn
pennsylvania
penziju
people
pepela
pepeo
peptid
peptida
peptide
peptides
peptidi
per
pera
peraja
pere
pereira
perez
performance
performanse
performansi
periferiji
periferne
periferni
period
perioda
periode
periodi
periodic
periodima
periodnog
periodnom
periodom
periodu
peripheral
perja
perje
pero
peroksid
perry
person
personal
perspective
perspectives
perspektive
peru
perua
peruu
perz
perzej
perzija
perzijanaca
perzijanci
perzije
perzijska
perzijske
perzijski
perzijskih
perzijsko
perzijskog
perzijskom
pesnica
pet
peta
petak
petar
pete
peter
petera
peterburg
peterburgu
petero
peters
petersen
peterson
peti
petit
petkovic
petlja
petlje
petlju
petnaest
peto
petog
petoj
petom
petra
petrinja
petrinje
petrov
petrovac
petrovic
petrovo
petu
pf
pfam
pg
pgc
pgp
ph
pharmaceutical
pharmacol
pharmacological
pharmacology
phase
phaseolus
phd
phenotype
phenotypes
phenotypic
phi
phil
philadelphia
philip
philipp
philippe
phillip
phillips
philosophical
philosophy
phoebe
phoenix
phone
phosphatase
phosphate
phosphatidylinositol
phosphoproteins
phosphorylation
photo
photos
php
phylogenetic
phylogenetics
phylogeny
phys
physical
physics
physiol
physiological
physiology
physrev
phytotaxa
pi
pic
pica
pice
pick
picture
pictures
pierce
pierre
pietro
pigment
pigmenta
pijanist
pije
pijesak
pijeska
pijesku
piju
pik
pili
pilot
pilota
pink
pinus
pio
pioneer
pionir
pipeline
piper
piramida
piramide
pirelli
piruvat
pisac
pisaca
pisala
pisali
pisalo
pisama
pisan
pisana
pisane
pisani
pisanih
pisanim
pisanja
pisanje
pisanjem
pisanju
pisano
pisao
pisati
pisca
pisci
pise
pisma
pismenost
pismenosti
pismo
pismom
pismu
pistolj
pistolja
pisu
pisuci
pit
pita
pitaju
pitali
pitanja
pitanje
pitanjima
pitanju
pitao
pitati
piti
pitt
pittsburgh
pituitary
piva
pivka
pivo
pj
pjesaci
pjesadije
pjesadijska
pjesadijske
pjesak
pjesaka
pjesama
pjesma
pjesmama
pjesme
pjesmi
pjesmom
pjesmu
pjesnici
pjesnik
pjesnika
pjesnikinja
pjeva
pjevac
pjevaca
pjevaci
pjevacica
pjevacice
pjevaju
pjevala
pjevanja
pjevanje
pjevao
pjevati
pk
pka
pl
plac
placa
placanja
placanje
place
placenta
places
placu
plamen
plamena
plamenom
plan
plana
planck
planet
planeta
planetarna
planetary
planete
planeti
planetu
planina
planinama
planinarski
planine
planini
planinska
planinske
planinski
planinskih
planinskim
planinsko
planinskog
planinskom
planinu
planira
planiran
planirana
planiranja
planiranje
planirano
planirao
planom
planova
planove
planovi
planovima
plant
plantae
plants
planu
plasirala
plasirali
plasirao
plasma
plasman
plasmana
plasmanu
plasmodium
plast
plasticity
plastid
plastike
plata
plate
platelet
platform
platforma
platforme
platformi
platformu
plati
platina
platine
platinum
platio
platiti
platnu
plato
platoa
platon
plava
plave
plavi
plavih
plavim
plavo
plavog
plavom
plavu
play
player
players
playstation
plaza
plaze
plazi
plazma
plazme
plazmi
pleme
plemena
plemenima
plemeniti
plemenitih
plemenu
plemic
plemica
plemici
plemkinja
plemstva
plemstvo
ples
plesa
plijen
plijena
plijesni
plin
plina
plinova
plinovi
plitvicka
pliva
plivanje
plivanju
pljacke
pljevlja
ploca
plocama
ploce
ploci
plocice
plocom
plocu
plod
ploda
plodna
plodne
plodno
plodnost
plodnosti
plodova
plodove
plodovi
plodovima
plos
ploso
pluca
plucima
plucna
plucne
plus
plutarh
pluton
pm
pmc
pmid
pml
pn
pnas
pne
po
pobijedi
pobijedila
pobijedili
pobijedio
pobijediti
pobijedivsi
pobjeci
pobjeda
pobjede
pobjedi
pobjedio
pobjednica
pobjednici
pobjednik
pobjednika
pobjedom
pobjedu
pobjegao
pobjegla
pobjegli
pobjegne
pobjeđuje
pobjeđuju
poboljsana
poboljsanja
poboljsanje
poboljsao
poboljsati
poboljsava
poboznost
poboznosti
pobuna
pobune
pobuni
pobunjenici
pobunjenika
pobunu
pocasni
pocast
pocasti
poce
poceci
pocela
pocele
poceli
pocelo
poceo
pocese
pocetak
poceti
pocetka
pocetkom
pocetku
pocetna
pocetne
pocetni
pocetnih
pocetnim
pocetno
pocetnog
pocetnoj
pocetnom
pocetnu
pocev
pocevsi
poci
pocini
pocinili
pocinio
pociniti
pocinje
pocinjene
pocinju
pociva
pocket
pocne
pocnu
pod
poda
podaci
podacima
podatak
podataka
podatke
podebljani
podgora
podgorica
podgorice
podgorje
podgrađe
podici
podigao
podigli
podigne
podignut
podignuta
podijeli
podijelili
podijelio
podijeliti
podijeljen
podijeljena
podijeljene
podijeljeni
podijeljeno
podizanja
podizanje
podize
podjedinica
podjedinice
podjedinicu
podjednako
podjela
podjele
podjeli
podjeljena
podjelom
podjelu
podloga
podloge
podlogu
podlozi
podlozni
podmornica
podne
podnese
podnijela
podnijeti
podnio
podnose
podnosi
podnozju
podobnosti
podravska
podrazred
podrazumijeva
podrazumijevaju
podred
podrska
podrske
podrsku
podrucja
podrucje
podrucjem
podrucjima
podrucju
podrzali
podrzao
podrzava
podrzavaju
podrzavala
podrzavali
podrzavao
podsjeca
podsjecaju
podsjetnik
podskup
podstice
podsticu
podstrana
podtip
podu
podudara
poduhvat
podvrgnut
podvrgnuti
podvrsta
podvrste
podzemna
podzemne
podzemni
podzemnih
podzemnim
poema
poena
poeni
poezija
poezije
poeziji
poeziju
pogana
pogađa
poginula
poginuli
poginulih
poginulo
poginuo
poglavar
poglavara
poglavari
poglavica
poglavlja
poglavlje
pogled
pogleda
pogledaj
pogledajte
pogledati
poglede
pogledi
pogledom
pogledu
pogodak
pogodaka
pogodan
pogodila
pogodio
pogodna
pogon
pogona
pogorsava
pogotka
pogotovo
pogođen
pogođena
pogođene
pogođeni
pogođenih
pogresan
pogresno
pogubljen
pogubljenja
pogubljenje
pohađa
pohađala
pohađao
pohod
pohoda
pohodu
pohvale
point
points
poirot
pojacana
pojacanja
pojacanje
pojacava
pojam
pojas
pojasa
pojasnjenje
pojasu
pojava
pojavama
pojave
pojavi
pojavila
pojavile
pojavili
pojavilo
pojavio
pojaviti
pojavljivanja
pojavljivanje
pojavljivao
pojavljivati
pojavljuje
pojavljuju
pojavom
pojavu
pojedinac
pojedinaca
pojedinacna
pojedinacne
pojedinacni
pojedinacnih
pojedinacnim
pojedinacno
pojedinacnoj
pojedinca
pojedinci
pojedincima
pojedine
pojedini
pojedinih
pojedinim
pojesti
pojma
pojmom
pojmova
pojmove
pojmovi
pojskic
pokal
pokaza
pokazala
pokazale
pokazali
pokazalo
pokazano
pokazao
pokazatelj
pokazatelja
pokazati
pokaze
pokazivao
pokazivati
pokazu
pokazuje
pokazuju
pokazujuci
pokemon
pokemona
pokemone
pokemoni
poklapa
poklon
pokloni
poklonio
poklopac
pokojnika
pokopan
pokraj
pokrajina
pokrajinama
pokrajine
pokrajini
pokrajinu
pokrece
pokrecu
pokrene
pokrenula
pokrenuli
pokrenuo
pokrenut
pokrenuta
pokrenuti
pokret
pokreta
pokretac
pokretanja
pokretanje
pokrete
pokreti
pokretima
pokretljivost
pokretljivosti
pokretne
pokretni
pokretnih
pokretom
pokretu
pokriva
pokrivac
pokrivaju
pokriven
pokrivena
pokriveni
pokrov
pokroviteljstvom
pokusa
pokusaj
pokusaja
pokusaje
pokusaji
pokusajima
pokusaju
pokusala
pokusali
pokusao
pokusati
pokusava
pokusavaju
pokusavajuci
pokusavali
pokusavao
pol
pola
polahko
polako
poland
polarna
polarne
polaze
polazi
polaziste
polazu
pole
polen
polena
poli
policajac
policajaca
policajca
policajci
police
policija
policije
policiji
policijske
policijski
policijskih
policiju
policy
poliglota
polimera
polimeraza
polimeraze
polimorfizam
polipeptid
polipeptidnog
polish
political
politicar
politicara
politicari
politicarka
politici
politicka
politicke
politicki
politickih
politickim
politicko
politickog
politickoj
politickom
politicku
politics
politika
politike
politikom
politiku
polja
poljaci
poljaka
poljana
poljane
polje
poljem
poljima
poljoprivreda
poljoprivrede
poljoprivredi
poljoprivredna
poljoprivredne
poljoprivredni
poljoprivrednih
poljoprivredom
poljoprivredu
poljska
poljske
poljski
poljskih
poljskim
poljsko
poljskog
poljskoj
poljskom
poljsku
polju
poljubac
polka
polo
polovina
polovine
polovini
polovinom
polovinu
polozaj
polozaja
polozaje
polozajem
polozajima
polozaju
polozio
polu
poluautomatski
polubrat
polufinala
polufinale
polufinalu
poluge
polumjesec
poluostrva
poluostrvo
poluostrvu
poluotoka
poluraspada
polymerase
polymorphism
polymorphisms
polypeptide
pomagala
pomagali
pomagao
pomak
pomalo
pomaze
pomazu
pomazuci
pomenute
pomenuti
pomenutih
pominje
pominju
pomisli
pomjera
pomoc
pomoci
pomocne
pomocni
pomocnih
pomocnik
pomocnika
pomocu
pomogao
pomogla
pomogli
pomoglo
pomogne
pomognu
pomorska
pomorske
pomorski
pomracenje
pomurska
ponajvise
ponasa
ponasaju
ponasanja
ponasanje
ponasanjem
ponasanju
ponavlja
ponavljaju
ponavljajuci
ponavljanja
ponavljanje
pone
ponedjeljak
ponegdje
ponekad
ponoci
ponor
ponos
ponovio
ponoviti
ponovno
ponovnog
ponovo
pont
ponuda
ponude
ponudi
ponudio
ponuditi
ponudu
ponuđena
pony
pop
popa
pope
popeo
popis
popisa
popisnika
popisu
poplava
poplave
popovic
popovica
popovo
popravak
popraviti
popravka
popravke
poprecni
poprecnog
poprilicno
poprima
populacija
populacijama
populacije
populaciji
populacijom
populaciju
popular
popularan
popularna
popularne
popularni
popularnih
popularno
popularnog
popularnoj
popularnost
popularnosti
population
populations
poput
por
pora
porasla
porast
porasta
porastao
porastom
porastu
poraz
poraza
porazen
porazena
porazene
porazeni
porazila
porazili
porazio
porazom
porazu
pore
porec
pored
poredak
poredani
poremecaj
poremecaja
poremecaje
poremecajem
poremecaji
poremecajima
poretka
poretku
porez
poreza
poređenja
poređenje
poređenju
porijekla
porijeklo
porijeklom
porijeklu
porodi
porodica
porodicama
porodice
porodici
porodicna
porodicne
porodicni
porodicnih
porodicno
porodicnog
porodicnom
porodicnu
porodicom
porodicu
porođaja
porphyria
port
porta
portal
portala
portalu
porter
portland
porto
portret
portreta
portugal
portugala
portugalci
portugalske
portugalski
portugalskog
portugalu
portulaca
porucnik
poruka
poruke
poruku
posada
posade
posadom
posadu
posalje
posao
posavska
poseban
posebice
posebna
posebne
posebni
posebnih
posebnim
posebno
posebnog
posebnoj
posebnom
posebnosti
posebnu
position
positive
posjecuje
posjecuju
posjed
posjeda
posjede
posjedi
posjedovanje
posjedovao
posjedovati
posjedu
posjeduje
posjeduju
posjeta
posjete
posjeti
posjetilaca
posjetio
posjetiti
posjetu
posla
poslala
poslali
poslan
poslana
poslani
poslanici
poslanik
poslanika
poslanike
poslaniku
poslao
poslati
posle
posli
poslije
posljedica
posljedicama
posljedice
posljedicno
posljedicu
posljednja
posljednje
posljednjeg
posljednjem
posljednji
posljednjih
posljednjim
posljednjoj
posljednju
poslom
poslova
poslovanja
poslovanje
poslove
poslovi
poslovice
poslovima
poslovna
poslovne
poslovni
poslovnih
poslu
poslusnost
posluzio
posluziti
posmatra
posmatraca
posmatraju
posmatranja
posmatranje
posmatrati
posrednik
posrednika
posredno
posredovana
posredovanje
posredstvom
posreduje
posreduju
possible
post
posta
postade
postaje
postaju
postajuci
postala
postale
postali
postalo
postanak
postane
postanka
postanske
postanskih
postanu
postao
postati
postava
postave
postavi
postavila
postavili
postavio
postaviti
postavke
postavlja
postavljaju
postavljanja
postavljanje
postavljen
postavljena
postavljene
postavljeni
postavljenih
postavljeno
postavsi
postdiplomski
poste
postepeno
posthumno
postici
postigao
postigla
postigli
postigne
postignut
postignuta
postignuti
postignutih
postignuto
postizanja
postizanje
postize
postizu
posto
postojala
postojale
postojali
postojalo
postojanja
postojanje
postojanju
postojao
postojati
postoje
postojeca
postojece
postojeceg
postojeci
postojecih
postojecim
postoji
postojna
postolja
postolje
postom
postotak
postovanja
postovanje
postovati
postrojenja
postu
postuje
postuju
postupa
postupak
postupaka
postupanje
postupati
postupci
postupcima
postupio
postupiti
postupka
postupke
postupkom
postupku
postupno
posuda
posude
posudu
posusje
posve
posvecen
posvecena
posvecene
posveceni
posvecuje
posveti
posvetio
posvetiti
posvuda
potajno
potassium
potencijal
potencijala
potencijalna
potencijalne
potencijalni
potencijalnih
potencijalno
potencijalnu
potential
poteskoca
poteskoce
potez
poteza
potezi
potezima
potezom
potezu
poticaj
potice
poticu
potiskuje
potjece
potjecu
potjera
potjere
potjeri
potkraj
potoci
potok
potoka
potom
potomak
potomaka
potomci
potomcima
potomke
potomstva
potomstvo
potomstvu
potonji
potpis
potpisala
potpisali
potpisan
potpisao
potpisivanja
potpisivanjem
potpisuje
potpisuju
potporodica
potporodice
potporu
potpredsjednik
potpredsjednika
potpukovnik
potpuna
potpune
potpuni
potpunim
potpuno
potpunog
potpunom
potpunosti
potpunu
potraga
potragu
potrazi
potraznje
potreba
potrebama
potreban
potrebe
potrebi
potrebna
potrebne
potrebni
potrebnih
potrebno
potrebnu
potrebu
potres
potresa
potrosaca
potrosnja
potrosnje
potrosnju
potter
pottera
potteru
potvrda
potvrdi
potvrdila
potvrdili
potvrdio
potvrditi
potvrdu
potvrđen
potvrđena
potvrđeni
potvrđeno
potvrđuje
potvrđuju
pour
poustka
pouzdan
pouzdani
pouzdano
poveca
povecala
povecan
povecana
povecane
povecani
povecanim
povecanja
povecanje
povecanjem
povecanju
povecano
povecanog
povecanom
povecanu
povecao
povecati
povecava
povecavaju
povecavajuci
povelja
povelje
povelji
povelju
poveo
povezan
povezana
povezane
povezani
povezanih
povezanim
povezano
povezanog
povezanost
povezanosti
povezati
povezivanja
povezivanje
povezuje
povezuju
povijest
povijesti
povika
povisen
povisena
povisene
poviseni
povjerenja
povjerenje
povjerio
povlace
povlacenja
povlacenje
povlaci
povod
povodom
povoljan
povoljne
povracanje
povratak
povrati
povratiti
povratka
povratku
povratne
povrca
povrce
povreda
povrede
povredu
povremeno
povrijeđeno
povrsi
povrsina
povrsinama
povrsine
povrsini
povrsinom
povrsinska
povrsinske
povrsinski
povrsinskih
povrsinskog
povrsinu
povuce
povuci
povukao
povukla
povukli
povuku
powell
power
pozadine
pozadini
pozadinu
pozar
pozara
pozaru
pozdrav
pozega
pozesko
pozicija
pozicijama
pozicije
poziciji
poziciju
pozitivan
pozitivna
pozitivne
pozitivni
pozitivnih
pozitivnim
pozitivno
pozitivnog
pozitivnom
pozitivnu
poziv
poziva
pozivaju
pozivajuci
poznaje
poznajemo
poznaju
poznat
poznata
poznate
poznati
poznatih
poznatija
poznatije
poznatiji
poznatim
poznato
poznatog
poznatoj
poznatom
poznatu
poznavali
poznavanje
poznavao
pozorisna
pozorisne
pozorisni
pozorista
pozoriste
pozoristu
pozornici
pozove
pozva
pozvala
pozvali
pozvan
pozvani
pozvao
pozvati
pođe
pp
ppm
ppp
pq
pr
praca
pracen
pracena
pracenja
pracenje
praceno
practical
practice
prag
praga
pragu
prah
praha
praksa
prakse
praksi
praksu
prakticki
prakticna
prakticne
prakticno
pranje
prasina
prasine
prasinu
praska
prasnika
prasta
prate
pratece
prateci
pratecih
prati
pratila
pratili
pratio
pratiti
pratnji
pratnju
prava
pravac
pravaca
pravca
pravcem
pravci
pravcima
pravcu
pravda
pravde
pravdi
pravdu
prave
praveci
pravedan
pravedni
pravedno
pravednog
pravednost
pravednosti
pravi
pravih
pravila
pravilan
pravili
pravilima
pravilno
pravilo
pravilu
pravim
pravima
pravio
praviti
pravljenje
pravna
pravne
pravni
pravnih
pravnik
pravnim
pravno
pravnog
pravnom
pravnu
pravo
pravog
pravoj
pravom
pravopis
pravoslavlje
pravoslavna
pravoslavne
pravoslavni
pravoslavnih
pravoslavnoj
pravosuđa
pravu
prazan
prazna
praznik
praznika
praznine
pre
prebacen
prebacuje
preci
precima
preciznije
precizno
preciznost
preciznosti
preckasta
precnik
precnika
precursor
pred
preda
predaja
predaje
predaji
predaju
predak
predaka
predali
predao
predati
predator
predatora
predavac
predavanja
predavanje
predavao
predgovor
predgrađa
predgrađu
prediction
predjelima
predjelu
predlaze
predlog
predlozen
predlozena
predlozeni
predlozeno
predlozili
predlozio
predmet
predmeta
predmete
predmeti
predmetima
predmetom
predmetu
prednja
prednje
prednjeg
prednjem
prednji
prednjih
prednjim
prednjoj
prednost
prednosti
predrag
predragocjena
predsednik
predsjedavajuca
predsjedavajuceg
predsjedavajuci
predsjednica
predsjednici
predsjednicke
predsjednicki
predsjednickim
predsjednik
predsjednika
predsjednikom
predsjedniku
predsjednistva
predsjednistvo
predstava
predstavama
predstave
predstavi
predstavila
predstavili
predstavio
predstaviti
predstavlja
predstavljaju
predstavljajuci
predstavljala
predstavljale
predstavljali
predstavljalo
predstavljanja
predstavljanje
predstavljao
predstavljati
predstavljen
predstavljena
predstavljene
predstavljeni
predstavnici
predstavnicima
predstavnicki
predstavnickog
predstavnik
predstavnika
predstavnike
predstavu
preduzeca
preduzece
predvidio
predvidjeti
predviđa
predviđanja
predviđanje
predviđen
predviđena
predviđene
predviđeni
predviđenih
predviđeno
predvodi
predvodio
predvođena
predvođeni
prefekt
preferira
prefiks
pregled
pregleda
pregledacu
preglednik
pregledniku
pregledom
pregledu
pregnancy
pregovora
pregovore
pregovori
pregovorima
pregrada
pregrade
prehrambena
prehrambeni
prehrambenih
prehrane
prehrani
prehranu
preimenovan
preimenovana
prekid
prekida
prekine
prekinula
prekinuo
prekinut
prekinuta
prekinuti
preklapa
preklapaju
preko
prekomjerna
prekomjerne
prekomjerno
prekretnica
prekriva
prekriven
prekrivena
prekriveni
prekriveno
prekursor
prekursora
prelaska
prelaz
prelazak
prelaze
prelazi
preliminary
prema
premda
premier
premiere
premijer
premijera
premijere
premijerno
premijeru
preminuo
premjestanje
premjesten
prenese
prenijeti
prenio
prenos
prenosa
prenose
prenosenje
prenosi
prenositi
prentice
preostala
preostale
preostali
preostalih
preostalo
preporod
preporucuje
preporucuju
preporuke
prepoznaje
prepoznaju
prepoznao
prepoznati
prepoznatljiv
prepoznatljiva
prepoznatljive
prepoznatljivi
prepoznavanja
prepoznavanje
prepreka
prepreke
prerada
prerade
preradu
prerano
prerađene
presao
preselila
preselili
preselio
presence
present
presentation
preserved
president
presidential
presjek
presjeka
presjeku
presl
presla
presli
press
pressure
prestaje
prestaju
prestala
prestali
prestalo
prestanak
prestane
prestanka
prestao
prestati
prestupnoj
presuda
presude
presudi
presudu
presvete
preteca
pretezno
prethodi
prethodna
prethodne
prethodni
prethodnih
prethodnik
prethodnika
prethodnim
prethodno
prethodnog
prethodnoj
prethodnom
prethodnu
pretjerano
pretka
pretkomore
pretpostavimo
pretpostaviti
pretpostavka
pretpostavke
pretpostavku
pretpostavlja
pretpostavljaju
pretpostavljeni
pretrage
pretrazivanje
pretresno
pretrpio
pretrpjela
pretvara
pretvaraju
pretvaranje
pretvoren
pretvorena
pretvori
pretvorila
pretvorio
pretvoriti
preusmjerite
preuzela
preuzeli
preuzeo
preuzet
preuzeti
preuzeto
preuzima
preuzimaju
preuzimanja
preuzimanje
preuzme
prevalence
prevalencija
preveden
prevedena
prevedeno
prevenciju
prevention
preveo
prevesti
preview
previse
prevladava
prevlast
prevod
prevode
prevodi
prevodilac
prevodu
prevoz
prevođenje
prezentacija
prezentacije
prezime
prezimena
prezive
prezivio
prezivjela
prezivjele
prezivjeli
prezivjelih
prezivjelo
prezivjeti
prezivljavanja
prezivljavanje
pređe
pri
priblizan
priblizava
priblizi
pribliziti
priblizni
priblizno
pribor
prica
pricaju
pricama
pricao
pricati
price
prici
pricu
pridjev
pridruze
pridruzeni
pridruzi
pridruzila
pridruzili
pridruzio
pridruziti
pridruzuje
pridruzuju
prigradske
prihod
prihoda
prihode
prihodi
prihodima
prihvaca
prihvacen
prihvacena
prihvaceni
prihvaceno
prihvata
prihvataju
prihvatanje
prihvate
prihvati
prihvatila
prihvatili
prihvatio
prihvatiti
prijasnji
prijasnjih
prijatelj
prijatelja
prijatelje
prijateljem
prijatelji
prijateljica
prijateljima
prijateljske
prijateljski
prijateljstva
prijateljstvo
prijatelju
prijavio
prijaviti
prijavljenih
prijavljeno
prije
prijeci
prijedlog
prijedloga
prijedloge
prijedor
prijedora
prijedoru
prijelaz
prijelaza
prijelazu
prijem
prijema
prijenos
prijenosa
prijepolje
prijesto
prijestol
prijestolja
prijestolje
prijestolju
prijestolnica
prijestolnicu
prijestolonasljednika
prijestupna
prijeti
prijetnja
prijetnje
prijetnji
prijetnjom
prijetnju
prijevod
prijevoda
prijevodi
prijevodom
prijevodu
prijevoz
prijevoza
prikaz
prikaza
prikazan
prikazana
prikazane
prikazani
prikazano
prikazao
prikazati
prikaze
prikazi
prikazivanja
prikazivanje
prikazivati
prikazom
prikazu
prikazuje
prikazuju
prikladno
prikljucen
prikljuceno
prikljucio
prikljucuje
prikuplja
prikupljanja
prikupljanje
prilagoditi
prilagođavanja
prilagođavanje
prilagođen
prilagođena
prilagođene
prilagođeni
prilici
prilicno
prilika
prilikama
prilike
prilikom
priliku
prilog
priloga
prilozi
prima
primaju
primanja
primarna
primarne
primarni
primarnih
primarnim
primarno
primarnog
primarnom
primarnu
primary
primata
primate
primates
primati
prime
primer
primera
primi
primijeniti
primijenjen
primijenjena
primijetili
primijetio
primijetiti
primila
primili
primio
primirje
primiti
primitivni
primjecuje
primjedbe
primjena
primjene
primjeni
primjenjuje
primjenjuju
primjenom
primjenu
primjer
primjera
primjerak
primjeraka
primjerci
primjere
primjeri
primjerice
primjerima
primjerka
primjeru
primljen
primljena
primoran
primorja
primorje
primorsko
princ
princa
prince
princeton
princeza
princeze
princezu
princip
principa
principe
principi
principima
principles
principu
princu
print
printing
prion
prioritet
pripada
pripadaju
pripadajuca
pripadala
pripadale
pripadali
pripadalo
pripadao
pripadnici
pripadnicima
pripadnik
pripadnika
pripadnike
pripadnoscu
pripadnost
pripadnosti
pripajanjem
pripala
pripalo
pripao
pripisati
pripisuje
pripisuju
pripojen
pripojena
pripojeno
pripovijetke
pripovjedac
priprema
pripremaju
pripremama
pripreme
pripremi
pripremio
pripremiti
pripremu
priredio
priroda
prirode
prirodi
prirodna
prirodne
prirodni
prirodnih
prirodnim
prirodno
prirodnog
prirodnoj
prirodnom
prirodnu
prirodom
prirodu
prirucnik
prisilio
prisiljen
prisiljena
prisiljeni
prisilno
pristaje
pristala
pristalica
pristalice
pristanak
pristao
pristava
pristina
pristini
pristup
pristupa
pristupanje
pristupi
pristupio
pristupiti
pristupljeno
pristupom
pristupu
prisustva
prisustvo
prisustvom
prisustvovali
prisustvovalo
prisustvovao
prisustvu
prisutan
prisutna
prisutne
prisutni
prisutnih
prisutno
prisutnost
prisutnosti
prisvojnim
pritisak
pritiska
pritiskom
pritisku
pritoka
pritoke
pritom
private
privatna
privatne
privatni
privatnih
privatnim
privatno
privatnog
privatnom
privatnu
prividan
prividna
privilegije
privlace
privlaci
privreda
privrede
privredi
privredna
privredne
privredni
privrednih
privrednim
privredno
privrednog
privrednom
privredu
privremena
privremene
privremeni
privremeno
privukao
privukla
prix
prize
prizemlje
prizemlju
prizna
priznaje
priznaju
priznala
priznali
priznanja
priznanje
priznao
priznat
priznata
priznate
priznati
priznatih
priznavanje
priđe
prnjavor
pro
probavni
probavnog
probe
probiti
problem
problema
probleme
problemi
problemima
problems
proboj
probudi
proc
procedura
procedure
proceedings
procenat
proces
procesa
procese
procesi
procesima
procesom
procesor
procesora
process
processes
processing
procesu
proci
procijeniti
procijenjena
procijenjeno
procitao
procjena
procjenama
procjene
procjeni
procjenjuje
procjenjuju
procjenu
procvat
prodaja
prodaje
prodaji
prodaju
prodan
prodano
prodao
prodati
prodire
prodiru
prodor
prodora
producent
producenta
producenti
producirao
product
production
products
produkcija
produkcije
produkciji
produkciju
produkt
produzava
produzena
produzenje
produzetaka
prof
profesionalna
profesionalne
profesionalni
profesionalnih
profesionalnim
profesionalno
profesionalnog
profesionalnu
profesor
profesora
profesori
profesorica
professional
professor
profil
profila
profile
profiles
profiling
profit
progenitor
progesteron
progesterone
proglas
proglasava
proglasen
proglasena
proglasene
proglaseni
proglasenja
proglasenju
proglaseno
proglasi
proglasila
proglasili
proglasio
proglasiti
prognostic
prognoza
prognozu
progon
progona
progoni
program
programa
programe
programi
programima
programiranje
programme
programming
programom
programski
programskih
programu
progresije
progresivna
progresivni
progresivno
progress
progression
progressive
proguta
proizilazi
proizlaze
proizlazi
proizvede
proizveden
proizvedena
proizvedene
proizvedeni
proizvedenih
proizvedeno
proizvela
proizveo
proizvesti
proizvod
proizvoda
proizvode
proizvodeci
proizvodi
proizvodila
proizvodima
proizvodio
proizvoditi
proizvodni
proizvodnih
proizvodnja
proizvodnje
proizvodnji
proizvodnjom
proizvodnju
proizvođac
proizvođaca
proizvođaci
project
projekat
projekata
projekcija
projekcije
projekt
projekta
projekte
projekti
projektil
projektila
projektima
projektu
prokariota
proklet
prokletstvo
prolaska
prolaz
prolaza
prolazak
prolaze
prolazeci
prolazi
prolazio
proliferacije
proliferaciju
proliferation
prolin
proline
prolinom
proljeca
proljece
promasaja
promet
prometa
prometej
prometu
promijeni
promijenila
promijenili
promijenilo
promijenio
promijeniti
promijenjen
promijenjena
promijenjeno
promjena
promjenama
promjene
promjeni
promjenljive
promjenom
promjenu
promjer
promjera
promocija
promocije
promociju
promoter
promoters
promotes
promotor
promotora
promovira
pronaci
pronalaze
pronalazenje
pronalazi
pronasao
pronasla
pronasli
pronađe
pronađen
pronađena
pronađene
pronađeni
pronađenih
pronađeno
pronađu
proorijentalnih
prop
propada
propadanja
propaganda
propala
propao
propast
propasti
properties
propis
propisa
propisao
propise
propisi
propisima
propisuje
proporcionalna
propustio
proracun
prorocanstvo
proroci
prorocima
prorok
proroka
proroke
prosao
prosiren
prosirena
prosirene
prosireni
prosirenja
prosirenje
prosireno
prosiri
prosirila
prosirili
prosirio
prosiriti
prosiruje
prosjecan
prosjecna
prosjecne
prosjecni
prosjecnim
prosjecno
prosjecnog
prosjecnom
prosjecnu
prosjek
prosjeka
prosjeku
prosla
proslava
proslave
proslavio
prosle
prosli
proslo
proslog
proslost
proslosti
prost
prostate
prosti
prostirala
prostire
prostiru
prosto
prostor
prostora
prostore
prostori
prostorija
prostorijama
prostorije
prostorima
prostorne
prostorni
prostorno
prostorom
prostoru
prosveta
protease
proteaza
proteaze
protectedplanet
protection
protein
proteina
proteine
proteini
proteinima
proteinom
proteins
proteinska
proteinske
proteinski
proteinskih
proteinskog
proteinu
proteklih
protektorat
proteome
proteomic
proteomics
protest
protesta
protestanata
protestanti
protesti
proteze
protezu
protice
protista
protiv
protivi
protivio
protivnici
protivnik
protivnika
protivnike
protjece
protjerani
proto
protocol
protok
protoka
protokol
protokola
proton
protona
prototip
prototipa
protozoa
proucava
proucavaju
proucavali
proucavanja
proucavanje
proucavanjem
proucavanju
proucavao
prouzrokovati
provede
proveden
provedena
provedene
provedenih
provela
proveli
proveo
provesti
provides
provincija
provincijama
provincije
provinciji
provinciju
provjere
provjerite
provjeru
provode
provoden
provodi
provodio
provoditi
provodljivost
provodljivosti
provođenja
provođenje
proxime
proza
proze
prozor
prozora
prozori
prođe
prp
prsa
prsima
prsljena
prsljenova
prst
prsta
prste
prsten
prstena
prstenova
prstenovi
prstenu
prsti
prstiju
prstima
pruga
prugama
pruge
prugu
prunus
pruska
pruske
pruza
pruzaju
pruzajuci
pruzanje
pruzi
pruzila
pruzili
pruzio
pruziti
prva
prvaci
prvak
prvaka
prvakinja
prve
prvenstava
prvenstva
prvenstveno
prvenstvima
prvenstvo
prvenstvu
prvi
prvih
prvim
prvima
prvo
prvobitna
prvobitne
prvobitni
prvobitno
prvobitnog
prvog
prvoj
prvom
prvoplasirana
prvu
ps
psa
psalam
pse
psenica
psenice
pseudo
pseudonimom
psi
psihicki
psihijatrijska
psiholog
psihologija
psihologije
psihologiju
psiholoske
psiholoski
psychiatric
psychiatry
psychology
pt
ptc
pten
pth
ptica
pticama
ptice
pticu
ptolemej
ptuj
pu
pub
pubertet
puberteta
public
publication
publications
publici
publicist
publika
publikacija
publikacije
publike
publiku
published
publisher
publishers
publishing
pubmed
puc
puca
puerto
puk
puka
pukotine
pukovnik
pukovnika
pula
puli
pullrod
pulmonary
pumpa
pumpe
pun
puna
pune
puni
punih
punim
punjenja
punjenje
punk
puno
punog
punoj
punoljetnih
punom
punu
pur
pure
purification
purpura
pusaka
pusenja
pusenje
pushrod
puska
puske
pusku
pusta
pusten
pustena
pusti
pustinja
pustinje
pustinji
pustinju
pustio
pustiti
put
puta
putanja
putanje
putative
putem
puteva
puteve
putevi
putevima
putin
putnici
putnicki
putnik
putnika
putopis
putovanja
putovanje
putovanjima
putovanju
putovao
putovati
putu
putuje
putuju
putujuci
pv
pvo
pw
px
py
pylori
pz
q
q0
q1
q2
q3
q4
q5
q6
q7
q8
q9
qa
qala
qalu
qb
qc
qd
qe
qf
qg
qh
qi
qian
qin
qj
qk
ql
qm
qn
qo
qp
qq
qquad
qr
qs
qt
qu
quad
qualification
qualifiers
qualifying
quality
quantitative
quantum
quarterly
que
quebec
queen
quercus
quest
question
questions
qui
quia
quinn
qul
quo
quod
qv
qw
qx
qy
qz
r
r0
r1
r2
r3
r4
r5
r6
r7
r8
r9
ra
rab
rabbi
rac
race
rachel
racing
racun
racuna
racunaju
racunajuci
racunanja
racunanje
racunar
racunara
racunare
racunari
racunarima
racunarska
racunarske
racunarski
racunarskih
racunarstvo
racunarstvu
racunaru
racunati
rad
rada
radar
rade
radeci
radgona
radi
radiation
radic
radica
radija
radijacije
radije
radiju
radijus
radijusa
radikala
radikalne
radila
radili
radilo
radim
radio
radioaktivni
radioaktivnog
radionica
radionice
radiosarajevo
radiotelevizija
radis
radislav
radite
raditi
radivoj
radna
radne
radni
radnici
radnicima
radnicka
radnicke
radnicki
radnickog
radnih
radnik
radnika
radnike
radnim
radnja
radnje
radnji
radnju
radno
radnog
radnom
radnu
rado
radoje
radom
radomir
radoslav
radost
radosti
radova
radovan
radove
radovi
radovima
radovljica
radu
raf
rafael
rag
ragbi
ragusii
rahman
rainbow
rainer
raj
raja
rajha
rajne
raju
rak
raka
raketa
rakete
raketni
rakom
rakova
rakovica
ralph
ram
rama
ramazana
rame
ramena
ramirez
ramiz
ramon
ramos
rana
rand
random
rane
rang
ranga
range
ranger
rangera
rangers
rangirane
rangirani
rangu
rani
ranih
ranija
ranije
ranijeg
ranijem
raniji
ranijih
ranijim
ranim
ranjen
ranjenih
ranjenika
ranjeno
ranking
rankings
ranko
rano
ranog
ranoj
ranom
ranu
ranunculus
rao
rap
rapid
rare
ras
rasa
rascjep
rase
rasirena
rasla
rasmussen
rasne
raspad
raspada
raspadaju
raspadanja
raspadom
raspala
raspao
raspodjela
raspodjele
raspodjelu
raspolaganje
raspolaganju
raspolaze
raspolozenja
raspolozenje
raspon
raspona
rasponu
raspored
rasporeda
rasporedu
raspoređena
raspoređene
raspoređeni
raspoređenih
rasprava
rasprave
raspravlja
raspravljaju
raspravu
rasprostranjen
rasprostranjena
rasprostranjene
rasprostranjeni
rasprostranjenost
rasprostranjenosti
rast
rasta
rastao
raste
rasti
rastojanje
rastom
rastu
rastuci
rastvara
rastvor
rastvora
rastvori
rastvorima
rastvorljiv
rastvorljivi
rastvoru
rat
rata
rate
rates
ratings
ratistu
ratko
ratna
ratne
ratni
ratnici
ratnih
ratnik
ratnika
ratnim
ratno
ratnog
ratnom
ratnu
ratom
raton
ratova
ratovanja
ratove
ratovi
ratovima
rats
ratu
raul
ravan
raven
ravna
ravne
ravni
ravnica
ravnice
ravnici
ravnim
ravno
ravnomjerno
ravnopravno
ravnopravnost
ravnoteza
ravnoteze
ravnotezi
ravnotezu
ray
raya
raymond
raz
razaranja
razdoblja
razdoblje
razdoblju
razdvaja
razdvajaju
razdvajanja
razdvajanje
razgovara
razgovarao
razgovarati
razgovor
razgovora
razgovori
razgovoru
razgradnje
razgradnju
razgrađuje
razgrađuju
razina
razinama
razine
razini
razinu
razlaganje
razlaze
razlicit
razlicita
razlicite
razliciti
razlicitih
razlicitim
razlicito
razlicitog
razlicitom
razlicitosti
razlicitu
razlika
razlikama
razlike
razlikom
razlikovali
razlikovanje
razlikovao
razlikovati
razliku
razlikuje
razlikujemo
razlikuju
razlog
razloga
razloge
razlozi
razlozima
razmak
razmatra
razmatranja
razmatranje
razmisljanja
razmisljanje
razmjena
razmjene
razmjeni
razmjenu
razmjera
razmnozavaju
razmnozavanja
razmnozavanje
razna
razne
razni
raznih
raznim
raznolike
raznolikost
raznolikosti
razocaran
razred
razreda
razredu
razum
razuma
razumije
razumijevanja
razumijevanje
razumijevanju
razumiju
razumjeti
razumno
razumom
razvija
razvijaju
razvijala
razvijali
razvijanje
razvijao
razvijati
razvije
razvijen
razvijena
razvijene
razvijeni
razvijenim
razvijeno
razvijenom
razviju
razvila
razvile
razvili
razvilo
razvio
razvitak
razviti
razvitka
razvod
razvoda
razvoj
razvoja
razvojem
razvojna
razvojne
razvojni
razvojnih
razvoju
rađa
rađaju
rb
rbih
rc
rd
re
reaction
reactions
read
reader
reading
ready
reagira
reagiraju
reagirati
reaguje
reaguju
reakcija
reakcijama
reakcije
reakciji
reakcijom
reakciju
reaktivni
reaktora
real
realan
reality
realizma
realne
realni
realnih
reasons
rebecca
rebra
rec
rece
recenica
recenice
receno
recent
recentnog
recenzija
recenzije
receptor
receptora
receptore
receptori
receptorima
receptorom
receptors
recesivna
recesivni
recesivno
recessive
reci
recica
recimo
recite
recognition
recombinant
recombination
recommendations
record
records
recovery
recruitment
recurrent
red
reda
redak
redakcija
redakcije
redka
redoks
redom
redoslijed
redoslijedu
redova
redove
redovi
redovima
redovito
redovna
redovne
redovni
redovno
redovnog
redu
reduced
reducira
reductase
reduction
redukcija
redukcije
reduktaza
redzic
reed
ref
referenca
reference
references
referendum
referenduma
referendumu
referentni
refleks
reforma
reformama
reforme
reformi
reformu
regent
regenta
regija
regijama
regije
regiji
regijom
regiju
regimenta
region
regiona
regional
regionalna
regionalne
regionalni
regionalnih
regionalnim
regionalno
regionalnog
regionalnom
regions
regionu
registar
register
regulacija
regulacije
regulaciji
regulaciju
regularnog
regulate
regulated
regulates
regulating
regulation
regulations
regulator
regulatorne
regulatorni
regulatory
regulira
reguliraju
reguliran
regulirana
regulirati
regulise
regulisu
reich
reid
reilly
reis
reisu
rejonu
rejting
reka
rekao
rekavsi
rekla
reklama
rekli
rekoh
rekom
rekombinacija
rekombinacije
rekonstrukcija
rekonstrukcije
rekonstrukciju
rekord
rekorda
rekordi
rekose
relacija
relaciji
related
relation
relations
relationship
relationships
relativna
relativne
relativni
relativno
relativnosti
relay
release
releases
relevantne
religija
religije
religiji
religijske
religijski
religijskih
religiju
religion
religious
religiozne
religioznoj
religioznom
religioznu
reljef
reljefa
remake
remek
remi
remija
remix
ren
renal
renault
rene
renesanse
renin
reorganizacije
rep
repa
repair
repeat
reper
repertoar
replace
replication
replikacije
repom
report
reporter
reports
repression
reprezentacija
reprezentacije
reprezentaciji
reprezentacijom
reprezentaciju
reprezentativac
reprint
reprod
reproduction
reproductive
reprodukcija
reprodukcije
reprodukciju
republic
republici
republicki
republickih
republickog
republika
republikama
republikanske
republike
republikom
republiku
reputaciju
required
requires
res
resa
research
resetke
residues
resistance
resolution
resonance
resource
resources
respektivno
respiratorni
respiratornog
respiratory
response
responses
responsible
responsive
restoran
restorana
restriction
result
results
resursa
resurse
resursi
resursima
ret
reticulum
retikulum
retikuluma
retikulumu
retina
retinal
retinoblastoma
retrieved
return
reuters
rev
reveal
revealed
reveals
revidirani
review
reviews
revised
revisited
reviziju
revizirani
revolucija
revolucije
revoluciji
revoluciju
revolucionarne
revolucionarni
revolution
rex
reyes
reynolds
rez
reza
rezanj
rezervat
rezerve
rezervi
rezervni
rezervoar
rezidencija
rezija
reziji
reziju
rezim
rezima
rezimu
rezirao
reziser
rezisera
reznja
rezolucija
rezolucije
rezoluciji
rezolucijom
rezoluciju
rezultat
rezultata
rezultate
rezultati
rezultatima
rezultatom
rezultira
rezultiraju
rezultirajuci
rezultirala
rezultiralo
rezultirao
rezultirati
rezus
rf
rfc
rg
rh
rhapsody
rho
rhodes
ri
riba
ribama
ribe
ribes
ribnica
ribnik
ribolov
ribosoma
ribosomal
ribu
ricard
ricardo
rice
rich
richard
richarda
richards
richardson
richter
rick
ridge
right
rightarrow
rightleftharpoons
rights
rijec
rijeci
rijecima
rijecju
rijecni
rijedak
rijeka
rijekama
rijeke
rijekom
rijeku
rijesen
rijesi
rijesio
rijesiti
rijetka
rijetke
rijetki
rijetkih
rijetkim
rijetko
rijetkost
rijetkosti
rikard
rikarda
riley
rim
rima
rimljana
rimljani
rimljanima
rimokatolicka
rimokatolicke
rimska
rimske
rimski
rimskih
rimskim
rimsko
rimskog
rimskoj
rimskom
rimsku
rimu
ring
rio
ris
risc
rise
risk
rita
ritam
ritchie
ritma
ritmu
ritter
rival
rivala
rivalstvo
river
rivera
riza
rize
rizik
rizika
rizikom
riziku
rj
rjecnik
rjecnika
rjesava
rjesavanja
rjesavanje
rjesavanju
rjesenja
rjesenje
rjeđe
rk
rl
rm
rn
rna
rnk
ro
road
rob
roba
robbie
robbins
robe
robert
roberta
roberto
roberts
robertson
robin
robinson
robom
robot
robova
robove
robovi
robovima
robson
robu
rock
rocka
rocks
rocky
rod
roda
rodbine
rodi
rodila
rodio
roditelj
roditelja
roditelje
roditelji
roditeljima
roditi
rodni
rodno
rodnog
rodnom
rodom
rodova
rodove
rodovi
rodovima
rodriguez
rodu
rog
roga
rogatica
roger
rogera
rogers
rogova
rok
roka
roker
roku
roland
role
roles
roll
rolling
rom
roma
roman
romana
romane
romani
romanima
romano
romanopisac
romantizma
romanu
rome
romeo
romero
romi
rommel
ron
ronald
ronaldo
ronnie
room
roosevelt
root
roots
ropstva
ropstvo
ros
rosa
rosberg
rose
rosen
rosenberg
rosenborg
rosenfelder
roses
roskov
ross
rossi
rossington
rotacija
rotacije
rotaciju
roth
rotor
rotora
rotten
round
rousseau
routledge
rover
rovers
rowling
roy
royal
rozaje
rozeta
roznjace
rođ
rođaci
rođak
rođaka
rođen
rođena
rođendan
rođendana
rođene
rođeni
rođenih
rođenja
rođenje
rođenju
rođeno
rp
rpm
rq
rr
rrnk
rs
rsssf
rt
rta
rtb
rts
rtv
ru
rual
rub
ruba
ruben
rubin
rubovima
rubu
rubus
rucak
ruci
rucno
ruda
rudar
rudara
rudarstva
rudarstvo
rude
rudi
rudnici
rudnicima
rudnik
rudnika
rudniku
rudo
rudolf
rue
rugby
ruiz
ruka
rukama
ruke
rukom
rukometna
rukometni
rukometu
rukopis
rukopisa
rukopisi
rukovodi
rukovodio
rukovodstva
rukovodstvo
ruku
rule
rules
rum
rumuni
rumunija
rumunije
rumuniji
rumunski
run
runda
runde
rundi
rundu
rupa
rupe
rupu
rus
rusa
ruse
rusenja
rusenje
rusevina
rusevinama
rusevine
rush
rusi
rusija
rusije
rusiji
rusijom
rusiju
ruska
ruske
ruski
ruskih
ruskim
rusko
ruskog
ruskoj
ruskom
rusku
russell
russia
russian
ruta
rute
ruth
rutinski
ruza
ruze
rv
rw
rx
ry
ryan
ryu
rz
s
s0
s1
s2
s3
s4
s5
s6
s7
s8
s9
sa
saa
saba
sabah
sabanovic
sabat
sabata
sabiranje
sablja
sablon
sabor
sabora
saboru
saccharomyces
sachs
sacinjava
sacinjavaju
sacinjavali
sacuva
sacuvali
sacuvan
sacuvana
sacuvane
sacuvani
sacuvanih
sacuvano
sacuvao
sacuvati
sad
sada
sadasnja
sadasnje
sadasnjeg
sadasnji
sadasnjost
sadasnjosti
sadrzaj
sadrzaja
sadrzajem
sadrzaju
sadrzan
sadrzani
sadrzava
sadrzavala
sadrzavao
sadrzavati
sadrze
sadrzi
sadu
safet
safety
saffat
safvet
sage
saglasnost
saglasnosti
sagorijevanjem
sagradili
sagradio
sagraditi
sagrađen
sagrađena
sah
saha
sahara
sahare
sahat
sahist
sahista
sahovska
sahovske
sahovski
sahovskih
sahovsko
sahovskog
sahovskoj
sahranjen
sahranjena
sahu
said
saint
saito
sajt
sajta
sajtu
saka
sake
sakrio
sakriti
saku
sakupiti
sala
sale
sales
sali
salih
salisb
salix
salje
salju
salko
sall
sallallahu
salmedin
salon
salt
salvador
salzburg
sam
sama
samac
samarije
same
sami
samih
samilosnog
samim
samir
samo
samoa
samobor
samobora
samog
samoga
samoglasnika
samoj
samom
samostalna
samostalne
samostalni
samostalnih
samostalno
samostalnost
samostalnosti
samostalnu
samostan
samostana
samostanu
samoubistva
samoubistvo
samouprave
samoupravljanja
samoupravnih
samoupravnim
sampion
sampiona
sampionsku
samsung
samu
samuel
san
sana
sanchez
sandalj
sandalja
sanders
sandra
sanduk
sanduka
sandzak
sandzaka
sandzaku
sane
sanger
sanja
sanjao
sankcija
sankcije
sankt
sansa
sanse
sanski
sanskog
sanskom
sansu
santa
santiago
santo
santos
sanu
sanuhu
sao
saobracaj
saobracaja
saobracaju
sap
sapiens
sapna
sar
sara
saradnici
saradnik
saradnika
saradnja
saradnje
saradnji
saradnju
sarah
saraj
sarajeva
sarajevo
sarajevska
sarajevske
sarajevski
sarajevskih
sarajevsko
sarajevskog
sarajevskoj
sarajevskom
sarajevu
sarađivao
sarađuje
sarg
saric
sars
sasa
sasaki
sasija
sastaje
sastaju
sastali
sastanak
sastanka
sastanku
sastao
sastav
sastava
sastavi
sastavio
sastavljanje
sastavljen
sastavljena
sastavljene
sastavljeni
sastavljeno
sastavni
sastavu
sastojak
sastojaka
sastojala
sastojao
sastojci
sastoje
sastoji
sasvim
sat
sata
satelit
satelita
sateliti
satellite
sati
satima
sato
sator
satora
satoru
satu
saturn
saturna
saudi
saudijska
saudijske
saul
saula
saunders
sav
sava
save
savez
saveza
savezi
savezna
savezne
savezni
saveznici
saveznicima
saveznicke
saveznickih
saveznih
saveznik
saveznika
saveznike
saveznim
savezno
saveznog
saveznoj
saveznom
saveznu
savezom
savezu
savi
savic
savijanja
savijanje
savinjska
savjest
savjesti
savjet
savjeta
savjetnik
savjetnika
savjetovanje
savladao
savremena
savremene
savremeni
savremenih
savremenim
savremenog
savremenoj
savremenom
savrsen
savrseno
savu
say
says
sazetak
saziva
sazna
saznaje
saznanja
saznao
saznati
sazrijevanja
sazrijevanje
sazvijezđa
sazvijezđe
sazvijezđu
sb
sbb
sbd
sc
scale
sceloenopla
scena
scenama
scenarij
scenarija
scenariju
scenario
scenarist
scenarista
scenaristi
scene
sceni
scenskih
scenu
schaefer
schaeffer
schalke
schedule
schiller
schizophrenia
schmidt
schneider
school
schools
schott
schultz
schulz
schumacher
schupp
schuster
schwartz
schwarz
schwassmann
sci
science
sciences
scientific
scientist
scientists
scl
sclerosis
scn
score
scotland
scott
scottish
screen
screening
sd
sda
sdc
sdp
sds
sdsc
sdss
se
sea
sead
sean
search
season
seat
seattle
sebastian
sebe
sebi
sec
secer
secera
secerna
secerne
secesije
second
secondary
secret
secreted
secretion
section
security
sedai
sedam
sedamdeset
sedamdesetih
sedamnaest
sedma
sedme
sedmi
sedmica
sedmice
sedmici
sedmicno
sedmicu
sedmo
sedmog
seds
see
seed
sef
sefa
sefik
sega
segmenata
segment
segmenta
segmenti
segmentu
seid
seine
sejh
sejtan
sejtarija
sekcija
sekcije
seki
sekovici
sekrecije
sekretar
sekretara
seks
sekstant
seksualna
seksualne
seksualni
seksualno
seksualnog
sektor
sektora
sektoru
sekundarna
sekundarne
sekundarni
sekundarnih
sekundarno
sekunde
sekundi
sekvenca
sekvencama
sekvence
sekvenci
sekvenciranja
sekvenciranje
sekvenciranjem
sekvencom
sekvencu
sela
selaginella
selby
sele
selected
selection
selective
selekcija
selekcije
selekciju
selektivni
selektivno
selektor
selena
self
seli
selim
selima
selimovic
seliste
seljaci
seljaka
sellem
selma
selnica
selo
selu
sem
sema
seme
semi
semic
semir
sen
senad
senat
senata
senator
senatora
senatu
senegal
seniorsku
senjska
senna
sense
sensitive
sensitivity
sensu
sentjernej
sentjur
sentrupert
seobe
seoska
seoske
seoski
seoul
sep
septembar
september
septembra
septembru
sequence
sequences
sequencing
ser
serbia
serbian
sergej
sergio
serie
series
serif
serija
serijal
serijala
serijalu
serijama
serije
seriji
serijski
seriju
serin
serina
serine
serotonin
serum
serumu
server
servera
service
services
servis
servisa
sesir
sesira
sesnaest
sest
sesta
sestara
seste
sesti
sesto
sestoaprilska
sestog
sestoj
sestom
sestra
sestrama
sestre
sestri
sestrinska
sestrinske
sestrom
sestru
set
seta
sets
setu
sevdah
sevdalinka
sevdalinke
seven
sever
several
severe
severin
sevilla
sevnica
sevo
sex
sexual
seymour
sezana
sezdeset
sezdesetih
seze
sezona
sezonama
sezone
sezoni
sezonu
sf
sfera
sfere
sferi
sforza
sfr
sfrj
sg
sh
shadow
shah
shakespeare
shanghai
shape
sharif
sharma
sharon
sharp
shaw
shay
she
sheet
sheffield
shell
shen
sherlock
sherlocka
sherman
shi
shield
shimizu
shin
shirley
shock
shodno
shore
short
shot
shotgun
should
show
shows
shs
shtml
shu
shuttle
shvata
shvatanja
shvatanje
shvati
shvatili
shvatio
shvatiti
si
sibenik
sibensko
sibi
sibira
sici
sicilijanska
sicilije
siciliji
siciliju
sid
side
sidney
siemens
sierra
sigismund
sigma
sign
signal
signala
signale
signali
signaling
signalizacija
signalizacije
signalizaciju
signalling
signalne
signalni
signalnih
signals
significance
signs
siguran
sigurna
sigurni
sigurno
sigurnoscu
sigurnosne
sigurnosnih
sigurnost
sigurnosti
sihr
sije
sijece
sijera
sikala
sila
silama
sile
silencing
sili
silic
silicij
silicija
silico
silicon
silom
silovanja
silovanje
silu
silva
silver
sim
sima
simbad
simbol
simbola
simbole
simboli
simbolizira
simbolom
simeon
simetrije
simfonija
simfonije
simic
similarity
simmons
simon
simona
simone
simple
simpson
simptom
simptoma
simptome
simptomi
simptomima
sims
sin
sina
sinagoga
sinaj
sinan
sinapse
sinauer
since
sindikata
sindrom
sindroma
sindromom
sindromu
sine
singapur
singer
singh
singl
singla
single
singles
singlova
sinh
sinisa
sinj
sinnott
sinom
sinonim
sinonimi
sinova
sinove
sinovi
sinovima
sintaza
sintaze
sintetaza
sintetizira
sintetiziraju
sinteza
sinteze
sintezi
sintezu
sinu
sinus
sio
sion
sipa
sipovo
siprage
sir
sira
sire
sireg
sirem
sirenja
sirenje
sirenjem
sirenju
siri
sirija
sirije
siriji
siriju
sirina
sirine
sirini
sirinu
sirio
siriti
sirius
sirnk
siroj
sirok
siroka
siroke
siroki
sirokih
sirokim
siroko
sirokog
sirokoj
sirokom
siroku
sirom
siromasne
siromastva
siromastvo
sirovina
sirovine
siru
sisacko
sisak
sisao
sisara
sisare
sisari
siska
sismis
sismisa
sismisi
sistem
sistema
sistematski
sisteme
sistemi
sistemima
sistemom
sistemske
sistemski
sistemu
sister
sit
site
sites
sitne
sitni
sitnih
sitnim
situ
situacija
situacijama
situacije
situaciji
situaciju
siva
sive
sivi
six
size
siđe
sj
sjaj
sjaja
sjajan
sjajem
sjajna
sjajni
sjeca
sjecanja
sjecanje
sjecanju
sjede
sjedeci
sjedecih
sjedi
sjedinjene
sjedinjenih
sjedinjenim
sjedio
sjedista
sjediste
sjedistem
sjedistu
sjednica
sjednice
sjednici
sjekira
sjeme
sjemena
sjemenicima
sjemenke
sjemenki
sjena
sjene
sjeni
sjenica
sjeti
sjetiti
sjever
sjevera
sjeverna
sjeverne
sjeverni
sjevernih
sjevernim
sjeverno
sjevernog
sjevernoj
sjevernom
sjevernu
sjevero
sjeveroistocne
sjeveroistocni
sjeveroistocno
sjeveroistocnoj
sjeveroistocnom
sjeveroistoku
sjeverozapad
sjeverozapadne
sjeverozapadni
sjeverozapadno
sjeverozapadnoj
sjeverozapadnom
sjeverozapadu
sjeveru
sk
ska
skakac
skakaca
skakaonica
skakaonice
skakaonici
skala
skale
skali
skandal
skandala
skandinaviji
skelet
skeleta
skeletal
skeletni
skeletnih
skeletnim
skender
skeniranje
ski
skijanje
skijanju
skijas
skijasica
skijaska
skijaske
skijaski
skijaskim
skijaskom
skin
skj
skladista
skladiste
skladistenja
skladistenje
skladu
sklapa
sklapanja
sklapanje
skleroza
skleroze
skloni
sklonista
skloniste
sklonost
sklonosti
sklop
sklopio
sklopljen
sklopu
skoci
skocjan
skoda
skofja
skoj
skok
skoka
skokova
skokovi
skokovima
skola
skolama
skole
skoli
skoljke
skolovanja
skolovanje
skolovao
skolska
skolske
skolski
skolu
skoplje
skoplju
skoro
skorpion
skotska
skotske
skotski
skotskog
skotskoj
skovao
skr
skracenica
skraceno
skrece
skrining
skriva
skrivena
skriveno
skrob
skulptura
skulpture
skup
skupa
skupi
skupina
skupinama
skupine
skupini
skupinu
skuplja
skupljaju
skupljanje
skupova
skupovi
skupstina
skupstine
skupstini
skupstinu
skupu
sky
sl
slab
slaba
slabe
slabi
slabih
slabije
slabiji
slabim
slabljenje
slabo
slabog
slabost
slabosti
slabu
slager
slam
slanje
slatina
slatka
slatke
slatki
slatko
slava
slave
slaven
slavena
slaveni
slavenima
slavenska
slavenske
slavenski
slavenskih
slavenskim
slavenskog
slavi
slavija
slavio
slaviti
slavko
slavna
slavne
slavni
slavnih
slavonije
slavoniji
slavonska
slavonski
slavu
slaze
slazu
slc
sleep
slfn
slican
slici
slicna
slicne
slicni
slicnih
slicnim
slicno
slicnog
slicnom
slicnost
slicnosti
slicnu
slijed
slijede
slijedeca
slijedece
slijedeci
slijedecih
slijedecim
slijedi
slijedila
slijedili
slijedio
slijedite
slijediti
slijepa
slijepi
slika
slikama
slikar
slikara
slikari
slikarstva
slikarstvo
slikarstvu
slike
slikom
sliku
sliv
sliva
slivno
slivu
sljedbenici
sljedbenika
sljedeca
sljedece
sljedeceg
sljedecem
sljedeci
sljedecih
sljedecim
sljedecoj
sljedecu
sljemenjaka
sljepilo
sloboda
slobodan
slobodana
slobode
slobodi
slobodna
slobodne
slobodni
slobodnih
slobodnim
slobodno
slobodnog
slobodnoj
slobodnom
slobodnu
slobodu
sloga
sloj
sloja
slojem
slojeva
slojeve
slojevi
slojevima
sloju
slom
sloma
slon
slonovace
slonovi
slova
slovacka
slovacke
slovacki
slovackoj
slovenaca
slovenci
slovenia
slovenija
slovenije
sloveniji
slovenj
slovenska
slovenske
slovenski
slovenskih
slovenskog
slovenskom
slovima
slovo
slovom
slozen
slozena
slozene
slozeni
slozenih
slozenije
slozeniji
slozenim
slozenost
slozenosti
slozio
slucaj
slucaja
slucajeva
slucajeve
slucajevi
slucajevima
slucajno
slucaju
sluga
slugama
sluge
slugu
sluh
sluha
slunj
slunja
slusa
slusaj
slusajte
slusaju
slusali
slusao
slusati
sluzba
sluzbe
sluzbena
sluzbene
sluzbeni
sluzbenici
sluzbenih
sluzbenik
sluzbenika
sluzbenim
sluzbeno
sluzbenog
sluzbenoj
sluzbenom
sluzbenu
sluzbi
sluzbu
sluze
sluzeci
sluzenje
sluzi
sluzila
sluzile
sluzili
sluzio
sluziti
sluznice
sm
smad
smail
smak
small
smallville
smanjen
smanjena
smanjene
smanjeni
smanjenim
smanjenja
smanjenje
smanjenjem
smanjenju
smanjeno
smanjenom
smanjenu
smanji
smanjila
smanjilo
smanjio
smanjiti
smanjuje
smanjuju
smanjujuci
smarje
smart
smartno
smatra
smatraju
smatrajuci
smatrala
smatrali
smatralo
smatram
smatran
smatrana
smatrani
smatrao
smatrati
smece
smeta
smetnje
smeđa
smeđe
smeđi
smije
smijeh
smijenjen
smiju
smisao
smisla
smislu
smith
smithsonian
smjene
smjer
smjera
smjernice
smjerovima
smjeru
smjesa
smjese
smjesta
smjestaj
smjestaju
smjesten
smjestena
smjestene
smjesteni
smjestenih
smjesteno
smjestio
smjestiti
smn
smo
smole
smooth
smrcu
smrt
smrti
smrtnih
smrtno
smrtnost
smrtnosti
smrtnu
smrtonosa
sn
sna
snaga
snagama
snage
snagom
snagu
snap
snape
snare
snazan
snazi
snazna
snazne
snazni
snaznih
snaznije
snazniji
snaznim
snazno
snaznog
snaznom
snaznu
snijeg
snijega
snijegom
snima
snimaju
snimak
snimaka
sniman
snimanja
snimanje
snimanju
snimao
snimatelj
snimati
snimci
snimi
snimila
snimili
snimio
snimiti
snimke
snimljen
snimljena
snimljene
snimljeni
snooker
snop
snopa
snova
snove
snovi
snow
snp
snsd
snu
snukerska
snyder
so
soares
soba
sobe
sobi
sobnoj
sobom
sobota
sobu
soc
soccer
soccerbase
soccerway
soccerworldcups
sochi
social
sociedad
society
socijaldemokrata
socijaldemokratske
socijalisticka
socijalisticke
socijalistickih
socijalistickog
socijalistickoj
socijalizam
socijalizma
socijalna
socijalne
socijalni
socijalnih
socijalnim
socijalno
socijalnog
socijalnom
socijalnu
sociju
sociolog
sociologija
sociologije
sociva
sodium
sofia
sofija
sofije
sofiji
sofradzija
soft
softver
softvera
software
soja
sojuz
sok
soka
sokci
soko
sokol
sokola
sokolac
sokolovic
sokrat
sol
solar
soli
solid
solidago
solidarnost
solidarnosti
soljan
solo
solomon
soltis
solun
solution
solutions
somalija
somatic
some
son
sonata
sonate
sonda
sonde
song
songs
sonic
sons
sony
sophie
sopi
sopstvene
sopstveni
sopstvenu
sorbus
sorte
sorti
sorting
sos
sou
soul
sound
soundtrack
source
sources
south
southamerican
southampton
southern
sova
soviet
sovjeti
sovjetska
sovjetske
sovjetski
sovjetskih
sovjetskim
sovjetsko
sovjetskog
sovjetskom
sovjetsku
sox
sp
spa
space
spada
spadaju
spaeth
spahic
spain
spaja
spajaju
spajanja
spajanje
spajanjem
spaljeno
span
spanci
spanija
spanije
spaniji
spaniju
spanish
spanska
spanske
spanski
spanskih
spanskim
spansko
spanskog
spanskom
spansku
sparta
spartak
spas
spasa
spasava
spasavanja
spasavanje
spasen
spasenje
spasi
spasila
spasili
spasio
spasiti
spava
spavanja
spavanje
spavao
spd
special
species
specific
specifican
specificity
specificna
specificne
specificni
specificnih
specificnim
specificno
specificnog
specificnom
specificnost
specificnosti
specificnu
specijalizirane
specijalizirani
specijaliziranih
specijalna
specijalne
specijalni
specijalnih
specijalnim
specijalno
spectrometry
spectrum
speech
speed
spektar
spektra
spektralne
spektru
spencer
sperm
spermatozoida
sperme
spiegel
spielberg
spin
spina
spinal
spindle
spirala
spirale
spiralna
spiralne
spiralno
spirit
spisa
spisak
spisi
spisima
spiska
spisku
splice
splicing
split
splita
splitsko
splitu
spodnja
spodnje
spodnji
spoj
spoja
spojen
spojena
spojene
spojeni
spojeva
spojeve
spojevi
spojevima
spojiti
spoju
spol
spola
spolna
spolne
spolni
spolnih
spolnim
spolno
spolnog
spolu
spomen
spomenica
spomenici
spomenicima
spomenik
spomenika
spomenike
spomenikom
spomenuo
spomenut
spomenuta
spomenute
spomenuti
spomenutih
spomenuto
spominjanje
spominje
spominju
spongebob
spontano
sponzor
spor
spora
sporazum
sporazuma
sporazume
sporazumom
sporazumu
spore
sporedna
sporedni
sporednu
sporije
sporo
sporova
sport
sporta
sporting
sportista
sportisti
sportova
sportovima
sports
sportska
sportske
sportski
sportskih
sportskim
sportsko
sportskog
sportsport
sportu
sposoban
sposobna
sposobne
sposobni
sposobnoscu
sposobnost
sposobnosti
sposobnostima
spot
spoznaja
spoznaje
spoznati
spp
spram
sprat
sprata
spratu
sprava
sprave
sprecava
sprecavaju
sprecavanje
spregnuti
sprema
spreman
spremna
spremni
spremnik
spremnika
spremnost
sprijeci
sprijecila
sprijecili
sprijecilo
sprijecio
sprijeciti
sprijeda
spring
springer
sprint
sprinta
sprintu
sprjecava
sprovodi
sprovođenje
spusta
spustaju
spusti
spustio
spuzva
sq
sqrt
squad
squamous
square
squarepants
sr
sramota
srba
srbac
srbe
srbi
srbija
srbijanska
srbijanske
srbijanski
srbije
srbiji
srbijom
srbiju
srbima
srbin
src
srca
srcana
srcane
srcani
srcanih
srcanog
srcanom
srce
srcem
srcima
srcu
srebra
srebrene
srebrenica
srebrenice
srebrenici
srebrenicu
srebrenik
srebrna
srebrne
srebrni
srebrnu
srebro
sreca
srece
sreci
srecom
srecu
sred
sredina
sredinama
sredine
sredini
sredinom
sredinu
sredisnja
sredisnje
sredisnjeg
sredisnjem
sredisnji
sredisnjoj
sredista
srediste
sredistem
sredistu
srednja
srednje
srednjeg
srednjem
srednji
srednjih
srednjim
srednjoj
srednjovjekovna
srednjovjekovne
srednjovjekovni
srednjovjekovnih
srednjovjekovnog
srednjovjekovnoj
srednjovjekovnom
srednju
sredozemnog
sredstava
sredstva
sredstvima
sredstvo
sreo
sretan
sretna
sretni
sretno
srez
sreza
sri
srijedu
srijemska
srodna
srodne
srodni
srodnici
srodnih
srodnika
srodnim
srodstvu
srp
srpska
srpske
srpski
srpskih
srpskim
srpsko
srpskog
srpskohrvatski
srpskoj
srpskom
srpsku
srusen
srusena
srusila
srusio
sry
srz
srzi
srđan
ss
ssp
ssr
sssr
st
sta
stab
staba
stabala
stabilan
stability
stabilizacije
stabilizaciji
stabilizaciju
stabilna
stabilne
stabilni
stabilno
stabilnost
stabilnosti
stabla
stablasica
stable
stabljika
stabljike
stablo
stablu
stada
stade
stadij
stadija
stadiju
stadion
stadiona
stadionu
stadium
stadiumguide
stado
stadt
stafeta
stafete
stafeti
staff
stage
stajala
stajalista
stajao
stajerske
stajerskoj
stakla
staklo
stala
staljin
stalna
stalne
stalni
stalnih
stalnim
stalno
stalnog
stalnom
stalnu
stalo
stambena
stambene
stambeni
stambenih
stambeno
stampa
stampana
stamparija
stampe
stampu
stan
stana
stanbul
stand
standard
standarda
standarde
standardi
standardima
standardna
standardne
standardni
standardnih
standardnim
standardno
standardnog
standardnom
standards
standardu
standings
stane
stanford
stani
stanica
stanicama
stanice
stanici
stanicu
stanislav
stanista
staniste
stanistima
stanja
stanje
stanjem
stanjima
stanju
stanko
stankovic
stanley
stanova
stanovanje
stanovati
stanovista
stanovnici
stanovnicima
stanovnik
stanovnika
stanovnike
stanovniku
stanovnistva
stanovnistvo
stanovnistvom
stanovnistvu
stanu
stao
stap
stapa
stapica
stapom
star
stara
starac
stare
starenja
starenje
stargate
stari
starih
starija
starije
starijeg
stariji
starijih
starijim
starijoj
starim
starine
starjesina
starjesine
stark
staro
starog
starogrcki
staroj
starom
starost
starosti
stars
start
startao
startna
startnu
startu
staru
stat
state
statement
states
stati
station
statistical
statisticke
statisticki
statistickih
statisticni
statistics
statistik
statistika
statistike
statistiku
stats
statsf
statua
statue
status
statusa
statusom
statusu
statut
statuta
statutom
stav
stava
stavak
stavi
stavila
stavili
stavio
stavise
staviti
stavka
stavlja
stavljaju
stavljate
stavljen
stavljena
stavova
stavove
stavovi
stavu
staza
stazama
staze
stazi
ste
steaua
stecak
stecaka
stecci
steccima
steci
stecka
steel
stefan
stefana
stefano
stefanovic
steiermark
stein
steiner
steinicke
steinickea
steinitz
stekao
stekla
stekli
stela
stele
stella
stem
step
stepa
stepanovic
stepe
stepen
stepena
stepeni
stepenice
stepenom
stepenu
stephan
stephane
stephanie
stephen
stephens
stepinac
steps
sterling
stern
sternhaufen
steroid
steroida
steroids
steta
stete
stetne
stetnih
stetu
stevan
steve
steven
stevens
stewart
sticanja
stice
stici
stidne
stigao
stigla
stigli
stiglo
stigne
stigose
stih
stihova
stihove
stihovi
stihovima
stijena
stijenama
stijene
stijeni
stijenu
stil
stila
still
stilom
stilova
stilu
stimulacija
stimulacije
stimulaciju
stimulated
stimulation
stimulira
stimuliraju
sting
stipe
stit
stita
stite
stiti
stitne
stitnjace
stize
stizu
stjepan
stjepana
sto
stoca
stocarstvo
stocarstvom
stock
stockholm
stockholmu
stocu
stoga
stojan
stojanovic
stoje
stojeci
stoji
stoka
stoke
stoku
stol
stola
stolac
stolas
stolica
stolice
stoljeca
stoljece
stoljecima
stoljecu
stolom
stolpersteine
stolu
stone
stoney
stop
stopa
stopala
stopalo
stopama
stope
stopi
stopom
stopu
storage
store
stories
story
stotina
stotinama
stotine
stotinjak
stotinu
stovanje
str
stradalo
stradao
straga
strah
straha
strahom
strahu
strajk
strana
stranac
stranaca
stranaka
stranama
stranci
strand
strane
strange
strani
stranica
stranicama
stranice
stranici
stranicu
stranih
stranim
stranka
stranke
stranku
stranog
stranom
stranu
strasan
strasna
strasno
strast
strasti
strategies
strategija
strategije
strategiju
strategy
strateske
strateski
stratigraphy
strausberg
strauss
straza
strazburg
strazburski
straze
straznje
straznjeg
straznjem
straznji
stream
streaming
street
stres
stresa
stresom
stress
stric
strica
strijela
strijelac
strijelaca
strijelci
strijele
strike
striktno
string
strip
stripa
stripova
strmec
strogo
stroke
strong
strucna
strucne
strucni
strucnih
strucnjaci
strucnjak
strucnjaka
strucno
strucnog
structural
structure
structures
struja
strujanja
struje
struju
struktura
strukturama
strukture
strukturi
strukturna
strukturne
strukturni
strukturnih
strukturno
strukturom
strukturu
sts
stuart
stub
stuba
stubica
stubova
stubove
stubovi
studenata
student
studente
studenti
studentima
students
studies
studij
studija
studijama
studije
studiji
studijski
studijskog
studiju
studio
studios
studira
studirala
studirao
study
stupa
stupaju
stupanj
stupanja
stupio
stupnja
sturm
stuttgart
stv
stvar
stvara
stvaraju
stvarajuci
stvaralastva
stvaralastvo
stvaranja
stvaranje
stvaranjem
stvaranju
stvarati
stvari
stvarima
stvarna
stvarne
stvarni
stvarnim
stvarno
stvarnog
stvarnom
stvarnost
stvarnosti
stvore
stvoren
stvorena
stvorene
stvoreni
stvorenja
stvorenje
stvori
stvorila
stvorile
stvorili
stvorilo
stvorio
stvoriti
stx
style
su
sua
suarez
sub
subcellular
subject
subjects
subjekata
subjekt
subjekta
subjekti
subotica
subotu
subsp
substrate
subtraction
subunit
subunits
success
such
sucic
sud
suda
sudan
sudana
sudar
sudara
sudbina
sudbine
sudbini
sudbinu
sudeci
sudi
sudija
sudije
suditi
sudjelovanje
sudjelovao
sudjelovati
sudjeluje
sudjeluju
sudnjem
sudom
sudova
sudove
sudovi
sudovima
sudska
sudske
sudski
sudskom
sudsku
sudu
sufiks
sugano
sugerira
sugeriraju
suha
suhe
suhi
suhim
suho
suhom
sui
suite
sukob
sukoba
sukobe
sukobi
sukobima
sukobu
sukosan
sulejman
sulejmana
sulejmanu
sulfat
sulfata
sulfate
sulfid
sulfida
sullivan
sultan
sultana
sum
suma
sumadinci
sumama
sume
sumi
summary
summer
sumnja
sumnje
sumnju
sumo
sumom
sumpor
sumpora
sumporne
sumrak
sumske
sumski
sumskih
sumu
sun
sunca
sunce
suncem
suncev
sunceva
sunceve
suncevog
suncevom
suncu
sund
sunday
sunderland
sung
sunnet
suny
suocava
suocio
suosnivac
sup
super
superfamily
superkup
superkupa
supernatural
supernova
suplje
supljina
supljine
supljini
supljinu
suppl
supplement
support
suppression
suppressor
supra
suprotan
suprotna
suprotne
suprotnim
suprotno
suprotnog
suprotnom
suprotnost
suprotnosti
suprotstaviti
suprotstavlja
suprug
supruga
supruge
suprugom
suprugu
supruzi
supstanca
supstance
supstanci
supstancu
supstitucije
supstrat
supstrata
sur
sura
suradnji
sure
surface
surgery
surgical
suri
survey
survival
susa
susan
susceptibility
suse
susic
susica
susjeda
susjedi
susjedna
susjedne
susjedni
susjednih
susjednim
susjednom
susjedstvu
susrece
susrecu
susreli
susreo
susret
susreta
susretanja
susreti
susretima
susretu
sustav
sustava
sustina
sustini
sustinski
sut
sutherland
sutjesci
sutjeska
sutra
sutradan
sutton
suverena
suverenitet
suvereniteta
suverenosti
suvise
suyama
suza
suzbijanje
suze
suzuki
suđenja
suđenje
suđenju
sv
sva
svak
svaka
svakako
svake
svaki
svakih
svakim
svako
svakodnevni
svakodnevno
svakodnevnog
svakodnevnom
svakog
svakoga
svakoj
svakom
svakome
svaku
svatko
svađe
sve
sveca
svecano
svecanosti
svecenici
svecenicima
svecenik
svecenika
svecenike
sveceniku
svedska
svedske
svedski
svedskog
svedskoj
svedskom
svedsku
sveg
svega
svejedno
svem
svemir
svemira
svemirska
svemirske
svemirski
svemirskih
svemirskog
svemiru
svemoguceg
svemoguci
svemu
sven
sveske
svestenik
svestenika
svet
sveta
svetac
svetaca
svete
sveti
svetih
svetim
svetista
svetiste
svetistu
svetlana
sveto
svetog
svetoga
svetoj
svetom
svetozar
svetu
sveuciliste
sveukupni
sveukupnim
sveukupno
svezak
sveđani
svi
svicarci
svicarska
svicarske
svicarski
svicarskoj
svicarskom
svicarsku
svih
svijest
svijesti
svijet
svijeta
svijetla
svijetle
svijetli
svijetlo
svijetom
svijetu
svile
svim
svima
svinja
svinje
svira
sviraju
svirali
sviranja
svirao
svirati
sviđa
svjedocanstvo
svjedoce
svjedocenje
svjedoci
svjedok
svjedoka
svjesna
svjesni
svjesno
svjestan
svjetla
svjetlo
svjetlosnih
svjetlost
svjetlosti
svjetlu
svjetova
svjetska
svjetske
svjetski
svjetskih
svjetskim
svjetsko
svjetskog
svjetskoj
svjetskom
svjetsku
svjeze
svo
svod
svodi
svog
svoga
svoj
svoja
svoje
svojeg
svojega
svojem
svojevremeno
svojih
svojim
svojoj
svojom
svojstava
svojstva
svojstvima
svojstvo
svojstvu
svoju
svom
svome
svrgnut
svrha
svrhe
svrhu
svrstana
svrstane
svrstati
svrstava
svrstavaju
svu
svud
svuda
svugdje
sw
sweden
swedish
sweet
swift
swimming
swiss
switch
switzerland
sx
sxc
sxd
sxe
sy
sydney
symposium
symptoms
synaptic
syndrome
syndromes
syntaxin
synthase
synthesis
synthetase
synuclein
syst
system
systematic
systematics
systemic
systems
sz
t
t0
t1
t2
t3
t4
t5
t6
t7
t8
t9
ta
taar
tabela
tabele
tabeli
tabelu
tabla
table
tables
tablesl
tablica
tabor
tabora
taborovahu
tac
tacaka
tacan
tacka
tackama
tacke
tacki
tackom
tacku
tacna
tacne
tacnije
tacno
tacnost
tactical
tad
tada
tadasnja
tadasnje
tadasnjeg
tadasnjem
tadasnji
tadasnjih
tadasnjim
tadasnjoj
tadic
tadzikistan
tag
taha
taj
tajland
tajna
tajne
tajni
tajnim
tajno
tajnom
tajnosti
tajnu
tajvan
tak
takahashi
takav
take
takes
takmicar
takmicara
takmicari
takmicarke
takmicarki
takmice
takmicenja
takmicenje
takmicenjima
takmicenju
takmici
takmicila
takmicio
tako
takozvana
takozvane
takozvani
takođe
također
taksi
takson
taksona
taksonomija
taksonomski
taktika
taktiku
takva
takve
takvi
takvih
takvim
takvo
takvog
takvoj
takvom
takvu
tal
talas
talasa
talasi
talasna
talasne
tale
talenat
talenata
talent
tales
talk
talks
tam
taman
tame
tami
tamna
tamne
tamni
tamno
tamo
tan
tanak
tanaka
tandem
tang
tanja
tank
tanka
tanke
tanki
tankih
tankim
tanko
tankog
tankom
tanks
tanovic
tanzanija
tanzil
tao
tar
tara
tarantino
target
targeted
targeting
targets
tarik
task
tat
tata
tatara
tatari
tate
tatjana
tau
taxon
taxonomic
taxonomy
tay
taylor
tb
tbx
tc
tcp
td
te
team
teams
teatar
teatra
teatru
tebe
tebi
tece
tech
technical
techniques
technologies
technology
teci
tecni
tecno
tecnom
tecnost
tecnosti
ted
tefsir
tehnici
tehnicka
tehnicke
tehnicki
tehnickih
tehnickim
tehnickog
tehnickom
tehnika
tehnikama
tehnike
tehnikom
tehniku
tehnologija
tehnologije
tehnologiji
tehnologiju
tehnoloski
tek
tekija
tekije
tekst
teksta
tekstila
tekstilna
tekstom
tekstopisac
tekstova
tekstove
tekstovi
tekstovima
tekstu
teku
tekuce
tekucina
tekucine
tel
tele
telefon
telefona
telegraph
telescope
teleskop
teleskopa
television
televizija
televizije
televiziji
televizijska
televizijske
televizijski
televizijskih
televizijskim
televizijskoj
televiziju
tell
tema
temama
tematski
teme
temelj
temelja
temelje
temelji
temeljima
temeljna
temeljne
temeljni
temeljnih
temeljno
temelju
temi
temom
tempel
temperatura
temperaturama
temperature
temperaturi
temperaturom
temperaturu
temple
tempo
temu
ten
tendencija
tendencije
tendenciju
tenis
teniser
tenisera
teniski
tenk
tenka
tenkova
tenkove
tenkovi
tenkovima
tenku
tennessee
tennis
teocak
teodor
teodora
teolog
teologije
teorem
teorema
teoreticar
teoretski
teorija
teorije
teoriji
teorijom
teorijski
teoriju
ter
terapija
terapije
terapiji
terapiju
teren
terena
terenima
terenu
teresa
teret
tereta
tereza
terezija
terezije
teritorij
teritorija
teritorijalna
teritorijalne
teritorijalni
teritorijalno
teritorijalnu
teritorijama
teritorije
teritoriji
teritorijom
teritoriju
term
termin
termina
terminal
terminala
terminalna
terminalne
terminalni
terminalnog
terminalu
terminator
termini
terminima
terminology
terms
terora
terorizma
terra
terry
tesanj
teska
teske
teski
teskih
teskim
tesko
teskoca
teskoce
teskog
teskom
tesku
tesla
teslic
test
testa
testing
testiranja
testiranje
testis
testisa
testisi
testisima
testosteron
testosterona
testova
testove
testovi
testovima
testu
tetiva
tetive
tetka
texas
text
textbook
teza
tezak
teze
tezi
tezih
tezina
tezine
tezini
tezinom
tezinu
teznja
tezu
tf
tff
tg
tgf
th
than
that
the
theater
theatre
theguardian
their
them
then
theodor
theodore
theoretical
theory
ther
therapeutic
therapeutics
therapy
there
these
theta
they
thieme
thierry
thing
things
third
this
thomas
thomasa
thompson
thomson
those
thought
thr
three
thrones
through
throughput
throw
thumma
thunb
thursday
thymus
thyroid
ti
tian
tiberije
tice
ticu
tifa
tigar
tiger
tih
tihi
tiho
tihog
tihom
tihomir
tijekom
tijela
tijelima
tijelo
tijelom
tijelu
tim
tima
time
timeline
times
timing
timom
timor
timothy
timova
timovi
timu
tin
tina
tip
tipa
tipican
tipicna
tipicne
tipicni
tipicno
tipom
tipova
tipove
tipovi
tipovima
tipska
tipske
tipski
tipskom
tipu
tira
tirana
tiraz
tirozin
tirozina
tisina
tissue
tissues
tisuca
tisucu
tita
titan
titanij
title
tito
titova
titula
titule
titulom
titulu
tj
tjelesna
tjelesne
tjelesni
tjelesnih
tjelesnim
tjelesnu
tjera
tk
tkanine
tkiva
tkivima
tkivo
tkivom
tkivu
tko
tl
tla
tle
tlo
tlu
tm
tmem
tmine
tn
tnf
tnt
to
tobago
tobom
tocak
tocka
tocno
today
todd
todorovic
tog
toga
together
togo
toj
tok
toka
tokiju
tokio
tokom
tokova
toksicnost
toku
tokyo
tolerancija
tolerancije
toleranciju
toliko
toll
tolmin
tom
toma
tomas
tomasa
tomasevic
tomatoes
tome
tomislav
tomislavgrad
tommy
tomu
ton
tona
tone
toni
tony
too
tool
toole
tools
tooth
top
topa
topcic
topic
topla
toplice
toplim
topline
topljenja
toplo
toplota
toplote
toplotnog
toplotu
topom
topova
tor
toranj
torino
torinu
torlaci
tornja
toro
toronto
torontu
torpedo
torr
torres
total
tottenham
touch
tour
tournament
toward
towards
tower
town
toxicity
toxicology
toyota
tp
tq
tr
tra
trace
tracheophyta
track
tracy
trade
tradicija
tradicije
tradiciji
tradicijom
tradicijski
tradiciju
tradicionalna
tradicionalne
tradicionalni
tradicionalnih
tradicionalnim
tradicionalno
tradicionalnog
tradicionalnom
tradicionalnu
trafficking
trag
traga
tragedija
tragedije
tragova
tragove
tragovi
tragovima
trail
training
trajala
trajalo
trajan
trajanja
trajanje
trajanju
trajao
trajati
traje
trajna
trajne
trajni
trajno
traju
traka
trake
trakt
trakta
traktu
traku
tran
trans
transactions
transaminaza
transcript
transcription
transcriptional
transcriptome
transcripts
transduction
transfer
transfera
transferaza
transfermarkt
transformacija
transformacije
transformation
transforming
transition
transkripata
transkripcija
transkripcije
[...]
