!
"
#
##0
##1
##10
##11
##12
##13
##14
##15
##16
##17
##18
##19
##2
##20
##21
##22
##23
##24
##25
##26
##27
##28
##29
##3
##30
##31
##32
##33
##34
##35
##36
##37
##38
##39
##4
##40
##41
##42
##43
##44
##45
##46
##47
##48
##49
##5
##50
##51
##52
##53
##54
##55
##56
##57
##58
##59
##6
##60
##61
##62
##63
##64
##65
##66
##67
##68
##69
##7
##70
##71
##72
##73
##74
##75
##76
##77
##78
##79
##8
##80
##81
##82
##83
##84
##85
##86
##87
##88
##89
##9
##90
##91
##92
##93
##94
##95
##96
##97
##98
##99
$
%
&
'
(
)
*
+
,
-
.
/
0
00
000
000291
001
002
003
005
006
009
01
02
03
032
04
05
06
07
08
09
1
10
100
1000
10000
1002
1007
101
1016
102
1020304050
103
1031
1038
104
105
1050
1054
106
107
108
1080
109
1093
1095
11
110
1100
111
1111
112
113
114
115
1150
116
117
118
1180
1185
1189
119
1194
1196
1198
12
120
1200
1203
1204
121
1211
122
1220
123
124
1244
125
1250
1258
126
1261
127
128
1280
1282
1285
129
13
130
1300
131
132
1320
1322
1325
1326
133
1330
134
1340
1346
1347
135
1350
1353
1358
136
137
1370
1371
1373
1377
138
1380
1382
1386
1387
1389
139
1390
1391
1392
1393
1395
1396
1397
1398
1399
14
140
1400
1402
1403
1404
1405
1406
1408
1409
141
1410
1411
1412
1413
1415
1416
1417
1418
1419
142
1420
1421
1422
1423
1425
1426
1427
1428
1429
143
1430
1432
1433
1434
1435
1436
1437
144
1440
1443
1444
1446
1448
1449
145
1450
1451
1453
1454
1455
1456
1458
1459
146
1460
1461
1462
1463
1464
1465
1466
1468
1469
147
1470
1471
1477
148
1480
1481
1482
1483
1485
149
1490
1492
1493
1494
1495
1496
1498
1499
15
150
1500
1501
1502
1503
1504
1505
1506
151
1510
1512
1513
1516
1517
1519
152
1520
1521
1522
1523
1524
1526
1527
1528
1529
153
1530
1533
1534
1535
1536
1537
154
1540
1541
1543
1547
1548
1549
155
1550
1551
1553
1554
1555
1556
1557
156
1560
1564
1565
1566
157
1570
1571
1572
1573
1574
1578
158
1580
1587
1588
159
1590
1592
1593
1595
1598
16
160
1600
1601
1603
1604
1605
1606
1609
161
1610
1612
1618
1619
162
1620
1621
1623
1627
1629
163
1630
1632
1634
1639
164
1640
1642
1643
1644
1646
1647
1648
165
1650
1654
1657
1658
1659
166
1660
1664
1665
1667
1669
167
1670
1679
168
1680
1682
1683
1684
1685
1687
1688
1689
169
1690
1691
1693
1694
1695
1697
1699
17
170
1700
1701
1703
1704
1707
1708
171
1710
1711
1712
1713
1714
1715
1716
1717
1718
1719
172
1720
1721
1722
1723
1724
1725
1727
1728
173
1730
1731
1732
1735
1736
1737
1738
1739
174
1740
1741
1742
1743
1744
1745
1746
1747
1748
1749
175
1750
1751
1752
1753
1754
1755
1756
1757
1758
1759
176
1760
1761
1762
1763
1764
1765
1766
1767
1768
1769
177
1770
1771
1772
1773
1774
1775
1776
1777
1778
1779
178
1780
1781
1782
1783
1784
1785
1786
1787
1788
1789
179
1790
1791
1792
1793
1794
1795
1796
1797
1798
1799
18
180
1800
1801
1802
1803
1804
1805
1806
1807
1808
1809
181
1810
1811
1812
1813
1814
1815
1816
1817
1818
1819
182
1820
1821
1822
1823
1824
1825
1826
1827
1828
1829
183
1830
1831
1832
1833
1834
1835
1836
1837
1838
1839
184
1840
1841
1842
1843
1844
1845
1846
1847
1848
1849
185
1850
1851
1852
1853
1854
1855
1856
1857
1858
1859
186
1860
1861
1862
1863
1864
1865
1866
1867
1868
1869
187
1870
1871
1872
1873
1874
1875
1876
1877
1878
1879
188
1880
1881
1882
1883
1884
1885
1886
1887
1888
1889
189
1890
1891
1892
1893
1894
1895
1896
1897
1898
1899
19
190
1900
1901
1902
1903
1904
1905
1906
1907
1908
1909
191
1910
1911
1912
1913
1914
1915
1916
1917
1918
1919
192
1920
1921
1922
1923
1924
1925
1926
1927
1928
1929
193
1930
1931
1932
1933
1934
1935
1936
1937
1938
1939
194
1940
1941
1942
1943
1944
1945
1946
1947
1948
1949
195
1950
1951
1952
1953
1954
1955
1956
1957
1958
1959
196
1960
1961
1962
1963
1964
1965
1966
1967
1968
1969
197
1970
1971
1972
1973
1974
1975
1976
1977
1978
1979
198
1980
1981
1982
1983
1984
1985
1986
1987
1988
1989
199
1990
1991
1992
1993
1994
1995
1996
1997
1998
1999
2
20
200
2000
2001
2002
2003
2004
2005
2006
2007
2008
2009
201
2010
2011
2012
2013
2014
2015
2016
2017
2018
2019
202
2020
2021
2022
2023
2024
2025
203
204
205
206
207
208
209
21
210
211
212
213
214
215
216
217
218
219
22
220
2200
221
222
223
224
225
226
227
228
229
23
230
231
232
233
234
235
236
237
238
239
24
240
2400
241
242
243
244
245
246
247
248
249
25
250
2500
251
252
253
254
255
256
257
258
259
26
260
2600
261
2616
262
263
264
265
266
267
268
269
27
270
271
272
273
274
275
276
277
278
279
28
280
281
282
283
284
285
286
287
288
289
29
290
291
292
293
294
295
296
297
298
299
3
30
300
3000
301
302
303
304
305
306
307
308
309
31
310
311
312
313
314
315
316
3166
317
318
319
32
320
321
322
323
324
325
326
327
328
329
33
330
331
332
333
334
335
336
337
338
339
34
340
341
342
343
344
345
346
347
348
349
35
350
3500
351
352
353
354
355
356
357
358
359
36
360
361
362
363
364
365
366
367
368
369
37
370
371
372
373
374
375
376
377
378
379
38
380
381
382
383
384
385
386
387
388
389
39
390
391
392
393
394
395
396
397
398
399
4
40
400
4000
401
402
403
404
405
406
407
408
409
41
410
411
412
413
414
415
416
417
418
419
42
420
421
4217
422
423
424
425
426
427
428
429
43
430
431
432
433
434
435
436
437
438
439
44
440
441
442
443
444
445
446
447
448
449
45
450
451
452
453
454
455
456
457
458
459
46
460
461
462
463
464
465
466
467
468
469
47
470
471
472
473
474
475
476
477
478
479
48
480
481
482
483
484
485
486
487
488
489
49
490
491
492
493
494
495
496
497
498
499
5
50
500
5000
501
502
503
504
505
506
507
508
509
51
510
511
512
513
514
515
516
517
518
519
52
520
521
522
523
524
525
526
527
528
529
53
530
531
532
533
534
535
536
537
538
539
54
540
541
542
543
544
545
546
547
548
549
55
550
551
552
553
554
555
556
557
558
559
56
560
561
562
563
564
565
566
567
568
569
57
570
571
572
573
574
575
576
577
578
579
58
580
581
582
583
584
585
586
587
588
589
59
590
591
592
593
594
595
596
597
598
599
6
60
600
6000
601
602
603
604
605
606
607
608
609
61
610
611
612
613
614
615
616
617
618
619
62
620
621
622
623
624
625
626
627
628
629
63
630
631
632
633
634
635
636
637
638
639
64
640
641
642
643
644
645
646
647
648
649
65
650
651
652
653
654
655
656
658
659
66
660
661
662
663
664
665
666
667
668
669
67
670
671
672
673
674
675
676
677
678
679
68
680
681
682
683
684
685
686
687
688
689
69
690
691
692
693
694
695
696
697
698
699
7
70
700
7000
701
702
703
704
705
706
707
708
709
71
710
711
712
713
714
715
716
717
718
719
72
720
721
722
723
724
725
726
727
728
729
73
730
731
732
733
734
735
736
737
738
739
74
740
741
742
743
744
745
746
747
748
749
75
750
751
752
753
754
755
756
757
758
759
76
760
761
762
763
764
765
766
767
768
769
77
770
771
772
773
774
775
776
777
778
779
78
780
781
782
784
785
786
787
788
789
79
790
791
792
793
794
795
796
797
798
799
8
80
800
8000
801
802
803
804
805
806
807
808
809
81
810
811
812
813
814
815
816
817
818
819
82
820
821
822
823
824
825
826
827
828
829
83
830
831
832
833
834
835
836
837
838
839
84
840
841
842
843
844
845
846
847
848
849
85
850
852
854
855
856
857
858
859
86
860
861
862
863
864
865
866
867
868
869
87
870
871
872
873
874
875
876
877
878
879
88
880
881
882
883
884
885
886
887
888
889
89
890
891
892
893
894
895
896
897
898
899
9
90
900
9000
901
902
903
904
905
906
907
908
909
91
910
911
912
913
914
915
917
919
92
920
921
922
924
925
927
928
929
93
930
931
932
934
936
937
939
94
940
941
943
944
945
946
948
949
95
950
951
952
953
954
955
956
958
959
96
960
962
963
965
967
968
969
97
970
972
973
975
976
978
98
980
983
986
987
988
99
990
991
992
994
995
996
997
998
999
:
;
<
=
>
?
@
\
^
_
`
a
aa
aaron
aas
ab
aba
abac
aban
abanovic
abar
abasidski
abasidskog
abat
abata
abba
abbas
abc
abd
abdesthanu
abdic
abdicirao
abdikacije
abdomena
abdul
abdulah
abdullah
abe
abeceda
abecede
abel
abgerufen
abi
abic
abl
abljak
ablon
ablona
ablone
abloni
ablonu
abner
abnormalne
abnormalni
abnormalnih
abnormalno
abnormalnog
abnormalnost
abnormalnosti
abnormalnostima
abo
about
abra
abraham
abram
abrams
abs
absalom
absaloma
abstract
abu
ac
aca
acad
academic
academy
acanthoscelides
access
accessed
account
ace
acer
acetat
acetil
acetiltransferaza
aci
acid
acids
acil
aciltransferaza
acima
acm
act
acta
acth
action
activity
ad
ada
adam
adama
adams
adaptacija
adaptacije
adaptaciji
adaptaciju
adaptation
adapter
adaptirani
adar
ade
adekvatno
adela
adele
adem
adema
adenilat
adenin
adenozin
adh
adha
adhd
adhezije
adheziju
adi
adija
adije
adijska
adijske
adijski
adiju
adil
adis
aditiv
adler
administracija
administracije
administraciji
administraciju
administration
administrativna
administrativne
administrativni
administrativnih
administrativnim
administrativno
administrativnom
administrativnu
administrator
admir
admiral
admirala
adnan
adobe
adolescencije
adolf
adolfa
adp
adrenalin
adrenergic
adresa
adrese
adresu
adria
adrian
adu
advanced
adventure
adventures
advokat
advokata
adz
ae
aerodinamic
aerodrom
aerodroma
aerodromi
aerodromu
aerosmith
aes
af
afarensis
afc
afer
afera
afere
aferu
affairs
afganistan
afganistana
afganistanu
afi
afinitet
afiniteta
afinitetom
afric
africa
african
africi
afrika
afrike
afriku
afro
afroameric
afroamerikanaca
afrodita
after
ag
aga
again
against
agatha
agathe
age
agenata
agencija
agencije
agency
agens
agensi
agent
agenta
agenti
ages
agic
agonist
agonisti
agonita
agresija
agresije
agrokomerc
ah
aha
ahilej
ahist
ahista
ahisti
ahmad
ahmed
ahmeda
ahmet
ahmic
ahovska
ahovske
ahovski
ahovskih
ahovsko
ahovskog
ahovskoj
ahovskom
ahu
ahunbay
ahura
ahure
ai
aid
aida
aids
ain
air
airbus
aires
airesu
airlines
airport
airways
airy
ais
aise
aj
aja
ajan
ajanovic
ajax
ajdovs
aje
ajem
ajen
ajena
ajene
ajeni
ajenih
ajenim
ajeno
ajenog
ajenom
ajet
ajeta
ajeti
ajetu
ajeva
ajeve
ajevi
ajevima
aji
ajima
ajke
ajna
ajne
ajni
ajnic
ajnica
ajnih
ajnija
ajnije
ajniji
ajnijih
ajnijim
ajniju
ajnim
ajno
ajnog
ajnoj
ajnom
ajnost
ajnu
ajr
ajte
aju
ajuc
ak
aka
akademija
akademije
akademiji
akademiju
akademik
akademika
akademska
akademske
akademski
akademskih
akata
akc
akceptor
akcija
akcijama
akcije
akciji
akcijom
akcijski
akcijskog
akciju
ake
akhab
aki
akne
akni
ako
akom
akovec
aks
aksona
aksoni
akt
akta
akte
akti
aktima
aktin
aktina
aktinoida
aktivacija
aktivacije
aktivacijom
aktivaciju
aktivan
aktivator
aktivini
aktivira
aktiviraju
aktivirajuc
aktivirane
aktivirani
aktiviranja
aktiviranje
aktiviranjem
aktivirati
aktivist
aktivista
aktivisti
aktivna
aktivne
aktivni
aktivnih
aktivnim
aktivno
aktivnog
aktivnom
aktivnos
aktivnost
aktivnosti
aktivnostima
aktivnu
aktom
aktualni
aktuelni
aku
akumulacija
akumulacije
akumulaciju
akumulira
akumuliraju
akustic
akutna
akutne
akutni
akutno
akutnog
akvitanije
al
ala
alabama
aladin
alaga
alagic
alah
alaha
alain
alajbegovic
alan
alana
alanin
alanis
alat
alata
alate
alati
alayhim
alba
albanaca
albanci
albanija
albanije
albaniji
albaniju
albanska
albanske
albanski
albanskih
albanskim
albanskog
albanskom
albe
albeno
albert
alberta
alberto
alberts
albu
album
albuma
albume
albumi
albumima
albumin
albumom
albumu
albus
aldehid
aldo
aldosteron
aldosterona
ale
alec
alejandro
alejhi
aleksa
aleksandar
aleksander
aleksandra
aleksandrija
aleksandrije
aleksandriji
aleksandrom
aleksandru
aleksej
aleksije
alel
alela
aleli
alelnih
alen
alergija
alergije
ales
alessandro
alex
alexander
alexandra
alexandre
alexis
alfa
alfabet
alfons
alfonsa
alfonso
alfred
alfreda
algama
alge
algebra
algebre
algi
algoritam
algoritma
algoritmi
alhambra
ali
aliases
alic
alica
alice
align
alija
alijanse
alije
aliju
alilac
alimanovic
alio
alipas
aliti
alive
alj
aljaske
alje
aljehin
alju
alkalnih
alkaloida
alkaloidi
alkil
alkohol
alkohola
alkoholi
alkoholic
alkoholna
alkoholom
all
alla
allah
allaha
allahe
allahom
allahov
allahova
allahove
allahovi
allahovih
allahovim
allahovima
allahovo
allahovog
allahovoj
allahovom
allahovu
allahu
allan
allegro
allen
alliance
allison
allmusic
alma
almir
alo
alojz
alonso
alos
alost
alosti
alpa
alpama
alpe
alpha
alpinista
alpinisti
alpinistic
alpinizam
alpska
alpski
alpsko
alpskom
als
also
alt
alternativa
alternative
alternativna
alternativne
alternativni
alternativnih
alternativno
altica
alto
alu
aluk
aluka
aluminij
aluminija
aluzija
alvin
alz
alzheimerova
alzheimerove
am
ama
amac
amadeus
aman
amar
amaranthus
amatere
amaterski
amazon
amazonas
ambasada
ambasade
ambasador
ambasadora
ambasadori
amber
amblem
amca
amcu
amd
ame
amen
americ
america
american
americi
amerika
amerikanac
amerikanaca
amerikanci
amerike
ameriku
amfiteatar
amg
ami
amidz
amija
amije
amiji
amiju
amil
amin
amina
amini
amino
aminokiselina
aminokiselinama
aminokiseline
aminokiselinska
aminokiselinske
aminokiselinski
aminokiselinskih
aminokiselinu
amiokiselininska
amir
aml
amo
amon
among
amonij
amonijak
amonijaka
amonovih
amor
amorita
amoriti
amos
amp
ampion
ampiona
ampionat
ampionatu
ampioni
ampionska
ampionsku
amr
amra
amsterdam
amsterdamu
amun
amx
amy
an
ana
anabolic
anac
anadolija
anadolije
anadoliji
anali
analitic
analiza
analizama
analize
analizi
analizira
analizom
analizu
analog
analogni
analogno
analysis
ananas
anand
anatolij
anatomija
anatomije
anatomiji
anatomiju
anatomska
anatomske
anatomski
anatomy
anbya
anc
anci
ancient
and
andaluz
andante
anders
andersen
anderson
andersson
andora
andore
andre
andrea
andreas
andrej
andreja
andrew
andrews
andric
andrija
andrije
andrijevica
androgen
androgena
androgene
androgeni
android
andromeda
andrzej
andy
andz
ane
aneksije
anemija
anemije
anemiju
anemone
ang
angaju
angaz
angel
angela
angeles
angelesa
angelesu
angelo
angels
angiosperm
angiosperme
angiospermi
angiotenzin
anglo
angola
angole
angoli
anh
ani
anic
anica
anice
anici
anih
anik
anim
anima
animacija
animacije
animal
animals
animation
anime
animirana
animirane
animirani
animiranih
animiranoj
anin
anina
anion
aniona
anj
anja
anje
anjem
anjima
anju
anka
ankara
anke
anketa
anketi
ankrd
anksioznost
ann
anna
annales
anne
anni
annie
anno
annual
ano
anog
anoj
anom
anomalija
anomalije
anost
anosti
another
anovic
anr
anra
anrova
anru
ans
ansa
ansambl
ansambla
anse
ansi
anska
anske
anski
anskih
anskim
ansko
anskog
anskoj
anskom
ansku
anstava
anstva
anstvima
anstvo
anstvom
anstvu
ansu
anta
antagonist
antagonisti
antarktic
antarktik
antarktika
antarktiku
ante
antena
antene
antholzu
anthony
anthropology
anti
antibiotici
antibiotika
antic
antici
antifas
antigen
antigena
antigene
antigeni
antigenom
antika
antike
antimon
antiohije
antisens
antitela
antitijela
antitijelima
antitijelo
anto
antoaneta
antoine
antologija
anton
antoni
antonija
antonije
antonio
antropogeneze
antropolog
antropologija
antropologije
antropolos
antropolozi
antun
antuna
anu
anubih
anuhu
anus
anusa
any
anz
anđela
anđeli
anđelic
anđeo
ao
aorta
aorte
aortni
ap
apa
apache
aparat
aparata
aparatu
apc
ape
apel
apetita
apg
api
aplikacija
aplikacijama
aplikacije
aplikaciju
apljina
apljine
apljini
apoe
apoenima
apokalipsa
apollo
apolon
apolona
apoptoza
apoptoze
apoptozu
apostol
apostola
app
apple
applications
applied
approach
approx
apr
april
aprila
aprilu
aproksimacija
apside
apsidom
apsolutna
apsolutne
apsolutni
apsolutno
apsolutnu
apsorbira
apsorbiraju
apsorpcija
apsorpcije
apsorpciju
aq
aquilegia
ar
ara
arab
araba
arabidopsis
arabija
arabije
arabiji
arac
aragonije
aragonska
aram
arama
aran
arana
arani
aranz
arao
arap
arapa
arape
arapi
arapska
arapske
arapski
arapskih
arapskim
arapsko
arapskog
arapskom
aravajuc
arbih
arbitraz
arc
arch
archaea
architecture
archive
archived
archives
arci
arctan
ard
arda
are
area
arem
arena
arene
areni
arenice
arenja
arenje
ares
arevic
arezultati
arg
argentina
argentine
argentini
argentinski
argentinu
arginin
arginina
argon
argona
argument
argumente
argumenti
arhaic
arhanđela
arheolog
arheologija
arheologije
arheolos
arheolozi
arhipelag
arhipelaga
arhipelagu
arhitekata
arhitekt
arhitekta
arhitekte
arhitekti
arhitektonske
arhitektonski
arhitektonskih
arhitektonskim
arhitektonskog
arhitektura
arhitekture
arhitekturi
arhitekturu
arhiv
arhiva
arhive
arhivu
ari
aric
arif
arija
arije
aril
arima
aris
aristotel
aritmetic
aritmija
aritmije
arizona
arka
arkas
arke
arki
arko
arktic
arku
arm
armenija
armenije
armeniji
armenski
armija
armije
armiji
armijom
armiju
armin
arms
armstrong
army
arn
arnautalic
arnautovic
arne
arnold
arobnjac
arobnjaci
arobnjak
arobnjaka
arolija
arolije
aroliju
arom
aromatic
aromatski
arondisman
arondismanu
around
arp
array
arrest
ars
arsen
arsena
arsenal
arsenala
arska
arske
arski
arskih
arskim
arsko
arskog
arskom
arslanagic
arstva
arstvo
arstvom
art
artakserksa
arte
artemida
arterija
arterije
arterijske
arteriju
arteriola
arteriole
arthur
arthura
article
articles
artiljerija
artiljerije
artiljerijska
artiljerijske
artiljerijski
artist
artritis
artritisa
arts
artur
aru
arđi
as
asa
asd
ash
asha
ashaba
ashabi
ashley
asia
asian
asija
asim
asimetric
asimov
asirije
asistencija
asistencije
asistent
asistenta
asn
asna
asne
asni
asnika
asno
asnog
asocijacija
asocijacije
asopis
asopisa
asopisi
asopisima
asopisu
asova
asove
asp
asparagales
asparagin
asparaginska
aspartat
aspekata
aspekt
aspekta
aspekte
aspekti
aspektima
aspektu
asperula
aspidimorpha
aspirin
aspirina
asplenium
aspx
assembly
assessment
associated
associates
association
ast
asta
astana
aste
aster
asteraceae
asteroid
asteroida
asteroidi
asti
astih
astim
astme
asto
astog
astom
aston
astro
astronaut
astronauta
astronom
astronoma
astronome
astronomi
astronomical
astronomija
astronomije
astronomiji
astronomiju
astronomska
astronomske
astronomski
astronomskih
astronomy
astu
asturije
asu
at
ata
ataksija
atatu
ate
ateisti
ateistic
ateizam
ateizma
atena
atene
ateni
atentat
atentata
atentatu
athletic
ati
atic
atina
atine
atini
atinu
atkins
atlanta
atlanti
atlantic
atlantika
atlantis
atlantski
atlantskog
atlas
atle
atletic
atletici
atletski
atletskog
atm
atmosfera
atmosfere
atmosferi
atmosferski
atmosferskog
atmosferu
atom
atoma
atome
atomi
atomima
atomska
atomske
atomski
atomskih
atomskim
atomsko
atomskog
atomsku
atomu
ator
atora
atorima
atoru
atp
atpaza
atrakcija
atrakcije
atriplex
atrofija
attack
au
audi
audiciju
audio
audiozapisom
audrey
auf
aug
august
augusta
auguste
augustin
augustu
aur
aureus
auri
aurora
aus
auschwitz
austin
australia
australian
australija
australije
australiji
australijska
australijske
australijski
australiju
australis
australopithecus
austria
austrija
austrijanci
austrije
austriji
austrijom
austrijska
austrijske
austrijski
austrijskih
austrijskim
austrijsko
austrijskog
austrijskoj
austrijskom
austrijsku
austriju
austro
austrougarska
austrougarske
austrougarskog
aut
auta
autarijati
autentic
author
authorlink
authors
autistic
autizam
autizma
autizmom
auto
autobus
autobusa
autobusi
autocesta
autoceste
autogol
autogolovi
autohtona
autohtone
autohtoni
autohtonih
automat
automata
automatska
automatske
automatski
automatskim
automatsko
automatskog
automatsku
automobil
automobila
automobile
automobili
automobilska
automobilske
automobilu
autonomas
autonomija
autonomije
autonomiju
autonomna
autonomne
autonomni
autonomnih
autonomnim
autonomnog
autonomnoj
autonomnu
autoput
autoputa
autoputeva
autoputevi
autor
autora
autore
autori
autorica
autorima
autoritet
autoriteta
autorska
autorskih
autorskim
autorsko
autorskog
autoru
autosomno
av
ava
avac
available
avajte
avaju
avajuc
avala
avale
avali
avalo
avam
avama
avamo
avan
avana
avane
avani
avanja
avanje
avanjem
avanjima
avanju
avano
avantura
avanture
avanturistic
avao
avara
avari
avas
avate
avatelja
avati
avaz
avdaga
avdic
avdo
ave
avenue
avgust
avgusta
avgustu
avi
avijacija
avijacije
avina
avine
avinom
avinu
avio
aviokompanija
avion
aviona
avione
avioni
avionima
avionom
avionske
avionu
aviv
avljana
avljani
avljanin
avljanstva
avljanstvo
avna
avne
avni
avnici
avnih
avnik
avnim
avno
avnog
avnoj
avnom
avnosti
avnu
avom
avs
avsenik
avski
avskog
avu
aw
award
awards
away
ax
axel
az
aza
azerbejdz
azija
azije
aziji
azijske
azijski
azijskih
azijskim
azijskog
azijskom
aziju
azil
azim
aziz
azkabana
azma
azra
b
ba
baba
babic
babilon
babilona
babilonije
baby
bac
baca
bacac
bacanja
bacanje
bacanju
bach
bacha
baci
bacila
bacili
bacio
baciti
back
background
bad
baden
bafta
bagdad
bagdada
bagdadu
bahrein
bahreina
bahreinu
bailey
baill
baja
bajka
bajke
bajram
bajramovic
bajrovic
baka
bakar
baker
bakra
bakterija
bakterijama
bakterije
bakterijske
bakterijski
bakterijskih
baku
bakuu
bal
bala
balada
balade
balam
balance
balas
bale
balet
baleta
bali
balic
baliosus
balistic
balkan
balkana
balkans
balkanske
balkanski
balkanskih
balkanskim
balkanskog
balkanskom
balkanu
ball
bals
baltic
baltimore
baly
bama
ban
bana
banaka
banana
banane
banat
banata
banci
band
banda
bande
bandi
bang
bangkok
banglades
bani
banic
banja
banjaluc
banjaluci
banje
banjoj
banju
bank
banka
bankama
bankarstvo
banke
banks
banku
banovic
banovina
banovine
bantu
banu
bao
baptiste
bar
bara
baranje
baranjska
baranjskoj
baraz
barbara
barcelona
barcelone
barceloni
barcelonu
bare
barem
bari
barij
barija
barijera
barijere
barijeru
barilovic
barnard
barnes
baroka
barokni
baron
barona
barrett
barry
barton
baru
barut
baruta
bas
base
based
basel
baselu
basic
basiprionota
basis
basist
basista
basketball
basler
bass
basso
bat
bataljon
bataljona
baterija
baterije
batman
baton
battista
battle
bauer
bavarska
bavarske
bavarski
bavarskoj
bave
bavi
bavila
bavili
bavio
baviti
bavljenja
bay
bayer
bayern
baz
baza
bazama
baze
bazen
bazena
bazeni
bazenu
bazi
bazic
bazilici
bazilika
bazilike
bazira
baziran
bazirana
bazirane
bazirani
bazirano
bazna
bazne
bazni
baznih
baznim
baznog
baznom
bazom
bazu
bb
bbc
bbs
bc
bcg
bcl
bcr
bd
bdfutbol
bdnf
bdp
be
beach
beat
beatles
beatlesa
beba
bebe
bebek
bec
beck
becker
bedem
bedema
bedemi
bee
been
beethoven
beethovena
before
beg
bega
beganovic
begic
begin
begova
begove
begovic
behar
behind
bei
being
bejtic
bejzbol
bek
beka
bekovi
bekr
bel
bela
bele
belgija
belgije
belgiji
belgijske
belgijski
belgiju
beli
bell
bella
belo
ben
bena
benac
bend
benda
bendom
bendova
bendu
bene
benedikt
beni
benici
benicima
benigni
benih
benik
benika
benike
benim
benin
benjamin
benjamina
benkovac
bennett
benny
beno
benog
benoj
benom
benth
benu
benz
benzen
beograd
beograda
beogradska
beogradske
beogradski
beogradsko
beogradskog
beogradskoj
beogradskom
beogradu
ber
berane
berberovic
bercht
berenikina
berg
berger
bergerov
bergerovom
bergman
berilij
berilija
berkeley
berkovic
berlin
berlina
berlinski
berlinskog
berlinskom
berlinu
bernard
bernardo
bernhard
berry
bert
berze
berzi
bes
beskic
beskonac
beskuc
besmrtnici
besplatan
besplatna
besplatni
besplatno
bespomoc
best
bet
beta
betel
beton
betona
better
betty
betula
between
beverly
beyonce
beyond
bez
bezbjednost
bezbjednosti
bezbojna
bezboz
bezbriz
bezbroj
bezjac
beznac
bezuspjes
bf
bg
bgc
bh
bhrt
bi
biatlon
biatlonac
biatlonaca
biatlonca
biatlonci
biatlonka
biatlonu
biber
biblija
biblije
bibliji
biblijski
bibliografija
bibliotec
biblioteci
biblioteka
biblioteke
biblioteku
bic
bici
biciklistic
biden
big
bigourdan
bih
bihac
bihi
bijah
bijahu
bijas
bijase
bijasmo
bijaste
bijeg
bijega
bijegu
bijela
bijelaca
bijele
bijeli
bijelih
bijelim
bijeljina
bijeljine
bijeljini
bijelo
bijelog
bijeloj
bijelom
bijelu
bijes
bijesa
bik
bika
bikova
bil
bila
bilans
bilateralni
bilbao
bile
bilec
biles
bili
bilja
biljaka
biljana
biljci
bilje
biljes
biljesku
biljez
biljka
biljkama
biljke
biljku
biljna
biljne
biljni
biljnih
biljnim
biljnog
biljnom
biljojeda
bill
billa
billboard
billie
billy
bilo
bilogorska
bilogorskoj
bima
bin
bina
binarne
binarni
binding
bindon
bine
bing
bingo
bini
bint
binu
bio
bioantropologija
biochem
biochemistry
biodiverzitet
biograd
biografija
biografije
biografski
biography
biohemic
biohemija
biohemiji
biohemijske
biohemijski
biohemijskih
biol
biolog
biological
biologija
biologije
biologiji
biologiju
biology
biolos
biolozi
biomarker
biomase
biomolekule
bionjac
biopsija
biopsije
bioraspoloz
bios
biosinteza
biosinteze
biosintezi
biosintezu
biotechnology
biotehnologija
biotehnologiju
biotin
bira
birac
biraju
birali
biran
birani
birano
birao
birati
bird
birmingham
biro
biroa
birth
bis
biser
bisera
bisfosfat
bishop
biskup
biskupa
biskupi
biskupija
biskupije
bismo
bista
biste
bistra
bistrica
bit
bita
bitaka
bitan
bitci
biti
bitka
bitkama
bitke
bitki
bitku
bitna
bitne
bitni
bitnih
bitno
bitnu
biva
bivaju
bivs
bizanta
bizantijci
bizantije
bizantijska
bizantijske
bizantijski
bizantijskih
bizantijskim
bizantijsko
bizantijskog
bizantijskoj
bizantijskom
bizantijsku
bizantski
bizantskog
bizmut
bizmuta
biznis
biznismen
bjelanc
bjelas
bjelorusija
bjelorusije
bjelorusiji
bjeloruski
bjelovar
bjelovarsko
bjes
bjez
bjo
bk
bl
black
blackburn
blackwell
blag
blaga
blagaj
blagajnama
blagdan
blage
blagi
blagim
blago
blagoje
blagojevic
blagom
blagoslov
blagoslovi
blagoslovljen
blagostanja
blagu
blair
blake
blanca
blas
blast
blata
blato
blaz
blic
blind
bliska
bliske
bliski
bliskih
bliskim
blisko
bliskog
bliskoistoc
bliskoj
bliskom
blisku
bliz
blizak
blizanac
blizanaca
blizanci
blizina
blizine
blizini
blizinu
blizu
bljes
block
blog
blogspot
blok
bloka
blokada
blokade
blokadu
blokatori
bloke
blokira
blokiraju
blokiran
blokiranje
blokirati
blokova
blokove
blokovi
bloku
blood
blot
blu
blue
blues
blume
bm
bmatrix
bmi
bmp
bmw
bn
bnp
bo
board
boas
bob
boba
boban
bobby
bobo
bobovac
boc
boca
boce
bocvana
bod
boda
bodez
bodlje
bodo
bodova
bodovanja
bodovanje
bodove
bodovi
body
boeing
bog
boga
bogat
bogata
bogatas
bogate
bogati
bogatih
bogatim
bogato
bogatog
bogatoj
bogatom
bogatstva
bogatstvo
bogatstvu
bogatu
bogdan
bogdanovic
bogic
boginja
boginje
bogom
bogorodica
bogorodice
bogosluz
bogova
bogove
bogovi
bogovima
bogu
boheman
bohemian
boiss
boj
boja
bojali
bojama
bojan
bojanovski
bojao
bojati
boje
bojec
bojenja
bojenje
boji
bojim
bojis
bojite
bojna
bojne
bojni
bojnom
bojom
bojte
boju
bok
boka
boki
boks
bokser
boku
bol
bola
bold
boldsymbol
boldu
boles
bolesna
bolesni
bolesnici
bolesnik
bolesnika
bolest
bolestan
bolesti
bolestima
boleyn
boli
bolid
bolida
bolidi
bolivija
bolivije
bolja
bolje
boljeg
bolji
boljih
boljim
boljs
bolju
bolna
bolnic
bolnica
bolnice
bolnici
bolnicu
bolno
bolova
bolove
bolovi
bolt
bolus
bom
bomba
bombardera
bombardiranja
bombardovanja
bombardovanje
bombas
bombe
bombi
bombu
bon
bona
bonaparte
bond
bone
bones
bonn
bono
bonus
book
books
booksources
boolean
boom
booth
bor
bora
borac
boraca
boravak
borave
boravi
boravili
boravio
boravis
boraviti
boravka
borba
borbama
borbe
borbena
borbene
borbeni
borbenih
borbenim
borbeno
borbenog
borbi
borbom
borbu
borca
borci
borcima
border
bore
bori
boric
borila
borilac
borile
borili
borilis
borio
boris
borisa
borislav
boriti
borivoj
born
borneo
borova
borowiec
borussia
bos
bosanac
bosanc
bosanci
bosanska
bosanske
bosanski
bosanskih
bosanskim
bosansko
bosanskog
bosanskohercegovac
bosanskoj
bosanskom
bosansku
bosiljevo
bosna
bosnae
bosne
bosni
bosnia
bosnian
bosnien
bosnom
bosnu
boston
bostona
bostonu
botanic
botanical
botanici
botanika
botany
both
botrychium
botryonopa
bottas
bottom
boulevard
bowman
box
boy
boyle
boys
boz
bp
br
bra
brac
brad
brada
bradavica
bradavice
brade
bradley
bradu
brain
brak
braka
brake
brakom
brakova
brakovi
braku
brana
brand
brandenburg
brando
brane
brani
branic
branila
branilac
branimir
branio
branioca
branioci
branislav
branitelja
braniti
branka
branko
brankovic
bras
brassica
brat
brata
brate
bratic
bratislava
bratom
bratstva
bratstvo
bratu
bratunac
braun
bravo
brazda
brazdanje
brazde
brazil
brazila
brazilska
brazilske
brazilski
brazilu
brc
brca
brda
brdima
brdo
brdska
brdske
brdsko
brdu
break
breg
bregovic
brejk
brejkova
brembo
bremen
brend
brenda
brennan
bres
brest
brestovac
bretanje
brett
brez
breza
brezje
breznica
brezovica
brian
briana
bridge
brief
brien
briga
brigada
brigade
brigadi
brigadom
brigadu
brige
bright
brigu
brijeg
brijega
brijegu
brill
brine
brinu
brinuti
bris
brisanje
briselu
bristol
britain
britanaca
britanci
britancima
britanija
britanije
britaniji
britaniju
britannica
britanska
britanske
britanski
britanskih
britanskim
britansko
britanskog
britanskoj
britanskom
britansku
british
britney
britton
briz
brkic
broc
brock
brod
broda
brodogradilis
brodom
brodova
brodove
brodovi
brodovima
brodski
brodsko
brodu
broj
broja
brojac
brojala
brojc
broje
brojem
brojeva
brojeve
brojevi
brojevima
broji
brojka
brojke
brojku
brojna
brojne
brojni
brojnih
brojnim
brojno
brojnost
brojnosti
broju
broken
brom
broma
bromid
bromus
bronc
bronce
bronza
bronzana
bronzane
bronzani
bronzanih
bronzano
bronzanog
bronzanom
bronzanu
bronze
brooklyn
brooks
bros
brother
brothers
brown
browning
broz
broza
brs
bru
bruce
brugada
brugge
bruno
brus
bruto
bruxelles
bruxellesu
bruyns
bryan
brz
brza
brze
brzi
brzih
brzim
brzina
brzinama
brzine
brzini
brzinom
brzinu
brzo
brzog
brzom
brzu
brđani
bs
bsd
bt
bu
buba
bubanj
bube
bubnjar
bubnjara
bubnjeve
bubnjevi
bubreg
bubrega
bubrege
bubregu
bubrez
bubrezi
bubrezima
buc
buck
budapest
buddy
bude
budem
budemo
budes
budete
budi
budimpes
budistic
budite
budizam
budizma
budu
buduc
budva
budz
buenos
buffalo
bug
bugara
bugari
bugarska
bugarske
bugarski
bugarskih
bugarskog
bugarskoj
bugarskom
bugarsku
bugojna
bugojno
bugojnu
buha
buhari
build
building
buje
buk
buka
buke
bukovac
bukovica
bukures
bukva
bukve
bull
bulletin
bun
buna
bunar
bunara
bundesliga
bundeslige
bundesligi
bune
bunker
buran
bureau
burgundije
burke
burkill
burkina
burma
burno
burns
burton
burz
bus
bush
business
busovac
but
butan
butch
butil
butler
butmir
button
buybook
buz
buzet
buzeta
bwv
bx
bxc
by
byron
byzantine
byzantium
c
ca
cache
cad
caf
cafonline
cah
caine
cak
calcio
california
call
called
callispa
callistola
callosum
calvin
cam
cambridge
cambridgeu
camera
cameron
camille
camp
campanula
campbell
camus
can
canada
canadian
canal
canavalia
cancellariae
cancer
cannesu
cantrell
cao
cap
capablanca
cape
capital
car
cara
carbohydrate
carbon
card
care
carem
careva
careve
carevi
carica
carice
carigrad
carigrada
carigradski
carigradu
carina
carine
carl
carla
carlo
carlos
carlsen
carlu
carol
carolina
caroline
carrie
carska
carske
carski
carskih
carskog
carskoj
carskom
carsku
carstava
carstva
carstvo
carstvom
carstvu
carter
cartera
caru
caryophyllales
cas
casa
casanova
case
cases
cassida
cassini
castle
castro
cat
catalogue
category
catherine
cause
cav
cavalier
cavalli
cave
cazin
cazina
cazinu
cb
cbd
cbs
cc
cca
ccdc
ccds
cck
ccl
ccr
cd
cdc
cdk
cdnk
cdot
cdots
cds
cdu
ce
ceca
cecil
celine
celje
celju
cell
cells
celtic
celticsa
celuloza
celuloze
cementa
cen
census
cent
centar
centara
centaurea
centauri
center
centimetara
centra
central
centralna
centralne
centralni
centralnih
centralnim
centralno
centralnog
centralnoj
centralnom
centralnu
centre
centri
centrima
centrom
centru
centurion
century
cep
cephaloleia
ceremonija
ceremonije
ceremoniji
ceremoniju
ceres
cerevisiae
cerij
cerija
cerknica
cest
cesta
cestama
ceste
cesti
cestom
cestovni
cestu
cet
cetingrad
cetinje
cezar
cezara
cezij
cf
cfm
cfrac
cg
cgi
cgmp
ch
cha
chaetocnema
chain
chains
chalepus
challenge
challenger
chamberlain
champion
champions
championship
championshipa
championships
championshipu
chan
chandler
chang
change
channel
chao
chaplin
chapman
chapter
chapuis
characterization
charcot
charidotella
charidotis
charles
charlesa
charlie
charlotte
chart
chase
chat
che
checklist
chelsea
chelymorpha
chem
chemical
chemie
chemistry
chen
cheng
chenopodium
cherry
chess
chevrolat
chi
chicaga
chicago
chicagu
child
children
chile
china
chinese
chip
chiridopsis
chlamydomonas
cho
choice
chp
chris
chrisa
christ
christian
christiana
christie
christina
christine
christmas
christoph
christopher
chromosome
chronicle
chu
chuck
church
churchill
ci
cia
cicero
ciceron
cid
cifre
cigareta
cigle
cijela
cijele
cijeli
cijelih
cijelim
cijelo
cijelog
cijeloj
cijelom
cijelosti
cijelu
cijena
cijene
cijeni
cijenjen
cijenu
cijepa
cijepanja
cijepanje
cijepanjem
cijev
cijevi
cijevima
cik
ciklic
ciklin
ciklus
ciklusa
cikluse
ciklusi
ciklusu
cilija
cilindar
cilindara
cilindra
cilindric
cilj
cilja
ciljaju
ciljane
ciljani
ciljanje
ciljem
ciljeva
ciljeve
ciljevi
ciljevima
ciljne
ciljni
ciljnih
cilju
cima
cinema
cink
cinka
cinkovih
cinkovog
cinturato
cio
cipele
circ
circle
circuit
cirkonij
cirkonija
cirkulacije
cirkulaciji
cirkulaciju
cirkulirajuc
cirkus
cis
cista
ciste
cistein
cisteina
cisteinom
cistic
citat
citati
cite
cities
citira
citogenetic
citogenetika
citohrom
citohroma
citokin
citokina
citokini
citologija
citoplazmatski
citoplazme
citoplazmi
citoplazmu
citoskeleta
citosolu
citotoksic
citozin
citrat
citrus
city
cityja
cityju
ciudad
civil
civila
civile
civili
civilima
civilizacija
civilizacije
civilizaciju
civilization
civilna
civilne
civilni
civilnih
civilnim
civilno
civilnog
civilnu
civitas
cjelina
cjeline
cjelini
cjelinu
cjelokupna
cjelokupne
cjelokupni
cjelokupno
cjelokupnog
cjelokupnoj
cjelokupnu
cjelosti
cjevaste
cjevc
ck
cken
cl
claire
clanak
clara
clarence
clark
clarka
clarke
class
classic
classical
classification
claude
claudia
claudio
cle
clematis
cleveland
cliff
clifford
climate
clin
clinical
clinton
cln
close
cloud
clouzot
club
cm
cn
cnn
cns
co
coa
coat
cobiss
coca
code
codex
coelaenomenodera
cohen
col
cold
cole
coleman
coli
colin
collection
college
collins
color
colorado
colors
colt
columbia
column
columns
com
combretum
come
comes
command
commission
committee
common
commons
commonwealth
commonwealtha
communication
communications
communis
community
comp
compact
companion
company
comparative
complete
complex
comprehensive
compton
computer
computing
con
concacaf
concepcio
concert
condita
conference
conflict
cong
congress
conmebol
connecticut
connor
conrad
cons
conservation
constellation
conte
contemporary
content
context
continental
continuo
control
convention
cooh
cook
cool
cooper
copa
coppola
coptocycla
coram
core
corelli
cornell
corporation
corpus
cos
cosh
costa
cot
could
council
counter
country
county
course
court
cov
covid
cox
cp
cpg
cpt
cpu
cqd
cr
craig
crane
crataegus
crazy
crc
cre
creative
creek
crepis
cres
crijeva
crijevima
crijevne
crijevo
crijevu
crikvenica
crime
criminal
crisis
cristiano
critical
crkava
crkva
crkvama
crkve
crkvena
crkvene
crkveni
crkvenih
crkvenim
crkveno
crkvenog
crkvenom
crkvenu
crkvi
crkvina
crkvom
crkvu
crn
crna
crnac
crnaca
crnci
crne
crni
crnih
crnim
crno
crnog
crnogoraca
crnogorci
crnogorska
crnogorske
crnogorski
crnogorskog
crnoj
crnojevic
crnom
crnu
cro
croatia
croatian
cronquist
cropped
cross
crotch
crown
crp
crta
crtac
crtanje
crte
crtez
cru
cruz
crv
crva
crven
crvena
crvene
crveni
crvenih
crvenilo
crvenim
crveno
crvenog
crvenoj
crvenom
crvenu
crvi
crvuljka
cry
cryptocephalus
crystal
cs
csf
csi
cska
css
ct
ctor
cu
cuddy
cultural
culture
cum
cummings
cup
cupa
cupu
curenje
curie
current
curry
curtis
cut
cuvier
cv
cvasti
cvetkovic
cvijec
cvijet
cvijeta
cvjeta
cvjetanja
cvjetanje
cvjetne
cvjetni
cvjetnica
cvjetnice
cvjetova
cvjetove
cvjetovi
cvjetovima
cvrc
cw
cx
cxcl
cxd
cxorf
cycas
cycle
cyp
cyr
cyril
cyrtonota
cys
cz
d
da
dabar
dabis
dac
dactylispa
dade
dadne
dado
dados
dag
dah
daha
daily
daisy
daj
daje
dajem
dajte
daju
dajuc
dakle
dakota
dala
dale
daleka
daleke
daleki
daleko
dalekog
dalekom
dali
dalj
dalja
dalje
daljeg
daljem
dalji
daljim
daljine
daljinu
daljnja
daljnje
daljnjeg
daljnjem
daljnji
daljnjih
daljnjim
daljnju
dalju
dallas
dalmacija
dalmacije
dalmaciji
dalmaciju
dalmati
dalmatinska
dalmatinske
dalmatinski
dalmatinskoj
dalo
dam
dama
damask
damaska
damasku
dame
damin
damir
damon
damu
dan
dana
danak
danas
dance
danci
dancing
dane
dani
danica
daniel
daniela
danih
danijel
danijela
danilo
danima
danju
danny
dano
danog
danom
dans
danska
danske
danski
danskog
danskoj
danskom
dansku
dante
danu
dao
dar
dare
darija
darije
dario
dark
darkness
darko
darovao
darove
darovi
darovima
daruvar
darwin
das
dat
data
database
date
dati
datih
datira
datiraju
datiranja
datiranje
dato
datog
datoj
datom
datoteka
datoteke
datu
datum
datuma
datumi
datura
davala
davali
davanja
davanje
davanjem
davao
davati
dave
david
davida
davidom
davidson
davies
davis
davnina
davno
davor
davorin
davud
davuda
davudov
davudova
davudu
davy
dawn
dawson
day
days
dayton
daz
db
dc
dd
ddr
ddx
de
deacon
dead
deal
deaminaza
dean
death
debata
debate
debela
debeli
debelim
debelo
debelog
debelom
debi
debitantski
debitirao
debitovao
deblji
debljina
debljine
debljinu
dec
decembar
december
decembra
decembru
decenija
decenijama
decenije
deceniji
deceniju
dede
dedic
dedo
deep
default
defekt
defekte
defekti
defence
defense
deficiency
deficit
definicija
definicije
definiciji
definiciju
definira
definiraju
definiran
definirana
definirane
definirani
definiranje
definirano
definirao
definirati
definis
definisan
definisana
definisane
definisano
definisati
definition
definitivno
deformacija
deformacije
degeneracija
degeneracije
degradacije
degradaciju
dehidrataza
dehidrogenaza
dehidrogenaze
dei
dejan
dejean
dejstva
dejstvo
dejtonskog
dekan
dekarboksilaza
deklaracija
deklaracije
deklaraciju
dekoracija
dekoracije
dekret
dekretom
del
dela
delatnosti
delaware
delawarea
delecija
delecije
delecijom
delegacija
delegacije
delegat
delegata
delegati
delfin
delhi
delic
delisle
dell
della
delnice
delo
delta
delte
delti
deluje
dem
demencija
demetrije
demo
democracy
democratic
demografija
demokrata
demokrati
demokratija
demokratije
demokratiju
demokratska
demokratske
demokratski
demokratskih
demokratskim
demokratskog
demokratskoj
demokratskom
demokratsku
demon
demona
demonstracija
demonstracije
demosten
den
dendritske
denis
dennis
densa
denver
deo
departman
departmana
department
deportacija
deportacije
deportivo
depresija
depresije
depresiju
der
dera
derbi
derby
derek
deri
derivacija
derivat
derivata
derivati
derventa
dervente
derventi
dervis
des
desanka
description
deset
deseta
desetak
desetaka
desete
deseti
desetina
desetine
desetljec
desetogodis
desi
design
desila
desilo
desinic
desio
desiti
desktop
desna
desne
desni
desnic
desno
desnog
desnoj
desnom
desnu
despot
despota
destinacija
destinacije
destiny
det
detail
details
detalj
detalja
detaljan
detalje
detalji
detaljima
detaljne
detaljnije
detaljno
detekcija
detekcije
detekciju
detektiv
detektiva
detektor
deterdz
detroit
deuteronom
deutsch
deutsche
deutscher
deutschland
deva
deve
devedesetih
development
developmental
devet
deveta
devete
deveti
devetnaest
deveto
devetog
devil
dez
dezoksi
df
dfb
dg
dh
dha
dhea
dht
di
diabetes
diagram
diamond
diana
diane
dic
dicer
dick
dicladispa
dicti
dictionary
dicto
dictum
dictus
did
die
diego
diels
dies
diesel
dietrich
diferencijacija
diferencijacije
diferencijaciji
diferencijaciju
diferencijalna
diferencijalne
diferenciraju
diferencirati
different
difosfat
difuzija
difuzije
digao
digimon
digital
digitalna
digitalne
digitalni
digitalnih
digitalnim
digitalno
digni
digos
dijabetes
dijabetesa
dijabetesom
dijabetic
dijafragme
dijagnostic
dijagnostici
dijagnosticira
dijagnosticiran
dijagnosticiranje
dijagnosticirati
dijagnostika
dijagnoza
dijagnoze
dijagnozi
dijagnozom
dijagnozu
dijagram
dijagrama
dijagramu
dijalekata
dijalekt
dijalekta
dijalekti
dijalog
dijaloga
dijamant
dijamantne
dijela
dijele
dijeli
dijelila
dijelili
dijelio
dijeliti
dijeljenja
dijeljenje
dijeljenjem
dijelom
dijelova
dijelove
dijelovi
dijelovima
dijelu
dijete
dikotiledone
diktator
diktature
diljem
dim
dima
dimenzija
dimenzijama
dimenzije
dimenziju
dimer
dimera
dimetil
dimiti
dimitrija
dimitrije
dimitrijevic
dimorfizam
din
dina
dinama
dinamic
dinamika
dinamike
dinamiku
dinamo
dinar
dinara
dinarida
dinastic
dinastija
dinastije
dinastiji
dinastijom
dinastiju
dine
ding
dini
dinic
dino
dinosaura
dinska
dinskoj
dinu
dio
dioba
diobe
diobenog
diobu
dioklecijan
dioksid
dioksida
dioksigenaza
dion
dionic
dionica
dionice
dioscorea
diploidni
diploma
diplomat
diplomata
diplomatska
diplomatske
diplomatski
diplomatskih
diplomatskim
diplome
diplomirala
diplomirao
diplomu
diptera
dire
direct
directx
direktan
direktna
direktne
direktni
direktnih
direktnim
direktno
direktnog
direktnoj
direktnom
direktnu
direktor
direktora
direktorica
dirigent
dirigenti
dirk
dis
disajnih
disanja
disanje
disc
disciplina
disciplinama
discipline
disciplini
disciplinu
discogs
discomorpha
discovery
disease
diseases
disekcija
disertacija
disertaciju
disfunkcija
disfunkcije
disfunkciju
disk
diska
diskografija
diskografske
diskoton
diskova
diskovi
diskriminacija
diskriminacije
diskriminaciju
disku
diskusija
diskusije
disney
disocijacije
disorder
disorders
display
displazija
distalna
distalne
distalni
distalno
distalnom
distance
distribucija
distribucije
distribuciji
distribuciju
distribuira
distribution
district
distrikt
distrikta
distrikti
distriktu
distrofija
distrofije
disulfid
disulfidne
div
diva
divac
divan
divergencije
diversa
diversity
divic
divisio
division
divizija
divizije
diviziji
diviziju
divlja
divljac
divlje
divljeg
divlji
divljih
divljim
divljini
divove
divovi
divovske
diz
dizajn
dizajna
dizajner
dizajnera
dizajniran
dizajnirana
dizajnirane
dizajnirani
dizajnirao
dizajnom
dizajnu
dizanje
dizdar
dizdarevic
dizel
dizelski
dj
djec
djeca
djece
djeci
djecom
djecu
djed
djeda
djela
djelatnost
djelatnosti
djelatnostima
djelic
djelima
djelimic
djeljiv
djelo
djelokrug
djelom
djelomic
djelovala
djelovale
djelovali
djelovanja
djelovanje
djelovanjem
djelovanju
djelovao
djelovati
djelu
djeluje
djeluju
djelujuc
djeteta
djetetom
djetetu
djetinjstva
djetinjstvo
djetinjstvu
djevic
djevica
djevice
djevojac
djevojaka
djevojc
djevojka
djevojke
djevojkom
djevojku
dk
dl
dlac
dlaka
dlakavost
dlakavosti
dlake
dlaku
dlan
dlijeto
dm
dmitrij
dn
dna
dnevna
dnevne
dnevni
dnevnih
dnevnik
dnevnika
dnevniku
dnevnim
dnevno
dnevnog
dnevnom
dnjepar
dnjepra
dnk
dno
dns
dnu
do
dob
doba
dobar
dobara
dobavljac
dobi
dobija
dobijaju
dobijali
dobijamo
dobijanja
dobijanje
dobijao
dobije
dobijen
dobijena
dobijene
dobijeni
dobijenih
dobiju
dobila
dobile
dobili
dobilo
dobio
dobit
dobitak
dobiti
dobitnica
dobitnici
dobitnik
dobitnika
dobiva
dobivaju
dobivene
dobivs
doboj
doboja
dobojskog
doboju
dobra
dobrava
dobre
dobretic
dobri
dobrih
dobrim
dobrima
dobro
dobroc
dobrodos
dobrog
dobroj
dobrom
dobrova
dobrovoljac
dobrovoljaca
dobrovoljno
dobru
dobu
doc
docenta
docs
doctor
documents
doda
dodaci
dodacima
dodaje
dodaju
dodajuc
dodali
dodan
dodana
dodao
dodatak
dodataka
dodati
dodatka
dodatkom
dodatku
dodatna
dodatne
dodatni
dodatnih
dodatnim
dodatno
dodatnog
dodatnom
dodatnu
dodavanja
dodavanje
dodavanjem
dodavati
dodijeli
dodijelila
dodijelili
dodijelio
dodijeliti
dodijeljen
dodijeljena
dodijeljene
dodijeljeno
dodik
dodir
dodira
dodirne
dodiru
dodiruje
dodjela
dodjele
dodjeli
dodjeljuje
dodjeljuju
dodjelu
dodus
does
dog
događa
događaj
događaja
događaje
događajem
događaji
događajima
događaju
događanja
dogodi
dogodila
dogodile
dogodili
dogodilo
dogodio
dogoditi
dogovor
dogovora
dogovoreno
dogovorili
dogovorio
dogovoru
dohi
dohodak
dohotka
doi
doigravanja
doigravanje
doigravanju
doista
dojam
dojenac
dojenc
dojke
dok
dokaz
dokaza
dokazali
dokazana
dokazano
dokazao
dokazati
dokaze
dokazi
dokazima
dokazuje
dokazuju
dokle
doktor
doktora
doktorat
doktori
doktorirao
doktorsku
doktrina
doktrine
doktrinu
dokumenata
dokument
dokumenta
dokumentacija
dokumentacije
dokumentaciju
dokumentarac
dokumentarni
dokumente
dokumenti
dokumentima
dokumentu
dol
dolac
dolar
dolara
dolaska
dolaskom
dolasku
dolazak
dolaze
dolazec
dolazi
dolazila
dolazili
dolazilo
dolazio
dolaziti
dole
dolenja
dolenje
dolina
dolinama
doline
dolini
dolinom
dolinu
dolje
dolores
dom
doma
domac
domain
domaljevac
domen
domena
domene
domeni
domenico
domenima
domenom
domenu
domet
dometa
dominacija
dominacije
dominaciju
dominantan
dominantna
dominantne
dominantni
dominantnim
dominantno
dominantnog
dominantnom
domini
dominic
dominique
dominira
dominiraju
dominirala
dominirali
dominirao
domino
domom
domorodac
domorodaca
domova
domove
domovi
domovima
domovina
domovine
domovini
domovinu
domu
domz
don
donald
donedavno
donekle
dones
donese
donesen
donesena
donesene
donesos
dong
donijela
donijele
donijeli
donijelo
donijeti
donio
donja
donje
donjeg
donjem
donji
donjih
donjim
donjoj
donju
donor
donora
donos
donose
donosec
donosi
donosio
donositi
doo
doors
dopamin
dopamina
dopisnik
dopisnog
doprinijela
doprinijeli
doprinijelo
doprinijeti
doprinio
doprinos
doprinosa
doprinose
doprinosi
doprinosu
dopunite
dopuniti
dopunska
dopus
dopusti
dopustio
dopustiti
dora
doris
dorothy
dortmund
doruc
dos
dosad
dosada
dosadas
dosec
dosegao
dosegla
dosegne
dosegnuti
doselili
doseljenici
doseljenika
dosez
dosjei
dosljedno
doslovno
dospio
dospjela
dosta
dostaje
dostic
dostigao
dostigla
dostigne
dostignuc
dostiz
dostojan
dostojanstva
dostupan
dostupna
dostupne
dostupni
dostupnih
dostupnim
dostupno
dostupnost
dostupnosti
dot
dotad
dotada
dotadas
dotic
dotle
dotok
dots
double
doug
douglas
dova
dovede
doveden
dovedena
dovedeni
dovedu
dovela
dovele
doveli
dovelo
doveo
dover
dovesti
dovode
dovodec
dovodi
dovoljan
dovoljna
dovoljne
dovoljni
dovoljno
dovoljnu
dovrs
down
downesia
download
downov
doyle
doz
doza
dozama
doze
dozi
dozu
dozvola
dozvole
dozvoli
dozvolio
dozvoliti
dozvoljava
dozvoljavaju
dozvoljen
dozvoljena
dozvoljeno
dozvolu
dođe
dođi
dođite
dođos
dođu
dp
dq
dr
dra
drac
draco
draft
draftu
drag
draga
dragan
dragana
draganic
drage
dragi
dragic
dragis
drago
dragojevic
dragoljub
dragon
dragutin
drake
dral
drama
dramama
dramatic
dramaturg
drame
drami
dramska
dramske
dramski
dramskih
dramu
dras
drastic
dravi
dravograd
draw
draz
drb
dream
dreams
drenaz
dres
dresden
dresovi
dresu
dretar
drevna
drevne
drevni
drevnih
drevnim
drevnog
drevnoj
drevnom
drew
drez
drift
drijelo
drina
drine
drini
drinjac
drinskog
drinu
drive
drnis
droga
droge
drogom
drosophila
drs
drug
druga
drugac
drugdje
druge
drugi
drugih
drugim
drugima
drugo
drugog
drugoga
drugoj
drugom
drugome
drugoplasirana
drugoplasirane
drugoplasirani
drugoplasiranih
drugovi
drugs
drugu
drukc
drum
drus
druz
drva
drvar
drvec
drvena
drvene
drveni
drvenih
drvenim
drvenog
drvenom
drveta
drvetom
drvetu
drvo
drz
ds
dsb
dt
du
dub
dubai
dubaiju
dubica
dubina
dubinama
dubine
dubini
dubinom
dubinu
dublin
dublinu
dublje
duboc
dubok
duboka
duboke
duboki
dubokih
dubokim
duboko
dubokog
dubokoj
dubokom
duboku
dubrava
dubrave
dubravko
dubrovac
dubrovc
dubrovnik
dubrovnika
dubrovniku
duc
duccio
ductus
dudley
duet
duetu
duf
dug
duga
dugac
duge
dugi
dugih
dugim
dugme
dugmeta
dugo
dugog
dugogodis
dugoj
dugolanc
dugom
dugometraz
dugoroc
dugotrajna
dugotrajne
dugotrajni
dugotrajno
dugotrajnog
dugova
dugovjec
dugu
duguje
duh
duha
duhan
duhana
duhom
duhova
duhove
duhovi
duhovna
duhovne
duhovni
duhovnim
duhovno
duhovnog
duhovnu
duhu
dukata
duke
dule
dumbledore
dumbledorea
dumort
dunav
dunava
dunavu
duncan
dunlop
duo
dupli
duplikacija
duplikacije
duplo
dur
durakovic
during
duru
dus
dutch
dux
duz
dv
dva
dvadeset
dvadesetak
dvadesetog
dvaju
dvama
dvanaest
dvaput
dvd
dve
dvije
dviju
dvjema
dvoboj
dvoboja
dvogodis
dvoje
dvojezic
dvojica
dvojice
dvojici
dvojicu
dvolanc
dvonos
dvonoz
dvor
dvora
dvorac
dvorana
dvorane
dvorani
dvoranu
dvorca
dvorcu
dvoris
dvorski
dvoru
dvostruka
dvostruke
dvostruki
dvostrukih
dvostrukim
dvostruko
dvostrukog
dvostrukom
dvostruku
dvotrec
dw
dx
dxc
dxd
dxe
dxf
dy
dylan
dynamics
dynamo
dz
e
ea
earl
early
earth
east
eastern
eastwood
eb
ebert
ebi
ebu
ec
eci
ecima
eclipse
ecm
eco
ecology
economic
ed
eddie
edem
edema
eden
edgar
edge
edhem
edin
edinburgh
edirne
edison
edit
edited
edition
editiranje
editor
editors
edmund
ednrb
edo
edom
edoma
edouard
eds
edta
edu
eduard
eduarda
eduardo
education
edvard
edvarda
edward
edwarda
edwards
edwin
ee
ef
efa
efekat
efekata
efekt
efekta
efekte
efekti
efektima
efektivna
efektivno
efektom
efendija
effect
effects
efik
efikasan
efikasna
efikasne
efikasni
efikasnije
efikasniji
efikasno
efikasnost
efikasnosti
efikasnu
efod
efpsa
efraim
eg
ega
egf
egfr
egipat
egipatska
egipatske
egipatski
egipatskih
egipatskog
egipatskoj
egipatskom
egipc
egipta
egiptom
egiptu
ego
egodis
egrad
egrada
egradu
egypt
egzil
egzila
egzilu
egzon
egzona
egzonu
egzotic
eh
eha
ehennem
eher
ehf
ehic
ehlers
ehoslovac
ei
eichmann
eif
ein
eine
einstein
eisenhower
eius
ej
ejh
ejha
ejtan
ek
eka
ekaj
ekaju
ekajuc
ekala
ekali
ekanja
ekao
ekati
ekg
ekic
ekipa
ekipama
ekipe
ekipi
ekipne
ekipnim
ekipno
ekipnoj
ekipom
ekipu
ekivali
ekivalo
ekivana
ekivane
ekivani
ekivanja
ekivanju
ekivano
ekivanog
ekivao
ekivati
eko
ekologija
ekologije
ekologiju
ekolos
ekonomic
ekonomija
ekonomije
ekonomiji
ekonomiju
ekonomista
ekonomska
ekonomske
ekonomski
ekonomskih
ekonomskim
ekonomsko
ekonomskog
ekonomskoj
ekonomskom
ekonomsku
ekosistem
ekosistema
ekovic
ekran
ekrana
ekranu
ekrem
ekscentric
ekspanzija
ekspanzije
ekspanziju
ekspedicija
ekspedicije
ekspediciji
ekspediciju
eksperimenata
eksperiment
eksperimenta
eksperimentalna
eksperimentalne
eksperimentalni
eksperimentalnih
eksperimentalnim
eksperimentalno
eksperimente
eksperimenti
eksperimentima
eksperimentu
eksplicitno
eksploatacija
eksploatacije
eksploataciju
eksplozija
eksplozije
eksploziji
eksploziva
eksplozivno
ekspresija
ekspresije
ekspresiji
ekspresijom
ekspresiju
eksprimira
eksprimiraju
eksprimiran
eksprimirani
ekstenzija
ekstremiteta
ekstremne
ekstremni
ekstremnim
ekstremno
ektoderma
ekuje
ekuju
ekujuc
ekvador
ekvadora
ekvatora
ekvivalent
ekvivalentan
ekvivalentna
ekvivalentno
el
ela
elastic
ele
eleanor
elebic
elebija
elec
electric
electronic
elegans
elektrana
elektrane
elektric
elektricitet
elektriciteta
elektro
elektroda
elektrode
elektrolita
elektrolize
elektromagnetnog
elektron
elektrona
elektrone
elektroni
elektronic
elektronika
elektronska
elektronske
elektronski
elektronskih
elektronskim
elektronskog
elektronsku
elektroprivreda
elektroprivrede
elektrostatic
elektrotehnic
elektrotehnika
elektrotehnike
elemenat
elemenata
element
elementa
elementarne
elementarni
elementarnih
elementarnog
elementarnom
elemente
elementi
elementima
elementom
elements
elementu
elena
eleonora
eli
elias
elic
elif
elija
elijama
elije
eliji
elijska
elijske
elijski
elijskih
elijskim
elijsko
elijskog
elijskoj
elijskom
elijsku
eliju
elik
elika
elim
elima
eliminacije
eliminira
elimo
elinac
elio
eliptic
elis
elisa
elisabeth
elita
elite
elizabeta
elizabete
elizabeth
elizabetu
elize
elj
elja
eljama
eljan
elje
eljela
eljeli
eljene
eljeni
eljenih
eljeza
eljezara
eljezna
eljezne
eljezni
eljeznic
eljeznica
eljeznice
eljeznicom
eljeznih
eljezno
eljeznog
eljeznom
eljezo
eljezom
elji
eljka
eljko
eljne
eljno
eljom
elju
eljusti
ell
elle
ellen
ellis
elnici
elnik
elnika
elo
elom
elsevier
elton
elu
eluc
eluca
elucu
eludac
elvir
elvis
em
ema
email
emal
emaludin
emanuel
emat
emberk
embriogeneze
embriologija
embrion
embriona
embrionske
embrionskih
embrionskog
embryology
eme
emend
emerson
emes
emi
emil
emily
emina
emir
emira
emirat
emirata
emirati
emiratima
emisija
emisijama
emisije
emisiji
emisijom
emisijska
emisijske
emisiju
emitira
emitiraju
emitirana
emitiranja
emitiranje
emitiranjem
emitovanje
emituje
emituju
emma
emmanuel
emmy
emmyja
emo
emocija
emocije
empire
ems
emu
en
ena
enama
enciklopedija
enciklopedije
enciklopediji
encyclopaedia
encyclopedia
encyclopædia
end
endem
endemi
endemic
endl
endo
endogeni
endokrini
endokrinologija
endometrija
endoplazmatski
endoplazmatskog
endoplazmatskom
endotela
endotelne
endotelnih
endotelnim
ene
eneja
energetska
energetske
energetski
energetskih
energic
energija
energije
energiji
energijom
energiju
energy
enes
enevi
eng
engelm
engels
engic
engine
engineering
engl
england
engleska
engleske
engleski
engleskih
engleskim
englesko
engleskog
engleskoj
engleskom
englesku
engleza
englezi
english
eni
enic
enica
enice
enici
enicima
enicom
enicu
enih
enija
enije
eniji
enijih
enijim
enik
enika
enike
enikom
eniku
enim
enima
enio
enis
eniti
enito
enja
enjaci
enjak
enjaka
enje
enjem
enjen
enjer
enjera
enjeri
enjering
enjerstva
enjerstvo
enjerstvu
enjima
enju
enka
enke
enki
enklave
enko
ennet
eno
enog
enoj
enom
enos
enost
enosti
enrico
enrique
enska
enske
enski
enskih
enskim
ensko
enskog
enskoj
enskom
ensku
enstva
enstvo
entalpija
enterprise
entertainment
entitet
entiteta
entiteti
entitetu
entjernej
entjur
entropija
entropije
entrupert
entry
enu
enver
environment
environmental
enzim
enzima
enzime
enzimi
enzimima
enzimom
enzimska
enzimske
enzimski
enzyme
enzymes
eo
eocena
eoni
ep
epa
eparhija
eparhije
epc
ephedra
epi
epic
epidemija
epidemije
epidemiologija
epiderma
epiderme
epigenetic
epigrafika
epilepsija
epimeraza
epitel
epitela
epitelne
epitelnih
epitelnim
epitet
epizoda
epizodama
epizode
epizodi
epizodu
eplasirana
eplasiranih
epoha
epohe
epova
eprihvac
epsilon
epske
epski
epu
eq
equisetum
er
era
eras
ere
erectus
eri
eric
erica
ericales
erich
ericsson
eridan
erif
erigeron
erik
erima
eritreja
eritrocita
eritrocitima
erk
erka
erke
erki
erkom
erku
erna
erne
ernest
ernje
ernji
ernst
erom
eros
erozije
erpa
ers
eru
erupcija
erupcije
erwin
es
esa
esad
esc
escherichia
esej
eseja
eseji
esejist
esencijalne
esencijalni
esi
eskadrila
esma
esme
esnaest
esnica
esnice
esnici
esnicima
esnik
esnika
eso
espan
espn
essentials
est
esta
estalost
estalosti
este
esteban
ester
estera
esteri
estero
estetski
esti
estica
esticama
estice
estih
estim
esto
estoaprilska
estoaprilske
estog
estoj
estoke
estoki
estoko
estom
estonija
estonije
estoniji
estonski
estradiol
estradiola
estranac
estri
estrogen
estrogena
estrogeni
estruka
estruke
estruki
estrukih
estrukim
estruko
estu
estvovala
estvovale
estvovali
estvovalo
estvovanja
estvovanje
estvovao
estvovati
estvuje
estvuju
et
eta
etak
etaka
etalis
etanol
etanola
etapa
etape
etaz
etc
ete
eter
eteric
ethan
ethernet
ethnic
eti
etic
etienne
etika
etil
etimologija
etiopija
etiopije
etiopiji
etiri
etka
etke
etkom
etku
etna
etne
etni
etnic
etnici
etnicima
etnih
etnik
etnika
etnike
etnim
etno
etnog
etnoj
etnom
etnu
eto
etom
etrdeset
etrnaest
ettl
etu
etva
etve
etvero
etverogodis
etvorica
etvrt
etvrta
etvrtak
etvrte
etvrtfinala
etvrtfinale
etvrtfinalu
etvrti
etvrtina
etvrtine
etvrtini
etvrtinu
etvrto
etvrtog
etvrtoj
etvrtom
etvrtu
eu
eufrat
eufrata
euge
eugen
eugene
eugenia
euharistije
eukariota
eukarioti
eukariotima
eukariotske
eukariotskih
eukariotskim
euklidsku
euler
euphorbia
eura
euro
eurobasket
eurobasketu
europa
europe
european
europi
europske
eurosong
eurosonga
eurosongu
eurovision
eurovizije
euroviziji
ev
eva
evac
evaca
evad
evakuaciju
evan
evangelistic
evans
evanđelja
evanđelje
evc
evci
eve
evec
even
event
eventualne
eventualno
ever
everest
everesta
everton
every
evi
evic
evica
evice
evidence
evidenciju
evidentirano
evih
evil
evim
evima
evina
evinama
evine
evinu
evje
evlija
evljakovic
evljen
evna
evne
evni
evnica
evnici
evnih
evnik
evnika
evnim
evno
evnog
evnoj
evnom
evnost
evnosti
evnu
evo
evog
evoj
evolucija
evolucije
evoluciji
evolucijska
evolucijske
evolucijski
evolucijskih
evoluciju
evoluirala
evoluirale
evoluirali
evoluirao
evolution
evolutionary
evom
evroazije
evropa
evrope
evropi
evropljana
evropljani
evropom
evropska
evropske
evropski
evropskih
evropskim
evropsko
evropskog
evropskoj
evropskom
evropsku
evropu
evs
evski
evu
ex
example
exchange
exd
expasy
experience
experimental
exploration
explorer
express
expression
eye
eyes
ez
ezav
ezdeset
ezdesetih
ezekias
f
fa
fabaceae
fabio
fabrici
fabricius
fabrika
fabrike
fabriku
face
facebook
fact
factbook
facto
factor
facts
fad
fadil
faga
fagerstr
fagot
fahrudin
fair
fairmaire
faith
faktor
faktora
faktore
faktori
faktorima
faktorom
fakultet
fakulteta
fakulteti
fakultetu
fala
falange
fall
false
fam
fame
families
familija
familije
family
fan
fang
fantastic
fantastike
fantazije
fap
far
faraon
faraona
faraonu
farma
farmakologija
farmakolos
farme
farmi
farska
faruk
fas
fasada
fasade
fasadi
fascija
fascije
faso
fast
fat
fatalna
father
fatima
fauna
faune
favorit
faz
faza
fazama
faze
fazi
fazlic
fazni
fazu
fb
fbi
fbih
fc
fda
fe
feat
feb
februar
februara
februaru
february
federacija
federacije
federaciji
federaciju
federal
federalna
federalne
federalni
federalnih
federalno
federalnog
federalnom
federation
federativna
federativne
federativnoj
federer
federera
federico
fehim
feldmars
felipe
felix
female
feministic
femura
fenerbahc
fenic
feniks
feniksa
fenil
fenilalanin
fenilalanina
fenomen
fenomena
fenomeni
fenotip
fenotipa
fenotipova
fenotipske
fenotipski
fenotipskih
fer
ferdinand
ferdinanda
ferenc
ferhad
ferhadija
fermentacije
ferna
fernanda
fernando
ferrari
ferrarija
fes
fest
festival
festivala
festivali
festivalima
festivalu
fetus
fetusa
fetusnog
feudalne
ff
ffa
fgf
fgfr
fi
fia
fiat
fiba
fibrilacija
fibroblasta
fibroblasti
fibroza
fibule
fiction
fide
fidz
field
fields
fifa
fight
figura
figurama
figure
figuru
fikret
fiktivni
fil
filatelija
filatelistic
file
files
filip
filipa
filipina
filipini
filipinima
filipovic
filistinaca
filistinci
filistincima
film
filma
filmografija
filmom
filmova
filmove
filmovi
filmovima
films
filmska
filmske
filmski
filmskih
filmskim
filmskog
filmskoj
filmskom
filmsku
filmu
filogenetic
filogenetske
filogenetski
filogenetsko
filogenija
filolog
filologiju
filolos
filozof
filozofa
filozofi
filozofija
filozofije
filozofiji
filozofiju
filozofska
filozofske
filozofski
filozofsko
filozofskog
filozofskom
filter
filtracije
fin
fina
final
finala
finale
finalima
finalist
finalista
finalisti
finalna
finalne
finalni
finalno
finalnoj
finalnom
finalu
financial
finansija
finansije
finansijska
finansijske
finansijski
finansijskih
finansijskim
finansijskog
finansijsku
finansira
finansiranja
finansiranje
finansirao
finci
fine
fino
finska
finske
finski
finskog
finskoj
finskom
finsku
fir
fire
firenca
firenci
firewall
firma
firme
firmi
firmu
first
firth
fis
fischer
fish
fisher
fisije
fit
fitzgerald
five
fizic
fizici
fizika
fizikalna
fizikalne
fizike
fiziku
fiziologija
fiziologije
fiziologiju
fiziolos
fk
fl
flag
flandrije
flas
flash
flautu
flavin
fleksibilnost
fleksija
fleming
fletcher
fleur
flexor
flight
flirt
flora
flore
florence
florida
floride
floridi
flota
flote
flotu
flower
flowering
flowers
floyd
fluid
fluida
fluor
fluora
fluorescentne
fluorid
fly
fm
fn
fnrj
fo
fobos
foc
focke
focus
fojnic
fojnica
fojnice
fojnici
fokus
fokusira
fokusiraju
fokusirana
fokusu
folija
folikul
folikula
folk
folklora
fon
fond
fonda
fondacija
fondacije
fondova
fonetski
font
fontana
fontane
fontsize
food
fool
football
for
forall
forbes
force
forces
ford
foreign
forensic
forenzic
forest
forever
foris
form
forma
formacija
formacije
formaciju
formalna
formalne
formalni
formalno
formama
format
formata
formation
formatu
forme
former
formi
formira
formiraju
formirajuc
formirala
formirale
formirali
formiran
formirana
formirane
formirani
formiranja
formiranje
formiranjem
formiranju
formirano
formirao
formirati
formu
formula
formulacija
formule
formuli
formulom
formulu
forst
fort
forum
foruma
fosfat
fosfata
fosfataza
fosfataze
fosfati
fosfatidilinozitol
fosfatne
fosfolipida
fosfor
fosfora
fosforilacija
fosforilacije
fosforilaciju
fosforilaza
fosforilira
fosforne
fosil
fosila
fosili
fosilne
fosilni
fosilnih
fossil
foster
foto
fotograf
fotografija
fotografijama
fotografije
fotografiju
foton
fotona
fotoreceptora
fotosinteza
fotosinteze
fotosintezu
foucault
found
foundation
four
fourth
fox
fr
fra
frac
fragaria
fragmenata
fragment
fragmenta
fragmente
fragmenti
frakcija
frakcije
frame
framework
fran
franac
franak
franaka
franc
franca
france
frances
francesco
francetic
franch
franci
francis
francisco
franciska
francisku
franck
franco
francuska
francuske
francuski
francuskih
francuskim
francusko
francuskog
francuskoj
francuskom
francusku
francuz
francuza
francuzi
franje
franjevac
franjevaca
franjevci
franjo
frank
franka
frankfurt
frankfurtu
franklin
frankopan
frans
franz
franza
fraser
fraxinus
fraza
fraze
fre
fred
freda
freddie
frederick
frederik
free
freebsd
freedom
freeman
frejm
frejma
frejmova
frejmu
frekvencija
frekvencijama
frekvencije
frekvenciji
frekvencijom
frekvenciju
french
freska
freskama
freske
freud
frid
frida
fridrik
fridrika
friedrich
friedricha
friends
fritz
friz
from
front
fronta
frontu
frost
fruktoza
fry
fs
fsh
fst
ft
fu
fuad
fudbal
fudbala
fudbaler
fudbalski
fudbalskog
fuga
fuit
full
fuller
function
functional
functions
fundamentals
fungi
funk
funkcija
funkcijama
funkcije
funkciji
funkcijom
funkcijske
funkcijski
funkciju
funkcionalna
funkcionalne
funkcionalni
funkcionalnih
funkcionalnim
funkcionalno
funkcionalnog
funkcionalnost
funkcionalnosti
funkcionalnu
funkcioner
funkcionera
funkcioneri
funkcionira
funkcioniraju
funkcioniranje
funkcionirati
funkcionis
funkcionisanje
funta
funti
furnir
furnira
fus
fusion
futsal
future
fuzija
fuzije
fuzijom
fuziju
fußball
fv
g
ga
gaba
gabaa
gabon
gabriel
gabriela
gac
gacka
gacko
gad
gaj
gaja
gajret
gajreta
gal
gala
galad
galaksija
galaksije
galaksiji
galaktic
galaktoza
galaktoze
galatasaray
galaxy
gale
galeb
galerija
galerije
galeriji
galeriju
galic
galij
galija
galije
galiji
galileo
gallery
galnac
gama
gambit
game
games
gameta
gamete
gameti
gametofit
gamma
gana
gandhi
gane
ganglija
ganglije
ganglijske
ganglijskih
gap
garaz
garci
garcia
garda
garde
garden
gardner
gares
garfield
garland
garnitura
garnizon
garnizona
garrett
garros
garrosa
garrosu
gary
gas
gasa
gasi
gasova
gasovi
gaston
gastrointestinalni
gastrointestinalnog
gastropoda
gat
gata
gate
gates
gaulle
gavran
gavrilo
gay
gaz
gaza
gaze
gazi
gađanja
gađanje
gb
gc
gd
gde
gdi
gdje
gdp
ge
gedeon
gej
gel
gelo
gen
gena
genbank
gene
generacija
generacijama
generacije
generaciji
generaciju
general
generala
generali
generalna
generalne
generalni
generalno
generalnog
generalnom
generalom
generals
generalu
generation
generator
generatora
genereviews
generic
generira
generiraju
generirana
generiranje
generis
genes
genesis
genet
genetic
genetici
genetics
genetika
genetike
genetske
genetski
geni
genima
genitalija
genitalije
genocid
genocida
genocide
genocidnu
genocidu
genom
genoma
genome
genomes
genomics
genomika
genomska
genomske
genomu
genotip
genotipa
genotipova
genska
genske
genski
genskih
genskog
gentiana
genu
genus
geo
geodetski
geoffrey
geofizic
geograf
geografija
geografije
geografiju
geografska
geografske
geografski
geografskih
geografskim
geografsko
geografskog
geografskoj
geografskom
geographic
geohronologija
geolog
geologija
geology
geolos
geometrija
geometrije
geometriji
geometrijske
geometrijski
geometrijskih
geometrijskim
geomorfolos
geopolitic
georg
georga
george
georgea
georges
georgi
georgia
georgija
georgije
ger
gera
gerald
gerard
gerhard
germ
germain
german
germanij
germanski
germanskih
germany
gers
ges
geschichte
gesellschaft
gesta
gestacije
gestro
get
gfr
gh
gha
ghb
ghz
gi
gia
giacomo
gibraltar
gibraltara
gibson
gif
gil
gilbert
gilgal
gilgames
gimnastic
gimnastika
gimnazija
gimnazije
gimnaziji
gimnaziju
gine
ginny
giorgio
giovanni
girl
girls
gis
gitara
gitare
gitari
gitarist
gitarista
gitaristi
gitaru
giuseppe
give
given
gl
glad
gladi
gladiolus
glagol
glagola
glamoc
glas
glasa
glasac
glasaju
glasala
glasali
glasalo
glasanja
glasanje
glasanjem
glasanju
glasano
glasati
glasgow
glasi
glasinac
glasine
glasnik
glasnika
glasniku
glasno
glasom
glasonos
glasova
glasove
glasovi
glass
glasu
glatka
glatke
glatki
glatkih
glatkim
glatko
glaukom
glaukoma
glava
glavama
glave
glavi
glavic
glavica
glavice
glavna
glavne
glavni
glavnih
glavnim
glavnina
glavninu
glavno
glavnog
glavnoj
glavnom
glavnu
glavobolja
glavobolje
glavom
glavu
glcnac
gle
glec
gleda
gledaj
gledaju
gledajuc
gledala
gledalaca
gledali
gledalo
gledanja
gledanje
gledano
gledanost
gledanosti
gledao
gledaoca
gledaoci
gledatelja
gledati
glede
gledis
glen
glenn
glez
glicerol
glicin
glicina
glikogen
glikogena
glikolize
glikoprotein
glikoproteina
glikozilacija
glikozilacije
glina
gline
glise
glista
gliste
gljiva
gljivama
gljive
gljivic
gljivica
global
globalna
globalne
globalni
globalno
globalnog
globalnom
globe
globina
globus
globusa
glodara
gloria
glory
glosaru
glossary
glover
glu
gluhoc
glukoza
glukoze
glukoziltransferaza
glukozu
glumac
glumaca
glumca
glumci
glumcima
glume
glumi
glumica
glumice
glumicom
glumicu
glumila
glumio
glumiti
glumu
glus
glutamat
glutamata
glutamin
glutaminska
glutation
gly
gm
gmbh
gmizavaca
gmizavci
gmo
gmt
gn
gnetum
gnijezda
gnijezdo
gnjev
gnjeva
gnojiva
gnrh
gnu
go
goa
goal
god
goddard
godi
godina
godinama
godine
godini
godinom
godinu
godis
goebbels
goethe
going
gojaznost
gojaznosti
gojko
gol
gola
gold
goldberg
golden
goldman
goldstein
gole
golf
golgijev
golgijevog
goli
golim
golman
golmana
golmani
golo
golom
golosjemenjac
golova
golove
golovi
golovima
golub
golubic
gomila
gomile
gonada
gone
gonophora
gonza
gonzalez
good
google
gora
goran
gorana
goranska
goranskoj
goraz
gorbac
gorc
gordana
gordon
gore
gorenja
gorenje
gorenjska
gorenjskoj
gori
goric
gorica
goricah
gorice
gorila
gorile
gorilla
goris
goriva
gorivo
gorja
gorje
gorju
gorki
gorkic
gornja
gornje
gornjeg
gornjem
gornji
gornjih
gornjim
gornjoj
gornju
gorom
gorski
goru
gos
gospa
gospe
gospic
gospod
gospoda
gospodar
gospodara
gospodare
gospodari
gospodaru
gospode
gospodin
gospodina
gospodine
gospodinu
gospodov
gospodova
gospodovo
gospodu
gospođa
gost
goste
gosti
gostiju
gostima
gostujuc
got
gota
goti
gotic
gotovo
gottfried
gottlieb
gov
goveda
govedo
government
govor
govora
govoras
govore
govorec
govori
govorila
govorili
govorilo
govorim
govorimo
govorio
govoris
govorite
govoriti
govornici
govornik
govornika
govornog
govornom
govorom
govoru
gp
gpa
gpcr
gpi
gpr
gps
gpt
gpu
gr
gra
grab
grabez
grabovac
grabovica
grac
grace
grad
grada
gradac
gradas
grade
gradec
gradi
gradic
gradijent
gradijenta
gradili
gradina
gradine
gradio
gradis
graditelj
graditelji
graditeljska
graditeljske
graditi
gradnja
gradnje
gradnji
gradnjom
gradnju
gradom
gradonac
gradova
gradove
gradovi
gradovima
gradska
gradske
gradski
gradskih
gradskim
gradsko
gradskog
gradskoj
gradskom
gradsku
gradu
graf
grafic
grafika
grafike
grafikon
grafiku
grah
graham
grahovo
gram
grama
gramatic
gramatika
gramatike
grammy
gran
grana
granada
granama
granata
granate
granc
grand
grande
grane
granger
grani
granic
granica
granicama
granice
granici
granicom
granicu
grant
granu
granula
granule
graphics
gras
grass
gravitacija
gravitacije
gray
graz
graza
grazu
građa
građana
građane
građani
građanima
građanin
građanina
građanska
građanske
građanski
građanskih
građanskim
građanskog
građanskom
građe
građen
građena
građene
građeni
građenja
građevina
građevinarstvo
građevine
građevinske
građevinski
građevinskih
građevinskog
građi
građu
grb
grba
grbavica
grbom
grbovi
grbu
grc
grci
grcima
great
greatest
greben
grebena
grebeni
grebenom
grebenu
greda
grede
greece
greek
green
greene
greenwood
greg
gregor
gregorijanskom
gregory
grenland
grenlanda
gres
gressitt
grey
grgur
grgura
gric
grid
grijanje
grijeh
grijeha
grijehe
grijehova
grijehove
grijes
gripe
griseb
grissom
griz
grjes
grka
grla
grlic
grlo
grm
grmec
grmova
grmovi
grnc
gro
grob
groba
groblja
groblje
groblju
grobnica
grobnice
grobnici
grobnicu
grobova
grobovi
grobovima
grobu
grof
grofa
grofica
grofovi
grofovija
gros
gross
grosso
grosuplje
ground
group
groups
grove
growth
groz
groznica
groznice
groznicu
gru
gruba
grube
grubi
grubis
grubo
grude
grudi
grudima
grudne
grudni
grudnog
grupa
grupacija
grupacije
grupama
grupe
grupi
grupirani
grupna
grupne
grupnoj
grupnu
grupom
grupu
gruzija
gruzije
gruziji
gruzijski
gs
gsd
gsk
gt
gti
gtp
gtpaza
gtpaze
gu
guanin
guardian
gube
gubi
gubici
gubio
gubitak
gubitaka
gubitka
gubitke
gubitkom
gubitku
guc
gudac
gue
guez
gui
guide
guido
guillaume
guitar
guma
gume
gun
guns
gura
gus
gusta
gustaf
gustav
gustave
guste
gusti
gustim
gustina
gustine
gusto
gustoc
gustom
gutanja
gutanje
gutenberg
guthrie
guverner
guvernera
guverneri
guvernorat
guvernorata
guy
guyton
guz
gvajana
gvatemala
gvatemale
gvatemali
gvineja
gvineje
gvineji
gvoz
gw
gwh
gy
gyo
gzm
gđa
h
ha
haagu
haas
habsburg
habsburgovci
habsburs
had
hadis
hadisa
hadisi
hadisu
hadz
haeckel
hafiz
hagrid
hagu
hahn
hair
haiti
haja
hajde
hajdemo
hajduc
hajduk
hajduka
hajrudin
hal
hala
halal
half
halid
halida
halifa
halifat
halifata
halife
halil
halilovic
haljine
hall
ham
hamam
hamburg
hamburger
hamburgu
hamdija
hamid
hamilton
hamiltona
hamlet
hammer
hammond
hampshire
hamza
hamzu
han
hana
hand
handbook
handz
hanibal
hanks
hannah
hannover
hans
hansa
hansen
hanuma
haotic
haplogrupa
haplogrupe
haploidne
happy
haps
hara
harald
haram
harbor
hard
hardver
hardvera
hardy
harem
haremu
hari
haris
harmonic
harmonika
harold
harper
harris
harrison
harry
harryja
harryju
hart
harun
haruna
harunu
harvard
harvey
harwood
has
hasan
hasana
hasandedic
hassan
hat
haubica
haubice
hava
havaja
havaji
havajima
havajski
havana
have
haven
haveric
hawaii
hawaiian
hawkins
hayat
haydn
haydna
hayek
hayes
hazard
hazim
hazu
hb
hbo
hc
hcg
hcl
hco
hd
hdz
he
head
health
heart
heat
heath
heaven
heavy
hebreji
hebrejska
hebrejske
hebrejski
hebrejskog
hebrejskom
hebron
hec
hedgehog
heidelberg
height
heiligenkreuz
heinrich
heinz
hej
hektara
hela
helen
helena
helenistic
helenu
heliconia
helij
helija
helikaza
helikopter
helikoptera
helikopteri
heliks
heliksa
heliksi
hell
helleborus
hello
helmut
help
helsinki
helsinkiju
hem
hema
hemic
hemija
hemije
hemiji
hemijska
hemijske
hemijski
hemijskih
hemijskim
hemijsko
hemijskog
hemijskoj
hemijskom
hemijsku
hemiju
hemikalija
hemikalije
hemisfera
hemisfere
hemisferi
hemoglobin
hemoglobina
hemokinski
hemoterapija
hemoterapije
henderson
hendry
henri
henrik
henrika
henriku
henry
henryja
hepatitis
hepatitisa
hepburn
her
hera
heraklo
heraldic
herbert
herceg
hercega
hercegovac
hercegovina
hercegovine
hercegovini
hercegovinom
hercegovinu
herculis
here
heretic
heritabilnosti
heritage
herkul
herman
hermann
hermes
hermiona
hermione
herna
hero
herodot
heroes
heroin
heroina
heroj
heroja
heroji
herschel
herzegovina
hes
het
hf
hg
hi
hibiscus
hibrid
hibrida
hibridi
hibridizacija
hibridizacije
hibridni
hidraulic
hidroelektrana
hidroelektrane
hidrofobne
hidrofobni
hidrofobnih
hidroksi
hidroksid
hidroksida
hidroksilaza
hidroksilaze
hidrolaza
hidrolaze
hidroliza
hidrolize
hidrolizira
hidrolizom
hidrolizu
hidrolos
hidz
hif
hifa
hife
higgins
high
higher
hijerarhija
hijerarhiji
hildegard
hiljada
hiljadama
hiljade
hiljadu
hill
hillary
hills
hilmo
hilton
him
himalaja
himna
himne
himni
himnu
hindu
hinduistic
hip
hiperbolic
hiperplazija
hipertenzija
hipertenzije
hipofiza
hipofize
hipoplazija
hipotalamus
hipotalamusa
hipotetic
hipoteza
hipoteze
hipotezi
hipotezu
hirurg
hirurgija
hirurs
his
histamin
histamina
histidin
histidina
histoire
histokompatibilnosti
histologija
histology
histolos
histon
histona
historia
historic
historical
historija
historije
historiji
historijom
historijska
historijske
historijski
historijskih
historijskim
historijsko
historijskog
historijskoj
historijskom
historijsku
historiju
historijui
historiografija
historiografiji
history
hit
hitchcock
hitler
hitlera
hitne
hitno
hitnu
hitova
hitove
hitovi
hits
hiv
hivzija
hk
hl
hla
hladi
hladna
hladne
hladni
hladnim
hladno
hladnoc
hladnog
hladnom
hlađenja
hlađenje
hljeb
hljeba
hlor
hlora
hlorid
hlorida
hlorofil
hlorofila
hloroplasta
hloroplasti
hlorovodic
hm
hms
hnk
hnl
ho
hoc
hod
hoda
hodanje
hodati
hodoc
hodz
hoenn
hoffman
hogwarts
hogwartsa
hogwartsu
hokej
hokejas
holandija
holandije
holandiji
holandiju
holandska
holandske
holandski
holandskog
holandskom
holanđani
hold
holden
holding
holesterol
holesterola
holiday
holin
holland
holly
hollywood
hollywoodu
holmes
holmesa
holmesu
holokaust
holokausta
holokauste
holstein
holt
home
homeostaze
homeostazu
homer
hominida
homo
homolog
homologa
homologija
homologije
homologiju
homologna
homologne
homologni
homolognih
homolozi
homozigotni
honda
honduras
honey
hong
hood
hook
hop
hope
hopkins
hor
hora
horde
horizonta
horizontal
horizontalna
horizontalne
horizontalni
horizontalno
hormon
hormona
hormone
hormoni
hormonske
horn
horor
horse
horst
horvat
hos
hospital
host
hot
hotel
hotela
hotelu
hotmail
hotspur
hour
house
housea
houseu
houston
how
howard
howe
hox
hp
hpa
hr
hrabri
hrabro
hrabrost
hrabrosti
hram
hrama
hramova
hramovi
hramu
hrana
hrane
hrani
hranic
hraniti
hranjenja
hranjenje
hranjive
hranjivih
hranjivim
hranom
hranu
hras
hrast
hrasta
hrc
hrer
hrib
hris
hrist
hrista
hrom
hroma
hromatida
hromatide
hromatin
hromatina
hromatografija
hromosom
hromosoma
hromosome
hromosomi
hromosomima
hromosomska
hromosomske
hromosomski
hromosomskih
hromosomskoj
hromosomu
hromozoma
hronic
hronika
hronike
hronologija
hronolos
hrpelje
hrsg
hrskavic
hrskavica
hrskavice
hrt
hrus
hrv
hrvac
hrvat
hrvata
hrvate
hrvati
hrvatima
hrvatinic
hrvatska
hrvatske
hrvatski
hrvatskih
hrvatskim
hrvatsko
hrvatskog
hrvatskoj
hrvatskojkategorija
hrvatskom
hrvatsku
hrvoja
hrvoje
hs
hsp
hss
hsv
ht
htio
htjede
htjela
htjeli
htm
html
http
https
hu
huang
hub
hubble
hudson
hugh
hughes
hugo
hum
huma
humac
human
humanistic
humanitarne
humans
humanu
humor
humoristic
humu
huna
hunt
hunter
hus
husein
husrev
huston
huwa
huxley
huygens
hv
hvala
hvale
hvaljen
hvar
hvata
hvataju
hvatanja
hvatanje
hvatis
hvo
hybrid
hypericum
hz
hzhb
i
ia
iaaf
iako
ian
iana
iata
ib
iba
ibabic
ibenik
ibenika
ibensko
ibis
ibm
ibn
ibrahim
ibrahima
ibrahimovic
ibrahimu
ibu
ibuprofen
ibuti
ibutija
ic
ica
icama
icao
icd
ice
ich
ici
icom
icty
icu
id
ida
idah
idar
ide
ideal
idealni
idealno
idealnog
ideja
idejama
ideje
ideji
idejom
ideju
idem
idemo
identic
identification
identificira
identificiraju
identificirali
identificiran
identificirana
identificirane
identificirani
identificirano
identificirao
identificirati
identifikacija
identifikacije
identifikaciju
identifikovan
identifikuje
identitet
identiteta
identity
ideologija
ideologije
ideologiju
ideolos
ides
idh
idha
idi
idite
idol
idola
idole
idoli
idova
idove
idovi
idovima
idovske
idovski
idovskog
idrija
idu
iduc
idz
ie
ieee
if
ifn
ift
ig
iga
igara
ige
igf
igg
igla
igle
igledna
igledno
igm
igman
ign
igom
igor
igorin
igra
igrac
igraju
igrajuc
igrala
igrale
igrali
igralis
igralo
igrama
igrana
igrane
igrani
igranja
igranje
igrano
igranog
igranom
igrao
igrati
igre
igri
igrom
igru
ih
ii
iia
iii
ij
ija
ijama
ijas
ije
ijeg
ijem
iji
ijih
ijim
ijoj
ijom
ijska
iju
ik
ika
ikad
ikada
ikakve
ikakvih
ikakvog
ike
ikko
iko
ikom
ikona
ikone
ikonostas
iktas
il
ila
ilac
ilas
ile
ilea
ileanski
ilegalne
ilegalno
ileu
ilex
ili
ilic
ilidz
ilija
ilijac
ilijas
ilije
ilira
iliri
ilirije
ilirska
ilirske
ilirski
ilirskih
ilirsko
ilirskog
ilis
iljac
iljak
iljic
iljka
iljke
illa
illinois
illustrated
ilo
ilovac
ilustracija
ilustracije
ilustrira
iluzija
iluzije
im
ima
imac
imade
image
images
imaginarni
imaju
imajuc
imala
imale
imali
imalo
imam
imama
imamo
imamovic
imane
imanja
imanje
imanju
imao
imas
imat
imate
imati
imdb
ime
imena
imenica
imenice
imenima
imenom
imenovan
imenovana
imenovani
imenovanja
imenovanje
imenovanju
imenovao
imenovati
imenu
imenuje
imenuju
img
imi
imic
imidz
imigranata
imir
imo
imom
imotski
imovic
imovina
imovine
imovinom
imovinu
impanze
impanzi
imperator
imperija
imperije
implementacija
implementaciju
implicira
implikacije
impuls
impulsa
impulse
imra
ims
imu
imuc
imuhamedovic
imun
imuni
imunitet
imunodeficijencije
imunog
imunogenetiku
imunoglobulina
imunologija
imunolos
imunost
imunosti
imunske
imunski
imunskih
imunskog
imunskom
in
ina
inac
inak
inaka
inaktivacija
inama
inc
inca
incertae
inchi
inci
incidenata
incidencija
incident
incidenta
incima
including
increment
ind
indeks
indeksa
indeksu
independent
index
indexa
indexi
india
indian
indiana
indij
indija
indijanac
indijanaca
indijanci
indije
indiji
indijska
indijske
indijski
indijskog
indijskom
indiju
indikacija
indikacije
indirektno
individua
individualna
individualne
individualni
individualnih
individualno
individualnog
individue
indo
indonezija
indonezije
indoneziji
inducira
induciraju
inducirana
inducirani
indukcija
indukcije
indukciju
industrial
industries
industrija
industrije
industriji
industrijska
industrijske
industrijski
industrijskih
industrijskim
industrijsko
industrijskog
industrijskom
industrijsku
industriju
industry
indz
ine
inec
inervira
infarkt
infarkta
infekcija
infekcijama
infekcije
infekciju
inflacija
inflacije
info
infokutija
informacija
informacijama
informacije
informaciju
informacione
informatic
informatika
information
informativna
informativni
infrared
infrastruktura
infrastrukture
infrastrukturu
infty
ing
ingeb
ingis
ingrid
inheritance
inhibicija
inhibicije
inhibicijom
inhibiciju
inhibira
inhibiraju
inhibirati
inhibitor
inhibitora
inhibitori
inhibitorni
ini
inic
inicijacije
inicijalno
inicijativa
inicijative
inicijativi
inicijativu
inih
inila
inilac
inilaca
inile
inili
inilo
inim
inima
inimo
inio
inioca
inioce
inioci
inis
inite
initi
inj
injava
injavaju
injavali
inje
injekcija
injekcije
injen
injena
injene
injeni
injenic
injenica
injenicama
injenice
injenici
injenicom
injenicu
injenih
injeno
injer
inju
inka
inke
inkom
inkoviti
inkovito
inkovitost
inline
inn
inna
innsbrucku
ino
inog
inoj
inom
inostranstva
inostranstvo
inostranstvu
inova
inovacija
inovacije
inovi
inovic
inozemstvu
inozitol
ins
insekata
insekta
insekte
insekti
insektima
inside
insistirao
inska
inske
inski
inskih
inskim
insko
inskog
inskoj
inskom
insku
inspektor
inspiracija
inspiraciju
inspirisan
instalacija
instalacije
instant
instava
institucija
institucijama
institucije
institut
instituta
institute
institutu
instrukcija
instrukcije
instrumenata
instrument
instrumenta
instrumental
instrumentalna
instrumente
instrumenti
instrumentima
instva
instvima
instvo
instvu
insuficijencija
insuficijencije
insulin
insulina
int
integracija
integracije
integraciju
integral
integrala
integralni
integrina
integrirani
integritet
integriteta
intel
intelektualaca
intelektualci
intelektualna
intelektualne
intelektualni
intelektualno
inteligencija
inteligencije
inteligenciju
intellectual
intelligence
intenzitet
intenziteta
intenzivna
intenzivne
intenzivno
inter
intera
interactive
interakcija
interakcijama
interakcije
interakciji
interakcijom
interakciju
interaktivni
interes
interesa
interesantno
interese
interesi
interesima
interesne
interesnih
interesovanja
interesovanje
interesu
interface
interfejs
interfejsa
interferon
interkontinentalni
interleukin
internacionalni
internal
international
internazionale
interne
internet
interneta
internetske
internetski
internetskih
internetu
interni
internog
interpretacija
interpretacije
interpretaciju
interstate
intertoto
interval
intervala
intervalima
intervalu
intervencija
intervencije
intervencijom
intervenciju
interview
intervju
intervjua
intervjuu
into
intravenski
introduction
introna
inu
invalida
invaliditetom
invalidnost
invalidnosti
invazija
invazije
invaziji
invaziju
inverzija
inverzna
investicija
investicije
inz
io
ioca
ion
iona
ionako
ione
ioni
ionice
ionima
ionizacije
ionizirajuc
ionska
ionske
ionski
ionskih
ios
iowa
ip
ipa
ipak
iphone
ipka
ipke
ipova
ipovo
ipraga
iprage
ipsum
iq
ir
ira
irac
irafa
irak
iraka
iraku
irali
iran
irana
iranje
iranska
iranske
iranski
iranskih
iransko
iranskog
iranu
irao
iras
irati
ire
ireg
ireland
irem
iren
irena
irene
ireni
irenim
irenja
irenje
irenjem
irenju
ireno
irenu
irevic
irfan
iri
iridij
iridija
irih
irija
irila
irile
irili
irilic
irilica
irilicom
irilo
irim
irina
irine
irini
irinom
irinu
irio
iris
iriti
irkovic
irnk
iro
iroj
irok
iroka
iroke
iroki
irokih
irokim
iroko
irokog
irokoj
irokom
iroku
irom
iron
ironic
irska
irske
irski
irskog
irskoj
irskom
irsku
iru
iruje
iruju
irving
is
isa
isaac
isakovic
isbn
ise
iselimovic
iseljavanja
iser
isera
iseri
iserka
ishak
ishaka
ishakovic
ishod
ishoda
ishodis
ishrana
ishrane
ishrani
ishranu
isjec
iskaz
iskaza
iskazano
iskazivano
iskazuje
iskazuju
iskljuc
iskopavanja
iskoris
iskoristi
iskoristila
iskoristili
iskoristio
iskoristiti
iskra
iskreno
iskus
iskusni
iskustava
iskustva
iskustvima
iskustvo
iskustvom
iskustvu
islam
islama
islamic
islamovic
islamska
islamske
islamski
islamskih
islamskim
islamsko
islamskog
islamskoj
islamskom
islamsku
islamu
island
islanda
islands
islandu
ismail
ismaila
ismet
ismeta
iso
isovic
ispada
ispadaju
ispadanja
ispadanje
ispala
ispali
ispao
isparavanja
isparavanje
ispas
ispisan
ispisivati
ispit
ispita
ispitanika
ispitivanja
ispitivanje
ispitivanjem
ispitivanjima
ispitivanju
ispituje
isplac
ispoc
ispod
ispoljava
ispoljavaju
ispoljavanja
ispoljavanje
isporuc
isporuke
isporuku
ispostavilo
isprava
ispravan
isprave
ispraviti
ispravljanje
ispravno
ispred
ispric
ispruz
isprva
ispuni
ispunio
ispuniti
ispunjava
ispunjavaju
ispunjen
ispunjena
ispunjene
ispunjeni
ispupc
ispus
isra
israel
iss
issn
issue
ist
ista
istac
istakao
istakli
istaknuo
istaknuta
istaknute
istaknuti
istaknutih
istaknutim
istaknuto
istaloz
istanbul
istanbula
istanbulu
istarska
istarskoj
iste
isteka
isteku
istezanja
istezanje
isti
istic
isticao
istih
istim
istina
istine
istini
istinita
istinito
istinom
istinski
istinu
istio
istiti
isto
istoc
istodobno
istog
istoga
istoimene
istoimeni
istoimenog
istoimenoj
istoimenom
istoj
istok
istoka
istoku
istom
istoric
istorija
istorije
istoriji
istorijski
istoriju
istovremeno
istra
istraga
istrage
istragu
istraz
istre
istri
istros
istu
isus
isusa
isuse
isusova
isusu
isuvis
it
ita
itaj
itaju
ital
italia
italian
italicu
italija
italijana
italijani
italijanska
italijanske
italijanski
italijanskih
italijanskim
italijansko
italijanskog
italijanskoj
italijanskom
italijansku
italije
italiji
italijom
italiju
italy
itanja
itanje
itano
itao
itaocu
itarica
itarice
itati
itav
itava
itavanje
itave
itavim
itavo
itavog
itavoj
itavom
itavu
itd
ite
itelj
itelja
itelje
itelji
iteljica
iteljima
itelju
item
itemid
itf
iti
itih
itim
itluk
ito
itog
itoj
itom
itosti
itrij
itrija
its
itu
ituje
iu
iucn
iupac
iure
ius
iv
iva
ivac
ivaca
ivaju
ivala
ivale
ivali
ivalo
ivan
ivana
ivanc
ivandic
ivane
ivanec
ivani
ivanic
ivanis
ivanja
ivanje
ivanjem
ivanjima
ivanju
ivankovic
ivanom
ivanov
ivanovic
ivanu
ivao
ivati
ivc
ivca
ivci
ive
ivec
ivi
ivic
ivica
ivice
ivici
ivicu
ivih
ivim
ivinicama
ivinice
ivio
ivje
ivjela
ivjele
ivjeli
ivjelih
ivjelo
ivjeti
ivkovic
ivljaj
ivljava
ivljavaju
ivljavanja
ivljavanje
ivljavanju
ivljenja
ivo
ivog
ivoj
ivom
ivorođenih
ivost
ivosti
ivot
ivota
ivote
ivotinja
ivotinjama
ivotinje
ivotinjske
ivotinjski
ivotinjskih
ivotinjskim
ivotinjskog
ivotinjskom
ivotinju
ivotna
ivotne
ivotni
ivotnih
ivotnim
ivotno
ivotnog
ivotnoj
ivotnom
ivotnu
ivotom
ivotu
ivs
ivu
ivuc
ix
iz
iza
izabela
izabele
izabere
izabrala
izabrali
izabran
izabrana
izabrane
izabrani
izabranih
izabrano
izabrao
izabrati
izac
izaija
izam
izas
izaslanik
izaslanika
izaziva
izazivac
izazivaju
izazivajuc
izazivanja
izazivanje
izazov
izazove
izazovu
izazvala
izazvali
izazvalo
izazvan
izazvana
izazvane
izazvani
izazvao
izazvati
izađe
izbac
izbaci
izbacila
izbacio
izbaciti
izbacivanja
izbacivanje
izbacuje
izbacuju
izbija
izbijaju
izbijanja
izbijanje
izbila
izbio
izbjec
izbjegao
izbjegava
izbjegavaju
izbjegavanje
izbjegavati
izbjegla
izbjegli
izbjeglic
izbjeglica
izbjeglicama
izbjeglice
izbjeglis
izbjeglo
izbjegne
izbjegnu
izboc
izbor
izbora
izbore
izbori
izborima
izborio
izboriti
izborna
izborne
izborni
izbornih
izbornim
izborno
izbornog
izbornoj
izborom
izboru
izconstellation
izd
izdaje
izdaju
izdala
izdali
izdan
izdana
izdanak
izdanaka
izdanci
izdanja
izdanje
izdanjima
izdanju
izdao
izdat
izdata
izdate
izdati
izdavac
izdavanja
izdavanje
izdavanjem
izdavas
izdrz
izduz
izdvaja
izdvajaju
izdvajanja
izdvajanje
izdvajanjem
izdvojen
izdvojeni
izdvojio
izdvojiti
ize
izet
izetbegovic
izgled
izgleda
izgledaju
izgledala
izgledalo
izgledao
izgledati
izgledom
izgledu
izgovara
izgovor
izgovori
izgovorio
izgovorom
izgradi
izgradila
izgradili
izgradio
izgraditi
izgradnja
izgradnje
izgradnji
izgradnjom
izgradnju
izgrađen
izgrađena
izgrađene
izgrađeni
izgrađenih
izgrađeno
izgrađuje
izgube
izgubi
izgubila
izgubile
izgubili
izgubilo
izgubio
izgubiti
izgubivs
izgubljen
izgubljena
izgubljene
izgubljeni
izgubljenih
izgubljeno
izgubljenog
izic
izis
iziđe
iziđos
izjas
izjasnilo
izjava
izjavama
izjave
izjavi
izjavila
izjavili
izjavio
izjavljuje
izjavu
izjednac
izl
izlaganja
izlaganje
izlaganjem
izlaska
izlaskom
izlasku
izlaz
izlaza
izlazak
izlaze
izlazec
izlazi
izlazio
izlaziti
izlazne
izlazni
izlazu
izletis
izlijec
izljec
izloz
izluc
izma
izmedu
između
izmijeniti
izmijenjen
izmijenjena
izmis
izmislio
izmjena
izmjenama
izmjene
izmjenjivac
izmjenu
izmjerena
izmjeriti
izmjes
iznad
iznenada
iznenadne
iznenadno
iznenađenje
iznenađujuc
iznimno
iznio
iznos
iznosa
iznose
iznosi
iznosila
iznosili
iznosilo
iznosio
iznositi
iznosu
iznova
iznutra
izobilju
izoblic
izoelektric
izoforma
izoforme
izoformi
izohipse
izolacija
izolacije
izolaciju
izoleucin
izoliran
izolirana
izolirane
izolirani
izomer
izomera
izomeraza
izomeri
izopac
izotop
izotopa
izotope
izotopi
izrac
izrada
izrade
izradi
izradio
izradu
izrael
izraela
izraelove
izraelovi
izraelovih
izraelovim
izraelska
izraelske
izraelski
izraelskih
izraelu
izrail
izraila
izrailom
izrailov
izrailova
izrailove
izrailovi
izrailovih
izrailovim
izrailovog
izrailu
izravno
izraz
izraza
izraze
izrazi
izrazila
izrazili
izrazio
izraziti
izrazito
izrazom
izrazu
izrađen
izrađena
izrađene
izrađeni
izrađuje
izrađuju
izrec
izrekao
izric
izruc
izuc
izum
izuma
izumi
izumio
izumiranja
izumiranje
izumitelj
izumrla
izumrle
izumrli
izumrlih
izuzeci
izuzetak
izuzetaka
izuzetan
izuzetkom
izuzetne
izuzetnim
izuzetno
izuzetnu
izuzev
izvadi
izvan
izvana
izvanredan
izvanredne
izvanredno
izvedba
izvedbe
izvedbi
izvedbu
izvede
izveden
izvedena
izvedene
izvedeni
izvedenica
izvedenih
izvedenim
izvedeno
izvela
izveli
izveo
izves
izvesti
izvijestili
izvijestio
izvire
izviru
izviđac
izviđanje
izvjes
izvjesne
izvjesni
izvjesno
izvjesnog
izvlac
izvod
izvode
izvodi
izvodila
izvodili
izvodio
izvoditi
izvor
izvora
izvore
izvori
izvorima
izvoris
izvorna
izvorne
izvorni
izvornih
izvornim
izvorno
izvornog
izvornom
izvorom
izvoru
izvoz
izvoza
izvozna
izvozu
izvođac
izvođenja
izvođenje
izvođenjem
izvođenju
izvrs
izvuc
izvukao
j
ja
jablanic
jablanica
jabuc
jabuka
jabuke
jac
jaci
jack
jacka
jackie
jackson
jacob
jacoby
jacques
jada
jaden
jadrana
jadranka
jadranske
jadransko
jadranskog
jadranskom
jadranu
jagoda
jagode
jagodic
jaguar
jahac
jahic
jahija
jaja
jajac
jajas
jajca
jajce
jajcu
jaje
jajeta
jajima
jajne
jajnici
jajnicima
jajnik
jajnika
jak
jaka
jake
jaki
jakih
jakim
jako
jakob
jakog
jakom
jakov
jakova
jaks
jaku
jakub
jakuba
jakubu
jala
jam
jama
jamajka
jamc
jame
james
jamesa
jamesu
jami
jamie
jamu
jan
jana
jane
janeiro
janeiru
janet
janez
janje
janjic
janko
jankovic
jansen
januar
januara
januaru
january
jap
japan
japana
japanci
japanese
japanska
japanske
japanski
japanskih
japansko
japanskog
japanskom
japanu
jar
jarac
jaram
jarca
jaroslav
jas
jasan
jasenovac
jasmin
jasmina
jasna
jasne
jasni
jasno
jasnoc
jasnu
jason
jastrebarsko
jastrebarskog
jastuc
jata
jato
java
jave
javelle
javi
javier
javio
javiti
javlja
javljaju
javljati
javna
javne
javni
javnih
javnim
javno
javnog
javnoj
javnom
javnos
javnost
javnosti
javnu
javor
jay
jaz
jazeera
jazz
jazza
je
jean
jec
jedan
jedanaest
jedanaesteraca
jedanaesterca
jedanput
jedara
jedarne
jedarni
jedarnih
jedarnog
jede
jedi
jedina
jedine
jedini
jedinic
jedinica
jedinicama
jedinice
jedinici
jedinicom
jedinicu
jedinim
jedinjenja
jedinka
jedinke
jedinki
jedino
jedinog
jedinom
jedinstva
jedinstven
jedinstvena
jedinstvene
jedinstveni
jedinstvenih
jedinstvenim
jedinstveno
jedinstvenog
jedinstvenom
jedinstvenu
jedinstvo
jedinstvu
jedinu
jedite
jedna
jednac
jednadz
jednak
jednaka
jednake
jednaki
jednakih
jednakim
jednako
jednakog
jednakost
jednakosti
jednaku
jedne
jedni
jednih
jednim
jednine
jednjak
jednjaka
jedno
jednoc
jednog
jednoga
jednoglasno
jednogodis
jednoj
jednolanc
jednom
jednorog
jednostavan
jednostavna
jednostavne
jednostavni
jednostavnih
jednostavnije
jednostavniji
jednostavnim
jednostavno
jednostavnog
jednostavnom
jednostavnost
jednostavnosti
jednostavnu
jednu
jedra
jedro
jedru
jedu
jedva
jeff
jefferson
jeffrey
jeg
jehu
jela
jelac
jelen
jelena
jelene
jeli
jelic
jelo
jels
jem
jemen
jemena
jemenu
jen
jena
jenkins
jennifer
jensen
jenson
jeo
jer
jeremija
jeremy
jergovic
jerihona
jeroboam
jerome
jerry
jersey
jerseyja
jerusalem
jerusalema
jerusalemu
jeruzalem
jeruzalema
jeruzalemu
jes
jesam
jesen
jeseni
jesenice
jesi
jessica
jest
jeste
jesti
jesu
jet
jetra
jetre
jetri
jetru
jevrej
jevreja
jevreje
jevreji
jevrejima
jevrejska
jevrejske
jevrejski
jevrejskih
jevrejsko
jevrejskog
jevric
jewish
jez
jezera
jezerima
jezero
jezeru
jezgara
jezgra
jezgre
jezgri
jezgro
jezgrom
jezgru
jezic
jezici
jezicima
jezik
jezika
jezike
jezikom
jeziku
ji
jih
jill
jim
jima
jimmy
jin
jj
jna
jo
joa
joab
joachim
joan
joas
jod
joda
jodid
joe
joel
joey
johan
johann
johanna
johannes
john
johna
johnny
johnom
johns
johnson
johnston
johnstone
johto
joint
joj
jom
jon
jona
jonas
jonatan
jonathan
jones
jordan
jordana
jordanu
jorge
jos
jose
josef
joseph
josepha
josh
josif
josip
josipa
josipovic
journal
journey
jovan
jovana
jovanc
jovanovic
jovic
jovo
joy
joyce
joz
jozo
jp
jpeg
jpg
jr
js
ju
juan
juana
juc
juda
judaizam
jude
judeje
judex
judi
judith
judu
judy
jug
juga
jugo
jugoistoc
jugoistok
jugoistoka
jugoistoku
jugoslaveni
jugoslavenska
jugoslavenske
jugoslavenski
jugoslavenskih
jugoslavenskim
jugoslavenskog
jugoslavenskoj
jugoslavenskom
jugoslavensku
jugoslavija
jugoslavije
jugoslaviji
jugoslaviju
jugoslovenska
jugoslovenske
jugoslovenski
jugoslovenskih
jugoslovenskog
jugoslovenskom
jugoton
jugozapad
jugozapadna
jugozapadne
jugozapadni
jugozapadno
jugozapadnoj
jugozapadnom
jugozapadu
jugu
jukic
jul
jula
jules
juli
julia
julian
julie
julija
julijanskom
julije
julin
julio
julius
julu
july
jump
jun
juna
junac
junaci
junak
junaka
june
jung
juni
junior
juniorskom
juniperus
junu
jupiter
jupitera
jur
jura
juraj
jure
juri
juric
jurij
juris
jurja
jus
jusic
juss
just
justice
justin
justinijan
justinijana
jusuf
jusufa
jusufu
jutarnji
jutarnjim
jutra
jutro
juventus
juventusa
juz
jwst
k
ka
kabine
kabinet
kabineta
kac
kad
kada
kadar
kades
kadic
kadija
kadijevic
kadmij
kadra
kadrova
kafa
kafaru
kafe
kafic
kafu
kahf
kahva
kahve
kai
kaira
kairo
kairu
kaju
kakanj
kakav
kaknja
kaknju
kako
kaktusa
kakva
kakve
kakvi
kakvih
kakvim
kakvo
kakvog
kakvom
kakvu
kal
kalaj
kalaja
kalcij
kalcija
kalem
kalendar
kalendara
kalendarska
kalendaru
kalesija
kali
kalibar
kalibra
kalibru
kalifornija
kalifornije
kaliforniji
kalij
kalija
kalijevih
kalinovik
kalorija
kama
kambodz
kamc
kameleon
kamen
kamena
kamenc
kamene
kameni
kamenica
kamenih
kamenim
kamenja
kamenje
kamenjem
kameno
kamenog
kamenom
kamenova
kamenu
kameo
kamera
kamere
kamerni
kamerom
kameru
kamerun
kameruna
kamion
kamiona
kamnik
kamo
kamp
kampa
kampanja
kampanje
kampanji
kampanju
kampu
kampus
kan
kana
kanaan
kanada
kanade
kanadi
kanadska
kanadske
kanadski
kanadsko
kanadskom
kanadu
kanal
kanala
kanale
kanali
kanalic
kanalima
kanalom
kanalu
kanat
kancelar
kancelara
kancelarije
kancer
kancera
kandidat
kandidata
kandidate
kandidati
kandidaturu
kandz
kane
kanjon
kanjona
kano
kansas
kant
kantautor
kanton
kantona
kantonalna
kantonalne
kantoni
kantonu
kanu
kao
kap
kapa
kapacitet
kapaciteta
kapaciteti
kapacitetom
kape
kapela
kapele
kapeli
kapelica
kapetan
kapetana
kapetanija
kapetanije
kapetanovic
kapi
kapidz
kapija
kapije
kapilara
kapilare
kapital
kapitala
kapitalistic
kapitalizma
kapiten
kapitulacije
kapljica
kapljice
kappa
kapsula
kapsule
kapu
kapur
kar
kara
karac
karaca
karadz
karakter
karaktera
karakteris
karakteristic
karakteristika
karakteristikama
karakteristike
karakterizacija
karakterizira
karakteriziraju
karakteriziran
karakteru
karanovic
karata
karate
karavan
karađorđevic
karboksilne
karboksipeptidaza
karbon
karbonat
karbonata
karbonska
karbonski
karca
karce
karci
karcima
karcinom
karcinoma
karcinomi
karcinomom
karcinomu
kardelj
kardinal
kardinala
kardiomiopatija
kardiovaskularne
kardiovaskularni
kardiovaskularnih
karel
karen
kariba
karibima
karic
karijera
karijere
karijeri
karijeru
karin
kariotip
karl
karla
karlic
karlica
karlice
karling
karlo
karlom
karlovac
karlovca
karlu
karnitin
karnitina
karolina
karoline
karolins
karpata
karpov
karta
kartage
kartama
karte
karti
kartica
kartice
karton
kartona
kartu
kas
kasarna
kasarne
kasim
kasiopeja
kaskade
kasna
kasne
kasni
kasnih
kasnija
kasnije
kasnijeg
kasnijem
kasniji
kasnijih
kasnijim
kasnijoj
kasnim
kasno
kasnoantic
kasnog
kasnoj
kasnom
kasparov
kaspaza
kaspaze
kaspijskog
kasta
kaste
kastilje
kat
kata
katalitic
katalitske
katalitski
kataliza
katalizator
katalizatora
katalizatori
katalizira
kataliziraju
katalizu
katalog
kataloga
katalogu
katalonski
katar
katara
katarakt
katarina
katarine
katastarske
katastarskih
katastrofa
katastrofe
kate
katedra
katedrala
katedrale
katedrali
katedre
kategorija
kategorijama
kategorije
kategoriji
kategoriju
kategorizacija
kategorizaciji
kategorizaciju
kategorizira
katepsin
katherine
kati
katie
kation
kationa
katkad
katkada
katniss
katolic
katolici
katolika
kauc
kavkaz
kavkaza
kavkazu
kay
kaz
kaza
kazahstan
kazahstana
kazahstanu
kazalis
kazaljke
kazao
kazas
kazati
kazein
kazna
kazne
kazneni
kazni
kaznio
kazniti
kaznom
kaznu
kazuje
kb
kc
kcal
kcne
kcnq
kd
kda
kdm
ke
keaton
keep
kefej
keith
kelly
kelta
kelti
keltski
kem
kemal
ken
kenan
kenija
kenije
keniji
kennedy
kennedyja
kenneth
kenny
kent
kenta
kentaur
kentucky
kepler
keramic
keramika
keramike
kernel
kernela
kes
kesira
keto
kevin
kew
key
kf
kg
kh
kha
khan
ki
kiaa
kic
kid
kidney
kidric
kids
kih
kijev
kijeva
kijevske
kijevu
kila
kile
kill
killer
kilograma
kilometar
kilometara
kilometra
kim
kimi
kin
kina
kinase
kinaza
kinaze
kinazu
kind
kine
kinematika
kineska
kineske
kineski
kineskih
kineskim
kinesko
kineskog
kineskoj
kineskom
kinesku
kinetic
kineza
kinezi
king
kinga
kingdom
kings
kini
kinima
kinja
kinje
kino
kinom
kinu
kip
kipar
kipovi
kipra
kipru
kir
kira
kirk
kirka
kis
kisela
kisele
kiseli
kiselim
kiselina
kiselinama
kiseline
kiselini
kiselinom
kiselinu
kiseljak
kiselost
kiselosti
kisic
kisik
kisika
kisikom
kiss
kit
kita
kitova
kitovi
kj
kk
kkinen
kl
kladanj
kladogram
kladus
kladusa
klaic
klan
klana
klanac
klanja
klanjaju
klanjamo
klanjanje
klanjati
klanjec
klarinet
klas
klasa
klase
klasi
klasic
klasificira
klasificiraju
klasificiran
klasificirane
klasificirani
klasificirati
klasifikacija
klasifikacije
klasifikaciji
klasifikaciju
klaster
klastera
klasteri
klasu
klaudija
klaudije
klaus
klavijatura
klavijature
klavijaturista
klavir
klavira
klec
klein
klement
kleopatra
kletva
kletve
klf
klic
klijent
klima
klimatske
klimatski
klimatskih
klimatskim
klime
klimi
klimom
klimu
klinic
klinika
klip
klis
klitorisa
klix
klizac
klizanja
klizanje
klizanju
klizis
kljuc
kljun
klobuk
klonirali
kloniranje
klonova
klos
klotzsch
klub
kluba
klubom
klubova
klubove
klubovi
klubovima
klubu
klupe
klupi
klupska
klupski
klupsko
klupskog
klupskom
km
kn
knautia
knef
knez
kneza
knezom
knezu
knight
knin
knina
kninska
kninskoj
knj
knjaz
knjiga
knjigama
knjige
knjigom
knjigu
knjiz
knjizi
know
knowledge
knowles
known
knuth
ko
koa
koagulacije
koalicija
koalicije
koaliciji
koaliciju
koautor
kobalt
kobas
kobilica
koc
koch
kocjan
kocka
kocke
kod
koda
kodeks
kodeksa
kodira
kodiraju
kodirajuc
kodiran
kodirana
kodirane
kodirani
kodiranja
kodiranje
kodom
kodon
kodona
kodova
kodovi
kodu
koeficijent
koeficijenta
koenzim
koenzima
kofaktor
kofaktora
kofja
kog
koga
kognitivna
kognitivne
kohorti
koj
koja
koje
kojeg
kojega
kojem
kojemu
koji
kojic
kojih
kojim
kojima
kojoj
kojom
koju
kokain
kokaina
kokos
kol
kola
kolac
kolagen
kolagena
kolama
kolaps
kolapsa
kolas
kole
koledz
kolega
kolegama
kolege
kolekcija
kolekcije
kolekciju
kolektiv
kolektivno
koli
kolibe
kolic
kolica
kolika
koliko
kolima
koljena
koljenima
koljeno
koljenu
koljke
koljki
kolo
kolokvijalno
kolom
kolona
kolone
koloni
kolonija
kolonijalne
kolonijalni
kolonijalnih
kolonijalnog
kolonijama
kolonije
koloniji
koloniju
kolonizacija
kolonizacije
kolonu
kolosijeka
kolovanja
kolovanje
kolovao
kolska
kolske
kolski
kolskih
kolskim
kolsko
kolskog
kolskoj
kolskom
kolstva
kolstvo
kolu
kolumbija
kolumbije
kolumbiji
kolumbijski
kolumbo
kom
koma
komad
komada
komade
komadi
komadic
komanda
komandant
komandanta
komandanti
komande
komandi
komandir
komandira
komandno
komandom
komandovao
komandu
kombinacija
kombinacijama
kombinacije
kombinaciji
kombinacijom
kombinaciju
kombinira
kombiniraju
kombinirani
kombinuje
kome
komedija
komedije
komediji
komediju
komentar
komentara
komentare
komentari
komentirao
komercijalna
komercijalne
komercijalni
komercijalnih
komercijalnim
komercijalno
komesar
komesara
kometa
komete
komic
kominterne
komisija
komisije
komisiji
komisiju
komitet
komiteta
komnen
komnena
komora
komore
komori
komoru
kompaktna
kompaktne
kompanija
kompanijama
kompanije
kompaniji
kompanijom
kompaniju
kompas
kompilacija
kompilacije
kompilacijski
kompjuterski
kompleks
kompleksa
kompleksan
komplekse
kompleksi
kompleksima
kompleksna
kompleksne
kompleksni
kompleksnih
kompleksnim
kompleksom
kompleksu
komplementa
komplet
kompletan
kompletna
kompletne
kompletno
kompletnu
komplikacija
komplikacije
komponenata
komponenta
komponentama
komponente
komponenti
komponentu
komponirana
komponirao
komponist
komponovao
kompozicija
kompozicije
kompoziciju
kompozitor
kompozitora
kompozitori
kompresije
kompromis
koms
komu
komuna
komunali
komune
komunicira
komuniciraju
komunicirati
komunikacija
komunikacije
komunikaciji
komunikacijski
komunikaciju
komunista
komunisti
komunistic
komunizam
komunizma
kon
konac
konak
konavle
konc
konca
koncentracija
koncentracijama
koncentracije
koncentraciji
koncentracijom
koncentraciju
koncentracioni
koncentric
koncentrirana
koncepcija
koncept
koncepta
koncepte
koncepti
konceptu
koncerata
koncert
koncerta
koncerte
koncerti
koncertima
koncertna
koncertne
koncertni
koncertu
kondenzacije
konfederacija
konfederacije
konferencija
konferencije
konferenciji
konferenciju
konfiguracija
konfiguracije
konfiguraciji
konfiguraciju
konflikt
konformacija
konformacije
konformacijske
konformaciju
kong
konga
kongenitalna
kongenitalne
kongenitalni
kongo
kongres
kongresa
kongresu
kongu
konj
konja
konjanika
konje
konji
konjic
konjica
konjice
konjicu
konjima
konjs
konju
konkretne
konkretno
konkurencija
konkurencije
konkurenciji
konkurencijsko
konkurencijskog
konkurenciju
konkursu
konrad
konsenzus
konstancija
konstanta
konstantan
konstante
konstantin
konstantina
konstantinopolj
konstantinopolja
konstantinopolju
konstantna
konstantne
konstantno
konstatiralo
konstitutivnih
konstrukcija
konstrukcije
konstrukciji
konstrukciju
konstruktor
konstruktora
konstruktori
kontakata
kontakt
kontakta
kontakte
kontakti
kontaktu
kontekst
konteksta
kontekstu
kontinenata
kontinent
kontinenta
kontinentalna
kontinentalne
kontinentalni
kontinentalno
kontinentalnog
kontinentalnom
kontinentalnu
kontinentima
kontinentu
kontinuirana
kontinuirane
kontinuirani
kontinuirano
kontinuitet
kontinuiteta
kontinuitetu
kontinuuma
kontra
kontrakcija
kontrakcije
kontrakciju
kontrast
kontrola
kontrole
kontroli
kontrolira
kontroliraju
kontrolirati
kontrolis
kontrolna
kontrolne
kontrolni
kontrolom
kontrolu
kontroverza
kontroverze
kontroverzi
kontroverzna
konture
konusa
konveksna
konvencija
konvencije
konvenciji
konvencijom
konvenciju
konvergencija
konvergencije
konvergira
konverzija
konverzije
konverziju
konzervacija
konzervativne
konzerviran
konzervirana
konzervirane
konzervirani
konzerviranih
konzola
konzole
konzorcij
konzul
konzula
konzulstva
konzumira
konzumiraju
koordinacije
koordinaciju
koordinata
koordinatama
koordinate
koordinatni
koordinira
kopac
kopc
kopenhagen
kopenhagenu
koper
kopija
kopije
kopiju
koplja
koplje
kopljem
kopna
kopnena
kopnene
kopneni
kopnenih
kopnenim
kopno
kopnu
koprivnic
koprivnica
kor
kora
korac
koraci
korak
koraka
korake
koraku
korc
kordic
kore
koreja
koreje
koreji
korejski
korejskog
koreju
korelacija
korelacije
korelaciji
korenica
kori
koric
korica
koridor
koridora
korijen
korijena
korijene
korijeni
korijenje
korijenu
koris
korisna
korisne
korisni
korisnic
korisnici
korisnicima
korisnih
korisnik
korisnika
korisnike
korisniku
korisnim
korisno
korist
koristan
koriste
koristec
koristi
koristila
koristile
koristili
koristilo
koristio
koristite
koristiti
korita
korito
korkuta
kornelije
korni
kornjac
koronavirusa
koros
korozije
koroziju
korpion
korporacija
korporacije
korpus
korpusa
korpusu
korteks
korteksa
kortizola
koru
korupcije
korus
kos
kosa
kosac
kose
kosi
kosmic
kosmos
kosom
kosova
kosovo
kosovska
kosovski
kosovu
kost
kosta
kostajnica
kostanjevica
kostarika
kostarike
kostel
kosti
kostic
kostiju
kostim
kostima
kostur
kostura
kosu
kot
kota
kotac
kotar
kotara
kotaru
koti
kotline
kotor
kotorskoj
kotromanic
kotska
kotske
kotski
kotskog
kotskoj
kotskom
kotsku
kov
kova
kovac
kovalentne
kovalentno
kovanica
kovanice
kovc
kovci
kove
kovec
kovi
kovic
kovima
kovo
koz
koza
kozac
kozara
kozarac
kozarska
koze
kozina
kozje
kozmetic
kp
kpj
kr
krac
kragujevac
kraj
kraja
krajem
krajeva
krajeve
krajevi
krajevima
krajina
krajine
krajini
krajinu
krajis
krajnja
krajnje
krajnjeg
krajnjem
krajnji
krajnjih
krajolik
krajolika
kraju
krak
kraka
krakova
kraku
kralj
kralja
kraljem
kraljev
kraljeva
kraljeve
kraljevec
kraljevi
kraljevic
kraljevima
kraljevina
kraljevine
kraljevini
kraljevinom
kraljevinu
kraljevo
kraljevog
kraljevoj
kraljevom
kraljevska
kraljevske
kraljevski
kraljevskih
kraljevskim
kraljevsko
kraljevskog
kraljevskoj
kraljevskom
kraljevsku
kraljevstava
kraljevstva
kraljevstvo
kraljevstvom
kraljevstvu
kraljevu
kraljic
kraljica
kraljice
kraljici
kraljicom
kraljicu
kralju
kramer
kramnik
kranj
kranjc
krapina
krapinsko
kras
kratak
krater
kratera
kratka
kratke
kratki
kratkih
kratkim
kratko
kratkog
kratkom
kratkoroc
kratkotrajne
kratkotrajno
kratku
krava
krave
krađe
krc
kreatin
kreatinina
kreator
krec
kreda
krede
kredita
kreira
kreiranje
kreirao
krene
krenu
krenula
krenule
krenuli
krenulo
krenuo
krenuti
kreolski
kres
kretala
kretali
kretanja
kretanje
kretanjem
kretanju
kretao
kretati
kreti
krevet
kreveta
krevetu
kric
krije
krijumc
krila
krilima
krilo
krilu
krim
krima
kriminal
kriminala
kriminalistic
krimski
krimskih
krimu
kris
krist
krista
kristal
kristala
kristale
kristali
kristalizira
kristalna
kristalne
kristalni
kristalnom
kristalnu
kriste
kristijan
kristina
kristofor
kristova
kristu
kriterij
kriterija
kriterije
kriteriji
kriterijima
kritic
kritici
kritika
kritike
kritikovao
kritiku
kritizirao
kriv
kriva
krivac
krivaja
krive
krivi
krivic
krivice
krivicu
krivim
krivo
krivulja
krivulje
kriz
kriza
krize
krizi
krizu
krk
krka
krki
krku
krlez
krlj
krljus
krma
krn
krob
krojac
krompir
krompira
kronberg
kros
krov
krova
krovna
krovom
krovu
kroz
krs
krst
krsta
krstac
krstas
krste
krstic
krstitelja
krsto
kru
krug
kruga
krugova
krugovi
krugovima
krugu
kruh
kruha
kruhova
kruna
krune
kruni
krunica
krunice
krunicu
krunidbe
krunisan
krunom
krunoslav
krunu
krupa
krupe
krupi
krupne
krus
kruz
krv
krvarenja
krvarenje
krvavac
krvavi
krvi
krvlju
krvna
krvne
krvni
krvnih
krvnim
krvno
krvnog
krvnoj
krvnom
krvnu
krvotok
krvotoka
krvotoku
krz
krzna
krzno
ks
ksenon
ksenona
ku
kuala
kuba
kube
kubi
kubic
kubikaz
kubrick
kuc
kud
kuda
kuga
kuge
kugla
kuglasta
kuglasto
kugle
kugli
kuglu
kuhanje
kuhinja
kuhinje
kuhinji
kuje
kuk
kuka
kuke
kukuruz
kukuruza
kula
kule
kulenovic
kuli
kulin
kulina
kulom
kult
kulta
kultni
kultura
kulturama
kulture
kulturi
kulturna
kulturne
kulturni
kulturnih
kulturnim
kulturno
kulturnog
kulturnoj
kulturnom
kulturnu
kulturolos
kulturom
kulturu
kulu
kum
kun
kuna
kunic
kunth
kup
kupa
kupac
kupalis
kupe
kupi
kupila
kupio
kupiti
kupljen
kupola
kupole
kupoli
kupolom
kupolu
kupova
kupovine
kupovinu
kupres
kupu
kupuje
kupuju
kur
kurejs
kurs
kursa
kurt
kurtovic
kurziv
kurzivu
kus
kusturica
kut
kutija
kutije
kutiju
kuvajt
kuvajta
kv
kvac
kvadrat
kvadrata
kvadratic
kvadratna
kvadratne
kvadratni
kvadratnih
kvadratnog
kvadratnom
kvalificirala
kvalificirale
kvalificirali
kvalificirane
kvalificirani
kvalificirao
kvalificirati
kvalifikacija
kvalifikacijama
kvalifikacije
kvalifikacijska
kvalifikacijske
kvalifikacijski
kvalifikacijskih
kvalifikacijsko
kvalifikacijskoj
kvalifikovana
kvalitet
kvaliteta
kvalitete
kvalitetno
kvalitetom
kvalitetu
kvantitativnih
kvantna
kvantne
kvantni
kvantno
kvantnog
kvantnoj
kvartet
kvarteta
kvas
kvasa
kvasac
kvasca
kvascu
kvrz
kw
kyle
l
la
lab
laban
label
labin
laboratorija
laboratorijama
laboratorije
laboratoriji
laboratorijske
laboratorijski
laboratorijskih
laboratorijskim
laboratoriju
laboratory
labs
labud
laburistic
lac
laccoptera
ladhi
ladislav
ladislava
lady
laga
lagano
lager
lagic
lago
laguna
lahka
lahke
lahki
lahkih
lahko
lahkoc
lahkog
lahu
lahum
lajos
laka
lakat
lakata
lake
lakers
laki
lakis
lako
laks
lakta
laktas
laktat
laktoza
laktoze
lakum
lalic
lam
lama
lambda
lambert
lamiales
lamina
lamine
lampe
lamu
lan
lana
lanac
lanaca
lanak
lanaka
lanc
lanca
lancaster
lance
lancem
lanci
lancima
lancu
land
lane
lang
lange
langer
language
languages
lani
lanica
lanicama
lanice
lanis
lanka
lanke
lankonoz
lanku
lanom
lanova
lanove
lanovi
lanovima
lansera
lansiran
lansiranja
lansiranje
lanstva
lanstvo
lantan
lantanoida
lanu
laos
lapac
laqad
lara
large
larry
lars
larsen
larve
larvi
las
laser
lasera
laserski
laserskim
lasker
last
lat
late
lathyrus
latica
latice
latin
latinic
latinica
latinici
latinoameric
latinska
latinske
latinski
latinskih
latinskim
latinsko
latinskog
latinskoj
latinskom
latvija
latvije
laura
lauren
laurence
laurent
laurie
laurin
lausanne
lav
lava
lave
lavov
lavova
lavovi
law
lawrence
layer
laz
laza
lazar
lazara
lazarevic
laze
lazic
lazio
lađa
lađe
lađu
lb
lc
ld
le
lea
league
learning
leavenworth
leberecht
lec
lech
leconte
lecture
led
leda
ledena
ledene
ledeni
ledenih
ledenog
ledi
lednika
ledom
ledu
lee
leeds
left
legacy
legalno
legend
legenda
legendarni
legendarnog
legende
legendi
legends
legija
legije
legio
legura
legure
lehninger
leicester
leigh
leipzig
leipzigu
lejla
leksikografski
leksikon
lemuri
len
lena
lenart
lendava
lenjin
lennon
leo
leon
leona
leonard
leonarda
leonardo
leone
leonid
leopard
leoparda
leopold
leopolda
lepa
lepenica
lepidoptera
lepre
leptira
leptispa
leq
les
leskovac
leslie
less
let
leta
letac
lete
letec
letenja
leti
letio
letjelica
letjelice
letjelicu
letova
letove
letovi
letovima
letters
letu
leu
leucin
leucinom
leukemija
leukemije
leukocita
level
levi
levita
leviti
levitima
levy
lewis
lewisa
lewisove
lex
lexikon
lez
lezija
lezije
leđa
leđima
leđna
leđne
leđno
lf
lg
lgbt
lh
li
lia
liang
liban
libana
libanon
libanu
liber
liberalna
liberalne
liberalni
liberalnih
liberty
libija
libije
libiji
library
lic
lica
lice
licem
licenca
licence
licenci
licencom
licencu
licima
licu
lider
lidera
lideri
lidija
lie
life
liga
ligama
ligamenata
ligament
ligamenta
ligamenti
liganada
ligand
liganda
ligande
ligandi
ligandima
ligas
ligaza
ligaze
lige
light
ligi
ligu
ligue
lih
lihtens
lijaza
lijec
lijek
lijeka
lijekova
lijekove
lijekovi
lijekovima
lijep
lijepa
lijepe
lijepi
lijepih
lijepim
lijepo
lijepom
lijepu
lijeva
lijeve
lijevi
lijevo
lijevog
lijevoj
lijevom
lijevu
lijezda
lijezdama
lijezde
lik
lika
like
liki
likom
likova
likove
likovi
likovima
likovna
likovne
likovni
likovnih
liku
lilium
lily
lim
lima
limes
limfne
limfni
limfnih
limfnim
limfnog
limfocita
limfociti
limfocitima
limfom
limfoma
limit
limited
limits
limun
limunske
lin
linc
lincoln
lincolna
linda
lindl
line
linearna
linearne
linearni
linearno
lines
lingua
lingvista
lingvistic
lingvistika
linija
linijama
linije
liniji
linijom
liniju
link
linkova
linkovi
links
linnaeus
linus
linux
lion
lionel
lipa
lipid
lipida
lipidi
lipidni
lipnja
lipovac
lippincott
lira
lis
lisa
lisabon
lisac
lise
lisic
lisica
lisice
list
lista
listama
liste
listi
listic
listopada
listova
listove
listovi
listovima
listu
litara
literatura
literature
literaturi
literaturu
litice
litij
litija
litiji
little
liturgijski
litvanija
litvanije
litvaniji
litvanske
litvanski
liu
livade
livanjskog
live
liverpool
liverpoola
lives
livije
living
livna
livno
livnu
lix
lizin
lizina
lj
lja
ljaju
ljali
ljanja
ljanje
ljao
ljati
ljava
ljavanje
lje
ljec
ljekar
ljekara
ljekari
ljekovita
ljekovito
ljen
ljena
ljene
ljeni
ljenja
ljenje
ljenjima
ljenju
ljeno
ljenova
ljenovi
ljepila
ljepota
ljepote
ljepoti
ljepotu
ljeps
ljes
ljestvica
ljestvicama
ljestvice
ljestvici
ljeta
ljeti
ljetima
ljetna
ljetne
ljetni
ljetnih
ljetnim
ljetno
ljetnom
ljeto
ljetopis
ljevic
ljiljan
ljiljana
ljiljani
ljiv
ljiva
ljive
ljivi
ljivim
ljivo
ljivost
ljivosti
ljoi
ljubav
ljubavi
ljubavlju
ljubavna
ljubavne
ljubavni
ljubavnica
ljubavnika
ljubavnu
ljubi
ljubic
ljubija
ljubim
ljubinje
ljubis
ljubitelj
ljubitelja
ljubitelji
ljubljana
ljubljane
ljubljani
ljubo
ljubomir
ljubomoran
ljubus
ljude
ljudi
ljudima
ljudska
ljudske
ljudski
ljudskih
ljudskim
ljudsko
ljudskog
ljudskoj
ljudskom
ljudsku
ljudstva
ljus
ljusci
ljuska
ljuske
ljut
ljuta
ljuti
ljutomer
lk
ll
ller
lloyd
ln
lna
lo
lobanja
lobanje
loc
local
location
lociran
locirana
lockheed
locus
log
logaritam
logatec
logic
logici
logika
logike
logiku
logistic
logo
logor
logora
logoras
logore
logori
logorima
logoru
logos
lojalnost
lojne
loka
lokacija
lokacijama
lokacije
lokaciji
lokaciju
lokalitet
lokaliteta
lokaliteti
lokalitetima
lokalitetu
lokalizacija
lokalizacije
lokalizaciju
lokalizira
lokaliziran
lokalna
lokalne
lokalni
lokalnih
lokalnim
lokalno
lokalnog
lokalnoj
lokalnom
lokalnu
lokomotiva
lokomotive
lokus
lokusa
lokusi
lokusu
lola
lom
loma
lonc
london
londona
londonski
londonskom
londonu
lonely
long
longitarsus
longrightarrow
look
lopare
lopatice
lopez
lopta
lopte
lopti
loptica
lopticu
loptom
loptu
lord
lorda
lorenzo
los
loss
lost
losti
lotar
lotus
lou
louis
louisa
louise
louisiana
louisu
louvre
lov
lova
lovac
lovaca
lovc
lovca
lovci
love
lovi
lovis
lovrec
lovrenovic
lovu
low
lower
loz
loza
loze
lp
lps
lr
lt
ltd
ltskog
lu
luburic
luc
luca
lucas
luci
lucija
lucije
lucius
lucy
lud
luda
ludilo
ludovik
ludovika
ludwig
ludwiga
lug
luigi
luis
luj
luja
luk
luka
lukac
lukas
lukavac
luke
lukic
lukom
lukova
lukovi
lukovica
lukovice
lukovima
luksemburg
luksemburga
luksemburgu
luksemburs
luku
lumen
lumena
luna
lunja
lupin
lupus
lus
lut
luta
luteinizirajuc
luther
luxembourg
luz
lv
lxb
lxc
lxd
lxe
lxf
ly
lynch
lyngstad
lynn
lyon
lys
m
ma
maa
maajka
maat
mac
machine
macintosh
macmillan
macula
mad
mada
madagaskar
madagaskara
madame
made
mader
madison
madona
madone
madonna
madrid
madrida
madridu
madz
mafijas
mag
magarca
magare
magazin
magazina
magazine
magazinu
magdalena
maggie
magic
magija
magije
magiju
magistarski
magistralne
magistralni
magistralnih
magistrirao
magla
maglaj
maglaju
magle
maglina
magline
magna
magnetna
magnetne
magnetni
magnetnih
magnetno
magnetnog
magnetnom
magnetskog
magnezij
magnezija
magnituda
magnitude
magnolia
magnoliopsida
magnum
magnus
maguire
mah
mahala
mahale
mahali
mahathir
mahir
mahmud
mahmurluka
mahmut
mahom
mahovina
mahovine
mai
maiden
mail
main
maine
mainz
maj
maja
majc
majci
majdan
maje
majka
majke
majki
majko
majkom
majku
majmun
majmuna
majmune
majmuni
major
majora
majstor
majstora
majstori
maju
mak
maka
makar
make
makedonaca
makedonci
makedonija
makedonije
makedoniji
makedonijom
makedoniju
makedonska
makedonske
makedonski
makedonskih
makedonskog
makedonskom
making
makrofaga
makrofagi
makromolekula
maksim
maksimalna
maksimalne
maksimalni
maksimalnih
maksimalno
maksimalnom
maksimalnu
maksimilijan
maksimovic
maksimum
mal
mala
malajski
malarije
malavi
malcolm
male
malen
malena
males
malezija
malezije
maleziji
malformacija
malformacije
malfoy
mali
maligni
malignih
malih
malija
malik
malim
malis
malmo
malo
malobrojnih
malog
maloj
malom
malpighiales
malta
malte
maltes
malti
malu
maly
mama
mammalia
man
mana
management
manager
manase
manastir
manastira
manastiri
manastiru
manchester
mandat
mandata
mandatom
mandibule
mandic
mandz
mane
manevar
manfred
manga
mangan
mangana
mango
manhattan
mani
manifestacija
manifestacije
manifestira
manifestuje
manin
manipulacija
manipulacije
manja
manjak
manje
manjeg
manjem
manji
manjih
manjim
manjina
manjine
manjinski
manjka
manjoj
manjom
manju
mann
mannheim
manoza
manu
manual
manuel
manuela
many
mao
map
mapa
mape
mapi
mapirali
mapiranje
mapk
maps
mapu
mar
mara
maraka
maraton
marc
marcel
march
marco
marcus
mare
margaret
margareta
margarete
margin
mari
maria
maribor
mariboru
maric
marica
marie
marija
marijan
marije
mariji
marijin
marijina
marijo
marijom
mariju
marilyn
marin
marina
marine
mariner
marinkovic
marino
mario
marion
marjan
marjanovic
marje
mark
marka
markama
marke
marker
markera
markeri
market
marketing
marketins
marki
markica
markl
marko
markom
markovic
marks
marksistic
marksizam
markt
marku
markus
marof
maroka
maroko
maroku
marple
mars
marsa
marseille
marshall
marsu
mart
marta
marth
martha
marti
martin
martina
martini
martinovic
martno
martu
marty
marus
marvin
marx
mary
maryland
marylanda
marylandu
mas
masa
masakr
masakra
masakri
masama
mase
maseni
masi
masiv
masiva
mask
maska
maske
maskota
maslac
masles
maslic
maslina
masline
masna
masne
masni
masnih
masnim
masno
masnoc
masnog
masnom
masom
mason
masovna
masovne
masovni
masovnih
masovnim
masovno
masovnog
masovnom
masovnu
mass
massachusetts
massimo
mast
master
masters
mastersa
mastersu
masti
mastocita
masu
mat
mata
match
mate
matej
matematic
matematici
matematika
matematike
matematiku
mater
materials
materice
materija
materijal
materijala
materijale
materijali
materijalima
materijalna
materijalne
materijalni
materijalnih
materijalno
materijalnog
materijalnu
materijalom
materijalu
materije
materijom
materiju
maternic
maternica
maternice
maternici
maternji
math
mathbb
mathbf
mathematical
mathematics
mathrm
mati
matic
matica
matice
matija
matilda
mato
matos
matrica
matrice
matricu
matriks
matriksa
matrix
matt
matter
matthew
matthias
maulik
maurice
mauzolej
max
maxa
maxim
maxima
maximus
maxwell
may
maya
mayer
mayr
maz
maziva
mazivom
mađ
mađara
mađari
mađarska
mađarske
mađarski
mađarskog
mađarskoj
mađarskom
mađarsku
mb
mbox
mbt
mc
mccarthy
mccartney
mcg
mcgraw
mch
mclaren
md
me
mea
mec
mechanics
med
meda
medalja
medalje
medaljom
medalju
media
medicago
medical
medici
medicina
medicine
medicini
medicinska
medicinske
medicinski
medicinskih
medicinskim
medicinsko
medicinskog
medicinskoj
medicinskom
medicinsku
medicinu
medieval
medij
medija
medijalna
medijalni
medijalno
medije
mediji
medijima
medijska
medijske
medijski
mediju
medina
medine
medini
medinu
mediteran
mediterana
mediteranska
mediteranske
mediteranskim
mediteranu
medresa
medrese
medresi
medresu
medvedev
medvjed
medvjeda
medvjedi
medz
mega
mehanic
mehanici
mehanika
mehanike
mehanizam
mehanizama
mehanizma
mehanizme
mehanizmi
mehanizmima
mehanizmom
mehanizmu
mehki
mehkog
mehkus
mehmed
mehmeda
meho
mejoza
mejoze
mejozi
mekanske
meke
meki
mekke
mekki
mekku
meks
meksic
meksika
meksiko
meksiku
mekteb
meku
mel
melanina
melanogaster
melanoma
melatonin
melbourne
meleci
melek
meleka
meleki
melodic
melodija
melodije
melodiju
membrana
membranama
membrane
membrani
membranom
membranska
membranske
membranski
membranskih
membranskog
membranu
memic
memluc
memorandum
memorial
memoriam
memorija
memorijalni
memorije
memoriji
memorijske
memoriju
memory
memphis
men
mena
menadz
mendeljejev
mene
meni
menih
menjaci
menjacima
menjaka
menlo
menog
menoj
menstruacije
mensur
ment
menta
mentalna
mentalne
mentalni
mentalnih
mentalno
mentalnog
mentalnu
mentor
menu
mequinenza
mer
mercedes
mercedesa
mercury
mere
meri
meridijan
meridijana
merkur
merlin
mery
mes
mesa
mesdz
meseca
mesic
mesihovic
meso
mesoz
mess
messenger
messier
mesta
mesto
mestu
met
meta
metabolic
metabolit
metabolita
metaboliti
metabolizam
metabolizira
metaboliziraju
metabolizma
metabolizmu
metacritic
metafizic
metak
metaka
metal
metala
metale
metali
metalima
metallica
metalna
metalne
metalni
metalnih
metalnim
metalnog
metalurgija
metalurs
metan
metana
metar
metara
metastaza
metastaze
metazoa
mete
meteorita
meteorolos
method
methods
meti
metil
metilacija
metilacije
metilmalonil
metiltransferaza
metionin
metionina
metka
metkovic
metlika
metod
metoda
metodama
metode
metodi
metodija
metodije
metodima
metodom
metodu
metra
metric
metro
metroa
metropola
metropolitan
metropolitansko
metru
metu
mev
mexico
mey
meyer
mez
mezarje
mezheb
mezheba
mezoderm
mezoderma
mezopotamije
mezopotamiji
mezopotamiju
međedovic
međimurska
međimurskoj
među
međuc
međudrz
međunarodna
međunarodne
međunarodni
međunarodnih
međunarodnim
međunarodno
međunarodnog
međunarodnoj
međunarodnom
međunarodnu
međusobna
međusobne
međusobni
međusobnih
međusobnim
međusobno
međusobnog
međusobnom
međusobnu
međutim
međuvremenu
mfn
mg
mgm
mgu
mh
mhc
mhn
mhz
mi
mia
miami
miamiju
mic
mice
michael
michaela
michel
michelangelo
michelin
michelle
michigan
mick
microctenochira
microsoft
microsofta
mid
middle
middleton
midhat
mie
mig
migracija
migracije
migraciju
migrene
migriraju
miguel
miha
mihael
mihaela
mihail
mihaila
mihailo
mihailovic
mihajlo
mihajlovic
miholjac
mijatovic
mijenja
mijenjaju
mijenjajuc
mijenjala
mijenjali
mijenjanja
mijenjanje
mijenjao
mijenjati
mijes
mika
mike
miki
miklavz
mikro
mikroba
mikroc
mikroorganizama
mikroorganizmi
mikrornk
mikroskop
mikroskopa
mikroskopija
mikroskopom
mikroskopske
mikroskopski
mikrotubula
mikrotubulama
mikrotubule
mikulic
mil
mila
milan
milana
milankovic
milano
milanovac
milanovic
milanu
mile
milena
milenija
milenijuma
milenko
miles
miletic
mili
milic
milica
milicije
milijarde
milijardi
milijardu
milijuna
milimetara
milion
miliona
milione
milioni
military
milja
miljacke
milje
miljenko
milka
mill
miller
million
mills
milo
milodar
milorad
milos
milosrdan
milosrdni
milosrdnog
milosrđa
milosrđe
milost
milosti
milostinju
milostivog
milovan
milton
milutin
milwaukee
mim
mimo
min
mina
minas
mind
mine
mineral
minerala
minerale
minerali
mineralima
mineralne
mineralnih
ming
minhen
minhenu
minhum
mini
minijatura
minijature
minimalna
minimalne
minimalni
minimalno
minimalnu
minimum
ministar
ministara
ministarstava
ministarstva
ministarstvo
ministarstvu
ministra
ministre
ministri
ministrica
ministrom
minj
minnesota
minobacac
minor
minsk
minus
minuta
minute
minuti
minutni
minutu
mio
miodrag
miokarda
miopatija
miozin
miozina
miq
mir
mira
miralem
miran
miranda
miraz
miri
miris
mirisa
mirise
mirisni
mirisom
mirjana
mirko
mirkovic
mirna
mirne
mirni
mirnim
mirnk
mirno
miro
mirom
miroslav
miroslava
mirovanja
mirovanju
mirovne
mirovni
mirovnih
mirovnim
mirovnog
mirsad
miru
mirza
mis
misa
misao
mise
misens
misija
misijama
misije
misiji
misiju
misionari
misle
mislec
misli
mislili
mislilo
mislim
mislio
mislis
mislite
misliti
miss
mission
mississippi
missouri
misterija
misterije
mistic
misty
mit
mita
mitchell
mitf
mitinga
mitohondrija
mitohondrijama
mitohondrije
mitohondrijska
mitohondrijske
mitohondrijski
mitohondrijskog
mitohondrijsku
mitologija
mitologije
mitologiji
mitolos
mitovi
mitoza
mitoze
mitraljez
mitraljeza
mitraljezom
mitropolit
mitrovic
mitrovica
mitsubishi
mitu
mix
mj
mjehur
mjehura
mjehuric
mjenjac
mjera
mjerama
mjere
mjerenja
mjerenje
mjerenjem
mjereno
mjeri
mjerila
mjeriti
mjerna
mjerne
mjernih
mjeru
mjes
mjesec
mjeseca
mjeseci
mjesecima
mjesecu
mjesna
mjesne
mjesni
mjesnih
mjesnim
mjesta
mjestima
mjesto
mjestom
mjestu
mjuzikl
mjuzikla
mjuziklu
mk
mksj
ml
mlad
mlada
mladalac
mlade
mladen
mladez
mladi
mladic
mladih
mladim
mladima
mladog
mladoj
mladom
mladost
mladosti
mladoz
mladu
mladunaca
mladunc
mladunci
mlaka
mlađa
mlađe
mlađeg
mlađem
mlađi
mlađih
mlađim
mlađu
mlec
mletac
mlijec
mlijeka
mlijeko
mlijeku
mlin
mls
mm
mmf
mmhg
mmol
mmp
mn
mno
mnoga
mnoge
mnogi
mnogih
mnogim
mnogima
mnogo
mnogobos
mnogoboz
mnogobrojna
mnogobrojne
mnogobrojni
mnogobrojnih
mnogobrojnim
mnom
mnos
mnoz
mo
moab
moaba
mobile
mobilizaciju
mobilne
mobilni
mobilnih
mobilnost
moc
mod
moda
mode
model
modela
modele
modeli
modelima
modeliranje
modelni
modelom
modelu
moderan
modern
moderna
moderne
moderni
modernih
modernim
modernizacija
modernizacije
moderno
modernog
modernoj
modernom
modernu
modi
modificirana
modificirane
modificirani
modifikacija
modifikacije
modifikaciju
modni
modric
modrus
modul
modula
modulator
moffat
mog
moga
mogao
mogas
mogla
mogle
mogli
moglo
mogu
moguc
mohamed
mohammed
moj
moja
moje
mojeg
mojega
mojem
moji
mojih
mojim
mojoj
mojsije
moju
mok
mokrac
mokronog
mol
molbu
moldavija
moldavije
moldaviji
mole
molec
molecular
molekula
molekulama
molekularna
molekularne
molekularni
molekularnih
molekule
molekuli
molekulska
molekulske
molekulski
molekulskih
molekulskoj
molekulskom
molekulsku
molekulu
moli
molibden
molibdena
molim
molimo
molio
molite
moliti
molitva
molitve
molitvi
molitvu
molly
molotov
molu
mom
momak
momc
momci
moment
momenta
momentu
mon
mona
monaco
monah
monaha
monaka
monako
monaku
monarh
monarha
monarhija
monarhije
monarhiji
monarhiju
monas
monasi
mone
monetarne
money
monfils
mongola
mongoli
mongolija
mongolije
mongolski
moni
monica
monitor
monk
mono
monografija
monokotiledona
monokotiledone
monoksid
monomer
monomera
monooksigenaza
monopol
monroe
mons
mont
montana
montaz
monte
montenegro
monteno
montgomery
montiran
montreal
montrealu
moo
moon
moore
mora
morac
moraju
moral
morala
morale
morali
moralna
moralne
moralni
moralno
moralo
moram
moramo
moran
morao
moras
morate
morati
moravc
morave
moravice
moravske
more
morem
moreno
moreplovac
moreuz
moreuza
morfologija
morfologije
morfologiji
morfologiju
morfolos
morgan
morima
mornara
mornaric
mornarica
mornarice
mornarici
mornaricu
morning
morris
morrison
morrissey
morska
morske
morski
morskih
morskim
morskog
morskoj
morskom
morsku
moru
mos
moscow
moses
moskva
moskve
moskvi
moskvu
moslavac
mosque
moss
most
mosta
mostar
mostara
mostarski
mostarskog
mostaru
mostom
mostova
mostove
mostovi
mostu
mosul
mother
motion
motiv
motiva
motive
motivi
motivima
motivom
moto
motor
motora
motore
motori
motorima
motorizovana
motorizovane
motorna
motorne
motorni
motornih
motornog
motorom
motors
motoru
mount
mountain
mouse
move
movement
movie
movies
moz
mozaic
mozaici
mozaicima
mozaik
mozaika
mozak
mozambik
mozart
mozarta
moze
mozga
mozgu
mozirje
mp
mps
mr
mrac
mrak
mraka
mraku
mramor
mrava
mraz
mrez
mri
mrkonjic
mrlja
mrlje
mrna
mrpl
mrps
mrs
mrtav
mrtva
mrtvac
mrtve
mrtvi
mrtvih
mrtvim
mrtvo
mrtvog
mrz
mrzi
ms
msh
msn
msud
mt
mtdnk
mtor
mtv
mu
muc
much
mudar
mudraca
mudri
mudrost
mudrosti
mudz
muell
muftija
muh
muha
muhadz
muhamed
muhameda
muhammad
muhammed
muhammeda
muhammedu
muharem
muhe
mujezinovic
mujo
muka
muke
muku
mula
mulabdic
mulholland
muller
multi
multietnic
multinacionalne
multipla
multiple
muminovic
mun
munara
munare
munarom
municije
municiju
munja
munje
mup
murat
murata
muri
murphy
murray
murska
mus
musa
muscle
musculus
muse
museum
musi
music
muslim
musliman
muslimana
muslimane
muslimani
muslimanima
muslimanska
muslimanske
muslimanski
muslimanskih
muslimanskim
muslimansko
muslimanskog
muslimanskom
muslimansku
must
mustafa
mustafe
mustafic
musu
mutacija
mutacijama
mutacije
mutacijom
mutaciju
mutant
mutanti
mutantni
mutation
mutations
mutaza
mutirani
muz
muzej
muzeja
muzeji
muzejima
muzeju
muzic
muzici
muzika
muzike
muzikom
muziku
mv
mvp
mw
my
myc
mystery
mz
n
na
nabijene
nabijenih
nabla
naboj
naboja
nabor
nabora
nabori
nabukodonozor
nac
nach
nacija
nacijama
nacije
nacional
nacionalista
nacionalisti
nacionalistic
nacionalizam
nacionalizma
nacionalna
nacionalne
nacionalni
nacionalnih
nacionalnim
nacionalno
nacionalnog
nacionalnoj
nacionalnom
nacionalnost
nacionalnosti
nacionalnu
nacista
nacisti
nacistic
nacistima
nacl
nacrt
nacrta
nad
nada
nadahnuc
nadajuc
nadal
nadala
nadali
nadalje
nadao
nadbiskup
nadbiskupa
nadbiskupije
nadbubrez
nade
nadgleda
nadgledao
nadgrobni
nadgrobnih
nadh
nadi
nadimak
nadimkom
nadjac
nadlez
nadmas
nadmoc
nadmorska
nadmorske
nadmorskim
nadmorskoj
nadogradnja
nadogradnje
nadoknaditi
nadolazec
nadovezuje
nadp
nadph
nadraz
nadred
nadu
nadvojvoda
nadvojvode
nadvojvotkinja
nadz
nadzor
nadzora
nadzorom
nafta
nafte
naftna
naftne
naftnih
nagađanja
nagib
naglas
naglasak
naglasio
naglasiti
naglaskom
nagli
naglo
naglog
nagovjes
nagovor
nagovorio
nagovoriti
nagrada
nagrade
nagradi
nagradom
nagradu
nagrađen
nagrađena
nagrađeni
nah
nahija
nahije
nailazi
naime
nais
naizgled
naizmjenic
naj
najava
najavila
najavio
najavljen
najavljeno
najavljuje
najbliz
najbogatijih
najbolja
najbolje
najboljeg
najboljem
najbolji
najboljih
najboljim
najboljom
najbolju
najbrojniji
najbrz
najc
najdraz
najduz
najefikasnija
najefikasniji
najgore
najgus
najistaknutiji
najistaknutijih
najistoc
najjac
najjednostavniji
najjuz
najkasnije
najkrac
najlaks
najljeps
najmanja
najmanje
najmanji
najmanjih
najmanju
najmlađa
najmlađe
najmlađeg
najmlađi
najmoc
najniz
najnovija
najnovije
najnoviji
najoc
najpopularnija
najpopularniji
najpopularnijih
najposjec
najpoznatija
najpoznatije
najpoznatiji
najpoznatijih
najpoznatijim
najprestiz
najprije
najprodavaniji
najranija
najranije
najraniji
najranijih
najras
najrasprostranjeniji
najs
najsiromas
najsjajnija
najsnaz
najstabilniji
najstarija
najstarije
najstarijeg
najstariji
najstarijih
najstarijim
najtez
najuc
najuspjes
najuticajnijih
najuz
najvaz
najvec
najvis
najvjerojatnije
najvjerovatnije
najz
najzad
najzastupljeniji
najznac
nakai
nakit
nakita
naklada
naklonost
naknada
naknade
naknadne
naknadno
naknadu
nakon
nakratko
naks
nakupine
nakupljanja
nakupljanje
nalaz
nalaza
nalaze
nalazi
nalazila
nalazile
nalazili
nalazilo
nalazima
nalazimo
nalazio
nalazis
nalaziti
nalic
nalik
nalikuje
nalikuju
nalog
nalogu
naloz
nam
nama
namaz
namaza
name
namec
names
nametnuo
nametnuti
namibija
namibije
namibiji
namijenjen
namijenjena
namijenjene
namijenjeni
namijenjeno
namirnica
namirnice
namjena
namjene
namjenu
namjera
namjerava
namjeravao
namjere
namjeri
namjerno
namjerom
namjeru
namjes
namjesnik
namjesnika
namjesnis
nana
nancy
nanijeti
nano
nanoc
nanos
nanose
nanosi
nanovo
naoc
naoruz
napad
napada
napadac
napadaju
napadali
napade
napadi
napadima
napadne
napadnu
napadnuta
napadom
napadu
napajanje
napala
napale
napali
napao
napasti
napetost
napetosti
napis
napisala
napisali
napisan
napisana
napisane
napisani
napisano
napisao
napisati
napitak
naplac
napokon
napole
napoleon
napoleona
napoli
napolje
napomena
napomene
napomenu
napomenuti
napominje
napon
napona
naponski
napor
napora
napore
napori
naporima
naposljetku
naprave
napravi
napravila
napravili
napravio
napraviti
napravljen
napravljena
napravljene
napravljeni
napravljenih
napravljeno
napredak
napredna
napredne
napredovala
napredovanja
napredovanje
napredovanju
napredovao
napredovati
napreduje
napreduju
napretka
napretku
naprezanja
naprezanje
naprijed
naprimjer
naprotiv
napulj
napulja
napulju
napuni
napus
napuste
napusti
napustila
napustili
napustio
napustiti
naranc
narandz
naras
naraste
narasti
narav
naravi
naravno
naredba
naredbe
naredbi
naredbom
naredbu
naredila
naredio
naredna
naredne
naredni
narednih
narednik
narednim
narednog
narednoj
narednom
narednu
naređenja
naređenje
naređenju
naređeno
naređuje
narjec
naroc
narod
naroda
narode
narodi
narodima
narodna
narodne
narodni
narodnih
narodnim
narodno
narodnog
narodnoj
narodnom
narodnooslobodilac
narodnosni
narodnosti
narodnu
narodom
narodu
naruc
narudz
narus
nas
nasa
naselili
naselja
naseljava
naseljavaju
naseljavali
naseljavalo
naseljavanja
naseljavanje
naselje
naseljem
naseljen
naseljena
naseljene
naseljeni
naseljenih
naseljenim
naseljeno
naseljenog
naseljenosti
naseljima
naselju
nash
nasilja
nasilje
nasiljem
nasilju
nasilno
naslaga
naslage
naslijedi
naslijedila
naslijedili
naslijedio
naslijediti
naslijeđa
naslijeđe
naslijeđen
naslikao
nasljedna
nasljedne
nasljedni
nasljednica
nasljednici
nasljednicima
nasljednih
nasljednik
nasljednika
nasljednikom
nasljednom
nasljedstva
nasljedstvo
nasljeđa
nasljeđe
nasljeđivanja
nasljeđivanje
nasljeđivanju
nasljeđuje
nasljeđuju
naslov
naslova
naslovna
naslovnu
naslovom
naspram
nastajanja
nastajanje
nastajanju
nastaje
nastaju
nastala
nastale
nastali
nastalih
nastalo
nastanak
nastane
nastanili
nastanio
nastanjuje
nastanjuju
nastanka
nastankom
nastanku
nastao
nastati
nastava
nastavak
nastavaka
nastavci
nastave
nastavi
nastavila
nastavile
nastavili
nastavilo
nastavio
nastaviti
nastavka
nastavkom
nastavku
nastavlja
nastavljaju
nastavljajuc
nastavljen
nastavljena
nastavljeno
nastavni
nastavnik
nastavnika
nastavu
nastojala
nastojali
nastojanja
nastojanje
nastojanju
nastojao
nastoje
nastojec
nastoji
nastup
nastupa
nastupaju
nastupajuc
nastupala
nastupali
nastupao
nastupati
nastupe
nastupi
nastupila
nastupili
nastupilo
nastupima
nastupio
nastupiti
nastupom
nastupu
nasumic
nasuprot
nat
natalie
nataliteta
natas
nathan
nation
national
nations
natjec
natjecanja
natjecanje
natjerao
nato
natpis
natpisa
natpisi
natpisima
natpisom
natpisu
natporodica
natporodice
natprirodno
natrag
natrij
natrija
natural
nature
nauc
nauci
nauk
nauka
naukama
nauke
nauku
nauru
nav
naval
navare
navec
naveden
navedena
navedene
navedeni
navedenih
navedenim
navedeno
navedenog
navedenom
navedite
navela
naveli
navelo
naveo
navesti
navigacione
navigacioni
navijac
navika
navike
navis
navjes
navkutije
navode
navodec
navodi
navodima
navodite
navodne
navodni
navodnjavanje
navodno
navođenje
navrata
navrs
naz
nazad
naziv
naziva
nazivaju
nazivajuc
nazivala
nazivali
nazivamo
nazivan
nazivana
nazivao
nazivati
nazive
nazivi
nazivima
nazivom
nazivu
naznac
naznake
nazoc
nazove
nazva
nazvala
nazvali
nazvan
nazvana
nazvane
nazvani
nazvanih
nazvano
nazvanog
nazvanom
nazvanu
nazvao
nazvati
nađe
nađen
nađena
nađene
nađeni
nađeno
nađos
nađu
nb
nba
nbc
nbsp
ncbi
nchen
nchena
nchenu
nchez
ncl
nd
nda
ndel
ndez
ndh
ne
neal
neandertalaca
near
neba
nebesa
nebesima
nebeska
nebeske
nebeski
nebeskih
nebesko
nebeskog
nebeskom
nebo
neboder
nebojs
nebom
nebraska
nebu
nebula
nebulae
nebuleuses
nec
neda
nedaleko
nedavna
nedavne
nedavni
nedavno
nedd
nedelja
nedic
nedim
nedjelja
nedjelje
nedjelju
nedostaci
nedostajalo
nedostaje
nedostaju
nedostajuc
nedostatak
nedostataka
nedostatka
nedostatke
nedostatkom
nedostatku
nedovoljno
nedovrs
nedugo
neduz
nedvosmisleno
nedz
need
nees
neformalno
nefrona
neg
negativan
negativna
negativne
negativni
negativnih
negativnim
negativno
negativnog
negativnom
negativnu
negdje
negev
nego
nehrđajuc
neil
neill
neistraz
neizbjez
nejasan
nejasna
nejasno
nejasnoc
nejednakost
nejednakosti
nek
neka
nekad
nekada
nekadas
nekako
neke
neki
nekih
nekim
nekima
neko
nekodirajuc
nekog
nekoga
nekoj
nekolicina
nekoliko
nekom
nekretnine
nekropola
nekropole
nekropoli
nekroze
nektar
neku
nelson
nema
nemac
nemaju
nemam
nemamo
nemanja
nemanjic
nematerijalna
nematoda
nemir
nemira
nemire
nemiri
nemoc
nemoguc
nemoj
nemojte
nen
nenad
nenormalno
neo
neobavezno
neobic
neobisium
neobjas
neoc
neodluc
neodrz
neogranic
neolit
neolita
neolitske
neon
neophodan
neophodna
neophodne
neophodni
neophodno
neoplazme
neopredijeljeni
neorganske
neorganski
neorganskih
neovisno
neovisnost
nepal
nepaz
nepca
nepce
nepenthes
neplodnost
neplodnosti
nepodnos
nepomic
nepos
neposlus
neposredna
neposredne
neposredni
neposrednim
neposredno
neposrednog
neposrednoj
neposrednom
neposrednu
nepostojec
nepotpuna
nepotpuni
nepovjerenje
nepovratno
nepoz
nepoznat
nepoznata
nepoznate
nepoznati
nepoznatih
nepoznatim
nepoznato
nepoznatog
nepoznatom
nepoznatu
nepravde
nepravdu
nepravedni
nepravedno
nepravilna
nepravilne
nepravilno
nepravilnog
nepravilnosti
neprekidna
neprekidno
neprestano
neprijatelj
neprijatelja
neprijatelje
neprijateljem
neprijatelji
neprijateljima
neprijateljska
neprijateljske
neprijateljski
neprijateljskih
neprijateljstva
neprijateljstvo
neprijatelju
nepristupac
neptun
neq
nerava
neravnotez
nered
nereda
neretva
neretvanska
neretvanskog
neretvanskoj
neretve
neretvi
neretvu
nerijes
nerijetko
nerjes
nermin
nerv
nerva
nerve
nervi
nervna
nervne
nervni
nervnih
nervnim
nervno
nervnog
nervnom
nes
nesavrs
nesiguran
neslaganja
neslaganje
nesluz
nespecific
nesposobnost
nesrec
nesretan
nesretni
nestabilan
nestabilna
nestabilni
nestabilnost
nestabilnosti
nestaje
nestaju
nestala
nestale
nestali
nestalih
nestalo
nestanak
nestane
nestanka
nestao
nestas
nestati
nesumnjivo
nesvjesno
nesvrstanih
net
netac
netko
neto
netretic
network
neuc
neue
neum
neumann
neuobic
neuroanatomy
neurolos
neuron
neurona
neurone
neuroni
neuronima
neuronske
neuronskih
neuropatija
neuroscience
neurotransmiter
neurotransmitera
neurotransmiteri
neuspjeh
neuspjeha
neuspjehom
neuspjes
neutralan
neutralna
neutralne
neutralni
neutralnom
neutralnost
neutron
neutrona
neutroni
nevada
nevade
nevadi
nevaz
never
nevesinja
nevesinje
neville
nevinost
nevjerni
nevjernici
nevjernicima
nevjernika
nevjernike
nevjerovatno
nevladine
nevladinih
nevolja
nevolje
new
newcastle
newman
news
newton
next
nez
nezadovoljan
nezadovoljstva
nezadovoljstvo
nezaposlenost
nezaposlenosti
nezasic
nezavisan
nezavisna
nezavisne
nezavisni
nezavisnih
nezavisno
nezavisnog
nezavisnoj
nezavisnost
nezavisnosti
nezavisnu
neznatno
nezvanic
nf
ng
nga
ngc
ngel
ngf
nh
nhi
ni
nia
nic
nica
nicama
niccolo
nice
nicholas
nichols
nicholson
nici
nicima
nick
nico
nicola
nicolas
nicole
nicom
nicu
nie
nielsen
niemann
nigdje
niger
nigerija
nigerije
nigerijski
night
nigra
nih
nihad
nija
nijanse
nijansi
nijaz
nije
nijec
nijedan
nijedna
nijedno
nijednog
nijednom
nijednu
nijeg
nijem
nijemaca
nijemci
nijemcima
niji
nijih
nijim
nijom
niju
nik
nika
nikad
nikada
nikakav
nikako
nikakva
nikakve
nikakvih
nikakvo
nikakvog
nikakvu
nike
niki
nikl
nikla
niko
nikog
nikoga
nikola
nikolaj
nikolaja
nikole
nikolic
nikolu
nikom
nikome
nikotin
niks
niku
nil
nila
nim
nima
nimalo
nimcoindijska
nimfa
nimfe
nin
nina
nine
nintendo
ninu
nio
niro
nis
nisa
nisam
nisi
niska
niske
niski
niskih
niskim
nisko
niskog
niskoj
niskom
nisku
nismo
nistagmus
niste
nisu
nit
niti
nitko
nitrat
nitrata
nivo
nivoa
nivoe
nivoi
nivoima
nivoom
nivou
niz
niza
nizak
nizije
nizom
nizova
nizovi
nizozemska
nizozemske
nizozemski
nizozemskoj
nizu
nizvodno
nj
nja
njac
njaci
njacima
njak
njaka
njake
njaku
njama
njan
njava
njavaju
njavajuc
njavanja
njavanje
njavanju
nje
njeg
njega
njege
njegos
njegov
njegova
njegove
njegovi
njegovih
njegovim
njegovo
njegovog
njegovoj
njegovom
njegovu
njegu
njem
njemac
njemu
njen
njena
njene
njeni
njenih
njenim
njenja
njenje
njenjem
njenju
njeno
njenog
njenoj
njenom
njenu
njeva
njez
njezin
njezina
njezine
njezinu
nji
njic
njica
njice
njici
njicu
njih
njihov
njihova
njihove
njihovi
njihovih
njihovim
njihovo
njihovog
njihovoj
njihovom
njihovu
njim
njima
njime
njiva
njive
njivo
njoj
njom
njome
njost
njosti
nju
njujors
njus
nk
nkvd
nl
nlm
nm
nmda
nmr
nn
no
noafric
noameric
nob
nobel
nobelova
nobelove
nobelovu
noc
noel
noevropskom
nofantastic
nog
noga
nogama
noge
nogom
nogomet
nogometa
nogometas
nogometna
nogometne
nogometni
nogometnih
nogometnim
nogometno
nogometnog
nogometnoj
nogometnom
nogometnu
nogometu
nogu
noj
nokaut
nokia
nom
nomadski
nome
nomenclature
nomenklatura
nomenklature
nomenklaturi
nomenklaturu
nominacija
nominacije
nominaciju
nominalna
nominalne
nominalnom
nominiran
nominirana
nominirani
nominovan
non
none
nonjemac
nonsens
nop
nor
nora
nord
nordijska
nordijskom
norepinefrin
norepinefrina
norma
normal
normalan
normale
normalna
normalne
normalni
normalnih
normalnim
normalno
normalnog
normalnoj
normalnom
normalnu
norman
normandije
norme
normi
normu
north
northern
norton
norves
norvez
nos
nosa
nosac
nose
nosec
nosi
nosila
nosilac
nosilaca
nosile
nosili
nosio
nosioca
nosioci
nosis
nositelj
nositelja
nositelji
nositi
noslavenskih
nosne
nost
nosti
nostima
not
nota
notariae
note
notes
nothing
notoc
notosacantha
notranjska
notranjskoj
notre
nou
nov
nova
novac
novak
novaki
novakovic
novc
novca
novcem
novcu
nove
novel
novela
novele
novembar
november
novembra
novembru
novi
novigrad
novih
novija
novije
novijeg
noviji
novijih
novijim
novim
novina
novinama
novinar
novinara
novinare
novinari
novinarima
novinarka
novinarstvo
novine
novinski
novj
novkovic
novo
novog
novogodis
novoj
novom
novonastale
novorođenc
novost
novosti
novu
now
noz
nozi
np
npc
npr
nr
ns
nsa
nsaid
nsdap
nt
nter
nu
nuclear
nude
nudec
nudi
nudio
nuditi
nuh
nuklearna
nuklearne
nuklearni
nuklearnih
nuklearnim
nuklearno
nuklearnog
nuklearnoj
nuklearnom
nuklearnu
nukleinske
nukleinskih
nukleotid
nukleotida
nukleotidi
nukleozid
nula
nule
nuli
nulti
nultog
nulu
number
numbers
numeric
nun
nuri
nus
nuspojava
nuspojave
nuts
nutt
nuz
nv
ny
nytimes
nz
o
oa
ob
oba
obala
obalama
obale
obali
obalna
obalne
obalni
obalnim
obalno
obalom
obalu
obama
obaves
obaveza
obavezama
obavezan
obavezao
obaveze
obavezna
obavezni
obavezno
obavezu
obavezuje
obavezujuc
obavi
obavijes
obavijesti
obavijestio
obavijestiti
obavio
obaviti
obavjes
obavlja
obavljaju
obavljala
obavljali
obavljanja
obavljanje
obavljanju
obavljao
obavljati
obavljen
obavljena
obavljeno
obe
obec
oberliga
obes
obezbeđuje
obezbeđuju
obezbijedi
obezbjedila
obezbjeđuje
obic
obilazak
obilja
obilje
obiljez
obilno
obiluje
obim
obima
obimu
obis
obitelj
obitelji
objas
objasni
objasnio
objasniti
objava
objave
objavi
objavila
objavile
objavili
objavio
objaviti
objavljen
objavljena
objavljene
objavljeni
objavljenih
objavljenim
objavljeno
objavljenog
objavljenoj
objavljenom
objavljivanja
objavljivanje
objavljivanjem
objavljivao
objavljuje
objavljuju
objavu
obje
object
objedinjuje
objekat
objekata
objekt
objekta
objekte
objekti
objektima
objektiva
objektivno
objektu
objema
objes
oblac
oblaci
oblacima
oblak
oblaka
oblake
oblaku
oblas
oblast
oblasti
oblastima
oblaz
oblic
oblici
oblicima
oblik
oblika
oblike
oblikom
oblikovanja
oblikovanje
oblikovanju
oblikovao
obliku
oblikuje
oblikuju
obliz
obloge
obloz
obnas
obnavlja
obnavljanja
obnavljanje
obnova
obnove
obnovi
obnovio
obnoviti
obnovljen
obnovljena
obnovljene
obnovljeni
obnovljeno
obnovu
obodu
oboe
obogac
oboje
obojena
obojene
obojeni
obojenih
obojica
obolio
oboljele
oboljeli
oboljelih
oboljenja
oboljenje
oboren
obori
oborila
oborio
oboriti
oboz
obr
obrac
obrada
obrade
obradi
obradio
obradom
obradovic
obradu
obrana
obrane
obranu
obrasca
obrasce
obrasci
obrascima
obrascu
obrati
obratio
obratiti
obratno
obraz
obrazac
obrazaca
obrazloz
obrazovanja
obrazovanje
obrazovanju
obrazovati
obrazovna
obrazovne
obrazovni
obrazovnih
obrazovno
obrazuje
obrazuju
obrađeni
obrađuje
obrađuju
obred
obreda
obrede
obredima
obrenovic
obrisano
obrnuta
obrnuti
obrnuto
obroka
obroncima
obrtaja
obruc
obrve
observations
observatoire
observatory
obuc
obuhvac
obuhvata
obuhvataju
obuhvatala
obuhvatalo
obuhvatao
obuka
obuke
obuku
obzir
obzira
obzirom
oc
oca
ocean
ocem
ocijenio
ocjena
ocjene
ocjenjuje
ocjenom
ocjenu
oclc
oct
octhispa
october
ocu
od
oda
odabir
odabira
odabiranje
odabiru
odabrala
odabrali
odabran
odabrana
odabrane
odabrani
odabranih
odabrao
odabrati
odaje
odaji
odaju
odakle
odanost
odas
odatle
odavde
odavno
odbac
odbacila
odbacili
odbacio
odbaciti
odbacivanje
odbacuje
odbacuju
odbija
odbijaju
odbijanja
odbijanje
odbijao
odbije
odbijen
odbijena
odbijeni
odbila
odbili
odbio
odbiti
odbojci
odbojka
odbojkas
odbor
odbora
odbori
odboru
odbrambene
odbrambeni
odbrambenih
odbrambenog
odbrambenu
odbrana
odbrane
odbrani
odbranila
odbranio
odbraniti
odbranom
odbranu
ode
odgoj
odgovara
odgovaraju
odgovarajuc
odgovarala
odgovaralo
odgovarao
odgovarati
odgovor
odgovora
odgovoran
odgovore
odgovori
odgovorila
odgovorili
odgovorio
odgovoris
odgovoriti
odgovorna
odgovorne
odgovorni
odgovornih
odgovornim
odgovorno
odgovornog
odgovornost
odgovornosti
odgovorom
odgovoru
odigra
odigrala
odigrale
odigrali
odigralo
odigran
odigrana
odigrane
odigranih
odigranim
odigrano
odigrao
odigrati
odigravanja
odijela
odijelo
odisej
odiseja
odjec
odjednom
odjek
odjel
odjela
odjeljak
odjeljenja
odjeljenje
odjeljenju
odjeljku
odjelu
odlaganje
odlaska
odlasku
odlaz
odlazak
odlaze
odlazi
odlic
odlika
odlike
odlikovan
odlikovanja
odlikovanje
odlikuje
odlikuju
odlomak
odloz
odluc
odluci
odluka
odlukama
odluke
odlukom
odluku
odmah
odmaralis
odmazde
odmor
odmora
odn
odnese
odnijela
odnijeli
odnijeti
odnio
odnos
odnosa
odnose
odnosi
odnosila
odnosima
odnosio
odnositi
odnosno
odnosom
odnosu
odobrava
odobravanje
odobren
odobrena
odobrenja
odobrenje
odobreno
odobrila
odobrio
odos
odozdo
odozgo
odrasla
odrasle
odrasli
odraslih
odraslim
odraslog
odrasloj
odrastao
odraz
odrazne
odrec
odred
odreda
odredba
odredbama
odredbe
odredbi
odrede
odredi
odredila
odredili
odredio
odredis
odrediti
odrednica
odrednice
odrekao
određen
određena
određene
određeni
određenih
određenim
određeno
određenog
određenoj
određenom
određenu
određivanja
određivanje
određivanju
određuje
određuju
odric
odrjes
odrz
ods
odsjec
odsjeci
odsjek
odsjeka
odsjeku
odsluz
odstrani
odstraniti
odstupa
odstupanja
odstupanje
odsustva
odsustvo
odsustvu
odsutan
odsutni
odsutnosti
odu
oduprijeti
odus
odustaje
odustala
odustao
odustati
oduvijek
oduzeo
oduzeta
oduzeti
oduzima
oduzimanje
odvaja
odvajaju
odvajanja
odvajanje
odvajanjem
odvaz
odvede
odveden
odvedeni
odveli
odveo
odvesti
odvija
odvijaju
odvijala
odvijanje
odvijao
odvijati
odvode
odvodi
odvojen
odvojena
odvojene
odvojeni
odvojenih
odvojenim
odvojeno
odvoji
odvojila
odvojili
odvojio
odvojiti
odvrac
odz
oecd
of
ofanziva
ofanzive
ofanzivu
off
office
official
oficir
oficira
oficire
oficiri
ofk
oftalmologija
og
oganj
oglas
ogleda
ogledala
ogledalo
ogledalu
ognjen
ognjis
ogorc
ograda
ograde
ogranak
ogranic
ogranka
ogroman
ogromna
ogromne
ogromni
ogromnih
ogromnim
ogromno
ogromnog
ogromnom
ogromnu
ogrtac
ogulin
oh
ohio
oi
oil
ois
oj
ojac
ok
oka
okean
okeana
okeanija
okeanije
okeanima
okeanu
okidac
oklahoma
oklop
oklopa
oklopna
oklopne
oklopni
oklopnih
oklopno
oklopnog
oklopom
oko
okolici
okolina
okoline
okolini
okolinom
okolinu
okolis
okolna
okolne
okolnih
okolnim
okolnog
okolnosti
okolnostima
okolo
okom
okomita
okomito
okonc
okos
okosnicu
okp
okrec
okrene
okrenu
okrenula
okrenuli
okrenuo
okrenut
okrenuta
okrenute
okrenuti
okretanje
okriljem
okrs
okrug
okruga
okruge
okrugla
okrugli
okrugom
okrugu
okrunjen
okruz
okruzi
okruzima
oksid
oksida
oksidacija
oksidacije
oksidacijom
oksidacijska
oksidacijskim
oksidacijsko
oksidacijskom
oksidaciju
oksidaza
oksidi
oksidira
oksidiraju
oksidirajuc
oksidoreduktaza
oktavijan
oktobar
oktobarske
oktobra
oktobru
oku
okupacija
okupacije
okupacijom
okupaciju
okupatora
okupili
okupio
okupirala
okupirali
okupiti
okuplja
okupljaju
okupljanja
okupljanje
okus
okusa
okvir
okvira
okvire
okviri
okvirima
okviru
ol
ola
olajuwon
olakovic
olaks
old
ole
oleg
olga
olic
oliki
olimp
olimpijada
olimpijadama
olimpijade
olimpijadi
olimpijci
olimpijska
olimpijske
olimpijski
olimpijskih
olimpijskim
olimpijskog
olimpijskom
oliv
oliver
olivera
olivier
oljan
olova
olovo
olovom
olovu
olsen
oltar
oltara
oltaru
oluja
oluje
olympic
olympics
olympique
om
oman
omar
omega
omeks
omer
omera
ometa
ometaju
ometanje
ometati
omiljena
omiljeni
omim
omis
omjer
omjera
omjerom
omjeru
omladina
omladine
omladinske
omladinski
omladinskim
omladinskom
omnia
omoguc
omot
omota
omotac
on
ona
onaj
onako
onamo
once
onda
ondas
ondje
one
onemoguc
oni
onih
onim
onima
onkogena
online
only
ono
onog
onoga
onoj
onoliko
onom
onome
onosma
ontario
onu
oocita
op
opada
opadanja
opadanje
opala
opao
opasan
opasna
opasne
opasni
opasnih
opasnim
opasno
opasnost
opasnosti
opat
opatija
opatije
opatiji
opaz
opc
opcija
opcije
opciju
opeke
open
opena
openai
openu
opera
operacija
operacijama
operacije
operaciji
operacijom
operaciju
operatera
operativna
operativne
operativni
operativnih
operativnim
operativno
operativnog
operativnom
operativnu
operator
operatora
operatorname
opere
operi
operon
operona
operski
operu
opet
opg
opic
opis
opisa
opisala
opisali
opisan
opisana
opisane
opisani
opisanih
opisano
opisao
opisati
opisi
opisima
opisivanje
opisu
opisuje
opisuju
opisujuc
opljac
oplodnja
oplodnje
oplodnju
opne
opomena
oponas
oporavak
oporavio
oporavka
oporezivanja
opozicija
opozicije
opoziciju
opras
oprati
opravdanje
opravdano
oprema
opreme
opremi
opremljen
opremljena
opremljene
opremljeni
opremom
opremu
opros
oprost
oprosta
oprosti
oprostio
oprostiti
opruz
ops
opsada
opsade
opsadi
opsadom
opsadu
opseg
opsega
opsegu
opservatorija
opservatorije
opsez
opskrba
opskrbe
opskrbljuje
opskrbljuju
opskrbu
opsluz
opstanak
opstanka
opstati
opterec
optic
opticaj
opticaju
optika
optike
option
optionalni
optuz
opus
opusa
opustos
or
orah
orahovica
oralna
oralne
oralni
oralno
orange
orangutani
oranje
orao
oras
orba
orbita
orbitala
orbitale
orbitalni
orbite
orbiter
orbiti
orbitu
orchis
orden
ordena
ordenom
order
ordz
oregon
orehovec
ores
orf
orfej
org
organ
organa
organe
organela
organele
organi
organic
organima
organizacija
organizacijama
organizacije
organizaciji
organizacijom
organizaciju
organizam
organizama
organization
organizator
organizatora
organizatori
organizira
organiziraju
organizirala
organizirali
organiziran
organizirana
organizirane
organizirani
organiziranja
organiziranje
organizirano
organizirao
organizirati
organizma
organizme
organizmi
organizmima
organizmu
organizovala
organizovan
organizovana
organizovane
organizovani
organizovanje
organizovanju
organizovano
organizovao
organizuje
organizuju
organska
organske
organski
organskih
organskim
organskog
organskoj
organu
orgazam
orguljas
orgulje
orhideja
orhideje
oric
orientation
origin
original
originala
originalna
originalne
originalni
originalnih
originalnim
originalno
originalnog
originalnoj
originalnom
originalnu
originalu
origins
orijentacija
orijentacije
orijentaciji
orijentaciju
orijentalne
orijentalni
orijentalnim
orijentalnog
orijentalnu
orijentirani
orion
orkestar
orkestra
orkestrom
orkestru
orla
orlando
orle
orleans
orlovi
ormond
ormoz
oro
orovic
ortolog
ortologa
ortolozi
ortolozima
oruz
oruđa
oruđe
os
osa
osam
osamdesetih
osamnaest
oscar
oscara
oscari
oscilacije
ose
osec
osi
osic
osigura
osiguraju
osigurala
osigurali
osiguralo
osigurana
osiguranja
osiguranje
osigurao
osigurati
osigurava
osiguravaju
osiguravajuc
osiguravanje
osijek
osijeka
osijeku
osim
osip
osiromas
osjec
osjeti
osjetila
osjetio
osjetiti
osjetljiv
osjetljiva
osjetljive
osjetljivi
osjetljivost
osjetljivosti
oskar
oskara
oslanja
oslanjaju
oslanjajuc
oslikava
oslo
oslobađa
oslobađaju
oslobađajuc
oslobađanja
oslobađanje
oslobađanjem
oslobađanju
oslobode
oslobodi
oslobodila
oslobodilac
oslobodili
oslobodio
osloboditi
oslobođen
oslobođena
oslobođeni
oslobođenja
oslobođenje
oslobođenju
oslonac
oslovi
oslu
osma
osmaci
osman
osmana
osmanagic
osmanlija
osmanlijama
osmanlije
osmanlijska
osmanlijske
osmanlijski
osmanlijskih
osmanlijskim
osmanlijsko
osmanlijskog
osmanlijskom
osmanlijsku
osmanska
osmanske
osmanski
osmansko
osmanskog
osmanskom
osmansku
osmatrac
osme
osmi
osmij
osmina
osmine
osmini
osminu
osmis
osmislio
osmo
osmog
osmogodis
osnaz
osniva
osnivac
osnivaju
osnivanja
osnivanje
osnivanjem
osnivanju
osnivati
osnov
osnova
osnovala
osnovali
osnovama
osnovan
osnovana
osnovane
osnovani
osnovano
osnovao
osnovati
osnove
osnovi
osnovna
osnovne
osnovni
osnovnih
osnovnim
osnovno
osnovnog
osnovnoj
osnovnom
osnovnu
osnovu
osnuje
osoba
osobama
osobe
osobenosti
osobi
osobina
osobinama
osobine
osobinu
osobito
osoblja
osoblje
osobne
osobni
osobno
osobom
osobu
osom
osovina
osovine
osta
ostac
ostaci
ostacima
ostade
ostaje
ostaju
ostala
ostale
ostali
ostalih
ostalim
ostalima
ostalo
ostalog
ostane
ostani
ostanu
ostao
ostatak
ostataka
ostati
ostatka
ostatke
ostatkom
ostatku
ostave
ostavi
ostavila
ostavili
ostavilo
ostavio
ostaviti
ostavivs
ostavke
ostavku
ostavlja
ostavljaju
ostavljajuc
ostavs
ostoja
ostoje
ostojic
ostroz
ostrva
ostrvima
ostrvo
ostrvom
ostrvske
ostrvu
ostvare
ostvaren
ostvarena
ostvareni
ostvarenja
ostvarenje
ostvareno
ostvari
ostvarila
ostvarile
ostvarili
ostvario
ostvariti
ostvarivanja
ostvarivanje
ostvarivanju
ostvarivs
ostvaruje
ostvaruju
osu
osuda
osude
osudio
osudu
osumnjic
osus
osuđen
osuđena
osuđeni
osuđuje
osvaja
osvajac
osvajaju
osvajali
osvajanja
osvajanje
osvajanjem
osvajanju
osvajao
osveta
osvete
osveti
osvetiti
osvetu
osvjetljenja
osvjetljenje
osvjez
osvoje
osvojen
osvojena
osvojene
osvojeni
osvojenih
osvoji
osvojila
osvojile
osvojili
osvojio
osvojiti
osvojivs
oswald
ot
otac
otaca
otad
otada
otadz
otajstva
otapala
oteo
oteti
otez
other
others
otic
oticanje
otis
otisak
otisaka
otk
otkad
otkako
otkaz
otkazana
otkazao
otkljuc
otkric
otkrije
otkriju
otkrila
otkrile
otkrili
otkrilo
otkrio
otkriti
otkriva
otkrivaju
otkrivajuc
otkrivanja
otkrivanje
otkrivanju
otkriven
otkrivena
otkrivene
otkriveni
otkrivenih
otkriveno
otkucaja
otkud
otkup
otkupa
otkupio
otoc
otoci
otocima
otok
otoka
otoke
otoku
oton
otona
otopina
otopine
otopini
otpad
otpada
otpadne
otpadnih
otpjevao
otpoc
otpor
otpora
otporan
otporna
otporni
otpornost
otpornosti
otporu
otprilike
otpus
otpusti
otputovao
otrov
otrova
otrovan
otrovne
otrovni
otto
ottoman
otud
otuda
otvara
otvaraju
otvaranja
otvaranje
otvaranjem
otvaranju
otvor
otvora
otvore
otvoren
otvorena
otvorene
otvoreni
otvorenih
otvorenim
otvoreno
otvorenog
otvorenom
otvorenu
otvori
otvorila
otvorili
otvorio
otvoriti
otvorom
ou
our
out
outlook
ov
ova
ovaca
ovaj
ovakav
ovako
ovakva
ovakve
ovakvi
ovakvih
ovakvim
ovakvo
ovakvog
ovamo
ovan
ovc
ovca
ovce
ovci
ovde
ovdje
ove
ovec
oveka
over
overline
overrightarrow
overview
ovi
ovic
ovih
ovim
ovima
ovisan
ovise
ovisi
ovisna
ovisne
ovisni
ovisno
ovisnost
ovisnosti
ovita
ovite
oviti
ovitih
ovitim
ovito
ovjec
ovjek
ovjeka
ovjekom
ovjekov
ovjekove
ovjeku
ovjes
ovlas
ovlasti
ovna
ovo
ovoda
ovog
ovoga
ovoj
ovojnica
ovojnice
ovom
ovome
ovu
ovulacije
ovule
owen
own
oxford
oxfordu
oz
ozalj
ozbiljan
ozbiljna
ozbiljne
ozbiljnih
ozbiljnije
ozbiljnim
ozbiljno
ozbiljnost
ozbiljnosti
ozbiljnu
ozlja
ozljeda
ozljede
oznac
oznaka
oznakama
oznake
oznakom
oznaku
ozrac
ozren
p
pa
pablo
pac
pachybrachis
pacific
pacifika
pacifiku
pacijenata
pacijent
pacijenta
pacijente
pacijenti
pacijentima
pacijentu
pacova
pad
pada
padaju
padavina
padavine
pade
padez
padina
padinama
padine
padini
padne
padom
padovi
padu
pag
page
pages
pah
pain
pak
paka
pakao
paket
paketa
pakete
paketi
pakistan
pakistana
pakistanu
pakla
pakleni
paklu
pakrac
pakt
pakta
paktu
pala
palac
palace
palais
palama
palanka
palata
palate
palati
palatu
palc
palca
pale
paleolita
paleolog
paleontologija
palestina
palestinci
palestine
palestini
palestinu
pali
palicom
paljbe
paljbom
paljenja
paljenje
palm
palma
palme
palmer
palo
pamc
pamet
pameti
pamti
pamuk
pamuka
pan
panaca
panama
panc
panci
pandan
pandemije
pandz
panel
panela
panic
panija
panije
paniji
panijom
paniju
pankreasa
panonije
panorama
panoramio
panska
panske
panski
panskih
panskim
pansko
panskog
panskoj
panskom
pansku
panzer
pao
paolo
papa
pape
paper
papers
papi
papile
papir
papira
papiru
papom
paprati
paprika
papu
papua
par
para
parada
parade
paradise
paradoks
paragrafu
paragvaj
paragvaja
paralela
paralele
paralelna
paralelne
paralelni
paralelnih
paralelnim
paralelno
paraliza
paralize
paralog
paraloga
paralozi
parametar
parametara
parameter
parametra
parametre
parametri
parametrima
parametrom
paramount
params
paran
parana
parasimpatic
paravojne
paravojnih
parazit
parazita
paraziti
parc
pare
parenja
parenje
pari
paris
pariski
pariskog
pariskom
pariz
pariza
parizu
park
parka
parker
parkom
parkova
parkovi
parkovima
parku
parlament
parlamenta
parlamentarna
parlamentarne
parlamentarni
parlamentarnih
parlamentarnim
parlamentu
parma
parme
parna
parne
parni
parom
parova
parove
parovi
parovima
parry
pars
parsons
part
partial
partija
partijama
partije
partiji
partijske
partiju
partizan
partizana
partizane
partizani
partizanima
partizanska
partizanske
partizanski
partizanskih
partizanskim
partizanskog
partner
partnera
partneri
partnerom
partnerstva
partnerstvo
partskog
party
paru
pas
pasa
pascal
pascher
pasha
pashe
pasivni
pasivno
pasmina
pasmine
pasos
pass
past
paste
pasti
pastir
pastira
pastor
pat
pate
patent
patentirao
pathway
pati
patients
patio
patnja
patnje
patnju
patofiziologija
patogena
patogene
patogeni
patologija
patolos
patricia
patrick
patrijarh
patrijarha
patrijars
pattern
patton
patuljak
patuljaka
patuljasta
patuljaste
patuljasti
patuljci
pauci
pauk
pauka
paul
paula
paulo
paulu
paun
pauza
pauze
pauzu
pavao
pavel
pavelic
pavic
paviljon
pavla
pavle
pavlic
pavlova
pavlovic
pax
paz
pazar
pazi
pazin
pazite
paziti
pazus
pb
pbs
pc
pcr
pd
pdb
pdf
pdgf
pdp
pe
peace
peak
pearl
pearson
pec
pedagog
pedagos
pedeset
pedesetih
pedro
pegamber
pegambera
pegamberim
pegaz
pehar
peharu
pejzaz
pekic
peking
pekingu
pekulacije
pekulijarne
pelagic
pele
peljes
pen
penala
pendz
penguin
penis
penisa
penjac
penjanje
penje
penn
pennsylvania
pennsylvanije
pennsylvaniji
penziju
penzionisan
penzionisani
penzionisanja
people
pepela
pepeo
pepsi
peptid
peptida
peptidaza
peptide
peptidi
peptidne
peptidni
per
pera
peraja
peraje
percepcija
percepcije
percepciju
percy
pere
performance
performanse
performansi
peric
periferiji
periferna
periferne
periferni
perifernih
perifernim
perifernog
period
perioda
periode
periodi
periodic
periodima
periodni
periodnog
periodnom
periodom
periodu
perja
perje
pero
peroksid
peroksidaza
perovic
perpera
perrin
perry
pers
personal
perspective
perspectives
perspektiva
perspektive
peru
perua
peruc
perus
peruu
perz
perzej
perzija
perzijanaca
perzijanci
perzije
perziji
perzijska
perzijske
perzijski
perzijskih
perzijsko
perzijskog
perzijskom
perzijsku
perziju
pes
pesme
pesnica
pet
peta
petak
petar
pete
peteljke
peter
petera
peterburg
peterburgu
petero
peters
petersen
peti
petit
petka
petkovic
petlja
petlje
petlji
petlju
petnaest
peto
petog
petogodis
petoj
petom
petra
petric
petrinja
petrinje
petronas
petrov
petrova
petrovac
petrovca
petrovic
petrovo
petru
petrus
pettigrew
petu
pez
pf
pfa
pg
pgc
pgp
ph
phase
phaseolus
phd
phe
phi
phil
philadelphia
philip
philipp
philippe
phillips
philosophy
phlox
phoebe
phoenix
phone
photo
photos
php
phyllotreta
phylogenetic
phylogeny
physical
physics
physiology
pi
piano
pic
pica
picture
pictures
picturesa
pierce
pierre
pietro
pigmenata
pigment
pigmenta
pigmenti
pijanist
pije
pijesak
pijeska
pijesku
piju
pik
piksel
piksela
pile
pili
pilot
pilota
piloti
pin
ping
pink
pinus
pio
pionir
pionira
piper
piramida
piramide
piramidi
pirati
pirelli
piruvat
pis
pisac
pisaca
pisala
pisali
pisalo
pisama
pisan
pisana
pisane
pisani
pisanih
pisanim
pisanja
pisanje
pisanjem
pisanju
pisano
pisao
pisati
pisca
pisce
pisci
piscima
pisma
pismenost
pismenosti
pismima
pismo
pismom
pismu
pit
pita
pitaju
pitali
pitanja
pitanje
pitanjem
pitanjima
pitanju
pitao
pitati
piti
pitke
pitt
pittsburgh
piva
pivka
pivo
pjanic
pjege
pjes
pjesama
pjesma
pjesmama
pjesme
pjesmi
pjesmom
pjesmu
pjesnic
pjesnici
pjesnik
pjesnika
pjesnikinja
pjesnis
pjeva
pjevac
pjevaju
pjevala
pjevali
pjevanja
pjevanje
pjevanjem
pjevao
pjevati
pk
pka
pkc
pl
plac
place
placenta
placente
plagiometriona
plakati
plaketa
plamen
plamena
plamenom
plan
plana
planck
planet
planeta
planetama
planetarna
planetarne
planete
planeti
planetu
planica
planici
planina
planinama
planinarski
planine
planini
planinom
planinska
planinske
planinski
planinskih
planinskim
planinsko
planinskog
planinskom
planinu
planira
planiraju
planiran
planirana
planirane
planirani
planiranja
planiranje
planirano
planirao
planom
planova
planove
planovi
planovima
plant
plantae
plantaz
plants
planu
plas
plasirala
plasirale
plasirali
plasirao
plasirati
plasman
plasmana
plasmanu
plasmodium
plastic
plastika
plastike
plata
plate
platforma
platforme
platformi
platformu
plati
platina
platine
platinum
platio
platiti
platna
platno
platnu
plato
platoa
platon
platou
platu
plav
plava
plave
plavi
plavih
plavim
plavo
plavog
plavoj
plavom
plavs
plavu
play
player
players
playoff
playstation
plaz
plazma
plazme
plazmi
plazmu
plc
plec
pleistocena
pleme
plemena
plemenima
plemeniti
plemenitih
plemenitog
plemenske
plemenskih
plemenu
plemic
plemkinja
plemstva
plemstvo
ples
plesa
plesac
plesni
plic
plijen
plijena
plijesni
plime
plin
plina
plinije
plinova
plinovi
plitkim
plitvic
pliva
plivac
plivanje
plivanju
pljac
pljevlja
pljuvac
ploc
plod
ploda
plodna
plodne
plodni
plodnih
plodno
plodnost
plodnosti
plodova
plodove
plodovi
plodovima
ploha
plohe
plos
plotdata
plovila
pluc
plug
plus
plutajuc
plutarh
pluton
plutona
plutonija
pluz
pm
pmatrix
pmc
pmid
pml
pn
pne
png
po
poaceae
pob
pobac
pobijedi
pobijedila
pobijedili
pobijedio
pobijediti
pobijedivs
pobjec
pobjeda
pobjedama
pobjede
pobjedi
pobjedila
pobjedio
pobjedivs
pobjednic
pobjednica
pobjednice
pobjednici
pobjednik
pobjednika
pobjednikom
pobjedom
pobjedu
pobjegao
pobjegla
pobjegli
pobjegne
pobjegos
pobjez
pobjeđuje
pobjeđuju
poboljs
poboz
pobuna
pobune
pobuni
pobunili
pobunio
pobunjenic
pobunjenici
pobunjenicima
pobunjenika
pobunu
poc
pocket
pod
poda
podaci
podacima
podanika
podatak
podataka
podatka
podatke
podc
podebljani
podebljanim
podes
podgora
podgorica
podgorice
podgorici
podgorje
podgrađe
podgrupa
podic
podigao
podigla
podigli
podigne
podignut
podignuta
podignute
podignuti
podij
podijele
podijeli
podijelila
podijelili
podijelio
podijeliti
podijeljen
podijeljena
podijeljene
podijeljeni
podijeljenih
podijeljeno
podiz
podizanja
podizanje
podizanjem
podizanju
podjedinica
podjedinice
podjedinicu
podjednako
podjela
podjele
podjeli
podjeljena
podjelom
podjelu
podjezic
podlaktice
podlijez
podloga
podloge
podlogu
podloz
podlozi
podmornica
podmornice
podne
podnese
podnijela
podnijeti
podnio
podno
podnos
podnose
podnosi
podnoz
podravska
podravskoj
podraz
podrazred
podrazumijeva
podrazumijevaju
podred
podređeni
podrinje
podrod
podrs
podruc
podrumu
podruz
podrz
podsekcija
podsjec
podsjetnik
podskup
podstic
podsticanje
podstrana
podtip
podu
poduc
podudara
poduhvat
poduhvata
podupire
poduzec
poduzetnik
poduzetnis
podvelez
podvrgava
podvrgavaju
podvrgnut
podvrgnuti
podvrsta
podvrste
podzemlja
podzemlje
podzemna
podzemne
podzemni
podzemnih
podzemnim
poe
poema
poeme
poen
poena
poezija
poezije
poeziji
poeziju
pogana
pogađa
pogađaju
pogibije
poginula
poginule
poginuli
poginulih
poginulo
poginuo
pogl
poglavar
poglavara
poglavari
poglavarima
poglavica
poglavice
poglavlja
poglavlje
poglavlju
pogled
pogleda
pogledaj
pogledajte
pogledati
poglede
pogledi
pogledom
pogledu
pogodak
pogodaka
pogodan
pogodi
pogodila
pogodio
pogoditi
pogodna
pogodne
pogodni
pogodnim
pogodno
pogodnosti
pogon
pogona
pogoni
pogonom
pogonu
pogors
pogotka
pogotovo
pogođen
pogođena
pogođene
pogođeni
pogođenih
pogođeno
pogranic
pogres
pogrijes
pogubljen
pogubljeni
pogubljenja
pogubljenje
pogubljenjima
pohađa
pohađala
pohađao
pohod
pohoda
pohodima
pohodu
pohorju
pohranu
pohvale
pohvalio
point
points
poirot
poistovjec
pojac
pojam
pojas
pojasa
pojasom
pojasu
pojava
pojavama
pojave
pojavi
pojavila
pojavile
pojavili
pojavilo
pojavio
pojaviti
pojavljivanja
pojavljivanje
pojavljivao
pojavljivati
pojavljuje
pojavljuju
pojavom
pojavu
pojede
pojedina
pojedinac
pojedinaca
pojedinca
pojedince
pojedinci
pojedincima
pojedine
pojedini
pojedinih
pojedinim
pojedinog
pojedinoj
pojednostavljeno
pojesti
pojma
pojmom
pojmova
pojmove
pojmovi
pojskic
pokal
pokaz
pokaza
pokazala
pokazale
pokazali
pokazalo
pokazano
pokazao
pokazatelj
pokazatelja
pokazatelji
pokazati
pokazivac
pokazivao
pokazivati
pokazuje
pokazuju
pokazujuc
poke
pokemon
poklapa
poklon
poklone
pokloni
poklonio
poklopac
pokojnika
pokojnog
pokolj
pokopan
pokraj
pokrajina
pokrajinama
pokrajine
pokrajini
pokrajinom
pokrajinski
pokrajinskih
pokrajinskog
pokrajinu
pokrec
pokrene
pokrenu
pokrenula
pokrenuli
pokrenuo
pokrenut
pokrenuta
pokrenuti
pokret
pokreta
pokretac
pokretan
pokretanja
pokretanje
pokretanju
pokrete
pokreti
pokretima
pokretljivost
pokretljivosti
pokretna
pokretne
pokretni
pokretnih
pokretnim
pokretom
pokretu
pokriti
pokriva
pokrivac
pokrivaju
pokriven
pokrivena
pokrivene
pokriveni
pokrov
pokrova
pokroviteljstvom
pokrs
pokus
pol
pola
polaganja
polaganje
polahko
polako
polarizacija
polarizacije
polarna
polarne
polarni
polarnih
polarnim
polarnosti
polaz
polaze
polazec
polazi
polazis
pole
polen
polena
poleđini
polhov
poli
polic
policajac
policajaca
policajca
policajci
police
policija
policije
policiji
policijska
policijske
policijski
policijskih
policijsku
policiju
policy
poligon
poligona
polimer
polimera
polimeraza
polimeraze
polimeri
polimorfizam
polimorfizama
polimorfizmi
polinom
polipeptid
polipeptida
polipeptidni
polipeptidnog
politbiroa
politic
political
politici
politics
politika
politike
politikom
politiku
polja
poljaci
poljaka
poljana
poljane
polje
poljem
poljice
poljima
poljoprivreda
poljoprivrede
poljoprivredi
poljoprivredna
poljoprivredne
poljoprivredni
poljoprivrednih
poljoprivrednim
poljoprivredno
poljoprivrednog
poljoprivredom
poljoprivredu
poljska
poljske
poljski
poljskih
poljskim
poljsko
poljskog
poljskoj
poljskom
poljsku
polju
poljubac
poljubi
polka
polo
polova
polovice
polovici
polovima
polovina
polovine
polovini
polovinom
polovinu
poloz
polr
polu
poluautomatski
polubrat
polubrata
polufinala
polufinale
polufinalu
poluge
polukruz
polumjesec
polumjeseca
poluostrva
poluostrvo
poluostrvu
poluotoka
poluotoku
poluprec
poluprovodnic
poluraspada
poluvremena
poluvremenu
poluvrijeme
poluz
poly
pomagac
pomagala
pomagali
pomaganje
pomagao
pomagati
pomak
pomaka
pomalo
pomaz
pomenute
pomenuti
pomenutih
pomic
pomicanje
pomijes
pominje
pominju
pomirenja
pomisli
pomjera
pomjeranja
pomjeranje
pomnoz
pomoc
pomogao
pomogla
pomogli
pomoglo
pomogne
pomognu
pomorska
pomorske
pomorski
pomorskih
pomorsku
pompej
pompeja
pomrac
pomurska
pomurskoj
ponajvis
ponas
ponavlja
ponavljaju
ponavljajuc
ponavljanja
ponavljanje
ponavljanjem
ponedjeljak
ponegdje
ponekad
ponis
poniz
ponoc
ponor
ponos
ponosa
ponovi
ponovio
ponoviti
ponovne
ponovni
ponovnim
ponovno
ponovnog
ponovnom
ponovnu
ponovo
pont
ponuda
ponude
ponudi
ponudila
ponudili
ponudio
ponuditi
ponudu
ponuđena
pop
popa
pope
popeo
popis
popisa
popisanih
popisi
popisu
poplava
poplave
poploc
popodne
popovac
popovic
popovo
poprac
popravak
popravi
popravio
popraviti
popravka
popravke
popravku
popravlja
poprec
poprilic
poprima
popris
populacija
populacijama
populacije
populaciji
populacijom
populacijska
populaciju
popular
popularan
popularna
popularne
popularni
popularnih
popularnim
popularno
popularnog
popularnoj
popularnom
popularnost
popularnosti
population
populations
popus
poput
por
pora
porasla
porast
porasta
porastao
porastom
porastu
poravnanja
poraz
poraza
porazi
porazila
porazili
porazio
poraziti
porazom
porazu
pore
porec
pored
poredak
poredani
porediti
poremec
poretka
poretku
porez
poreza
poreze
porezi
poređenja
poređenje
poređenju
porfirija
porfirije
poric
porijekla
porijeklo
porijeklom
porijeklu
porin
porjec
poroda
porodi
porodic
porodica
porodicama
porodice
porodicema
porodici
porodicom
porodicu
porođaj
porođaja
porsche
port
porta
portal
portala
portalu
porte
porter
portland
porto
portoriko
portrait
portret
portreta
portugal
portugala
portugalci
portugalska
portugalske
portugalski
portugalskog
portugalskom
portugalu
portulaca
poruc
poruka
poruke
poruku
porus
pos
posada
posade
posadom
posadu
posao
posavine
posavska
posavski
posavskoj
poseban
posebice
posebna
posebne
posebni
posebnih
posebnim
posebno
posebnog
posebnoj
posebnom
posebnost
posebnosti
posebnu
posejdon
position
posjec
posjed
posjeda
posjede
posjedi
posjedovali
posjedovanje
posjedovao
posjedovati
posjedu
posjeduje
posjeduju
posjeta
posjete
posjeti
posjetila
posjetilaca
posjetili
posjetio
posjetiti
posjetu
posla
poslala
poslali
poslan
poslana
poslani
poslanic
poslanica
poslanici
poslanicima
poslanik
poslanika
poslanike
poslanikom
poslaniku
poslao
poslat
poslati
posle
poslije
poslijeratni
poslijeratnom
posljedic
posljedica
posljedicama
posljedice
posljedicu
posljednja
posljednje
posljednjeg
posljednjem
posljednji
posljednjih
posljednjim
posljednjoj
posljednju
poslom
poslova
poslovanja
poslovanje
poslovanju
poslove
poslovi
poslovima
poslovna
poslovne
poslovni
poslovnih
poslovnik
poslovnim
poslovno
poslovnog
poslovnu
poslu
posluje
poslus
posluz
posmatra
posmatrac
posmatraju
posmatrane
posmatranja
posmatranje
posmatranjem
posmatranog
posmatrao
posmatrati
posmrtni
pospjes
posrednik
posrednika
posrednis
posredno
posredovana
posredovane
posredovanje
posredovanu
posredstvom
posreduje
posreduju
post
posta
postac
postade
postajala
postajao
postaje
postaju
postajuc
postala
postale
postali
postalo
postanak
postane
postanka
postanu
postao
postati
postava
postave
postavi
postavila
postavili
postavio
postaviti
postavka
postavke
postavlja
postavljaju
postavljanja
postavljanje
postavljanjem
postavljanju
postavljen
postavljena
postavljene
postavljeni
postavljenih
postavljenim
postavljeno
postavs
postavu
postdiplomski
postepeno
posthumno
postic
postigao
postigavs
postigla
postigli
postigne
postignuc
postignut
postignuta
postignuti
postignutih
postignutim
postignuto
postiz
postizanja
postizanje
posto
postojala
postojale
postojali
postojalo
postojanja
postojanje
postojanjem
postojanju
postojao
postojati
postoje
postojec
postoji
postojna
postolja
postolje
postoljem
postolju
postotak
postrojbe
postrojenja
postrojenje
posttranslacijske
postupa
postupak
postupaka
postupanja
postupanje
postupati
postupci
postupcima
postupi
postupio
postupiti
postupka
postupke
postupkom
postupku
postupno
posuda
posudbi
posudbu
posude
posudi
posudu
posus
posuđa
posuđe
posuđen
posve
posvec
posveti
posvetio
posvetiti
posvjedoc
posvuda
potajno
potaknuti
potc
potekao
potencijal
potencijala
potencijali
potencijalna
potencijalne
potencijalni
potencijalnih
potencijalnim
potencijalno
potencijalnog
potencijalnu
potencijalom
potential
potes
potez
poteza
potezi
potezima
potezom
potezu
potic
poticaj
poticao
potiljac
potiskuje
potiskuju
potisnuti
potjec
potjera
potjere
potjeri
potjeru
potkoz
potkraj
potlac
potoc
potoci
potok
potoka
potoku
potom
potomak
potomaka
potomci
potomcima
potomke
potomstva
potomstvo
potomstvu
potonje
potonji
potpis
potpisa
potpisala
potpisale
potpisali
potpisan
potpisana
potpisao
potpisati
potpisivanja
potpisivanje
potpisivanjem
potpisuje
potpisuju
potpomaz
potporodica
potporodice
potporu
potpredsjednik
potpredsjednika
potpukovnik
potpun
potpuna
potpune
potpuni
potpunim
potpuno
potpunog
potpunoj
potpunom
potpunosti
potpunu
potraga
potrage
potragu
potrajati
potraz
potrazi
potrc
potreba
potrebama
potreban
potrebe
potrebi
potrebna
potrebne
potrebni
potrebnih
potrebnim
potrebno
potrebnog
potrebnu
potrebu
potreps
potres
potresa
potro
potros
potter
pottera
potteru
potuc
potvrda
potvrde
potvrdi
potvrdila
potvrdili
potvrdilo
potvrdio
potvrditi
potvrdu
potvrđen
potvrđena
potvrđene
potvrđeni
potvrđeno
potvrđuje
potvrđuju
pouc
pour
pouzdan
pouzdani
pouzdano
pouzdanost
pouzdanosti
povec
povela
povelja
povelje
povelji
povelju
poveo
povez
povezan
povezana
povezane
povezani
povezanih
povezanim
povezano
povezanog
povezanom
povezanost
povezanosti
povezanu
povezao
povezati
povezivanja
povezivanje
povezivanjem
povezivao
povezuje
povezuju
povezujuc
povijest
povijesti
povika
povis
povjerena
povjerenja
povjerenje
povjeri
povjerio
povlac
povlas
povlastice
povod
povodom
povodu
povoljan
povoljne
povoljno
povrac
povratak
povrati
povratio
povratiti
povratka
povratkom
povratku
povratna
povratne
povrc
povreda
povredama
povrede
povredu
povremenim
povremeno
povrijeđen
povrijeđeno
povrs
povuc
povukao
povukla
povukle
povukli
povuku
powell
power
powerbook
poz
pozadina
pozadine
pozadini
pozadinska
pozadinu
pozderac
pozdrav
pozdravi
pozicija
pozicijama
pozicije
poziciji
poziciju
pozitivan
pozitivna
pozitivne
pozitivni
pozitivnih
pozitivnim
pozitivno
pozitivnog
pozitivnom
pozitivnu
poziv
poziva
pozivaju
pozivajuc
pozivao
pozivu
pozlac
poznaje
poznajemo
poznajes
poznajete
poznaju
poznat
poznata
poznate
poznati
poznatih
poznatija
poznatije
poznatiji
poznatijih
poznatim
poznato
poznatog
poznatoj
poznatom
poznatu
poznavali
poznavanja
poznavanje
poznavao
pozoris
pozornice
pozornici
pozornicu
pozove
pozva
pozvala
pozvali
pozvan
pozvana
pozvani
pozvao
pozvati
pođe
pođi
pođos
pp
ppm
ppp
pr
pra
prac
practice
prag
praga
pragmatic
pragu
prah
praha
prahistorija
prahistorije
prain
praksa
prakse
praksi
praksu
praktic
pranja
pranje
pras
praska
prate
pratec
prati
pratila
pratili
pratio
pratiti
pratnja
pratnji
pratnju
prava
pravac
pravaca
pravca
pravcem
pravci
pravcima
pravcu
pravda
pravde
pravdi
pravdu
prave
pravec
pravedan
pravedni
pravednika
pravedno
pravednog
pravednost
pravednosti
pravi
pravic
pravih
pravila
pravilan
pravili
pravilima
pravilna
pravilni
pravilno
pravilnog
pravilo
pravilom
pravilu
pravim
pravima
pravio
praviti
pravljenja
pravljenje
pravna
pravne
pravni
pravnih
pravnik
pravnim
pravno
pravnog
pravnom
pravnu
pravo
pravog
pravoj
pravom
pravopis
pravoslavci
pravoslavlje
pravoslavna
pravoslavne
pravoslavni
pravoslavnih
pravoslavnim
pravoslavno
pravoslavnog
pravoslavnoj
pravoslavnu
pravosuđa
pravosuđe
pravougaone
pravougaonika
pravu
praz
prazan
prazna
prazne
prazni
praznici
praznik
praznika
praznina
praznine
prazno
pre
prebac
prebaci
prebacio
prebacuje
prebivalis
prec
preci
precima
precizan
precizna
precizne
preciznije
precizno
preciznost
preciznosti
pred
preda
predac
predaja
predaje
predaji
predaju
predak
predaka
predala
predali
predanju
predao
predati
predator
predatora
predavac
predavanja
predavanje
predavao
predgovor
predgrađa
predgrađu
prediction
predio
predjela
predjelima
predjelu
predlaz
predlog
predloga
predlos
predloz
predmet
predmeta
predmete
predmeti
predmetima
predmetom
predmetu
prednja
prednje
prednjeg
prednjem
prednji
prednjih
prednjim
prednjoj
prednju
prednos
prednost
prednosti
predoc
predrag
predragocjena
predragocjenoj
predrasuda
predrasude
preds
predsednik
predsednika
predsednis
predsjedava
predsjedavajuc
predsjednic
predsjednica
predsjednici
predsjednik
predsjednika
predsjednikom
predsjedniku
predsjednis
predstava
predstavama
predstave
predstavi
predstavila
predstavili
predstavio
predstaviti
predstavlja
predstavljaju
predstavljajuc
predstavljala
predstavljale
predstavljali
predstavljalo
predstavljanja
predstavljanje
predstavljao
predstavljati
predstavljen
predstavljena
predstavljene
predstavljeni
predstavljeno
predstavnic
predstavnica
predstavnici
predstavnicima
predstavnik
predstavnika
predstavnike
predstavnis
predstavu
predstojec
preduslov
preduzec
preduzeo
predvidio
predvidjeti
predviđa
predviđaju
predviđanja
predviđanje
predviđao
predviđen
predviđena
predviđene
predviđeni
predviđenih
predviđenim
predviđeno
predvodi
predvodili
predvodio
predvorje
predvođen
predvođena
predvođene
predvođeni
predvođenih
prefekt
prefektura
preferira
preferiraju
prefiks
prefiksi
pregled
pregleda
pregledac
preglednik
preglednika
pregledniku
pregledom
pregledu
pregovora
pregovore
pregovori
pregovorima
pregrada
pregrade
prehrambena
prehrambene
prehrambeni
prehrambenih
prehrana
prehrane
prehrani
prehranu
preimenovan
preimenovana
prekid
prekida
prekidac
prekidaju
prekidima
prekine
prekinula
prekinuo
prekinut
prekinuta
prekinuti
preklapa
preklapaju
preklapajuc
preklapanja
preklapanje
preko
prekomjerna
prekomjerne
prekomjerno
prekomjernog
prekomjernu
prekorac
prekretnica
prekretnicu
prekriva
prekrivaju
prekriven
prekrivena
prekrivene
prekriveni
prekriveno
prekrs
prekursor
prekursora
prelamanja
prelaska
prelasku
prelaz
prelaza
prelazak
prelaze
prelazec
prelazi
prelaziti
prelazni
prelaznih
prelazu
preliminarni
prema
premalo
premas
premda
premier
premijer
premijera
premijere
premijeri
premijerno
premijerom
premijeru
preminuo
premjes
premlac
premos
prenese
prenesena
prenijeli
prenijeti
prenio
prenos
prenosa
prenose
prenosi
prenositi
prentice
preobrac
preobraz
preokret
preopterec
preostala
preostale
preostali
preostalih
preostalo
preovladava
preporod
preporoda
preporuc
preporuka
preporukama
preporuke
preporuku
prepozna
prepoznaje
prepoznaju
prepoznali
prepoznao
prepoznat
prepoznata
prepoznati
prepoznatljiv
prepoznatljiva
prepoznatljive
prepoznatljivi
prepoznavanja
prepoznavanje
prepreka
prepreke
prepreku
prepus
prepustio
prerada
prerade
preradi
preradu
prerano
prerasla
prerastao
prerađene
prerus
pres
preseka
preselila
preselili
preselio
preseljenja
preseljenje
present
presenti
preserved
president
presijeca
presjec
presjek
presjeka
presjeku
preskoc
presl
press
pressure
prestaje
prestaju
prestala
prestale
prestali
prestalo
prestanak
prestane
prestanka
prestao
prestati
prestiz
prestolonasljednik
prestras
prestupnoj
presuda
presudan
presude
presudi
presudio
presudu
presus
presvete
presvetog
presvlac
pretec
pretez
prethodi
prethodna
prethodne
prethodni
prethodnici
prethodnih
prethodnik
prethodnika
prethodnim
prethodno
prethodnog
prethodnoj
prethodnom
prethodnu
pretjerano
pretka
pretke
pretkomore
pretpostavci
pretpostavimo
pretpostavio
pretpostaviti
pretpostavka
pretpostavkama
pretpostavke
pretpostavki
pretpostavkom
pretpostavku
pretpostavlja
pretpostavljaju
pretpostavljalo
pretpostavljeni
pretraga
pretrage
pretraz
pretresa
pretresno
pretresnog
pretrpio
pretrpjela
pretrpjeli
pretsednik
pretsednika
pretvara
pretvarac
pretvaraju
pretvarajuc
pretvaranja
pretvaranje
pretvoren
pretvorena
pretvori
pretvorila
pretvorili
pretvorio
pretvoriti
preuze
preuzela
preuzele
preuzeli
preuzeo
preuzet
preuzeta
preuzeti
preuzeto
preuzima
preuzimaju
preuzimanja
preuzimanje
preuzimanju
preuzme
preuzmu
prevalencija
preveden
prevedena
prevedene
prevedeni
prevedeno
prevencija
prevencije
prevenciji
prevenciju
preveo
prevesti
previranja
previs
prevladava
prevladavaju
prevladavajuc
prevlast
prevod
prevode
prevodi
prevodilac
prevodioci
prevodu
prevoz
prevođenje
prez
prezentacija
prezentacije
prezentaciju
prezidijum
prezidijuma
prezime
prezimena
pređe
pređu
pri
pribliz
priboj
pribor
pric
price
pride
pridjev
pridruz
pridrz
prigradske
prigus
prihod
prihoda
prihode
prihodi
prihodima
prihvac
prihvata
prihvataju
prihvatanja
prihvatanje
prihvatanju
prihvate
prihvati
prihvatila
prihvatili
prihvatilo
prihvatio
prihvatiti
prijas
prijatelj
prijatelja
prijatelje
prijateljem
prijatelji
prijateljica
prijateljice
prijateljima
prijateljske
prijateljski
prijateljskoj
prijateljstva
prijateljstvo
prijateljstvu
prijatelju
prijave
prijavili
prijavilo
prijavio
prijaviti
prijavljena
prijavljeni
prijavljenih
prijavljeno
prije
prijec
prijedlog
prijedloga
prijedloge
prijedlogu
prijedlozi
prijedor
prijedora
prijedoru
prijelaz
prijelaza
prijelazni
prijelazu
prijem
prijema
prijenos
prijenosa
prijenosu
prijepolje
prijesto
prijestol
prijestolja
prijestolje
prijestolju
prijestolnica
prijestolnicu
prijestolonasljednika
prijestupna
prijetec
prijeti
prijetnja
prijetnje
prijetnji
prijetnjom
prijetnju
prijevod
prijevoda
prijevodi
prijevodom
prijevodu
prijevoz
prijevoza
prijevremeni
prikaz
prikaza
prikazan
prikazana
prikazane
prikazani
prikazano
prikazao
prikazati
prikazi
prikazima
prikazivala
prikazivanja
prikazivanje
prikazivao
prikazivati
prikazom
prikazu
prikazuje
prikazuju
prikladno
prikljuc
prikupi
prikupio
prikupiti
prikuplja
prikupljaju
prikupljanja
prikupljanje
prilagodbe
prilagoditi
prilagođavanja
prilagođavanje
prilagođen
prilagođena
prilagođene
prilagođeni
prilaz
prilazi
prilic
prilici
prilika
prilikama
prilike
prilikom
priliku
priliv
prilog
priloga
priloz
prilozi
prilozima
prima
primaju
primanja
primanje
primarna
primarne
primarni
primarnih
primarnim
primarno
primarnog
primarnom
primarnu
primary
primat
primata
primate
primates
primati
prime
primer
primera
primi
primic
primijec
primijeniti
primijenjen
primijenjena
primijenjene
primijenjenih
primijetili
primijetio
primijetiti
primila
primili
primio
primirja
primirje
primis
primiti
primitivne
primitivni
primitivnih
primjec
primjena
primjene
primjeni
primjenjivati
primjenjuje
primjenjuju
primjenom
primjenu
primjer
primjera
primjerak
primjeraka
primjerci
primjere
primjeri
primjerice
primjerima
primjerka
primjerom
primjeru
primjetno
primljen
primljena
primljeni
primoran
primorani
primorja
primorje
primorju
primorske
primorsko
primoz
princ
princa
prince
princess
princeton
princeza
princeze
princezom
princezu
princip
principa
principe
principi
principima
principles
principu
princu
prinos
print
prinuđen
priopc
prioritet
pripada
pripadaju
pripadajuc
pripadala
pripadale
pripadali
pripadalo
pripadao
pripadnici
pripadnicima
pripadnik
pripadnika
pripadnike
pripadnost
pripadnosti
pripajanje
pripajanjem
pripala
pripalo
pripao
pripasti
pripisati
pripisuje
pripisuju
pripojen
pripojena
pripojeno
pripovijeda
pripovijetke
pripovijetki
pripovjedac
pripovjedaka
priprema
pripremaju
pripremama
pripremanje
pripremao
pripreme
pripremi
pripremio
pripremiti
pripremu
priredio
priroda
prirodan
prirode
prirodi
prirodna
prirodne
prirodni
prirodnih
prirodnim
prirodno
prirodnog
prirodnoj
prirodnom
prirodnu
prirodom
prirodu
priruc
pris
prisegao
prisegu
prisez
prisilio
prisiljava
prisiljen
prisiljena
prisiljeni
prisilno
prisilnog
prisjec
prislus
pristaje
pristala
pristali
pristalica
pristalice
pristanak
pristanis
pristanka
pristao
pristas
pristava
pristup
pristupa
pristupac
pristupanje
pristupe
pristupi
pristupilo
pristupio
pristupiti
pristupljeno
pristupom
pristupu
prisustva
prisustvo
prisustvom
prisustvovali
prisustvovalo
prisustvovao
prisustvu
prisustvuje
prisutan
prisutna
prisutne
prisutni
prisutnih
prisutno
prisutnost
prisutnosti
pritisak
pritisaka
pritiscima
pritiska
pritiskom
pritisku
pritoka
pritoke
pritom
prituz
pritvor
pritvoru
prius
private
privatizacije
privatna
privatne
privatni
privatnih
privatnim
privatno
privatnog
privatnom
privatnu
prividan
prividna
prividno
prividnom
privilegija
privilegije
privlac
privreda
privrede
privredi
privredna
privredne
privredni
privrednih
privrednim
privredno
privrednog
privrednom
privredu
privremena
privremene
privremeni
privremeno
privremenog
privremenu
privrz
privuc
privukao
privukla
privukli
prix
prize
prizemlje
prizemlju
prizna
priznaje
priznaju
priznala
priznali
priznanja
priznanje
priznanjem
priznao
priznat
priznata
priznate
priznati
priznatih
priznavanje
prizor
prizren
priđe
prljavs
prnjavor
pro
proba
probaenia
probavne
probavni
probavnog
probavu
probe
probija
probio
probiti
problem
problema
problematic
probleme
problemi
problemima
problemom
problems
problemu
proboj
probudi
proc
procedura
procedure
proceedings
procenat
procentima
proces
procesa
procese
procesi
procesima
procesom
procesor
procesora
process
procesu
procijenio
procijeniti
procijenjena
procijenjeni
procijenjeno
procjena
procjenama
procjene
procjeni
procjenjuje
procjenjuju
procjenu
procvat
proda
prodaja
prodaje
prodaji
prodajom
prodaju
prodala
prodali
prodan
prodana
prodano
prodao
prodat
prodati
prodatih
prodavac
prodavao
prodavati
prodavnica
prodavnice
prodire
prodiru
prodor
prodora
producent
producenta
producenti
producentom
producirao
product
production
products
produkata
produkcija
produkcije
produkciji
produkciju
produkt
produkti
produktivnost
produktivnosti
produz
prof
profesionalna
profesionalne
profesionalni
profesionalnih
profesionalnim
profesionalno
profesionalnog
profesionalnom
profesionalnu
profesor
profesora
profesori
profesorica
professional
profil
profila
profile
profili
profilu
profit
progesteron
progesterona
proglas
proglasi
proglasila
proglasili
proglasilo
proglasio
proglasiti
prognostic
prognoza
prognozu
progon
progona
progone
progoni
program
programa
programe
programer
programera
programeri
programi
programima
programiranja
programiranje
programming
programom
programski
programskih
programskog
programu
progresije
progresiju
progresivna
progresivne
progresivni
progresivno
progresivnog
progress
proguta
proizas
proizilazi
proizlaze
proizlazi
proizvede
proizveden
proizvedena
proizvedene
proizvedeni
proizvedenih
proizvedeno
proizvedenog
proizvela
proizveli
proizveo
proizvesti
proizvod
proizvoda
proizvode
proizvodec
proizvodi
proizvodila
proizvodili
proizvodima
proizvodio
proizvoditi
proizvodne
proizvodni
proizvodnih
proizvodnja
proizvodnje
proizvodnji
proizvodnjom
proizvodnju
proizvodu
proizvođac
project
projekat
projekata
projekcija
projekcije
projekt
projekta
projekte
projekti
projektil
projektila
projektile
projektima
projektom
projektovao
projektu
prokariota
proklet
prokleti
prokletstvo
proksimalne
proksimalni
proksimalno
prolaktina
prolaska
prolaz
prolaza
prolazak
prolaze
prolazec
prolazi
prolazila
prolazili
prolazio
prolazu
prolec
proliferacija
proliferacije
proliferaciju
prolin
prolinom
proljec
promas
promatrac
promatranje
promena
promene
promet
prometa
prometej
prometu
promijene
promijeni
promijenila
promijenili
promijenilo
promijenio
promijeniti
promijenjen
promijenjena
promijenjeno
promis
promjena
promjenama
promjene
promjeni
promjenljiva
promjenljive
promjenom
promjenu
promjer
promjera
promocija
promocije
promociju
promotor
promotora
promotori
promotoru
promovira
promoviraju
promovirao
promovirati
promovis
pronac
pronalaska
pronalaz
pronalazac
pronalazak
pronalaze
pronalazi
pronas
pronađe
pronađen
pronađena
pronađene
pronađeni
pronađenih
pronađeno
pronađu
propada
propadanja
propadanje
propaganda
propagande
propagandu
propala
propali
propao
propast
propasti
properties
property
propis
propisa
propisana
propisani
propisano
propisao
propisati
propise
propisi
propisima
propisuje
proporcija
proporcije
proporcionalan
proporcionalna
proporcionalno
propus
propusnost
propustio
prorac
proroc
proroci
prorocima
prorok
proroka
proroke
pros
prosjec
prosjek
prosjeka
prosjeku
proslava
proslave
proslavi
proslavio
prost
prosta
prostaglandina
prostate
prosti
prostih
prostirala
prostire
prostiru
prostor
prostora
prostore
prostori
prostorija
prostorijama
prostorije
prostoriji
prostorima
prostorna
prostorne
prostorni
prostorno
prostornog
prostorom
prostoru
prosveta
prosvjeta
prosvjete
prosvjetiteljstva
proteaza
proteaze
protection
protein
proteina
proteine
proteini
proteinima
proteinom
proteins
proteinska
proteinske
proteinski
proteinskih
proteinskim
proteinskog
proteinu
proteklih
protektorat
proteomika
protest
protesta
protestanata
protestanti
protestantizam
protestantske
proteste
protesti
protestima
protez
protezala
protic
protista
protiv
protive
protivi
protivila
protivili
protivio
protivljenje
protivnic
protivnici
protivnicima
protivnik
protivnika
protivnike
protivno
protivzrac
protjec
protjeran
protjerani
protjerao
protjerivanja
protjerivanje
proto
protoc
protocol
protok
protoka
protokol
protokola
protokoli
protokom
proton
protona
protoni
prototip
prototipa
protozoa
protumac
prouc
prouzroc
prouzrokovati
provede
proveden
provedena
provedene
provedenih
provedeno
provela
proveli
proveo
provesti
provincija
provincijama
provincije
provinciji
provinciju
provjera
provjerava
provjere
provjeriti
provjeru
provlac
provode
provoden
provodi
provodio
provoditi
provodljivost
provodljivosti
provođenja
provođenje
proxime
proz
proza
proze
prozi
prozor
prozora
prozore
prozori
prozoru
prozu
prođe
prođu
prp
prr
prs
prsa
prsima
prst
prsta
prste
prsten
prstena
prstenom
prstenova
prstenove
prstenovi
prstenu
prsti
prstiju
prstima
prstom
pruga
prugama
pruge
prugu
prunus
pruska
pruske
pruski
pruskog
pruz
pruzi
prva
prvaci
prvak
prvaka
prvakinja
prve
prvenstava
prvenstva
prvenstveno
prvenstvima
prvenstvo
prvenstvu
prvi
prvih
prvim
prvima
prvo
prvobitna
prvobitne
prvobitni
prvobitno
prvobitnog
prvog
prvoj
prvoligas
prvom
prvoplasirana
prvorođeni
prvorođenog
prvu
prz
ps
psa
psalam
pse
psec
pseudo
pseudogen
pseudogena
pseudonim
pseudonimom
psi
psihic
psihijatrijska
psihijatrijske
psiholog
psihologija
psihologije
psihologiju
psiholos
psychology
pt
ptc
pten
pth
ptic
ptica
pticama
ptice
pticu
ptolemej
ptuj
pu
pub
pubertet
puberteta
public
publication
publications
publici
publicist
publika
publikacija
publikacijama
publikacije
publike
publikom
publiku
published
publisher
publishers
publishing
pubmed
puc
puca
pucaju
pucanje
pucao
pucati
puerto
puhac
puk
puka
pukotina
pukotine
pukovnija
pukovnik
pukovnika
pula
puli
pullrod
pumpa
pumpe
pun
puna
pune
puni
punih
punim
punjac
punjenja
punjenje
punk
puno
punog
punoj
punoljetnih
punom
punu
pupc
pupka
pupoljak
pupoljaka
pupoljci
pur
purac
purple
purpura
purpurea
pus
pushrod
puste
pusti
pustinja
pustinje
pustinji
pustinjska
pustinju
pustio
pustiti
pustos
put
puta
putanja
putanje
putanju
putem
puteva
puteve
putevi
putevima
putin
putnic
putnici
putnik
putnika
putnike
putopis
putopisac
putovali
putovanja
putovanje
putovanjima
putovanju
putovao
putovati
putu
putuje
putuju
putujuc
puz
pv
pvo
px
pylori
q
qa
qas
qi
qin
qquad
qser
qt
quad
quality
quantum
que
queen
queena
queens
quentin
quercus
quest
question
qui
quia
quinn
qul
quo
quod
r
ra
raa
rab
rabbi
rac
race
rachel
racing
rad
rada
radar
rade
radec
radgona
radi
radic
radij
radija
radijacija
radijacije
radijalne
radijalno
radije
radijski
radiju
radijus
radijusa
radikal
radikala
radikali
radikalna
radikalne
radila
radile
radili
radilice
radilo
radinovic
radio
radioaktivni
radioaktivnih
radioaktivnog
radioaktivnost
radioaktivnosti
radionica
radionice
radiotelevizija
radiotelevizije
radis
radislav
radislava
radite
raditi
radivoj
radivojevic
radlje
radna
radne
radni
radnic
radnici
radnicima
radnih
radnik
radnika
radnike
radnim
radnja
radnje
radnji
radnjom
radnju
radno
radnog
radnoj
radnom
radnu
rado
radoje
radom
radomir
rados
radoslav
radoslava
radost
radosti
radova
radovan
radovana
radove
radovi
radovic
radovima
radovljica
radu
raf
rafael
rafinerija
ragbi
ragusii
rah
rahman
rai
rain
rainbow
rainer
raj
raja
rajha
rajko
rajna
rajne
rajni
rajska
raju
rak
raka
raketa
raketama
rakete
raketne
raketni
raketnih
raketnog
raketu
rakic
rakom
rakova
rakovica
raku
ralph
ram
rama
ramazana
rame
ramena
ramenima
ramenu
rami
ramiz
ramo
ran
rana
rand
random
randy
rane
rang
ranga
range
ranger
rangera
rangeri
rangers
rangiran
rangirani
rangiranih
rangiranje
rangirni
rangu
rani
ranih
ranija
ranije
ranijeg
raniji
ranijih
ranijim
ranim
ranjen
ranjenih
ranjenika
ranjeno
ranko
rankovic
rano
ranog
ranoj
ranokrs
ranom
ranu
ranunculus
rap
rapid
rare
ras
rasa
rascjep
rascjepa
rase
raseljenih
raskola
raskos
raskrs
rasla
rasna
rasne
rasnih
raspad
raspada
raspadaju
raspadanja
raspadom
raspadu
raspala
raspao
raspec
raspelo
raspodjela
raspodjele
raspodjeli
raspodjelu
raspolaganje
raspolaganju
raspolaz
raspoloz
raspon
raspona
rasponom
rasponu
raspored
rasporeda
rasporedu
raspoređen
raspoređena
raspoređene
raspoređeni
raspoređenih
rasprava
rasprave
raspravi
raspravlja
raspravljaju
raspravljalo
raspravu
rasprostranjen
rasprostranjena
rasprostranjene
rasprostranjeni
rasprostranjenje
rasprostranjenost
rasprostranjenosti
rasprs
raspus
rast
rasta
rastao
raste
rasti
rastojanje
rastom
rastu
rastuc
rastvara
rastvarac
rastvor
rastvora
rastvorene
rastvorenih
rastvori
rastvorima
rastvorljiv
rastvorljive
rastvorljivi
rastvorljivost
rastvoru
rasu
rat
rata
rate
ratifikaciji
ratis
ratka
ratko
ratna
ratne
ratni
ratnic
ratnici
ratnih
ratnik
ratnika
ratnim
ratno
ratnog
ratnom
ratnu
ratom
ratova
ratovanja
ratovanje
ratove
ratovi
ratovima
rattus
ratu
rau
ravan
ravna
ravne
ravni
ravnic
ravnica
ravnice
ravnici
ravnicu
ravnih
ravnim
ravnini
ravno
ravnodus
ravnom
ravnomjerno
ravnopravno
ravnopravnost
ravnopravnosti
ravnotez
ravnu
ray
raymond
raz
razarac
razaranja
razaranje
razbija
razbijanje
razblaz
razbolio
razdoblja
razdoblje
razdobljima
razdoblju
razdraz
razdvaja
razdvajaju
razdvajanja
razdvajanje
razdvojene
razdvojeni
razdvojiti
razgovara
razgovaraju
razgovarali
razgovarao
razgovarati
razgovor
razgovora
razgovore
razgovori
razgovoru
razgradnja
razgradnje
razgradnjom
razgradnju
razgranate
razgranic
razgrađuje
razgrađuju
razigravanje
razina
razinama
razine
razini
razinu
razis
razjas
razlaganja
razlaganje
razlaz
razlic
razlika
razlikama
razlike
razlikom
razlikovala
razlikovali
razlikovanja
razlikovanje
razlikovao
razlikovati
razliku
razlikuje
razlikujemo
razlikuju
razlog
razloga
razloge
razlogom
razloz
razlozi
razluc
razmak
razmaka
razmatra
razmatraju
razmatranja
razmatranje
razmis
razmjena
razmjene
razmjeni
razmjenom
razmjenu
razmjera
razmjere
razmjes
razmnoz
razmotriti
razna
razne
razni
raznih
raznim
raznolik
raznolika
raznolike
raznolikost
raznolikosti
raznovrsne
razoc
razoruz
razred
razreda
razredu
razres
razrijes
razrjes
razrus
razum
razuma
razumije
razumijevanja
razumijevanje
razumijevanju
razumiju
razumjeti
razumne
razumom
razveli
razvic
razvija
razvijaju
razvijajuc
razvijala
razvijali
razvijanja
razvijanje
razvijanju
razvijao
razvijati
razvije
razvijen
razvijena
razvijene
razvijeni
razvijenih
razvijenim
razvijeno
razvijenom
razvijenu
razviju
razvila
razvile
razvili
razvilo
razvio
razvitak
razviti
razvitka
razvod
razvoda
razvoj
razvoja
razvojem
razvojna
razvojne
razvojni
razvojnih
razvojnim
razvoju
rađa
rađaju
rađanja
rađanje
rađen
rađena
rađene
rađeni
rb
rbih
rc
rd
rdoba
re
reading
reagens
reagira
reagiraju
reagirati
reaguje
reaguju
reakcija
reakcijama
reakcije
reakciji
reakcijom
reakciju
reaktivne
reaktivni
reaktivnih
reaktivnost
reaktor
reaktora
reaktori
reaktorima
real
realan
realistic
reality
realizacije
realizam
realizma
realna
realne
realni
realnih
realno
realnom
rebara
rebecca
rebra
rec
recentnog
recenzija
recenzije
recept
receptor
receptora
receptore
receptori
receptorima
receptorom
recesivna
recesivni
recesivno
reci
recimo
reciproc
recite
record
records
recordsa
recovery
rect
red
reda
redak
redakcija
redakcije
redatelj
redatelja
reditelj
redka
rednim
redoks
redom
redoslijed
redoslijedom
redoslijedu
redova
redove
redovi
redovima
redovito
redovna
redovne
redovni
redovnih
redovnim
redovno
redovnog
redu
reducira
reducirajuc
redukcija
redukcije
redukcijom
redukciju
reduktaza
reduktaze
redz
reed
ref
referenca
reference
referendum
referenduma
referendumom
referendumu
referentni
refleks
refleksa
refleksi
refleksije
reforma
reformacije
reformama
reformator
reforme
reformi
reformom
reformu
refseq
regeneracija
regeneraciju
regent
regenta
regija
regijama
regije
regiji
regijom
regiju
regimenta
regina
region
regiona
regional
regionalna
regionalne
regionalni
regionalnih
regionalnim
regionalno
regionalnog
regionalnom
regionalnu
regioni
regionima
regionu
registar
registriranih
registru
regni
regulacija
regulacije
regulaciji
regulacijom
regulaciju
regularna
regularne
regularnog
regularnom
regulation
regulator
regulatora
regulatori
regulatorna
regulatorne
regulatorni
regulatornih
regulira
reguliraju
reguliran
regulirana
regulirani
regulirati
regulis
rehder
reich
reid
reinhold
reis
reisul
rejonu
rejting
reka
rekao
rekata
rekavs
rekla
reklama
reklame
rekli
rekne
rekoh
rekom
rekombinacija
rekombinacije
rekombinantne
rekonstrukcija
rekonstrukcije
rekonstrukciju
rekord
rekorda
rekorde
rekorder
rekordi
rekordnih
rekos
rektor
rektuma
relacija
relacije
relaciji
related
relations
relative
relativistic
relativna
relativne
relativni
relativno
relativnog
relativnom
relativnosti
relativnu
release
relevantne
relevantnih
religija
religijama
religije
religiji
religijska
religijske
religijski
religijskih
religiju
religion
religiozne
religiozni
reljef
reljefa
reljefu
rem
remake
rembrandt
remek
remi
remija
remijem
remix
ren
renault
rendgenskih
rene
renesansa
renesanse
renesansni
renin
renuntiando
reorganizacije
rep
repa
reper
repertoar
repertoara
replikacija
replikacije
replikaciju
repom
report
reportaz
reporter
reports
represije
represor
represora
reprezentacija
reprezentacije
reprezentaciji
reprezentacijom
reprezentaciju
reprezentativac
reprezentativna
reprezentativni
reprodukcija
reprodukcije
reprodukciju
reproduktivne
reproduktivni
reproduktivnih
reproduktivnog
repu
republic
republici
republika
republikama
republikanci
republikanska
republikanske
republikanski
republike
republikom
republiku
reputaciju
required
rer
res
resa
research
resica
resolution
resource
resources
respektivno
respiratorne
respiratorni
respiratornog
response
restauracija
restauracije
restoran
restorana
restoranu
results
resurs
resursa
resurse
resursi
resursima
ret
reticulata
retikulum
retikuluma
retikulumu
retinoblastoma
retrieved
return
reumatoidni
reuters
rev
revans
reveal
review
reviews
revised
reviziju
revolucija
revolucije
revoluciji
revoluciju
revolucionar
revolucionarne
revolucionarni
revolution
revolver
rex
rey
reynolds
rez
reza
rezanje
rezerva
rezervat
rezervata
rezerve
rezervi
rezervne
rezervni
rezervnih
rezervoar
rezervoara
rezidencija
rezidencije
rezidenciju
rezolucija
rezolucije
rezoluciji
rezolucijom
rezoluciju
rezonanca
rezultat
rezultata
rezultate
rezultati
rezultatima
rezultatom
rezultatu
rezultira
rezultiraju
rezultirajuc
rezultirala
rezultirali
rezultiralo
rezultirao
rezultirati
rezus
rf
rfc
rg
rgb
rgc
rgen
rh
rhapsody
rho
rhodes
rhododendron
ri
ria
riba
ribama
ribar
ribe
ribes
ribnica
ribnik
ribolov
ribom
ribonukleaza
ribosom
ribosoma
ribu
ric
rica
ricardo
ricciardo
rice
rich
richard
richarda
richards
richardson
richmond
richu
rici
rick
riddle
ride
right
rightarrow
rightleftharpoons
rights
rijeb
rijec
rijeci
rijedak
rijeka
rijekama
rijeke
rijekom
rijeku
rijes
rijetka
rijetke
rijetki
rijetkih
rijetkim
rijetko
rijetkost
rijetkosti
rikard
rikarda
rike
riley
rim
rima
rimljana
rimljane
rimljani
rimljanima
rimokatolic
rimska
rimske
rimski
rimskih
rimskim
rimsko
rimskog
rimskoj
rimskom
rimsku
rimu
rin
ring
ringuey
rio
ris
risc
rise
risk
ristic
rita
ritam
ritchie
rite
ritma
ritmic
ritmova
ritmu
ritter
ritual
rituala
riva
rival
rivala
rivali
rivalstvo
river
rivera
riz
rizic
rizici
rizik
rizika
rizikom
riziku
riznice
rizvanbegovic
rjec
rjes
rjeđe
rjeđi
rk
rm
rn
rna
rnberg
rnbergu
rnk
rnomelj
ro
road
rob
roba
robbie
robbins
robe
robert
roberta
roberto
roberts
robertson
robin
robinson
roblje
robom
robot
robota
roboti
robova
robove
robovi
robovima
robson
robu
roc
rock
rocka
rocky
rod
roda
rodbine
rodi
rodila
rodio
roditelj
roditelja
roditelje
roditelji
roditeljima
roditi
rodna
rodni
rodno
rodnog
rodnoj
rodnom
rodom
rodonac
rodos
rodova
rodove
rodovi
rodovima
rodri
rodrigo
rodu
rog
roga
rogas
rogatica
rogatice
roger
rogera
rogers
rogova
rogove
rogovi
rok
roka
roku
roland
role
roll
rolling
rom
roma
romain
roman
romana
romane
romani
romanic
romanima
romano
romanom
romanopisac
romanov
romantic
romantizma
romanu
rome
romeo
romi
rommel
ron
rona
ronald
ronaldo
rondo
ronnie
room
roosevelt
ropstva
ropstvo
ros
rosa
rosaceae
rosberg
rose
roses
ross
rossa
rossi
rossington
rosso
rotacija
rotacije
rotaciju
roth
rotira
rotirajuc
rotor
rotora
rotten
rouen
round
route
routledge
rover
rovers
rovinj
rowling
roy
royal
royale
roz
rozeta
rozete
rođ
rođaci
rođak
rođaka
rođen
rođena
rođendan
rođendana
rođene
rođeni
rođenih
rođenja
rođenje
rođenju
rođeno
rođenog
rp
rpg
rpl
rpm
rps
rritu
rrnk
rs
rsssf
rt
rta
rtava
rtb
rts
rttemberg
rtv
rtva
rtvama
rtve
rtvi
rtvom
rtvovanja
rtvovanje
rtvovati
rtvu
rtvuje
ru
rub
ruba
ruben
rubia
rubidij
rubin
rubovi
rubovima
rubu
rubus
ruby
ruc
ruci
ruda
rudama
rudar
rudara
rudarstva
rudarstvo
rude
rudi
rudnici
rudnicima
rudnik
rudnika
rudniku
rudo
rudolf
rudolfa
rue
rugby
ruiz
ruka
rukama
ruke
rukom
rukomet
rukometa
rukometas
rukometna
rukometne
rukometni
rukometu
rukopis
rukopisa
rukopisi
rukopisima
rukopisu
rukovanje
rukovode
rukovodec
rukovodi
rukovodilac
rukovodio
rukovodstva
rukovodstvo
rukovodstvom
ruku
rum
rumuni
rumunija
rumunije
rumuniji
rumunska
rumunski
run
runda
runde
rundi
rundu
runjic
rupa
rupe
rupu
rus
rusa
rush
rusi
rusija
rusije
rusiji
rusijom
rusiju
ruska
ruske
ruski
ruskih
ruskim
rusko
ruskog
ruskoj
ruskom
rusku
russell
russia
russian
ruta
rute
ruth
rutinski
rutu
ruz
rv
rvi
ry
ryan
ryu
rz
s
sa
saa
saarbru
saba
sabah
sabaha
sabi
sabiranje
sablja
sabor
sabora
saboru
sac
saccharomyces
sachs
sad
sada
sadas
sadrz
sadu
safari
safet
safety
safvet
saga
sage
saglasnost
saglasnosti
sagorijevanja
sagorijevanje
sagorijevanjem
sagradi
sagradili
sagradio
sagraditi
sagrađen
sagrađena
sagrađene
sahara
sahare
sahat
sahrana
sahrane
sahrani
sahranjen
sahranjena
sahranjeni
said
saint
sainte
sajam
sajt
sajta
sajtu
sakrio
sakriti
saksofon
saksonija
sakupi
sakupio
sakupiti
sakuplja
sakupljac
sakupljanje
sala
salahudin
sale
salem
sales
sali
salih
salisb
salix
salko
sallallahu
salomon
salon
salona
salt
salvador
salvadora
salzburg
sam
sama
samardz
samarija
samarije
samariji
same
sami
samih
samilosnog
samim
samir
samitu
samo
samoa
samobor
samobora
samoc
samog
samoga
samoglasnika
samoj
samom
samoproglas
samostalan
samostalna
samostalne
samostalni
samostalnih
samostalno
samostalnog
samostalnost
samostalnosti
samostalnu
samostan
samostana
samostani
samostanu
samoubistva
samoubistvo
samouprave
samoupravljanja
samoupravljanje
samoupravna
samoupravne
samoupravni
samoupravnih
samoupravnim
samoupravnog
samson
samsung
samu
samuel
samuela
samuelson
san
sana
sanc
sand
sandalj
sandalja
sanders
sandra
sanduk
sanduka
sandz
sane
sanger
sanja
sanjao
sankcija
sankcije
sankovic
sankt
sanski
sanskog
sanskom
sant
santa
santiago
santo
santos
sanu
sao
saobrac
saopc
saops
sap
sapiens
sapna
sar
sara
sarac
saradnici
saradnik
saradnika
saradnja
saradnje
saradnji
saradnju
sarah
saraj
sarajeva
sarajevo
sarajevska
sarajevske
sarajevski
sarajevskih
sarajevskim
sarajevsko
sarajevskog
sarajevskoj
sarajevskom
sarajevu
sarajlic
sarađivali
sarađivao
sarađivati
sarađuje
sarađuju
sarg
sarkofaga
sars
sas
sasanidskog
saslus
sastaje
sastaju
sastali
sastanak
sastanaka
sastancima
sastanka
sastanke
sastanku
sastao
sastav
sastava
sastavi
sastavio
sastavljanje
sastavljen
sastavljena
sastavljene
sastavljeni
sastavljeno
sastavni
sastavom
sastavu
sastojak
sastojaka
sastojala
sastojalo
sastojao
sastojati
sastojci
sastoje
sastoji
sastojke
sasus
sasvim
sat
sata
satelit
satelita
sateliti
satelitske
satelitski
satellite
sati
satima
satira
satiric
satova
satovi
satu
saturn
saturna
sauc
saudijska
saudijske
saudijskoj
saul
saula
saulova
saulu
saunders
sauron
sav
sava
save
savez
saveza
savezi
savezna
savezne
savezni
saveznic
saveznici
saveznicima
saveznih
saveznik
saveznika
saveznike
saveznim
saveznis
savezno
saveznog
saveznoj
saveznom
saveznu
savezom
savezu
savi
savic
savija
savijanja
savijanje
savinjska
savinjskoj
savjesti
savjet
savjeta
savjete
savjetnici
savjetnik
savjetnika
savjetovanje
savjetovao
savjetu
savjetuje
savladala
savladao
savladati
savladavs
savo
savremena
savremene
savremeni
savremenici
savremenih
savremenim
savremeno
savremenog
savremenoj
savremenom
savremenu
savrs
savu
say
saz
saziv
saziva
sazna
saznaje
saznajemo
saznaju
saznala
saznali
saznanja
saznao
saznati
sazrijevanja
sazrijevanje
sazvao
sazvijez
sb
sbb
sbd
sc
scale
scar
sceloenopla
scena
scenama
scenarij
scenarija
scenarije
scenariju
scenario
scenarist
scenarista
scenaristi
scene
sceni
scenografiju
scenom
scenskih
scenu
schaeffer
schalke
schiller
schleswig
schmidt
schneider
scho
school
schools
schott
schro
schu
schumacher
schuster
schwartz
schwarzenegger
schwassmann
sci
science
sciences
scientific
scientist
scl
scn
scooby
scotland
scott
screen
scriptstyle
scully
sd
sda
sdc
sdp
sds
se
sea
sead
sean
search
season
seattle
sebastia
sebastian
sebastiana
sebe
sebi
sec
secesije
second
secret
section
security
sed
sedai
sedam
sedamdeset
sedamdesetih
sedamnaest
sedimenata
sedis
sedma
sedme
sedmi
sedmic
sedmica
sedmice
sedmici
sedmicu
sedmo
sedmog
sedmogodis
sedmoj
sedmom
sednici
seds
sedz
see
sefer
sega
segmenata
segment
segmenta
segmente
segmenti
segmentu
segregacija
segunda
seid
seine
seizmic
sejs
sejtarija
sekcija
sekcije
sekciju
sekrecija
sekrecije
sekreciju
sekretar
sekretara
sekretarijat
sekretarijata
seks
sekstant
seksualna
seksualne
seksualni
seksualnih
seksualnim
seksualno
seksualnog
seksualnost
seksualnosti
seksualnu
sekte
sektor
sektora
sektoru
sekundarna
sekundarne
sekundarni
sekundarnih
sekundarnim
sekundarno
sekundarnog
sekundarnu
sekunde
sekundi
sekvenca
sekvencama
sekvence
sekvenci
sekvenciranja
sekvenciranje
sekvenciranjem
sekvencom
sekvencu
sela
selaginella
selam
selby
selce
seldz
sele
selected
selekcija
selekcije
selekciji
selekciju
selektivni
selektivno
selektivnost
selektor
selektora
selektori
selen
selena
self
seli
selim
selima
selimovic
selis
seljac
seljaci
seljacima
seljaka
sellem
selma
selnica
selo
selu
sem
semantic
semic
semir
sen
sena
senad
senat
senata
senator
senatora
senatu
sendvic
senegal
senegala
seniorsku
senj
senjska
senjskoj
senna
sensu
senzor
senzora
senzori
senzorne
senzorni
senzornih
seoba
seobe
seoska
seoske
seoski
seoskih
seoskim
seoskog
seoul
seoulu
sep
separatistic
sept
septembar
september
septembra
septembru
sequence
sequences
ser
serbia
sergei
sergej
sergio
serie
series
serija
serijal
serijala
serijalu
serijama
serije
seriji
serijom
serijska
serijski
serijsku
seriju
serin
serina
serotonin
serotonina
serum
seruma
serumu
server
servera
service
services
servis
servisa
sesije
sestara
sestra
sestrama
sestre
sestri
sestrinska
sestrinske
sestrinski
sestrom
sestru
sesvete
set
seta
setep
seti
setova
setu
sevdah
sevdaha
sevdalinka
sevdalinke
sevdalinki
seven
sever
severa
severus
sevilla
sevnica
sex
sexual
seymour
sez
sezona
sezonama
sezone
sezoni
sezonski
sezonu
sf
sfera
sfere
sferi
sferu
sfor
sforza
sfr
sfrj
sg
sh
sha
shadow
shakespeare
shakespearea
shang
shanghai
sharif
sharon
sharp
shaw
shay
shbg
she
sheet
sheffield
shell
shema
sheme
sherlock
sherlocka
sherman
shi
shield
shift
shirley
shodno
shore
short
should
show
showa
showing
shs
shtml
shu
shuttle
shvac
shvata
shvatanja
shvatanje
shvati
shvatili
shvatio
shvatiti
shvativs
si
sibi
sibir
sibira
sibiru
sic
sicilija
sicilijanska
sicilije
siciliji
siciliju
sid
side
sidney
sidona
sie
siemens
siena
sieni
sierra
sigismund
sigma
signal
signala
signale
signali
signalima
signalizacija
signalizacije
signalizaciji
signalizaciju
signalizira
signalne
signalni
signalnih
signalnog
siguran
sigurna
sigurni
sigurno
sigurnos
sigurnosna
sigurnosne
sigurnosni
sigurnosnih
sigurnost
sigurnosti
sihr
sihra
sijec
sijeku
sijera
sikal
sikala
sila
silama
silazi
sile
sili
silicij
silicija
silno
silom
silovanja
silovanje
silu
silva
silver
sim
sima
simbad
simbol
simbola
simbole
simboli
simbolic
simbolima
simbolizira
simboliziraju
simbolom
simeon
simetric
simetrija
simetrije
simfonija
simfonije
simic
simo
simon
simona
simone
simovic
simpatic
simpatije
simple
simpson
simptom
simptoma
simptome
simptomi
simptomima
simulacija
sin
sina
sinagoga
sinagoge
sinaj
sinan
sinapse
sinapsi
sinapsne
sinauer
since
sincicij
sindikata
sindrom
sindroma
sindromi
sindromom
sindromu
sine
sing
singapur
singapura
singapuru
singer
singl
singla
single
singles
singlova
singlovi
sinh
sinis
sinj
sinom
sinonim
sinonimi
sinova
sinove
sinovi
sinovima
sintaza
sintaze
sintetaza
sintetaze
sintetic
sintetizira
sintetiziraju
sintetiziran
sintetizirati
sintetski
sinteza
sinteze
sintezi
sintezu
sintisajzer
sinu
sinus
sinusa
sio
sion
sir
sira
sirc
sirija
sirije
siriji
sirijska
sirijske
sirijski
siriju
sirius
sirnk
siroc
siromas
sirove
sirovina
sirovine
sis
sisac
sisak
sisara
sisare
sisari
sisarima
siska
sistem
sistema
sistematika
sistematski
sistematsko
sisteme
sistemi
sistemima
sistemom
sistemske
sistemski
sistemskih
sistemskim
sistemskog
sistemu
sit
site
sites
sitna
sitne
sitni
sitnih
sitnim
situ
situacija
situacijama
situacije
situaciji
situacijom
situaciju
siv
siva
sive
sivi
sivo
six
size
siđe
sjaj
sjaja
sjajan
sjajem
sjajna
sjajne
sjajni
sjajno
sjec
sjede
sjedec
sjedenje
sjedi
sjedinjene
sjedinjenih
sjedinjenim
sjedio
sjedis
sjedne
sjednica
sjednice
sjednici
sjednicu
sjekira
sjekire
sjekutic
sjeme
sjemena
sjemenicima
sjemenis
sjemenjac
[...]
