!
"
#
##0
##1
##10
##11
##12
##13
##14
##15
##16
##17
##18
##19
##2
##20
##21
##22
##23
##24
##25
##26
##27
##28
##29
##3
##30
##31
##32
##33
##34
##35
##36
##37
##38
##39
##4
##40
##41
##42
##43
##44
##45
##46
##47
##48
##49
##5
##50
##51
##52
##53
##54
##55
##56
##57
##58
##59
##6
##60
##61
##62
##63
##64
##65
##66
##67
##68
##69
##7
##70
##71
##72
##73
##74
##75
##76
##77
##78
##79
##8
##80
##81
##82
##83
##84
##85
##86
##87
##88
##89
##9
##90
##91
##92
##93
##94
##95
##96
##97
##98
##99
$
%
&
'
(
)
*
+
,
-
.
/
0
00
000
001
002
003
006
01
017
018
019
02
027
03
03149777329222
032
04
040
041
05
051
053
054
06
062
068
07
072
0732
079
08
087
09
094
097
1
10
100
1000
1002
1006
101
1015
102
102398
103
104
105
1054
106
1066
107
1072
1077
108
1084
109
1099
11
110
1100
11000
111
1113
112
1125
113
114
1147
115
1152
1153
1155
116
1160
1164
117
118
1187
119
1191
1192
1199
12
120
1200
121
1217
122
1221
1227
123
1238
124
1240
125
1250
1253
126
1260
1261
1265
127
1271
1274
128
129
1291
1296
1297
13
130
1300
1305
131
1314
132
1321
1323
1326
133
134
1341
1348
135
136
137
1374
138
1380
139
14
140
141
1415
1417
142
1425
143
1430
1433
1438
144
1447
145
1452
1453
146
1462
1469
147
1476
1479
148
1480
1483
1485
1489
149
1492
1493
1494
1497
1499
15
150
1500
1501
1502
1504
1506
151
1510
1512
1513
1514
1516
1517
1519
152
1520
1521
1522
1525
1527
153
1533
1534
1535
1536
154
1541
1542
1543
1545
1547
155
1552
1553
1557
1558
156
1564
1565
1566
1568
157
1570
1571
1572
1576
1578
158
1580
1581
1582
1584
1585
1586
1589
159
1594
1596
1598
16
160
1600
1602
1603
1606
1607
1608
1609
161
1610
1611
1612
1614
1615
1616
1617
1618
162
1621
1624
1625
1626
1627
1628
1629
163
1630
1632
1633
1634
1635
1638
164
1640
1641
1642
1643
1645
1646
1648
1649
165
1650
1652
1654
1655
1658
1659
166
1660
1662
1663
1664
1665
1666
1667
1669
167
1670
1671
1672
1673
1675
1676
1678
168
1680
1681
1682
1683
1684
1685
1686
1687
1689
169
1690
1692
1693
1696
1697
1698
1699
17
170
1700
1701
1703
1704
1705
1707
1708
1709
171
1710
1711
1712
1713
1715
1716
1717
1718
1719
172
1721
1722
1723
1724
1725
1726
1727
1728
1729
173
1730
1731
1732
1733
1736
1737
1738
174
1740
1741
1743
1744
1745
1746
1747
1749
175
1750
1752
1753
1754
1755
1756
1757
1758
1759
176
1760
1761
1762
1763
1764
1765
1766
1767
1768
1769
177
1770
1771
1772
1773
1774
1775
1776
1777
1778
1779
178
1780
1781
1782
1783
1784
1785
1786
1787
1788
1789
179
1790
1791
1792
1793
1794
1795
1796
1797
1798
1799
18
180
1800
1801
1802
1803
1804
1805
1806
1807
1808
1809
181
1810
1811
1812
1813
1814
1815
1816
1817
1818
1819
182
1820
1821
1822
1823
1824
1825
1826
1827
1828
1829
183
1830
1831
1832
1833
1834
1835
1836
1837
1838
1839
184
1840
1841
1842
1843
1844
1845
1846
1847
1848
1849
185
1850
1851
1852
1853
1854
1855
1856
1857
1858
1859
186
1860
1861
1862
1863
1864
1865
1866
1867
1868
1869
187
1870
1871
1872
1873
1874
1875
1876
1877
1878
1879
188
1880
1881
1882
1883
1884
1885
1886
1887
1888
1889
189
1890
1891
1892
1893
1894
1895
1896
1897
1898
1899
19
190
1900
1901
1902
1903
1904
1905
1906
1907
1908
1909
191
1910
1911
1912
1913
1914
1915
1916
1917
1918
1919
192
1920
1921
1922
1923
1924
1925
1926
1927
1928
1929
193
1930
1931
1932
1933
1934
1935
1936
1937
1938
1939
194
1940
1941
1942
1943
1944
1945
1946
1947
1948
1949
195
1950
1951
1952
1953
1954
1955
1956
1957
1958
1959
196
1960
1961
1962
1963
1964
1965
1966
1967
1968
1969
197
1970
1971
1972
1973
1974
1975
1976
1977
1978
1979
198
1980
1981
1982
1983
1984
1985
1986
1987
1988
1989
199
1990
1991
1992
1993
1994
1995
1996
1997
1998
1999
2
20
200
2000
2001
2002
2003
2004
2005
2006
2007
2008
2009
201
2010
2011
2012
2013
201320022005
2013200620072008
20132009
201320122013201420152016
2014
2015
2016
2017
2018
2019
202
2020
2021
2022
2023
203
2030
204
205
206
207
208
209
21
210
211
212
213
2131
214
215
216
217
218
219
22
220
2200
221
222
223
224
225
226
227
228
229
23
230
2300
231
232
233
234
235
236
237
238
239
24
240
241
242
243
244
245
246
247
248
2481
249
25
250
2500
251
252
253
254
255
256
257
258
26
260
261
262
264
265
266
267
268
269
27
270
271
273
274
275
276
277
278
28
280
2800
281
282
283
284
285
286
287
288
29
290
291
292
293
294
295
296
297
298
299
3
30
300
3000
301
302
303
304
305
306
307
308
309
31
310
312
313
314
315
316
3166
317
318
319
32
320
321
322
323
324
325
328
329
33
330
331
332
333
334
335
336
337
338
339
34
340
341
342
343
344
345
346
347
348
349
35
350
3500
351
352
353
354
355
356
357
359
36
360
363
364
365
366
367
368
369
37
370
371
373
375
376
377
378
379
38
380
3800
381
382
383
384
385
386
387
39
390
391
392
393
394
395
397
398
399
4
40
400
4000
401
402
403
405
406
407
408
409
41
410
4100
411
415
416
417
42
420
421
422
424
425
428
429
43
430
431
433
436
438
44
440
441
442
444
446
447
449
45
450
451
452
455
456
457
458
46
460
461
463
464
468
469
47
470
472
473
475
476
478
48
480
482
486
488
489
49
490
491
492
494
495
496
5
50
500
5000
501
505
507
508
509
51
510
5100
511
512
513
514
516
517
518
52
520
521
522
525
527
528
53
530
53049
531
532
533
534
535
536
538
54
540
542
544
546
547
55
550
551
552
553
554
56
560
561
563
565
568
569
57
570
571
577
578
58
580
581
582
584
585
589
59
590
591
596
597
598
6
60
600
6000
601
602
603
605
606
607
608
609
61
610
611
614
616
617
62
620
621
622
624
625
628
629
63
630
632
634
636
637
638
639
64
640
642
644
646
647
649
65
650
652
653
656
657
658
66
661
662
664
665
668
67
670
671
675
676
68
680
681
686
69
691
692
694
696
7
70
700
702
70425
707
71
710
711
717
72
720
725
726
727
728
73
730
731
732
736
74
740
741
742
744
745
747
748
75
750
751
752
753
754
76
760
762
764
765
7659
767
768
77
770
771
7737
776
778
779
78
780
789
79
790
792
793
794
797
8
80
800
801
803
806
809
81
812
815
82
820
824
826
827
828
83
830
833
838
839
84
840
843
85
850
852
856
857
86
860
8601
861
863
868
87
870
87111
875
877
88
880
881
882
89
893
895
897
899
9
90
900
902
903
905
908
91
910
911
912
916
918
92
922
924
93
930
932
933
936
938
94
940
943
946
949
95
951
952
953
95696
957
958
96
960
962
963
964
965
967
968
969
97
970
972
976
978
98
980
98085
984
986
987
99
991
994
999
:
;
<
=
>
?
@
\
^
_
a
aa
aakhmedova
aaq
aaronsohnia
ab
abandoned
abbr
abbreviata
abbreviatum
abelmoschus
abendsonne
aberrans
abies
ability
abja
able
ablo
ablon
ablona
ablonas
ablono
abortiva
about
above
abovebelow
aboveclass
abovestyle
abs
abstract
abtei
abusefilter
abusefilters
ac
acad
academic
academy
acampe
acanthaceae
acanthephippium
acaulis
accept
accepted
accepting
accepts
access
accessdate
accessed
accessibility
accessible
according
accordingly
account
accounts
accused
ace
aceras
acerifolia
achievements
acianthera
acianthus
acicularis
acineta
acinonyx
aciopea
ackerman
aconitoides
acostaea
acrolophia
across
act
acta
actinostrobus
action
actions
activate
active
activities
activity
actm
actualdateboundariesproperty
aculeata
acuminata
acuminatipetala
acuminatum
acuminatus
acutiflora
acutifolia
ad
ada
adac
adam
adamantinensis
adams
adansonia
add
addax
addclass
added
addiction
adding
addition
additional
address
addresses
adds
addto
adelphe
adenocheilae
adenoncos
adios
adjust
admin
administration
administrator
administrators
admins
adminship
adnata
adobe
adrianae
advance
advanced
advancedsearch
advocate
ady
ae
aegean
aegirtica
aemula
aepyceros
aerangis
aeranthes
aerial
aerides
aesculapii
af
afar
affect
affected
affecting
affects
affiliate
affiliates
affine
affinis
afghanistan
afr
africa
african
africana
africanews
africano
africanus
after
afterwards
ag
again
agama
aganisia
agapornis
agathis
age
ageimpl
agenda
aggregator
aglomeracja
aglossorrhyncha
ago
agric
ahead
ahmed
ai
ailanthus
ailuropoda
aims
ain
air
airbus
airport
ajania
ak
akad
akarere
akc
akebia
ako
al
alaska
alaskool
alat
alata
alatum
alba
albania
albertiana
albicilla
albida
albiflora
albirostris
albivenis
albopurpurea
alborosea
album
alburnus
alcedo
alcelaphus
alces
alcoquiana
aldasoro
alemania
aleph
aleut
alexander
algeria
aliases
alibertia
alibertis
alice
aliciae
align
all
allenii
allg
allocate
allocricetulus
allow
allowbots
allowed
allows
allpropertyclaims
allsnaks
almost
alnashi
alnashpiyash
alnus
aloisii
alongside
aloysia
alp
alpestre
alpina
alpinia
alpinum
alpinus
alps
already
als
also
alstroemeria
alt
alta
altaica
altensteinia
alter
altgr
although
alticola
altigena
altissima
alto
altstadt
alutiiq
alutiitstun
alvaradoa
alvaroi
always
am
amabilis
amajyaruguru
amajyepfo
amaliae
amanensis
amazonica
amber
ambigua
amboinensis
ambon
ambrensis
ambrosia
ame
amen
amer
america
american
americana
americanus
ames
amesiana
amesianum
amitostigma
amk
ammodorcas
amoena
among
amount
amparoana
amplexicaulis
amsterdam
amygdaloides
an
ana
anacamptis
anacardiaceae
anathallis
anatolica
anceps
anchorencode
ancipitia
ancistrochilus
and
anderson
anderssonii
andra
andreetta
andreettae
andrews
andrey
andringitrana
androglossini
android
anexos
anfiteatro
anfracta
anfractum
ang
angeli
angels
angkor
angle
angola
angraecum
angulata
anguloa
angulosa
angusta
angustata
angustifolia
angustilabia
angustilabris
animated
ankara
ankau
ann
anna
annae
annalen
annamensis
anniversary
annona
annonaceae
announce
announced
announcement
announcements
announcing
annual
annulata
anodorhynchus
anoectochilus
anomala
another
ans
ansellia
ansicht
answer
antennata
antennifera
anthoceros
anthracina
anthrax
anthropophora
antidorcas
antilla
antiochiana
antioquiensis
antiquity
any
anyone
anything
ao
ap
aphelandra
aphrodite
aphylla
api
apicula
apiculata
apifera
apis
apocalyptica
apoda
apologies
apologize
apostasia
app
appear
appearance
appeared
appears
appendicula
appendiculata
appendimpl
appendqualifiers
appendsnaks
appendtocategory
applanata
apple
applicable
applicants
application
applications
applied
apply
appreciated
approach
appropriate
approved
approximately
april
apulica
apus
aquila
ar
ara
arabian
arabic
arachniformis
arachnis
arachnites
arachnitiformis
aralam
aralia
araliaceae
aramaic
araneola
aranifera
arashiyama
aratinga
araucaria
araucariaceae
arbitrary
arbor
arborea
arborescens
arbuscula
arc
arch
archaeological
archer
archive
archives
arctata
arctic
arcticus
arctos
arcuata
ardahan
are
area
areas
arecaceae
aren
arenaria
arenas
arenicola
arethusa
arfakensis
arg
argentaria
argentata
argentina
argolica
args
argsarg
argscfg
argsgroup
argsi
argsname
argtables
argtableval
argument
arguments
aria
ariasii
arini
aristata
aristulata
arizonica
ark
armandii
armas
armenia
armeniaca
armenian
arms
army
arn
arnaldoa
arnold
aromatica
around
arq
arr
arrange
array
ars
art
article
articles
articulata
artists
arts
arunachal
arviligjuaq
arxiv
arz
as
asarkina
ascendens
ascocenda
ascocentrum
ascoglossum
ashei
asia
asian
asiat
asinus
ask
asking
asks
aspasia
aspects
aspera
asperata
aspidogyne
asplundii
assam
assamese
assembly
assertnotnull
assigned
assistance
associate
associated
ast
aster
asteraceae
asteriscus
astronium
astronomical
asv
at
ateles
athletes
athletics
athrotaxis
atlantica
atra
atractocarpus
atrata
atratus
atrocinerea
atropurpurea
atropurpureum
atrorubens
attaviria
attend
attended
attention
attenuata
atthis
attica
attingens
attr
attribute
atwood
atwoodii
atymnus
au
auct
audience
auditory
auf
august
aurantiaca
aurantiacum
aurantiacus
auratus
aurea
aurelia
aureum
auriculata
aurita
aurora
aurorae
austral
australia
australiensis
australis
austria
austriaca
austrosinensis
author
auto
autofill
automagical
automated
automatic
automatically
autowikibrowser
autumnalis
aux
av
availability
available
aveniformis
aver
average
averyanova
aveyronensis
avicennia
avis
avoid
award
aware
axis
ay
aymoninii
ayuntamiento
az
azerbaiya
azurea
b
ba
babel
baby
babylonica
back
background
backtranslate
backward
bad
baffin
bahc
bahi
bahia
bahiensis
bahir
bailey
baill
baker
baku
bal
balance
balansae
baleares
balfouriana
baliensis
balkan
ballatrix
ballet
balsamea
balsamifera
balsamorhiza
bam
ban
bane
bangii
bangladesh
bank
banksii
banner
bans
banteay
baobab
bar
barb
barbae
barbata
barbosella
barkeri
barkeria
baronii
barretto
barriers
barros
bars
bartholina
bartın
bas
base
based
baseline
baseresult
basestyle
basi
basic
basilika
basis
baskervilla
bassel
basshunter
bastianii
bat
bateman
bates
bathiei
battandieri
baumann
baumanniana
bay
bayburt
baylor
bb
bbc
bbg
bbots
bbs
bd
be
beach
bear
beatles
beatragus
because
beccarii
becerra
beck
become
bee
been
before
begin
beginning
begins
begun
behalf
behavior
behind
behrii
bei
beih
beijing
beilstein
being
beinn
beissn
belarus
belg
bell
bella
bells
below
belowclass
belowstyle
ben
bengal
bengali
benghalensis
benn
bennettii
benoist
benth
benz
benzingii
ber
berg
bergonii
bergtocht
berinda
beringei
berjocht
berkenzwam
berli
berlin
berliner
berna
bernaysii
bernieri
bertolonii
bertoloniiformis
bes
beshanzuensis
best
bet
beta
betafeatures
better
betula
betulaceae
betulinus
between
beyond
beyrichii
beyrodtiana
bg
bh
bhatta
bhattacharjee
bho
bhutan
bi
biancae
bianch
bias
bibliographic
bicalliata
bicallosa
bicallosum
bicarinata
bicolor
bicornis
bicornuta
bicornutum
bidens
bidentata
bidupensis
bidwillii
bieb
bifalcis
bifida
biflora
bifolia
bifrenaria
big
bigger
bijdr
bikkia
bilineata
billboard
billed
billion
biloba
bilunulata
bingen
binn
binotia
biographies
biol
bipinnata
bipinnula
birgit
biscutella
bison
bissei
bit
bithynica
bitlis
bittersweet
biv
bivalvis
bj
bl
black
blancoi
blank
blatt
blaue
bletia
bletilla
bleu
bleyensis
blick
block
blocker
blocks
bloem
bloemknoppen
blog
blood
bloomsbury
blue
blume
blumea
blumei
blumenzeitung
bm
bmm
bms
bn
bnf
bo
board
boat
bobolenin
bock
body
bodyclass
bodystyle
boeing
bog
bogor
boiss
bojer
bokchoonara
bol
bolivia
boliviana
boliviensis
boloria
bolus
bolusiana
bomarea
bombyliflora
bonasus
bonn
bonnet
bonplandia
book
bookmark
books
bookseries
bookseriesentity
bookseriesissue
bookseriesvolume
boolean
bor
borbonica
border
borders
borealis
borneense
borneensis
borneo
bornm
bornmuelleri
bos
boselaphus
bosna
bosnia
bosser
boston
bot
botanic
both
bots
botsuana
botswana
bottom
botton
boundaries
bouvardia
bovidae
box
boxes
boy
bprecision
bpy
br
braccata
braccatus
brachiata
brachiloba
brachionidium
brachycarpa
brachyceras
brachychiton
brachylaena
brachypetalum
brachystele
brachyteles
brackets
bracteata
bracteosa
bractescens
brade
bradea
bradei
brainstorm
branch
brand
bras
brasil
brasiliensis
brassavola
brassia
bravader
brazil
brazilian
break
breda
brenesia
brenesii
brenneri
brevicaulis
breviflora
brevifolia
brevilabris
brevipedunculata
brevipes
brevipetala
brevis
breviscapa
bridge
brieger
brighter
brighton
brill
bring
bristol
brit
britannica
british
broken
bromheadia
brongniart
brooklyn
brothers
broughtonia
brown
brownii
browser
browsers
bru
brumalis
brunnea
brunnescens
brutia
bryceana
bs
bst
bstructure
bt
btable
bu
bua
bubalus
bubo
bucak
bucarest
buccinator
buchananii
buchtienii
budapest
buffalo
bug
bugesera
bugs
build
building
built
buitenzorg
bulbocodioides
bulbophylloides
bulbosa
bulgaria
bull
bungeana
bunker
burdur
bureaucrat
bureaucrats
burera
burg
burm
burma
burmanniana
burns
burtii
buruensis
burundi
busasamana
bush
business
but
butantan
butcheri
button
buttonlabel
buttons
buzau
bvalue
bw
bxr
by
byrne
byval
c
ca
cabo
cacatua
cacatuidae
cache
cached
caesarea
caespitosa
caffer
caillei
cairn
caladenia
calantha
calanthe
calanthoides
calatayud
calathea
calcarata
calceolaris
calceolus
calcicola
calculateage
calculatedage
caldensis
caleana
calendar
californica
call
called
calliantha
calling
callitrichidae
callitris
calocedrus
calophylla
calopogon
calumma
calypso
calypsus
calyptrochilum
cambodia
cambridge
camelidae
cameroon
camii
campacci
campaign
campanulata
campbellii
campephilus
campestris
campos
campylocentrum
camus
can
canad
canada
canadensis
canadian
canaliculata
canaliculatum
canariensis
canary
candica
candida
candidacy
candidate
candidates
candidum
caniceps
canidae
canis
canna
canorus
cant
canterbury
canthium
canus
cap
caparaoensis
cape
capensis
capillaris
capital
capitata
caprea
capreolus
caprina
captcha
caption
car
card
cardinalis
cardiophylla
cards
care
caribaea
caribbean
carinata
carinifera
carl
carnea
carnevali
carnosifolia
carolinensis
carpathians
carpatica
carr
carrera
carrii
carry
carsonii
carvalhoi
carya
caryocar
casa
casasia
case
cases
cash
cassius
cast
castillo
castle
castro
casuarina
cat
catalan
catalaunica
catalpa
catarina
catasetum
catedral
categori
categoria
categorie
categories
categorizebyplaceofbirthanddeath
category
categorynameprefix
categorytoc
categoryunknowndeathdate
catentity
cathcartii
cathedral
catling
catmore
cattleya
caucaea
caucasica
caucasus
cauda
caudata
caularthron
caulescens
cauliflora
cause
caused
cav
cave
cayman
cbk
cc
cd
cdot
ce
ceb
cebidae
cebus
ceciliae
cedrus
cee
ceiling
celebensis
celebica
cell
cellpadding
cells
cellspacing
cembra
cembroides
cenisia
cens
census
cent
centaurea
center
centers
central
centralbl
centrale
centralnotice
centre
centro
centroame
century
cephalanthera
cephalantheropsis
cephalanthus
cephalonica
cephalophus
cephalotes
cerastes
ceratostylis
cerca
cercopithecidae
ceremonies
ceremony
ceriagrion
cerina
cernua
certain
cervidae
cervus
ceryle
cesmeensis
cest
ceyhan
cf
cfg
cg
cgi
ch
chair
cham
chamaegastrodia
chameleon
chamissonis
chan
chance
chandrima
change
changed
changer
changes
changing
chapaensis
character
characters
charaxes
charles
charlesworthii
charter
chase
chat
check
checking
checktype
cheers
cheeseman
cheirodendron
cheirostylis
chelonistele
chen
cheng
chensiensis
cherry
chestermanii
chevak
chevalieri
chi
chiapas
chiapensis
chicken
child
chile
chilensis
chiloglottis
chilopogon
chiloschista
chimaera
china
chine
chinensis
chinese
chiriquensis
chiron
chloraea
chlorantha
chloroleuca
chlorops
cho
chobe
chocoensis
chocolate
choice
choose
chosen
chr
christ
christchurch
christenson
christensonii
christian
christmas
chrome
chron
chrysantha
chrysanthemum
chrysocycnis
chrysoglossum
chrysomelas
chu
chugach
chukinder
church
chysis
chytroglossa
ci
cia
ciliaris
ciliata
ciliatus
cilicica
ciliolata
cinerea
cinnabarina
cinnabarinum
circa
circle
circumflexa
circumstances
cirrhaea
cirrhopetalum
citakan
citation
citations
cite
citeref
cities
citoid
citrina
city
ckb
ckbr
cke
ckel
ckoerner
ckt
clade
claim
claims
claimspropertyid
clandestina
clareae
clarke
clarkei
class
classes
classical
clausa
clavata
clavicornis
clavigera
clear
cleisocentron
cleisostoma
cleistes
cleistogama
clem
clemensiae
click
clicked
clicking
client
cliftonii
cloes
cloesii
clone
close
clouds
clowesia
clowesii
club
cm
cmp
cn
co
coahuilensis
coast
coat
cobar
coccinea
coccyzus
cochleanthes
cochlearis
cochleata
cochlioda
cochrane
code
codemirror
codes
codesbyid
coelia
coeloglossa
coelogyne
coerulea
cogn
coilostylis
colaptes
colchicus
coleman
colemanii
colenso
colensoi
collaborate
collaboration
collapse
collapsed
collapsible
colleagues
collection
collections
college
collide
collina
colombia
colombiana
colon
color
colorata
colors
colossus
colours
colspan
colubrina
columbia
column
columnaris
columns
com
comata
comber
combine
combined
come
comedy
comfortable
coming
command
commands
commas
comment
comments
commit
committee
common
commons
commonscat
commonskat
communicate
communication
communis
communities
community
communityhealth
compact
compacta
compan
companion
company
compare
comparettia
comparison
compat
competition
complaints
complete
completed
complex
complexdate
composita
composite
compressa
compressicaulis
computer
comu
concat
concatstrings
concatstyles
concava
concerns
concinna
concinnum
concolor
condition
condorensis
conduct
cone
conference
conferta
configuration
confirmed
conflict
conflicting
conflicts
confusa
confusum
congesta
congo
congratulations
conjunction
connata
connochaetes
conopsea
conradiae
consensus
consider
consideration
consistent
consobrina
conspersa
constants
constraints
constructive
consultation
consultations
contact
contacts
contain
contains
content
contents
contest
contests
context
continue
contorta
contr
contribute
contributions
contributor
contributors
control
controlled
convallaria
convallariiforme
convallium
conversation
conversations
convert
converted
converttodate
converttodatecommonpart
converttodatenewstylepart
convexa
convoluta
cook
cookie
cooperation
cooperi
coord
coordinate
coordinator
coords
copied
copper
coprosma
copy
copyargstosnaks
copyright
copyvio
coracias
corallorhiza
cordata
cordem
cordifolia
cordigera
cordilabia
core
coreana
coriacea
coriophora
coripatae
corneliana
corniculata
cornuta
cornutula
corone
correct
correll
corresponding
corse
corvus
coryanthes
corybas
corycium
corymborkis
corymbosa
corythornis
cosmos
costaricense
costaricensis
costata
cot
coturnix
could
coulteri
count
counting
countries
countrownum
country
countryentity
countryentityid
countryflags
countryoptions
county
course
cover
covering
covid
cp
cr
crabronifera
crassa
crassicaudatus
crassicornis
crassiflora
crassifolia
crassifolium
crassilabia
crataegus
cream
create
created
creating
creation
creative
creek
cremasta
cremastra
crenata
crenulata
crete
cretensis
cretica
crh
cribb
cricetidae
cricetulus
cricetus
crimea
crinita
crinitum
crispa
crispum
cristalensis
cristata
cristatum
cristatus
cristo
criteria
critical
croacia
croatia
croatii
crocodeilanthe
crocodiliceps
croix
crop
cropped
cross
crucianella
cruciforme
cruenta
cruiser
cruz
cryptantha
cryptarrhena
cryptocentrum
cryptophoranthoides
cryptostylis
cs
csb
csi
css
csstext
ct
cu
cuba
cubensis
cucullata
cucullatus
cuculus
cucurbita
cucurbitaceae
cugtun
cuisine
culminicola
cult
cultivar
cultural
culture
cumingii
cundinamarcae
cuneata
cunninghamia
cunninghamii
cup
cupania
cupressaceae
curitiba
curr
curranii
current
currententity
currently
cursor
curtisii
curviflora
cuspidata
custom
customize
customizing
customtitle
cut
cv
cx
cy
cyanaeorchis
cyanea
cyanika
cyclochila
cyclopogon
cycnoches
cygnus
cylindrica
cymbidiella
cymbidium
cynocephalus
cynorkis
cypelligera
cypripedioides
cypripedium
cyprus
cyrtopodium
cyrtostylis
czech
d
da
dabeshanensis
dacrydium
dactylorhiza
dag
dahlem
dahlia
dahurica
daiss
daj
dakar
dalatensis
dalessandroi
dallol
dalstro
dalstroemii
dama
damaliscus
dame
damselfly
dan
dancers
dances
danesch
dansk
dar
darali
dark
dart
darwin
das
dasyphylla
data
database
databases
datatype
datavalue
date
dateclaims
dateofbirth
dateofcreation
dateofdeath
dateofpublication
datepart
dates
david
davidii
day
dayanum
days
db
dc
dd
de
dea
dead
deadline
dealing
dear
death
debian
debilis
debruyneara
december
decide
decided
decidua
decipiens
decision
decora
decurrens
deep
deepcopy
default
defaults
define
defined
deg
degruyter
del
delavayi
delay
delete
deleted
delforge
delhierroi
delias
delicatula
delink
delivered
delivery
delphinensis
delta
deltoglossa
deltoidea
deltoides
dem
demissa
demo
den
dendrobium
dendrochilum
dendrocopos
dendrophylax
denis
denmark
denny
densa
densata
densiflora
densiflorum
densiflorus
dentata
denticulata
denticulatum
dentifera
denudata
deny
deogarh
department
depauperata
dependens
depending
deploy
deployed
deploying
deployment
deployments
deppeana
deppei
deprecated
depressa
der
dera
des
described
describing
description
descriptions
desde
desf
desierto
design
designed
desired
desktop
desna
det
detag
detail
details
determined
deutsche
deutsches
deutschland
deva
develop
developed
developer
developers
development
device
devices
devillers
devlok
devoniana
dewildei
df
dhaka
di
dialect
dialog
diamonds
dianica
dichaea
dichotoma
dichroa
dichromanthus
dictionary
did
didactylus
didyma
didymoplexis
die
diesel
dietr
diff
differ
difference
different
difficult
diffs
diffy
digital
digitata
dilatata
dili
diliff
dimidia
dinghausen
diodia
diplocaulobium
dipodium
dipterocarpus
diq
dir
direction
directly
disa
disable
disabled
disambiguation
disaster
dischorensis
discifera
discoidea
discolor
discophylla
discover
discuss
discussion
discussions
disease
disperis
display
displaycount
displayed
displays
disruption
dissemination
distance
distans
disticha
distichum
distribute
distribution
district
diuris
div
diva
divaricata
diverse
diversity
diz
dk
dm
do
doc
dockrill
dockrillia
document
documentation
documents
dod
dodekanensis
dodii
dodson
dodsoniana
dodsonii
does
doesn
dog
doi
doing
dolichopus
dom
domain
dombeya
dome
domin
domingensis
domingoa
dominican
don
donation
done
donepairs
dong
donkey
donn
dorcatragus
doritaenopsis
doritis
dorpater
dos
doteli
dots
dowiana
down
downie
download
dozen
dozens
dozentenabend
dprecision
dracontia
dracula
draft
drafting
drag
drakaea
drake
drakensberg
dravidarum
drawing
draws
dream
dresden
dressler
dresslerella
dressleri
dressleria
driessenii
drop
dropdown
dropped
druce
drumana
drummondii
drupacea
dryadum
drymoanthus
drymoda
dryocopus
dsb
dsc
dsee
dstructure
dtable
dte
du
dual
duartei
dubia
duckeella
duclouxii
due
duisburg
dukes
duna
dunst
dunstervillei
dunstervilleorum
duplex
duque
durand
durangensis
duranta
during
durio
dusenii
dusk
dutch
dutra
dutrae
dv
dvalue
dvd
dy
dynamed
dyris
dz
e
each
eagle
earina
earlier
early
easier
easily
east
eastern
easy
ebook
ebooks
ebsco
eburnea
eburneum
ec
echinacea
echinata
echinocarpa
echo
ecornuta
ecseri
ecuador
ecuadorana
ecuadorense
ed
edentulum
edinburgh
edit
editathon
edited
edithistory
editing
editintro
edition
editor
editors
edits
eds
edt
eduardogobi
educational
edulis
edvard
edwards
edwardsi
edłoga
edłoha
ee
een
eesti
ef
effect
effects
effort
effusa
eg
egegik
egertonianum
egret
egy
ehem
ehir
either
ekmanii
el
elamu
elata
elatior
elatum
elatus
election
elections
electronic
elegans
elegantula
element
elements
eleonorae
eleorchis
eleutherococcus
eliasii
eligible
elitre
elizabeth
elleanthus
elliottii
elliptica
elmeri
elongata
elongatia
elongatum
else
elseif
elsevier
em
email
emarginata
embassy
embreea
embreei
emeiensis
empty
en
enable
enabled
enabling
enciclopedia
enclosed
encourage
encyclia
encyclopedia
end
endangered
endara
ending
endl
endres
ends
enforce
enforceable
enforcement
engagement
engelmannii
engineer
engl
england
engler
english
enhance
enite
enobarbia
enough
ensata
ensifolia
ensifolium
ensure
entities
entity
entityid
entityoptions
entriestolookupcategory
environment
environments
eo
ephippium
epibator
epiblastus
epidendrum
epigeneium
epipactis
epipactoides
epiphyticus
epipogium
episcopalis
epistephium
eps
eq
equestris
equi
equidae
equinum
equisetum
equus
er
erecta
erectiflora
ereg
eremitana
eria
erinacea
erinaceus
eriochilus
eritrea
erl
ermita
ernestii
ernodea
ernst
ernstia
erosa
error
errors
erubescens
erythropthalmus
erythroxantha
es
escale
escapepattern
escobar
escobariana
escobarii
esi
eskimo
esmeralda
esmeraldae
espan
especially
especie
espejo
espoo
essential
est
estado
estados
estatal
estonia
estonian
estradae
et
etc
ethiopia
eu
euarchonta
euarchontoglires
eudorcas
eugenii
eulophia
eulophiella
eumecocaulon
euoticus
eur
euro
europa
europaea
europe
european
eurychone
euterpe
euxina
eva
evaluate
evaluated
evaluation
evalwikimediaorg
even
evenodd
evenstyle
event
events
eventually
ever
every
everybody
everyone
everything
evidence
evrardii
ex
exaltata
example
examples
exasperata
excavata
excelsa
except
excited
excubitor
excude
exigua
exilis
eximia
existent
existing
expand
expanded
expanding
expandspecialsqualifiers
expandtemplate
expansa
expansions
expansum
expect
expected
expenses
experience
experienced
experiences
experimental
experiments
explains
explanata
express
expression
extension
extensiontag
extensive
external
eye
eylesii
ez
f
fa
faberi
fabiobarrosii
fabrei
fabri
facade
facebook
facilitating
fact
fagaceae
faint
fair
fairy
falcata
falcatifolium
falcon
fall
fallax
falls
false
falsely
famberhorst
family
fan
faq
far
faraway
fargesii
fargs
farinosa
farjon
farm
faroe
farreri
farsi
farvel
fasciata
fasciculata
fashion
faster
fastest
fastigiata
fastuosa
fauriei
favorite
fawc
fdc
fdfdfd
fe
feat
feature
featured
features
feb
february
federation
feedback
feel
feels
feffer
felder
feldweg
fele
felidae
felis
female
feminism
fenno
fer
ferdinandii
ferox
ferr
ferruginea
ferrum
fest
festival
festivals
few
ff
fg
fi
fiction
ficulneus
field
fifa
figure
filamentosa
file
fileexporter
fileimporter
filename
files
filifolia
filiformis
fill
filled
filter
filtered
fimbriata
fimbriatum
fin
final
finalization
finally
financial
find
findclaimsbyvalue
findings
finds
finet
finished
finlandia
finlaysoniana
finnisch
finnish
finno
finnugor
fira
firefox
firma
firmiana
first
fish
fissa
fit
fittonia
fitzg
fitzgeraldii
fiu
five
fix
fixed
fixing
fj
fl
flabellata
flabelliformis
flaccida
flag
flagbegindate
flagimage
flagimagestatement
flagstarttime
flammea
flava
flaveola
flavescens
flavicans
flavum
fleischm
fleischmannii
flexilis
flexuosa
flickingeria
flight
float
floatstyle
floor
flora
floribunda
florida
floridana
florum
flow
flowers
floyd
flu
fly
fm
fmt
fn
fo
focke
focus
focused
foetida
fog
fol
foldats
folders
foliata
foliosa
folk
folklore
follow
following
follows
font
fontstyle
food
foot
footer
footnotes
for
forbes
forbesii
force
forcipata
fordii
foreign
forest
form
formal
format
formatcommonsmedia
formatdateimpl
formatentityid
formatproperty
formatrefs
formatsnak
formatstatementdefault
formatted
formatting
formaturlimpl
formdate
former
formerly
formicifera
formosa
formosana
formosanus
formula
formulæ
forrester
forrestii
forst
fort
fortress
fortunae
fortunella
forward
foster
fosteri
found
foundation
fountain
fouquieria
four
fourplus
fowlie
fox
fr
frac
fractiflexa
fragaria
fragilis
fragrans
frame
frameless
framework
france
franch
francis
francisco
frapp
fraseri
free
freezes
fremontii
french
frequently
frey
frhdkazan
frica
friday
fried
friedmann
friendly
fritillary
fritz
frog
from
front
frp
frr
fru
fruit
fruticosa
fruticosus
fu
fuchs
fuchsii
fuciflora
fuente
fukuy
fulgens
full
fullname
fulltext
fullurl
fully
fulva
fun
function
functionality
functions
fund
fundamental
funding
funds
funerea
funkiella
fur
furcatipetala
furcifera
fusca
fuscata
fuscescens
fusciceps
fuscicollis
fusiformis
future
fy
g
ga
gadget
gadgets
gag
gagnep
gakenke
gala
galagidae
galago
gale
galeandra
galearis
galeata
galeatum
galeola
galeotti
galeottiana
galerita
galleries
gallery
gallica
game
games
gap
garay
garayana
garayi
garci
gard
garden
gardneri
garganica
garnettii
garni
gart
garten
garuda
gasabo
gastrochilus
gastronomi
gastronomia
gastronomie
gate
gather
gathering
gatsibo
gaudich
gaussen
gautierensis
gazella
gb
gd
ge
gediz
geelvinkensis
geerinck
gehrtii
gel
gelaltar
gemeinde
geminata
gemma
gen
gender
general
generate
generatelink
geniculata
geniez
genitivusmonthesnm
genitivusmonthesom
gentryi
genychila
genyorchis
geo
geobot
geoffroyi
geographical
geoinfobox
geophyte
george
georgei
georgia
georgian
georgii
gerais
gerardiana
gerekiyor
gerlach
german
germany
gert
get
getabovebelowcolspan
getargs
getboolean
getcategory
getcontentlanguage
getcurrentframe
getcurrenttitle
getdate
getelementlink
getentity
getentityobject
getlabel
getlangcode
getmetatable
getparameters
getparent
getparentsinboundariessnakimpl
getpeopleasauthorwikitext
getpersonnameasauthorlabel
getsingle
getsinglestringqualifiervalue
getsisterprojectlink
getting
gettitle
getwikisourcelink
geva
gewo
gharakhanyan
ghillanyi
gibbosa
gibbs
gibbsiae
gibsonii
gicumbi
gif
gigantea
giganteum
gigas
gilbertoi
gili
gilli
ginkgo
girl
gisagara
gishari
give
given
giving
gje
gjellerupii
gks
gl
glaberrima
glabra
glacensis
glaciar
gladioliflora
glandarius
glandulifera
glanduligera
glandulosa
glauca
glaziovii
glazov
glires
global
globe
globosa
globosus
glomera
glossary
glossodia
glumacea
glutinosa
gmatch
gmelinii
gn
gnd
gnou
gnu
go
goal
goals
god
goddess
godferyana
godine
going
gold
golden
golesta
gomesa
gomphichis
gonc
gone
gongora
gongshanensis
gonza
gonzalezii
good
goodflag
goodyera
goodyeroides
google
goore
gordonia
gorilla
got
gov
govenia
governing
government
gr
grace
gracile
gracilenta
gracilior
gracilipes
gracilis
gracilisepala
gracillima
gracillimum
gradually
graeca
graminea
graminifolia
graminoides
grammar
grammatophyllum
gran
grand
grande
grandiflora
grandiflorum
grandiflorus
grandifolia
grandis
granitica
graniticola
grant
granted
grants
granulosa
graphs
grateful
gratiosa
gravend
graveolens
gray
grayumii
grc
great
greece
green
greenland
greenlandic
greenw
greenwoodiana
greetings
greggii
gregorii
gregory
gren
grep
grey
grid
gridcolor
griechenland
griff
griffithii
gripen
griseb
grisebach
grisebachiana
grossa
group
groupcell
groupclass
groups
groupstyle
groupwidth
growth
gsater
gsub
gu
guadalajara
guadeloupe
guangxi
guarantee
guarianthe
guaruba
guatemala
guatemalensis
guerrero
guettarda
guiana
guianensis
guide
guidelines
guillaumin
guimaraensii
guinea
gujarati
gumprechtii
gustatory
gustavii
guttata
guyana
gv
gymnadenia
gyu
h
ha
haapsalu
habana
habenaria
haberi
hackathon
had
haematochila
hafen
hagsatera
hagsateri
hainan
hainanensis
hairy
haiti
haitiensis
hak
hakka
halan
halconensis
halepensis
halesia
half
halia
haliaeetus
hall
halle
hallstatt
haltern
hamadryas
hamburg
hamburger
hamelia
hamiltonii
hammarbya
han
hance
hand
handle
handling
hane
hangout
hannover
hanoi
hant
hanuman
hapalorchis
happen
happens
happy
har
harassment
harbour
hard
haren
harmageddon
harpago
harpercollins
harpophylla
hartwegii
harv
harveyana
has
hasadditionalqualifiers
hashim
haslamii
haspreferred
hasta
hastata
hastifera
hatch
hatirjheel
hatschbachii
haus
hausdu
hautz
havana
have
haven
having
hawk
hawkes
hayata
hayekii
haza
hdi
hdr
he
head
headed
header
headings
health
healthy
hear
hearing
heart
hebes
hebrew
heide
height
heilig
heiligengrabe
heinonline
held
heldreichii
helena
helenae
heliconia
heliconiscapa
helios
helleborine
heller
helleri
hello
helophilus
help
helped
helper
helpful
helping
helps
helsinki
hemipilia
hemirhoda
hemsl
hennisiana
henrici
henriquezia
henryi
herae
herb
herbacea
herbst
here
heringeri
heritage
hermans
herminium
hernandezii
hero
heron
herrerae
hertel
herzegovina
herzogii
hespenh
het
heterophylla
hexalectris
hexandra
hexisea
hh
hi
hians
hibiscus
hickelii
hidden
hiddencat
hide
hides
hieraaetus
hiern
hieroglyphica
hif
higgins
high
highbeam
highlight
highlighted
highlighting
highlights
highly
highrises
hill
hillii
hills
him
himalaica
himalaya
himalayas
himantoglossum
himoriara
hindi
hindu
hintonella
hippocamelus
hippotigris
hippotragus
hirsuta
hirta
hirth
hirtz
hirtzii
his
hispaniola
hispida
hist
histo
historia
historians
historical
historically
histories
history
hle
hlist
hms
ho
hochr
hochst
hodgsonii
hoehne
hoehnea
hoehnei
hoeijeri
hoffmannseggiana
hohenlohii
holcoglossum
hold
holder
holding
hole
holophylla
holoserica
holosericea
holothrix
holstii
holttum
home
hominidae
homolepis
honda
honduras
hondurensis
hong
hook
hooker
hookeri
hookeriana
hoolock
hooper
hope
hopper
horichiana
horizontal
horizontalis
hortus
host
hostdelimeterposition
hosted
hosting
hoststartposition
hotel
houlletia
hour
hourmin
hours
house
houtteana
hovercards
how
however
hr
href
hrsg
hsb
ht
html
http
https
hu
hubb
hubble
huds
hudson
hue
huegelii
human
humanities
humbertii
humblotii
humilis
hummingbird
hung
hungarian
hungary
hunt
hunting
huntleya
huye
hvb
hvi
hy
hybrid
hybrida
hyemalis
hygrophila
hylobatidae
hymuł
i
ia
ibm
ibu
iburasirazuba
ic
ice
iceland
iceliensis
ico
icon
icona
icons
id
ida
idea
idealab
ideas
identical
identified
ie
ielo
if
ig
iglesia
igma
ignea
ignore
ignorecase
iguapensis
ii
iii
ik
ikinyarwanda
ikirun
il
ilc
ilhas
ill
illustrated
illyrica
ilo
im
image
imageclass
imageleft
imageleftstyle
images
imberbis
imbricata
imdb
ime
imf
img
imidugudu
imirenge
imitans
immaculata
immature
immediate
immense
impact
impairment
imperialis
implemented
implementing
implements
import
important
imported
impression
impressions
improve
improved
improvement
improvements
improving
in
ina
inactive
inactivity
inaequalis
incana
incantata
incarnata
include
included
includemetatable
includes
including
inclusive
incorrect
increase
increased
increases
increment
incubacea
independent
indes
index
indexed
india
indian
indic
indica
indicating
indices
indicum
individual
individuals
indo
indonesia
indonesian
indus
ine
ined
inflata
info
infobox
infocardclass
infocards
infocardtemplate
inform
information
informed
infrastructure
ingramii
inherit
initial
initially
initiative
initpos
inlet
innenansicht
innenraum
inner
inodora
inornata
input
insectifera
insert
inserted
inserter
insertfromsnak
inserting
inside
insights
insignis
inspector
inspire
inst
instagram
instead
institut
institute
instructions
insularis
intara
integra
integrated
integrilabia
intended
interact
interest
interested
interface
interior
interlanguage
intermedia
intermedium
intermedius
internal
international
internet
interwiki
into
intonsa
intricata
introduce
introduction
intuitive
inu
inuit
inuktitut
inuttitut
inuttut
inuvialuit
inuvialuktun
invalid
invariant
inversed
inversion
investigates
investigations
invisible
invitation
invite
invited
inviting
invoke
invoked
involved
involvement
inyear
io
ios
ip
ipa
ipairs
iprage
ipsea
iq
ir
ira
iran
irc
iricolor
irrorata
irwiniana
is
isa
isabelia
isamaa
isaoara
isblank
isbn
isbns
ischnura
iscountry
isempty
isfaha
isinstanceof
isinversed
isla
island
islandia
islands
islas
ismatch
ismatchlanguage
ismatchunit
isn
isnew
isnotempty
iso
isochilus
isqualifierfound
israel
israelitica
isranked
iss
issn
issue
issues
ist
istanbul
isten
isunion
isvalidrank
it
italia
italian
italica
italie
italy
item
items
iterator
its
itself
iu
iv
ivanovo
ix
ixodes
ixora
izh
izhevsk
j
ja
jacq
jacquinia
jacquiniella
jaguar
jahrb
jakarta
jaliscana
jalisco
jamaica
jamaicensis
james
jamesonii
jan
janak
janeiro
janetiae
jansson
january
japan
japanese
japonica
japonicum
jarae
jard
jaro
jas
jasminum
jatrophae
java
javanica
javascript
jaya
jazyk
jbwr
je
jean
jeanes
jelac
jem
jenmanii
jenny
jesup
jesupiae
jesupii
jesupiorum
jesus
jethrobt
jewish
jezoensis
ji
jimburae
jimenezii
jimii
jin
jingle
jippu
jk
jo
jobs
joe
johan
johann
johanna
johannis
john
johnsonii
johnst
johnstonii
join
jones
jordanensis
jorullensis
jos
josephi
jost
jostii
journal
journals
jp
jpeg
jpg
jr
js
jst
jstor
ju
juan
jubatus
jukoff
july
jumellea
jumelleana
jun
juncifolia
june
juniperus
junonia
just
juva
juvenile
jv
k
ka
kaa
kab
kadavoor
kaempferi
kaganer
kageyo
kahramanmaras
kaiyr
kaj
kalaallisut
kale
kalidasa
kalopissii
kamchatka
kamonyi
kaniensis
kanna
kannada
kaohsiung
kap
karabu
karac
karama
karaman
karcher
kareniae
karjalan
karl
karla
karongi
kars
kas
kashan
kashunamiut
kastanje
kasze
katangensis
kategori
kategoria
kategorie
kategorija
kategorio
kath
kathmandu
katie
kauan
kautskyi
kawakamii
kayonza
kaza
kazan
kc
kca
ke
kec
keegan
keep
keeping
kefermarkt
kegeliella
kegelii
keila
keller
kenn
kenya
kerrii
kes
keteleeria
kew
key
keyboard
keyflower
keyword
kg
kh
khor
ki
kibirizi
kicukiro
kiel
kieli
kiev
kievica
kigali
kigoma
kilvelurkediliyappartemple
kinabaluensis
kinazi
kind
kindly
king
kingfisher
kingianum
kingiella
kingii
kinihira
kirche
kirchspiel
kirehe
kirik
kirjallisuus
kirkii
kirova
kittr
kiyomizu
kk
kl
klabatensis
klein
kleinii
kloster
klotzsch
km
kn
know
knowledge
knowles
known
knows
ko
kob
kobus
koch
kodiak
koehleri
koellensteinia
koelreuteria
koi
kokman
komi
kommersant
kong
koniag
kopenhagen
koraiensis
korea
korean
koreana
kores
korfu
kotschyana
kotschyi
kp
kr
kraenzl
kraenzlinella
krameri
krc
kremlin
kreodanthus
kretzschmar
kreutz
kruger
ksh
ku
kuhlhasseltia
kumar
kunstleri
kunth
kuntze
kuressaare
kurzweil
kuvakirja
kv
kw
kwangsiensis
kwazulu
ky
kyngrajch
kyoto
kyrenia
kırıkkale
l
la
label
labeled
labelledby
labels
labelslangcode
labiata
labill
labrador
lacaena
lacera
lacerda
laciniata
lack
lactea
lad
ladenbergia
lady
laelia
laeta
laevigata
laevis
lagarophyta
lagerstroemia
lago
laguna
lake
lam
lama
lamb
lamborghini
lamellaris
lamellata
lanata
lancea
lanceana
lanceolaria
lanceolata
lanceolatus
lancifolia
lancilabris
lancipetala
land
landing
landscape
landschaftspark
lang
langcode
langentity
langentityid
langs
language
languages
languagescode
lanius
lanka
lankesteri
lantz
lanuginosa
laos
lapponica
lar
large
larger
largest
larix
las
lasianthus
lasiocarpa
lasioglossa
last
lastnum
lasts
lat
latakiana
late
later
latex
latifolia
latifolium
latilabris
latina
latipetala
latisepala
laubenfels
laubenfelsii
launch
launched
laurensis
laurifolia
lauterbach
law
lawrence
lawsonii
laxa
laxiflora
laxiflorum
layardii
layout
lb
lbe
lbs
lc
ldots
le
lead
leading
leafl
learn
learned
learning
least
leave
lebanon
lecanorchis
led
ledermannii
left
legacy
legal
lehm
lehmanniana
lehmannii
leiophylla
leli
lem
len
length
leningrad
leo
leochilus
leontoglossa
leontopithecus
leopardus
lepanthes
lepanthopsis
lepida
lepidum
leptailurus
leptantha
leptochila
leptotes
leptotifolia
les
less
lesser
let
lets
letter
letters
leucantha
leuconeura
leucoptera
leucoryphus
leucoxantha
level
lewis
lex
leyte
leytensis
lez
li
liaison
libocedrus
library
libraryutil
lica
licania
license
licenses
lichen
lichenophila
lies
liet
life
light
lighthouse
ligulata
like
likely
liksom
lilacina
liliiflora
lilijae
limba
limbata
limit
limitations
limited
limprichtii
lin
lindau
linden
lindeniana
lindenii
lindl
lindley
lindleyalis
lindleyana
lindleyanum
line
linearifolia
linearifolium
linearis
lineata
linegrey
lines
lingua
linguistica
link
linked
linkin
linking
links
linn
linnaea
linnus
linux
lion
lions
liparis
liquidambar
liquidthreads
lissochiloides
list
listcell
listclass
listed
listera
listnum
listofcountries
listofprofessions
listpadding
lists
liststyle
listtotext
litensis
literary
literature
lithocarpus
litocranius
little
littoralis
liu
liukiuensis
live
livida
lix
lja
ll
llamachoi
llave
lle
ller
llu
lma
lmen
lmener
lmo
ln
lo
loa
loaddata
loading
loanwords
lobata
lobos
local
located
locatie
location
loch
loco
locomotive
lodd
loddigesii
lodo
loefgr
log
logged
login
logo
logos
loheri
lojban
lon
london
londonoi
long
longer
longibracteata
longicalcarata
longicauda
longicaulis
longicornu
longiflora
longifolia
longifolium
longilabris
longipedicellata
longipedunculata
longipes
longipetala
longipetalum
longiracemosa
longisepala
longispicata
longissima
look
looking
looks
lord
lorenae
lorenz
loreziana
lorisidae
los
loss
lost
lot
louis
lour
love
loves
low
lower
lowiana
lowii
loxia
loxodonta
loxura
lp
lr
ls
lt
ltd
ltg
lu
lua
luaargs
lucida
lucidum
lucis
lucksom
luculia
ludac
lueddemannia
lueddemanniana
luer
luerorum
lugens
luisia
luka
lum
lumholtzii
luna
lunata
lunatus
lunulata
luokka
lusitanica
lutea
luteocilium
luteola
lutetia
luxembourg
luxemburg
luzon
luzonicum
lv
lva
lvm
lyallii
lycaste
lyciensis
lycomormium
lycopodioides
lydia
lynx
lz
lzh
m
ma
maakond
maastricht
maboroensis
mac
macaca
macedonia
macedonica
macodes
macra
macrantha
macranthum
macrobulbon
macrocarpa
macrophylla
macropodidae
macropus
macrostachya
macuconensis
maculata
maculatum
maculosa
madag
madagascar
madagascariensis
made
madeira
madisonii
madonna
madoqua
maduroi
maek
mag
magazine
magazines
magija
magnifica
magniflora
magnipetala
magnolia
magnoliaceae
maguirei
magyar
magyart
mail
mailing
main
maingayi
mainly
mainsnak
mainsnakdatavaluevalue
mainsnakdatavaluevalueunit
maintain
maintenance
maire
majalis
major
make
makegeneralcategories
makes
makgadikgadi
making
makino
makoyana
makpig
mal
mala
malabarica
malachantha
malachite
maladroxiensis
malawi
malaxis
malay
malaya
malayalam
malayan
malaysia
male
mall
malline
mallnitz
mallorca
malmeana
malmquistiana
maluku
malvaceae
mammea
mammosa
man
manabina
manager
manavgat
mandonii
mandschurica
manhal
manihot
mannheim
manniella
mannii
mansf
manul
many
map
maplandia
maps
mar
maranta
marathi
march
margin
marginata
mari
maria
mariae
marina
maritima
maritimus
mark
marked
marker
market
marks
marksa
markt
marmorata
mars
marseille
marshallia
marsupialis
mart
martelli
martin
martinezii
martinsi
martius
marula
marumbyana
masam
mascula
masonry
mass
massmessage
mastersiana
match
matches
matchestitle
material
materials
math
mathbb
mathematics
mating
matter
matthewsii
maura
mauriat
mausoleo
mausoleum
max
maxillaria
maxillariella
maxim
maxima
maximartinezii
maximowiczii
may
maybe
mayer
mayor
mayr
mazama
mazz
mbazi
mc
mccann
mcdonald
mcgregorii
mdf
me
meadow
meaningful
means
meantime
med
meded
media
mediawiki
medical
medinae
mediocarinata
medit
mediterranean
medium
medusa
meet
meeting
meetings
meets
meg
megaloceros
megalotis
meiracyllium
mekong
melachila
melampus
melanocaulon
melanoleuca
meleagris
meliaceae
melitaea
melki
mellifera
mem
member
members
membracidoides
memoized
memorial
mendozae
menezes
mens
mentosa
menu
menus
mercedes
merfeld
mergeargs
meri
meridana
meridionalis
merkez
merkezi
merops
merr
merrill
merrillii
meryta
mesadenella
mesadenus
mesocricetus
message
messages
met
meta
metaargs
metaargskey
metallica
metasequoia
metatable
metro
metroasema
mexicana
mexico
mexique
meyeri
mez
mezquita
mg
mh
mhnt
mhr
mi
michael
michauxii
micholitzianum
micrantha
micranthum
microchilus
microglossa
micropetala
microphylla
microphyta
microscopica
microsoft
microtis
mid
midas
middle
midi
might
migrate
miguelii
mike
mikko
miles
miliaris
militaris
military
milleri
million
miltonia
miltoniopsis
min
mina
minahassae
minas
minax
mindanaensis
mindanao
mindorensis
minecraft
mini
miniata
miniatum
minima
minimize
minor
minus
minuta
minutes
minuticauda
minutiflora
minutissima
miq
miqueliana
mirabilis
miranda
mis
misc
miss
missing
mission
missouri
mit
mitchella
mitragyna
mitt
mitte
mitteilungen
mitterbach
miut
mk
ml
mm
mn
mo
mobile
mocoana
mod
mode
model
modele
modelo
models
modern
modes
modesta
modified
modifying
module
moduleroman
modules
modulewikidata
moeda
mollis
molloy
momci
mona
monachus
monasterio
monastery
monday
mongolia
monitor
monitoring
monobook
monogr
monolingualtext
monomeria
monophylla
monophyllum
monosepalum
monosperma
montage
montana
montanum
monteiri
montezumae
month
monthgm
monthgom
monthly
months
monticola
montis
montreal
montserratensis
monument
moon
moore
mooreana
moorei
mora
moraceae
more
morenoi
morganii
morii
morio
morisii
moritzii
mormodes
mormolyca
mornicola
morning
morocco
morrisonicola
moschata
moschatus
moscosoa
moscow
moscu
moskovskaya
mosmetro
mosque
most
motacilla
moth
motors
mount
mountain
mountains
move
moved
movement
movementcharter
moving
mozambique
mozilla
mp
mpumalanga
mr
mrj
ms
msg
msk
msn
mt
mu
much
mucho
mucronata
mucronatum
muell
muelleri
muganza
mugo
muhanga
mukarange
muko
mukura
multi
multiclavia
multiflora
multiflorum
multilingual
multiple
munch
munich
munka
muntiacus
mural
murama
murambi
murexoidea
muricata
mus
musanze
muscicola
muscosa
muscosum
muse
museo
museum
musha
music
musicians
must
mustang
mustela
mustelidae
mute
mutel
muumit
muuseum
muuseumi
mw
my
myanmar
mylanguage
myoxanthus
myrmechila
myrmechis
myrmecodia
myrmecophila
myrtaceae
myrticola
myself
myspace
mystacidium
mystax
mythology
mytnik
myv
n
na
naar
nacht
nachtr
nacional
nagelii
nah
naithani
nak
nakai
name
named
names
namespace
namibia
naming
nan
nana
nanger
nanortalik
nanus
nap
napintzae
narcissus
narva
nas
nasa
nasirolmolk
nasuta
nat
natal
natalensis
natalia
nation
national
nationalmuseum
native
natl
natsilik
natural
nature
naturhist
nauclea
nautilus
nav
naval
navbar
navbox
navboxclass
navboxes
navicularis
navigate
navigation
navigational
navy
nazca
nb
nbc
nbg
nc
nd
ndefaultlanguage
ndia
ndn
nds
ne
near
nearly
neas
necessary
nectarifera
ned
neditors
need
needed
needs
nees
negadensis
negative
neglecta
neglectum
nehri
nek
nelson
nelsonii
nem
nematoceras
nemba
nemorosa
nen
neocogniauxia
neofinetia
neomoorea
neotragus
neottia
neottianthe
nepal
nephelaphyllum
nertera
nervilia
nervosa
nes
nested
nestoridae
net
network
networks
neudeckeri
neuwiedia
new
newclaim
newclaims
newcomers
newer
newest
newly
newparentsnaks
newplacesindex
newplacestr
news
newsletter
newspaper
newspaperarchive
newspapers
next
nextlabel
nextwikitext
nez
nf
nfelder
ng
ngc
ngoma
ngororero
nh
ni
nia
nich
nicholas
nicholls
nicobar
nidus
niesch
niesseniae
nig
niger
nigeria
night
nightwish
nigra
nigrescens
nigricollis
nigritella
nigrum
nikolai
nil
nilargs
nilargskey
nin
nina
nintendo
nipalensis
nipponica
nir
nirvana
nissue
nitida
nitidum
nivalis
nivea
niveoglobula
njai
nk
nkele
nl
nm
nmn
nn
nnumberofpages
no
nobilis
nobots
nocat
node
nodis
nodosa
noeditsection
noflip
nogallery
nolinks
nom
nominate
nominated
nominations
nominativemonthesnm
nominativeyear
non
none
nonino
noon
nord
norderney
nordeste
nordic
nordmanniana
normal
normalize
normativetitle
noroeste
norte
north
northern
northwest
norton
norway
not
notable
note
notes
nothing
nothofagus
nothosubsp
notice
notification
notifications
notify
notizbl
notoc
notre
notul
notylia
nov
nova
novalue
november
noviewer
novosibirsk
now
nowrap
nowrapitems
nox
np
npages
npl
nr
nster
nu
nubigena
nuda
nudicaulis
nuestra
num
number
numberofpages
numbers
numeric
numida
nummularia
nunivak
nuniwarmiut
nutans
nutt
nuytsia
nv
nvolume
nw
ny
nya
nyabihu
nyagatare
nyagisozi
nyamagabe
nyamasheke
nyamiyaga
nyange
nyanza
nyarugenge
nyaruguru
nyasae
nyelv
nyu
nzst
o
oasis
oaxaca
oaxacana
obas
oberonia
obes
obis
object
objective
obl
oblanceolata
obliquipetala
obliquus
oblonga
oblongifolia
obovata
obscura
obsik
obsolete
obtusa
obtusifolia
obverse
oc
ocaasi
occidentalis
occurs
och
ochracea
ochreata
ochroleuca
octavioi
october
octomeria
od
odd
oddeven
oddstyle
odobeniceps
odocoileus
odontoglossum
odontonema
odontorrhynchus
odorata
odoratissima
odoratum
oenanthe
oerstedii
oeste
oesterr
oestrifera
of
off
offer
offered
office
official
officinale
officinalis
offline
often
og
ogg
ogledalce
oh
ohwi
oj
ok
ol
ola
olbiensis
old
oldenlandia
oldprint
oled
oligantha
olivacea
oliver
olor
olympic
om
ombuds
ombudsperson
omegaifera
omissa
omniglot
on
onagriceps
once
oncidium
one
ones
online
only
oocarpa
ooui
open
opened
opening
opera
operation
operator
ophelma
ophioglossoides
ophiopogonoides
ophiorrhiza
ophrys
opinions
opportunities
opportunity
oppose
oppositifolia
opt
option
optional
options
optionsaslinks
optout
or
ora
orbicularis
orbiter
orch
orchadian
orchi
orchid
orchidaceae
orchidee
orchideen
orchids
orchis
order
ordered
oreadum
oreophila
oreotragus
org
organization
organize
organized
organizing
orgel
orientalis
orig
original
orion
orleanesia
ormerod
ornata
ornatus
ornithocephalus
ornithochilus
orobanchoides
orphan
orphancat
orqui
orquideologia
ortako
ortegae
orthetrum
orthoceras
orthophylla
ortiz
oryx
os
osaka
oscitans
osiris
osmanica
osmaniye
ost
osteosperma
osteospermum
ostseite
other
others
otherwise
otia
otocolobus
otolemur
otostylis
otrs
otto
oudmourte
ouest
our
ourebia
out
outdated
output
outreach
outside
outtype
ova
ovalifolia
ovalis
ovata
ovatilabia
over
overlay
overview
overwritten
owl
own
oxycedrus
oxycoccos
oxyglossa
oxyrrhynchos
oxyrrhynchossubsp
oy
p
pa
paamiut
pabst
pabstii
pachliopta
pachyglossa
pachyphylla
pachyphyllum
pachyphyta
pachypodium
pachystachys
pacific
pacifica
padding
paederia
page
pageara
pages
pageviews
pagoda
pagos
paid
paide
pairs
paisaje
pajeros
pal
palace
palacio
palawan
palawensis
pale
palezik
palicourea
palkinto
pallasiana
pallens
pallescens
pallida
pallidiflavens
pallidiflora
pallidus
paludosa
palustris
pam
pamukkale
pan
panama
panamensis
panattensis
pandurata
panduratum
panduripetala
paniculata
paniscus
panisea
pano
panorama
panoramic
panoramio
panormitana
pans
panthera
pantherina
pantl
pap
paphinia
paphiopedilum
papilio
papilionacea
papilionanthe
papillosa
papillosum
papio
papuana
papuanum
papuasia
papuligera
par
paradoxa
paraguay
param
parameter
parameters
params
parana
paranaensis
paraphalaenopsis
parapluies
parasitica
pardalina
pardalis
pardipes
parent
parententities
parententitiesi
parentoptions
parentsnak
parentsnaks
pargs
paris
parish
parishii
parisiorum
park
parliament
parque
parse
parseclaim
parsedbirthdate
parseddate
parseddateofdeath
parsedfinishdate
parsedflagstarttime
parsedtime
parseiso
parsetimefromsnak
part
partial
participants
participate
participated
participating
participation
particular
particularly
partner
partners
partnerships
party
parus
parva
parviflora
parviflorum
parvifolia
parvifolium
parvilabris
parvula
parvulum
passed
passionis
password
passwords
past
paste
patens
path
pathways
patrick
patro
patrol
patrom
patrono
pattern
patula
pauciflora
pauciflorus
paul
paulara
paulensis
paulo
pauloensis
paulownia
paulus
pav
pavetta
paxton
paz
pcall
pcd
pdc
pdf
pdt
pe
peahoone
pearce
pecari
pectinata
pectinatum
pedersen
pedicellaris
pedicellata
pedilochilus
pedunculata
peel
pellucida
pen
pencil
pendens
pendula
penduliflora
penguin
penicillata
peninsula
pensilis
pentandra
pentapetes
pentas
people
peperomioides
pequenas
per
perca
percentage
performance
performed
period
peristeria
perl
permission
permissions
perodicticus
perplexum
perpusilla
perrier
perrieri
pers
perse
persian
person
personname
personnameasauthor
personnametoauthorname
peru
peruv
peruviana
peruvianum
petelotii
peter
petersiana
petiolaris
petiolata
petropolitana
pett
peyrotii
pez
pfarrkirche
pfavii
pfennig
pfg
pfisteri
pfitzer
ph
phabricator
phacochoerus
phaius
phalaenopsis
pharia
phase
phaseolus
phasianus
philantomba
philipp
philippe
philippinense
philippinensis
philippines
pho
phodopus
phoenicea
phoenicopterus
phoenicurus
pholcoidea
pholidota
phone
photo
photocount
photographic
photos
photosk
php
phragmipedium
phreatia
phrygia
phyllocladus
physalis
physik
phytologia
phytotax
pi
pica
picea
picta
picture
picus
piece
pieces
pied
pieris
pileata
pileatum
pilifera
pilosa
pilosissima
pilot
pinaceae
pinaster
pinceana
pinea
pines
pinetorum
pink
pinsapo
pinus
piperia
piptoporus
piratiningana
pisinna
pisum
pithecia
pityphyllum
pk
pko
pl
plac
place
placeid
places
plain
plaindata
plainlinks
plainlist
plan
planned
planning
plans
plant
plantaginea
plantilla
platanthera
platform
platforms
platychila
platypetala
platyphylla
platystele
platystylis
platz
plays
plaza
please
pleased
plectorrhiza
pleione
pleurothallis
pleurothalloides
plicata
ploceus
plocoglottis
plotdata
plumosa
pmmp
pnb
png
po
podocarpaceae
podochilus
poepp
pogonia
pogoniopsis
poilanei
point
poir
polar
policy
polis
polish
pollinensis
polonia
polyantha
polycycnis
polygonoides
polymnestor
polyphylla
polystachya
pomatocalpa
pond
ponderosa
ponerorchis
pongo
pont
ponthieva
pontica
pop
popayanensis
popular
populatedatafromclaims
populatesourcedataimpl
population
populus
popups
por
porphyrea
porroglossum
porsch
porsche
port
porta
portal
portentosa
portilla
portillae
portlandia
porto
portoi
portrait
portugal
portuguese
porvoo
pos
posadarum
position
positions
positive
possible
possibleage
possiblebookseriesentityid
possibledatestring
possibly
post
posted
poster
posting
postponed
potaninii
potd
potential
potentially
potto
powellii
power
powiat
pozoi
pp
ppelberg
pr
pradesh
praecipua
praecox
praemorsa
praetermissa
prague
praha
prasophyllum
pre
precision
predefinic
predloga
predloz
prefer
preference
preferences
preferids
preferred
prefix
prefsection
preg
preliminary
preload
prepare
preparing
presbytis
present
presentation
presentations
preserve
presl
press
presser
prev
prevent
preview
previews
previous
previously
prevlabel
prey
pridgeon
primarily
primary
primates
prince
principal
pringlei
print
prior
priorities
prioritize
privacy
private
privigna
privileged
prizes
pro
probably
problem
problems
proc
procapra
proceed
procera
process
processes
processitem
procumbens
prodr
produce
product
productivity
prof
professions
professionscategories
professionslist
profile
program
progress
project
projectinterwikilettter
projectname
projects
projecttocheck
prolifera
promontorii
pronunciation
propclaim
proper
properties
property
propertyid
propertyselector
propinqua
propithecus
proportion
proposal
proposals
propose
proposed
propvalues
prorepentia
prosthechea
prostrata
protea
prototype
prototypes
prov
provide
provided
providedlabel
provides
providing
provincialis
pru
pruinosa
prunus
przewalskii
ps
psammophila
psephotus
pseuderanthemum
pseuderia
pseudoanatolica
pseudoapulica
pseudobertolonii
pseudolaelia
pseudopanax
pseudospeculum
pseudostrobus
pseudovanilla
psilantha
psittacidae
psittacina
psittacula
psittaculidae
psittrichasiidae
pskov
psyche
psychilis
psychopsis
psychotria
pt
pteroglossa
pterostylis
pu
pubentity
puberula
pubescens
pubipetala
publ
public
publication
publications
publish
published
publisher
publishers
publishes
publishing
puck
pudu
puerto
puesta
puffin
pula
pulchella
pulchellum
pulchellus
pulcherrima
pulchra
pulchrum
pullei
puma
pumila
pumilio
pumilum
pump
punctata
punctatum
punctulata
pungens
pupulin
purana
purple
purpose
purposes
purpurascens
purpurata
purpurea
purpurella
purpureum
purpusii
pusilla
put
puttemansii
puzzle
px
pygargus
pygmaea
pygmaeus
pyramidalis
pyrenees
pyrifolia
pyrrhula
pywikibot
pywikipediabot
q
qikiqtaaluk
qnotlaterthan
qnotsoonerthan
qqq
qu
quadricornis
quadrifolia
quadriloba
quadrilobum
quadripunctata
qualifier
qualifierid
qualifierpropertyid
qualifiers
qualifiervalue
quality
quant
quantity
quay
queen
queensland
queer
quekettia
question
questions
quick
quickly
quiddity
quisqueya
quisqueyana
quisumb
quito
quo
quotation
quotations
r
ra
rabei
racemosa
radialis
radiata
radio
radiosa
raekoda
raf
rahva
railway
rain
rainbow
rakvere
ralfr
rally
rami
ramifera
ramonensis
ramosa
ramosii
ramulosa
ran
randii
random
range
rangifer
rank
rankin
rao
raphicerus
rapla
rar
rasmus
rather
ratio
rautatientori
raw
rawrule
rawrulepattern
rayon
rb
rchb
rd
rdla
re
reach
read
readability
readers
reading
ready
real
really
realms
rearrange
receive
received
receives
recent
recentchanges
recently
rechingeri
recognize
recommend
recommendations
recommended
reconnaissance
record
recorded
records
recruiting
recurva
recurvata
red
redesigned
redirect
redirected
reduce
reduced
redunca
reedii
reef
ref
refanchor
refanchoryear
reference
references
referencing
reflection
reflections
reflexa
reflist
refracta
refreshed
reftext
reg
regalis
regarding
regardless
regards
regel
regex
regexoptions
regexp
regia
regina
reginae
region
regions
regis
registered
regni
regular
rehderiana
reichenbach
reichenbachiana
reinhard
reinholdii
relate
related
relatively
released
releases
relevant
reliable
reliably
religion
religiosa
remain
remaining
remains
remember
remera
remota
removal
remove
removed
removing
ren
rename
renaming
renanthera
rendered
renderreferenceimpl
rendersource
rendle
renessaince
reniformis
rental
renz
renzii
rep
repeat
repens
repert
repetitions
repl
replace
replaced
reply
report
reports
repository
represented
repressed
reproductive
reptans
republic
request
requested
requests
require
required
requirements
requires
res
research
reserva
reserve
reservoir
resinosa
resolution
resources
respiratory
respond
responded
responsible
respublika
rest
restore
restored
restrepia
restrepioides
result
resultclaims
resultlist
resultproperty
resultresultproperty
results
resultwikitext
resupinata
ret
retelling
reticulata
retroflexa
return
returns
retusa
rev
reverse
reverting
review
reviewing
reviews
revision
revisions
revisionslider
revoluta
revolution
rex
rez
rfc
rgb
rge
rhellicani
rhinerrhiza
rhizanthella
rhizophora
rhodochila
rhodostephane
rhombifolia
rhombilabia
rhomboglossa
rhyncholaelia
rhynchophreatia
rhynchostele
rhynchostylis
rhytionanthos
ri
ribes
rica
rich
richteri
ricii
rico
ridl
riga
right
rights
rigida
rigidula
rigolet
rijks
rimbachii
ringens
rio
riparia
risso
risto
rituals
river
riyadh
rkc
rm
rn
rna
rnberg
rnste
rnu
ro
roa
road
robinsonii
robiquetia
robusta
robustum
robyns
rock
rodr
rodrigoi
rodriguesii
rodriguezia
roezlii
rogers
roi
role
roles
rolfe
rolfeana
rolling
rom
roma
romaani
romero
roof
root
rosa
rosaceae
rosea
roseoalba
roseum
roseus
rosillo
rostellata
rostock
rostrata
rostratum
rotterdam
rotundata
rotundifolia
rotundifolius
round
rouse
row
rownum
rows
rowstyle
roxb
roxburghii
roy
royal
royen
rs
ru
rubavu
rubens
ruber
rubiaceae
rubiginosa
rubra
rubrum
rubus
ruckeri
rudbeckia
rudis
rudit
rudolfiella
rue
ruedi
ruellia
rufa
rufescens
rufifrons
rufina
rufus
rugarama
rugendabari
rugosa
ruhango
ruiz
rukomo
rule
rulei
rules
rulindo
rumani
run
runa
rungweensis
running
rupestris
rupicapra
rupicola
rupp
rus
rusby
rusbyi
ruscifolia
rusia
rusizi
russia
russian
rutaceae
rutk
rutsiro
rw
rwamagana
rwanda
rwimbogo
rydb
rzedowskii
s
sa
sabal
sabina
sablon
sabulosa
saccata
saccatum
saccifera
saccoglossum
saccolabium
sacculata
sad
safari
safe
safety
sagittata
saguinus
sah
saiga
saimiri
saint
sakha
sal
salar
salazar
salicaceae
salicifolia
salix
salpistele
salted
saltuaria
salvador
salvatore
salzburg
salzmannii
sambiranoensis
same
samo
samoensis
samre
san
sanchezii
sancta
sanctae
sancti
sandbox
sanderae
sanderiana
sanguinea
sanguineum
santa
santiago
santo
santolina
santorin
santuario
sapindaceae
sapindus
saponaria
sapotaceae
saqqaa
sarajevo
sarapul
saratoi
sarawak
sarawakensis
saray
sarcochilus
sarcoglottis
sarcophylla
sarcostoma
sardegna
sardinia
sargentiana
sargentii
sassafras
satyrium
sauleda
saundersiana
saurocephala
sauroglossum
save
saw
saxatilis
saxicola
say
says
sb
sc
scabra
scale
scandens
scansor
scaphosepalum
scaphyglottis
scariosa
scelochilus
scene
schabloun
schedul
schedule
scheduled
schefflera
schelpe
scheme
schemedelimeterposition
schiedeana
schiedeella
schilleriana
schimperi
schinopsis
schinz
schlechter
schlechteri
schlechteriana
schlimii
schloss
schlossgarten
schltdl
schltr
schmidtianum
scho
scholarly
scholarship
scholarships
schomburgkia
school
schrenkiana
schudelii
schuit
schult
schultzei
schulze
schulzei
schum
schumann
schutzgeb
schweinf
schweinfurthianum
schweinfurthii
schwetzingen
sci
science
sciencedirect
sciences
scientific
scientists
sciureus
sclerophylla
scn
sco
scolopax
scope
scopulorum
scotland
scottish
screen
screens
screenshot
scripts
scriptum
scrugli
sculpture
scuticaria
sd
se
sea
seamless
search
searchbuttonlabel
searches
searchresulttext
seats
seattle
sebastian
sec
secc
second
secondary
secrets
sect
section
sections
secunda
secundiflora
securepoll
security
see
seed
seehawer
seeking
seemann
seen
seidenf
seidenfadenii
selbyana
select
selected
selectedsnakes
selecting
selection
selector
selectorsstring
selenitepala
self
selskab
semiglobosa
semperflorens
sen
send
sending
senegalensis
senghas
sensu
sent
sep
separate
separated
separator
september
septentrionalis
seranica
serapias
series
seriz
serotina
serpens
serpentilingua
serrulata
sertifera
serval
serve
server
service
sessiliflora
sessilis
session
set
setaceus
setigera
setmetatable
setting
settings
settlement
several
sevilla
sf
sg
sgrabarczuk
sgs
sh
shadow
shadowmaker
shady
shah
shamakhi
share
shared
sharing
sharpei
sheet
sheviak
shift
shim
shinen
ship
shirasawa
shiraz
shiva
shoner
shoozymade
shop
short
shortcut
shorter
should
shouldn
show
showcase
showed
showing
shown
shows
shwedagon
si
sia
siamensis
siberia
siberian
sibirica
sichuan
sicilia
sicula
side
sidebar
sidney
sieboldii
siemens
sievekingia
sigmoidea
sign
significant
signs
signup
signups
sijm
sijmii
sikkimensis
sil
silent
silvae
silvana
silver
silverstonei
silvestrii
simarouba
simaroubaceae
simia
similar
similis
simondii
simons
simple
simpledate
simpler
simplex
simpliciglossa
simulans
sin
since
sinclairii
sinense
sinensis
singapore
singer
singers
single
sinica
sinuata
siprage
sister
sitchensis
site
sitelink
sitelinks
sitelinksproject
sites
sitewide
sitiaca
situation
situations
siumut
sivusto
six
size
sizes
sjabloon
sk
ska
skabelon
skagens
skeptrostachys
sketch
ski
skills
skin
skinneri
skins
sko
skumma
sky
skyline
sl
slider
slightly
slovenia
slower
slowly
sm
sma
small
smaller
smaragdina
smartphone
smartphones
smg
smith
smithii
smolenske
smooth
sn
snak
snake
snaks
snaktype
snið
snow
so
sobralia
soc
social
society
sodiroi
software
sol
solanaceae
solano
solar
solid
solium
some
someone
somestring
something
sometimes
somewhere
sond
sonda
sony
soo
soon
sophora
sophronitis
soratana
sorbus
sordida
soria
sororcula
sororia
sorry
sort
sossusvlei
soto
sotoana
soul
souliei
sound
source
sourceentity
sourceid
sources
south
southeast
southern
southwest
soviet
sp
space
spaceshipone
spacing
spaeth
spain
spam
span
spanish
spannageliana
sparseconcat
sparsiflora
spathilabia
spathoglottis
spathulata
spathuliformis
spathulipetala
spatulata
spb
speak
spec
special
species
specific
specifically
specified
speciosa
speciosum
specklinia
spectabilis
speculum
speed
sphegodes
sphinx
spicata
spider
spilotantha
spinosa
spiranthes
spit
spitzelii
spizaetus
splendens
splendida
split
spondias
sports
spotted
spp
sprache
spread
spreng
spring
sprucei
spruneri
spumans
spuria
sq
squamata
squamosa
square
squarrosa
squez
sr
src
sri
ss
ssp
st
sta
stack
stadium
staff
stage
stamariaara
stampa
standard
standards
standleyi
stanhopea
star
starcevo
start
started
starting
starts
state
statedas
statement
statements
statementvalue
states
static
station
statue
status
stay
stelis
stellaris
stellata
stellilabium
stenia
stenoglossa
stenopetala
stenophylla
stenoptera
stenorrhynchos
stenosepala
stenostachya
step
stephen
stereosandra
steven
stevensonii
steward
stewards
steyermarkii
stictophylla
stift
stiftskirche
still
stille
stimson
sto
stockholm
stone
stop
stopped
stora
stored
stories
storm
story
stq
str
strategic
strategy
straussii
street
streets
strelitzia
streptopetala
striata
striatum
stricta
stricto
strigopidae
string
strings
striolata
strobus
strodt
strong
structure
strupifolia
strvalue
sts
stuartiana
studied
studies
studio
study
stun
sturnus
style
styleratio
styles
styling
stylosa
su
sua
suaveolens
suavis
sub
subconcolor
subcontinent
subdialect
subgenus
subgroup
subject
submission
submit
submitted
subnulla
subpage
subrule
subrules
subscribe
subscription
subsection
subsp
subspecies
substring
subtilis
subtitle
subulata
subway
suc
success
successful
such
sud
suda
sudan
sudeste
sugcestun
suggested
suggestions
sugt
sugtestun
suitable
sul
sulawesi
sulcata
sulphurea
sultan
sumatra
sumatrana
sumatranus
summarizes
summary
summerh
sun
sunda
sunrise
sunset
suom
sup
superba
superbiens
suppl
support
supported
supporting
supports
sur
surame
sure
surface
suricata
suricatta
suriname
survey
survival
sustainability
sustainable
sutherland
sutingara
sutra
suðurland
sv
svg
sw
swan
swap
swayambhunath
swaziland
sweden
swedish
sweet
switch
switching
switzerland
sy
sylvatica
sylvestre
sylvestris
symbol
symbols
symphony
symplocos
syn
synagogue
sync
syncerus
syncing
synonym
syntax
syria
sysop
syst
system
systems
sza
szablon
szczecin
szechuanica
szeged
szl
szlach
szo
t
ta
tab
table
tables
tabletools
tabletostr
tablets
tablevalue
tabs
tabuliformis
taeda
taeniophyllum
tag
tags
tahitensis
tail
taila
tailed
tainia
taipei
taitensis
taiwan
taiwanensis
taiwaniana
take
taken
takes
taking
tales
talk
talking
tallinn
tallinna
talpinaria
tamil
tammi
tampere
tang
tankervilleae
tanzania
tap
tara
tarandus
taras
target
targeted
targs
tarnovo
tartu
tas
tashkent
task
taskforce
tasks
tasman
tasmania
tat
tatar
tate
tatra
taubenheim
tauerntal
taurinus
taurotragus
taxifolia
taxodium
taylor
tbilisi
tbl
td
te
teach
teaguei
team
teams
tech
technical
technology
tecunumanii
tee
tehera
teijsm
teimple
tel
telescope
tell
temp
tempel
templat
template
templatedata
templates
templatestyles
temple
templo
temporary
ten
tenebrosa
tenella
tenellum
tennant
tenompokense
tentaculata
tenthredinifera
tenue
tenuicaulis
tenuifolia
tenuis
tenuissima
teocote
teratornis
teres
teretifolia
term
terms
ternary
terrestris
tersch
teschner
test
testacea
tested
testing
tests
tet
tetracerus
tetragona
tetramicra
tetrao
teuscheria
texana
text
tf
tg
th
tha
thai
thailand
thailandica
than
thank
thanks
that
thatta
the
theatre
thecostele
their
thekkady
thelymitra
them
theme
themselves
then
there
these
thestonebot
they
thibetica
thiele
things
think
thinking
this
thomas
thomasi
thomisus
thomsonii
those
thouars
though
thought
thoughts
thread
three
thrixspermum
through
throughout
throwerror
thu
thudufushi
thumb
thumbnail
thumbnails
thumbtime
thunb
thunbergia
thunbergii
thunia
thurifera
thursday
thwaites
thymallus
ti
tibet
tibetica
ticket
ticoglossum
tidiedval
tidyval
tie
tied
tien
tiger
tigrina
tigrinum
tigrinus
tili
tilia
till
time
times
tin
tina
tipo
tipularia
title
titlecell
titleclass
titlecolspan
titledelimeterposition
titlegroup
titlegroupclass
titlegroupstyle
titlerow
titlestyle
titlewerepresent
titre
tk
tl
tln
tmp
tn
to
tobago
toboolean
toc
tod
today
todo
together
toggle
tokachii
token
tokyo
tolumnia
tomentosa
tonkinensis
tonumber
too
tool
toolbar
tools
tooltip
top
topic
topics
torano
torricellensis
torta
tortilis
tortuosa
toscano
toshkent
tostring
tostringsnak
totable
total
totextwithtip
touch
tour
tove
towards
tower
towers
towikibaseentityidsnak
town
toxicodendron
toyota
tp
tpi
tr
tracking
tracks
traffic
tragelaphus
tragocamelus
trail
trailing
train
tram
trans
transforming
transhyrcana
transition
translatable
translate
translated
translatenext
translates
translatewiki
translathon
translating
translation
translations
translators
translucida
transparens
transvaal
trappist
traunsteineri
travel
tre
tree
trees
tremarctos
tremuloides
trevoria
trg
triage
trial
triandra
triangularis
trias
tribe
tricallosa
tricarinata
trichocentrum
trichoglossus
trichoglottis
trichopilia
trichosalpinx
trichotosia
tricolor
tridens
tridentata
trier
trifida
trifoliata
trifurcata
trigonidium
triloba
trilobata
trim
trimen
trimmed
trimstr
trinervia
trinidad
trip
tripartita
tripetala
triphora
triplicata
trisetella
tristis
trizek
troglodytes
trojani
trollii
troodi
trop
tropical
tropidia
trossachs
true
trulla
trullifera
trullifolia
truncata
truncatus
truncicola
trust
trustees
try
trying
ts
tsi
tso
tsubotae
tt
tte
tu
tube
tuber
tuberculatum
tuberculatus
tuberosa
tuerckheimii
tuesday
tuesdays
tul
tumba
tunguraguae
tunisia
tunuu
turcomanica
turdus
turfosa
turkish
turkmenistan
turm
turn
turned
turner
turning
tuyama
tv
tvoje
tw
twice
twitter
twl
two
txantiloi
ty
tyo
type
types
typica
typing
typography
tyteca
tzebuerg
u
ua
uboundary
ubuntu
ucoc
uddan
udm
udmdunne
udmurt
udmurtia
udmurtskaja
udmwiki
uf
ug
uganda
ugrische
ugry
ui
uk
ukiuvaŋmiut
ukraine
ukrcensus
ul
uliginosa
um
umbellata
umbelliformis
umbilicata
umblicata
umbrosa
ume
umeda
umschreibung
umujyi
umurenge
un
unangam
unatlib
uncata
uncatum
unciferia
uncinata
und
under
underground
underside
understand
understanding
underwater
undo
unduavica
undulata
undulatum
unexpected
unfortunately
unguiculata
unicolor
unidos
uniflora
unifolia
union
unit
unita
united
unitqid
universal
university
unix
unknown
unnamed
unregistered
unsubscribe
until
up
upcoming
update
updated
updates
upernavik
upiaq
upiat
upiatun
upload
uploading
uploads
uploadwizard
upon
upper
uppermost
upright
uqeghllistun
ur
uralic
uralica
uralo
urb
urban
urbaniana
urbs
urdu
uri
uribei
url
urls
urogallus
ursinus
ursula
ursus
urvilleana
us
usa
usability
usage
usd
use
used
useful
usein
uselang
user
userbox
userlinks
username
users
uses
using
ustani
ustring
usual
usually
ut
utc
utilis
utriculata
utugari
uturere
uummannaq
uvaria
uyuni
uz
v
va
vaccinium
vagans
vaginata
vaginatum
vahe
vakils
val
valerioi
valga
valid
valida
valign
valle
valley
vals
valtion
value
values
valuetofind
van
vancouver
vanda
vandalism
vandewegheara
vandopsis
vanellus
vangueria
vanilla
vanoverberghii
var
varemed
vargasii
variabilis
variable
variegata
variegatum
variegatus
variety
various
varlaam
varnent
varnum
varzi
vasconica
vasquezii
vb
ve
vec
vector
veg
vega
veidne
veitchiana
veitchii
veleziana
veliko
vell
velutina
velutinum
venez
venezuela
venezuelana
venezuelensis
venice
venosa
ventricosa
ventricosum
venulosa
venusta
vep
veracruz
veratrifolia
verbenaceae
verboonenii
verdc
verm
vernixia
vernixioidea
vernonia
verreauxi
verrucosa
versicolor
version
versions
vertical
verticillata
very
ves
vesca
vespa
vespertilio
vestita
vestitum
vi
via
vicina
victoria
vicugna
video
viduata
vie
vietnam
vietnamensis
view
viewed
viewer
views
vii
viii
vik
viktor
vila
viljandi
village
villas
ville
villosa
viminalis
vinacea
vini
vinn
violacea
violaceomaculata
virap
virens
virescens
virgata
virginalis
virginiana
viridiflora
viridis
viru
vis
visbeck
viscosa
visible
visit
vison
vista
visual
visualeditor
visualeditordid
visually
vitellina
vitiensis
vittata
vk
vlei
vls
vo
voce
vogel
vogeliana
voice
vol
volcanes
volgograd
volume
volunteer
volunteering
volunteers
von
vorator
vorlage
vote
voters
voting
votja
vro
vs
vulgaris
vulpes
vulpina
w
wa
wadorgurt
waechter
wageneri
wagneri
wait
wall
wallace
walleri
wallich
wallichiana
wallichii
wallisii
walpers
walravens
walteri
wang
wangii
want
wanted
wanting
wants
war
wardii
wariana
warm
warmingia
warrakkk
warriors
warsaw
warscewiczii
warsz
warszewiczii
was
washington
watch
watching
watchlist
watchlists
water
watson
way
ways
wc
wds
we
wear
weaver
web
weber
weberbaueriana
weberi
webm
website
wednesday
week
weekly
weeks
weibchen
weight
weilin
weit
welcome
welcoming
well
welw
welwitschii
wendlandii
wendtii
wenker
went
wenzelii
were
werneri
west
westc
westdeutsche
western
westland
westruper
whale
what
whatamidoing
whatever
when
where
whether
which
whichever
while
white
whitespace
whitfieldia
who
why
widdringtonia
wide
width
wie
wiedii
wien
wiese
wight
wiki
wikibase
wikibooks
wikidata
wikidataitemid
wikieval
wikifunctions
wikigap
wikimania
wikimedia
wikimedians
wikipedia
wikipedians
wikipedias
wikis
wikisource
wikisources
wikitech
wikitext
wikiversity
wikivoyage
wikivoyages
wild
wildpark
wildpferde
will
willd
william
williams
williamsii
willing
wilsonii
win
wind
window
windows
wing
winged
winners
winter
wish
wishes
wishlist
wislizeni
witch
witches
with
within
without
wizard
wm
wmde
wmf
wmru
wo
wolfii
woman
women
won
woo
wood
word
words
work
workboard
worked
workflow
working
worklist
works
world
worlds
would
wp
wps
wpwp
wrapinurl
wrapper
wrappers
wrightii
write
writing
written
wroclaw
wrong
ws
wsoy
wsw
wu
wullschlaegelia
wuu
www
x
xal
xantholeuca
xeno
xi
xii
xiii
ximenae
xiv
xix
xls
xmf
xv
xvi
xvii
xviii
xx
xxi
xxii
xxiii
xylobium
xytriophora
y
yakshur
yamam
yangon
yauaperyensis
ye
year
years
yellow
yemen
yenis
yerevan
yes
yet
yi
ying
ym
yns
ynzer
yo
yoania
yogyakarta
yoko
york
you
young
your
youtube
yozgat
ypirangae
ys
yu
yucatanensis
yue
yugtun
yuko
yukon
yulania
yunnan
yunnanensis
yup
yupigestun
yupik
yyyy
z
za
zajn
zam
zambia
zaragoza
zaratananae
ze
zea
zealand
zebra
zebrina
zelenkoa
zenii
zentrale
zeppelin
zero
zeuxine
zh
zhurn
zimbabue
zimbabwe
zinnia
ziyaretiana
zmit
zo
zollingeri
zonata
zones
zoo
zoom
zootrophion
zotero
zove
zr
zu
zulu
zum
zunagensis
zur
zuł
zygopetalum
zygosepalum
zygostates
{
|
}
~

¡
¥
«
¬
­
°
±
²
³
·
¹
»
¼
½
¾
×
ß
æ
ð
ı
ırmag
ĸ
ł
ło
ŋ
ɕ
ɘ
ʊ
ʣ
ʹ
ʼ
ʿ
ˈ
ˌ
̀
́
̂
̃
̄
̆
̇
̈
̉
̊
̋
̌
̓
̛
̞
̣
̧
̨
̯
͡
α
γ
δ
η
θ
προ
τ
τυπο
ω
а
аавик
аалтонен
абакан
абашев
аббасид
аббатстволэн
аббатствоысь
аббревиатур
аббуд
абд
абдель
абдулла
абдулов
абеба
абель
абрам
абрамов
абрахам
абсолютнои
абу
абуджа
абхаз
абхазилэн
абхазиысь
абхазия
абхазскии
абъя
абья
аван
авангард
авангардист
авантюрист
авар
авария
август
августа
августин
августэ
авдеев
авдеева
аверьян
аверьянова
авиакатастрофа
авиакатастрофаын
авиакомпанилэн
авиакомпаниос
авиакомпания
авиаконструктор
авиалаи
авианале
авиастроительнои
авиатор
авиацилэн
авиационнои
авиация
авиашоу
авиценна
авиценния
авраам
аврора
австралиез
австралилэн
австралиын
австралиысь
австралия
австралияын
австри
австрии
австрилэн
австриын
австриысь
австрия
австро
авт
автобус
автобусъе
автобусэн
автовокзал
автогонщик
автозаводскии
автоконструктор
автомастерскои
автомат
автоматически
автоматическои
автоматсэ
автоматэз
автомобилез
автомобиль
автомобилье
автономи
автономиез
автономная
автономнои
автономныи
автор
автора
авторез
авторзы
авторлэн
авторлэсь
авторских
авторское
авторскои
авторъе
ага
агаез
агаи
аганисия
агата
агафонов
агентство
агентствоез
агератум
аглая
агломерацие
агломерациын
агломерация
агния
аграфена
агроном
агрономе
агры
агрыз
ад
ада
адам
адана
адапазары
аддакс
аддис
адель
аденауэр
адер
адз
административно
административнои
администратор
администратора
администраторам
администраторъе
администраци
администрациез
администрациезлэн
администрациеныз
администрациенызы
администрацилы
администрацилэн
администрация
адмирал
адмиралтеи
адольф
адрес
адресу
адресъя
адресэз
адске
адскись
адыг
адыгеи
адыгея
адыяман
адями
адямиез
адямиен
адямилы
адямилэн
адямилэсь
адямиозь
адямиос
адямиослы
адямиослэн
адямиослэсь
адямиоссы
адямиосты
адямиосыз
адямиосын
аз
азамат
азат
азаттыктын
азбар
азбарез
азбука
азбукаез
азвесь
азе
азег
азегсюрес
азегъе
азелы
азер
азербаи
азиез
азиз
азии
азилэн
азин
азинлыко
азинлэн
азино
азинске
азинскемез
азинскемзэ
азинскемын
азинскиз
азинско
азинскон
азинсконаз
азинсконъе
азинсконъя
азинскыны
азинти
азинтон
азинтонлы
азинтонъя
азинтыны
азинтэ
азинтэмез
азиын
азиысь
азия
азияын
азнакаи
азов
азорысь
азот
азы
азьветли
азьвортти
азьвыл
азьвылыз
азьвылэз
азьлань
азьланьти
азьланьтонлы
азьланьтыны
азьланьтэ
азьланяз
азьло
азьлогес
азьмуртэз
азьпал
азьпалан
азьпаласьсэ
азьпалыз
азьын
азьысь
азяз
азязы
аи
аиф
ак
академие
академиез
академик
академикез
академилэн
академилэсь
академическои
академиын
академиысь
академия
акарология
акаршур
аквинскии
акзират
аки
акилина
аккордеонэн
аккра
акмаров
аксак
аксакшур
аксараи
аксарино
аксион
аксу
аксубаи
акт
актаныш
акте
активистъе
активнои
актриса
актрисаен
актрисазы
актрисалэн
актуальные
актъе
актэз
актэмыр
акула
акулина
акушер
акциос
акция
акшан
акылес
ал
ала
алабго
алабгоын
алабгоысь
алаез
алаезъя
алаен
алазы
алазэ
алан
алангасар
алангасарлэн
алаоссы
алар
алатырев
алая
албан
албанилэн
албания
алгази
алгалаи
алгебра
алгоритм
але
алевтина
алекса
александр
александра
александринскои
александрлэн
александро
александров
александрова
александрович
александровна
александрово
александровскои
алексахинои
алексе
алексеев
алексеевич
алексеевна
алексеевскои
алексеи
алексии
алексис
алена
алессандро
алеут
алжир
алжирлэн
алжирысь
алзэ
али
алигес
алигьери
алиев
алина
алиса
алкоголизм
алла
аллен
аллея
алльтернативныи
алма
алмаз
алматы
алнаш
алнашлэсь
алнашын
алнашысь
ало
алт
алтаи
алтарез
алтарь
алтау
алушта
алфавит
алфавитлэн
алфавиту
алфавитъе
алфавитъя
алфавитысь
алфавитэ
алфавитэз
алхимик
алъе
аль
альбер
альберт
альбом
альбомез
альбомзы
альбомзэ
альбомъе
альбрехт
альметьевск
альняш
альп
альпака
альпзэе
альпинистъе
альпиния
альпъе
альстре
альт
альтернативнои
альтернативныи
альфа
альфонс
альфред
альцгеи
альянс
алэмын
алютик
аляска
аляскалэн
аляскаысь
ам
ама
амадеи
амазон
амазонка
амал
амалъе
амалъя
амалэн
амасья
амбарелла
амброзия
амбулатория
амедео
америка
америкае
америкаез
америкалэн
америкалэсь
американ
американец
американецъе
американскои
америкаын
америкаысь
амзя
ами
амин
амитостигма
амман
амон
ампер
амс
амстердам
амстердамысь
амундсен
амундсенлэн
амур
амурскои
амурысь
амфитеатр
амфитеатрезлэн
амын
ан
ана
анаез
анаезлэн
анаи
анакамптис
анализ
анализатор
анализу
аналитическои
аналоги
аналогично
аналскылэ
аналтэм
анархизмлэн
анархист
анархо
анастасия
анаталлис
анато
анатолии
анатольевич
анатольевна
анатом
анатомия
ангела
ангелина
ангилья
ангкор
англ
англетер
англи
англие
англии
англилэн
англичанъе
англиын
англиысь
англия
англо
ангола
ангрекум
ангулоа
анд
андан
андерс
андерсен
анджеи
анджелес
андорра
андорралэн
андре
андреев
андреевич
андреевна
андреи
андропов
андъе
андысь
анектохил
анжелика
анзэ
анимационнои
анимация
анимеын
анисимов
анисия
анка
анкара
анкудинов
анкудинова
анлы
анлэн
анлэсь
анна
аннексировать
аннеты
анни
аннинскии
аннок
аннона
аннонаос
аноа
аномальнои
анонимныи
анонсы
анри
ансамблез
ансамблен
ансамбль
ансамблье
ансамбльлэн
ансамбльын
ансамбльысь
ансамбыль
антакья
анталья
антананариву
антанталэн
антарктида
антарктидаысь
антарктика
антарктическои
антеро
антигуа
антилопа
антилъе
антильскои
антимонопольнои
антифашист
античнои
антон
антонии
антонина
антонио
антонов
антонова
антуан
антуанетта
анфиногенов
анъе
анъя
аны
аныкаи
анэз
ао
аош
апаез
апак
апастово
апачи
аполлон
апостол
аппарат
аппаратлэн
аппаратъе
аппаратэз
аппаратэн
апполенария
апр
апреле
апрель
апреля
аптека
ар
ара
араб
арабскии
арабъе
аравилэн
аравиын
аравиысь
аравия
арагон
араз
аракы
аралия
аралияос
арам
арама
аранжировщик
аратинга
араукария
араукарияос
арафат
арбери
арбериос
арбериослэн
арбериосты
арбериосыз
арбериосын
арбуз
арбыт
арво
арг
арган
арганчи
арганэн
аргентавис
аргентина
аргентиналэн
аргентинаын
аргентинаысь
аргумент
аргументы
ардахан
ардашев
ардзинба
ардон
аре
арез
ареи
арекеева
арен
арена
арес
аресаз
аресказ
арескын
аресозь
арест
арестовать
аресъем
аресысен
арзамазов
арзамасцево
арзэ
аризонаысь
арина
аристе
аристелэн
аристократ
аристотель
аристэ
арифметика
арифметические
ариэль
ария
арк
арка
аркадии
аркадьевич
аркаш
аркашев
арктика
арктикаез
арктикаысь
арктическои
арлан
арлеть
арлы
арлыдо
арлэн
арлэсь
арман
армас
армен
армениысь
армения
армие
армиез
армиезлэн
армиен
армизы
армизэ
армизэс
армилы
армилэн
армиын
армиысь
армия
армстронг
армязь
армян
армянск
армянъе
арно
арнольд
арня
арнялы
арнялэн
арнянунал
арняяз
арозь
арпотон
арсенал
арсеналлэн
арсении
арскын
арт
артамонов
артвин
артдивизион
арте
артель
артемии
артефакт
артиллерии
артист
артистка
артистъе
артистэз
артур
артэ
аруба
арундина
архангельск
архангельскои
археи
археолог
археологии
археологическои
археологиысь
археология
археологияя
археологъе
архив
архивнои
архивъе
архиепископ
архимед
архип
архипелаг
архипелагез
архипелаглэн
архипелагъе
архипелагысь
архипов
архитектор
архитекторез
архитекторлэн
архитекторы
архитектура
архитектураез
архитектурая
архитектурно
архитектурнои
арча
аръе
аръем
аръя
арын
арысен
арыслан
арысланъе
арысозь
арысь
арьем
арья
арэ
ас
аса
асад
асан
асангуртысь
асаф
асеан
асез
асинер
аскар
аскивалтон
аскивалтонлэн
аскоцентрум
аслаз
аслан
аслыз
аслыкъе
аслэсьтыз
асмэра
аспирант
аспирантурае
аспирантураез
аспирантуразэ
аспирантураын
аспирантураяз
аспо
ассам
ассамблея
ассамблеяез
ассамблеяезлэн
ассистентэз
ассоциациез
ассоциацизы
ассоциацизылэн
ассоциация
асср
ассэ
астангу
астероид
астероидъе
астор
астра
астрахань
астрель
астрид
астролог
астронавт
астроном
астрономическои
астрономия
астрономъе
астрофизик
астрофизика
астурии
астэ
асунсьон
асфальт
ась
асье
аське
аськем
аськемын
аськон
аськонъе
асьлэн
асьме
асьмелы
асьмеос
асьсэ
асьсэды
асьсэлы
асьсэлэн
асьсэлэсь
асьсэос
асэныз
асэсти
асэстэмъе
ата
атабаи
атае
атаез
атаезлэн
атаи
атака
атакама
атаковать
атаман
атаманов
атамановлэн
атас
атасгурз
атасгурт
ататюрк
атаысь
атеист
атемои
ати
атлантик
атлантикаысь
атлантическои
атлас
атмосфера
атмосфераез
атмосфералэн
атнер
атня
атолл
атом
атомлэн
атомнои
атомъе
атон
атрибут
атрибуту
аттила
атча
атчалась
атыкаи
атыны
атэмын
аугусто
аудио
аухадеев
афанасии
афанасьевич
афанасьево
афар
афган
афганистан
афганистанлэн
афганистанын
афганистанэ
афеландра
афины
афиныын
афон
афразии
африка
африкаанс
африкаез
африкалэн
африкан
африкаын
африкаысь
аффикс
аффикса
афьон
афьонкарахисар
ахмад
ахмат
ахматова
ахмед
ахмет
ахнафович
ацетилсалициловая
ациантера
ацинета
ачид
ачиз
ачим
ашальчи
ашан
аши
ашхабад
аэрокосмическои
аэропорт
аэропортлэн
аэропортъе
аэропортын
аэропортэз
аэс
аянысь
б
ба
бабашур
бабе
бабин
бабич
баварилэн
бавариысь
бавария
баварскои
бавлы
багаж
багаи
багам
багама
багапш
багдад
багдадэз
баграш
бадгир
баден
бадз
бадзым
бадретдинов
бадь
бадьпу
бадьъе
бадяр
баженова
бажов
баз
база
базар
базилика
базиликаез
базовое
базуева
баи
бакель
бакишева
бактерии
бактериолог
баку
бакулев
бакуын
бакуысь
бакча
бакъяр
бал
балаки
балакин
балашша
балезино
балезиноозь
балезиноын
балезиноысь
балерина
балет
балетлэн
балетмеи
балетъя
балинт
балкан
балкар
балкария
балкарскои
балл
балла
баллистическои
баллотироваться
баллъем
балт
балтаси
балтась
балтач
балти
балтии
балтика
балхашысь
балыкесир
бальзам
бальзамическои
балян
бам
бамако
бамез
бамзы
бамлэн
бамъе
бамыз
бамын
бан
банан
банги
бангкок
бангладеш
бандар
банжул
бани
банк
банкезлэн
банклэн
банкнота
банкс
баннер
баннерная
баннернои
банту
баобаб
бар
барабанэн
барак
барамзина
барбадос
барбадосысь
барбара
барбаросса
барбоселла
барбуда
бард
бардхаман
баренц
баренцев
бари
баритон
барк
баркерия
барклаи
бармашур
барнард
барнаул
барон
барселона
бартельми
бартоломео
бартын
барух
бас
басе
баскетбол
баскетболэн
баскскии
басма
басмалэсь
басня
бассеи
басьти
басьто
басьтон
басьтоно
басьты
басьтыны
басьтыса
басьтытэк
басьтэ
басьтэм
басьтэмез
басьтэмын
басьяськисье
батист
батман
батов
батуев
батуевлэн
батуми
батыр
батыръе
баушев
бах
бахил
бахреи
бахчисараи
бач
баш
башар
башкир
башкирилэн
башкириын
башкириысь
башкирия
башкиръе
башкортостан
башкортостанлэн
башкортостанын
башкортостанысь
башня
башняез
башур
башы
баян
баянэн
бдмоеколно
бе
бебб
бегаван
бегемот
без
безменшур
безносова
беи
бек
беккерель
беклэн
бекманов
бектыш
бел
бела
беларусь
беларусьысь
белая
белгород
белград
белиз
белинскии
белицер
белка
белл
белобородов
белов
белор
белорус
белоруссилэн
белоруссиын
белоруссиысь
белоруссия
белорусъе
белорусы
белослудцев
белоусов
белфаст
белыи
белых
бельгилэн
бельгиын
бельгиысь
бельгия
бемыж
бемын
бен
бенгальскии
бенджамин
бенедикт
бензилпенициллин
бенин
бенито
бенни
беннингтон
бер
бераз
беразы
бервылъе
бервылыз
берг
берга
бергало
бергась
бергати
бергатон
бергатыса
берген
бергер
бергес
бергман
бере
березин
березинлэн
березовскии
берекет
беременность
берен
беризь
беринг
берлань
берлин
берлинлэн
берлинозь
берлинын
берлинысь
берлинэ
берлинэз
берлиоз
берло
берлогес
бермуд
бермудаысь
берн
бернар
бернард
бернардо
бернат
бернерс
бернулли
берпал
берпалан
берпум
берпумез
берпумети
берпумзэ
берпумъян
берпумъянъе
берроуз
берти
берто
бертольд
бертран
бертыкуз
бертыса
бертэ
бертэм
берыкти
берыкто
берыктон
берыктоно
берыктыны
берыктыса
берыктэ
берыктэм
берыктэмын
берытске
берытскемез
берытскиз
берытскизы
берытскон
берытсконо
беседа
бесерман
бесерманъе
бесерменъе
бесермян
бесермянах
бесмен
бесполое
бессмертныи
бесхвостые
бет
бетховен
бетховенлэн
бех
бехтерев
би
биатлон
биатлонист
биатлонистка
биатлонистъе
биатлонъя
библеи
библиез
библиографиез
библиографическои
библиография
библиотека
библиотекаез
библиотекалы
библиотекалэн
библиотекаос
библиотекарь
библиотекаын
библиотеки
библиотечнои
биг
бигер
бигеръе
бигль
бигра
биз
бизнес
бизнесмен
бизон
биланлы
биледжик
билетъе
билл
бин
бинге
бинем
биобиблиографическии
биографиез
биографизэ
биография
биолог
биологи
биологилэн
биологические
биологическои
биология
биосфернои
биохимия
бирбхум
биржа
бириба
бирма
бирмингем
бирон
бисар
бисау
бисеров
бисмарк
битлз
битлис
бифренария
бицы
бича
бичаз
бичалляз
бичаллязы
бичам
бичаны
бичанэн
бичаса
бичет
бичетсэ
бичетъе
бичетэз
бишкек
бия
бк
бл
благовещенск
благодарим
благодарностью
благодаря
благоразумов
блажен
блаженныи
бланко
блатгурт
блез
блеона
блетилла
блетия
ближаи
ближнего
блика
блинов
блогеръе
блок
блока
блокада
блокадаез
блокаднои
блокланд
блоков
блокъе
бломыт
блюз
блюмея
блюхер
бниц
бо
боб
бобби
бобров
бобслеи
бобья
бог
богадельняез
богатыре
богдан
богемиысь
богомолова
богородск
богородское
богослов
бодале
боде
боделэн
боды
бодья
боевикъе
боевои
божественная
бои
боинг
бокасса
бокро
боксе
болванки
болг
болгар
болгариын
болгариысь
болгария
болгарскии
болгуры
болдуин
более
болезнь
боливар
боливилэн
боливиын
боливиысь
боливия
болото
болу
больница
больницае
больницаын
больницаысь
больцано
большая
больше
большевик
большевикъе
большеохтинскии
большепургинскои
большие
большинстве
большинство
большое
большои
бомарея
бомба
бомбаез
бомбардировать
бомбардировщик
бомбеи
бон
бонапарт
бонапартлэн
бонго
бондарчук
бонн
боннысь
бонобо
бонэи
бор
бордаз
бордазы
борддор
борддораз
борддорез
борддоръе
бордъе
борды
бордын
бордысен
бордысь
бордэз
борживои
борис
борисов
борисовез
борисович
борисовлэн
борнео
боровик
бородавочник
бородин
бородино
борок
борт
борхес
боры
боснии
босниысь
босния
босняк
бостонысь
босфор
бота
ботами
ботаник
ботаника
ботаникая
ботаническои
боткин
ботлих
ботом
ботсвана
бофорт
бош
боярка
браге
браззавиль
бразилилэн
бразилиын
бразилиысь
бразилия
браи
брангурт
брангуртысь
бранденбург
брассавола
брассия
братскои
братъе
братьев
братья
браузер
браун
брахихитон
бревер
брежнев
брежнева
бреи
брест
брестская
брестэз
бречалов
бригадалэн
брин
британ
британилэн
британиысь
британия
британскои
бродвеи
бродскии
броз
брои
броненосец
бронза
бронированнои
броун
брук
бруклин
брунеи
бруно
брусилов
брызгалово
брюллов
брюльысь
брюс
брюссель
брюссельын
брянск
бсэ
бубал
бубыли
бубылилэн
бубякин
буг
буге
бугесера
бугор
бугрыш
бугульма
бугыр
бугырти
бугыръяськемъе
бугыръяськисье
бугыръяськон
бугыръяськонъе
бугыръяськыны
буд
будапешт
будапештын
будапештысь
буддалэн
буддизм
буддизмо
буддист
буде
будем
будет
буджак
буди
будинос
будо
будон
будос
будослэн
будосъе
будум
будут
будущего
будущее
будущем
будыны
будьте
будэ
будэм
будэмез
будэмын
будэти
будэто
будэтон
будэтоно
будэтонъя
будэтыны
будэтэ
будэтэм
буе
бужумбура
бузэуысь
буи
буинск
букв
буква
букваез
букваен
букваос
букваосын
букву
буквы
букмол
буксир
булаи
булгаковлэн
булганин
булгар
булыче
бумага
буммашевскии
буммашозь
буммашын
бунин
бур
бураево
бурбонъе
бурд
бурденко
бурдо
бурдур
бурдъе
буре
бурера
буркина
бурлатэн
бурмем
бурпал
бурпалан
бурпалась
бурса
бурт
буртчин
бурунди
бурысь
бурят
бурятиысь
бурятия
бус
бусасамана
буси
бускелез
бускель
бускелье
буслык
буслыкысь
бусъе
бусы
бусыос
бусыосын
бусыын
бутан
бутанын
бутанысь
бутлеров
бухарест
бухарин
бухенвальд
бухер
бухта
бухталэн
бухтаын
бухтаяз
буш
бушбок
бушкыр
бушкырлэн
буэнос
българия
бъяла
бъялысток
бы
бывальцев
бывшие
быгати
быгато
быгатоды
быгатоз
быгатозы
быгатонзэ
быгатонлыкез
быгатонлыксэ
быгатонлыкъе
быгаты
быгатыли
быгатыса
быгатэ
быгатэменыз
быгы
быгылес
быдз
быдзимошурскои
быдти
быдто
быдтон
быдтонлы
быдтыны
быдтыса
быдтэ
быдтэм
быдтэмез
быдтэмын
быдтэны
быдэ
быдэн
быдэнак
быдэс
быдэсак
быдэсмизы
быдэсти
быдэсто
быдэстон
быдэстоно
быдэстымтэ
быдэстыны
быдэстыса
быдэстэ
быдэстэм
быдэстэмын
быдэсъя
быдэсъяз
быдэсъяло
быдэсъяны
быдэсъясь
быдэсъяське
быж
быжо
быжыз
бызара
бызгетон
бызе
бызиз
бызись
бызьыли
бызьылон
бызьылонъе
бызьылонъя
бызьылонын
бызьылыны
бызьыны
бык
быков
был
была
былаи
были
было
быргында
быре
бырем
быремез
быремъе
быремын
быри
быриз
быризы
быриллям
быроз
бырон
быронэз
бырттылэмын
быръе
быръем
быръемын
быры
бырыны
быстрого
быстрыи
бытовои
быть
бышев
бышкись
бэи
бэк
бэнкс
бюджетнои
бюджетэз
бюллетень
бюллетеня
бюро
бюроез
бюстэз
в
ва
вавельысь
вавилон
вавож
вавоже
вавожын
вавожысь
вагнер
вагон
вагонлэн
вагонъе
вад
вадесын
вадим
вадсын
вадуц
вадьсын
вадьсысь
вадьсыти
вае
ваез
ваем
ваемын
важности
важными
ваза
вазенгес
вазиськем
вазиськемез
вазиськиз
вазиськизы
вазиськыса
вазь
вазьгес
ваи
вакууме
вакуумын
вакцинаез
вакчи
вакчигес
вакчие
вакчиесь
вакчияк
вакчиятыса
вакчиятэм
вакыт
вакытаз
вакытлы
вакытлэн
вакытъе
вакытын
вакытысен
вакытысь
вакытэ
вакытэз
вакытэзлы
вал
вала
валазы
валамаз
валамзы
валамон
валан
валанзэ
валанзэс
валантэм
валанъе
валаны
валаса
валась
валатон
валатонъе
валатонэз
валгамаа
вале
валег
валеи
валентин
валентина
валентинович
валер
валера
валериан
валерии
валерия
валишин
валишинлэн
валлаби
валле
валлетта
валлин
вало
валовои
валти
валтись
валтон
валтыны
валтэ
валтэс
валче
валчеямын
валъе
валысь
валь
вальтер
валэкти
валэктон
валэктонтэм
валэктонъе
валэктыны
валэктэ
валэн
валюта
валютаез
валютаос
валя
вам
вамат
вамен
вами
вампира
вамъя
вамыш
вамышти
вамышъе
вамья
ван
ванда
вандализм
вандализмом
ванди
вандо
вандылыса
вандэм
вандэмын
вандэтлэсь
вандэтъе
ване
ванен
ванесса
ваниль
ванкувер
ванкуверын
вануату
вань
ваньбур
ваньбурен
ваньзы
ваньзылы
ваньзэ
ваньзэсты
ванькагурт
ваньлэн
ваньмон
ваньмыз
ваньмызлы
ваньмызлэсь
ваньын
ваньысь
ванюшев
вао
вараваи
вараксино
вараче
варз
варзи
вариант
варианте
вариантъе
варианты
вариантэз
вариететъе
варлам
вармия
вароваи
варта
варфоломеи
варшава
варшаваын
варшаваысь
варыж
вас
васи
василии
васильев
васильева
васильевич
васильевлэн
васильевна
васильевскои
васко
васнецов
васса
вась
ваське
васькон
васькыти
васькытэмын
вася
ватерлоо
вати
ватикан
ватка
ваткаын
ватон
ватоно
ватсамын
ватсанъе
ватсаны
ватсаса
ватсась
ватсаськиз
ватсасько
ватсэтэз
ватыны
ватыса
ватэм
ватэмын
вахитов
вахрушев
вахрушева
вахтангов
вацлав
ваче
ваш
ваша
ваше
вашего
вашем
ваши
вашингтон
ваших
вашкала
вашкалаез
вверху
ввп
ввс
вгма
вд
вдвое
вдруг
ве
веб
вебер
вебмастер
вега
веде
ведерников
веди
ведомости
ведь
веи
век
века
векчи
векшина
веласкес
великан
великая
великие
великии
великобританиен
великобритании
великобританилы
великобританилэн
великобританилэсь
великобританиын
великобританиысь
великобритания
великои
велосипед
велосипедэн
вен
вена
веналы
венаын
венаысь
венг
венгер
венгр
венгриен
венгрилэн
венгриын
венгриысь
венгрия
венгръе
венедиктов
венера
венерическое
венесуэла
венесуэлалэн
венесуэлаын
венесуэлаысь
венециын
венециысь
венеция
вениами
вениамин
вениаминовна
вениж
венчаться
венья
вепс
вепсъе
вера
вераз
веразы
вералляз
верало
верам
верамез
верамзыя
верамзэ
верамъя
верамын
веран
верано
веранъе
вераны
веранэз
вераса
верасконъе
верась
вераське
вераськетъе
вераськизы
вераськись
вераськисье
верасько
вераськон
вераськонъе
вераськонын
вераськонэз
вераськы
вераськыны
вератэк
верблюд
вергилии
верде
вердилэн
веретенников
веретенникова
верещагин
верещагинлэн
верещагинлэсь
верещагино
вермахтлэн
вернер
вернония
вероника
верос
веросъе
веросэз
версаль
версальысь
версиез
версизэ
версии
версиос
версию
версия
версиях
вертоле
верх
верхнеи
верхнекамскои
верхнем
верхние
верхнии
верхняя
верховного
верховнои
верховскии
вершинин
весе
весна
весны
вест
вести
вестник
вестфалиысь
вестфалия
весь
веськрес
весяк
весяклы
ветеран
ветеранъе
ветеринар
ветеринарнои
ветли
ветло
ветлон
ветлонзы
ветлонэз
ветлыкуз
ветлыли
ветлыны
ветлыса
ветлэ
ветлэм
ветлэмез
ветлэмзы
веттан
вечер
вечернии
вещание
вещаниез
веществоос
взаимодеи
взглядам
взрастаи
ви
виа
виадук
вид
вида
виде
видеманн
видео
видеоблогъе
видеоклипъе
видеоос
виду
видъе
видъя
виды
вие
виемын
виен
вижу
византии
византия
визбор
визирма
визитэн
визуального
визуальныи
визь
визьмо
вииз
виизы
виись
вик
вики
викиавтор
викиавторъе
викиданнои
викиданных
викимарафон
викимарафоне
викимедиа
викимедии
википе
википеди
википедие
википедиез
википедиен
википедии
википедилэн
википедилэсь
википедиос
википедиосыз
википедисты
википедиын
википедиысь
википедию
википедия
викисклад
викискладе
викитека
викитекалэн
викитеки
викификатор
використання
виктор
викторин
викториысь
виктория
викторлэн
викторович
викторовна
вилле
вилли
виль
вильгельм
вилькицкии
вильнюс
вильнюсэз
вильсон
вильянди
вильяндимаа
вин
вина
виндхук
винни
винница
виноватэ
виноград
виноградов
виноградова
винсент
винтовка
винторезнои
винчи
виолончелен
виолончельен
вир
виргин
виргиниысь
виргиния
вирез
вирен
виресь
вирнунал
виро
вирсэр
вирта
виртанен
виртуальнои
виртуоз
виру
вирумаа
вирусная
вирусы
вис
висе
висись
висисье
висит
висказ
вискы
вискын
вискысь
вискыти
висла
висъет
висъя
висъяз
висъязы
висъялляз
висъяло
висъям
висъямын
висъян
висъяны
висъяське
висъяськиз
висъясько
висъяськы
висьыку
висьыны
висьыса
вита
виталии
витальевич
витаминъе
витберг
вите
витебск
витез
витети
вито
виттельсбахъе
витус
вить
витьтон
витя
вице
вич
вишера
вишур
виыли
виылон
виыны
вка
вклад
вклада
вкладок
включает
включать
включая
включена
включить
вконтакте
вконтактеысь
вкп
вкусовая
влагалище
влад
владеет
владение
владеющие
владеющих
влади
владивосток
владикавказ
владимир
владимирлэн
владимирович
владимировна
владимирысь
владислав
владыкин
владыкина
власов
власте
властез
власть
властье
властьлэн
властьлэсь
влович
влэн
вместе
вместо
вмс
вне
внести
внешнии
внешних
внештатнои
внизу
внимание
вниманию
вносить
внутреннии
во
вогау
вода
водзи
водныи
водое
водород
водородлэн
водороднои
водохранилище
водохранилищелэн
водь
воеводство
воеводствое
воеводстволэн
воеводствоос
воеводствоын
воевостолэн
военачальник
военно
военнои
вож
вожвылъяськон
вожвылъяськонлэн
вожвылъяськонын
вожвылъяськонэ
вожез
вожмыт
вожодыр
вожои
возвращает
возвращается
возвышенностьын
воздушнои
возе
возем
возеншур
возжи
возиз
возизы
возиллям
возись
возиське
возиськемын
возиськиз
возиськись
возисько
возлюби
возможно
возможности
возможность
возможных
вознесенскии
вознесенскои
возникает
возникновения
возражении
возь
возьвыл
возье
возьма
возьман
возьмась
возьмати
возьмато
возьматоз
возьматон
возьматъя
возьматыли
возьматыны
возьматыса
возьматэ
возьматэм
возьматэмын
возьыли
возьыны
вои
воинскои
вокал
вокалист
вокзал
вокзала
вокзаллэн
вокзалозь
вокзалысь
вокзалэз
вокруг
воксе
вол
волапюк
волга
волгае
волгалэн
волго
волгоград
волжскои
волипельга
волков
волкова
волковлэн
вологда
волонте
волосте
волостнои
волость
волостье
волостьлэн
волостьын
волостьысь
вольт
вольта
вольтер
вольфганг
вольыт
воля
вообще
вооруже
вопрос
вопроса
вопросам
вопросов
вопросу
вопросы
воргорон
воргоронъе
ворди
вордиськиз
вордо
вордон
вордонъя
вордске
вордскем
вордскемын
вордскиз
вордскизы
вордыны
ворекъян
воркута
ворме
вормемез
вормемын
вормиз
вормизы
вормисе
вормисез
вормись
вормисье
вормон
вормонзы
вормонлы
вормонъе
вормонэз
вормыны
вормыса
воробье
воронеж
воронежскии
воронежского
воронцов
ворончихин
ворончихина
ворота
ворошилов
ворпо
ворсаз
ворсазы
ворсам
ворсамын
ворттылон
ворттылонъя
вортча
воршуд
воршудъе
воспользуи
воссияи
восстанавливать
восстание
восстанизы
восстановить
восток
востокын
восточная
восточно
восточнои
восточныи
восточных
восход
вот
вотка
воткакар
воткалан
воткалась
воткалэн
воткалэсь
воткаын
воткаысь
воткинск
воткинска
воткинскои
воткинскысь
вотскои
вотэс
вотэсбамыз
вотэслэн
вотэсъе
вотэсын
вотэсысь
вотэсэ
вотяк
вотяки
вотяков
вошт
вошти
воштон
воштонъе
вошты
воштыны
воштыса
воштэ
воштэмез
воштэмын
вошъяз
вошъян
вошъяське
вошъяськись
вошъясько
вошъяськон
вошъяськы
вояджер
вп
впере
вперед
врангель
вратарь
врач
времена
времени
временнои
время
вроцлав
вроцлавысь
всадник
все
всеволод
всегда
всего
всеи
всем
всемирная
всемирнои
всерос
всероссии
всесоюзная
всесоюзнои
всех
вскии
вскои
вставки
встреч
встреча
встрече
встречи
встречу
всю
вся
вторая
второго
второи
ву
вуарп
вубуртчин
вувылчабак
вудро
вудур
вуж
вужгурт
вужез
вужерез
вужкат
вуз
вузаз
вузамын
вузан
вузаны
вузаса
вузаськыны
вузкарись
вузкарисье
вузкарон
вузкаронни
вузкаронниос
вузкаронъя
вузкаронэн
вузкарыны
вузъе
вузъюрт
вузъюртэз
вуиз
вуизы
вуиллям
вукарнан
вуко
вукоез
вуколуд
вуколэн
вулкан
вулканлэн
вулканъе
вулэн
вулэсь
вунонтэм
вуныл
вунэти
вунэтэ
вуо
вуон
вуоно
вуонояз
вуонэз
вуос
вуосын
вурем
вуремын
вурз
вуриськон
вуро
вурон
вурыли
вусизь
вутти
вутто
вутты
вуттымтэ
вуттыны
вуттэ
вуттэмын
вутудз
вуусе
вуши
вуыли
вуыло
вуылыны
вуылэ
вуылэм
вуымтэослы
вуын
вуыны
вуыса
вуэ
вуэз
вуэм
вуэмез
вуэмъе
вуэмын
вуэн
вуюись
вход
вцик
вы
выберите
выбора
выборам
выборах
выборов
выборы
вывод
вывода
выводится
выводить
выглядеть
выглядит
выделения
вые
выем
выж
выже
выжез
выжиз
выжизы
выжлэн
выжон
выжти
выжтэмын
выжъе
выжы
выжые
выжыез
выжыезъя
выжыись
выжыкыл
выжыкылчи
выжыкылъе
выжылэн
выжыос
выжыоссы
выжыоссэ
выжыосыз
выжыосысь
выжысь
выжыысь
выжыысьтызы
вызов
вызова
вызове
вызывает
выи
выл
вылаз
вылазы
вылбамез
вылегжанин
вылез
вылзэ
выли
выллань
выллем
выллемгес
выллемъе
выллэсь
выло
вылонын
вылонэз
вылт
вылти
вылтус
вылтуссэ
вылтусыз
вылтусызъя
вылъе
вылыз
вылызлэн
вылын
вылынгес
вылысь
вылысьтыз
выль
выльди
выльдон
выльдыны
выльдытэм
выльдэм
выльдэмын
вылье
выльзэ
выльсибирск
выльысь
вылэ
вылэм
вылэмез
вымысо
вынъе
выныз
вып
выпуск
выпускники
выр
выре
вырз
выри
выриз
вырись
выро
выру
вырумаа
вырыли
вырыны
выселка
выскажите
высказать
высокая
высоцкии
выступать
высшеи
высших
выход
выходит
выше
вьентьян
вьетнам
вьетнаме
вьетнамлэн
вьетнамын
вьетнамысь
вьеха
вюртемберг
вяземскии
вязовка
вяи
вятка
вяткаысь
вятская
вятские
вятскии
вятских
вятского
вятское
вятскои
вячесла
вячеслав
вячеславович
г
га
габдулла
габдулхаевич
габон
габороне
габриель
габриэль
габсбургъе
гаваи
гавана
гаваняз
гавел
гавриил
гаврилов
гаврилова
гаврилович
гавриловка
гавриловлэн
гавриловъя
гагарин
гагауз
гаде
гадь
гаевич
гажамон
гажан
гажаса
гажась
газ
газа
газель
газет
газета
газетлы
газетлэн
газетлэсь
газетсэ
газетчи
газетчиос
газетъе
газеты
газетын
газетысь
газетэ
газетэз
газетэн
газиантеп
газовик
газон
газопровод
газпром
газпромлэн
газъе
гаи
гаити
гаитилэн
гаитиын
гакенке
галаго
галактика
галактикае
галактикаос
галактионович
галаново
галапагос
галеандра
галеарис
галеола
галерея
галиаскар
галилеи
галилео
галина
галисии
галиханов
галицкои
галичанин
галкин
галле
галло
галф
галя
гама
гамаль
гамбия
гамбринус
гамбург
гамбургын
гамма
гамсахурдия
ган
гана
ганди
гань
гараж
гаральд
гарвард
гари
гарик
гарипов
гарна
гарольд
гарри
гарсиа
гасабо
гаспар
гастролье
гастрохилус
гатсибо
гауди
гаусс
гауссов
гвадалахара
гваделупа
гвардеи
гвардилэн
гвардия
гватемала
гватемалаын
гватемалаысь
гвиана
гвинеи
гвинея
гвинеялэн
гвинеяын
гвоздь
гг
гггг
ггпи
где
гдр
ге
геббельс
гевара
гегель
гедиз
гедимин
гез
гезлэн
геи
гектар
гектор
геленджик
гелии
гельмут
гемлик
гендер
генезис
генерал
генераллэн
генеральнои
генералэз
генераторез
генетик
геннадии
геннадьевич
геннадьевна
генри
генрих
генс
геоглифъе
географ
географи
географиез
географиен
географизы
географическои
географиын
география
географияя
геодезист
геолог
геологи
геология
геометриез
геометрия
георг
георгиевич
георгии
георгина
георгия
геофизическои
геохимия
гепард
гер
геральдика
герб
гербе
гербез
гербеныз
гербер
гербера
герберт
гербзэ
герблэн
гербъе
герд
герда
гердлы
гердлэн
гердлэсь
гердэз
гердэн
гереевскои
геренук
герз
герман
германие
германиез
германиеи
германиен
германилы
германилэн
германити
германиын
германиысь
германия
гернси
героез
герои
героиня
героя
герпетология
герц
герцеговина
герцен
герцог
гершель
гес
гессен
гетеросексуальность
гети
гетман
геттоез
гетысьтызы
гжд
гзэ
ги
гиадаос
гиацинт
гиббон
гибралтар
гибрид
гибридзы
гибридъе
гигантъе
гид
гидрология
гидъе
гижысь
гиз
гии
гикори
гилберт
гильберт
гильотен
гималаи
гимн
гимнадения
гимназиез
гимназилы
гимназилэн
гимназиын
гимназия
гимнаст
гимнастикая
гимнастка
гимнлэн
гимнъе
гимнэз
гимнэзлы
гимнэзлэн
гинденбург
гинзбург
гинэ
гипермаркет
гипермаркетъе
гипермаркетэз
гиппиус
гиресун
гисагара
гитара
гитараен
гитарист
гитис
гитлер
гитлерлэн
гихл
гичумби
гишари
гкб
гкие
гкчп
гл
главного
главнои
главныи
глагол
глаголъе
глаз
глазго
глазкар
глазкарын
глазкарысь
глазлы
глазлэн
глазов
глазова
глазово
глазовского
глазовскои
глазовын
глазовысь
глазын
глазысь
гласнои
гласную
гласных
глаукома
глаукомныи
глеб
глездене
глеи
глен
гленн
глинка
глобализации
глобализация
глобальное
глобус
глухов
глухова
глушков
гмина
гну
го
говард
говения
говерла
говор
говоръе
говорят
гог
гоген
гоголи
гоголь
гогольлэн
гогольлэсь
год
года
годов
годового
годовои
году
годунов
годы
гож
гожез
гожмо
гожмовыр
гожня
гожпусъе
гожпусэт
гожти
гожто
гожтон
гожтоно
гожтосъе
гожтыны
гожтыса
гожтэ
гожтэм
гожтэмзэ
гожтэмъе
гожтэмын
гожтэт
гожтэтъе
гожтэтэз
гожъе
гожъя
гожъяз
гожъязы
гожъяло
гожъям
гожъямъе
гожъямын
гожъян
гожъяны
гожъяса
гожъясь
гожъясье
гожъяське
гожъяськиз
гожъяськись
гожъяськисье
гожъяськисьлэн
гожъяськон
гожъяськыны
гожъясьчи
гожъясьчиослэн
гозы
гозыен
гои
голда
голдина
голестан
голландецъе
голландиысь
голливуд
голливудысь
голль
головнои
голос
голоса
голосов
голосование
голосовании
голосования
голосуют
голосующим
голубев
голубень
голубь
гольдман
гольфи
гольык
гольян
гомер
гомес
гомосексуализм
гон
гонгора
гондурас
гондурасын
гондыр
гондырваи
гондыргурт
гондыръе
гонка
гонкаын
гонкаяз
гонконг
гонконгысь
гонлэсь
гоно
гончаров
гонэз
гопалысь
гопгурт
гопе
гор
гора
горбаче
горд
гордбыж
гордеев
гордеевналэн
гордо
гордон
гордэсь
горецъе
горилла
горная
горно
горнои
город
города
городе
городецкии
городлы
городлэн
городлэсь
городок
городокын
городскои
городъе
городын
городысь
городэ
городэз
городэн
горон
горчица
горшене
горы
горькии
горького
горяинов
гос
госиздат
госпиталье
господь
гостиница
гостиницалэн
гостиницаын
государств
государственного
государственнои
государственные
государственныи
государство
госуниверситета
готическои
готтфрид
готфрид
гп
гра
граве
гравитаци
гравитациен
гравитация
граждан
гражданин
гражданинэз
гражданская
гражданскои
гражданство
гражданъе
грак
грамматика
грамотаез
грамотаеныз
грамотаосын
грамотаосыныз
грамотаосынызы
гран
гранд
границы
грант
гранты
граф
график
графика
графике
графические
графическим
графическои
графствоысь
граффити
грах
грахлэсь
гре
греи
грек
греко
грекъе
гренада
гренадин
гренландилэн
гренландиын
гренландиысь
гренландия
греховодов
грецилэн
грециын
грециысь
греция
греч
греческии
гречко
грибоедов
грибоедовлэн
грибы
григориан
григорианскои
григории
григорьев
григорьевич
григорьевна
гримм
грин
гринвич
грине
грипп
грисбок
гриша
гродно
грознои
грозныи
грудь
груз
грузилэн
грузин
грузинъе
грузиын
грузиысь
грузия
грузовои
груп
группа
группае
группаез
группаен
группазы
группалы
группалэн
группаос
группаосы
группаын
группаысь
группаязы
группе
группои
группы
грушевскии
грэмми
гсуя
гтрк
гу
гуам
гуандунысь
гуарианте
губаев
губернатор
губернаторез
губерние
губернии
губернилы
губернилэн
губерниос
губерниын
губерниысь
губерния
губернские
губернскои
губерняе
губерняысь
губи
губиос
гудзон
гуди
гудок
гудыри
гудырикошкон
гудырикошконозь
гудырикошконэ
гуждор
гужем
гужемзэ
гузэс
гулин
гулинлэн
гульельмо
гуманитарного
гуманитарнои
гуманитарные
гумбольдт
гумиле
гумы
гуос
гур
гура
гуре
гурезе
гурезез
гурезь
гурезье
гурезькуспо
гурезьлэн
гурезьын
гурезьысь
гури
гуринка
гурион
гурон
гурт
гуртаз
гуртлы
гуртлэн
гуртлэсь
гуртоос
гуртсылы
гуртъе
гуртын
гуртысен
гуртысь
гуртысьтыз
гуртэ
гуртэз
гуртэн
гуръе
гусев
густав
гутенберг
гуч
гуэз
гыбдан
гыбед
гыбедэн
гылти
гын
гынэ
гырлы
гырмен
гырон
гыроно
гэвин
гэри
гэс
гюго
гюголэн
гюи
гюльмамедов
гюмюшхане
гюнаи
гюнеи
гюрсель
гюстав
гүлдөи
д
да
даби
даваи
давид
давсон
давыденки
даг
дагестан
дагестанын
дае
даже
даи
дакар
дакка
дактилориза
далее
дали
даллол
даль
дальневосточнои
дальнеи
дальнии
дам
дама
дамаск
дан
данаида
данакез
данакиль
данзэ
дани
даниель
даниил
данилов
данилова
данилово
данилэн
даниысь
даниэль
дания
данлы
данлыко
данного
данное
даннои
данную
данные
данныи
данных
дано
даноним
данте
данченко
данъямын
данъян
данъянъе
данъяське
данэ
данэз
дар
дарали
дарвин
дарданеллы
даров
дары
дарьен
дас
дасо
даст
дась
дасэти
дася
дасяз
дасязы
дасяллязы
дасяло
дасям
дасямын
дасян
дасянъя
дасянын
дасянэ
дасяське
дасяськон
дат
дата
датами
датскии
дату
датч
датчан
датчанъе
даты
дать
даун
даур
дауре
даурлы
даурлэн
даурлэсь
даурозь
даурти
дауръе
даурын
даурысен
даурысь
даша
дашгын
дают
два
две
двигателен
двигатель
движение
движениез
движением
движениен
движенилэн
движениын
движению
движения
двор
дворец
дворецез
дворецзы
дворецлэн
дворецын
дворецысь
дворецэз
дворцовои
дворянин
двух
дд
де
дебрецен
дебютнои
дева
девиз
девятово
дедфлеи
деи
дек
декабре
декабрист
декабристъе
декабрь
декабря
деканэз
декарт
декларациез
декларация
декоративно
декрет
декретэз
декретэзъя
дела
делавеи
делавэр
делает
делам
делать
делегат
делегатъе
делегатэз
деление
делению
дели
делин
дело
дель
дельвиг
дельта
дельфинъе
дельфины
деменлудскои
дементьев
демидов
демографиез
демография
демократ
демократи
демократилэн
демократическои
демонстрация
ден
дена
дендрантема
дендробиум
дендрохилум
дени
денизли
деникин
денис
день
департамент
департаментысь
депо
депутат
депутатов
депутатсы
депутатъе
депутатэ
депутатэз
дер
деревенька
деревни
деревня
дерево
дерендяева
дери
дернекамп
дерябин
десенка
десна
десятилетие
десятилетия
десятина
дет
детеи
дети
детрои
деятельности
деятельность
дж
джабер
джаз
джаи
джакарта
джакомо
джалиль
джами
джан
джанкои
джанлэн
джанни
джанын
джанысь
джанэ
джарылгачскои
джаяварденепура
джаянти
джеи
джек
джексон
джемаль
дженнифер
джерси
джефферсон
джеффри
джи
джиа
джибути
джимми
джо
джоан
джобс
джованни
джозеф
джои
джон
джонс
джонсон
джордан
джордано
джордж
джорджия
джоунз
джоунзлэн
джохар
джуба
джузеппе
дз
дзерен
дзержинскии
дзержинскои
дзи
ди
диал
диалект
диалекте
диалектъе
диалектэ
диаметрез
диана
дивизиез
дивизиен
дивизионын
дивизия
диджеи
диего
дизаи
дизель
дии
дикдик
диккенс
диктант
диктатор
диктаторез
диктор
дикторез
дили
дима
дин
динамо
динар
династия
дингер
динозавры
динь
диомид
диплом
дипломат
дипломатическои
дипломзэ
диптерокарп
директ
директор
директорез
директорезлэн
директоръе
дирижаблье
дириже
диск
дискавери
дискографиез
дискография
дискуссии
диснеи
диспансер
диссертацизэ
диссертационнои
диссертация
дистанционнои
дистрибутивъе
дисциплина
дисциплинаос
дисциплинаослы
дите
дитрих
диурис
дия
диярбакыр
дк
длинные
для
дм
дми
дмитриевич
дмитриевна
дмитрии
дн
дневниказ
дневники
днеи
днепр
днестр
днюк
дня
до
добавил
добавить
добавлении
добавляемыи
добавлять
добавляются
добавьте
добрев
добро
добровольнои
доброго
добросовестного
добрыи
дов
договор
договорез
договорен
договоръя
дождь
дои
докл
доклад
докладов
докладъе
доктор
докторъе
документальнои
документации
документация
документъе
докша
докъя
докья
долган
долгорукии
долгота
должен
должна
должно
должностье
должны
доллар
долои
дом
дома
домашнии
домашняя
домен
домена
доминго
доминик
доминика
доминикан
домокош
дон
дональд
донгхои
донецк
донскои
дону
доп
дополнительно
дополнительную
дополнительные
дополнительныи
дополнительных
допускаются
допустимые
дор
дораз
доразы
дореволюционнои
доритэноппсис
доров
дорова
дорович
доровна
дороги
дорогие
дорозь
доры
дорын
дорысен
дорысь
досааф
достаточно
достоевскии
достояние
доступен
доступна
доступны
доступом
доу
доха
доходъе
доцент
др
драгунов
дракула
драма
драмаез
драматическои
драматург
драматурглэн
драматургъе
драмая
драмтеатр
драмтеатрын
древнегреческии
древнеи
древняя
дрезден
дрезденысь
дреи
дрессировщик
дрожжанои
дрозд
друг
другие
другим
другими
других
другое
другои
другом
дружба
дружбы
друзеи
дскымон
дтэк
дуаи
дублин
дублинын
дублинысь
дуброво
дугди
дугдоно
дугды
дугдыло
дугдылон
дугдылонни
дугдылытэк
дугдыти
дугдытон
дугдытэмын
дугдэ
дугдэм
дуглас
дудин
дуи
дукес
дукессэс
дукъя
дулесово
дума
думае
думалэн
думаысь
думаю
думы
думылэм
дун
дунаевскии
дунаи
дунзэ
дункан
дунне
дунневыл
дуннее
дуннеез
дуннеен
дуннезэ
дуннекотыр
дуннелы
дуннелэн
дуннелэсь
дуннеослэн
дуннеын
дуннеысь
дуно
дунтэк
дунчылкыт
дунъе
дунъет
дунъяз
дунъязы
дунъяло
дунъямын
дунъяны
дунъясь
дунъясье
дунъяське
дур
дурангоысь
дурбасьти
дурбасьтэ
дуре
дуриан
дуриськись
дуров
дурова
дурон
дурти
дуръе
дурын
дурысь
дут
дух
духовная
духовно
духовнои
духом
душа
душанбе
душес
дуэ
дуэтаба
дъя
дъяз
дъязы
дъямын
дъяны
ды
дыды
дыдык
дыдыке
дын
дыны
дыр
дыраз
дыре
дырез
дырзы
дырзэ
дырлы
дырлэн
дырлэсь
дырозь
дырпа
дырпуслэн
дырти
дыртытэк
дыртэ
дыръе
дыръя
дыръяз
дырыз
дырызлэсь
дырын
дырысен
дырысеныз
дырысь
дырья
дыхание
дыхательная
дышем
дышети
дышетисье
дышето
дышетон
дышетонлы
дышетонлэн
дышетоно
дышетонъя
дышетске
дышетскем
дышетскемез
дышетскемзэ
дышетскемын
дышетскиз
дышетскизы
дышетскисез
дышетскись
дышетскисье
дышетско
дышетскон
дышетсконзэ
дышетсконни
дышетсконниез
дышетсконнилэн
дышетсконниос
дышетсконниосын
дышетсконниын
дышетскыкуз
дышетскыны
дышетыли
дышетыны
дышетэ
дышетэм
дье
дьы
дьыгоногуби
дьые
дьыослэсь
дьюла
дья
дэ
дэбес
дэбесын
дэбесысь
дэбесэ
дэвдатт
дэви
дэвид
дэвис
дэи
дэмен
дэмлам
дэмлась
дэмласькиз
дэн
дэниэл
дэра
дэраен
дэралэсь
дэрем
дэремез
дэремзэс
дэри
дэрие
дэрилэсь
дэриын
дю
дюздже
дюльмен
дюльменын
дюльменысь
дюма
дюнаос
дюсш
е
ев
ева
евангелическои
евге
евгении
евгения
евгеньевич
евдокимов
евдокимовлэн
евдокия
евич
евклид
евразии
евразилэн
евразиын
евразиысь
евразия
евразияын
евреи
евро
евровидение
евровидениын
евровидениязы
евромаи
европа
европае
европаез
европаен
европалэн
европаос
европарламентлэн
европаын
европаысь
европеецъе
европеи
евросоюзлэн
евросоюзысь
евроцент
евстигнеев
евтеевич
евфратысь
ег
егатскытэк
егатэмын
египет
египетлэн
египетын
египетысь
египетэ
егит
егитъе
егитэз
его
егор
егоров
егорович
единица
единицаос
ее
еез
ежегодник
ежеквартально
ез
езлэн
езо
езьыез
еи
екатерина
екатеринбург
екатеринбургын
екатеринбургысь
екатерининскои
екти
екто
ектонъе
ектос
ектэ
ектэмезъя
ектэмын
ел
елачич
елена
еленалэн
елизавета
елово
ель
ельцин
ем
емгес
емез
емелья
емельян
емельянов
емен
еменлэн
емкостныи
емкость
емпотостэм
ему
емъе
емын
емысь
емыш
емышез
емышо
емышъе
ен
енисеи
енишехир
енот
ео
еп
епархиен
епархилэн
епархия
епископ
епископез
ер
ера
ердал
ере
ереван
ересен
ермак
ермолаев
ермолаево
ерхольд
ершовка
ерысь
ерысьтыз
ес
есенин
есенина
есенинлэн
есенинлэсь
есенинэз
есипов
если
естественнои
естествознанилэн
естествоиспытатель
есть
есь
ет
ети
етсы
етъе
етъюрт
етъя
ефим
ефимович
ефремов
еч
ечбур
ечин
ечкыланъе
ечлыкез
ечлыко
ешильырмак
еще
ж
жаба
жаг
жаген
жак
жал
жалаз
жалъе
жалын
жалысь
жалэ
жаляса
жан
жанеи
жанна
жанр
жанрен
жанръе
жанръем
жасмин
жаша
жгурт
жданов
жде
же
желательно
желательнои
желающих
железнодорожного
железнодорожныи
железнои
железныи
желудочно
жена
женваи
женеваын
женеваысь
жени
женская
женя
жермен
жетонъе
жеффреи
жешув
жи
живои
живописец
живопись
живот
животлэсь
животнои
животные
животных
животъе
жизни
жизнь
жилин
жильы
жин
жингрес
жириновскии
жирновск
житомир
жмер
жнои
жныи
жозе
жозеф
жозефина
жолио
жолунда
жорж
жуан
жуг
жугиськемез
жугиськон
жугиськонын
жугон
жужгес
жуи
жуков
жуковскии
жумеллея
журавле
журавлев
журнал
журналист
журналистика
журналистикая
журналистики
журналистского
журналистское
журналистъе
журналлэн
журналлэсь
журналъе
журналын
журналысь
журналэз
жъе
жы
жыт
жытак
жытгес
жытэз
жюль
жюри
з
за
забаи
забегал
заболевание
забудьте
заведении
завершение
завершится
зависимости
зависимость
завод
заводлы
заводлэн
заводлэсь
заводскои
заводъе
заводын
заводысь
заводэ
заводэз
завтра
завьял
завьяллэсь
завьялово
загитов
загитова
заглавная
заглавнои
заглавную
заговор
заголовка
заголовки
заголовков
заголовок
заготовка
заготовки
заготовку
загребин
загуляева
задавать
задае
задан
задано
заданы
задать
задач
задачи
задаются
задеи
заж
зажез
зажист
заз
заза
зазы
заи
заинск
заинтересованных
заир
заказник
закарпатскои
закачать
закон
закона
закономерностье
законъе
законэз
зал
залаз
залесскии
залив
заложникъе
залъе
залэз
залэзлэн
замбия
заменгоф
замене
замените
заменить
замены
заметки
замок
замокез
замоклэн
замокын
замокысь
замосьч
зангари
заниматься
зао
заочно
заочнои
зап
запад
западно
западнои
западном
запаснои
запатентовать
записала
записать
записи
записки
запись
записье
заповедник
заповедникын
заповедникысь
заполнение
заполнено
заполнив
запоминающее
запрет
запрос
запросы
запятои
зара
заранее
зарегистрированнои
зарегистрированные
зарегистрировать
зарегистрироваться
зарезе
зарезез
зарезен
зарезь
зарезье
зарезьлэн
зарезьлэсь
зарезьын
зарезьысь
заречнои
заречныи
зарни
зарниез
зарнизэ
зарнипыръем
заря
заряд
заседаниез
заседанияз
заслуги
заслуженныи
застолица
затем
захар
захаров
захватчикъе
заче
защита
защиты
защище
заявки
заявку
заявление
заявления
заявок
звание
звания
зве
звезда
звиад
звуков
згес
здание
здесь
здоровье
здочка
здравоохранение
здравствуи
зе
зеи
зек
зеландилэн
зеландиысь
зеландия
зеле
зелени
зеленин
зеленодольск
зем
земля
земноводные
земскои
земства
земын
зенберг
зенит
зенхауэр
зенштеи
зер
зи
зигмунд
зигопеталум
зиз
зилэн
зимбабве
зимнеи
зимние
зинаида
зиннатуллин
зиын
зия
зка
злобин
злы
злэн
злэсь
змея
змуртъе
змуртэз
знак
знаком
знамя
знамяез
знамяен
знамялэн
знание
знании
знания
значение
значении
значения
значимости
значимые
значит
знэтъе
зо
зовая
зовка
зогу
зодчии
зои
зол
золотаре
золотои
золтан
зона
зонае
зонаез
зонаезлэн
зонаосыз
зонгулдак
зонд
зоолог
зоологи
зоологизы
зоологилэн
зоологическои
зоология
зоопарк
зоопаркын
зоотехник
зор
зорге
зорин
зоркибы
зосим
зоя
зрительныи
зти
зубр
зуева
зуевка
зул
зура
зураб
зури
зуринскои
зуриысь
зурка
зуркан
зурканъе
зурканэн
зчи
зчиез
зчиос
зчиоссэ
зчиосыз
зъе
зъя
зы
зыл
зылэн
зын
зыно
зырян
зырянъе
зысь
зысьтыз
зь
зьто
зьтон
зьтыны
зьыл
зьыса
зэ
зэз
зэм
зэмаз
зэмзэ
зэмлыко
зэмос
зэныз
зэс
зэсъе
зэсэз
зэтъе
зэтэз
зэтэзлэн
зю
зя
зяз
и
иаков
ибн
ибо
ив
ива
иван
ивано
иванов
иванова
иванович
ивановна
иваново
иви
ивовои
ивор
иворти
ивортон
ивортэк
ивортэмезъя
ивортэмын
иворъе
ивр
иврит
ивуар
ившин
ившина
игма
игнатии
игнорируется
игнорируются
игоревич
игорь
игра
играть
игринскои
игрово
игры
ида
иде
идеалист
идеи
идеологез
идеологиез
идея
идз
идиш
идна
иднакар
идпо
идрица
ие
иезуит
иезуитъе
иена
иероглифъе
иероним
иерусалим
иерусалимез
иерусалимысь
иж
ижавиа
ижгорэлектротранс
ижгсха
ижгту
ижгэт
иже
ижевск
ижевска
ижевская
ижевске
ижевскии
ижевсклэн
ижевсклэсь
ижевского
ижевскои
ижевскын
ижевскысь
ижез
ижен
ижкар
ижкаре
ижкарлэн
ижкарлэсь
ижкарын
ижкарысен
ижкарысь
ижлы
ижлэн
ижлэсь
ижмаос
ижмаш
ижмашлэн
ижмашын
ижмолоко
ижозь
ижора
ижсталь
ижъе
ижын
ижысен
ижысь
из
изабелия
изабелла
избежать
избирательная
избирателя
избранное
избранные
известия
извинения
изгурезь
изгурт
изд
издание
изданиос
изданиосын
издания
издательского
издательство
издательствоез
издательстволэн
издательствоын
изе
излучение
излэсь
измаи
изменение
изменении
изменения
изменениях
изменить
измерение
измерения
измир
измит
изображение
изображением
изображении
изображения
изобретатель
изолировать
израиле
израиль
израильлэн
израильысь
изумруд
изучения
изъе
изъявительнои
изъян
изы
изьыяло
изьыян
изэз
ии
иисус
иисуслэн
ик
икако
иксодовои
иксора
икъя
ил
иланг
или
илиада
илл
илле
иллинои
иллюзионист
иллюстрация
илля
иль
ильдар
ильдарович
ильдибаево
ильдусович
ильин
ильинка
ильинлэн
ильинск
ильич
ильминскии
ильназ
ильче
ильысь
илья
им
имажинисты
имам
имбу
име
имеет
имели
имена
имени
иметь
иммануил
импала
император
императорез
императорлэн
императорлэсь
императорскои
императоръе
императрица
императрицалэн
империе
империез
империи
империлы
империлэн
империлэсь
империын
империысь
империя
имре
имтук
имя
имярегиона
ин
инаугурациез
иначе
инбам
инбаме
инвалидность
инвалидъе
инвентаризацияя
инвисъе
инвожо
инвожое
инвожоозь
инвожоысен
инга
ингерманландъе
ингмар
ингрид
ингуш
ингушетия
ингушскои
инд
индевор
индеецъе
индеи
индекс
индекслэн
индексэз
инди
индивидуальнои
индие
индии
индилэн
индира
индиын
индиысь
индия
индияын
индоевропеи
индокитаи
индонезилэн
индонезиын
индонезиысь
индонезия
индуизм
индукциез
индустри
индустриальнои
индустриальныи
ине
инженер
инженернои
инжир
инз
ини
инквизициен
инкуазез
инкуазен
инкуазь
инкуазьлы
инкуазьтодосчи
инкуазьын
инкубаторын
инмар
инмаре
инмарлы
инмарлэн
инмарын
инмын
инмысь
иннокентии
иноземцева
иностраннои
иноязычного
иноязычнои
иноязычными
инсар
инспекторез
инспектура
инспекция
инсталляциез
институт
института
институтаз
институтлы
институтлэн
институтъе
институтын
институтысь
институтэ
институтэз
институтэзлэн
инструмент
инструментальныи
инструментъе
инструменты
инсульт
инсьо
интеллект
интервик
интервиками
интервики
интервью
интервьюос
интерлингва
интернат
интернационал
интернационаллэн
интернационалэд
интернационалэз
интернет
интернетлэн
интернетын
интерфеи
интерьерез
инты
интые
интыез
интыезлы
интыезлэсь
интыем
интыен
интыенызы
интызы
интызэ
интызэс
интылы
интылэн
интыос
интыослэн
интыоссы
интыосты
интыосы
интыосыз
интыосын
интыосысь
интыськемын
интыужысьтыз
интыын
интыысь
интыяз
интыязы
интыямын
интыян
интыянъя
интыяське
интыяськем
интыяськемез
интыяськемын
интыяськиз
интыяськизы
интыяськиллям
интыясько
интыяськон
инуиннактун
инуит
инуитъе
инуктитут
инфаркт
инфекция
инфекцияен
информатика
информатикая
информациез
информации
информационного
информационное
информационнои
информационные
информационныи
информацию
информация
инфраструктура
инфраструктураез
инфраструктураен
инцидент
инъет
инъетаз
инъето
инъетсэ
инъетъе
инъетэз
инъяз
инъязы
инъяллям
инъямын
инъян
инъясез
инъясь
инъясье
иных
инэз
инюпиак
инюпиакъе
ио
иоанн
иоаннович
иоанновна
иоганн
ионическои
иордан
иордания
иосип
иосиф
иосифлэн
ип
ипк
ипопат
иппу
ир
ира
ирак
ираклии
ираклэн
иран
иранлэн
иранын
иранысь
иранэ
иранэз
ирбис
ирен
ирина
иркутск
ирл
ирланд
ирландилэн
ирландиысь
ирландия
ирмизае
иса
исаак
исаакиевскои
исез
исетскои
исеть
искандер
искем
исключением
искра
искусственнои
искусственныи
искусство
искусствовед
искусствоез
искусстволэн
искусствоосъя
искусствоя
искуствоосъя
ислам
исламабад
исламез
исланд
исландилэн
исландиысь
исландия
исмет
исп
испан
испанецъе
испание
испанилэн
испанилэсь
испаниын
испаниысь
испания
испанскии
испанъе
исповедь
исполком
исполкомезлэн
исполнительнои
использование
использовании
использованию
использования
использовать
используемых
используется
используи
используя
испр
исправить
исправник
испытатель
исраэль
исследование
исследовании
исследования
исследователь
исследовательскии
исследовательскои
истечения
истоки
истомин
истори
историез
историезлы
историезъя
историен
историзылы
историзэ
историзэс
истории
историк
историко
историкъе
историлы
историлэн
историческая
исторических
историческои
историын
историысь
историысьтыз
историысьтызы
историю
история
историяз
историязы
историяя
источник
источника
источники
источников
источникъе
истребитель
ису
исфаханысь
ись
исье
иське
иськем
иськеме
иськемез
иськемлы
иськемозь
иськемъе
иськемъем
иськемын
иськиз
иськизы
иськись
иськисье
исько
иськод
иськом
иськон
иськонзы
иськонни
иськылэ
иськыны
исьток
итал
италилы
италилэн
италиын
италиысь
италия
италмас
итальян
итальянскии
ити
итог
итоги
итого
итогов
итча
итчи
иудеи
иудеялэн
их
ихтиология
ицхак
ичи
ичие
ичкерия
ичы
ишвла
ишматова
иштван
июле
июль
июльысен
июля
июне
июнь
июньысен
июня
ия
иҧа
к
ка
каб
кабалуд
кабаниха
кабарга
кабардинка
кабардинкаысь
кабардино
кабаре
кабацкая
кабель
кабенак
кабо
кабул
кабъе
кабье
кавалерез
кавалерзы
кавалерист
кавендиш
кавказ
кавказлэн
кавказын
кавказысь
кавказэ
кагаз
кагаме
кагеи
кадар
кадик
кадръе
кадыров
кадышур
кадь
каем
каждого
каждом
каждые
каждыи
каз
казак
казакъе
казан
казанскои
казанцев
казань
казаньын
казаньысь
казах
казахстан
казахстанлэн
казахстанын
казахстанысь
казес
казимир
казмаска
казнить
казьмас
каи
каир
как
какаду
какадуос
какие
каким
какмож
како
какои
каком
какси
какся
кал
каладения
каланте
калатаюдысь
калатея
калашников
калашниковез
калашниковлы
калашниковлэн
калашниковлэсь
калашур
калгариын
калгись
кале
каледонилэн
каледониын
каледония
календарез
календари
календарнои
календарные
календарь
календарьлэн
календарья
календаря
кали
калидаса
калинин
калининград
калифорниын
калифорниысь
калифорния
каллен
калмаши
калмез
калмык
калмыкия
калмыш
кало
калтасы
калтон
калуга
калъе
калы
калык
калыке
калыкез
калыкезлэн
калыкезлэсь
калыкен
калыккуспо
калыклы
калыклэн
калыклэсь
калыктодонъя
калыкъе
калыкъем
калыкын
калыкысь
кальман
кальскои
кальюлаи
калэ
калэн
кам
кама
камал
камарго
камасин
камасинъе
камбарка
камбаркалэсь
камбаркаын
камбаркаысь
камбоджа
камбоджаысь
каме
камен
каменец
каменка
каменное
каменныи
камернои
камерун
камзол
камит
камлэн
камоньи
кампала
кампании
кампания
кампора
камскии
камско
камское
камскои
камсьо
камчатка
камчаткаысь
камчатскии
кан
канаверал
канада
канадалэн
канадалэсь
канадаын
канадаысь
канал
каналлэн
каналъе
каналын
каналэ
каналэз
канар
канария
канат
канберра
кандидат
кандидатам
кандидатов
кандидатом
кандидатскои
кандидатъе
кандидаты
канна
каннада
кант
кантиум
кантонскии
канцлер
канцлерез
каньыл
кап
капелла
капитал
капитальнои
капиталэзлэн
капитан
капитанэз
капитолии
капитуляциез
капица
капка
каплан
капоне
капскои
капсулаез
капу
капуцин
капчи
капчиен
кар
кара
карабюк
караваев
караваи
караван
караз
каракал
каракалпак
каракулино
каракулинолэсь
каракулиноын
каракулиноысь
карама
караман
карамас
карамзин
карамзинлэн
каранда
карандаш
караулчиосты
карахисар
карачаево
карачаи
карачи
карачумскои
карашур
каргурт
каргуртын
каргуртысь
кардинал
кардифф
каре
карез
карел
карелиысь
карелия
карело
карелъе
карем
каремезъя
каремъя
каремын
карен
карзы
карзэ
кариб
карибскои
кариз
каризы
кариллям
каримов
карино
каринтиысь
каринтия
карис
карись
карисье
кариське
кариськемез
кариськемзылэсь
кариськиз
кариськизы
кариськыны
кариськыса
каркалаи
карл
карлик
карликовои
карло
карлос
карлуд
карлудысь
карлы
карлэн
карлэсь
карнатака
карнеги
каро
карозь
каролина
кароль
карон
каронги
каронкыл
каронкыллэн
каронкыллэсь
каронкылъе
каронкылэз
каронни
кароно
каронъя
карпат
карпатскои
карпаты
карпов
карпова
карс
карсоваи
карта
картаез
картаен
картазэ
картаос
картаосты
картаяз
картер
картина
картограф
картофка
карточек
карточка
карточкаос
карточках
карточке
карточки
картэз
картэныз
карусель
карцинома
каръе
каръяське
карыли
карымтэ
карын
карыны
карыса
карысь
карьера
карьераез
карьеразэ
касается
касаткин
касим
касимов
касома
каспии
касса
кассельскии
кассетаос
кассини
кастамону
кастанопсис
кастрен
кастри
кастро
кастроез
касьян
кат
каталан
каталанскии
каталония
катальпа
катанга
катар
катасетум
катастрофа
катастрофае
катастрофаез
катастрофическии
катастрофическои
категорие
категориен
категоризация
категоризэ
категории
категориос
категориосты
категориосъя
категорию
категория
категориям
категориях
категорија
катер
катеръе
катк
катлери
катлы
катманду
катовице
катовицеысь
католик
католикъе
католическои
каттлея
катъе
катьырнакар
катьырнакарлэн
катэз
катя
каукэа
каури
кауфман
кафе
кафедра
кафедраен
кафедральнои
кафедралэн
кафедраын
кафеос
кафир
кафка
ках
кахраманмараш
качак
качестве
качиньскии
кашабег
кашанысь
кашин
кашмир
кашпировскии
кашуб
каын
кая
кв
квадрат
квантовои
квантъе
кваньяма
кварсинка
кварталысь
квартираез
кватчи
квебек
квенъе
квинсленд
квн
квыл
кг
кгб
кди
ке
кебит
кевин
кедр
кедра
кедров
кез
кезын
кезысь
кезьыт
кеи
кекоран
келлер
кельвин
кельгома
кельмаков
кельмакова
кельмакович
кельт
кельти
кельтоно
кельты
кельтыны
кельтэ
кельтэм
кельтэмын
кельце
кельше
кельшем
кельшиз
кельшись
кельшо
кельыт
келяз
келязы
келяло
келямын
келян
келяса
кема
кемаласен
кемалась
кемаль
кембридж
кеме
кемерово
кемпбелл
кемын
кен
кенан
кенгуру
кенеш
кенешаз
кенеше
кенешез
кенешезлэн
кенешен
кенешлы
кенешлэн
кенешлэсь
кенешо
кенешсы
кенешсылэн
кенешъе
кенешын
кенешысь
кенешысьтызы
кенз
кензы
кениын
кения
кенлы
кеннеди
кентербери
кены
кеньыр
кеп
кеплер
керети
керн
керсти
кертто
керттыса
керттэм
керчь
кесклинн
кестерлэн
кестым
кесэглэсь
кетшава
кефалиниысь
кеч
кечат
кечато
кечгурт
кечево
кечиэрен
кечол
кечтака
кечтуш
кечуа
кечшур
ки
кибиризи
кибы
кибыос
кибыослэсь
кибья
кивалти
кивалто
кивалтон
кивалтонни
кивалтонниез
кивалтоннилэн
кивалтонъя
кивалтонэз
кивалтосъяськем
кивалтыны
кивалтыса
кивалтэ
кивалтэм
кивалтэмез
кивалтэт
кивалтэтлэн
кивалтэтэз
кивар
кивара
кивары
кивилааксо
кивошти
кигали
кигбаево
кигожтэм
кигома
кидыс
кидысэз
кидысэн
кие
киев
киевскии
киевын
киевысь
кизе
кизекгурт
кизем
кизер
кизили
кизилие
кизилиез
кизилиен
кизилиос
кизилиослэн
кизилисузьетысь
кизнер
кизнерын
кизнерысь
кии
кикуи
кикы
кикыос
киликиысь
килис
килограмм
килограммозь
километр
километрах
километрлы
километръем
километрын
киль
кильдин
кильмезь
кильтро
кильымало
кильымъе
ким
кин
кинази
кинг
кингстон
кинематограф
кинихира
кинлы
кинлэн
кино
киноакте
киноактриса
киноез
кинолы
кинолэн
кинооператор
кинорежиссе
киностудилэн
киносценарист
кинотеатр
кинотеатрлэн
кинотеатръе
кинотеатрын
кинофестиваль
киноын
киноысь
киноэкранъе
киншаса
кинъе
кинэ
кион
кионмульы
кионнин
киото
киотоысь
кипр
кипрлэн
кипрын
кипрысь
кир
киргиз
киргизилэн
киргизиысь
киргизия
кирехе
кири
кирибати
кирил
кирилл
кириллица
кириллицалэн
кириллицаысь
кириллов
кирилловна
киров
кирово
кировская
кировскои
кировысь
кирос
кирослэн
кирпич
киселе
кислород
кислота
кисьти
кисьтонъя
кит
китае
китаен
китаи
кито
китоысь
китс
китъе
киуж
киужъе
киулти
киултон
киултыны
киултэм
киултэмын
кичо
кичукиро
кишечныи
кишине
кишка
киын
киыныз
кияз
кияик
кияр
кияса
киясалэсь
киясаысь
киясово
кка
кки
ккфун
кл
клабуков
клавдии
клавдия
клавиатура
кладбищеын
клаи
клара
кларк
класс
классик
классикез
классикъе
классификация
классическая
классическои
классовои
классозь
классъе
классъем
классын
классэз
кле
клеи
клеменс
клементии
клеопатра
клетка
клещи
климат
климатическои
климент
климов
клиникае
клиническои
клинтон
клип
клиппертон
клипъе
кличко
клод
клоун
клуб
клубе
клубзы
клублэн
клубъе
клубын
клюевен
ключ
ключе
ключевых
ключи
кляи
кляшево
км
кн
кндр
книг
книга
книгае
книгаез
книгаен
книгазэ
книгалэн
книгаос
книгаосаз
книгаослэн
книгаосты
книгаосъя
книгаосыз
книгаосын
книгаосыныз
книгаын
книгаысь
книгаяз
книги
книгоиздательская
книппер
кнр
кня
княгиня
княжество
князев
князь
князье
князьлэн
ко
коала
коалицилэн
коата
коб
кобеысь
кобленц
кобуши
ков
кова
ковалевская
ковальчук
кове
ковил
ковриго
ковск
ковскии
ковскысь
ковтун
когда
кого
код
кода
коде
кодекс
кодекса
коджатепе
кодзэ
кодиак
кодэз
кое
кожа
кожаз
козлов
кои
коилостилис
кока
кокаин
кокконен
кокман
коко
кокорин
кола
колесникова
колесниково
колибри
колизеи
колин
количества
количество
коллеги
коллегиальнои
коллегиез
колледж
колледжлэн
колледжын
коллектив
коллективез
коллективлэн
коллективъе
коллекционер
коллекция
колобок
колокольня
коломбо
колониез
колонизэ
колониос
колониосыз
колония
колонки
колонна
колонок
колорадо
колорадоысь
колосс
колоша
колтоминскии
колтымак
колумб
колумбилэн
колумбиын
колумбиысь
колумбия
колунда
колуңда
колхоз
колхозлэн
колхозник
колхозъе
колхозын
колхозэ
колчак
колчаклэн
колчакъе
колюшево
коля
команда
командаез
командалэн
команде
командир
командои
команды
комар
комаров
комбинат
комбинатлэн
комеди
комедиез
комедии
комедия
комета
коми
комик
комиксъе
комиослэн
комиссариатэз
комиссаръе
комиссиен
комиссии
комиссилэн
комиссия
комитет
комитета
комитетлэн
комитетын
комитетэз
комитетэзлэн
комитетэн
комиысь
комментариев
комментарии
комментариями
комментариях
комментатор
коммерческои
коммуна
коммуналы
коммунальнои
коммуналэн
коммунаысь
коммунизм
коммунизмлэн
коммуникациосъя
коммунист
коммунистическои
коммунистъе
комор
коморъе
компаниез
компанилэн
компаниос
компаниослэн
компания
компартилэн
компас
компаса
компасом
комплекс
комплекслэн
комплекснои
комплекссы
комплексъе
комплексэз
композитор
композиторлэн
композиторъе
композицияя
компонент
комптон
компьютер
компьютерная
компьютерных
компьютеръе
комсомол
комсомолец
комсомоллэн
комсомольская
комсомольскои
конакри
конан
конвеи
конвент
конвентлэн
конвенциез
конвенция
конго
конголэн
конгони
конгресс
конгрессазы
конгресслэн
конгресслэсь
конгрессъе
конгрессы
конгрессын
конгрессэ
конгрессэз
конденсатор
конденсаторъе
кондратии
кондратьева
кондукторъе
конев
конец
конечно
конкретнои
конкурс
конкурса
конкурсе
конкурслэн
конкурсу
конкурсъе
конкурсы
конкурсын
конкурсэ
коновалов
коноваловез
конопля
конрад
консепсьон
консерваторие
консерваториез
консерваторилэн
консерваториын
консерватория
константи
константин
константинович
константиновна
константинополь
константинопольысь
конституциез
конституциезъя
конституцизэ
конституционнои
конституция
конструктор
конструкторез
конструкторлэн
консул
консультант
консультативнои
консультации
контекст
контент
континент
континентальнои
континентлэн
континентъе
контора
контрнаступленизы
контроль
конур
конф
конфедерация
конференциез
конференцизы
конференции
конференциосы
конференциын
конференция
конфуции
концентрационнои
концептуальнои
концерн
концерт
концертаз
концертнои
концертъе
концертэз
концлагерь
концлагерье
концлагерьлэн
концлагерьын
концлагерьысь
коньдон
коньдонъе
коньдонэз
коньдонэн
конькиен
коньы
коньыбыж
коньывуон
коньывуонозь
коньывуонысен
коньывуонэ
коньыос
коньыт
конья
конюхов
коня
кооператив
кооперативнои
координат
координаторез
координаты
коп
копак
копакыз
копеи
копенгаген
копенгагенын
копенгагенысь
коперник
копиез
копираи
копирования
копки
копросма
кор
кораблез
корабль
кораблье
корабльлэн
коралл
кораллориза
кораллям
корам
коран
кордон
кореец
кореи
корепанов
корея
кореялэн
кореяын
кореяысь
корзинка
коримборкис
корка
коркае
коркаез
коркаезлэн
корказ
корказы
коркакузе
коркалы
коркалэн
коркан
коркаос
коркаоссы
коркаяз
корнев
корнеи
корнелиус
корнил
корнилов
коробеи
короле
королева
королеваез
королевалэн
королевскои
королевство
королевствое
королевствозы
королевствозылэн
королевстволэн
королевствоысь
королевствоязы
королез
королен
короленко
король
королье
корользы
корольлы
корольлэн
корольлэсь
корольпремьер
короляз
корона
коронавирус
коронавируснои
коронавирусэн
коронаез
короналэсь
коротаев
короткие
корпорациез
корпорацилэн
корпорация
корпус
корпусэз
корректор
корреспондент
корреспондентэз
корсаков
корсика
корт
кортес
кортлэсь
кортэз
корутюрк
корфу
коръе
коряк
кос
коса
коси
космическои
космодром
космодромысь
космонавт
космонавтлэн
космонавтъе
космонавтэз
космопоиск
космос
космослы
космосын
космосэ
косово
косои
косолапово
косон
косонъе
косонэзъя
коста
косте
костенков
костин
костино
кострома
костромка
костюшко
костя
косьтэи
косэ
косэмезъя
косэмъя
косэмын
кот
котельников
котельнич
котлин
котловка
котныр
котов
котону
которая
которого
которое
которои
которую
которые
которыи
которых
котрет
котретсы
котте
котыр
котыраз
котырак
котыре
котырез
котырес
котырти
котырто
котыртэ
котыртэм
котыртэме
котыртэмын
котыръе
котыръяз
котырыз
котырын
котырысь
котькин
котькинлы
котькинлэсь
котьку
котькуд
котькуди
котькызьы
котькытын
котькытысь
котькыч
котьма
котья
кофе
кох
кохлеантес
кохлиода
коч
коче
кочыш
кошка
кошке
кошкем
кошкемез
кошкиз
кошкизы
кошкиллям
кошкись
кошко
кошкон
кошконо
кошкыли
кошкыны
кошкыса
кпк
кпрф
кпсс
краб
краеведческии
краеведческои
краеньке
краи
кралина
кран
красильников
красильниковлэн
красная
красноармеи
красного
красногорск
красногорскын
красногорье
краснодар
красное
краснои
краснокам
краснопе
красносельскои
красноуфимск
красноярск
красноярскысь
красные
красныи
кратер
краткие
краткии
краткое
краткои
крашинъе
краю
края
краі
краљевство
крезь
крезьгур
крезьгурез
крезьгурен
крезьгурзэ
крезьгурлэн
крезьгуро
крезьгурчи
крезьгурчиос
крезьгуръе
крезьгуръя
крезье
крезьчи
креи
кремле
кремль
кремльлэн
кремльын
кремльысь
кремпф
крепосте
крепостез
крепостнои
крепость
крепостье
крепостьлы
крепостьлэн
крепостьын
крепостьысь
крестовоздвиженскои
крестовои
крестовскии
крестоносец
крестоносецъе
крестьян
крестьяниновен
крестьянка
крестьянлэн
крестьянских
крестьянъе
кресьянъе
кривоноговлы
кризис
криминал
крио
криптостилис
крис
кристалл
кристи
кристиан
кристии
кристина
кристофер
крит
критерии
критериос
критериям
критик
критика
критикъе
критические
кришна
кровообращение
кровь
крокодиллы
кромвель
кроме
крона
кронштадт
кропачев
кросс
кроуфорд
круг
кружок
кружоке
кружокъе
крузенштерн
круизнои
крупнеи
крупская
крылов
крылья
крым
крымлэн
крымын
крымысь
ксения
ксенофонтович
ксро
кталаез
ктм
кто
кторыи
ктп
ку
куазез
куазен
куазь
куак
куака
куакаез
куакасин
куако
куакъе
куала
куалекъясь
куалемез
куалемъе
куамын
куамынэти
куанер
куанеръе
куар
куара
куарае
куараез
куараеныз
куаразэ
куараос
куарая
куаро
куарса
куартолэзе
куартолэзен
куартолэзь
куартолэзьысен
куартэи
куарусе
куарчабак
куаръе
куас
куасьмем
куасэн
куатети
куать
куашетэ
куашказ
куашкам
куашкамез
куашкан
куашканэз
куашкати
куашкатон
куашкатэмын
куба
кубалэн
кубаын
кубаысь
кубертен
кубок
кубоказ
кубокез
кубоклэн
кубрик
кубыз
кувеи
куд
кудаз
куддыр
куддыръя
кудз
кудзэ
куди
кудиз
кудозт
кудрявцев
куду
кудъе
кудымкар
кудымкарын
кудымкарысь
кудымульы
кудэныз
куеда
кужмо
кужмоез
кужмысь
кужым
кужымаз
кужыме
кужымез
кужымен
кужымзэ
кужымзэс
кужымлэн
кужымъе
кузе
кузебаево
кузебаи
кузебая
кузез
кузесь
кузин
кузнецов
кузнецова
кузон
кузонлэн
кузонозь
кузонын
кузонысь
кузонэ
кузонэз
кузпалъе
кузпалъяське
кузпалъяськемез
кузпалъяськемын
кузпалъяськиз
кузпалъяськизы
кузпалъяськонзы
кузпалыз
кузпалэныз
кузь
кузьгес
кузьда
кузьдала
кузьдалаез
кузьдалаезъя
кузьдалазы
кузьдалазэ
кузьма
кузьмаз
кузьмам
кузьмин
кузьминка
кузьминых
кузьмич
кузьмовырскои
кузьыли
кузьым
кузьымгурт
кузьымгуртын
кузьымъе
кузьыт
кузя
кузялэс
куи
куинез
куинети
куинн
куинь
куинькар
куиньмети
куиськись
куиськон
кук
куке
кукмор
куко
кукуруза
кул
кулак
кулакова
кулаковалэн
кулакъе
кули
кулига
куликов
кулон
кулонэз
култер
културазэс
кулыса
культиварез
культпросвет
культура
культураез
культураен
культуразы
культуразылы
культуразэ
культуразэс
культуралы
культуралэн
культуралэсь
культураос
культурая
культурно
культурное
культурнои
культурныи
культуролог
культуры
кульчое
кульчоосыз
кулэ
кулэез
кулэлыксэ
кулэм
кулэмез
кулэмъе
кулэмын
кулэсь
кулэяськонъе
кулюшево
кулябино
куляшов
кум
кумык
кумырса
кун
кунгож
кунгожазы
кунгожез
кунгожезлэсь
кунгожети
кунгожзы
кунгожсьо
кунгожъе
кунгур
кунгурцев
кунзэс
кункат
кункатэз
кункышетэз
кунлы
кунлэн
кунлэсь
кунмурт
кунмылэн
куное
кунокуа
куноос
куноосты
куноосыз
кунпуслэн
кунпуссэ
кунпуш
кунсткамера
кунсьо
куншет
куншетлэн
куншетсэ
куншетэз
кунъе
кунын
кунысь
кунэ
кунэз
кунэн
куняев
кунян
куо
купанча
купер
купец
купецлэн
купецъе
купеч
куплет
купол
куполэз
куприн
кур
курадз
куратов
курган
курд
куре
курег
куреггурт
курегпуз
курегъе
курез
курем
курень
кури
куриз
куризы
куристику
курлэн
куро
курон
куронъе
курорт
курортнои
курсе
курсив
курск
курсъе
курт
куртизанка
курув
курчатов
курчум
курыны
курыса
курыт
курья
кус
кускерттон
куско
кускоквимысь
кускылиос
кусо
куспазы
куспо
куспын
куспысь
кустарь
кусып
кусыпсы
кусыпъе
кут
кутаиси
кути
кутлы
куто
кутон
кутоно
кутоншур
кутске
кутскем
кутскемез
кутскемен
кутскемзы
кутскемын
кутскиз
кутскизы
кутскиллям
кутскисье
кутско
кутскон
кутсконаз
кутсконазы
кутсконзэ
кутсконлы
кутсконо
кутсконозяз
кутсконэз
кутскыку
кутскыли
кутскыны
кутскыса
кутскытозь
кутузов
кутчало
кутъе
кутык
кутыло
кутыны
кутыса
кутэ
кутэз
кутэм
кутэмлэсь
кутэмын
кутюрье
кутянова
кухня
куцкеп
куч
кучер
кучыран
кушем
кушето
кушти
куштыны
куштыса
куштэ
куштэм
куштэмын
кушъе
кушья
куэз
куэм
куэмын
куюк
куявия
кхмер
къя
кы
кыдаз
кыдаты
кыде
кыдо
кыдысь
кыз
кызети
кызъе
кызыл
кызылырмак
кызь
кызьпу
кызьпулэн
кызьпуос
кызьы
кыи
кык
кыказ
кыква
кыкез
кыкети
кыклы
кыкназы
кыкрак
кыкто
кыктэти
кыл
кылбугор
кылбур
кылбуран
кылбурез
кылбурен
кылбурет
кылбуретлэн
кылбурзэ
кылбурчи
кылбурчиез
кылбурчиен
кылбурчилы
кылбурчилэн
кылбурчиос
кылбурчиослэн
кылбуръе
кылди
кылдо
кылдоз
кылдон
кылды
кылдыны
кылдыти
кылдыто
кылдытон
кылдытонлы
кылдытоно
кылдытонъя
кылдытонэ
кылдытонэз
кылдытъяз
кылдытъян
кылдытыны
кылдытыса
кылдытэ
кылдытэм
кылдытэмен
кылдытэмын
кылдытэт
кылдытэтлэн
кылдытэтъе
кылдытэтысь
кылдытэтэ
кылдытэтэн
кылдэ
кылдэм
кылдэмез
кылдэмзы
кылдэмзэ
кылдэмъе
кылдэмын
кыле
кылем
кылемез
кылемъе
кылемын
кылзи
кылзы
кылзыны
кылзыя
кылзэ
кылзэс
кыли
кылиз
кылизы
кылле
кыллизы
кыллись
кыллы
кыллэн
кыллэсь
кыллюкам
кыллюкамлэн
кыллюкамъе
кылосбуръя
кылрадъянэз
кылсьо
кылсярысь
кылт
кылтодон
кылтодонъя
кылтодосчи
кылтэм
кылчи
кылчиос
кылъе
кылъя
кылыз
кылын
кылысь
кыльы
кыльыны
кыльыса
кылэ
кылэз
кылэн
кымес
кымесо
кын
кыны
кыр
кыргыз
кыргызскии
кыргызстаным
кыретэз
кырз
кыркларели
кырме
кырмиськиз
кырныж
кырпарсь
кыршехир
кырыккале
кыске
кыскем
кыскемын
кыскиз
кыскизы
кыскись
кыско
кыскон
кысконъя
кыскыны
кысти
кысь
кыт
кыти
кытчы
кытын
кытысь
кыч
кышет
кышетсэс
кышетъе
кышка
кышкан
кышкасьтэм
кышкатэк
кышкыт
кышкытлык
кышкыттэмлыкъя
кышно
кышноез
кышноеныз
кышномурт
кышномуртлэн
кышномуртъе
кышноос
кышнояськемын
кышнояськиз
кышъяны
кыэсь
кьявик
кэи
кэтрин
кэш
кюрасао
кюри
кютахья
кюхельбекер
л
ла
лаагна
лабораториен
лабораторияз
лав
лава
лавр
лаврентии
лаврентия
лавров
лагере
лагерстро
лагерь
лагерье
лагерьзы
лагерьын
лагуново
лагуш
ладен
лазарев
лазарь
лазернои
лазы
лаи
лаишево
лакку
лалели
лама
ламберт
лан
ландшафт
ланка
ланкаысь
лаос
лаослэн
лапажерия
лапег
лаптев
лаптевъе
лапшин
лариса
ларнака
ларри
ларс
лас
ласло
ласнамяэ
ласнамяэлэн
ласянь
лат
латви
латвилэн
латвиын
латвиысь
латвия
латгали
латин
латиница
латиницае
латиницалэн
латинскии
латтер
латыш
латышскии
лауреат
лауреатсы
лауреатъе
лауреатэз
лаури
лах
лахти
лахтиысь
лач
лаын
лди
лдпр
лдэт
лдэтэз
ле
лебедев
лебедева
лебедь
лев
леверье
леверьелэн
левитан
левои
леву
легенда
легендарнои
легионлэн
легко
легкоатлет
леди
ледлы
ледокол
ледыз
лез
леи
лек
лекарственные
лекез
лекомцев
лектор
лектории
лекторъе
лектыш
лекции
лекциос
лели
лелия
лем
лемлет
лемтэи
лен
лена
ленд
лендс
лени
ленин
ленина
ленинград
ленинградлы
ленинградлэн
ленинградскои
ленинградын
ленинградысь
ленинградэ
ленинградэз
ленинлы
ленинлэн
ленино
лениногорск
ленинскии
ленинскои
ленинъя
лента
ленцлэн
лео
леон
леонард
леонардо
леоне
леонид
леонидович
леонидовичлэн
леонидовна
леонов
леонора
леонтьев
леопольд
лепантес
лепантопсис
лептотес
лер
лермонтов
лермонтовлы
лермонтову
лесная
лесничество
лесничестволэн
леснои
лесопункт
лесотехническои
лесото
леспромхоз
леспромхозъе
леся
лет
летию
летнее
летописье
леу
лех
лещинскии
лзэ
ли
либерально
либеральнои
либерия
либкнехт
либо
либревиль
лив
ливан
ливанлэн
ливанов
ливанын
ливии
ливилэн
ливингстон
ливиын
ливиысь
ливия
ливъе
лига
лигазы
лигаын
лигаязы
лигенграбеысь
лигур
лида
лидаын
лиде
лидерства
лидеры
лидея
лидия
лиза
лии
ликасте
ликвидамбар
ликиангысь
ликсом
лилия
лилонгве
лимон
лина
лингала
лингвист
лингвистика
лингвистикая
лингвистическои
линеи
линиын
линия
линкольн
линкор
линкъе
линнеи
линус
линь
лион
липет
липето
липетъе
липецк
липовка
липовои
лирик
лирика
лирико
лирическои
лисса
лиссабон
лиссабонысь
лист
лисянскии
лит
литва
литвалэн
литваос
литваысь
литеи
литератор
литераторъе
литература
литературае
литератураез
литератураен
литературалы
литературалэн
литературатодосчи
литератураын
литератураысь
литературая
литературная
литературно
литературного
литературнои
литературныи
литературовед
литературы
литовскои
лихтенштеи
лиц
лица
лицеи
лицензии
лицензиос
лицензирование
лицензия
личи
личнои
личности
личных
лишь
лия
лкин
ллои
ллы
ллэн
ллэсь
ллям
лме
лмем
лмемез
лмемын
лмиз
лмизы
лмон
лмыны
лмыти
лмытон
лмытонъя
лмытыны
ло
лоба
лобан
лобанов
лобань
лобась
лобаськыи
лобачевскии
лобез
лобз
лобись
лобо
лобос
лобыса
лов
лова
лович
ловка
ловск
ловское
ловскои
логика
логическои
лого
логолэн
логотип
логотипез
логотипсы
логотипъе
лодка
ложбан
ложкин
лоза
лозо
лозое
лозунгез
лои
лок
локализованном
локальныи
локамп
локе
локез
локк
локлы
локлэн
локомотив
локсы
локъе
локын
локысь
лоллэз
лолошур
ломе
ломоносов
лон
лондон
лондонын
лондонысь
лор
лорд
лорен
лори
лориос
лос
лотарингия
лох
лошадь
лпери
лскем
лскемез
лскемын
лсконъе
лскыса
лта
лти
лтэмезъя
лтэмзыя
лтэмъя
лтэт
лу
луанда
луба
луганск
луговои
луд
лудз
лудзя
лудкеч
лудорваи
лудошур
лудч
лудъе
лудъюбер
лужанин
луз
лузь
луи
луиджи
луиз
луизиана
луизы
луиллям
луис
луисын
луись
луисьтэм
лука
лукас
лул
луло
лулос
лулосъе
лулпу
лулпулэн
лулпуос
лулчеберез
лулчеберет
лулчеберетлы
лулчеберетлэн
лулчеберетъя
лулчеберетэз
лулчеберлыко
лумпун
лумпунь
лумпур
луна
луначарскии
луо
луое
луоен
луоз
луозы
луон
луонлык
луонлыкез
луонлыкъе
луоно
луонтэм
луппов
лусака
лусон
лутоха
луч
лучше
лучших
лушкамын
лушканы
лушкем
луы
луыли
луымтэ
луыны
луыса
луысал
луэ
луэм
луэмез
луэмезъя
луэмен
луэменыз
луэмзы
луэмзэ
луэмзэс
лъе
лъяз
лы
лыд
лыдз
лыдзисье
лыдзы
лыдзыя
лыдзэс
лыдлэн
лыднимъе
лыдпус
лыдпусъе
лыдъе
лыдъем
лыдъя
лыдъяз
лыдъязы
лыдъяллязы
лыдъяло
лыдъямын
лыдъян
лыдъяны
лыдъяса
лыдъясь
лыдъяське
лыдъяськиз
лыдъяськизы
лыдъяськись
лыдъясько
лыдъяськыны
лыдъятэк
лыдыз
лыдызъя
лыдын
лыдэ
лыдэз
лыз
лык
лыко
лыкти
лыкто
лыктыны
лыктыса
лыктэ
лыктэм
лыктэмъе
лымшор
лымшораз
лымшорез
лымшорлань
лымшорпал
лымшорын
лымшорысен
лымшорысьтыз
лымы
лын
лынваи
лынга
лып
лысву
лысенко
лысо
лыстэм
лысь
лысьо
лысьтызы
лыткин
лышмор
ль
льбашы
львов
львович
львовысь
льд
льевич
льлэсь
льн
льнозавод
льо
льреи
льштаи
льюис
лэз
лэзе
лэзем
лэземын
лэзиз
лэзизы
лэзьы
лэзьымтэ
лэзьыны
лэи
лэм
лэн
лэсти
лэсь
лэсьти
лэсьто
лэсьтон
лэсьтонлы
лэсьтонъя
лэсьтонын
лэсьтонэ
лэсьтонэз
лэсьтыли
лэсьтымтэ
лэсьтыны
лэсьтыса
лэсьтэ
лэсьтэм
лэсьтэмын
лэся
лэчыт
любви
любимов
любимыи
любич
люблин
любляна
любовь
любое
любои
любом
любуш
любушка
люга
людвиг
людвик
людеи
люди
людмила
людовик
людях
люк
люка
люказ
люказы
люкам
люкамъе
люкамын
люкан
люканы
люкаса
люкась
люкаське
люкаськем
люкаськемъе
люкаськиз
люкасько
люкаськон
люкаськыли
люкаськыны
люкваи
люке
люкем
люкемын
люкен
люкет
люкетаз
люкети
люкетлы
люкетлэн
люкетлэсь
люкетсы
люкетсэ
люкетъе
люкетын
люкетысьтыз
люкетэ
люкетэз
люкетэзлэн
люкетэныз
люкиз
люкизы
люкиське
люкиськемез
люкиськемын
люкиськиз
люкисько
люкиськон
люкиськыны
люкмы
люкмые
люко
люкон
люконтэм
люкс
люксемб
люксембург
люксембурглэн
люксембургысь
люкшудья
люкыло
люкыны
люкыса
люм
люмьер
люсия
лютер
лютеран
лютеранскои
люция
ляб
лябз
лягуша
ляд
ляк
лякиськем
ляли
ляльшур
ляля
лямин
ляпунов
ляэне
ляэнемаа
м
ма
маантеэ
мавзолеез
мавзолеи
маврикии
мавритания
магадан
магазин
магазинлэн
магазинъе
магас
магеллан
магистр
магистраль
магистральлэн
магистральнои
магнит
магнитофонлы
магнолия
магнолияос
мадагаскар
мадагаскарлэн
мадагаскарын
мадагаскарысь
мадам
маде
мадеи
мадиськонъе
мадонна
мадрид
мадридысь
мадьяр
мадьярабъе
мадьяръе
мае
маеньке
маз
мазама
мазовия
мазунино
мазунинскои
мазурия
маи
маин
мак
макак
макао
макаров
макарово
маке
македон
македониысь
македония
македонскии
македонскои
макем
макеос
макиавелли
маковскии
макроэкономика
макс
максвелл
максиллария
максим
максимальныи
максимилиан
максимино
максимлен
максимлэн
максимов
максимович
макшаки
малабо
малави
малагасии
малаи
малакка
малакология
малаксис
малатья
малахит
малая
мале
маленков
маленькая
мали
малимиут
малинин
малиновка
малиново
малков
малмыж
малопургинского
малпа
малпаз
малпазы
малпаи
малпаллям
малпало
малпам
малпамзыя
малпамтэ
малпамъе
малпамын
малпан
малпанзэ
малпанзэс
малпанъе
малпанъя
малпаны
малпанэ
малпанэз
малпаса
малпаське
малпаськон
малпаськыны
малы
малые
малыи
малых
мальдив
мальдивысь
мальта
малярия
маляшов
мама
мамадыш
мамин
мамлюк
мамонтов
мамонтова
мамык
ман
манавгат
манагуа
манама
мангостан
мангуст
мандатъем
мандела
мандир
мандрил
мане
манет
манетъе
манетъем
мание
манила
маниса
манифест
манифестсэ
манифестэз
манн
маннинен
манси
мансии
манул
манш
мао
маори
мапуту
мар
мара
марасан
марат
марафон
марбург
марваретдиновна
маргарет
маргарита
мардин
маре
марз
мари
мариана
мариенгофен
марии
мариинскои
марина
маринер
марино
марис
мария
мариялэн
марк
марка
маркаем
маркалэн
маркес
маркиз
марко
марков
маркони
маркс
марксизм
марксизмлэн
марксист
марксистскии
марксистъе
маркслэн
марлен
марлон
марокко
марокколэн
мароккоын
марс
марсель
марслэн
марслэсь
марсоход
март
марта
марте
мартен
мартин
мартинес
мартиника
мартти
мартьяново
мартэ
марфа
марченко
марш
маршак
маршал
маршалл
маршаллия
маршалэз
маршез
маршрут
маршрутлэн
маршрутъе
маршрутъя
маршрутэз
марья
марьянои
масеру
масковои
масло
маслюков
масс
масса
массаез
массачусетс
массачусетсысь
массив
массовои
массон
мастер
мастерскои
мастерскояз
мастеръе
масхадов
мата
матаи
матвеев
матвеевич
матвеи
математик
математика
математикая
математическои
материал
материале
материалист
материалов
материалъе
материалы
материальнои
материалэз
материк
материкъе
мати
матиас
матильда
матисс
матч
матчез
матын
матынгес
матысез
матысь
матысьгес
мать
матье
матэ
маунт
мафун
махабхарата
махал
махатма
махачкала
махди
махмуд
махно
махфуз
мацуо
маш
маша
машина
машинаез
машинаен
машинаос
машинаосты
машинаосыз
машинист
машинного
машинныи
машиностроительнои
машур
мая
маяк
маяковскии
мбабане
мбази
мбуз
мвд
мгновении
мгу
мгц
ме
мебель
мед
меда
медаз
медалез
медален
медаленыз
медали
медаль
медалье
медам
медве
медведев
медведева
медведцев
меделэн
медиа
медиевист
медик
медицина
медициная
медицинскои
медичи
медла
медло
медныи
медпункт
межвуз
межд
между
международныи
межконтинентальнои
межпланетнои
межраи
межрег
межрегиональнои
межшкольнои
мез
меи
меир
мекка
меконг
мексика
мексикалы
мексикалэн
мексикаын
мексикаысь
мексико
меллерн
мельников
мельникова
мемие
мемориал
мемориальнои
мемуарист
менделеев
менделеевск
мендельсон
мендерес
менеджер
менее
мензелинск
менсадык
меньи
меньшеи
меню
меня
мер
мера
мере
мерзляков
мерзы
меридианлэн
мерита
мерия
меркель
меркурии
мерлыко
мерлэн
мерриамлэн
мерседес
мерсин
мертан
мертчан
мертэтъе
мертэтэз
мессье
мест
места
местного
местное
местнои
место
месяц
месяца
месяцев
месяцы
мета
метаболизм
метагалактика
метакатегории
метакатегориос
метал
металлист
металлическои
металлоизделиос
металлург
металлургическии
металлургическои
металлургия
металлургияя
металлургъе
метеорит
метеоролог
метеорологическои
метеорология
метка
метов
метод
методика
методикая
методист
методическои
методы
метр
метра
метрическои
метрлы
метрлэсь
метро
метрозь
метролэн
метромост
метропол
метрополитен
метрополитенлэн
метротрам
метроын
метръем
метрын
мефодии
механик
механика
механикая
механическии
механическои
мехико
мехикоын
мехикоысь
меценат
меццо
меч
меченосецъе
мечетез
мечеть
мечетье
мечетьез
мечетьлэн
мечетьын
мешер
мешерпочинка
мещанин
мзэ
ми
миг
мигель
мидзу
миз
мии
мик
мика
микеланджело
микелон
микки
микко
миклош
миколаи
микоян
микробиолог
микронезилэн
микронезия
микрораи
микроскоп
микроформаты
мила
миланын
миланысь
милемлы
милитина
миллиард
миллиардер
миллиардозь
миллион
миллионлэсь
миллионозь
милль
мильтония
миля
милям
мин
миндэр
минерал
минеральнои
мини
министерство
министерстволэн
министр
министрез
министрлэн
министрлэсь
министръе
миннигараев
минск
минскын
минут
минутскын
минутэ
миокарда
миопатии
мир
мира
мире
миреи
мири
мирикина
мирнои
мирныи
мировая
мировои
миронов
миру
миссионер
миссисипи
миссия
миссури
митинг
митинге
митингъе
митреи
митрополит
митрофан
митрофанов
миф
мифи
мифологиын
мифологиысь
мифология
мифъе
миха
михаи
михаил
михаиллэн
михалков
михаэль
михеев
михримах
мичиган
мичоаканысь
миша
мишель
мишин
мишкино
мия
мк
мка
мкаос
мкин
младенец
млекопитающие
млн
млрд
мм
мммм
мне
мнение
мнением
многие
многих
много
многопользовательскии
множественного
мо
мобаш
мов
могадишо
могз
могиле
могли
могу
могут
мода
моделез
модель
модельер
модельзэ
модерн
модест
модос
модослэн
модосо
модосъе
модосэз
модулеи
модули
модуль
модуля
моеи
можга
можгалан
можгалась
можгалэн
можгаын
можгаысь
можгинскии
можеи
может
можете
можно
мозамбик
мозг
мозеле
мозель
мозмыти
мозмыто
мозмытон
мозмытыны
мозмытэм
мозмытэмын
мои
моим
моисеев
мокша
мокшэрзянь
мол
молдав
молдавилэн
молдавиысь
молдавия
молдавскои
молекулярнои
молоде
молоко
молот
молотов
молчанов
мольер
мольк
момент
мон
мона
монако
монархиез
монархия
монархъе
монастырез
монастырь
монастырьзы
монастырьлэн
монастырьын
монастырьысь
монах
монахез
монахъе
монблан
монгол
монголилэн
монголия
монголъе
монгольфье
монд
моне
моника
монитор
монографизэ
монографиос
монографиослэн
монография
мономах
монро
монровия
монтаж
монтесума
монтсеррат
монумент
монументалист
монументъе
монья
монэ
мор
морав
морак
мораль
морган
моргунов
мордва
мордовилэн
мордовиын
мордовиысь
мордовия
море
мореплаватель
морж
моржъе
морзе
мориа
мориалэн
морис
мориц
мормолика
мороженои
морозов
морони
морскои
морфология
моряк
морякъе
мос
москва
москвае
москваез
москвалэн
москваын
москваысь
москве
москворецкои
москвы
московская
московскии
московскои
мост
мостовое
мотивъе
мотивы
мотик
мотоблокъе
мотовилиха
мотозаводлэн
моторола
мотоцикл
мотоциклъе
моту
мохаммед
моцарт
моя
мпу
мрамор
мс
мск
мстислав
мтрк
мтс
мтэм
му
мубарак
муважи
муво
мувыр
муг
муганза
мугез
мугла
мугор
мугорез
мугоро
мугорыз
мугорызлэн
мугъе
мудор
мудорез
мужбер
мужваи
мужскои
мужчина
музее
музеез
музеи
музеяз
музон
музъем
музъемаз
музъемвис
музъеме
музъемез
музъемезлэн
музъемен
музъемети
музъемзэ
музъемлы
музъемлэн
музъемлэсь
музъемти
музъемул
музъемъе
музъемын
музъемысь
музъемэти
музыка
музыкальнои
музыкант
музыкаын
музыки
музыковед
муи
мукаранге
мукет
мукетаз
мукетъе
мукетыз
муко
мукож
мукожез
мукожлэн
мукожъе
мукожын
мукожысь
мукура
мукши
мултан
мултанын
мултанысь
мултанэ
мултэс
мультимедиа
мультипликатор
мультсериал
мультфильм
мультфильмлэн
мультфильмъе
мульшур
мульы
мульыез
мульыосыз
мулэн
мумбаи
муми
мумы
мумыез
мумыезлэн
муне
муниципал
муниципалитетъе
муниципального
муниципальнои
муниципальным
муниципальных
мунк
мункачи
мунтжак
мунчо
мунчогурт
муныр
мунырез
мунырысь
муос
муосты
муп
мур
муравье
муравьи
мурама
мурамби
мурат
мургес
мурдалаез
мурез
муресазь
мурж
мурманск
мурт
муртлы
муртлэн
муртлэсь
мурто
муртъе
муртъем
муртысь
муртэ
муртэз
муруган
муса
мусалимов
мусанзе
муско
муское
мускоез
мусколы
мусколэн
мусколэсь
мускоын
мускоысь
мускус
мускуснои
муслюмово
мусор
мусора
мусоргскии
муссолини
муссолинилэн
мустаев
мустакиви
мустамяэ
мустафа
мусульман
мусульманъе
мутусэз
муха
мухавец
мухамедгарифович
мухаммед
муханга
мухина
муш
муша
мушак
мушбыдти
мушек
мушковаи
мушъе
муэз
мфа
мцхета
мъе
мы
мыд
мыдлань
мыз
мыи
мыл
мыла
мылазь
мылемез
мылкыд
мылкыдзыя
мылкыдзэ
мылкыдзэс
мылкыдо
мылкыдъе
мылкыдыз
мылкыдызъя
мылкыдын
мылкыдэз
мыло
мылысь
мымон
мын
мынам
мында
мыни
мыно
мынон
мыныку
мыныкуз
мыныкузы
мыныли
мыным
мыныны
мыныса
мынэ
мынэм
мынэмзы
мыр
мырдэм
мырз
мырк
мыс
мыса
мыслитель
мысль
мыт
мыти
мыто
мытыса
мытэ
мытэмын
мышь
мьянма
мьянмалэн
мьянмаын
мьянмаысь
мэи
мэн
мэр
мэрез
мэри
мэриленд
мэрлин
мэтт
мю
мюзикл
мюллер
мюмла
мюнстер
мюнстерын
мюнстерысь
мюнхен
мюнхенын
мюнхенысь
мюрреи
мягкии
мясокомбинат
н
на
набережнои
навигации
навигационнои
навигационные
навигацию
нагиб
наговицын
наговицына
наградаосыз
наградаосын
наградить
награды
над
наде
надежда
нади
надо
нае
нажмите
наз
назад
назаров
назвали
название
названием
названии
названию
названия
назначение
наи
наиболее
наибольшее
наибольшеи
наименование
наись
налим
наличие
нальчик
налэн
нам
намер
намерениях
наместничество
нами
намиб
намибиысь
намибия
намык
нань
наньысь
нап
написания
написать
напишите
наполеон
наполеонлэн
напольских
напоминаем
напра
направленилы
направленилэн
например
напряжение
напрямую
нарва
нарды
наречие
нарком
наркомания
наркоматлэн
народ
народа
народная
народного
народное
народов
народоволецъе
народы
нарушение
нарушения
нарьян
нас
наса
насекомые
населе
население
населения
населенных
насер
насибуллин
насибуллина
насир
наскаысь
наследие
наста
наставники
настольнои
настоящего
настоящее
настоящии
настроек
настрои
наступательнои
настя
насьток
натали
наталия
наталь
наталья
наташа
нати
нато
натуралист
натуральная
натуральнои
наук
наука
наукае
наукаез
наукаен
наукалы
наукалэн
науканысь
наукаос
наукаослэн
наукаосъя
наукаын
наукая
науки
науклуфт
науру
науч
научн
научно
научного
научнои
научныи
нахан
нахимов
находится
находить
находятся
находящиеся
нацизмо
нации
национализация
национализм
националист
националистъе
национальная
национально
национального
национальнои
национальном
национальность
национальностье
национальныи
нациослэн
нацист
нацистскои
нацистъе
начал
начала
начале
начало
началось
начальникез
начальнои
начать
начертание
начиная
наш
наша
наше
нашего
наши
нашим
нашу
наын
наысь
ная
нг
нгома
нгорореро
ндебеле
нджамена
ндия
ндр
ндрович
не
неаполитан
небо
небоскре
небыт
нев
нева
невада
неверен
невилл
невис
невропатолог
невскии
невскои
невшехир
него
недели
неделю
неделя
недоедание
недостающие
нее
незаверше
независимостез
независимость
независимостьсэ
независимых
неи
неизвестно
неизвестныи
неизменнои
неименованныи
неименованным
некатегоризованные
неккар
некорректное
некорректные
некоторые
некоторых
некрасов
нелли
нельзя
нельсон
нем
неман
немаркированная
нематоцерас
немба
немет
немец
немецкии
немецком
немецъе
немирович
немрут
нен
ненападение
ненец
ненэн
необходимо
необходимости
необходимые
необязательные
необязательныи
неоднозначность
неон
неопределеннои
неофициальныи
неофолк
непал
непалын
непалысь
нептун
нептунлэн
непуста
нер
нервная
нерез
нерлэн
нерон
неру
нерчи
нерчиос
неръе
нескольких
несколько
несмотря
нестеров
нестерович
нестор
несторъе
несут
нет
нетерпением
нетривиальные
нефе
нефтебазинскои
нефтекамск
нефтемаш
нефть
нефтянои
нехај
нечкино
нзы
ни
ниагара
ниамеи
нибудь
нива
нигде
нигер
нигерия
нигра
нидерл
нидерланд
нидерландлэн
нидерландлэсь
нидерланды
нидерландын
нидерландысь
ниж
ниже
нижнее
нижнеи
нижнекамск
нижнекамскои
нижнекамскысь
нижние
нижнии
нижняя
низм
ник
никак
никарагуа
никарагуалэн
никвлад
никита
никитин
никитина
никифор
никифорович
никколо
ников
никовлэн
никогда
никола
николае
николаев
николаевич
николаевна
николаевнаен
николаевскои
николаи
николас
никольскои
николя
никонов
никополь
никосия
никотин
никсон
никто
никулин
никъе
нил
нильгау
ним
нима
нимаз
нимазы
нималлязы
нималлям
нимало
нимам
нимамын
ниманы
нимаса
нимаське
нимаськиз
нимаськись
нимасько
нимаськыны
нимвоштосъе
нимез
нимзы
нимзылэсь
нимзэ
нимзэс
нимкылъе
нимлыко
нимлэн
нимо
нимтулыз
нимфалида
нимъе
нимъем
нимыд
нимыз
нимызлэн
нимызъя
нимын
нимыныз
нимысьтыз
нимэз
нин
нина
нискыланъе
ниуэ
них
ницше
ничего
ниэл
ния
ниязов
нка
нквд
нки
нланд
нлы
нлэн
нлэсь
нная
нни
ннилэн
нного
нное
ннои
нном
ннунал
нные
нныи
нным
нных
но
нобель
нов
нова
новая
новгород
новгородын
новгородысь
новеи
нович
новичков
новна
ново
нововятск
нового
новогорское
новое
новои
новом
новомихаи
новороссии
новосибирск
новостеи
новости
новостроительныи
новость
новошешминск
новую
новые
новыи
новых
новь
ногаи
ное
нои
нок
нокин
нокинлы
ноку
нокызьы
нокытын
нокыч
нолинск
ноль
номер
номера
номераз
номерами
номерез
номерзэ
номеро
номеръе
номинациын
номыр
номыре
номырин
нонен
нонись
нонна
норвег
норвеги
норвегилэн
норвегиын
норвегиысь
норвегия
норвежскии
норд
нордернаи
нордман
норм
норт
норфолк
норъя
норья
носков
носорог
нотгельд
нотофагус
нотр
ночь
нош
ноябре
ноябрь
ноября
нп
нпал
нпот
нс
нск
нт
нтэм
ну
нуакшот
нувас
нужно
нужны
нужных
нуиз
нуизы
нуись
нуисье
нуиське
нулдэ
нулевои
нулли
нуллин
нулло
нуллон
нуллыны
нуллэ
нумерация
нумерованные
нумыр
нумырез
нумыръе
нунавутлэн
нунавутын
нуназе
нунал
нуналаз
нуналзы
нуналзэ
нуналзэс
нуналлы
нуналлэн
нуналмысь
нуналозь
нуналскын
нуналъе
нуналъем
нуналыз
нуналысь
нуналэ
нуналэз
нуналэн
нуналэныз
нунивакысь
нунналы
нуны
нуо
нуон
нуонъе
нур
нури
нурлат
нуук
нуыли
нуыны
нуэ
нуэм
нуэмын
нц
нцын
нчханын
нштеи
нъе
нъя
ны
нывуӄаӷмит
ные
ныз
ныи
ныл
нылаш
нылаше
нылашез
нылга
нылзы
нылзэ
нылкышно
нылкышномурт
нылкышноос
нылкышноослы
нылкышноослэн
ныллэн
нылмурт
нылмуртлэн
нылпи
нылпие
нылпиез
нылпиос
нылпиослы
нылпиослэн
нылпиослэсь
нылпиоссэ
нылпиосты
нылпиосыз
нылпиосын
нылъе
нылыз
нылызлы
ныль
нылэз
нымме
нымы
нын
ныр
ныргында
ныро
нырошур
нырысез
нырысети
нырысь
нырысьсэ
нысен
нысь
нысьтыз
ныша
нь
ньабиху
ньагатаре
ньагисози
ньамагабе
ньамашек
ньамии
ньанге
ньанза
ньаругенге
ньаругуру
ньо
ньтэм
ньыв
ньылез
ньылети
ньылз
ньылпу
ньылпуос
ньыль
нью
ньютон
ньютонлэн
ньюфаундленд
нья
ньяла
ньянджа
нэ
нэз
нэзлэн
нэн
ню
нюжветли
нюк
нюлэс
нюлэскын
нюлэсо
нюлэсъе
нюлэсын
нюлэсэн
нюнорск
нюр
нюрдор
нюрмульы
нюрнберг
нюрнбергысь
нюро
нюръе
нюръяськись
нюръяськисье
нюръяськон
нюръяськонлэн
нюръяськонъя
нюръяськыны
ня
нязь
няк
нялтас
нянез
нянь
нянькина
няняез
о
оао
оар
об
оба
обама
обезьян
обезьяны
обелиск
обеспечен
обеспечение
обеспечению
обеспечения
обеспечить
обетованная
обзор
обиница
обкомезлэн
областез
областеи
области
областнои
область
областьлэн
областьын
областьысь
облегчения
облисполком
облисполкомлэн
облревком
обновле
обновления
обновлениями
обновленному
обозрение
обонятельная
оборона
оборонительнои
обороннои
оборудованизэ
образ
образец
образзэ
образование
образовании
образованилэн
образованиос
образования
образованиям
образом
образцов
образцова
образъе
обратите
обратнои
обратную
обряды
обсерваторилэн
обсерваториын
обсерватория
обслуживать
обсудить
обсуждение
обсуждении
обсуждению
обсуждения
обсуждениях
обучения
общее
общения
общественно
общественное
общественнои
общество
обществое
обществозы
обществозылэн
обществолы
обществолэн
общие
общиналэн
объе
объект
объекта
объектах
объектлэн
объектъе
объекты
объектэз
объявление
объявления
обыда
обыкновенная
обыкновенныи
обычно
обычного
обь
обязанности
обязательно
обязательного
обязательные
обязательным
обязательных
ове
овидии
овражино
овсиенко
овца
ог
ога
огаз
огазе
огазея
огазеяз
огазеязы
огазеям
огазеямын
огазеян
огазеяса
огазеясь
огазеяське
огазеяськем
огазеяськиз
огазеяськизы
огазеясько
огазеяськон
огазеяськоназы
огазеяськонзы
огазеяськонзылэн
огазеяськонлы
огазеяськонлэн
огазеяськонъе
огазеяськонын
огазеяськонысь
огазеяськонэ
огазеяськонэз
огазеяськонэн
огазеяськонэнызы
огазеяськыса
огаи
огаре
огвакытэ
огдыре
огдырлы
огдышем
огедлы
огез
огезлэн
оген
огенызы
огзы
огзылы
огзылэн
огзылэсь
огзэ
огзэс
огин
огинлэн
огинъе
огинын
огинэ
огинэт
огкадесь
огкадь
огкыл
огкылысь
огкылэ
огкылэз
оглом
оглы
оглык
оглыкез
оглюкетсы
оглюкетсэ
оглюкетэз
огназ
огоне
огонек
огонь
огпал
огпала
огпол
оградын
ограничение
ограничения
огсыр
огшап
огшоры
огъе
огъя
огъядышетсконъя
огыр
огырчи
огюст
огюстен
од
одалан
одежда
одежды
одесса
оди
один
одна
однако
одно
однои
одну
одоевскии
одонтоглоссум
одра
оез
ож
ожгар
ожгарчиос
ожгарчиослы
ожгарчиосыз
оже
ожез
ожен
ожеф
ожи
ожирение
ожлы
ожлэн
ожлэсь
ожмаське
ожмаськем
ожмаськемез
ожмаськемзы
ожмаськемын
ожмаськиз
ожмаськизы
ожмаськись
ожмаськон
ожмаськонъе
ожмаськонын
ожмаськонэ
ожмаськыны
ожмаськыса
ожмегов
ожмос
ожти
ожтолэзе
ожтолэзь
ожчи
ожъе
ожын
ожысь
ожыт
оз
озал
озаряи
озгат
озе
озегваи
озеро
озеров
озеф
ознакомьтесь
означает
озон
озы
озь
озьы
озьыен
ои
ока
оканчивающеи
океан
океанилэн
океаниын
океаниысь
океания
океанлэн
океанограф
океанъе
океанын
океанысь
океанэ
океанэн
оки
окилы
окилэн
окинаваысь
оккупантъе
оккупацилы
оклахома
око
около
окончания
округ
округаз
округе
округлы
округлэн
округъе
округъя
округын
округысь
оксана
оксидэз
оксинь
окситан
окситанскии
оксфордысь
октавиан
окти
октыны
октябре
октябрь
октябрьлы
октябрьскои
октябрьысен
октября
ол
ола
олафур
оле
олег
олексан
олексанлэн
оленье
олеша
оливер
олигарх
олимпи
олимпиада
олимпии
оло
олокызьы
олокытчы
олокыч
оль
ольга
ольгыри
ольховка
ольхон
ольштын
ом
оман
омар
омваи
омга
омск
омутнинск
омыр
омыре
омырети
омырлэн
омырын
он
она
онас
оне
онегин
онза
они
онлаи
онлэн
онни
оннои
оно
онс
онтарио
онцидиум
онъе
оны
онын
онысь
онэ
онэз
онэн
оон
ооо
оос
оп
опале
опера
операез
операезлэн
опералэн
операос
оператор
операциез
операционная
операционнои
операциос
операция
операын
операя
опернои
оперы
описание
описаниез
описании
описания
опиум
ополе
ополчение
определе
определено
опрос
опроса
опросах
оптик
оптика
опубликован
опубликованы
опция
опыт
опыта
опытнои
опытных
ор
орангутан
орбитае
орбитальнои
орган
организаторов
организаторы
организациез
организацизы
организацизылэн
организации
организацилэн
организационнои
организациос
организациосын
организация
организациязы
организм
организмъе
организовать
органик
органическои
органы
органэн
орда
ордаысь
орден
ордена
ордензэ
ордензэс
орденлэн
орденъе
орденэз
орденэн
орденэныз
орджоникидзе
орджоникидзевскои
орду
оре
орегон
орез
оренбург
орест
орешник
орж
ориби
орикс
орион
орисабаысь
ория
орк
оркестр
оркестрен
оркестрлы
оркестрлэн
оркын
оркысь
орлов
орлова
орлои
орнитология
оромо
ортаке
ортега
ортче
ортчем
ортчемъя
ортчиз
ортчизы
ортчись
ортчо
ортчоз
ортчоно
ортчы
ортчыли
ортчыло
ортчылэ
ортчылэм
ортчыны
ортчыса
ортчыти
ортчыто
ортчытон
ортчытоно
ортчытъя
ортчытъяз
ортчытъяло
ортчытыны
ортчытэ
ортчытэм
ортчытэмын
оруба
оружеи
оружие
оружиез
орхиднои
ос
осада
осадаез
осака
осакаысь
освальд
освободительнои
осень
осетин
осетинскои
осетия
осиновка
осип
осипов
осипович
оскалти
оскалтон
оскалтонзы
оскар
оскемын
оскиз
оскизы
оскись
оскисье
оско
оскон
осконлэн
осконтэм
осконъе
осконын
осконэз
оскымон
оскыны
оскыса
оскыт
оскыти
осло
осман
османие
османская
основа
основании
основе
основная
основное
основном
основные
основным
основных
основы
особенно
оспа
оссэ
оставили
оставить
остае
остальные
останкино
остеоспермум
остин
острая
остров
острова
островскии
островъе
островын
осыз
осын
от
отамын
отбора
отбору
отв
ответить
ответственности
ответы
отвечает
отвечают
отдел
отделение
отделениез
отделениеныз
отделенизэ
отделенилэн
отделенияз
отделлэн
отдельно
отдельную
отдельные
отдельныи
отдельных
отделэз
отдых
отель
отец
отечественнои
отечеством
отзывам
отзывами
отзывов
отзывом
отзывы
оти
отказаться
откатить
открывается
открыт
открытым
отличие
отличиен
отличник
отменить
отмечены
относительностьлэн
относительностья
отношении
отношения
отображаемыи
отображает
отображается
отображение
отображения
отобраны
отправлено
отрицательнои
отрицательными
отряд
отрядзы
отрядлэн
отрядысь
отрядэз
отставкае
отступ
отступом
отсутствие
отсчет
отсюда
оттава
отто
отче
отчизна
отчы
отын
отысен
отысь
оуэн
оф
офиснои
офисъе
офицер
офицеръе
официал
официально
официальнои
официальном
официальныи
оформить
оформление
оформления
оформленного
офталамин
офтальмолог
офтальмологическии
офтальмологияя
оханнес
охлобыстин
охотскои
оценка
оч
очеи
очень
очер
очереднои
очерк
очеркез
очерки
очеркъе
ош
оша
ошал
ошатон
ошатоно
ошатскизы
ошатско
ошатскон
ошатсконъе
ошатсконын
ошатсконэ
ошатскылэ
ошатыса
ошворцы
ошемын
ошен
ошет
ошибка
ошибочные
ошиськись
ошкар
ошкыт
ошмес
ошмесваи
ошмесъе
ошмесысь
ошмесэз
оштолэзе
оштолэзысен
оштолэзь
оштолэзьысен
ошья
ощепков
п
па
пааво
пабло
павазу
павел
павеллэн
паветта
павиан
павильонлэн
павлин
павлов
павлович
павловния
пагз
падеже
пазь
пазьгемын
пазьгиз
пазьгизы
паи
пак
пакистан
пакистанлэн
пакистанын
пакистанысь
пал
пала
палагаи
палаз
палан
палангес
паланде
паласен
палась
палата
палаталэн
палатка
палау
палган
палдиски
палеолит
палеонтолог
палестина
палестинаез
палестинаын
палестинаысь
пали
палладиез
палладии
паллань
паллян
паллянысен
паллянысь
палозь
палозяз
паломническои
палти
палуоя
палъе
палыз
палын
палысен
палысеныз
палысь
палысьтыз
пальма
пальник
пальшина
палэз
палэзь
палэзьпу
палэназ
палэнти
палэнтон
палэнтыны
палэнтэмын
палэнын
палэнысь
палэнэ
палэнэти
палэсмурт
палэсмуртъе
палэсмуртэз
пампас
памяти
памятник
памятникез
памятникъе
памятные
пан
панама
панамаын
панамаысь
панда
пандемия
пандэми
панель
панжи
панорама
панорамаез
панорамазы
пантелеи
папа
папае
папанов
папи
папилионанте
папуа
пар
парагваи
парад
параллельно
парамарибо
параметр
параметра
параметрами
параметрах
параметре
параметров
параметром
параметру
параметръе
параметры
парашютэн
парвус
парзи
пари
париж
париже
парижлэн
парижын
парижысь
парин
парк
паркер
парклэн
паркъе
паркын
паркысь
паркысьтыз
парламент
парламентлэн
парламентскои
парламентсылэн
парламентэ
парламентэз
парма
паровоз
паровозъе
паровои
пародист
паром
пароход
пароходъе
парсек
парсера
парсь
парсьгурт
партие
партиез
партиен
партиенызы
партизан
партизанъе
партизы
партизэс
партии
партилэн
партилэсь
партиос
партиослэн
партиысь
партия
партне
парусник
парфенон
паръе
пас
паскаль
паспортэзъя
пассажир
пассажирен
пассажирскои
пассажиръе
пасси
пассивнои
пастарель
пастер
пастернак
пастуликысь
пастухов
пастухово
пась
пасье
паськыт
паськытаз
паськытатон
паськытатонъя
паськытатэмын
пасьта
пасьталаез
пат
патент
патерез
патриарх
патриархез
патрик
патриот
патриотическои
патриотъе
патриция
паттанаик
паукообразные
паул
паули
паулу
паулуысь
пауль
паулюс
паутина
пафиния
пафиопедилум
пахиподиум
пахомова
пачкес
паша
пашур
паэ
пе
пегз
педагог
педагоги
педагогика
педагогикая
педагогическои
педагогия
педагогияя
педери
педиатр
пединститутлэн
пединститутын
пединститутысь
пединститутэ
пединститутэз
педор
педпал
педпалась
педро
педтехникуме
педтехникумын
педучилищее
педучилищеез
педучилищеын
пезароысь
пеи
пекин
пекинын
пекуи
пекшур
пелагея
пеле
пеллясь
пель
пельга
пельпум
пельтэм
пен
пенза
пенсие
пенсионеръе
пентас
пентеги
пепельнои
пер
первая
первого
первои
первом
первомаи
первые
первыи
первым
первых
перевести
перевод
перевода
переводе
переводите
переводить
переводом
переводчик
переводы
перевозчиков
перевощиков
перевощикова
перегон
перегонъе
перед
передавать
передае
передача
передачаез
передачалэн
передачаос
передачаоссэ
передачаосыз
передачи
передвижник
переи
переименовать
перекоп
переливать
перем
перемен
перемирие
перенаправление
перенаправлением
перенаправления
перенаправляется
перенести
переноса
перепеч
перепечез
перепечысьтыз
переписи
перепись
переписьын
переписья
перес
пересез
пересмотра
пересмотреть
пересмотру
пересь
пересье
переулок
перечень
период
периода
периодическои
перистерия
периферии
перм
пермскии
пермского
пермь
пермьлэн
пермьын
пермьысен
пермьысь
пермяк
пермяков
пермякъе
пероггурт
пероггуртын
перс
персидскои
персона
персонаж
персонажлэсь
персонажъе
персоналии
персональные
перспективы
пертту
перу
перуын
перуысь
перфоманс
песни
песнь
песня
пестовка
пестрецы
песьтэр
песьтэрзэ
песяез
песянаи
песятаи
пете
петер
петербуг
петербуглэн
петербугын
петербугысь
петербург
петербурге
петербурглэн
петербургские
петербургского
петербургскои
петербургын
петербургысь
петербури
петергоф
петляез
петр
петра
петрарка
петренко
петро
петров
петрова
петрович
петровичлэн
петровлэн
петровна
петровналэн
петровскои
петровъе
петровых
петроград
петроградын
петроградысь
петроградэ
петрозаводск
петропавловск
петропавловскои
петухов
петыр
петыркар
петька
пехота
печате
печати
печатла
печатлаз
печатлазы
печатлам
печатламын
печатланы
печатласа
печатлаське
печатласькизы
печатласько
печатласькыны
печатнои
печать
печатья
печень
печкес
пещера
пещернои
пи
пианиноен
пианист
пибаньшур
пивовар
пие
пиез
пиезлэн
пизы
пизь
пизэ
пии
пикан
пикассо
пикселов
пиле
пилем
пилемъе
пилот
пилотируемои
пилотэн
пильва
пильыслэсь
пимен
пинал
пиналлэн
пиналъе
пиния
пинь
пинье
пиньысь
пинязь
пионер
пионерскои
пионеръе
пиос
пиослы
пиосмурт
пиосмуртлэсь
пиосмуртъе
пиосъе
пиосыз
пиперия
пипу
пирамида
пиренеи
пири
пирита
пирс
писатели
писатель
писателье
писательлэн
писательлэсь
писательница
писать
пислеглуд
пислэг
пислэгъе
писпу
писпулэн
писпуос
писпуосты
писпуэз
пистолет
письма
письменность
письменным
письмо
писэи
питер
питкевич
пихтовка
пичи
пичигес
пичие
пичиез
пичиесь
пичиослы
пичипольша
пичияк
пишите
пишти
пиштэ
пищеварение
пиязь
пияла
пияш
пияшлы
пияшъе
пкс
плакат
плакатэз
план
плана
планета
планетаез
планеталэн
планеталэсь
планетаос
планетаослэн
планетаослэсь
планетарии
планирует
планируется
планк
планъе
планын
планэз
пластмасс
платантера
платистеле
плато
платолэн
платон
платонов
платонова
платоысь
платформа
платформаез
платформалэн
платформаос
пле
плебисцит
плевроталлис
плеи
пленын
пленысь
пленэ
плесси
плеядаос
плиткаен
плотина
плотникова
плотность
плотностьсы
площадез
площади
площадь
площадье
площадьын
площадьысь
плутон
плэсидын
плюс
пляж
пневмония
по
победа
победу
победы
поблагодарить
поваре
поварницын
поведения
повелительнои
повестез
повесть
повестье
повестьлэн
повестьсэ
повестяз
поводу
поволжье
поволжьеысь
поволжья
повстанецъе
повъят
повъятъе
поглян
погода
погония
пограз
пограничнои
погромъе
под
подавать
подачи
подвал
подвидъе
подвидэз
подводнои
подгорное
подгорнои
подгруппа
подданство
поддерживает
поддерживать
поддержка
поддержку
поделились
поделитесь
поделиться
подлеснои
подляшье
подмои
подольск
подольскои
подписаться
подписи
подпись
подпишитесь
подразумевается
подробнее
подробности
подробную
подросток
подряд
подсказки
подтвердили
подурга
подход
подчинениын
подчиненияз
подшивал
подшипник
подшипниковои
подшипникъе
пое
поезд
поездлэн
поездъе
поездэ
поездэз
поездэн
пожаловать
пожалуи
пожарнои
пожарскии
пожелания
пожеланиях
поз
позволяет
позволяла
поздеев
поздеева
позже
позиции
пои
поиск
поиска
пока
показ
показать
показывает
поколение
покров
покровскии
покровскои
покрышкин
покчи
покчиарня
покчиарняе
пол
пола
полагаю
поле
полевои
полиглот
полигон
поликлиника
полина
полинезиын
полинезия
полиомиелит
полистахия
политбюроезлэн
политехническои
политик
политика
политикаен
политикаын
политикая
политики
политикъе
политическая
политическои
политолог
полиция
полищук
полклэн
полковник
полковникъе
полководец
поллы
полного
полнометражнои
полномочиосыз
полностью
полныи
поло
половое
половои
половые
положение
положением
положительнои
полом
полосе
полтава
получать
получение
получения
полученным
полученных
получить
полушариын
полъем
полын
поль
пользователеи
пользователи
пользователь
пользовательскии
пользователя
пользоваться
польша
польшае
польшаен
польшалэн
польшаын
польшаысь
полэн
полэс
полюс
полюсозь
полюсын
поля
поляк
полякъе
поляны
полярнои
померания
помечать
помещаются
помидор
помочь
помощи
помощь
помощью
пони
понина
понино
понна
понназ
поно
пономаре
пононо
поныны
поныса
понэм
понэмын
понятно
понять
поп
попечителеи
попечители
попов
попова
попович
попугаи
популярнои
попытаев
пор
порву
поргурт
пороз
порозово
порошок
порт
порта
портал
портала
порталлэн
порталын
порталэз
портлэн
порто
портовои
портрет
портретъе
портретэз
португал
португалец
португалецъе
португалилэсь
португалиын
португалиысь
португалия
португальскии
портъе
портын
портысьтыз
портэм
порфирии
порше
поршур
поръе
порым
порядке
порядок
посвяще
посе
поселение
поселенилэн
поселениос
поселок
посетите
поскольку
поскре
после
последние
последнии
последними
последняя
последовательнои
последующих
посмотреть
посмотрите
пособие
пособиос
посольство
пост
постановке
постановлениезъя
постановлениын
постимпрессионист
постников
постол
постолка
постсэ
посьтол
пот
пота
потазы
потакуз
поталляз
потам
потан
потаны
потась
потасье
поте
поти
пото
потозы
потом
потон
потонзы
потонэз
потребителье
потти
потто
поттон
поттонлы
поттонъя
поттонын
поттонэз
поттонэн
поттыли
поттылон
поттылэ
поттын
поттыны
поттыса
поттэ
поттэм
поттэмын
поттэтэз
поты
потыли
потыло
потылыны
потылэ
потыны
потыса
потье
потэ
потэм
потэмез
потэмъе
потэмын
поход
походэ
походэз
поч
поче
почему
починка
починок
почта
почталэн
почти
почтовои
поэзии
поэзилэн
поэзия
поэма
поэмаез
поэмазэ
поэмаос
поэмаын
поэмы
поэт
поэтому
поэтъе
поэты
пояса
пояснение
поясъе
пр
прав
права
праваос
правда
праве
правил
правила
правило
правилоос
правилоосты
правительство
правительствое
правительствоез
правительствоезлэн
правительствоен
правительстволэн
правительствояз
править
правки
правление
правлениезлэн
правленилэн
право
правовои
правоез
правозащитник
правои
правок
правоос
правооссы
правооссэ
правооссэс
правоосыз
правоосызъя
правоприменения
православи
православие
православнои
правоя
прага
прагаын
прагаысь
прадеш
праздник
праздники
праздникъе
праздникын
праздникэз
практ
практика
практически
практическои
прая
преамбула
предварительныи
предел
предлагаю
предложен
предложение
предложении
предложения
предложениям
предложенныи
предложено
предложил
предмет
предметъе
предназначен
предназначены
предоставить
предоставлена
предоставление
предприятие
предприятиез
предприятилы
предприятилэн
предприятиос
предприятиосты
председателез
председателезлэн
председатель
представителез
представителеи
представители
представительство
представить
представлена
представление
представлении
представлены
представляет
предстоящих
предупреждения
предыдущее
презентациез
президент
президента
президентаз
президентлэн
президентпремьер
президентскои
президентсы
президентсылэн
президентсэ
президентъе
президентэ
президентэз
президентэзлэн
президиумез
президиумезлэн
президиумлэн
преимущественно
премиез
премиезлэн
премиен
премиеныз
премизэ
премии
премилэн
премиос
премиослэн
премиосыз
премия
премьер
премьера
премьераез
преображение
преображенскои
преск
пресл
пресли
пресмыкающиеся
пресс
престол
престоллэсь
престолэзлэсь
претендуют
претория
префектуралэн
при
прибалтии
приборъе
приведе
приведена
приведены
привет
привлечение
приволжскои
приглашаем
приглашение
пригород
пригороднои
пригородысьтыз
придатко
прие
приз
призе
прии
приказ
прикамская
прикамскои
прикамье
прикладнои
приложение
примат
приматъе
примене
применение
применению
применения
применяется
пример
примере
примеру
примеръе
примеры
примечание
примечании
примечаниос
примечания
приморск
приморскои
принимает
принимаются
принсипи
принц
принцесса
принципъе
принципы
принцлэн
принял
приняли
принятии
принятия
принять
припев
природа
присоединиться
присоединяи
присутствует
притокез
приход
приходскои
приходэ
приче
приштина
приют
про
пробелов
пробелы
проблема
проблемы
проведении
проведения
проверено
проверить
проверка
проверке
проверьте
провинциальнои
провинцилэн
провинциын
провинция
провинцияос
прогимназия
проголосовали
проголосовать
проголосуи
программа
программае
программаез
программазэ
программаос
программаосты
программаосъя
программаосыз
программаын
программая
программирования
программист
программное
программнои
программы
прогресс
продлится
продолжить
продукт
продукциез
продукцизэ
продукция
продюсер
продюсерез
проект
проекта
проектах
проекте
проектлэн
проектнои
проектов
проекту
проектъе
проектъя
проекты
проектын
проектэз
проектэзъя
проектэн
проза
прозаик
прозаын
прои
произведение
произведениез
произведениос
произведениосаз
произведениоссэс
произведениосыз
производные
производственник
производственнои
производство
производствоез
производствоя
произвольным
произношение
происхождение
происхождении
прокатэ
прокопьев
прокопьева
прокофьевлэн
пролетарии
пролетарлары
пролетарскои
пролив
проливен
проливъе
проливын
проливысь
промо
промышленная
промышленник
промышленнои
промышленностез
промышленностен
промышленность
промышленностьлэн
промышленностья
пропагандая
проповедник
прос
просветителеи
просветительская
просветительскои
просвещение
просвещения
просит
просмотр
проспект
проставить
просто
пространств
пространства
пространстве
пространство
пространствоез
простые
протестант
протея
против
противотанковои
протисты
протозоология
протокол
протонъе
прототип
проф
профессионал
профессионалъе
профессиональнои
профессор
профессорез
профессоръе
профиль
профсоюзъе
проходит
проходить
прохоров
прохоровна
процедурен
процент
процентсэ
процентэз
процесс
процесса
процессе
процессор
процессъе
процессы
прочее
прочитаи
прошло
прошу
проще
пруд
пружаны
прусс
пруссия
прусскои
пруст
прю
прямо
псевдоним
псевдонимез
псевдонимъе
псевдэрантемум
психиатр
психическое
психолог
психологи
психологическои
психологияя
психотрия
псков
пскова
псковскои
псковын
псковысь
птаун
птица
птицы
пту
пу
пуанкаре
публии
публикалы
публикации
публикациос
публикация
публицист
публицистика
публичнои
пугаче
пугачев
пуд
пудга
пудем
пудо
пудоез
пуду
пудэм
пужеи
пужые
пужым
пужымо
пужымъе
пужыятыса
пужыятэмын
пуз
пузкар
пузъе
пуи
пуке
пукись
пукисье
пукон
пуконъе
пукроков
пуксе
пуксем
пуксемын
пуксиз
пуксиллям
пуксись
пуксьыны
пуксьытэк
пукти
пукто
пуктон
пуктонлы
пуктоно
пуктыли
пуктыны
пуктыса
пуктэ
пуктэм
пуктэмез
пуктэмезъя
пуктэменыз
пуктэмын
пуку
пукы
пукыч
пул
пула
пулаысь
пулеме
пулитцер
пулково
пулэсь
пум
пумаз
пумазы
пумен
пумиське
пумиськизы
пумиськись
пумисько
пумиськонзы
пумиськонъе
пумиськылэ
пумит
пумита
пумитаз
пумитазы
пумитало
пумитаны
пумитъяськон
пумитъяськыса
пумкыл
пумо
пумозь
пумозяз
пумтэм
пумъе
пумыз
пумын
пумыныз
пумысен
пумысь
пунем
пункт
пунктов
пунктъе
пунктын
пуно
пуны
пуныгурт
пунылы
пуныос
пунэмен
пур
пурба
пурга
пургалэсь
пургаын
пургаысь
пуро
пуромиз
пурысь
пус
пуси
пуста
пустои
пустоллэсь
пустые
пустым
пустыни
пустыня
пусть
пусъе
пусъем
пусъемезъя
пусъемын
пусэз
пусэн
путе
путеводитель
путем
путешественник
путешествие
пути
путилов
путин
путь
пух
пуччини
пуччинилэн
пуш
пушин
пушина
пушка
пушказ
пушкар
пушкари
пушкеслэн
пушкессэ
пушкин
пушкинлы
пушкинлэн
пушкинлэсь
пушкинскии
пушкинскои
пушкинэз
пушкы
пушкыз
пушкын
пушкысь
пушнер
пушпал
пушти
пуштоваи
пуштон
пуштонъе
пуштонэз
пуштрес
пуштроссэ
пуштроссэс
пуштросъем
пуштросэз
пуштросэзъя
пушту
пуштыти
пуштытэмын
пущин
пуэз
пуэн
пуэрто
пфальц
пфеннигъем
пхе
пхеньян
пцигын
пчела
пчеловодова
пчеловодовои
пшемысьль
пшо
пыд
пыдазы
пыдзэ
пыдкутчан
пыдо
пыдултэм
пыдъе
пыдын
пыж
пыжем
пыжон
пыжонъя
пыжъе
пыжыны
пызеп
пызь
пызьлэсь
пыкиське
пыкиськыса
пыкъяськыса
пыкыли
пыльвамаа
пыр
пырак
пыраклы
пырась
пыре
пырем
пыремез
пыремын
пыри
пыриз
пыризы
пыриллям
пырись
пырисье
пыриське
пыриськем
пыриськемез
пыриськемзы
пыриськемъе
пыриськиз
пыриськизы
пыриськись
пыриськисье
пыриськисьес
пырисько
пыриськоз
пыриськон
пыриськыли
пыриськыны
пыриськыса
пыро
пырон
пыронзы
пыронзэ
пыронэз
пырпотэ
пырпотэм
пырталэ
пырти
пырто
пыртон
пыртоно
пыртыны
пыртыса
пыртэ
пыртэмын
пыры
пырыны
пырыса
пырэ
пытсам
пытсамъе
пытсамын
пытсаны
пытсанэ
пытсаськиз
пытсэт
пытсэтлэсь
пытсэтэ
пытьы
пыхья
пыч
пычас
пышкизь
пьер
пьеса
пьесаез
пьесаезъя
пьесазэ
пьесалэн
пьесаос
пьесаосыз
пьетро
пьяццолла
пярну
пярнумаа
пяти
пятигорскын
після
р
ра
рабат
рабиндранат
работ
работа
работает
работать
работают
работе
работник
работу
работы
рабочеи
рабочии
рабочих
рабство
равенства
равна
рад
радаз
радалэн
радиаци
радио
радиоактивнои
радиовещательнои
радиоез
радиожурнал
радиожурналист
радиозавод
радиолэн
радиостанцилэн
радиостанция
радиотехника
радиоын
радиоысь
радиусъя
радищев
радлыкез
радуга
радуница
радъя
радъяз
радъязы
радъяло
радъям
радъямын
радъян
радъянъя
радъяны
радъясь
радъясье
радъяське
радъяськиз
радъяськись
радъясько
радъяськыли
рады
радызъя
радын
радэ
рае
раевскии
раз
разбомбить
разведчик
развитие
развитии
развитию
развития
разговор
раздел
раздела
разделах
разделе
разделитель
разделов
разделъе
разделы
раздельнои
разин
разина
разинлэн
размер
размера
размером
размещение
размножение
разнообразие
разные
разных
разработке
разработки
разумныи
разъезд
разы
раи
раиса
ракета
ракетаез
ракетно
ракетнои
раклы
ракматкуар
рало
рам
рамаяна
рамзан
рамиль
рамках
рамон
раму
ран
ранее
рантасалми
раны
раньше
рапла
рапламаа
раппопорт
раппопортэз
раса
расизм
раскладка
раскладкаос
раскол
расписание
расписаниез
расписанизы
расположенныи
распутин
рассвет
рассел
рассказы
рассмотрение
расставить
расстояние
расстрои
растения
расул
расцветаи
ратификации
ратифицировать
ратуша
ратушалэн
рафал
рафаэль
рахимов
рациональнои
рашид
рашит
рберт
рвамагана
рвимбого
рд
рди
рдскиз
рдь
ре
реактивнои
реакция
реал
реализации
реализацию
реалити
реальнои
реальность
ревель
ревизияя
ревкомлэн
рево
революци
революцие
революциез
революции
революцилы
революцилэн
революцилэсь
революционер
революционеръе
революционнои
революция
рег
регги
регион
региона
региональнои
региональныи
региональных
регионлэн
регионъе
регионы
регионысь
регионысьтыз
регионэ
регионэз
регионэзлэн
регистрациез
регистрации
регистрация
регистрировать
ред
редактирование
редактировании
редактирования
редактировать
редактор
редакторе
редакторез
редакторезлэн
редакторлэн
редакторов
редакторъе
редакционного
редакционныи
редакциын
редакция
редакцияз
редуктор
редукторъе
режим
режиссе
рез
резервнои
резерфорд
резиденциез
резолюциез
результат
результатам
результатах
результатъе
результаты
реи
река
реки
рекомендации
рекомендуем
рекомендуется
реконструкции
рекорд
рекорднои
рекордъе
ректорез
ректоръе
религиознои
религия
религияя
релиз
рельс
рем
ремарк
ремарклэн
рембрандт
ремера
рен
рене
рении
рено
рентген
репертуараз
репертуаразы
репин
репродуктивная
рерих
рес
респираторная
респу
республик
республика
республикае
республикаез
республикалы
республикалэн
республикалэсь
республикамылэн
республиканскои
республикаос
республикасы
республикаын
республикаысь
республикаысьтымы
республикая
республикаямы
республики
ресторан
ресторанъе
рестрепия
ресурсы
ресысь
ретии
референдум
референдумын
рефлексопунктура
реформа
реформаез
реформаен
реформатор
реформая
рецензии
рецензия
речь
решение
решениез
решениезъя
решениеныз
решения
решить
реюньон
ржд
ржев
рз
рзы
рзэ
риббентроп
рига
ригаын
рид
ризе
ризы
рии
рика
рико
рим
риме
римлэн
римлянинъе
римма
римскии
римскои
римын
римысь
рио
риони
рис
риска
риськем
ритм
риф
рифеншталь
рихард
рихтер
ричард
ришелье
рия
рияд
рк
ркка
ркп
ркрп
рксм
рлы
рлык
рлыкез
рлыкен
рлыкъе
рлэн
рме
рмем
рмемын
рмиз
рмизы
рмо
рмоз
рмы
рмымтэ
рмыса
рмыти
рмыто
рмытон
рмытэ
рмытэм
рмытэмен
рмытэмын
рн
рная
рное
рнсте
рныи
ро
робби
роберт
робертлэн
роби
ров
рог
роговец
род
рода
родигин
родигинлы
родина
родину
родионовна
родительном
родная
родники
родниковои
родниковыи
роднои
родном
родным
родригезия
родригес
родысь
рое
роез
роезлэн
рождения
рождественскии
роза
розеллаос
розенберг
розита
розо
розэ
рои
рок
рокка
рокфеллер
ролан
ролез
роли
ролл
роллс
роль
ролье
рользэ
ролэн
роман
романзэ
романист
романлэн
романов
романова
романовъе
романсъе
романтик
романъе
романын
романысь
романэз
ромашкино
рон
рональд
роно
роос
роосыз
рос
росаз
рослы
рослэн
рослэсь
росси
россие
россиен
россиети
россии
россилы
россилэн
россилэсь
россиын
россиысь
россия
россиялэн
россиялэсь
россияын
рости
ростов
росъе
росын
росысь
росысьтыз
росэ
росэз
росэзлэн
росэн
росэти
роттердам
рохир
рохирург
роын
рояз
рпк
рсдрп
рских
рскои
рсфср
рсын
рсьы
рт
ртвои
ртвые
рти
ртмаськон
ртэм
ртэмез
ртэмесь
ртэмлыкез
ртэмлыко
ртэмлыксэ
ртэмлыксэс
ртэмлыкъе
ртэмъясько
ру
руаль
руан
руанда
руандаын
руандаысь
рубаву
рубин
рубле
рубль
рубрик
рубрикаос
рубрики
ругарама
ругендабари
руда
рудбекия
рудина
рудничнои
рудольф
рудольфович
рузвельт
руинъе
руководства
руководстве
руководство
руководству
рукомо
рулиндо
рум
румелиысь
румын
румынилэн
румыниын
румыниысь
румыния
румянцев
рунди
рунеберг
рупия
рус
русизи
русин
русинов
руслан
русск
русская
русские
русскии
русским
русских
русского
русское
русскои
русском
русскоязычнои
русскоязычныи
русскоязычных
руссо
русь
рут
рутсиро
руханго
руэллия
рф
рфк
ръ
ръе
ръя
ры
рыбная
рыбы
рыз
рын
рынок
рыноказ
рынокын
рысь
рысьгес
рыцарь
рыцарье
рышкин
рьевич
рэи
рэп
рэпер
рюген
рябинина
рябиновка
рябов
рябово
ряд
ряду
рязанов
рязань
с
са
сааведра
саам
саамск
саамскои
саамъе
саар
саарбрюккен
саарбрюккенлэн
сааремаа
саба
сабал
сабах
сабитов
савае
саваннои
савва
савельев
савин
савино
савиновскои
сад
садаковскои
саддам
садовников
садовниковъя
садовои
садъе
садын
садысь
садэ
садэз
саестэм
саесъе
саз
сазы
саи
сак
сакарья
саке
сакко
саклык
сакс
саксониысь
саксония
саксофонэн
сактон
сал
салават
саладин
салам
салах
салля
салман
салтыков
сальвадор
сальвадорын
салья
салют
саля
сам
самара
самаркандэ
самарск
самарского
самарское
самегрело
самец
сами
самка
самоа
самого
самодеятельнои
самоди
самодии
самои
самоизоляция
самоле
самостоятельно
самсонов
самсоновлэн
самсун
самуил
самули
самые
самых
сан
санатории
санго
сандвич
санди
сандра
сандыр
санитарно
санко
санкт
санников
санниково
санскрит
санта
сантиметр
сантьяго
санэ
сапармурат
сапег
сапегъе
саппороын
сар
сара
сарагоса
сараевоын
сараез
сараи
саралы
саралэн
сарамак
саранск
саранске
саранскын
сарапул
сарапулка
сарапуллэн
сарапулозь
сарапулын
сарапулысь
сарапульскии
сарапульского
сарапульскои
сарапулэ
сарапулэз
сарасвати
саратов
сардин
сардык
саркози
саркохилус
сарманово
сарова
сарсак
сатирик
сатирическои
сатурн
сатурнлэсь
сатшур
сауд
саха
сахалин
сахалинысь
сахар
сахара
сахарных
сахаров
сахаысь
саша
сб
сборник
сборникез
сборниксэ
сборникъе
сборнои
сбр
сбург
св
свадьба
свазиленд
сваи
сванетия
сведениям
свердлов
свердловск
свердловскои
свердловскысь
свернуть
сверхзвуковои
сверхновои
свет
света
свете
светлана
светлыи
световои
светскои
свиданья
свиньи
свисе
свобода
свободные
свободных
свободы
своднои
свое
своего
своеи
свои
своим
своими
своих
сворачивание
свою
свяжитесь
связанные
связанных
связи
связь
святица
свято
святого
святои
святослав
святыня
священная
священник
священниклэн
священнои
сделана
сделано
сделать
се
себастьян
себе
себеж
себя
сев
севастополез
севастополь
север
северная
северного
северное
севернои
северныи
северо
сегедысь
сегодня
седов
седора
сез
сезлэн
сезлэсь
сезон
сезонэ
сезьы
сеи
секвои
секеи
секретарез
секретарь
секретарье
секретаряз
секретов
секс
секталаез
секталаезъя
секталазы
сектор
секторъе
секунд
секундъем
секц
секции
секция
секыт
секытъе
секытэз
секытэн
села
селассие
селекционер
селимие
селин
село
селоын
селычка
сельская
сельскохозяи
сельсовет
сельсоветлэн
сельсоветъе
сельсоветысь
сельсоветэ
сельсоветэз
сельхозлес
сельхозугодиос
семаков
семе
семеи
семенов
семи
семинар
семинарие
семинариез
семинарилэн
семинариын
семинария
семинаръе
семипалатинскысь
семь
семьи
семья
семьяез
семьяеныз
семьязы
семьязэ
семьялы
семьялэн
семьяос
семьяослы
семьяоссы
семьяосын
семьяын
семьяысь
семьяысьтызы
семьяяз
семьяязы
сен
сенат
сенатор
сенатскои
сенегал
сенегалысь
сенкевич
сенсорная
сент
сентег
сентябре
сентябрь
сентября
сеныз
сенызы
сенькигубилэн
сеп
сепож
сепожскои
сепыч
сер
серафим
серафима
серафимович
серб
сербилэн
сербиын
сербиысь
сербия
сербскии
сервал
сервантес
сервер
сервет
сервис
сервисных
серге
сергеев
сергеева
сергеевич
сергеевна
сергеи
серги
сердца
сердце
серебренников
серебро
серекъян
серемес
сержант
сери
сериал
сериаллэн
сериалын
сериалэз
серии
сериысь
серия
серов
сесото
сессии
сессияз
сет
сетевои
сетез
сети
сето
сету
сеть
сетье
сетьлэн
сеул
сеульысь
си
сибир
сибире
сибирез
сибирскои
сибирь
сибирьлэн
сибирьын
сибирьысь
сибиряк
сибы
сива
сивае
сивас
сигаево
сигнал
сидерическои
сиднеи
сидни
сидоров
сидоровка
сие
сизь
сизьгурт
сизье
сизьи
сизьым
сизьымдон
сизьымети
сиирт
сикким
сикоку
сикорскии
сикстинскои
сикхизм
сил
сила
силард
силе
силез
силезиысь
силезия
силикат
силхет
сильто
сильшур
силья
симаков
симбирск
символ
символа
символиказы
символов
символъе
символэз
сименс
симеон
симон
симониха
симонов
симферополь
симфониез
симфоник
симфоническои
симфония
син
сина
синагогалэн
синаи
синатра
сингал
сингапур
сингл
синглъе
синглэз
сини
синлы
синмаськем
синмаськымон
синмо
синмыз
синмын
синмыныз
синонимъе
синоп
синпелет
синпелетъе
синпелетэз
синпельмет
синт
синтаксис
синтетическои
синтэмъе
синучкон
синхронныи
синъе
синьхаи
сиос
сипаи
сир
сирен
сиреникысь
сирень
сирилэн
сириын
сириысь
сирия
система
системаез
системазы
системалэн
системалэсь
системаос
систематика
системаын
системаысь
системе
системы
сиськон
сиськонни
ситатунга
сити
ситкаысь
ситников
сифака
сицилиысь
сицилия
сиы
сиыны
сиыса
сияжарсь
ск
сказка
скал
скалгурт
скалъе
скалык
скалыкъе
скандалиста
скандинав
скандинавскои
ская
скеи
скелет
ские
скии
ским
скифы
склад
складысь
ско
скобках
ского
ское
скоез
скои
ском
скоос
скоослы
скоослэн
скоослэсь
скооссы
скооссэ
скоосыз
скоосын
скоосыныз
скопировать
скопье
скорои
скоростнои
скорость
скорцени
скотт
скрипка
скрипкаен
скрипказэс
скрипкачи
скрытия
скульптор
скульптура
скульптураез
скутикария
скын
слава
славян
славянкуспо
славянов
славянскои
славянъе
сле
слева
следует
следующем
следующие
следующии
следующим
следующих
следующую
слепаков
слепота
слесарь
слобода
слободан
слободскои
слов
слова
словак
словакиын
словакиысь
словакия
словарь
словен
словения
словио
словно
слово
сложнои
слон
слоуп
слоупысь
слудка
служба
службаез
службазэ
службалэн
служебные
служебных
служить
слуха
слуховая
случае
случаев
случаи
случаях
слы
слэн
слэсь
см
смена
смерти
смерть
смес
сми
смирнов
смирнова
смит
смогут
смоленск
смоленскез
смоленскын
смоленскысь
смуули
смы
смысл
смяэ
снаи
снарядъе
снг
снизу
снимки
снк
снорк
сноски
сноубордист
снунал
снусмумрик
снусмумриклэн
со
собака
собере
собескии
собои
собор
соборе
соборез
соборезлэн
соборлэн
соборнои
соборъе
соборын
собралия
собрание
собраниез
собраны
собственно
собственность
собственным
собчак
события
событиях
сов
совет
совета
советлэн
совето
советск
советская
советскии
советско
советскои
советсы
советсылэн
советъе
советысь
советэз
совместимости
совнарком
совнаркомлэн
совпадает
современная
современник
современнои
современном
современность
совхоз
совхознои
согласен
согласную
согласных
соглаш
соглашаюсь
соглашение
содержание
содержания
содержать
содержимое
содержит
содружество
сое
сожалению
создавать
создавшии
создае
создание
создании
созданию
создания
созданные
создать
созидаи
созыва
созывез
созывезлэн
созь
созэ
сои
соиз
соин
сокем
сокол
соколов
соколовка
сократ
сокраще
соку
солдат
солдатских
солдатъе
солдовое
солдырь
солженицын
соликамск
солисткаез
солнечнои
солнечныи
солнце
соловецкои
соловье
соловьи
соловьяненко
соломин
соломон
солы
солэн
солэсь
сомали
сомалиысь
соматосенсорная
сомында
сон
сонет
сонць
сообщение
сообщении
сообщения
сообществ
сообщества
сообществам
сообществами
сообществах
сообществе
сообщество
сообществом
соос
соослы
соослэн
соослэсь
соосты
соосыз
соосын
соотв
соответственно
соответствует
соответствуют
соответствующеи
соответствующие
соответствующих
сопрано
сория
сорокин
сортировочнои
соседние
сослагательнои
соснова
сосновец
сосновка
сосновского
сосновыи
соссусфлеи
сост
состав
составаз
составез
составители
составысьтыз
состоит
состоится
состоялась
сото
сотрудник
софи
софии
софин
софия
софокл
софора
софронитис
софронов
софья
социал
социализм
социализмлэн
социализмо
социалист
социалистическои
социально
социальнои
социолог
сочи
сочинении
сочиын
сош
союз
союза
союзазы
союззы
союззылэн
союзлы
союзлэн
союзникъе
союзнои
союзныи
союзын
союзысь
союзэ
союзэз
соя
сояз
сп
спартак
спас
спасибо
спб
спбгу
спеи
спектакль
спектаклье
спектакльын
сперанскии
специализированные
специализированных
специалист
специалистъе
специальная
специально
специальнои
специальностез
специальностья
спецстраниц
спид
спилберг
спиридон
списка
списки
списков
список
списоказ
списоксы
списокъе
спичка
спк
спо
спорт
спортивнои
спортлы
спортлэн
спортсмен
спортсменъе
спортъя
спортэз
спортэн
справа
справка
справочник
справочные
спрингбок
спринт
спутник
спутникез
спутниксэ
спутникъе
ср
сразу
среда
среди
средиземнои
среднеи
средние
среднии
средняя
средства
срок
сроки
сс
сср
ссрлэн
ссср
сссрысь
ссы
ссылается
ссылка
ссылкае
ссылкам
ссылками
ссылкаос
ссылкаын
ссылке
ссылки
ссылкои
ссылку
ссылок
ссылы
ссыльнои
ссылэн
ссылэсь
ссыя
ссэ
ссэс
ст
ста
ставрополь
стадион
стадионэз
стажировка
стажировкае
стал
стала
сталин
сталинград
сталинлэн
сталинлэсь
сталь
стамбул
стамбулысь
стандарт
стандартнои
стандартъя
станислав
станиславскии
становлении
станок
станокъе
станхопея
станцие
станциез
станциен
станцизы
станции
станцилы
станцилэн
станцилэсь
станциозь
станциос
станциын
станциысь
станция
станцияос
старая
старинные
старобор
старое
старомихаи
старообрядцев
старт
старцево
старшеи
старшии
старые
старыи
стас
статеи
статистик
статистика
статистикая
статистическии
статистическои
статус
статуссэ
статустэк
статусъем
статусэз
статусэн
статуя
статуяез
статуязэ
стать
статье
статьи
статью
статья
статьяды
статьяез
статьязэ
статьялэн
статьялэсь
статьяос
статьяослэн
статьяосты
статьяосы
статьяосыз
статьяосын
статьях
статьяын
ств
ства
ственнои
ствие
ствиез
ствилэн
ствия
ство
ствовать
ствое
ствоез
стволэн
ствоос
ствоын
ствоысь
ствоя
стеи
стенбок
стенли
степа
степан
степанида
степанов
степанова
степанович
степановна
степене
степенен
степени
степеньзэ
степнои
стер
стерез
стес
стефан
сти
стив
стивен
стивенс
стилез
стили
стиль
стилья
стиля
стихи
стихов
стихотворении
стихотворения
сткии
стм
стоит
сток
стокгольм
столица
столов
стоматологическои
стоматология
стоп
сторону
стороны
стр
стравинскии
страна
странам
странаосысь
странах
страниц
страница
страницах
странице
страницу
страницы
страничка
странным
страны
стратегии
стратегическои
стратегия
страус
страховои
стреи
стрелитция
стрелка
стрелков
стрелковои
стробилянт
строения
строи
строитель
строк
строка
строке
строки
строку
струве
стругацкии
структураез
стс
студент
студентъе
студенческои
студие
студиез
студиен
студии
студилэн
студиын
студиысь
студия
студияз
стчерч
стчерчлэн
стчерчысь
сты
стыценко
стэк
стэнли
стюарт
су
суахили
субботин
субвидъе
субтропическои
субъект
субъектъе
суваи
суверенитет
суверенитетэз
сувереннои
суворов
суворова
суворовлэн
сугпиак
суд
судан
суданысь
судебнои
судлэн
судно
суднои
судноосты
судоходстволы
судъямын
судын
судьба
судьбу
судьбы
сузьет
сузэр
сузэрез
сузэреныз
сузэрзэ
сузэръе
суи
сулавесиысь
сулаи
сулеи
сулико
султан
султанахмет
султанэз
султи
султы
султыны
сулэз
суля
суматра
суматраысь
сун
сундур
суни
сунцов
сунь
супермаркет
супермаркетъе
супик
сур
сура
суралэ
сурано
сураны
сургут
суред
суреда
суредаз
суредам
суредамын
суредан
суредась
суредасье
суредаськон
суредаськонъя
суредасьлэн
суредманэз
суредъе
суредын
суредэз
суретъе
сурз
сурикат
суриков
суринам
сурнин
суро
суслик
сусыпу
сусыпуос
сути
сутка
сутэмын
сутэр
сутягино
суханово
сухои
сухуми
существует
существуют
сущности
суэи
суэц
суэцкии
сфера
сфераын
сфср
схаи
сцена
сценаез
сценарии
сценарист
счастьем
сша
сшур
съе
съезд
съездаз
съездазы
съездзы
съездзэс
съездэз
съя
сы
сыга
сыз
сызлы
сызлэн
сызлэсь
сызъя
сызын
сыктывкар
сылал
сылало
сылалъе
сыли
сыло
сылон
сылыса
сылэ
сын
сыныз
сынызы
сыос
сыропятов
сыртэмын
сыръе
сырьезшур
сысен
сысь
сысьтыз
сыч
сычуань
сыямяэ
сь
сьбуро
сье
сьерра
ське
ськем
ськемез
ськемен
ськеменыз
ськемзы
ськемзэ
ськемъе
ськемын
ськиз
ськизы
ськиллям
ськись
ськисье
сько
ськоз
ськом
ськон
ськонлы
ськонъе
ськонъя
ськонэз
ськут
ськутазы
ськутлэсь
ськутсы
ськутсылы
ськутсэс
ськутэз
ськы
ськыли
ськыны
ськыса
сьлы
сьлэн
сьлэсь
сьо
сьось
сьсы
сьти
сьтолэзе
сьтолэзь
сьтолэзьысен
сьтурын
сьтурынэн
сьты
сьтэм
сьчи
сьюард
сэ
сэдык
сэз
сэзь
сэм
сэмюэл
сэмюэль
сэп
сэпыч
сэр
сэрго
сэрег
сэрего
сэрегъе
сэрен
сэрпалти
сэрпалтон
сэрпалтэмын
сэртти
сэрттон
сэстонъя
сю
сюан
сюанзы
сюбег
сюга
сюгаил
сюгинскои
сюгы
сюда
сюди
сюдон
сюдыны
сюен
сюжетэз
сюи
сюкась
сюлмаське
сюлмаськиз
сюлмасько
сюлме
сюлмо
сюлмыз
сюлмысь
сюлык
сюлэм
сюлэмаз
сюлэмез
сюлэмзэ
сюлэсь
сюм
сюме
сюмез
сюмлэн
сюмси
сюмъе
сюмын
сюре
сюрес
сюресаз
сюреслы
сюреслэн
сюреслэсь
сюресозь
сюрессэ
сюрести
сюресъе
сюресъем
сюресын
сюресэз
сюресэн
сюресэти
сюрзи
сюриз
сюрло
сюро
сюроваи
сюрреалист
сюрс
сюрслэсь
сюрсо
сюрсоваи
сюрсозь
сюрсэз
сютэм
сюысен
ся
сяз
сяло
сям
сямен
сяменыз
сямо
сямпог
сямъе
сямын
сян
сяна
сяны
сяртчы
сярысь
сярысьсэ
сясь
сяська
сяськае
сяськаез
сяськалэсь
сяськаос
сяськаосыз
сяськаосын
сяськая
сяськаян
сяськаяське
сяськаяськись
сяськаяськон
сяськизы
сяськон
сяськыны
т
та
таб
табак
табань
табере
таблиц
таблица
таблицазэ
таблице
таблицу
таблицы
таврическии
таврическои
тагдырың
тагор
тадеуш
тадж
таджик
таджикистан
тае
таз
таза
тазалык
тазалыкез
тазалыксэ
тазармытса
тазьы
тазэ
таи
таиз
таиланд
таиландлэн
таиландын
таин
таисия
так
така
такая
также
таки
такие
таким
таких
тако
такого
таксидермия
таксиль
таксиос
такую
такъя
такъян
тал
тала
талаз
таламын
таланто
талантов
талица
таллин
таллинлэн
таллинн
таллиннысь
таллинын
таллинысь
талы
талэсь
там
тамара
тамарин
тамбов
тамга
тамил
тамильскии
тан
танганьика
танго
тангурт
танзаниын
танзаниысь
танзания
тани
танк
танкъе
танып
таня
таос
тапио
тар
тара
тараканов
тарасов
тарасова
тарасово
тарзан
таркан
тарковскии
тарту
тартумаа
тартуын
тартуысь
тарья
тасман
тасманилэн
тасс
тасср
татар
татариын
татариысь
татария
татаро
татарскои
татарстан
татарстанлэн
татарстанын
татарстанысь
татарстанэ
татарстанэн
татары
татищев
татра
татчы
татын
татысен
татысь
татышлы
татьяна
тау
тауэрн
тач
таче
ташкент
ташкентын
ташкентысь
таяз
тбилиси
тбилисиын
тв
твардовскии
тве
твен
тверь
творческои
творчества
творчество
творчествоез
творчествоезлэн
творчествозэ
творчествоя
творчествояз
твоје
те
театр
театраз
театральнои
театре
театрез
театрлы
театрлэн
театровед
театръе
театрын
театрысь
тебя
тевтон
тегеран
тегеранысь
тезисы
теи
текирдаг
текст
текста
тексте
текстлэн
текстом
текстсэ
тексту
текстъе
тексты
текстэз
текущего
текущеи
текущии
тела
теле
телеведущая
телеведущии
телеведущои
телевидение
телевиденилэн
телевидениын
телевидениысь
телевизионнои
телеграф
телеграфез
тележурналист
телеинформ
телеканал
телеканаллэн
телеканалъе
телеканалын
телеканалысь
телекомпанилэн
телекомпания
телепередачалэн
телерадиокомпанилэн
телерадиокомпания
телесериалын
телескоп
телескоплэн
телескопъе
телефон
телефонъе
телецентр
тело
телоос
телоослэн
тель
тем
тема
темаез
темалы
темам
темаос
темаосты
темаосъя
тематике
тематическии
тематических
темая
теме
темза
температура
температураез
темы
тен
тенант
тенерифе
тени
теннесси
теннисэн
тенор
теодор
теолог
теоретик
теоретикез
теоретикъе
теоретическои
теориез
теориезлэн
теорилэн
теория
теорияя
теперь
тепловоз
теплоход
тепляшина
тер
теракт
терапевт
тераторнисэз
тереза
терек
тереклэн
терентьев
териология
терия
теркс
термин
термина
терминов
терминъе
термины
термоядернои
территориальнои
территориальному
территориез
территориезлэн
территорилэн
территориос
территориослы
территориосызлэн
территориын
территория
территорияез
территорияз
террорист
террористическои
террористъе
теряков
тесла
тесь
тетум
тетюши
тех
техас
техасысь
техник
техника
техникаез
техникаен
техникая
техникум
техникуме
техникумез
техникумлэн
техникумын
техникъе
технических
техническои
технолог
технологии
технологиос
технологиосты
технологиосъя
технологическои
технология
технологияя
течение
теэ
ти
тибет
тибетын
тибетысь
тигр
тигринья
тиз
тизы
тил
тили
тим
тимеево
тимерханова
тимирязев
тимор
тимофеевич
тимошенко
тимур
тина
тингаз
тингеи
тиндальлэн
тип
типа
типов
типографии
типографиын
типография
типъе
типъем
тира
тиражез
тирана
тироль
тиса
тискре
титаник
титикака
тито
титов
титул
титулъе
тихо
тихон
тихонов
тихонова
ткибули
тлемсен
тлэн
тлэсь
тнои
тнт
тные
то
тобаго
тов
товарища
тогда
того
тодаз
тодазы
тодам
тоди
тодман
тодманы
тодмати
тодмато
тодматске
тодматскиз
тодматско
тодматскон
тодматскыны
тодметъе
тодмо
тодмоез
тодмоесь
тодмозэ
тодмоосыз
тодмотэм
тодо
тодон
тодонъе
тодоровскии
тодос
тодослыко
тодосчи
тодосчиен
тодосчилэн
тодосчилэсь
тодосчиос
тодосчиослэн
тодосчиосты
тодосъе
тодосъя
тодосья
тоды
тодыны
тодыса
тодэ
тоже
тои
ток
тока
токарев
токарно
токат
токелау
токио
токиоын
токиоысь
тол
толалтэ
толстая
толстаяен
толстои
толсур
толсуре
толсурозь
толсурэ
толумния
толшор
толшоре
толшорлы
толшорозь
толшорысен
толье
только
тольятти
толэз
толэзе
толэзез
толэзь
толэзье
толэзьем
толэзьзэ
толэзьлы
толэзьлэн
толэзьлэсь
толэзьысен
толэзьысеныз
толэзяз
том
томас
томах
томаш
томе
томез
томен
томск
томсон
тому
тон
тонга
тондираба
тонкая
тонкости
тонна
тоннель
тоно
тонъя
тонь
тонэ
тонэн
тоо
топ
топи
тополь
тополье
топоним
топпинен
торвальдс
торжественнои
торонто
торреи
торсхавн
тортым
торф
торфянка
торцов
торцовлэн
тот
тотлебенлэн
точкаез
точку
точнее
точно
тр
трабзон
трагедия
традиции
традиционнои
традиционныи
тракт
трактлэн
трактор
тралитетэз
тральнои
трамваи
трамп
трансатлантическои
трансвааль
транскрипции
транспорт
транспортлэн
транспортнои
транспортъя
транспортэз
транссиб
транссибирскои
трасса
траян
тре
требованиям
требуемых
требуется
тренер
тренерез
тренеръе
тренироваться
тренировочнои
трерядница
трест
третии
третьего
третьяков
третьяковскои
три
трибуна
трикотаж
трилогиез
тринидад
триполи
трир
трирлэн
трирысь
трихоглоттис
трихопилия
трихоцентрум
трк
трлэн
троеглазово
трои
троицкии
троицкои
трокаи
троллеи
троль
тролье
трольлэн
трон
тронина
тронъе
тропик
трос
тросаз
тросгес
трослы
троссэ
тросэз
тросэзлы
тросэзлэн
тросэн
тросэныз
трофим
троцкии
труба
трубецкои
труд
труда
трудовая
трудовои
трудъя
труды
трумэн
тс
тсвана
тскемез
тскиз
тсонга
тсы
тсэ
тся
тт
ту
туала
тубат
тубем
туберкуле
тубиз
тубон
тубылов
тува
тувалу
туве
туг
туганаев
туго
тугъе
тудуфуши
туе
туж
тужгес
тузон
туи
тукаев
тукаи
тукля
тукмач
туктамышева
туктаре
тукташ
тул
тула
тулаысь
тулкымъе
тултаев
тулыс
тулыспал
тулыспалозь
тулыспалысен
тулыспалэ
тулысэз
тум
тумба
тунбергия
тунджели
тунис
туннель
туннэ
тунсыко
тунсыкоесь
тунсыкъяське
тунсыкъяськиз
тунсыкъяськыны
туп
тупа
тупазы
тупал
тупало
тупанкыл
тупанкылъя
тупаса
тупась
тупасьтэм
тупати
тупато
тупатон
тупатонлэсь
тупатоно
тупатонъе
тупатонъя
тупатонэз
тупатъян
тупатъяны
тупатъясь
тупатыны
тупатыса
тупатэм
тупатэмын
тупен
туполев
тупъе
тур
тура
тургенев
тургут
турец
турецкии
турецкои
тури
туризм
туризмез
туризмъя
турин
туринын
туристическои
туристъе
туркестанэ
туркмен
туркменилэн
туркмения
турку
турлы
турнир
турок
турокъе
туртти
туртто
турттыса
турттэ
турундаевскои
турунен
турцилы
турцилэн
турциын
турциысь
турция
турцияын
турын
турынлэсь
турыно
турынъе
тус
тусбуи
тусо
тусоез
туспукти
туспуктон
туспуктонлэн
туспуктэм
туспуктэмез
туспуктэмлэн
туспуктэмъе
туспуктэмын
туссы
туссэ
тусъе
тусъем
тусыз
тусызъя
тут
тутанхамон
тутыгыш
туусу
тухачевскии
тушмон
тушмонлы
тушмонлэн
тушмонъе
туэ
тхирувилаи
тч
тчам
тчамаз
тчамезлэн
тчамзы
тчамъе
тчик
тъе
тъяз
тъянъя
ты
тыбыр
тыбырыз
тыва
тыез
тыжма
тыл
тыла
тылж
тыли
тыло
тылобурдо
тылобурдоез
тылобурдоос
тылобурдоосты
тыловаи
тыловыл
тылои
тылпу
тылпуэн
тылсиос
тылъе
тылэн
тымет
тыметлэн
тыметъе
тыметын
тымтэ
тын
тынад
тыны
тыныд
тыос
тыосыз
тыосын
тыпы
тыр
тыре
тырмем
тырметъе
тырмиз
тырмонлы
тырмонэз
тырмонэзлы
тырмы
тырмыса
тырмыт
тырмытэм
тырмытэмын
тыро
тыронлэсь
тырше
тыршемез
тыршемезъя
тыршеменыз
тыршемзэ
тыршиз
тыршизы
тыршись
тыршисье
тыршо
тыршыса
тырыса
тыс
тыса
тысе
тысь
тысье
тысяча
тысячелетие
тысячелетии
тысячелетия
тычинкаем
тыын
тыысь
тье
тьыны
тьюринг
тэ
тэз
тэи
тэк
тэль
тэм
тэмен
тэмын
тэн
тэрек
тэремшур
тэтчер
тэтчиз
тэтчон
тэтъе
тэц
тюар
тюбингенысь
тюлькин
тюлькино
тюльпан
тюлячи
тюмень
тюптиевскои
тюрагаи
тюрин
тюрингия
тюрк
тюркизмы
тюрколог
тюрьма
тюрьмае
тюрьмаын
тяма
тямапочинка
тямыс
тямыстонэти
тямысэти
тянь
тяньаньмэнь
у
уагадугу
уаз
уаи
уам
уаса
уасср
уась
уати
уатт
убеждениям
убрать
ува
уважаемые
уважением
увалэсь
[...]
