!
"
#
##0
##1
##10
##11
##12
##13
##14
##15
##16
##17
##18
##19
##2
##20
##21
##22
##23
##24
##25
##26
##27
##28
##29
##3
##30
##31
##32
##33
##34
##35
##36
##37
##38
##39
##4
##40
##41
##42
##43
##44
##45
##46
##47
##48
##49
##5
##50
##51
##52
##53
##54
##55
##56
##57
##58
##59
##6
##60
##61
##62
##63
##64
##65
##66
##67
##68
##69
##7
##70
##71
##72
##73
##74
##75
##76
##77
##78
##79
##8
##80
##81
##82
##83
##84
##85
##86
##87
##88
##89
##9
##90
##91
##92
##93
##94
##95
##96
##97
##98
##99
$
%
&
'
(
)
*
+
,
-
.
/
0
00
000
01
019
02
03
04
05
05998
06
07
08
09
1
10
100
1000
1001
101
1010
1015
102
1020
1024
103
104
1040
105
106
1060
107
1070
108
1080
109
1090
1095
1096
1097
1098
1099
11
110
1100
1101
1102
111
1113
1118
112
1120
1122
1127
113
1130
1139
114
1140
1141
1143
1147
115
1150
1155
116
1160
1162
1163
1164
1165
117
1170
1172
1174
1179
118
1180
1187
1188
1189
119
1190
1191
1195
1196
1198
1199
12
120
1200
1202
1204
1206
1207
1209
121
1210
1216
1217
122
1220
1221
1225
1226
1227
1228
1229
123
1230
1233
1235
1239
124
1240
1241
125
1250
1253
1259
126
1260
1261
1266
1267
127
1270
1271
1272
1275
1276
128
1280
1281
1282
1284
1285
1288
129
1290
1291
1293
1294
1297
1298
1299
13
130
1300
1301
1302
1303
1304
1307
1308
1309
131
1310
1311
1313
1314
1315
132
1320
1321
1325
1326
1328
1329
133
1330
1335
1336
1337
1339
134
1340
1341
1342
1343
1345
1346
1347
135
1350
1352
136
1360
1362
1363
1365
137
1370
1374
1375
1377
1378
1379
138
1380
1381
1383
1385
1386
1389
139
1390
1393
1394
1395
1396
1397
1398
1399
14
140
1400
1402
1403
1404
1405
141
1410
1413
1415
1418
142
1420
1421
1427
1429
143
1430
1431
1432
1433
1434
1435
1436
1437
1438
1439
144
1440
1441
1442
1444
1445
1446
1447
1448
1449
145
1450
1451
1452
1453
1454
1455
1456
1457
1458
1459
146
1460
1461
1462
1464
1465
1466
1469
147
1470
1471
1472
1473
1474
1475
1476
1477
1478
1479
148
1480
1481
1482
1483
1484
1485
1486
1487
1488
149
1490
1492
1493
1494
1495
1496
1497
1498
1499
15
150
1500
1501
1502
1503
1504
1505
1506
1507
1508
1509
151
1510
1511
1512
1513
1514
1515
1516
1517
1518
1519
152
1520
1521
1522
1523
1524
1525
1526
1527
1528
1529
153
1530
1531
1532
1533
1534
1535
1536
1537
1538
1539
154
1540
1541
1542
1543
1544
1545
1546
1547
1548
1549
155
1550
1551
1552
1553
1554
1555
1556
1557
1558
1559
156
1560
1561
1562
1563
1564
1565
1566
1567
1568
1569
157
1570
1571
1572
1573
1574
1575
1576
1577
1578
1579
158
1580
1581
1582
1583
1584
1585
1586
1587
1588
1589
159
1590
1591
1592
1593
1594
1595
1596
1597
1598
1599
16
160
1600
1601
1602
1603
1604
1605
1606
1607
1608
1609
161
1610
1611
1612
1613
1614
1615
1616
1617
1618
1619
162
1620
1621
1622
1623
1624
1625
1626
1627
1628
1629
163
1630
1631
1632
1633
1634
1635
1636
1637
1638
1639
164
1640
1641
1642
1643
1644
1645
1646
1647
1648
1649
165
1650
1651
1652
1653
1654
1655
1656
1657
1658
1659
166
1660
1661
1662
1663
1664
1665
1666
1667
1668
1669
167
1670
1671
1672
1673
1674
1675
1676
1678
168
1680
1681
1682
1683
1684
1685
1687
1688
1689
169
1690
1692
1693
1694
1695
1696
1697
1698
1699
17
170
1700
1701
1703
1704
1705
1706
1707
1708
1709
171
1710
1711
1712
1713
1714
1715
1716
1717
1719
172
1720
1721
1722
1723
1724
1725
1726
1727
1728
1729
173
1730
1731
1732
1733
1734
1735
1736
1737
1738
1739
174
1740
1741
1742
1743
1744
1745
1746
1747
1748
1749
175
1750
1751
1752
1753
1754
1755
1756
1757
1758
1759
176
1760
1761
1762
1763
1764
1765
1766
1767
1768
1769
177
1770
1771
1772
1773
1774
1775
1776
1777
1778
1779
178
1780
1781
1782
1783
1784
1785
1786
1787
1788
1789
179
1790
1791
1792
1793
1794
1795
1796
1797
1798
1799
18
180
1800
1801
1802
1803
1804
1805
1806
1807
1808
1809
181
1810
1811
1812
1813
1814
1815
1816
1817
1818
1819
182
1820
1821
1822
1823
1824
1825
1826
1827
1828
1829
183
1830
1831
1832
1833
1834
1835
1836
1837
1838
1839
184
1840
1841
1842
1843
1844
1845
1846
1847
1848
1849
185
1850
1851
1852
1853
1854
1855
1856
1857
1858
1859
186
1860
1861
1862
1863
1864
1865
1866
1867
1868
1869
187
1870
1871
1872
1873
1874
1875
1876
1877
1878
1879
188
1880
1881
1882
1883
1884
1885
1886
1887
1888
1889
189
1890
1891
1892
1893
1894
1895
1896
1897
1898
1899
19
190
1900
1901
1902
1903
1904
1905
1906
1907
1908
1909
191
1910
1911
1912
1913
1914
1915
1916
1917
1918
1919
192
1920
1921
1922
1923
1924
1925
1926
1927
1928
1929
193
1930
1931
1932
1933
1934
1935
1936
1937
1938
1939
194
1940
1941
1942
1943
1944
1945
1946
1947
1948
1949
195
1950
1951
1952
1953
1954
1955
1956
1957
1958
1959
196
1960
1961
1962
1963
1964
1965
1966
1967
1968
1969
197
1970
1971
1972
1973
1974
1975
1976
1977
1978
1979
198
1980
1981
1982
1983
1984
1985
1986
1987
1988
1989
199
1990
1991
1992
1993
1994
1995
1996
1997
1998
1999
2
20
200
2000
2001
2002
2003
2004
2005
2006
2007
2008
2009
201
2010
2011
2012
2013
2014
2015
2016
2017
2018
2019
202
2020
2021
2022
203
204
205
206
207
208
209
21
210
211
212
213
214
215
216
217
218
219
22
220
221
222
223
224
225
226
227
228
229
23
230
231
232
233
234
235
236
237
238
239
24
240
241
242
243
244
245
246
247
248
249
25
250
251
252
253
254
255
256
257
258
259
26
260
261
262
263
264
265
266
267
268
269
27
270
271
272
273
274
275
276
277
278
279
28
280
281
282
283
284
285
286
287
288
289
29
290
291
292
293
294
295
296
297
298
299
3
30
300
3000
301
302
303
304
305
306
307
308
309
31
310
311
312
313
314
315
316
317
318
319
32
320
321
322
323
324
325
326
327
328
329
33
330
331
332
333
334
335
336
337
338
339
34
340
341
342
343
344
345
346
347
348
349
35
350
351
352
353
354
355
356
357
358
359
36
360
361
362
363
364
365
366
367
368
369
37
370
371
372
373
374
375
376
377
378
379
38
380
381
382
383
384
385
386
387
388
389
39
390
391
392
393
394
395
396
397
398
399
4
40
400
4000
401
402
403
404
405
406
407
408
409
41
410
411
412
413
414
415
416
417
418
419
42
420
421
422
423
424
425
426
427
428
429
43
430
431
432
433
434
435
436
437
439
44
440
441
442
443
444
445
446
447
448
449
45
450
451
452
453
454
455
456
457
458
459
46
460
461
462
463
464
465
466
467
468
469
47
470
471
472
473
474
475
476
477
478
479
48
480
481
482
483
484
485
486
487
488
489
49
490
491
492
493
495
496
497
498
499
5
50
500
5000
501
503
504
505
506
507
508
509
51
510
511
512
514
515
516
518
519
52
520
521
522
523
524
525
526
527
528
529
53
530
531
532
533
535
536
537
538
539
54
540
541
544
545
546
547
548
549
55
550
551
552
554
555
556
557
558
559
56
560
561
562
563
564
565
566
567
568
569
57
570
571
572
575
576
577
579
58
580
582
584
585
586
587
588
589
59
590
592
593
594
595
596
6
60
600
6000
603
604
606
607
609
61
610
615
616
618
619
62
620
621
622
624
625
627
628
629
63
630
631
632
633
635
636
637
638
639
64
640
641
642
643
644
645
646
649
65
650
651
652
653
655
656
657
658
659
66
660
661
663
664
667
668
669
67
670
671
673
674
675
676
679
68
680
684
685
686
687
689
69
690
691
692
693
694
695
697
699
7
70
700
701
702
703
708
709
71
710
713
714
715
717
718
719
72
720
725
73
730
735
739
74
740
742
743
745
748
75
750
752
755
759
76
760
765
768
77
770
774
775
779
78
780
785
786
787
788
789
79
790
792
799
8
80
800
801
804
805
809
81
810
811
812
814
815
816
82
820
823
825
826
83
830
839
84
840
842
843
845
848
849
85
850
851
852
854
855
86
860
863
864
865
87
870
871
875
876
877
879
88
880
885
888
889
88963
89
890
891
895
9
90
900
901
904
91
910
911
916
92
920
928
93
930
935
94
940
95
950
957
958
959
96
960
965
967
97
970
978
979
98
980
99
990
998
999
:
;
<
=
>
?
@
[
\
]
^
_
`
a
aa
ab
aba
abac
abando
abandona
abandonao
abandono
abandonæ
abandu
abanduna
abanduno
abao
abate
abba
abbandon
abbandona
abbandonao
abbandono
abbandonæ
abbasso
abbastanza
abbate
abbatte
abbattu
abbazia
abbia
abbiamo
abbondansa
abbondante
abbondanza
abbrac
abbrassa
abbrettio
abc
abe
abecedaiu
abel
abergo
abi
abia
abiai
abiam
abiando
abile
abilitæ
abisso
abita
abitac
abitanti
abitava
abiti
abito
abitu
abitæ
abo
aboe
aboi
aboli
abolic
abonda
abondancia
about
abrac
abraham
abram
abrasa
abraso
abrega
abreviac
abrusso
abscide
abside
abstract
abu
ac
aca
acade
academia
academy
acapi
acapita
acapito
acapiu
acase
acata
acatao
acato
acatta
acatto
acca
accadde
accademia
accame
accanto
accapi
accasse
accatta
accatte
accatto
accende
accenti
accento
access
accesso
acche
acciappa
acciappo
accidente
accidenti
accipiendo
acco
accomoda
accomodo
accompagna
accompagno
acconc
acconsenti
accorda
accorde
accordi
accordio
accordo
accorta
accorto
accorzan
accorze
accorzo
accosta
accosto
accostæ
accresce
accu
accuse
accustæ
ace
acento
acerta
acesci
aceta
aceto
ache
achi
achille
aciapa
acidi
acido
acioche
acipenseridae
acipenseriformes
aco
acompagna
acompagnao
aconpagna
aconpagnao
acorda
acordi
acordio
acorse
acosta
acostandosse
acqua
acquaro
acque
acqui
acquista
acquisto
acquixic
acre
acri
acro
acs
act
actes
actinopterygii
acu
acuge
acuza
acuzo
ad
ada
adam
adammo
adams
adata
adatame
adatta
adatto
adattæ
adaxetto
adaxo
adda
addenta
addento
addescia
addescio
addio
addormi
addosso
ade
adegua
adelaide
adenta
aderi
adescia
adescio
adesso
adeuvia
adeuvio
adexon
adi
adio
adiu
ado
adoc
adolf
adolfo
adolphe
adoncha
adora
adorac
adormi
adorna
adorni
adorno
adoro
adosso
adossu
adota
adotao
adoto
adreitu
adria
adrian
adriano
adriatego
adric
adu
adusse
aduta
aduto
aduxe
adœuvia
ae
aegithalos
aegua
aeiupo
aeronautica
aeroporto
afa
afacia
afacio
afano
afe
aferma
afermac
afermo
affammæ
affanna
affanni
affanno
affannæ
affare
affari
affe
afferma
affermac
affermo
afferra
affetta
affetto
affezion
affia
affidao
affio
affiæ
affluente
affreschi
affrica
affronta
affronto
affæ
affæto
afghanistan
afi
afia
afianca
afiao
afida
afido
afidæ
aflicion
afloe
aflue
afre
afresca
afreschi
africa
african
africann
africhen
afron
afronta
after
afæ
ag
aga
agando
agata
age
agem
agenc
agency
agente
agenti
ages
ageti
agge
aggi
aggian
aggie
aggio
aggiu
aggiunta
aggiunto
aggiusta
aggiuta
aggiutta
aggiutto
aggiæ
agguanta
aggueita
aggæ
aghjacciu
agi
agia
agian
agiando
agie
agile
agiorname
agita
agiu
agiurna
agiuta
agiuto
agiutta
agiutti
agiutto
agiutæ
agiæ
agli
agne
agnelli
agnello
agnelo
agni
agno
agnolo
ago
agoggia
agogna
agosti
agostin
agostino
agosto
agra
agri
agricoltu
agricula
agricultu
agriligurianet
agrippa
agro
agru
agu
aguanta
aguc
agugia
agui
aguo
agur
agurao
agusti
agustim
agustin
agustu
ah
ahi
ahime
ai
aia
aiai
aiando
aie
aiga
aigoa
aigoe
aigua
aime
aio
air
aire
aires
airo
ais
aisci
aise
aito
aitorio
aiva
aivan
aivi
aja
ajaccio
aje
ajetta
al
ala
aladin
alain
alan
alana
alanto
alantor
alaora
alarga
alargo
alaska
alassio
alba
albane
albani
albania
albe
albenga
albenganese
albergo
albero
albert
alberta
alberti
albertis
alberto
albertu
albingana
albisola
albrecht
album
alc
alcala
alchum
alchun
alchuna
alchune
alchuni
alchunna
alcum
alcun
alcuna
alcune
alcuni
alcunna
alcunne
aldo
aldrovandi
alduin
ale
alea
alego
alegori
alegra
alegramenti
alegranza
alegrasse
alegrava
alegre
alegresa
alegressa
alegreza
alegri
alegro
aleramica
aleramo
alescio
alessandria
alessandro
alessi
alesti
alevame
alex
alexander
alexandre
alexandria
alexandro
aleæ
alfa
alfabe
alfabeto
alfieri
alfonso
alfred
alfredo
alge
algebra
algeri
algerin
ali
alia
alianc
alias
alicante
alice
alie
alieno
alime
alimenta
alimentac
alimenti
alimento
alimentæ
aliquo
alize
aliæ
all
alla
allanto
allaor
allarga
allarme
alle
alleanza
allegra
allegramente
allegramenti
allegrec
allegressa
allegreve
allegreza
allegrezza
allegri
allegria
allegro
allen
allenato
alleva
allevo
allevæ
alli
allia
allianc
alliao
alliæ
allo
alloa
allon
allontana
allora
allu
allua
allunghi
alluvione
almanac
alme
almeno
alo
aloa
alon
alonghi
alontana
alonzo
alora
alpes
alpi
alpin
alpino
alquanti
alquanto
als
alsa
also
alta
altare
alte
altera
alterac
alterato
alterna
alternativa
alternæ
altessa
altezza
altissimo
altitu
alto
altra
altre
altri
altrimenti
altro
altrove
alu
alua
alza
alzando
alzano
alzava
am
ama
amaa
amabile
amac
amai
amaistra
amalgama
aman
amanca
amando
amandoa
amandoi
amandoin
amante
amanti
amanuense
amao
amar
amara
amare
amaritudem
amaro
amaror
amaroti
amartin
amasa
amasame
amaso
amassa
amasæ
amato
amava
amavam
amazza
amb
ambascia
ambasciao
ambascioei
ambic
ambiente
ambienti
ambito
ambizion
ambrogio
ambrœuxo
ame
amedeo
amegioa
ameistra
ameistramenti
ameistrao
ameistrava
amen
amena
ameno
amente
amento
amentu
america
american
americana
americann
americhe
americhen
amerma
amermo
amette
ami
amia
amici
amicic
amicis
amicizia
amico
amie
amiga
amighe
amigo
amigu
aministra
aministrac
aministrasiu
aministrati
aministratu
amio
amira
amiraciom
amirato
amish
amixi
amixic
amiæ
amma
ammac
ammassa
ammasso
ammassæ
ammazza
amme
ammerma
ammette
ammi
ammia
ammiando
ammiava
ammido
amministrac
amministrativa
ammio
ammira
ammiraglio
ammisso
ammiæ
ammo
ammorta
ammorto
ammu
amo
amoi
amonicio
amor
amora
amore
amori
amorosa
amoroso
amoroza
amorta
ampia
ampio
amplia
ampliame
amsterdam
amt
amu
amuoi
an
ana
analixi
analiza
anallixi
anania
anant
anas
anatolia
anava
anavan
anbasciato
anbasciatoi
anbic
anbie
anbienta
anbre
anbro
anc
anca
anch
anche
ancheu
anchise
ancho
anchoi
anchon
anchor
anchora
anci
ancien
ancient
ancio
anciue
anco
ancoa
ancoi
ancon
anconn
ancor
ancora
ancu
ancua
ancun
ancuoe
ancura
ancœu
and
anda
andae
andaeto
andai
andaiti
andaito
andalo
andamento
andamo
andando
andandu
andao
andar
andare
andasse
andassi
andate
andava
andavam
andavan
andavo
ande
andei
andemmo
andemo
andera
anderai
anderam
anderei
andero
andersen
andes
andeta
andeto
andia
andie
andiemo
andio
ando
andon
andorra
andre
andrea
andrew
andri
andria
andronico
andu
andæ
andæta
andæte
andæti
andæto
andætu
andævene
ane
anelli
anello
anemmo
anemmu
anescio
anessa
ange
angei
angeles
angeli
angelica
angelico
angelli
angelo
angeo
angeri
angero
anghilla
angio
angiou
anglo
ango
angola
angoli
angolo
angonia
angoscia
angoscio
anguissola
angustia
ani
anidride
aniello
anima
animac
animai
animal
animale
animali
animalia
anime
animo
animæ
ann
anna
annales
annali
anne
anni
annia
annibale
annie
annima
annime
annimo
anno
annonc
annu
annua
annunzia
annunzio
annæ
ano
anoa
anonc
anoncia
anonciac
anonima
anonimo
anonnimo
anpe
anpi
anpliame
anquora
ans
ansa
ansaldo
anscia
anscietæ
anselmi
anselmo
ansi
ansien
ansietæ
ant
anta
antartego
antartide
ante
antecedente
antechriste
antenati
anteno
anthonio
anthony
anti
antic
antica
antiche
antichi
antico
antifona
antiga
antigame
antigamente
antigamenti
antighe
antighi
antighitæ
antigi
antigo
antigu
antille
antio
antiochia
antioco
antipsara
anto
antoa
antogno
antoine
antologia
anton
antoni
antonino
antonio
antoniotto
antoniu
antoon
anu
anula
anversa
anzi
anziche
anæta
anæto
ao
aoa
aogu
aogusto
aomanco
aome
aomenta
aomento
aor
aora
aosta
aosti
aostin
aostri
aostria
aostriaca
aostriachi
aostriaco
aostro
aota
aoto
aotobiografia
aotoi
aotonomi
aotonomia
aotoritræto
aotoritæ
aotra
aotramenti
aotre
aotri
aotro
aotrui
aotu
aotunno
aotura
aou
aoura
ap
apa
apar
apare
aparecchi
aparega
aparegao
aparegia
aparegiao
apareia
apareiai
apareiao
aparic
apariciom
aparra
aparse
aparsse
aparte
apartegne
apartegni
apartene
ape
apelao
apella
apellao
apen
apena
apeni
aperta
aperte
apertem
api
apice
apicha
apisu
aplica
aplicac
apo
apocalisse
apoggio
apointo
apollo
apologia
aponto
aposta
aposto
apostoi
apostoli
apostolica
apostolo
apostori
apostoro
appa
apparato
appare
appareggia
apparensa
apparente
apparenza
apparizione
appartamenti
appartamento
apparte
appartegne
appartenensa
appartoi
appe
appeiso
appeizo
appello
appen
appena
appendice
appenn
appenna
appenni
appennin
appennino
appenso
appetitto
appicca
appicco
applaudi
applausi
applauso
apple
applica
applied
appoggia
appoggio
appointo
appollo
apponto
apporto
apposta
appre
apprenscion
appresenta
appresso
appreuvo
appreuvu
approva
apprœuvo
appunto
apre
apreso
apresso
aprestao
apreuvo
aprexa
aprezenta
aprica
apricac
april
aprile
apro
aprofita
aprofondi
aprossima
aprova
aprovac
aprovo
aproximar
aprœuo
aprœuv
aprœuvo
apuinto
apusto
aquest
aquila
aquile
aquista
aquistao
aquistar
aquiste
aquisto
ar
ara
araba
arabi
arabia
arabo
aragio
arago
aragon
aragone
aragoneize
araki
aramaica
arancio
arasce
arasci
arba
arbaxia
arbe
arbenga
arbengane
arbenganese
arbenganesi
arbise
arbisseua
arbitrio
arbo
arbori
arboro
arbu
arc
arca
arcad
arcadi
arch
archa
archaea
archangero
arche
archeologia
archi
archimede
archiolo
archite
architeto
architetti
architetto
architettu
architettua
architettura
architetu
archive
archives
archivi
archivio
archum
archuna
archuni
arcipelago
arcivescho
arco
arcoa
arcu
arcun
arcunn
arde
ardente
ardenti
ardi
ardia
ardighe
ardii
ardimento
ardio
ardisce
ardo
ardor
arduinica
are
area
areche
arecomanda
arecomando
arecorda
arecordate
arecuge
arecugeite
arecugeito
arecœugge
aree
arego
aregorda
aregordao
aregordar
aregordi
aregordo
aren
arena
arenba
arenin
arenna
arensen
arente
aresco
arescoso
aresso
aresta
arestao
arestava
aresto
arestæ
arfabe
arfabetico
arfe
arfea
arfo
arfonso
arg
argagno
argante
arge
argenti
argentin
argentina
argentinn
argento
argentu
argillan
argo
argome
argomenti
argomento
argona
argumento
ari
aria
arie
ariesci
ariescin
ariescio
arinto
ario
arionda
ariopo
ariosto
aristocra
aristocrac
aristotele
aristotile
aristottile
aritmetica
ariva
arivia
arivo
arivu
arivæ
arkansas
arlichin
arma
armadura
armai
armamenti
armamento
armando
armao
armaou
armata
armatoi
arme
armeli
armenia
armenu
armi
armida
armidda
armiraggio
armiraio
armistic
armo
armoni
armonia
armugni
armæ
arnaldo
arnasco
arnascu
arneixi
arneize
arno
aro
aroba
aroma
aron
aroscia
arp
arpa
arpagon
arpe
arpi
arqua
arraggia
arraggiaou
arraggio
arraggiæ
arraggæ
arranca
arre
arrecomando
arregorda
arregordo
arregordæve
arremba
arrembo
arrenseni
arrente
arresta
arresto
arrestou
arri
arrigo
arriva
arrivan
arrivando
arrivao
arrivaou
arrivava
arrive
arrivi
arrivo
arrivon
arrivou
arrivæ
arro
arroba
arrogante
arroganza
arrondissement
arrondissements
arroscia
arru
arsa
arse
arsena
arsoi
arsura
art
arta
artagiaja
arte
artemisia
artessa
arthur
arti
articoli
articolo
articolæ
articulu
artific
artista
artistego
artisti
artistica
artistico
arts
artt
artu
arturo
artæ
arv
arvan
arve
arvi
arvisse
arviva
as
asa
asai
asay
asbascia
asbri
asbria
asbrio
asbriva
asbrivo
asbu
asburgo
asca
ascada
asce
asceiza
ascendentem
ascenso
aschero
aschozo
asci
ascia
asciddio
ascidia
asciste
ascistenc
ascistenti
ascixi
asclepio
asco
ascoli
asconde
ascorda
ascosa
ascose
ascosi
ascoso
ascota
ascozo
ascu
ascuzu
ase
asedia
asegna
asegnac
asegno
asegnæ
asegua
aseize
aseizo
asemme
asempio
asenble
aseta
aseto
asetæ
asi
asia
asino
asiu
aso
asoche
asociac
asocio
asociæ
asolu
asome
asonc
aspe
aspeita
aspeitando
aspeitar
aspeitava
aspeite
aspera
aspere
asperessa
asperi
asperti
asperto
aspeta
aspetava
aspete
aspeto
aspetta
aspetti
aspetto
aspiac
aspieta
aspira
aspra
asprescia
assa
assai
assaltu
assarino
assascin
assascino
assassin
assato
assaza
assazza
assazzo
asse
assedia
assedio
assegna
assegno
assegnæ
assegu
assegua
asseguo
assegura
assegurao
asseguro
assemblea
assemeggia
assemme
assenc
assende
assenso
assereto
assesto
assetta
assette
assetto
assettæ
assi
assia
assie
assisi
asso
assoc
associa
associac
association
associazione
assolu
assolua
assoluo
assolutamente
assomeggia
assonse
assonto
assu
assumendo
assumme
assunta
assæ
ast
asta
astalla
aste
asteroid
asteroide
asteroidi
asti
astinencia
asto
astrego
astrenze
astri
astro
astrologia
astronnomo
astrono
astronomi
astronomia
astronomica
astronomical
astronomo
astræto
astu
asturia
asturias
asu
asuciasiu
asuciasiun
asuncio
asæ
at
ata
ataca
atacchi
atacco
ataccu
ataco
atacæ
ate
atelier
aten
atena
atenc
atende
atene
atenieixi
atenta
atenti
atesta
ati
atissimo
ativa
ativita
ativite
ativitæ
atla
atlante
atlantego
atlantico
atlas
atle
atmosfea
ato
atoa
atoale
atoalme
atoi
atoiu
atomi
atomico
atomo
atorno
atp
atr
atra
atractosteus
atramenti
atrave
atraversa
atraverso
atre
atresi
atretanto
atrettanti
atrettanto
atreuva
atri
atriboc
atriboi
atribuc
atribui
atrimenti
atro
atrova
atrovava
atrovo
atrovæ
atru
atrui
atruvo
atrœuva
attacca
attacchi
attacchæ
attacco
attasto
attenc
attende
attenta
attenti
attento
attenzion
attesta
attezamento
atti
attilio
attimo
attiva
attivi
attivita
attivitæ
attivo
atto
attoa
attoac
attoi
attore
attorno
attraverso
attre
attreuva
attribui
attrice
attrito
attrixe
attro
attrova
attrovo
attrœuva
attu
attua
attuale
attualmente
atu
atua
atualmente
aturnu
au
auanti
auditorium
audu
aue
auea
aueam
auegnimento
auegnir
auei
aueir
auem
auemo
auentura
auer
auerea
aueream
auerssitae
auesse
auey
aueyua
augu
augurio
august
augusta
auguste
augusti
augustino
augusto
aumenta
aumento
auoir
aura
aurata
aurelia
aurelio
auria
aurora
aus
australia
australian
austria
austro
austru
austu
aut
auta
autem
authority
auto
autobus
autoi
autono
autonoma
autore
autoritræto
autoritæ
autra
autre
autres
autri
autro
autru
autu
autunno
autustradda
auuo
auve
auvergnat
aux
auxeli
av
ava
avan
avanc
avangelista
avangerio
avann
avansa
avantaggio
avantaio
avanti
avanza
avanzava
avanzo
avara
avari
avaricia
avaritia
avarizia
avaro
ave
avea
aveam
avec
avegnache
avegnadeeche
avegne
avegni
avegnime
avegnimenti
avegnimento
avegnu
avegnua
avegnuo
avei
aveighe
aveila
aveilo
aveilu
aveime
aveine
aveiva
aveivam
aveivan
aveive
aveivi
aveivo
avem
avemmo
avemo
aven
avendo
avendu
avenir
avente
avento
aventu
aventura
aver
avera
averai
averam
averan
avere
averea
averei
avereiva
avereivam
averemo
averessi
avero
aversa
aversai
aversaio
aversario
aversitae
averta
averte
averti
averto
avertu
avertua
averæ
avesci
avese
avessan
avesse
avessem
avessi
avesti
avete
aveto
aveva
avexin
avexino
avey
avi
avia
aviamento
avian
aviasiu
aviditæ
avie
aviei
avieiva
avieivan
avieivo
aviemo
aviesci
avieva
avignon
avio
aviso
avistame
avixi
avixina
avizo
aviæ
avo
avoca
avocata
avocato
avochati
avora
avoto
avoxa
avoxo
avoxæ
avra
avrebbe
avri
avu
avuo
avv
avvegne
avvegni
avvegnimenti
avvegnu
avvenimenti
avventa
avversa
avversai
avverti
avvia
avvili
avviso
avvixin
avvixina
avvixinn
avvocati
avvocato
avæ
aværta
aværto
award
awards
axao
axe
axeva
axevan
axi
axia
axilla
axillo
axio
axo
axworthy
ay
aya
aye
aygoa
aymara
ayre
aythya
az
azaretti
aze
azeglio
azem
azenetti
azenetto
azenettu
azeni
azenin
azerbaigia
azerbaijan
azi
azia
azie
azienda
azioin
azion
azione
azo
azoche
azonto
azonze
azu
azzardo
azzo
azzonta
azzonze
azzunto
azzunze
azzunzeighe
azərbaycan
b
ba
baa
babboleo
babilonia
bac
bacca
baccan
bacchetta
bacchæ
bacciccia
baccio
bacco
bach
bache
baci
baciccia
bacillo
bacino
bada
badamenti
badano
badara
badaracco
badda
baden
badia
baffi
baga
bagatella
bagatelle
baggi
baggio
bagna
bagnao
bagnascu
bagni
bagno
bagnolo
bagnæ
bahama
bahia
baia
bailia
bairia
baja
baker
baku
bala
balbi
balca
balchen
bale
baleari
balen
balestra
bali
balia
balilla
balin
balla
balle
ballet
balletti
balletto
balli
ballilla
ballin
ballo
ballon
ballu
balo
balon
balone
balsamo
baltico
balu
bambi
bambin
bambino
bampi
banbi
banc
banca
banche
banchero
banchetta
banchetti
banchetto
banchi
banchie
banchinn
banco
band
banda
bande
bandea
bandera
bandere
bandi
bandiera
bandij
bandio
bando
bangladesh
bano
bao
baptesto
baptiste
bar
bara
baracca
baracche
baranc
baranza
barba
barbaci
barbaggia
barban
barbara
barbare
barbari
barbaria
barbarie
barbaro
barbarossa
barbasciu
barbe
barbena
barbi
barbin
barbixi
barboa
barc
barca
barcelona
barche
barchetta
barchi
barco
barcoi
barcoin
barcon
barcone
barcun
bardene
bardo
bardoin
bardovi
baresti
barestin
barestre
bargaggi
bari
barletta
barllam
barlu
barnaba
baro
barocco
baroccu
baroin
barom
baron
baroni
barrelli
barri
bartolomeo
barudda
bas
basa
basci
base
basi
basilicata
basilico
basorilie
bassa
bassano
basse
bassi
basso
bassu
bast
basta
bastante
bastanti
bastava
baste
basti
bastia
bastian
bastiggia
bastimenti
bastimento
bastion
basto
bastom
baston
bastona
bastone
bastonæ
basæ
bata
bataga
batage
bataggia
batagia
bataia
bate
bateri
batesmo
batesto
bateza
batezai
batezao
bati
batista
batiste
bato
batta
battagge
battaggia
battaggion
battaglia
battaia
batte
batteiva
batteivan
batteri
battesto
batteston
batteximo
batteza
battezza
battezzao
battezzo
batti
battise
battista
batto
batton
battu
battæximo
batu
batuo
batæximo
bau
bauer
bava
bavastro
bave
bavea
baxa
baxaico
baxava
baxe
baxi
baxilica
baxin
baxirio
baxo
bay
baylia
baza
bazar
baze
bazo
bazæ
bba
bbc
bben
bbi
bbio
bbitu
bblica
bblico
bbo
bbri
bbrica
bbriche
bbricu
bbro
be
bea
beai
beao
beata
beate
beati
beatitudem
beatitudinem
beatitudo
beato
beatrice
bec
becca
beccaria
becchi
becco
beccu
becho
beda
beddin
bedi
bedin
beduin
beee
beethoven
beffe
before
beghin
begæ
bei
beigua
beirut
beive
beiver
beivo
bel
bela
belarus
bele
belec
belessa
belgio
belgium
belgra
belgrano
beli
belin
belissimo
bell
bella
belle
bellec
bellessa
bellesse
belleza
bellezza
bellezze
belli
bellini
belliscima
belliscime
belliscimo
bellissima
bellissimo
bello
bellu
bellum
belmonte
belo
belon
bem
ben
bena
benardi
benardo
benardu
benastruo
benben
bench
benche
bene
benedeti
benedetta
benedetti
benedetto
benedettu
benedi
benedicta
benedictus
benefic
beneficij
beneficio
benefizio
beneita
beneite
beneiti
beneitin
beneito
benevento
beni
beniculturali
benigna
benigno
beniscimo
benissimo
benissiom
benixi
benjamin
bensci
beo
bep
bepp
beppe
beppin
beppina
ber
bera
berbexi
bere
beretta
berettin
bergamasco
bergamo
beri
berio
berli
berlicche
berlin
bern
berna
bernabe
bernard
bernardin
bernardino
bernardo
bero
berretta
berrettin
berrio
bersaggio
berserk
berta
berte
berthome
berto
bertome
bertomelin
bertra
bertume
berze
berzezzi
besagno
besara
besche
bescura
bese
beseugna
besogna
besogno
bestento
bestia
bestiame
bestiamme
bestie
besuoegna
besœugna
besœugno
beta
betelem
betelemme
betlemme
bettoe
between
beu
bevanda
beve
bevei
beveiva
bevenda
bevoto
bevu
beweb
beza
bezagnin
bezagno
beze
bezeffe
bezeugna
bezo
bezogna
bezzu
bezœugna
bezœugno
bg
bi
bia
biaa
biagio
bianca
biancha
bianche
bianchi
biancho
bianco
bianssa
biao
biava
bibbia
bibbin
bibin
bibl
bibliogra
bibliografi
bibliote
biblioteca
biblioteche
bibliothe
bibliute
bibliuteca
bica
bie
biella
biellese
bieloru
bien
biena
bienna
biennale
bieti
biforco
big
biga
bige
bigeteri
biggetti
biggetto
bila
bilateria
bile
bili
bilitæ
bill
bin
bina
binari
binda
bine
bingen
binor
bio
biografi
biografia
biografico
biologia
bionda
biondo
biot
biou
bir
birbante
birbanti
birbo
bird
biricchin
bis
bisanti
bisce
bischetta
biscia
biscie
bismarck
bisogna
bissau
bite
biti
bito
bitu
bixio
bizanc
bizanti
bizantin
bizarro
bizesti
black
blaise
ble
bleu
blica
bliche
blichi
blico
blicu
bligato
bligo
blime
blo
blocca
blocco
blogspot
blu
bne
bnf
bo
boa
boc
boca
bocane
bocca
boccaccio
boccaneigra
boccardo
bocche
bocchetta
bocchin
boccoin
boccon
boccu
bocha
boche
boe
boecio
boecius
boemo
bogge
boggi
boggiasco
boggie
boggio
boghezzo
bogi
bogio
bogota
bohr
boi
boia
boim
boin
bolchi
boleti
boletus
boli
bolia
bolivia
bolla
bolle
bollettino
bollo
bolma
bolo
bologna
bolsa
bom
bomba
bombe
bompiani
bon
bona
bonapa
bonaparte
bonassa
bonasse
bonaventura
bonbardame
bone
bonesa
bonesaire
bongio
boni
bonifa
bonifac
bonifacio
bonis
bonn
bonna
bonne
bono
bontae
bonte
bontæ
bonum
book
books
bora
borasca
borbe
borbera
borboggio
borbon
bordello
bordi
bordiga
bordighe
bordighea
bordo
bordosso
borghe
borghese
borgheto
borghetto
borghi
borgia
borgo
borgogna
boria
bormia
bormida
borrasca
borromeo
borsa
borse
borzi
borzon
borzonasca
bos
boscaggia
boschetti
boschetto
boschi
boscho
bosco
boscu
boscæscigian
bose
bosis
bosnia
boston
bota
boti
botta
botte
botticelli
bottigge
bottiggia
bottin
botto
bowker
boxardo
boxi
boxia
boxie
bozzano
boæi
boæo
br
bra
brac
braccia
braccio
bracco
braga
braghe
brahe
brahms
brai
brama
brami
branca
branda
brasi
brasse
brassetto
brassica
brasso
bratta
brava
brave
bravi
bravissimo
bravo
bravu
bravura
braxa
braxe
braxi
bre
breccia
breda
brega
bregantin
breiga
brenno
brera
brescia
breta
bretagna
breve
brevemente
brevementi
brevi
brevitæ
bri
bria
brian
brianza
bric
brica
bricchi
bricco
briccu
briche
brico
brig
briga
brigas
brigasca
brigasco
brigata
brigida
brignoe
brignole
brignæ
brilla
brillante
brillanti
brille
brindesi
brindisi
brindixi
brio
brisson
brita
britain
britannega
britanneghe
britanneghi
britannego
britannica
british
bro
brocca
brocche
broddo
broio
bronzin
bronzo
brown
bru
bruda
brun
brunei
bruno
brunswick
brusco
brustoli
brustolie
bruta
bruto
brutta
brutte
brutti
brutto
brutura
bruxa
bruxao
bruxar
bruxe
bruxelles
bruxo
bruxæ
bu
bucca
budapest
buenos
buffa
buffon
buga
buggi
bugi
buglion
buighe
building
buin
buinzan
buio
buisa
bulgari
bulgaria
bulgo
bulgoi
bulgu
bulletin
bun
bunaparte
bunifassiu
bunifazziu
bunn
buoe
buoin
buon
buona
buonadonna
buonarroti
buone
buranello
buratina
burattin
burba
bureau
burga
burghe
burghettu
burghetu
burghi
burgo
burgu
buria
burla
burlando
burle
burlæ
burmia
burrasca
burrows
burundi
buschi
business
busto
but
buta
butao
butasse
butava
butega
butta
buttando
buttao
butte
buttega
butteghe
butto
buza
by
bæ
bædin
bæga
bæghe
bælla
bællo
bærnabe
bærtome
bœu
bœutta
c
ca
caa
caba
caban
cabana
cabanna
cabanne
cabela
cabella
cabelle
cabrini
cac
caccia
caccian
cacciando
cacciao
cacciava
cacciavan
caccio
cacciou
cacciæ
cacia
cacichi
cacico
cacio
caciæ
cada
cade
caden
cadena
cadenn
cadenna
cadi
cado
cadu
cae
caesar
cafa
cafari
cafe
caffa
caffao
caffaro
caffe
caffeinna
caga
cagliari
cagna
cagnetto
cai
caiffas
caigna
caignan
caim
caimaca
cain
cair
cairedin
cairo
cairoli
caistria
caistrie
caitæ
caius
cala
calabbria
calabria
caladda
calais
calamitta
calatafimi
calcio
calcola
calcoli
calcolo
cale
calenda
calice
calidris
califo
california
calisa
calite
calle
calli
calma
calo
caltanissetta
calu
calura
calvi
calvino
calvoa
calzamiglia
cam
cama
camalla
camalli
camallo
cambia
cambiale
cambiar
cambiaso
cambio
cambridge
came
cameadda
camera
camere
camerera
camerere
cameri
cami
camilla
camillo
camim
camin
camina
caminando
caminn
camino
camixa
camixe
cammia
cammin
cammina
camminando
camminn
cammino
camminæ
camo
camoggi
campa
campagna
campagnata
campagnate
campagne
campan
campana
campane
campani
campanin
campann
campanna
campannia
campetto
campi
campioin
campion
campionato
campo
campu
campuge
campugexa
can
cana
canada
canade
canaggia
canaie
canale
canavese
canberra
canbia
canbio
canc
cancaro
cancellarii
cancellato
cande
candeia
candeira
candeja
candia
candida
candido
candidæ
candu
cane
canello
canepa
canestrelli
cangi
cangia
cangiame
cangiamenti
cangiamento
cangian
cangiando
cangiao
cangiava
cangiaxo
cangie
cangio
cangiou
cangiu
cangiæ
cani
canidae
canis
canna
cannabis
canne
cannes
canneto
cannocciale
cannoi
cannoin
cannon
cannone
cannonæ
cano
canoa
canoe
canoi
canoin
canon
canonico
canonnega
canonnego
canpa
canpagna
canpani
canpi
canpio
canpiono
canpo
canpomo
canposa
canpu
canso
cansoi
cansoin
canson
cansonetta
cansu
cansun
canta
cantalo
cantalupo
cantaluvu
cantan
cantando
cantante
cantanti
cantar
cantava
cante
cantego
cantemmo
canterini
canterville
canti
cantilena
cantin
cantinn
canto
cantoi
canton
cantoni
cantu
cantun
cantæ
canu
canzon
canzone
canzonette
canzoni
canæ
cao
caonabbo
caos
caosa
caose
caoza
caoze
cap
capa
capac
capace
capaxe
cape
capela
capele
capeletta
capeli
capella
capelle
capelli
capello
capi
capie
capio
capisce
capiscio
capita
capitagni
capitagno
capital
capitale
capitali
capitan
capitaneo
capitani
capitanio
capitannio
capitano
capite
capito
capitoli
capitolin
capitolini
capitolo
capitoro
capittolo
capitæ
capo
capoa
capoco
capodimonte
capole
capoleughi
capoleugo
capoli
capon
capora
caporale
capp
cappa
cappe
cappella
cappelli
cappellin
cappellinn
cappello
cappi
cappo
cappoin
cappon
cappu
cappuc
caprauna
capric
capu
capuc
capusso
car
cara
caraba
carabine
caracas
caraibi
carama
carate
carateri
carateristiche
carateriza
caraterizo
caraterizæ
carattere
caratteri
caratteristega
caratteristeghe
caratteristica
caratteristiche
caratterizza
caravaggio
carbo
carbon
carbone
carbonica
carbonio
carbonæa
carbu
carc
carca
carcagne
carcare
carcere
carche
carco
carcolo
cardena
cardenae
cardenai
cardina
cardinale
carducci
care
carea
carec
carega
careghe
careghette
careghi
carego
carell
caresse
caresti
carestia
caretta
caretto
carettu
carexo
cari
caricamento
carie
carige
carignan
carignano
cariscimo
carissima
carissimi
carissimo
carita
caritae
carite
caritæ
carl
carla
carlandi
carles
carleva
carli
carlin
carlini
carlo
carlofo
carlomagno
carlos
carlu
carma
carmagnola
carme
carmelite
carmen
carmo
carmu
carna
carne
carni
carnivora
carnot
caro
caroggi
caroggin
caroggio
caroli
carolinn
caronte
carossa
carosse
carpi
carrara
carrea
carrega
carreghe
carreghi
carrego
carrera
carretto
carriera
carrio
carro
carroc
carroggio
carrossa
carrosse
carta
cartagine
cartari
carte
cartellu
cartilagine
carto
cartolin
carton
caru
caruggi
caruggiu
carzœu
cas
casa
casaccia
casadda
casai
casale
casaletto
casalis
casan
casanatense
casano
casanova
casassa
casasse
casay
casazza
cascata
cascaun
casce
cascetta
caschaun
caschum
caschun
casci
cascia
cascin
cascione
casciu
cascun
case
casella
caselle
casellu
caserio
casetta
casette
casi
casin
casino
caso
cassa
cassai
cassano
cassao
cassata
cassato
cassava
casse
cassine
casso
casta
castagna
castagne
castagno
castaneas
castarno
caste
castel
castela
castelani
castele
castella
castellani
castelletto
castelli
castellin
castello
castellu
castelnuovo
castelvecchio
castergiancu
casti
castiga
castigatissimi
castiggia
castiglione
castigo
castitae
castitæ
casto
castregiancu
castrevegliu
castreveiu
castro
castrum
casu
casus
casxa
cat
cata
catai
catala
catalan
catalana
catalann
catalans
catallugu
catalo
catalog
catalogac
catalogna
catalogo
catalogue
catalunya
catari
catarina
catarismo
catedra
catedrale
categori
categoria
categorie
caterina
catherine
cativi
cativo
cato
catollica
catollichi
catollico
caton
catsouras
catt
catta
cattainetta
cattainin
cattaneo
cattannio
cattarinetta
cattedra
cattedrale
cattiva
cattive
cattivi
cattivo
cattivu
cattolica
cattolichi
cattolico
cattua
catturao
cattæn
catu
catullo
catæn
catænn
cau
caudatus
cauo
causa
cause
cautela
cauza
cav
cava
cavage
cavagei
cavagge
cavagna
cavagno
cavalaja
cavalaria
cavaler
cavaleri
cavalie
cavalier
cavaliere
cavalieri
cavallaja
cavalli
cavallin
cavallo
cavallu
cavanna
cavarca
cavare
cave
cavear
cavelli
cavello
cavendish
caverna
cavestro
cavi
caviggia
cavitæ
cavo
cavour
caxa
caxi
caxion
caxo
caxoi
caxoim
caxoin
caxom
caxon
caxona
caxono
caxonæ
caxu
caxum
caxun
cayphas
caza
cazac
cazacca
cazame
cazan
cazassa
cazassanti
cazasse
caze
cazetta
cazette
cazi
cazion
cazo
cazza
cazzan
cazze
cazzeiva
cazzo
cc
cca
ccaellu
ccane
ccao
ccc
cce
ccede
ccesso
cche
cchetta
cchi
cchia
cchie
cci
ccia
ccie
ccio
cciu
cco
ccolo
ccou
ccu
cd
ce
cea
ceca
cecchi
cecil
cecilia
cecoslova
cede
cedia
cedu
cega
ceghi
cego
cei
ceiga
ceighe
ceira
ceive
cel
cele
celebra
celebrasiu
celebre
celebro
celeste
celesti
celestia
celestial
cell
cella
celle
celli
cello
cellula
cellule
celo
cen
cena
cenge
cenna
cenni
censi
censime
censimento
censu
census
censæ
cent
centa
centencia
center
centi
cento
centra
central
centrale
centre
centri
centro
centru
centræ
centuries
centurione
century
cephalaspidomorphi
cepollini
cer
cera
ceramica
cerca
cercando
cercha
cerchando
cerco
cerere
cerjo
cerl
cerreto
cerro
certa
certamenti
certe
certi
certo
cervantes
cervello
cervo
cesare
cessa
cessam
cessar
cessava
cesso
cetera
ceto
cetra
cette
ceuta
ceva
cevetta
cexi
cezare
cezaro
cf
cfc
cfr
ch
cha
chair
change
charadrius
charles
chaschaun
chaum
chaunna
chaza
che
chei
cheirogaleidae
cheirogaleoidea
cheita
cheite
cheitem
cheiti
cheito
chel
cheli
chen
cher
cherubim
cheu
chi
chia
chiabrera
chiama
chiame
chian
chiara
chiaramente
chiaro
chiavari
chiave
chiaxe
chiazza
chicago
chie
chienti
chiera
chieri
chiero
chiesa
chiesacattolica
chiese
chilo
chilometri
chilommetri
chimica
chimici
chimico
chin
china
chinavan
chine
chinn
chinna
chinno
chino
chinz
chinze
chinæ
chioggia
chios
chiru
chirurgo
chissa
chita
chitara
chitarra
chitta
chittara
chittarin
chittarrin
chiu
chiue
chiunque
cho
cholera
chollera
chondrostei
chordata
chosa
chose
choses
chosi
chp
christe
christian
christmas
christo
christoffa
christopher
chu
church
churchill
chy
chœu
ci
cia
ciabrea
ciac
ciaga
ciaghe
ciama
ciamao
ciamavan
ciamma
ciamman
ciammao
ciammaou
ciammava
ciammavan
ciamme
ciammo
ciammou
ciammæ
ciamo
ciampanelle
ciampi
ciamæ
cian
ciancianin
ciane
ciani
cianin
ciann
ciannin
cianta
ciantagallettu
ciante
cianto
ciantæ
cianu
cianura
cianzando
cianze
cianzei
cianzeiva
cianzendo
cianzendu
cianzi
cianzo
ciao
ciape
ciappa
ciappe
ciappina
ciaravalle
ciarla
ciarlattan
ciarlaxi
ciarle
ciaschedu
ciaschedun
ciascu
ciascun
ciassa
ciasse
ciatta
ciatto
ciavai
ciavari
ciave
ciavo
ciazza
ciazze
cibao
cibi
cibo
cicchetta
cicchin
cicciolla
cicero
ciche
cicherin
cichero
ciciliot
ciclo
cida
cide
cidenta
cido
cie
ciel
cielo
cien
ciera
ciero
cifra
cii
ciii
cile
cilindri
cilindro
cima
cin
cina
cine
cineise
cineize
cinema
cinn
cinquanta
cinque
cio
cioca
ciocca
cioccata
ciocche
ciocchi
ciocchæ
ciocco
ciode
cioe
cioeve
ciongio
ciossa
cipolla
cipriano
cipro
circa
circasso
circha
circo
circola
circolac
circoli
circolo
circonda
circondao
circondo
circondæ
circonvalac
circonvallazione
circoscric
circostanc
circostanza
cirillo
ciro
cirolla
ciste
cit
cita
citae
citaim
citain
cite
citem
citta
cittara
citte
citten
citti
cittæ
city
citæ
ciu
ciudad
ciufi
ciumme
ciuto
ciutosto
civ
cives
civi
civico
civile
civili
civiltæ
civitas
civitate
civitatem
civitatis
cix
cixa
cixan
ciæa
ciæamente
ciæe
ciæi
ciæo
ciæti
ciœuve
cl
cla
clar
clara
claric
clarine
clarineti
clario
clark
clasci
clascica
clascichi
clascico
clascifica
clascificac
clasi
clasifica
clasificac
clasifichæ
classe
classi
classici
classico
classificac
classifico
clatrati
claude
claudia
claudio
clavesana
cle
clelio
cleme
clemente
cleo
cleopatra
clero
cli
clidde
clima
climate
climma
clio
clo
clorinda
clot
clotilde
clu
club
cm
cme
cn
cnica
cniche
cnico
co
coa
coalic
cobbia
coc
cocagna
cocchetto
coci
cod
code
codex
codexo
codic
codice
coe
coeu
coghe
cognitive
cogno
cognomme
cognosce
cognoscea
cognose
cognosimento
cognossando
cognosse
cognossea
cognossem
cognossenssa
cognosser
cognossi
cognosso
cognossuo
cognosuo
coi
coinci
coincidde
cointa
cointar
cointo
coinvo
coio
col
cola
colaborac
colaborato
colazion
cole
colec
coleccio
colega
colegame
colegio
colego
colegæ
coletta
coli
colinn
coll
colla
collan
colle
collec
collection
collections
collega
college
colleghi
collegio
collegium
collera
collezione
colli
collin
collinn
collo
colloca
collodicino
collu
colmo
colo
colombano
colombia
colombiade
colombini
colombo
colone
colonello
colonia
colonie
colonizac
colonna
colonne
colonnie
color
colorac
colorado
colore
colori
coloro
coloræ
colossali
colosso
colpa
colpe
colpi
colpo
coltiva
coltivac
coltivo
coltivæ
coltu
coltura
columbia
columbus
colæn
com
coma
comanda
comandai
comandamenti
comandamento
comandante
comandanti
comandao
comandava
comande
comandi
comando
comandæ
combatte
combattendo
combattenti
combattimento
combattu
combi
combinac
combo
combre
combustion
come
comeddia
comedia
comeigo
comenc
comensa
comensamento
comensan
comense
comensia
comenso
comenssa
comensæ
comenza
comerc
comercia
comercio
cometa
comete
comi
comiao
comica
comiche
comici
comisa
comiscio
comisso
comita
comitato
comitiva
comm
commanda
commando
comme
commedia
commedie
commenc
commensa
commenti
commento
commerc
commercia
commerciale
commercio
commiscion
commissa
commission
commisso
commo
commons
commonwealth
commosso
commu
commun
commune
communis
communitæ
como
comoda
comodi
comodo
comonque
compa
compact
compagna
compagne
compagni
compagnia
compagnie
compagno
compagnon
company
compari
comparisce
compariva
comparsa
comparso
comparte
compascion
compassiom
compassion
compasso
compati
compatiscio
compendio
compenso
comperarum
compere
competenc
competic
compi
compia
compiaxe
compie
compilao
compimento
compio
compir
compisce
compito
complesci
complessa
complesso
completa
completamente
completo
complimenti
complimento
compo
compon
componente
componenti
componimenti
componimento
componne
comporta
comportamento
composcito
compose
composta
compostela
composti
composto
compoxic
compoxito
compreisa
compreiso
compreixi
compreizo
comprende
comprender
compromisso
compton
computer
comu
comui
comum
comun
comuna
comunale
comune
comunefinaleligure
comuneme
comunemente
comuni
comunica
comunicac
comunidad
comunista
comunita
comunitæ
comunna
comunque
con
conba
conbate
conbatime
conbatu
conbatuo
conbinac
conc
conce
concec
concede
concentra
concentrac
concentræ
concepcio
concepi
concepio
concerto
concescio
concescion
concesse
concesso
concetti
concetto
concezione
conche
conchetta
conchette
conci
concilio
concillio
concise
conclu
concludde
conclude
concluse
concluso
concluxiom
conco
concordia
concore
concorso
concrusion
concruxion
concruxon
concruze
condana
condanao
condanna
condannao
condanno
condannæ
condano
condensac
condi
condic
condicioim
condiciom
condicione
condition
condivi
condizion
condu
condue
conduga
condusse
conduta
condute
conduti
conduto
conduxe
confe
confederac
confederæ
confere
conferenc
conference
conferi
conferma
confermao
confermo
confescioin
confescion
confessa
confessao
confession
confesso
conffessiom
confforto
confi
confia
confidenza
confin
confina
confinn
confli
conflito
confluensa
confo
confonde
conforme
conforta
confortao
confortava
conforto
confrate
confraternite
confro
confronta
confronti
confronto
confræ
confu
confusa
confusion
confuso
confuxion
confuxo
confuxon
confuzo
conge
congiua
congiuntu
congo
congre
congrega
congregac
congregai
congress
congresso
coni
conia
coniggio
conio
coniogac
coniæ
conlaboac
conlaboatoi
conligamenti
conligamento
conmeigo
connecticut
connettivo
cono
conobbe
conosce
conoscei
conosceiva
conoscenc
conoscendo
conoscensa
conoscenza
conoscere
conosci
conoscian
conoscio
conosciu
conosciua
conosciui
conosciuo
conpa
conpagi
conpagna
conpagni
conpagnia
conpagno
conpagnoim
conpagnom
conpagnon
conpagnoni
conparati
conpassiom
conpete
conpetic
conpi
conpia
conpio
conple
conpleta
conpleto
conpo
conpone
conponime
conpoxic
conpoxito
conpre
conprende
conputac
conqui
conquista
conquistao
conquistato
conquiste
conquisto
conquistæ
conrad
conrado
consacra
conscenc
conscenza
consci
conscidera
consciderac
consciderando
consciderao
conscidere
conscidero
consciderou
conscideræ
conscidiac
conscienza
consciste
conscistente
conse
consecuti
consega
consege
consegge
conseggi
conseggia
conseggio
consegi
consegia
consegio
consegna
consegno
consego
consegoe
conseguenc
conseguensa
conseguente
conseguenza
conseguenze
consegui
conseguir
conseia
conseiar
conseigo
conseio
consenso
consente
consenti
consentio
consentir
conserva
conservac
conservao
conservato
conservava
conservo
conservæ
consevoto
considera
consideraciom
considerando
consiglio
consilio
conso
consola
consolac
consolaciom
consolao
consolar
consolato
consolazion
console
consoli
consolida
consolo
consona
consonante
consonanti
consora
consorao
consoration
consoro
consorte
consortium
consoseacossache
conspecto
conspeto
constancia
constante
constanti
constantin
constituc
constitui
constituio
constreiti
constreito
construc
construio
construto
consu
consulta
consulto
consuma
consumao
consumma
consummo
cont
conta
contadi
contadin
contaggio
contan
contando
contanti
contao
contar
contatti
contatto
contava
conte
contea
contegne
contegni
contegno
contegnu
contegnui
contegnuo
conteigo
conteiza
contempla
contemplac
contemplando
contempo
contemporanea
contemporanei
contemporaniamente
contemptu
conten
contenplaciom
contenpora
contenporaniame
contenta
contente
contenti
contento
contessa
contesta
contesto
conti
contine
continenta
continente
continenti
contingente
continno
continnoa
continoa
continoac
continoo
continu
continua
continuamente
continuamenti
continuando
continuava
continue
continuo
contio
conto
contorni
contorno
contr
contra
contraba
contrac
contradi
contradir
contrae
contrai
contraia
contraio
contraria
contrarie
contrario
contrasta
contrastar
contrasti
contrasto
contratto
contre
contriboi
contribu
contribui
contributo
contrista
contro
controfensciva
controla
controllo
controlo
controlæ
controriforma
controve
contræ
contræto
contuniamenti
contæ
conuem
conve
convegni
convegniva
convegno
convem
conven
convenc
conveniente
convenienza
convento
conversa
conversac
conversaciom
conversazion
converscion
converti
convertij
convertio
convertisse
convi
convinc
convinto
convivio
convo
convoco
convu
conzonti
conzonze
conzu
conzua
coo
cook
cooper
cooperac
copa
cope
copenaghen
copernico
copia
copio
copista
coppa
coppe
coppi
coppia
coppie
copu
cor
cora
corac
corado
coraggio
coraggioso
corallo
coram
corando
corba
corbe
corbetta
corda
corde
cordi
cordino
cordinæ
cordon
core
corea
corelæ
corente
coreze
cori
corido
corie
corispo
corisponde
corispondenc
corispondente
cormo
corna
corne
cornelio
cornell
corni
cornige
corniggen
cornigliano
cornixe
corno
cornolo
coro
coroi
coron
corona
coronac
coronba
corone
coronn
coronna
coronne
corpa
corpe
corpi
corpio
corpo
corpora
corpu
corpus
corr
corrado
corran
corrando
corre
corregger
correggere
correggi
correggio
correggo
correndo
corrente
correnti
corresponde
corretto
correzione
corri
corriere
corrindo
corrisponde
corrispondente
corriva
corrivan
corro
corsa
corsci
corse
corsega
corsi
corsica
corso
corsse
corssem
corsso
corsu
corsæ
corta
corte
corteise
corteize
cortese
cortesia
cortexi
cortexia
corti
cortiva
corto
cortua
coruc
corun
cos
cosa
cosce
cosci
coscicche
coscienza
cose
cosi
cosie
cosimo
cosma
cosme
cosmo
cosmologia
cossa
cosse
cossi
costa
costalago
costante
costanti
costantin
costantino
costantinopoli
costantinoppoli
costanza
costao
coste
costera
costi
costion
costitoe
costitoi
costituc
costitui
costituio
costituisce
costo
costre
costreita
costreiti
costreito
costrenze
costroi
costru
costruc
costrui
costrutto
costu
costui
costume
costumi
costumme
costummi
cotal
cotar
cote
cotello
coton
cotta
cottello
cotton
cou
couea
couem
countries
country
county
court
cove
covem
coven
coverta
coverte
coverti
coverto
covertu
covid
coværto
coximo
coxin
coxina
coxinna
cozi
coæ
cqui
cr
cra
cracovia
crao
craou
crate
cratei
crava
cravau
crave
craviotto
cravæa
cre
crea
creac
creai
creanc
creando
creandosse
creanza
creao
creasiu
creato
creator
creatore
creatu
creatura
creature
creddan
credde
creddei
creddeiva
creddeivan
creddeivo
creddi
creddo
creddu
crede
credei
credeiva
credeivo
credendo
credesse
credi
credito
creditoi
credo
credu
cree
creer
crei
creira
creiram
creiva
creivam
crem
crema
cremagliera
cremasco
cremente
cremento
cremo
cremona
cremonese
cremonn
cren
crena
creo
creou
crepa
creppa
creppo
cresce
cresceiva
crescendo
crescente
cresci
crescia
crescian
crescita
cresciu
cressando
cresse
cresta
crestalli
crestallin
crestallo
creste
crestia
crestiam
crestian
crestiana
crestiane
crestianeximo
crestiani
crestiann
crestiano
crestie
crestien
creta
crete
cretem
cretuo
crexe
creximento
crezia
creæ
cri
cria
crian
criando
criar
criava
criavam
criavan
cricca
crie
crii
crij
crime
crimea
crimina
crio
crior
cristallo
criste
cristeza
cristi
cristian
cristiano
cristien
cristina
cristo
cristofa
cristofaro
cristoffa
cristoforo
cristu
crite
critei
criteio
criterio
critica
critiche
critico
crixi
cro
croa
croac
croce
crocifiscio
crocifisso
crollo
cronaca
cronache
cronista
cronnega
cros
cross
crosta
croste
croton
crou
crova
crovi
croviva
crovo
croxa
croxe
croxefi
croxæ
cru
crua
crucifficha
cruciffichao
cruciffixo
crucificao
crucifixo
crude
crudele
crudeltæ
crudera
crue
cruo
cruxe
cruz
cræ
cræa
cræe
crœuve
cs
csi
cte
cu
cua
cuande
cubba
cucina
cue
cugge
cuggia
cuggie
cuggiæn
cugna
cugno
cui
cuinto
cuius
cuiusdam
cula
culaburasiu
culac
cule
culega
culegamentu
culetta
culi
culo
cultivar
cultivasiu
culto
cultu
cultura
cultural
culturale
culturali
culture
culu
culuca
culumba
cum
cuma
cumanda
cumando
cumandu
cume
cumenc
cumensa
cumenso
cumerci
cumercia
cumm
cumme
cummo
cumpagni
cumpagnia
cumprende
cumu
cumun
cumunita
cumunque
cun
cunbu
cundu
cuneo
cunfe
cunferma
cunfi
cunfin
cunfina
cunflittu
cunflui
cunfraternita
cunfraternite
cunfurmasiu
cungressu
cuni
cunpagni
cunpagnia
cunpagnu
cunprende
cunquista
cunsacra
cunsce
cunscente
cunscide
cunscidea
cunscidera
cunseggiu
cunsegno
cunserva
cunsiyu
cunstru
cunsu
cunsulta
cunta
cuntadi
cunte
cuntegne
cuntempuranea
cuntenta
cuntentec
cuntentu
cunti
cuntinua
cuntinuo
cunto
cuntr
cuntra
cuntro
cuntrollu
cuntru
cuntrula
cuntrulo
cuntu
cunusce
cunusciu
cunventu
cuo
cuoe
cuore
cupa
cupac
cupido
cupo
cupola
cur
cura
curaggiu
curao
curato
curatoi
curava
cure
curi
curia
curie
curiere
curispunde
curitiba
curo
curpu
current
cursa
curse
cursorius
cursu
curta
curte
curti
curto
curtua
curva
cus
cusci
custe
custitui
custode
custodi
custodia
custodiendo
customs
custrui
custruia
custruiu
custrusiu
cuu
cuve
cuvertu
cuvier
cuxe
cuxi
cuxin
cuxina
cuxinn
cuæ
cv
cvi
cvii
cviii
cx
cxi
cxii
cxiii
cxiv
cxix
cxv
cxvi
cxvii
cxviii
cxx
cxxii
cxxiii
cxxiv
cxxix
cxxv
cxxvi
cxxvii
cxxviii
cxxx
cxxxi
cxxxii
cxxxiii
cxxxiv
cxxxv
cxxxvi
cxxxviii
cy
cz
cæ
cæa
cæo
cæra
cæro
cæti
cæto
cœ
cœu
cœugo
cœutta
cœutto
d
da
daa
dac
dae
daeta
daeto
daga
dagando
dage
dagghe
daggo
daghe
dagi
dagli
dago
dai
daia
daio
daita
daiti
daito
dakordiu
dakota
dal
dall
dalla
dalle
dalli
dallo
dalmazzo
dam
dama
damasco
dame
damerica
damia
damiano
damma
damme
damæn
dan
danaciom
danai
danao
danc
dando
dandoghe
dandu
dane
daneize
danema
danemarca
daneza
dani
daniel
daniele
danima
danimarca
danna
danne
danni
danno
dannæ
dano
dans
dansa
dante
dao
dape
dapertu
dapertutto
dapeu
dapo
dapoi
dappertu
dappertutto
dappeu
dappresso
dappœu
daprimma
dapœu
dapœuscia
dar
dara
daran
dare
darei
daremo
dario
daro
darsena
darwin
daræ
das
dase
dasedda
data
database
datac
date
dati
dato
datæ
dau
dauanti
dava
davam
davan
davanti
dave
davei
daverio
davi
david
davidde
davide
davis
davit
davo
davvei
day
dayto
dc
dda
ddan
ddd
dde
ddei
ddi
ddia
ddio
ddo
ddra
ddre
ddri
ddro
ddu
de
dea
dead
death
debbole
debi
debia
debiam
debiti
debito
debole
debolec
debolessa
debolesse
dec
decade
decantæ
decaocto
dece
decem
deci
deciara
deciarac
deciaro
decidde
decima
decimo
decisa
decise
deciso
decixiva
decixivo
decixo
decixoi
decixon
decize
decizo
decli
deco
decora
decorac
decoro
decoræ
decre
decreto
decretti
decretto
decurasiu
dedic
dedica
dedicao
dedicatoia
dedicatoria
dedichæ
dedico
dedicæ
dee
deepin
defe
defeisa
defeiza
defeize
defenda
defende
defender
defetto
deffende
deffeto
deffor
deffora
defini
definia
definic
definio
definire
definisce
definiti
definitiva
definitivamente
defo
defora
defæti
dega
degas
dege
degge
degghe
deggie
deghe
degi
degli
degna
degne
degni
degno
degnu
dego
degolar
deh
dei
deia
deisse
deisti
deiva
del
delaware
delegac
deleta
deleti
deleto
delfino
deli
delia
delibera
deliberao
deliberation
delic
delica
delicao
delichæ
delico
delimita
delineatae
delinia
delinquenti
deliquio
delitti
delitto
delivera
delivia
delizia
delizie
deliziosa
dell
della
delle
delleti
delleto
delli
dello
delongo
dels
delta
deltæ
delu
delungu
dem
deman
demanda
demandai
demandando
demandao
demandar
demandava
demande
demandi
demando
demente
dementre
demetrio
demmo
demo
demoa
democra
democrac
democratica
demogra
demoli
demolic
demonei
demoneij
demonii
demonij
demonio
demora
demostra
demua
demue
den
dena
denanti
denari
denaro
dene
denmark
denominac
denonc
denscitæ
denso
dent
denta
dente
denti
dentinna
dentr
dentra
dentre
dentri
dentro
dentæ
denuminasiu
denza
deo
departe
department
depento
depenze
deperzente
depo
depoi
deponn
deporto
deposto
depoxic
depoxita
depoxito
deprezente
depu
deputo
deputæ
der
dera
derby
dere
derer
derfin
deri
derimpetto
deriva
derivac
derivan
derivao
derivasiu
derivo
derivæ
derre
derru
derrua
deru
derua
deruca
des
desaventura
desbaratti
desbaratto
desca
descazze
descende
descia
desco
desconc
descorso
descoverta
descoverte
descoverto
descre
descretion
descri
descric
description
descrita
descriti
descrito
descrive
descrizion
descrizione
descrovi
desdiccia
deseize
desenor
deserta
deserti
deserto
desfa
desfe
desfia
desfæta
desfæto
desghe
desgra
desgrac
desgratia
desgrazia
desgrazie
desgroppa
desgu
desgusti
desgusto
desgœugge
desidera
desiderio
desidero
design
desio
desipori
desiporo
deslengua
desliga
desmette
desparte
despe
despea
despensa
despeo
despera
desperao
desperou
desperæ
despeto
despia
despiac
despiaxe
despiaxei
despio
despiæ
despo
despoga
despre
desprexa
desprexia
desprexiao
desprexiar
desprexo
despu
despæge
despægi
despægia
despægie
despægio
despæto
dessa
dessan
desse
dessi
desso
desta
destaca
destacca
destacco
destaco
destana
deste
desteisa
desteise
desteiso
desteiza
desteize
desteizo
destende
desti
destin
destina
destinac
destinaciom
destinao
destino
destinæ
destra
destreito
destrezza
destriga
destro
destru
destruc
destruciom
destrue
destrusse
destruta
destruti
destruto
destu
deta
dete
determina
determinac
determinante
determinao
determino
determinæ
deto
detta
dettan
dette
detti
detto
deuea
deum
deus
deuterostomia
deutsche
deutschen
deuvia
deuvio
deuviou
deuviæ
deux
dev
deva
devan
devasta
deve
devea
deveam
devegne
devegni
devegnuo
devei
deveiva
development
devem
devemo
deven
deventa
deventao
devente
devento
dever
deverea
devesse
devessem
devi
devia
deviac
devo
devoc
devociom
devocion
devota
devotamente
devotamenti
devote
devoti
devotion
devotium
devoto
dex
dexe
dexembre
dexen
dexenni
dexennio
dexid
dexide
dexidei
dexideio
dexideo
dexidera
dexiderio
dexidero
dexine
dexira
dexiram
dexirar
dexirava
dexire
dexiri
dexiro
dey
deze
dezenbre
dezerto
dhaka
di
dia
diabete
diaf
diaforio
diai
diale
dialectales
dialects
dialeta
dialettale
dialetti
dialettica
dialetto
dialettu
dialetu
dialo
dialoghi
dialogo
diama
diamante
diamanti
diametro
dian
diana
diano
diao
diarchi
diario
diascoa
diata
diau
diauo
diavi
diavo
diavolo
diavoro
dic
dica
diccia
dicciaro
dice
dicembre
dicens
dicere
diche
dichi
dici
dicia
diciara
diciarac
diciaro
dicio
dicit
dickens
dico
dicta
dicte
dicti
dictionary
dictionnaire
dicto
didier
dido
didon
die
dieci
dieg
diego
diei
dieiva
dies
diesel
diet
dieta
dietro
dieu
difatti
dife
difeisa
difeise
difeiza
difeize
difende
difensciva
difenso
difere
diferenc
diferente
diferenti
difesa
difetti
difetto
differenc
differencia
differensa
differense
differente
differenti
differenza
diffic
difficile
difficoltæ
difficortæ
diffonde
diffu
diffusa
diffuso
diffuzo
difi
dific
dificoltæ
dificortæ
difo
difu
difuxo
difuxon
difæti
diga
digamo
digando
digandoge
dige
digeri
diggan
diggando
digghe
diggo
diggu
dighe
dighemo
digi
digilander
digita
digital
digitale
dignitae
dignitates
dignitæ
digo
digra
digramma
dii
diletta
dilettante
dilettanti
diletto
dili
diligentementi
diligenza
dilleto
dilo
dilu
diluvio
dim
dimanda
dimando
dimani
dime
dimenscio
dimenscioi
dimenscioin
dimenscion
dimensciu
diminuc
diminui
diminuisce
dimme
dimmo
dimostra
dimostrac
dimostro
din
dina
dinae
dinai
dinar
dinari
dinasti
dinastia
dine
dini
dino
dintorni
dinæ
dio
diocesi
diocexi
dioceza
dioclec
dion
dioni
dionixio
dipartime
dipartimento
dipartimentu
dipe
dipende
dipendenc
dipendente
dipi
dipinta
dipinti
dipinto
dipintu
dipinze
diplo
diplodus
diploma
diplomac
diporto
dir
dira
dirai
diran
dire
direc
direi
direiva
diremo
diresse
diretame
direto
diretoi
diretta
direttamente
dirette
diretti
diretto
direttu
diretu
direzion
diri
diritti
diritto
dirizze
diro
diræ
dis
disc
disce
discende
discendenti
discepolo
discepuli
dischi
disci
discipli
disciplin
disciplina
disciprin
discipuli
disco
discografia
discordia
discordie
discorri
discorsci
discorsi
discorso
discrec
discreta
discrezion
discu
discuscioi
discuscion
dise
disease
disege
disegna
disegni
disegno
disegualiansa
disgrazia
disgrazie
disgrazio
disgu
disipoli
disipori
disiporo
disiuna
disna
disnar
disney
disordine
disparsse
disparte
dispensa
dispero
disperse
dispiaxei
displaystyle
dispo
dispon
disponi
disponibilitæ
disposta
disposte
disposti
disposto
dispoxic
dispoxiti
dispoxitivo
disputa
disputaciom
dispute
dissan
disse
dissege
dissem
dissi
dissipori
dissoluc
dista
distaccamenti
distanc
distansa
distante
distanti
distanza
disti
distinc
distingoe
distingue
distinse
distinta
distintamente
distinte
distinti
distinto
distinzion
distre
distreito
distriboc
distriboi
distribuc
distribui
distru
distruc
distrusiu
distu
disturba
disu
dit
dita
dite
diti
dito
ditta
dittatu
dittongo
ditu
diu
diucesa
diuersse
diuerssi
diuicie
diuinitae
diva
dive
divegne
divegni
divegnu
diventa
diventan
diventando
diventava
diventia
divento
diventæ
divera
diversa
diversame
diversamente
diversci
diverscitæ
diverse
diversi
diverso
diversse
diverti
divertimenti
divertimento
divi
dividde
divide
divin
divina
divine
divinitae
divinitæ
divinn
divinna
divinne
divisa
divise
divisi
division
diviso
divixion
divixo
divixoi
divixoin
divixon
divixun
divize
divo
divoc
divoti
divozion
dix
dixan
dixe
dixea
dixeam
dixei
dixeiva
dixeivam
dixeivan
dixeivo
dixem
dixembre
dixen
dixenbre
dixendo
dixendu
dixesse
dixesti
dixi
dixit
dixon
dizio
dizionario
diziun
dizo
diæ
djvu
djvuindice
dl
dm
dnb
do
doa
doardo
dobbiamo
doc
doce
docementi
docessa
docissimo
docomentac
doctor
doctrina
docume
documenta
documenti
documento
documents
doe
doeuvia
doge
dogge
doggia
doggie
doggio
dogi
dogliotti
doi
doia
doin
dol
dolce
dolenta
dolente
dolento
dollor
dolo
dolor
dolore
doloroso
dom
doma
doman
domanda
domandao
domandava
domande
domando
domandou
domandæ
domani
dome
domenede
domenega
domenego
domenende
domenica
domenico
domennego
domestego
domestico
domi
domina
dominac
dominante
domine
domingo
domini
dominica
dominici
dominide
dominio
dominni
dominnio
domino
dominorum
dominum
dominus
domo
don
dona
donac
donald
donao
donato
donaver
donca
doncha
dond
donde
done
doni
donna
donne
donnetta
donnette
dono
donque
dont
donzella
doo
dopo
dopp
doppie
doppio
doppo
doppu
dopu
dor
doria
dorman
dorme
dormi
dormiando
dormir
dormiva
dormo
doro
doroi
dos
dose
dosementi
dosse
dosso
dota
dotao
dote
doto
dotoi
dotrei
dotri
dotrin
dotrina
dotrinna
dotta
dotti
dotto
dottoi
dottrin
dottrinn
dotæ
douglas
dov
dova
dove
dovea
dovei
doveiva
doveivan
dovemmo
dover
dovera
dovessan
dovesse
dovette
dovia
dovie
dovieiva
dovio
doviæ
dovra
dovu
dovua
dovuo
dovve
doze
dozen
dozz
dozze
dozzen
dr
dra
drafin
drago
dragon
dragut
drake
dramma
drammi
drapi
drapo
drappi
dre
dreittu
dreitu
dreitua
drent
drento
drentu
dresda
dri
dria
dric
dricto
drink
drita
dritamenti
drite
driti
drito
dritto
dritu
dritura
drizza
dro
droghe
drogueria
dru
drue
drugolo
drui
druo
du
dua
duac
dubbia
dubbio
dubia
dubiando
dubiar
dubio
dubita
dubitar
dubite
dubito
dubitæ
dublin
duca
ducale
ducati
ducato
ducca
duce
ducha
duchessa
dudon
due
duello
duemia
duero
duga
dui
duia
dum
duman
dumanda
dumando
dume
dumenega
dumi
duminasiu
dumini
duminiu
duna
dunca
duncha
dund
dunde
duno
dunque
duo
duoe
duoi
dur
dura
duraber
durac
duramenti
durante
durar
durazzo
dure
duri
during
durium
durmi
duro
dusci
dussaiga
dutch
duu
duv
duve
duvea
duveiva
duvu
duvve
dux
duxe
duxenti
duxento
duxi
duxægo
duzze
dvd
dy
dyck
dæ
dæghe
dæme
dæta
dæte
dæti
dæto
dætu
dæve
dœu
dœutta
dœuvera
dœuvia
dœuviando
dœuviao
dœuviæ
e
ea
ean
eania
eano
early
earth
east
eastern
eba
ebban
ebbe
ebben
ebe
ebra
ebraica
ebraico
ebraiximo
ebre
ebrea
ebrei
ebreo
ebrom
ec
eca
ecc
eccate
eccave
ecce
eccec
eccellente
eccellenti
eccellenza
eccesso
eccezion
ecchin
ecclesia
ecco
eccote
eccove
eccu
ece
ecec
echa
echin
eciamde
eciamdee
eclesia
eclezia
eco
econo
economi
economia
economic
economica
economiche
economico
econommica
econommichi
econommico
ecs
ecuado
ecunomica
ecunumi
ecunumia
ed
edde
eddy
ede
edente
edi
edic
edicions
edifficha
edific
edifica
edificio
edifissi
edifissiu
edimburgo
edison
edition
edito
editoi
editore
editori
editoria
editoriale
editrice
editto
edizione
edizioni
edo
edoardo
edu
eduardo
educac
education
educazion
edward
ee
eexa
efe
efetoa
effe
effetti
effettivamente
effettivo
effetto
effettua
efficac
efficienzaenergetica
effigies
efice
ega
ege
egeas
eggi
egi
egic
egiciem
egidio
egito
egitto
egli
ego
egripa
egua
eguale
eguali
egue
eh
ehi
ei
eia
eimo
eimonia
eimonie
ein
einaudi
eine
einstein
eira
eise
eiso
eius
eiva
eivan
eive
eivera
eivia
eivo
eixi
eiza
eize
eizo
eja
el
ela
elabora
elaborac
elaboro
elastico
elba
ele
elebra
elebre
elec
electa
election
elefante
elegante
eleganti
eleganza
eleme
elementa
elementare
elementari
elementi
elemento
elena
elenchæ
elenco
eleste
elesti
eleto
eletora
eletro
eletta
eletti
eletto
elettrica
elettriche
elettrico
elettroin
elettromotrice
elettron
eleva
elevo
eleze
elezu
elezuo
eli
elia
elimina
eliminac
elio
elisabetta
elixir
elizabeth
elizabetta
ell
ella
elle
ellebre
elli
ellia
ello
ellonn
elmo
elo
elogio
elon
els
elu
em
emana
emanac
emano
emanuele
eme
emenda
emente
emerze
emi
emigo
emigra
emigrac
emigranti
emigræ
emilia
emilio
eminente
emisfe
emite
emixi
emma
emmanuel
emmo
emmu
emo
emperaor
empire
emys
en
ena
enble
enbre
enbri
enc
enciclopedia
enciclopedico
encontenente
encyclopedia
encyclopædia
end
ende
endeman
enderno
endexo
endia
endio
endo
ene
enea
eneide
energi
energia
engana
england
english
enie
enigmatico
enim
enimixi
enn
enna
ennie
ennimigo
eno
enorme
enormi
enrichetta
enrico
ensa
ensir
enso
ent
enta
entana
entanæa
ente
entella
enter
enterobacteria
entesca
enti
entitæ
ento
entoa
entorno
entr
entra
entrando
entre
entri
entrion
entro
entrotæra
entru
entrute
entu
entuxiasmo
enu
enza
enzo
eo
eocene
eoro
eorope
eorozo
eos
epidemi
epidemia
epidemie
episcopato
episodio
epistola
epistora
epitaffio
epizodio
epo
epoca
epopea
eppo
eppoca
eppu
epuca
equac
equili
equilibbrio
equilibrio
equino
equipaggi
equipaggio
equivale
equivalente
equivoco
equus
er
era
eradio
eram
eran
erano
erant
erba
erbe
erbetta
erbette
erbo
erboi
erboo
erbori
erboro
erc
erca
ercan
ercando
ercao
ercatoi
ercava
ercavan
erche
erchi
erchia
erchæ
erci
erciamento
ercio
erciæ
erco
ercole
ercæ
ere
erede
eredi
eredita
ereditæ
eremo
erenna
eretichi
erexia
erga
ergo
eri
erickson
eritrea
erli
erminia
ermitage
ermiti
ermito
ermo
erne
ernest
ernesto
ernia
ernst
ernu
ernuo
ero
erode
erodes
erodoto
eroe
eroi
eroica
eroico
eros
erra
erranti
errato
erro
erroi
error
errore
errori
erso
ert
erta
ertamente
erte
ertec
erti
ertidu
ertidun
erto
ertu
eru
erve
ervella
ervelle
ervello
ervo
erze
es
esare
esattamente
esatto
esca
esce
esci
escio
esclu
escludde
escluxi
escluxivamente
esco
escragnolles
escu
escurscion
ese
esecuti
esegui
esempi
esempio
esemplare
esemplari
esenc
esendo
eser
eserc
esercita
esercito
esercitu
esercizio
esi
esise
eso
esopo
espan
espanscio
espanscion
espansione
espe
espera
esperanto
esperie
esperienc
esperiensa
esperienza
esperimenti
esperti
espi
esplic
esplora
esplorac
esplorato
espo
espon
espone
esponenti
esportac
esposta
esposto
espoxic
espre
esprescio
esprescioi
esprescioin
esprescion
espressamente
espresse
espresso
espri
esprimme
essa
essai
essays
esse
essenc
essendo
essendose
essendu
essenduse
esser
essere
essi
esso
est
esta
estadi
estado
estate
este
esteban
esteisa
esteiza
esteize
estende
estenscio
estenscion
estensciu
estera
esteri
esterna
esterne
esterni
esterno
estero
estetica
esti
estin
estinc
estinta
estinto
esto
estonia
estra
estrac
estre
estrema
estremamente
estreme
estremi
estremitæ
estremma
estremmo
estremo
estro
estræto
estudis
estæ
et
eta
etae
etc
ete
eterna
eternal
eternamente
eternar
eterne
eterni
eternitæ
eterno
ethnologue
eti
etiam
etiamde
etiamdee
etica
etichetta
etimologia
etimologico
etio
etiopia
etiquette
etni
eto
etro
etroin
etron
etru
etrusco
etta
ette
ettea
etti
ettin
etto
ettore
etæ
eu
euge
eugenio
euggi
euggio
euggiu
eugia
eukarya
eulemur
eum
eumetazoa
eundo
euro
europa
europe
europea
european
europeana
europee
europei
europeo
eurostat
eustaxio
eustazio
eutoc
eutto
euvia
ev
eva
evange
evangeli
evangelico
evangelio
evangelista
evangeliu
evangerio
eve
eventi
evento
eventoa
eventu
evette
evide
evidenc
evidente
evidentemente
evita
evo
evolu
evoluc
evoluzione
evu
evuo
evviva
ex
examina
exarta
exau
exaudi
exaudio
exe
exempi
exempio
exemplo
exemplum
exenplio
exenprio
exerc
exi
exigenc
exilio
eximo
existan
existe
existenc
existensa
existente
existi
exito
expo
expositio
extra
ez
eza
ezatame
ezau
eze
ezecuc
ezegoi
ezenpla
ezerc
ezerci
ezercita
ezercito
ezi
ezige
ezo
f
fa
fab
fabbrica
fabbricato
fabbriche
fabbrico
fabian
fabio
fabric
fabrica
fabricac
fabriche
fabrico
fabrizio
fac
facce
faccenda
faccende
faccia
facciata
faccie
faccin
faccio
face
facebook
facemo
facende
facendo
faceva
faci
facia
facile
facilmente
facio
faciunt
facoltæ
facortæ
facta
factbook
factis
facto
fadette
fadi
fadiga
fadighe
fae
faesse
faeta
faete
faeto
fage
fagghe
faghe
fai
faia
faie
faiga
faina
faio
fait
faita
faite
faiti
faito
faitu
faiæ
fal
fala
falampi
falange
falchetto
falcone
fale
fali
falimento
falio
falir
falkland
falla
falle
fallem
falli
fallie
fallimento
fallio
fallo
falo
fam
fama
fame
fami
famia
famiga
famigge
famiggia
famiggie
famigia
famiglia
famiglie
familia
family
famma
famme
famo
famosa
famose
famosi
famoso
famoxi
famoza
famozo
famu
famusa
fan
fana
fanatismo
fando
fandonie
fandu
fane
fanetto
fanfaron
fango
fangotti
fangotto
fanni
fanno
fanta
fantaja
fantasia
fantasma
fantasmi
fantaxi
fantaxia
fante
fanteri
fantesca
fanti
fantim
fantin
fantina
fantinna
fantinne
fantozzi
fanæ
fao
faoci
faossa
far
fara
faraday
farai
faram
faran
faraom
farc
farcon
fare
farea
farei
fareiva
fareivan
faremmo
faremo
faressi
farfalla
farina
fario
farixe
farizei
farlo
farmaci
farne
farneize
farnese
faro
farsa
farsi
faræ
farœ
fas
fasa
fasando
fasce
fasci
fascia
fascie
fascio
fascismo
fascista
fascisti
fasciœu
fase
fasemo
faso
fass
fassa
fassan
fassando
fasse
fassemmo
fassemo
fassi
fasso
fasti
fastidio
fata
fatale
fatali
fate
fati
fatiga
fato
fatoi
fatori
fatta
fatte
fatti
fatto
fattu
fau
fauna
fausto
fava
favam
favan
fave
favi
favo
favoeive
favoi
favolista
favor
favore
favori
faxe
faxea
faxeam
faxeiva
faxeivan
faxendo
faxendu
faxente
faxeu
faxeva
fayto
faza
fazando
faze
fazi
fazo
fazzo
fc
fe
fea
febbraio
febo
fec
fece
feconda
fecondo
fede
fedele
fedeli
fedelmente
fedeltæ
federa
federac
federal
federi
federico
federigo
federo
fee
feghe
feghi
feglino
fego
fei
feipo
feise
feisse
feissem
feisti
fejo
feldkamp
feli
felic
felice
felicitae
felidae
felis
felise
felixe
fellicitae
fem
femena
femene
femina
femine
femini
feminin
femmina
femmine
femminile
femminin
femmo
femmu
femo
fen
fenestra
feni
feno
fenogetto
fenoggetti
fenomeni
fenomeno
fenommeni
fenommeno
feo
feoda
fer
fera
ferdinand
ferdinando
fere
feri
feria
ferie
ferii
ferio
feriollo
feripo
ferippo
ferir
ferisce
ferma
fermamente
fermamenti
ferman
fermate
ferme
fermessa
fermi
fermo
fermæ
fermæve
ferna
fernanda
fernando
fero
feroc
feroce
feroci
ferovi
ferovia
ferra
ferrando
ferrania
ferrante
ferrara
ferrari
ferraris
ferre
ferri
ferro
ferrovia
ferroviaria
ferroviario
ferrovie
ferræ
feruvi
feruvia
fervo
feræ
fes
fesci
fessan
fesse
fessi
festa
festar
feste
festeza
festezza
festiva
festival
festo
fet
feta
fete
feti
feto
fette
feu
feua
feudi
feudo
feudu
feugge
feugo
feugu
feve
ffa
ffe
ffi
ffic
ffo
fi
fia
fiaa
fiae
fiama
fiami
fiamma
fianchi
fianco
fiancu
fiandra
fiandre
fiaschi
fiasco
fiat
fiato
fibre
fic
fica
fican
ficca
ficco
fiche
fichi
fici
fico
ficu
fide
fidel
fidu
fiduccia
fiducia
fie
fiera
fieri
fiero
fieschi
fiesco
fiesole
figa
figaretto
fige
figeu
figge
figgetta
figgeu
figgi
figgia
figgie
figgieu
figgio
figgioe
figgiu
figgiuoe
figgiœu
fighe
fighæto
figi
figia
figie
figij
figio
figioi
figioli
figior
figiœu
figli
figlia
figlio
figlor
figna
figo
figolli
figollo
figon
figor
figu
figua
figue
figun
figura
figure
fiio
fiioi
fiior
fiji
fijo
fijoi
fijor
fila
filastrocche
file
files
fili
filiorum
filippin
filippinn
filippo
filistei
fillak
film
filo
filobus
filogene
filon
filosofi
filosofia
filosofica
filosofico
filosofo
filozofi
fim
fin
fina
final
finale
finalese
finalitæ
finalmente
finalmenti
financ
finari
finarmente
finarmenti
finc
finche
fine
finestra
fini
finia
finie
finimola
finin
finindo
finio
finir
finisce
finiscian
finiscila
finiscio
finiu
finiva
finla
finland
finlande
finlandia
finn
finna
finno
fino
fint
finta
finte
finto
finzan
finze
fio
fiocca
fiocchi
fior
fiore
fiorenti
fiorentin
fiorentino
fiorenzo
fioreti
fiori
fipap
fir
fira
fire
firenc
firense
firenze
firma
firmamento
firmao
firmo
firpo
first
fisa
fisca
fischia
fissa
fisse
fissi
fissipedia
fisso
fissu
fit
fito
fitu
fitzgerald
fiu
fiume
fiumi
fiumme
fiunt
fiuri
five
fixica
fixiche
fixichi
fixico
flagelac
flam
flaminio
flemma
flexione
flo
flon
flor
flora
florida
florinda
florindo
florindu
flotta
flotte
flu
fluido
fm
fo
foa
focci
foccia
focciu
foe
foego
foenti
foera
foeste
foeugo
fogetta
foggetta
foggia
foggietta
foglietta
foglio
fogo
fogoa
foi
foin
foisan
foise
foissan
foisse
foissi
foize
fol
folclo
fole
folia
folk
folklore
folla
folle
folletti
folletto
follia
folo
fom
fomo
fon
fonc
fonda
fondac
fondali
fondamenta
fondamenti
fondamento
fondamentæ
fondao
fondato
fondatoi
fondazione
fondego
fondi
fondo
fondæ
fone
fonetica
fonetico
fono
fonologi
fonon
fonta
fontaine
fontan
fontana
fontane
fontann
fontanna
fontanne
fonte
fonti
fonzi
fonzion
fonzo
food
football
for
fora
forc
forca
forche
ford
fore
foresta
foreste
forestera
foresti
foresto
forfante
forfanti
forli
forma
formac
formaggia
formaggio
formaldeide
formalme
formalmente
forman
formando
formao
formati
formato
formattitle
formava
formavan
forme
formes
formia
formidabile
formigoa
formo
formou
formula
formæ
forna
fornaxa
fornaxe
forner
forni
fornia
fornichaciom
fornio
fornisce
forno
fornæ
foro
foror
forsa
forse
forsi
forssa
forssam
fort
forte
fortec
forteme
fortemente
fortementi
fortessa
forteza
fortezza
forti
fortifica
fortificac
fortissimo
fortu
fortun
fortuna
fortunato
fortune
fortunna
fortunne
fortuno
fortunæ
forza
forze
fosci
foscia
foscina
fosco
fose
fossa
fossan
fossao
fosse
fossem
fossi
fossia
fosso
fossu
fosti
foto
fotografi
fotografia
fotografie
fottu
foundation
fox
foxe
foxin
foxinanti
foxinne
fr
fra
frac
fracassa
fracasso
fracescho
fradelli
fradellin
frae
fraelli
fraello
fragello
frai
frame
frammenti
franc
franca
francamente
france
francesca
francescho
francesco
francese
francesi
franchi
francho
francia
francis
francisca
francisco
franco
francobampi
francobolli
francoforte
frange
frank
franklin
fransa
franse
fransecho
franseise
franseize
fransesa
fransescho
fransesco
fransescu
fransese
franssa
franz
franza
franze
frasca
frasche
frase
frasio
frasiu
frasiui
frasiun
frassio
fratanto
frate
fratelli
fratello
fratempo
frater
frati
frattanto
fratte
frattempo
fratti
frc
fre
frec
frecce
frecchie
freccia
freccie
free
fregatta
frego
fregoso
fregozo
freida
freidi
freido
freidu
frem
fremendo
fremme
fren
frena
frenna
freque
frequenta
frequente
frequenti
frequento
fresca
fresche
freschi
fresco
fretta
freud
freva
freve
frevo
frexetti
fri
frica
friedrich
frilli
frita
frito
fritu
fritz
frixo
frizze
fro
from
fron
fronta
fronte
frontespizio
frontezza
fronti
froxino
fru
fructo
fruga
frugon
frunte
frusta
frusto
fruta
frute
fruti
fruto
fræ
fs
fu
fue
fuera
fuga
fugassa
fuggetta
fui
fuin
fuisan
fuise
fuisse
fuissi
fuit
fulmine
fume
fumma
fumme
fummo
fumo
fun
func
funda
fundamenta
fundasiu
fundasiun
fundo
fundu
funghi
funicola
funicolare
funicolari
funsion
funsiu
funta
funtan
funtana
funte
funti
funzi
funzion
fuo
fuoco
fuoe
fuoea
fuoego
fuoera
fuogo
fuoi
fuora
fuori
fur
furbarie
furbo
fure
furia
furie
furio
furiosi
furioso
furma
furmasiu
furme
furni
furo
furor
furse
furtessa
furti
furtificasiu
furto
furtu
fusca
fusina
fuso
fusse
fusto
futo
futta
futu
futuo
future
futuro
fuxe
fuxile
fuxo
fuxon
fuze
fuzi
fuzir
fuziva
fuzo
fuzzan
fuzze
fuzzi
fæ
fæghe
fæme
fæmo
fæne
fænn
fænna
færi
færo
fæta
fæte
fæti
fæto
fætu
fæve
fœu
fœua
fœugge
fœuggia
fœuggio
fœugo
fœura
g
ga
gabi
gabriel
gabriele
gabriello
gabriælo
gadisa
gadoe
gae
gaeta
gaetano
gaggia
gaggiardo
gaggie
gai
gaiba
gaibado
gaibo
gaina
gaio
gaitan
gal
gala
galant
galante
galanti
galantommi
galantommo
galata
galateo
gale
galea
galeazzo
galee
galeno
galera
galere
galeri
galeria
galerie
gali
galia
galic
galicia
galile
galilea
galilei
galileo
galioto
galla
galle
galleria
gallerie
gallery
galles
galletti
galletto
galli
gallia
gallilea
gallin
gallinara
gallinn
gallo
galo
galoppa
galoppo
gama
gamariello
gamba
gambe
gambetta
gambin
gamma
gan
ganba
ganbe
gando
gandolfo
gane
gangemi
gap
gara
garanc
garanti
garb
garbagna
garbe
garbo
garbu
garc
garci
garda
garde
gardetti
gare
garee
garello
gares
garesce
garesci
garessio
garganeo
garibaldi
garie
garlenda
garson
garsonetti
garzanti
garzoin
garzon
garzonna
gas
gascon
gasque
gassa
gasse
gastaldi
gaston
gate
gatta
gattafura
gatti
gattin
gatto
gattu
gaudi
gava
gavenu
gavi
gaz
gaza
gaze
gazetta
gazette
gazo
gazza
gazzetta
gazzette
gazzo
gazzu
ge
gei
geija
geis
geixa
geja
gen
gene
genea
genealogia
genera
generac
generaciom
generacium
general
generale
generali
generalitat
generalitæ
generalme
generalmente
generare
genere
generi
genero
generosa
generosi
generoso
generæ
genia
geniale
geniali
genii
genio
genito
genitoi
genitori
geniu
gennaio
gennaro
gennere
gennio
geno
genoa
genoese
genova
genovesato
genovese
genovesi
gens
gente
genti
gentile
gentileschi
gentilezza
gentili
gentir
gentiromo
genua
geo
geografia
geografica
geografico
geographical
geography
geology
geometria
georg
george
georges
georgetown
georgia
georgij
geppettu
ger
gera
gerais
gerarchi
gerarchia
gerard
geremia
germa
german
germani
germania
germanico
germannia
germano
gernando
gerolamo
geronzio
geru
gerusalemme
geruzale
geruzalemme
ges
geschichte
gesso
gesti
gestio
gestion
gesto
gesu
getti
getto
getty
gexa
gexe
gexia
gexo
gexu
gfdl
gg
gge
ggetto
ggezion
gghe
ggi
ggia
ggian
ggie
ggine
ggio
ggiu
ggiæ
ggiæn
ggo
gh
ghana
ghe
ghene
ghera
gherra
ghetto
ghi
ghia
ghiandole
ghibeli
ghibellin
ghie
ghig
ghige
ghigermo
ghiggermo
ghignon
ghigærmo
ghil
ghione
ghirlanda
ghirlande
ghje
gho
ghæ
gi
gia
giac
giacche
giaccomo
giacinta
giacinto
giacobbe
giacobi
giacomin
giacomo
giacumu
giaieu
giaimo
giambatista
giambattista
giammaica
gian
giana
gianbati
gianca
giancane
giancarlo
gianche
gianchetto
gianchi
gianchina
gianco
giancu
giande
giando
giandon
giane
gianfranco
giani
gianni
giano
giapo
giapone
giappon
giapponeise
giardi
giardin
giardine
giascia
giasemin
giassa
giasso
giastemma
giastemmando
giastemme
giastemmo
giatoi
giava
giaxo
giazo
gibele
gibiltæra
gibraltar
gica
giche
gichi
gico
gie
giexa
giga
gigante
giganti
gigg
giggia
giglio
giglioli
gii
gij
gijia
gil
gilberto
gilindinn
gin
gina
gine
gini
gino
ginuve
gio
gioa
gioan
gioani
gioannin
giobbe
giogo
gioia
gioie
gioja
gioje
gion
giona
giorda
giordan
giordano
giorgi
giorgio
giorna
giornale
giornali
giornalie
giornalista
giornata
giorni
giorno
giornæ
giosue
giotto
giova
giovan
giovane
giovani
giovanna
giovanni
giove
giovine
gioxe
gioxeppe
gioxie
gippon
gir
gira
girando
girl
giro
girolamo
giroxia
giruoemmo
girœummo
gita
giu
giua
giuanne
giubila
giubilo
giud
giuda
giudda
giuddic
giude
giudea
giudei
giudeo
giudi
giudic
giudica
giuditio
giuditta
giudizio
giugno
giulia
giulian
giuliano
giulio
giuno
giunon
giunti
giuri
giurian
giuridico
giurisdic
giurista
giurna
giurni
giurno
giurnu
giuseppe
giust
giusta
giuste
giustexine
giusti
giustic
giustifica
giustificac
giustignan
giustinia
giustinian
giustiniani
giustinie
giustitia
giustizia
giusto
giuvanni
giuxeppe
giæ
giæa
giœumo
gja
gjo
gl
gla
gladium
glareola
gli
glia
gliu
glo
globa
global
globo
globuli
gloria
gloriam
glorie
gloriosa
gloriosi
glorioso
glorioza
glorioze
gloriozo
glosa
glossario
glott
glottologico
gmt
gna
gnan
gnathostomata
gnatta
gnattin
gnava
gnd
gne
gnecco
gnem
gni
gnia
gnidu
gniffre
gno
gnoe
gnu
gnæ
gnæra
go
goa
goagna
goagno
goai
goarda
goardai
goardam
goardando
goardasse
goardava
goardavam
goarde
goardia
goardiam
goardie
goari
goario
goarnixo
goasta
goc
gode
godi
godo
goe
goffa
goffo
goffre
goffredo
gofre
gofredo
goggi
gogh
gogia
goi
goida
goido
goidæ
goito
gola
gold
golden
goldoni
gole
golfo
golia
gomma
gonella
gonzaga
google
gora
gorda
gore
gorfo
gorra
gorzente
gossa
gosso
gotti
gotto
gottu
gou
gouerna
gouernaciom
gouv
gov
gove
governa
governao
governati
governato
governatoi
governe
governi
government
governo
govi
govone
goæi
goæra
goære
gr
gra
grac
gracia
gracie
gradasso
graddo
grade
gradi
grado
grafi
grafia
grafica
grafiche
grafo
gragne
grai
grainde
graindi
gram
grama
gramatica
gramma
grammar
grammatica
gramme
grammi
grammo
gramo
gramsci
gran
grana
granaieu
granarolo
granata
granate
granattin
grand
grande
grandec
grandemente
grandementi
grandessa
grandezza
grandi
grandioso
grandiscima
grandissima
grandissime
grandissimi
grandissimo
grandu
granduca
grane
grani
granon
grant
granun
grao
graou
grappa
grasci
grasie
grasom
grassa
grasse
grassi
grassie
grasso
grassom
grata
gratia
gratie
gratioso
gratitudine
grato
gratta
grave
gravemente
gravi
gravia
gravie
gravitac
gravitæ
gray
grazia
grazie
graziosa
graziose
graziosi
grazioso
gre
great
grec
greca
greci
grecia
greco
greece
greek
green
greenwich
grega
greghe
greghi
grego
gregoria
gregorian
gregorio
gren
grende
grendi
grenoble
greta
greue
greve
grevementi
gri
gridando
grieghi
griffi
grifo
grifoi
grighe
grigheu
grigo
grigœu
griletto
grill
grilletto
grilli
grillo
grillu
grima
grimado
grimaldi
grime
gritta
gritte
grixo
gro
grondann
gronde
groppa
groppi
groppo
groria
grosci
grossa
grosse
grossi
grosso
grossu
grotta
grotte
grou
group
gru
grue
gruoeria
gruppi
gruppo
gruppu
gruyter
gu
gua
guaagna
guacanagari
guadagno
guaera
guagna
guagnar
guagni
guagno
guai
guam
guanani
guangxi
guanti
guao
guarani
guarda
guardando
guardar
guardasse
guardate
guardava
guarde
guardia
guardian
guardie
guardo
guardæ
guari
guarir
guarisce
guarni
guasta
guastavino
guaste
guasto
guatemala
gue
guelfo
guera
guerc
guere
guerfi
gueri
guerra
guerre
guerso
guez
guglielmo
gui
guia
guida
guidda
guidde
guiddo
guide
guides
guido
guidoni
guidæ
guie
guierdom
guierdon
guierdum
guillaume
guinea
guisa
guise
guissa
guiza
gumbu
guo
gura
gure
guri
guria
gusta
gustav
gustave
gustavo
guste
gusti
gusto
guverno
guvernu
guy
guyana
guæi
guæra
guære
guæri
gæa
gælo
gæra
h
ha
habendo
habet
habiando
habita
habitat
habito
hac
hae
haematopus
haggian
haggiando
haggie
hai
ham
hamilton
hampshire
han
handbook
hanno
hannover
hano
hans
hansa
haora
hardware
harrison
harry
harvard
has
haura
have
havea
havei
haveiva
haveive
havemmo
havemo
haven
havendo
havera
havere
havereiva
havesse
havessi
havuo
hawai
hawaii
haydn
he
health
hebbe
hedin
hei
heinrich
helena
helisabet
helsinki
hemmo
hemo
henri
henry
herba
herbert
hereditae
heretichi
hereticho
heri
heritage
hermann
herodes
herpesvirus
hetae
hi
hic
high
hiligaynon
hill
hillary
hillyer
himalaya
hindi
his
hispa
hispaniolla
histo
histoire
historia
historica
historical
history
hitler
ho
hoc
home
homi
hominem
homines
homini
hominum
hommes
hommi
hommo
homo
honduras
honesta
honesto
hong
hono
honor
honora
honorao
honorar
honore
honoreivementi
hor
hora
hore
hotel
houra
house
how
howard
hr
htm
html
http
https
hu
hugh
hugo
huius
human
humana
humanna
humilia
humilitae
humo
hungary
huomini
huso
hyacinthe
hymne
hæ
hæto
i
ia
iac
iacob
iacomo
iacopo
iai
iaia
iaio
iale
iali
ialitæ
ialme
ialmente
iame
iamento
ian
iann
iao
iardim
iata
iati
iativa
iative
iava
iaxe
ibbo
ibe
iberica
ibi
ibid
ibidem
ibn
ic
ica
icarus
iccu
iceland
iche
ichi
ici
icio
ico
icon
icones
icu
id
ida
idaho
iddio
ide
idea
ideale
idee
identa
idente
identi
identifica
identificac
identificao
identificato
identifico
identifier
identitæ
identæ
ideo
idest
idi
idia
idio
idioma
ido
idolla
idolle
idora
idrogeno
ie
iei
ieiunium
ien
ienc
iente
ieri
ierusalem
ierussalem
ieso
iesse
iesu
ietto
ietæ
ieu
iexu
iga
igaa
igalo
ige
ighe
igiene
igina
igine
igna
ignazio
ignora
ignorante
ignoranti
ignoranza
ignoro
ignoto
igra
igre
igri
igro
igt
ih
ihaira
ihairamenti
ihama
ihamao
ihava
ihave
ihe
ihera
iheregi
iherexi
ihesu
ihoi
ihu
ihum
ii
iii
iiii
ij
iju
il
ila
ilaria
ile
ili
ilia
ilian
ilic
ilita
ilitæ
ill
illa
ille
illi
illia
illinois
illo
illu
illumina
illuminazione
illustrazione
illustre
illustri
illustriss
illustrissimo
ilme
ilmente
ilo
ilsecoloxix
ilu
ilustri
im
ima
imagem
imagiem
imagine
imagna
imbarac
imbarasso
imbarca
imbarcao
imbarco
imbarlu
imbo
imboccatu
imbotti
imbratta
imbriægo
imbroggia
imbroggio
imbu
imdb
ime
imenta
imento
imita
imitac
imite
imma
immacolata
immagina
immagine
immagini
immagino
immatti
imme
immediatamente
immensa
immense
immensi
immenso
immi
immobile
immondo
immorta
immortale
immu
imnu
imo
impadroni
impan
impara
imparæ
impasto
impatto
impaziente
impe
impedi
impedisce
impegna
impegnao
impegni
impegno
impegnæ
impeia
impeo
imper
imperao
imperaor
imperativo
imperato
imperatoi
imperatorvm
imperia
imperiale
imperio
imperiæ
impero
imperso
impertinente
impertinenza
imperzo
impeto
impeu
impi
impianti
impiantu
impiao
impiato
impiega
impiego
impiegæ
impiva
implications
impon
imponente
importa
importanc
importansa
importante
importanti
importanza
imposcibile
imposcibilitæ
impossibile
imposta
imposte
imposto
impostu
impotente
impoxic
impreisa
impreise
impreiza
impreize
imprende
imprescion
impressa
impromissa
impronta
impronto
improviso
improvista
improvvisa
improvviso
impu
impurta
impurtansa
impurtante
impurtanti
in
ina
inandia
inandio
inanti
inanzi
inaogura
inaugu
inaugura
inauguro
inba
inbriægo
inc
inca
incalla
incallo
incamin
incammin
incangio
incanta
incantao
incanti
incanto
incantæ
incapac
incaregao
incarego
incarna
incarnac
incarnaciom
incarnao
incarrego
ince
incendio
incenso
incerta
incerto
incertæ
incetta
inchiesta
inchin
inchina
incho
incia
inciago
inciastra
incio
inciostri
inciostro
incipit
incirca
inciso
incizo
inclina
inclinac
inclinou
inclu
includde
includiintestazione
inco
income
incomenc
incomensa
incomensamento
incomenso
incomenssa
incomenza
incomessa
incomodo
inconnue
incontenente
incontra
incontrao
incontri
incontro
incontræ
incoraggi
incorona
incoronac
incoronation
incorono
incorpora
incorporo
incostante
incredibile
incremento
incresce
increscioza
incro
incu
incubator
incume
incuntra
incuntro
incuntru
incurscioi
incursciu
inda
indagine
inde
indeboli
indegna
indegnao
indegno
independent
indere
inderno
inderre
indettaglio
index
indi
india
indian
indiann
indic
indica
indicac
indican
indicao
indicata
indicati
indicativo
indicato
indicava
indice
indichia
indichæ
indico
indicæ
indie
indien
indietro
indifferente
indigeni
indigestion
indipende
indipendenc
indipendensa
indipendente
indipendenti
indispensabile
indivi
individoa
individua
individui
indizio
indo
indoa
indoario
indoeorope
indole
indoman
indonexia
indoo
indosso
indovin
indovina
indovinello
indovinn
indovinæ
indoæ
indric
indu
indue
indurao
industria
industrie
induxia
indærno
ine
inee
ineia
ineja
inf
infa
infame
infamia
infante
infatti
infe
infedeli
infeio
infelic
inferio
inferiore
infermi
infermo
infernale
inferno
infernu
infeuda
infferno
infi
infia
infin
infini
infinio
infinita
infinite
infiniti
infinito
infio
infira
infirmitae
infloe
influ
influe
influenc
influensa
influense
influenza
influsso
info
infonde
informa
informac
informao
informatica
informatico
information
informazioni
informo
infra
infraclasse
infraordine
infraphylum
infrastrutu
infu
infæti
ing
inga
ingana
inganao
inganar
ingani
inganna
inganni
inganno
ingano
ingauna
ingauni
inghe
inghilterra
inghiltæra
ingiu
ingiusto
ingle
ingleise
ingleixi
ingleize
ingluba
ingo
ingordo
ingrandi
ingrascia
ingrata
ingrati
ingratitudine
ingrato
ingreise
ingreixi
ingreize
ingresso
ingressu
ingroscia
ingu
ingua
inguento
ini
inic
inimigo
inimixi
iniqua
iniqui
iniquitae
iniquitæ
iniquo
inisialmente
inissi
inissio
iniuria
iniurie
inizio
inlumina
inluminac
inluminao
inluxo
inma
inmacola
inmaggine
inmagina
inmaginaciom
inmedia
inn
inna
innamo
innamoa
innamora
innanti
innanzi
innemigo
inni
inno
innoc
innocente
innocenti
innocenza
innoxenc
innsbruck
ino
inoce
inoltre
inorbi
inougura
inouguro
inpa
inpe
inpeato
inpedi
inpegna
inpeia
inperadore
inperao
inperarixe
inperato
inperatu
inperia
inperio
inpero
inperoche
inperso
inpersoche
inperssoche
inperu
inperzo
inpi
inpia
inpianto
inpie
inpo
inpone
inporta
inportante
inportanti
inposci
inposiber
inpre
inprende
inprendi
inprescio
inprinc
inprinsipiu
inpromi
inpurta
inpurtante
inpurtanti
inqu
inqua
inquant
inquanta
inque
inquec
inqueximo
inquieta
inquiname
inricchi
inrichi
ins
insalatta
insc
insce
insci
inscia
inscio
insciu
inscric
inse
insediame
insediamenti
insediamento
insediamentu
insee
insegna
insegname
insegnamento
insegne
insegno
insei
inseme
insemme
inseri
insetti
insi
insiando
insieme
insight
insio
insir
insira
insiva
inso
insolente
insolenza
insomma
insopportabile
insordi
inspettou
inspia
inspiac
inspira
inspirac
inspiraciom
inspirao
inspiro
inspiræ
inspiæ
inssi
instabilitæ
instalac
instancia
instante
instanza
institoi
institu
instituc
institut
institute
instituto
instru
instruc
instrume
instrumenti
instrumento
insu
insula
insumma
insurrec
int
inta
intagio
intanto
intantu
intatto
inte
integra
integrac
integration
inteisa
inteisi
inteiso
inteixi
inteiza
inteize
inteizem
inteizo
inteletoa
intelleto
intelletto
intelligence
intelligente
intelligenza
intemelia
intenc
intenciom
intenda
intendan
intendando
intende
intendea
intendei
intendeiva
intender
intendi
intendimento
intendo
inteneri
intensa
intenscitæ
intenti
intention
intento
intenzion
intenzione
inter
intera
interac
intere
interesa
interesci
intereso
interessa
interessante
interessanti
interesse
interessi
interessæ
interlingua
interlingue
interme
interna
internac
internamente
international
internationale
internazionale
interne
internet
interni
interno
internu
intero
interpreta
interpretac
interprete
interrotta
interrotto
intersca
interva
intervalli
intervallo
interve
intervegni
intervegnu
intervegnuo
interventi
intervento
intese
inti
intimo
intin
intitola
intitolo
into
intona
intoppa
intoppo
intorno
intr
intra
intraghe
intrai
intran
intrando
intrante
intrao
intrar
intrasse
intrata
intrava
intravan
intre
intrec
intrega
intregamente
intreghe
intreghi
intrego
intremmo
intrepido
intrera
intreve
intri
intria
intriga
intrighi
intrigo
intro
introdu
introduc
introduction
introduto
introduzione
introu
intræ
intu
intuic
inturnu
inu
inutile
inutilmente
inva
invaxo
invaxoi
invaxon
invaxu
inve
invece
invenc
invenciom
inventa
inventao
invento
invenzion
inver
inverna
inverno
inversa
inverso
investe
investi
investime
investio
invexenda
invexendo
invexendæ
invi
invia
inviao
invidia
invidioso
invio
invisibile
invita
invito
invitæ
invixibile
inviæ
invo
invora
invrea
inze
inzegna
inzegne
inzegno
inzenerao
inzenoga
inzenogia
io
ioachim
iogosla
ioi
ioia
ioin
ion
iona
ionai
ionaio
ionale
ionali
ionalismo
ionalitæ
ionalmente
ioname
ionamento
ionao
ione
iono
ionou
ionæ
iordam
iorni
iorno
iosa
iose
iosep
ioseph
ioso
ioxep
ioxi
ioyoso
ioza
iozo
ipa
ipac
ipalitæ
ipalme
ipalmente
ipato
ipatu
ipava
ipe
ipessa
ipi
ipia
ipio
ipita
ipizio
ipo
ipocriti
ipotexi
ipottexi
ippi
ippio
ippiu
ippocrate
ippolito
ipro
ipse
ipsius
ipsum
ipæ
ir
ira
iran
irao
iraq
irca
ire
iregola
ireland
irene
iri
irla
irlanda
irlande
irlandeize
iro
iru
is
isa
isaac
isabella
isach
isael
isaia
isbaglio
isbn
isce
iscri
iscric
ise
isi
isla
island
islanda
islande
islands
ismen
ismo
isni
iso
isoa
isoe
isola
isolani
isole
isora
israel
israele
isræ
issac
issael
isse
ist
ista
istanbul
istante
istat
istesso
isti
istinto
istitu
istituc
istitui
istituto
istmo
isto
istoia
istoja
istoria
istorie
istro
istru
isula
isule
it
ita
itac
itadi
itae
italia
italian
italiana
italiane
italiani
italiann
italiano
italica
italico
italie
italien
itallia
italo
italorum
italy
itamente
itan
itando
itao
itava
ite
item
iten
iti
ito
itoi
its
itta
ittadin
ittadinanc
ittae
ittara
itten
itto
ittoa
ittæ
itu
itutto
itæ
iu
iuda
iudea
iudu
iue
iugoslavia
iui
iuin
iulio
iun
iuna
iunale
iupac
iure
iusta
iusti
iustixia
iusto
iv
iva
ivan
ive
ivesco
ivescova
ivescovi
ivg
ivi
ivia
ivie
iviltæ
ivimo
ivo
ivrea
iwerks
ix
ixe
ixi
ixo
ixon
iza
izaia
ize
izego
izi
izo
izoa
izoe
izola
izolæ
izoo
izora
iæ
j
ja
jack
jackson
jacob
jacomo
jacopo
jacques
james
jan
jane
janeiro
janin
jannacci
janua
janue
januenses
japan
java
jazz
je
jean
jefferson
jente
jeri
jero
jeronimo
jersey
jerusalem
jerussalem
jesu
jn
jo
joachim
joan
joe
johann
johannes
john
johnson
jolly
jones
jori
jorni
jorno
jose
joseph
journal
joxaffa
joxep
jp
jr
ju
juan
juda
judea
judei
jujuy
jules
julia
julio
julius
jus
justixa
justixia
justo
juventus
k
ka
kabul
kalac
kallikratis
kamchatka
kansas
kant
karl
ke
keith
kennedy
kent
kentucky
kenya
keplero
kew
kg
khan
ki
kiev
king
kingdom
kiribati
klimt
km
ko
kokkai
kong
konrad
kosovo
kritik
ku
kunsthistorisches
kuomintang
kuwait
kyo
l
la
laberinto
laboratory
labrador
lac
lacche
laccion
lacremo
lacuna
laddra
laddri
laddro
ladri
lady
lae
laghetto
laghi
lagno
lago
lagreme
lagrima
lagrime
lagu
lai
laichi
laico
lairi
lairo
lairon
laite
lake
lalla
lama
lamba
lambicco
lamboglia
lambro
lame
lamenta
lamente
lamenti
lamento
lamialiguria
lamma
lammo
lampa
lampe
lampi
lampion
lampo
lan
lana
lanc
lance
lancia
land
lando
lane
language
languages
langue
langues
langui
lanka
lanna
lansa
lanssa
lante
lanteri
lanterna
lanterne
lanternetta
lanto
lantor
lantora
lanza
lanze
lao
laoa
laoac
laoda
laode
laor
laora
laou
lapide
laplace
lardo
larga
largame
largamente
larghe
larghessa
larghi
largo
lari
lario
larry
larus
larve
las
lasa
lasagne
lasce
lascemmo
lascero
lasci
lascia
lasciame
lascian
lasciando
lasciao
lasciaou
lasciasse
lasciate
lasciava
lasciavan
lascie
lasciemmo
lascime
lascio
lasciou
lasciu
lasciæ
lasciæme
lascæ
lascæme
lasero
lassa
lassam
lassao
lassar
lassase
lassava
lasse
lassi
lassio
lasso
lastampa
lastre
lat
lata
late
latera
laterali
lati
latin
latina
latine
latini
latinn
latino
latitu
lato
latu
latvia
laudat
laude
laura
laurea
lauro
lauzi
lav
lava
lavagna
lave
lavello
lavezzi
lavezzo
lavinio
lavo
lavoi
lavoisier
lavor
lavora
lavorar
lavoratoi
lavori
lavoro
law
lawrence
laxa
laxar
laza
lazagne
lazaro
lazio
lazu
lazzao
lazzaro
lazzu
lc
lca
lcolo
ld
ldi
ldo
le
lea
leader
lean
leandro
lebeccio
lebrun
lec
leca
lecca
lecce
lecco
leda
lee
lega
legal
legale
legali
legati
legato
lege
legenda
legge
leggenda
leggere
leggersi
leggesi
leggi
leggia
leghe
legi
legion
legislac
legislati
legislativa
legislato
legna
legname
legnamme
legne
legni
legno
legnu
legnæ
lei
leif
leipzig
leit
leitu
leituga
lemur
lemuridae
lemuriformes
lemuroidea
lena
lenga
lenge
lengeramenti
lengoa
lengoe
lengoi
lengoistega
lengoistego
lengua
lenguaggio
lengue
lenin
lensa
lense
lenso
lenta
lentamente
lente
lenti
lento
leo
leoim
leom
leon
leonardo
leone
leono
leopardi
lepanto
lepisosteidae
lepisosteus
leppanto
lera
lerca
leri
lerma
leru
lerze
les
lesbia
lesca
lesci
lescica
lesegno
lessico
lesta
leste
lesti
lesto
let
lete
letera
leteralme
letere
letia
letiaia
letiatu
leto
lette
lettera
letterati
letterato
letteratura
lettere
letti
lettia
lettiaia
lettiatu
lettiatua
lettie
letto
lettoi
lettres
lettu
lettura
letu
leu
leua
leuementi
leugotene
leugu
lev
leva
levai
levan
levando
levante
levanto
levao
levaou
levar
levase
levasse
levate
levava
leve
levera
levero
leveru
levi
levo
levou
levre
levroxi
levrozo
levæ
levæve
lewis
ley
leze
lezei
lezenda
lezendia
lezi
lezion
lezione
lezo
lezu
lezuo
lezze
lezzendia
lezzi
lga
lgaro
lgio
li
lia
liatri
lib
libano
libbri
libbro
libbru
libe
libenter
liber
libera
liberac
liberai
liberale
liberali
liberamente
liberao
libere
liberi
libero
liberta
libertae
liberte
libertin
liberty
libertæ
liberu
liberæ
libia
libiac
libra
libraja
libraries
library
libre
libreria
libretto
libri
libro
libru
lic
lica
lice
licenc
licencia
licentia
licenza
liceo
lich
liche
lichi
lichin
lichinna
licito
lico
licu
lida
lido
lie
liechtenstein
lietto
life
lig
liga
ligai
ligame
ligamme
ligammi
ligao
ligge
liggia
lighe
lighæ
ligne
ligo
ligou
ligu
ligure
liguri
liguria
ligurien
ligustica
ligustico
ligæ
lii
liii
liiii
lij
like
lili
lilla
lille
lima
limbo
limicoli
limita
limitac
limite
limiti
limito
limitæ
limma
limmiti
limo
limon
limosina
limoxina
limoxine
limpida
limun
lin
linagio
linago
linaio
lincoln
line
linea
linee
lingu
lingua
linguaggio
lingue
linguistic
linguistica
linguistiche
linguistici
linguistico
linguistics
linguistique
linia
linie
link
linnaeus
linne
linneo
linnia
linnie
linux
lio
lioi
lion
lione
lippa
lippi
liquida
liquido
lira
lire
lirica
lis
lisa
lisandria
lisbon
lisce
liscia
lisciandria
liscio
list
lista
liste
lite
litera
liti
litiga
lito
litoa
litografia
litro
little
lituania
litæ
liu
liv
live
livelli
livello
livellu
livera
livia
livingstone
livio
livo
livonnia
livorno
livre
livrea
lix
lixi
ll
lla
llanito
lle
llengua
ller
lli
llia
llo
llu
lma
lmo
ln
lo
loa
loando
loao
loar
loc
loca
local
locale
locali
localitæ
locanda
loccia
loco
locomoti
locæ
loda
lode
lodi
lodigiano
lodo
lodovico
loe
loego
loei
loenc
loenso
loghi
logi
logia
logica
logico
logo
loguer
loi
loigi
loitam
loize
lombardi
lombardia
lombardo
lomeli
lomellin
lomellina
lonardo
lonba
lonbardi
london
londra
lonely
long
longa
longamenti
longhe
longhec
longhessa
longhi
longhixe
longitu
longmans
longo
longoba
longobardi
lonta
lontan
lontananza
lontann
lontano
lonten
lonxi
lonzi
lor
lord
lore
loren
lorenc
lorenso
lorensso
lorenzo
loreto
loretto
loritto
loro
los
losferisterio
loso
losso
lotta
lotte
lotto
lou
loua
louis
louo
louvre
love
lovi
lovo
low
lozo
lsa
lse
lso
lsu
lt
lta
ltan
lte
lti
ltiche
ltico
ltima
ltimo
ltipli
lto
ltre
ltro
ltu
lu
luc
luca
lucale
lucali
lucalita
lucalite
lucca
luccardini
lucchin
lucco
luce
lucente
luch
lucha
luchetto
luchin
luchino
lucia
luciam
luciano
lucido
lucio
lucius
lucr
lucre
lucrec
lucretia
lucrezia
ludovico
ludovigo
ludwig
lue
luensu
luga
luggio
luglio
lugo
lui
luiggi
luigi
luis
luisa
lume
lumera
lumi
lumino
luminosa
luminoso
luminoxitæ
lumme
lummi
lun
luna
lunaio
lunario
lunati
lunde
lune
lunedi
lunesdi
lunfardo
lunga
lunghe
lunghessa
lunghi
lungo
lungu
luni
lunn
lunna
lunta
luntan
lunxi
luo
luoego
luoghi
luogo
lupin
lupo
lupus
lure
luscemburgo
luscia
lusciandria
lusciandrin
lusciandro
lusenbu
lusinga
lusso
lustris
lustrissima
lustrissimo
lustro
lute
lutero
luther
luxan
luxe
luxembourg
luxemburg
luxente
luxerna
luxi
luxir
luxuria
luzia
lv
lve
lvi
lvii
lviii
lx
lxi
lxii
lxiii
lxiv
lxix
lxv
lxvi
lxvii
lxviii
lxx
lxxi
lxxii
lxxiii
lxxiv
lxxix
lxxv
lxxvi
lxxvii
lxxviii
lxxx
lxxxi
lxxxii
lxxxiii
lxxxiv
lxxxix
lxxxv
lxxxvi
lxxxvii
lxxxviii
ly
lycopersicum
lyon
læsto
læte
lœu
lœughi
lœugo
lœugotenente
m
ma
maaveggia
maboia
mac
macce
macchetto
macchina
macchine
maccia
macciavello
maccie
macedonia
machina
machine
machini
maciste
macrofami
mada
madagascar
madalena
madame
madamma
madareina
maddalena
maddre
made
madeira
mado
madona
madonna
madonnava
madonne
madre
madregæ
madri
madrid
madænn
mae
maen
maere
maestae
maestoso
maestri
maestro
maestæ
maeximo
maga
magagna
magara
magazi
magazine
magazzin
magdalena
mage
magellan
magenta
maggia
maggio
maggioi
maggior
maggioransa
maggiore
magi
magia
magica
magicha
magio
magioi
magiora
magistra
magistrati
magistrato
magistratu
magiu
magiura
magliano
magna
magnanimo
magne
magnefico
magnetico
magni
magnifica
magnificentie
magnifiche
magnifici
magnifico
magno
mago
magon
magra
magro
magrun
mahon
mai
maia
maiciu
maie
maiezzo
maim
main
maina
maine
mainea
mainee
mainera
mainere
mainæ
mainæsche
mainæschigian
maio
maira
maire
mais
maison
maistri
maistro
maj
maja
majo
major
majæ
mal
mala
malamente
malan
malanni
malanno
malapen
malattia
malayo
malaysia
malche
malco
maldicente
male
maledetta
maledetti
maledetto
malegno
malemmo
malgraddo
mali
malicia
maligna
maligni
maligno
malinconi
malinconia
malinverni
malizia
malla
mallare
malle
malli
mallicia
mallorum
malo
malora
malta
malte
maltin
maluaxi
malum
malvaxe
mam
mama
mame
mameli
mamma
mammalia
mamme
mammifei
mammæ
man
mana
manae
manc
manca
mancamento
mancan
mancanc
mancando
mancano
mancansa
mancante
mancanza
mancare
mancasse
mancava
mancha
manchamento
manchar
manchasse
manchava
manche
manchera
manchester
manci
mancin
mancinn
manco
mancou
mancu
manda
mandai
mandame
mandan
mandao
mandar
mandare
mandari
mandasse
mandasti
mandato
mandava
mandavan
mande
mandera
mandero
mandesi
mandi
mandia
mandillo
mando
mandou
mandra
mandæ
mane
manea
manee
manego
manena
manente
manenti
manera
manere
maneza
manezza
manezzi
manezzo
manfredi
manga
mangao
mangare
mangavam
mange
mangi
mangia
mangiafo
mangian
mangiando
mangiao
mangiar
mangiare
mangiava
mangiavan
mangie
mangio
mangiæ
mani
mania
maniar
manicheismo
maniera
manifatu
manife
manifesta
manifestac
manifestamenti
manifestao
manifestasiu
manifeste
manifesti
manifesto
manima
maniman
manin
manitæ
manna
mannega
mannego
mano
manoa
manoscri
manoscriti
manoscrito
manoælo
mansueto
mante
mantegna
mantegne
mantegni
mantegnimento
mantegnu
mantello
manten
mantener
manto
mantoa
mantova
mantovano
manuale
manuel
manuello
manuoe
manzo
manœuvra
manœuvre
mao
maometto
maone
maor
maori
maotia
maotie
maotti
maoxi
map
mappa
mappe
maps
mar
mara
maranni
maravega
maravegandosse
maravege
maraveggia
maraveggio
maravegia
maravegiao
maravegoza
maravegozamenti
maravegoze
maravegozo
maraveia
marc
marca
marce
marcel
marcello
marcena
marcenaro
march
marcha
marche
marcheise
marcheixi
marcheize
marchesa
marchesato
marchese
marchesi
marchetti
marchexa
marchexi
marchexu
marchi
marcho
marcia
marciape
marco
marconi
marcu
marcus
marcæ
mare
mareito
marengo
marf
marg
marga
margai
margaita
margarita
margherita
margine
mari
maria
marian
marianna
maricia
marie
mariev
marij
marilyn
marin
marina
marinar
marine
marini
marinn
marinna
marino
mario
maris
maristella
maritima
maritime
maritimes
marittima
marittime
marittimo
mariunetti
mariunettu
mariæve
mark
marmaggia
marmao
marmaro
marmela
marmelin
marmi
marmo
marmottinn
maro
marocchin
marocco
maroti
marotia
marotie
maroto
marotta
marotti
marottia
marotto
marottu
maroxello
maroxi
mars
marscinn
marse
marseggia
marseille
marshall
marso
marston
marsu
mart
marta
marte
martedi
martello
marti
martin
martina
martinettu
martini
martino
martire
martiri
martirio
martiro
martori
martœuio
maruaxe
maruaxi
marvaxe
marvaxi
marviaggio
marx
mary
maryland
marzari
marzo
mas
masa
masca
mascara
mascarc
mascarson
mascci
masccio
masche
maschera
mascheræ
maschi
maschio
maschæ
masci
mascima
mascimame
mascime
mascimo
mascoli
mascolin
mase
maseno
masi
masna
masnaa
massa
massabo
massachusetts
massacro
massamo
masse
massena
masseno
massime
massimo
masso
mastin
mastro
masu
mata
mate
mateia
mateie
matema
matematica
matematichi
matematico
mateo
mater
materia
materiale
materiali
materie
materiæ
matesdi
mathe
mati
matia
matim
matin
mato
matremonio
matrimo
matrimonio
matrimonj
matrixe
matta
matte
matteo
matti
mattin
mattina
mattinn
matto
matu
maturac
maturitæ
mau
maurice
maurizio
mauro
maveggia
max
maxela
maxella
maxelli
maxello
maximum
maxin
maxina
maxinna
maxom
maxon
may
maym
maynera
maynere
mayor
mayre
mays
maystro
maz
mazo
mazu
mazzi
mazzin
mazzini
mazzo
mazzu
mbre
mc
mclaren
mcmillan
me
mea
meca
meccanica
meccanico
meccanizao
meccanizæ
meda
medaggia
mede
medesimo
media
mediac
mediamente
mediante
mediato
medica
medici
medicina
medico
medie
medieva
medieval
medievale
medio
medioe
medioevo
meditac
meditera
mediterannio
mediterranean
mediterraneo
mediterrannio
mediuevu
mee
mega
meggio
meghe
meghi
megi
megio
megioa
megiu
meglio
mego
megollo
megu
mei
meie
meigo
meiji
meio
meior
meire
meise
meisi
meist
meistr
meistra
meistre
meistri
meistro
meistru
meita
meitae
meite
meito
meitæ
meixi
meixin
meixina
meixinn
meixinna
meize
mela
melanitta
melbourne
mele
melilla
mella
melo
melodia
melodramma
melogno
meloia
mem
membre
membri
membro
memo
memoia
memoie
memoja
memoje
memoria
memorie
memory
memuoeria
men
mena
menac
menai
menando
menao
menar
menassa
menasse
menava
menavam
menaza
menbre
menbri
menbro
menc
menda
mendar
mende
mendor
mendoza
mene
menestra
mengs
meni
menic
meninpisti
menko
menn
menna
mennam
mennan
menne
meno
menoi
menor
mensa
mensciuna
mense
mensi
mensona
menta
mente
menti
mento
mentonnais
mentr
mentre
mentu
mentun
menu
menui
menuo
menuti
meo
mer
mera
merauegia
merc
merca
mercanc
mercante
mercanti
mercantia
mercantile
mercanzia
mercanzie
mercao
mercati
mercedes
mercenaro
merchanti
merci
merco
mercoe
mercosur
mercu
mere
merello
merganser
mergus
meri
meridia
meridiona
meridionale
meridionæ
merita
meritao
meritar
merite
meriti
merito
merli
merlino
merlo
mero
mersa
meru
mes
mesa
mesc
mesccia
mesccio
mescciu
mescciua
mescciæ
meschim
meschin
meschina
meschine
meschinetta
meschinetto
meschinn
meschinna
mesci
mescia
mescico
mescinn
mescio
mese
meser
mesi
mesima
mesimo
mesma
mesmi
mesmo
meso
mesoi
messa
messe
messer
messi
messiavo
messma
messmo
messo
meste
mester
mesteso
mestie
mestiere
mesu
mesura
met
meta
metafixica
metal
metalli
metallo
metamo
metando
metano
metazoa
mete
metea
metelin
meter
metero
metesse
meti
meto
metodi
metodo
metr
metri
metro
metropolita
metropolitan
metropolitann
mett
mettan
mette
metteghe
mettei
metteiva
metteivan
metteive
metteme
mettemmo
mettendo
mettera
mettero
mettese
mettesse
metti
mettia
mettighe
mettilo
mettime
mettio
mettise
mettite
metto
mettodo
mettu
meu
meue
mexima
meximo
meystro
mez
meza
mezan
mezano
meze
mezi
mezo
mezogiorno
mezu
mezua
mezuac
mezue
mezura
mezzana
mezzi
mezzo
mezzu
mi
mia
miaco
miage
miagia
mica
micca
miccia
michael
miche
michel
michelangelo
michele
michelis
michi
michigan
mickey
mickiewicz
mico
micrilbo
micro
microsoft
middle
mide
midi
mido
mie
miegio
miego
miei
mieza
miezo
miga
migge
miggia
miggio
miggiæa
migia
migiæa
migl
miglia
migna
migrac
migrato
miguel
mike
mil
mila
milan
milane
milaneize
milanese
milano
mile
mili
milia
miliardi
milic
milio
milioi
milioin
milion
milita
militae
militare
militari
militæ
mill
milla
mille
millenario
millennio
miller
millioi
millioin
million
mimi
min
mina
minaccia
minacia
minas
mincioin
mincion
mincionna
minde
mine
minera
minerva
mineræ
minestra
minetta
ming
mini
miniatu
miniatue
minima
minimo
ministe
ministri
ministro
minn
minna
minnesota
mino
minoi
minora
minore
minorita
minsona
minsono
minsonæ
minu
minuti
minæ
mio
mioi
mioin
mion
mir
mira
mirabile
mirachullo
miracoli
miracolo
miracori
miracoro
miraculi
mirando
mire
miria
mirioin
mirion
miro
miræ
misa
miscio
miscioin
miscion
misciona
misciscippi
mise
miseia
miseja
misem
misera
miserabile
miserere
miseri
miseria
misericordia
misero
misit
miso
miss
missa
missan
misse
missem
misseria
missese
missi
mission
misso
missouri
missu
mista
miste
misteri
misterio
mistero
mistic
mistica
misto
mistral
mit
mite
miti
mito
mitologia
miura
mixi
mize
mizeico
mizera
mizeri
mizeria
mizericordia
mizericordiozo
mizero
miæ
mm
mma
mmagu
mman
mme
mmetti
mmi
mmin
mmo
mmu
mo
moa
moae
moasan
mobbile
mobile
mobili
moc
mod
modalitæ
modda
modde
moddi
moddo
moddu
mode
modelli
modello
modena
modera
modern
moderna
moderne
moderni
moderno
modesta
modestia
modesto
modi
modifica
modifico
modo
modulo
moe
moen
moenn
moere
moge
mogge
moggie
mogie
mogier
moglie
mogo
mogogna
moi
moia
moier
moin
moina
moinello
moiva
moizes
mola
molda
mole
molecole
molesto
molfino
moli
molinari
moll
molla
molle
mollo
molo
molta
molte
molti
moltitudine
molto
mom
mombello
mome
momenti
momento
momin
mon
mona
monaci
monacij
monaco
monarca
monarchi
monarchia
monarchie
monastero
mond
monda
mondadori
mondana
mondane
mondanis
monde
mondi
mondia
mondiale
mondo
mondovi
mone
monea
monega
monegasco
monege
moneghe
moneghi
monegi
monegia
monego
moneste
monestero
moneta
monetac
monete
monexi
monfero
monferrato
mongo
moni
monic
monici
monicipa
monnego
mono
monodda
monroe
mons
monsa
monscigno
monsegnor
monsieur
monsu
mont
monta
montado
montagna
montagne
montagno
montaldo
montale
montalto
montan
montana
montando
montann
montao
montar
montava
monte
montegale
montelupo
montene
montenegro
monterosso
montevideo
monti
monto
monton
montserrat
montæ
monu
monume
monumenta
monumenti
monumento
monzo
monæa
monæe
moo
mor
mora
morale
morali
morandi
morando
morbo
more
morendo
moretta
morfe
morfologi
mori
moribus
moric
morimento
morin
morir
morire
morisse
moriva
mormora
moro
morro
morta
mortale
mortali
mortar
morte
morti
mortin
morto
mortu
mortæ
moræ
mosaic
mosaico
mosca
mosche
moscin
moscio
moscitæ
mose
mosse
mosso
most
mostac
mostasci
mostasso
mostra
mostram
mostrame
mostran
mostrando
mostrao
mostrar
mostrasse
mostrava
mostravam
mostravan
mostre
mostrera
mostreremo
mostrero
mostri
mostro
mostrou
mostræ
mosulma
mosulme
moti
motivac
motivi
motivo
moto
motore
motori
motrice
motta
motti
motto
mou
mouimento
mountain
mouti
moutia
mouttia
move
movei
movime
movimenti
movimento
moza
mozilla
moæ
moære
mpi
mpre
mpu
mr
ms
mt
mu
mua
muar
mucchi
muchettu
muderna
mudernu
mudifica
mudifinale
mue
muen
muffa
mugge
muggi
muggio
mui
mullus
multa
multe
multi
multis
multitudem
multu
mume
mumentu
munaste
munda
mundi
mundia
mundo
mundu
mundum
munduvi
munegasca
munegascu
muneghi
munegu
muneste
munic
munta
muntagna
muntagne
muntana
munte
munti
munto
munumentu
munæe
muo
muoe
muoen
muoeo
muoere
muoeve
mur
mura
muragge
muraggia
muraggie
murao
murat
mure
muri
muriel
murillo
muro
murta
murtitudem
murturatu
muru
musa
muse
musei
museo
museu
museum
music
musica
musico
musso
mussolini
mussurmoen
mustasci
mustra
mustru
mutaciom
muti
mutivasiu
muto
mutta
mutte
mutti
mutto
muxica
muxiche
muxici
muxicista
muxicisti
muza
muze
muæ
mx
my
myanmar
mæ
mæn
mænn
mæsma
mæsmo
mæxima
mæxime
mæximi
mæximo
mæximu
mœu
mœuo
mœuran
mœure
mœuro
mœuve
n
na
naa
naas
nabucdonozor
nac
nache
nacional
nada
naggin
nai
naixe
najo
nale
nali
nam
name
names
namibia
namorao
nan
nanna
nantes
nanti
nao
napoleone
napoli
napolio
napolion
napolita
napolitan
napolitano
nappoli
napuleu
napuleun
nara
narciso
nari
narrac
narratione
nasa
nasago
nasale
nasce
nasceiva
nascente
nascette
nasci
nascia
nascian
nascion
nascita
nasciu
nasciua
nasciuo
nascosto
nasi
nasiuna
naso
nasse
nassem
nassuo
nata
natale
natam
natan
natanælo
nati
nation
national
nationalbibliothek
nationale
nations
nativa
nativita
nativitae
nativite
nativitæ
nativo
nato
natta
natu
natua
natura
naturae
natural
naturale
naturali
naturalme
naturalmente
naturar
nature
naturelle
naturæ
nau
naue
naufraga
nauru
nava
nave
navega
navegac
navegando
naveganti
navegato
navegava
navi
navigato
naviglio
navo
navæ
naxe
naxi
naxin
naza
nazareno
nazaret
nazi
nazioi
nazion
nazionale
nazionali
nazo
nazu
nba
nbe
nbia
nbito
nbo
nboli
nbolo
nbra
nbre
nbri
nbro
nc
nca
ncan
nce
nche
nchen
nchi
ncia
ncio
ncipu
nco
ncu
nd
nda
ndan
ndard
nde
ndez
ndi
ndia
ndica
ndice
ndichi
ndico
ndie
ndio
ndise
ndl
ndo
ndoa
ndoghe
ndola
ndolo
ndone
ndose
ndra
ndria
ndro
ndu
nduse
ne
nea
near
nebbia
nebre
nec
neccessario
neccessitae
necesa
necescitæ
necessai
necessaia
necessaie
necessaio
necessajo
necessaria
necessario
necessitae
necessitæ
necho
nega
negac
negar
negati
negativa
neghe
neghi
negli
negligente
nego
negoc
negotio
negoziante
negozio
negozj
negri
negro
negron
negu
neh
nei
neigra
neigre
neigri
neigro
neigru
neill
neive
nel
nell
nella
nelle
nello
nelson
nemente
nemi
nemiga
nemighe
nemigo
nemixi
nen
neo
neocla
neotralitæ
nepal
nera
nere
neri
nero
nerom
neron
nervi
nervia
nervo
nervoso
nes
nesci
nescia
nescio
nescioi
nesciun
nesesitae
nespore
nessa
nesse
nessun
nesta
net
neta
netherlands
neto
netta
nettamente
nette
nettezza
netti
netto
nettu
nettun
network
neu
neutte
neuva
neuve
neuvec
neuvi
neuvo
neuvu
neva
nevada
nevadda
neve
nevers
nevi
nevis
nevo
new
news
newton
nexi
nexun
nfo
ng
nga
nge
ngei
ngeo
nghe
nghi
ngi
ngia
ngian
ngio
ngiou
ngiu
ngo
ngoa
ngoe
ngoli
ngolo
ngu
ngua
ngue
nha
ni
nia
niatri
nic
nica
nicamoele
niccia
niccolo
nice
niche
nicheroso
nichi
nichil
nichio
nichioso
nichiozo
nici
nico
nicodemo
nicola
nicolas
nicoletta
nicolin
nicolino
nicolla
nicolo
nicu
nidi
nidificac
nie
niels
niemeyer
niente
nievo
niger
nigeria
nigra
nigro
nigum
nigun
niguna
nii
nilo
nima
nime
nimi
nimis
nimixi
nimo
nimu
nin
ninfa
ninfe
ninive
ninn
ninna
ninno
nino
nint
ninte
nintedemen
nio
nion
niorche
nipoti
nisciu
nisciun
nisciunna
nise
nissa
nisse
nissum
nissun
nissuna
nissunna
nisum
nisun
nisuna
nita
nite
nitschke
nitæ
niu
niversale
niverscitæ
nixi
nixum
nixun
nizza
nl
nla
nn
nna
nnava
nne
nni
nnia
nnie
nnio
nno
nnu
no
noa
noan
nobbile
nobel
nober
noberasco
nobile
nobili
nobiltæ
nobuyoshi
noc
noce
nocte
nodo
noe
noette
noetti
noeuvo
noevo
noi
noia
noise
noite
noj
noli
nom
noma
nome
nomera
nomero
nomi
nomiagio
nomina
nominao
nomine
nomino
nominæ
nomioxi
nomme
nommi
nommina
nomo
non
nona
nonc
nonche
none
nonna
nono
nonostante
noo
nora
noranta
nord
nori
noriga
norigao
norimberga
norma
normale
normalmente
norman
normandia
normanni
normattiva
norme
north
northern
norve
norvege
norvegia
norway
nos
nosse
noster
nostr
nostra
nostre
nostri
nostro
nostru
nostrum
nostræ
not
nota
notabile
notabili
notao
notari
note
noteive
noteivi
notes
noti
notic
notizia
notizie
noto
notre
notta
notte
notto
notu
nou
noue
nous
nov
nova
novanta
novara
novarese
nove
novecento
noveize
novella
novelle
novello
novembre
noven
novenbre
novi
novitæ
novo
novæa
now
noxe
noxer
noy
nozze
npa
npe
npi
npia
npio
npito
nplice
nplici
npo
npre
npæ
nque
ns
nsa
nsan
nsce
nsci
nscio
nscrito
nse
nsi
nsia
nsie
nsl
nso
nsoi
nsole
nsoli
nsu
nt
nta
ntale
ntan
nte
nter
ntexi
ntgen
nti
ntica
ntico
ntl
nto
ntoa
ntr
ntra
ntran
ntre
ntri
ntro
ntru
ntu
ntulnu
nu
nua
nuc
nuclea
nuclei
nucleo
nucleu
nue
nui
nuio
nulla
nullo
num
numa
number
nume
numeo
numera
numerac
numeri
numero
numerose
numeroxi
numina
numioxi
numioze
numismatibus
numismatica
numma
numme
nummero
nummi
nun
nunc
nunsia
nunustante
nunzia
nuo
nuoette
nuoeva
nuoeve
nuoevo
nuoi
nuova
nuove
nuovo
nure
nus
nustalgia
nutri
nuvaize
nuve
nuvembre
nuvere
nuvie
nuvora
nuvore
nxi
ny
nytimes
nza
nzan
nze
nzi
nzo
næ
nœu
nœuo
nœutte
nœuva
nœuve
nœuvi
nœuvo
nœva
o
oa
oato
obbedi
obbliga
obblighæ
obbligo
obedi
obedienc
obediencia
obediente
obei
obeir
oberti
oberto
obiettivi
obiettivo
oblast
obliga
obligao
obrigao
obrigo
oc
oca
ocaxon
occ
occasion
occasione
occaxion
occaxon
occhi
occidenta
occidental
occidentale
occidente
occo
occorre
occorso
occu
occupa
occupac
ocean
oceano
oche
ochin
oci
ocidenta
ocidente
ocidentæ
ocier
ocir
ocize
oclc
octo
ocupa
ocupac
ocupao
ocupo
ocupon
ocurtamenti
od
odando
odasso
oddi
ode
oder
odi
odia
odiando
odie
odim
odio
odioso
odir
odirei
odisse
odiva
odivam
odo
odoardo
odoi
odontoiatria
odor
odore
oe
oecd
oeggi
oeggie
oeggio
oei
oerio
oetto
oeve
of
ofeiso
ofensciva
ofenscive
oferta
off
offeisa
offeise
offeiso
offeiza
offeize
offeizo
offende
offensciva
offeri
offerta
offerte
offerto
offic
office
officia
official
officiali
officij
officio
offitio
ofi
ofic
oficial
ofitio
ogerii
ogetti
ogetto
oggetti
oggetto
oggi
oggie
oggio
oggni
ogi
ogliari
oglio
ogn
ogni
ognidu
ogniun
ognu
ognuchana
ognun
ognuncha
ognunchana
oh
ohe
ohibo
ohime
ohio
oi
oia
oibo
oigu
oime
oin
oinousses
oio
oir
ois
oiva
oive
ojeda
ok
oklahoma
okrug
ol
ola
olanda
olande
olandeise
olandeixi
olcese
old
oldid
ole
oleracea
oli
olim
olimpia
olimpiade
olindo
oliva
oliver
olivieri
olle
olmi
olona
olpi
oltre
oltrema
om
omaggio
ombra
ombre
ombroso
ome
omero
omi
ommi
ommo
ommu
omne
omnes
omnia
omnibus
omnipotente
omo
omonima
omonimo
omu
on
ona
onc
ond
onda
onde
one
onesta
oneste
onesti
onesto
onestæ
onipotente
online
onnipotente
ono
onofrio
onoi
onor
onora
onorato
onore
onorevole
onori
ont
ontario
onu
onze
oo
op
opai
ope
opea
opee
open
opera
operac
operaciom
operai
operaio
opere
opiac
opiniom
opinion
opole
opoxic
oppon
opposta
opposto
oppresso
oppu
oppure
opt
opu
opus
or
ora
orac
oracio
oracioim
oraciom
oracolo
orale
oran
orando
orar
oration
orato
oratoiu
oratorio
oratoriu
orava
orazio
orazion
orba
orbetello
orbetto
orbi
orbita
orbo
orbu
orc
orchestra
orcid
orco
orcu
orde
ordem
ordena
ordenae
ordenai
ordenamenti
ordenamento
ordenao
ordenar
ordeno
ordi
ordina
ordiname
ordinanza
ordinao
ordine
ordini
ordino
ordo
ore
orege
oregge
oreggia
oreggie
oregie
oregon
orei
oreiva
oreste
orfeo
org
organi
organismo
organiximi
organiza
organizac
organization
organizo
organizza
organizzac
organizzo
organo
orgoio
ori
oria
oriber
orienta
orientale
orientali
orientamento
oriente
orientæ
origanum
origgine
origina
originaia
originaio
originale
originali
origine
origini
origins
originæ
orio
orizzonte
orlando
orle
orlo
orm
orma
ormai
orme
ormea
ormondo
orna
ornamenti
ornamento
ornao
ornitologia
oro
orrenda
orrendo
orribel
orribile
orrida
orro
ors
orsay
orsci
orsciu
orsi
orso
orsolinn
ort
ortensia
orti
orto
ortodo
ortografia
oryctolagus
orza
os
oscar
oscars
osce
oscia
oscigeno
osciu
oscura
oscuri
oscuro
ose
osers
oserva
osi
oso
ospedale
ospita
ospite
ospiti
ossa
osse
osserva
osservac
osservando
osservao
osservato
osservo
osservæ
ossia
osso
ossæ
osta
ostacolo
ostaja
ostante
oste
ostendens
ostendere
ostendit
osti
ostia
ostilitæ
ostina
ostra
ostria
ot
ota
otar
otavo
ote
otello
other
oti
otio
otis
oto
otoboni
otobre
otr
otra
otrama
otrazo
ott
otta
ottanta
ottava
ottave
ottavian
ottavietta
ottavietto
ottavio
ottavo
otte
ottegne
ottegni
ottegnu
otten
ottima
ottimo
otto
ottobre
ottocento
ottoman
otton
ottone
otu
ou
oua
ouera
ouere
ougu
oumancu
our
oura
oure
ourense
ouro
oustra
oustralia
oustralie
oustri
oustro
out
outlook
outo
outoi
outonomi
outoritæ
outostra
outre
outu
ova
ovando
ove
over
overa
overe
ovest
ovidio
oviedo
ovo
ovra
ovre
ovvero
oxeli
oxella
oxelletti
oxelletto
oxelli
oxellin
oxello
oxellu
oxford
oyo
oyr
oza
ozela
ozio
p
pa
paa
paan
pablo
pac
pacciu
pace
paci
paciencia
paciente
pacientementi
pacifficho
paciffigo
pacifico
paciu
pada
padann
paddre
paddri
paderno
padigio
padoa
padova
padre
padri
padro
padroi
padroin
padron
padronn
padrun
pae
paei
paeise
paeisi
paeiva
paeixi
paeize
paenti
paere
paes
paese
paesi
pag
paga
pagai
pagam
pagame
pagamenti
pagamento
pagan
pagani
paganin
paganini
pagano
pagao
pagar
pagare
pagava
page
paggi
paggia
paggina
paggio
paghe
paghen
paghera
pagheræ
paghæ
pagina
pagine
pago
pai
paira
paire
pairi
pais
paisan
paise
paisen
paisi
paiva
paivan
paixi
paiza
paizan
paize
pakistan
pal
pala
palac
palanca
palanche
palassi
palassio
palassiu
palasso
palassu
palatina
palavici
palazio
palazzi
palazzo
palazzoducale
pale
paleo
paleocene
paleologo
palermo
palesti
palestin
pali
palla
pallapugno
pallido
pallone
palma
palo
palos
palosso
paltia
palu
pam
pan
panama
panc
pancado
pancr
pancrazio
pane
panero
pani
panis
panni
panno
pano
panora
panorama
pansa
pant
pantaleo
pantalera
pantalin
pantalon
panucio
panurus
panza
panzer
panzerkorps
pao
paola
paole
paoli
paolin
paolo
paolotto
paor
papa
papagallo
papato
pape
pappa
pappagaggio
pappagalli
pappagallo
pappe
pappi
papua
par
para
paradi
paradiso
parago
paragon
paragona
paraguay
paraiso
parale
parana
paranco
paravexin
paraxi
paraxo
parc
parche
parco
parcosce
parcu
pare
parea
paream
parei
pareiso
pareiva
pareivam
pareivan
pareizementi
pareizo
parem
parentao
parente
parentexi
parenti
parer
parese
paresse
parete
pareto
pari
paria
pariggi
parigi
parigin
parini
paris
parise
parisse
paritæ
pariæ
park
parla
parlame
parlamenta
parlamenti
parlamento
parlan
parlando
parlante
parlanti
parlao
parlar
parlare
parlasse
parlata
parlate
parlava
parlavan
parle
parlemmo
parler
parlera
parlero
parli
parlia
parliament
parliemo
parlio
parlla
parllando
parllar
parllava
parlo
parloo
parlou
parlu
parlæ
parma
parme
parmi
parmo
parmæa
parnaso
parnazo
paro
parocchia
parocchie
parochia
parochiae
parodi
parodiindice
parola
parole
parolla
parolle
parpaggie
parpella
parpelle
parra
parrebbe
parro
parrocchia
parrocchiale
parrocchie
parsciu
parse
parso
parsse
parsuo
part
parta
partan
parte
partec
partecipa
partecipac
partecipasiu
partem
partenc
partensa
partenza
partes
parti
partia
partic
particola
particolare
particolaritæ
particolarme
particolarmente
particolæ
particula
particulare
particulo
partie
partigia
partigian
partii
partij
partim
partimo
partin
partindo
partindu
partio
partir
partire
partisse
partito
partiva
partixelle
parto
partono
partori
paruchia
paruchiale
parus
pas
pasa
pasage
pasando
pasandu
pascal
pasce
pascha
pasci
pascia
pascio
pascioin
pascion
pascoli
pase
pasera
pasi
pasia
pasiensa
paso
pasq
pasqua
pasquale
pasquin
pasquina
pass
passa
passae
passagge
passaggia
passaggio
passaggiu
passai
passan
passando
passao
passaou
passaporto
passar
passatempo
passato
passava
passavan
passe
passeggia
passeggiando
passeggiata
passemmo
passer
passera
passi
passia
passiemo
passio
passiom
passion
passione
passo
passon
passou
passu
passæ
past
pasta
paste
pastisso
pasto
pastoi
pastor
pastora
pastorali
pastore
pastori
pastorino
pastu
pastura
pasæ
pat
pata
patagonia
patata
patatte
pate
patella
patelle
patente
pater
paterno
paternostri
paternostro
pati
patientia
patienza
patiretti
patisce
patiscio
pato
patois
patrem
patri
patria
patriarca
patriarcha
patric
patrimo
patrimonio
patrimonnio
patrio
patrioti
patrizia
patro
patroin
patron
patronna
patrono
patruna
patta
patte
patti
patto
pattria
pau
paul
paulo
paulu
paulus
paura
pausa
pav
pavarin
pavarinna
pavese
pavi
pavia
pavime
pavimento
pavon
paxe
paxiffego
paxo
payre
paz
paziensa
paziente
pazienza
pc
pdf
pe
pea
peagallo
pec
pecae
pecao
pecca
peccae
peccai
peccao
peccaoi
peccaor
peccar
peccarixe
peccato
peccay
pecce
pecche
pecchæ
pecco
peccoi
peccou
pechao
peche
pechi
peco
pedante
pedanti
pedemonte
pedevilla
pedoin
pedro
pee
pegno
pegoa
pegoe
pegora
pegore
pegue
pei
peia
peie
peigo
peina
peira
peire
peisa
peiso
peive
peixe
peiza
peizo
peja
pel
pelazza
pele
pelegri
pelegrim
pelegrin
pelegrina
pelendon
peli
pelisa
pella
pelle
pellegrin
pello
pen
pena
pende
pendin
pene
penetencia
penetentia
penetra
penetrac
peni
penisoa
penite
penitenc
penitencia
penitensa
penitentia
penitenza
penizoa
penn
penna
pennavaire
penne
pennello
pennsylvania
pensa
pensaghe
pensai
pensamenti
pensamento
pensan
pensando
pensao
pensar
pensato
pensatoi
pensava
pensavan
pensce
penscei
pensceo
penscero
pense
pensemmo
penser
pensi
pensie
pensiero
penso
pensome
pensou
penssa
penssai
penssamento
penssando
penssao
penssar
penssava
pensser
penssi
pensæ
pente
pentecoste
penti
pentimento
pentio
pentir
penu
peo
peoburgo
people
per
pera
perac
peragallo
perati
perba
perbi
perbo
perc
perch
perche
percio
perco
percori
percorso
percose
percursu
perdan
perde
perdecion
perdei
perdeiva
perdemmo
perder
perdere
perdesse
perdette
perdi
perdia
perdiciom
perdie
perdiesann
perdigiorni
perdigiurni
perdingolinn
perdita
perdo
perdom
perdon
perdona
perdonanza
perdone
perdonn
perdonæ
perdu
perdua
perdue
perdui
perduo
pere
peretta
perfe
perfec
perfetamenti
perfetta
perfettamente
perfetti
perfetto
perfezion
perffeciom
perffeta
perffeto
perfic
perfido
peri
pericle
pericoli
pericolo
perife
periferi
periferia
perighi
perigi
perigo
perigolo
perigoroso
perio
periodi
periodo
peripateta
perir
periudi
periudu
perla
perle
permane
permanenc
permanent
permanente
perme
permesso
permessu
permete
permettan
permette
permi
permiscion
permisse
permission
permisso
pernixe
perno
pero
peroche
perosa
perpe
perpetua
perpetuo
perrin
perru
persa
persci
perscia
perscian
perse
persecuc
perseguita
persevera
persi
persia
persian
perso
persoche
persoglio
person
persona
personaggi
personaggio
personalitæ
personalmente
persone
personn
personna
personne
personæ
persso
perssoche
perssona
persu
persuaso
persune
persunn
pertanto
perti
pertica
pertini
pertu
pertusa
pertuso
pertutto
pertuxi
pertuza
pertuzo
peru
perucca
peruche
peruggia
perverso
perzo
perzoche
pesa
pesante
pesanti
pesca
pescao
pesce
pescetto
pesche
pesci
pescio
pesciu
pesco
pescoe
pescoei
pescou
pescuei
pesi
peso
pessa
pesse
pessi
pessima
pessimo
pessina
pesso
pesta
peste
pestelencia
pestello
pesto
pestu
peter
petic
petit
petm
peto
petracco
petrarca
petri
petro
petroli
petrolio
petromyzontidae
petromyzontiformes
petrucci
petti
petto
petu
peu
peuan
peut
pexi
peza
pezante
pezo
pezoi
pezor
pezu
pezza
pezzi
pezzo
pezzuolo
phage
philadelphia
philip
philippe
philobiblon
photography
php
phylum
pi
pia
piac
piace
piacere
piaga
piage
piaggio
piam
piama
pian
piana
piane
pianeta
pianeti
piange
piangendo
pianista
piano
pianofo
pianoforte
pianta
piante
pianti
pianto
pianzando
pianze
pianzea
pianzeiva
pianzeivam
pianzer
pianzere
pianzi
piasa
piaschu
piaschum
piaschuna
piatafo
piatti
piatto
piave
piaxa
piaxe
piaxea
piaxei
piaxenc
piaxenti
piaxentin
piaxer
piaxera
piaxesse
piaxuo
piaza
piazza
piazzolla
pic
pica
picasso
picca
piccan
piccante
piccava
piccena
piccenin
picceno
picche
picchi
picci
piccin
piccinn
piccion
piccioni
picco
piccola
piccoli
piccolo
piccon
picem
picen
picena
piceni
picha
piche
pichi
pici
picin
picina
picinn
pico
pictures
pide
pidgin
pido
pie
piedi
pielle
piemo
piemonte
piemonteise
piemonteize
piemunte
piemuntese
piemuntexi
piena
pier
piero
pierre
pieta
pietae
piete
pieter
pieto
pietosa
pietoso
pietoxo
pietozo
pietra
pietre
pietrese
pietro
pietru
pietæ
pieve
piezo
pig
piga
pigge
piggi
piggia
piggian
piggiando
piggiao
piggiaou
piggiava
piggiavan
piggie
piggio
piggion
piggiou
piggiæ
piggæ
pigia
pigiando
pigiao
pigiava
pigio
pigiæ
piglia
pigna
pignasecca
pignatta
pignaverde
pigne
pigneu
pigno
pigo
pil
pila
pilato
pilatto
pilla
pillato
pilloe
pilota
pilotto
pim
pimpetta
pin
pina
pinacote
pinacoteca
pindo
pine
pinello
pinerolo
pinn
pinna
pinne
pino
pinocchiu
pinta
pinyin
pio
piola
pip
pippa
pippo
pira
pirati
pirenei
pirro
pisa
pisano
piscopo
pissi
pissu
pista
pisto
pistolla
piston
pita
pitagora
piti
pitin
pito
pitoe
pitoi
pitt
pitta
pittamu
pittamusche
pittanza
pitti
pittin
pittinin
pitto
pittoi
pittore
pittori
pittu
pittua
pittura
pitu
pitua
piu
piuttosto
pixon
piza
pizan
pize
pizen
pizzi
pizzorno
pizzu
pl
pla
plac
placca
place
placentalia
placido
planet
planetary
plata
platea
platom
platon
platonica
platonico
play
plaza
plebe
plinio
plu
plura
plurale
plus
pluton
pm
po
poa
poae
poasqua
poblacio
poc
poca
pocente
pocha
poche
pochetim
pochetin
pochetto
pochi
pocho
poco
pocu
poderozo
podesta
podiceps
podraga
poe
poea
poeam
poei
poeighe
poeime
poeir
poeise
poeiva
poeivan
poeive
poeivo
poem
poema
poemetto
poemmo
poemo
poen
poendo
poer
poeran
poere
poero
poese
poesia
poesie
poessan
poesse
poestae
poeta
poetessa
poeti
poetica
poetico
poettan
poette
poeu
poeva
poexi
poexia
poexie
poey
poggi
poggio
poi
poia
poiche
pointa
pointi
pointo
poira
poise
poisse
poissem
poissons
poist
poistæ
poiva
poivam
poivan
pola
polacca
polacco
polcevera
pole
polemica
polenta
poli
polic
polinesia
polinesian
politego
politi
politica
politicame
politicamente
politiche
politichi
politici
politico
politics
polito
polittica
polittichi
polittico
politto
polla
pollastri
polli
pollin
polmon
polo
polonia
polte
polyodontidae
pom
pome
pomeran
pomerania
pometta
pomo
pompa
pompe
pompeo
pon
ponan
ponc
pondo
pone
ponendo
ponente
poni
ponit
ponpeo
pons
pont
ponta
ponte
pontede
pontefixe
pontevedra
pontexello
ponti
pontifficho
pontiffici
pontifi
pontific
ponto
ponton
ponze
ponzente
pop
popola
popolac
popolare
popolari
popolaritæ
popolasio
popolasion
popolassio
popolassion
popolazione
popoli
popolo
popolæ
poppa
poppolo
population
populi
popullo
populu
por
pora
porai
porc
porchetto
porchi
porci
porco
porcus
porea
porei
poreiva
poresi
poressi
poria
porie
porieiva
porieivan
poriæ
poro
porpa
porpette
porpora
porra
porran
porre
porrea
porrei
porreiva
porressi
porria
porrie
porriei
porrieiva
porrio
porriæ
porro
porræ
port
porta
portal
portallo
portam
portamento
portan
portando
portante
portao
portaou
portar
portare
portasse
portava
portavam
portavan
porte
porteghi
portego
portello
portemmo
portemo
portenti
portento
portera
portero
porti
portia
portio
portiu
porto
portoa
portoei
portofin
portofranco
portoga
portogallo
portoghe
portogheise
portogheixi
portogheize
portoia
portoja
porton
portoria
portou
portu
portugal
portughæ
portæ
porze
porzo
pos
posa
posando
posansa
posci
poscia
poscibbile
poscibile
poscibilitæ
poscide
posciu
posciuo
pose
posede
posedime
posente
poso
poss
possa
possai
possam
possamo
possan
possanc
possando
possansa
possanssa
possante
possanza
possao
possar
possasa
posse
possede
possedimenti
possem
possemmo
possemo
possente
possesci
possesso
possi
possia
possibile
posso
possu
possunt
possuo
possæ
post
posta
poste
posteri
posterio
posti
posto
postu
potascio
potato
pote
potenc
potenciam
potensa
potensiale
potente
potenti
potenza
poter
potest
potrebbe
potremmo
potron
pou
poula
poule
pouo
pour
pove
povea
povee
povei
poveo
pover
povera
povere
poveretta
poveretto
poveri
povero
povertae
povertæ
povia
povie
povio
povo
povoro
povou
power
powo
poxic
poxiti
poxitivo
poxizion
poy
poze
pozzo
poæ
poæran
poære
poæri
poæro
pp
ppa
ppan
ppe
ppetta
ppi
ppo
ppu
pr
pra
prado
prae
praga
pranzo
prao
praou
prati
pratica
praticamente
pratiche
pratico
prato
prattica
pravexin
pre
prea
preboggion
prec
prece
precede
precedenc
precedente
precedentemente
precedenti
precedu
preces
precetto
preche
preci
preciosse
precioze
preciozo
precisa
precisamente
preciso
precizamente
predica
predicac
predicato
predico
prediletta
predominio
pree
prefac
prefazioi
prefazion
prefazione
prefei
preferi
prefeto
prefetto
prefetu
preffeta
preffetamenti
preffeto
prefi
prefisso
prega
pregai
pregamo
pregando
pregao
pregar
pregava
prege
pregemo
pregera
pregere
preghe
preghea
preghemo
preghera
preghere
preghiera
preghæ
pregia
pregiu
pregiudi
pregiudizio
prego
pregote
preicar
preisa
preise
preiso
preisso
preisto
preixi
preiza
preize
preizem
preizo
prela
prelati
prelimina
premento
premessa
premia
premier
premio
premme
premmio
premu
premura
prenda
prende
prendea
prendei
prendem
prender
prendera
prendere
prendi
preocupa
prepa
prepaa
prepara
preparac
preparao
preparativi
preparo
preparæ
prepetua
preponimento
prepote
prepotente
prepotenza
prepoxic
prepoze
pres
presbite
presci
prescide
prescidente
prescinse
prescinso
prescio
prescioi
prescion
prese
presedente
presedentemente
presempio
presenc
presensa
present
presenta
presentan
presentava
presente
presenti
presentia
presento
presenza
presepio
preserva
president
presidente
preso
press
pressencia
pressente
presso
presta
prestamenti
presti
prestiggio
prestigio
prestito
presto
prestu
prete
preteize
pretende
pretendeiva
pretendo
pretenscion
preterito
pretesti
pretesto
preuva
prevalentemente
preve
prevedde
prevede
prevegni
prevegnu
previ
previlegio
previsti
previsto
prex
prexi
prexio
prexo
prexoi
prexoin
prexom
prexon
prexone
prexoni
prexun
prez
preze
prezenc
prezencia
prezenciom
prezenpio
prezensa
prezenta
prezentac
prezentan
prezente
prezenti
prezento
preziosa
preziose
prezioso
prezo
prezu
pri
pria
prian
pricando
pricha
prichaciom
prichando
prichao
prichar
prichava
prie
prim
prima
primates
primave
primaveia
primaveja
primavera
prime
primer
primera
primeramenti
primi
primis
primm
primma
primmaveia
primmaveja
primme
primmi
primmo
primmu
primo
primocanale
primogenito
primu
princ
prince
principa
principale
principatu
principe
principi
principio
principo
principu
prinsipa
prinsipale
prinsipalme
prinsipalmente
prinsipe
prinsipi
prinsipiu
prinsipo
prinzipio
prio
priscis
priva
privao
privato
prive
privi
privile
privileggi
privilegi
privilegio
privo
privæ
pro
proa
proao
proar
proba
probabbile
probabile
probabilitæ
probabilme
probabilmente
probat
proble
problema
problemi
proc
proce
procede
procedu
procesci
procescio
procescioi
procescion
processi
processiom
procession
processo
procla
proclama
proclamac
proclamo
procu
procua
procuao
procuo
procura
procurao
prodesse
prodotto
produ
produc
produe
produta
produti
produto
produxe
proe
proei
prof
profe
profecia
profecie
profescio
profescion
profesciona
profeso
profession
professo
professoi
profeta
profeti
proffecia
proffeta
proffeti
profi
profile
profilo
profirio
profitto
profo
profonda
profondamente
profonde
profondi
profonditæ
profondo
profu
proge
progeta
progeto
progetta
progetti
progetto
progra
programma
programme
programmi
progresci
progrescivamente
progresivame
progresso
proibi
project
prologo
prome
promera
promeramenti
prometo
promette
prometto
promi
promiso
promissa
promisse
promissiom
promisso
promo
promoc
promonto
promoto
pron
prono
prononc
pronta
prontamente
pronte
pronti
pronto
pronu
pronunc
pronuncia
pronunzia
propaganda
prope
propheta
propia
propiamente
propie
propietæ
propio
propiu
propizia
propizio
propo
propon
proponimento
proporc
proporzion
propos
proposic
proposito
proposta
proposte
proposto
propoxic
propoxito
proppi
proppia
proppie
proppio
proppiu
propria
propriamente
proprie
proprieta
proprietæ
proprio
propriu
propter
prosa
proscimitæ
proscimo
prose
prosegui
prosperitae
prosperitæ
prospero
prospeti
prospettiva
prospettive
prossimo
protagoni
protagonista
protagonisti
prote
protec
protectoi
protesta
protestante
protestanti
proteste
protesto
proteto
protetoi
protetto
protettoi
proteze
protezion
protezionecivile
proto
prou
prouidencia
prouiste
prova
prove
provedde
provegninte
provei
provenc
provence
provenie
provensa
provenza
proverbi
proverbio
provexon
provi
providencia
provinc
provincia
provinciale
provinciali
provincie
provinsa
provinse
provisto
provizo
provo
provoca
provocao
provoco
provvedde
provvidenza
provvista
provviste
provvisto
provæ
proximo
proze
pru
prua
prubabilme
prubabilmente
prucesciu
prudenc
prudente
prudenza
prudo
prudu
prudusiu
prufesu
prufeta
prufeti
prufundita
prugato
pruge
prugettu
prume
prumer
prumera
prumeramenti
prun
prununsia
prunus
pruoeva
prupieta
pruscia
pruscian
prute
pruve
pruvenc
pruvincia
pruvinsa
pruvinsale
præ
præve
prævi
prœuva
prœuve
prœuvo
psara
psicologia
psychology
psœu
pt
pta
pu
pua
puamente
pubblica
pubblici
pubblico
pubbrica
pubbricac
pubbriche
pubbrichi
pubbrico
public
publica
publicac
publications
publico
publio
publique
publishers
publishing
pubrica
pubricac
pubriche
pubrico
pubricou
pubricæ
puca
puccini
pudesta
pue
puei
pueiva
puellis
puen
puero
puerto
pueta
puggia
puglia
pugnatte
pugni
pugno
pui
puia
puigdemont
puiia
puinto
puira
pule
pulenta
pulentin
puli
pulitica
puliticu
pulito
pulla
pune
punente
puni
puniciom
punij
punio
punir
punta
puntassu
punte
punti
puntino
punto
puntu
punze
puo
puoe
puoei
puoeiva
puoemmo
puoeran
puoere
puoescia
puoessa
puoi
puon
pupulasiu
pupulasiun
pur
pura
pure
purga
purgate
puri
puritae
puro
purta
purtai
purtandu
purtau
purtava
purto
purtro
purtu
purtulian
pus
puscibile
pusciu
pusedime
pusedimenti
pusisiu
pusor
pussor
pustu
puvee
puæ
pæ
pæge
pægi
pægia
pægie
pægio
pægua
pæsta
pœ
pœi
pœu
pœuan
pœuran
pœuscia
pœuxo
q
qandu
qartie
qin
qing
qu
qua
quaccio
quaddri
quaddro
quaddru
quaderni
quaderno
quadra
quae
quaexi
quai
qual
qualche
qualcosa
qualcu
quale
quali
qualifica
qualita
qualite
qualitæ
qualla
qualle
qualo
qualunque
qualzina
quam
quand
quande
quando
quandu
quant
quanta
quante
quanti
quantitae
quantite
quantitæ
quanto
quantu
quantunque
quanvisde
quar
quara
quarant
quaranta
quarc
quarch
quarche
quarchedu
quarchedun
quarco
quarcosa
quarcu
quarcun
quare
quareizema
quarta
quarte
quarti
quarto
quartu
quasi
quato
quatorze
quatre
quatro
quatroc
quatto
quattorze
quattr
quattrin
quattro
quattroc
quattru
quaxi
quay
que
quebec
quechua
quedam
quei
quel
quela
quele
queli
quell
quella
quelle
quelli
quello
quellu
quelo
quelques
quelui
quendam
quente
quenti
quer
querela
quest
questa
queste
questi
questio
questioi
questioim
questioin
questiom
question
questiones
questo
questu
queta
quete
queto
qui
quia
quibus
quibusdam
quid
quidam
quieta
quiete
quieto
quila
quiliano
quilli
quindi
quint
quinta
quinto
quintus
quirinale
quis
quito
quiœu
quo
quod
quodam
quon
quondam
quoniam
quor
quota
quote
quæ
quæxi
r
ra
raba
rabe
rabi
rabo
rac
raccolta
raccomando
racconta
racconti
racconto
raccu
rachele
raciones
raco
radiac
radica
radio
radiu
rado
radu
rae
rafae
rafanelli
rafe
raffaele
raffaello
raffe
rafigu
rafigua
rafigurac
raforc
raga
ragazza
raggi
raggia
raggio
ragione
ragna
ragrupame
rai
raimbaut
raimo
raimondo
rainie
raixe
rajo
rale
rali
rallegra
rallegro
ralmente
rama
ramadan
ramaddan
rame
rami
ramma
ramme
rammi
rammo
rammu
ramo
ramon
ran
ranchor
ranga
ranghezzando
ranghi
rango
ranpi
ransi
ransu
rante
raozo
rap
rapa
rapallo
rapi
rapidamente
rapido
rapina
rapo
raporti
raporto
rappe
rappi
rappo
rapporti
rapporto
rappresenta
rappresentac
rappresentanti
rappresentava
rapresenta
rapresentac
rapresentante
rapresentasiu
rapreze
raprezenta
raprezentac
raprezento
raprezentæ
rara
rare
rari
raritæ
raro
ras
raso
rason
rassa
rasse
rassegna
rassegno
rata
rate
ratela
ratione
rattella
ratti
rattin
ratto
rava
rave
ravecca
ravenna
ravie
ravviva
raxion
raxo
raxoi
raxoim
raxoin
raxom
raxon
raxona
raxonamento
raxonando
raxone
raxoneive
raxonn
raxun
raymond
rayxe
razo
razon
razonsan
razonse
razonta
razonto
razonze
razunze
razunzibile
razza
razze
razzunze
rba
rbari
rbe
rbi
rbia
rbio
rbita
rbo
rboi
rbu
rc
rca
rcan
rche
rchi
rchica
rchico
rchin
rci
rcia
rcio
rciti
rcito
rco
rcole
rcre
rcu
rd
rda
rdan
rde
rdena
rdi
rdia
rdico
rdie
rdine
rdini
rdio
rdo
rdoba
rdu
re
rea
reac
reagi
real
reale
reali
realisa
realisasiu
realiso
realiza
realizac
realizo
realizza
realizzac
realizzo
realizzæ
realizæ
realta
realtæ
reame
reato
rebattu
rebecha
rebella
rebelle
rebelli
rebellion
rebello
rebellæ
rebomba
rebus
rec
reca
recamma
recammi
recammo
recammæ
recanati
recane
recatti
recatto
recco
rece
receive
recente
recentemente
recenti
recesta
receve
recevuo
reci
reciama
reciamma
reciammo
recilla
recipe
reco
reconosce
reconosciu
record
records
recovera
recu
recugeita
recupero
recustrusiu
red
redac
reddeno
reddito
redento
redi
redosso
redu
redue
reduta
redute
reduto
ree
refa
referendum
refio
reforma
refu
refua
refuo
refæta
reg
rega
regaggi
regala
regalla
regalli
regallo
regallu
regalo
regatta
rege
regge
reggia
reggimento
reggio
reggola
reghe
reghi
regi
regia
regime
regimme
regin
regina
reginn
reginna
regio
regioi
regioin
region
regiona
regionale
regionali
regione
regions
regis
regista
registra
registrac
registro
registræ
regiu
regiun
regiuna
regna
regnando
regnante
regnava
regne
regni
regno
regnu
regnum
rego
regola
regolame
regolare
regolaritæ
regole
regolite
regolæ
regorda
regordo
regracia
regula
regular
regulla
rei
reich
reina
reisa
reisego
reiso
reixe
reixi
reiza
reize
reizeghi
reizego
reizo
rej
relac
relati
relation
relativa
relativame
relativamente
relative
relativi
relativitæ
relativo
relazion
relazione
rele
relegiom
relento
relevo
reli
religio
religioin
religiom
religion
religione
religiosa
religiose
religiosi
religioso
religioxi
religioza
religioze
religiozo
religiu
religiusa
religiusu
reliquia
reliquie
rem
remaggi
rembrandt
reme
remedia
remedij
remedio
remescia
remescio
remette
remi
remme
remmo
remo
remonta
remontan
remor
remorim
remunta
ren
renania
renascimento
renato
renda
rendan
rende
rendeiva
rendeivan
rendem
render
rendera
rendezvous
rendi
rendia
rendie
rendise
rendo
rene
renega
renegao
renego
renna
renomaa
renonc
renova
rense
rente
renzo
reo
repa
repara
reparti
repe
reperti
repessin
repi
repiggia
repiggio
repigia
repigio
replica
replico
repo
report
reposa
reposo
repossa
reposso
reposta
repoæro
repreize
repreizo
reprende
reprender
represcion
repu
repubblica
repubbrica
repubbrican
repubbriche
republic
republica
republika
repubrica
reputa
reputao
requer
requero
requesta
rer
rero
rerum
res
resa
resca
rescadamento
rescatta
rescatto
resci
rescide
rescidenc
rescidente
rescidenti
rescio
rescioa
rescioro
resciorve
resciste
rescistenc
resciu
rese
research
reseive
reseivi
resente
reseve
resevoto
resiste
resistenza
resoconto
resoluc
resoluto
respetto
respi
respia
respinto
respio
respira
resplende
resplendente
respondando
responde
respondea
respondeiva
respondi
respondime
respondo
responsa
responsabile
responsabilitæ
responsiom
respose
resposta
respoxe
respoze
respozem
respozo
resprendente
respublika
resta
restan
restando
restano
restante
restanti
restao
restaora
restaou
restasse
restaura
restaurasiu
restauro
restauru
restava
restavan
reste
restei
restero
resti
restia
restitoi
restituc
restitui
resto
reston
restou
restreito
restruttu
restu
restæ
resu
resurec
resuresiom
resusci
resuscita
resusita
resusitao
resusite
resusitera
resveggia
retangola
rete
reteneir
reti
retia
retiadda
retio
retira
reto
retorica
retorna
retornando
retornao
retornar
retorne
retorno
retræti
retræto
retta
retto
reu
reuerencia
reusa
rev
reve
reveise
revelaciom
revelao
revella
revellao
reverenc
reverencia
reverendissimo
reverendo
reverentia
reverenza
reveri
reversa
reverso
revi
review
revisiondatestamp
revista
reviste
revixo
revixon
revoluc
revoze
rex
rexi
rexide
rexidente
rexidenti
rexiste
rexistensa
rexisti
rey
rez
reze
rezente
rezimento
rezo
rezu
reæ
rfe
rfi
rfo
rga
rgamo
rgani
rganiza
rganizac
rganizo
rganizæ
rgano
rghe
rghi
rgia
rgica
rgine
rgo
rgu
rhode
ri
ria
riachuelo
rialto
rian
riba
ribe
ribelio
ribelioi
ribelli
ric
rica
ricardo
ricava
ricca
riccardi
riccardo
ricche
ricchec
ricchessa
ricchesse
ricchezza
ricchezze
ricchi
ricci
ricco
riccu
ricerca
ricerche
ricette
rich
richard
riche
richec
richelieu
richessa
richesse
richeza
richeze
richi
richiede
richiesta
richmond
richo
rico
ricompensa
ricono
riconobbe
riconosce
riconoscime
riconoscimento
riconosciu
riconosciua
riconosciuo
riconquista
ricorda
ricordemmo
ricordi
ricordo
ricore
ricostroi
ricostruc
ricove
ricu
ricunusciu
ricupera
ricurda
rida
ride
ridendo
ridente
ridi
ridicole
ridicolo
ridu
riduc
rie
riei
rieiva
rieivan
rien
riendo
riendu
rienta
rientra
riesce
riesci
rieti
rifa
rifeimento
riferi
riferime
riferimento
riferisce
rifle
riflescion
riflette
rifo
riforma
riforme
riformo
rifu
rifugiæ
riga
rigatu
rigaud
righe
righi
rights
rigina
rigine
rigo
rigoa
rigoarda
rigorosa
rigoroso
riguarda
riguardi
riguardo
riguardu
rijksmuseum
rilascio
rileva
rilevante
rilevo
rilevæ
rilie
rima
rimane
rimaneza
rimazo
rimbomba
rime
rimedia
rimedio
rimette
rimma
rimme
rimo
rimorso
rimpetto
rin
rina
rinaldo
rinardo
rinascime
rinascimenta
rinascimento
rincresce
rinforc
ringrac
ringratiamento
ringrazia
ringrazio
rinova
rinsæra
rintracia
rinvegnu
rio
riolfo
rionda
riondo
rioni
rionioi
rioso
ripa
ripalta
ripara
riparo
riparti
ripe
riperia
ripete
ripeto
ripetu
ripetuto
ripo
riporta
riportao
riporto
riportæ
riposa
riposo
ripristino
riproduc
riqualificac
ris
risale
rischi
rischio
riscontra
riscuntra
riscuntrabili
rise
riseive
riserva
riservao
riserve
riservo
riservæ
riseu
risevu
riso
risolu
risoluto
risolve
risorgimento
risorsa
risorse
risparmia
risparmio
rispe
rispeta
rispetivame
rispetta
rispettivamente
rispettivi
rispetto
rispettu
rispo
risponde
rispondeiva
rispondo
rispose
risposta
risposte
risposto
rispostu
rispoze
rispundendu
rispuze
risse
risso
ristabili
ristega
risti
ristora
ristrutura
risu
risultati
risurta
risurtæ
rita
ritardo
rite
ritegne
ritegni
ritegnu
riti
ritirata
ritmo
rito
ritorna
ritornando
ritorne
ritornelli
ritornello
ritorno
ritornæ
ritratti
ritratto
ritrova
ritrovame
ritrovo
ritrovæ
ritruva
ritræti
ritræto
riu
riuni
riusci
riuscia
riuscio
riusciva
riva
rivalitæ
rivandu
rivarolo
rive
rivea
rivedde
rivee
rivela
rivelac
rivelo
rivendica
rivendicac
river
rivera
rivere
riveri
riveriscio
riverna
rivesti
rivi
riviera
rivista
rivo
rivolta
rivolu
rivoluc
rivotta
rivæ
riximo
rizale
rizo
rizu
rizulta
rizzoli
riæ
rka
rla
rlan
rle
rli
rlo
rlon
rma
rman
rme
rmi
rmia
rmine
rmini
rmo
rmola
rmu
rna
rnan
rne
rni
rnia
rnita
rnite
rno
rnu
ro
roa
road
roba
robba
robbe
robe
robecco
robert
roberti
roberto
robespierre
robinson
robu
robusto
roca
rocca
roccaforte
rocche
rocchetta
roccia
rocco
roccu
rocha
roche
rocheta
rock
rode
rodi
rodolfo
rodrigo
roe
roger
rogna
roi
roia
roja
rokossovskij
rolando
roldan
role
rolli
rollo
roma
romagna
romagno
romaim
romain
romam
roman
romana
romanc
romane
romani
romania
romann
romano
romanorum
romanorvm
romanso
romanzi
romanzo
romaso
romaze
romazem
romazo
rome
romen
romeo
romino
romma
romoen
rompan
rompe
rompi
rompicollo
rompo
ron
ronco
rondaninn
rondelet
rondezza
rondo
ronpi
roosevelt
ropa
ropea
ropee
ropei
ropeo
ros
rosa
rosagni
rosario
rosci
roscigne
rose
rosinn
roso
ross
rossa
rosse
rosselli
rossetto
rossi
rossignœu
rosso
rostan
rosti
rosto
rota
rotac
rotaie
rotonda
rotta
rotte
rotterdam
rotti
rotto
rottu
rottua
roubaix
rouen
rouge
rousseau
routledge
roux
rouzo
rove
rovere
rovi
rovigo
rovin
rovinn
rovinna
rovino
roy
royal
roz
roza
roziggia
roziggio
rozo
rpa
rpe
rpena
rpi
rpo
rra
rre
rrega
rri
rria
rrie
rro
rs
rsa
rsan
rsce
rsci
rse
rsega
rsego
rsi
rso
rss
rsu
rt
rta
rtae
rtan
rte
rtego
rti
rtidu
rtima
rtime
rtimi
rtimo
rtimu
rtire
rtiri
rtivene
rto
rtoa
rtofi
rtove
rttemberg
rtu
ru
rua
ruanda
rubens
rubin
rubrica
rudolf
ruffin
rughjun
ruina
ruiz
ruma
ruman
rumana
rumanicu
rumen
rumenta
rumma
rumo
rundu
ruoesa
rupia
rus
rusci
ruscia
ruscio
russa
russell
russia
russo
russu
rustego
rustico
ruve
ruvi
ruzze
ruzzin
rva
rvan
rve
rvi
rvia
rvo
rvu
rxi
ry
rze
rzi
rzo
ræ
ræa
ræe
ræi
ræna
ræo
ræro
rœu
rœua
rœue
rœuze
s
sa
saa
saan
saba
sabaot
sabatelli
sabatia
sabato
sabbia
sabbo
sabbu
sabina
sabino
sabo
sac
sacca
sacce
sacchetto
sacchezzo
sacchi
sacci
saccian
saccie
sacco
saccon
saccu
saccæ
sacerdo
sacerdoc
sacerdote
sacerdoti
sacerdotibus
sache
sacheza
sacho
saciu
sacra
sacrame
sacramenti
sacramento
sacre
sacri
sacrifficha
sacrifficio
sacrifi
sacrific
sacrifica
sacrificio
sacrifizio
sacripante
sacro
sacru
sae
saei
saeiva
saetta
saette
sagep
saggi
saggio
sagra
sagramento
sagrao
sahara
sahariann
sai
saia
saian
saie
saieiva
saieivan
saieva
saint
sainta
sainte
sainto
saio
saiv
saiva
saivan
saiæ
saja
sala
saladin
salamanca
salamme
salamon
salar
sale
salemme
salentino
salerno
sales
sali
salita
salmi
salmo
salo
salomon
salotti
salotto
salta
salu
salua
salue
saluo
salutaciom
salute
salva
salvaciom
salvador
salvamento
salvao
salvaor
salvar
salvation
salvatium
salvatore
salve
salvi
salvo
sam
samaul
sami
samo
samoa
sampa
sampdoria
sampe
samuel
samul
san
sana
sanai
sanao
sanava
sanc
sancta
sanctam
sancti
sanctissima
sancto
sanctum
sando
sandrart
sandro
sanf
sanfornia
sanfornietta
sangallo
sangoe
sangue
sanguinosa
sanita
sanitae
sanite
sanitæ
sann
sanna
sano
sanpe
sanre
sanremmo
sanremmu
sanremo
sanremu
sans
sansa
sanson
sant
santa
sante
santi
santiago
santiebeati
santifica
santino
santiscima
santissima
santissime
santissimo
santitae
santitæ
santo
santoa
santu
santua
santuaio
santuario
santuariu
sanzio
sanzorzo
sanæo
saolo
sape
sapere
sapete
sapi
sapia
sapiai
sapiando
sapienc
sapiencia
sapiens
sapientia
sapienza
sappa
sapu
sapua
sapuo
sar
sara
saraceni
saraci
sarai
saram
saramon
saran
saraxin
sarco
sarda
sarde
sardegna
sardi
sardo
sare
sarea
sarebbe
sarei
sareiva
sareivan
saremo
saressi
sargus
sario
sariva
saro
sarpo
sarsa
sarto
saru
sarua
sarva
sarvaciom
sarvamento
sarvao
sarvato
sarve
sarvec
sarvi
sarvo
sarvæga
sarvæghe
sarvæghi
sarvægo
sarza
sarzan
saræ
sasa
sasce
sasci
sascia
sascio
sasciæ
sascæ
saserdoti
saserdoto
saskatchewan
saso
sassari
sassello
sassi
sasso
sassonia
sata
satana
satanas
satanasso
satelicho
satellite
satelliti
sati
satia
sativa
sativum
sativus
sato
satu
saturno
saudi
saueir
sauer
sauey
sauio
saul
sava
savattin
save
savea
saveam
savei
saveiva
saveivan
saveivo
savendo
saver
savera
saverei
saveræ
savesci
savesse
savessi
savi
savia
saviamenti
savie
savigno
savij
savio
saviæ
savo
savoi
savoia
savon
savona
savonanews
savone
savoneize
savonese
savonn
savonna
savu
savuna
savuneize
savunese
saxon
sazia
sazio
sazzo
sba
sbaglia
sbaglio
sbarbaro
sbarca
sbarco
sbatte
sbattu
sbiri
sbiro
sbirri
sbn
sbo
sbocca
sbraggi
sbraggia
sbraggian
sbraggiando
sbraggiava
sbraggiavan
sbraggio
sbriga
sbrighæve
sbrigo
sc
sca
scaa
scaccia
scagaboggia
scagge
scaggie
scagno
scaina
scala
scale
scalo
scambietto
scampa
scampar
scampo
scandali
scandalo
scandi
scandina
scangi
scangia
scangio
scanna
scanpa
scapa
scapolla
scapolle
scappa
scappan
scappando
scappava
scappavan
scappe
scappin
scappo
scappæ
scapæ
scara
scaravelli
scare
scarecrow
scarega
scarin
scarpa
scarpe
scarpetta
scarsa
scarse
scarso
scarta
scartame
scassa
scava
scavizzi
scavo
scc
scce
sccetta
sccette
sccetti
sccetto
scci
sccia
scciappa
scciatta
scciava
scciave
scciavi
scciavitu
scciavo
sccie
sccietto
sccio
sccioi
scciu
scciume
scciumma
scciupa
scciupo
scciuppa
sce
scellerato
scelta
scemma
scemmo
scena
scene
scenta
scenti
scento
scentæ
scetto
scettro
sche
scheda
scheiwiller
schema
schemi
schen
schengen
schenn
schenna
schenon
schera
schere
scherma
schersci
scherso
scheua
scheuggio
schi
schiappa
schiappemmo
schiavi
schiavo
schieræ
schillente
schissa
schisso
schitta
schitto
schiuar
schiva
schivar
schive
schivo
schmitt
scho
school
schuza
sci
scia
sciabbra
sciabbre
sciabbræ
sciabla
sciaca
sciacca
sciacco
scialla
scialli
sciallo
sciamma
sciamme
sciammi
sciammo
scian
scianchi
scianco
sciandru
scianta
sciao
sciaou
sciaradda
sciaradde
sciaratti
sciaratto
sciato
scibben
scibe
sciben
scibilla
scica
scicche
sciccomme
sciche
scico
scicomme
scicumme
scidera
scido
scie
scienc
science
sciences
sciensa
scientifica
scientifichi
scientifico
scienza
scienze
scignifica
scignificao
scignificati
scigno
scignoa
scignor
scignora
scignore
scignori
scignoria
scignorinn
scignu
scignua
scignura
scignuru
scigo
scigoa
scigora
scile
scilenc
scilenzio
scillaba
scima
scimbolo
scime
scimi
scimia
scimie
scimile
scimili
scimilme
scimmile
scimmili
scimo
scimon
scimu
scimun
scin
scinagoghe
scinboli
scinbolo
scindaco
scindico
scinfoni
scinfonie
scingapo
scingola
scingoli
scingolo
scini
scinistra
scinistro
scinn
scino
scinta
scintexi
scintomi
scio
scioa
scioe
scioette
scioi
sciolla
sciolli
sciollo
sciora
sciorbe
sciorbi
sciorta
sciortan
sciorte
sciorti
sciortia
sciortie
sciortii
sciortindo
sciortio
sciortiva
sciortivan
sciorto
sciou
scipa
scipion
sciria
sciscigno
sciste
scistema
scistematica
scistemi
scistemma
scita
sciti
scito
scitoa
scitoac
scitoo
scitoæ
scitu
scitua
scituac
scituazion
scituo
sciu
sciue
sciuga
sciumme
sciummi
sciun
sciurbi
sciurti
sciuscia
sciuto
sciva
sco
scoa
scoc
scoeggi
scoeggio
scogi
scola
scolo
scolpi
scombatte
scommetto
scompari
scomparso
sconfi
sconfisse
sconfita
sconfito
sconosciu
scontra
scontri
scontro
sconzura
sconzuro
scopello
scopi
scopo
scora
scorc
scorda
scordo
scordæ
scori
scorpaena
scorpion
scorre
scorretto
scorri
scorsa
scorse
scorso
scorta
scorza
scoso
scossa
scosse
scotoni
scott
scotta
scotto
scove
scoverta
scoverte
scoverto
scovi
scovo
scr
scravaiu
scre
scremir
scri
scribae
scribi
scripsse
script
scripta
scripte
scripti
scripto
scriptstyle
scriptura
scripture
scrisse
scrita
scrite
scriti
scrito
scritoe
scritoi
scritta
scritti
scritto
scrittoi
scrittu
scrittura
scritturale
scritu
scritua
scritura
scriture
scriva
scrivan
scrive
scrivei
scriveiva
scriven
scrivendo
scrivere
scrivi
scrivia
scrivo
scro
scrolla
scrollando
scrollo
scrosci
scrovi
scrovito
scroviva
scrupolo
scrœuve
scu
scuddi
scuddo
scude
scue
scuggia
scui
sculto
scultori
scultu
scultura
scuntri
scuo
scuoeggi
scuoeggio
scuola
scuole
scura
scure
scuri
scuria
scuro
scurto
scusa
scuse
scuza
scuzæ
scuzæme
scæn
scœua
scœue
scœuggi
scœuggio
scœura
sde
sdegno
se
sea
seai
seam
seamo
sean
seando
seandoge
search
season
sebastia
sebastian
sebastiano
sebben
seben
seborca
sec
secc
secca
seccante
secce
secche
secchi
secco
seccoli
seccolo
secescion
secha
seco
secola
secoli
secolo
secolæ
second
seconda
secondo
secreta
secretamenti
secrete
secreti
secreto
seculi
seculla
secullorum
seculu
secunda
secundo
sed
sede
sedia
sedu
see
seeniscimo
seg
segge
seggi
seggian
seggie
seggiæ
seggæ
seghe
segi
segna
segnai
segnala
segnalac
segnale
segnar
segne
segni
segno
segnoi
segnor
segnore
segnoria
segnorie
segnoy
segnu
segnæ
sego
segoe
segoi
segonda
segonde
segondi
segondo
segor
segre
segreta
segretaio
segrette
segretti
segretto
segu
segua
seguaxi
segue
seguec
seguente
seguenti
segui
seguia
seguin
seguindo
seguio
seguir
seguira
seguita
seguitando
seguitava
seguito
seguitu
seguiva
segunda
segundo
segundu
seguo
segur
segura
seguramenti
seguri
seguro
segurtae
segurte
sei
seia
seian
seic
seigo
seine
seira
seisentu
seivo
seja
sela
sele
selebra
selec
selestia
sella
selo
selva
selvaggi
selvaggia
selvaggio
sem
sema
sembra
seme
semeganssa
semegeive
semegeivementi
semegeivi
semegieiuer
semeiante
semena
semeno
semensa
semenssa
semenza
semeri
semi
semifina
semin
semina
semine
semionotiformes
semite
semme
semmo
semmu
semo
semper
sempiterno
semplic
semplice
semplicemente
semplici
semplicitæ
semplixe
sempr
sempre
sen
sena
senato
senatoi
senc
sencia
sene
senecha
senegal
senestra
senestro
seni
senn
senna
senno
seno
senper
senpliceme
senpre
sens
sensa
sensac
sensci
senscibile
senscibilitæ
sensi
senso
senssa
senssiber
sensu
sensæ
sent
sentan
sentando
sente
sentenc
sentencia
sentendo
sententia
sentenza
sentenze
senter
senti
sentia
sentie
sentiei
sentiemo
sentime
sentimentale
sentimenti
sentimento
sentimmo
sentin
sentindo
sentindose
sentinella
sentio
sentir
sentire
sentirei
sentisse
sentite
sentiva
sentivan
sentivi
sentivo
sento
sentra
sentru
sentu
senturion
senz
senza
seo
sepa
separa
separac
separo
separæ
sepeli
sepelio
sepelli
sepellio
sepo
sepolcro
seportu
sepotura
seppe
seppelli
seprian
septe
sepu
sepurtu
sequente
sequitur
ser
sera
serai
seram
seran
serao
serata
serava
seravo
serbia
serca
sercando
sercha
serchando
serchava
serche
sere
serea
seream
serei
sereiva
seren
serenata
sereni
serenissimo
sergio
seri
seria
seriamente
seriate
serie
series
serietæ
serio
sermon
sero
serpe
serpente
serpenti
serra
serraggio
serrao
serraou
serrator
serravalle
serre
serrie
serro
serrou
serræ
serta
serte
serti
serto
seruenti
seruir
serva
servac
servan
serve
servello
serventi
servetta
servette
servi
servia
servic
service
services
servio
servioi
servior
servir
servisio
servissi
servissiu
servito
servitoi
servitu
servitudem
servitui
serviva
servive
servixi
servixo
servizio
servo
seræ
ses
sesa
sesava
sesia
sessa
sesso
sesta
seste
sesto
sestri
set
seta
setanta
sete
setec
setema
setemann
setembre
setenbre
setentriona
seth
seti
setimo
seto
setoi
sett
setta
settanta
sette
settec
setteman
settemann
settembre
settentrion
settentriona
settentrionæ
settima
settimo
setto
setu
seu
seva
seve
severo
seviggia
sex
sexe
sexo
sexto
sey
seychelles
sezaro
seze
sezea
sezeiva
sezione
sezze
sfe
sfea
sfee
sfera
sfere
sferiste
sfi
sfida
sfidda
sfm
sfo
sfoga
sfondo
sforc
sforsci
sforso
sforza
sforzo
sfru
sfu
sfumatu
sfœugo
sg
sganascia
sghe
sgobba
sgora
sgre
sgu
sgua
sguac
sguardi
sguardo
sguasso
shakespeare
shanghai
shock
shoemaker
short
si
sia
siagne
siam
siamo
sibben
sibe
siben
siberia
sibi
sibilla
sic
sicardi
sicche
siccome
siccomme
siche
sici
sicilia
sicut
sie
siena
siencia
sierra
siete
sig
siga
sigaa
sighe
sigla
siglo
signifficha
significa
significato
significha
signo
signoe
signoi
signor
signora
signore
signori
signoria
signu
sigorello
silencio
silensio
silentio
silenzio
sili
sillaba
silvam
silvana
silvano
silvestro
silvia
silvio
sima
simile
simili
simion
simma
simon
simone
simple
sin
sinagoga
since
sincero
sine
singular
singularmenti
sinistra
sino
sinplicitae
sinque
sint
sio
sion
sioux
sir
siracusa
sircunda
siria
siro
sirviu
sis
sise
sismica
sissino
sistema
sistinn
sisto
sit
sita
sitadi
site
sito
sitte
sitto
sittæ
situ
situa
situac
situasiu
siu
siusa
sive
sk
skira
sl
sla
slanc
slanso
slavi
slavo
slitta
slo
slova
slove
slovenia
sm
sma
small
smania
smanie
sme
smi
smith
smo
smorfie
smorto
sncf
snia
so
soa
soave
sobre
soc
soccorso
soci
socia
social
sociale
sociali
socialismo
socialista
socialisti
socie
societa
society
societæ
socii
socio
sociæ
socje
socjetæ
soco
socrate
socrates
soda
sodam
soddisfa
soddisfazion
sode
sodi
sodisfa
sodisfac
sodisfæto
sodo
soe
sof
soferi
soferir
sofferi
sofferto
soffoca
soffraita
soffranin
soffri
sofi
sofia
sofo
sofonisba
sofronia
software
soge
sogetti
sogetto
soggetta
soggetti
soggetto
soggiorno
sogiorno
soi
soin
soj
sol
sola
solamente
solamenti
solan
solanum
solar
solare
solari
solazo
soldan
soldati
sole
solenitae
solenitæ
solenne
soleva
solevac
solferi
soli
solicito
soliman
solita
solitamente
solitario
solite
soliti
solito
solitu
sollamenti
solle
solleva
sollevo
sollita
sollito
solo
soltanto
soluc
som
soma
somalia
somateria
somboron
some
somegia
somiglia
somma
sommi
sommo
somo
son
sona
sonar
sonda
sondrio
sone
sonetti
sonetto
sonettogiurian
song
sono
sons
sont
soo
soperbia
sopo
soporta
sopporta
sopprimo
sopra
soprafin
sopravisciu
sopre
soprescio
sor
sora
soramenti
sorchetto
sorda
sordan
sordatti
sordatto
sordi
sordo
sorea
sorella
sorelle
soreto
sorgente
soria
sorpre
sorpreisa
sorpreiso
sorpreiza
sorprende
sorprendente
sorprendenti
sorpresa
sorpreso
sorriso
sorta
sorte
sorva
sorve
sorvegia
sorvenomino
sorvenomme
sorvettutto
sorvetu
sorvetutto
sorvia
sorviatu
sorviatutto
sorvin
sospe
sospeizo
sospende
sospenscion
sospeto
sospetta
sospetti
sospetto
sospi
sospia
sospii
sospio
sospira
sospirando
sospiri
sospiro
sosta
sostanc
sostansa
sostanse
sostanti
sostanza
soste
sostegne
sostegni
sostegnindo
sostegniva
sostegno
sostegnu
sostegnua
sostegnuo
sostem
sosten
sostener
sostitoi
sostituc
sostitui
sostituio
sota
sote
sotemisso
soti
sotir
soto
sotomiscio
sotopo
sototene
sototæra
sott
sotta
sotte
sotterra
sotterro
sotterræ
sotteterra
sotti
sotto
sottoclasse
sottofamiggia
sottomarin
sottoposto
sottordine
sou
souensso
sound
soura
souram
souranna
source
soure
sous
south
sovegni
soven
sovente
soventi
sover
soviatu
sovie
soviet
sovietica
sovietico
soviettica
soviettiche
soviettichi
soviettico
sovra
sovram
sovran
sovrana
sovrani
sovranitæ
sovrano
sovre
sovren
sovvegni
sovven
soy
soza
soze
sp
spa
spaa
spac
spaccio
space
spacio
spada
spae
spaghetto
spagna
spagno
spagnolla
spagnolle
spagnolli
spagnollo
spain
spalanca
spalla
spalle
spande
spantega
spanteghæ
spantego
spantegæ
spara
spare
sparega
spari
sparisce
sparo
sparsa
sparse
sparso
sparte
sparti
spartic
sparus
sparze
spassa
spassio
spassoi
spatio
spaventa
spaventai
spaventao
spaventato
spavento
spaventosa
spaventoso
spaventæ
spaximo
spazio
spe
spea
spec
specce
speci
specia
special
speciale
speciali
specialitæ
specializa
specializo
specialme
specialmente
specialmenti
speciamenti
speciarmenti
specie
species
specifica
specifico
spedi
spedia
spedic
spedio
spedisce
spedizion
speggetti
speggietti
spegi
spegia
spegio
speisa
speise
speiso
speiza
speize
speizo
spella
spencer
spendan
spende
spender
spendo
spensley
spera
speranc
sperando
speransa
speranssa
speranza
speranze
sperava
spere
sperimenta
spero
speroin
speron
spes
spesa
spescimetro
spese
speso
spessa
spesse
spessi
spesso
spessu
speta
spetta
spettacolo
spezi
spezia
spezin
speziæ
spezza
spi
spia
spiaggia
spianc
spicca
spicco
spie
spiega
spiegac
spiego
spigno
spigo
spiito
spiitua
spilo
spin
spina
spine
spinn
spinna
spinne
spinnoa
spinnora
spinoa
spinola
spinon
spinse
spinta
spinti
spinto
spinze
spio
spira
spiriti
spirito
spiritoa
spiritosa
spiritu
spirto
spita
spito
splendente
splendida
splendo
splendor
spo
spoleto
sponcia
sponcio
sponda
sponde
sponta
sport
sporta
sporte
sporti
sportiva
sportivo
sposa
sposao
spose
sposi
sposo
sposta
spotorno
spoturnu
spoza
spozao
spozo
spozoe
spozoei
spoæ
spre
spremme
sprendo
sprendoi
sprescia
springer
spriti
sprito
spritua
sprituae
sprituai
spu
spua
spuc
spuncia
spuncio
spunda
spunta
spuntava
spunto
spussa
spusta
spuza
spuzza
squa
squaci
squaddra
squaddre
squadra
squadre
squaexi
squarc
squarza
squarzai
squaxo
squesi
squexi
squæxi
sr
sri
srl
ss
ssa
ssan
ssapippe
sse
ssea
ssi
ssia
ssie
ssion
ssiu
sso
ssoa
ssola
ssr
ssu
ssua
st
sta
staber
stabile
stabili
stabilia
stabilime
stabilimento
stabilio
stabilisce
stabilitæ
stac
stacca
stacche
stadio
stae
staeta
staeti
staeto
staffe
staffetta
stagando
stage
stagen
staggen
stagghe
staggo
staghe
stagio
stagioi
stagion
stagiona
stagno
stago
stai
staita
staite
staiti
staito
staitu
stalin
stalingrad
stalingraddo
stalla
stallo
stam
stamatin
stamattin
stamme
stampa
stampaja
stampao
stampe
stamperia
stampo
stampu
stampæ
stan
stanc
stanca
stanchi
stanco
standard
standards
stando
stane
stanga
stanghe
stanley
stanni
stanpa
stanpo
stansa
stansia
stante
stanza
stanze
stao
star
stara
stare
starei
staro
stasiu
stasiun
stassiun
stat
stata
statale
state
states
stati
statista
statistiche
statistics
stato
statoids
stattoa
stattua
statu
statua
statue
statunitense
status
statuti
statuto
stau
stava
stavam
stavan
stavka
stavo
stavotta
stazion
stazione
stazioni
ste
stea
steccon
stefano
stega
stego
steisse
stele
stella
stelle
stem
steme
stemma
stemmo
stendardo
stende
stenta
stenti
stento
stephen
sterna
stero
stessa
stesse
stessi
stesso
stessu
steta
stete
steti
steto
stetri
stette
stetu
steva
stevam
steve
steven
sti
stia
stic
stica
stice
stiche
stichi
stico
stie
stiggia
stile
stili
stilo
stima
stimando
stime
stimma
stimman
stimme
stimmo
stimo
stimou
stimæ
stipendio
stipula
stirpe
stisia
stissa
stiva
stive
stivæ
stizia
stizza
sto
stocca
stocco
stoccolma
stofa
stoia
stoja
stol
stoli
stolo
stone
stoppa
stoppin
stor
storc
stordi
store
storia
storiapatriagenova
storica
storicame
storicamente
storiche
storichi
storici
storico
storicu
storie
stormo
storta
storte
storti
storto
stra
strac
strada
stradda
stradde
strade
stradivaio
strae
strage
straggia
straggio
stragi
stralu
stramu
stramua
stramuo
stran
strana
strange
strangea
strani
strannia
strano
stranu
straordena
straordina
straordinaia
strapac
strapassa
strascin
strascina
strascinando
strascinata
strasecola
strassa
strasse
strasson
strate
strategica
strategico
strati
strato
stravagante
stravaganti
strazetti
strazze
stre
street
strega
strego
streita
streitame
streitamente
streite
streiti
streito
strenze
strepar
strepelli
strepello
strepitosa
streppa
streppella
streppo
strepsirrhini
streptopelia
stretta
stri
stria
strie
striggia
strin
strinche
strisce
striscia
striscimo
stro
stroffoggia
strofoggi
strozzi
stru
structure
strume
strumenti
strumento
struttu
struttua
struttue
strutu
strutura
stræ
stu
stuart
stucco
studdi
studdio
stude
studenti
studi
studia
studiando
studies
studio
studioxi
studiæ
studj
study
stuffo
stupefæto
stupenda
stupendo
stupi
stupo
sturla
stæ
stæme
stæta
stæte
stæti
stæto
stætu
stœumago
su
sua
suave
suavitae
sub
subbito
subi
subio
subisce
subitamenti
subito
subject
sublasse
sublime
sublimi
subphylum
subregno
subsp
substancia
suc
succa
succede
succedia
succescion
succesciva
succescivamente
succescive
succescivi
succescivo
successe
successi
successivamente
successo
suce
sucesci
sucescio
sucescion
sucesciva
sucescivamente
sucescive
sucescivi
sucescivo
sucesi
sucesivame
suceso
sucesso
sud
suda
sudafrica
sudamerica
sudan
sudario
sudditi
sudivi
sudivixo
sue
sufficiencia
sufficiente
suffixente
sufi
sugeri
sugerito
sugo
sui
suic
suicide
suicidio
suis
suite
sul
sula
sulame
sull
sulla
sulle
sulu
sum
sun
suna
sunetti
sunetto
sunna
suno
sunt
sunta
sunto
suo
suoe
suoenno
suoi
suona
suonatori
suono
suor
supe
supeio
supeioi
super
supera
superao
superba
superbi
superbia
superbo
superfamiggia
superfi
superfic
superficce
superficie
superio
superioi
superiore
superioritæ
superno
supero
superphylum
superregno
supo
supplica
support
supporto
supprica
supra
supre
supremmo
supremo
supresciu
sur
suriname
surli
surtan
surva
survatu
survival
sus
susa
susanna
suscita
suss
sussapippe
sustitui
suta
sute
sutt
sutta
sutti
sutto
suttu
suum
suvente
suviatu
suvo
suvra
suza
suzunse
sv
svani
sve
svec
svede
svedeize
sveggia
sven
sverna
svi
svic
svilu
svilupa
svilupo
sviluppa
sviluppao
sviluppi
sviluppo
svilupæ
svisse
svissea
svissera
svœura
sweden
swindlers
switzerland
sydney
system
systema
sæ
sæa
sæan
sæi
sæiva
sæmo
sæn
særa
sæto
sætte
sæximo
sœ
sœu
sœunna
sœunni
sœunno
t
ta
taba
tabacco
tabaccu
tabarca
tabarchi
tabarchin
tabarchino
tabarin
tabarrin
tabe
tabelo
tabo
tabula
tac
taca
tacche
tacchi
tacco
taco
taddeo
tade
tae
taera
tag
taga
tagalog
taggi
taggia
taggiaborse
taggiao
taggie
taggio
taggiæ
tagia
tagiæ
tai
taia
taiwan
tal
tale
talenti
talento
tali
talia
talle
tam
tamacco
tambe
tamben
tambu
tamburo
tamea
tamen
tamil
tan
tana
tanaro
tanaxia
tanbu
tancre
tancredi
tandem
tando
tane
tanfin
tango
tann
tanna
tant
tanta
tante
tanti
tantin
tantiscimi
tanto
tantosto
tantu
tanzania
tao
taoa
tapin
tapoa
tappa
tappe
tappo
tar
tara
taranto
tarda
tardando
tardi
tardo
tardu
tarech
targa
tari
taro
tarquinio
tartaru
tartu
tasca
tasce
tasci
tascia
tasio
tasiu
tasiun
tasmania
tassa
tassi
tasso
tassoambrœuxo
tasta
taste
taston
tau
tava
tavan
taverna
taverne
tavia
tavola
tavoli
tavolin
taxe
taxei
taxer
taxi
taxio
taxo
taxonavigac
taylor
taziun
te
tea
team
teatrale
teatrali
teatri
teatro
teatru
tec
technology
tecnica
tecniche
tecnolo
tecnologi
tecnologia
ted
tede
tedesca
tedesche
tedeschi
tedesco
tedescu
tedia
tedio
tegnan
tegnando
tegne
tegnea
tegneam
tegni
tegnia
tegnime
tegnindo
tegniva
tegnivam
tegnivan
tegno
tegnu
tegnua
tegnui
tegnuo
tei
teia
teira
teiti
teito
teitu
teja
tel
tela
tele
televixi
televixo
televixon
tem
tema
temando
teme
temei
temeiva
temendo
temer
temesse
temi
temme
temmo
temo
temperatu
tempesta
tempeste
tempi
tempia
tempiatua
tempiatue
tempio
tempiu
template
templæ
tempo
tempora
temps
tempu
temu
ten
tena
tenaggia
tenco
tenda
tende
tendeiva
tendem
tendenc
tene
tenebre
tenebroso
tenente
tener
tenera
teneressa
tenero
tennessee
tennis
teno
tenor
tenperatu
tenpesta
tenpi
tenpio
tenpo
tenpora
tenporaniame
tenpu
tenscion
tent
tenta
tentac
tentacioim
tentaciom
tentacion
tentando
tentao
tentar
tentati
tentativi
tentativo
tentava
tente
tenti
tento
tenza
tenzon
teo
teodo
teodoro
teologi
teologia
teorema
teori
teoria
teorico
teorie
ter
tera
teramo
terapia
terapœu
terc
tere
teremo
teren
teresa
teresto
terestre
tergo
teri
teribbile
teriber
terito
teritoi
teritoio
teritoria
teritoriu
terituia
terme
termem
termen
termi
termico
termina
terminac
terminao
termine
termini
termino
terminæ
ternitae
terno
terra
terrarum
terrassa
terrasse
terre
terremoti
terremoto
terren
terrenne
terrestre
terrestri
terribel
terribile
terribili
territo
territoio
territori
territoria
territorio
territory
terro
tersa
terso
terssa
tersso
tersu
terza
terzo
tes
tesce
tesciu
tesciui
tesla
teso
tesoi
tesoro
testa
testame
testamento
testardo
teste
testemonie
testemonio
testi
testimo
testimonia
testimonianc
testimonianze
testimonii
testimonio
testimonnio
testimunia
testimuniansa
testimunianse
testo
testu
testæ
teti
tetta
tette
tetti
tettin
teu
teucri
texas
texi
texo
tezo
tezori
tezoro
th
thailandia
than
that
the
theguardian
their
theodore
theria
thermal
thesaurus
third
this
thomao
thomas
three
through
thunberg
ti
tia
tian
tiando
tiatra
tiatri
tiatro
tiatræ
tiava
tiavan
tib
tibeio
tiberio
tibi
tibur
tiburc
tiburzio
tic
tica
tiche
tichi
tici
ticino
tico
ticu
tie
tien
tiene
tienne
tiesta
tiez
tifo
tig
tigre
tigri
tigu
tigullio
tile
tili
tilmente
tima
time
timeanddate
times
timetemperature
timi
timo
timon
timone
timor
tin
tinn
tinte
tio
tip
tipi
tipica
tipiche
tipici
tipico
tipicu
tipo
tipogr
tipografia
tipografica
tipolitografia
tipologi
tipu
tir
tira
tiran
tirando
tiranni
tiranno
tirano
tirao
tiraou
tirava
tire
tiri
tirit
tiritoffolo
tiritofolo
tiro
tirren
tise
tit
title
tito
titola
titoli
titolo
tittoli
tittolo
tittulu
titulu
tizio
tiæ
tl
to
toa
tobia
tobre
toca
tocca
toccan
toccao
toccava
tocche
tocchi
tocco
toccu
tocha
tochao
tochar
toche
todaro
todesca
todesche
todeschi
todesco
todi
todo
toe
tog
toga
toghe
tognin
togno
toi
toia
toie
tokyo
toledo
toli
tollemeto
tolo
tolomeo
toloza
tolozzi
tolto
tom
toma
tomao
tomaso
tomate
tomato
tomaxo
tomba
tome
tommaso
tommaxo
tomo
ton
tonba
tondo
tone
tonga
toni
tonico
tonieta
tonni
tonno
tono
tony
too
top
topo
toponimi
toponomastica
tora
torce
torcie
tordo
tore
tori
toriggia
torinese
torino
torme
tormenta
tormentao
tormenti
tormento
torna
tornai
tornam
tornan
tornando
tornao
tornar
tornasse
tornava
torne
tornei
tornemmo
tornemo
torneo
tornera
tornero
torni
tornia
torno
tornæ
toro
toronto
torquato
torre
torrente
torrenti
torres
torri
torricella
torriggia
torta
torte
torti
torto
tortona
tortora
tortu
tosca
toscan
toscana
toscani
toscann
toscano
tosci
toso
tosto
tostu
tota
totale
totalitæ
toto
tou
tour
touring
tours
tout
tpl
tr
tra
trac
tracce
traccia
tracia
tracio
trad
trade
tradi
tradic
tradime
tradimenti
tradimento
tradisiu
tradisiuna
traditions
tradito
tradizione
tradizioni
tradotto
tradu
traduc
traduta
traduto
traduttore
traduzione
trae
traffeghi
traffego
traffegu
tragedia
tragico
trai
traio
traite
traito
traitor
tralale
tralascio
trallalero
tram
trame
tramezo
tramite
tramma
tramo
tramonta
tramontan
tramontann
tramontanna
tramonto
tramway
tramways
tran
trani
tranne
tranquilla
tranquille
tranquilli
tranquillitæ
tranquillo
trans
transfei
transforma
transisiu
tranva
tranvai
tranxic
trapa
trapassa
trappa
trar
trascendenta
trascorse
trascorso
trascri
trascric
trasferi
trasfo
trasforma
trasformac
trasformo
trasfurma
traslitero
trasmette
trasmi
trasmiscio
trasmiscion
traspo
trasporta
trasporti
trasporto
trasportu
trasportæ
trasse
trata
tratao
tratati
trategni
trato
tratta
trattamento
trattao
trattative
trattato
trattava
tratte
trattegni
tratten
tratti
tratto
trattou
trattu
trattæ
tratæ
trava
travaggi
travaggia
travaggiava
travaggio
travaggiu
travagia
travagio
travaio
trave
travel
traversa
traverso
travi
travo
tre
trebizonda
trec
treccani
tree
tregoa
tregua
trei
treito
treitoi
trema
tremando
tremante
tremar
tremava
tremenda
tremendo
tremma
tremmo
tremo
tren
trenette
treni
trenitalia
treno
trent
trenta
trentec
trentin
trento
trenu
trepando
treppa
treppi
treppo
tres
tresse
tresto
treta
treuva
treves
treviso
trexe
trexento
treze
trezze
tri
tria
triacca
triangola
triangoli
triangolo
tribola
tribu
tribulacioim
tribulaciom
tribullaciom
tribuna
tribunale
tribunali
tributo
trica
triche
trichi
trico
trie
trieste
trifase
trilli
trinca
trince
trincere
trinchetto
trinidad
trinita
trinitae
trinitæ
trio
trionfa
trionfante
trionfi
trionfo
tripoli
trippa
trista
triste
tristessa
tristi
tristo
tro
troeva
troevo
trofarello
trofe
trofei
troffie
troi
troia
troien
troim
troin
tromba
trombe
trombetta
tromenta
tromenti
tromento
tron
tronbe
tronca
tronco
trono
trope
tropica
tropo
tropp
troppa
troppo
troppu
tros
trotta
trotto
troua
trouar
trova
trovae
trovai
trovamo
trovan
trovando
trovandose
trovao
trovaou
trovar
trovare
trovasse
trovava
trovavam
trovavan
trovavo
trove
trovei
trovemmo
trovemo
trovera
troverai
trovere
troverei
trovero
trovia
trovie
troviei
trovo
trovon
trovou
trovæ
tru
trucioli
truite
truoeva
truoevo
truppa
truppe
trutta
truva
truvava
truvo
træ
træta
træte
træti
træto
trœuva
trœuvan
trœuve
trœuvo
trœva
ts
tt
tta
ttan
tte
ttega
tteghe
tteghin
tteghæ
tti
ttia
tto
ttoa
ttosto
ttro
ttu
tu
tua
tuca
tucca
tucco
tue
tui
tuia
tullio
tulna
tum
tuma
tunc
tundra
tunixi
tunnexi
tunnu
tuo
tuoe
tur
turba
turbai
turbao
turbe
turca
turche
turchi
turchia
turchin
turco
ture
turente
turi
turin
turing
turismo
turismu
turisti
turistici
turna
turno
turta
turtur
tut
tuta
tute
tutela
tuti
tuto
tutor
tutt
tutta
tuttavia
tutte
tutti
tutto
tv
two
tze
tæ
tæra
tærasanta
tære
tærito
tœu
u
ua
uan
uando
uanitae
uato
ubaldo
ubi
ubidi
uc
uccelli
uccello
ucidenta
ucra
ucrai
ucrain
ucrainn
ucupa
udi
udie
udienza
udierna
udine
udio
udo
ue
uege
uegna
uegnam
uegnir
uei
ueir
uem
uen
uenir
uennem
uento
uer
ueraxe
ueraxi
uere
ueritae
uertue
uey
uffic
ufficiale
uffizi
ufic
uficio
ufisia
uga
ugan
uganda
ugge
uggi
uggia
uggian
uggie
uggin
uggio
uggiæ
ughe
ughi
ugna
ugnava
ugni
ugno
ugo
ugonotti
uguale
uguia
uh
ui
uia
uicij
uicio
uie
uigina
uin
uio
uir
uirtue
uista
uisto
uita
uite
uiue
uiuer
ujo
uk
ukov
ukraine
ula
ulan
ule
uli
ulia
ulisse
ulme
ulmea
ulmios
ulmioscu
ulo
ultima
ultimi
ultimo
ultra
ultre
um
uma
umago
uman
umana
umani
umanitæ
umano
umartin
umberto
umbra
umbria
umdeman
umer
umermenti
umiditæ
umilitae
umille
umilli
umillitae
umiltæ
umo
umoi
un
una
unao
uncha
und
unda
unde
undeman
under
une
unesco
ung
ungaja
unge
unghere
ungheri
unguento
uni
unia
unica
unico
unie
unificac
uniforme
uniformitæ
unii
unio
union
unione
unisce
unita
unitae
united
uniti
units
unitæ
uniu
uniun
univa
universa
universal
universale
universalitæ
universalmente
universcita
universcitæ
universidade
universita
university
universitæ
universo
universæ
unn
unna
unni
unnica
unnico
unno
uno
unsu
unta
unu
unum
unze
uo
uoi
uoia
uoio
uol
uolleir
uolluntae
uomini
uomo
uor
uosse
uostra
uppa
uppe
uppi
uppia
uppo
uppsala
ur
ura
uran
urato
urba
urban
urbana
urbani
urbanizac
urbano
urbin
urdine
urganisa
uri
uria
urigina
urigine
url
urme
urmea
urmeascu
uro
urpe
urss
urteio
urtima
urtime
urtimi
urtimo
urtimu
urto
uruguay
us
usa
usan
usando
usanza
usanze
usao
usar
usava
usc
uscendo
usci
uscia
usciere
use
ushuaia
usi
uso
uspia
uspiaretto
uspiæ
usque
ustria
usu
ut
utc
ute
utel
utendo
uti
utile
utili
utilitae
utilitæ
utiliza
uto
utra
utre
utrecht
utt
utta
utte
utti
utto
utu
utubre
utue
uu
uult
uv
uva
uvamente
uvan
uve
uvec
uverno
uvi
uvia
uvian
uvie
uvio
uviæ
uvo
uxe
uxi
uxo
uxoa
uxorem
uza
uzai
uzansa
uzanssa
uzao
uze
uzo
uzu
v
va
vaa
vaca
vacca
vacche
vaccin
vache
vada
vaddan
vadde
vaddo
vado
vaffrin
vaga
vagabondo
vage
vagghe
vaggo
vaghe
vaghezza
vaghi
vagi
vago
vai
vairi
val
vala
valada
valdinfernu
vale
valenc
valencia
valenciana
valenciennes
valente
valenti
valeria
valerio
validitæ
valixe
valla
valladda
valladolid
vallauris
valle
valleggia
valletta
valley
valli
vallo
valo
valoi
valois
valor
valore
valoroso
valtellina
valu
valutac
vam
van
vana
vangeli
vangelo
vani
vanitae
vanite
vanitæ
vanna
vanne
vanni
vanno
vano
vanta
vantaggi
vantaggio
vantava
vante
vanti
vanto
vapo
vapoi
vapore
vaqueiras
var
vara
varatella
varazze
varea
varecia
varei
vareise
varente
varenti
varese
vari
varia
variac
variante
varianti
varie
varieta
variete
varietæ
varigotti
varii
vario
varo
varri
varria
varrie
varsavia
varse
vas
vasa
vasari
vasca
vascelli
vascello
vasco
vasi
vasilevskij
vaso
vassalli
vassallo
vassello
vasta
vaste
vasti
vasto
vastu
vate
vatene
vatica
vatican
vaticanus
vatt
vattene
vatutin
vaxi
ve
vea
veamente
vec
vecchia
vecchio
vecciaia
vece
vecellio
ved
veddan
vedde
veddei
veddeiva
veddeivan
veddeivi
veddeivo
veddemmo
veddendo
veddesci
veddi
veddia
veddiei
veddiemo
veddila
veddili
veddilo
veddime
veddio
veddise
veddiæ
veddo
veddri
veddro
veddu
vede
vedei
vedeiva
vedeivan
vedemmo
vedendo
vedendu
veder
vedere
vedesse
vedi
vedia
vedie
vediei
vediæ
vedrei
vedu
vee
vega
vegamo
vegando
vegandollo
vegandosse
vege
vegeta
vegetac
vegetto
vegettu
veggando
vegge
vegghe
veggia
veggie
veggio
veggiæ
veggo
veghe
vegi
vegia
vegie
vegio
vegiu
vegna
vegnan
vegnando
vegne
vegnem
vegnen
vegni
vegnia
vegnie
vegnimmo
vegnindo
vegnindu
vegnio
vegnir
vegnira
vegniro
vegnissan
vegnisse
vegniva
vegnivam
vegnivan
vegniæ
vegno
vegnu
vegnua
vegnue
vegnui
vegnuo
vego
vei
veia
veie
veillo
veime
veine
veir
veira
veirai
veire
veirei
veiremo
veiria
veiro
veise
veitae
veite
veitæ
veiva
veivam
veivan
veive
veivi
vej
veja
veje
vela
vele
veleno
vellegu
velli
vello
vellu
velo
veloc
velocitæ
velsu
velu
veluciano
veluo
vem
ven
vena
venardi
venc
vendan
vende
vendegne
vendeta
vendetta
vendette
vendi
vendia
vendica
vendita
vendo
vendu
vendun
venduo
vene
venec
venera
veneraber
venerabile
venerac
venerando
venerdi
venere
venessia
veneta
venetian
veneto
venetos
venexa
venexia
venezia
venezuela
venga
vengono
veni
venia
venim
venin
venir
venire
venn
venna
venne
venneto
veno
vense
vensse
vensuo
vente
ventemiglia
ventemigliusi
ventemigliusu
venti
ventimiglia
ventimigliese
ventixœu
vento
ventre
ventu
ventura
venture
venza
venze
venzuo
veo
ver
vera
verai
veramente
veramenti
veraxe
veraxementi
verba
verbi
verbo
verc
vercellese
vercelli
verde
verdexi
verdi
verdu
verdura
vere
verea
verei
verga
verge
vergem
vergen
vergene
vergenitae
verghe
vergine
vergini
verginitae
vergo
vergogna
vergœugna
veri
verifica
verissimo
verita
veritae
veritai
verite
veritæ
verlag
verme
vermenti
vermi
vermont
verna
vernacolo
vernante
vernassa
vernixe
vero
veronn
verra
vers
versa
versagge
versailles
versante
versci
verscio
verscioi
verscioin
verscion
versi
versione
verso
versu
versæ
verta
vertebrata
vertica
vertue
vertuoso
vesa
vesargu
vesce
veschi
vescho
vescia
vesco
vescovato
vescovi
vescovo
vescu
vescuvi
vese
vespe
vespexiano
vespo
vessan
vessi
vest
vesta
veste
vesti
vestia
vestie
vestii
vestij
vestimenta
vestimente
vestimenti
vestimento
vestio
vestir
vestito
vete
veto
vett
vettu
vettui
vetu
veu
veuan
veuggio
veve
vexenda
vexende
vexi
vexim
vexin
vexinato
vexinn
vexinna
vexita
vey
vi
via
viado
viae
viaf
viaggi
viaggia
viaggio
viagio
viagiu
viali
vianda
viande
viatu
vic
vica
vicaio
vicario
vice
vicenda
vicende
vicente
vichario
vichi
vichinghi
vicij
vicino
vicio
vico
vicoforte
victor
victoria
vidal
viddan
vidde
viddoa
vide
video
vidoa
vidoe
vidua
vie
viegio
viegne
vien
viene
vienna
vieta
vietnam
vigeximo
vigi
vigilanza
vigilia
vigna
vigne
vigno
vignozo
vigo
vigor
vigoria
vii
viii
viiii
vij
vil
vila
vilam
vilan
vilania
vile
vili
villa
villafranca
villaggi
villaggio
villan
villano
villanova
villanovadalbenga
villar
ville
villen
villezzatu
villezzo
vilnius
viltæ
vilæc
vim
vimmo
vimo
vin
vina
vinc
vince
vincent
vincenzo
vinci
vincia
vincito
vinetto
vini
vino
vinse
vint
vinta
vinte
vinti
vintic
vintimi
vintimiggia
vintimigio
vinto
vintu
vio
viola
viole
violenc
violenta
violenti
violento
violenza
violin
viou
viovetta
vipera
vir
vira
vire
virei
virgi
virgilio
virgine
virginia
virginis
virginitae
virginnia
virgo
virgola
virmenti
viro
virtu
virtue
virtuosa
virtuosi
virtuoso
virus
viræ
vis
visaya
visciu
visco
visconti
vise
vision
visita
viso
visse
vissi
vissu
vist
vista
viste
visti
visto
vistose
vistu
vita
vitale
vite
vitello
viterbo
viti
vitij
vitio
vito
vitoria
vitta
vitte
vittima
vittime
vitto
vittoia
vittoie
vittoio
vittore
vittoria
vittorio
vituperio
viu
viuum
viva
vivac
vivadi
vivagna
vivagne
vivaldi
vivan
vivando
vive
viveiva
vivendo
vivente
viventi
viver
vivere
vivi
vivia
vivo
vivu
vivum
vixi
vixibile
vixibili
vixigo
vixin
vixina
vixinn
vixiom
vixion
vixita
vixitasiu
vixitato
vixitatoi
vixite
vixito
vixo
vixon
vizii
vizio
vizo
viæ
viægi
viægio
vn
vo
vobis
voca
vocabola
vocabolaio
vocabolario
vocabolo
vocac
vocale
vocali
voce
voci
voe
voeggio
voei
voeiva
voeivan
voeivo
voemmo
voendo
voente
voentea
voentæ
voese
voeu
vogando
voggiando
voggie
voggiemo
voggio
vogia
vogiamo
vogiando
vogio
voglia
voglio
voi
voia
voiamo
voiando
voiatri
voio
voiva
voj
vol
vola
volapu
vole
volea
volendo
voler
volere
volete
volga
volgare
volgari
volgo
voli
volle
volley
volo
volonta
volontae
volt
volta
voltaire
volte
volto
voltri
volu
volume
volumme
volummi
voluntae
von
vor
vora
vorai
vore
vorea
voream
vorei
voreillo
voreime
voreiva
voreivam
voreivi
voreivo
vorem
voren
vorentae
vorentai
vorente
vorentera
vorentæ
vorer
vorese
voresse
voressi
voresti
vorey
vorga
vorie
voriæ
vorontae
vorontai
vorpe
vorra
vorran
vorre
vorrebbe
vorrei
vorreiva
vorresse
vorressi
vorria
vorriei
vorrieiva
vorrieivo
vorriæ
vorræ
vorta
vortava
vorto
vortæ
vos
voscia
vosciu
vosciua
vosciuo
vose
vosignoria
vossan
vosse
vossem
vossi
vossignoria
vossuo
vostr
vostra
vostre
vostri
vostro
vostru
vosuo
vota
vote
voti
voto
votta
votte
votto
vou
vous
voxe
voxi
voxin
voy
voze
voæ
vra
vraxe
vs
vu
vue
vuei
vueiva
vueivan
vuentea
vuentæ
vui
vuia
vuio
vulca
vulcan
vulgare
vulgaris
vult
vuo
vuoe
vuoeggia
vuoeggie
vuoeggio
vuoeran
vuoi
vuol
vuole
vurpe
vurto
vusciu
vuxe
vuxin
vv
væ
vœ
vœggio
vœu
vœuga
vœugge
vœuggia
vœuggio
vœuo
vœuran
vœutto
w
wa
wagner
walt
walter
war
was
washington
watch
we
web
weber
werner
west
western
what
which
white
who
why
widehat
wiki
wikimedia
wikipedia
wikisource
wikispecies
wikiviva
wiley
wilhelm
william
williams
wilson
windows
with
wordpress
world
worldcat
worldtimezone
wto
wu
www
x
xa
xan
xanni
xc
xci
xcii
xciii
xciv
xcix
xcv
xcvi
xcvii
xcviii
xe
xelli
xello
xente
xenti
xeppe
xetta
xi
xia
xica
xiche
xicista
xico
xie
xignan
xii
xiii
xiiii
xima
ximi
ximo
ximu
xin
xina
xinjiang
xinn
xio
xion
xita
xite
xiti
xito
xitæ
xiu
xiv
xiva
xix
xl
xli
xlii
xliii
xliv
xlix
xls
xlv
xlvi
xlvii
xlviii
xo
xoa
xpe
xu
xv
xvi
xvii
xviii
xx
xxi
xxii
xxiii
xxiv
xxix
xxv
xxvi
xxvii
xxviii
xxx
xxxi
xxxii
xxxiii
xxxiv
xxxix
xxxv
xxxvi
xxxvii
xxxviii
xxxx
xæ
xœuo
y
ya
yanez
year
years
yellow
yeme
yemen
yhesu
york
you
youmath
young
youtube
yr
ystoria
yu
yva
z
za
zab
zabata
zabella
zabetta
zaca
zacche
zacharia
zache
zagante
zamai
zamay
zan
zana
zane
zanetin
zanettin
zanichelli
zanin
zaninna
zanne
zappa
zar
zare
zaschun
zazu
zazun
zazuna
zazunar
zazzu
ze
zea
zecca
zei
zeisse
zeissem
zela
zelanda
zelante
zelo
zem
zembetto
zembo
zeme
zen
zena
zene
zeneise
zeneixe
zeneixi
zeneize
zeneizi
zenero
zenese
zenesi
zenexi
zenexo
zeneze
zenna
zeno
zenoa
zenoeisi
zenoge
zenogge
zenoggio
zenoggion
zenovi
zenzivite
zeo
zerbin
zerbo
zerbonio
zerman
zero
zesene
zetto
zeuga
zeughi
zeugo
zeveggio
zevo
zexa
zexe
zexia
zexie
zgo
zh
zheng
zho
zi
zia
zie
ziena
zimma
zimme
zin
zingara
zio
zion
zira
zita
zitao
zitasse
zitta
zitte
zitten
zitti
zitto
ziui
ziun
zo
zoa
zoane
zoanin
zoe
zoena
zoene
zoenec
zoeni
zoeno
zoenotti
zofo
zogio
zogiorno
zogo
zohanne
zoi
zoiga
zointa
zointe
zointi
zointo
zona
zone
zones
zonse
zonta
zonto
zonzando
zonze
zonzendo
zoo
zorzo
zorzu
zova
zove
zovem
zovena
zovene
zovenetta
zovenette
zovenetto
zoveni
zoveno
zovenotti
zovenotto
zoventu
zoventura
zovo
zozuna
zozuni
zquez
zu
zua
zuamento
zucca
zuccarello
zuckermann
zue
zuegar
zuga
zugao
zugar
zughemmo
zugno
zugnu
zugo
zugoe
zugoei
zugou
zuiga
zuigar
zuixio
zuixo
zun
zunta
zunte
zunze
zuo
zuoe
zuoega
zuoego
zur
zura
zuramento
zurao
zuri
zuro
zuveni
zuvenu
zuxe
zuxi
zuza
zwingli
zza
zze
zzi
zziu
zzo
zzu
zæ
zœu
zœuga
zœughi
zœugo
zœumoæ
{
|
}
~

¡
§
¨
©
ª
«
¬
­
¯
°
±
²
³
´
¶
·
º
»
½
¿
×
æ
æa
æghe
ægoa
ægoe
ægu
ægua
ægue
æla
ælan
ælo
æn
ænn
æra
ærba
ærbo
ærbori
ærboro
ærbu
ærbui
ærca
ærco
ære
ærminni
ærminnia
ærta
ærte
ærti
ærto
ærze
æse
æve
ð
÷
ø
ı
ŋ
œ
œggi
œu
œuggi
œuggio
œurio
œutto
œuttoc
œuve
œuvera
œuvia
œuvie
ſi
ƈ
ȼ
ɐ
ɑ
ɒ
ɔ
ɕ
ə
ɛ
ɡ
ɪ
ɲ
ɹ
ɾ
ʃ
ʊ
ʎ
ʒ
ʒo
ʒu
ʤ
ʦ
ʧ
ʰ
ʲ
ʹ
ʻ
ʼ
ʽ
ʿ
ˆ
ˈ
ˊ
ˌ
ː
˙
̀
́
̂
̃
̄
̅
̆
̇
̈
̉
̊
̋
̌
̍
̏
̐
̑
̓
̔
̕
̛
̣
̤
̥
̦
̧
̨
̩
̯
̱
̲
̺
͂
ͅ
͡
α
β
γ
δ
ε
ει
η
θ
ι
και
λ
μ
ν
ξ
ο
ου
π
ρ
ρα
ς
σ
τ
τα
της
το
τω
υ
φ
φεκ
χ
χι
ψ
ω
ϯ
а
азербаи
в
г
д
е
и
м
ма
н
о
р
ре
с
т
х
э
і
ӡ
ְ
ִ
ا
د
َ
ّ
ْ
ٔ
ٕ
ހ
ރ
އ
ޖ
ާ
ި
ު
ެ
ް
ं
क
ग
ज
ठ
त
थ
द
न
प
म
य
र
ल
स
ह
ा
ि
ी
ृ
े
ो
ौ
्
ং
ত
ব
র
ল
া
ি
ী
ে
্
ਜ
ਪ
ਬ
ਾ
ੀ
ੰ
ગ
ત
ા
ી
ુ
க
ச
ட
ப
ர
ழ
ா
ி
ு
ூ
ே
்
ు
ං
ස
ි
་
ག
ད
ུ
မ
ာ
ᚨ
ភ
ា
្
᾿
​
‎
–
—
―
‖
‘
’
‚
‛
“
”
„
†
‡
•
…
‪
‬
‰
′
″
‹
⁄
₁
₂
€
ℎ
™
ↄ
↑
→
↔
↷
∑
−
∗
∙
∫
∿
≈
≡
≤
⋅
③
④
⑦
█
▭
●
♥
♦
♭
♯
➔
⟨
⟩
⟶
ⱄ
ⱥ
ⲁ
ⲉ
ⲏ
ⲓ
ⲙ
ⲛ
ⲣ
ⲭ
⺀
⺄
⺆
⺈
⺊
⺌
⺕
⺝
⺸
⺼
⿰
⿱
⿲
⿳
⿴
⿵
⿶
⿷
⿸
⿹
⿺
⿻
〢
ち
の
ひ
゙
゚
ア
カ
キ
ク
コ
シ
ス
セ
タ
テ
ト
ハ
ヘ
ム
ユ
ラ
リ
ル
ン
・
ー
㇁
㇂
㇄
㇇
㇈
㇉
㇓
㐁
㐄
㐅
㐌
㐫
㐬
㐭
㐮
㐱
㑒
㒵
㒸
㒼
㓁
㓞
㔾
㕛
㕣
㖾
㘝
㚅
㚇
㚔
㚘
㝉
㝡
㝴
㝵
㞋
㞢
㞷
㠩
㠭
㠯
㡀
㡭
㡿
㢲
㢴
㣇
㣺
㥯
㪅
㫄
㫐
㫒
㫺
㬅
㬎
㬥
㬰
㲋
㳄
㷠
㸒
㸚
㸦
㼌
㼲
㽞
㿟
䀠
䂞
䍃
䏍
䒑
䖍
䖒
䖝
䖵
䙴
䚻
䜌
䝿
䡛
䧹
䪞
一
丁
丂
七
丄
丅
丆
万
丈
三
上
下
丌
不
与
丏
丐
丑
专
且
丕
世
丘
丙
业
东
丞
丢
丣
两
严
並
丨
丩
个
丫
丬
中
丮
丰
丱
串
丵
丶
丷
丸
丹
为
主
丽
丿
乀
乂
乃
久
乆
乇
么
义
之
乌
乍
乎
乏
乐
乑
乔
乖
乗
乘
乙
乚
乛
乜
九
乞
也
习
乡
乳
乾
亀
亅
了
亇
予
争
事
二
亍
于
亏
亐
云
互
亓
五
井
亘
亚
亜
亞
亟
亠
亡
亢
交
亥
亦
产
亨
亩
享
京
亭
亮
亯
亰
亲
亳
亶
亷
人
亻
亼
亾
仁
今
介
仌
从
仐
仑
仒
仓
仕
他
付
仝
代
令
以
任
企
伊
伏
伐
休
会
伝
伯
但
位
何
佘
余
作
佥
使
來
侈
侌
侖
侯
侵
便
保
俞
信
修
倉
倍
候
倠
偽
備
僉
像
僕
儿
兀
允
兂
元
兄
充
兆
兇
先
光
兊
克
兌
免
兑
兒
兓
兔
党
兜
兟
入
全
兩
兪
八
公
六
兮
兰
共
关
兵
其
具
典
兹
兼
冀
冂
冃
冄
内
冈
冉
冊
冋
册
再
冎
冏
冐
冒
冓
冖
冗
冘
军
农
冝
冡
冥
冫
冬
冷
几
凡
凢
凵
凶
凷
凸
凹
出
函
凾
刀
刁
刂
刃
刄
刅
分
切
刍
刑
刕
刖
列
刘
则
初
別
利
别
到
制
刺
則
削
剌
前
剡
剽
劉
力
功
加
劦
助
劫
劳
劵
勃
勇
勉
勒
動
務
勞
勤
勹
勺
勻
勾
勿
匀
匂
包
匆
匈
匊
匋
匍
匕
化
北
匚
匝
匡
匪
匱
匸
匹
区
医
匽
匿
區
十
卂
千
卄
卅
卆
升
午
卉
半
卌
华
卑
卒
卓
单
卖
南
卜
卝
卞
占
卡
卢
卣
卤
卦
卩
卪
卬
卯
印
危
即
却
卵
卷
卸
卻
厂
厃
厄
历
厈
厉
厌
厓
厘
厚
原
厤
厥
厨
厭
厲
厶
厷
厸
去
厼
厽
叀
参
參
叅
又
叉
及
友
双
反
叐
发
叒
叔
叕
取
受
叚
叜
叟
口
古
句
另
叩
只
召
可
台
叱
史
右
叵
号
司
叹
吂
各
吅
合
吉
吊
吋
同
名
后
吏
向
吕
君
吝
吞
否
含
启
吳
吴
吹
吾
呂
呆
呈
告
员
呙
周
命
咅
和
咎
咠
咢
咨
咸
咼
哀
品
哉
員
哥
哲
唐
商
啇
問
啚
啬
啻
善
喜
喬
單
喿
嗇
噩
嚴
囊
囗
囘
囙
囚
四
回
囟
因
囧
囬
困
囱
図
囷
固
国
圂
圅
國
圍
圓
土
圡
圣
圥
在
圭
地
圶
圼
坐
坒
坚
坡
坴
垂
垔
垚
埀
埋
城
埶
執
基
堂
堅
堆
堇
堯
塞
墨
壘
士
壬
壯
声
壳
壴
壹
壺
壽
夂
处
夅
夆
备
夊
夋
夌
复
夏
夒
夕
外
夗
夘
多
夜
夢
大
夨
天
太
夫
夬
夭
央
失
夲
头
夷
夸
夹
夻
夾
奂
奄
奇
奈
奉
奎
奏
奐
契
奓
奔
奚
奞
奠
奢
奥
奭
女
奴
奻
好
如
妄
妙
妟
妥
妻
妾
姑
委
姜
威
娄
婁
婴
嬰
嬴
子
孑
孔
孕
孖
字
存
孚
孛
孝
孟
季
孤
学
孫
孱
學
宀
宁
宂
它
宅
宇
守
安
宋
完
宏
宓
宗
官
定
宛
宜
宝
客
宣
室
宮
宰
害
家
容
宾
宿
寄
寅
密
富
寒
察
寧
審
寫
寬
寮
寸
对
寺
寻
寽
対
寿
封
尃
射
将
將
專
尉
尊
尋
尌
對
小
少
尒
尓
尔
尖
尗
尚
尞
尢
尣
尤
尧
尨
尭
就
尸
尹
尺
尻
尼
尽
尾
尿
局
居
屈
屋
屎
屏
屑
展
屖
屚
属
屠
屡
屬
屮
屯
屰
山
屵
屾
岁
岂
岑
岡
岩
岳
岸
峯
島
崇
崑
崔
崖
崙
崩
嵬
嶲
巂
巛
川
州
巟
巠
巢
巤
工
左
巧
巨
巩
巫
差
己
已
巳
巴
巷
巸
巽
巾
巿
帀
市
布
希
帚
帛
帝
带
師
席
帶
常
干
平
年
幵
并
幷
幸
幺
幻
幼
幽
幾
广
広
庄
床
底
店
庚
府
度
庫
庭
庶
康
庸
廉
廌
廛
廣
廩
廴
延
廷
建
廾
廿
开
弁
弃
弄
弇
弋
式
弓
弔
引
弗
弘
弜
弟
弥
弦
弱
張
強
强
彊
彌
彎
彐
彑
当
彔
录
彖
彗
彡
形
彥
彦
彧
彭
彳
役
彼
往
待
律
徒
得
徙
從
復
微
徵
心
忄
必
忌
忍
志
忝
忠
忩
快
念
忽
忿
思
怠
急
怱
恆
恒
恩
恭
息
悉
患
悤
悲
悶
惠
惡
惢
愁
愈
意
愛
感
慈
慧
慮
憂
憲
應
戀
戈
戉
戊
戋
戌
戍
戎
成
我
戒
戔
或
戚
戠
戢
截
戲
戶
户
戹
戼
戾
房
所
扁
扇
手
扌
才
打
托
执
承
折
拉
拜
拿
掌
推
提
摩
支
攴
攵
收
攸
改
放
政
敄
敏
敕
敖
敗
敝
敞
敢
散
敦
敫
敬
数
敷
數
斂
文
斉
斊
斗
斤
斥
斩
斬
斯
新
方
於
施
斿
旁
旋
族
无
旡
既
旣
日
旦
旧
旨
早
旬
旱
旲
时
旾
昆
昇
昌
昍
明
昏
易
昔
昗
昜
星
春
昬
是
昱
昴
昷
時
晃
晋
晏
普
景
晶
智
暑
暴
曇
曩
曰
曲
曳
更
曷
書
曹
曼
曾
替
最
朁
會
月
有
朋
服
朔
朕
朗
望
朝
期
木
朩
未
末
本
札
朮
术
朱
朵
朶
朿
杀
杏
杜
束
条
来
東
杲
杳
松
析
林
枚
果
枝
枲
枼
某
柔
查
柬
柰
柴
栗
桀
桑
桼
梁
條
梟
梨
棘
棠
棥
森
検
楚
業
楽
榮
樂
樊
欠
次
欣
欮
欲
欶
欽
款
歆
歇
歛
止
正
此
步
武
歨
歪
歮
歯
歰
歲
歴
歷
歸
歹
歺
死
殳
段
殷
殸
殹
殺
殻
殿
毋
毌
母
每
毒
比
毕
毚
毛
毳
氏
氐
民
气
氣
水
氵
氶
氷
永
氺
氾
求
汝
汞
江
沃
沓
沙
沝
泉
法
波
泣
泥
泰
洛
洪
活
派
流
浦
浪
浮
淡
淮
清
渚
渠
湯
滿
漸
火
灬
灭
灰
灵
灷
炅
炎
炏
炗
炙
炭
為
烈
烏
烝
焉
無
焦
焱
然
煞
熊
熏
燕
營
燮
爪
爫
爭
爯
爰
爱
爲
爵
父
爻
爽
爾
爿
片
牙
牚
牛
牜
牟
牢
牧
牪
特
牽
犀
犬
犭
犮
狂
狄
狊
独
狺
狼
猋
猒
猪
献
獻
玄
率
玉
王
玟
玨
珎
班
琴
瑟
瑩
瓜
瓦
甘
甚
生
産
用
甫
甬
田
由
甲
申
电
甶
男
甸
甹
画
甾
畀
界
畏
畐
留
畜
畟
畢
畧
畨
番
畫
異
畱
當
畺
畾
疊
疋
疌
疑
疒
疾
癶
癸
癹
登
發
白
百
皀
皃
的
皆
皇
皋
皐
皕
皮
皷
皿
盃
盆
盇
盈
益
盍
盎
监
盒
盖
盛
盡
監
盤
盧
目
直
相
盾
省
眇
眉
看
眔
眞
真
眷
眼
眾
着
睘
睪
睿
瞏
瞢
瞿
矍
矛
矞
矢
矣
知
矦
短
石
破
碎
磊
磨
示
礻
礼
祟
票
祭
禀
禁
禸
禹
禺
离
禽
禾
禿
秀
秃
秉
秋
科
秝
秦
移
稟
穀
穌
穴
究
穹
空
穿
突
窄
窒
立
竒
竜
竝
竟
章
童
竹
笑
笠
筆
等
答
箕
算
箴
節
篤
篭
米
粉
粛
粟
粤
粦
粲
糞
糸
糹
系
約
納
素
索
紫
累
細
絜
絫
絲
維
綿
縣
繇
纍
纟
缶
网
罒
罔
罕
罗
罙
罡
罢
罪
署
罷
羅
羊
羌
羍
美
羔
羕
羗
羞
羡
羣
群
義
羲
羸
羽
翁
翏
習
翕
翟
翠
翼
老
耂
考
者
耆
而
耎
耑
耒
耳
耴
耶
耷
聂
聊
聖
聚
聶
聿
肀
肃
肅
肉
肖
肙
肥
肩
肯
育
肴
胃
背
胡
胥
能
脊
脩
膚
臣
臤
臧
自
臬
臭
臯
臱
至
致
臺
臼
臽
臾
臿
舀
舂
舄
與
興
舉
舌
舍
舛
舜
舞
舟
般
艮
良
色
艸
艹
艾
芒
芔
芬
芮
花
芳
芺
芻
苔
苗
苟
若
苦
英
茶
茸
荅
草
荒
荣
荼
莆
莧
莫
莽
菆
菊
菐
華
萬
落
葉
著
葛
董
葵
蒙
蒦
蒼
蓋
蓬
蓺
蔑
蔡
蕉
蕭
薄
薛
薦
薰
藍
藏
藥
蘭
虍
虎
虐
虒
虔
處
虖
虗
虘
虚
虛
虜
虞
虫
虽
蚤
蚩
蜀
蜜
蟲
蠡
血
行
衍
衛
衣
衤
表
衮
衰
袁
袞
褭
褱
襄
襾
西
覀
要
覃
見
規
覓
覧
親
覽
见
角
解
言
訁
訇
計
記
話
詹
語
誩
諸
議
讠
话
谷
豆
豈
豊
豐
豕
豖
豙
象
豦
豩
豪
豸
貇
貝
貞
貟
負
貢
貧
貪
貫
責
貳
貴
買
費
賁
資
賈
賏
賓
賔
賛
賞
賢
賣
質
賴
贊
贝
贡
责
贯
贲
贵
赖
赞
赤
赦
走
越
足
路
蹇
身
躬
車
軍
軎
軟
輦
车
辛
辜
辟
辥
辰
辱
農
辵
辶
边
达
过
近
连
迷
追
退
送
逆
逐
通
速
造
逢
連
逮
進
遀
遂
過
道
達
遣
適
遷
遺
邊
邑
邕
那
邦
邪
郎
郑
部
郭
都
鄉
酉
酋
配
酓
釆
采
里
重
野
量
金
釒
錢
録
钅
長
镸
长
門
閃
閉
開
閏
閑
閒
間
閔
閩
閵
閻
闌
门
间
闷
阑
阜
阝
阿
降
陳
隆
隊
隋
隡
隨
隱
隶
隹
隺
隻
隼
隽
难
雀
雁
集
雈
雋
雍
雐
雔
雙
雚
雜
雝
離
難
雨
雩
雪
雲
零
雷
需
霍
霜
霝
霞
霸
靈
靑
青
非
靡
面
靣
革
韋
韦
韭
韯
韱
音
頁
頃
項
須
頗
頡
頻
顛
页
風
风
飛
飞
食
飠
養
館
饣
首
香
馬
馮
駦
马
骨
高
髟
鬥
鬯
鬲
鬼
魚
魯
鮮
鱼
鲁
鳥
鳳
鸟
鹵
鹿
麃
麗
麥
麦
麻
黃
黄
黍
黎
黑
黒
黨
黹
黽
黾
鼎
鼓
鼠
鼻
齊
齋
齐
齒
齿
龍
龙
龜
龟
龠
龰
龱
龴
龵
龶
龷
龸
龹
ꜜ
ꜿ
ꞓ
ꞔ
者
艹
ﬁ
﻿
？
𠀁
𠀃
𠀆
𠀉
𠀎
𠀐
𠁁
𠁣
𠂆
𠂇
𠂈
𠂉
𠂊
𠂋
𠂎
𠂒
𠂔
𠂛
𠂡
𠂢
𠂤
𠂬
𠂭
𠂹
𠃊
𠃋
𠃌
𠃍
𠃎
𠃑
𠃓
𠃔
𠃜
𠄌
𠄎
𠄠
𠄢
𠆢
𠆥
𠇍
𠈌
𠌵
𠓜
𠔉
𠔥
𠔼
𠔽
𠔿
𠕀
𠕁
𠕋
𠘧
𠘨
𠙻
𠙼
𠚏
𠚒
𠚤
𠚪
𠣏
𠤎
𠤕
𠥓
𠦄
𠦑
𠦝
𠧒
𠧗
𠧪
𠩺
𠪚
𠫓
𠫔
𠫤
𠬛
𠬝
𠬞
𠬢
𠬤
𠬶
𠮛
𠮦
𠮷
𠯑
𠱠
𠳮
𠷎
𡈼
𡉀
𡉵
𡌥
𡍮
𡏳
𡕒
𡕩
𡕰
𡖅
𡗗
𡗜
𡘆
𡘤
𡧱
𡨄
𡩧
𡬠
𡭽
𡰣
𡰥
𡰪
𡰯
𡰱
𡷈
𡸁
𡿨
𡿩
𡿪
𡿺
𢀖
𢀛
𢀩
𢁙
𢆉
𢆰
𢆶
𢇁
𢇇
𢉖
𢌬
𢌿
𢏚
𢑑
𢑚
𢖻
𢙣
𢛳
𢦏
𢦒
𢧵
𢼄
𢾕
𣁋
𣄼
𣅀
𣅽
𣍘
𣎳
𣎵
𣏋
𣏼
𣗥
𣥂
𣥖
𣦵
𣦼
𣧄
𣪊
𣪠
𣬉
𣳾
𣶒
𤇾
𤊽
𤐫
𤓰
𤔔
𤕨
𤣩
𤰇
𤰔
𤰞
𤴓
𤴔
𤽄
𥁑
𥁕
𥃦
𥃩
𥃭
𥇡
𥑟
𥘅
𥘈
𥝢
𥫗
𥱡
𦈢
𦉪
𦉬
𦉼
𦍌
𦍒
𦎧
𦐇
𦓔
𦔮
𦘒
𦙃
𦚏
𦣝
𦣞
𦣻
𦥑
𦥔
𦥯
𦨉
𦭝
𦰩
𧆞
𧈧
𧘇
𧰨
𧴪
𧴮
𧵩
𧾷
𨸏
𨾴
𩙿
𩠐
𩫏
𩵋
𪉷
𪜀
𪟽
𪠲
𪩲
𫇦
𫔭
𫜸
𫝀
𫠣
𫠩
𫢉
𫥞
𫩏
𫩠
𫪡
𫲽
𫶧
𬀷
𬐘
𬗌
𬙙
𬛸
𬜯
𬟩
𬯁
𬴘
𬺻
𬼉
𬼖
𭀰
𭁈
𭁨
𭅰
𭑈
𭕄
𭗼
𭤨
𭥫
𭻾
𮅕
𮊿
𮍌
𮍏
𮓗
𮥼
𮧮
廾
𰀁
𰀄
𰀈
𰀉
𰀕
𰀠
𰀡
𰀢
𰀪
𰁜
𰃮
𰆊
𰆘
𰋙
𰕎
𰢴
𰧭
𰯲
01--
02--
202007--
202007300--
73--
76--
93--
94--
a--
aa--
ab--
aba--
abba--
abbo--
abbra--
abi--
abo--
abra--
abu--
ac--
aca--
acce--
acco--
accu--
accœu--
ace--
aco--
acro--
act--
acu--
ad--
ada--
ade--
adi--
admini--
ado--
adu--
aduer--
ae--
af--
afa--
afe--
aff--
affa--
affi--
affli--
afflic--
affo--
afi--
afo--
afri--
afro--
ag--
aga--
age--
aggre--
aghja--
agi--
ago--
agri--
agu--
aguar--
ai--
aia--
air--
aju--
al--
ala--
albi--
albis--
alc--
ale--
alek--
alex--
ali--
alla--
alle--
alli--
allo--
allu--
alo--
alta--
alti--
alu--
am--
ama--
amb--
ame--
ami--
ammini--
ammu--
amo--
amu--
an--
ana--
anc--
and--
anda--
ande--
ane--
anfi--
angu--
angui--
ani--
anne--
anni--
annota--
annu--
ano--
ans--
ant--
ante--
anti--
anto--
antro--
anu--
anæ--
ao--
aor--
aoto--
ap--
apa--
ape--
api--
apo--
appa--
appla--
apre--
apro--
apæ--
aqui--
ar--
ara--
arbi--
arc--
arca--
ardi--
are--
arg--
ari--
arlec--
armo--
aro--
arra--
arran--
arre--
arri--
ars--
art--
arte--
arti--
arvi--
as--
asa--
asce--
asci--
asco--
ase--
ash--
asi--
aso--
asse--
asso--
assue--
ast--
astro--
asu--
at--
ata--
ate--
atem--
ati--
atle--
atmo--
ato--
atre--
atten--
atto--
attra--
au--
aue--
auer--
aus--
aut--
auto--
av--
ava--
avan--
ave--
avem--
avi--
avizan--
avo--
avv--
avver--
avæ--
aw--
axe--
axi--
ay--
az--
aze--
azo--
azu--
b--
ba--
bac--
bacci--
bal--
bald--
bale--
bam--
ban--
bao--
bapt--
bar--
bara--
barbo--
bari--
barse--
bas--
basa--
bate--
baxa--
bay--
be--
bea--
bec--
becca--
becchel--
bedi--
begni--
bei--
bel--
beli--
bella--
belli--
ben--
bena--
bene--
beni--
ber--
bergo--
besa--
besso--
beu--
bey--
beze--
bezœu--
bi--
bia--
bie--
big--
bila--
bio--
bir--
bis--
bizza--
blas--
bli--
blo--
bloom--
bo--
boc--
boe--
boi--
bolsce--
bom--
bombarda--
bon--
bona--
bor--
borde--
borgo--
bos--
bota--
botti--
bour--
boxa--
bozze--
bra--
bravi--
bre--
brem--
bri--
bro--
bru--
brun--
bu--
bun--
bunifa--
bur--
burra--
but--
by--
bæ--
bœu--
c--
ca--
caba--
cac--
cada--
cade--
cagne--
cai--
cal--
cala--
calc--
calo--
calv--
cam--
campo--
can--
cana--
canc--
cane--
cano--
canze--
cao--
cap--
capo--
car--
cara--
cari--
caro--
carre--
carto--
cas--
casa--
castel--
cat--
cata--
cate--
catho--
cato--
cau--
cava--
cavi--
cay--
cc--
cca--
ccc--
cce--
cclxxx--
cd--
ce--
cel--
cen--
centi--
cer--
cera--
ch--
cha--
cham--
che--
chi--
chiu--
cho--
chris--
chroni--
chu--
ci--
cia--
cian--
cicli--
cie--
cin--
cine--
cio--
circo--
circu--
ciri--
ciu--
ciæ--
cl--
cla--
clar--
cle--
cli--
clo--
cm--
co--
coa--
coc--
cod--
code--
codi--
coe--
cogni--
coi--
col--
cola--
colle--
colo--
com--
coma--
combi--
comi--
compl--
con--
conc--
condi--
confe--
conffu--
confi--
coniuga--
conla--
conpl--
consi--
conssi--
consso--
consti--
cont--
contra--
conzo--
coo--
cor--
core--
cos--
coti--
cou--
covæ--
cra--
cre--
cri--
cro--
crono--
cru--
cruci--
cry--
cu--
cua--
cue--
cui--
cul--
cum--
cumpl--
cun--
cunce--
cupi--
cur--
cus--
cx--
cy--
cz--
cæ--
cœu--
d--
da--
dae--
dal--
dama--
dan--
dar--
data--
dau--
dc--
dccc--
dccl--
dccx--
de--
dec--
deci--
deffe--
dege--
degna--
del--
deli--
dem--
den--
departa--
depo--
der--
des--
desle--
devo--
dex--
deza--
dezab--
dezo--
di--
dia--
dic--
dida--
die--
dife--
diffe--
diffi--
digni--
dili--
dim--
dimis--
din--
dina--
dio--
dipro--
dira--
dire--
dis--
disc--
diu--
diuer--
dix--
dixe--
diza--
dize--
dl--
do--
doc--
doe--
dog--
dol--
dolce--
dome--
don--
dor--
dove--
dra--
dri--
du--
dua--
due--
duoe--
dy--
dæ--
dœu--
e--
ebra--
ec--
ecc--
ecce--
ecclexa--
ecclexia--
ece--
eclexa--
eclexaste--
ecli--
eco--
ed--
ede--
edi--
edu--
ee--
efe--
ege--
egi--
ego--
egua--
egy--
ei--
el--
ela--
ele--
elett--
elettri--
elettro--
eli--
elio--
ell--
elle--
elo--
em--
embrio--
eme--
emi--
emo--
empi--
en--
enc--
end--
ene--
ente--
enze--
eo--
epi--
epig--
epizo--
epu--
equi--
er--
era--
ere--
eri--
ero--
eru--
es--
escla--
ese--
esi--
eso--
espu--
est--
este--
et--
etc--
eth--
eti--
etæ--
eu--
euro--
ev--
eve--
ex--
exe--
exi--
experi--
expo--
ey--
eza--
eze--
f--
fa--
fab--
fac--
facu--
fae--
fai--
fal--
falli--
fan--
fanta--
fao--
far--
fas--
fau--
fay--
fe--
fei--
fem--
fen--
feno--
fer--
ferru--
feu--
fi--
fia--
fib--
fie--
fila--
filarmo--
fili--
filo--
fin--
fina--
final--
fini--
fio--
fiu--
fla--
flage--
fle--
flor--
flu--
fo--
foe--
foi--
fol--
fon--
for--
formi--
forni--
foto--
fra--
frac--
frage--
frassi--
fre--
frec--
frega--
fri--
fro--
fru--
fu--
fue--
ful--
fun--
fuo--
fuoe--
fur--
furi--
futu--
fæ--
fœu--
g--
ga--
gabi--
gal--
gallo--
gam--
gan--
garga--
gari--
gas--
gau--
ge--
gen--
gene--
geno--
geo--
geof--
ger--
geru--
ges--
gg--
gge--
ghe--
ghi--
gi--
gia--
giac--
gian--
gibilte--
gie--
gil--
gin--
gio--
gioa--
giro--
giu--
gja--
gla--
glo--
glori--
gna--
gni--
gno--
go--
goa--
godi--
goe--
gou--
gra--
grac--
grag--
gravi--
gre--
gri--
gro--
gru--
gu--
gua--
guada--
gue--
gui--
gun--
guæ--
h--
ha--
ham--
happi--
he--
hei--
hely--
herbe--
hi--
ho--
hol--
hor--
hr--
hu--
hy--
hydro--
i--
ia--
ian--
ic--
ica--
id--
ideo--
ie--
ih--
ihe--
il--
ili--
illu--
ilu--
im--
ima--
imba--
imbriæ--
imbro--
ime--
imma--
impac--
impi--
impl--
in--
ina--
inao--
inc--
inca--
ince--
inco--
incon--
inda--
inde--
indi--
indo--
indu--
ine--
inevita--
inf--
infe--
infra--
ing--
inga--
inge--
inghi--
ingia--
ingiu--
ingredi--
ingu--
ini--
inju--
inma--
inn--
inno--
ino--
inpleme--
ins--
inso--
inspa--
inspi--
insu--
inta--
inte--
intelli--
inter--
into--
intra--
inu--
inv--
inva--
inve--
invi--
inze--
inzeno--
io--
ion--
ioni--
ip--
ipa--
ipe--
ipo--
ipoti--
ippo--
ir--
ira--
iri--
iro--
is--
isa--
isla--
iso--
ist--
istuo--
it--
ita--
iti--
iu--
ive--
j--
ja--
je--
jo--
ju--
jus--
k--
ka--
kathe--
kazaki--
ke--
kho--
ki--
ko--
ku--
l--
la--
lac--
laghe--
lagre--
lai--
lam--
lan--
lao--
lar--
las--
lat--
lau--
laur--
lav--
laxe--
lc--
le--
lea--
lec--
lega--
lengu--
les--
let--
leu--
li--
lia--
lib--
lic--
lie--
lig--
limo--
lin--
lio--
lis--
litur--
liv--
lo--
loa--
loe--
loi--
lom--
lou--
lu--
lub--
luc--
luni--
luxi--
luxu--
lv--
ly--
læ--
lœ--
m--
ma--
mac--
macca--
macont--
mada--
mae--
mag--
mah--
mai--
mais--
maj--
mal--
mala--
male--
mallo--
mama--
mammi--
man--
mane--
mani--
maniffe--
manti--
mao--
maor--
map--
mappa--
mar--
mara--
mare--
mario--
mars--
mas--
massa--
matu--
mau--
max--
maxim--
maz--
mc--
me--
mea--
mecca--
meccani--
meda--
mediu--
mei--
mel--
mem--
men--
mene--
mer--
mera--
mes--
mesc--
meta--
metr--
mey--
mez--
mi--
mia--
mici--
micro--
mie--
mil--
min--
mini--
mino--
minu--
mira--
mit--
mm--
mo--
moc--
mod--
moe--
moi--
mol--
mole--
mon--
mona--
mono--
mont--
monte--
monti--
mor--
mori--
most--
mou--
moy--
mu--
mua--
mugu--
multi--
mun--
mur--
muri--
mussu--
muta--
muvim--
my--
mæ--
n--
na--
nac--
nan--
nao--
nasco--
nau--
nc--
nd--
nda--
nde--
ne--
nec--
neo--
nequi--
nes--
net--
neu--
new--
news--
ng--
ni--
nic--
nicho--
nidi--
nin--
no--
noe--
noi--
nomenc--
non--
norm--
nos--
not--
note--
ns--
nse--
nti--
nu--
nuc--
num--
numis--
nun--
ny--
nœ--
o--
oa--
ob--
oc--
occ--
oci--
ocu--
od--
ode--
odo--
oe--
of--
ofen--
off--
offen--
ogn--
oi--
ol--
ole--
oli--
olim--
om--
ombri--
ome--
omi--
omici--
omo--
on--
one--
op--
open--
oport--
opus--
or--
ora--
ore--
org--
ori--
ornithol--
oro--
ors--
ort--
orto--
os--
ose--
osta--
ota--
ote--
oto--
ott--
ou--
outo--
ovv--
oxe--
oy--
p--
pa--
paci--
padi--
pae--
paes--
pag--
pai--
pal--
pala--
palaeo--
pale--
paleo--
pam--
pan--
panc--
par--
para--
pare--
pari--
pas--
pasa--
pasi--
passa--
pat--
pati--
pato--
pav--
paz--
pe--
pec--
pei--
pel--
pen--
per--
perc--
perdi--
peri--
peru--
pette--
pezze--
phi--
pho--
photog--
phy--
pi--
pia--
pian--
piani--
pic--
pie--
pier--
pig--
pil--
pila--
pin--
pio--
pip--
pira--
pisse--
piu--
pl--
pla--
plac--
plu--
plus--
po--
poa--
pochi--
poe--
poi--
pol--
pola--
pole--
poli--
poly--
polypteri--
pom--
pon--
pont--
pop--
por--
porto--
pos--
pou--
ppo--
pra--
pre--
prec--
pres--
pri--
prima--
primmo--
pro--
prodi--
prof--
prome--
prono--
prospe--
proti--
proto--
prou--
provv--
provvedi--
pru--
psicol--
pu--
pub--
pue--
pui--
pupu--
pur--
pura--
puri--
pus--
pæ--
q--
qua--
que--
quer--
qui--
quo--
quoti--
quæ--
r--
ra--
rac--
raddo--
radio--
raf--
raffi--
rai--
ram--
ran--
rap--
ras--
rati--
rava--
rba--
re--
rea--
rebu--
rec--
reci--
reco--
recu--
red--
ree--
ref--
reg--
rega--
rei--
reli--
rem--
reme--
remi--
ren--
reo--
reppu--
repu--
requi--
res--
rese--
resol--
retro--
reu--
rev--
reve--
revol--
rez--
ri--
ria--
rian--
ric--
rico--
ricon--
ricu--
ridi--
rie--
rifei--
rifle--
riforni--
rim--
rin--
rina--
rio--
ripri--
ris--
rispu--
riu--
riva--
rle--
ro--
roa--
rocca--
rom--
ron--
ros--
rosi--
rre--
rs--
rti--
rto--
ru--
run--
rus--
ræ--
s--
sa--
sac--
sali--
sam--
sampier--
san--
sango--
santa--
sapi--
sappi--
sar--
sara--
sarva--
sba--
sbia--
sbo--
sbra--
sc--
sca--
scam--
sce--
sch--
scha--
sche--
schi--
schu--
sci--
scia--
scienti--
scigni--
scim--
scin--
sciu--
sco--
scola--
scom--
scor--
scovæ--
scr--
scri--
scro--
scru--
scu--
sde--
se--
sec--
sed--
see--
seg--
sei--
sem--
seme--
semi--
sempi--
sen--
seno--
ser--
ses--
sete--
sette--
seu--
sfe--
sfi--
sfo--
sfru--
sfu--
sg--
sghi--
sgu--
sha--
she--
shi--
si--
sia--
sic--
sie--
sig--
silve--
sim--
sin--
singu--
sir--
sis--
sk--
sl--
sla--
sma--
sme--
smi--
smo--
so--
soc--
socio--
soddis--
soe--
sof--
soi--
sol--
som--
soma--
some--
son--
sopp--
sor--
sorve--
sote--
soto--
sotto--
sou--
sovve--
sp--
spa--
spe--
spi--
sple--
spo--
spre--
spro--
spu--
spæ--
squa--
squadri--
squi--
sr--
sse--
sta--
stam--
stan--
stati--
ste--
sti--
stiva--
sto--
stor--
storio--
stra--
strazo--
stre--
stri--
stro--
strœu--
stu--
stæ--
stœu--
su--
sub--
subi--
suc--
succe--
sud--
suf--
sugge--
sul--
sum--
sun--
super--
supp--
sur--
surmu--
sus--
sv--
sve--
svi--
sw--
swa--
sy--
szh--
sæ--
sœu--
t--
ta--
tac--
taffe--
tag--
tai--
tal--
tam--
tan--
tanti--
tar--
te--
tec--
ted--
tel--
tele--
tem--
ten--
teo--
ter--
teri--
tes--
teu--
th--
the--
thermodesulfobac--
thou--
ti--
tia--
tib--
tie--
tig--
tim--
tin--
tip--
tit--
to--
toi--
ton--
total--
tr--
tra--
tradi--
trage--
trai--
tram--
tran--
trans--
tre--
tri--
tro--
trome--
tru--
ts--
tt--
tti--
tu--
tumu--
tur--
turi--
ty--
tyr--
tæra--
u--
ua--
uc--
ue--
uen--
uer--
ugo--
ui--
uia--
uio--
uir--
ul--
um--
un--
ung--
uni--
unu--
uo--
uol--
uor--
ur--
ura--
uri--
us--
usi--
usu--
ut--
ute--
uti--
utu--
uzbeki--
v--
va--
vai--
val--
valle--
van--
vana--
var--
varia--
vas--
vau--
ve--
vec--
ved--
vei--
velle--
ven--
veni--
ver--
veri--
vero--
vest--
vetre--
veu--
vi--
via--
vic--
vice--
vide--
vie--
vigi--
vil--
vili--
villa--
vin--
vinti--
vio--
violo--
vir--
vis--
visit--
vito--
vitu--
viu--
vivi--
vla--
vo--
voe--
voi--
vol--
vole--
volu--
vor--
vos--
vu--
vue--
vulga--
vuo--
væ--
vœ--
vœu--
w--
wa--
war--
we--
web--
whe--
wil--
wol--
x--
xa--
xe--
xi--
xo--
xu--
xxxx--
y--
ya--
yu--
yugo--
z--
za--
zacca--
zaga--
zam--
zan--
ze--
zem--
zen--
zeno--
zenzi--
zh--
zi--
zin--
zo--
zoa--
zoe--
zoo--
zu--
zue--
zun--
zur--
zœu--
æ--
ægua--
œ--
œu--
ſ--
ʒ--
α--
γ--
δ--
κ--
λ--
μ--
ν--
ο--
π--
ρ--
σ--
τ--
χ--
р--
с--
сов--
ال--
--0
--1
--2
--23
--3
--4
--5
--6
--7
--8
--9
--a
--ac
--aceae
--aco
--ade
--ae
--agio
--agna
--ago
--ai
--aia
--ain
--aio
--ajo
--ak
--al
--ale
--ali
--almente
--am
--ame
--amento
--amo
--an
--ana
--anc
--ando
--ane
--ani
--ano
--ansa
--ante
--anza
--ao
--ar
--ara
--ard
--arda
--are
--ari
--aria
--aro
--as
--ase
--at
--ata
--ate
--ati
--ato
--atrixe
--atta
--atu
--au
--ava
--ay
--b
--ba
--bac
--ban
--bb
--bba
--bbe
--bbile
--bbili
--be
--bel
--ber
--berg
--bet
--beth
--bi
--bia
--bic
--bile
--bili
--bille
--bilmente
--bio
--ble
--blik
--bo
--bola
--boro
--bra
--bre
--bri
--bru
--bu
--bus
--bæ
--bæa
--c
--ca
--cac
--camente
--can
--cao
--car
--carlo
--cca
--cce
--cchi
--cchio
--cchæ
--cci
--ccia
--ccin
--ccio
--cco
--ccu
--ce
--cebus
--cem
--ces
--cet
--ch
--cha
--chao
--che
--chen
--chi
--cho
--chæ
--ci
--cia
--ciali
--ciam
--cidio
--cie
--cimo
--cini
--cio
--cioim
--ciom
--cion
--ciæ
--cje
--ck
--co
--cra
--cri
--crito
--crive
--ct
--cte
--cto
--ctu
--cu
--cuc
--cus
--cy
--cæ
--d
--da
--dad
--dae
--dan
--dda
--ddan
--dde
--ddi
--ddio
--ddo
--ddæ
--de
--denc
--dendo
--deno
--denæ
--der
--di
--dia
--dic
--die
--dii
--dimento
--din
--dine
--dio
--dita
--dito
--ditæ
--diu
--diæ
--do
--doc
--doi
--don
--dona
--doo
--dor
--dos
--dosi
--dr
--dra
--dro
--ds
--dt
--du
--duo
--duse
--dy
--dæ
--e
--ea
--eam
--eau
--ec
--ed
--ede
--ee
--ega
--eghæ
--egna
--egno
--ego
--egæ
--ei
--eise
--eiva
--eixi
--eize
--ek
--el
--ella
--elle
--elli
--ello
--elo
--em
--emmo
--emo
--en
--enc
--ence
--encia
--endo
--endum
--ene
--engo
--ens
--ense
--ente
--enti
--ento
--enza
--eo
--er
--era
--ere
--eri
--ern
--ero
--ersi
--es
--esci
--ese
--essi
--et
--eta
--ete
--eto
--etrei
--etta
--ette
--etti
--etto
--eu
--eve
--evi
--exi
--ey
--ezza
--f
--fa
--fe
--ff
--ffa
--ffi
--ffia
--ffica
--ffo
--fi
--fic
--fica
--ficac
--fichæ
--fico
--ficu
--ficæ
--fin
--fo
--fonica
--ft
--fu
--g
--ga
--gac
--ganti
--gao
--gar
--gas
--ge
--geita
--geite
--geito
--gem
--gen
--gena
--ger
--gero
--ges
--gette
--gge
--ggetta
--ggetti
--ggi
--ggia
--ggie
--ggin
--ggio
--ggion
--ggiæ
--ghe
--ghi
--ghin
--ghæ
--ghæve
--gi
--gia
--giai
--gian
--gie
--ginæve
--gio
--giu
--giæ
--gli
--glia
--glie
--glio
--gma
--gn
--gna
--gnan
--gnano
--gne
--gni
--gnin
--gninti
--gnio
--gniva
--gno
--gnoso
--gnu
--gnua
--gnui
--gnuo
--gnæ
--go
--goi
--gom
--gon
--gona
--gono
--gora
--gou
--gra
--gro
--gru
--græ
--gs
--gu
--gua
--gue
--gui
--gula
--gæ
--h
--ha
--hai
--hao
--har
--hat
--he
--hen
--her
--hessa
--hi
--hia
--hin
--hio
--ho
--hon
--hs
--ht
--hæ
--i
--ia
--ial
--iam
--ian
--iana
--iano
--iao
--iar
--ibo
--ibus
--ic
--ica
--ice
--ich
--icha
--iche
--ichi
--icho
--ici
--ico
--ida
--ie
--ier
--iera
--ies
--ieu
--iga
--ige
--ighe
--ign
--igo
--iha
--ii
--ij
--iji
--il
--ille
--ilo
--im
--ima
--ime
--imi
--imo
--in
--ina
--ine
--ing
--ini
--inn
--ino
--inæ
--io
--ioi
--ioim
--iom
--ion
--ions
--ior
--iosi
--ioso
--ipi
--ipio
--ipo
--ir
--ira
--ire
--is
--isa
--ise
--isi
--ismo
--iso
--issa
--issi
--isso
--ista
--isti
--it
--ita
--itae
--ite
--iter
--iti
--ito
--itu
--ity
--itæ
--iu
--iuer
--iui
--ium
--ius
--iv
--iva
--ivam
--ivan
--ive
--iver
--ivi
--ivo
--ix
--ixa
--ixe
--ixi
--iza
--izac
--ize
--izi
--izion
--izo
--izu
--iæ
--j
--ja
--je
--ji
--jia
--jo
--js
--k
--ka
--kan
--ke
--ken
--ker
--key
--ki
--kij
--ko
--kon
--ks
--ku
--ky
--l
--la
--laa
--lac
--lam
--lan
--lao
--lar
--lare
--lato
--lba
--ld
--lde
--ldi
--ldo
--le
--lea
--lem
--lenc
--lene
--lengo
--ler
--les
--lese
--lf
--lfi
--lfo
--li
--lia
--lian
--liann
--lic
--lie
--lies
--lin
--lina
--lini
--linn
--lino
--lio
--lis
--lismo
--lita
--litae
--litæ
--lizio
--liæ
--lk
--ll
--lla
--llao
--llari
--lle
--llem
--lletti
--lletto
--lli
--llin
--llino
--llo
--llon
--llu
--llus
--llæ
--lme
--lmente
--lo
--logi
--logia
--logy
--lon
--loni
--lpi
--ls
--lt
--lta
--lte
--lti
--lto
--ltu
--ltæ
--lu
--luigi
--lum
--lus
--lv
--lvi
--lza
--læ
--m
--ma
--mac
--mai
--man
--mao
--mar
--martin
--mava
--mba
--mbe
--mber
--mbi
--mbo
--mbu
--me
--meli
--men
--ment
--mente
--menti
--mento
--mentu
--mi
--mia
--migo
--min
--mir
--mma
--mme
--mmi
--mmiche
--mmo
--mmu
--mo
--mon
--moæ
--mp
--mpa
--mpe
--mpio
--mplæ
--mpo
--ms
--mu
--mun
--muo
--mus
--my
--mæ
--n
--na
--nac
--nae
--nago
--nal
--nale
--nando
--nao
--nar
--nas
--nate
--nbu
--nc
--nca
--nce
--ncha
--nci
--ncia
--nciæ
--nco
--ncy
--ncæ
--nd
--nda
--ndan
--nde
--nder
--ndi
--ndis
--ndo
--ndoghe
--ndolo
--ndome
--ndose
--ndosi
--ndosse
--ndrin
--ndu
--ndum
--nduse
--ndæ
--ne
--nea
--neise
--neize
--nem
--nente
--neo
--ner
--nes
--nese
--nesi
--nesia
--ney
--ng
--nga
--ngelo
--ngenti
--ngo
--ngoi
--ni
--nia
--nica
--nide
--nie
--nii
--nij
--nin
--nina
--nio
--nion
--nir
--nis
--nismo
--nito
--nitæ
--niu
--niæ
--nj
--nk
--nn
--nna
--nne
--nnega
--nni
--nnia
--nnico
--nnio
--nno
--nnomi
--nnæ
--no
--nolo
--non
--nos
--nou
--nova
--npu
--ns
--nsa
--nsci
--nse
--nsi
--nsia
--nsio
--nsion
--nsis
--nsiu
--nso
--nssa
--nsse
--nsu
--nsæ
--nt
--nta
--ntac
--ntai
--ntando
--nte
--ntes
--nti
--ntia
--ntin
--ntino
--ntis
--nto
--nton
--nts
--ntu
--ntur
--ntæ
--nu
--ny
--nz
--nza
--nze
--nzi
--nzia
--nzio
--nzioi
--nzo
--næ
--næa
--o
--oa
--oe
--oi
--oim
--oin
--oina
--ola
--oli
--olla
--ollo
--olo
--olta
--om
--oma
--omi
--on
--ona
--one
--oni
--onio
--ono
--ons
--or
--ore
--orno
--orum
--os
--osa
--ose
--osi
--oso
--ot
--oti
--oto
--otti
--ou
--ov
--oxa
--oxi
--oxo
--oz
--oza
--ozo
--p
--pa
--pe
--ph
--phic
--phie
--phy
--pi
--pia
--pine
--pio
--pla
--ple
--plessu
--plica
--plice
--plicæ
--plo
--pna
--po
--poli
--pon
--poro
--ppa
--ppe
--ppia
--ppio
--ppiæ
--ppo
--pposta
--ppu
--ppæ
--ps
--pto
--pu
--pæ
--q
--qi
--qua
--que
--qui
--quio
--r
--ra
--rac
--rae
--rago
--rai
--rale
--ram
--ran
--rando
--rano
--rao
--rar
--ras
--rati
--rato
--rba
--rbi
--rbu
--rc
--rca
--rco
--rd
--rda
--rde
--rdi
--rdin
--rdio
--rdo
--rdu
--rdæ
--re
--rea
--rebbe
--rei
--reiva
--rella
--relle
--rello
--remo
--ren
--rera
--res
--ressa
--ressi
--ret
--retti
--rf
--rfa
--rg
--rge
--rgna
--rgo
--ri
--ria
--ribus
--ric
--rie
--rii
--rij
--rile
--rim
--rin
--rini
--rinn
--rino
--rio
--rion
--rir
--ris
--rit
--rita
--ritæ
--riu
--riva
--riza
--rizza
--rizzac
--rlo
--rlu
--rly
--rm
--rma
--rme
--rmente
--rmi
--rmo
--rmæ
--rn
--rna
--rnao
--rne
--rni
--rno
--rnu
--rnæ
--ro
--rolo
--ron
--rone
--rote
--rou
--roxi
--rozo
--rp
--rpi
--rr
--rra
--rrao
--rre
--rri
--rro
--rræ
--rs
--rsa
--rsci
--rse
--rsi
--rsia
--rso
--rsso
--rsu
--rt
--rta
--rtac
--rte
--rti
--rto
--rtu
--rtæ
--ru
--rum
--run
--rus
--rva
--rve
--rvi
--ry
--rz
--rza
--rzi
--ræ
--ræta
--ræti
--ræve
--s
--sa
--sai
--san
--sao
--sata
--sca
--sce
--sche
--schen
--schi
--sci
--scia
--scian
--scima
--scime
--scimi
--scimo
--scio
--sciæ
--sco
--scu
--se
--sem
--sen
--sene
--sh
--ship
--si
--sia
--sic
--sie
--sima
--simo
--sin
--sio
--sioin
--siom
--sion
--sis
--sition
--siu
--siun
--siuna
--ska
--smi
--smo
--so
--soi
--son
--sque
--ss
--ssa
--ssan
--ssao
--ssar
--sse
--ssem
--ssetti
--ssi
--ssima
--ssime
--ssimi
--ssimo
--ssin
--ssio
--ssioin
--ssiom
--ssion
--ssiun
--sso
--ssoi
--ssu
--ssua
--ssæ
--st
--sta
--ste
--stega
--steghe
--steghi
--stego
--stenc
--steva
--sti
--stia
--stic
--stica
--stico
--stin
--stio
--sto
--stou
--stri
--stro
--stu
--stæ
--su
--sy
--sæ
--t
--ta
--tac
--tae
--tai
--tam
--tame
--tamente
--tan
--tano
--tao
--tar
--tas
--tate
--tatem
--tato
--tatum
--te
--tebræ
--tec
--ted
--tega
--tego
--tella
--tello
--tem
--tene
--ter
--tes
--tezza
--th
--tha
--thy
--ti
--tia
--tic
--tica
--tiche
--tichi
--tico
--tide
--tie
--tin
--tina
--tio
--tiom
--tion
--tione
--tionibus
--tions
--tis
--tismo
--tium
--tiva
--tive
--tivi
--tivo
--tiza
--tle
--to
--toi
--toio
--tola
--tole
--ton
--tor
--tore
--tori
--tory
--tou
--tr
--tra
--tre
--tri
--trixe
--tro
--ts
--tschrift
--tt
--tta
--ttan
--tte
--tti
--ttica
--ttiche
--ttico
--ttin
--ttino
--ttio
--ttiva
--ttive
--ttivo
--tto
--tton
--ttrixe
--ttu
--ttua
--ttæ
--tu
--tua
--tudem
--tudine
--tue
--tui
--tula
--tulo
--tum
--tur
--tura
--tus
--ty
--tz
--tæ
--u
--ua
--uam
--ubin
--uc
--ud
--udu
--ue
--ui
--uin
--uit
--uj
--uja
--ul
[...]
