!
"
#
##0
##1
##10
##11
##12
##13
##14
##15
##16
##17
##18
##19
##2
##20
##21
##22
##23
##24
##25
##26
##27
##28
##29
##3
##30
##31
##32
##33
##34
##35
##36
##37
##38
##39
##4
##40
##41
##42
##43
##44
##45
##46
##47
##48
##49
##5
##50
##51
##52
##53
##54
##55
##56
##57
##58
##59
##6
##60
##61
##62
##63
##64
##65
##66
##67
##68
##69
##7
##70
##71
##72
##73
##74
##75
##76
##77
##78
##79
##8
##80
##81
##82
##83
##84
##85
##86
##87
##88
##89
##9
##90
##91
##92
##93
##94
##95
##96
##97
##98
##99
$
%
&
'
(
)
*
+
,
-
.
/
0
00
000
0000
000000
0001
0004
001
002
003
0037
005
00598
006
0061
007
008
009
01
010
0100
012
013
01376
015
016
016666666666666666
017
01745329252
018
019
02
020
0200
021
023
024
03
030
0302
0309
031
032
036
038
04
05
050
051
05585262
056
06
061
07
070
075
08
09
090
1
10
100
1000
10000
100000
1000000
1000000000
1003
1004
1006
101
1012
1016
1018
102
1023
102398
1024
1025
103
104
1040
105
1050
1054
1055
1058
106
1065
1066
1069
107
1077
108
10800
1085
1087
1089
109
1095
1096
1098
1099
11
110
1100
1101
1102
1104
1108
111
1111
1113
1114
112
1120
1122
1123
1124
1127
1128
1129848290276167
113
1130
1132
1135
1138
1139
114
1141
1144
1145
1147
1149
115
1154
1156
116
1160
1161
1162
1165
1166
117
1171
1172
1175
118
1180
1182
1184
1189
119
1190
12
120
1200
12000
1201
1204
1206
1207
1209
121
1210
1211
1212
1213
1214
1215
1217
1218
1219
122
1220
1221
1222
1223
1225
1227
1229
123
1230
1233
1234
123456
1235
1237
124
1240
1241
1246
1248
125
1250
1254
1257
1258
1259
126
1260
1261
1265
1267
127
1271
1279
128
129
1291
1292
1293
1296
1299
13
130
1300
1304
1308
131
1313
132
1320
1321
1324
1325
1326
1327
1328
1329
133
1330
1332
1334
1337
134
1340
1342
1343
1344
1348
135
1350
1357
136
1361
1362
1368
137
1374
1375
1377
138
1384
139
1392
1394
1399
14
140
1400
1405
1408
141
1410
1415
1417
1419
142
1429
143
1431
1433
1434
1435
1438
144
1440
1444
1447
145
1451
1452
1453
1455
1457
146
1460
1461
1466
1468
1469
147
1474
1476
1478
1479
148
1480
1483
1488
1489
149
1490
1492
1493
1494
1497
1498
15
150
1500
1501
1502
1504
1505
1506
1508
151
1515
1516
1517
1519
152
1520
1521
1522
1524
1526
1527
1528
153
1530
1532
1533
1534
1535
154
1541
1542
1547
1548
155
1550
1552
1555
1556
1557
1558
1559
156
1560
1563
1564
1566
1569
157
1570
1571
1572
1573
1574
1575
1576
1577
158
1580
1582
1583
1586
1587
1588
1589
159
1590
1591
15919
1592
15924
1594
1596
1597
1598
1599
16
160
1600
1601
1603
1604
1605
1606
1607
1608
1609
161
1610
1611
1614
1615
1616
1617
1618
162
1620
1621
1622
1623
1624
1625
1626
1627
1628
163
1630
1631
1632
1634
1635
1636
1637
1639
164
1640
1642
1643
1644
1646
1648
165
1650
1652
1653
1654
1655
1656
1657
1658
1659
166
1660
1662
1663
1666
1668
167
1672
1674
1675
1678
168
1680
1681
1682
1683
1684
1685
1686
1687
1688
1689
169
1690
1691
1694
1695
1696
1697
1699
17
170
1700
1701
1704
1705
1706
1707
1708
1709
171
1710
1712
1713
1714
1716
1718
172
1720
1721
1722
1723
1724
1725
1727
1728
173
1730
1732
1733
1734
1735
1736
1737
1738
1739
174
1740
1741
1742
1743
1746
1747
1749
175
1750
1751
1754
1755
1757
1758
1759
176
1760
1762
1763
1764
1766
1767
1768
1769
177
1770
1771
1772
1773
1774
1775
1776
1777
1778
1779
178
1780
1781
1782
1783
1784
1785
1786
1787
1788
1789
179
1790
1791
1792
1793
1794
1795
1796
1797
1798
1799
18
180
1800
1801
1802
1803
1804
1805
1806
1807
1808
1809
181
1810
1811
1812
1813
1814
1815
1816
1817
1818
1819
182
1820
1821
1822
1823
1824
1825
1826
1827
1828
1829
183
1830
1831
1832
1833
1834
1835
1836
1837
1838
1839
184
1840
1841
1842
1843
1844
1845
1846
1847
18474
1848
1849
185
1850
1851
1852
1853
1854
1855
1856
1857
1858
1859
186
1860
1861
1862
1863
1864
1865
1866
1867
1868
1869
187
1870
1871
1872
1873
1874
1875
1876
1877
1878
1879
188
1880
1881
1882
1883
1884
1885
1886
1887
1888
1889
189
1890
1891
1892
1893
1894
1895
1896
1897
1898
1899
19
190
1900
1901
1902
1903
1904
1905
1906
1907
1908
1909
191
1910
1911
1912
1913
1914
1915
1916
1917
1918
1919
192
1920
1921
1922
1923
1924
1925
1926
1927
1928
1929
193
1930
1931
1932
1933
1934
1935
1936
1937
1938
1939
194
1940
1941
1942
1943
1944
1945
1946
1947
1948
1949
195
1950
1951
1952
1953
1954
1955
1956
1957
1958
1959
196
1960
1961
1962
1963
1964
1965
1966
1967
1968
1969
197
1970
1971
1972
1973
1974
1975
1976
1977
1978
1979
198
1980
1981
1982
1983
1984
1985
1986
1987
1988
1989
199
1990
1991
1992
1993
1994
1995
1996
1997
1998
1999
2
20
200
2000
20000
2001
2002
2003
2004
2005
2006
2007
2008
2009
201
2010
2011
2012
2013
2014
20140503222148
2015
2016
2017
2018
2019
202
2020
2021
2022
2023
203
2030
204
205
2050
206
207
2071
208
209
2096
21
210
2100
211
212
213
2137
214
215
216
217
218
219
22
220
2200
220509
221
2212
222
223
224
225
2250
226
227
228
229
23
230
231
232
233
2333
234
235
2357
236
237
238
239
24
240
241
242
243
244
245
246
247
248
2481
249
25
250
2500
251
252
253
254
255
256
257
258
2588
259
26
260
2600
261
262
2629164
263
264
265
266
267
268
269
27
270
271
272
273
274
275
2758
276
277
27777777777777779
278
279
28
280
2800
281
282
283
284
285
286
287
288
289
29
290
291
292
293
294
295
296
297
298
299
3
30
300
3000
30000
301
302
303
304
3044
3048
305
306
307
308
309
31
310
311
31181
312
313
314
315
31557600
31557600000
31557600000000
31557600000000000
316
31635
3166
316846592
317
318
319
31964
32
320
321
322
323
324
325
326
327
328
329
33
330
331
332
333
3333
334
335
336
337
338
339
34
340
341
342
343
344
345
346
347
348
349
3491
35
350
3500
351
352
353
354
355
3558179483314004
356
357
358
359
36
360
3600
3602
361
362
363
364
365
366
367
368
369
37
370
371
372
373
374
375
376
377
378
379
38
380
381
382
383
384
385
386
387
388
389
39
390
391
392
393
394
3946
395
396
397
398
399
4
40
400
4000
401
402
403
404
405
406
407
408
409
41
410
411
412
413
414
415
416
417
418
4184
4184000
4184000000
419
42
420
421
422
423
424
425
426
427
428
429
43
430
431
432
433
434
435
436
437
438
439
44
440
441
442
443
444
445
446
447
448
449
45
450
4500
451
452
453
454
455
456
457
458
459
46
460
461
462
463
464
465
466
467
468
469
47
470
471
472
473
474
475
476
477
478
479
48
480
4800
481
482
483
484
485
486
487
488
489
49
490
491
492
493
494
495
496
497
498
49875
499
5
50
500
5000
501
502
503
504
504063
505
506
507
508
509
51
510
511
512
513
514
515
516
517
518
519
52
520
521
522
523
524
525
526
527
528
529
53
530
531
532
533
534
535
5359237
536
537
538
539
54
540
541
542
543
544
545
546
54609
547
548
549
55
550
551
552
553
554
555
55566
556
557
558
559
56
560
561
562
563
564
565
566
567
568
569
57
570
571
572
573
574
575
576
577
578
579
58
580
581
58175
582
583
584
585
586
587
588
589
58987294928
59
590
591
592
59237
593
594
595
596
597
598
599
6
60
600
6000
601
602
602176487
603
604
605
607
608
60887
61
610
611
612
613
616
618
619
62
620
621
622
623
624
625
6251
626
627
628
629
63
630
631
632
633
634
635
636
638
639
64
640
641
642
643
644
64499
645
646
647
648
648000
649
65
650
651
652
653
654
655
656
657
658
659
66
660
661
664
665
668
669
67
670
671
672
673
675
676
678
679
68
680
681
683
684
685
686
687
688
689
69
690
691
694
696
698
699
69987158227022
7
70
700
7000
701
702
704
705
706
707
708
7098
71
710
711
712
713
715
716
717
718
719
72
720
721
722
724
725
726
7271
728
729
73
732
733
734
735
736
738
74
740
741
742
743
744
745
748
749
75
750
7500
752
753
754
755
756
76
761
762
763
764
765
767
768
769
77
770
7700
771
7711
772
773
774
775
776
777
778
78
780
781
782
784
785
785411784
786
787
788
789
79
790
792
793
794
795
797
798
799
8
80
800
8000
801
802
803
804
806
80665
8071
81
810
812
814
815
818
819
82
820
8217
8220
8221
8222
824
825
8250
8252
828
829
83
830
8316846592
832
833
834
835
839
84
840
841
843
847
848
84908
85
850
85270
854
856
857
858
859
86
860
8601
862
863
87
872
875
877
88
880
881
8848
885
886
887
888
889
89
890
893
895
896
898
9
90
900
9000
900588
901
907
908
91
910
911
912
916
918
92
923
924
926
93
930
932
935
936
938
94
940
943
944
947
95
950
9500
951
952
953
957
958
959
96
960
961
962
965
966
967
968
969
97
970
975
976
978
979
9790
98
980
981
982
984
985
986
987
988
99
994
999
9999
:
;
<
=
>
?
@
\
^
_
`
a
aa
aaa
aakhmedova
aall
aalto
ab
aba
abandon
abbasid
abbr
abbrev
abbreviated
abbreviation
abc
abe
abf
abgeordnete
ability
abkai
abkhazia
able
ablon
ablono
aboriginal
about
above
abovebelow
aboveclass
abovestyle
abraham
abs
absent
absolute
abstract
absvalue
abu
aburbe
abuse
abusefilter
ac
academic
academy
acadia
acadian
acadiensis
acb
acc
acceleration
accents
accept
acceptable
accepted
accepting
accepts
access
accessdate
accessed
accessibility
accessible
accommodation
according
accordingly
account
accounts
accused
acd
ace
achieve
acid
acr
acre
acres
across
act
action
actions
activate
active
actively
activities
activity
actors
actress
actual
actualdateboundariesproperties
actually
ad
ada
adam
adams
adapt
adb
add
addcalendar
addcat
addclass
added
addiction
adding
addition
additional
additions
addmetadata
addnamed
addpositional
addr
address
addresses
adds
addseparator
adj
adjacent
adjectival
adjust
adjusted
adlm
adm
admin
administration
administrative
administrator
administrators
admins
adminship
adolf
adult
advance
advanced
advantages
adventures
ae
aerial
af
afd
aff
affaires
affairs
affect
affected
affecting
affects
affiliate
affiliates
affricate
affricates
afg
afghanistan
africa
african
afrikaans
afro
after
afterwards
ag
again
against
age
aged
agencies
agency
agenda
ages
aghb
agnostic
ago
agricultural
agriculture
agta
ahead
ahom
ai
aia
aid
aids
aimag
aims
air
airdate
aires
airlines
airport
ais
aj
ajalguuny
aje
ak
aka
akira
al
ala
alabama
alan
alaska
alba
albania
albanian
albarradas
albert
alberta
albicilla
album
alces
aldar
ale
aleut
alexander
alexandria
alfred
alg
algebra
algeria
algerian
algonquian
algorithm
ali
alias
aliases
aliaseslist
alice
alien
align
alignbars
alignment
alike
aliyah
aliyot
all
alla
allan
allcat
alle
allegro
allen
allgemeine
alliance
allied
allmovie
allmusic
allnames
allocine
allow
allowed
allowing
allows
allowsmall
allpropertyclaims
almost
alnum
along
alongside
alors
alpha
alphabet
alphabetical
alphabets
alphascale
alps
already
als
also
alt
alta
altai
altaic
alternate
alternative
alternativemap
although
altitude
altname
altnames
altstr
alttext
alttype
altvalue
aluminium
alveolar
alveolo
always
alyga
alzheimer
am
amazon
ambassador
ambassadors
amber
ambox
amendment
america
american
americana
americans
americas
among
amongolian
amore
amount
amphibian
amphibians
amsterdam
amtrak
amur
amuse
amy
an
ana
analysis
analytical
anarchism
anatomy
ancash
anchor
anchorencode
anchors
ancient
and
andaman
anders
andersen
andes
andlist
andorra
andreas
andrew
android
andy
ang
angeles
angis
angitt
angle
anglo
angola
anguilla
anidb
animal
animals
animated
animation
anime
animenewsnetwork
ann
anna
anne
annexation
anno
annoline
annotated
annotation
annotations
announce
announced
announcement
announcements
announcing
annual
annum
anonymous
another
anshan
answer
answers
ant
antarctic
antarctica
anthropology
anti
antibiotic
antigua
antiquity
anton
antonio
antonov
antony
any
anyone
anything
ao
ap
apache
apart
apartheid
api
apico
apis
apoidea
apologies
apologize
apostrophe
apostrophes
app
appalachian
apparently
appeal
appear
appearance
appears
append
appended
appendimpl
appendsnaks
appendtocategory
apple
appletons
applicable
applicants
application
applications
applied
applies
apply
appreciate
appreciated
approach
appropriate
approved
approximant
approximants
approximately
apps
apr
april
aq
aqua
aquila
ar
ara
arab
arabia
arabian
arabic
aramaic
arbitrary
arc
arch
archaea
archaeological
archaeology
architecture
archiv
archive
archived
archivedate
archiveformat
archives
archiveurl
arcs
arctic
arcticus
ard
are
area
areallinteger
areas
areaunit
aren
arg
argentina
argkeys
argname
argnumber
argos
argpairs
args
argsalias
argsarg
argsargname
argscfg
argsi
argsk
argskey
argsname
argsparam
argsprefix
argstable
argsv
argtables
argtableval
argument
arguments
ari
aria
arithmetic
arizona
arj
ark
arkansas
arm
arme
armenia
armenian
armi
armies
armn
arms
armstrong
army
aromanian
around
arr
arrange
array
ars
arshavadm
art
arthropod
arthropoda
arthropods
article
articles
articulated
articulation
artificial
artist
artists
arts
aruba
arxiv
arz
as
asante
ascension
ascii
ashe
asia
asian
asimov
asin
ask
asked
asking
asks
asm
asmat
asp
aspect
aspects
aspx
assamese
assemble
assembled
assembleoutput
assembly
assert
assertnotnull
assessment
assign
assigned
assist
assistance
assisted
associate
associated
association
assume
assumed
assyrian
ast
astrazeneca
astronomy
asturianu
asu
asv
at
ata
atg
atheism
athens
athlete
athletes
athletics
atlantic
atlas
atm
atom
atp
attack
attacks
attempt
attemptorder
attend
attended
attention
attr
attribute
attributes
attribution
attrs
au
audience
audio
auf
auflage
aufsa
aug
august
augustine
augustus
aus
australasia
australia
australian
austria
aut
author
authorities
authority
authoritycontrol
authorized
authorlink
authorlist
authors
auto
autoconfirmed
autodetected
autofill
automagical
automated
automatic
automatically
automne
automobile
autonomous
autoreview
autoscaledimages
autoswitcherlabel
autumn
aux
av
ava
available
availablesubpagecount
avar
average
aviv
avn
avoid
avoids
avst
awa
award
awards
aware
away
awyu
axis
ay
ayta
az
azerbaijan
azerbaijani
aztec
b
ba
babel
babylonian
bach
back
background
backtranslate
backward
backwards
bacteria
bad
badische
badmaev
badsey
baga
baghdad
bahai
bahamas
bahasa
bahr
bahrain
bai
baikal
baku
balance
bali
balinese
balochi
baltic
bamu
ban
banana
band
banda
bang
bangkok
bangla
bangladesh
bank
bankisrael
banknotes
banned
banner
banners
bannertemplate
bans
bar
barbados
barbara
barbuda
bare
bargu
barrel
barrels
barrier
barry
bars
barset
bartlet
bas
basa
base
baseball
based
baseline
basemap
basemapurl
baseresult
basestyle
basho
basic
basin
basis
basketball
bass
bassa
bassel
bat
batak
batk
bator
battle
battles
bau
bavarian
baxter
bay
baylor
baynes
baynessmith
baz
bb
bba
bbc
bbkl
bbl
bbook
bc
bca
bce
bcp
bd
bda
bdft
bdfutbol
bdh
bdi
be
bearmanbianquisbosworthvan
bears
beatissimae
beatles
beauty
bec
became
because
beck
becker
become
becomes
becoming
bee
been
beer
bees
before
begin
beginning
begins
begun
behalf
behavior
behaviour
behind
bei
beijing
being
bel
belarus
belarusian
belfast
belgium
belize
bell
belong
below
belowclass
belowstyle
ben
benefit
beng
bengali
benin
benjamin
benutzer
ber
berber
berkeley
berlin
bermuda
bernhardt
bes
best
bestchange
beststart
beststop
bestval
bet
beta
betawiki
better
between
beverages
beyond
bf
bfd
bg
bgn
bh
bha
bhasa
bhks
bhn
bhp
bhr
bhutan
bi
biao
biathlon
bibcode
bible
biblegateway
biblica
biblical
bibliographic
bibliography
biblioteca
bic
bicentennial
bicycle
bidayuh
big
bigger
bih
bikol
bilabial
bild
bilde
bildungsanstalten
billinghurst
billion
billionth
billionths
bin
binary
bingen
biochemistry
biodiversity
biografico
biographies
biography
biological
biology
biontech
biorxiv
biotechnology
bird
birds
birgit
birth
birthday
bische
bislama
bismarck
bissau
bit
bitnet
bla
black
blacklist
blacklisted
blacklistentry
blacklisting
blacks
blackwell
blank
blanks
blas
ble
blindness
block
blocked
blocker
blocks
blog
blood
bloomington
blp
blue
bluegrass
bluetooth
blurb
blurbobj
blurbs
bm
bmongolian
bms
bmx
bn
bnf
bo
board
bodies
bodo
body
bodyclass
bodystyle
bodywidth
bogomolov
bogota
boilerplate
bokma
bol
bold
boldbdd
bolivia
bolivian
bonaparte
bones
bontok
book
bookmark
books
bookseries
bookseriesentity
bookseriesissue
bookseriesvolume
boolean
boone
bopo
bopomofo
border
borders
borneo
bosna
bosnia
boston
bosworth
bosworthvan
bot
botany
both
bother
botmultichill
bots
botswana
bottom
boulder
bound
boundaries
bourbaki
box
boxes
boxtable
boxtype
boy
boyd
boz
bozo
bp
bpmf
bprecision
bpy
bq
br
bra
brace
braces
bracket
bracketed
brackets
bradshaw
brah
brain
branch
brand
brazil
brazilian
brazzaville
bre
break
breaking
breaks
breast
breathing
brebner
bredde
bremen
breton
brevis
bridge
bridges
brief
brill
bring
britain
britannica
british
britishlococat
brn
broad
broadcasting
broadway
broken
bronze
brown
browser
browsers
bru
brunei
brunswick
brussels
bryan
bs
bsh
bst
bstructure
bt
btable
btu
bu
bua
buc
buchdepot
budapest
buddha
buddhism
buddhist
buenos
bug
bugi
buginese
bugs
build
builder
building
built
builtin
bulgaria
bulgarian
bulleted
bumi
bump
bun
bund
bundespolitik
bundestag
bundestagsabgeordnete
bundestagsabgeordneten
bundestagswahl
bunu
bur
bureau
buriat
burkina
burlington
burma
burmese
burundi
buryad
buryadxelen
buryat
buryatia
bushel
business
but
butt
button
buttons
bvalue
bw
bxr
by
byr
byron
byte
byzantine
byzantini
byzantium
c
ca
cabinet
cache
cached
caesar
cafe
caicos
cairn
cairo
cakm
cal
calculate
calculatecolours
calculated
calculatedage
calculation
caledonia
calendar
california
caliphate
call
called
caller
calling
callparserfunction
calls
calname
calorie
calories
cam
cambodia
cambridge
camel
cameroon
camille
campaign
campbell
can
canaan
canaanite
canaanites
canada
canadian
canal
cancer
candidacy
candidat
candidate
candidates
cannot
canonical
canonicalname
cans
cant
cantonese
cap
capalign
cape
capital
capitalism
capitalization
capitalized
caption
captiondiv
captions
captionstyle
capture
captures
car
carat
carbo
card
cardinal
cards
care
cari
caribbean
carl
carnegie
carol
carolina
carpenters
carpentier
cartier
cartography
casa
case
cases
caspian
casserley
cast
cat
catala
catalan
catalana
catalog
catalogue
catautotoc
catch
cate
categ
categori
categoria
categorie
categories
categorisation
categorise
categorization
categorize
category
categoryhandler
categorynameprefix
catentity
catentityid
cathedral
catholic
catmain
catmaintenance
catname
catnocountry
catnosubdivision
catonly
cats
cattitle
cattle
catwikibaseerror
caucasian
cause
caused
causes
cave
cayman
cb
cbc
cbk
cc
ccat
ccit
ccita
ccitar
ccitation
ccite
cclarify
cd
cdata
cdate
cdo
cdot
cdots
cdu
ce
ceb
cee
ceil
cekli
celebration
cell
cellensis
cells
celsius
celtic
cen
census
cent
centennial
center
centered
centeredtitlespacing
centers
centimeter
centimeters
centimetre
centimetres
central
centralized
centralnotice
centre
centuries
century
ceremony
certain
cest
ceylon
cf
cfcm
cfg
cfgkey
cfgvalue
cfm
cg
cgf
cgi
ch
cha
chad
chaff
chahar
chain
challenge
cham
chamber
championships
chan
chance
chang
changchun
change
changed
changer
changes
changing
channel
chants
chap
chaplin
chapter
chapters
char
character
characters
charge
charles
charlie
charlottetown
chars
chart
charter
chartmarks
charts
charttype
chartvis
chat
chatino
chavacano
che
check
checkarg
checked
checker
checking
checkportals
checks
checktype
checktypefornamedarg
checkvalue
cheers
cheese
chemical
chemistry
chen
chengdu
cher
cherokee
cheshvan
chess
chi
chicago
chicken
chief
child
children
chile
chin
china
chinantec
chinese
chisholm
chm
cho
chocolate
choice
choledochus
chomsky
choose
chordate
chosen
choson
chr
christian
christianity
christine
christmas
christoph
christopher
chron
chronicle
chronicles
chu
chudacoff
chuhan
chunom
church
churchill
ci
cia
cid
cigarettes
cinema
circa
circle
circulatory
circumstance
circumstances
cis
citation
citationclass
citations
cite
cited
citeref
citerefbaxter
citerefboddybrownfryhennigan
citerefboyd
citerefbradshaw
citerefbrand
citerefcheyneblack
citerefdavies
citerefdu
citerefgrierson
citerefgrothendieckdieudonne
citerefhammondscull
citerefhistoric
citerefhughes
citerefkennedy
citerefle
citereflewis
citerefmarshall
citerefrunciman
citerefschafer
citerefsetton
citerefsmith
citerefsolomon
citereftolkien
citerefvan
citerefyonge
cites
citeseerx
cities
citoid
city
civil
civilization
cjk
ck
ckb
ckoerner
ckzug
cl
cla
claim
claims
claimspropertyid
clark
class
classes
classic
classical
classification
clay
clean
cleanargs
cleanargskey
cleaned
cleannumber
cleanup
clear
clearer
cles
cliath
click
clicking
clicks
climate
clio
clm
clock
clone
cloneoptions
close
closed
closing
club
cluster
cm
cmbox
cmongolian
cmp
cms
cn
cnhangul
cnhanja
cnn
co
coach
coaches
coal
coast
coastal
coat
cochrane
cocos
code
codemirror
codepoint
codepoints
codes
codetype
coffee
coins
cois
col
cold
coll
collaborate
collaboration
collaborative
collapse
collapsed
collapsible
collapsibleclass
colleagues
collect
collected
collection
collections
collective
college
collier
collins
colombia
colon
colonial
colons
colony
color
colorado
colorarg
colore
colorfield
colorfound
colorname
colornameinv
colornamel
colors
colorscale
colour
colours
colspan
colspans
colspansi
columbia
column
columns
com
combatant
combatants
combination
combinations
combine
combined
combo
combos
come
comes
comfortable
coming
comma
command
commanders
commands
commas
commemorating
comment
comments
commerce
commission
committee
commodity
common
commonly
commons
commonsmedia
commonwealth
communicate
communication
communis
communism
communities
community
communityhealth
comorian
comoros
comp
compact
companion
company
comparative
compare
compared
comparedisplay
comparelink
compareurl
comparison
compat
compatibility
compatible
competition
competitorid
compiled
complaints
complete
completed
completely
completion
complex
complexdate
compliance
component
components
composed
composers
composite
composition
compositions
compound
comprehensive
compressed
compresssparsearray
compute
computer
computers
con
concat
concatenate
concatenated
concatenates
concatenation
concentration
concept
concepts
concern
concerns
concise
condition
conditions
conduct
conducted
confederation
conference
conferenceurl
config
configtables
configuration
configure
configured
confirmed
conflict
conflicting
conflicts
confucianism
confucius
confused
confusion
congo
congress
conj
conjunction
connected
connecticut
conqueror
conquest
conquests
conrad
consensus
conservancy
conservation
conservatism
consider
considerasexists
considerasredirect
consideration
considered
consistent
consisting
consists
console
consonant
const
constantargs
constantine
constantinople
constants
constitution
constitutional
constrain
constructed
construction
constructive
consultation
consultations
cont
contact
contain
contained
container
containing
contains
contemplations
contemporary
content
contentbackground
contentforeground
contenthostingproperties
contentlanguagecode
contentmodel
contents
contest
context
continent
continents
continue
continued
continues
contrast
contribute
contribution
contributions
contributor
contributorlist
contributors
control
controlled
controlling
controls
convention
conversation
conversations
conversion
conversions
convert
converted
converting
convertnumeric
converts
coo
cook
cookie
cooperation
coord
coordinate
coordinates
coordinatespec
coordinator
coordinsert
coords
copd
copied
copper
coprocessor
copt
coptic
copy
copying
copyright
copyto
cor
corcyra
core
corinth
cornell
cornish
coronavac
corone
corporate
corporation
correct
corrected
correctly
corresponding
corruption
coruler
corvus
cos
costa
cot
could
coulomb
council
count
counter
counties
counting
countries
countrownum
country
countryalias
countryentity
countryentityid
countryflags
countryoptions
counts
county
couples
course
court
cov
covaxin
cover
covering
covid
cox
cp
cpa
cprt
cr
craft
cre
create
created
createicon
createlink
creates
creating
creation
creative
creator
credit
credo
cree
creole
creoles
crh
cricket
crime
crisis
criteria
critical
croatia
croatian
cromwell
cropped
cross
crosses
croton
crown
crusades
cruz
cs
csb
cscr
cslist
css
csstext
csu
csv
ct
ctx
cu
cuba
cubic
cuft
cuin
cuisine
cultural
culture
cultures
cumi
cuneiform
cunha
cup
cur
curac
curie
curitiba
currency
current
currentdate
currententity
currently
currentregnalyear
currenttitle
currentversion
currentyear
currtitle
cursor
cuso
custom
customary
customize
customizing
customtitle
cut
cuw
cuyd
cv
cvt
cvtround
cwt
cx
cy
cycle
cymraeg
cypriot
cyprus
cyrene
cyrillic
cyrl
cysticus
cz
czech
cʎ
d
da
daa
dab
dag
dagmar
dah
dai
daily
daju
dakota
dalhousie
dalian
dallas
dam
damascus
dame
dan
dance
dancers
dances
dani
daniel
danse
dansk
danube
dar
dari
darius
dark
darkgray
das
dash
dashes
data
database
databases
datacell
datacode
datalength
datamodule
datan
datastyle
datatype
datatypes
datavalue
datayear
date
dated
datedifference
dateformat
daten
datenbanken
dateofbirth
dateofcreation
dateofdeath
datepart
dates
datesi
david
davies
davis
day
dayfirst
days
dazhuangke
db
dbe
dbf
dbi
dc
dcb
dd
dda
ddd
de
dead
deadline
deafness
deal
dealing
deals
dear
death
deaths
deb
debate
debug
debuglog
dec
decade
decat
decay
decdeg
december
decide
decided
decillion
decillionth
decillionths
decimal
decimalloc
decimalprecision
decimals
decimaltodms
decimaltopaddedhex
decimeter
decimetre
decision
decisions
declaration
declarations
declare
declared
declares
declined
declinedwords
decode
decorate
decoration
decrease
dedicated
dedup
deep
deepcopy
deezer
def
default
defaultargs
defaultjoin
defaultkey
defaultlang
defaultns
defaultnsarray
defaults
defaultvalue
defaultword
defence
defending
define
defined
defines
definition
definitions
defkey
deflag
defs
deg
degli
degree
degrees
degruyter
deities
del
delaware
delete
deleted
delhi
delimit
delimiter
delink
delinklinkclass
delivered
delivery
delta
dem
dementia
demo
democracy
democratic
demographic
demonstration
demopage
demospace
den
denis
denmark
dennis
denny
denominator
dens
density
denstr
dental
dentistry
dep
department
depend
dependencies
depending
depends
dependvalue
depicting
deploy
deployed
deployment
deployments
deprecated
depression
dept
depth
der
derived
des
desc
descartes
described
describing
description
descriptions
descriptive
desert
deserts
design
designed
desirable
desire
desired
desktop
detail
detailed
details
detect
detected
detecting
detection
detects
determine
determined
determines
deu
deutsch
deutsche
deutschen
deutscher
deutsches
deutschland
deva
develop
developed
developer
developers
developing
development
device
devices
devil
df
dff
dgrbm
dh
dhaka
dhm
di
dia
diabetes
diacritics
diak
dialect
dialects
dialog
diamond
dic
dictated
dictionaries
dictionary
did
didn
die
diego
dies
diesel
dieter
diff
differ
difference
differences
different
differential
difficult
diffmt
diffoptions
diffs
dig
digestion
digit
digital
digitletter
digits
dili
dimetr
din
dinamik
dinka
dinosaur
diplomacy
diq
dir
direct
direction
directly
director
directors
directory
disability
disable
disabled
disables
disambiguate
disambiguation
disambiguationspage
disambiguator
disambiguators
disaster
disc
discogs
discordian
discouraged
discover
discovery
discuss
discussed
discussing
discussion
discussions
disease
diseases
disk
disorder
disp
display
displayed
displayend
displaying
displayname
displays
displaytext
dispname
disptype
dispute
disputes
disruption
disruptive
dissemination
dissertation
distance
distancefromleft
distinguish
distribute
distributed
distribution
district
districts
div
divbox
diverse
diverses
diversity
divide
divided
division
divisions
dizionario
djibouti
djk
dk
dl
dm
dmca
dmitri
dmongolian
dms
dmy
dna
dnb
dnbie
dng
do
doc
docket
docname
docpage
docpagebase
docs
docspace
doctitle
doctrines
document
documentary
documentation
documents
does
doesn
doesportalexist
dog
dogon
doi
doing
dollar
dollars
dolphins
dom
domain
domainmax
domainmin
domains
dome
domestic
domestication
dominica
dominican
don
donald
donation
donations
done
dong
donnell
donotlink
donovan
donzel
dose
dot
dots
dotted
double
doubled
doves
dow
down
download
dozens
dp
dpart
dprec
dprecision
dr
dra
draft
drafting
drag
dragon
draw
drawing
draws
dream
drepung
drive
driver
drop
dropdown
dropped
drug
drum
dry
drygal
ds
dsb
dst
dstructure
dt
dtable
dtxt
dtype
du
dubai
ductus
due
duh
duke
dummy
dumpobject
dunam
dungan
dunganese
dup
dupes
dupl
duplicate
duplicates
dur
duration
during
dusun
dutch
duvalle
dv
dvalue
dvd
dvurekov
dx
dy
dyk
dynasties
dynasty
dynend
dynlink
dynstart
dz
dza
dɹ
e
ea
each
ear
earlier
earliest
early
earth
earthlynum
earthlytable
earthquake
easier
easily
east
easter
eastern
easy
eater
eb
ebook
ebooks
ebsco
ec
ecce
echoes
ecology
economic
economics
economists
economy
ecuador
ed
eda
ede
edge
edges
edinburgh
edison
edit
edited
editing
editintro
edition
editions
editlink
editor
editorlist
editors
editrequest
edits
edittools
edler
edmund
edn
edo
edr
eds
edt
edtf
edu
education
educational
edw
edward
edłoga
edłoha
ee
eea
ef
effect
effective
effectiveexpiry
effectiveprotectionlevel
effects
efficiency
efficient
effort
eg
ega
egy
egyp
egypt
egyptian
eh
ei
eid
eight
eighteenth
eighth
eighty
einer
einstein
eisenbahnen
eisho
eissn
either
ej
ejective
el
election
elections
electric
electrical
electromagnetic
electromagnetism
electronic
electronics
electronvolt
element
elementid
elements
elephant
elibrary
eligible
elis
elitre
elizabeth
ellis
elpc
elpcode
elpn
elpname
else
elseif
elsevier
elsewhere
elvonudinium
em
ema
email
embargo
embargoed
embedded
embera
emergency
emirates
emission
emit
emits
emitted
emongolian
emotion
empire
empress
empty
en
enable
enabled
enabling
enc
encarta
enciclopedia
enclosed
encode
encoded
encounter
encourage
encouraged
encyclopaedia
encyclopedia
encyclopædia
end
endangered
endash
endashes
ended
ending
endocrine
ends
endtimestamp
endtimestampunix
enduring
endyear
energy
enforce
enforcement
eng
engagement
engine
engineer
engineering
engineers
england
english
engscale
engvar
engvarcatsort
enhance
eniac
enjoy
enkhsaihan
enkyo
enlightenment
enough
ensign
ensure
enter
entered
enterprise
entire
entirely
entities
entity
entityexists
entityid
entries
entriestolookupcategory
entry
enum
enumerated
enumerator
env
envfuncs
environment
environmental
environments
enwiki
enwikisource
eo
epic
epiglottal
epilepsy
episode
epistemology
epistle
eps
equal
equals
equation
equatorial
equivalent
er
era
eradata
eraindex
eras
erayear
erdenet
erg
eric
eritrea
erlo
ernest
ernst
err
errend
errmsg
error
errorcategory
errorprinter
errors
errortext
errs
errtag
erwin
es
esalq
escape
escaped
escapepattern
esdras
espan
especially
esperanto
espn
essay
essays
essential
est
established
establishing
esther
estimate
estimates
estonia
estonian
esv
eswatini
et
etal
etc
etela
ethanol
ethi
ethics
ethiopia
ethiopian
ethnic
ethnologue
etymology
eu
eua
euclid
euler
euro
eurobasket
euroleague
europa
europe
european
euskara
ev
evaluate
evaluated
evaluates
evaluation
evalwikimediaorg
even
evenodd
evenstyle
event
events
eventually
ever
everest
everett
every
everyone
everything
evidence
evolution
evolutionary
ex
exact
exactly
example
examples
except
exception
exceptions
excerpt
excerpts
excited
exclude
excluded
exclusively
excude
executive
exhaust
exil
exist
existence
existent
existing
exists
exit
exp
expand
expanded
expanding
expandspecialsqualifiers
expandtemplate
expansion
expansions
expect
expectations
expected
expects
expecttype
expeditions
expenses
expensive
experience
experienced
experiment
experimental
experiments
experts
expired
expiry
expiryfragment
explain
explanation
explanationblurb
explanationsaction
explanationsactionlevel
explanationtext
explicit
explicitly
exploration
explorations
explore
explorer
explorers
exploring
exponent
exponential
export
exported
exports
expr
expressed
expression
expressions
ext
extended
extendedconfirmed
extension
extensions
extensiontag
extensive
external
extra
extraclasses
extract
extracted
extraneous
extraordinary
extratext
eye
ez
ezra
f
fa
face
facebook
facilitate
fact
factbook
factor
factors
facts
fad
faf
fagus
fahrenheit
fail
failed
failing
fails
failure
fair
fairy
fali
falign
falkland
fall
fallback
false
fame
families
family
famname
famous
fan
fang
fantlab
fao
faq
far
faraday
faragher
fargs
farm
faroe
faroesoccer
farsi
farther
fascism
fashion
faso
fast
faster
fastest
fatal
fatum
favor
favorite
fb
fbtbl
fc
fd
fdate
fdc
fe
feature
featured
features
feb
february
federal
federated
federation
federer
feedback
feel
feels
feet
fellow
fellowship
female
feminism
feng
fer
festivals
fetch
fetches
fetchlanguagename
fetchlanguagenames
fetchvalue
fetchwikidata
fetchwikidataurl
feuilles
few
ff
ffa
ffc
ffe
fff
ffff
ffffff
fg
fh
fi
fiatquote
fiction
field
fieldname
fields
fieldsi
fieldsindex
fifa
fifth
figs
figure
figures
fiji
fil
file
fileargs
fileexporter
fileflags
fileimporter
filename
files
fill
filled
filler
film
filter
filterbyrank
filtered
fin
fina
final
finally
financial
find
findings
findlang
findname
findnamespaceid
finds
fine
finish
finished
finland
finnish
fire
first
firstchar
firstn
firstpostfix
fis
fish
fisheries
fishes
fit
fiu
five
fix
fixchildboxes
fixed
fixedargs
fixing
fixme
fixup
fixups
fj
fk
fl
flag
flagbegindate
flagcurrent
flagged
flagimage
flagimagestatement
flagioc
flags
flap
flash
flashscore
flemish
flex
flip
flipped
float
floatstyle
flood
floor
florian
florida
flow
flower
flowers
fluid
fm
fmbox
fmongolian
fmt
fmtout
fn
fo
focus
focused
focusing
fold
folders
folk
folklore
follow
followed
following
followqid
follows
font
fontcolor
fontsize
fontstyle
foo
food
foot
football
footballdatabase
footballfacts
footer
footnote
footnotes
for
foradejogo
forall
force
forced
forces
ford
forecasts
foreign
forest
forests
forget
form
formac
formal
format
formatattributes
formatdate
formatdateimpl
formatfile
formatjson
formatlink
formatnegative
formatnum
formatnumber
formatproperty
formatpropertydefault
formatpropertywithmostrecentclaimandindicator
formatrefs
formats
formatsnak
formatspattern
formatstatement
formatstatementdefault
formatted
formattedcaption
formattedstatement
formatter
formatting
formatvalue
formdate
formed
former
forms
formula
formulæ
forrester
forrow
forsee
forseeargstotable
forseestr
forseetable
forseetabletostring
fortable
forth
fortnight
forty
forum
forward
fossil
found
foundation
foundations
four
fourth
fox
fr
fra
frac
fracpart
fraction
fracture
fragment
fragments
fraktur
frame
framek
frameless
frameonly
framework
franc
france
francis
francisco
frank
franklin
franz
fraser
fraternity
frederick
fredericton
free
freedom
freezes
french
frequency
frequently
freshwater
frhdkazan
fricative
fricatives
friday
friedrich
friendly
frisian
fro
from
front
frontier
frp
frr
frs
fru
fruit
fs
ft
ftable
ftin
fu
fuel
fulfulde
full
fullargs
fuller
fulllink
fullname
fulltext
fullurl
fully
func
funcname
function
functional
functionality
functioning
functions
functiontocall
fund
fundamental
funding
fundraiser
fundraising
funds
fungus
fur
further
fussballdaten
futuna
future
futures
fy
g
ga
gabi
gabon
gabriel
gadget
gadgets
gaelic
gagarin
gah
gal
galaxy
gale
galego
galen
gali
galilei
galileo
galleries
gallery
gallerybox
gallon
gallons
gambia
game
games
gan
gandhi
ganges
gao
gap
gaps
garci
garden
garros
gars
gas
gasoline
gastroenteritis
gastrointestinal
gate
gateway
gather
gaulle
gauss
gavin
gaw
gazette
gazetteer
gb
gbaya
gbe
gbr
gc
gco
gd
ge
gelao
gen
gende
gender
genealogical
genealogy
general
generally
generals
generate
generated
generatedcolour
generates
generation
generational
generator
generic
genesis
genetics
genghis
genigraves
genitivusmonthesnm
genitivusmonthesom
genji
genko
genre
geo
geoffrey
geographic
geographical
geography
geohack
geological
geology
geomask
geometria
geometry
geor
georg
george
georges
georgia
georgian
gera
gerald
german
germanic
germans
germany
ges
gesammelte
geschichte
gestational
get
getallstatements
getargnums
getargs
getbeststatement
getbeststatements
getbigrandom
getboolean
getcategory
getcategorybycode
getcode
getcommonslink
getcontent
getcontentlanguage
getcurrentframe
getcurrenttitle
getdate
getdates
getdescription
getentity
getentityidforcurrentpage
getentityobject
getenvironment
getexpandedmessage
getexports
getimagename
getitemlangcode
getlabel
getlabelbylang
getlabelwithlang
getletters
getlevelinfo
getlink
getmapparams
getmetatable
getnamespaceparameters
getopt
getpageobject
getparam
getparameters
getparammappings
getparent
getparentsinboundariessnakimpl
getpeopleaswikitext
getplain
getpropertyids
getpropofprop
gets
getsingle
getsitelink
getsourcingcircumstances
getsumofparts
gettimeboundariesfromqualifier
getting
gettitle
gettitleobject
gettysburg
getunixtimestamp
getuserfunction
getvalue
getvaluebylang
getvaluebyqual
getvaluefromsnak
getzoom
gev
gewa
gez
gf
gg
ggy
gh
ghana
ghz
gi
giang
gibraltar
gif
giles
gill
giovanni
girl
gis
git
github
give
given
gives
giving
gj
gje
gl
glag
global
globalization
globals
globalsiteid
globalsportsarchive
globe
glossary
glottal
glottalized
gm
gmatch
gmol
gn
gnd
go
goal
goals
gob
god
goes
gogh
going
gold
golden
golf
gondi
gone
gong
gonm
good
google
gordon
gorges
gorie
gost
got
gottfried
gov
governance
governing
government
governor
govpubs
goya
gpc
gps
gr
grab
grade
grader
gradient
grain
gram
grammar
grams
gran
grand
grandchild
grant
granted
grants
graph
graphics
graphs
grateful
grave
gravitation
gray
grc
great
greater
greatest
grebo
greece
greek
green
greenland
greetings
gregorian
gregorianyear
gregory
grek
grenada
grenadines
grey
grid
gridcolor
ground
group
groupby
groupcell
groupdata
grouped
groupelements
grouping
grouplabel
grouplist
groups
groupsgroups
groupstyle
groupwidth
growth
gruyter
gs
gsm
gsub
gsw
gt
gtg
gu
guadalajara
guadeloupe
guam
guarani
guarantee
guatemala
gubin
gue
guernsey
guerre
guevara
gui
guiana
guidance
guide
guidelines
guides
guillaume
guinea
guitar
guiyang
gujr
gula
gun
guo
gupta
gurion
guru
gustav
gutenberg
guyana
gv
gw
gy
gymnosperm
gyr
h
ha
haa
hack
had
hagia
haifa
haiti
haitian
hak
hakka
half
haliaeetus
halifax
hall
hambleton
hamburg
hamburger
han
hand
handball
handbook
handle
handled
handler
handlers
handlersk
handles
handling
hands
handy
hang
hangout
hangul
hani
hanja
hannodata
hannolabels
hannolines
hano
hanoi
hans
hant
hantsport
hanunoo
hanyu
happen
happening
happens
happy
har
harassment
harbin
hard
hardcover
harold
harper
harris
harry
harv
harvard
harvc
has
hasadditionalqualifiers
hash
haspreferred
hat
hatnote
hatr
hausa
havasupai
have
haven
having
hawai
hawaii
hawaiian
haystack
hdl
hdr
he
head
headache
header
headercolor
headers
headerstyle
headertext
heading
headings
headingstyle
health
healthy
hear
heard
heart
hearth
heavenlynum
heavenlytable
hebr
hebrew
hectare
hedgehog
hegel
hei
heian
height
hel
held
helena
hello
helnij
help
helped
helper
helpful
helping
helps
helptext
helsinki
hemisphere
hen
henry
hepaticus
hepburn
herbermann
herbert
here
herer
heritage
hernani
heroes
herzegovina
herzog
hex
hexcomponent
hexstring
hextodecimal
hey
hf
hh
hi
hickey
hidden
hiddencat
hide
hieroglyphs
high
highbeam
higher
highest
highland
highlight
highlighted
highlighting
highlights
highly
highway
hill
hills
him
himalaya
himalayas
himera
hin
hindi
hindko
hindu
hinduism
hira
hiragana
his
hist
histoire
historia
historians
historic
historical
historically
histories
history
historylink
historyofparliament
hit
hitchcock
hitler
hits
hittite
hiw
hja
hk
hkey
hkg
hlist
hlt
hm
hmng
hmnp
hmong
hms
hn
hnj
hnoptions
ho
hob
hockey
hohhot
hokkien
hokkienipa
hol
hold
holdfast
holding
holds
hole
holiday
holocaust
holocene
holy
home
homeland
homepage
homer
homme
homo
honduras
hong
honorem
honours
hoo
hop
hope
hopkins
horim
horizontal
horn
horse
horsepower
host
hostdelimeterposition
hosted
hosting
hostname
hoststartposition
hot
hour
hours
house
how
howard
howe
however
hp
hpt
hr
hrac
hrsg
hrvatski
hs
hsb
hsdpa
hsn
hsupa
ht
htm
html
htmlbuilder
http
https
hu
hua
huang
huave
hub
hubo
hue
huge
hugh
hughes
hugo
huishui
human
humanities
humans
hun
hundreds
hundredweight
hung
hungarian
hungary
hunt
hunting
hus
hy
hymenoptera
hyphen
hyphenated
hyphens
hyy
hz
i
ia
ian
iana
iat
ib
ibdb
ibid
ibn
ibox
ic
ice
iceland
ich
icon
icondata
icons
id
idaho
idaslabel
idea
ideal
idealab
ideas
ident
identical
identification
identified
identifier
identifiers
identify
identities
identity
ideograph
idiom
idioma
ido
ids
idx
idxformat
ie
ietf
if
ifugao
ig
igbo
ignore
ignored
ignoring
igor
ihp
ii
iii
iir
ija
iji
ik
ikke
il
ill
illinois
illustrated
ilo
ilyushin
im
image
imageargs
imagecell
imagecelldiv
imageclass
imagecount
imagediv
imageemptycell
imageemptycellstyle
imagefilename
imageleft
imageleftcell
imagelink
imagelinks
imagemap
imagenumbers
imageright
imagerightcell
imagerightnone
images
imagesi
imagesize
imagestyle
imagetable
imagined
imax
imbox
imc
imdb
img
immediate
immediately
immense
immigration
immune
imp
impact
imperial
imperialism
imperii
imperium
impgal
implement
implementation
implemented
implementing
implements
implications
implied
implosive
import
importance
important
imported
impoz
impression
improve
improved
improvement
improvements
improving
in
ina
inactivated
inactive
inc
inca
inch
inches
include
included
includemetatable
includes
including
inclusive
incorrect
incorrectly
increase
increased
increasingly
increment
incrementargnumber
incumbent
ind
indef
indefinite
indefinitely
indent
independence
independent
index
indexed
indexer
indexes
indexing
india
indian
indiana
indianlocos
indic
indicate
indicated
indicating
indicator
indicators
individual
individuals
indo
indonesia
indonesian
indus
industrial
industry
ine
inext
infinite
infinity
influenza
info
infobox
infoboxen
infoboxes
infoboximage
infoboxstyle
infocardclass
infocards
infocardtemplate
inform
information
informed
infrastructure
infty
inhabitant
inhabitants
inherit
ini
init
initial
initialise
initialize
initially
initials
initiative
initindex
initpos
inline
innen
inner
innerradius
inno
innovation
inout
input
inputs
inputyear
inscriptional
insect
insecta
insects
insee
insensitive
insert
inserted
inserter
insertfromsnak
inserting
inset
inside
inspire
inst
installed
instance
instead
instid
institut
institute
institution
institutions
instructions
int
integer
integers
integrated
intelligence
intended
inter
interact
interaction
interactive
interest
interested
interface
interior
interlanguage
interlingua
interlingue
intermediate
internal
international
internationalization
internet
internetarchivebot
interpolate
interpretation
interpreted
interval
interview
interviewer
interviewerlist
interviewers
interwiki
intestine
into
intonation
intro
introblurb
introduce
introduced
introduction
introfragment
inuktitut
inv
invalid
invariant
inventor
inverse
inversed
inversion
invert
inverted
investigations
invisible
invitation
invite
invited
inviting
invocation
invoke
invoked
invoking
involved
inyear
inz
io
ioa
ioc
ios
iowa
ip
ipa
ipairs
iparm
ipart
iphone
iprage
iptv
ipv
ir
ira
iran
iranian
iraq
irc
ire
ireann
ireland
iri
irish
irl
irn
iron
irrigation
is
isaac
isangle
isbc
isblank
isbn
isbns
iscomplex
iscountry
isempty
isfana
isfdb
isfirst
isgrey
ish
isi
isinteger
isinv
isinversed
islabel
islam
islamic
islamicmult
islamicsub
island
islande
islands
islatinrange
isle
islist
ismn
isn
isnegative
isnotblank
isnotempty
isnumbers
iso
isodisplaynames
isolated
isoname
isonames
isprotected
isquote
israel
israeli
israelite
israelites
isredirect
iss
issandbox
issmall
issn
issubpage
issubsting
issue
issued
issues
ist
istalkpage
istanbul
istemperature
istemplatepage
istemporary
istestpage
isthmus
isu
isunion
iswarning
isxn
iszero
it
ita
ital
italian
italiani
italiano
italic
italicize
italicizepage
italicizesection
italics
italictitle
italy
item
itemid
items
iterate
iterator
itinerary
itneg
ito
its
itself
iu
iv
ivoire
ivory
iw
iwidth
ix
izh
j
ja
jack
jackson
jacob
jacques
jaffa
jahren
jainism
jaipur
jakarta
jalisco
jam
jamaica
jamaican
james
jan
janeiro
janhunen
janssen
january
japan
japanese
japaneseyeartext
jargal
java
javanese
javanesemult
javanesesub
javascript
jd
jdn
jdz
je
jean
jeffrey
jenna
jer
jeremiah
jersey
jerusalem
jesus
jethrobt
jewish
jews
jfm
ji
jia
jie
jilin
jim
jimmy
jin
jing
jinzhou
jm
jn
jo
job
jobs
joe
joel
johan
johann
johanna
johannes
john
johns
johnson
johnston
join
joining
joins
jointtext
jonathan
jones
jordan
jorge
joseph
joueur
joule
journal
journalism
journals
journey
jp
jpeg
jpg
jpn
jr
js
json
jsp
jst
jstor
ju
juan
juche
judah
judaism
judeo
judith
judoka
juha
juice
jukoff
jul
julian
juliancomment
julius
july
jun
june
juniperus
jupiter
jussi
just
justice
justify
juǀ
jv
jyutping
k
ka
kaapor
kaba
kadazan
kaganer
kai
kaiyr
kala
kalaallisut
kali
kalima
kalinga
kaliyuga
kalmyk
kamakura
kan
kana
kandidieren
kandidiert
kanji
kannada
kansas
kanum
kanuri
kao
kar
kara
karachi
karcher
karen
karl
karo
karta
kartposisjon
katakana
katana
kategori
kategoria
kategorie
kategorija
kathmandu
kayah
kayan
kazakh
kazakhstan
kb
kba
kbd
kcal
kci
ke
keegan
keep
keeping
keeps
keith
kelen
kelly
kelvin
ken
kennedy
kenneth
kenning
kentucky
kenya
kept
keqota
kern
kerstin
kettunen
kev
key
keyboard
keyhole
keynes
keypos
keys
keyword
keywords
kg
kgco
kgf
kh
kha
kham
khan
khar
khm
khmer
khmr
khoj
ki
kids
kiko
kilimanjaro
kilocalorie
kilocalories
kilogram
kilograms
kilojoule
kilojoules
kilometer
kilometers
kilometre
kilometres
kilomole
kilomoles
kilotonne
kilowatt
kim
kind
kindly
kinds
king
kingdom
kingdoms
kings
kinnauri
kinshasa
kir
kiribati
kirsten
kits
kitts
kj
kjv
kk
kl
klein
klotter
kludge
km
kmol
kn
knda
knot
know
knowledge
known
knows
knum
ko
kodansha
koe
koh
kok
kol
kolega
kolkata
komanda
komi
kong
kopi
kor
kore
korea
korean
korkeakoulu
koro
korol
koryo
kosovo
kota
kp
kpa
kpc
kpelle
kr
krc
kreuze
kriol
krit
krl
ks
ksh
ksi
kt
kthi
ku
kui
kuku
kun
kunrei
kurdish
kurumba
kuwait
kv
kven
kw
kwa
kwh
kx
ky
kyo
kyr
kyrgyz
kyrgyzstan
kyu
kyujitai
kz
kʟ
l
la
labd
label
labeldiv
labelled
labelledby
labeln
labelorid
labels
labelstyle
labial
labio
labiodental
labor
labour
labrador
lacey
lack
laconia
lad
ladino
laea
lagos
laka
lake
lakes
lam
lama
lamb
lambda
lambrecht
lan
lana
land
lands
landscape
lang
langcode
langentity
langentityid
langobj
language
languages
langue
lanka
lao
laoo
laos
large
largely
larger
largest
last
lastfirst
lastfirsttable
lastheader
lastn
lastnum
lasts
lastspan
lat
late
later
lateral
latest
latestdatequalifier
latex
latf
latin
latitude
latn
latter
latvia
latvian
lau
launched
law
lay
laydate
layer
layformat
layout
laysource
layurl
lazily
lb
lbco
lbf
lbfft
lbl
lbm
lbmol
lbn
lc
lccn
lcwt
ld
ldots
le
lea
lead
leader
leaders
leading
league
leap
learn
learned
learning
least
leave
leaving
lebanon
leben
lecture
lectures
led
lee
left
lega
legacy
legal
legend
legends
legislative
legitimate
leibniz
leiden
leipzig
leipziger
lele
lemon
len
length
lengua
lenin
lenke
leo
leonard
leonardo
leone
leonhard
leonidas
lepc
lepus
les
lesotho
less
lesson
let
lets
letter
letterdigit
letterpos
letters
lettres
letzten
levant
level
levels
leveltext
levskisofia
lewis
lexicon
lexikon
lexington
lezgistxa
lg
lha
lhasa
lhs
li
lia
liaison
liaoning
lib
liberal
liberalism
liberia
liberty
libraries
library
libraryutil
libya
license
licensed
lida
liechtenstein
lies
lietuviu
life
lifetime
light
lightgray
ligurian
lij
like
likely
lille
lim
limb
limit
limitations
limited
limits
lin
lina
linb
lincoln
linda
lindu
line
linear
lines
linescale
linewidth
linewidths
lingua
linguistic
linguistics
linguolabial
link
linkbox
linkcurrent
linkdata
linked
linkedid
linkedin
linkeditem
linkey
linking
linkn
linkprefix
linkprev
linkredir
links
linn
lipos
liquidthreads
list
listcell
listclass
listed
listen
listi
listing
listitem
listitems
listk
listnum
listofprofessions
listparam
lists
listsi
liststyle
liststyletype
listtotext
listtype
lisu
lit
liter
literal
literary
literature
lithuania
lithuanian
litre
little
liu
liv
live
liver
lives
livescience
liveweb
living
lja
lk
ll
ller
lli
lloyd
lmc
lmo
lmz
ln
lner
lo
load
loaddata
loaded
loader
loadi
loading
lob
lobus
loc
local
localcaption
localisation
localization
localize
localized
locally
localval
localvalue
located
location
locations
lock
locke
locmap
locomotive
locomotives
locosgwr
locoslner
log
logged
logic
login
logo
logobject
logos
loi
lokacijska
lom
loma
lon
london
long
longer
longitude
longrightarrow
longscale
look
looked
looking
looks
lookup
loop
lord
lorimer
lorme
los
lost
lot
lothar
louis
louisbourg
louisiana
louvre
lov
love
loves
low
lowb
lowell
lower
lowercase
lowland
lp
lpost
lpre
lqn
lr
ls
lsa
lsi
lt
ltd
lte
ltf
ltg
lu
lua
luaargs
luacode
luamain
lucia
ludwig
lue
luebke
lum
luna
lund
luo
luri
luther
luxembourg
luxemburg
lv
ly
lydi
lydia
m
ma
maarten
mac
macau
macc
maccabees
macedonia
macedonian
mach
machine
macht
mack
mackinnon
macmillan
macro
macrolanguage
mactutor
mad
madagascar
made
madrid
mag
magazine
magazines
magic
magnetic
magnetizing
magnitude
magt
magyar
maha
mahabharata
mahal
mai
maiden
mail
mailing
mailinglist
mailto
main
maincat
mainform
mainly
mainpage
mainsnak
mainspace
mainstream
maint
maintain
maintained
maintenance
major
majority
mak
make
makebannertext
makecategorylink
makeextra
makefullurl
makeinvokefunc
makeinvokefunction
makelist
makemessagebox
makeordinal
makerandomlist
makes
makeseparator
makestartboxdata
makestartboxlinksdata
maketext
maketitle
maketoolbar
makeurllink
makewikilink
makewikitexterror
makewrapper
makhuwa
making
makq
mal
mala
malagasy
malaria
malawi
malay
malayalam
malayo
malaysia
maldives
male
malformed
mali
mall
malline
malnutrition
malta
malti
malvinas
mammal
mammals
mamre
man
management
manager
manchu
manchukuo
mand
manda
mandaic
mandarin
mandela
mani
manipuri
manitoba
manobo
mantissa
manual
manually
many
mao
map
mapa
mapdataname
mapframe
maplandia
maplink
mapname
mappage
mapped
mappings
mappingskey
maps
mapshow
mar
marathi
marc
march
marco
mare
margaret
margin
marguments
mari
maria
mariae
mariana
marie
marilyn
marine
marino
marion
maritime
mark
markargs
marked
marker
markers
market
markhigh
markimagediv
marklabeldiv
markouterdiv
marks
marksize
markup
markus
marlene
marriage
marshall
martial
martin
marwari
marx
mary
mas
mashan
mashi
mask
maskitem
maskitemid
maskitems
masklabel
masklabels
maskn
masktype
mason
masonry
mass
massachusetts
massmessage
master
match
matchany
matched
matches
matchesblacklist
matching
material
materials
math
mathbb
mathbf
mathematical
mathematics
mathrm
mathsf
matter
matthew
mauritania
mauritius
maury
max
maxarg
maxbiohazard
maxdiff
maxfile
maximum
maxlen
maxlistlen
maxn
maxportals
maxsigfig
maxtoday
maxvals
maxwell
maxwidth
may
maya
mayan
maybe
mayo
mazatec
mb
mbox
mbq
mc
mcal
mccune
mcdonald
mcg
mcgill
mci
mckay
mcode
md
mda
mdennis
mdf
mdy
me
mea
meadow
mean
meaning
means
meant
measurement
mecca
mechanical
mechanics
mechon
med
medal
medals
media
median
mediawiki
medical
medicine
medieval
mediterranean
medium
meet
meeting
meetings
meets
mega
megacalorie
megara
megatonne
mehr
meiji
melanau
melayu
meles
mellitus
member
members
memoized
memorial
men
mend
mende
mendeleev
menk
menstruation
mental
menu
mer
merc
mercury
merg
merge
merged
mergedtoprow
merke
merkel
mero
meroitic
merriam
merton
mesopotamia
messa
message
messagebox
messagename
messages
messaging
messenia
met
meta
metaargs
metaargskey
metabolism
metadata
metal
metatable
meter
meters
method
methods
metre
metres
metric
metrics
metropolitan
mev
mexico
mf
mg
mh
mhatlist
mhatnote
mhr
mi
mia
miao
michael
michelangelo
michigan
micro
microformat
microformats
micronesia
microsoft
mid
middle
midnight
midpoint
mien
mig
might
migrate
migration
miguel
mikhail
mil
mile
miles
milestones
military
milk
millennium
miller
milliard
millicalorie
milliliter
millilitre
millimetre
million
millions
min
mind
mindiff
mineral
miners
minerva
ming
minguo
minguoyear
mini
minim
minimize
minimum
minister
ministry
minlength
minnesota
minor
minuetto
minus
minut
minute
minutes
mirror
mis
miscellaneous
mise
mismatch
miss
missa
missed
missing
missinginfocat
mission
mississippi
mit
mittelbayerische
miwok
mix
mixe
mixed
mixtec
mixtepec
mj
mk
mkd
ml
mlb
mln
mlt
mlym
mm
mmmm
mmol
mn
mnc
mnt
mo
mobile
mobility
mobygames
mod
mode
model
models
modern
moderna
modes
modf
modi
modified
modifier
modify
modifying
modul
module
modulelanguages
modules
moduletitle
moduleurl
moeda
moires
mol
molar
moldova
mole
molecular
moles
molie
moll
mollusca
moment
mon
monaco
monarchy
monastery
monday
monde
money
mong
mongol
mongolia
mongolian
mongolic
mongols
mongolunicode
mongorugo
monitoring
mono
monobook
monolingual
monolinguallangtemplate
monolingualtext
monospace
monr
monroe
montage
montenegro
month
monthgm
monthly
months
montreal
montserrat
moon
moons
mor
more
moreargumentsexist
morning
moroccan
morocco
morphological
morphology
morton
mos
moscow
mosque
mosquito
most
mostly
mother
motorsportstats
mount
mountain
mountains
mouseover
move
moved
movement
movements
moves
movie
moving
moz
mozambique
mp
mpa
mpc
mpgimp
mpgus
mph
mps
mr
mrj
mro
mroo
mru
ms
msa
msg
mshared
msk
msn
msr
msw
mt
mtabletools
mtei
mtext
mttnt
mtx
mu
much
muhammad
mult
multi
multilingual
multimedia
multiple
multiplier
multiply
multipolygon
mumbai
munda
mundo
mune
municipal
municipality
mur
murder
muromachi
murray
murteista
murut
mus
muscle
muse
museum
music
musical
musicbrainz
musicians
musik
must
mutual
muz
mv
mvf
mw
mwh
mww
mx
my
mya
myanmar
mycenturynum
mycenturystring
mydecade
myeongseong
myera
mylanguage
mymr
myr
myspace
mystery
mythology
myv
n
na
nach
nachrichten
nacional
nacl
naga
nah
nahuatl
nai
nairobi
nam
name
namecode
named
namelist
nameliststyle
names
namesenum
namesep
namesi
namespace
namespacefragment
namespaces
namesx
namibia
namibian
namibiana
naming
nan
nanakshahi
nand
naoh
nap
napole
napoleon
narb
narrative
nasa
nasal
nat
nathan
nation
national
nationale
nationalism
nations
native
nativity
nato
natural
nature
nauru
nautical
nav
navbar
navbox
navboxclass
navboxdata
navboxes
navigation
navigational
navn
navseasoncats
navy
naxi
nazi
nb
nbat
nbk
nbsp
nbsps
nc
nca
ncbi
nchen
ncl
nd
nda
ndarg
ndargs
ndb
nde
ndebele
ndefaultlanguage
nder
ndigt
ndn
nds
ne
neal
near
nearest
nearly
nebraska
necessarily
necessary
nederlands
need
needed
needing
needle
needs
negative
neil
neither
nelson
nematode
nend
neo
nep
nepal
ner
nerve
nervous
nested
net
netherlands
network
neue
neutral
never
nevis
new
newa
newari
newclaims
newcomers
newer
newfoundland
newframe
newline
newlines
newly
newoptions
newparentsnaks
newrawmessage
news
newsgroup
newsletter
newspaper
newspaperarchive
newspapers
newton
nexistingcats
next
nextlabel
nf
ng
nga
nge
nh
ni
nic
nicaragua
nice
nichd
nicholas
nicht
nie
nietzsche
niger
nigeria
night
nih
nihon
nii
niklem
nikola
nil
nilargs
nilargskey
nile
nilorr
nin
nine
nineteenth
ninka
ninth
niosh
nir
nis
nissue
nisu
niu
niue
nkhangul
nkhanja
nkoo
nl
nla
nlm
nlr
nm
nmi
nmn
nn
nnn
nnot
no
noaa
noactive
noam
nobel
nobold
noborder
nobots
nocat
nocomma
node
nodes
noeditsection
noexpiry
noflip
noicon
nolink
nolinks
nominate
nominations
nominativeyear
nomobile
non
nonautoscaledimages
none
nonillion
nonillionth
nonillionths
nonzero
noon
nopp
nor
norbert
nord
noref
norfolk
normal
normalize
normally
norman
norra
norsk
north
northeast
northeastern
northern
northkorea
northwest
northwestern
norway
norwegian
nose
nospace
not
notable
notation
note
noted
notempty
notes
nothing
notice
notification
notifications
notified
notify
notifying
noto
notoc
notre
nov
nova
novalue
novavax
november
noviewer
now
nowiki
nowrap
nowrapitems
npages
nps
nr
nrdates
nrf
nrsv
ns
nscategory
nsdetectmodule
nsf
nshu
nsid
nsname
nstable
nstext
nstr
nts
nu
nuclear
num
number
numbered
numberflags
numbering
numberol
numbers
numdot
nume
numeral
numerals
numerator
numeric
numerical
numerically
numericarray
numerous
numparam
nums
numsep
numstr
numulunj
nunavut
nur
nut
nuvola
nv
nvolume
nw
nwt
ny
nya
nyasaland
nyc
nyi
nynorsk
nz
nzi
nzst
o
oaks
oar
oaxaca
obesity
obj
object
objective
objects
obscure
observed
obsolete
oc
ocaasi
occitan
occupational
occur
occurs
ocean
oceania
oceanographic
oceans
och
ocinsoutput
oclc
ocm
oct
octillion
octillionth
octillionths
october
od
odb
odd
oddeven
oddstyle
odes
odham
odia
odla
odnb
odontoceti
oe
oecd
of
off
offensive
offer
offered
offers
office
official
officially
offline
offset
ofi
often
oga
oganessian
ogg
oh
ohio
oil
oirat
oireachtas
ois
oj
ojibwa
ok
oku
ol
old
older
oldera
oldest
oliver
olson
olympiad
olympic
olympics
om
oma
omaha
oman
omargs
ombox
ombres
ombudsperson
omit
omitsep
omitted
omitzero
omn
on
once
one
ones
ongoing
online
only
onlycat
onlysourced
onlysrc
ontario
oo
oop
ooui
op
opacity
open
opened
opening
openlibrary
opera
operating
operation
operations
operator
opinion
opinions
opportunities
opportunity
oppose
opt
option
optional
optionalarg
optionally
options
optionsk
or
oran
orang
orange
orc
orchestra
ord
order
ordered
ordering
orderlist
orders
ordinal
ordsuffix
oremus
org
organic
organism
organisms
organization
organizations
organize
organized
organizing
orgelsolomesse
ori
orient
oriental
orientation
orig
origargs
origdate
origin
original
originally
originalurl
origink
origins
oriya
orkh
orlodrim
oro
oromo
orphan
orthodox
orthographic
orthography
orya
os
oscillation
osd
osge
osm
osma
osti
ostrobothnia
ot
other
others
othertext
otheruses
otherwise
otis
oto
otomi
ottawa
otto
ottoman
ou
ouji
ounce
ounces
our
out
outdated
outer
outerradius
outidx
outinfo
outk
outline
outlook
outpost
output
outputs
outputsk
outreach
outside
outtype
outvalue
over
overall
overflow
overland
overlap
overlay
overlays
overridden
override
overrides
overrightarrow
overview
overwrite
overwritten
owl
own
oxford
oy
oyun
oz
ozt
p
pa
pablo
pacific
package
pad
padding
padlock
page
pageid
pagename
pageobject
pages
pagetype
pagetypes
pageviews
pahari
pahawh
pahlavi
pai
paid
pair
pairs
pak
pakistan
palace
palaiologenzeit
palatal
palato
palau
palestine
palet
pali
palm
pam
pan
panama
pandemic
panel
paniscus
panjabi
pano
panorama
paper
paperback
papers
papua
par
para
paraflags
paragraphs
paraguay
paralympic
paralympics
param
paramaliases
parameter
parameterfuncs
parameters
params
paramsa
paramsenum
paranan
paraset
paren
parens
parensize
parent
parentargs
parententities
parentfirst
parentheses
parenthetical
parentonly
parentoptions
parentsnak
parentsnaks
pargs
parhae
paris
park
parks
parliament
parm
parms
parmsi
parse
parsed
parseddate
parsedtime
parseinput
parseiso
parseparam
parser
parserfunctions
parsetimefromsnak
part
parthenon
partial
partialtext
participants
participate
participated
participating
participation
particular
particularly
partly
partners
partnerships
parts
party
pashai
pashayi
pashto
pass
passed
passenger
passer
passes
password
passwords
past
pasteur
pat
patent
path
pathoschild
paths
patrick
pattern
patterncombined
patterni
patternlatin
patterns
patternspattern
patternterminated
paul
paulo
pay
pbs
pc
pcall
pcgn
pct
pd
pdc
pdf
pdt
pe
peace
peakbagger
pearce
peasant
peck
peer
pei
peirce
pen
pencil
pendant
pending
penguin
pennsy
pennsylvania
people
peoples
per
percent
percentage
perch
percode
percussive
perennis
perepis
perform
performance
performed
perhaps
period
periodic
periodical
periodically
periods
perl
perm
permanently
permission
permissions
permitted
perrow
perrowr
persia
persian
persistentgrey
person
personal
personname
personnametoauthorname
personnametoresponsiblename
persons
perspective
perspectives
pertext
peru
peter
petersburg
petit
petr
petroleum
petrov
pev
pf
pfizer
pfl
pframe
pfuncname
pg
pgs
ph
pha
phaa
phab
phabricator
phags
phagspa
phalacrocorax
pharmaceutical
pharyngeal
phase
phfs
philadelphia
philip
philippine
philippines
philosophers
philosophie
philosophy
phli
phlp
phnom
phnx
phoenix
phone
phonetic
phonetics
photo
photocount
photographic
photographs
photos
photosynthesis
php
phrases
phu
physical
physics
pi
pic
pica
picalt
picasso
piccap
pick
picsize
pictooltip
picture
pictures
picupright
pid
pidgin
pidgins
pie
piece
pierre
pig
pigeons
pih
pilgae
pilot
ping
pink
pint
pintscher
pinus
pinyin
pipe
piped
pipes
piro
pitcairn
pitch
pj
pk
pl
place
placed
placeholder
placeid
places
plain
plaindata
plainidx
plainlinks
plainlist
plainnavboxes
plains
plan
plane
planet
planets
planned
planning
plans
plant
planter
plantilla
plasmodium
platform
platforms
plato
play
player
playerid
players
playmarkerstats
plays
please
pleased
plen
pli
plosive
plot
plotarea
plotdata
plotmarks
plotter
plrd
plural
pluralform
plus
plutarch
pm
pmc
pmid
pmids
pms
pn
pnb
pneumonia
png
pntype
pnum
po
pod
podcast
poe
poem
poetry
poets
pog
pohjanmaa
point
points
poj
pol
poland
polandball
polar
pole
policy
poliomyelitis
polish
political
politics
politik
politische
poll
polo
polska
polski
polygon
polynesia
polynesian
polyteknillinen
pomo
pomoc
pona
pondemaat
pont
poor
pop
popoloca
popoluca
popular
populatedatafromclaims
populates
population
por
porpoises
port
portal
portalbox
portalmodule
portals
portion
portions
portrait
portraits
portugal
portugue
portuguese
pos
position
positional
positions
positive
possible
possibleage
possibledatestring
possibly
post
postalveolar
posted
postfix
postfixdelimeterposition
posth
posthash
posthumous
posting
postponed
postscript
potato
potential
potentially
pound
pounds
pow
power
powerful
pp
ppelberg
ppm
pr
pra
practice
practices
prairie
pray
prayer
prc
pre
prec
precedence
preceding
precision
predefinic
predloga
prefer
preference
preferences
preferids
preferred
prefix
prefixed
prefixedtext
prefixes
prefixtable
prefsection
pregnancy
pregnant
prehash
prehistory
preload
preludio
prepare
prepared
preparing
preprint
preprocess
preprocessargs
preprocesssinglearg
present
presentation
presented
preserve
preset
presets
president
press
pressure
presumably
presume
pretitle
pretty
preunit
preunits
prev
prevendyear
prevent
prevents
preview
previews
previous
previously
prevlabel
prevp
prevqid
pri
primarily
primary
primate
prime
prince
princeton
principal
principe
principia
principles
print
printed
printing
prior
priorities
prioritize
priority
prison
privacy
private
privileged
prize
prizes
pro
probability
probably
problem
problems
process
processed
processes
processing
processitem
processportalargs
prod
produce
produced
produces
product
production
prof
professional
professionslist
professor
profil
profile
profiles
profit
program
programme
programming
programs
progress
progressive
project
projection
projects
proleta
promised
promodj
promote
pronunciation
proof
prop
propaganda
proper
properly
propersign
properties
property
propertyid
propertyids
propertyparams
propertyparamskey
propertyselector
propertyvalueandquals
proposal
proposals
propose
proposed
proposes
props
proptbl
propval
propvalue
prose
prosopographisches
prospects
prot
protect
protected
protection
protectionblurb
protectionblurbs
protectioncategories
protectiondate
protectionlevel
protectionlevels
protectionlevelsaction
protectionlog
protectionobj
protein
protestant
protist
proto
protocol
prototype
prototypes
protruded
provenc
provide
provided
provides
providing
province
provincial
provisional
prr
prti
ps
pseudo
psf
psi
psp
psychology
pt
ptolemy
ptr
pu
pubentity
public
publication
publicationdate
publicationplace
publications
publish
published
publisher
publishername
publishers
publishing
puccini
puebla
puerto
pulitzer
pump
punan
punct
punctuation
punjabi
purge
purgelink
purnima
purple
purpose
purposes
pusa
puscule
put
puts
puzzle
pv
pval
pw
pwo
px
py
pygmy
pyramid
pywikibot
pywikipedia
pywikipediabot
q
qa
qatar
qi
qia
qian
qid
qids
qin
qing
qinu
qiqihar
qlcode
qlist
qn
qnotlaterthan
qnotsoonerthan
qnumber
qqualid
qt
qtr
qtype
qu
quad
quadrillion
quadrillionth
quadrillionths
quadrimester
quail
qual
qualid
qualified
qualifier
qualifierid
qualifierids
qualifiername
qualifierpropertyid
qualifiers
qualifiervalue
quality
quals
quantities
quantity
quantum
quart
quarter
quatrevingt
que
quebec
quechua
queen
query
quest
question
questions
qui
quichua
quick
quickfacts
quickly
quickpcall
quiddity
quintillion
quintillionth
quintillionths
quotation
quotations
quote
quoted
quotelang
quotepage
quotepages
quotes
quoteunquoted
quotient
qux
qv
qval
qvals
qvalue
qya
qırımtatar
r
ra
rables
racing
rad
radiation
radio
radius
radiusscale
rafael
rai
rail
railroad
railroads
railway
railways
rain
raised
raiseerror
ram
ramme
ran
random
randomizes
randomseed
randomslideshow
range
ranges
rangesindex
rangeslatin
rank
ranked
ranking
ranks
raphael
rare
rarely
ras
rata
rate
rathaus
rather
ratification
ratings
ratio
rationale
raw
rawdata
rawexpiry
rawget
rawrule
rawset
ray
raymond
rayons
rb
rcts
rd
re
reach
read
readability
readable
reader
readers
reading
readings
reads
ready
real
realgm
reality
really
realtime
reason
reasons
reasontext
receive
received
receives
recent
recentchanges
recently
recipients
recognised
recognition
recognize
recognized
recommend
recommendations
recommended
reconstruction
record
recorded
records
recreation
rect
recursive
red
redirect
redirected
redirects
redlinks
reduce
reduced
redundant
reef
rees
ref
refanchor
refanchoryear
refer
referee
reference
references
referencing
referendum
reflist
reform
reformat
reformation
reformatted
reformatter
reformatting
refresh
refreshed
refs
refugee
regarding
regardless
regards
regex
region
regional
regions
register
registered
registration
registry
regnal
regnalname
regular
rehe
reich
reign
rejang
relate
related
relatedentity
relation
relations
relationships
relative
relatively
relativity
release
released
releases
relevance
relevant
reliable
reliably
relief
religion
religions
religious
rem
remain
remainder
remaining
remainingbronze
remainingend
remaininggold
remainingsilver
remainingstart
remains
remaplang
rembrandt
remember
reminder
remix
removal
removalnotice
remove
removeblanks
removecolon
removed
removediacritics
removeidx
removes
removing
ren
renaissance
rename
renamed
render
rendered
rendering
renderlabel
renderlink
renderlist
rendernavbar
renderpercombatant
renders
rendersnak
renderstartbox
rendertrackingcategories
rene
renouveau
rental
reo
rep
repeat
repeated
repetitions
repl
replace
replaced
replacement
replacements
replaces
replacetext
replacing
reply
report
reported
reporting
reports
repository
represent
represented
representing
represents
reprint
reprinted
reproduction
reproductive
reptile
republic
republika
reqranks
request
requested
requests
requesttemplate
requesttype
require
required
requirements
requires
requiring
rer
res
research
reserved
reset
resian
residential
resolution
resolutions
resolve
resolved
resource
resourcedata
resourcedatas
resourceid
resourcelabel
resources
respective
respectively
respiratory
respond
response
responsible
respublika
rest
restoration
restore
restricted
result
resultclaims
resulti
resulting
resultlist
resultproperty
resultresultproperty
results
resultwikitext
ret
retain
reti
retracted
retrieved
retroflex
retrv
return
returned
returns
returnword
retval
reuse
reused
reuters
rev
reverse
reversed
revhep
review
reviewer
reviewing
reviews
revised
revision
revisions
revisionslider
revival
revived
revolution
revolutionary
rewritten
rfc
rfcs
rft
rgb
rgen
rhein
rhine
rhodes
rhodesia
rhs
ri
ria
riang
ric
rica
rice
rich
richard
rico
rid
rider
riders
right
rightarrow
rightleftarrows
rights
rings
rio
rise
risk
rit
river
rj
rjng
rk
rkc
rm
rmy
rn
rname
rnb
rnd
ro
roa
road
robert
robertson
robot
roc
rock
rockies
rocky
rod
rodent
roger
rohg
roi
roland
role
roles
rolfe
roll
rolling
rom
roma
romaji
roman
romani
romania
romanian
romanization
romansh
romanum
rome
rood
roosevelt
root
rosa
rose
rossiya
rostov
rotatable
rou
round
rounded
rounding
rounds
roundtable
roundto
routledge
row
rowargs
rowcellstyle
rowclass
rowcount
rowindex
rownum
rownums
rows
rowstyle
roy
royal
rozaj
rr
rs
rsa
rsl
rt
rterbuch
rtext
rtgs
rtl
ru
rue
rugby
rule
ruler
rulerend
rulerlink
rulerstart
rules
run
runa
runciman
rundfunk
runic
running
runr
runs
rup
rural
rus
rusijos
rusipa
ruslik
ruslit
rusr
russavia
russell
russia
russian
rutherford
ruwikisource
ruy
rv
rvalue
rw
rwa
rwanda
ryaku
s
sa
sacred
safe
safety
sah
sahara
said
saint
salmonella
salt
salvador
sam
sama
samaritan
samba
same
sami
samo
samoa
samoelin
sample
samr
samuel
samurai
san
sancti
sandberg
sandbox
sandboxes
sandboxlinks
sandboxpreload
sandboxtitle
sans
sanskrit
santa
santiago
sao
sapiens
sar
sara
sarah
sarb
sardinian
sargs
sars
sat
satellite
saturday
saturn
satyajit
sau
saudi
saur
save
saved
saw
saxon
say
says
sb
sbl
sbn
sbox
sc
scale
scaled
scalemajor
scales
scaletype
scaling
scan
scene
scf
schafer
schaff
schap
schatten
scheda
schedule
scheduled
scheme
schemedelimeterposition
schluss
scho
scholarly
scholarship
scholarships
school
schools
schubert
schulz
schwa
science
sciences
scientific
scientists
scn
sco
scope
scoresway
scotia
scotland
scots
scottish
screen
screens
screenshot
scribunto
script
scriptperiodical
scriptquote
scripts
scripttitle
scwt
sd
sdata
sdesc
se
sea
seal
seanad
search
searchable
searchengvar
searches
searching
seas
season
seasons
seats
sebastian
sec
second
secondary
secondpostfix
seconds
secret
secrets
sect
section
sectionname
sections
sectorcode
securepoll
security
see
seed
seeking
seekquote
seen
seg
segment
segoe
seimas
sein
select
selectclaims
selected
selectedsnakes
selecting
selection
selector
selectors
self
selfclosing
selfref
semestral
semi
semicolon
semicolons
semiconductor
semitic
sen
senate
send
sending
senegal
senoufo
sense
sensory
sent
sentence
sentenceterminated
seoul
sep
separate
separated
separately
separation
separator
separators
sepc
september
septillion
septillionth
septillionths
seq
sequence
sequences
sequential
ser
serbia
serbian
serebr
sergei
serial
serialcomma
serialization
series
serif
sers
serve
server
service
services
serving
servlet
ses
session
set
setcleanargs
setfield
setlink
setmetatable
setranks
sets
setting
settings
settlement
settlements
setton
setup
setyear
setyearrange
seven
sevens
seventh
several
sex
sexagenaryyear
sextillion
sextillionth
sextillionths
sexually
seychelles
sf
sfn
sfnm
sfnref
sg
sgnw
sgp
sgrabarczuk
sgs
sh
sha
shackle
shadow
shaft
shakasamvat
shakespeare
shaku
shale
shall
shallow
shanghai
shao
shape
shaped
shapes
share
sharealike
shared
sharing
shark
shaw
she
sheep
sheet
sheets
shenyang
shi
shift
shiki
shilla
shinjitai
ship
ships
shn
sho
shop
short
shortcut
shorter
shortname
should
shouldbe
shouldn
shouldshowpointmarker
show
showdab
showed
showflag
showing
showinvalidtypeerror
shown
shows
showsymbols
showvalues
shp
shtml
shu
shukman
si
siberia
sibilant
sibirica
sic
sich
sidd
side
sidebar
sidebars
sidney
sie
sieben
sierra
sies
sigfig
sign
signal
signes
significand
significant
signs
signup
signups
sil
sila
silesian
silver
sima
simi
similar
similarly
simon
simone
simple
simpler
simplified
simplify
simply
simulation
sin
since
sind
sinfonico
sing
singapore
singh
single
singular
singularform
sinh
sinopharm
sint
sio
siping
siprage
siprefixes
sir
siri
sister
sit
site
sitelink
sitelinks
sites
sitewide
situation
situations
six
sixth
size
sized
sizedefault
sizes
sizing
sjabloon
sjn
sk
skabelon
skater
skeleton
sketch
skew
skey
skhangul
skhanja
ski
skills
skin
skins
skip
sky
skyline
sl
slam
slang
slash
slavery
slavic
slavonic
sletcher
slightly
slink
slovakia
slovenc
slovene
slovenia
slovens
slow
slower
slowly
sm
small
smaller
smallest
smallparam
smallpox
smartphone
smg
smith
smithsonian
sn
snak
snake
snaks
snaktype
snow
snrttdh
so
soberana
sobor
soc
soccer
soccerbase
soccerdonna
soccerway
social
socialism
socialnetworkproperties
society
sock
socketpuppet
sod
soft
software
sogd
sogdian
sogo
sok
solar
soldier
solid
solomon
solution
solutions
solve
som
somalia
some
someone
something
sometimes
somevalue
somewhere
son
song
sonic
sonnets
sons
soon
sophia
sora
sorry
sort
sortable
sorted
sorting
sortkey
sortpadding
sortspan
sotho
sou
sought
soul
sound
soundcloud
source
sourcebook
sourced
sourceentity
sourceid
sources
south
southeast
southeastern
southern
southwest
southwestern
sov
soviet
sp
space
spaced
spaces
spacing
spain
spam
span
spancss
spanish
sparseconcat
spd
speak
speakers
spec
special
species
specific
specifically
specification
specified
specify
speculative
speech
speed
speedy
spell
spelled
spelling
spf
spider
spieler
spin
splat
split
spliti
spoken
sport
sports
spot
spotify
spp
spra
sprache
spread
spring
springer
sputnik
sq
sqbr
sqft
sqin
sqkm
sqmi
sqrt
sqry
square
squared
sqyd
sr
src
sri
ss
ssd
sse
sslist
ssr
ssrn
ssss
sst
st
sta
stack
stacked
staff
stage
stalin
stamp
stampa
standard
standards
stanford
stanley
star
stars
start
startbox
started
starting
startn
starts
starttimestamp
starttimestampunix
startyear
stas
state
stated
statehood
statement
statements
statementvalue
states
statesman
static
station
stations
statistical
statistics
statistik
stats
status
stay
std
ste
steam
steel
steele
step
stephen
sterbotten
sterling
steven
steward
stewards
stf
stiff
still
stone
stop
stopped
stops
store
stored
stores
stories
story
stq
str
strange
strategic
strategy
street
stress
strftime
strictly
string
stringarray
stringifylist
strings
strip
stripmarker
stripmarkers
stripped
striptonil
strlist
strodt
stroke
strokewidth
strong
strongly
strout
strpages
structure
structured
structures
struggle
strval
strvalue
stuart
stub
students
studied
studies
study
stuttgart
style
styled
stylein
styleout
styleratio
styles
styling
su
sub
subanen
subbox
subcellsk
subdiv
subdivision
subdivisions
subdivs
subgroup
subheader
subheaderargs
subheaderrowclass
subheaderstyle
subinfo
subject
subjectns
subjects
subjectspace
submission
submit
submitted
subpage
subpagename
subpages
subpagetrackingcategories
subrule
subrules
subs
subscribe
subscribed
subscription
subsequent
subset
subst
substantially
substitute
substituted
substituteparameters
substring
subtables
subtag
subtags
subtemplates
subtitle
subtract
subunit
succeed
success
successful
such
sudan
sudulul
suetonius
suez
sufficient
suffix
suggest
suggested
suggestion
suggestions
suitable
suite
sul
sum
sumer
summaries
summarizes
summary
summer
sun
sund
sundanese
sunday
suomen
suomi
sup
super
supl
supplement
supplementary
supplied
support
supported
supporting
supports
supposed
suppot
suppress
suppressed
suppressfields
suppression
supreme
sur
sure
suri
suriname
surname
surprised
surrounding
survey
surveys
survival
suspended
sustainability
sustainable
sutherland
suz
sv
sval
svenska
svers
svg
svn
sw
swahili
swap
swaziland
sweden
swedish
swiss
switch
switcher
switcherseparate
switching
switzerland
sword
swords
swz
sx
sy
sydney
syllable
sym
symbol
symbolmarks
symbols
symbolsshape
symbolsstroke
symlink
symshape
symshapescale
symsize
symsizescale
symstroke
symstrokescale
sync
syncing
synonym
syntax
synthesis
syracuse
syrc
syria
syriac
sysop
system
systematic
systems
sz
szablon
szl
t
ta
tab
tabari
table
tableargs
tablecode
tablei
tablemerge
tables
tabletools
tablets
tablevalue
tablevariant
tabs
tabula
tag
tagalog
tagb
tagbanwa
tager
tagname
tags
tah
tahiti
tai
tail
taipei
taisho
taiwan
taj
tajikistan
take
taken
takes
taking
takr
tale
tales
talk
talkargistalkpage
talkpage
talkpagename
talkpagetitle
talktext
talktitle
tall
tally
talu
tam
tamang
tamara
tamazight
tamil
taml
tan
tang
tanganyika
tangut
tank
tanks
tantallon
tanzania
taoiseach
tap
tapp
tara
tarahumara
tarask
target
targeted
targettitle
targs
task
taskforce
tasks
tasmanian
tat
tatar
tavt
tax
taxonomic
taxons
tay
taylor
tb
tbl
tca
tcats
tcoins
tcommon
td
te
tea
teach
teaching
team
teams
tech
technical
technology
techreport
ted
tehran
teke
teknillinen
tel
tele
telegram
television
tell
telu
temp
temperature
temperatures
templat
template
templatecat
templatecategory
templatecategoryrequirename
templatedata
templateeditor
templateerrorcategory
templatelink
templatename
templates
templatesort
templatestemplate
templatestyles
templatetitle
temple
temporary
ten
tend
tennessee
tennis
tenpyo
tens
tensho
tenuis
teo
ter
term
terminal
terminate
terminated
terms
terra
terrible
territorial
territories
territory
tesla
test
testament
testcases
testcaseslink
testcaseslinkdisplay
testcaseslinks
testcasespreload
testcasesrunlink
testcasesrunlinkdisplay
testcasestitle
testchar
tested
testfunc
testing
tests
tet
tev
tex
texas
text
textbook
textbooks
textcell
textcelldiv
textcolor
textdates
textmarks
textoptions
textpart
textpartbuffer
texts
textsproperties
textstyle
tf
tff
tfng
tfrac
tg
tga
tgl
tglg
tgr
th
tha
thaa
thackeray
thai
thailand
than
thank
thanks
tharu
that
thdl
the
theatre
their
them
theme
themeprofilesproperties
themes
themselves
then
theories
theory
there
therefore
therm
thermal
thermochemical
therms
these
thesis
they
thing
things
think
thinking
third
thirty
this
thisera
thisrow
thisvalue
thm
thomas
thompson
those
thou
though
thought
thoughts
thousand
thousands
thread
three
through
throughout
throwerror
thu
thumb
thumbcaption
thumbinner
thumbnail
thumbnails
thumbtime
thurii
thursday
thw
ti
tib
tibetan
tibt
tidal
tidy
tidyval
tie
tied
tier
tig
tilastopaja
till
tim
time
timeaxis
timecaption
timeline
timents
times
timestamp
timestamps
timor
tin
tip
tirh
tis
title
titlebackground
titlecell
titleclass
titlecolspan
titledelimeterposition
titleforeground
titleformats
titlelink
titlenote
titleobj
titleobject
titlepart
titles
titlestyle
titletype
tj
tk
tkl
tkm
tl
tlapanec
tld
tleft
tlh
tlhingan
tls
tm
tmbox
tmcid
tmon
tmp
tn
tname
tnavbar
tnone
tnsa
tnt
to
tobacco
tobago
toboolean
toc
toclevel
toclimit
today
todayk
todo
toe
together
toggle
togo
toi
tokelau
token
toki
tokipona
toku
tokyo
tol
toli
tom
tome
ton
tong
tonga
tongyong
tonne
tonumber
too
tool
toolbar
tools
tooltip
tooltipblurb
tooltipfragment
top
topic
topics
topological
topology
toro
toronto
torque
torr
tostring
tostringsnak
totable
total
totals
totextwithtip
toto
totonac
touch
tourism
tourist
toward
towards
tower
town
towns
township
toy
tp
tpi
tpt
tr
track
tracking
trackingcat
trackingenabled
tracks
tract
trade
trademark
tradhep
tradition
traditional
traffic
trail
trailing
train
trains
trans
transcluded
transcript
transcriptformat
transcription
transcriptions
transcripturl
transerror
transfermarkt
transform
transformation
transformed
transforming
transition
transl
translate
translated
translateparameters
translates
translatewiki
translathon
translating
translation
translations
translator
translatorlist
translators
translit
transliterated
transliteration
transmitted
transparency
transparent
transperiodical
transport
transportation
transquote
transtitle
transwiki
travailleurs
travel
travelers
traveller
tre
treat
treated
treaties
treatment
treaty
treccani
tree
treize
trg
tri
triage
trial
triangle
trick
tried
tright
trill
trillion
trillionth
trillionths
trim
trimarg
trimmed
trimming
trims
trimwhitespace
trinidad
tristan
tritt
tropical
trouble
trow
troy
trs
true
trumpet
truncate
truncated
truslow
trust
trusted
trustees
try
trying
ts
tscript
tsebeen
tsfc
tstd
tt
tto
ttoocc
ttp
tu
tuberculosis
tuesday
tul
tunebo
tunisia
tur
turing
turkey
turkic
turkish
turkmen
turkmenistan
turks
turn
turned
turning
tuttocalciatori
tuvalu
tv
tw
twelve
twentieth
twenty
twhp
twi
twice
twitter
twl
two
txt
txtlang
ty
type
typedata
types
typically
typing
typography
tz
tze
tɹ
u
ua
uabbr
ub
ubl
uboundary
ucb
ucfirst
ucfirstall
ucoc
ucode
uda
udi
udinium
udm
ug
uganda
ugar
ugaritic
ugly
ugyldig
ui
uig
uighur
uipa
uk
ukraine
ukrainian
uky
ul
ulaanbaatar
ulan
ulookup
ulrich
uls
uly
um
uma
umts
un
una
unable
unbulleted
uncategorized
uncertainty
uncl
uncoded
uncontroversial
uncu
und
undefined
under
underbrace
underneath
underscore
underscores
understand
understanding
undertekst
undp
une
unesco
unexpected
unfit
unfortunately
uni
unicef
unicode
unified
unify
union
uniq
unique
unit
unitcode
unite
united
uniterror
units
universal
universe
universiade
universities
university
unix
unixavailable
unixdateofdeath
unknown
unknowns
unless
unlike
unlikely
unmatched
unmodified
unnamed
unneeded
unpack
unprotected
unprotection
unpublished
unrecognized
unregistered
unrounded
unserer
unseres
unset
unsigned
unspaced
unspecified
unstripnowiki
unsubscribe
unsupport
unsupported
until
unwanted
up
uparrow
upb
upcoming
update
updatecolorfield
updated
updates
upl
upload
uploader
uploading
uploads
uploadwizard
upon
upper
uppercase
uppermost
upright
ur
uralic
urals
uranus
urban
urdu
uri
uricomponents
url
urlpat
urls
urlstatus
ursula
uru
uruguay
us
usa
usability
usage
usb
usbbl
usbeerbbl
usbsh
usbu
usccb
usd
usda
usdrybbl
usdrygal
usdrypt
usdryqt
use
usecollapsibletextfields
used
useful
uselang
uselbl
usename
usenet
user
username
users
uses
usescurrent
usescurrenttitle
usesymbol
usewikidata
usgal
usgi
usgs
using
uskenning
usoz
uspk
uspt
usqt
ustinova
ustring
usual
usually
usuarios
usub
usy
ut
utable
utc
utf
util
utilities
utility
utype
uvular
uy
uyghur
uyy
uz
uzbekistan
v
va
vaccine
vaccines
vacuum
vai
val
valencian
valerror
valid
validate
validates
validation
valinfo
valley
vals
valsv
value
valued
valuefunc
values
valuetofind
van
vanc
vancouver
vandal
vandalism
vanderbilt
vannodata
vannolabels
vannolines
vanuatu
vap
var
varepsilon
variable
variableparam
variables
variablevals
variant
variants
variation
variations
variety
various
varname
varnum
vasilyevskiy
vatican
vauthors
vcard
vcite
ve
vec
vector
veditors
veidne
vela
velar
velarized
velocity
venezuela
venice
venus
vepsa
ver
vera
verde
verdi
verha
verla
verlag
vermont
vers
versa
verse
version
versions
verst
vertical
very
vi
via
viaf
vibrio
vice
victims
victor
victoria
victory
video
videos
vie
vienna
viet
vietnam
vietnamese
view
viewer
views
vii
viii
vikings
vikipediya
vikramsamvat
villa
village
vimeo
vincent
vinci
viquipe
viral
virgin
virginia
virginis
virtual
virus
visem
visibility
visible
vision
visit
visual
visualeditor
visually
vith
vl
vladimir
vls
vname
vnames
vnm
vo
voice
voiced
voiceless
voix
vol
volapu
volcano
volcanoes
volga
vols
volume
volumes
volunteer
volunteering
volunteers
vom
von
vorlage
vot
vote
voters
votes
voting
vowel
vowels
vparam
vqualifiersv
vrange
vro
vs
vstr
vu
vugar
vulpes
vv
vvancite
vvcite
vxxxxors
vyacheslav
vyk
w
wa
wade
wagner
wahrheit
wait
waiting
wal
walapai
wales
walker
wall
wallis
walter
walvis
wang
want
wantduration
wanted
wanting
wantmixture
wantname
wantround
wants
war
wara
ward
warfare
warming
warn
warning
warnings
warnmsg
warriors
wars
was
washington
wasn
wat
watch
watchlist
watchlists
water
watt
way
wayne
ways
wbstatus
wca
wcho
wd
wds
we
weak
weapon
weapons
weather
web
webelements
weber
webpage
website
websites
webster
wednesday
week
weekly
weeks
wei
weight
welcome
welcoming
well
welsh
went
wer
were
west
western
weu
wh
whales
what
whatamidoing
whatever
wheat
when
where
whether
which
whichever
while
white
whitelist
whitelisting
whitespace
who
whole
wholestr
whose
why
wi
wide
width
widths
wieder
wien
wiesbaden
wik
wiki
wikibase
wikibooks
wikicite
wikidata
wikidataib
wikidataid
wikidataurl
wikieval
wikigap
wikilink
wikilinked
wikilinks
wikimania
wikimedia
wikimedians
wikinews
wikipe
wikipedia
wikipedians
wikipedias
wikipedie
wikipedija
wikiproject
wikis
wikisource
wikisources
wikispecies
wikitable
wikitech
wikitext
wikiuserfs
wikiversity
wikivoyage
wikivoyages
wiktionary
wild
wildcard
wiley
wilhelm
will
william
williams
willing
wilson
wimbledon
win
wind
windhoek
windows
windsor
wine
winner
winners
winter
wisdom
wish
wishes
wishlist
witch
witches
with
withcollapsibles
within
without
withspace
witten
wk
wl
wm
wmde
wmf
wmflabs
wmru
wmt
wo
wolf
wolfgang
woman
women
won
woo
woods
word
words
work
workaround
workboard
worked
workers
workflow
working
works
world
worldcat
worldfootball
worldwide
worte
would
wp
wpa
wrap
wrapinurl
wrapped
wrapper
wrappers
wrapping
wraps
wright
write
writing
writings
written
wrong
wrote
ws
wu
wuu
wweb
wwf
wwikisource
www
wylie
wyoming
x
xa
xal
xanyan
xaxis
xaxisangle
xaxisformat
xe
xej
xeno
xgrid
xh
xhi
xi
xia
xian
xiang
xiao
xico
xii
xiii
xiv
xix
xl
xlate
xlo
xls
xmax
xmin
xml
xpeo
xrco
xscript
xsux
xtype
xue
xv
xvi
xvii
xviii
xx
xxi
xxii
xxvii
xxviii
xxx
xxxxors
xxxxxxx
xy
y
ya
yahweh
yale
yan
yana
yangtze
yangzi
yanji
yard
yards
yat
yavapai
ycount
yd
ye
year
yearbc
yearbook
yearparam
years
yellow
yemen
yen
yes
yesno
yet
yezi
yg
ygrid
yh
yi
yiddish
yiii
yin
ying
yj
yle
yleisradio
ym
ymax
ymd
ymdh
ymdhm
ymin
ymw
ymwd
ymwdh
ymwdhm
ymx
yo
yoga
yolsa
york
you
your
youtube
yp
yr
yrk
yt
ytteita
ytype
yu
yue
yuf
yugoslavia
yukon
yun
yupik
yuri
yvalues
yy
yyy
yyyy
z
za
zaloga
zam
zambia
zapotec
zbl
zea
zealand
zedong
zeit
zeitung
zen
zero
zeros
zg
zh
zha
zhang
zhao
zheng
zhi
zho
zhu
zhuang
zhuangke
zhzh
zi
zieht
zimbabwe
zinh
zionism
zj
zm
zn
zone
zones
zoom
zoomed
zoque
zotero
zu
zukunft
zum
zur
zuru
zw
zwpy
zyyy
zz
{
|
}
~


¡
¢
£
¥
§
©
«
¬
­
®
¯
°
±
²
²¹
³
µ
¶
·
¹
»
¼
½
¾
¿
×
ß
æ
ð
ø
đe
ħ
ı
ŋ
œ
ƈ
ƙ
ƛ
ƥ
ƨ
ƭ
ƿ
ǀ
ǁ
ǂ
ǃ
ǆ
ǝ
ȡ
ȴ
ȵ
ȶ
ȷ
ɏ
ɐ
ɑ
ɒ
ɓ
ɔ
ɕ
ɖ
ɗ
ɘ
ə
ɚ
ɛ
ɜ
ɝ
ɞ
ɟ
ɠ
ɡ
ɢ
ɣ
ɤ
ɥ
ɦ
ɧ
ɨ
ɪ
ɫ
ɬ
ɭ
ɮ
ɯ
ɰ
ɱ
ɲ
ɳ
ɴ
ɵ
ɶ
ɸ
ɹ
ɺ
ɻ
ɽ
ɾ
ʀ
ʁ
ʂ
ʃ
ʄ
ʇ
ʈ
ʉ
ʊ
ʋ
ʌ
ʍ
ʎ
ʏ
ʐ
ʑ
ʒ
ʔ
ʕ
ʖ
ʗ
ʘ
ʙ
ʛ
ʜ
ʝ
ʞ
ʟ
ʠ
ʡ
ʢ
ʣ
ʤ
ʥ
ʦ
ʧ
ʨ
ʩ
ʪ
ʫ
ʬ
ʭ
ʰ
ʱ
ʲ
ʷ
ʻ
ʼ
ʾ
ʿ
ˀ
ˁ
ˈ
ˌ
ː
ˑ
˒
˓
˔
˕
˖
˗
˞
ˠ
ˡ
ˤ
˥
˦
˧
˨
˩
˭
̀
́
̂
̃
̄
̆
̇
̈
̉
̊
̋
̌
̍
̎
̏
̑
̓
̔
̘
̙
̚
̛
̜
̝
̞
̟
̠
̢
̣
̤
̥
̦
̧
̨
̩
̪
̫
̬
̯
̰
̱
̴
̹
̺
̻
̼
̽
͂
͆
͇
͈
͉
͊
͌
͍
͎
͑
͗
͜
͡
α
β
γ
γγ
δ
ε
ελληνικα
ελληνικη
ελληνικου
η
θ
θνους
ι
ιστορι
λ
μ
ν
ο
π
ρ
ς
τ
του
φ
χ
ω
а
аа
ааб
аад
аадар
аажам
аажамаар
аажамдаа
аажмаар
аази
аазии
аазиин
аалза
аалто
аангли
аар
аарон
аарсаг
аарсан
ааруул
аас
аба
абаа
абаагүи
абаад
абаахаи
абаашажа
абаашаһан
абаба
абагдаһан
абагша
абадаг
абадаггүи
абажа
абаза
абаи
абалга
абалгын
абан
абана
абанхаи
абаралаи
абаралда
абарга
абархын
абаха
абахаар
абахагүи
абахад
абахада
абахадаа
абахаи
абахаһаа
абахуулаад
абахые
абахын
абашье
абаһаа
абаһан
абаһанаар
абаһанаи
абаһаниинь
абаһаншье
аббас
аббасид
абга
абгаи
абгалдаи
абд
абида
абидарма
абидармын
абиджан
абидуев
аборт
абортые
абортын
абрагша
абсолют
абсолютно
абтаагүи
абтаба
абтажа
абтана
абтанхаи
абтаһан
абу
абхаз
абшарһан
абынгаа
абьяас
абьяаслиг
абьяастаи
абяа
абяалбари
абяан
абяанаи
абяанууд
абяануудые
ав
аванпорт
авар
аварга
авах
август
августа
августин
августинаи
августын
авиаци
авиациин
авив
авиваи
авивда
авивдахи
авивые
авивһаа
авраам
авраамаи
аврелии
авроро
авсан
австрали
австралида
австралии
австралиие
австралиин
австралишууд
австралишуудые
австралиһаа
австри
австрида
австрии
австриие
австриин
австритаи
австришууд
авто
автобус
автоматически
автомашина
автомашинаи
автомашинын
автомобильныи
автономии
автономит
автономито
автор
автора
авторские
авторских
авч
авчээ
ага
агаад
агаар
агаараар
агаараи
агаарта
агаартаи
агаарын
агаарһаа
агаи
агенства
агентлиг
агентлигаи
агентлигууд
агентства
агентстве
агентство
агентством
агитация
агнадаг
агнажа
агнаха
агнес
агнуур
агнуури
агнууриин
агнуушад
агорот
агрегат
агуу
агууехэ
агуулаагүи
агуулагдадаг
агуулагдана
агуулагдаха
агуулагдаһан
агууламжа
агуулга
агуулгатаи
агуулгыг
агуулгые
агуулгын
агуулдаг
агуулжа
агуулна
агуулха
агуулһан
агша
агшан
агын
агынууд
агыһаа
агүи
ад
ада
адаг
адагаи
адагта
адагтахи
адагһаа
адаи
адал
адам
адбну
адвокат
аддикци
адли
адлигаар
адлигүи
адлирхуу
адлитаи
адлихан
адляар
админ
админа
административно
администратор
администратора
администраторнууд
администраторов
администратором
администраторы
администрации
администрация
администрировать
админов
админом
админы
адмиралаи
адольф
адресов
адриатикын
адриатын
адуу
адуунаи
адууһа
адууһанаи
адыг
адыгеи
адыгея
аж
ажа
ажабаи
ажаглагдадаг
ажаглагдаха
ажаглагша
ажаглажа
ажаглалата
ажаглалта
ажаглалтын
ажаглаха
ажал
ажалаа
ажалаи
ажалалга
ажалалгаа
ажалалгаае
ажалалгаанаи
ажалалгаанда
ажалалгада
ажалалдаг
ажалгүи
ажалда
ажалдаа
ажаллаа
ажаллаба
ажаллагаа
ажаллагаанаи
ажалладаг
ажаллажа
ажаллалга
ажаллалгада
ажаллалгаяа
ажаллалгые
ажаллалгын
ажаллана
ажаллаха
ажаллаһан
ажаллаһанһаа
ажаллуулдаг
ажаллуулжа
ажалнууд
ажалтан
ажалша
ажалшад
ажалшадаи
ажалшан
ажалые
ажалынь
ажалһаа
ажамидаралаи
ажамидаралда
ажамидарна
ажамидарһан
ажахы
ажахыда
ажахые
ажахын
ажахынь
ажаябуулагша
ажаүи
ажаһууба
ажаһуугшад
ажаһуугшадаи
ажаһуугшадтаи
ажаһуудаг
ажаһуужа
ажаһууна
ажаһууһан
ажаһууһаниие
ажаһууһые
ажил
ажиллагаа
ажиллагаагаа
ажилладаг
ажээ
аза
азербаи
ази
азида
азидахи
азии
азиие
азиин
азиинхид
азиһаа
азов
азовои
азор
азорои
азот
аи
академи
академида
академидэ
академиие
академиин
академик
академическэ
академия
акадеэмиин
акади
аквинат
акра
акрополь
акт
актаар
акте
активности
активность
активные
активныи
активным
актриса
акттаи
актынь
акули
акцентор
ал
алаа
алаба
алабама
алаг
алагдаба
алагдажа
алагдаһан
алажа
алаи
алалга
алалгада
алан
алани
алас
аласаи
алаха
алаһан
алба
албагүи
албадан
албан
албанаи
албанда
албани
албаниин
албанһаа
албат
албые
алвар
алга
алгебра
алгоритм
алгын
алдаа
алдаагүи
алдаатаи
алдаба
алдагдал
алдагдаһан
алдада
алдажа
алдалгүи
алдан
алдар
алдарта
алдартаи
алдартан
алдартанаи
алдаршаһан
алдаха
алдаһан
алдаһанаи
алдсан
алдуу
александр
александра
александру
александрын
алексеев
алексеи
алеут
алжир
алжираи
али
алибаа
аливаа
алигьери
алим
алимта
алинда
алинь
алир
алишье
алия
алиягаи
алла
аллах
аллахаи
аллотропи
алмаазаи
алмаз
алматы
алоис
алт
алта
алтаар
алтаи
алтан
алтанаи
алтаниинь
алтанһаа
алфавидта
алхам
аль
альбан
альберт
альберта
альбертагаи
альбертын
альбигои
альбом
альбрехт
альморавид
альмохад
альпа
альпын
альт
альтернативная
альтернативнои
альтернативные
альфа
альфонсо
альфред
альцгеи
алюминиин
аляска
аляскада
ам
ама
амаа
амаар
амагаи
амадеи
амазон
амазонои
амалаад
амалдаг
аман
аманаи
амар
амараи
амаралта
амаралтын
амардаг
амархан
амасаха
аматаи
амбан
амбанаи
амгалан
аме
америка
американская
американшууд
америкии
америкын
америкынхид
америкынхидаи
америкэ
америкэдэ
америкэдэхи
америкэн
амеэрикын
амжаагүи
амжалта
амжалтагүи
амжалтада
амжалтануудые
амжалтатаи
амжалтые
амжалтын
амжилт
амжилтатаи
амжилттаи
ами
амиа
амигүи
амида
амидаараа
амидаис
амидарадаг
амидарал
амидаралаа
амидаралаар
амидаралаи
амидаралда
амидаралдаа
амидаралтаи
амидаралые
амидаралынхаа
амидаралынь
амидаралһаа
амидаран
амидардаг
амидаржа
амидарна
амидарха
амидархад
амидарша
амидарһан
амиды
амин
аминда
амисхаал
амисхаалаи
амисхал
амисхалаи
амисхалдаг
амисхалтаи
амисхалха
амисхалые
амита
амитад
амитадаи
амитадта
амитадтаи
амитадые
амитадынь
амитадһаа
амитаи
амитан
амитанаи
амитанда
амитаниие
амитаниинь
амнунда
ампер
амритсар
амстердам
амстердамаи
амта
амталха
амтата
амтатаи
амударья
амундсен
амундсенэи
амуу
амуур
амыг
амые
амын
амь
амьд
амьдарч
амьдрал
амьдралд
амьдрах
амьсгал
амьсгалтаи
амьтан
амьтны
амяа
амяараа
амяарлагдаа
амяарлан
амһаһан
ан
ана
анаа
анаагаи
анааша
анагаажа
анагааха
анадырь
анаи
анализ
анализу
аналитик
аналог
аналогично
анархизм
анархизмаи
анархист
анархия
анархо
анатоли
анатолии
анатоми
анатомиин
ангабаев
ангажарха
ангаи
ангар
ангара
ангараи
ангел
ангела
анги
ангигүи
ангида
ангии
ангиие
ангиин
ангиинхан
ангилагдадаг
ангилал
ангилалаар
ангилалаи
ангилалда
ангилалые
ангилдаг
ангилжа
ангилна
ангинууд
ангинуудые
ангитаи
англ
англи
англида
англии
англиие
англиин
англишууд
англишуудаи
англиһаа
англо
англовики
англяар
ангол
ангола
ангуудые
ангуушад
анда
андал
андаманаи
андерсен
анджелес
андорра
андре
андреа
андреев
андреевич
андреи
андрич
андын
анза
анкара
анкокон
анна
анонимныи
анри
ансамбль
ансамбльда
антаи
антанта
антарктида
антарктиды
антарктидын
антарктика
антарктикын
антибиотик
антигуа
антилиин
антипын
антисемитизм
антон
антонии
антонин
антонио
антропологиин
антуан
ану
анх
анха
анхаарал
анхааралаа
анхааралые
анхааржа
анхадагша
анхадугаар
анхалан
анхан
анханаи
анхандаа
анхарал
анхаралаа
анхны
аншан
ань
аньян
апартеид
апеннинын
аполлон
апостол
апостола
апостолнууд
апостолнуудаи
аппарат
аппаратаи
аппендикуляр
апрелиин
апрель
апреля
апуримак
ар
ара
араатан
араб
арабаар
арабаи
арабууд
арабын
арави
аравиин
араг
арагон
арагонои
арад
арада
арадаа
арадаи
арадта
арадууд
арадуудаи
арадчилал
арадчиллын
арадчилһан
арадшалал
арадшалалаи
арадшалалые
арадшалаһан
арадшалһан
араи
аракан
арал
аралаи
аралда
аралдахи
аралжаан
аралжаанаи
аралнууд
аралнуудаи
аралнуудта
аралнуудые
аралнуудынь
аралнуудһаа
аралтаи
аралууд
аралые
аралынь
аралһаа
арамеи
арарат
араһаа
араһаань
арба
арбаад
арбадахи
арбадугаар
арбаи
арбан
арбанаи
арбанда
арбаннэгэдүгээр
арбанхое
арбин
арбитрын
арван
арга
аргаар
аргагүи
аргали
арганууд
аргань
аргатаи
аргентину
аргентинын
аргентинэ
аргумент
аргументов
аргументуудаи
аргументы
аргыг
аргые
аргын
ард
ардчиллын
ардчилсан
арендын
аренэ
ариг
аризона
арилдаг
арилжаа
арилжаанаи
ариранг
аристотелиин
аристотель
аристофанаи
арифметикын
арифметикэ
арк
арка
арканзас
аркатаи
аркраи
арктик
арктикын
арлууд
армавир
армен
армени
арменида
армениин
арми
армида
армие
армии
армиие
армиин
армиингаа
арминуудаи
армитаи
армия
армстронг
армян
армянууд
арно
арса
арсаба
арсажа
арсалан
арсалдаан
арсалдаанаи
арсалдаантаи
арсалдаата
арсалдаатаи
арсаха
артериин
артиллери
артист
артур
архаг
архад
архангельскын
археи
археолог
археологиин
археологнар
археолоогиин
архи
архив
архиваи
архивировано
архимед
архимедын
архиологууд
архипелаг
архитектор
архитектура
архитектурын
аршаан
аршаанаи
аршаанда
аршаанууд
арши
ары
арын
арьяа
арьяатан
арьяатанаи
арьяшуудаи
арюудхажа
арюудхаха
арюун
арһа
арһаар
арһан
арһанаи
арһаниинь
арһанһаа
арһатаи
арһатан
арһые
ас
аса
асан
асар
асараа
асараи
асарба
асаржа
асари
асарха
асарһан
асита
ассам
ассамблеи
ассемблеи
ассири
ассириин
ассиришүүд
ассоциатив
ассоциациин
ассоциация
асср
аст
астана
астеносферэ
астероид
астраханиин
астрахань
астроном
астрономи
астрономиин
астури
астуриин
астыз
асуудал
асуудалаар
асуудалаи
асуудалда
асуудалнууд
асуудалнуудаи
асуудалнуудые
асуудалтаи
асуудалууд
асуудалые
асуудалынь
асуудлаар
асуудлыг
асуулга
асуулгаар
асуулгада
асуулгын
асуулта
асуултын
асуури
ат
ата
атаи
атаки
ататюрк
атеизм
атемаджак
атланта
атлантик
атлантын
атлас
атлетика
атлетики
атлетикэ
атман
атманаи
атмосферын
атом
атомаи
атомои
атомууд
атомыг
атомын
ау
ауд
аудио
аустенит
аучу
афганистан
афганистанаи
афина
афинада
афины
афиныда
афинын
афинынхид
африк
африка
африкаанс
африкада
африкадахи
африкан
африкаһаа
африке
африкии
африкые
африкын
ах
аха
ахалагша
ахамад
ахань
ахатаи
ахеменид
ахин
ахиһан
ахмад
ахуи
ахы
ахын
ацтек
ач
аша
ашаа
ашаан
ашаанаи
ашаар
ашаг
ашагаи
ашаглабал
ашаглагдадаг
ашаглагдажа
ашагладаг
ашаглаж
ашаглажа
ашаглалтанда
ашаглан
ашаглана
ашаглаха
ашаглахань
ашаглаһаар
ашаглаһан
ашагта
ашагтаи
ашагые
ашиг
ашигладаг
ашиглаж
ашиглан
ашиглах
ашока
ашшур
аэропорт
аюка
аюул
аюулгүи
аюулда
аюултаи
аюулһаа
аюуша
ая
аяар
аяараа
аяг
аяга
аялаад
аялагша
аялагшад
аялал
аялалаи
аялалда
аялан
аялга
аялгаар
аялган
аялганаи
аялгантаи
аялганууд
аялгануудые
аялгуу
аялгуугаар
аялгуугаи
аялгууда
аялгуунууд
аялгуунуудаи
аялгуутаи
аялгын
аялжа
аялха
аялһан
аян
аянаи
аянга
аянда
аяндаа
аянша
аяншалга
аяншалжа
аҧсуа
аһан
б
ба
баабаи
баабгаи
баажын
бааза
баазада
баала
бааладаан
баасан
баатаи
баатар
баатараи
баатарлаг
баатарлиг
баатарнууд
баатарта
баатруудын
бааха
бабанта
бабантын
бабуев
бавари
бавариин
бавасан
баг
бага
багаар
багагүи
багадаа
багадхажа
багадхаха
багадхаһан
багаж
багажа
багажанууд
багажые
багаи
багана
баганад
багань
багатаи
багахан
багашаг
багашье
багаһаа
багдад
багзиллу
багса
багта
багтаадаг
багтаажа
багтаамжа
багтаамжатаи
багтаан
багтаасан
багтааха
багтааһан
багтадаг
багтажа
багтан
багтана
багтаса
багтасатаи
багтаха
багтаһан
багууд
багша
багшаар
багшада
багшалаа
багшалжа
багшанар
багшанараи
багшанарые
багшань
багшын
багые
багын
багынхан
бадар
баден
бадлуев
бадма
бадмаев
бадмаева
бадминтон
бадминтону
бажигид
база
базар
базараи
базарон
базель
базилика
базовое
базовых
баи
бакалинскын
бактери
бактериин
бактеринууд
баку
бал
бала
балар
баларжа
балба
балбын
балда
балдан
балдано
баледэи
балет
балин
балканаи
балкандахи
балкануудаи
балканын
балкар
балнад
балсан
балсанг
балсангаи
балсангууд
балсангуудаи
балсанлиг
балсантаи
балт
балта
балтиин
балтын
балучистанаи
балша
балшар
балые
бальбуров
бальжинимаева
балһжинимаева
бамбагар
бан
банаи
банан
бангкок
бангкокои
бангладеш
бангладешэи
банди
бандида
банзараи
банзаров
банзароваи
баниие
банить
банк
банкиинь
банкнот
банкнотууд
банкнотуудые
банкын
баннернои
баншан
бар
бара
бараа
бараагаа
бараан
бараанаи
барааниие
бараар
бараба
барабшалан
барав
бараг
барадаг
баража
бараи
баралгууд
барамидаи
барас
бараха
барахад
барахада
барахадаа
бараһан
бараһанаи
бараһаниинь
бараһаншье
барбадос
барбадосои
барбаросса
барбуда
барга
баргажан
баргажанаи
баренцын
бари
бариба
барибшалагдан
баригдаба
баригдадаг
баригдажа
баригдан
баригданхаи
баригдаха
баригдаһан
баригчид
баригша
баригшад
баридаг
барижа
барилга
барилгада
барилганууд
барилгануудаи
барилгань
барилгатаи
барилгашад
барилгашан
барилгууд
барилгые
барилгын
барилдаан
барилдаанаи
барилые
баримал
барималаи
барималша
барималшад
баримжаа
баримт
баримта
баримтаар
баримталагша
баримталагшад
баримталал
баримталалые
баримталан
баримталдаг
баримталжа
баримталха
баримталһан
баримтанда
баримтанууд
баримтануудаи
баримтат
баримтата
баримтаһаа
баримтлан
баримтлах
баримтые
барин
баритон
бариха
барихада
барихаһаа
барихын
бариһан
бариһанаи
барлаг
барлаһан
барокко
барон
барранка
баррель
барс
барсан
барселона
барселоно
барселоные
барселонын
бартан
бартон
бару
баруун
баруунаас
баруунаи
баруунда
баруунһаа
бархаи
баршагүи
барьж
барюул
барюултаи
барюулха
баряа
баряад
бас
басагад
басаган
басаганаи
басагатаи
басе
баск
баскетбол
бассеи
бат
бата
баталаа
баталагдаба
баталагдаһан
баталан
баталба
баталгаа
баталгаажаһан
баталгаажуулаа
баталгаатаи
баталдаг
баталж
баталжа
баталжээ
батална
баталснаар
баталха
баталхын
батальон
баталһан
батареи
бататаи
батереи
батлагджээ
бато
батожабаи
батор
батории
баттута
батут
бах
баха
бахаи
бахреи
бахчисараи
башкир
башкирнууд
башкирнуудаи
башкортостан
башкортостанаи
башкортостанда
башье
баяд
баяжажа
баяжуулах
баялаг
баялгын
баялиг
баялигаи
баялигтаи
баялигууд
баялигуудта
баялигые
баян
баяндаи
баяр
баяраи
баярлаа
баярнууд
баярые
баярын
баяшадаг
баһа
баһал
бгу
бе
бегэи
без
безмистификационнои
безрамки
безусловно
беи
бек
бел
беларус
беларусиин
беларуская
беларусь
белая
белград
белиз
белинскии
белои
белорус
белорусууд
белфаст
бельги
бельгиин
бен
бенгал
бенгали
бенгалиин
бенин
бербер
бербершүүд
бере
берзин
берингэи
берлин
берлинаи
берлиндэ
берлинэи
бермуда
бернар
беседина
бесединые
бесединын
беслан
бессрочно
бессрочнои
бет
бета
бетховен
бетховенэи
бехор
би
биатлон
биб
библи
библиин
библиотека
библиотеке
биг
бидэ
бидэндэ
бидэнэи
бие
бизнес
бизнесмен
бизнесэи
бии
билдинг
билээ
бимба
бинарна
бинг
био
биографическии
биография
биологи
биологиин
бирамья
биржэ
бирма
бирман
бирманшууд
бирмын
бирюүльскэ
бисалаг
бисалгал
бисау
бискаи
бисмарк
бисмаркын
битва
битии
битүү
бичгии
бичгээр
бичиг
бичигдсэн
бичигт
бичлэг
бичсэн
биш
бишыхан
благовещениин
благовещенск
благодарим
благодаря
блаз
ближаи
ближнего
блицкриг
блог
блок
блокировка
блокировки
блокировку
блокировок
блокируют
блу
блюз
бнасау
бнзнжух
бниц
бнмау
бнорзхжну
бнпау
бнсу
бну
бнхау
бнху
бо
бобслеи
богд
богдо
богдын
богино
богомолов
богоне
богони
богонихон
богонихоншье
богоол
богоолнууд
богоолнуудаи
богоолои
богоолшолго
богоолшолгые
богоолшолгын
богота
богоһо
бод
бодала
боди
бодисада
бодисадын
бодисын
бодито
бодлого
бодо
бодобол
бодогшод
бододог
бодожо
бодол
бодолго
бодолгодо
бодолгонь
бодолгоор
бодолгоһоо
бодолгые
бодолгын
бодолои
бодолоо
бодолоор
бодолтои
бодолые
бодон
бодоо
бодос
бодосои
бодосто
бодосууд
бодосуудаи
бодосуудые
бодосуудһаа
бодосые
бодото
бодохо
бодоһон
бои
бокс
боксын
бол
болбол
болбосоржо
болбосорол
болбосоролои
болбосоролтои
болбосоролые
болбосоронгуи
болбосоронгы
болбосоронгүи
болбосоруулаа
болбосоруулалта
болбосоруулан
болбосоруулгын
болбосоруулжа
болбосоруулха
болбосоруулхада
болбосоруулһан
болбосорхо
болвчн
болгар
болгари
болгариин
болгаршууд
болгобо
болгодог
болгое
болгож
болгожо
болгожээ
болгон
болгоно
болгоо
болгоод
болгохо
болгоходо
болгохоор
болгохые
болгохын
болгоһон
болгоһониинь
болгоһоноор
болдог
боле
более
болеи
болеслав
болеславаи
болж
болжээ
болзол
болзолгүи
болзошогүи
боливар
боливи
болиһон
боллоо
болно
боло
болобо
болобол
болобош
болобошье
болобшо
болов
боловсрол
боловсролын
боловсруулж
боловч
бологожо
бологон
бологоһон
болодог
болодоггүи
болож
боложо
боложоо
боложоээ
боложээ
бололго
бололготои
бололгоһоо
бололгые
бололгын
бололсоотои
бололтои
боломжгүи
боломжии
боломжо
боломжогүи
боломжоор
боломжотои
боломжтои
боломжые
боломоор
болон
болоно
болонхои
болоо
болоогүи
болоод
болоодүи
болотор
болотороо
болох
болохо
болохогүи
болоход
болоходо
болоходоо
болохонь
болохоо
болохоор
болохоһоо
болохые
болохын
болошонхои
болоһон
болоһонгүи
болоһониие
болоһониинь
болоһонои
болоһоноо
болоһоноор
болоһонтои
болоһоншье
болоһонһоо
болоһоор
болсон
болтор
больша
большая
больше
большевигууд
большевигүүдэи
большевик
большеи
большим
большинстве
большинство
большо
большое
большои
болюулагдажа
болюулагдаһан
болюулжа
болюулха
болюулһан
болһон
бомбо
бомбын
бонапарт
бонн
боннои
бонобо
боомто
боомтотои
боомтые
боомтын
боохолдои
боохонои
бор
борбилоо
борбоосгои
боргооһон
боргооһонои
бордо
боржигин
боржигинои
борис
борлуулалт
борн
боро
боролжо
бороо
бороожуулагша
бороожуулха
бороонои
бороотои
борхес
борьба
борьянс
босни
босниин
босоо
бостон
босфор
босфорои
ботала
ботаника
ботаникын
боти
ботсвана
бохаи
боһолго
бразил
бразилаи
бразили
бразилии
бразилиие
бразилиин
бразилия
браи
брамс
бранденбург
бранденбургын
брансвик
братислава
браунинг
брахма
брежнев
бреи
бремен
брест
брестын
бретон
британи
британида
британиие
британиин
британиинь
британитаи
британишууд
британиһаа
британника
брои
брокгауза
бросаем
брунеи
брюссель
бсэ
бу
буг
буга
бугата
бугын
бугынхин
будаа
будаг
будагтаи
будапешт
будаһан
будда
буддизм
буддын
будем
будет
будешь
буду
будут
будущности
будь
будьте
буе
буи
бук
буквы
букмол
булаажа
булаан
булаг
булагад
булагаи
булаганаи
булагдаһан
булагууд
булад
булажа
булан
буланаи
булангаар
булангаи
булангиртуулжа
буланда
буландахи
булантаи
буланһаа
булаша
булаһан
булга
булган
булганаи
булжамуур
булимтаран
булма
булта
бултадаа
булшан
булшархаи
булюу
буляалдаан
буляан
бумцэнд
бун
бундестаг
бунхан
бунханаи
бунханда
бур
бурбон
бурбонои
бургаа
бургааһан
буржуа
буржуази
буржуазиин
бури
буриад
буркино
бурса
бурунди
буруу
буруудхан
буруул
буруушаажа
буруушааһан
бурхад
бурхадаи
бурхадые
бурхадһаа
бурхан
бурханаи
бурханда
бурханиие
бурхантаи
бурханы
бурханые
бурханһаа
буря
буряад
буряадаар
буряадаи
буряадта
буряадууд
буряадуудаи
буряадшалһан
бурят
бурятии
бурятия
бурятская
бурятски
бурятские
бурятскии
бурятским
бурятского
бурятскои
бурятском
бурятскую
буряты
бус
буса
бусаад
бусаажа
бусаан
бусаар
бусад
бусадаи
бусадта
бусадтаи
бусадые
бусадынь
бусадһаа
бусажа
бусаи
бусалгажа
бусалтагүи
бусаха
бусахадаа
бусаһан
бусые
бусын
бут
бута
бутан
бутархаи
бутлаг
буу
бууба
буугаи
буудажа
буудаи
буудал
буудалга
буудалган
буудалтаи
буудалынь
буудаха
буудаһан
буудлагын
бууж
буужа
буулга
буулгагда
буулгажа
буулган
буулгаха
буулгаһан
буулта
буулһан
буун
бууна
буунаи
бууража
буурал
буураха
буураһан
буурсаг
буурсагые
бууруулжа
бууруулха
буурһан
бууса
буусанууд
буусаһаа
буусын
буутаи
бууха
буухада
бууһан
буфер
буха
бухара
бухарые
бухы
бухын
буцалтгүи
буцлах
буэнос
буюу
буян
буянаи
буһа
буһалгаалжа
буһалгаан
буһалгаанаи
буһалгааниие
буһалгаанууд
буһалгаашад
буһалгаашадаи
буһалгаашадта
буһын
български
бы
был
была
были
было
бын
быть
бьорн
бэ
бэдэржэ
бэе
бэедэ
бэедээ
бэелхэ
бэелүүлжэ
бэелүүлхын
бэелүүлхэ
бэелүүлһэн
бэелүүлһэндэ
бэень
бэенүүд
бэесын
бэетые
бэетын
бэетэ
бэетэи
бэетэн
бэетэнүүд
бэетүүдые
бэеые
бэеын
бэеынь
бэеэ
бэеэр
бэеэрээ
бэеээр
бэеһээ
бэеһээн
бэеһээнь
бэзэ
бэи
бэлгын
бэлгэ
бэлгэдэл
бэлгүтэи
бэлдэ
бэлдэжэ
бэлдэхэ
бэлдэһэн
бэлиг
бэлигтэи
бэлигэи
бэлшэжэ
бэлшэр
бэлшээри
бэлшээриин
бэлэг
бэлэгдэл
бэлэдхэдэг
бэлэдхэл
бэлэдхэлдэ
бэлэдхэлэи
бэлэдхэхэ
бэлэдхэһэн
бэлэи
бэлэн
бэртэл
бэртэлдэ
бэрхэ
бэрхэшээл
бэрхэшээлтэи
бэрхэшээлые
бэхжүүлэх
бэхи
бэхилэлтые
бэхилэлтын
бэхилэлтэ
бэхилэлтээр
бэхлэгдэнэ
бэхэ
бэхэжүүлжэ
бэхэжүүлхэ
бэхэлэгдэжэ
бэшхүүр
бэшхүүрые
бэшэ
бэшэбэ
бэшэбэриин
бэшэбэринүүд
бэшэг
бэшэггүи
бэшэгдэдэг
бэшэгдэжэ
бэшэгдэнэ
бэшэгдэһэн
бэшэгтэ
бэшэгтэи
бэшэгтэниие
бэшэгшэ
бэшэгые
бэшэгынь
бэшэгэи
бэшэгээ
бэшэгээр
бэшэгүүд
бэшэгүүдтэ
бэшэгүүдые
бэшэгүүдэи
бэшэдэг
бэшэжэ
бэшэл
бэшэлгые
бэшэлгын
бэшэлгэ
бэшэлгэнүүд
бэшэмэл
бэшэниинь
бэшэнэ
бэшэрэл
бэшэхэ
бэшэхэдэ
бэшэхэдээ
бэшэшье
бэшээ
бэшээд
бэшээр
бэшээтэи
бэшээшэ
бэшээшэд
бэшэһэн
бэшэһэниинь
бэшэһэнэи
бэшэһэнээр
бэшүүр
бэшүүрэи
бээжин
бээжингии
бээжиндэ
бээжэн
бээжэнгэи
бээжэндэ
бээжэнэи
бэһэлиг
бюг
бюджедэи
бюллетень
бюллетеня
бюро
бюрократ
бюрократа
бюрократи
бюрократы
бямба
бү
бүгд
бүгжэ
бүглэрэлтэ
бүгэдые
бүгэдын
бүгэдэ
бүгэдэниитын
бүгэдээрээ
бүд
бүддын
бүдэг
бүдэи
бүдүүлиг
бүдүүн
бүжэг
бүи
бүл
бүлгии
бүлгэм
бүлгэмдэ
бүлгэмые
бүлгэмэи
бүлгэмүүд
бүлеэн
бүлии
бүлые
бүлын
бүлэ
бүлэг
бүлэглэл
бүлэгтэ
бүлэгтэи
бүлэгые
бүлэгэи
бүлэгүүд
бүлэгүүдтэ
бүлэгүүдһөө
бүлэдэ
бүлэдэг
бүлэнь
бүлэнүүд
бүлэтэи
бүлээрээ
бүлэһээ
бүмбэгын
бүмбэгэ
бүмбэгэр
бүмбэлиг
бүмбэрсэг
бүмбэрсэгдэ
бүмбэрсэгтэ
бүмбэрсэгые
бүмбэрсэгэи
бүмбэрсэгүүд
бүр
бүргэд
бүргэдүүд
бүрдсэн
бүрдэнэ
бүрдүүлнэ
бүрдүүлэгшэ
бүреэ
бүреэһэнэи
бүри
бүридхэгдэһэн
бүридхэл
бүридхэлэи
бүридхүүлжэ
бүридэ
бүридэбэ
бүридэдэг
бүридэжэ
бүридэл
бүридэлдэ
бүридэлтэи
бүридэлые
бүридэлэи
бүридэнги
бүридэнэ
бүридэхэ
бүридээ
бүридэһыень
бүридэһэн
бүридүүлбэ
бүридүүлдэг
бүридүүлжэ
бүридүүлнэ
бүридүүлхэ
бүридүүлэгшэ
бүрижэ
бүрии
бүриин
бүрилдэдэг
бүрилдэжэ
бүрилдэн
бүрилдэнэ
бүрилдэхэ
бүрилдэхүүн
бүрилдэхүүндэ
бүрилдэхүүнтэи
бүрилдэһэн
бүрилдүүлдэг
бүримүһэн
бүрин
бүринь
бүритэ
бүрихэгдэһэн
бүришье
бүриһээ
бүриһөө
бүртгүүлсэн
бүртэ
бүрхэгдэнэ
бүрхэгдэһэн
бүрхөөл
бүрхөөлтэи
бүрхөөлээр
бүрхөөһэн
бүрэ
бүрэлдэн
бүрэлдэхүүн
бүрэлдэхүүнд
бүрэн
бүрэнхы
бүс
бүслүүр
бүтэгдэхүүнэи
бүтэдэг
бүтэн
бүтэнэ
бүтэсые
бүтэсын
бүтэсэ
бүтэсэдэ
бүтэсэнь
бүтэсэтэи
бүтэсээр
бүтэсэһээ
бүтэц
бүтээбэ
бүтээгдэжэ
бүтээгдэхүүн
бүтээгдэхүүниие
бүтээгдэхүүные
бүтээгдэхүүнэи
бүтээгдэхүүнээрээ
бүтээгдэхүүнүүд
бүтээгдэһыень
бүтээгдэһэн
бүтээгшэ
бүтээгшэд
бүтээгүи
бүтээдэг
бүтээжэ
бүтээжээ
бүтээл
бүтээлгын
бүтээлгэ
бүтээлдэ
бүтээлдээ
бүтээлдөө
бүтээлнүүд
бүтээлнүүдтэ
бүтээлнүүдые
бүтээлнүүдынь
бүтээлнүүдэи
бүтээлнүүдээ
бүтээлшэ
бүтээлшэд
бүтээлые
бүтээлынь
бүтээлэи
бүтээлээ
бүтээлүүд
бүтээлһөө
бүтээмжэ
бүтээн
бүтээсэн
бүтээхэ
бүтээхэһөө
бүтээһэн
бүтээһэниинь
бүтээһэнээр
бүтэһэн
бүтүү
бүх
бүхии
бүхы
бүхыдөө
бүхыл
бүхын
бүхыные
бүхынһээ
бүхыорос
бүхэ
бүхэдэлхэи
бүхэжүүлхэ
бүхэл
бүхэлдэнь
бүхэлдээ
бүхэлеэр
бүхэли
бүхэлидэнь
бүхэлидөө
бүхэлхэеэ
бүхэн
бүхэндэ
бүхэниие
бүхэнтэи
бүхэные
бүхэнэи
бүхэорос
бүхэоросои
бүхэроссиин
бүхэтэр
бүү
бүүбэи
бүһые
бүһын
бүһэ
бүһэд
бүһэдэ
бүһэлэлгые
бүһэлэлтые
бүһэлэлтын
бүһэлэлтэ
бүһэлэлтэдэ
бүһэлэн
бүһэнь
бүһэнүүд
бүһээр
бүһэһээ
бөгөөд
бөмбөг
бөх
бөө
бөөгии
бөөгнэрэл
бөөгнэрэлдэ
бөөгнэрэлэи
бөөгэи
бөөжэхэ
бөөм
бөөмсын
бөөн
бөөнөөр
бөөһэ
в
ва
ваараи
вавилон
вавилонои
вавилоншууд
вагнер
вагон
вада
ваза
ваи
вакуум
вакцина
вакциные
валенса
валенси
валентина
валентын
валерии
валуа
вальс
вальтер
валюта
валютын
вам
вами
ван
ванаи
вангаи
вангин
вандал
вандализм
вандалнууд
ваниин
ванкувер
вант
ванта
вануату
вань
вар
вариант
варианты
вариацинууд
варламов
варламовои
варшава
варшавада
варшавын
вас
василии
васильевич
васко
вассал
ват
ватикан
ватиканаи
ваттын
ваш
ваша
ваше
вашего
вашеи
вашем
ваши
вашим
вашингтон
вашингтонои
ваших
вашу
вая
вв
введение
ввести
ве
веб
вебер
веберэи
вебсаи
вегас
веда
ведын
ведь
везер
века
веке
вектор
веласкес
великии
велико
великои
велосипед
велоспорт
вен
вена
венгри
венесуэла
венесуэлын
венесуэлэ
венеци
венециин
венын
венэ
венэгэи
венэдэ
вепсскои
вепсском
вергили
вергилии
верде
верденэи
верди
верить
вермонт
вернер
верно
версалиин
версаль
версальда
версии
версия
версиях
верхнеи
верховно
вестгот
вестготууд
вестготуудаи
вести
вестминстерэи
вестник
вестфали
вестфалиин
весь
весьма
вечная
взгляд
взглядам
взят
вивальди
вид
вида
видам
виде
видео
видно
видов
вижу
византи
византии
византиин
вики
викиданные
викиданных
викимарафоне
викимедиа
викимедии
викингүүд
викингүүдэи
википеди
википедиеи
википедии
википедию
википедия
википедиях
википедчин
википеэди
википеэдидэ
википеэдии
википеэдиин
википеэдиууд
викисклад
викискладе
викификатор
виктор
виктора
виктори
викториа
виктория
виллем
вилли
вильгельм
вильно
вильнюс
вильхельм
вильһельм
винаи
виндхук
винни
винсент
винчи
виолончель
виолончельтэи
вирджини
вирджиниин
вирджининь
вирус
вирусаар
вирусаи
вирусууд
висконсин
витамин
витаминаи
витгенштаи
витим
вич
вишера
вка
вклад
вклада
вкладом
включая
владе
владеет
владельцев
владение
владения
владивосток
владивостокын
владимир
владимираи
владимирович
владислав
власти
вместе
вместо
вне
внести
внизу
вникая
внимание
вновь
вносит
внутреннеи
внутренняя
внутри
во
вод
водные
воевоодствын
военная
военно
военные
военных
возвращает
воздержался
воздержитесь
возможно
возможности
возможность
возрастом
вои
вокруг
волапук
волга
волгоград
волгоградаи
волеи
волонте
волоф
вольтер
вольфганг
вольфрам
воля
вообще
вопрос
вопроса
вопросам
вопросах
вопросов
вопросу
вопросы
воронеж
воронежэи
восток
востока
восточная
восточнои
восточном
восточныи
вот
вп
впечатление
впн
вполне
впредь
вр
времени
временная
время
вроде
вроцлав
все
всегда
всего
всем
всемирная
всему
всероссии
всех
вставить
встрече
встречи
вся
всякие
вторая
второго
второи
втором
вузов
вукан
вцик
вчлан
вы
выборам
выборах
выборов
выборы
вывода
выводится
выглядит
вызов
вызова
вызове
вызывает
выи
вып
выпуск
выпускники
выразить
выскажите
выслушать
высокии
высота
высоты
выставлена
выставлениях
выходит
вычегда
выше
вьентьян
вьентьяниие
вьетнам
вьетнамаи
вьяс
вэ
вэб
вэбсаи
вэи
вятка
вяткина
вяткын
вячеслав
г
га
гаа
гааг
гаагаа
гаагаар
гаагые
гаагын
гаагүи
гаад
гаае
гаали
гаалида
гаалиие
гаалиин
гаалитаи
гаань
гаар
гаараа
гаашье
гааһаа
габон
габриэль
габьяагаи
габьяата
габьяатаи
гаврило
гагарин
гагринаи
гагсахүү
гадаад
гадаада
гадаадада
гадаадын
гадагша
гадагшаа
гадагшалха
гадана
гаданаи
гадар
гадарга
гадаргатаи
гадаргуу
гадаргуугаи
гадаргууда
гадаргууе
гадаргуунь
гадаргуутаи
гадаргууһаа
гадаргые
гадаргын
гадил
гадилаи
гадна
гаднаһаа
гаднын
гадуур
гадуурха
газ
газа
газаа
газаагуурнь
газаада
газаахи
газар
газараа
газараар
газараи
газаргүи
газарда
газарзүи
газарнууд
газарнуудаар
газарнуудаи
газарнуудта
газарнуудтаи
газарнуудые
газарт
газарта
газартаа
газартаи
газартань
газарууд
газаруудаи
газаруудиинь
газарые
газарынь
газарһаа
газета
газрыг
газрын
газын
гаи
гаити
гал
галаа
галаар
галабаи
галабта
галабһаа
галаи
галактика
галактикада
галактикын
галанов
галановаи
галда
галдажа
галдан
галдаһан
гален
галереи
галзуу
галзууд
галии
галиин
галилеи
галилео
галициие
галли
галлида
галлиие
галлиин
галсан
галсанов
галта
галтаи
галуун
галуунаи
галуута
галые
галь
гама
гамби
гамгүи
гамшаг
ган
гана
ганг
ганга
гангаи
гангууд
гангын
ганда
гандан
ганди
гандиин
ганешые
ганешын
ганжуур
ганс
ганса
гансаар
гансаараа
гансал
гансата
гансахан
гансашье
гантиг
ганхажа
гао
гар
гара
гараа
гараагүи
гараад
гараар
гараараа
гараба
гарабал
гараг
гарагаи
гарагта
гарагууд
гарагуудаи
гарагуудые
гарагуудынь
гарагые
гарагынь
гарагһаа
гарадаг
гаража
гараи
гарал
гаралаи
гаралга
гаралгагүи
гаралгатаи
гаралгын
гаралтаи
гаралһан
гарам
гарамгаи
гаран
гарана
гараса
гарах
гараха
гарахада
гарахаһаа
гарахын
гараһан
гараһанаар
гараһанаи
гараһаниинь
гараһанһаа
гарбал
гарбалаи
гарбалтаи
гарбалтан
гарга
гаргаа
гаргаад
гаргаба
гаргагдаба
гаргагдаһан
гаргагша
гаргадаг
гаргаж
гаргажа
гаргажээ
гаргалга
гаргалгын
гарган
гаргана
гаргасан
гаргаха
гаргахад
гаргахые
гаргаһан
гаргаһанаар
гаргаһанаи
гаргаһаниинь
гардаг
гардан
гарза
гарзалалга
гарма
гармаев
гармаевич
гарса
гарсан
гарсиа
гарта
гартаа
гартаи
гаруи
гарч
гарша
гаршагтаи
гаршуулан
гаршуулжа
гаршуулһан
гаршье
гары
гарын
гарһаа
гарһан
гас
гастроэнтерит
гаталан
гаталжа
гаутама
гахаи
гашуун
гвадалахара
гвадалахаре
гвадалахары
гвардия
гватемала
гватемалын
гвинеи
гвинея
гг
гггг
гданьск
гданьскта
гданьскын
где
гдсэн
ге
гевара
геи
гектар
гектарта
гектарһаа
гели
ген
гендель
генераал
генерал
генералаи
генеральна
генератор
генетик
генетикын
геннадии
генрих
генуя
генэи
географи
географии
географиин
географические
географических
география
геологи
геологиин
геолоогиин
геометри
геометриин
георг
георгии
герб
герба
гербын
герекые
герм
герман
германаи
германи
германида
германидахи
германии
германиие
германиин
германиинь
германитаи
германия
германиһаа
германтаи
германшууд
германшуудые
германы
герои
герцеговина
герцеговинагиин
герцль
герцогои
гза
гибралтар
гибралтараи
гибридизировалха
гии
гиигүүлэгшэ
гильгамеш
гильгамешэи
гималаи
гимна
гимнази
гимназиин
гимнастика
гиподермын
гитара
гитлер
гишүүд
гишүүдэи
гишүүн
гл
глава
главная
главы
глазгогои
гликоген
глобализаци
глобально
глобальное
глобальныи
глубоко
глюкоза
глюкозо
гмии
гнезно
го
гоби
говии
говорил
говорит
говорю
говорят
говь
гог
год
года
годао
годах
годигор
году
годунов
годы
гое
гои
гол
голанаи
голдо
голдоо
голдуу
голе
голец
голицынаи
голланд
голландшууд
голландын
голлиин
голлон
голлохо
голль
голнууд
голнуудаар
голнуудаи
гологдол
голои
голоор
голос
голоса
голосов
голосование
голосовании
голосования
голосовать
голосу
голосую
голосуют
голосующим
голтои
голууд
голшолон
голые
голын
голынь
гольф
гольцы
голһоо
гоман
гомбо
гомдол
гомер
гоминидууд
гоминьдан
гоминьдангаи
гомулка
гондурас
гонзогор
гонзогороор
гончигии
гоо
гоор
гоороо
гор
гора
горбаче
гордон
горе
горим
горитои
горлог
горно
город
города
городам
городе
городов
городогои
городок
городских
городского
городскои
городском
горох
горхи
горход
горхон
горхонои
горы
горькии
горькиин
гос
госпиталь
гост
государства
государственная
государственного
государственнои
государственности
государственныи
государство
готик
готикын
готов
готова
готфрид
гпа
гр
граам
гравитациин
градус
градусаар
градусаи
градусах
грамм
грамматикын
грамматическа
гран
гранадын
гранд
граница
границы
грант
графта
грвл
грегүүд
грегүүдтэи
грек
грекаи
грекда
грекшууд
грекые
грекын
грекэи
грекээр
грекүүд
гренада
гренадин
гренланд
греци
греции
грециин
григории
григориин
грузии
групп
группа
группе
группои
группы
груша
грынцеэвич
гси
гто
гтолол
гты
гу
гуа
гуам
гуанчжоу
гуанчжоудо
гуань
губи
губин
губина
губирнааторствын
губшуур
гудамжа
гудамжаар
гудамжада
гудамжые
гудамжын
гудзон
гуи
гулаг
гуламта
гуламтын
гуманизм
гун
гунда
гуниг
гупта
гур
гурабадахи
гурав
гуравдугаар
гуравны
гурба
гурбада
гурбадагша
гурбадахи
гурбадугаар
гурбадугаарта
гурбал
гурбалжан
гурбалые
гурбалһан
гурбан
гурбанаи
гурбань
гурбуулан
гурбые
гурван
гургалдаи
гурил
гуриланд
гурилыг
гурим
гуримаар
гуримгүи
гуримтаи
гуримтанаи
гуримые
гурион
гурионои
гурнууд
гуру
гурэн
гурэнэи
густав
гутаи
гутал
гуталаи
гутенберг
гуул
гуулаа
гуулаад
гуулаба
гуулагда
гуулагдаба
гуулагдажа
гуулагдан
гуулагданхаи
гуулагдаха
гуулагдахада
гуулагдаһан
гуулагдаһанаи
гуулагдаһаниие
гуулагдаһанһаа
гуулагджээ
гуулагдсан
гуулагша
гуулагшад
гуулал
гуулалга
гуулалганууд
гуулалгын
гуулалта
гуулалтада
гуулалтаи
гуулалтатаи
гуулалтые
гуулалтын
гууламжа
гууламжатаи
гууламжые
гуулан
гууланхаи
гуулах
гуулаха
гуулба
гуулга
гуулгада
гуулганууд
гуулгануудаи
гуулгануудһаа
гуулгань
гуулгатаи
гуулгаһаа
гуулгууд
гуулгые
гуулгын
гуулдаг
гуулж
гуулжа
гуулжаа
гуулжээ
гууллага
гууллагын
гуулна
гуулсан
гуулха
гуулхаар
гуулхад
гуулхада
гуулхые
гуулхын
гуулһан
гуулһанаар
гуулһанаи
гуур
гуурһан
гуша
гушаад
гушад
гушан
гц
гша
гые
гын
гэ
гэбшье
гэбэ
гэбэл
гэбэш
гэбэшье
гэвч
гэгдэдэг
гэгдэжэ
гэгдэнэ
гэгдэхэ
гэгдэһэн
гэгшэ
гэгэшье
гэгээн
гэгээнтэн
гэгээнтэнэи
гэгээрэл
гэгээрэлдэ
гэгээрэлэи
гэгээрүүлэгшэ
гэгээрһэн
гэдгии
гэдрэг
гэдэг
гэдэгтэ
гэдэгтэи
гэдэгые
гэдэгынь
гэдэгэнь
гэдэгээ
гэдэгээр
гэдэгээрээ
гэдэгһээ
гэдэһэ
гэдэһэн
гэдэһэндэ
гэдэһэнэи
гэж
гэжэ
гэжээ
гэи
гэлсэдэг
гэлэн
гэлээшье
гэлүгбын
гэм
гэмпшир
гэмтэ
гэмтэжэ
гэмтэл
гэмтэлэи
гэмтээжэ
гэмтээнгүи
гэмтэһэн
гэмээр
гэн
гэндзи
гэндэн
гэнжэ
гэнжэлһэн
гэнжэтэи
гэнтын
гэнтэ
гэнэ
гэнэтэи
гэр
гэргүи
гэрлэбэ
гэрлэжэ
гэрлэлгын
гэрлэлгэ
гэрлэлтые
гэрлэхэ
гэрлэһэн
гэрнүүд
гэртэ
гэртээ
гэршэлнэ
гэрые
гэрэи
гэрэл
гэрэлтэ
гэрэлтэдэг
гэрэлтэи
гэрэлтэхэ
гэрэлые
гэрэлэи
гэрэлээр
гэрээ
гэрээгээр
гэрээнд
гэрээр
гэрһээ
гэс
гэсэл
гэсэн
гэсэр
гэсэрые
гэтэл
гэх
гэхдээ
гэхыдээ
гэхые
гэхэ
гэхэд
гэхэдэ
гэхэдээ
гэхэнь
гэхээр
гэшүүд
гэшүүдтэ
гэшүүдые
гэшүүдэи
гэшүүдээ
гэшүүдһээ
гэшүүн
гэшүүнтэи
гэшүүнэи
гэшүүнээр
гээ
гээд
гээн
гээр
гээрээ
гээшые
гээшэ
гээшэмнаи
гээшэнь
гэһэн
гэһэниие
гэһэниинь
гэһэншье
гэһээр
гюго
гюгогои
гялтгануур
гү
гүбеэр
гүбээ
гүбөө
гүгүре
гүи
гүлзөөргэнэ
гүмбүм
гүн
гүндэ
гүнжэ
гүнзэгы
гүнзэгыдэ
гүнзэгынь
гүнзэгэи
гүниинь
гүнлиг
гүнлигэи
гүнлигүүд
гүнтэ
гүнтэи
гүнэи
гүнүүдэи
гүр
гүрбэл
гүрбэлнүүд
гүрбэлнүүдэи
гүрж
гүржи
гүржиин
гүржинүүд
гүрнии
гүрэи
гүрэн
гүрэндэ
гүрэндөө
гүрэниие
гүрэниинь
гүрэнтэи
гүрэные
гүрэнэи
гүрэнээ
гүрэнүүд
гүрэнүүдтэ
гүрэнүүдэи
гүрэнһөө
гүрэнөө
гүрөө
гүрөөл
гүрөөлэи
гүрөөһэн
гүюг
гүүнэи
гүүш
гөө
гөөр
д
да
даа
даабуу
даабуунаи
дааг
даагшаар
даадхал
даадхалаи
даан
даанги
даар
дааһан
даб
даба
дабаа
дабаад
дабаан
дабаанаи
дабаатаи
дабажа
дабалгаа
дабамгаи
дабан
дабари
дабаритаи
дабархаи
дабаха
дабаһан
даби
дабирхаи
дабталга
дабтамжа
дабтан
дабуу
дабуунаи
дабхар
дабхараа
дабхаралдаһан
дабхарга
дабхаргада
дабхаргын
дабхарта
дабхартаи
дабхарһаа
дабшалта
дабшалтаяа
дабһаар
дабһажалта
дабһажалтань
дабһажалтатаи
дабһан
дабһанаи
дабһангүи
дабһатаи
даваи
даватчан
давать
давид
давно
давхар
даг
дагаар
дагаараа
дагабари
дагавар
дагагсад
дагадаг
дагажа
дагалдагшадаи
даган
дагаха
дагахые
дагаһан
дагаһанаар
даггүи
дагестан
дагестанаи
дагиинь
дагина
дагиров
дагның
дагуу
дагуулан
дагуулжа
дагуур
дагууха
дагшье
дагые
дагынь
дагһаа
дадал
дадалга
дадхаалга
дае
дажа
дажангүи
даже
даи
дакка
дакота
дал
дала
далаа
далаар
далаараа
далаарынь
далаи
далан
далд
далда
далдаа
далее
далеко
дали
далигүи
далиин
далимдуулан
далинаи
далинуудаи
далинь
далитаи
далитан
далитанаи
далтаи
далшье
далые
далынь
дальнии
дальше
далянь
даляньская
даляньскии
далһаа
дам
дамаск
дамаскта
дамаскын
дамба
дамбаев
дамбинов
дамдинов
дамдиноваи
дамдинсүрэн
дамжадаг
дамжан
дамжаха
дамжаһан
дамжин
дамжуулагша
дамжуулагшые
дамжуулагшын
дамжуулал
дамжуулалтаи
дамжуулалынь
дамжуулан
дамжуулах
дамжуулга
дамжуулдаг
дамжуулха
дамжуулһан
дамнан
дамнаһан
дан
дангаараа
дангина
дангинын
дандаа
дандар
данзан
дани
даниин
данного
данное
даннои
данном
данные
данныи
данных
данте
данциг
данцигаи
дань
дао
даосизм
дар
дара
дараа
дараагаар
дараагаарынь
дараагаи
дараагии
дараалал
дараалалые
дараалан
дарааллаар
дараалһан
дараань
дараах
дарааха
дараахан
дараахи
дараашаһаа
дараашын
дарабад
дарагдаба
дарагдаж
дарагдаһан
даража
даралга
даралта
даралтаар
даралтатаи
даралтые
даралтын
дарамта
дарамтанда
дарангуи
дарангылал
дарангылалаи
дараха
дарахаар
дарахын
дараһан
дарвин
дарга
даргаар
даргань
даргын
дарданеллын
дари
даридаи
дарма
даруи
дархалаа
дархалаае
дархалаанаи
дархалал
дархалалаи
дархалалга
дархалалгын
дархалга
дархалдаг
дархан
дарханаи
дархашуулаи
дары
дарья
дарһан
дарһанаи
дарһаниие
дас
дасан
дасанаи
дасангууд
дасанда
даста
дат
дата
даты
дать
даурскии
даха
дахаад
дахабал
дахабаринууд
дахажа
дахан
дахаха
дахи
дахин
дахинаа
дахинаи
дахинда
дахинһаа
дахуу
дахуул
дахуулаи
дахуулан
дахуултаи
дахуулһан
дахуулһанаар
дахь
дахяад
даша
дашадоржо
дашарабдан
даши
дашинимаев
даяанша
даяар
даяархи
даһан
дбар
два
две
движение
движением
движения
двои
дворжак
дворце
двумя
двух
двэр
двэрии
дд
де
дезоксирибонуклеинаи
деи
декабриин
декабрист
декабрь
декабря
декарт
декларации
декларация
делавэр
делается
делам
делано
делать
деле
деление
дели
дело
дель
дельфин
демокраати
демократ
ден
дена
день
департамент
департаментын
депутадуудаи
депутат
депутатаи
депутатуудаи
депутатуудта
дер
деструктивные
десятичном
дет
детальнууд
дете
детрои
деятельности
дж
джавахарлал
джаз
джаи
джакарта
джакартын
джакомо
джами
джан
джана
джанаи
джанда
джанни
джанскои
джанууд
джеи
джерси
джеффри
джибути
джимми
джо
джованни
джозеф
джои
джокович
джон
джордж
джорджи
джорж
джотто
джоуль
джузеппе
джэксон
джэнни
дзе
дзи
дзэн
дзюдо
ди
диабет
диагноз
диалог
диаметр
диаметрһээ
диареи
диаспора
дивац
дивизи
дид
диего
дизаи
дизель
дии
диилэбэ
диилэжэ
диилэнхи
диилэнхидээ
диилэнхинь
диилэхэгүи
диккенс
диктатор
диктатура
дин
динамика
династи
династии
династиин
династия
дингер
дингерэи
диод
дипломат
дипломати
дипломатиин
диполии
директор
дирижабль
дириже
дис
диск
дискуссии
дискуссия
диснеи
дите
дитрих
дифференциал
длаар
длии
длыг
для
дмитрии
дн
днар
днараи
днб
дневник
днх
дня
до
добо
добра
добро
доброго
добросовестного
добруджа
добрыи
добтолбо
добтолго
добтолгодо
добтолгоо
добтолгоондо
добтолгоонои
добтолгоһоо
добтолгын
добтолжо
добтолон
добтолоо
добтолоод
добтолхо
добтолходо
добтолһон
добтолһонои
добтолһоноор
добу
доверие
доверия
дог
догшин
догшон
дои
док
доклад
доктор
докторои
документации
долган
долге
долгин
долгиндо
долгиниие
долгиниинь
долгинои
долгинууд
долгионы
долгота
долготы
должен
должна
должно
должны
доллар
доллараар
доллараи
доллартаи
долодугаар
долоо
долоодохи
долоодугаар
долоон
долоонои
долоотои
дом
дома
доминика
доминикана
доминион
домог
домогои
домогто
домогууд
дон
дондог
дондогои
дондокова
дондохи
донецк
донои
донор
доо
доогуур
доод
доодо
дооктор
доол
доор
дооро
доороо
доорохи
доорохо
доошо
доошоо
доп
дополнительная
дополнительного
дополнительные
дополнить
дор
доработки
доржи
доржо
дорно
дорнод
доро
дорога
дорои
дороо
дорохи
дорһото
досоо
досоонь
досоохи
достаточно
достижения
достоевскии
достои
достопримечательности
доступа
доступен
доступны
доступных
дотогшо
дотоно
дотоныхондоо
дотоод
дотоодо
дотоодын
дотор
доторои
дотороо
доторхи
доторынь
доторһоо
дотроо
дотуур
дох
дохе
дохи
дохо
дохолон
дохюур
дохюураи
дохюурынь
дошхон
др
драамын
драма
драматург
драмын
драхма
древнего
древнеи
древнеиндии
дрезден
дреи
друг
другие
другими
других
другого
другое
другои
другом
дружба
друзеи
ду
дубаи
дублин
дублинаи
дублинэи
дугаар
дугаартаи
дуган
дуганаи
дугуи
дугы
дуи
дулаан
дулаанаи
дулааниие
дулааны
дулааралга
дума
думада
думали
думаю
думые
думын
дун
дунаи
дунд
дунда
дундаа
дундад
дундада
дундаж
дундажа
дундажаар
дундануудтаи
дундань
дундаха
дундахи
дундаһаа
дунджаар
дундуур
дундын
дура
дураар
дураараа
дурагүи
дурадхадаг
дурадхаһан
дуран
дуранаи
дурасхаал
дурасхаалаи
дурасхаалта
дурасхал
дурасхалаи
дурасхалнууд
дурасхалта
дурасхалтаи
дуратаи
дургүи
дурдабал
дурдагдадагаи
дурдагдаһан
дурдадаг
дурдажа
дурдалга
дурдана
дурдая
дурдаһан
дуридабал
дуридаһан
дурлал
дурна
дурнада
дурнын
дуртагал
дурын
дутагдал
дутагдалаи
дутамаг
дутуу
дуу
дуугаа
дуугаи
дуугардаг
дуугаржа
дуугарха
дуугүи
дууд
дуудаба
дуудагдадаг
дуудадаг
дуудажа
дуудалга
дуудалгатаи
дууе
дуулажа
дуулал
дуулалые
дуулана
дуун
дуунаи
дуунда
дууниие
дуунууд
дуунуудаи
дуунуудые
дууны
дуунһаа
дуури
дуурии
дууриие
дууриин
дууринууд
дууринь
дуурь
дууссан
дууша
дуушад
дуушан
дууһаагүи
дууһаад
дууһаба
дууһахада
дууһаһан
дууһаһанаи
духа
духын
душанбе
души
дуһал
дуһалаи
дуһалнууд
дхарма
дхармые
дхб
дхэхэ
дые
дын
дыр
дыры
дэ
дэбжэбэ
дэбжэжэ
дэбжэлтые
дэбжэлтын
дэбжэлтэ
дэбжэлтэдэ
дэбжэлтэтэ
дэбжэлтээр
дэбжүүлһэн
дэбисхэр
дэбисхэриие
дэбисхэрнүүд
дэбисхэртэ
дэбисхэртэи
дэбисхэрые
дэбисхэрынь
дэбисхэрэи
дэбисхэрээр
дэбисхэрээрээ
дэбисхэрһээ
дэбтэр
дэбшүүлбэ
дэбшүүлэн
дэбшүүлһэн
дэбэрһэн
дэви
дэвид
дэвсгэр
дэг
дэгдээжэ
дэгдээһэн
дэгдэһэн
дэглэм
дэглэмдэ
дэглэмт
дэглэмтэи
дэглэмые
дэглэмэи
дэглэмээр
дэгэл
дэгээ
дэгүүр
дэд
дэдэ
дэи
дэл
дэлбэрэлтэ
дэлгэмэл
дэлгэр
дэлгэрбэ
дэлгэржэ
дэлгэрч
дэлгэршэ
дэлгэрэн
дэлгэрэнги
дэлгэрэнгы
дэлгэрэнгые
дэлгэрэнгүи
дэлгэрүүлж
дэлгэрүүлжэ
дэлгэрүүлхэ
дэлгэрүүлээ
дэлгэрүүлһэн
дэлгэрһые
дэлгэрһэн
дэлгэц
дэлгэции
дэлгүүр
дэлгүүрэи
дэлжэ
дэлтэи
дэлхии
дэлхэи
дэлые
дэлэи
дэлюун
дэмб
дэмжих
дэмжлэг
дэмжлэгтэи
дэмжэбэ
дэмжэгшэ
дэмжэгшэд
дэмжэдэг
дэмжэжэ
дэмжэлгэ
дэмжэлгэтэи
дэмжэн
дэмжэнэб
дэмжэхэ
дэмжээгүи
дэмжэһэн
дэмжүүлһэн
дэмы
дэн
дэнь
дэргэд
дэргэдэ
дэргэдэхи
дэс
дэх
дэхи
дэхэ
дээ
дээбэри
дээгүүр
дээд
дээдын
дээдэ
дээдэлэгдэбэ
дээдэһын
дээжэ
дээр
дээри
дээрх
дээрхи
дээршэ
дээрэ
дээрэмдэн
дээрэнь
дээрэхи
дээрэхиин
дээрэхэ
дээрээ
дээрэһээ
дээрэһээнь
дээш
дээшэ
дээшэлжэ
дээшэлүүлхэ
дээшэлүүлһэн
дээшэлһэниинь
дээшэнь
дээшээ
дээһэн
дюрер
дядя
дүгжүүбэ
дүгнэлтые
дүгнэлтэ
дүгнэлтэдэ
дүгэнээд
дүгээр
дүи
дүлии
дүн
дүнгые
дүнгэжэ
дүнгэи
дүнгээр
дүнгүи
дүнд
дүндэ
дүндэнь
дүниинь
дүнтэи
дүр
дүрбэ
дүрбэдэхи
дүрбэдүгээр
дүрбэл
дүрбэлжэн
дүрбэлнүүд
дүрбэн
дүрбэнэи
дүрдэ
дүрим
дүримые
дүримэи
дүримүүд
дүрсые
дүрсын
дүрсэ
дүрсэлдэг
дүрсэлжэ
дүрсэлхэ
дүрсэлэн
дүрсэлһэн
дүрсэнүүд
дүрсэтэи
дүрсээ
дүршэл
дүрые
дүрын
дүрэ
дүрэм
дүрэмые
дүрээр
дүтын
дүтэ
дүтэрхы
дүхэжэ
дүхэм
дүхэриг
дүшэн
дүү
дүүмэ
дүүмэнүүд
дүүмэтэи
дүүнэр
дүүнэрэи
дүүргии
дүүргын
дүүргэ
дүүргэбэ
дүүргэдэ
дүүргэдэг
дүүргэжэ
дүүргэлт
дүүргэнэ
дүүргэнүүд
дүүргэхэ
дүүргээ
дүүргээд
дүүргэһэн
дүүргэһэнэи
дүүрэн
дүүрэһэн
дүүтэи
дһаа
дөрвөл
дөрвөн
дөө
е
евангели
евангелиин
евгении
евклид
евклидэи
еврази
евразида
евразиин
евреи
евро
еврогои
еврозона
европ
европа
европеи
европо
европодо
европодохи
европоһоо
европы
европын
европынхи
европынхид
египедэи
египет
египетаи
египетда
египетдэ
египетын
египетэи
египетһээ
его
единица
единственныи
ее
екатерина
екатеринбург
екатеринбургын
екатеринын
елена
елизавета
елизаветын
ель
емен
ему
ен
енисеи
ень
епископ
ер
ердии
ердын
ереван
ерэ
ерэбэ
ерэдэг
ерэжэ
ерэлгэ
ерэн
ерэнэ
ерэхэ
ерэхэдэ
ерэхэдээ
ерээ
ерээд
ерээдүи
ерэһэн
ерэһэниинь
ерэһэнэи
ерэһэнээр
ерэһээр
ерөнхии
если
есть
есүхэи
ефрона
ех
ехэ
ехэбшэлэн
ехэд
ехэдхэбэ
ехэдхэжэ
ехэдхэхэ
ехэдхэһэн
ехэдэ
ехэдээ
ехэнхи
ехэнхидээ
ехэнхиие
ехэнхинь
ехэнхэ
ехэтэи
ехэхэн
ехээр
еще
еһонои
еһоор
еһуда
ж
жа
жаа
жаахан
жабартаи
жабзандамба
жавзандамба
жагсааба
жагсаабал
жагсаал
жагсаалда
жагсаалт
жагсаалта
жагсаалтада
жагсаалтые
жагсагшад
жагсадаг
жагсажа
жагсана
жада
жадаран
жажаг
жажагхан
жак
жалаи
жалга
жаль
жальгирис
жамса
жамсо
жамсын
жамуха
жамухатаи
жамухые
жамьян
жан
жанаи
жанар
жангар
жанеи
жанжан
жанжанаи
жанжин
жанна
жанрнууд
жанрын
жараахаи
жаран
жаргал
жаргала
жаргаланта
жаргалтаи
жаргалые
жаргаль
жаржа
жаруулан
жаруулга
жаруулжа
жаруулха
жаруулһан
жарһан
жаяг
же
желание
желательно
железнодорожныи
жена
женева
жи
жибраил
жибэн
животных
живут
жижиг
жизни
жизнь
жиирэи
жил
жилд
жилии
жимба
жин
жипкош
жирии
жителеи
жишээ
жняя
жо
жодоо
жозеф
жол
жолоодогшо
жомбогор
жомолунгма
жон
жоом
жорж
жруулсан
жуан
жужан
жун
журам
журамаар
журамаи
журамда
журамта
журамтаи
журамые
журнал
журналист
жуулчлал
жуулчлалын
жын
жэ
жэбэрсэгүи
жэгүүрэи
жэжэ
жэжэг
жэжэгхэн
жэл
жэлдэ
жэлдээ
жэлнүүд
жэлнүүдтэ
жэлнүүдэи
жэлууд
жэлые
жэлын
жэлынь
жэлэи
жэлээр
жэлүүдта
жэлһээ
жэмэр
жэмэс
жэмэстүүд
жэмэсынь
жэмэсэи
жэнтэи
жэнхэни
жэрмэһэлэлтэ
жэрмэһэн
жэрмэһэнэи
жэхэ
жэшээ
жэшээе
жэшээлбэл
жэшээлхэдэ
жэшээнь
жээ
жээшэ
жээшэнь
жүз
жүлүүдэд
жүн
жүржэ
жүрхинэи
жүрхинүүд
жүсон
з
за
заабал
заабари
заавар
зааг
заагаагүи
заагдаһан
зааглан
заагта
заадаг
заае
заажа
заалгажа
заан
заанаи
заар
заасан
заатагүи
зааха
заахан
зааһан
зааһанаи
забаи
заблокировал
заблокирован
забудьте
забһар
забһараи
завершится
зависимости
завод
заводаи
заводто
заводуудаи
завоодуудаи
зага
загаи
загалмаи
загараи
загаһа
загаһад
загаһан
загаһанаи
загаһаниинь
загаһанууд
загаһануудынь
загаһашан
загбар
загбараар
загбараи
загбаритаи
загбарнууд
загбарые
загвар
загварууд
заглавнои
загружать
загружающего
загружен
загруженные
загруженныи
загрузка
загрузки
задагаи
задалан
задалжа
задалха
задам
задана
задарал
задаралаар
задаралаи
задаралга
задаран
задарба
задардаг
задаржа
задарха
задарһанаар
задать
задачи
задгаи
задеи
заи
закон
закона
законодательство
законы
закрытии
закрытия
закрыто
закрыть
зал
залажа
заламгаи
заларба
заларһан
залаһан
залгаа
залгадаг
залгажа
залгалаа
залгалаанаи
залгамал
залгамжалагша
залгамжалагшаар
залгамжалагшад
залгамжалагшые
залгамжалалаи
залгамжалан
залгамжалба
залгамжалжа
залгамжалха
залгамжалһан
залган
залгана
залгаһан
залирууштаи
залуу
залуучуудын
залуушууд
залуушуул
залуушуулаи
зам
замаар
замаг
замаи
замбараагүи
замбези
замби
замбуулин
замбуулингаи
замда
замдаа
заменить
заметил
замнуулхын
замосць
замтаи
замууд
замыг
замые
замын
замһаа
зан
занаи
занал
занар
зангаи
зангалаи
зангилаа
зангилаанаи
зангилаануудһаа
занда
зандаа
зандан
зантаи
заншал
заншалаар
заншалаи
заншалта
заншалтаи
заншалые
западного
западнои
записать
записеи
записи
записки
записывается
запись
заполненного
заполнив
запрещают
запрещена
запрещено
запрос
запросы
заработало
зарадал
зараса
зардалые
зарим
зариманиинь
заримдаа
заримые
заримыень
заримынь
зарлаба
зарлав
зарлажа
зарлан
зарлаһан
зарлиг
зарлигаар
зарлигаи
зарлигые
зарсуулжа
зарсуулха
зарсуулһан
зарубинаи
заршам
заршамаар
заршамаи
заршамууд
заршамуудые
заршамые
заря
заряа
засаг
засагаа
засагаи
засаглал
засаглалаи
засаглалтаи
засаглалыг
засаглалые
засаглалынь
засаглаха
засагта
засагтаи
засагша
засагшад
засагые
засагынь
засагһаа
засажа
засах
засаха
засгии
заседани
заседаниин
заслуги
затем
зато
зах
заха
захааминаи
захаар
захаараа
захада
захалдаг
захатаи
захидал
захирагдадаг
захирагдана
захирагдаха
захирагдаһан
захирагша
захирагшатаи
захирагшын
захирал
захиралтаар
захирба
захиргаа
захиргааг
захиргаан
захиргаанаи
захиргаанда
захиргаандаа
захиргааниие
захиргааны
захиргаата
захирдаг
захиржа
захирха
захирһан
захын
захяа
зачем
защиты
заяа
заяан
заяаһан
заявил
заявка
заявке
заявки
заявку
заявление
заявлении
заявления
заявок
заянаа
заһабари
заһабарилга
заһабарилха
заһагдаһан
заһадаг
заһажа
заһал
заһалга
заһалгые
заһаха
заһаһан
зве
здесь
здравоохранения
здравствуи
зеи
зеланд
зеландта
зелев
земледельческии
земли
земля
зенкевича
зер
зеро
зи
зигмунд
зиин
зимбабве
зингшпиль
златоустын
злучаи
знает
знаете
знаком
знание
знанием
знании
знать
значение
значении
значения
значит
значительно
знаю
знают
зны
зоблон
зоблонгые
зобожо
зоболон
зоболонгои
зоболонгые
зоболондо
зоболонтои
зобохо
зогсобо
зогсожо
зогсонги
зогсоожо
зогсоол
зогсоон
зогсоохо
зогсооһон
зогсохо
зогсоһон
золгобо
золгодог
золгоод
золото
зон
зондо
зониие
зониинь
зоно
зонои
зоноо
зоноор
зоноороо
зонтои
зонхилдог
зонхилно
зонхилон
зонхилхо
зонхобо
зонхобын
зоос
зоосые
зооһон
зориг
зоригто
зоригтои
зорижо
зорилго
зорилгодо
зорилгое
зорилгонууд
зорилгонь
зорилгоор
зорилготои
зорилгые
зорилто
зоримог
зориулсан
зориһон
зороастраи
зорюулагдаһан
зорюулалтаар
зорюулалтатаи
зорюулалтын
зорюулан
зорюулжа
зорюулһан
зорюута
зохе
зохеол
зохеолои
зохилдожо
зохилдоһон
зохимуи
зохиол
зохион
зохисожо
зохисол
зохисоһон
зохистои
зохисуулалта
зохисуулжа
зохисуулна
зохисуулха
зохихо
зрения
зсбн
зсбнхалимаг
зсбнху
зу
зугаа
зугаалаи
зугаасажа
зугадажа
зузаан
зузаанда
зула
зулаи
зун
зунаи
зунда
зундаа
зуниинь
зунтаи
зуны
зурааша
зураашаар
зураашад
зураашадаи
зураг
зурагаар
зурагаи
зураглан
зураглаһан
зурагта
зурагтаи
зурагууд
зурагуудые
зурагые
зурадаг
зуража
зуралга
зураха
зураһан
зурбаһаар
зургаа
зургаадахи
зургаадугаар
зургаан
зургаанаи
зургаанда
зургаанууд
зургаануудаи
зургадахи
зургадугаар
зургии
зурж
зурлаа
зурхаи
зусы
зуу
зуугаад
зуун
зуунаас
зуунаи
зуунд
зуунда
зууниие
зуунмодон
зуунуудта
зууны
зуунһаа
зуур
зуура
зуураа
зуурмаг
зуурын
зху
зые
зырян
зырянских
зэб
зэбсэг
зэбсэггүи
зэбсэглэһэн
зэбсэгтэ
зэбсэгтэи
зэбсэгые
зэбсэгынь
зэбсэгэи
зэбсэгүүд
зэбсэгүүдые
зэбсэгүүдэи
зэбэ
зэбэрлэлые
зэбэрэлдэ
зэв
зэд
зэдые
зэдын
зэдэ
зэдэи
зэмсэг
зэмсэгэи
зэмсэгүүд
зэмэ
зэн
зэр
зэргии
зэргые
зэргын
зэргэ
зэргэдэ
зэргэлдээ
зэргэлээд
зэргэнь
зэргэсэжэ
зэргэсэн
зэргэсээ
зэргэтэи
зэргэые
зэргээр
зэргээрээ
зэргэһээ
зэрлиг
зэрэг
зэрэгсээ
зэрэгтэ
зэрэгцээ
зэрэгые
зэрэгынь
зэрэгээр
зэхэжэ
зээ
зээл
зээли
зээлидэ
зээлиин
зээлые
зүб
зүблэжэ
зүблэл
зүблэлдэ
зүблэлдэн
зүблэлнүүдэи
зүблэлтын
зүблэлтэ
зүблэлтэи
зүблэлтүүд
зүблэлые
зүблэлэи
зүблэхэ
зүбхэн
зүбшөөгдэһэн
зүбшөөрдэг
зүбшөөрдөггүи
зүбшөөржэ
зүбшөөрхэ
зүбшөөрхэгүи
зүбшөөрэгдэһэн
зүбшөөрэгдөөгүи
зүбшөөрэл
зүбшөөрүүлбэ
зүбшөөрүүлхэ
зүбшөөрһэн
зүбшөөрөөгүи
зүбшөөһэн
зүбөөр
зүг
зүгдэ
зүгнэлые
зүгт
зүгтэ
зүгтэнь
зүгтээ
зүгы
зүгые
зүгын
зүгэ
зүгэи
зүгээр
зүгээс
зүгһээ
зүгһөө
зүгөөр
зүгөөрөө
зүдхэдэг
зүдхэлтэн
зүдхэлтэнүүдэи
зүдхэһэн
зүжэг
зүжэгтэ
зүжэгшэ
зүжэгшэд
зүжэгшэн
зүжэгые
зүжэгэи
зүжэгүүд
зүжэгүүдые
зүжэгһөө
зүи
зүлхэ
зүн
зүндөө
зүншэдэи
зүрилдөөтэи
зүрх
зүрхые
зүрхэн
зүрхэндэ
зүрхэниинь
зүрхэнэи
зүрхэтэи
зүршэдэи
зүршэл
зүршэлдэжэ
зүршэлдөөн
зүршэлэи
зүршэһэн
зүтгэлтэн
зүтгэхэ
зүчи
зүчиин
зүү
зүүдэн
зүүлтэ
зүүн
зүүнгараи
зүүнгарын
зүүндэ
зүүнтэн
зүүнэи
зүүнһээ
зүһэтэи
зөвлөл
зөвлөлт
зөвлөлтии
зөвхөн
зөвшөөрнө
зөвшөөрсөн
зөвшөөрч
зөвшөөрүүлжээ
зөвшөөрүүлэхии
зөөгшэнь
зөөжэ
зөөлэн
зөөри
зөөриие
зөөриин
зөөхэ
зөөхэи
и
иар
ибер
иберидэ
ибериин
ибернүүд
ибн
ибо
ибрагим
ибсен
ивалгын
иван
иванов
иванович
иво
иврит
ивуар
ивуараи
игорь
игрок
игры
идеал
идеи
идеологи
идеологии
идея
идиш
идти
идын
идэвхтэи
идээ
ие
иерусалим
иерусалимаи
иерусалимда
иерусалимые
иешуа
иеһуда
иж
ижил
ижор
из
иза
изабелла
изагуур
изагуураи
изагууртад
изагууртадаи
изагууртаи
изагууртан
изагууртанаи
изагууртануудаи
изагуурые
избирателя
избранные
избранных
известно
известныи
извинения
извините
изд
издание
издательство
изменение
изменении
изменению
изменения
измерения
изображение
изображением
изображении
изображения
изотопи
изотопитои
израи
израилиин
израилиинь
израиль
израильда
израильшууд
израильшуудаи
изучения
изучить
ии
иигэжэ
иигээд
иигэһэнээр
иие
иимэ
иимэдэ
иимэл
иимээ
иимэһээ
иимэһээшье
иимһээ
иин
иинхүү
иинь
иисус
иисусаи
иисусые
иишэ
ил
илааршуулан
илаба
илагдаба
илагдажа
илагдал
илагдалаи
илагдан
илагдашагүи
илагдаһан
илагдаһанаар
илагдаһанаи
илагша
илажа
илалта
илалтаар
илалтын
илан
илангаяа
илаха
илаһан
илаһанаи
илаһаниинь
илгаа
илгаае
илгаань
илгаатаи
илгааһаа
илгагдадаг
илгагдана
илгадаг
илгажа
илган
илгарал
илгаран
илгардаг
илгаржа
илгарна
илгаруулагша
илгаруулдаг
илгаруулжа
илгаруулна
илгаруулха
илгарха
илгаха
илгахын
илгээж
или
илиада
илионои
иллиада
иллинои
иль
ильич
илья
илэрхии
илюмжинов
илүү
им
има
имагтал
име
имеет
имена
имени
именно
именование
иметь
имеют
иммануил
императорском
императору
империализм
империализмын
империалис
империи
империя
импорт
импортын
импульс
импульсын
имя
ин
инаг
иначе
ингушетии
ингушетия
ингэж
ингэснээр
ингээд
инд
индеи
индекс
индексээр
инди
индиана
индианшуудаи
индии
индонез
индонези
индонезиин
индра
индукциин
инерт
инерциал
инженер
инженери
инженериин
инженерэи
инисе
инка
инквизици
инкубациин
иннокентии
инородцами
институдаи
институдта
институт
института
инструкции
инструкция
инструмент
инсульт
интеграл
интервик
интервики
интервью
интересно
интересные
интересныи
интернет
интернетдэ
интернете
интерфеи
интэрнэт
инуит
инуитуудаи
инфаркт
инфляци
инфобокс
информатикын
информациеи
информации
информационного
информационном
информационные
информационныи
информацию
информация
инфраулаан
инч
иных
инь
иоанн
иоахим
иоганн
ион
ионои
ионууд
ионуудаи
иордан
иордани
иосиф
иосифои
иоханн
иоһаннес
ираан
иравади
ирагуу
ирак
иракаи
иран
иранаи
иргаи
иргун
иргэн
иргэнии
иргэншлии
иргэнэи
ирж
иркпедия
ирку
иркутск
иркутска
ирланд
ирландта
ирландын
ирод
иррационал
иррациональ
ирсэн
ирээд
ирүүлсэн
ис
исаак
исетскын
искажение
искажения
исключительно
искра
искусство
искусствын
ислам
исламаи
исламын
исланд
исландиинхин
испан
испани
испанида
испанидахи
испании
испаниие
испаниин
испанитаи
испанишууд
испанишуудаи
испаниһаа
испанскии
использовалось
использование
использовании
использованию
использования
использовать
используется
используют
используются
используя
исправить
исправлять
исследование
исследовании
исследования
истанбул
истанбулаи
истинных
истории
историческая
исторические
историческии
история
источник
источники
источников
исфана
итак
итал
итали
италида
италие
италии
италиие
италиин
италиинхид
италинь
италитаи
италишууд
италиһаа
итальянская
итансын
ито
итог
итогах
итоги
итуруп
иудаизм
иудаизма
иудаизмаи
иудаизму
иудаизмые
иудеи
иудеиин
иудея
их
ихтэи
ихэвчлэн
ихэд
ихэнх
ихэнхи
ихээхэн
ицхак
ичунь
июлиин
июль
июля
июниин
июнь
июня
к
ка
кабанскын
кабардин
кабелиин
кабинет
кабо
кабул
кавказ
кавказаи
кавказдахи
кадаи
кадисаи
каждого
каждои
каждыи
казагууд
казак
казаниин
казань
казаньда
казах
казахстан
казахстана
казахстанаи
казахстанда
казимир
казимирэи
казино
каи
каир
каираи
как
какая
какие
каких
какое
какои
каком
кал
кала
календарь
календаря
кали
калидаса
калиин
калининград
калининградаи
калифорни
калифорниин
калка
калмыкия
калмыцкои
кало
калькутта
кальск
кальскии
кальци
кама
камбоджа
камер
камерун
камиль
кампани
кампанида
кампании
кампаниие
кампаниин
кампанила
кампанита
камчаткын
камчатскии
камын
канада
канадаар
канадада
канадые
канадын
канал
канараи
канд
кандидат
кандидата
кандидатаар
кандидатаи
кандидатам
кандидатов
кандидатуру
кандидатууд
кандидаты
канзас
каннада
каннибализм
каноэдэ
кант
кантата
кантон
кантын
канцлер
канцлераи
капитал
капитализм
капитализмын
капиталис
капитанаи
каплан
кара
карагана
караим
карате
карачаи
карачи
карбон
кардинал
карел
карелия
каренина
кариб
карибын
карл
карла
карлда
карликовая
карлис
карлос
карлын
кармын
каролина
каролинын
карренбауэр
карт
карта
карте
картои
карточек
карточки
картули
карты
картье
карфаген
карфагенэи
карын
касается
касающиеся
каскын
каспии
каспиин
кастилида
кастилиие
кастилиин
кастиль
кастро
кастрогои
каталан
каталоге
каталони
каталониин
катана
катаниие
катанын
катар
категори
категории
категорию
категория
катманду
като
катод
католигууд
католик
католицизм
каучук
кафедратаи
кафка
ках
кац
кацаи
кацусика
качестве
качество
кашалот
кашмир
кб
кв
квадрат
квадратаи
квадратных
квант
квантын
кварталнууд
квартет
квебек
квебектэ
квебекэи
квжд
квондо
квт
кг
кдж
ке
кедр
кеи
кельт
кельтын
кемаль
кембриин
кемерово
кемеровын
кени
кениин
кентербериин
кентукки
кеплер
керамикын
керзонои
кжэ
ки
кибернеэтикын
кибуц
киданууд
киев
киевии
киевые
киевэи
килиин
килиманджаро
килобаи
килограмм
километр
километраи
километрын
ким
кинг
кинематограф
кино
киногои
кинодо
кинонууд
кинорежиссе
кинотеатрнууд
киншаса
киото
киотогои
кипр
кир
киргиз
кирибати
кирилл
кировои
киссаки
китае
китаи
китая
кито
китс
кишинэу
киі
кл
классик
классификация
классицизмын
классическая
клеткэтэи
кливленд
клиент
климат
климата
клиникын
клип
клод
клуб
клуба
клубаи
клубүүд
клэр
ключе
км
кн
кнессет
кнессетиие
кнессетэи
книг
книга
книги
книжное
кнопку
кнр
ко
коалици
коалициин
ковалент
ковскии
когда
кого
код
кодекса
кодом
кожумаа
кои
кокс
коку
кол
коламби
колас
коласа
количества
количество
коллеги
колледж
колони
колониализм
колониалис
колонизаторнууд
колонизациин
колонизацилга
колонизацилгын
колонизировалжа
колонии
колониие
колониин
колонинууд
колонинуудые
колониһоо
колорадо
колумб
колумби
колумбиин
колумбын
ком
команда
командовалагша
командои
команды
командын
комбинадууд
комбинат
комедиин
коми
комисс
комиссиин
комитедууд
комитедэи
комитет
комитета
коммент
комментариев
комментарии
комментариями
коммерческое
коммонз
коммунизм
коммунизмда
коммунизмые
коммунизмын
коммунис
коммунист
коммунистууд
коммунистуудаи
компани
компании
компаниин
компанинууд
компанинуудаи
компаниуд
компаниудын
компас
компаса
компасом
комплекс
композитор
компьютер
компьютернууд
компьютернуудынь
компьютерэи
комсомолец
комсомолои
кому
конвенци
конвенции
конвенция
конверсидэ
конг
конго
конгресс
конгресса
конгрессэи
конгрессһоо
конденсатор
конец
конечно
коническои
конкретно
конкретного
конкретные
конкурс
конкурсе
коннектикут
конрад
консерватив
консерватизм
консерватизмын
консерватори
константин
константинополь
конституционного
конституция
конструкциин
консультации
контактын
контекст
контексте
контент
контента
контентом
континент
континентальна
конус
конференцидэ
конференции
конференциин
конфликт
конфуцианство
конце
концепция
концерт
концертда
концертын
концесси
конькигаар
координат
координаты
координатын
координировалһан
копенһаген
копенһагенаи
коперник
копроцессорыг
коран
коранаи
корбюзье
коре
кореи
коридор
королю
коронавирус
коростовец
корпораци
корпус
корректно
корреспондент
корреспондента
кортес
коса
космическа
косово
коста
кот
котвич
котера
которая
которого
которое
которои
котором
которому
которую
которые
которыи
которым
которых
кофе
кофегэи
кофиин
кох
коче
кочосон
кпа
кпсс
краи
краков
краковои
крамп
красная
краснодараи
красноуфимскын
красноярск
красноярскын
красные
красныи
краткая
краткии
краткое
крахмал
края
краін
креи
кремлиин
кремль
креститель
крещени
кризис
крим
кристалл
кристиан
кристофер
крит
критерии
кромвель
кроме
кросс
круглыи
кругосвет
кругу
крус
крым
крымэи
кстати
кто
ктувим
ку
куала
куб
куба
кубада
кубертен
кубок
кубын
кувеи
куда
кузьмин
куи
кук
кукуруза
кукурузын
культур
культура
культуре
культуры
кумык
куналеи
кунашир
кунь
куньмин
купала
купалы
купол
кур
кура
кураи
кураши
курганаи
курд
курил
курилаи
курка
куркавка
курорт
курс
курсе
курскын
курумка
курфюрст
кустурица
кутикула
кутикулын
кутикулээр
кутлугильда
кхмер
кыв
кызыл
кын
кыргызстан
кыргызстанаи
кэге
кюри
кюүсюү
күнзы
күнзын
күре
л
ла
лаа
лаад
лаампа
лаампые
лаар
лааһан
лаб
лаба
лаборатори
лабораторида
лабораториин
лаборатория
лабрадор
лабшаран
лавлах
лаврентиин
лаг
лагерь
лагерьта
лагос
лагша
ладаг
ладино
лажа
лаи
лакхнау
лал
лала
лалашууд
лалашуудаи
лалга
лалдаба
лалдаһан
лалтануудые
лалын
лам
лама
ламада
ламанар
ламанараи
ламые
ламын
лан
лангаи
ланд
ланда
ландаи
ландтагаи
ландын
ланка
ланкада
лао
лаос
лаосои
лаплас
лас
ласло
лат
лата
латаар
латви
латвии
латгал
латин
латинаар
латинууд
латын
латыш
лауреат
лах
лаха
лахын
лашагүи
лая
лаһан
лбал
лбар
лбари
лбариие
лбарилдаг
лбарилжа
лбарилна
лбарилха
лбарилхада
лбарилһан
лбарлаха
лбо
лбоһон
лга
лгадаг
лгажа
лган
лгаха
лгаһан
лго
лгодог
лгожо
лголт
лголто
лголтодо
лголтонь
лголтоор
лголтые
лгомжо
лгомжотои
лгон
лгоно
лгоо
лгоод
лгохо
лгын
лгэнэи
лгүи
лд
лда
лдаа
лдаан
лдаанаар
лдаанаи
лдаанда
лдаанта
лдаг
лдажа
лдан
лдахаар
лдаһан
лдвэр
лдвэрлэл
лдвэрлэлии
лдвэрлэлтэи
лдвэрлэх
лдвэрлэхэд
лджээ
лдлии
лдо
лдог
лдэ
лдэбэри
лдэбэрлэлэи
лдэг
лдэжэ
ле
лев
левант
лезги
лезгин
лезгинскои
лезешь
лезь
леи
лекции
лекция
ленд
ленин
ленинград
ленинградаи
лениные
ленинэи
лео
леон
леонард
леонардо
леоне
леонид
леопольд
лер
лермонтовэи
лес
лесах
лесия
лесото
лет
лех
лж
лжа
лжо
лжээ
ли
либерал
либерализм
либералнууд
либери
либо
ливан
ливанаи
ливанда
ливи
ливониие
лиг
лига
лигдэн
лигдэнэи
лигурнууд
лигын
лидер
лидерства
лиза
лии
лиин
лик
лимбэ
лин
линеи
лини
линкольн
линкольнын
линнеи
линховоин
линь
лион
липецкын
липид
лиссабон
лит
литва
литвагаи
литвада
литваои
литвын
литература
литературе
литературна
литературная
литературы
литературын
литовская
литр
литын
литэ
литээр
лиха
лихтенштеи
лица
лицеи
лицензиеи
лицензитэи
лицинии
лично
личную
лишь
ллои
лно
лнууд
лнүүд
лнүүдтэи
лнүүдые
лнүүдынь
лнүүдэи
лнүүдээр
ло
лов
лович
лог
логарифм
логарифмуудаи
логдодог
логдожо
логдоно
логдохо
логдоһон
логик
логика
логикын
лого
логос
логшо
логшын
лодзь
лозьва
лои
локк
лолто
ломборг
лон
лонг
лондон
лондондо
лондонои
лонхо
лоо
лорд
лос
лотар
лотереи
лоялистууд
лоялистуудаи
лоһон
лс
лсаһан
лсон
лсэн
лт
лта
лтаи
лтои
лтэи
лу
лубсан
луврын
лугаа
луи
луиза
луизиана
луис
лука
лукас
лукка
лумпур
лунцзя
лунцзян
луу
луубан
луугаи
лууд
луудаи
луужин
луулан
луулба
луулдаг
луулжа
луулха
луулһан
луур
лучшая
лучше
лучших
лха
лхабаб
лхасын
лхо
лходо
лхые
лхэ
лшагүи
лы
лые
лыи
лын
лынь
лыткин
ль
львов
львів
лэ
лэгшэ
лэдбэри
лэдбэридэ
лэдбэрижэһэн
лэдбэриие
лэдбэриин
лэдбэрилгын
лэдбэрилгэ
лэдбэрилдэг
лэдбэрилжэ
лэдбэрилнэ
лэдбэрилхэ
лэдбэрилэгдэнэ
лэдбэрилэгдэһэн
лэдбэрилэгшэ
лэдбэрилэл
лэдбэрилэлдэ
лэдбэрилэлынь
лэдбэрилэлэи
лэдбэрилэлээр
лэдбэрилһэн
лэдбэринүүд
лэдбэринүүдтэ
лэдбэринүүдэи
лэдэ
лэдэбэри
лэдэдэг
лэдэл
лэдэлнүүд
лэдэлнүүдые
лэдэлнүүдэи
лэдэлые
лэдэлэи
лэдэхэ
лэи
лэл
лэлдэ
лэн
лэнд
лэнүүд
лэшэлгын
лэшэлгэ
лэшэлгэтэи
лэшэлгээ
лэшэлгээнэи
лэшэлгээтэи
лэшэлдэг
лэшэлжэ
лэшэлнэ
лэшэлхэ
лэшэлхэд
лэшэлэл
лэшэлэлдэ
лэшэлэлсэжэ
лэшэлэлые
лэшэлэлэи
лэшэлэлээр
лээ
лээр
лю
люблинэи
любовь
любого
любое
любом
людвиг
людеи
людендорф
людендорфф
людендорффын
люди
людовик
людовикэи
люи
люксембург
люксембургын
люси
лютер
люучюу
ля
ляо
ляонин
ляонинскии
лүндэншэ
лүүд
лһаа
лһан
лһон
лһонои
лһоноор
лһоо
лһэн
лһээ
лһээр
лһөө
лөгч
лөгчии
лөгчөөр
м
ма
маа
маалха
маан
маанаи
маани
маарагта
маарра
мааррын
маартын
маашадаи
маашан
мавзолеи
маврикии
мавритани
маг
магаар
магад
магадан
магаданаи
магадгүи
магадлал
магадлалаи
магадлалтаи
магаи
магеллан
магистр
маглан
магни
магрибаи
магта
магтаал
магтаалнууд
магтажа
магтаи
магтан
магууд
магуудаар
магуудаи
магуудта
магуудые
магуудһаа
магые
магын
магһаа
мадагаскар
мадам
мадахи
мадеи
мадрас
мадрид
мадридта
мадридые
мадугаар
мазда
мазурканууд
маи
мак
макао
макаое
македон
македони
македониин
макино
макро
макс
максвелл
максилла
максим
максимум
мал
мала
малави
малаи
малгаи
малер
мали
мало
маловменяемые
малого
малтадаг
малтажа
малталга
малталгаар
малталгануудые
малтамал
малтамалаи
малтамалнууд
малтамалнуудаи
малтан
малшад
малшадаи
малые
мальдива
мальпигиин
мальта
мамаи
мамлюкаи
мамонт
ман
мана
манаи
мангад
мандажа
мандал
мандалаи
мандалда
мандалта
мандалтаи
мандалтань
мандалтаһаа
мандалтын
мандалһаа
мандарин
мандат
мандаттаи
мандатые
мандатын
мандаһан
мандела
мандибула
мандтугаи
мане
манж
манжа
манжанууд
манжануудаи
манжатаи
манжии
манжу
манжууд
манжуур
манжуурта
манжын
манз
манзии
манзу
манзын
манила
манилын
манитоба
маниту
манлаи
манси
мансии
мансинууд
мансур
манти
мануэль
маншын
маныч
маньеризм
маньчжоу
маньчжурии
маньчжурия
мао
маори
мапаи
мар
марадона
мараи
марал
мараньон
маратхи
маргаан
маргааниие
маргаантаи
марганец
маргарет
мари
марианаи
марии
мариин
марино
марион
мария
марк
марка
маркаи
маркера
маркес
марко
маркс
марксаи
марксизм
марксизма
марксис
марксист
марксын
маркус
маркын
марлен
марокко
мароккогои
марсель
март
марта
мартагдахагүи
мартенсит
мартин
мартын
мартынов
мархдһ
марш
маршал
маршалл
мары
маряажалга
маса
масс
масса
массань
массатаи
массачусетс
массачусетсын
массын
мастернууд
матажа
матар
матархаи
матвеи
математик
математика
математики
математикын
матери
материал
материалаи
материаллиг
материалнуудые
материалы
материалые
материалын
мати
матисс
матросууд
мах
маха
махабад
махабадаи
махабадта
махабхарата
махал
махараштра
махатма
махаяна
махн
махфуз
мацуо
маш
маша
машиина
машин
машина
машинаар
машинаи
машинань
машиные
машинын
мая
маяг
маягаар
маягаараа
маягаи
маягта
маягтаи
маягые
маяковскиин
мгии
мгуудыг
мдугаар
ме
мебелиин
мегрел
медали
медалиа
медалиин
медаль
медаляар
медина
медицинскии
медицинскэ
медресе
между
международного
международнои
международные
международныи
мезозои
меи
меир
мекка
меккада
мекленбург
мекленбургын
мексика
мексиканскои
мексики
мексико
мексикын
мексикэ
мельников
мемориал
мемуары
мемфис
мен
менделеев
менделеева
менделеевэи
менее
менежер
меню
меня
меняю
мер
мераи
мерзлота
меридиан
меридиана
меркелиин
меркель
мероприятие
мерэи
месопотами
месопотамида
месопотамиин
месса
мессиин
мессия
мессэ
места
местах
месте
местное
место
месть
месяц
месяца
месяцеслов
мета
метаболизм
металл
металлаи
металлнуудаи
металлурги
металлын
метан
мете
метки
методы
метр
метро
метров
метрогои
метрологии
метрополи
метрополиин
метрополитан
метрополитен
метртэ
метрын
метрһээ
мету
механизацилга
механизм
механизмые
механик
механика
механикада
механикань
механикые
механикын
мехико
мечеть
мешко
меэтэр
ми
мигель
мигмар
мизрахи
миин
миисгэи
микеланджело
микены
микеныгэи
микенынхид
микенышуудаи
миколаи
микро
микробиологиин
микронези
микронезиин
микросхемэ
милан
милараи
миллиард
миллион
миллионов
миль
мин
мингэи
миндаһан
минерал
минжэн
мини
минии
минимальнои
минимум
министерства
министр
министрдэ
миннесота
минои
минск
минскын
минут
минута
минутада
минутаһаа
минутын
минь
миньнань
миня
минһелет
миокардын
мир
мира
мире
мировои
миссисипи
миссиссипи
миссури
мистификации
мифологи
михаи
михаил
михаила
михаилу
михельсонои
михооло
мичиган
млекопитающих
млечныи
млн
мм
мммм
мнаи
мне
мнение
мнением
многие
много
многократная
многократно
многоуважаемыи
многочисленные
мнои
мною
мо
мог
могиле
могли
могои
могол
моголои
могу
могут
мод
мода
модельнууд
модо
модод
мододои
модолиг
модон
модондо
модониинь
модонои
модонууд
модонуудаи
модонуудые
модонһоо
модоор
модотои
модуль
модуля
модун
мое
моеи
моему
может
можете
можжевельник
можно
можо
можодо
можое
можонои
можонууд
можонуудаи
можонуудта
можонуудтаи
можонуудые
можонуудһаа
можоор
можотои
можоһоо
можые
можын
мозамбик
мои
моисеи
моих
мокша
молдави
молдавиин
молдово
молекул
молекула
молекуланууд
молекулануудаи
молекулнууд
молекулуудын
молекулын
молекулэ
молибден
молоде
молокон
моль
мольер
момент
момента
моменттэи
мон
мона
монако
монархи
монг
монгол
монголд
монголдо
монголии
монголия
монголнууд
монголои
монголоор
монголоос
монголтои
монголчууд
монголчуудтаи
монголчуудыг
монголчуудын
монголшууд
монголшуудаи
монголшуудта
монголшуудтаи
монголшуудые
монголыг
монголые
монголын
монгольские
монгольскии
монгольских
монгольское
монгольскои
монгольском
монголһоо
моногатари
монополи
монотеизм
монотеист
монро
монсогор
монтескье
мордва
мордвин
мордови
мордоһон
море
мори
морие
морилжо
морин
моринои
морис
морито
морокко
мороккодо
мороотои
морфологи
морьт
москва
москвагаи
москвагии
москвада
москваһаа
москве
москвы
московскои
мостов
мосты
мотор
моторс
мохоо
моцарт
моше
мою
моя
мс
му
муж
мужид
мужии
музеи
музыка
музыкальныи
музыкальных
музыки
муи
мумбаи
мундарга
мундарганууд
муниципал
муниципалитет
муниципалитетдэ
муниципальна
муниципальных
мунхаг
мунэ
мурманск
муры
мусора
мусоргскии
муссон
мустафа
муу
муугаар
муудажа
муудаһан
муутаи
муухаи
муушье
мууяын
мухаммад
мухаммед
мухаммедаи
мухаммедэи
мухар
мухулаи
муххамед
мушынскі
муюн
мфа
мхд
мшагта
мшагтаи
мы
мые
мысли
мьянма
мьянмагаи
мьянмар
мьянмын
мэ
мэгүжин
мэдрэлэи
мэдэгдэбэ
мэдэгдэжэ
мэдэгдэл
мэдэгдэнги
мэдэгдэнхэи
мэдэгдэнэ
мэдэгдэхысэ
мэдэгдэхэ
мэдэгдээгүи
мэдэгдэһэн
мэдэдэг
мэдэдэггүи
мэдэжэ
мэдэл
мэдэлгые
мэдэлгын
мэдэлгэ
мэдэлгүи
мэдэлдэ
мэдэлдээ
мэдэлтэи
мэдэлтэнүүд
мэдэлые
мэдэлынь
мэдэлэг
мэдэлэгэи
мэдэлэи
мэдэлээ
мэдэлһээ
мэдэнэ
мэдэрдэг
мэдэржэ
мэдэрнэ
мэдэрхын
мэдэрхэ
мэдэрэл
мэдэрэлэи
мэдэрэмжын
мэдэрэмжэ
мэдэсэ
мэдэх
мэдэхын
мэдэхэ
мэдэхэгүи
мэдэхүи
мэдээ
мэдээгээр
мэдээд
мэдээжэ
мэдээллии
мэдээлэл
мэдээлэлэи
мэдээлэлээр
мэдээлһэн
мэдээн
мэдээнэи
мэдээнүүдые
мэдээсэбэ
мэдээсэгэи
мэдээсэл
мэдээсэлые
мэдээсэлэи
мэдээсэлээр
мэдээсээр
мэдээхэ
мэдэһэн
мэдүүлгэ
мэдүүлхэ
мэдүүлһэн
мэи
мэл
мэлхэи
мэн
мэнгээр
мэндын
мэндэ
мэндэдэ
мэндэлбэ
мэндэлһэн
мэнцзян
мэнь
мэр
мэргид
мэргэд
мэргэдые
мэргэдэи
мэргэжэл
мэргэжэлтэ
мэргэжэлтэдэи
мэргэжэлтэи
мэргэжэлтэн
мэргэжэлтэнүүд
мэргэжэлэи
мэргэжэлээр
мэргэн
мэргэнэи
мэргэнээр
мэргэшэһэн
мэри
мэриленд
мэрилин
мэрис
мэрия
мэрияда
мэрэи
мэрэхэ
мэрээшэд
мэрээшэн
мэт
мэтые
мэтын
мэтэ
мэтэшэлэн
мэтээр
мэхэ
мэхээртэи
мэшээгдэ
мээн
мээс
мэү
мэө
мюнхен
мюнхендэ
мюнхенэи
мягмар
мянга
мянгаад
мянгаар
мянган
мянганаи
мянганда
мянганһаа
мянгаһаа
мяха
мяхан
мяханаи
мяхаша
мяхашад
мяхашан
мяхые
мяхыень
мінск
мүгдэн
мүи
мүлжэгшэ
мүлжэхэ
мүлижэ
мүлхигшэд
мүлхигшэдэи
мүльһэн
мүльһэнэи
мүльһөөр
мүн
мүнгые
мүнгэ
мүнгэлиг
мүнгэн
мүнгэнэи
мүнгэтэи
мүнгө
мүнгөн
мүнгөө
мүнгөөр
мүндэлһэн
мүнх
мүнхын
мүнхэ
мүнхэрһэн
мүнөө
мүнөөгэи
мүнөөдэр
мүнөөдэрые
мүнөөдэрэи
мүнөөе
мүнөөнэи
мүнөөшье
мүнөөһөө
мүр
мүргэжэ
мүргэл
мүргэлдэ
мүргэлдэжэ
мүргэлдөөн
мүргэлдөөнэи
мүргэлые
мүргэлэи
мүргэхэ
мүрдэгдэжэ
мүрдэжэ
мүрдэлгын
мүрдэлгэ
мүрдэн
мүрдэхэ
мүртэи
мүры
мүрые
мүрысөөн
мүрысөөндэ
мүрысөөнүүд
мүрытэи
мүрэ
мүрэд
мүрэи
мүрэн
мүрэндэ
мүрэндэхи
мүрэниие
мүрэниинь
мүрэнтэи
мүрэные
мүрэнэи
мүрэнүүд
мүрэнүүдэи
мүрэнһөө
мүрэнөөр
мүрөөдэжэ
мүсын
мүсэ
мүсэдэи
мүсэлгэһээ
мүсэнь
мүсэтэи
мүхэбэ
мүхэжэ
мүхэлэи
мүхэлэлэи
мүхэнэ
мүхэхын
мүхэһэн
мүхэһэнэи
мүхөөгдэбэ
мүхөөдэг
мүхөөжэ
мүшэр
мөн
мөрнии
мөрөн
мөсөн
мөңге
мөңгүн
мөөгэ
мөөгэнсэр
мөөгэнсэрнүүд
мөөн
мөөр
мөөртэи
н
на
наада
наадажа
наадам
наадамые
наадан
нааданаи
нааданда
нааданиие
нааданхаи
нааданые
наадаха
наар
наас
нааша
наашатаи
наб
набтар
набша
набшан
набшата
набшатаи
набшаһан
набшаһата
наварра
навахо
наверное
навести
навигациин
наг
нагаржунаи
нагаса
нагасаки
нагиб
награды
над
надад
надаль
надеюсь
надлежащее
надлежит
надо
надписи
надпись
нажмите
назад
назаретдэ
назаретһээ
название
названии
названия
назвать
наи
налархаи
налицо
наличие
наличии
налуу
нам
нама
намаар
намаг
намаи
намана
намар
намараи
намда
намерениях
намерены
намжил
нами
намиби
намибии
намнансүрэн
намсараев
намсараеваи
намсараи
намтаи
намтар
намтартаи
намтарые
намууд
намуудаи
намуудые
намхан
намые
намын
намынхи
намһаа
нанаи
нанак
нангин
нанжин
нанжингаи
нанжинда
нани
нано
нанхяад
нападки
написал
написали
написания
написано
написать
напишите
наполеон
наполеона
наполеонои
например
нар
нара
нараи
наран
наранаи
наранда
нараниие
нараниинь
наранһаа
наратаи
нард
нарии
нариин
нарин
нарны
народа
народная
народныи
народов
народы
нарушении
нарушения
нарыг
нарые
нарын
нарыхан
нарһад
нарһан
нарһанаи
нарһаниинь
нарһата
нас
наса
населе
население
населением
населения
населенных
наслалт
наставники
настаи
настольнои
настольному
настоящее
настроек
настрои
наступление
насче
нато
натриин
натурал
наук
наука
науки
науру
научна
научно
находится
нахяанаи
национал
национализм
национальная
национального
национальнои
национальные
национальныи
нацис
нацистууд
нацистуудаи
начала
начале
начало
началось
начать
начиная
наш
наша
наше
нашего
нашеи
наших
нашу
ная
наяд
наян
наһа
наһаа
наһалалта
наһалдаг
наһалжа
наһан
наһанаи
наһанда
наһандаа
наһаниинь
наһанһаа
наһанһаан
наһатаи
наһатан
наһые
наһыень
нбүк
нг
нга
нгаа
нгоо
нгын
нгээ
нгөө
нд
нда
ндахи
ндо
ндэ
ндэр
ндэрэи
не
неаполиин
неаполь
небольшои
небраска
нева
невада
неве
неведомым
неверен
невиим
невис
невскии
негатив
него
недавно
недели
неделю
неделя
недостаб
недостабов
нее
независимости
неи
неизвестно
неизвестныи
некоторые
некоторых
некрасоваи
нелегально
нелегального
нельзя
нельсон
нем
немедленно
немецкая
немецкии
немецким
немного
нему
ненец
необходимо
необходимости
необходимы
необходимые
необязательныи
непали
непонятно
нер
нератов
нервнэ
нервын
нервүүд
несвободного
несвободные
несвободныи
нескольких
несколько
несмотря
нет
нету
нечего
ни
ниагара
нибелунгуудаи
нибудь
нивх
нигер
нигери
нигерии
нигериин
нигүүлэсхы
нидерланд
нидерландые
нидерландын
ниже
нии
ниигэм
ниигэмдэ
ниигэмдээ
ниигэмлиг
ниигэмлигэи
ниигэмлигүүд
ниигэмые
ниигэмынь
ниигэмэи
ниигэмһээ
ниидхэ
ниидэгшэ
ниидэгшэд
ниидэдэг
ниидэжэ
ниидэлгые
ниидэлгын
ниидэлгэ
ниидэлгэн
ниидэхэ
ниидэхэд
ниидэхэдэ
ниидэһэн
ниие
ниилбэри
ниилбэритэи
ниилмэл
ниилэбэ
ниилэдэг
ниилэжэ
ниилэмэл
ниилэн
ниилээд
ниилэһэн
ниилүүлдэг
ниилүүлжэ
ниилүүлэлтэ
ниилүүлэн
ниилүүлһэн
ниинь
ниислэл
ниислэлнүүд
ниислэлтэи
ниислэлые
ниислэлынь
ниислэлэи
ниислэлээ
ниисэжэ
ниисэһэн
ниисүүлэн
ниитиин
ниитлэг
ниитлэл
ниитые
ниитын
ниитэ
ниитэдэ
ниитэдэнь
ниитэдээ
ниитэлиг
ниитэлэг
ниитэлүүлһэн
ниитэлһэн
ниитээр
ниитээрээ
никак
никакие
никакого
никакои
никарагуа
никеи
никелиин
никель
никита
никколо
никогда
никола
николаевич
николаевска
николаи
николас
николаю
николя
никому
никто
нил
нилээд
нилээдгүи
нилээн
нилээхэн
ним
нима
нимбэг
нимгэн
нимф
нинжин
нирвана
нирванада
нитирэн
них
ницше
ничего
нка
нквд
нланд
нм
нн
нная
нного
нному
нную
нные
нныи
нных
но
ноам
нобелиин
нов
новак
новая
новгород
новгородои
новеи
новичок
нового
новое
новои
новокузнецк
новосибирск
новосибирскои
новосибирскын
новостеи
новости
новостнои
новость
новую
новые
новыи
новых
новь
ногаи
ногдох
ногдохо
ногоо
ногоон
ногоониие
ногоонои
ногоонууд
ногоонуудаи
ное
нои
ноль
ном
номгон
номдо
номдоо
номер
номертои
номин
номлогжо
номлогшо
номлогшод
номлогшын
номлодог
номлол
номлолдо
номлолои
номлолоо
номлолые
номлолынь
номнол
номои
номоо
номоор
номтои
номууд
номуудаи
номуудые
номуудынь
номые
номыень
номын
номынь
номһоо
ноо
ноогдодог
ноогдохо
ноогдуулдаг
ноогдуулха
ноогдуулһан
ноор
нооһон
нооһонои
нор
норберт
норвеги
норвегидэ
норвегиин
нормально
нормального
нормальнои
нормальными
нормальных
нормандиин
нормо
носителеи
носителя
носоожо
носоохо
носотои
нот
ното
нотолгоо
нотолһон
нотр
нохои
нохчии
ноябриин
ноября
ноһоо
нравится
нрих
нс
нсдап
нскии
нское
нська
ну
нувас
нуга
нугада
нугаһанаи
нугын
нудхаас
нужен
нужна
нужно
нужны
нуклеинаи
нулевым
нуман
нумерованные
нумиди
нунавут
нунавутаи
нур
нуража
нуран
нуруу
нурхачи
нурхачииие
нурыев
нутаг
нутагт
нутгии
нууд
нуудаи
нуудта
нуудые
нуудыень
нуур
нуураар
нуураи
нуургүи
нуурда
нуурнууд
нуурнуудаи
нуурнуудынь
нуурнуудһаа
нуурта
нууртаи
нуурууд
нуурые
нуурын
нуурһаа
нууц
нухэрии
нх
нхаас
нхаһаа
нхи
нхид
нхинь
нхиһаа
нхобо
нхэи
нхээ
нхүү
нша
нштаи
нштеи
ншье
нъян
ны
ныг
ные
ныи
нын
ных
нь
нью
ньютон
ньютонои
ньюфаундленд
нэ
нэбтэ
нэбтэлжэ
нэбтэржэ
нэбтэрнэ
нэбтэрхы
нэбтэрхэ
нэбтэрхэи
нэбтэрэн
нэбтэрүүлгые
нэбтэрүүлгэ
нэбтэрүүлдэг
нэбтэрүүлжэ
нэбтэрүүлхэ
нэбтэрүүлэгдэжэ
нэбтэрүүлһэн
нэбтэрүүлһэнһээ
нэбтэрһэн
нэвтрэн
нэг
нэгдлии
нэгдсэн
нэгдэбэ
нэгдэж
нэгдэмэл
нэгдэн
нэгдэһэн
нэгдүгээр
нэгтгэж
нэгтгэн
нэгые
нэгэ
нэгэдмэл
нэгэдугаар
нэгэдхэ
нэгэдхэбэ
нэгэдхэгдэбэ
нэгэдхэгдэжэ
нэгэдхэжэ
нэгэдхэн
нэгэдхэхэ
нэгэдхээд
нэгэдхэһэн
нэгэдхэһэнэи
нэгэдхэһэнээр
нэгэдэ
нэгэдэбэ
нэгэдэжэ
нэгэдэл
нэгэдэлгэ
нэгэдэлнүүд
нэгэдэлые
нэгэдэлэи
нэгэдэмэл
нэгэдэн
нэгэдэхи
нэгэдэхинь
нэгэдэхэ
нэгэдээ
нэгэдээд
нэгэдэһэн
нэгэдүгээр
нэгэдүүлдэг
нэгэжын
нэгэжэ
нэгэжэдэ
нэгэжэнь
нэгэжээр
нэгэл
нэгэн
нэгэндэ
нэгэниинь
нэгэнтэ
нэгэнь
нэгэнэи
нэгэнһээ
нэгэтэ
нэгэтэи
нэгэшье
нэгээр
нэгэһээ
нэи
нэлээд
нэлээн
нэмж
нэмжыдэг
нэмжын
нэмжынэ
нэмжэ
нэмэгдсэн
нэмэгдэбэ
нэмэгдэдэг
нэмэгдэж
нэмэгдэжэ
нэмэгдэнэ
нэмэгдэхын
нэмэгдэхэ
нэмэгдэһэн
нэмэгдүүлбэ
нэмэгдүүлжэ
нэмэгдүүлхэ
нэмэгдүүлһэн
нэмэжэ
нэмэлтэ
нэмэнэ
нэмэри
нэмэриеэ
нэмэхэ
нэмэһэн
нэн
нэр
нэрбэгдэжэ
нэрбэгдэһэн
нэрии
нэрлэбэ
нэрлэбэл
нэрлэгддэг
нэрлэгдэбэ
нэрлэгдэдэг
нэрлэгдэжэ
нэрлэгдэнхэи
нэрлэгдэхэ
нэрлэгдэһэн
нэрлэдэг
нэрлэжэ
нэрлэжээ
нэрлэн
нэрлэнэ
нэрлэсэн
нэрлэхэ
нэрлэхэдэ
нэрлээ
нэрлэһэн
нэрн
нэрс
нэртэи
нэршэл
нэршүү
нэрые
нэрын
нэрэ
нэрэгдэһэн
нэрэгүи
нэрэдэ
нэрэеэ
нэрэлдэг
нэрэлжэ
нэрэлнэ
нэрэлэгдэдэг
нэрэлэгдэһэн
нэрэлһэн
нэрэмжэтэ
нэрэмжэтэи
нэрэмжээр
нэрэнии
нэрэнь
нэрэнүүд
нэрэтэ
нэрэтэи
нэрээ
нэрээр
нэрээрээ
нэрэһээ
нэрһэн
нэхэжэ
нэхэмэл
нэхэмэлэи
нэхэһэн
нээбэ
нээгдэбэ
нээгдэжэ
нээгдэһэн
нээжэ
нээлттэи
нээлтын
нээлтэ
нээлтэнь
нээлтэнүүд
нээлтэнүүдэи
нээлтэтэи
нээлтүүд
нээмэл
нээн
нээхэ
нээһэн
нээһэнэи
нээһэнээр
нюдарган
нюдэ
нюдэн
нюдэнэи
нюдэтэи
нюдээр
нюнорск
нюрга
нюргагүи
нюрган
нюрганаи
нюргата
нюргатан
нюрнберг
нюруу
нюруугаи
нюрууда
нюрууе
нюруунаи
нюруунь
нюруутаи
нюруутан
нюрууһаа
нюсэгэн
нютаг
нютагаа
нютагаар
нютагаараа
нютагаи
нютагдахи
нютаглажа
нютагнууд
нютагта
нютагтаа
нютагтаи
нютагтанаи
нютагтаниинь
нютагтань
нютагууд
нютагуудаар
нютагуудаи
нютагуудта
нютагуудые
нютагуудһаа
нютагшни
нютагые
нютагынь
нютагһаа
нютагһаан
нюур
нюураи
нюуса
нюусаар
нюусалиг
нюусануудые
нюусые
нягт
нягта
нягтань
нягтарал
нягтаралтаи
нягтатаи
нягташалаар
нягтрал
нялха
нян
нянгаар
нянгаи
нярбын
нү
нүб
нүгшэбэ
нүгшэһэн
нүгэл
нүгэлынь
нүгөө
нүгөөдэ
нүлөө
нүлөөгөө
нүлөөгөөр
нүлөөдэ
нүлөөе
нүлөөлбэ
нүлөөлдэг
нүлөөлжэ
нүлөөлнэ
нүлөөлхэ
нүлөөлэл
нүлөөлэлые
нүлөөлэлэи
нүлөөлһэн
нүлөөлөө
нүлөөндэ
нүлөөнь
нүлөөтэи
нүхэд
нүхэдынь
нүхэдэи
нүхэлһэн
нүхэн
нүхэндэ
нүхэниие
нүхэнэи
нүхэнүүдые
нүхэр
нүхэрлэл
нүхэрлэлэи
нүхэрсэг
нүхэрэи
нүхэсэл
нүхэсэлдэ
нүхэсэлые
нүхэсэлэи
нүхэтэи
нүүбэ
нүүд
нүүдые
нүүдэг
нүүдэи
нүүдэл
нүүдэллэн
нүүдэлчин
нүүдэлшэ
нүүдэлшэд
нүүдэлшэдэи
нүүдэлшэн
нүүдэлэи
нүүдэлэлэн
нүүжэ
нүүлгэжэ
нүүлгэн
нүүн
нүүрстөрөгчии
нүүрһэн
нүүрһэнтүрэгшын
нүүрһэнтүрэгшэ
нүүрһэнхүшэлэи
нүүрһэнэи
нүүһэн
нһаа
нһоо
нһээ
нөлөө
нөлөөг
нөлөөллии
нөлөөнии
нөхцөл
нөхцөлд
нөөсые
нөөсын
нөөсэ
нөөсэнь
нөөсэтэи
нөөц
о
об
обва
обе
обеспечение
обеспечению
обеспечить
обессрочить
обещания
обзор
области
областиин
область
обновле
обновления
обо
обог
обогои
обогто
обогтои
обогтон
обогууд
обогуудаи
обогые
обозначения
обои
обоо
обоохои
обор
оборону
обороны
оборонын
образование
образовании
образования
образовательных
образом
обратился
обратнои
обратную
обращаться
обращения
обрезки
обсуждение
обсуждении
обсуждению
обсуждения
обучения
общая
общеи
общения
общество
общие
общии
общины
объект
объекта
объектами
объектов
объектуудаи
объемлющего
объявления
обычная
обычно
обычныи
обь
обязанности
обязанностью
обязательно
обязательныи
ова
овидии
овог
овоо
ога
огаи
оганесян
огасавара
огдожо
огдоһон
оглу
оглы
огноо
огноог
ого
огои
огоор
ограничения
огсом
огто
огтололои
огтололоор
огторгои
огуз
огшо
огшодои
огшын
огюст
од
оденсе
одер
одесса
один
одиссеи
одна
однако
одни
одним
одних
одно
одного
однои
одну
одо
одог
ододои
одои
одон
одониинь
одонои
одоноор
одонууд
одонуудынь
одоо
одоогии
одоогои
одоогоор
одоое
одоошье
одоһон
одхон
ое
ожо
озе
озера
озеро
озеф
ознакомиться
ознакомьтесь
означает
озо
ои
ок
ока
окаханджа
окаханджаи
океани
океанида
океаниин
окинава
оклаадников
оклаадниковаи
оклахома
около
окончания
окончательных
округ
округе
округов
округта
округууд
оксанагии
оксид
октавиан
октяабриин
октябриин
октябрь
октября
ол
ола
олаф
олборложо
олборлолто
олго
олгобо
олгогдоһон
олгодо
олгодог
олгожо
олгосон
олгохо
олгоһон
олгын
олдо
олдобо
олдобори
олдобориин
олдодог
олдожо
олдол
олдолдо
олдолои
олдомол
олдоно
олдоо
олдоод
олдохо
олдоһон
олдоһониинь
олег
олж
олзо
олзобори
олзоборилго
олзологдоһон
олзолон
оливын
олимп
олимпиада
олимпиадада
олимпиадын
олимпии
олимпиин
олимпод
олнууд
олнуудаа
олнуудаи
олнуудые
олнуудынь
оло
олобо
олог
олодог
оложо
олои
ололто
олон
олондо
олониинь
олониитын
олониитэ
олониитэдэ
олонлигои
олонлигые
олонои
олоноо
олоноор
олоноороо
олонтои
олонхи
олонхиие
олонхиин
олонхинь
олоншье
олоо
олоогүи
олоод
олоор
олоороо
олохо
олохын
олоһон
олтирог
олтирогууд
олтои
олууд
олшо
олшод
олшодои
олшорхо
олшые
олшын
олые
олынь
ольга
ольтирог
ольтирогои
ольтирогто
ольтирогууд
ом
оман
оманаи
омеи
омматид
омматидта
омог
омогои
омогтои
омои
омол
омоли
омолиин
омск
омскын
он
она
онам
онгон
онгонои
онгос
онгосо
онгосодо
онгосондо
онгосонои
онгосонууд
онгосонуудаи
онгосоор
онгосотои
онгостои
онгосые
онгосын
онд
ондо
ондоо
ондоогоор
оне
они
ониие
ониһон
онлаи
онных
оно
онобшотои
онов
оногдожо
оногдохо
онои
онол
онолдо
онолнууд
онолнуудаи
онолои
онолоо
онолоор
онолтои
онолшо
онолые
онолынь
онолһоо
онон
ононои
оноо
оноор
оноос
онсо
онсогои
онсолготои
онсолиг
онсолигтои
онсолигууд
онсолигые
онсолигһоо
онсолог
онсолон
онтарио
онтариогои
онтариодо
онтохон
онтохонууд
онтохонуудаи
онтохонуудые
онууд
онуудаар
онуудад
онуудаи
онуудта
онуудһаа
онцгои
онцлог
оны
онь
онһоо
оо
оод
оодои
оомоли
оон
оонуудтаи
оор
оосака
опек
опера
оперануудые
оператора
операци
операция
оперо
оперогои
оперонууд
оперые
оперын
описание
описании
описания
описывать
оппозици
оппозициин
определе
определение
определения
определить
опрос
оптико
оптикын
опубликован
опыт
опыта
опытныи
опытных
опять
ор
оратори
орган
организации
организация
организм
организмнууд
организмнуудаи
организмнуудынь
организмууд
организмуудаи
организмын
органик
органов
оргоһон
орд
ордагаи
ордан
орданаи
орден
орденои
орденоор
ордо
ордог
ордодо
ордон
ордондо
ордондоо
ордониие
ордонои
ордонтои
ордонууд
ордонһоо
ордоһоо
ордын
оре
орегон
орегонои
оренбург
оренбургта
оренбургын
орж
оржээ
ори
орк
оркдо
оркестр
оркестрдэ
оркестртэи
оркестрын
оркын
орлеан
орлогшо
орлогшоор
орложо
ормин
орн
орно
орноо
орнууд
орнуудад
орны
орныг
оро
оробо
ород
ородог
ородоггүи
ородои
ородоор
ородто
ородтои
ородууд
ородуудаи
ородуудта
ородуудтаи
ородые
ородһоо
орожл
орожо
орои
оролго
оролгые
оролгын
оролдодог
оролдожо
оролдолго
оролдохо
оролдоһон
оролсобо
оролсодог
оролсожо
оролсоно
оролсоогүи
оролсоотои
оролсохо
оролсохогүи
оролсохоор
оролсохые
оролсоһон
оролсуулан
оролсуулхагүи
оролсуулһан
оролцож
оролцох
оролцсон
орон
оронго
оронд
орондо
орондонь
орондоо
орондошье
орониие
орониинь
ороно
оронои
ороноо
ороноор
оронто
оронтои
оронууд
оронуудаар
оронуудаи
оронуудта
оронуудтаи
оронуудые
оронуудһаа
оронхои
ороные
оронһоо
ороо
ороогүи
ороод
ороожо
ороомог
орос
оросдо
оросои
оросоор
орост
оросто
оростои
оростохи
оросууд
оросые
оросын
орохо
орохогүи
ороходо
ороходоо
орохоһоо
ороһон
ороһонои
ороһоноор
ороһоншье
орсон
орто
ортодокс
оруулаа
оруулаад
оруулаараи
оруулагдаба
оруулагданхаи
оруулагдаһан
оруулалсаад
оруулалта
оруулан
оруулахгүи
оруулба
оруулбал
оруулдаг
оруулж
оруулжа
оруулна
оруулсан
оруулха
оруулхаар
оруулхые
оруулһан
орхе
орхибо
орхигдожо
орхижо
орхин
орходоо
орхон
орчим
орчимд
орчин
оршдог
оршин
оршодог
оршожо
оршол
оршолон
оршолонгои
оршом
оршомдо
оршомдоо
оршомои
оршомоор
оршомынь
оршомһоо
оршон
оршондо
оршондоо
оршониие
оршоно
оршонои
оршонтои
оршонһоо
оршох
оршохо
оршохы
оршоһон
оршуулаа
оршуулагдажа
оршуулагша
оршуулба
оршуулбал
оршуулга
оршуулгын
оршуулдаг
оршуулжа
оршуулха
оршуулһан
орье
ос
оса
осака
освоил
осети
осетин
осетинууд
оси
осинскии
оскорблении
осло
ослын
осман
османаи
основании
основания
основе
основнои
основные
основных
основы
особенно
оспа
оспоренныи
оставить
оставлено
остается
остальные
остальных
остроогууд
остроогуудһаа
осуществлять
ось
от
ота
отбору
ответ
ответил
ответить
ответственность
ответы
отдельных
отечественнои
отзывами
отзывов
отзывом
отзывы
откатывать
открытия
открытым
открыть
откуда
отмечу
относительно
относится
относятся
отношение
отношении
отношения
ото
отображения
отои
отолжо
отолон
отоми
отправить
отправлено
отряд
отсутсвует
отсутствие
отсутствуют
отто
оттоманаи
оттоманы
отче
отчигин
оуох
офицер
официального
официальном
официальныи
оформительски
оформление
оформления
оформленного
ох
охаи
охин
охо
охор
оху
охы
оценка
очень
очерк
очерки
очирбат
очсон
ошибка
ошибками
ошибки
ошибся
ошобо
ошодог
ошожо
ошон
ошоод
ошор
ошохо
ошоһон
ошуурхаб
оэуа
оюун
оюунаи
оюунои
оюутад
оюутадаи
оюутан
оюутанаи
оһаи
оһанн
оһаннес
оһон
оһын
п
пабло
павел
павелэи
павла
павлов
павлович
падуагаи
пак
пакет
пакистан
пакистанаи
пакистанда
палата
палау
палеозои
палеолит
палеолитын
палестина
палестинада
палестинда
палестиндахи
палестиные
палестинын
палестрина
пали
памятник
панама
панамын
пандеми
панели
панн
панорама
пань
папа
папаваи
папатаи
папуа
папын
парагваи
параллели
параметр
параметра
параметрами
параметрах
параметре
параметров
параметром
параметры
паранирвана
паранирванагаи
парватиие
пари
парис
парисаи
париста
парк
паркууд
паркын
парлаамента
парламент
парламентда
парламенттаи
парламентын
парти
партизанаи
партии
партиин
партинь
партне
парфенон
парфенонои
паспорт
пастер
патрулируемому
паул
паулу
пауль
пе
пегментэи
педагогическии
пеи
пелопонессаи
пенджаб
пензын
пенсильвани
пентатлон
пер
первая
первого
первое
первои
первоисточника
первом
первую
первыи
первым
первых
переведе
переведено
перевести
перевод
перевода
переводе
переводил
переводить
перед
переи
переименованию
переименования
перенаправление
переписи
перепись
перепутал
перераб
пересекает
пересмотра
пересмотреть
пересмотру
перец
перзидеэнтэ
период
пермиин
пермскои
пермь
пермягууд
пермяк
перпендикуляр
перс
перси
персиие
персиин
персик
персона
персоналии
персоналиях
персүүд
перу
перугаи
песня
петер
петербург
петербургдахи
петербургта
петербургын
петр
петраркын
петров
петрович
петровскын
петроград
петроградаи
петроградта
петрозаводск
петропавловкын
петропавловскын
петрын
печорын
пи
пианист
пиаф
пивын
пивэ
пизано
пик
пикассо
пикселях
пилсудскии
пинхас
пинь
пиньинь
пионер
пирамида
пиренеи
пиринеи
писатель
писателя
писать
письмо
питер
пифагорои
пишете
пишется
пишите
пишу
пкс
плаваньи
плазма
план
планаи
планета
планирует
планируется
планк
планкын
планые
пластик
пластмасса
платинын
платон
платонаи
платонои
плацента
плевать
плеи
плита
плитанууд
плохо
площадь
плюс
плюют
по
победителем
поблагодарить
поведение
поведения
повесть
поводу
погода
под
подавать
подал
подать
подачи
поддерживает
поддерживаю
поддержку
поделились
поделитесь
поделиться
подобные
подобных
подождать
подписаться
подписи
подпись
подробнее
подробности
подстраницы
подумать
поезд
пожаловать
пожалуи
пожелания
пожеланиях
позволяет
позиции
познакомиться
познань
поиск
пока
показ
показанную
показать
показывал
покерои
покругу
пол
полагать
полагаю
поле
полезным
полиомиелит
полис
политеизм
политеис
политехникын
политехническэ
политика
политики
политикые
политикын
политическая
политическои
политологи
полковник
полного
полномочия
полностью
полноценная
полную
полныи
поло
положение
положения
полонез
получать
получен
получение
получения
получил
получить
полушария
поль
пользователеи
пользу
польская
польш
польша
польшо
польшодо
польшоһоо
польшые
польшын
полюса
полягууд
поляна
полянууд
помераниин
помимо
помните
помогает
поморье
помочь
помощи
помощь
помощью
понго
понимаю
понял
понятно
понять
поп
попечителеи
попов
пор
пород
порт
портал
портале
портленд
португал
португалаи
португалда
португали
португалиин
портууд
портые
порядок
посетите
поскольку
после
последнее
последние
последнии
последних
посмотреть
посмотрите
пособие
посполитои
пост
постараюсь
постоянного
потала
потапов
потепление
потом
потому
потребуется
потсдамаи
похабов
почему
почте
почти
поэдэи
поэзиин
поэмэ
поэмэнүүд
поэт
поэтому
появился
появится
появляется
пп
пр
пра
прав
права
правда
праве
правил
правила
правилами
правило
правильно
правительства
правительство
править
правка
правки
правку
правлениин
правок
правом
правообладателя
правоприменения
православна
православная
прага
прадеш
практик
практика
практикада
практики
практически
преамбула
предлагаю
предложении
предложения
предложил
предмет
предоставить
предполагать
представителеи
представлены
представляет
президент
президента
президиумэи
прекрасно
премию
преображенскын
преобразования
преследование
пресли
пресс
преступников
при
прибалтии
приве
приведена
приведены
приведите
привести
привет
привожу
приглашаем
приглашение
прие
призе
признавать
признал
применение
применению
применения
пример
примера
примере
примеру
примеры
примо
принимает
принимать
принимаются
принц
принцип
принципе
принципы
принял
приняли
принятии
принятия
принять
природа
природные
присваивается
присвоен
присвоения
присоединиться
присоединяи
причине
пришлось
приятно
про
проблем
проблема
проблемы
прованс
проведения
проверено
проверить
проверка
проверять
провинцидо
провинции
провинция
проголосовал
проголосовали
проголосовать
проголосуи
програм
программа
программингын
программы
программын
продление
продлить
продолжить
продуукци
продюсер
проект
проекта
проектах
проектдо
проекте
проектирование
проектов
проекту
проектуудаи
проектуудые
проекты
проектые
проектын
проекции
проекция
прозаик
прозоор
прои
происхождение
прокариот
прокариотои
прокуратурын
прокуророи
пролетарии
пролетарлары
промышленности
промышленность
прополис
пропорциональ
просвещение
просим
просит
проспект
проспектын
просто
пространства
пространстве
пространство
проталкивает
протекторат
протестант
протестантизмын
протестантууд
против
противном
протист
протокол
протон
протонои
проторенессанс
проф
профессионально
профессиональное
профессор
профессора
проходить
прохоров
процент
процентах
процентые
процентынь
процесс
процесса
процессе
процессор
процессые
процессын
прочитаи
прочитал
прошло
прошу
прусси
пруссида
пруссиин
пруссин
пруссын
пруст
прямо
прямои
птаун
птицы
птолемеи
публикация
публицист
публицистическэ
пугаче
пуи
пулеме
пун
пуни
пункт
пункта
пункте
пунктов
пунсалмаагии
пусан
пускаи
пусть
путе
путешествие
пути
путин
путинаи
путч
путь
пуужин
пуччини
пушкин
пушкинаи
пуэрто
пфальц
пха
пхе
пциг
пче
пьер
пьерлуиджи
пяст
пяти
пять
пүрбын
пүрбэ
р
ра
раа
раббинууд
рабиндранат
работ
работа
работает
работать
работе
работои
работы
рабочеи
раввин
равен
равно
равнопромежуточнои
раг
рагаа
рагаи
рагдаһан
раглал
рагша
рагшад
рагшас
рагшасии
рагшын
рагые
рагүи
рад
рада
радаи
радж
ради
радиантаи
радиищев
радикал
радикальна
радио
радиодо
радиус
радууд
ража
раз
разве
развивать
развитие
развитием
развитии
развитию
развития
раздел
раздела
разделах
разделе
разделов
разделы
разин
различные
размер
размеров
разметки
разница
разные
разных
разобраться
разработке
разу
разумеется
раи
рал
ралалһаа
ралга
ралгада
ралдаг
ралдадаг
ралжа
ралта
ралтада
ралтын
ралуулаа
ралуулха
ралха
рам
рамаяна
рамдал
рамдалаи
рамдалтаи
рамдан
рамдах
рамдаха
рамках
рамочная
ран
ранда
ранее
ранууд
рануудаи
расизм
расположен
расположение
распространяемого
распространяется
рассказ
рассказууд
рассказуудаи
рассказуудые
рассмотрение
расче
ратаи
ратификации
рафаэль
раха
рахель
рациональ
рашаантаи
рашал
рашид
раһаар
раһан
рда
рдахи
рдогшо
рдохи
рдугаар
рдугаарта
ре
реализмын
реалис
реально
ребята
революции
революция
регби
регент
регион
региона
региональнои
регионе
регионов
регионы
регистрация
регистрировалһан
ред
редактирования
редактор
редактораар
редактораи
редакторов
редакци
редакцида
редакциеи
редакция
режиссе
резерфорд
резинын
результат
результате
результатом
результаты
реи
река
реке
реки
реклама
рекомендации
рекомендуется
рекомендую
реконкиста
религии
религиозные
рембрандт
ремез
рене
ренессанс
рентген
репарациин
реплики
рес
республика
республике
республики
республикын
ресурсов
ресурсы
реформациин
реформы
речи
речь
решение
решении
решения
решил
реюньон
ри
риа
риверагаи
рика
рико
рим
римбүүшэ
римдэ
римжуулһан
римскии
римэи
ринг
рио
ритм
рихард
рихтерэи
ричард
рка
рлага
рладаг
рлажа
рлалга
рлалгые
рлалгын
рлана
рлах
рлаха
рлаһан
рлинг
рлуулһан
рма
рнууд
рнх
рные
ро
роберт
роби
робот
роботы
ров
ровно
рог
рогои
рогоор
рогто
рогтои
рогууд
рогые
рогынь
рогһоо
род
рода
роджер
роднои
родном
родным
родо
родов
родог
рододендрон
родоплеменные
рождения
рождествын
рожо
роза
розен
рои
рок
рол
роланд
роли
ролсоо
ролсоогоор
ролсоохо
ролцоо
ролцоогоор
роль
ром
рома
ромада
роман
романаа
романаи
романда
романиие
романиинь
романовои
романс
романтизм
романтизмын
романтик
романууд
ромшууд
ромын
рон
рондо
ронни
роно
ронои
ронтои
ронхи
роод
роор
росси
россида
россидо
россии
россиин
россин
россия
ростов
ростовои
ротавирус
ротшильд
рохи
рохо
рохон
рочестер
рошель
рояль
роһон
рских
рсфср
рта
ртаи
рто
ртои
ру
руаль
руанда
рубенс
рубле
рубль
рувики
рувп
руг
рудольф
рузвельт
руководства
руководство
руководству
румын
румыни
румыниин
рупертын
рус
русиин
русин
русск
русская
русски
русские
русскии
русским
русских
русско
русского
русское
русскои
русском
русскоязычнои
русскоязычных
русскую
руссо
русь
руу
руугаа
руулагша
руулан
руулга
руулһан
рф
рхан
рхняя
рхожо
рхол
рхолдо
рхолои
рхолоо
рхолые
рхолһоо
рхон
рхохо
рхуу
рцаг
ршал
ршье
ры
рыб
рые
рын
рынь
рыцарь
рыцарьнууд
рье
рэд
рэи
рэл
рюи
рюүкюү
рядом
рязаниин
рязань
рүү
рүүгээ
рһаа
рһан
рһоо
рөстәм
с
са
саада
саадахи
сааза
саазаар
саазалагдаба
саазалан
саазалба
саазалха
саазалһан
саазатаи
саазын
саам
саами
саамояд
саана
саанахи
саарал
саарһан
саарһанаи
саарһые
саахар
саахараи
сааша
саашаа
саашад
саашада
саашадаа
саашадаи
саашадань
саашалаад
саашалбал
саашанхи
саашань
сааһанаи
сабах
сабуу
сабха
сабшажа
сабшаха
саваннада
савл
савои
саг
сага
сагаа
сагаалган
сагаалганаи
сагаалдаг
сагаан
сагаанаи
сагааниие
сагаар
сагааруулха
сагааша
сагаашад
сагаашадаи
сагаашалха
сагаи
сагдаа
сагдаагаи
сагираган
сагсан
сагта
сагтаа
сагые
сагһаа
сад
садан
саданаи
сажа
саи
саксен
саксони
саксониин
сала
салават
саладин
саламаад
саламандра
салангид
салах
салж
саль
сальвадор
сам
самара
самари
самарканд
самаркандые
самарскои
самарын
самба
самбар
самгарди
сами
самоа
самого
самое
самои
самоле
самом
сампин
сампинг
самураи
самуун
самхаг
самхан
самые
самыи
самым
самых
сан
сана
санаа
санааны
санаар
санаартан
санаи
санал
саналтаи
санамсаргүи
санбаар
санбаартануудые
санг
сангаи
сангии
сангууд
санда
санзаи
санкт
сансар
сансара
сансараи
сансарта
сансарые
сансарын
сансарһаа
санскрит
санскритһээ
сансрын
санта
санти
сантиметр
сантьяго
санхүү
санхүүгаи
санхүүгэи
санын
саппоро
сар
сара
сараас
саравак
сараи
саратов
саратовои
сард
сардини
сардуул
сарнаи
сарса
сарсаа
сартр
сартуул
сарын
сасалга
сасараг
сасаралаи
саскачеван
сасуу
сасуулхада
сатаи
сатьяджит
саудаи
саудын
саул
саха
сахалин
сахалинаи
сахалинск
сахалинскои
сахар
сахара
сахариг
сахаригаи
сахарын
сахигша
сахидаг
сахил
сахилга
сахилгаан
сахилгаанаи
сахим
сахиха
сахюулха
сахюур
сахюураи
сахюусан
сахюусанда
сача
сая
саяан
саяанаи
саятан
саяһаа
саһа
саһан
саһанаи
саһата
саһатаи
саһаханууд
сбол
сборник
сван
сведения
свердловскын
света
свидетельства
свободно
свободное
свободнои
свободных
свободы
свое
своего
своеи
свои
своим
своих
свою
свяжитесь
связанные
связи
связь
святого
сгасан
сделал
сделали
сделано
сделать
сделаю
се
себастьян
себе
себя
севан
север
северная
северного
севернои
северныи
северо
сегмент
сегментһээ
сегодня
сезон
сезондо
сезонһоо
сеи
сек
секретарь
секретаряар
секс
секунда
секундэд
секундэдэ
секции
селекци
селена
село
сельджук
сельских
сельскохозяи
сельсоведаи
семе
семеи
семит
сему
семьи
семья
сен
сенат
сенатаар
сенатаи
сенаторнууд
сенегал
сенсилл
сенсиллнүүд
сенсор
сент
сентябрь
сентября
сер
серб
серби
сербиин
сербишууд
сербохорват
сербууд
сервантес
сервер
сергеевич
сергеи
сердца
сердце
серебра
серебро
сери
серии
сериие
серия
серье
сессии
сеул
сеута
сефевиин
си
сианиин
сиань
сибиириин
сибири
сибириие
сибириин
сибирскии
сибирь
сибирьтэ
сигаретэ
сигизмунд
сиднеи
сии
сикокү
сикстын
сикх
сила
силези
силу
сим
симбирск
символов
симон
симпатик
симфони
симфониин
симфоник
симфонинууд
син
сина
синаи
синан
сингапур
сингапураи
сингапурта
сингл
сингон
синоги
синоизм
синтаксис
синтетик
синто
синус
синхрон
синьхаи
сион
сионизмые
сионист
сиракуз
сири
сириин
систем
система
системе
системии
системы
системые
системын
системэ
системэдэ
системэеэ
системэнь
системэнүүд
системэтэи
системээр
сити
ситуации
ситуация
сиу
сицили
сицилиин
ск
ска
скажем
скажу
сказал
скаляр
скандинав
скандинави
скандинавиин
ская
скелетон
ски
ские
скии
скими
ских
ско
скобка
скобки
ского
ское
скои
сколько
ском
скорее
скоро
скотт
скриншот
скрипкэ
славян
славянууд
слева
следить
следует
следующие
следующих
следующую
слепил
слишком
слободаа
слов
слова
словак
словаки
словам
словами
словари
словарь
словарями
словен
словени
слово
сложно
слол
слоны
служба
службы
случае
случаев
случаи
случаях
слэл
слэлии
см
смена
смерти
смешно
смещение
сми
смиин
смит
смогли
смоленск
смоленскои
смоленскын
смольнодо
смородина
смотрите
смысл
смысла
сначала
снова
сноуборд
сноубординг
сны
снят
снятию
снять
со
собирается
собираюсь
соблюдать
собои
собор
собора
соборои
собрание
собрания
собраны
событии
события
соведэи
совершенно
совет
совета
советская
советскии
советско
советского
советскои
советскэ
совпадают
современная
современник
современного
современныи
современных
согд
согласен
согласно
соглашаюсь
согсо
согсолбори
согшин
содержит
содо
сое
соел
соелои
сожалению
создавать
создал
создана
создание
создании
созданию
создания
создать
сознательное
сои
соколовои
сократ
солбон
солигдоһон
солидарнощч
солилсоо
солилсоонои
солир
солирои
солих
соло
соломон
соломонои
солонгос
солонгосои
солонгосто
солонгосые
солонгосынь
солонгосһоо
солотои
солые
сомали
сомме
соммын
сомог
сомон
сомондо
соморлиг
сомоһон
сон
соната
сонатанууд
сонатые
сонгогджээ
сонгодог
сонгоол
сонгуулиар
сонин
сониндо
сонинои
сонинууд
сонинуудта
сонины
сонирхол
сонирхолтои
сонирхох
соном
соносхогд
соносхол
соносхоһон
сонсогшо
сонсожо
сонсохо
сонхо
соо
сообщение
сообщении
сообщения
сообществ
сообщества
сообщество
сообществом
соогоо
соогуур
соонь
соор
соответственно
соответствии
соответствуют
соответствующеи
соотношение
соотношении
соохи
сооһоо
сор
сорго
сори
соронзон
сорт
сортын
сорын
сорье
сост
состав
составе
составляет
состоит
состояние
состоянию
сосьва
сотен
сотоварищеи
софи
софиин
софия
софокл
сохе
сохибо
сохигдон
сохигдоһон
сохижо
сохилго
сохилто
сохин
сохихо
сохиһон
сохонуудаи
сохын
сохюулһан
социал
социализм
социализмын
социалис
социалист
социалистуудһаа
социально
сочи
сочинении
сошоролые
союз
союза
спам
спартагаи
спартак
спасибо
спасо
спафаарии
спб
спектр
спид
спилберг
спирт
список
сплошь
спорите
спорт
спорта
спортивная
спортои
спортууд
спортын
справа
справедливо
справка
справочник
справочнике
спустя
сравнения
сражение
среди
средние
среднии
средних
срока
српски
сс
сср
ссср
ссылка
ссылками
ссылке
ссылки
ссылку
ссылок
ст
ста
стаб
стабами
стабильна
стабов
стабы
ставрополиин
ставрополь
стадион
стал
стала
сталин
сталинаи
стало
стамбул
стандарт
стандартые
стандартын
станислав
станок
станцад
станци
станцитаи
старается
статеи
статистик
статистика
статистики
статистикын
статистическая
статус
статуса
статустаи
стать
статье
статьи
статью
статья
статьями
статьянуудые
статьях
ства
стве
ственныи
ствительно
ствия
степан
степени
степнои
стерлитамак
стефан
стефания
стивен
стигма
стильнүүд
стиля
стоит
столица
столицеи
столыпин
столь
столько
стоматологи
стороны
стр
стравинскии
стран
страна
странах
страниц
страница
страницах
странице
страницу
страницы
странно
страну
страны
страсбург
стратеги
стратегии
стратегиин
стратегия
стрелок
стрельбе
строка
строки
строку
строматолитууд
студентов
стыдно
стэнли
стюарду
стюарт
су
суахили
суба
субааг
субарал
субарга
субрага
субъект
субъектам
субъектив
субъектов
суг
суглаан
суглаанаи
суглаанда
суглардаг
сугларжа
сугларһан
суглуг
суглуулан
суглуулбари
суглуулбарида
суглуулбаринууд
суглуулга
суглуулгань
суглуулжа
суглуулха
суглуулһан
сугтаа
судалгаа
судалгаагаар
судан
суданаи
судар
судараи
сударые
судлаач
судлал
судлалын
судлах
судья
судя
суи
сул
сула
сулеи
султан
султанда
сум
суматра
сумлагшые
сумын
сун
сунни
сунь
суоми
сур
сура
сурабая
суранзан
суранзанаи
суранзангаи
сурат
сурбалжалагша
сурбалжалагшаар
сурвалж
сургуулии
сургуулиуд
сургууль
суринам
суртал
сурталаи
сурталые
суртахуун
суртахуунаи
сурхаи
сусалһан
сути
сутлаан
суть
суу
суудал
сууж
суулган
суулганаи
сууриа
суурин
суурхаһан
суурь
сууряан
суута
суутаи
сухо
существует
существующеи
сущности
сущность
суэцэи
схемын
схемэ
схх
сценари
сче
счету
считаю
сша
съезд
сы
сыктывкар
сыма
сын
сыр
сырдарья
сычуань
сьерра
сэ
сэбдэг
сэбэ
сэбэр
сэбэрлэхэ
сэг
сэгтэ
сэгтэи
сэгтээ
сэгые
сэгынь
сэгэи
сэгэнь
сэгээр
сэгүүд
сэгүүдые
сэгһээ
сэд
сэдкомои
сэдхэбэ
сэдхэгдэнэ
сэдхэгшэ
сэдхэдэг
сэдхэжэ
сэдхэнэ
сэдхэхэ
сэдхэхэд
сэдхэһэн
сэдьхэгдэл
сэдьхэгшэ
сэдьхэжэ
сэдьхэл
сэдьхэлгээнэи
сэдьхэлдэ
сэдьхэлтэи
сэдьхэлые
сэдьхэлыень
сэдьхэлэи
сэдьхэлээ
сэдьхэхын
сэдэбынь
сэдэв
сэдэвтэи
сэжэ
сэи
сэлбэг
сэлмэг
сэлэнгын
сэлэнгэ
сэмсэгэр
сэмюэл
сэн
сэнгэ
сэнгэг
сэнгэл
сэнгэлдэхэ
сэнгэлэи
сэнтэи
сэнхир
сэнэ
сэнэг
сэнэгтэи
сэнэгые
сэнэгэи
сэнэтэи
сэр
сэргэ
сэргэжэ
сэргэн
сэргээн
сэрэг
сэрэггүи
сэрэглэн
сэрэгтэ
сэрэгтэи
сэрэгшэ
сэрэгшэд
сэрэгшэдэи
сэрэгые
сэрэгын
сэрэгэи
сэрэгээ
сэрэгээр
сэрэгүүд
сэрэгүүдтэ
сэрэгүүдтэи
сэрэгүүдые
сэрэгүүдэи
сэрүүн
сэсэг
сэсэглэжэ
сэсэглэлтэ
сэсэглэн
сэсэглэһэн
сэсэгтэ
сэсэгтэи
сэсэгэи
сэсэгүүд
сэсэгүүдэи
сэсэн
сэсэнэи
сэсэрлиг
сэсэрлигтэ
сэсэрлигэи
сэсэрлигүүд
сэсэрэгшэ
сэтгүүл
сэтгүүлдэ
сэтгүүлнүүд
сэтгүүлнүүдтэ
сэтгүүлшэ
сэтгүүлэи
сэхые
сэхэ
сэхээр
сэхээрэл
сэхээтэд
сээжын
сээжэ
сээжээр
сэһэн
сю
сюда
сюзеренитет
сюи
сюрреалис
ся
сяку
сянь
сяньби
сяньянһаа
сяопин
сяопиниин
сяохаи
сіх
сүбъеэкт
сүбэдэи
сүи
сүл
сүлдэ
сүлжээ
сүлжээг
сүлжээе
сүлэгдэһэн
сүлэжэ
сүлэи
сүлэлгын
сүлэлгэдэ
сүлһөө
сүлөө
сүлөөгэи
сүлөөе
сүлөөлбэ
сүлөөлгын
сүлөөлгэ
сүлөөлжэ
сүлөөлхэ
сүлөөлэбэ
сүлөөлэгдэхэ
сүлөөлэгдэһэн
сүлөөлэлгын
сүлөөлһэн
сүлөөнэи
сүлөөрэлгын
сүлөөтэ
сүлөөтэи
сүм
сүмрэлтэ
сүмтэи
сүмые
сүмын
сүмынь
сүмэ
сүмэдэ
сүмэдэхи
сүмэи
сүмэнүүд
сүмэтэи
сүн
сүнхэрэг
сүрьеэ
сүрьеэгэи
сүрэг
сүсэглэдэг
сүсэглэлдэ
сүсэглэлынхиинь
сүсэгтэнэи
сүсэгы
сүсэгын
сүхбаатар
сүхбаатарын
сүхэ
сүү
сүүдэи
сүүлии
сүүлчии
сөрөг
сөөн
сөөнхи
сөөрэм
сөөхэн
т
та
таагүи
таалал
таамагладаг
таамаглажа
таамаглал
таарадаггүи
тааража
тааралдалаи
тааралдана
тааралдаһан
таарамжатаи
таараһан
тааруу
тааруугаар
тааруулан
тааруулжа
таархаһан
таат
таатаи
таба
табадахи
табадугаар
табадугаарта
табал
табан
табанаи
табасаран
табгаи
табиба
табигдаа
табигдаба
табигдажа
табигдаһан
табидаг
табижа
табилга
табилсаһан
табин
табина
табиха
табихадаа
табихаяа
табихые
табихын
табиһан
табиһанаи
табиһаниинь
таблица
таблице
таблицу
табсан
табсанда
табяа
табяад
таван
тавдугаар
тавьж
таг
тагнуулаи
тагор
тагтаа
тадж
таджик
таджикистан
таджикистанаи
тажа
таи
таиланд
так
также
такие
таким
таких
такого
такое
такои
таком
тактика
тактики
тактикууд
тактикые
тактикын
тал
тала
талаа
талаар
талаараа
талаарха
талаархи
талаас
талада
таладаа
таладань
таланууд
талануудта
талануудые
талань
талархаха
талата
талатаи
талаһаа
талаһаань
талбаи
талбари
талд
талиб
талмаи
талмуд
талуудаи
талха
талхан
талханаи
талые
талыень
талын
талынхи
талынь
талькоо
там
тама
тамаралга
тамаралгын
тамга
тамгын
тамил
тамилнад
тамир
тамираи
тамиршад
тамиршадаи
тамиршан
тамхи
тамхиин
тамхинаи
тамчын
тамын
тан
тана
танаи
танах
танганьика
тангуд
тангудын
тангун
танзани
танигдаһан
танижа
танилсаба
танилсажа
танилсаһан
танилсуулһан
танилцуулж
танин
танисуулга
танк
танка
танкууд
танкуудһаа
танкые
танкын
танкынь
танненбергын
тансаг
танхим
танхимаи
танхимда
танхимтаи
танхимһаа
танюулжа
тар
тараа
тарааба
тараагуур
тараадаг
тараажа
тараалга
тараан
тарааха
тарааһан
тараг
тарагаи
тарадаг
таража
таранхаи
тараһан
тарбаган
тарбагатаи
таргудаи
таридаг
тарижа
таримал
тарифаи
тариха
тариһан
тарни
тарниин
таро
тартесс
таруу
тархаба
тархадаг
тархажа
тархаи
тархалта
тархалтатаи
тархалтын
тархан
тархана
тархаха
тархаһан
тархи
тархида
тархиин
тархинаи
тархинь
тархсан
таряа
таряалалта
таряалан
таряалангаи
таряалангын
таряаланшадта
таряалга
таряалдаг
таряалжа
таряалха
таряан
таряанаи
таряаниие
таряашад
таряашадаи
таряашадта
таряашан
таряашанаи
тасманаи
тасманиин
тасс
татаар
татабари
татабариие
татабариин
татабаринь
татабариһаа
татагалзаба
татагалзажа
татагалзан
татагалзаһан
татагдажа
татагдаһан
татадаг
татажа
таталгын
таталсалаи
таталсана
таталсаха
татан
татар
татараар
татарнууд
татарская
татарстан
татаха
татаһан
татаһанаар
татгалзажа
татгалзаха
татгалзаһан
татгалзсан
татдаг
татсан
татуур
таха
тахал
тахалаи
тахин
тахир
тахяа
ташалан
ташкент
таңдаулы
таһа
таһаг
таһагаи
таһагые
таһадан
таһалан
таһалба
таһалга
таһалгатаи
таһалһан
таһанаи
таһаралтагүи
таһаржа
таһаршагүи
тб
тбилиси
твен
тверь
твое
те
театр
театраи
театрнууд
театрнуудта
театрта
театртаи
театрын
тебе
тебя
тевтон
тегеран
тегэи
тежу
теи
текст
текста
тексте
тексту
текстые
тектоник
тектоникын
теле
телевидени
телевидениин
телевиз
телевизор
телеграфые
телерадиокомпании
телефон
телеһубагаи
телль
телугу
тель
тем
тема
тематические
теме
температура
температурада
температурань
температуратаи
температураһаа
температурые
температурын
тему
темээр
тенант
тендерэи
тензор
теннесси
теннис
теннисист
теннису
теодор
теолог
теологиин
теори
теории
теория
теперь
тер
теравада
терешкова
теркен
термины
термодинамика
термодинамикые
терморезистор
территориальное
территории
территория
терроризм
тесла
тесь
тетралогиин
тех
техас
техасаи
техник
техника
техникии
техникумдэ
техникые
техникын
техникэ
технических
техническои
технологи
технологии
технологиие
технологиин
технологинуудые
теэд
теэхникүм
ти
тиб
тиберия
тибиин
тибэ
тибэнүүдэи
тиг
тигр
тигээд
тии
тиибэшье
тиигэ
тиигэбэл
тиигэбэшье
тиигэд
тиигэжэ
тиигээд
тиимэ
тиимэшье
тиимэһээ
тиимһээ
тиин
тиихэдэ
тиихэдэнь
тиихэдээ
тиишэ
тиишээ
тимор
тинг
тип
типа
типу
титим
титимнэлгэнь
титимэи
титэм
тификации
тка
тных
то
тоба
тобаго
тобои
тобол
тобольскын
тобш
тобшо
тобшодо
тобшолһон
тобшоо
тобшоонои
тобшоор
тов
товч
товчоо
тогда
тоглобо
тоглогшо
тоглодог
тогложо
тоглоон
тоглоонои
тоглохо
тоглоһон
того
тогоон
тогтнож
тогтнол
тогтнолоо
тогтобо
тогтоборигүи
тогтоборитои
тогтобортои
тогтодог
тогтожо
тогтол
тогтолои
тогтолсоо
тогтолсоое
тогтолсоондо
тогтолсоонои
тогтолсоотои
тогтомол
тогтомолые
тогтонихо
тогтониһон
тогтоно
тогтонобо
тогтоножо
тогтонолои
тогтонолоо
тогтонолые
тогтоносон
тогтоноһон
тогтообо
тогтоогдоһон
тогтоогшо
тогтоодог
тогтоожо
тогтоол
тогтоолоор
тогтоолые
тогтоомжо
тогтоомжын
тогтоон
тогтоосон
тогтоох
тогтоохдоо
тогтоохо
тогтооходо
тогтоохын
тогтооһон
тогтосо
тогтосотои
тогтохо
тогтоһон
тогтоһонои
тогтууритаи
тогууритаи
тод
тодо
тододхоһон
тодоор
тодоржо
тодорно
тодороо
тодоруулбал
тодоруулжа
тодоруулха
тодорхои
тодорһон
тодхор
тое
тож
тоже
тожо
тои
токе
токио
токугава
толбо
толботои
толгои
толедо
толи
толидо
толиие
толиин
толилогдоһон
толинои
толковыи
толон
толстои
толь
только
том
томас
томат
томах
томилбо
томилдог
томилжо
томилогджээ
томилогдобо
томилогдодог
томилогдожо
томилогдоһон
томилхо
томилһон
томо
томодо
томонь
томоохон
томорһон
томохон
томск
томскын
тому
томье
тон
тонга
тонгои
тониинь
тонн
тонно
тонноһоо
тоног
тонои
тонон
тонтои
тоншуул
тоо
тоог
тоогои
тоогоор
тоогоороо
тоодо
тоодог
тоое
тооке
тооллогоор
тооллогын
тоолобол
тоологдодог
тоологдожо
тоолодог
тооложо
тоолол
тоололго
тоололгоор
тоололгоһоо
тоололгын
тоололои
тоололоор
тоололые
тоолохо
тоон
тоондо
тоониие
тооно
тоонои
тоонто
тоонууд
тоонуудаи
тооные
тоонын
тоонь
тоонһоо
тоорил
тоособол
тоосогдодог
тоосогдожо
тоосогдоно
тоосогдохо
тоосодог
тоосожо
тоосоно
тоосоо
тоосоогдоһон
тоосоогои
тоосоогоор
тоосоолол
тоосоолон
тоосоолхо
тоосоолһон
тоосоолһоноор
тоосохогүи
тоосоһон
тоото
тоотои
тооцогддог
тооһобшо
тооһон
тооһониинь
тооһонои
тооһонсорои
тооһоо
тооһормог
тооһые
топо
топографи
тор
тора
торагаи
торгон
торгонои
торгуудын
торгуулиин
торин
тороев
тороевои
торонто
торрес
торые
тос
тосгуурта
тосны
тоссн
тосхон
тосхондо
тосхонои
тосхонууд
тот
тоталитар
тотои
тохе
тохиолдол
тохиолдолд
тохиромжотои
тохиромжтои
тохирсон
тохируулан
тохируулһан
тохирһон
тоходог
тохои
тохохо
точек
точка
точке
точки
точкои
точно
точности
тоһо
тоһолиг
тоһолигтои
тоһон
тоһониинь
тоһонои
тоһоо
тоһоор
тоһотои
тоһые
тр
традиции
трактор
тральна
трамваи
трамплинһаа
транзистор
транзисторые
транзисторынь
транси
транскрипци
транспорт
транспортын
транссибириин
трансцендент
трахеи
тре
требование
требовании
требования
требуется
трек
тренер
третии
третье
третьего
третьяковои
три
триатлон
триллион
тринидад
трио
трираи
тритон
триумфальна
трои
троицкои
троицкын
троицын
троллеи
тронои
тропигои
тротуар
троя
троягаи
труда
трудов
труды
трупые
трын
тся
ту
туберкуле
тува
туваар
тувалу
туг
тугаа
тугад
тугаи
тугал
тугдам
тугсуулнууд
туда
туи
тул
тула
тулаалжа
тулаан
тулаанаи
тулаанда
тулааниие
тулаанһаа
тулада
тулажа
тулалдаан
тулалдаанаа
тулалдаанаар
тулалдаанаи
тулалдаанда
тулалдаанһаа
тулалдаж
тулалдажа
тулалдан
тулалдана
тулалдахада
тулалдахые
тулалдаһан
тулалдаһанаи
тулаһан
тулган
тулгарһан
тулгаха
тулгуур
тулгуури
тулгууриин
тулгуурилан
тулгуурилһан
тулд
тулда
тулуи
тулын
тума
тумбинаи
тун
тунадас
тунгалаг
тунгус
тундра
тунис
тунхаг
тунхаглаба
тунхаглагдаба
тунхаглагдаһан
тунхаглажа
тунхаглал
тунхаглалаар
тунхаглалаи
тунхаглалда
тунхаглалые
тунхаглан
тунхаглаһан
туо
тур
тура
турандот
турантаи
туризм
туризмын
туристнараи
турк
туркевич
туркмен
туркменистан
туркменистанаи
туркууд
турникедууд
туруутаи
турш
турша
туршаа
туршаба
туршад
туршада
туршажа
туршалга
туршалганууд
туршалгаһаа
туршалгын
туршалта
туршалтын
туршаха
туршаһан
туршид
туршилтууд
туршилтын
тус
тусаи
тусам
тусгаад
тусгаар
тусгаарлагдаһан
тусгаарлагша
тусгаарлажа
тусгаарлан
тусгаарлаха
тусгаарлахые
тусгаарлаһан
тусгагдаһан
тусгаи
тусгалаа
тусган
тусгаһан
тусдаа
тусламж
тусламжа
тусламжтаи
тусмаа
тусхаи
тусхал
тусын
тусһан
тут
тутам
тутамаи
тутамд
тутамда
тутамын
тутарга
тутаргын
тутмын
туужа
туужанууд
туужануудаи
туужын
туулажа
туулаи
туулан
туулган
туули
туулиин
туулһан
туураи
туурбидаг
туурбижа
туурбил
туурбиһан
туурбяа
туургануудые
туури
тууриие
тууша
туушатаи
тууһаниинь
тухаи
тушаа
тушаал
тушаалаа
тушаалааһаа
тушаалд
тушаалда
тушаалые
тушаалһаа
тушаалһаан
тушаалһаань
тушааһан
туяа
туяае
туяанаи
туяатаи
туһа
туһаар
туһажа
туһалагша
туһаламжа
туһаламжаар
туһаламжатаи
туһаламжын
туһалба
туһалдаг
туһалжа
туһална
туһалха
туһам
туһатаи
туһаха
туһаһан
тфф
тхэджо
ты
тыва
тыла
тын
тыс
тысяч
тысячи
тэ
тэбхылгэжэ
тэбхэр
тэг
тэгни
тэгу
тэгшэ
тэгшэдхэл
тэгшэдхэлые
тэгшэдхэлэи
тэгшэхэн
тэгэбэл
тэгэхээр
тэд
тэдгээрии
тэднии
тэдхэбэри
тэдхэмжэ
тэды
тэдыгээр
тэдыгээрһээ
тэдые
тэдынэи
тэдэ
тэдэгээр
тэдэгээрые
тэдэгээрынь
тэдэгээрэи
тэдэндэ
тэдэниие
тэдэнтэи
тэдэные
тэдэнь
тэдэнэи
тэдэнэр
тэдэнһээ
тэдээн
тэдээндэ
тэдээнэи
тэжээдэг
тэжээл
тэжээллиг
тэжээлтэн
тэжээлые
тэжээлэи
тэжээлээ
тэжээлээр
тэи
тэлэбэ
тэлэжэ
тэлһэнээр
тэмдэг
тэмдэглэбэ
тэмдэглэгдэдэг
тэмдэглэгдэжэ
тэмдэглэгдэн
тэмдэглэгдэнэ
тэмдэглэгдэһэн
тэмдэглэдэг
тэмдэглэж
тэмдэглэжэ
тэмдэглэл
тэмдэглэлтэ
тэмдэглэн
тэмдэглэнэ
тэмдэглэсэн
тэмдэглэх
тэмдэглэхын
тэмдэглэхэ
тэмдэглэһэн
тэмдэгтэ
тэмдэгтэи
тэмдэгые
тэмдэгынь
тэмдэгэи
тэмдэгүүд
тэмдэгүүдые
тэмсэгшэ
тэмсэдэг
тэмсэжэ
тэмсэл
тэмсэлдэ
тэмсэлдэжэ
тэмсэлдэһэн
тэмсэлые
тэмсэлэи
тэмсэхые
тэмсэхэ
тэмсээд
тэмсээн
тэмсээндэ
тэмсээнэи
тэмсээнүүд
тэмсэһэн
тэмтэрүүл
тэмцэл
тэмцээнд
тэмээ
тэмээн
тэмээнэи
тэмүр
тэмүүжэн
тэмүүжэндэ
тэмүүжэнэи
тэн
тэнгис
тэнгисии
тэнгисиинь
тэнгиста
тэнгистэ
тэнгистэи
тэнгисые
тэнгисэи
тэнгисээр
тэнгисүүд
тэнгисүүдэи
тэнгисүүдээр
тэнгисһээ
тэнгэри
тэнгэридэ
тэнгэрии
тэнгэриие
тэнгэриин
тэнгэринэр
тэнгэринэрэи
тэнгэринүүд
тэнгэритэ
тэнгэриһээ
тэнд
тэндаи
тэндэ
тэндэхи
тэндээ
тэндэһээ
тэниинь
тэнсэбэриин
тэнсэнэ
тэнсэхэ
тэнсүү
тэнхимдэ
тэнхэлиг
тэнхэлигэи
тэнэг
тэнэи
тэнэмэл
тэр
тэрбум
тэрбээр
тэрбүм
тэргэ
тэргээр
тэргүүлдэг
тэргүүлхэ
тэргүүлэгшэ
тэргүүлэгшэдын
тэргүүлһэн
тэргүүн
тэргүүнии
тэргүүнэи
тэргүүнээр
тэргүүтэи
тэрдэг
тэржэ
тэригүүн
тэригүүнэи
тэригүүтэн
тэртээ
тэртээхэ
тэрхүү
тэршэлэн
тэрэ
тэрэбээр
тэрэг
тэрэнги
тэрэндэ
тэрэниие
тэрэнтэи
тэрэнь
тэрэнэи
тэрэнээ
тэрэнһээ
тэрэшье
тэрэшэлэн
тэрээн
тэрээндэ
тэрээниие
тэрээнһээ
тэрээр
тэрэһээ
тэс
тэсбэрлэхэ
тэсбэртэи
тэтчер
тэшүүр
тэшүүртэи
тээ
тээбэри
тээбэриин
тээбэрилхэ
тээгүүр
тээжэ
тээнь
тээрмэ
тээхэ
тээшэ
тээшээ
тээһээ
тээһээнь
тэһэрдэг
тэһэрхэ
тэһэрэлгын
тэһэрэлтэһээ
тюдор
тюмениин
тюменскои
тюмень
тюринг
тюринги
тюрингын
тюрк
тюрьма
тяньаньмэниин
тяньаньмэнь
тяньцзиниин
тяньцзинь
түб
түбдэ
түбдөө
түби
түбида
түбидэ
түбиие
түбиин
түбинүүд
түбиһээ
түбиһөө
түблэрдэг
түблэржэ
түблэрхэ
түблэрэн
түблэрһэн
түбтэ
түбтэи
түбшиндэ
түбшэн
түбшэндэ
түбшэнэи
түбшэнһээ
түбшэнһөө
түбые
түбын
түбынь
түбэгтэи
түбэд
түбэдтэ
түбэдые
түбэдэи
түбэи
түбүүд
түбүүдые
түбүүдэи
түбһээ
түбһөө
түвд
түвшнии
түг
түгэд
түгэлдэр
түгэн
түгэс
түгэсбэ
түгэсгэл
түгэсхэл
түгэсхэлгүи
түгэсхэлдэ
түгэсхэлөөр
түгэсхэһэн
түгэсхөө
түгэсхөөгүи
түгэсэбэ
түгэсэжэ
түгэсэн
түгэсэһэн
түгэсһэн
түгэсөө
түгээмэл
түгээн
түгэһэн
түгөөмэл
түды
түдыгүи
түдылэн
түдэи
түи
түл
түлбэри
түлбэригүи
түлбэриин
түлгэ
түлгэндэ
түлихэ
түлишэ
түлишэдэ
түлхигдэжэ
түлхин
түлхисэ
түлхэлсэхэ
түлхэн
түлхэсэ
түлхэхэ
түлхюур
түлэб
түлэблигөө
түлэблэгөөнэи
түлэблэжэ
түлэблэһэн
түлэбтэ
түлэбтэи
түлэбые
түлэбэи
түлэбэри
түлэгдэн
түлэдэг
түлэжэ
түлэхэ
түлэһэн
түлөө
түлөөлдэг
түлөөлжэ
түлөөлхэ
түлөөлэгшын
түлөөлэгшэ
түлөөлэгшэд
түлөөлэгшэдые
түлөөлэгшэдэи
түлөөлэгшэнь
түлөөлэл
түлөөлэлэи
түлөөлһэн
түлөөнэи
түлөөхи
түлөөхэ
түмнии
түмэд
түмэдэи
түмэн
түмэндэ
түмэниие
түмэнэи
түмэнүүд
түмэр
түмэрлиг
түмэрлигэи
түмэртэи
түмэрэи
түмэрөөр
түмэс
түмүнов
түмһэн
түмһэнэи
түнгүүс
түнхэн
түнхэнэи
түр
түргэн
түргэншэгөөр
түргэнөөр
түргөөр
түрижэ
түримхэи
түрлэгэи
түрмэ
түрмэдэ
түрхэ
түрые
түрын
түрэ
түрэбэ
түрэг
түрэгтэ
түрэгшэ
түрэгэи
түрэгүүдтэ
түрэгүүдые
түрэгүүдэи
түрэгүүдһөө
түрэдэ
түрэдэг
түрэжэ
түрэл
түрэлгэ
түрэлгэнүүд
түрэлдэ
түрэлнүүд
түрэлнүүдые
түрэлтын
түрэлтэи
түрэлтэн
түрэлтэнэи
түрэлхи
түрэлхидэи
түрэлхитэн
түрэлхитэндэ
түрэлхитэные
түрэлхитэнэи
түрэлые
түрэлэи
түрэлөө
түрэлөөр
түрэмгии
түрэн
түрэнь
түрэнүүд
түрэтэ
түрэтэи
түрэхые
түрэхын
түрэхэ
түрэхэд
түрэшэ
түрэшэд
түрэһэн
түрэһэниинь
түрэһэнэи
түрэһээ
түрэһөө
түрүү
түрүүлдэг
түрүүлжэ
түрүүлхэ
түрүүлэгшын
түрүүлэгшэ
түрүүлэгшэдэи
түрүүлэгшээр
түрүүлэн
түрүүлһэн
түрүүн
түрүүндэ
түрүүнэи
түрүүшын
түрүүшынгээ
түрүүшынхеэ
түрүүшынхеэр
түрүүшынхие
түрүүшынхиеэ
түрүүшынь
түрүүшээр
түрөө
түсэб
түсэблэгдэжэ
түсэблэгдэһэн
түсэблэжэ
түсэбэи
түсэл
түсэлнүүд
түсэлые
түхеэрэлгэ
түхеэрэмжын
түхеэрэмжэ
түхэл
түхэлтэи
түхэлэи
түхэреэн
түхөөрэмжые
түшэг
түшэмэд
түшэмэл
түшэмэлэи
түүбэри
түүгээр
түүжэ
түүн
түүндэ
түүнии
түүниие
түүниин
түүнтэи
түүнчлэн
түүншэлэн
түүные
түүнэи
түүнһээ
түүнһөө
түүрэг
түүх
түүхии
түүхиие
түүхтэи
түүхчид
түүхые
түүхын
түүхэ
түүхэдэ
түүхэдэхи
түүхэдээ
түүхэеэ
түүхэи
түүхэн
түүхэндэ
түүхэндээ
түүхэнь
түүхэтэ
түүхэтэи
түүхэшэ
түүхэшэд
түүхэшэдэи
түүхэшэн
түүхэһээ
түһэтэи
түһөөлэл
түһөөтэи
төв
төвд
төвдии
төгсгөлд
төгөлдөр
төлү
төлөвт
төлөө
төлөөлж
төлөөлөгч
төлөөлөгчид
төлөөлөгчии
төлөөх
төмрии
төмөр
төр
төрии
төрлии
төрсөн
төрт
төрөл
төрөлд
төрөлтии
төрөлх
төстэи
төсөл
төхөөрөмжии
у
уатт
убеждениям
уважаемые
уважаемыи
уважаемым
уважением
уведомления
уверенное
увертюрэ
увидеть
увидите
увс
увы
уг
угаа
угаажа
угаажань
угаажатанаи
угаажууд
угаажын
угаастан
угааха
угаи
угалзатаи
уганда
уголовно
угор
угсаа
угсаанаи
угсаата
угсаатан
угсаатанаи
угсаатаниие
угтадаг
угтан
угһаа
уд
удаа
удаагаа
удаагаи
удаагии
удаада
удаадахи
удаан
удаань
удаатаи
удааха
удаахи
удалгүи
удалена
удалению
удаления
удалил
удалить
удалять
удам
удамаа
удамаи
удамда
удамуудаи
удамшалаи
удамынь
удангүи
ударидааша
ударидаба
ударидагша
ударидагшаар
ударидагшад
ударидагшадаи
ударидагшань
ударидагшын
ударидадаг
ударидажа
ударидалга
ударидалгаар
ударидалгада
ударидалгатаи
ударидалгые
ударидалгын
ударидалһан
ударидан
ударидана
ударидаха
ударидаһан
ударидуулан
ударидуулһан
ударидхал
ударилга
удачи
удинская
удирдагч
удирдан
удмурт
удмурти
удмуртууд
удобном
удовольствием
удха
удхаар
удхаараа
удхагүи
удхань
удхатаи
удхые
удхын
удэ
уефа
уж
уже
узбек
узбекистан
узбекистанаи
узнаи
узнать
узун
узуулбари
узуур
уи
уикипедия
уильям
уинстон
уих
укажите
указ
указали
указание
указанием
указания
указано
указать
указывать
укаяли
укесон
укп
украи
украин
украина
украинада
украинашууд
украиншууд
украины
украиные
украинын
украі
ул
ула
улаа
улаагана
улаан
улаанбаатар
улаанбаатарт
улаган
улад
улаи
улам
уламаар
уламжалал
уламжалалаар
уламжалалаи
уламжалалда
уламжалалнууд
уламжалалта
уламжалалтаи
уламжалалые
уламжалан
уламжлалт
уламжлалта
уламһаа
улан
уларил
уларилаи
уларилда
уларилтаи
уларилынь
уларилһаа
улас
уласаа
уласаар
уласад
уласаи
уласда
уласдаа
уласиинь
уласконституция
уласта
уластаи
уластахи
уласууд
уласуудаар
уласуудаи
уласуудта
уласуудтаи
уласуудые
уласуудһаа
уласхоорондын
уласые
уласын
уласынь
уласһаа
улбаалан
улбар
улза
улзы
улиастаи
улмаар
улмаас
улс
улсад
улстаи
улсуудтаи
улсыг
улсын
улус
улучшении
улучшению
улучшения
улучшить
ультраягаан
ульянов
ульяновскын
уляангир
уляаһан
умаи
умар
умара
умарада
умер
умереннэ
умолчанию
унаад
унаба
унагаажа
унагааһан
унагажа
унаган
унагаһан
унадаг
унажа
уналга
уналгаһаа
уналта
уналтын
унана
унаха
унахада
унаһан
унаһанаи
унгар
унгараи
унгарда
унгарта
унгарын
ундаан
ундан
унжалга
унжалгууд
уни
универсального
университедэи
университет
университета
унтарааһан
унтарха
унша
уншагшадаи
уншадаг
уншажа
уншалга
уншалгын
уншана
уншаха
уншаһан
уняа
уолт
уорхол
уох
упорного
управлении
управлению
управления
ур
ура
ураа
ураал
ураалаи
ураалда
ураалые
ураг
урагаи
урагш
урагша
урагшаа
урагшагүи
урагшалха
урагшатаи
урадхал
урал
урала
уралаар
уралаи
уралдаан
уралдан
уралиг
уралигаар
уралигаи
уралигта
уралигые
уралигынь
уралигһаа
уралын
урам
уран
уранаи
уранзан
урасхал
урасхалаи
урасхалнууд
урасхалые
урасхалынь
урбажа
урбал
урбалаар
урбалаи
урбалда
урбалта
урбан
урбанизацилһан
урбукан
урбуу
урбуулха
урга
ургадаг
ургажа
ургалта
ургалтые
ургалша
ургамал
ургамалаар
ургамалаи
ургамалда
ургамалнууд
ургамалнуудаи
ургамалнуудые
ургамалтаи
ургамалые
ургамалынь
ургамалһаа
урган
ургана
ургаса
ургасатаи
ургасын
ургаха
ургаһан
ургуулжа
ургуули
ургуулида
ургуулха
урд
урда
урдаа
урдагал
урдада
урдадаг
урдажа
урдан
урдана
урданаи
урдандаа
урдань
урдаса
урдаха
урдахи
урдаһаа
урду
урдуураа
урдын
уриба
уригдан
урид
урида
уридань
уридшалан
уридшалгаа
уридшалһан
уридын
урижа
урилга
урилдаан
урлаг
урлагаи
урлал
урлаһан
уровень
уровне
уровнем
уровня
уроки
уррутиа
урса
урсагал
урсгал
урсгалын
урсдаг
урт
урта
уртабтар
уртань
уртатаи
урттаи
уругваи
уруп
уруу
уршагаар
уряа
уряалан
уряалга
уряалжа
уряалһан
уряанхаи
ус
усадхагдаһан
усадхажа
усадхаха
усадхаһан
усадьба
усан
условия
усман
усны
успениин
успенскии
усс
уссури
устав
устава
уставе
установлена
устныи
устраивает
усть
устөрөгчии
усыг
ута
утаараа
утаашаа
утаашань
утада
утадаа
утань
утаригаи
утас
утасны
утатаи
утаһа
утаһаар
утаһан
утаһанаи
утаһанда
утверждении
утверждения
утга
утгатаи
утопи
утрехтын
уттар
утые
уу
ууган
уугуул
уудаг
уудам
уудамал
уужа
уул
уула
уулаар
уулада
ууланууд
уулануудаи
уулануудтаи
уулануудһаа
уулархаг
уулас
уулаша
уулашад
уулашни
уулаһаа
уулгаха
уулзаба
уулзабари
уулзадаг
уулзажа
уулзалга
уулзалт
уулзалта
уулзаһан
уулын
уур
уураг
уурагаи
уурагта
уурагууд
уурал
ууралаи
уургые
уури
уурин
уурхаи
уурын
уусгагч
ууссан
уута
ууха
уушалал
уушхан
уушханаи
уушханда
уфа
уфын
ухаалаг
ухаан
ухаанаи
ухаанда
ухааниие
ухааниинь
ухаанта
ухаантад
ухаантаи
ухаантан
ухаанууд
ухаанша
ухааншад
ухааны
ухааные
ухаатаи
ухамсараи
ухань
уходе
ухуулга
ухуулха
учан
участвовать
участие
участник
участника
участниками
участники
участников
участником
участнику
уче
учебник
учебное
учир
учитывается
учитывая
учредительнэ
учреждении
ушар
ушараар
ушараи
ушарань
ушардаг
ушариинь
ушарнууд
ушарта
ушартаи
ушаруулба
ушаруулжа
ушаруулха
ушаруулһан
ушарынь
ушарһаа
ушарһан
уше
ушир
уэи
уэльс
уэльсын
уэссексын
уядаг
уялга
уялгатаи
уялгые
уялдаа
уялдаатаи
уян
уянга
уянгын
уһа
уһаар
уһагүи
уһада
уһажуулга
уһажуулгые
уһажуулгын
уһажуулха
уһалга
уһалгада
уһалгые
уһалха
уһан
уһанаи
уһанда
уһаниие
уһаниинь
уһантүрэгшые
уһантүрэгшын
уһантүрэгшэ
уһантүрэгшэтэи
уһанһаа
уһатаи
уһые
ф
фа
фабрика
фагот
фаи
фактически
факто
факты
факультедтэ
факультет
фан
фантази
фантастики
фань
фарадеи
фараонои
фараонуудаи
фарер
фармацевтическэ
фасад
фасо
фатимид
фатимидаи
фатимидууд
фатум
фауст
фашизм
фашизмын
фашис
фашист
фе
февралиин
февраля
федеральная
федеральнои
федеральных
федеративнои
федерации
федерациин
федерация
федерер
фелиин
фелипе
феминизм
феникс
феодаалнуудаи
феодал
феодалаи
феодалнууд
феодалои
феодосии
ферганагаи
фердинанд
фердинандые
фердинандын
фермент
ферментын
фермернүүд
фермын
фермэ
фернан
фернандо
феррит
фехтовалга
фз
фи
фивы
фивын
фигурная
фидель
фидес
фиджи
физик
физики
физикиин
физикын
физикэ
физикэдэ
физиологи
физиологиин
физическая
фиизикын
филадельфи
филипп
филиппин
филиппина
филиппинын
филиппинэи
филиппые
филиппын
филиппэи
философ
философи
философии
философиин
философия
фильм
фин
финики
финикиин
финикиинхид
финикишүүд
финланд
финландаи
финландта
финландын
финляндии
финляндскои
финн
финно
финнууд
финуудаи
финэи
флаг
флага
флагом
флакс
фле
флодои
флоренци
флоренцида
флоренциин
флорида
флоридые
флот
флотои
флуд
фокс
фон
фона
фонд
фонда
фондын
фонетическэ
форд
формат
формате
формирования
форму
формулы
форт
фортепиано
фортепианодо
фортепианын
форум
форуме
фосфор
фосфорои
фото
фотографии
фотон
фотосинтез
фотосинтезэи
фр
фраи
франк
франклин
франклинаи
франко
франкогои
франкоканадынхидаи
франкууд
франкуудаи
франкфурт
франкфуртын
франкын
франсиско
франсуа
франц
франци
францида
франции
франциие
франциин
франциинхи
франциско
францитаи
францишууд
францишуудаи
францишуудые
франция
франциһаа
француз
французскии
французскои
французском
французы
францын
францяар
франческо
фред
фредерик
фреи
фрида
фридрих
фриз
фристаи
фро
фрои
фронт
фронтдо
фронттои
фронтые
фронтын
фрэнк
фрэнсис
фу
фукидид
фукуока
фун
фундаментализм
функци
функции
функциин
функцию
функция
фунт
футбол
футболист
футболу
футбольная
футбольныи
фьоре
фэн
фэшн
х
ха
хаа
хаагдажа
хаагдаһан
хаагша
хаад
хаадаг
хаадаи
хаажа
хаалга
хаалгатаи
хаалта
хаалтанууд
хаалтатаи
хаалттаи
хаалтын
хаан
хаана
хаанаар
хаанаи
хаанашье
хаанда
хааниие
хааниинь
хаант
хаанта
хаантаи
хааншалалаи
хааншалгын
хааншалһан
хааны
хааные
хаанһаа
хаар
хааха
хаашуул
хаашуулаи
хааяа
хааһан
хаб
хаба
хабаада
хабаадагшад
хабаадажа
хабаадалсаа
хабаадалсаба
хабаадаһан
хабаансхын
хабаатаи
хабар
хабараи
хабаровск
хабаровскын
хабарта
хабдар
хабдараи
хабигүи
хабида
хабирга
хабиталаи
хабов
хабсагаи
хабсал
хабсалые
хабсаран
хабтагаи
хабтагар
хабтан
хабтар
хабул
хабшаахаи
хабшажа
хабшал
хабын
хабяар
хаваи
хавар
хаг
хагарал
хагаралаи
хагас
хагүи
хад
хада
хадаа
хадаг
хадагаа
хадагаар
хадагалагдажа
хадагалагдан
хадагалагдаха
хадагалан
хадагалдаг
хадагалжа
хадагалха
хадагалхадаа
хадагалхын
хадада
хадалиг
хадамда
хаданууд
хадануудаар
хадань
хадаран
хадгалагдан
хадгалагдаха
хадгалан
хадгалах
хадгалдаг
хадгалжа
хадгална
хадхажа
хадхаляа
хадхаляаниинь
хадхамал
хадын
хадынхитаи
хажуу
хажуугаар
хажуугаархи
хажуугаи
хажууда
хажуудань
хажуудахи
хажууһаа
хазажа
хазаи
хаи
хакас
хакаси
хаката
хал
халаад
халаалтын
халадаг
халажа
халаһан
халгаатаи
[...]
