!
"
#
##0
##1
##10
##11
##12
##13
##14
##15
##16
##17
##18
##19
##2
##20
##21
##22
##23
##24
##25
##26
##27
##28
##29
##3
##30
##31
##32
##33
##34
##35
##36
##37
##38
##39
##4
##40
##41
##42
##43
##44
##45
##46
##47
##48
##49
##5
##50
##51
##52
##53
##54
##55
##56
##57
##58
##59
##6
##60
##61
##62
##63
##64
##65
##66
##67
##68
##69
##7
##70
##71
##72
##73
##74
##75
##76
##77
##78
##79
##8
##80
##81
##82
##83
##84
##85
##86
##87
##88
##89
##9
##90
##91
##92
##93
##94
##95
##96
##97
##98
##99
$
%
&
'
(
)
*
+
,
-
.
/
0
00
000
0001
0004
001
00598
01
010
012
01376
02
03
030
04
05
06
060
06888
07
08
087
09
091
1
10
100
1000
10000
1007
101
101207543
102
103
10304263
104
104244355
105
105958830
106
106131549
107
107212659
107343683
108
1080
10855166
109
1093
1095
1099
11
110
1100
1109
111
112
113
11305732
114
115
116
1165538
117
118
1189
119
12
120
1200
1204
1206
1207
121
1211
1212
1215
1219
122
1220
1221
1225
1227
1229
123
1232629
1234
1237
124
1240
1241
125
126
1261
126442
1264934
127
1271
1279
128
129
13
130
1300
1307356
131
132
133
1337
134
135
13550863
1357
136
1368
137
1377
138
139
1392
14
140
1400
1402
1405
1408
141
1410
1419
142
143
1435
144
145
1453
146
1468
147
1470
1474
1476
148
1480
149
1490
1492
1493
1497
1498
15
150
1500
1502
1505
151
1515
1517
1519
152
1520
1521
153
1533
1534
1535
154
1542
1547776
155
1550
1556
1557
1559
156
1564
1569
157
1570
15706812
1571
1572
1574
1577
158
1582
1583
1586
1588
1589
159
1590
1592
1596
1598
16
160
1600
1603
1606
1609
161
1610
1616
1617
1618
162
1620
1624
1625
1627
1628
163
1630
1632
16323066
1636
1637
1640
1642
1643
1644
1646
1648
165
1650
1652
1653
166
1660
1666
167
1672
1675
1678
168
1680
1682
1683
1684
1686
1688
1689
169
1690
1691
1694
1696
1697
17
170
1700
1701
170109
1707
1708
1709
171
1713
172
1720
1721
1724
1727
17299517
173
1732
1733
1735
1736
1737
17378135
174
1741
1749
175
1750
1755
1757
1758
1759
176
1760
1762
1763
1764
1766
1768
1769
177
1770
1772
1773
1774
1775
1776
1777
1778
1779
178
1780
1781
1782
1783
1784
1785
1786
1787
1788
1789
1789619
179
1790
1791
1792
1793
1794
1795
1796
1797
1798
1798125
1799
18
180
1800
1801
1802
1804
1805
1806
1807
1808
1809
181
1810
1811
1812
1813
1814
1815
1816
1818
1819
182
1820
1821
1822
1823
1824
1825
1826
1827
1828
1829
183
1830
1831
1832
1833
1834
1835
1836
1837
1838
1839
184
1840
1841
1842
1843
1844
18446
1845
1846
1847
1848
1849
185
1850
1851
1852
1853
1854
1855
1856
1857
1858
1859
186
1860
1861
1862
1863
1864
1865
1866
1867
1868
1868372
1869
18696256
187
1870
1871
1872
1873
1874
1875
1876
1877
1878
1879
188
1880
1881
1882
1883
1884
1885
1886
1887
1888
1889
189
1890
1891
1892
1893
1894
1895
1896
1897
1898
1899
19
190
1900
1901
1902
19025604
1903
1904
1905
1906
1907
1908
1909
191
1910
1911
1912
1913
1914
1915
1916
1917
1918
1919
192
1920
1921
1922
1923
1924
1925
1926
1927
19276262
1928
1929
193
1930
1931
1932
1933
1934
1935
193563
1936
1937
1938
1939
194
1940
1941
1942
1943
1944
1945
1946
1947
1948
1949
195
1950
1951
1952
1953
1954
1955
1956
1957
1958
1959
196
1960
1961
1962
1963
1964
1965
1966
1967
1968
1969
197
1970
1971
1972
1973
1974
1975
1976
1977
1978
1979
198
1980
1981
1982
1983
1984
19847326
19847329
1985
1986
1987
1988
1989
199
1990
19908137
1991
1992
1993
19938912
19939115
1994
1995
1996
1997
1998
1999
2
20
200
2000
2001
2002
2003
2004
2005
20056651
2006
2007
2008
2009
201
2010
2011
2012
2013
2014
2015
2016
2017
2018
2019
202
2020
2021
2022
203
204
205
206
207
208
209
21
210
2100
211
212
213
214
21401824
21431157
21491701
215
216
217
217595
218
219
22
220
221
222
223
224
225
226
227
228
229
23
230
23023088
231
232
233
234
235
236
237
237227
238
239
24
240
241
242
24255573
243
244
245
246
2464
247
248
249
25
250
2500
251
252
253
254
255
256
256507
257
258
2586178
259
26
260
261
262
2629164
263
264
265
266
2664168
267
268
269
2696397
27
270
271
272
2720582
273
27302
274
2743906
275
276
278
279
28
280
2807
281
282
283
284
2846567
285
286
287
2876969
2877812
288
2886420
289
28924058
29
290
291
292
294
295
296
296584
297
298
29861311
299
3
30
300
3000
301
302
303
304
304037
305
3055
306
307
308
309
31
310
3100478
311
3118641
312
313
314
315
316
317
318
319
31964
32
320
321
322
323
324
324303
325
327
328
329
33
330
331
332
333
334
3343389
335
336
3362041
337
3372503
338
339
34
340
3407324
341
342
34217
343
344
345
346
347
348
349
35
350
3500
351
352
353
354
355
356
357
358
359
36
360
361
362
3621644
363
364
365
36578
366
368
369
37
370
37312
374
376
38
380
3803714
383
384
384602
386
388
39
390
394
395
4
40
400
4000
401
402
406
409
41
411
414110
415
41599984
416
41640909
41705771
418
42
420
422
4239850
425
428
429
429032
43
430
431
432
436
438
44
440
442
443
445
447
448
45
450
455
458
46
460
462
464633
467
47
470
471
472
476
479
48
480
482
486
487
488
49
496
496126
5
50
500
5000
504063
505
5061737
507
51
516
52
520
521
522
523
523660
525
527
528
53
537
5375741
54
540
541
544
547473
54837
55
550
551
55740543
56
560
5607942
565
566
56691875
57
570
578
58
580
582
585
586
59
591
592
598
6
60
600
6000
6023365
602358
603
6036
605
61
61356138
618
62
620
625
626
628
63
630
63056
631
632
634
63484499
635
638
64
640
642
65
650
66
660
664
67
671
67129259
674
676
68
683
683713
69
691
7
70
700
7000
71
711
718
72
725
73
732
73268604
74
746368
75
750
755
756
76
767
77
7700
7711
77541206
78
782
79
792
793
794
797
7979
8
80
800
8000
801
8028
81
810196
812
814
8146
82
8252
83
83365652
83552
84
843
849
8493
85
850
85270
8549233
859
86
867541
87
88
884446
89
89476
896
9
90
900
901
905
907
91
911
912887
92
923
9272
93
936
94
95
950
951
952
953
96
960
962
966
969
97
977378
978
9781884446054
98
980
985
98769076
988
98818
99
:
;
<
=
>
?
@
[
\
]
^
_
`
a
aa
aalto
ab
abc
abdala
aberta
abgeordnete
abierta
abkhazia
abortion
about
above
abraham
abroad
absolute
ac
acade
academia
academic
academy
acadian
acadiensis
accepted
accessed
according
accounts
across
act
action
activities
actress
acute
ad
adatok
added
additional
adherents
administered
administration
administrative
adolf
adult
adults
advanced
adventures
advice
affairs
afghanistan
africa
african
africanews
after
ag
again
against
age
aged
agence
agencies
agency
agenda
ages
agglomerations
agreement
agricultural
agriculture
aid
aimag
air
airlines
akademie
akl
al
alabama
alan
alaska
albania
albert
alberta
album
aldo
alexander
alfred
algeria
alkindi
all
alla
allen
allgemeine
allgemeinen
allgemeines
alliance
allied
allows
along
alors
alpha
alps
als
also
altaic
although
aluminium
alvar
alyga
alzheimer
am
america
american
americans
americas
amid
among
amphibian
amphibians
amsterdam
an
ana
anadolu
analysis
anb
ancient
and
andersen
andmete
andorra
andre
andreas
andrew
andy
angola
anguilla
animal
animals
ann
anna
annalen
anne
annexation
annotated
announces
annuaire
annual
another
answers
antarctica
anthony
anthropocene
anthropology
anti
antigua
antonio
any
ao
ap
aperti
apoidea
aponline
appalachian
apple
application
applications
applied
approach
approval
approve
approved
approves
april
aq
aquila
ar
arab
arabia
arabic
arc
archaeology
archinal
architecture
archive
archived
archives
arcticus
are
area
areas
argentina
argument
arizona
arkansas
arme
armenia
armoured
arms
armstrong
army
around
arrive
art
arthropoda
article
articles
artist
artists
arts
aruba
as
asia
asian
asp
aspects
aspx
assembly
assessment
associated
association
astrazeneca
astronomical
astronomy
astrophysical
at
atkla
atlantic
atlas
atp
attribution
atvira
au
audio
auf
auflage
aug
august
aus
australia
australian
austria
author
authorisation
authorises
authorities
authority
authorization
authorized
authorizes
authors
autoriza
aux
available
avatud
aves
aviv
avn
avoimen
award
awards
away
az
azerbaijan
b
ba
babelio
back
background
baden
bahamas
bahrain
baikal
balance
baltic
band
bangladesh
bank
bankisrael
banknotes
bankı
bar
barbados
barbara
barbuda
bare
barycenter
base
based
basho
basic
basin
basingstoke
basis
batch
battle
bauer
bay
bayerische
bb
bbc
bc
bce
bd
be
bec
because
beck
become
becomes
been
beethoven
before
begin
begins
behavior
bei
beijing
belarus
belarusian
belfast
belgium
belize
bell
ben
benezit
benin
benjamin
ber
berkeley
berlin
bermuda
bernard
berry
best
between
bevo
beyer
bg
bha
bhutan
bibcode
bible
biblical
bibliographisches
bibliography
biblioteca
bibliothe
bic
big
bill
billboard
billion
bingen
biodiversity
biogra
biography
biological
biology
biontech
biotech
biotechnology
bird
birds
birth
bis
bismarck
black
blackwell
blica
blog
bloomberg
bloomington
bnf
bo
board
boca
bodies
body
bolivia
book
books
border
born
bos
bosnia
boston
both
botswana
boundaries
bpom
br
brand
brasil
brazil
brazzaville
breton
brian
brief
brill
britain
britannica
british
broadcasting
broadway
brockhaus
brown
brozovic
bruce
brunei
brunswick
bu
buddhism
buddhist
building
bulgaria
bulletin
bundesamt
bundestag
bundestagswahl
bureau
buriat
burkina
burma
buryat
buryatia
business
but
by
byron
byzantine
byzantium
c
ca
cabinet
caesar
caicos
california
call
called
cambodia
cambridge
cameroon
campaign
campbell
can
canada
canadian
canal
candidate
cannes
cannot
cansino
cape
capital
caplan
carbon
care
caribbean
carl
carlos
carol
carolina
carpentier
carpha
carroll
carrot
carrots
cartier
cartographic
case
cases
caspian
cat
catalana
catalog
catalogue
catholic
cause
cayman
cbc
cd
cdot
cdu
ce
celestial
cell
census
censuses
center
centers
central
centre
centuries
century
certain
certificate
certificates
cervantes
ceuta
cf
ch
cha
chancellor
change
changed
changes
changing
channel
chapter
chapters
character
characteristics
characters
charlemagne
charles
chart
charter
charts
che
chelsea
chemical
chemistry
chen
cherokee
chi
chicago
chief
children
chile
china
chinese
chisholm
christian
christmas
christopher
chronic
chronicle
chronology
church
churchill
ci
cia
cinema
cis
citation
cite
cities
citizens
citizenship
city
civil
civilization
cl
clark
class
classical
classification
cliath
climate
clinical
clinicaltrials
close
club
cn
cna
cnn
co
coalition
coast
code
codes
coefficient
cofepris
coins
cois
cold
coll
collection
collections
college
collins
colombia
colonial
color
colorado
columbia
com
combined
comirnaty
commentary
commerce
commission
committee
commodity
common
commons
commonwealth
communal
communique
communism
communities
community
compact
companion
company
comparative
compared
comparison
competition
compiled
complete
composed
composition
compounds
comprehensive
computer
con
concise
condition
conditional
conditions
confederation
conference
conflict
congo
congress
connecticut
conqueror
conquest
conservation
considered
constitution
constitutional
construction
containing
contemporary
content
context
continued
continues
continuous
continuum
contra
contribution
control
convention
cook
cooper
cooperation
coordinates
copper
copy
cornell
coronavac
coronavirus
corporation
corvus
costa
could
council
count
countries
country
counts
county
coup
course
court
courts
cov
covax
covaxin
covid
covishield
craig
crc
creation
creative
crime
crimea
crisis
criteria
critical
croatia
cross
crossing
crown
crystal
cu
cuba
cultural
culture
cultures
cup
curac
currency
current
currently
customs
cyprus
cyrillic
cz
czech
d
da
dados
daily
dajov
dakota
dali
dallas
dam
daniel
danse
danube
danych
das
data
database
databases
datan
dataplattform
date
dati
datos
datu
datumoj
david
davies
davis
day
days
de
dead
deal
death
december
decision
declaration
declares
decree
dedicated
deep
default
defence
defense
defined
definition
del
delarge
delaware
delhi
dell
della
delta
democracy
democratic
demographic
demographics
demoscope
den
denis
denmark
density
department
dept
der
des
descartes
deschise
description
desert
design
detailed
details
deutsch
deutsche
deutschen
deutschland
developed
development
devil
dhaka
di
dia
diagnosis
dialects
diccionario
dictionaries
dictionary
dictionnaire
did
die
dies
different
digital
din
dinger
diplomatic
direct
director
directory
discogs
discover
discovery
discussion
disease
diseases
disney
displaystyle
disposable
distinguished
distribution
district
districts
ditions
divadelni
diversity
division
divisions
dizionario
djibouti
djokovic
dna
do
doc
doctrine
doctrines
documentary
documents
does
doi
domestic
dominica
dominican
dominion
donald
donates
donetsk
donne
dose
doses
dosis
dots
douglas
down
download
dq
dr
drive
drug
ds
dt
dte
du
dubai
dublin
ductus
due
duibhlinn
duomenu
dur
duration
during
dutch
duvalle
dwelling
dx
dynamical
dynamics
dynasties
dynasty
dz
e
ea
each
earliest
early
earth
east
eastern
ebola
economic
economics
economist
economy
ecuador
ed
edge
edinburgh
edited
edition
editions
editor
editors
eds
edu
education
educational
edward
edwin
eerdmans
efficacy
egypt
egyptian
ei
eighteenth
ein
einer
einstein
el
elected
election
elections
electronic
element
elements
elephas
elizabeth
elsevier
em
ema
embassy
emergencia
emergency
emil
emirates
emite
emperor
empire
en
ena
encarta
enciclope
enciclopedia
enciklopedija
encyclopaedia
encyclopedia
encyclopædia
encyklopedie
end
energy
eng
engineering
england
english
eniac
enough
entities
entry
environment
environmental
epar
ephemeris
epic
epivaccorona
equivalised
er
era
eric
ernest
ernst
error
es
eska
esky
esp
espan
espn
essay
essays
est
established
estadi
estimate
estimated
estimates
estonia
estonian
eswatini
et
etc
ethiopia
ethnic
ethnicity
ethnologue
etymology
eu
eua
eugene
euro
eurobarometer
europa
europe
european
eurostat
even
event
events
ever
every
evidence
evolution
evolutionary
ex
example
exchange
executive
existence
exists
expenditure
experience
exploration
explore
explorer
exploring
extended
f
fa
facility
fact
factbook
facto
facts
fagus
failure
fall
falls
false
fame
families
family
fao
faq
far
fascism
faso
favorite
fda
fe
features
february
federal
federation
female
fembio
fer
festival
few
ff
fi
fico
fiction
field
fields
fifth
fighting
figure
figures
fiji
file
files
film
filmportal
final
financial
find
finland
finnish
firm
first
fis
fish
fisheries
fishes
five
flag
flagcountry
flight
florida
fo
folkma
following
food
foorumi
for
forall
force
forced
forces
forecasts
foreign
forests
form
format
formation
former
forum
fossil
fosun
found
foundation
founding
four
fourth
fr
frac
framework
franc
france
francis
francisco
frank
frankfurter
franz
frauendatenbank
fred
frederick
fredericton
free
freedom
freeman
french
frequently
freshwater
friedrich
from
frontier
fso
fu
full
fully
fund
fundamental
future
futures
g
ga
gabon
galaxy
gallery
gambia
games
ganges
gao
garci
garden
garros
gas
gastroenteritis
gate
gateway
gawc
gaza
gazette
gazetteer
gb
gdp
ge
gemeinden
genealogics
geneastar
general
generation
genes
genetic
genetics
genghis
genocide
geographic
geographical
geography
geological
geophysical
georg
george
georges
georgia
georgian
gerald
german
germany
gesammelte
geschichte
get
gets
gewa
ghana
gilbert
gini
giovanni
girl
give
given
gives
gks
global
globalization
globalsportsarchive
glossary
gnd
go
gob
god
gogh
gold
gomez
goods
google
gordon
gospel
gospels
gov
govern
governing
government
governor
govpubs
gps
grammar
gran
grand
granted
grants
grave
gray
great
greatest
greece
greek
green
greenland
greenwood
grenada
grenadines
gross
ground
group
groups
grove
growing
growth
große
gru
grup
gruyter
gu
guadalajara
guardian
guatemala
guide
guideline
guidelines
guides
guinea
guinness
gulf
gustav
gutenberg
guyana
h
ha
had
haifa
haiti
halifax
hall
hallyu
hamilton
han
hand
handbook
hans
haqqında
hard
hardcover
harold
harper
harry
harvard
harvey
harvnb
has
have
haven
having
hawai
hawaii
hawking
haydn
hdi
hdr
hdro
he
head
health
healthcare
healthy
hearn
heart
hebrew
hedgehog
heiligenlexikon
hel
held
helnij
help
helsinki
henry
her
herald
herbert
here
heritage
herzegovina
hi
high
hill
himalaya
himalayan
hindu
his
histoire
historia
historic
historical
histories
history
hit
hitchcock
hitler
hits
hlt
ho
hob
hole
holocaust
home
homegrown
homepage
homo
honduras
hong
honours
hope
hopkins
horizons
host
hosted
hot
houghton
houndmills
house
household
housing
how
howard
however
href
hrsg
hrvatska
htm
html
http
https
hu
hugh
hugo
human
humans
hung
hungary
hymenoptera
hyy
i
iagworking
ian
iau
ice
iceland
icon
id
idaho
ideal
ideas
identity
ieee
if
ig
ii
iii
iji
il
illinois
illustrated
im
image
images
imdb
imf
immigration
immunogenicity
imperial
imperium
implications
importance
important
in
ina
inactivated
inc
incidence
included
includes
including
income
independence
independent
index
india
indian
indiana
indians
indicators
indonesia
industrial
industry
inequality
infection
infectious
influence
info
information
infty
inline
innovation
insect
insecta
insects
inside
institut
institute
institution
institutions
instituto
int
intelligence
interactive
interface
intergovernmental
interior
internal
international
internet
interpretation
intervals
interview
into
introduction
invariable
invasion
inventions
investment
inz
ioc
ios
iowa
ip
ipa
ipcc
iphone
iprage
ir
iran
iraq
ireann
ireland
irish
iron
irrigation
is
isaac
isbn
islam
islamic
island
islands
iso
israel
israeli
israelite
israelites
iss
issn
issue
issues
ist
istituto
it
italian
italiana
italy
itau
itinerary
its
itself
iv
ivoire
ivory
ix
j
ja
jack
jackson
jacob
jacques
jaffa
jakarta
jamaica
james
jan
janhunen
janssen
january
japan
japanese
jazeera
je
jean
jeanne
jeffrey
jenna
jersey
jerusalem
jesus
jet
jewish
jews
ji
jia
jie
jin
jo
johann
johannes
john
johns
johnson
johnston
jonathan
jones
jordan
jose
joseph
journal
journey
jpg
jpl
jr
jstor
ju
judah
judaism
juha
julius
july
june
jupiter
justice
k
ka
kandidiert
kansas
kant
karl
katana
kazakhstan
kb
ke
keetoowah
keith
kelen
kelly
kemp
kenneth
kentucky
kenya
keqota
kettunen
key
khan
kicks
kids
kiko
kilimanjaro
kim
king
kingdom
kinshasa
kirk
kitts
klotter
km
knesset
know
knowledge
known
knox
ko
kodansha
komanda
komi
kong
korea
korean
korkeakoulu
kosovo
ku
kulturnav
kumenisches
kuwait
kyrgyzstan
l
la
lab
labor
laboratory
labour
labrador
lacey
ladan
laffont
lagos
lahore
lake
lakes
lambda
lancet
land
landeshauptstadt
lands
landscape
lang
language
languages
lanham
lanka
laos
large
larger
largest
las
last
late
later
latest
latin
latvia
launch
launches
law
lawrence
laws
le
lead
leader
leaders
leadership
league
learn
learning
least
lebanon
lecture
lee
left
legacy
legal
legend
legendary
legislative
leibniz
leiden
leipzig
leksikon
leo
leonard
leone
lepus
les
less
lesson
lessons
letters
lettres
level
lewis
lexicon
lexikon
lexington
li
lib
liberal
liberalism
liberty
libraries
library
libris
libya
liechtenstein
life
light
like
lim
limited
limits
lincoln
linda
line
lines
linguistic
linguistics
link
links
list
listing
lit
literary
literature
lithuania
little
liturgical
live
lives
living
lizzy
lkerung
lo
local
localities
location
locke
log
london
long
longman
longrightarrow
look
los
lost
louis
louisiana
love
low
lower
lt
ltd
lu
lucia
ludnos
ludwig
luis
lumotlar
lunar
lund
lundy
luo
luxembourg
lv
lzmk
m
ma
maarten
macau
macedonia
macht
macmillan
made
madrid
magazine
maha
mahabharata
mail
main
major
majority
make
makes
making
makq
malawi
malaysia
maldives
malferma
mali
malta
malu
mammal
mammals
mammuthus
man
management
mandela
manitoba
manual
many
mao
map
maps
march
marco
margaret
maria
mariana
marie
marine
marino
marion
maritime
mark
market
marketing
marks
markus
mars
marshall
martin
marx
mary
maryland
mason
mass
massachusetts
masters
mat
material
materials
mathbb
mathbf
mathematical
mathematics
mathsf
matter
matthew
mauritius
max
may
mc
mcdonald
mcgill
md
me
mean
meaning
meanplane
means
measured
measurements
mechanics
med
medal
medals
media
medical
medicine
medicines
medien
medieval
medigen
mediterranean
medium
mehr
member
members
membership
men
mercury
merkel
merriam
metropolitan
mexico
mg
mhra
mi
michael
michigan
microbiology
micronesia
microsoft
mid
middle
mie
mifflin
migration
miguel
mil
military
millennium
miller
million
millions
mind
ministe
minister
ministerio
ministers
ministry
minnesota
minorities
minority
miss
missa
mission
mississippi
missouri
mit
mitteilung
mn
mo
mobile
model
models
modern
moderna
modified
moldova
molecular
moll
monaco
monde
monetary
mong
mongol
mongolia
mongolian
mongolic
mongols
montenegro
montserrat
moon
moons
more
morgan
morocco
morphology
mortality
morton
moscow
most
mother
motion
mount
mountain
mountains
movements
movie
mozambique
mrna
msk
msn
mu
much
multiple
municipal
municipalities
municipality
munzinger
murray
museum
music
musicalics
must
mx
my
mya
myanmar
mystery
məlumat
n
na
nach
nacional
nacionalna
nadal
name
named
names
namibia
namibian
naoh
napoleon
narrative
nasa
nation
national
nationalbibliothek
nationale
nationalencyklopedin
nations
native
nativity
nato
natural
nature
nchen
ncov
nct
nd
nde
nder
ndigt
ne
neal
near
nebraska
need
needed
neil
nelson
nepal
neptune
net
netherlands
network
nevis
new
newfoundland
news
newspaper
newspapers
newton
next
ng
ngd
nh
ni
nicaragua
nichd
nicholas
nicht
niger
nigeria
night
nih
nineteenth
nis
nl
no
noaa
nobel
nobelprize
non
norman
norske
north
northern
northwest
norway
not
notable
note
notes
nottingham
nouveau
nova
novak
novavax
novayagazeta
november
now
nst
nstlerlexikon
nu
nuclear
number
numbers
nunavut
nwt
ny
nyc
nyi
nytimes
o
obama
object
objects
observations
observatory
observer
obtained
occupational
ocean
oceania
oceanographic
oceans
och
ochiq
oclc
oct
october
odes
odprte
oecd
oesterreich
of
off
offered
office
official
often
og
oganessian
oh
ohio
oil
ois
ol
old
oldest
oliver
olympic
olympics
oman
on
one
onepage
online
only
ontario
onto
ontology
oo
oop
op
opc
open
opendata
operation
operations
opposition
or
orc
order
orders
org
organisation
organization
orient
oriental
origin
original
origins
os
osa
oslo
ossetia
otevr
other
ottawa
otto
ottoman
otvorenih
otvorenog
otvoreny
otwartych
oup
our
out
outlook
outside
ouvertes
over
overrightarrow
overseas
overview
own
oxford
oy
p
pa
pacific
page
pages
pakistan
palaeoloxodon
palau
palestine
palestinian
palgrave
pan
panama
pandemic
panel
paper
paperback
papers
papua
par
para
paraguay
parameters
paris
park
parks
parliament
parliamentary
part
parties
partly
partnersta
party
pas
pass
passer
passing
past
pasteur
patrick
patterns
paul
paulo
pays
pd
pdf
pe
peace
pearson
peerage
peirce
penguin
pennsylvania
people
peoples
per
percent
perceptions
perepis
period
periodic
permanent
perry
persian
person
personal
personen
persons
perspective
perspectives
peru
peter
petersburg
pew
pfizer
pg
ph
pharmaceutical
phase
philadelphia
philip
philippine
philippines
philosophie
philosophy
phonology
photo
photographs
photos
photosynthesis
php
phylogeny
physical
physics
physik
pi
piattaforma
pica
pictures
pierre
pinus
pl
place
places
plains
plan
plane
planet
planetary
planets
planning
plans
plant
plasmodium
plataforma
plateforme
platform
platforma
platforması
platformja
platformo
platformu
plato
plattform
platvormi
players
plus
pm
pmid
po
podataka
podatke
poet
point
points
poland
polandball
police
policy
polish
political
politics
politik
polo
polska
polski
pop
popest
popular
population
populations
por
port
portal
portugal
portuguese
possible
post
pound
poverty
power
powers
powierzchnia
pp
ppen
pr
practice
prc
pre
pregnancy
prentice
present
president
presidential
press
presse
preußen
preußischen
prevention
price
prices
primary
prime
prince
princeton
principles
printed
printer
private
prize
problem
proceedings
process
produced
product
production
products
profile
profiles
program
programme
progress
project
proleksis
proleta
pronunciation
properties
prosopographique
prospects
protection
protein
protests
protocol
provided
province
provinces
provincial
provisional
przekroju
pt
pu
pub
public
publication
publications
publique
published
publisher
publishers
publishing
puerto
purnima
purposes
pusa
put
putin
q
qadınlar
qatar
qazvac
qi
qoyunlu
quad
quantenmechanik
quantities
quantum
quarterly
que
quebec
queen
query
quest
question
questions
quick
quickfacts
r
ra
rabindranath
race
radiation
radio
rafael
rain
rank
ranked
ranking
rare
rashid
rata
rate
rates
rather
raton
ray
raymond
rd
rdif
re
reader
real
reality
receive
received
receives
recent
recipients
recognised
recognition
recognize
recognized
recognizes
recombinant
recommendation
record
records
ref
refer
reference
references
referendum
refers
reform
reg
regarding
region
regional
regions
register
registered
registers
registration
regulator
regulatory
reich
reign
related
relation
relations
relativita
relativity
release
religion
religions
religious
remains
remix
renaissance
rene
report
reports
reprint
reprinted
repu
republic
republica
republik
republika
requirements
requires
res
research
residents
resolution
resource
resources
responsible
respublika
result
results
retrieved
return
reuters
rev
review
reviews
revised
revision
revolution
rhythm
ri
rica
rich
richard
rico
right
rightarrow
rights
rings
rise
river
rivers
rkdartists
rkəmli
ro
road
robert
robinson
roc
roger
roland
role
rollout
roma
roman
romania
romanum
rome
ronald
roosevelt
rose
rotational
round
roundtable
routledge
roux
royal
rs
rterbuch
ru
rule
rural
russell
russia
russian
rutherford
rwanda
s
sa
sacred
safe
safety
saga
said
saint
salud
salvador
same
samoa
samuel
san
sapiens
sarah
sars
satellite
satellites
saturn
saudi
saur
savante
savoy
say
says
sc
scb
scene
scha
schedule
scholarly
school
schools
schro
schulz
schweiz
science
sciences
scientific
scientists
score
scotia
scotland
scott
scottish
scribner
se
sea
search
searchable
seas
sec
second
secondary
secret
section
security
see
seen
seidelmann
select
selected
selection
selena
self
semi
semiconductor
senate
senegal
sense
seoul
september
sequence
serbia
series
service
services
set
settlement
several
sex
sexually
seychelles
shale
shall
shanghai
shaped
sharealike
shared
she
sheet
shekel
shi
short
shoshani
shot
shots
should
show
showing
shows
si
sibirica
sich
side
sie
sierra
sign
significance
signs
sil
silc
silver
simon
simulation
sin
since
singapore
singh
single
sinopharm
sinovac
sint
sir
site
sites
situation
sitzungsberichte
six
sixteenth
size
sk
sketch
ski
sky
sl
slovakia
slovenia
small
smith
smithsonian
snac
so
soccer
social
societies
society
software
solar
solex
somalia
somaliland
some
son
song
sonic
sons
source
sourcebook
sources
south
southern
sovereignty
soviet
space
spain
spanish
spd
speak
speakers
special
species
specific
specified
speculative
speech
spoken
sport
sports
spp
spring
springer
sputnik
sqrt
sr
sri
ssp
st
sta
staatsbibliothek
stage
standard
stanford
stanley
star
stars
start
starts
stat
state
statehood
statement
states
station
statistical
statistics
statistik
statistique
statistisches
stats
status
statystyczny
std
steel
stegodon
step
stephen
sterreich
steven
stewart
stica
still
stm
stock
store
stories
story
straits
strategic
street
stromae
structure
stuart
student
students
studies
study
stuttgart
su
sub
subject
subjects
substances
subunit
succeed
such
sudan
suez
sum
summary
summer
summit
sun
suomen
super
supplement
sur
surface
suriname
survey
survival
sweden
swedish
swiss
switzerland
sword
sydney
symbols
synthesis
syria
system
systematic
systems
t
ta
table
tagesschau
tagore
taipei
taiwan
tajikistan
take
taken
takes
tale
talk
tall
tank
tanks
tanzania
taoiseach
target
tass
taurus
taxonomic
taylor
te
teaching
team
technology
teknillinen
tel
telegraph
television
temperature
temperatures
template
temple
temps
ten
tennis
term
terminology
terms
territorial
territories
territory
terytorialnym
testament
texas
text
textbook
texts
tfrac
tga
th
tha
thackeray
thailand
than
that
the
their
them
themselves
then
theorie
theory
therapeutic
there
these
they
things
third
this
thl
thomas
thompson
those
though
thought
three
through
thursday
ti
time
timeline
times
timor
tirane
title
to
tobacco
tobago
today
together
togo
tokyo
toli
tom
tonga
top
topic
topics
toronto
total
totals
tourism
tourist
tous
toward
town
towns
tr
track
trade
tradition
traditional
traffic
trans
translated
translation
transmitted
transportation
travel
travellers
treaties
treatment
treaty
tree
trends
trial
trials
tribune
trinidad
tritt
troops
tropical
true
ts
tstheorie
ttp
tu
tudes
tunisia
turkey
turkmenistan
turks
turner
tv
twentieth
twitter
two
type
u
ua
uae
uc
ucb
uganda
uk
ukraine
ukrainian
ul
ulaanbaatar
ultratop
un
und
under
undp
unesco
unicef
unicode
union
unit
united
units
univ
universal
universe
universities
university
unsafe
unspecified
until
untranslated
up
uparrow
update
updated
uploads
ural
uranus
urban
url
uruguay
us
usa
usda
use
used
uses
usgs
using
uso
ussr
utc
uzbekistan
v
va
vaccinated
vaccination
vaccinations
vaccine
vaccines
vacuna
vacunas
vaksin
value
values
van
vancouver
varepsilon
various
vaxzevria
vec
vector
ved
vehicle
vehicles
venezuela
venue
venus
vepsa
vera
verde
verilerin
verlag
vermont
version
very
vi
victor
victoria
video
videos
vie
vietnam
view
views
vii
viii
village
vincent
vintage
viral
virgin
virginia
virology
virtual
virus
visa
vision
visit
visual
vitagliano
viza
vl
voice
vol
volcano
vols
volume
volumes
vom
von
voyager
vs
w
wa
wagner
wales
walker
walls
walt
walter
walvis
war
warfare
warming
wars
was
washington
watch
water
watt
wave
way
wayne
we
weather
web
webelements
website
webster
wednesday
week
weekly
weeks
welcome
well
were
west
western
westminster
what
when
where
which
while
white
who
why
wi
widely
wieder
wien
wiesbaden
wiki
wikidata
wikipedia
wild
wiley
wilhelm
will
william
williams
willmott
wilson
wimbledon
win
windhoek
wins
winter
wissen
wissenschaften
with
within
without
wm
wo
wolf
women
woods
word
words
work
workers
working
works
world
worldwide
would
wp
wright
writers
writing
written
wu
www
wyoming
x
xi
xico
xii
xiii
xinhua
xinhuanet
xiv
xix
xls
xv
xvi
xvii
xviii
xx
xxi
xxii
xxviii
y
ya
yabloko
yahoo
yale
yangtze
ye
year
yearbook
years
yemen
yeomans
yi
yin
york
yoruba
you
young
your
youtube
ytteita
yu
yukon
yy
z
za
zambia
zealand
zedong
zeit
zeitung
zh
zhang
zho
zi
zimbabwe
zionism
zn
zone
zu
zur
{
|
}
~
¡
£
§
©
«
­
®
¯
°
±
²
³
µ
·
»
×
æ
÷
đe
ı
ık
ıq
œuvres
ɕ
ə
ɾ
ʰ
ʲ
ʷ
ʻ
ʼ
ʾ
ʿ
ˀ
ˈ
ˌ
ː
ˠ
ˤ
̀
́
̂
̃
̄
̆
̇
̈
̉
̊
̋
̌
̓
̔
̛
̣
̦
̧
̨
̩
̪
̯
͂
͡
α
ανοικτω
β
γ
γγ
δ
δεδομε
ε
η
θ
ι
λ
λο
μ
ν
νων
ο
π
πλατφο
ρ
ρμα
ς
χ
ω
а
аа
аад
аадар
аажамаар
аази
аазии
аазиин
аалза
аалто
аангли
аар
ааруул
аас
аба
абаа
абаагүи
абаад
абаахаи
абаашажа
абаба
абадаг
абажа
абалга
абан
абана
абанхаи
абарга
абаха
абахаар
абахад
абахада
абахые
абахын
абашеев
абашье
абаһан
абаһанаар
абаһанаи
абаһаншье
абга
абгаи
абгалдаи
абидарма
абидуев
аборт
абортые
абортын
абтаба
абтаһан
абу
абхаз
абхазия
абынгаа
абьяас
абьяаслиг
абьяастаи
абяа
абяан
абяанаи
абяанууд
аварга
авах
август
августа
августинаи
августын
авиаци
авиациин
авив
авиваи
авивда
авраамаи
авроро
авсан
австрали
австралида
австралиин
австри
австриин
авто
автобус
автомашина
автомашинаи
автомашинын
автономит
автономито
автор
авч
ага
агаад
агаар
агаараар
агаараи
агаарта
агаартаи
агаарын
агентлигаи
агентство
агнес
агнуури
агнууриин
агуу
агууехэ
агуулагдадаг
агуулагдаха
агууламжа
агуулга
агуулгатаи
агуулгые
агуулдаг
агуулжа
агуулна
агуулха
агуулһан
агын
агүи
ад
ада
адаг
адагта
адагһаа
адал
адвокат
адкрытых
адли
адлигаар
адлигүи
адлирхуу
адлихан
адляар
административно
администрации
адольф
адриатикын
адуу
адуунаи
адууһа
адууһанаи
адыг
адыгеи
адыгея
аж
ажа
ажабаи
ажаглагдадаг
ажаглагша
ажаглалтын
ажаглаха
ажал
ажалаа
ажалаи
ажалалгаа
ажалалгаае
ажалалгаанаи
ажалгүи
ажалда
ажалдаа
ажаллаа
ажаллаба
ажаллагаа
ажалладаг
ажаллажа
ажаллалга
ажаллалгаяа
ажаллалгые
ажаллалгын
ажаллана
ажаллаха
ажаллаһан
ажалнууд
ажалтан
ажалша
ажалшад
ажалшадаи
ажалшан
ажалые
ажалһаа
ажамидаралаи
ажамидарна
ажахы
ажахыда
ажахые
ажахын
ажахынь
ажаябуулагша
ажаүи
ажаһууба
ажаһуугшад
ажаһуугшадаи
ажаһуугшадтаи
ажаһуудаг
ажаһууна
ажаһууһан
ажил
аза
азербаи
ази
азида
азии
азиие
азиин
азиһаа
азов
азот
аи
академи
академида
академидэ
академии
академиин
академик
академическэ
академия
акадеэмиин
акт
актаар
акте
актриса
акттаи
акули
ал
алаба
алабама
алаг
алагдаһан
алажа
алаи
алалга
алан
алани
алас
алаха
алаһан
алба
албагүи
албадан
албан
албанаи
албанда
албани
албанһаа
албые
алвар
алга
алдаа
алдаагүи
алдаба
алдагдал
алдагдаһан
алдажа
алдан
алдар
алдарта
алдартаи
алдартан
алдартанаи
алдаршаһан
алдаха
алдаһан
александр
александрын
алексеи
алжир
али
алибаа
алим
алимта
алинь
алишье
алия
аллахаи
аллегро
алматы
алоис
алт
алта
алтаи
алтан
алтанаи
алтаниинь
алхам
аль
альбан
альберт
альберта
альпа
альпын
альфа
альфонсо
альфред
альцгеи
аляска
аляскада
ам
ама
амадеи
амазон
амазонои
амалаад
аман
аманаи
амар
амараи
амаралтын
амархан
аматаи
амбан
амбанаи
амгалан
америка
америкии
америкын
америкынхид
америкынхидаи
америкэ
америкэдэ
америкэдэхи
амеэрикын
амжалта
амжалтагүи
амжалтатаи
амжалтын
амжилт
ами
амигүи
амида
амидарал
амидаралаа
амидаралаар
амидаралаи
амидаралда
амидаралтаи
амидаралые
амидаралынхаа
амидаран
амидардаг
амидаржа
амидарна
амидарха
амидарша
амидарһан
амиды
амин
аминда
амисхал
амисхалаи
амисхалдаг
амисхалтаи
амита
амитад
амитадаи
амитадта
амитадые
амитадһаа
амитан
амитанаи
амитанда
амитаниие
амритсар
амта
амтата
амтатаи
амударья
амундсен
амые
амын
амьд
амьдарч
амьдралд
амьдрах
амяа
амяараа
амяарлан
ан
ана
анаа
анагааха
анаи
анархизм
анархия
анархо
анатолии
ангабаев
ангаи
ангар
ангара
анги
ангида
ангиие
ангиин
ангилал
ангилалаар
ангилалаи
ангилалда
ангилдаг
ангилжа
ангилна
ангинууд
англ
англи
англида
англии
англиин
англишууд
англишуудаи
англиһаа
англо
англяар
ангола
ангуушад
анда
андерсен
анджелес
андорра
андреев
андреи
андын
анкокон
анна
анри
ансамбль
антарктида
антарктидын
антарктика
антарктикын
антигуа
антон
антонии
антонио
антуан
ану
анх
анха
анхаарал
анхааралые
анхадагша
анхадугаар
анхалан
анхан
анханаи
анхандаа
анхарал
анхаралаа
анхны
ань
апеннинын
аполлон
апостол
апостола
аппарат
апрель
апреля
ар
ара
араб
арабаи
арабууд
арабын
арави
аравиин
араг
арагон
арад
арада
арадаа
арадаи
арадта
арадууд
арадуудаи
арадчилһан
арадшалал
арадшалалаи
арадшалалые
арадшалһан
араи
арал
аралаи
аралда
аралдахи
аралжаанаи
аралнууд
аралнуудаи
аралнуудта
аралнуудые
аралнуудынь
аралтаи
аралууд
аралые
аралынь
аралһаа
араһаа
арба
арбаад
арбадахи
арбадугаар
арбаи
арбан
арбанаи
арбаннэгэдүгээр
арбанхое
арга
аргаар
аргагүи
арганууд
аргань
аргатаи
аргентинын
аргентинэ
аргые
аргын
ард
аренэ
аризона
арилжаа
арилжаанаи
аристотелиин
аристотель
арифметикын
арканзас
арктик
арктикын
арлууд
армен
армени
армениин
арми
армида
армие
армии
армиие
армиин
армитаи
армия
армстронг
армян
армянаар
армянууд
арса
арсажа
арсалан
арсалдаан
артист
артур
архаг
архангельскын
археологиин
археологнар
архи
архив
архивировалһан
архивировано
архивлагдаһан
архимед
архимедын
архитектурын
аршаан
аршаанаи
аршаанда
аршаанууд
арын
арьяа
арьяатан
арюун
арһа
арһаар
арһан
арһанаи
арһатаи
арһатан
аса
асар
асараи
асарба
асаржа
асари
асарһан
аспект
ассамблеи
ассири
ассириин
асср
аст
астана
астраханиин
астрахань
астроном
астрономи
астрономиин
асуудал
асуудалаар
асуудалаи
асуудалда
асуудалнууд
асуудалнуудаи
асуудалнуудые
асуудалые
асуулгаар
асыҡ
ат
ата
атаи
атлантик
атлантын
атлас
атман
атом
атомаи
атомои
афганистан
афганистанаи
афина
афинада
афинын
африк
африка
африкада
африкаһаа
африкии
африкын
аха
ахалагша
ахамад
ахмад
ахматова
ахуи
ахы
ахын
ачык
аша
ашаа
ашаанаи
ашаар
ашаг
ашагаи
ашаглагдадаг
ашаглагдажа
ашагладаг
ашаглажа
ашаглан
ашаглана
ашаглаха
ашаглаһан
ашагта
ашагтаи
ашагые
ашиг
ашигладаг
ашиглаж
ашиглан
ашока
ашық
аэропорт
аюка
аюул
аюулгүи
аюулда
аюултаи
аюулһаа
аюуша
ая
аяар
аялагша
аялал
аялалаи
аялалда
аялга
аялган
аялганаи
аялгуу
аялгуугаар
аялгууда
аялгуунууд
аялгуунуудаи
аялгуутаи
аялжа
аялха
аялһан
аян
аянаи
аяндаа
аһан
б
ба
баабаи
баабгаи
бааза
баала
бааладаан
баасан
баатаи
баатар
баатараи
баатарлиг
бабуев
бавари
бавариин
бавасан
баг
бага
багаар
багагүи
багадаа
багадхажа
багадхаха
багаж
багажа
багажые
багаи
багана
баганад
багатаи
багахан
багаһаа
багдад
багта
багтаадаг
багтаажа
багтаамжа
багтаамжатаи
багтаан
багтааһан
багтадаг
багтажа
багтан
багтана
багтаха
багтаһан
багууд
багша
багшаар
багшалжа
багшанараи
багшын
багые
багын
баден
бадма
бадмаев
бадмаева
база
базар
базарон
баи
баку
бал
балар
балба
балдано
баледэи
балканаи
балсан
балсангаи
балт
балта
балтиин
балтын
балшар
балые
бальбуров
бальжинимаева
балһжинимаева
бан
банаи
бангкок
бангладеш
бандида
банзараи
банзаров
банзароваи
банк
банкнот
банкын
баншан
бар
бара
бараа
бараан
бараанаи
бараба
бараг
баража
барас
бараха
барахад
барахада
бараһан
бараһанаи
барбадос
барбаросса
барбуда
барга
баргажан
баргажанаи
баренцын
бари
бариба
барибшалагдан
баригдаба
баригдадаг
баригдажа
баригдаһан
баригша
баригшад
баридаг
барижа
барилга
барилгада
барилганууд
барилгануудаи
барилгашан
барилгууд
барилгын
барилдаан
баримал
барималаи
барималша
баримт
баримта
баримтаар
баримталагша
баримталагшад
баримталал
баримталан
баримталдаг
баримталжа
баримталха
баримталһан
баримтата
баримтые
барин
бариха
барихада
бариһан
барокко
барон
барсан
барселоно
бару
баруун
баруунаи
баруунда
баруунһаа
барюул
баряа
баряад
бас
басагад
басаган
басаганаи
басагатаи
басе
баск
бассеи
бата
баталаа
баталагдаба
баталагдаһан
баталан
баталба
баталдаг
баталж
баталжа
баталха
баталһан
батареи
бататаи
бато
батожабаи
баттута
бах
баха
бахреи
башкир
башкираар
башкирнууд
башкирнуудаи
башкортостан
башкортостанаи
башкортостанда
башье
баяд
баялаг
баялиг
баялигаи
баялигтаи
баялигые
баян
баяндаи
баяр
баяраи
баярые
баярын
баяшадаг
баһа
баһал
бд
бе
бегэи
без
беи
бек
беларусиин
беларусь
белая
белград
белиз
белинскии
белои
белорус
белорусууд
белфаст
бельги
бельгиин
бен
бенгал
бенгалаар
бенгали
бенгалиин
бербер
бербершүүд
берлин
берлинская
берлинэи
бернар
беседина
бесединын
беслан
бетховен
бетховенэи
би
библи
библиин
библиотека
библиотеке
библиотеки
бидэ
бидэнэи
бие
бизнес
бизнесэи
бии
бимба
биографическии
биография
биологи
биологиин
бирамья
биржэ
бирма
бирман
бисалаг
бисалгал
бисмарк
бисмаркын
бичгии
бичгээр
бичиг
бичигдсэн
бичигт
биш
бишыхан
благовещениин
благовещенск
ближнего
блика
блок
бнасау
бнзнжух
бниц
бнмау
бнсу
бнхау
бо
богд
богдо
богдын
богино
богоне
богони
богонихон
богоол
богоолнууд
богоолнуудаи
богоолои
богоолшолго
богоолшолгые
богоолшолгын
богота
бод
бодала
боди
бодисада
бодисын
бодито
бодобол
бододог
бодожо
бодол
бодолго
бодолгодо
бодолгонь
бодолгоор
бодолгые
бодолгын
бодолои
бодолоо
бодолтои
бодолые
бодон
бодоо
бодос
бодосои
бодосууд
бодосуудаи
бодосуудые
бодосые
бодото
бодохо
бодоһон
боз
бои
бол
болбол
болбосорол
болбосоролои
болбосоролтои
болбосоролые
болбосоронгы
болбосоруулан
болбосоруулжа
болбосоруулха
болбосоруулһан
болгар
болгари
болгариин
болгаршууд
болгобо
болгодог
болгож
болгожо
болгожээ
болгон
болгоно
болгоод
болгохо
болгоходо
болгохоор
болгохые
болгоһон
болгоһоноор
болдог
боле
более
болеслав
болж
болжээ
болзошогүи
боливи
болиһон
боллоо
болно
боло
болобо
болобол
болобош
болобошье
болов
боловсрол
боловч
бологон
болодог
болодоггүи
боложо
боложоо
боложоээ
боложээ
бололго
бололгын
бололсоотои
бололтои
боломжо
боломжогүи
боломжотои
боломжтои
боломжые
боломоор
болон
болоно
болонхои
болоо
болоогүи
болоод
болотор
болотороо
болох
болохо
болохогүи
болоход
болоходо
болоходоо
болохонь
болохоор
болохоһоо
болохые
болохын
болоһон
болоһониинь
болоһонои
болоһоноор
болоһоншье
болоһонһоо
болоһоор
болсон
больша
большая
большевигууд
большевик
большо
большои
болюулагдажа
болюулһан
болһон
бомбо
бомбын
бонапарт
бонн
боомто
боомтотои
боомтын
боохолдои
боохонои
бор
борбилоо
борбоосгои
боргооһон
борис
боро
бороо
бороожуулагша
бороонои
бороотои
босни
босоо
босфор
босфорои
ботаникын
боти
ботсвана
бохаи
боһолго
бразил
бразилаи
бразилиин
бразилия
браи
бранденбург
бранденбургын
брансвик
браунинг
брахма
бремен
британи
британида
британиин
британишууд
британиһаа
британника
брокгауз
брокгауза
брунеи
брюссель
бсэ
бу
буга
бугын
будаа
будаг
будапешт
будда
буддизм
буддын
буи
бук
букмол
булаан
булаг
булагад
булагууд
булад
булан
буланаи
булангаар
булангаи
булангиртуулжа
буланда
буландахи
булантаи
булга
булган
булганаи
булжамуур
булимтаран
булта
бултадаа
булшан
булшархаи
булюу
буляан
бун
бунхан
бур
бурбон
бургааһан
буржуа
буржуази
бури
буриад
буркино
бурунди
буруу
буруушаажа
буруушааһан
бурхад
бурхадаи
бурхадые
бурхан
бурханаи
бурханда
бурханиие
бурханһаа
буря
буряад
буряадаар
буряадаи
буряадта
буряадууд
буряадуудаи
буряадшалһан
бурят
бурятии
бурятия
бурятскии
бурятского
бус
буса
бусаажа
бусаан
бусаар
бусад
бусадаи
бусадта
бусадтаи
бусадынь
бусадһаа
бусажа
бусаи
бусаха
бусаһан
бут
бута
бутан
бутархаи
буу
бууба
буудаи
буудал
буудалтаи
буужа
буулгажа
буулган
буулгаха
буулгаһан
буунаи
бууража
буурал
буураһан
буурсаг
бууруулжа
бууруулха
буусанууд
бууха
бууһан
буха
буэнос
буюу
буян
буянаи
буһа
буһалгаан
буһалгаанаи
буһалгааниие
буһалгаашад
буһалгаашадаи
буһын
был
была
были
бын
бэ
бэдэржэ
бэе
бэедэ
бэедээ
бэелүүлжэ
бэелүүлхэ
бэень
бэенүүд
бэетын
бэетэ
бэетэи
бэетэн
бэеын
бэеынь
бэеэ
бэеэр
бэеһээ
бэеһээн
бэи
бэлгын
бэлгэ
бэлдэхэ
бэлиг
бэлигтэи
бэлигэи
бэлшэр
бэлшээри
бэлшээриин
бэлэг
бэлэдхэл
бэлэдхэхэ
бэлэи
бэлэн
бэртэл
бэрхэ
бэрхэшээл
бэрхэшээлтэи
бэхи
бэхилэлтын
бэхилэлтэ
бэхилэлтээр
бэхэ
бэшэ
бэшэбэ
бэшэбэринүүд
бэшэг
бэшэгдэдэг
бэшэгдэжэ
бэшэгдэһэн
бэшэгтэ
бэшэгтэи
бэшэгые
бэшэгынь
бэшэгэи
бэшэгээ
бэшэгээр
бэшэгүүд
бэшэдэг
бэшэжэ
бэшэл
бэшэлгын
бэшэлгэ
бэшэмэл
бэшэниинь
бэшэнэ
бэшэхэ
бэшэхэдэ
бэшэшье
бэшээ
бэшээшэ
бэшэһэн
бэшэһэниинь
бэшэһэнэи
бэшэһэнээр
бэшүүр
бэшүүрэи
бээжин
бээжингии
бээжэн
бээжэнгэи
бээжэндэ
бээжэнэи
бэһэлиг
бюджедэи
бюллетень
бюро
бямба
бү
бүгд
бүгэдые
бүгэдэ
бүд
бүдэи
бүдүүлиг
бүдүүн
бүи
бүл
бүлгэм
бүлгэмдэ
бүлгэмые
бүлгэмэи
бүлгэмүүд
бүлеэн
бүлии
бүлын
бүлэ
бүлэг
бүлэглэл
бүлэгтэ
бүлэгтэи
бүлэгые
бүлэгэи
бүлэгүүд
бүлэгүүдтэ
бүлэгүүдһөө
бүлэдэ
бүлээрээ
бүмбэгын
бүмбэгэ
бүмбэрсэг
бүмбэрсэгтэ
бүмбэрсэгэи
бүр
бүргэд
бүрдсэн
бүрдэнэ
бүри
бүридхэгдэһэн
бүридхэл
бүридхэлэи
бүридэ
бүридэдэг
бүридэл
бүридэлдэ
бүридэлэи
бүридэнэ
бүридэхэ
бүридэһэн
бүридүүлдэг
бүридүүлжэ
бүридүүлнэ
бүридүүлхэ
бүридүүлэгшэ
бүрижэ
бүрии
бүриин
бүрилдэдэг
бүрилдэн
бүрилдэхэ
бүрилдэхүүн
бүрилдэхүүндэ
бүрилдэхүүнтэи
бүрилдэһэн
бүрилдүүлдэг
бүримүһэн
бүрин
бүринь
бүритэ
бүрихэгдэһэн
бүришье
бүриһөө
бүртэ
бүрхэгдэнэ
бүрхэгдэһэн
бүрхөөл
бүрэлдэхүүн
бүрэлдэхүүнд
бүрэн
бүс
бүтэгдэхүүнэи
бүтэдэг
бүтэн
бүтэнэ
бүтэсые
бүтэсын
бүтэсэ
бүтэсэдэ
бүтэсэтэи
бүтэсэһээ
бүтэц
бүтээбэ
бүтээгдэхүүн
бүтээгдэхүүниие
бүтээгдэхүүные
бүтээгдэхүүнэи
бүтээгдэхүүнээрээ
бүтээгдэһэн
бүтээгшэ
бүтээдэг
бүтээжэ
бүтээл
бүтээлгын
бүтээлгэ
бүтээлдэ
бүтээлдээ
бүтээлнүүд
бүтээлнүүдтэ
бүтээлнүүдынь
бүтээлнүүдэи
бүтээлнүүдээ
бүтээлшэ
бүтээлшэд
бүтээлые
бүтээлынь
бүтээлэи
бүтээлээ
бүтээн
бүтээхэ
бүтээһэн
бүтэһэн
бүтүү
бүх
бүхии
бүхы
бүхыл
бүхыорос
бүхэ
бүхэдэлхэи
бүхэл
бүхэлдэнь
бүхэлдээ
бүхэлеэр
бүхэли
бүхэн
бүхэндэ
бүхэниие
бүхэнэи
бүхэоросои
бүхэтэр
бүхэхолбоонои
бүү
бүһые
бүһын
бүһэ
бүһэдэ
бүһэлэн
бүһэнь
бөгөөд
бөө
бөөгнэрэл
бөөгнэрэлэи
бөөгэи
бөөжэхэ
бөөнөөр
в
ва
вавилон
вавилонои
вагнер
вагон
ваза
ваи
вакуум
вакцина
вакцины
вакциные
валентина
валентын
вальс
вальтер
валюта
валютын
ван
вангаи
ваниин
ванкувер
вант
вань
варламов
варшава
варшавада
варшавын
василии
вассал
ват
ватикан
вашингтон
вашингтонои
вая
вв
введение
ве
веб
ведомости
ведын
везер
век
века
веков
вектор
великии
велосипед
венесуэла
венеци
венециин
венын
венэ
венэгэи
венэдэ
вепсскои
вепсском
вергили
верди
вермонт
версалиин
версаль
версия
вестгот
вести
вестник
вестфали
вестфалиин
весь
видатних
видео
видов
византи
византиин
вики
викимедиа
викингүүд
викингүүдэи
википедия
википеэди
википеэдидэ
википеэдии
виктор
виктора
виктори
виктория
вильгельм
вильнюс
вильһельм
винаи
виндхук
винсент
винчи
вирджини
вирджиниин
вирус
вирусаар
вирусаи
вирусууд
висконсин
витамин
витгенштаи
витим
вка
владивосток
владимир
владимираи
владислав
власти
во
военно
вои
вокруг
волга
волгоград
волгоградаи
вольфганг
воля
вопрос
вопросы
воронеж
воронежэи
восток
востока
востоковедения
восточная
восточнои
впн
время
все
вселеннои
всемирная
всеобщая
всероссии
всесоюзная
всех
вся
вт
вузов
входит
вцик
выборах
выдающихся
выи
вып
высшая
вычегда
вьентьян
вьетнам
вьетнамаи
вэ
вэб
вэбсаи
вэи
вятка
вяткын
відкритих
г
га
гаа
гаагаа
гаагаар
гаагүи
гаад
гаае
гаали
гаалида
гаалиие
гаалиин
гаань
гаар
гаараа
гаашье
гааһаа
габьяагаи
габьяата
габьяатаи
гагарин
гадаад
гадаада
гадаадын
гадана
гадарга
гадаргуу
гадаргуугаи
гадаргуунь
гадаргые
гадаргын
гадил
гадна
гаднаһаа
гадуур
газа
газаа
газаахи
газар
газараа
газараар
газараи
газарда
газарзүи
газарнууд
газарнуудаар
газарнуудаи
газарнуудта
газарнуудтаи
газарнуудые
газарт
газарта
газартаа
газартаи
газартань
газарууд
газарые
газарынь
газарһаа
газета
газрын
гаи
гаити
гал
галабаи
галаи
галактика
галанов
галановаи
галда
галдажа
галдан
галереи
галзууд
галии
галиин
галилеи
галилео
галсан
галсанов
галта
галуута
галые
гамгүи
гамшаг
ган
гана
ганга
гангаи
гангын
гандан
ганди
гандиин
ганса
гансаар
гансаараа
гансал
гансата
гансахан
гансашье
гантиг
гар
гара
гараа
гараад
гараар
гараараа
гараба
гарабал
гараг
гарагаи
гарагта
гарагууд
гарагуудаи
гарагые
гарагынь
гарадаг
гаража
гараи
гарал
гаралаи
гаралга
гаралгагүи
гаралгатаи
гаралгын
гаралтаи
гаралһан
гарам
гарамгаи
гаран
гарана
гараха
гарахада
гарахаһаа
гарахын
гараһан
гараһанаар
гараһанаи
гарбалаи
гарбалтаи
гарбалтан
гаргаа
гаргаад
гаргаба
гаргадаг
гаргаж
гаргажа
гарган
гаргана
гаргасан
гаргаха
гаргаһан
гаргаһанаар
гарма
гармаев
гармаевич
гарсан
гарсиа
гарта
гартаа
гартаи
гаруи
гарч
гарша
гаршуулһан
гаршье
гарын
гаталжа
гахаи
гашуун
гвадалахара
гвадалахары
гвардия
гватемала
гватемалын
гвинеи
гг
гданьск
где
ге
геи
гели
ген
генерал
генеральна
генератор
генетикын
геннадии
генрих
генуя
генэи
географические
географических
география
геологиин
геометри
геометриин
георг
георгии
гербын
герм
герман
германаи
германи
германида
германиие
германиин
германитаи
германиһаа
германшууд
герои
герцеговина
гибралтар
гибралтараи
гии
гильгамеш
гималаи
гимна
гиподермын
гитлер
гишүүд
гишүүдэи
гишүүн
гл
глава
главная
глобальное
глюкоза
глюкозо
гмии
го
гоби
гог
год
года
годах
году
годы
гое
гои
гол
голдо
голдоо
голдуу
голе
голланд
голландын
голлохо
голль
голнууд
голнуудаи
голои
голоор
голтои
голшолон
голые
голын
голынь
голһоо
гом
гомбо
гомер
гоминьдан
гоминьдангаи
гоо
гоор
гор
горбаче
гордон
горитои
горлог
горно
город
города
городам
городе
городов
городские
городских
городского
городскои
горход
горхон
горькии
горькиин
гос
госпиталь
государств
государства
государственного
государственное
государственнои
государственныи
государство
готик
готикын
готфрид
гр
граам
гравитациин
градус
градусаи
грамм
грамматикын
гран
гранд
грегүүд
грек
грекаи
грекын
грекээр
гренада
гренадин
гренланд
греци
грециин
григории
григориин
грузии
групп
группа
группы
гто
гты
гу
гуа
гуанчжоу
губи
гудамжа
гудамжын
гуи
гуламта
гуманизм
гунда
гурба
гурбада
гурбадахи
гурбадугаар
гурбалжан
гурбалһан
гурбан
гурбанаи
гурбые
гурван
гургалдаи
гуревич
гурил
гурилыг
гурим
гуримаар
гуримтаи
гуримтанаи
гуримые
гурион
гуру
гурэнэи
густав
гутал
гуталаи
гутенберг
гуулаа
гуулаад
гуулаба
гуулагдаба
гуулагдажа
гуулагданхаи
гуулагдаха
гуулагдахада
гуулагдаһан
гуулагдаһанһаа
гуулагджээ
гуулагдсан
гуулагша
гуулалга
гуулалгын
гуулалта
гуулалтада
гуулалтатаи
гуулалтые
гуулалтын
гууламжа
гуулан
гууланхаи
гуулба
гуулга
гуулгада
гуулганууд
гуулгануудаи
гуулгань
гуулгатаи
гуулгаһаа
гуулгые
гуулгын
гуулдаг
гуулж
гуулжа
гуулжээ
гууллага
гуулна
гуулсан
гуулха
гуулхаар
гуулхада
гуулхые
гуулһан
гуулһанаар
гуулһанаи
гуурһан
гуша
гушаад
гушан
гша
гые
гын
гэ
гэбшье
гэбэ
гэбэл
гэбэш
гэбэшье
гэвч
гэгдэдэг
гэгдэжэ
гэгдэнэ
гэгдэхэ
гэгшэ
гэгээн
гэгээрэлэи
гэдэг
гэдэгтэ
гэдэгтэи
гэдэгые
гэдэгынь
гэдэгэнь
гэдэгээ
гэдэгээр
гэдэгһээ
гэдэһэн
гэдэһэнэи
гэж
гэжэ
гэжээ
гэи
гэлсэдэг
гэлэн
гэлүгбын
гэм
гэмпшир
гэмтэ
гэмтэл
гэмтээжэ
гэн
гэндзи
гэндэн
гэнтын
гэнтэ
гэнэ
гэр
гэрлэбэ
гэрлэжэ
гэрлэхэ
гэрлэһэн
гэрнүүд
гэртэ
гэртээ
гэршэлнэ
гэрэи
гэрэл
гэрэлтэ
гэрэлые
гэрэлэи
гэрэлээр
гэрээ
гэрээнд
гэрээр
гэс
гэсэл
гэсэн
гэсэр
гэтэл
гэхдээ
гэхыдээ
гэхые
гэхэ
гэхэд
гэхэдэ
гэхэдээ
гэхэнь
гэшүүд
гэшүүдые
гэшүүдэи
гэшүүн
гэшүүнтэи
гэшүүнэи
гэшүүнээр
гээ
гээд
гээн
гээр
гээшэ
гэһэн
гэһэншье
гюго
гюгогои
гү
гүгүре
гүи
гүмбүм
гүн
гүндэ
гүнзэгы
гүнзэгыдэ
гүнзэгынь
гүнзэгэи
гүниинь
гүнлиг
гүнлигэи
гүнлигүүд
гүнтэ
гүнтэи
гүнэи
гүнүүдэи
гүрбэл
гүрбэлнүүд
гүрж
гүржи
гүржиин
гүржинүүд
гүрэн
гүрэндэ
гүрэндөө
гүрэниие
гүрэниинь
гүрэнтэи
гүрэнэи
гүрэнүүд
гүрэнүүдтэ
гүрэнүүдэи
гүрэнһөө
гүрөө
гүрөөһэн
гүүнэи
гөө
гөөр
д
да
даа
даабуу
даабуунаи
даагшаар
даадхалаи
даан
даанги
даар
дааһан
даб
даба
дабаа
дабаан
дабаанаи
дабажа
дабалгаа
дабамгаи
дабан
дабаһан
даби
дабтан
дабуу
дабуунаи
дабхар
дабхараа
дабхарга
дабхаргын
дабхартаи
дабшалтаяа
дабһажалта
дабһажалтань
дабһажалтатаи
дабһан
дабһанаи
дабһангүи
дабһатаи
давид
даг
дагаар
дагаараа
дагабари
дагажа
даган
дагаха
дагаһан
даггүи
дагестан
дагиинь
дагуу
дагууха
дагшье
дагые
дагынь
дагһаа
дадал
даи
дакка
дакота
дал
дала
далаа
далаар
далаараа
далаи
далан
далда
далдаа
дали
далиин
далитан
далтаи
далые
далһаа
дам
дамаск
дамба
дамбаев
дамбинов
дамдинов
дамдинсүрэн
дамжан
дамжаха
дамжаһан
дамжуулагша
дамжуулагшые
дамжуулагшын
дамжуулал
дамжуулан
дамжуулдаг
дамжуулха
дамжуулһан
дан
дангаараа
дангина
дангинын
данзан
дани
даниин
даних
данни
даннои
данные
данным
данных
данте
данциг
даных
даняар
дао
даосизм
дар
дара
дараа
дараагаар
дараагаи
дараалан
дараань
дарааха
дараахан
дараахи
дараашын
дарабад
дарагдаһан
даража
даралта
даралтын
дарамта
дарангуи
дараха
дараһан
дарвин
дарга
даргаар
даргань
даргын
дари
дарма
даруи
дархалаа
дархалал
дархалалаи
дархалалга
дархалалгын
дархан
дарья
дарһан
дарһанаи
дас
дасан
дасанаи
дасанда
даха
дахабал
дахажа
дахан
дахи
дахин
дахинаа
дахинаи
дахинда
дахуу
дахуул
дахуултаи
дахуулһан
дахь
дахяад
дацан
даша
дашадоржо
дашинимаев
даяанша
даяар
даяархи
даһан
движения
двои
де
деи
декабрь
декабря
делавэр
деле
дели
дель
дельфин
демократ
демоскоп
ден
дено
департамент
депутадуудаи
депутат
депутатаи
дер
деректер
детрои
деятельности
дж
джаи
джакартын
джами
джан
джана
джанаи
джеи
джерси
джеффри
джибути
джованни
джокович
джон
джордж
джорджи
джузеппе
дзе
дзи
дзэн
ди
диабет
диагноз
диаметр
диареи
дид
диего
дизаи
дизель
диилэбэ
диилэжэ
диилэнхи
диилэнхидээ
диилэнхинь
диккенс
диккенса
дин
динамика
династи
дингер
дингерэи
дипломат
дипломатиин
директор
дириже
диснеи
дифференциал
длаар
длыг
для
дмитриевич
дмитрии
дн
днб
дневник
днеи
днх
дня
до
добтолбо
добтолго
добтолгоо
добтолгын
добтолжо
добтолон
добтолһон
добтолһонои
добтолһоноор
добу
догшин
догшон
додаҳои
дои
доктор
докторои
долгин
долгинои
доллар
доллараар
доллараи
долодугаар
долоо
долоодохи
долоодугаар
долоон
дом
дома
доминика
доминиканского
доминион
домог
домогои
домогто
домогууд
дон
дондог
дондогои
дондохи
донецк
донои
донор
доо
доогуур
доод
доодо
доол
доор
дооро
доорохи
доошо
доошоо
доп
дор
доржо
дорнод
доро
дорои
дорохи
досоохи
достоевскии
дотоно
дотоод
дотоодо
дотоодын
дотор
доторои
дотороо
доторхи
доторынь
доторһоо
дотуур
дох
дохе
дохи
дохолон
др
драматург
драмын
древнего
древнеи
древняя
дрезден
дреи
другие
ду
дубаи
дублин
дублинэи
дугаар
дугаартаи
дуган
дуганаи
дугуи
дугы
дуи
дулаан
дулаанаи
дума
думын
дун
дунаи
дунд
дунда
дундаа
дундад
дундада
дундаж
дундажа
дундажаар
дундаха
дундаһаа
дунджаар
дундуур
дундын
дура
дураар
дураараа
дурагүи
дуран
дуранаи
дурасхаалаи
дурасхаалта
дурасхал
дурасхалаи
дурасхалнууд
дурасхалта
дуратаи
дурдабал
дурдагдаһан
дурдана
дурдаһан
дуридаһан
дурна
дурнада
дурнын
дурын
дутагдал
дутуу
дуу
дуугардаг
дуугарха
дууд
дуудаба
дуудадаг
дуудажа
дуудалга
дуулажа
дуулал
дуулалые
дуулана
дуун
дуунаи
дуунда
дуунууд
дуунуудые
дуури
дууриин
дууринууд
дууринь
дууша
дуушад
дуушан
дууһаба
дууһаһан
душанбе
дуһал
дуһалаи
дуһалнууд
дые
дын
дыр
дыры
дьяков
дэ
дэбжэлтэ
дэбжэлтэтэ
дэбисхэр
дэбисхэртэ
дэбисхэртэи
дэбисхэрые
дэбисхэрынь
дэбисхэрэи
дэбисхэрээр
дэбисхэрээрээ
дэбисхэрһээ
дэбтэр
дэбшүүлбэ
дэбшүүлһэн
дэвид
дэвсгэр
дэг
дэгдэһэн
дэглэм
дэглэмтэи
дэглэмые
дэглэмэи
дэгэл
дэгүүр
дэд
дэи
дэл
дэлгэр
дэлгэрбэ
дэлгэржэ
дэлгэрэнги
дэлгэрэнгы
дэлгэрүүлхэ
дэлгэрүүлһэн
дэлгэрһэн
дэлгүүр
дэлгүүрэи
дэлхии
дэлхэи
дэлые
дэлэи
дэлюун
дэмб
дэмжэбэ
дэмжэгшэ
дэмжэдэг
дэмжэжэ
дэмжэлгэ
дэмжэлгэтэи
дэмжэхэ
дэмжэһэн
дэмы
дэн
дэргэдэ
дэргэдэхи
дэс
дэх
дэхи
дэхэ
дээ
дээбэри
дээгүүр
дээд
дээдын
дээдэ
дээр
дээри
дээрх
дээрхи
дээрэ
дээрэнь
дээрэхи
дээрэхиин
дээрэхэ
дээрээ
дээрэһээ
дээрэһээнь
дээшэ
дээшэлжэ
дээшэлүүлхэ
дээшээ
дээһэн
дүгнэлтэ
дүгээр
дүи
дүлии
дүн
дүнгые
дүнгэжэ
дүнгээр
дүнгүи
дүнд
дүндэ
дүнтэи
дүр
дүрбэ
дүрбэдэхи
дүрбэдүгээр
дүрбэл
дүрбэлжэн
дүрбэн
дүрбэнэи
дүрим
дүримые
дүримүүд
дүрсые
дүрсэ
дүрсэлдэг
дүрсэлхэ
дүрсэлэн
дүрсэлһэн
дүрсэнүүд
дүрсэтэи
дүршэл
дүрые
дүрын
дүрэ
дүрэм
дүрэмые
дүрээр
дүтын
дүтэ
дүтэрхы
дүхэриг
дүшэн
дүү
дүүмэ
дүүнэр
дүүнэрэи
дүүргии
дүүргын
дүүргэ
дүүргэбэ
дүүргэдэ
дүүргэдэг
дүүргэжэ
дүүргэнүүд
дүүргэхэ
дүүргээ
дүүргээд
дүүргэһэн
дүүргэһэнэи
дүүрэн
дүүтэи
дөө
е
евангели
евгении
евклид
евклидэи
еврази
евразиин
евреи
евро
европа
европеи
европо
европодо
европодохи
европоһоо
европы
европын
европынхи
европынхид
египедэи
египет
египетаи
египетдэ
его
ее
ек
екатерина
екатеринбург
екатеринбургын
екатеринын
елизавета
емен
ен
енисеи
ень
епископ
ердын
ереван
ерэбэ
ерэдэг
ерэжэ
ерэлгэ
ерэн
ерэнэ
ерэхэ
ерэхэдэ
ерэхэдээ
ерээ
ерээд
ерээдүи
ерэһэн
ерэһэнэи
ерэһээр
ерөнхии
есть
есүхэи
ефрон
ефрона
ех
ехэ
ехэбшэлэн
ехэд
ехэдхэбэ
ехэдхэжэ
ехэдхэхэ
ехэдхэһэн
ехэдэ
ехэнхи
ехэнхидээ
ехэнхиие
ехэнхинь
ехэнхэ
ехэтэи
ехэхэн
ехээр
еһонои
еһоор
ж
жа
жаа
жаахан
жагсааба
жагсаал
жагсаалда
жагсаалт
жагсаалта
жагсаалтада
жагсадаг
жагсажа
жагсана
жада
жажаг
жак
жалаи
жалга
жамсо
жамьян
жан
жанеи
жанжан
жанжанаи
жанжин
жанна
жанрын
жараахаи
жаран
жаргал
жаргалтаи
жаруулжа
жаруулха
жаяг
же
женева
женщинах
жи
жибэн
животных
жижиг
жизни
жизнь
жиирэи
жил
жилд
жилии
жин
жителеи
жишээ
жняя
жодоо
жозеф
жомолунгма
жон
жорж
жуан
журам
журамаар
журамаи
журамда
журамта
журамые
журнал
жуулчлал
жуулчлалын
жын
жэ
жэжэ
жэжэг
жэл
жэлдэ
жэлдээ
жэлнүүдтэ
жэлнүүдэи
жэлые
жэлын
жэлэи
жэлээр
жэлһээ
жэмэс
жэмэсынь
жэмэсэи
жэнтэи
жэнхэни
жэрмэһэлэлтэ
жэрмэһэн
жэрмэһэнэи
жэшээ
жэшээлбэл
жэшээлхэдэ
жэшээнь
жээ
жээшэнь
жінок
жүз
жүсон
з
за
заабал
заабари
зааг
заадаг
заае
заажа
заан
заанаи
заатагүи
зааха
заахан
зааһан
зааһанаи
забаи
забһар
забһараи
завод
заводаи
заводуудаи
зага
загалмаи
загараи
загаһа
загаһан
загаһанаи
загаһаниинь
загаһанууд
загбар
загбараи
загбарые
задагаи
задалан
задалжа
задалха
задарал
задаралаи
задаран
задаржа
задарха
задарһанаар
задгаи
заи
закон
законодательство
залажа
заламгаи
залгаа
залгадаг
залгажа
залгамал
залгамжалагша
залгамжалагшад
залгамжалалаи
залгамжалан
залгамжалжа
залгамжалха
залгана
залирууштаи
залуу
залуушуул
залуушуулаи
зам
замаар
замаг
замаи
замбараагүи
замби
замбуулин
замда
замдаа
замые
зан
занар
зангаи
зангилаа
занда
зандаа
зандан
зантаи
заншал
заншалаар
заншалаи
заншалта
заншалтаи
заншалые
западнои
записки
зарим
зариманиинь
заримдаа
заримынь
зарлаба
зарлажа
зарлан
зарлаһан
зарлиг
зарлигаар
зарлигаи
зарлигые
зарсуулһан
заршам
заршамууд
заршамые
засаг
засагаа
засагаи
засаглал
засаглалаи
засаглалтаи
засаглалые
засагта
засагтаи
засагша
засагые
засагынь
засах
засаха
засгии
зах
заха
захааминаи
захаар
захада
захатаи
захидал
захирагдадаг
захирагша
захирагшын
захирал
захиралтаар
захиргаа
захиргаан
захиргаанаи
захиргаанда
захиргаандаа
захиргааны
захирдаг
захиржа
захирха
захирһан
захын
заяа
заяан
заһабари
заһажа
заһалга
заһаха
здравоохранения
зеланд
земель
земледельческии
земли
земля
зер
зеро
зи
зигмунд
зиин
зимбабве
знание
зоблон
зоблонгые
зоболон
зоболонгои
зоболонгые
зогсобо
зогсожо
зогсонги
зогсоожо
зогсоол
зогсоохо
зогсооһон
зогсоһон
золгодог
зон
зондо
зониие
зониинь
зонои
зоноо
зоноор
зоноороо
зонтои
зонхилдог
зонхилхо
зонхобо
зонхобын
зоос
зоосые
зориг
зоригто
зоригтои
зорижо
зорилго
зорилгодо
зорилгонь
зорилгоор
зорилготои
зорилгые
зориулсан
зориһон
зорюулагдаһан
зорюулалтаар
зорюулалтатаи
зорюулалтын
зорюулан
зорюулжа
зорюулһан
зорюута
зохе
зохеол
зохеолои
зохилдожо
зохилдоһон
зохион
зохисоһон
зохисуулна
зохисуулха
зохихо
зсбн
зсбнху
зу
зугаа
зугаалаи
зузаан
зула
зун
зунаи
зунда
зундаа
зуниинь
зурааша
зураашад
зураашадаи
зураг
зурагаар
зурагаи
зураглан
зурагта
зурагтаи
зурагууд
зурагуудые
зурагые
зурадаг
зураһан
зургаа
зургаадахи
зургаадугаар
зургаан
зургаанаи
зургаанууд
зургаануудаи
зургадугаар
зургии
зурхаи
зуу
зуугаад
зуун
зуунаас
зуунаи
зуунд
зуунда
зууниие
зуунмодон
зууны
зуунһаа
зуур
зуура
зуураа
зуурын
зху
зырян
зырянских
зьвестак
зэбсэг
зэбсэгтэ
зэбсэгтэи
зэбсэгые
зэбсэгэи
зэбсэгүүдые
зэд
зэдын
зэдэ
зэдэи
зэмсэг
зэмсэгэи
зэмэ
зэр
зэргые
зэргын
зэргэ
зэргэдэ
зэргэлдээ
зэргэлээд
зэргэнь
зэргэсэн
зэргэсээ
зэргэтэи
зэргэые
зэргээр
зэргээрээ
зэргэһээ
зэрлиг
зэрэг
зэрэгтэ
зэрэгые
зэрэгынь
зээл
зээли
зээлиин
зүб
зүблэжэ
зүблэл
зүблэлдэ
зүблэлнүүдэи
зүблэлтын
зүблэлтэ
зүблэлэи
зүблэхэ
зүбхэн
зүбшөөгдэһэн
зүбшөөрдэг
зүбшөөржэ
зүбшөөрхэгүи
зүбшөөрэгдэһэн
зүбшөөрэл
зүбшөөрһэн
зүбшөөһэн
зүбөөр
зүг
зүгт
зүгтэ
зүгтэнь
зүгтээ
зүгы
зүгые
зүгын
зүгэи
зүгээр
зүгһөө
зүгөөр
зүгөөрөө
зүдхэлтэн
зүдхэлтэнүүдэи
зүжэг
зүжэгшэ
зүжэгшэн
зүжэгые
зүжэгэи
зүжэгүүд
зүжэгүүдые
зүи
зүлхэ
зүн
зүрхые
зүрхэн
зүрхэндэ
зүрхэниинь
зүрхэнэи
зүршэдэи
зүршэл
зүршэлдэжэ
зүтгэлтэн
зүчи
зүчиин
зүү
зүүдэн
зүүн
зүүнгарын
зүүнтэн
зүүнэи
зүүнһээ
зөвхөн
зөөжэ
зөөлэн
зөөри
зөөриие
зөөхэи
и
иар
ибериин
ибн
ибсен
ивалгын
иван
иванов
иванович
иво
иврит
игры
идеи
идентификатор
иерусалим
иерусалимаи
иерусалимда
иерусалимые
иеһуда
ижевск
ижил
из
изабелла
изагуур
изагуураи
изагууртадаи
изагууртан
изагууртанаи
изагууртануудаи
избранные
изд
издание
издательство
изменение
изменении
изобразительного
изотопи
изотопитои
израилиин
израилиинь
израиль
израильда
израильшууд
израильшуудаи
изучения
ии
иигэжэ
иигээд
иигэһэнээр
иие
иимэ
иимэдэ
иимээ
иимэһээ
иимһээ
иин
иинхүү
иинь
иисус
иисусаи
иисусые
ил
илагдаба
илагдажа
илагдал
илагдашагүи
илагдаһан
илагдаһанаи
илагша
илажа
илалта
илалтын
илангаяа
илаһан
илаһанаи
илгаа
илгаае
илгаатаи
илгадаг
илгажа
илган
илгаран
илгардаг
илгаржа
илгарна
илгаруулдаг
илгаруулжа
илгаруулна
илгаруулха
илгарха
илгаха
илгахын
или
илиада
иллинои
иллюстрированная
ильич
илья
илэрхии
илүү
им
имагтал
имеет
иммануил
империализм
империализмын
империалис
империи
империя
импорт
импортын
импульс
ин
инаг
инвестиционныи
ингээд
инд
индеи
индекс
индексээр
индиана
индии
индонези
индонезиин
индонезяар
инерциал
инженер
инженериин
инженерэи
инкубациин
иннокентии
институдаи
институдта
институт
института
интеграл
интервью
интернет
интернетдэ
интэрнэт
информации
информационно
информационные
информационныи
информация
инь
иоанн
иоганн
ион
ионои
иордани
иосиф
ирагуу
ирак
иракаи
иран
иранаи
иргэн
иргэнэи
ирж
иркутск
ирланд
ирландын
ирсэн
ирүүлсэн
ис
исаак
искусства
искусство
ислам
исламаи
исланд
исп
испан
испани
испанида
испании
испаниие
испаниин
испанитаи
испанишууд
испаниһаа
испанскии
исследование
исследовании
исследования
истанбул
истанбулаи
истории
историко
историческая
исторические
история
исфана
итал
итали
италида
италиие
италиин
италяар
ито
итогах
итоги
иудаизм
иудаизма
иудаизмаи
иудеи
иудея
их
ихтэи
ихэнх
ихээхэн
июлиин
июля
июня
к
ка
кабанскын
кавказ
кавказаи
кавказдахи
казак
казаниин
казань
казах
казахстан
казахстана
казахстанаи
казахстанда
казимир
каи
каир
каираи
как
кал
календарь
калиин
калининград
калифорни
калифорниин
калмыкия
калькутта
кальскии
кальци
кама
камбоджа
камер
камерун
кампани
камчаткын
камын
канада
канадада
канады
канадын
канал
канараи
кандидат
канзас
кант
кантата
кантон
кантын
канцлер
капитализм
капитализмын
капиталис
капитанаи
карачаи
карелия
карибын
карл
карла
карлос
карлын
каролина
карта
картье
карфаген
карын
каспии
каспиин
кастилиин
кастро
каталанаар
каталог
каталоге
каталони
катана
катанын
катар
катманду
католик
кафедратаи
кафка
кац
каца
кацаи
кашалот
кв
квадрат
квант
квантын
кварталнууд
квартет
квебек
квебекэи
квт
кг
ке
кеи
кельт
кембриин
кемерово
кемеровын
кени
кентербериин
кентукки
кеплер
керамикын
киев
киевые
киевэи
килограмм
километр
километрын
ким
кинг
кино
киногои
кинодо
кинорежиссе
киото
кипр
кирилл
кировои
китае
китаи
китая
кито
китс
кишинэу
киі
кл
классицизмын
классическая
классическои
клеткэтэи
климат
климата
клуб
клуба
км
кн
кнессет
кнессетэи
книга
книги
книжное
ко
коваленко
ковскии
код
кои
колас
колони
колониализм
колонизаторнууд
колониие
колониин
колонинууд
колонинуудые
колониһоо
колорадо
колумб
колумби
колумбиин
колумбын
командовалагша
комбинадууд
комбинат
коми
комиссиин
комитедэи
комитет
комитета
коммерсантъ
коммунизм
коммунизмын
коммунис
коммунист
коммунистууд
коммунистуудаи
компани
компаниин
компанинууд
компаниуд
комплекс
композитор
компьютер
компьютернуудынь
компьютерэи
комсомолец
комсомолои
конвенци
конго
конгресс
конгресса
конгрессэи
коннектикут
конрад
консерватив
консерватизм
консерватори
константин
константинополь
конституция
континентальна
контроль
конус
концерт
координировалһан
копенһаген
копенһагенаи
коперник
коран
коре
кореи
коронавирус
коронавируса
коростовец
корпораци
корпус
кортес
коса
космическа
косово
коста
кот
которая
которые
кофе
кофиин
кох
кочосон
кпсс
краи
краков
красная
краснодараи
красноярск
красноярскын
краткая
краткии
крахмал
края
краін
креи
кремль
крестьянская
кристалл
круглыи
кругосвет
крым
крымэи
кто
ку
куала
куб
куба
кубок
кубын
кувеи
кузьмин
куи
кукуруза
культур
культура
культуре
культуры
кумык
купала
купалы
кур
курганаи
курил
курилаи
курка
курорт
курс
кутикулын
кызыл
кыргызстан
кыргызстанаи
кюри
күнзын
күре
л
ла
лаа
лаб
лаба
лаборатори
лабрадор
лаврентиин
лаг
лагерь
лагос
ладаг
лажа
лаи
лакхнау
лал
лала
лалашууд
лалын
лам
лама
ламада
ламанар
ламанараи
ламые
ламын
лан
лангаи
ланд
ландын
ланка
ланкада
лао
лаос
лаосои
лас
лат
лата
латаар
латви
латин
латиншалһан
лауреат
лаха
лахын
лашагүи
лая
лаһан
лбал
лбар
лбари
лбариие
лбарилдаг
лбарилжа
лбарилна
лбарилха
лбарилһан
лбо
лга
лгадаг
лгажа
лгаха
лго
лгодог
лгожо
лголто
лголтонь
лголтоор
лголтые
лгомжо
лгомжотои
лгоно
лгохо
лгын
лда
лдаа
лдаан
лдаанаар
лдаанаи
лдаанда
лдаанта
лдаг
лдажа
лдан
лдаһан
лдвэрлэлии
лдвэрлэх
лдлии
лдо
лдог
лдэ
лдэбэри
лдэг
ле
лев
леи
лекции
лекция
ленд
ленин
ленинград
ленинградаи
ленинэи
лента
леонардо
леонид
лердиҥ
лесото
лет
лех
лж
лжа
лжо
ли
либерал
либерализм
либери
ливан
ливанаи
ливи
лиг
лигдэн
лигын
лии
лиин
лимбэ
линкольн
линкольнын
линнеи
линховоин
липецкын
лит
литва
литваар
литвагаи
литваои
литвын
литература
литературе
литературна
литературная
литературы
литературын
литр
литын
литэ
литээр
лиха
лихтенштеи
лицеи
лицензитэи
лицинии
лно
лнууд
лнүүд
лнүүдые
лнүүдынь
лнүүдэи
лнүүдээр
ло
лов
лович
логдодог
логдоно
логдохо
логдоһон
логик
логикын
логшо
лодзь
лои
локк
лолто
лон
лонг
лондон
лондондо
лондонои
лоо
лос
лоялистууд
лсон
лта
лтои
лтэи
лубсан
луи
луиза
луизиана
луис
лумпур
луу
луубан
лууд
луужин
луулдаг
луулжа
луулха
луулһан
лучшая
лха
лхо
лходо
лшагүи
лые
лыи
лын
лынь
ль
лэ
лэгшэ
лэдбэри
лэдбэридэ
лэдбэрижэһэн
лэдбэриин
лэдбэрилгын
лэдбэрилгэ
лэдбэрилжэ
лэдбэрилхэ
лэдбэрилэгшэ
лэдбэрилэл
лэдбэрилэлдэ
лэдбэрилэлэи
лэдбэрилэлээр
лэдбэринүүд
лэдбэринүүдэи
лэдэ
лэдэл
лэдэлнүүд
лэдэлнүүдые
лэдэлые
лэдэлэи
лэдэхэ
лэи
лэл
лэн
лэнүүд
лэшэлгын
лэшэлгэ
лэшэлгээ
лэшэлгээнэи
лэшэлдэг
лэшэлжэ
лэшэлнэ
лэшэлхэ
лэшэлэл
лэшэлэлсэжэ
лэшэлэлые
лэшэлэлэи
лэшэлэлээр
лээр
любовь
людвиг
людовик
люи
люксембург
люси
лютер
люучюу
ляо
лүүд
лһан
лһон
лһэн
лһээ
лһөө
лөгч
лөгчии
м
ма
маа
маалыматтарды
маан
маанаи
маани
маарагта
маашадаи
мавзолеи
маг
магад
магадан
магаданаи
магадгүи
магадлал
магадлалтаи
магаи
магеллан
магистр
магта
магтаал
магтан
магууд
магуудаи
магуудта
магуудые
магые
магһаа
мадагаскар
мадахи
мадрид
мадугаар
мазурканууд
маи
макао
македони
македониин
макро
макс
максим
максима
мактьютор
мал
мала
малави
малаи
малгаи
малер
мали
малтажа
малталга
малтамал
малтамалаи
малтамалнуудаи
мальта
малюмат
ман
манаи
мангад
мандал
мандалаи
мандалда
мандалта
мандалтаһаа
мандалтын
мандарин
мандат
мандаттаи
мандатые
мандела
мане
манжа
манжанууд
манжатаи
манжии
манжуур
манжуурта
манжын
манзу
манзын
манила
манилын
манитоба
манлаи
манси
мансинууд
манти
маньчжоу
мао
мараи
маргаан
маргаантаи
мари
марии
марино
мария
марк
марка
марко
маркс
марксизм
марксизма
марксис
марксын
марокко
марта
мартенсит
мартин
марш
маршал
масс
масса
массань
массатаи
массачусетс
массачусетсын
массын
матар
матвеи
математик
математика
математики
математикын
математическая
матери
материал
материалаи
материаллиг
материалы
мати
махабад
махабадаи
махабадта
махабхарата
махал
махатма
махаяна
махн
мацуо
маш
маша
машина
машиные
машинын
мая
маяг
маягаар
маягаи
маягтаи
маягые
мгии
мгу
ме
мебелиин
медали
медалиин
медаль
медиа
медресе
между
международного
международные
международныи
мезозои
меи
мекка
мекленбург
мексика
мексики
мексико
мексикын
мексикэ
мен
менделеев
менделеева
менделеевэи
мерзлота
меркелиин
мерэи
месопотами
месопотамида
месопотамиин
мессия
месяцеслов
металл
металлаи
металлнуудаи
метан
метр
метро
метров
метрополи
метрополиин
метрополитан
метрополитен
метрын
метрһээ
механизм
механик
механика
механикада
механикань
механикын
мехико
мечеть
меэтэр
ми
мигель
мигмар
миин
миисгэи
микенынхид
микробиологиин
милан
милараи
миллиард
миллион
миль
мин
минерал
минии
министерство
министр
миннесота
минои
минск
минута
минутада
минь
миня
мир
мира
мире
мировои
миссисипи
миссиссипи
миссури
михаи
михаил
мичиган
млекопитающие
млн
мм
мнаи
мо
могои
могол
моголои
мод
модо
модод
мододои
модолиг
модон
модондо
модонои
модонуудаи
модонһоо
модоор
модотои
может
можжевельник
можо
можодо
можонууд
можонуудаи
можонуудта
можонуудтаи
можонуудые
можонуудһаа
можотои
можоһоо
можые
можын
мозамбик
мои
моисеи
мокша
молдави
молекул
молекула
молекуланууд
молекулануудаи
молекулын
молодая
молоде
молокон
мон
монако
монг
монгол
монголд
монголдо
монголнууд
монголои
монголоор
монголчууд
монголчуудын
монголшууд
монголшуудаи
монголшуудтаи
монголшуудые
монголыг
монголые
монголын
монголһоо
монотеизм
монро
монсогор
монтескье
мордва
мордови
море
мори
морин
моринои
моря
мосгордуму
мосгордумы
москва
москвагаи
москвагии
москвада
москваһаа
москве
москвы
московская
московского
московскои
мостов
мосты
мотор
моцарт
моше
мс
му
муж
мужии
музеи
музыка
музыки
муи
мумбаи
муниципалитет
муниципального
муниципальным
муниципальных
мунхаг
мунэ
мустафа
муу
муугаар
муудажа
муутаи
муухаи
мухаммад
мухаммед
мухар
муххамед
мшагта
мшагтаи
мы
мьянма
мьянмын
мэ
мэдэгдэбэ
мэдэгдэжэ
мэдэгдэнги
мэдэгдэнхэи
мэдэгдэхэ
мэдэгдээгүи
мэдэгдэһэн
мэдэдэг
мэдэжэ
мэдэл
мэдэлгые
мэдэлгын
мэдэлгэ
мэдэлдэ
мэдэлдээ
мэдэлтэи
мэдэлые
мэдэлэи
мэдэлээ
мэдэлһээ
мэдэржэ
мэдэрхэ
мэдэрэл
мэдэрэлэи
мэдэрэмжэ
мэдэх
мэдэхын
мэдэхэ
мэдэхэгүи
мэдээ
мэдээгээр
мэдээд
мэдээжэ
мэдээллии
мэдээлэл
мэдээлэлэи
мэдээлэлээр
мэдээнэи
мэдээсэгэи
мэдээсэл
мэдээсэлые
мэдээсэлэи
мэдээсэлээр
мэдэһэн
мэдүүлгэ
мэдүүлһэн
мэи
мэлхэи
мэн
мэндын
мэндэ
мэндэдэ
мэндэлһэн
мэр
мэргэжэл
мэргэжэлтэи
мэргэжэлэи
мэргэжэлээр
мэргэн
мэргэнэи
мэри
мэриленд
мэрилин
мэтые
мэтын
мэтэ
мэтээр
мэхэ
мээн
мээс
мэү
мэө
мюнхен
мюнхендэ
мягмар
мянга
мянгаад
мянган
мянганаи
мянганһаа
мяхан
мяханаи
мяхаша
мяхашан
мяхые
мінск
мүлжэгшэ
мүлхигшэд
мүльһэн
мүльһэнэи
мүльһөөр
мүн
мүнгые
мүнгэ
мүнгэлиг
мүнгэн
мүнгэнэи
мүнгөө
мүнгөөр
мүндэлһэн
мүнхын
мүнхэ
мүнхэрһэн
мүнөө
мүнөөгэи
мүнөөдэр
мүнөөдэрэи
мүнөөнэи
мүнөөшье
мүр
мүргэжэ
мүргэл
мүргэлдөөн
мүргэлэи
мүргэхэ
мүрдэлгэ
мүрдэн
мүрдэхэ
мүры
мүрые
мүрысөөндэ
мүрытэи
мүрэи
мүрэн
мүрэндэ
мүрэндэхи
мүрэниие
мүрэниинь
мүрэнтэи
мүрэнэи
мүрэнүүд
мүрэнүүдэи
мүрэнһөө
мүрэнөөр
мүсэ
мүхэжэ
мүхэһэн
мүхэһэнэи
мүхөөжэ
мүшэр
мәғлүмәт
мөн
мөрнии
мөрөн
мөсөн
мөөгэ
мөөгэнсэр
мөөн
мөөртэи
н
на
наада
наадан
нааданаи
нааданда
нааданхаи
нааданые
наар
нааша
набтар
набша
набшатаи
набшаһан
нагаржунаи
нагаса
над
надаль
название
названии
названия
наи
налуу
нам
нама
намаг
намаи
намана
намар
намараи
намда
намжил
намиби
намибии
намсараев
намсараеваи
намсараи
намтар
намтартаи
намууд
намуудаи
намые
намын
намһаа
нангин
нанжин
нанжингаи
нанхяад
наполеон
наполеонои
нар
нара
нараи
наран
наранаи
наранда
нараниие
наранһаа
наратаи
нарии
нарин
народа
народныи
народов
нарые
нарын
нарһан
нарһанаи
нарһата
нас
населе
население
населением
населения
населенных
настоящее
нато
натриин
натурал
наук
наука
научно
национальная
национальнои
национальныи
нацис
начала
начало
наших
ная
наяд
наян
наһа
наһаа
наһалалта
наһалдаг
наһан
наһанаи
наһанда
наһандаа
наһанһаа
наһанһаан
наһатаи
наһые
нг
нга
нгаа
нгоо
нгын
нгээ
нгөө
нд
нда
ндо
ндэ
ндэр
не
неаполь
нева
невада
неверныи
невис
недоступная
независимости
независимость
независимых
неи
некоторые
нем
ненец
нервын
несколько
ни
нибелунгуудаи
нигер
нигери
нидерл
нидерланд
нидерландын
нии
ниигэм
ниигэмдэ
ниигэмлиг
ниигэмлигэи
ниигэмлигүүд
ниигэмые
ниигэмынь
ниигэмэи
ниидэгшэ
ниидэдэг
ниидэжэ
ниидэлгын
ниидэлгэ
ниидэхэ
ниидэһэн
ниие
ниилбэри
ниилмэл
ниилэбэ
ниилэдэг
ниилэжэ
ниилэмэл
ниилэн
ниилээд
ниилэһэн
ниилүүлэлтэ
ниилүүлэн
ниилүүлһэн
ниинь
ниислэл
ниислэлнүүд
ниислэлтэи
ниислэлые
ниислэлынь
ниислэлэи
ниислэлээ
ниисүүлэн
ниитын
ниитэ
ниитэдэ
ниитэдэнь
ниитэдээ
ниитэлиг
ниитэлһэн
ниитээр
никарагуа
никель
никола
николаевич
николаи
нил
нилээд
нилээн
нима
нимгэн
ниппон
нирвана
нирванада
нитирэн
ниц
ницше
нка
нм
нная
нные
нныи
нных
но
ноам
нобелиин
нов
новак
новая
новгород
новгородои
новеи
новиков
нового
новои
новокузнецк
новосибирск
новосибирскои
новосибирскын
новостеи
новости
новые
новыи
новь
ногаи
ногдохо
ногоо
ногоон
ногоонои
ное
нои
ном
номгон
номдо
номдоо
номин
номлогшо
номлогшод
номлол
номлолои
номлолые
номои
номоо
номтои
номууд
номуудаи
номуудые
номые
номын
номынь
нон
ноо
ноогдохо
нооһон
норвеги
норвегидэ
норвегиин
норвегяар
нормативныи
нормо
носотои
нотолһон
нохои
нохчии
ноябриин
ноября
ноһоо
нскии
нты
ну
нуга
нугада
нугаһанаи
нунавут
нур
нуран
нуруу
нутаг
нутагт
нутгии
нууд
нуудаи
нуудта
нуур
нуураар
нуураи
нуурда
нуурнууд
нуурнуудаи
нуурта
нууртаи
нуурые
нуурһаа
нууц
нх
нхи
нхобо
нхээ
нхүү
нштаи
нштеи
нъян
ны
ные
нь
нью
ньютон
ньютонои
ньюфаундленд
нэбтэ
нэбтэржэ
нэбтэрхы
нэбтэрхэ
нэбтэрхэи
нэбтэрэн
нэбтэрүүлгэ
нэбтэрүүлхэ
нэбтэрүүлһэн
нэбтэрһэн
нэг
нэгдсэн
нэгдэн
нэгдэһэн
нэгдүгээр
нэгые
нэгэ
нэгэдугаар
нэгэдхэбэ
нэгэдхэгдэжэ
нэгэдхэжэ
нэгэдхэн
нэгэдхэхэ
нэгэдхэһэн
нэгэдэ
нэгэдэбэ
нэгэдэжэ
нэгэдэл
нэгэдэлнүүд
нэгэдэлые
нэгэдэлэи
нэгэдэмэл
нэгэдэн
нэгэдэхи
нэгэдэхэ
нэгэдэһэн
нэгэдүгээр
нэгэжын
нэгэжэ
нэгэжэдэ
нэгэжэнь
нэгэл
нэгэн
нэгэндэ
нэгэниинь
нэгэнтэ
нэгэнь
нэгэнэи
нэгэтэ
нэгэтэи
нэгэшье
нэгээр
нэи
нэлээд
нэмжыдэг
нэмжынэ
нэмэгдсэн
нэмэгдэбэ
нэмэгдэжэ
нэмэгдэнэ
нэмэгдэхэ
нэмэгдэһэн
нэмэгдүүлжэ
нэмэгдүүлхэ
нэмэжэ
нэмэлтэ
нэмэри
нэмэриеэ
нэмэхэ
нэн
нэр
нэрлэбэ
нэрлэбэл
нэрлэгдэбэ
нэрлэгдэдэг
нэрлэгдэжэ
нэрлэгдэнхэи
нэрлэгдэхэ
нэрлэгдэһэн
нэрлэдэг
нэрлэжэ
нэрлэжээ
нэрлэн
нэрлэнэ
нэрлэсэн
нэрлэхэ
нэрлээ
нэрлэһэн
нэртэи
нэршэл
нэршүү
нэрые
нэрын
нэрэ
нэрэгүи
нэрэдэ
нэрэеэ
нэрэлдэг
нэрэлнэ
нэрэлэгдэдэг
нэрэлэгдэһэн
нэрэмжэтэ
нэрэмжэтэи
нэрэмжээр
нэрэнь
нэрэнүүд
нэрэтэ
нэрэтэи
нэрээ
нэрээр
нэрээрээ
нэрэһээ
нэхэмэл
нэхэмэлэи
нээбэ
нээгдэбэ
нээгдэһэн
нээжэ
нээлттэи
нээлтын
нээлтэ
нээлтэнь
нээлтэтэи
нээлтүүд
нээхэ
нээһэн
нюдэн
нюдэнэи
нюдэтэи
нюргагүи
нюрган
нюрганаи
нюргатан
нюруу
нюруугаи
нюрууда
нюруунь
нюрууһаа
нютаг
нютагаа
нютагаар
нютагаараа
нютагаи
нютаглажа
нютагта
нютагтаа
нютагтаи
нютагтанаи
нютагууд
нютагуудаар
нютагуудаи
нютагуудта
нютагуудые
нютагые
нютагынь
нютагһаа
нюур
нюуса
нюусаар
нюусые
нягта
нягтарал
нягтатаи
нягташалаар
нян
нянгаи
нярбын
нү
нүб
нүгшэбэ
нүгшэһэн
нүгэл
нүгөө
нүгөөдэ
нүлөө
нүлөөгөө
нүлөөгөөр
нүлөөе
нүлөөлбэ
нүлөөлдэг
нүлөөлжэ
нүлөөлнэ
нүлөөлхэ
нүлөөлэл
нүлөөлэлые
нүлөөлэлэи
нүлөөлһэн
нүлөөлөө
нүлөөндэ
нүлөөтэи
нүхэд
нүхэдэи
нүхэн
нүхэнэи
нүхэнүүдые
нүхэр
нүхэрлэл
нүхэрлэлэи
нүхэсэл
нүхэсэлдэ
нүхэсэлые
нүхэтэи
нүүбэ
нүүд
нүүдые
нүүдэг
нүүдэи
нүүдэл
нүүдэллэн
нүүдэлчин
нүүдэлшэ
нүүдэлшэд
нүүдэлшэдэи
нүүдэлшэн
нүүдэлэи
нүүжэ
нүүлгэжэ
нүүлгэн
нүүн
нүүрһэн
нүүрһэнтүрэгшын
нүүрһэнтүрэгшэ
нүүрһэнхүшэлэи
нүүрһэнэи
нүүһэн
нһаа
нһоо
нөлөө
нөхцөл
нөхцөлд
нөөсые
нөөсын
нөөсэ
нөөсэтэи
о
об
обзор
области
областиин
область
обо
обог
обогои
обогто
обогтон
обогуудаи
обои
обоо
обоохои
обор
образование
образовании
образования
образованиям
общ
общая
общеи
общество
общии
объект
объектов
обь
овидии
огаи
огасавара
огдоһон
оглу
огноо
огноог
огои
огоор
огсом
огто
огторгои
огшо
огшодои
од
оденсе
одер
одиссеи
одо
одог
ододои
одои
одон
одонои
одонууд
одоо
одоогии
одоогои
одоогоор
одоошье
одхон
ое
ожо
озе
озеро
озеф
ои
ока
океаниин
окинава
оклахома
окончательных
округ
округа
округов
округта
округууд
октавиан
октябриин
октябрь
октября
ол
олборложо
олго
олгобо
олгогдоһон
олгодог
олгожо
олгохо
олгоһон
олгын
олдо
олдобори
олдодог
олдожо
олдол
олдолдо
олдомол
олдоо
олдохо
олдоһон
олег
олзо
олзобори
олзоборилго
олимп
олимпиада
олимпиадада
олимпии
олимпиин
олнууд
олнуудаа
олнуудаи
олнуудые
олнуудынь
оло
олобо
олодог
оложо
олои
ололто
олон
олондо
олониитын
олониитэ
олониитэдэ
олонлигои
олонлигые
олонои
олоноор
олоноороо
олонтои
олонхи
олонхиие
олонхиин
олонхинь
олоо
олоогүи
олоор
олоороо
олохо
олоһон
олтирог
олшо
олшод
олшодои
олшын
олые
олынь
ольтирог
ольтирогто
ом
оман
оманаи
омеи
омматид
омог
омогои
омол
омоли
омолиин
омск
омскын
он
она
онам
онгосо
онгосонууд
онгосоор
онгосотои
онгосые
онгосын
онд
ондо
ондоо
ондоогоор
оне
онлаи
онных
онов
оногдохо
онои
онол
онолдо
онолнууд
онолои
онолоор
онолшо
онолые
онон
ононои
оноор
оноос
онсо
онсогои
онсолготои
онсолиг
онсолигтои
онсолигые
онсолог
онсолон
онтарио
онтариогои
онтохон
онтохонууд
онтохонуудаи
онууд
онуудаар
онуудад
онуудаи
онуудта
онуудһаа
оны
онь
онһоо
оо
оод
оон
оор
оп
опера
операци
оперо
оперын
описание
опыт
ор
оратори
орган
организация
организм
организмууд
органик
органов
орд
ордагаи
ордан
орден
орденои
орденоор
ордо
ордог
ордон
ордондо
ордониие
ордонои
ордонтои
ордонһоо
ордын
оре
орегон
орегонои
оренбургын
орж
орк
оркестрын
оркын
орлогшо
орлогшоор
орложо
орн
орно
орнуудад
орны
оро
оробо
ород
ородог
ородои
ородоор
ородто
ородууд
ородуудаи
ородуудтаи
ородые
ородһоо
орожо
орои
оролго
оролгые
оролгын
оролдодог
оролдожо
оролдолго
оролдоһон
оролсобо
оролсодог
оролсожо
оролсоно
оролсоотои
оролсохо
оролсоһон
оролсуулан
орон
оронго
оронд
орондо
орондонь
орондоо
орониие
орониинь
ороно
оронои
ороноо
ороноор
оронто
оронтои
оронууд
оронуудаи
оронуудта
оронуудтаи
оронуудые
оронуудһаа
ороные
оронһоо
ороо
ороогүи
ороод
ороожо
орос
оросои
оросто
оростои
оросууд
оросые
оросын
оротон
орохо
ороходо
ороходоо
ороһон
ороһоноор
орто
оруулаа
оруулаад
оруулагданхаи
оруулалсаад
оруулалта
оруулан
оруулба
оруулбал
оруулдаг
оруулжа
оруулна
оруулха
оруулхые
оруулһан
орхижо
орхин
орходоо
орхон
орчим
орчин
оршдог
оршин
оршодог
оршожо
оршолон
оршолонгои
оршом
оршомдо
оршомои
оршомоор
оршомһоо
оршон
оршондо
оршондоо
оршониие
оршоно
оршонои
оршонтои
оршонһоо
оршохо
оршуулагша
оршуулба
оршуулбал
оршуулга
оршуулгын
оршуулжа
оршуулха
оршуулһан
орье
осака
осети
осло
осман
османаи
основные
основы
от
отв
отворени
отворените
отвореног
открытых
ото
отои
отолжо
отряд
отто
оуох
официальном
официальныи
охин
охо
оху
охы
оценка
очень
очерк
очерки
очиров
ошибка
ошобо
ошодог
ошожо
ошон
ошоод
ошохо
ошоһон
оэуа
оюун
оюунаи
оюутад
оюутадаи
оюутан
оюутанаи
оһаи
оһанн
оһон
п
пабло
павел
павла
павлов
павлович
пак
пакет
пакистан
пакистанаи
пакистанда
палестина
палестинда
палестинын
пали
панама
панамын
панорама
папа
папуа
папын
парагваи
парис
парисаи
париста
парк
парламент
парламентда
парламенттаи
парламентын
парти
партии
партиин
партне
парфенон
паспорт
пастер
паулу
пе
пенджаб
пензын
пенсильвани
пер
первая
первое
первоисточника
первым
перевод
переписи
перепись
перераб
период
пермиин
пермь
пермягууд
пермяк
перс
перси
персиин
перу
петербург
петербургта
петербургын
петр
петров
петрович
петроград
петрозаводск
пианист
пик
пикассо
пилсудскии
пиньинь
пионер
пиренеи
пиринеи
писатель
писателя
питер
пищевая
плазма
планк
планкын
планые
пластик
платон
платонаи
платонои
платформ
платформа
платформазы
платформаи
платформасы
платформаһы
пловдив
площадь
плятформа
по
победителем
повесть
под
података
податоци
познань
показателеи
показатели
пол
политехникын
политика
политики
политическэ
полное
поло
положение
полонез
поль
польш
польша
польшо
польшодо
польшоор
польшоһоо
польшые
польшын
полягууд
поляна
поморье
понимание
понятии
поп
порт
портал
португал
португалаар
португалаи
португалда
португалиин
портууд
поселкам
после
последнии
пособие
посполитои
пост
постановление
постоянного
потала
потапов
потепление
потсдамаи
поэдэи
поэзиин
поэмэ
поэмэнүүд
поэт
пп
пра
прав
права
правда
правительства
правительство
правлениин
прага
прадеш
практика
практикада
практики
президент
президента
президиумэи
премию
пресли
пресс
при
приложение
примо
принц
природа
про
проблемы
проверено
провинции
программа
программын
прогресс
продюсер
проект
проектирование
проекты
проектые
прозаик
прозоор
происхождение
прокариот
прокуратурын
пролетарии
пролетарлары
промышленность
пропорциональ
просвещение
проспект
протекторат
протестант
против
протон
протонои
проф
профессор
прохоров
процент
процентынь
процесс
процессор
процессые
прусси
пруссида
пруссиин
психологических
психология
птаун
птицы
птолемеи
публикация
публицист
пугаче
пулеме
пунктов
пусан
путеводитель
пути
путин
путч
путь
пушкин
пушкина
пушкинаи
пфальц
пхе
пциг
пче
пьер
пүрбэ
р
ра
рабиндранат
раввин
раг
рагаа
рагаи
рагдаһан
раглал
рагша
рагшад
рагшасии
рагшын
рагые
рад
рада
радио
радиус
ража
раз
развитие
развития
раздел
разин
раи
рал
ралга
ралдадаг
рам
рамаяна
рамдал
рамдалаи
рамдах
рамдаха
ран
ранда
ранууд
расположен
рассказууд
рассказуудаи
ратификации
рафаэль
рашал
ргу
рдахи
рдогшо
рдохи
рдугаар
рдугаарта
ре
реалис
революции
революция
регион
регионы
регулярная
ред
редактор
редактораар
редакцида
редакциеи
редакция
режиссе
результаты
реи
река
религии
религия
рембрандт
ренессанс
рес
респу
республика
республиканская
республике
республики
республикын
речь
риа
рика
рим
римдэ
римэи
ринг
рио
рихард
ричард
рлага
рладаг
рлажа
рлалга
рлана
рлах
рлаха
рлаһан
рлуулһан
рнх
рные
ро
роберт
ров
рог
рогои
рогто
рогтои
рогууд
рогые
рогынь
рогһоо
род
роджер
родо
родог
рождествын
рожо
роза
рои
рок
ролсоо
ролсоогоор
ролсоохо
ролцоогоор
роль
рома
ромада
роман
романаа
романаи
романда
романтизмын
романтик
романууд
ромшууд
ромын
рон
рондо
ронои
ронхи
роод
роор
росси
россида
россидо
россии
россиин
россин
россия
росстат
ростов
ростовои
ротшильд
рохи
рохо
рохон
рошель
роһон
рп
рскии
рсфср
рта
ртаи
рто
ртои
ру
руаль
руанда
рудольф
румын
румыни
румыниин
рус
русиин
русская
русские
русскии
русско
русского
русскои
русском
русь
руу
руугаа
руулагша
руулан
руулһан
рф
рхан
рхд
рхняя
рхожо
рхол
рхолои
рхон
рхохо
рыбы
рые
рын
рынь
рыцарь
рыцарьнууд
рюүкюү
рязань
рүү
рүүгээ
рһоо
с
са
саада
саадахи
саазаар
саазалба
саазалха
саазатаи
саана
саарал
саарһан
саарһанаи
саарһые
саахараи
сааша
саашаа
саашад
саашада
саашадаа
саашалбал
сабшажа
сабшаха
савл
саг
сага
сагаа
сагаалган
сагаалганаи
сагаан
сагаанаи
сагааниие
сагаар
сагааша
сагаашад
сагаашадаи
сагаи
сагдаа
сагдаагаи
сагсан
сагта
сагтаа
сагые
сагһаа
сад
садан
саи
саксен
саксон
саксони
саксониин
сала
салават
сальвадор
сам
самара
самари
самарскои
самарын
самгардяар
самоа
самои
самоле
сампин
самураи
самхаг
сан
санаа
санаар
санаи
санал
санамсаргүи
санбаар
сангаи
сангууд
санда
санкт
сансар
сансараи
сансарта
сансарын
санскрит
санта
сантиметр
сантьяго
санхүү
санхүүгаи
санхүүгэи
санын
саппоро
сар
сара
сараи
саратов
саратовои
сард
сардини
сарнаи
сарса
сарсаа
сарын
сасараг
сасаралаи
саскачеван
саудаи
саха
сахалин
сахалинаи
сахара
сахариг
сахарын
сахидаг
сахил
сахилга
сахилгаан
сахилгаанаи
сахим
сахиха
сахюур
сахюусан
сая
саяан
саяанаи
саятан
саяһаа
саһа
саһан
саһанаи
саһатаи
саһаханууд
сборник
сван
свердловскын
света
свободы
свои
связи
се
севернои
северо
сегодня
сеи
сек
секретарь
секретаряар
селена
село
сельджук
сельских
сельскохозяи
сельсоведаи
семе
семеи
семьи
семья
сен
сенат
сенегал
сент
сентябрь
сентября
сер
серб
серби
сербиин
сервер
сервере
сергеевич
сергеи
серебра
серебро
серия
сеул
сеута
сефевиин
си
сианиин
сиань
сибири
сибириин
сибирь
сибирьтэ
сигаретэ
сигизмунд
сиднеи
сикх
силези
сим
симон
симфони
симфониин
синаи
сингапур
сингапураи
сингапурта
синоги
синтетик
синьхаи
сион
сионист
сири
сириин
систем
система
системии
системы
системые
системын
системэ
системэдэ
системэнь
системэтэи
системээр
сити
сицили
ск
скандинав
скандинавиин
ская
скепсис
ские
скии
ских
ско
ского
ское
скои
ском
скотт
славян
слова
словаки
словари
словарь
словен
словени
слово
служба
службы
слэл
слэлии
слэн
см
смоленск
смоленскын
сносок
сны
со
собор
собрание
соведэи
совет
совета
советская
советскии
советского
советскои
современная
современник
современного
современныи
современных
согд
согласно
соглашения
согсо
согсолбори
согшин
содружества
сое
соел
соелои
создании
сои
сократ
солбон
солидарнощч
солилсоо
солир
соло
соломон
солонгос
солонгосои
солонгосоор
солонгосые
солонгосһоо
сомали
сомон
сомондо
соморлиг
сон
соната
сонгодог
сонгоол
сонин
сониндо
сонинои
сонинуудта
сонины
соносхо
соносхогд
сонсохо
сонхо
соо
соогоо
соогуур
соонь
соор
соответствующего
соохи
сооһоо
соронзон
сорт
сортын
сорын
сост
состав
составе
составляет
софи
софиин
софия
сохе
сохигдоһон
сохижо
сохилто
сохихо
социал
социализм
социализмын
социалис
социалист
социально
сочинении
союз
союза
спб
спектр
список
спорт
спорта
спортын
справка
справочник
справочнике
средние
средних
сс
сср
ссср
ссылка
ст
ставрополь
стадион
стал
стала
сталин
сталинаи
стамбул
стандарт
стандартын
станислав
станок
станци
статеи
статистик
статистика
статистики
статистикын
статистическая
статистическии
статистических
статус
статустаи
статьи
статья
статьянуудые
ства
ство
степнои
стерлитамак
стефан
стефания
стиль
столицеи
стр
страница
страны
стратегиин
структура
стюарт
су
суба
субарал
субарга
субъект
субъектам
субъектив
субъектов
суг
суглаан
суглаанаи
сугларжа
сугларһан
суглуулан
суглуулбари
суглуулбаринууд
суглуулга
суглуулжа
суглуулха
суглуулһан
сугтаа
судан
судар
судараи
судлалын
суи
сул
сула
сулеи
султан
суматра
сун
сунь
сурабая
суранзан
сурат
сурбалжалагша
сургууль
суринам
суртал
сурталаи
сурталые
суртахуунаи
суу
сууж
суурин
суурхаһан
суута
суутаи
существующих
суэцэи
сценари
сша
съезд
сы
сыктывкар
сыма
сын
сырдарья
сычуань
сьерра
сэ
сэбдэг
сэбэр
сэг
сэгтэ
сэгые
сэгынь
сэгэи
сэгэнь
сэгээр
сэдхэбэ
сэдхэгшэ
сэдхэдэг
сэдхэжэ
сэдхэнэ
сэдхэхэ
сэдхэһэн
сэдьхэгдэл
сэдьхэгшэ
сэдьхэл
сэдьхэлдэ
сэдьхэлтэи
сэдьхэлые
сэдьхэлэи
сэдьхэлээ
сэдэбынь
сэжэ
сэи
сэлмэг
сэлэнгын
сэлэнгэ
сэн
сэнгэ
сэнгэг
сэнтэи
сэнхир
сэнэ
сэнэг
сэнэгтэи
сэнэгэи
сэр
сэргээн
сэрэг
сэрэгтэ
сэрэгтэи
сэрэгшэд
сэрэгшэдэи
сэрэгые
сэрэгэи
сэрэгээ
сэрэгээр
сэрэгүүд
сэрэгүүдые
сэрэгүүдэи
сэсэг
сэсэглэжэ
сэсэглэн
сэсэгтэи
сэсэгэи
сэсэгүүд
сэсэгүүдэи
сэсэн
сэсэрлиг
сэсэрлигтэ
сэсэрлигэи
сэсэрлигүүд
сэтгүүл
сэтгүүлдэ
сэтгүүлнүүд
сэтгүүлнүүдтэ
сэтгүүлшэ
сэтгүүлэи
сэхэ
сээжын
сээжэ
сэһэн
сю
ся
сяопин
сіх
сүи
сүл
сүлжээ
сүлжээе
сүлэгдэһэн
сүлэи
сүлэлгын
сүлэлгэдэ
сүлһөө
сүлөө
сүлөөгэи
сүлөөе
сүлөөлбэ
сүлөөлгын
сүлөөлжэ
сүлөөлхэ
сүлөөлэгдэһэн
сүлөөлһэн
сүлөөнэи
сүлөөрэлгын
сүлөөтэ
сүлөөтэи
сүм
сүмые
сүмын
сүмэ
сүмэдэ
сүмэи
сүмэнүүд
сүмэтэи
сүн
сүрьеэ
сүрьеэгэи
сүсэгы
сүхбаатар
сүхэ
сүүдэи
сүүлии
сөрөг
сөөн
сөөрэм
т
та
таагүи
таалал
таамагладаг
таамаглал
тааралдана
таарамжатаи
таараһан
тааруу
тааруугаар
тааруулан
тааруулжа
таархаһан
таатаи
таба
табадахи
табадугаар
табан
табанаи
табиба
табигдаба
табигдажа
табигдаһан
табидаг
табижа
табилга
табин
табиха
табихые
табиһан
табиһанаи
таблица
табсан
табяа
табяад
таван
тавцан
таг
тагнуулаи
тагор
тадж
таджик
таджикистан
таджикистанаи
тажа
таи
таиланд
так
также
такое
тактикын
тал
тала
талаар
талаараа
талаарха
талаархи
талада
таладаа
таладань
таланууд
талань
талата
талатаи
талаһаа
талаһаань
талбаи
талбари
талмаи
талха
талхан
талханаи
талые
талыень
талын
талынхи
тама
тамга
тамгын
тамил
тамир
тамираи
тамхи
тамхиин
тамхинаи
тамчын
тамын
тан
танаи
танганьика
тангуд
танзани
танигдаһан
танижа
танилсаба
танин
танк
танка
танкые
танкын
тансаг
танхим
танхимаи
танхимда
танхимтаи
танхимһаа
тар
тарааба
тараажа
тараан
тарааха
тарааһан
тараг
тарагаи
тараһан
тарбаган
тарбагатаи
тарижа
таримал
тариһан
тарни
тархаба
тархадаг
тархажа
тархаи
тархалта
тархалтатаи
тархан
тархаха
тархаһан
тархи
тархиин
тархинь
таряа
таряалан
таряалангаи
таряалангын
таряалга
таряалдаг
таряалжа
таряалха
таряан
таряанаи
таряашадаи
таряашанаи
тасс
татаар
татабари
татабариие
татабариин
татагдаһан
татадаг
татажа
таталгын
таталсалаи
таталсаха
татан
татар
татарнууд
татарстан
татаха
татаһан
татгалзажа
татгалзаһан
татуур
тахал
тахалаи
тахир
ташкент
таһа
таһаг
таһагаи
таһалан
таһалга
таһаралтагүи
тбилиси
те
театр
театраи
театрнууд
театрта
театртаи
театрын
тевтон
тег
тега
тегеран
тегов
текст
теле
телевидени
телевидениин
телевидения
телевиз
тель
температура
температурада
температурань
температуратаи
температурые
температурын
тенант
тензор
теннесси
теннисист
теодор
теологиин
теории
теория
тер
теравада
терешкова
терминов
термины
терминүүдэи
термодинамика
территории
территория
тесла
техас
техасаи
техник
техника
техникумдэ
техникын
техникэ
технологи
технологии
технологиие
технологиин
теэд
ти
тибиин
тибэ
тигр
тии
тиигэбэшье
тиигэд
тиигэжэ
тиигээд
тиимэ
тиимэшье
тиимэһээ
тиимһээ
тиин
тиихэдэ
тиихэдэнь
тиихэдээ
тиишэ
тимор
типа
типография
титимэи
титэм
то
тобольскын
тобш
тобшо
тобшодо
тобшолһон
тобшоонои
тобшоор
товч
тоглодог
тогложо
тоглоон
тоглоонои
тоглохо
тоглоһон
тогоон
тогтнол
тогтнолоо
тогтобо
тогтоборигүи
тогтоборитои
тогтобортои
тогтодог
тогтожо
тогтол
тогтолсоо
тогтолсоое
тогтолсоонои
тогтолсоотои
тогтомол
тогтониһон
тогтоно
тогтонобо
тогтоножо
тогтонолои
тогтонолоо
тогтонолые
тогтообо
тогтоогдоһон
тогтоожо
тогтоол
тогтоолоор
тогтоолые
тогтоон
тогтоох
тогтоохо
тогтооһон
тогтосо
тогтосотои
тогтохо
тогтоһон
тогтоһонои
тогтууритаи
тод
тодо
тодоор
тодоруулжа
тодорхои
тодорһон
тое
тои
токе
токио
толбо
толгои
толи
толиин
толилогдоһон
толон
толстои
толь
том
томас
томах
томилдог
томилогдоһон
томилһон
томо
томодо
томонь
томоохон
томорһон
томохон
томск
томскын
томье
тон
тонга
тонн
тонно
тоног
тонои
тонтои
тоо
тоогои
тоогоор
тоогоороо
тоодо
тоое
тооке
тооллого
тооллогоор
тооллогын
тоолобол
тоологдодог
тоолодог
тооложо
тоолол
тоололго
тоололгоор
тоололгын
тоололои
тоололоор
тоолохо
тоон
тоондо
тоонои
тоонто
тоонууд
тооные
тоонь
тоонһоо
тоорил
тоособол
тоосогдодог
тоосогдожо
тоосогдоно
тоосогдохо
тоосодог
тоосожо
тоосоо
тоосоогои
тоосоогоор
тоосоолхо
тоосохогүи
тоосоһон
тоото
тоотои
тооцогддог
тооһобшо
тооһон
тооһонои
тооһоо
топо
тор
тора
торгон
торгонои
тороев
тосхон
тосхондо
тосхонои
тосхонууд
тотои
тохе
тохиолдол
тохиромжотои
тохирһон
тоходог
тохои
тоһо
тоһолиг
тоһон
тоһониинь
тоһонои
тоһоо
тоһые
тр
традиции
трактор
трамваи
транзистор
транскрипци
транспорт
транспортын
транссибириин
трахеи
три
триллион
тринидад
тритон
трои
троицын
троллеи
тропигои
труды
трын
ту
тува
туваар
туг
тугаи
тугдам
туи
тул
тула
тулаан
тулаанаи
тулаанда
тулада
тулалдаан
тулалдаанаи
тулалдаанда
тулалдажа
тулаһан
тулгуур
тулгуури
тулгуурилан
тулгуурилһан
тулд
тулда
тулын
тун
тунадас
тунгалаг
тунгус
тундра
тунис
тунхаг
тунхаглаба
тунхаглажа
тунхаглал
тунхаглалаи
тунхаглалда
тунхаглалые
тунхаглаһан
тур
тура
турантаи
туризм
туризмын
туристскии
турк
туркевич
туркмен
туркменистан
туркменистанаи
туркууд
турш
турша
туршаба
туршад
туршада
туршажа
туршалга
туршалгын
туршалта
туршалтын
туршаһан
тус
тусгаад
тусгаар
тусгаарлагдаһан
тусгаарлагша
тусгаарлажа
тусгаарлаха
тусгаарлаһан
тусгаи
тусгаһан
тусдаа
тусламж
тусламжтаи
тусхаи
тутам
тутамаи
тутамда
тутарга
тутмын
туужа
туужануудаи
туужын
туулаи
туулган
туули
туулиин
туулһан
туураи
туурбижа
туургануудые
туушатаи
тухаи
тушаа
тушаал
тушаалаа
тушаалааһаа
тушаалда
тушаалые
тушаалһаа
тушааһан
туяа
туяае
туһа
туһаар
туһалагша
туһаламжа
туһаламжаар
туһаламжатаи
туһалдаг
туһалжа
туһалха
туһатаи
ты
тыва
тын
тыс
тысяч
тысячи
тэ
тэбхэр
тэг
тэгшэ
тэгшэдхэл
тэгшэдхэлые
тэд
тэднии
тэдхэмжэ
тэды
тэдыгээр
тэдэ
тэдэгээр
тэдэгээрые
тэдэгээрынь
тэдэгээрэи
тэдэндэ
тэдэниие
тэдэнтэи
тэдэные
тэдэнь
тэдэнэи
тэдэнэр
тэдэнһээ
тэдээн
тэдээндэ
тэжээл
тэжээллиг
тэжээлтэн
тэжээлэи
тэжээлээр
тэи
тэлэжэ
тэмдэг
тэмдэглэбэ
тэмдэглэгдэдэг
тэмдэглэгдэжэ
тэмдэглэгдэн
тэмдэглэгдэнэ
тэмдэглэгдэһэн
тэмдэглэдэг
тэмдэглэжэ
тэмдэглэл
тэмдэглэн
тэмдэглэнэ
тэмдэглэсэн
тэмдэглэхэ
тэмдэглэһэн
тэмдэгтэ
тэмдэгтэи
тэмдэгые
тэмдэгынь
тэмдэгэи
тэмдэгүүд
тэмдэгүүдые
тэмсэгшэ
тэмсэжэ
тэмсэл
тэмсэлдэ
тэмсэлдэжэ
тэмсэлые
тэмсэлэи
тэмсэхэ
тэмсээн
тэмсээндэ
тэмсэһэн
тэмтэрүүл
тэмцэл
тэмээн
тэмүр
тэмүүжэн
тэн
тэнгис
тэнгисии
тэнгисиинь
тэнгистэ
тэнгистэи
тэнгисые
тэнгисэи
тэнгисээр
тэнгисүүд
тэнгисһээ
тэнгэри
тэнгэридэ
тэнгэриие
тэнгэриин
тэнгэринүүд
тэндэ
тэндэхи
тэндээ
тэндэһээ
тэнсэбэриин
тэнсэнэ
тэнсүү
тэнхимдэ
тэнхэлиг
тэнхэлигэи
тэнэи
тэр
тэрбум
тэрбээр
тэрбүм
тэргэ
тэргүүлдэг
тэргүүлэгшэ
тэргүүн
тэргүүтэи
тэригүүн
тэртээ
тэршэлэн
тэрэ
тэрэбээр
тэрэг
тэрэндэ
тэрэниие
тэрэнтэи
тэрэнь
тэрэнэи
тэрэнээ
тэрэнһээ
тэрэшье
тэрэшэлэн
тэрээн
тэрээндэ
тэрээнһээ
тэрээр
тэсбэртэи
тээ
тээбэри
тээбэриин
тээбэрилхэ
тээнь
тээрмэ
тээшэ
тээшээ
тээһээ
тэһэрэлгын
тюмениин
тюменскои
тюмень
тюринг
тюрк
тяньаньмэнь
тяньцзиниин
тяньцзинь
тү
түб
түбдэ
түби
түбида
түбидэ
түбиие
түбиин
түбинүүд
түбиһөө
түблэрдэг
түблэржэ
түблэрэн
түблэрһэн
түбтэ
түбтэи
түбшэн
түбшэндэ
түбшэнһээ
түбшэнһөө
түбые
түбынь
түбэгтэи
түбэд
түбэдтэ
түбэдые
түбэдэи
түбэдөөр
түбэи
түбүүд
түбүүдэи
түбһөө
түгэд
түгэлдэр
түгэн
түгэс
түгэсхэл
түгэсхэлдэ
түгэсхэһэн
түгэсэбэ
түгэсэжэ
түгэсһэн
түгэсөө
түгээмэл
түгөөмэл
түды
түдыгүи
түи
түлбэри
түлбэригүи
түлгэндэ
түлишэ
түлхин
түлхисэ
түлхэлсэхэ
түлэб
түлэблигөө
түлэбтэ
түлэбтэи
түлэбые
түлэбэи
түлэбэри
түлэдэг
түлэхэ
түлэһэн
түлөө
түлөөлдэг
түлөөлхэ
түлөөлэгшын
түлөөлэгшэ
түлөөлэгшэд
түлөөлэгшэдые
түлөөлэгшэдэи
түлөөлэл
түлөөлэлэи
түлөөхи
түмнии
түмэд
түмэдэи
түмэн
түмэндэ
түмэниие
түмэнэи
түмэр
түмэрлиг
түмэрлигэи
түмэртэи
түмэрэи
түмэрөөр
түмүнов
түнхэн
түнхэнэи
түр
түргэн
түргөөр
түримхэи
түрмэ
түрмэдэ
түрхэ
түрые
түрын
түрэ
түрэбэ
түрэг
түрэгэи
түрэдэ
түрэдэг
түрэжэ
түрэл
түрэлгэ
түрэлдэ
түрэлнүүд
түрэлтын
түрэлтэи
түрэлтэн
түрэлтэнэи
түрэлхи
түрэлхитэн
түрэлхитэндэ
түрэлхитэнэи
түрэлэи
түрэлөө
түрэлөөр
түрэн
түрэтэи
түрэхые
түрэхын
түрэхэ
түрэшэ
түрэһэн
түрэһэнэи
түрэһөө
түрүү
түрүүлдэг
түрүүлжэ
түрүүлхэ
түрүүлэгшын
түрүүлэгшэ
түрүүлэгшээр
түрүүлэн
түрүүн
түрүүндэ
түрүүшын
түрүүшынгээ
түрүүшынхие
түрүүшынхиеэ
түрүүшынь
түрүүшээр
түрөө
түсэб
түсэблэгдэжэ
түсэблэжэ
түсэлнүүд
түсэлые
түхеэрэмжын
түхеэрэмжэ
түхэл
түхэлтэи
түхэлэи
түхэреэн
түхөөрэмжые
түшэмэд
түшэмэлэи
түүбэри
түүгээр
түүндэ
түүнии
түүниие
түүниин
түүнтэи
түүнчлэн
түүншэлэн
түүные
түүнэи
түүнһээ
түүх
түүхии
түүхые
түүхын
түүхэ
түүхэдэ
түүхэдэхи
түүхэдээ
түүхэи
түүхэн
түүхэндэ
түүхэндээ
түүхэтэ
түүхэтэи
түүхэшэ
түүхэшэд
түүхэһээ
түһэтэи
түһөөтэи
төв
төвд
төгөлдөр
төлөөлөгчид
төмөр
төрии
төрлии
төрсөн
төрт
төрөл
төрөлд
төрөлх
төстэи
төхөөрөмжии
у
уатт
увертюрэ
уг
угаа
угаажа
угаи
уганда
угор
угсаа
угсаанаи
угсаатан
угсаатанаи
уд
удаа
удаагаа
удаагаи
удаагии
удаада
удаадахи
удаан
удаань
удаахи
удалгүи
удам
удамаи
удангүи
ударидаба
ударидагша
ударидагшад
ударидагшадаи
ударидагшань
ударидагшын
ударидадаг
ударидажа
ударидалга
ударидалгада
ударидалгые
ударидалгын
ударидан
ударидана
ударидаха
ударидаһан
ударидуулһан
удинская
удмурт
удмурти
удмуртууд
удха
удхаар
удхаараа
удхагүи
удхань
удхатаи
удхые
удхын
удэ
уже
узбегээр
узбек
узбекистан
узбекистанаи
узун
узуулбари
уи
уильям
уих
указ
указан
укаяли
украин
украина
украинада
украиншууд
украины
украинын
украі
ул
ула
улаан
улаанбаатар
улад
улаи
улам
уламаар
уламж
уламжалал
уламжалалаар
уламжалалаи
уламжалалта
уламжалалтаи
уламжалалые
уламжалан
уламжлалт
уламжлалта
уламһаа
улан
уларил
уларилаи
уларилда
уларилтаи
уларилынь
улас
уласаа
уласаар
уласад
уласаи
уласда
уласдаа
уласиинь
уласта
уластаи
уластахи
уласууд
уласуудаи
уласуудта
уласуудтаи
уласуудые
уласуудһаа
уласхоорондын
уласые
уласын
уласынь
уласһаа
улмаар
улмаас
улс
улсад
улсыг
улсын
улус
ультраягаан
ульянов
уляаһан
умаи
умара
умарада
умение
унаад
унаба
унагаажа
унаган
унадаг
унажа
уналга
уналта
унаха
унаһан
унаһанаи
унгар
унгараар
унгараи
унгарта
унгарын
ундан
университедэи
университет
университета
уншадаг
уншажа
уншалга
уншаха
уолт
уох
ур
ура
ураал
ураалаи
ураалда
ураалые
ураг
урагаи
урагша
урагшаа
урагшагүи
урадхал
урал
урала
уралаи
уралдаан
уралиг
уралигаар
уралигаи
уралигта
уралигые
уралын
уран
урасхал
урасхалаи
урасхалнууд
урасхалые
урасхалынь
урбалаи
урбалда
урбукан
урбуу
ургадаг
ургажа
ургалтые
ургамал
ургамалаар
ургамалаи
ургамалнууд
ургамалнуудаи
ургамалнуудые
ургамалтаи
ургамалые
ургамалынь
ургамалһаа
урган
ургана
ургаса
ургаха
ургаһан
ургуули
урд
урда
урдагал
урдада
урдадаг
урдажа
урдан
урдана
урданаи
урдандаа
урдань
урдаха
урдахи
урдаһаа
урдугаар
урдын
урид
урида
уридань
уридшалан
уридшалһан
уридын
урижа
урлаг
урлагаи
урлал
уроки
урса
урсгал
урсдаг
урт
урта
уртабтар
уругваи
уруу
уряалан
уряалжа
уряалһан
уряанхаи
ус
усадхагдаһан
усадхажа
усадхаха
усадхаһан
усадьба
усадьбы
усан
усны
успениин
усс
устав
устрои
усть
устөрөгчии
усьтэм
ута
утаараа
утаашань
утань
утаригаи
утасны
утатаи
утаһаар
утаһан
утаһанаи
утгатаи
уттар
уу
ууган
уугуул
уудаг
уудам
уужа
уул
уула
уулаар
уулада
ууланууд
уулануудаи
уулануудһаа
уулархаг
уулаһаа
уулгаха
уулзабари
уулзажа
уулзалтын
уулын
уур
уураг
уурагаи
уурагууд
уурал
ууралаи
уурин
уурхаи
уурын
уута
ууха
уушхан
уушханаи
уфа
ухаан
ухаанаи
ухаанда
ухааниие
ухаанта
ухаантаи
ухаантан
ухаанууд
ухаанша
ухааны
ухааные
ухаатаи
ухань
учан
уче
учебник
учебное
учение
учир
ушар
ушариинь
ушарта
ушартаи
ушаруулба
ушаруулжа
ушаруулха
ушаруулһан
ушарынь
ушарһаа
ушарһан
уэльс
уэльсын
уядаг
уялга
уялдаа
уялдаатаи
уян
уянга
уянгын
уһа
уһаар
уһагүи
уһада
уһажуулга
уһажуулгын
уһан
уһанаи
уһанда
уһаниинь
уһантүрэгшын
уһантүрэгшэ
уһанһаа
уһатаи
уһые
ф
фа
фаи
факто
факты
факультедтэ
факультет
фан
фантази
фарадеи
фасо
фашизм
фашис
фе
февралиин
февраля
федеральная
федеральнои
федеральныи
федеральных
федерации
федерациин
федерер
феникс
феодал
феодалаи
фердинанд
фермернүүд
фермын
фермэ
фз
физик
физика
физикын
физикэ
физикэдэ
филадельфи
филипп
филиппин
филиппина
филиппинын
филологии
философ
философи
философии
философиин
философия
философскии
фильм
фин
финики
финикиин
финланд
финландаи
финландта
финландын
финляндии
финн
финно
финэи
фле
флоренци
флоренциин
флорида
флот
флотои
фон
фонд
фондын
форд
форт
фортепиано
фортепианын
форум
фосфор
фото
фотографии
фотосинтезэи
фр
франк
франко
франкогои
франкфурт
франкфуртын
франкын
франсиско
франсуа
франц
франци
францида
франции
франциие
франциин
франциско
францитаи
францишууд
франциһаа
французскии
францын
франческо
фредерик
фреи
фрида
фридрих
фрои
фронт
фронтдо
фронтые
фронтын
фукуока
фундаментализм
функци
фунт
футболист
футбольныи
х
ха
хаа
хаагдаһан
хаагша
хаад
хаадаи
хаажа
хаалга
хаалгатаи
хаалта
хаалтанууд
хаалтатаи
хаалтын
хаан
хаана
хаанаар
хаанаи
хаанашье
хаанда
хааниие
хааниинь
хаант
хаанта
хаантаи
хааншалалаи
хааншалгын
хааны
хаанһаа
хаар
хааха
хаашуул
хаашуулаи
хааяа
хааһан
хаб
хаба
хабаадажа
хабаадалсаа
хабаадалсаба
хабаансхын
хабаатаи
хабар
хабараи
хабаровск
хабаровскын
хабдар
хабдараи
хабида
хабсагаи
хабсал
хабтагаи
хабтан
хабтар
хабул
хабшаахаи
хабшал
хаваи
хаг
хагарал
хагаралаи
хагас
хагүи
хад
хада
хадаа
хадаг
хадагаа
хадагалагдан
хадагалан
хадагалдаг
хадагалжа
хадагалха
хадагалхын
хадада
хадалиг
хаданууд
хадань
хадгалдаг
хадгалжа
хадын
хажуу
хажуугаар
хажуугаархи
хажуугаи
хажууда
хажуудань
хажуудахи
хазаи
хаи
хакаси
хаката
хал
халажа
халдабари
халдабариин
халдабарилдаг
халдабарита
халдабаритаи
халим
халимаг
халимагии
халимагт
халимагууд
халимагуудын
халимаи
халиско
халиф
халифта
халтаи
халуун
халуурха
халх
халха
халхын
хальмаг
хальмагаар
хальмагууд
хальмг
хам
хамаагүи
хамаарагдадаг
хамаарагдана
хамааралгүи
хамааралтаи
хамааран
хамаардаг
хамааржа
хамаарна
хамааруулан
хамаарха
хамаарһан
хамаатаи
хамаг
хамагаи
хамар
хамараи
хамардаг
хамарһан
хамба
хамгаалагша
хамгаалал
хамгаалалтые
хамгаалан
хамгаалга
хамгаалгын
хамгаалдаг
хамгаалжа
хамгаална
хамгаалха
хамгаалхын
хамгаалһан
хамгии
хамнигад
хамниган
хампааниин
хамт
хамта
хамтаар
хамтадаа
хамтаран
хамтаржа
хамтарсан
хамтарһан
хамтын
хамшагта
хан
хана
ханаан
ханаар
ханада
ханаи
ханатаи
хангадаг
хангажа
хангалтатаи
хангамжа
хангана
хангаха
хангахын
хангыль
ханда
хандагаи
хандажа
хандалга
хандалгатаи
хандан
хандаһан
ханза
ханзые
хани
ханиие
ханлигаи
ханта
ханты
ханын
хань
хаотическая
хар
хара
хараа
хараад
хараанаи
хараасгаи
хараата
харабал
харагдадаг
харагдажа
харагдана
харагдаха
хаража
хараи
харамсалтаи
харамтаи
харанхы
хараха
харахада
хараһан
харбаха
харгалзан
харгана
харгы
харгын
хари
хариин
харилсаа
харилсаае
харилсаан
харилсаанаи
харилсаанда
харилсаатаи
харилсадаг
харилсажа
харилсан
харилсаха
харилцан
харин
хариншье
харисаа
харисаае
харисангуи
харисангы
харисангын
харисуулан
харисуулхад
харисуулхада
харуул
харуулба
харуулдаг
харуулжа
харуулна
харуулха
харуулһан
харха
хархис
харша
харь
харьков
харьяалагдадаг
харьяалагдана
харьяалагдаха
харьяанда
харьяата
харьяатан
харюу
харюуда
харюусалга
харюусалгата
харюусалгатаи
харюусалгые
хас
хасаг
хасагууд
хасагуудаи
хасан
хасуури
хатааһан
хатан
хатанаи
хатараи
хатуу
хах
хахад
хахадта
хахадые
хахадынь
хахадһаа
хаш
хашаа
хашалган
хашуул
хаяа
хаягдаһан
хаяжа
хаям
хаяха
хаяһан
хаһаа
хаһалта
хаһаха
хгүи
хдхв
хе
хеи
хельсинки
хем
хи
хибчаг
хибчагууд
хибэс
хигаа
хид
хидаи
хидалга
хидэи
хизаар
хизаараи
хизааргүи
хизаарлагдаһан
хизаарта
хизаартаи
хизаарые
хизгаар
хизгааргүи
хизгаарлагдамал
хизгаарлаха
хизгаарта
хизгаартаи
хизгаарые
хии
хиид
хиидтэ
хиидые
хиидэи
хиие
хиижэ
хиин
хиитэи
хиихэ
хииһэн
хил
хилбар
хилбари
хилбархан
хилгааһан
хилии
хиллэдэг
хиллэнэ
хилмэ
хилые
хилын
хилэ
хилэдэ
хилэлдэг
хилэлжэ
хилэлнэ
хилэлэдэг
хилэн
хилэнсэ
хилэнь
хилээр
хилэһээ
химарал
химаралаи
хими
химиин
химик
химия
химэлтэи
хин
хинадаг
хинажа
хиналта
хиналтада
хиналтадаа
хиналтатаи
хиналтые
хиналтын
хинаха
хинган
хинди
хиндяар
хиндү
хинь
хиргис
хирээ
хит
хитад
хитадаар
хитадаи
хитадта
хитадтаи
хитадууд
хитадые
хитадһаа
хитан
хкн
хо
хобил
хобор
ховд
ходо
хододоо
хое
хоер
хоердохи
хоерои
хожом
хожомои
хожомоо
хожомынь
хожуу
хозяи
хои
хоккаи
хокусаи
хол
холбогдодог
холбогдол
холбогдолтои
холбогдон
холбогдоно
холбогдохо
холбогдоһон
холбогдуулан
холбодог
холбожо
холбон
холбоо
холбоогүи
холбоодо
холбоое
холбоон
холбоондо
холбоонои
холбоонууд
холбооны
холбоото
холбоотои
холбоотон
холбоотонои
холбоотонууд
холбооһон
холбооһотои
холбохо
холбоһон
холижо
холимог
холисо
холо
холокост
холст
холтоһон
холын
хомор
хомскии
хомского
хомсодол
хомсодолои
хон
хонгоодор
хонид
хонидои
хонин
хонконг
хонконгои
хоног
хоногои
хоногто
хоногтои
хоногһоо
хонхо
хонхор
хоншоор
хоншоортон
хоо
хоол
хооллодог
хоолои
хооронд
хоорондо
хоорондонь
хоорондоо
хоорондох
хоорондохи
хоорондохо
хоорондын
хооһон
хор
хорват
хорвати
хоре
хорезмын
хори
хориг
хоригдоһон
хоригложо
хориглоһон
хоридои
хориин
хорин
хоринои
хоринскии
хорихо
хориһон
хорлолго
хормои
хоро
хорон
хороо
хороожо
хороон
хороондо
хороондын
хороонои
хороохо
хорото
хоротои
хорто
хортои
хорхои
хос
хосе
хот
хото
хотод
хотодо
хотон
хотоноо
хотонууд
хотонуудаи
хотонуудта
хотонуудые
хотонуудһаа
хотонь
хотоор
хототои
хотоһоо
хотыг
хотые
хотын
хотынхи
хотынхид
хох
хохимои
хохирол
хоца
хошимин
хошон
хошуу
хошууе
хошуунаи
хоюулаа
хребе
хребет
христиани
христианинүүд
христианствын
христос
христосои
хром
ху
хуаи
хуан
хуба
хубаагдадаг
хубаагдажа
хубаагдана
хубаагдаха
хубаагдаһан
хубаадаг
хубаажа
хубаан
хубаана
хубаарилалта
хубааха
хубааһан
хубааһанаи
хубарагууд
хуби
хубида
хубиие
хубииень
хубиин
хубилаа
хубилагдажа
хубилаи
хубилалта
хубилалтада
хубилалтын
хубилбари
хубилбаринууд
хубилгаан
хубилгажа
хубилган
хубилгаха
хубилгаһан
хубилһан
хубинь
хубирха
хубирһан
хубисалаи
хубисхал
хубисхалаар
хубисхалаи
хубисхалда
хубисхалта
хубисхалша
хубисхалшад
хубисхалые
хубита
хубитаи
хубиһаа
хубсаһа
хубсаһан
хубсаһанаи
хубяар
хувии
хувь
хувьд
хугасаа
хугасаагаар
хугасаагаи
хугасаада
хугасаае
хугасаанаи
хугасаанда
хугасаань
хугасаатаи
худаи
худал
худалдаа
худалдаан
худалдаанаи
худалдаанда
худалдааны
худалдаашад
худалдажа
худалдан
художеств
хуи
хул
хулгаи
хулгана
хулһан
хумхаа
хун
хунтаи
хур
хура
хураан
хурал
хуралаар
хуралаи
хуралда
хуралдаан
хуралтаи
хуралые
хурамхаан
хурдадхал
хурдан
хурданаи
хурданиинь
хурдасатаи
хурдатаи
хурдацтаи
хурдые
хурим
хурон
хурса
хурсаар
хурьган
хуряангы
хутага
хутагтын
хути
хуу
хуудаһан
хуули
хуулида
хуулии
хуулиие
хуулиин
хуулинууд
хуулинуудаи
хуулинуудые
хуулинь
хуулита
хуулитаи
хуулиша
хуулишалаһан
хууль
хууляар
хуур
хуураи
хуурмаг
хуушан
хуушанаар
хуушанаи
хуушарһан
хуша
хушагдаһан
хушаһан
хушуу
хушуун
хушуунаи
хушуунь
хушуута
хушын
хуяг
хуягта
хуһан
хх
хые
хын
хэ
хэб
хэблэбэ
хэблэгдэжэ
хэблэгдэн
хэблэгдээ
хэблэгдэһэн
хэблэжэ
хэблэл
хэблэлдэ
хэблэлэи
хэблэлээр
хэблэн
хэблэхэ
хэблэһэн
хэблүүлбэ
хэблүүлжэ
хэблүүлээ
хэблүүлһэн
хэбтэ
хэбтэжэ
хэбэ
хэбэи
хэбэл
хэбэлэи
хэбээр
хэгдэдэг
хэгдэжэ
хэгдэһэн
хэгэи
хэгээд
хэд
хэдии
хэдхэн
хэды
хэдыгээр
хэдышье
хэдэ
хэдэг
хэдэн
хэдэхэн
хэжэ
хэжэг
хэжэгэи
хэжэнгын
хэжэнгэ
хэзээ
хэзээшье
хэи
хэл
хэлбэл
хэлбэреэр
хэлбэри
хэлбэридэ
хэлбэриие
хэлбэриин
хэлбэринь
хэлбэринүүд
хэлбэритэ
хэлбэритэи
хэлбэритэн
хэлбэрээр
хэлии
хэлнии
хэлсээн
хэлсээндэ
хэлсээнэи
хэлтэгы
хэлтэс
хэлхээнэи
хэлые
хэлэ
хэлэбэл
хэлэгдэдэг
хэлэдэг
хэлэеэ
хэлэжэ
хэлэлгын
хэлэлгэ
хэлэлсэдэг
хэлэлсээр
хэлэн
хэлэндэ
хэлэниие
хэлэниинь
хэлэнэ
хэлэнэи
хэлэнээ
хэлэнүүд
хэлэнүүдтэ
хэлэнүүдтэи
хэлэнүүдэи
хэлэнүүдээр
хэлэнүүдһээ
хэлэнһээ
хэлэтэ
хэлэтэи
хэлэтэн
хэлэхэ
хэлээ
хэлээр
хэлээрээ
хэлэһэн
хэлэһэнээр
хэм
хэмжэгдэхүүн
хэмжэдэг
хэмжэжэ
хэмжэхэ
хэмжээ
хэмжээг
хэмжээгээр
хэмжээгээрээ
хэмжээгүи
хэмжээе
хэмжээн
хэмжээнд
хэмжээндэ
хэмжээнии
хэмжээнь
хэмжээнэи
хэмжээнһээ
хэмжээтэи
хэмжүүр
хэмэл
хэмээн
хэмээх
хэмээхэ
хэн
хэнань
хэнтэи
хэншье
хэнэ
хэнэи
хэр
хэрбээ
хэргэм
хэрхэн
хэрэб
хэрэг
хэрэггүи
хэрэгжэжэ
хэрэгжүүлдэг
хэрэгжүүлжэ
хэрэгжүүлхэ
хэрэгжүүлһэн
хэрэглэбэ
хэрэглэгддэг
хэрэглэгдэдэг
хэрэглэгдэжэ
хэрэглэгдэнэ
хэрэглэгдэхэ
хэрэглэгдэһэн
хэрэглэдэг
хэрэглэжэ
хэрэглэлгэ
хэрэглэн
хэрэглэнэ
хэрэглэхэ
хэрэглээ
хэрэглээндэ
хэрэглээнэи
хэрэглэһэн
хэрэглэһэнээр
хэрэгсэл
хэрэгсэлые
хэрэгсэлэи
хэрэгсээ
хэрэгсээе
хэрэгсээндэ
хэрэгсээтэ
хэрэгтэ
хэрэгтэи
хэрэгые
хэрэгэи
хэрэгээр
хэрэгүүдые
хэрэгүүдэи
хэрэи
хэрэм
хэрэмые
хэрэмэи
хэрэн
хэрээ
хэрээгэи
хэрээгээр
хэрээе
хэрээндэ
хэрээнэи
хэрээр
хэрээснэг
хэрээһэн
хэрээһэнэи
хэрээһэтэд
хэрээһэтэнэи
хэсэг
хэсэгт
хэсэгтэ
хэсүү
хэт
хэтын
хэтэ
хэтэрхэи
хэхые
хэхэ
хэхэд
хэхэдэ
хэхээр
хэшээдэг
хэшээл
хээ
хээд
хээр
хээрын
хээрэ
хээтэи
хэһэг
хэһэгтэ
хэһэгтэи
хэһэгтэнь
хэһэгтээ
хэһэгшэлэн
хэһэгые
хэһэгыень
хэһэгынь
хэһэгэи
хэһэгээр
хэһэгээрээ
хэһэгүүд
хэһэгүүдтэ
хэһэгүүдые
хэһэгһээ
хэһэн
хэһэнэи
хэһээр
хяагта
хяагтын
хяад
хязгаарыг
хямда
хятад
хятадын
хү
хүбсэгэл
хүбшын
хүбшэтэн
хүбэжэ
хүбэн
хүбэнгэи
хүбүүд
хүбүүн
хүбүүниинь
хүбүүнэи
хүбүүтэи
хүбөө
хүбөөндэ
хүгжэбэ
хүгжэдэг
хүгжэжэ
хүгжэл
хүгжэлдэ
хүгжэлтын
хүгжэлтэ
хүгжэлтэдэ
хүгжэлтэи
хүгжэлые
хүгжэлэи
хүгжэм
хүгжэмдэ
хүгжэмые
хүгжэмын
хүгжэмынь
хүгжэмэи
хүгжэн
хүгжэхэ
хүгжэһэн
хүгжүүлжэ
хүгжүүлхэ
хүгжүүлһэн
хүгжөө
хүгжөөлгын
хүгжөөхэ
хүгжөөһэн
хүгшэн
хүдэлгэхэ
хүдэлгөөн
хүдэлгөөнэи
хүдэлдэг
хүдэлжэ
хүдэлмэри
хүдэлмэридэ
хүдэлмэриие
хүдэлмэриин
хүдэлмэрилэгшэ
хүдэлмэришэн
хүдэлнэ
хүдэлхэ
хүдэлэлгэ
хүдэлүүр
хүдэлһэн
хүдэлөө
хүдэлөөн
хүдэлөөндэ
хүдэлөөниие
хүдэлөөниинь
хүдэлөөнтэи
хүдэлөөные
хүдэлөөнэи
хүдэр
хүдөө
хүдөөгэи
хүи
хүл
хүлбүмбэгэи
хүлгэн
хүлгэнэи
хүлеэжэ
хүлеэн
хүлеэтэи
хүлеэһэн
хүлтэи
хүлтэн
хүлтэнэи
хүлэг
хүлэгөөр
хүлэмжын
хүлээжэ
хүлээн
хүлһэнэи
хүмүүн
хүмүүндэ
хүмүүниие
хүмүүнлиг
хүмүүнлигэи
хүмүүнэи
хүмүүс
хүмүүсии
хүн
хүнгэн
хүнды
хүндыдэ
хүндые
хүндын
хүндытэи
хүндэ
хүндэдхэн
хүндэлжэ
хүндэлэлэи
хүндэлэн
хүндэрэл
хүндэтэ
хүндэтэи
хүнии
хүниие
хүниин
хүниинь
хүннү
хүннүгэи
хүнтэи
хүнхэр
хүные
хүнэи
хүнээ
хүнэһэн
хүнэһэндэ
хүнэһэндээ
хүнэһэнэи
хүнүүд
хүнүүдтэ
хүнүүдые
хүнүүдэи
хүнһөө
хүрбэ
хүргэбэ
хүргэдэг
хүргэжэ
хүргэнэ
хүргэхэ
хүргэһэн
хүрдэ
хүреэ
хүреэлжэ
хүреэлэгдэнэ
хүреэлэгдэһэн
хүреэлэн
хүреэлэндэ
хүреэлэнэи
хүреэн
хүреэндэ
хүреэнэи
хүрин
хүртэбэ
хүртэгшэ
хүртэжэ
хүртэл
хүртэр
хүртэхэ
хүртэһэн
хүршэ
хүрьһэн
хүрьһэнэи
хүрэбэ
хүрэг
хүрэдэг
хүрэжэ
хүрэл
хүрэн
хүрэнгын
хүрэнгэ
хүрэнгэтэ
хүрэнгэтэнэи
хүрэнэ
хүрэтэр
хүрэтэрхи
хүрэтэрээ
хүрэхэ
хүрэхэгүи
хүрээ
хүрээгээ
хүрээгүи
хүрээлэгдсэн
хүрээлэгдэнэ
хүрээлэгдэһэн
хүрээлэн
хүрээнд
хүрээндэ
хүрээнэи
хүрэһэн
хүрөө
хүсые
хүсэ
хүсэд
хүсэдөөр
хүсэеэ
хүсэжэ
хүсэл
хүсэлдэ
хүсэлтэи
хүсэлые
хүсэлэи
хүсэн
хүсэндэ
хүсэндөө
хүсэниие
хүсэниинь
хүсэнтэи
хүсэнэи
хүсэнүүд
хүсэрхэг
хүсэтэи
хүсээр
хүсэһэн
хүсөө
хүсөөр
хүтэлбэри
хүтэлбэриин
хүтэлбэрилэгшэ
хүхэ
хүхэнуур
хүхэр
хүхэрэи
хүхэтэн
хүч
хүчии
хүчилтөрөгчии
хүчин
хүчнии
хүчтэи
хүшэл
хүшэлдэ
хүшэллиг
хүшэлтүрэгшые
хүшэлтүрэгшын
хүшэлтүрэгшэ
хүшэлтүрэгшэтэи
хүшэлэи
хүшэр
хүшэрхэг
хүшөө
хүшөөнүүд
хүү
хүүгэд
хүүгэдтэ
хүүгэдтэи
хүүгэдые
хүүгэдэи
хүүр
хүүргын
хүүргэ
хүүхдии
хүүхэд
хүүхэлдэи
хөвсгөл
хөгжиж
хөгжмии
хөдөлгөөн
хөнгөн
хөө
хөөн
хөөрхэ
хөөрэдэг
хөөрөөн
ц
цаа
цаг
цагаан
цагадаи
цаи
цао
цари
цариин
царство
царь
цахилгаан
цахим
цева
цезариин
цезарь
целлюлозо
цельсиин
цемент
цементын
центр
центров
церковиин
церковь
церковьнууд
цеся
цех
цзюнь
ци
цианаи
цизлинг
цин
цинь
ципа
цитирования
цол
цонх
цонхны
цоя
цы
цыганууд
цыдендамбаев
цырен
цэргии
цэргүүд
цэрэг
цэрэн
цянь
цөл
ч
чавааш
чад
чадаагүи
чаи
чан
чанар
чанша
чаншын
чанъань
чао
чарльз
части
часть
че
человек
человека
челябинск
челябинскын
чем
ченнаи
черемша
черемшаана
черногори
черского
чех
чехи
чехиин
чехов
чехословаки
чехословакиин
чечня
чжао
чжоу
чжу
чжэн
чии
чикаго
чили
чилиин
чимит
чин
чингис
чингисэи
числе
численности
численность
число
читтагонг
чои
чон
чосон
чосонои
что
чу
чукоткын
чусовои
чухал
чучхе
чэнду
чөлөө
чөлөөт
чөлөөтэи
ш
ша
шаа
шаазан
шаазанаи
шаазгаи
шаардаба
шаардажа
шаардалга
шаардалгатаи
шаардлагатаи
шабар
шаби
шабинарынь
шабхадаһата
шагнагданхаи
шагнагдаһан
шагнал
шагналда
шагналтан
шад
шадаа
шадаагүи
шадаба
шадабари
шадабариие
шадабариин
шадабаринь
шадабаритаи
шададаг
шададаггүи
шадаи
шадал
шадалаа
шадалаи
шадалгүи
шадалтаи
шадана
шадар
шадараи
шадаха
шадахагүи
шадаһан
шадаһангүи
шажан
шажанаи
шажангүи
шажанда
шажаниие
шажаниинь
шажанта
шажантад
шажантаи
шажантан
шажантанаи
шажантанууд
шажантануудаи
шажанууд
шажануудаи
шажаные
шаи
шала
шалан
шалгалта
шалгуур
шалтагаалан
шалтагаалжа
шалтагаална
шалтагаан
шалтагаанаар
шалтагаанаи
шалтагааниие
шалтагааниинь
шалхы
шан
шанага
шанар
шанараа
шанараараа
шанараи
шанартаи
шанарые
шанарынь
шанга
шангаи
шангууд
шангын
шанда
шанууд
шанхаи
шань
шаньдун
шар
шара
шараи
шараха
шарга
шарил
шарль
шармаи
шарха
шарын
шата
шатаажа
шатада
шатадаг
шатажа
шатанда
шатанууд
шатар
шатараи
шатаха
шатын
шах
шахажа
шахалтаар
шахам
шахуу
шашин
шашны
швед
шведээр
швеи
швеци
швециин
швецитэи
ше
шевченкын
шеи
шекелиие
шекелиин
шекель
шекспир
шекспира
шекспирэи
шенгенэи
шести
ши
шива
шиг
шигэмүни
шигүү
шии
шииг
шииглиг
шиидбэри
шиидбэрилхэ
шиидхэбэри
шиидэжэ
шиин
шиит
шил
шилкэ
шилла
шиллагаи
шилэн
шин
шингэн
шинж
шинжлэх
шинэ
шинэчилсэн
шинэчлэгдсэн
шинээр
ширильды
ширүүн
шихуанди
школа
шо
шог
шои
шолмос
шолон
шоно
шоо
шопен
шорои
шорон
шорондо
шороо
шороон
шотланд
шотландын
шохи
шохои
шре
шри
штаб
шу
шуберт
шубертын
шубуу
шубууд
шубуудаи
шубуудынь
шубуун
шубуунаи
шугам
шугамаар
шугамаи
шугамые
шудалаа
шудалааша
шудалаашад
шудалал
шудалалаи
шудалга
шудалгаа
шудалгаанаи
шудалгын
шудалдаг
шудалжа
шудалха
шудалһан
шударга
шудхадаг
шудхажа
шудхал
шудхалнууд
шудхамал
шудхан
шудхана
шудхаха
шулуу
шулуугаар
шулуулиг
шулуун
шулуунаи
шулуунууд
шумааг
шумер
шумерэи
шумуул
шумуулаи
шумуулнууд
шумуулуудаи
шунал
шууд
шуудаи
шууданаи
шуул
шуурга
шухаг
шухал
шухала
шухам
шухамдаа
шуһа
шуһаар
шуһан
шуһанаи
шуһата
шуһатаи
шуһые
шье
шэ
шэбэр
шэбэртэ
шэбэрэи
шэг
шэглэл
шэглэлдэ
шэглэлтэи
шэглэлэи
шэглэлээр
шэглэн
шэглэһэн
шэгнүүр
шэгнүүртэи
шэгнүүрынь
шэгнүүрэи
шэгүү
шэдитэ
шэл
шэлбэһэтэ
шэлдэг
шэлжэбэ
шэлжэжэ
шэлжэлтын
шэлжэлтэ
шэлжэлтэтэи
шэлжэн
шэлжэхэ
шэлжэһэн
шэлжүүлжэ
шэлжүүлэн
шэлжүүлһэн
шэлын
шэлэ
шэлэгдэмэл
шэлэдэг
шэлэи
шэмэ
шэмэг
шэмэглэл
шэмэглэлэи
шэмэгшэ
шэмэтэ
шэмээшэгүүд
шэмээшэгүүдэи
шэнги
шэнгэн
шэнжые
шэнжэ
шэнжэлгын
шэнжэлгэ
шэнжэлгээ
шэнжэлгээнэи
шэнжэлдэг
шэнжэлхэ
шэнжэлэгшэ
шэнжэлэл
шэнжэлэлгын
шэнжэлэлгэ
шэнжэлэлэи
шэнжэлэн
шэнжэнь
шэнжэнүүд
шэнжэтэи
шэнжээр
шэнын
шэньси
шэнэ
шэнэжэлгээ
шэнэхэн
шэнэшлэл
шэнэшлэлнүүд
шэнэшлэлэи
шэнэшлэн
шэнэшлэхэ
шэнээн
шэнээр
шэнэһэн
шэрхэг
шэрэ
шэрээ
шэрээндэ
шэрээниие
шэрээнэи
шэрээнээ
шэрээнһээ
шэрээтэ
шэрүүн
шэтын
шэтэ
шэхэн
шэхэр
шэхэрлиг
шэхэрэи
шүбгэ
шүдхэр
шүдэн
шүдэтэи
шүлтын
шүлэг
шүлэгшэ
шүлэгынь
шүлэгэи
шүлэгүүд
шүлэгүүдые
шүлэгүүдынь
шүлэгүүдэи
шүлэгөөр
шүтэдэг
шүтэжэ
шүтэлгые
шүтэлгын
шүтэлгэ
шүтэлгэтэи
шүтэхэ
шүтээн
шүү
шүүд
шүүдые
шүүдэи
шүүмжэлжэ
шүүмжэлэгшэ
шүүмжэлэлтэи
шүүхын
шүүхэ
шүүһэн
ые
ыень
ын
ь
э
эб
эбдэржэ
эбдэрэн
эбдэрһэн
эбилгын
эбилгэ
эброопын
эбсэл
эбэр
эбэрлиг
эбэртэи
эв
эвенк
эвенкил
эверест
эволюци
эволюции
эволюциин
эвэнкеэр
эгеи
эгсэ
эгшэг
эгэл
эгэшэ
эгээ
эгээл
эгээн
эд
эдвард
эдвардын
эдгээр
эдгээрһээ
эдеэ
эдеэд
эдеэн
эдеэнэи
эдеэшүүлһэн
эди
эдибхитэи
эдибхэтэи
эдидэг
эдижэ
эдии
эдинэ
эдир
эдирне
эдисон
эдихэ
эдлэл
эдлэхэ
эдмунд
эдо
эдуард
эдые
эдэ
эдэбхи
эдэбхитэи
эдэбхитэн
эдэгээр
эдэгээрынь
эдэгээрһээ
эдэи
эдэнь
эдэнэи
эдэһээ
эдһээ
эе
эергэ
эжи
эжэл
эжэлэи
эзлэн
эзхахб
эзэдэи
эзэлбэ
эзэлдэг
эзэлж
эзэлжэ
эзэлнэ
эзэлхэ
эзэлхүүниинь
эзэлхүүнэи
эзэлэгдэжэ
эзэлэгдэһэн
эзэлэн
эзэлээ
эзэлээд
эзэлһэн
эзэлһэнэи
эзэлһээр
эзэмдэбэ
эзэмдэжэ
эзэмдэлгын
эзэмдэлгэ
эзэмдэн
эзэмдэхэ
эзэмдэһэн
эзэмшил
эзэмшэжэ
эзэмшэл
эзэмшэлдэ
эзэмшэлэи
эзэмшэхэ
эзэмшэһэн
эзэн
эзэнт
эзэнтэ
эзэнэи
эзэрхэг
эи
эквадор
экватор
экватораи
экваторын
экз
экологи
экологиин
экономика
экономикын
экономические
экс
экспедици
экспорт
экспортын
эл
элбэг
элбэгтэи
элвис
элдэб
электрон
электроникын
электронная
электронои
электронууд
элемент
элементнүүд
элементнүүдые
элементнүүдэи
элементов
элементые
элементын
элементүүд
элжэгэн
эли
элидхэл
элидхэһэн
элирдэг
элиржэ
элирнэ
элирхылдэг
элирхылжэ
элирхылхэ
элирхэи
элирэл
элирүүлдэг
элирүүлһэн
элирһэн
элитэ
элшэ
элшэн
эль
эльба
эльбэ
эльгэн
эльгэнэи
эльгээбэ
эльгээжэ
эльгээһэн
элэгдэл
элүү
элүүр
элүүрые
элһэн
элһэтэ
эм
эмгэнэлтэ
эмиль
эмир
эмиртэ
эмнэлгын
эмнэлгэ
эмнэлгэдэ
эмхи
эмхидхэһэн
эмхэ
эмшэ
эмшэлхэ
эмшэн
эмые
эмэ
эмэгтэи
эмэи
эн
энгельс
энгидэи
энгын
энгэи
энди
эндэ
эндэхи
эндэһээ
энеи
энерги
энергиие
энергиин
энхын
энхэ
энхэтаи
энциклопедии
энциклопедическии
энциклопедия
энэ
энэдхэг
энэдхэгтэ
энэдхэгшүүд
энэдхэгые
энэдхэгэи
энэдхэгһээ
энэи
энэл
энэниие
энэнь
энэнэи
энэнһээ
энэрэл
энэрэнгүи
энэтэи
энэхүү
энээниие
энээнэи
энээнһээ
энэһээ
эпос
эпоса
эрбээхэи
эрвин
эргын
эргэд
эргэдэг
эргэдэи
эргэжэ
эргэн
эргэншэл
эргэншэлэи
эргэнэ
эргэнэи
эргэхэ
эрдэм
эрдэмтэд
эрдэмтэдэи
эрдэмтэи
эрдэмтэн
эрдэмтэнэи
эрдэмэи
эрдэни
эрдэниин
эрдэнэт
эрдэс
эреэн
эрзя
эри
эрид
эриин
эрилтэ
эрин
эринэи
эритреи
эрмэлзэдэг
эрмэлзэлгэ
эрнани
эрнст
эрс
эртнии
эртын
эртэ
эртэнэи
эртэнһээ
эртэһээ
эрх
эрхи
эрхии
эрхиин
эрхилдэг
эрхим
эрхые
эрхын
эрхэ
эрхэгүи
эрхэдэ
эрхэлдэг
эрхэлжэ
эрхэлхэ
эрхэлэн
эрхэндэ
эрхэнь
эрхэтэ
эрхэтэд
эрхэтэдые
эрхэтэдэи
эрхэтэи
эрхэтэн
эрхэтэндэ
эрхэтэнтэи
эрхэтэнэи
эрхэтэнүүд
эрхэтэнүүдэи
эрхээ
эрхээр
эрхүү
эрхүүгэи
эрчим
эрчис
эршэм
эршэмжэһэн
эршэмтэи
эрын
эрье
эрьегээр
эрьедэ
эрьедэхи
эрьежэ
эрьелтын
эрьелтэ
эрьелтэдэ
эрьен
эрьесэ
эрьетэи
эрьехэ
эрьеын
эрьеэ
эрьеэр
эрьеһээ
эрэ
эрэг
эрэгт
эрэгтэи
эрэгшэниинь
эрэлдэ
эрэлхэг
эрэс
эрүүл
эс
эсбе
эсватини
эсвэл
эснүүд
эсперанто
эсрэг
эссе
эстони
эстэ
эстэи
эсые
эсэ
эсэбэл
эсэгын
эсэгынгээ
эсэгэ
эсэгэи
эсэгэнь
эсэи
эсэн
эсэргээр
эсэргүү
эсэргүүсэдэг
эсэргүүсэжэ
эсэргүүсэл
эсэргүүсэлтэи
эсэргүүсэлые
эсэргүүсэлэи
эсэргүүсэн
эсэргүүсэхэ
эсэргүүсэһэн
эсэрэг
эсэс
эсэстэ
эсэстэнь
эсэстээ
эсэсэи
эсэсээр
эсэсһээ
эсүүд
эсүүдэи
эсһээ
этигэдэг
этигэжэ
этигэл
этигэлэи
этигэхэ
этиоп
это
этом
этот
эх
эхеэр
эхи
эхил
эхилбэ
эхилдэг
эхилжэ
эхилжээ
эхилнэ
эхилхэ
эхилхэдэ
эхилхэдээ
эхилэл
эхилэлые
эхилэн
эхилэнхэи
эхилээ
эхилээд
эхилүүлһэн
эхилһэн
эхилһэниинь
эхилһэнээр
эхилһэнһээ
эхин
эхиндэ
эхиндээ
эхинэи
эхинһээ
эхирэд
эхитэи
эхнии
эхын
эхэ
эхэлжээ
эхэлсэн
эхэлһэн
эхэнь
эхэнэи
эхэнэр
эхэнэрнүүд
эхэнэрнүүдэи
эхэнэрэи
эхэтэи
эхээр
эхэһээ
эшэ
ээ
ээд
ээж
ээзгэи
ээр
ээс
эһэл
эһэһэн
ю
юань
юар
югослави
южно
южныи
юкон
юлдэ
юлии
юм
юмуу
юн
юнеско
юньнань
юрии
юртэмсые
юртэмсын
юртэмсэ
юртэмсэдэ
юрын
юрынхэлэгшэ
юрэ
юрэдын
юрэдөө
юрэдөөл
юрэнхы
юрэнхыдэнь
юрэнхыдөө
юрэнхылгэгшын
юрэнхылэгшые
юрэнхылэгшын
юрэнхылэгшэ
юрэнхылэгшэнь
юрэнхылэгшээр
юрэнь
юсуф
юта
юу
юуб
юумые
юумэ
юумэн
юумэнэи
юумэнүүд
юумэнүүдые
юумэнүүдэи
юумээр
юунаи
юундэб
юушье
юэ
юһэдэхи
юһэдүгээр
юһэн
я
яагаад
яад
яажа
яам
яаман
яаманаи
яаманда
яар
яармаг
ябаа
ябаад
ябаандаа
ябаган
ябагдадаг
ябагдажа
ябагдаха
ябагдаһан
ябагша
ябадаг
ябадал
ябадалаар
ябадалаи
ябадалда
ябадалнууд
ябадалые
ябадалынь
ябажа
ябана
ябаса
ябасад
ябасада
ябасадаа
ябасуу
ябасые
ябаха
ябахадаа
ябахые
ябаһаар
ябаһан
яблоко
ябуулаа
ябуулагша
ябуулга
ябуулдаг
ябуулжа
ябуулха
ябуулһан
ява
явдал
является
яг
ягаан
ягшаа
ягшаагаи
яд
ядуу
язык
языка
языках
языке
языки
языков
язьвин
яка
якоб
яков
якуб
якутия
яла
ялагар
ялажа
ялалт
ялгаатаи
ялые
ямаан
ямагта
ямаи
ямал
ямар
ямарбаа
ямаршье
ямато
ямусукро
ян
января
янгон
янгонои
янз
янза
янзаар
янзатаи
янзын
янка
янь
яп
япон
япондо
японии
япониие
япония
японои
японоор
японская
японтои
японшууд
японы
японһоо
яридаг
ярилсадаг
ярославль
ярууна
яруунын
ярьдаг
яряа
яряанаи
ясная
яффа
яхад
яһа
яһаар
яһан
яһанаи
яһанда
яһаниинь
яһанууд
яһанһаа
яһата
яһатаи
яһатан
яһатанаи
яһатанууд
яһые
і
інформаціі
ү
үб
үбгэ
үбгэн
үбдэжэ
үбдэхэ
үбшэн
үбшэндэ
үбшэниие
үбшэные
үбшэнэи
үбшэнүүдэи
үбшэнһөө
үбшэнөөр
үбые
үбэл
үбэлдөө
үбэлтэи
үбэлэи
үбэр
үбэрмэсэ
үбһэ
үбһэн
үг
үги
үгии
үглөө
үглөөгүүр
үгсии
үгы
үгые
үгын
үгытэи
үгышье
үгэ
үгэбэ
үгэгдэһэн
үгэдэ
үгэдэг
үгэдэи
үгэжэ
үгэнь
үгэнэ
үгэнүүд
үгэнүүдтэ
үгэнүүдые
үгэтэи
үгэхые
үгэхэ
үгээр
үгэһэн
үгэһэнэи
үгэһэнөөр
үгэһээ
үгэһөө
үгүүлбэри
үгүүлбэриие
үгүүлдэг
үгүүлэл
үгүүлэлгэ
үгүүлһэн
үгүүлһэнээр
үгөө
үдхэн
үдын
үдэ
үдэдэ
үдэжэ
үдэлтэ
үдэр
үдэрдэ
үдэрнүүд
үдэрнүүдтэ
үдэртэ
үдэрые
үдэрэи
үдэрүүд
үдэрһээ
үдэрһөө
үдэшэ
үдэһэн
үе
үед
үедэ
үедэнь
үедэшье
үедээ
үедөө
үеии
үелхэ
үень
үенүүд
үенүүдтэ
үер
үетэ
үетэи
үеые
үеын
үеэ
үеэр
үеэс
үеээр
үеһэ
үеһээ
үеһөө
үздэг
үзэбэ
үзэбэл
үзэг
үзэгдэдэг
үзэгдэл
үзэгдэлнүүдые
үзэгдэлые
үзэгдэлэи
үзэгдэнэ
үзэгдэхэ
үзэглэл
үзэглэлэи
үзэгтэи
үзэгые
үзэгынь
үзэгэи
үзэгээр
үзэгүүд
үзэгүүдые
үзэгөөр
үзэдэг
үзэж
үзэжэ
үзэл
үзэлдэ
үзэлтэи
үзэлтэн
үзэлые
үзэлэи
үзэм
үзэмжэ
үзэн
үзэнэ
үзэсхэлэн
үзэсхэлэнтэ
үзэхэ
үзэхэд
үзэхэдэ
үзэхэнь
үзэһэн
үзүүлбэ
үзүүлдэг
үзүүлжэ
үзүүлнэ
үзүүлхэ
үзүүлэлтэ
үзүүлһэн
үзүүр
үзүүртэ
үзүүртэхи
үзөө
үи
үл
үлгы
үлгын
үлдэдэг
үлдэжэ
үлдэх
үлдээһэн
үлдэһэн
үлзытын
үлзытэ
үльгэр
үльгэршэн
үльгэрэи
үльдэргэ
үлэ
үлэбэ
үлэг
үлэгдэл
үлэгдэлнүүдые
үлэжэ
үлэмжэ
үлэсхэлэн
үлэхэ
үлэһэн
үлүү
үлүүдэл
үлүүтэи
үлөө
үмдэжэ
үмсын
үмсэ
үмэнхи
үмэнэ
үмэнэдэ
үмэнэнь
үмэнэхи
үмэнэхын
үмэнэһөө
үнб
үнгые
үнгын
үнгэ
үнгэнь
үнгэргэдэг
үнгэрдэг
үнгэржэ
үнгэрхэ
үнгэрһэн
үнгэрөө
үнгэрөөд
үнгэтэ
үнгэтэи
үнгөөр
үндсэн
үндэ
үндэгэ
үндэгэн
үндэр
үндэрлиг
үндэрлигэи
үндэртэ
үндэртэи
үндэрые
үндэрынь
үндэснии
үндэһые
үндэһэ
үндэһэлбэ
үндэһэлжэ
үндэһэлэгдэдэг
үндэһэлэгшэ
үндэһэлэгшэдэи
үндэһэлэн
үндэһэлһэн
үндэһэн
үндэһэндээ
үндэһэниинь
үндэһэнэи
үндэһэрхэг
үндэһэтэи
үндэһэтэн
үндэһэтэндэ
үндэһэтэниие
үндэһэтэнэи
үндэһэтэнүүд
үндэһэтэнүүдэи
үнеэн
үнеэнэи
үни
үнинэи
үнсэг
үнсэгые
үнсэгэи
үнэ
үнэгэн
үнэгүи
үнэлжэ
үнэмлэхы
үнэн
үнэндөө
үнэниие
үнэншэ
үнэнэи
үнэр
үнэртэ
үнэтэ
үнэтэи
үнэхээр
үр
үргэгдэһэн
үргэдхэжэ
үргэдхэһэн
үргэдэг
үргэжэжэ
үргэжүүлжэ
үргэл
үргэлжлүүлэн
үргэлжын
үргэлжэ
үргэлжэлбэ
үргэлжэлдэг
үргэлжэлжэ
үргэлжэлнэ
үргэлжэлхэ
үргэлжэлэл
үргэлжэлүүлжэ
үргэлжэлүүлэн
үргэлжэлүүлээ
үргэлжэлһэн
үргэлжэлһээр
үргэмжэлжэ
үргэмжэлэгдэбэ
үргэн
үргэниинь
үргэнтэи
үргэнэи
үргэнөөр
үргэригэи
үргэхэ
үргөө
үржэл
үржэхэ
үри
үрнэ
үрнэжэ
үртэжэ
үртөө
үрхэ
үрые
үрын
үрэ
үрэжэлтэи
үрэжүүлхэ
үрэтэ
үрэтэи
үсхэн
үсэг
үсэжэ
үсэлтэ
үсөөн
үсөөнгүи
үсөөнхи
үсөөхэн
үтэгжүүлгэ
үхибүүд
үхибүүдтэ
үхибүүдэи
үхибүүн
үхин
үхэбэ
үхэжэ
үхэл
үхэлдэ
үхэлэи
үхэр
үхэрэи
үхэхэ
үхэһэн
үхэһэнэи
үшөө
үү
үүдхэдэг
үүдхэн
үүдхэнэ
үүдхэхэ
үүдхэһэн
үүдэбэри
үүдэдэг
үүдэжэ
үүдэлтэи
үүдэн
үүдэнэ
үүдэнһээ
үүдэхэ
үүдэһэн
үүлэн
үүлээр
үүндэ
үүнии
үүниие
үүнтэи
үүные
үүнэи
үүнээс
үүнһээ
үүр
үүргые
үүргын
үүргэ
үүргэнь
үүргэтэи
үүрэг
үүрэгтэи
үүрэи
үүсвэр
үүссэн
үүсхэбэ
үүсхэгдэдэг
үүсхэгшэ
үүсхэдэг
үүсхэжэ
үүсхэн
үүсхэнэ
үүсхэхэ
үүсхэһэн
үһэн
үһэтэи
үһөө
һ
һаа
һаад
һаар
һаба
һабада
һабсбург
һабын
һаваи
һагба
һаи
һаити
һалаа
һалажа
һалаи
һалан
һаланги
һалаһан
һалбар
һалбари
һалбарида
һалбариие
һалбариин
һалбаринууд
һалбаринуудта
һалбаритаи
һалхи
һалхин
һалхинаи
һама
һамар
һамбург
һамга
һамган
һан
һанаа
һанаагаа
һанаае
һанаанаи
һанаар
һанаатаи
һанаашалһан
һанаи
һанал
һаналаа
һаналаар
һаналаи
һаналтаи
һаналые
һанаха
һангүи
һанда
һандархаи
һаниие
һаниинь
һантаи
һаншье
һаные
һанһаа
һар
һара
һарада
һаратаи
һараһаа
һарын
һарьдаг
һарьһан
һаса
һасада
һахал
һахалаи
һахюуһан
һенри
һенрик
һидроксид
һиилэһэн
һиирэг
һиирэгынь
һималаи
һитлер
һо
һое
һоккаи
һолижо
һолол
һололои
һололые
һомон
һомонои
һон
һонин
һонирхогшо
һонирходог
һонирхожо
һонирхол
һонирхолои
һонирхолтои
һонирхолые
һонирхон
һонои
һоо
һоор
һорболжо
һорохо
һото
һотои
һубаг
һубагаар
һубагаи
һуга
һудалаашад
һудалгаа
һудалгаагаар
һудалгаанаи
һудалдаг
һудалжа
һудалһан
һудаһаар
һудлалаи
һула
һунажа
һунгаба
һунгагдаа
һунгагдаба
һунгагдадаг
һунгагдажа
һунгагдана
һунгагдаһан
һунгагшадаи
һунгадаг
һунгажа
һунган
һунгана
һунгаха
һунгаһан
һунгуули
һунгуулида
һунгуулиин
һунгууляар
һураба
һурагша
һурагшад
һурагшадаи
һурадаг
һуража
һуралсаба
һуралсажа
һуралсал
һуралсалаа
һуралсалаи
һуралсаха
һуралсаһан
һураха
һурахад
һураһан
һургаал
һургаалаи
һургаалда
һургаалые
һургадаг
һургуули
һургуулида
һургуулиие
һургуулиин
һургуулинууд
һургуулинуудаи
һургуулинуудта
һургуулитаи
һургуулияа
һургуулиһаа
һургууляа
һуртал
һурталаи
һуртахуун
һуртахуунаи
һууба
һуугаа
һуугшад
һуугшадаи
һуугшадтаи
һуудаг
һуудал
һуудалтаи
һуудалые
һуужа
һуулга
һуулгажа
һуулгаха
һуулгаһан
һууна
һуури
һуурида
һуурижаба
һуурижажа
һуурижаха
һуурижаһан
һууриие
һууриин
һуурилһан
һуурин
һууринда
һууринууд
һууринуудаи
һууритаи
һууряа
һууса
һуута
һууха
һууһан
һые
һэдэб
һэдэбээр
һэеы
һэеыгээр
һэлюур
һэлһэн
һэлһэнэи
һэн
һэргылхэ
һэргэжэ
һэргэн
һэргээбэ
һэргээжэ
һэргээн
һэргээхэ
һэргээһэн
һэрюун
һээ
һээр
һү
һүгөөр
һүзэгтэд
һүзэгтэн
һүи
һүлдэ
һүлжээ
һүлэжэ
һүн
һүни
һүниие
һүниин
һүниинь
һүниндөө
һүнэи
һүнэһэн
һүнэһэнэи
һүр
һүрэг
һүүдэр
һүүл
һүүлгүи
һүүлдэ
һүүлдэнь
һүүлдээ
һүүлтэи
һүүлшын
һүүлшээр
һүүлын
һүүлэи
һүүлээр
һүүлһээ
һүөөр
һөө
һөөргэ
ӈ
ө
өвөл
өвөр
өгөх
өдөр
өмнө
өмнөд
өнгөөр
өндөр
өргөн
өрлөг
өө
өөд
өөдэ
өөр
өөрии
өөртэ
өөртөө
өөрчлөлт
өөрчлөлтии
өөршэлхэ
өөршэлэгдэжэ
өөршэлэгдэхэ
өөршэлэгдөөгүи
өөршэлэлтын
өөршэлэлтэ
өөршэлэн
өөршэлһэн
өөрыгөө
өөрыень
өөрын
өөрынгөө
өөрһэдын
өөрһэдөө
өөрөө
өөрөөр
өөхэн
өөхэнэи
өөһэдын
өөһэдынгөө
өөһэдөө
՜
ա
բաց
շտեմարան
տվյալների
ք
։
ְ
ִ
ֵ
ֶ
ַ
ָ
ֹ
ּ
ׁ
ׂ
א
ב
ג
ד
ה
ו
ח
י
יום
כ
ל
מ
נ
ס
ע
ק
ר
ש
ת
׳
،
ا
الا
العربية
اوپن
ب
ة
ت
ج
د
ر
س
ش
ع
فارم
ق
ل
ن
ه
و
ي
يل
َ
ُ
ِ
ّ
ْ
ٓ
ٔ
ٕ
پلیٹ
ڈیٹا
ی
ܱ
ं
ः
क
ख
ग
च
ज
ट
ण
त
थ
द
ध
न
प
ब
भ
म
य
र
ल
व
श
ष
स
ह
ा
ि
ी
ु
ू
ृ
े
ै
ो
ौ
्
ং
ক
খ
গ
ঘ
চ
জ
ড
ণ
ত
থ
দ
ধ
ন
প
ব
ভ
ম
য
র
ল
শ
ষ
স
়
া
ি
ী
ু
ূ
ে
্
ં
દ
મ
સ
ા
ો
க
ச
ட
த
ன
ப
ம
ழ
ா
ி
ு
ெ
ை
்
్
ದ
ಯ
ು
ೂ
ೆ
್
ೕ
ක
ව
්
ා
ෙ
น
ั
ุ
་
༌
།
ཀ
ཁ
ག
གས
ང
ཆ
ཏ
ཐ
ད
དག
ན
པ
ཕ
བ
བཟང
བས
མ
མཚ
མས
ཚ
ཞ
ཟ
འག
ཡ
ར
ལ
ཤ
ས
ཧ
ཨ
ཱ
ི
ུ
ེ
ོ
ཾ
ྐ
ྒ
ྗ
ྟ
ྡ
ྣ
ྤ
ྨ
ྩ
ྭ
ྱ
ྲ
ླ
ྷ
င
န
မ
ာ
ု
ေ
်
ြ
მონაცემები
პლატფორმა
ღია
년
월
쪽
ន
ា
ូ
᠃
᠋
᠌
᠎
ᠠ
ᠡ
ᠤ
ᠤᠨ
ᠤᠯᠤᠰ
ᠦ
ᠬᠠᠭᠠᠨ
ᠬᠠᠳᠠᠭ
ᠭᠠᠷᠠᠭ
ᠶᠢᠨ
​
‌
‎
‏
‑
‒
–
—
‘
’
“
”
„
†
…
‰
′
″
⁄
⁡
₪
€
℃
№
ⅰ
ⅲ
↑
→
↓
↔
↷
⇄
⇒
∀
∃
∅
∈
∏
∑
−
∞
∠
∫
≈
≫
⋅
⋯
⏟
③
④
⑦
⟶
⺀
⺄
⺆
⺈
⺊
⺌
⺕
⺝
⺸
⺼
⿰
⿱
⿲
⿳
⿴
⿵
⿶
⿷
⿸
⿹
⿺
⿻
、
。
《
》
「
」
『
』
〢
あ
い
う
え
お
か
き
く
け
こ
さ
し
す
せ
そ
た
ち
っ
つ
て
と
な
に
の
は
ひ
ふ
へ
ほ
ま
み
む
め
も
ゃ
や
ゅ
ょ
よ
ら
り
る
ろ
わ
を
ん
゙
゚
ア
ィ
イ
オ
カ
キ
ク
コ
シ
ス
ソ
タ
ッ
ト
ヒ
ヘ
ホ
ユ
ョ
リ
ロ
ン
・
㇁
㇂
㇄
㇇
㇈
㇉
㇓
㐁
㐄
㐅
㐌
㐫
㐬
㐭
㐮
㐱
㑒
㒵
㒸
㒼
㓁
㓞
㔾
㕛
㕣
㖾
㘝
㚅
㚇
㚔
㚘
㝉
㝡
㝴
㝵
㞋
㞢
㞷
㠩
㠭
㠯
㡀
㡭
㡿
㢲
㢴
㣇
㣺
㥯
㪅
㫄
㫐
㫒
㫺
㬅
㬎
㬥
㬰
㲋
㳄
㷠
㸒
㸚
㸦
㼌
㼲
㽞
㿟
䀠
䂞
䍃
䏍
䒑
䖍
䖒
䖝
䖵
䙴
䚻
䜌
䝿
䡛
䧹
䪞
一
丁
丂
七
丄
丅
丆
万
丈
三
上
下
丌
不
与
丏
丐
丑
专
且
丕
世
丘
丙
业
东
丞
丢
丣
两
严
並
丨
丩
个
丫
丬
中
丮
丰
丱
串
丵
丶
丷
丸
丹
为
主
丽
丿
乀
乂
乃
久
乆
乇
么
义
之
乌
乍
乎
乏
乐
乑
乔
乖
乗
乘
乙
乚
乛
乜
九
乞
也
习
乡
乳
乾
亀
亅
了
亇
予
争
事
二
亍
于
亏
亐
云
互
亓
五
井
亘
亚
亜
亞
亟
亠
亡
亢
交
亥
亦
产
亨
亩
享
京
亭
亮
亯
亰
亲
亳
亶
亷
人
亻
亼
亾
仁
今
介
仌
从
仏
仐
仑
仒
仓
仕
他
付
仝
代
令
以
仮
任
企
伊
伏
伐
休
会
伯
但
位
佐
何
佘
余
佛
作
佥
使
來
侈
侌
侖
侯
侵
便
保
俞
信
修
俵
倉
倍
候
倠
備
傳
僉
僑
僕
僧
儒
儿
兀
允
兂
元
兄
充
兆
兇
先
光
兊
克
兌
免
兑
兒
兓
兔
党
兜
兟
入
全
兩
兪
八
公
六
兮
兰
共
关
兵
其
具
典
兹
兼
冀
冂
冃
冄
内
円
冈
冉
冊
冋
册
再
冎
冏
冐
冒
冓
冖
冗
冘
军
农
冝
冡
冥
冫
冬
冷
几
凡
凢
凵
凶
凷
凸
凹
出
函
凾
刀
刁
刂
刃
刄
刅
分
切
刍
刑
刕
刖
列
刘
则
初
別
利
别
到
制
刹
刺
則
削
剌
前
剡
剽
劉
力
功
加
劦
动
助
劫
劳
劵
勃
勇
勉
勒
動
務
勞
勤
勹
勺
勻
勾
勿
匀
匂
包
匆
匈
匊
匋
匍
匕
化
北
匚
匝
匡
匪
匱
匸
匹
区
医
匽
匿
區
十
卂
千
卄
卅
卆
升
午
卉
半
卌
华
卑
卒
卓
单
卖
南
博
卜
卝
卞
占
卡
卢
卣
卤
卦
卩
卪
卬
卯
印
危
即
却
卵
卷
卸
卻
厂
厃
厄
历
厈
厉
厌
厓
厘
厚
原
厤
厥
厨
厭
厲
厶
厷
厸
去
厼
厽
县
叀
参
參
叅
又
叉
及
友
双
反
叐
发
叒
叔
叕
取
受
叚
叜
叟
口
古
句
另
叩
只
召
可
台
叱
史
右
叵
号
司
叹
吂
各
吅
合
吉
吊
吋
同
名
后
吏
向
吕
君
吝
吞
吟
否
含
启
吳
吴
吹
吾
呂
呆
呈
告
员
呙
周
命
咅
和
咎
咠
咢
咨
咸
咼
哀
品
哈
哉
員
哥
哲
唐
商
啇
問
啚
啬
啻
善
喜
喬
單
喿
嗇
噩
嚴
囊
囗
囘
囙
囚
四
回
囟
因
団
囧
囬
困
囱
囷
固
国
圂
圅
國
圍
圓
土
圡
圣
圥
在
圭
地
圶
圼
坐
坒
坚
坡
坴
垂
垔
垚
埀
埋
城
域
埶
執
基
堂
堅
堆
堇
堯
場
塔
塞
墨
壘
士
壬
壯
声
壳
壴
壹
壺
壽
夂
处
夅
夆
备
夊
夋
夌
复
夏
夒
夕
外
夗
夘
多
夜
夢
大
夨
天
太
夫
夬
夭
央
失
夲
头
夷
夸
夹
夻
夾
奂
奄
奇
奈
奉
奎
奏
奐
契
奓
奔
奚
奞
奠
奢
奥
奭
女
奴
奻
好
如
妄
妙
妟
妥
妻
妾
姑
委
姜
威
娄
婁
婆
婴
嬰
嬴
子
孑
孔
孕
孖
字
存
孚
孛
孝
孟
季
孤
学
孫
孱
學
宀
宁
宂
它
宅
宇
守
安
宋
完
宏
宓
宗
官
定
宛
宜
宝
客
宣
室
宫
宮
宰
害
家
容
宾
宿
寂
寄
寅
密
富
寒
察
寧
審
寫
寬
寮
寶
寸
对
寺
寻
寽
対
寿
封
尃
射
将
將
專
尉
尊
尋
尌
對
小
少
尒
尓
尔
尖
尗
尚
尞
尢
尣
尤
尧
尨
尭
就
尸
尹
尺
尻
尼
尽
尾
尿
局
居
屈
屋
屎
屏
屑
展
屖
屚
属
屠
屡
屬
屮
屯
屰
山
屵
屾
岁
岂
岑
岡
岩
岳
岸
峡
峯
島
崇
崑
崔
崖
崙
崩
嵬
嶲
嶺
巂
巛
川
州
巟
巠
巢
巤
工
左
巧
巨
巩
巫
差
己
已
巳
巴
巷
巸
巽
巾
巿
帀
市
布
希
帚
帛
帝
带
師
席
帶
常
幌
干
平
年
幵
并
幷
幸
幺
幻
幼
幽
幾
广
広
庄
床
库
底
店
庚
府
度
庫
庭
庶
康
庸
廉
廌
廛
廣
廩
廴
延
廷
建
廾
廿
开
弁
弃
弄
弇
弋
式
弓
弔
引
弗
弘
弜
弟
张
弥
弦
弱
張
強
强
彊
彌
彎
彐
彑
当
彔
录
彖
彗
彡
形
彥
彦
彧
彭
彳
役
彼
往
待
律
徒
得
徙
從
復
微
徵
德
心
忄
必
忌
忍
志
忝
忠
忩
快
念
忽
忿
思
怠
急
性
怱
恆
恒
恩
恭
息
悉
悟
患
悤
悲
悶
惠
惡
惢
愁
愈
意
愛
感
慈
慧
慮
憂
憲
應
戀
戈
戉
戊
戋
戌
戍
戎
成
我
戒
戔
或
戚
戠
戢
戦
截
戲
戶
户
戸
戹
戼
戾
房
所
扁
扇
手
扌
才
打
托
执
承
折
报
拉
拜
拿
据
授
掌
推
提
揭
摩
支
攴
攵
收
攸
改
放
政
敄
敏
敕
敖
敗
教
敝
敞
敢
散
敦
敫
敬
数
敷
數
斂
文
斉
斊
斗
斤
斥
斩
斬
斯
新
方
於
施
斿
旁
旋
族
无
旡
既
旣
日
旦
旧
旨
早
旬
旱
旲
时
旾
昆
昇
昌
昍
明
昏
易
昔
昗
昜
星
春
昬
是
昱
昴
昷
時
晃
晋
晏
普
景
晶
智
暑
暮
暴
曆
曇
曩
曰
曲
曳
更
曷
書
曹
曼
曾
替
最
朁
會
月
有
朋
服
朔
朕
朗
望
朝
木
朩
未
末
本
札
朮
术
朱
朵
朶
朿
杀
李
杏
杜
束
条
来
東
杲
杳
松
析
林
枚
果
枝
枢
枲
枼
某
柔
查
柬
柰
柴
栗
桀
桑
桼
梁
條
梟
梨
棘
棠
棥
森
楚
業
楼
楽
榮
樂
樊
樹
權
欠
次
欣
欮
欲
欶
欽
款
歆
歇
歛
止
正
此
步
武
歨
歪
歮
歯
歰
歲
歴
歷
歸
歹
歺
死
殳
段
殷
殸
殹
殺
殻
殿
毋
毌
母
毎
每
毒
比
毕
毚
毛
毳
氏
氐
民
气
氣
水
氵
氶
氷
永
氺
氾
求
汉
汝
汞
江
沃
沈
沓
沙
沝
河
治
泉
法
波
泣
泥
泰
洛
洞
津
洪
洲
活
派
流
浄
浦
浪
浮
海
淡
淮
清
渚
渠
湯
源
满
滿
演
漢
漸
澳
火
灬
灭
灰
灵
灷
炅
炎
炏
炗
炙
炭
為
烈
烏
烝
焉
無
焦
焱
然
煞
熊
熏
燕
營
燮
爪
爫
爭
爯
爰
爱
爲
爵
父
爻
爽
爾
爿
片
版
牙
牚
牛
牜
牟
牢
牧
物
牪
牽
犀
犬
犭
犮
狂
狄
狊
独
狺
猋
猒
猪
献
猿
獻
玄
率
玉
王
玟
玨
珎
班
球
理
琉
琴
瑟
瑩
瓜
瓢
瓦
甘
甚
生
産
用
甫
甬
田
由
甲
申
电
甶
男
甸
甹
画
甾
畀
界
畏
畐
留
畜
畟
畢
畧
畨
番
畫
異
畱
當
畺
畾
畿
疊
疋
疌
疑
疒
疫
疾
癶
癸
癹
登
發
白
百
皀
皃
的
皆
皇
皋
皐
皕
皮
皷
皿
盃
盆
盇
盈
益
盍
盎
监
盒
盖
盛
盡
監
盤
盧
目
直
相
盾
省
眇
眉
看
眔
眞
真
眷
眼
眾
着
睘
睪
睿
瞏
瞢
瞿
矍
矛
矞
矢
矣
知
矦
短
石
破
碎
磊
磨
示
礻
礼
社
神
祟
票
祭
禀
禁
禅
禮
禸
禹
禺
离
禽
禾
禿
秀
私
秃
秉
秋
科
秝
秦
移
稟
穀
穌
穴
究
穹
空
穿
突
窄
窒
窠
立
竒
站
竜
竝
竟
章
童
竹
笑
笠
第
筆
等
答
箕
算
箴
節
篤
篭
米
粉
粛
粟
粤
粦
粲
糞
糸
糹
系
紀
約
紅
納
級
素
索
紫
累
細
経
絜
絫
絲
經
維
綿
緊
縣
繇
繚
纍
纟
纽
缶
网
罒
罔
罕
罗
罙
罡
罢
罪
署
罷
羅
羊
羌
羍
美
羔
羕
羗
羞
羡
羣
群
義
羯
羲
羸
羽
翁
翏
習
翕
翟
翠
翼
老
耂
考
者
耆
而
耎
耑
耒
耳
耴
耶
耷
聂
聊
聖
聚
聞
聯
聶
聿
肀
肃
肅
肉
肖
肙
肥
肩
肯
育
肴
胃
背
胡
胥
能
脊
脩
膚
臣
臤
臧
臨
自
臬
臭
臯
臱
至
致
臺
臼
臽
臾
臿
舀
舂
舄
與
興
舉
舌
舍
舛
舜
舞
舟
般
艮
良
色
艸
艹
艾
芒
芔
芬
芭
芮
花
芳
芺
芻
苔
苗
苟
若
苦
英
茶
茸
荅
草
荒
荣
荼
莆
莧
莫
莽
菆
菊
菐
菩
華
萨
萬
落
葉
著
葛
董
葵
蒙
蒦
蒼
蓋
蓑
蓬
蓮
蓺
蔑
蔡
蕉
蕭
薄
薛
薦
薩
薰
藍
藏
藥
蘭
虍
虎
虐
虒
虔
處
虖
虗
虘
虚
虛
虜
虞
虫
虽
蚤
蚩
蜀
蜜
蟲
蠡
血
行
衍
衛
衣
衤
表
衮
衰
袁
袞
褭
褱
襄
襾
西
覀
要
覃
見
規
覓
覧
親
覽
见
角
解
言
訁
訇
計
記
訶
詹
誕
語
誩
論
諦
諸
警
讠
记
论
话
语
谛
谷
豆
豈
豊
豐
豕
豖
豙
象
豦
豩
豪
豸
貇
貝
貞
貟
負
貢
貧
貪
貫
責
貳
貴
買
費
賁
資
賈
賏
賓
賔
賛
賞
賢
賣
質
賴
贊
贝
贡
责
贯
贲
贵
赖
赞
赤
赦
走
起
越
趙
足
路
蹇
身
躬
車
軍
軎
軟
輦
车
辛
辜
辟
辥
辰
辱
農
辵
辶
边
达
过
运
近
连
迦
迷
追
退
送
逆
逐
通
速
造
逢
連
逮
進
遀
遂
遊
過
道
達
遣
適
遷
遺
邊
邑
邕
那
邦
邪
郎
郑
郡
部
郭
都
鄉
鄭
酉
酋
配
酓
釆
采
里
重
野
量
金
釒
錢
钅
钟
長
镸
长
門
閃
閉
開
閏
閑
閒
間
閔
閲
閵
閻
闌
门
间
闷
阁
阑
阜
阝
阳
阿
陀
降
陳
陽
隆
隊
隋
隡
隨
隱
隶
隹
隺
隻
隼
隽
难
雀
雁
集
雈
雋
雍
雐
雔
雙
雚
雜
雝
離
難
雨
雩
雪
雲
零
雷
需
霍
霜
霝
霞
霸
靈
靑
青
非
靡
面
靣
革
韋
韓
韦
韭
韯
韱
音
頁
頃
項
須
頗
頡
頭
頻
顛
页
風
风
飛
飞
食
飠
養
饣
首
香
馬
馮
駆
駦
马
骨
高
髟
鬥
鬯
鬲
鬼
魚
魯
鮮
鱼
鲁
鳥
鳳
鸟
鹵
鹿
麃
麗
麥
麦
麻
黃
黄
黍
黎
黑
黒
黨
黹
黽
黾
鼎
鼓
鼠
鼻
齊
齋
齐
齒
齿
龍
龙
龜
龟
龠
龰
龱
龴
龵
龶
龷
龸
龹
者
艹
﹙
﹚
﻿
（
）
，
：
？
￼
𠀁
𠀃
𠀆
𠀉
𠀎
𠀐
𠁁
𠁣
𠂆
𠂇
𠂈
𠂉
𠂊
𠂋
𠂎
𠂒
𠂔
𠂛
𠂡
𠂢
𠂤
𠂬
𠂭
𠂹
𠃊
𠃋
𠃌
𠃍
𠃎
𠃑
𠃓
𠃔
𠃜
𠄌
𠄎
𠄠
𠄢
𠆢
𠆥
𠇍
𠈌
𠌵
𠓜
𠔉
𠔥
𠔼
𠔽
𠔿
𠕀
𠕁
𠕋
𠘧
𠘨
𠙻
𠙼
𠚏
𠚒
𠚤
𠚪
𠣏
𠤎
𠤕
𠥓
𠦄
𠦑
𠦝
𠧒
𠧗
𠧪
𠩺
𠪚
𠫓
𠫔
𠫤
𠬛
𠬝
𠬞
𠬢
𠬤
𠬶
𠮛
𠮦
𠮷
𠯑
𠱠
𠳮
𠷎
𡈼
𡉀
𡉵
𡌥
𡍮
𡏳
𡕒
𡕩
𡕰
𡖅
𡗗
𡗜
𡘆
𡘤
𡧱
𡨄
𡩧
𡬠
𡭽
𡰣
𡰥
𡰪
𡰯
𡰱
𡷈
𡸁
𡿨
𡿩
𡿪
𡿺
𢀖
𢀛
𢀩
𢁙
𢆉
𢆰
𢆶
𢇁
𢇇
𢉖
𢌬
𢌿
𢏚
𢑑
𢑚
𢖻
𢙣
𢛳
𢦏
𢦒
𢧵
𢼄
𢾕
𣁋
𣄼
𣅀
𣅽
𣍘
𣎳
𣎵
𣏋
𣏼
𣗥
𣥂
𣥖
𣦵
𣦼
𣧄
𣪊
𣪠
𣬉
𣳾
𣶒
𤇾
𤊽
𤐫
𤓰
𤔔
𤕨
𤣩
𤰇
𤰔
𤰞
𤴓
𤴔
𤽄
𥁑
𥁕
𥃦
𥃩
𥃭
𥇡
𥑟
𥘅
𥘈
𥝢
𥫗
𥱡
𦈢
𦉪
𦉬
𦉼
𦍌
𦍒
𦎧
𦐇
𦓔
𦔮
𦘒
𦙃
𦚏
𦣝
𦣞
𦣻
𦥑
𦥔
𦥯
𦨉
𦭝
𦰩
𧆞
𧈧
𧘇
𧰨
𧴪
𧴮
𧵩
𧾷
𨸏
𨾴
𩙿
𩠐
𩫏
𩵋
𪉷
𪜀
𪟽
𪠲
𪩲
𫇦
𫔭
𫜸
𫝀
𫠣
𫠩
𫢉
𫥞
𫩏
𫩠
𫪡
𫲽
𫶧
𬀷
𬐘
𬗌
𬙙
𬛸
𬜯
𬟩
𬯁
𬴘
𬺻
𬼉
𬼖
𭀰
𭁈
𭁨
𭅰
𭑈
𭕄
𭗼
𭤨
𭥫
𭻾
𮅕
𮊿
𮍌
𮍏
𮓗
𮥼
𮧮
廾
𰀁
𰀄
𰀈
𰀉
𰀕
𰀠
𰀡
𰀢
𰀪
𰁜
𰃮
𰆊
𰆘
𰋙
𰕎
𰢴
𰧭
𰯲
01--
134--
266--
39--
41--
49--
51--
53--
55--
66--
70--
71--
74--
77--
80--
82--
84--
85--
87--
88--
93--
99--
a--
aa--
ab--
ac--
ad--
afri--
ag--
ajal--
al--
ali--
am--
amend--
an--
ana--
ance--
ang--
ap--
appre--
ar--
as--
aste--
astr--
at--
au--
auto--
b--
ba--
bashk--
be--
ben--
bi--
bir--
bo--
boy--
br--
bu--
budd--
bur--
c--
ca--
car--
cas--
ch--
cham--
cho--
chri--
city--
cl--
cla--
cn--
co--
com--
commu--
communi--
con--
cor--
cre--
criti--
cu--
curi--
d--
da--
dan--
dar--
daw--
de--
decl--
deg--
demog--
di--
diff--
dis--
disc--
div--
do--
docu--
dr--
du--
dun--
e--
eco--
ed--
effec--
ei--
eisen--
el--
elec--
eleph--
em--
en--
er--
es--
et--
eu--
evalu--
ex--
exhib--
f--
fa--
fe--
fi--
flo--
fo--
for--
fr--
front--
fu--
g--
ga--
ge--
geog--
gi--
gil--
go--
gra--
gri--
gu--
h--
ha--
har--
he--
hein--
hen--
high--
his--
ho--
hod--
hol--
home--
hu--
i--
ib--
id--
il--
im--
in--
indi--
inst--
inter--
inv--
is--
it--
j--
ja--
je--
jo--
ju--
k--
ka--
kand--
ke--
kiel--
kil--
kin--
kle--
ko--
ku--
l--
la--
lau--
le--
legis--
li--
lil--
lin--
lo--
loya--
lt--
lu--
ly--
m--
ma--
mag--
man--
mar--
mat--
mc--
me--
measu--
mer--
mi--
minu--
mir--
mo--
mon--
mor--
morph--
mu--
mult--
my--
n--
na--
nau--
ne--
neu--
ng--
ni--
no--
nor--
nu--
ny--
o--
oc--
ofi--
ol--
on--
op--
or--
os--
out--
p--
pa--
pe--
per--
ph--
pho--
phy--
pi--
pil--
pl--
pla--
po--
poli--
politis--
poly--
pr--
pre--
princ--
pro--
prof--
prop--
prote--
provi--
pu--
pur--
q--
r--
ra--
radio--
rd--
re--
recog--
ri--
ro--
rod--
rol--
ros--
rota--
ru--
s--
sa--
sam--
sc--
sch--
scho--
se--
sev--
sha--
si--
sl--
sla--
slov--
so--
solu--
south--
sozial--
spe--
spi--
st--
su--
sub--
supp--
sur--
t--
ta--
te--
tech--
tem--
ter--
th--
thom--
ti--
to--
tr--
tra--
trans--
tri--
tru--
ts--
tu--
tuc--
tur--
u--
ul--
un--
uni--
ur--
v--
va--
vacci--
vari--
ver--
verte--
vi--
vo--
vol--
voy--
w--
wa--
wan--
we--
wel--
wer--
wi--
wo--
wu--
x--
xx--
y--
ya--
yi--
z--
za--
zi--
zion--
γ--
θ--
λ--
μ--
σ--
τ--
а--
аа--
аар--
аб--
аба--
аби--
абшар--
абяа--
аг--
агент--
агна--
агуу--
агы--
ад--
ади--
ажа--
ажагл--
ажаглаг--
ажал--
ажами--
аз--
ак--
ака--
ал--
алаг--
аль--
аля--
ам--
ама--
амар--
амино--
амис--
амну--
амстер--
ан--
ана--
анги--
анда--
анти--
апар--
ар--
ара--
арга--
аргу--
ардчил--
архе--
арюуд--
ассо--
асуу--
ат--
ата--
ате--
аха--
ахи--
аша--
ашаг--
ая--
аян--
аянша--
б--
ба--
баг--
бад--
бак--
бал--
балка--
бам--
бан--
бар--
бари--
бат--
бая--
баяж--
бе--
бела--
бер--
би--
био--
бир--
бич--
бо--
бод--
бок--
бол--
болбосо--
болбосоруу--
болюу--
бор--
боһо--
бр--
бу--
буд--
бул--
бур--
буса--
буу--
бы--
бэ--
бэе--
бэелүү--
бэелүүл--
бэл--
бэлэд--
бэш--
бү--
бүл--
бүм--
бүр--
бүрдүү--
бүрид--
бүтээ--
бүхэ--
бүһэ--
бөм--
бөө--
в--
ва--
ван--
ве--
вели--
вене--
веп--
вер--
веч--
ви--
вил--
виль--
вла--
во--
воен--
вол--
воль--
вре--
все--
вт--
ву--
вы--
выс--
вячес--
г--
га--
гаа--
газ--
гал--
гам--
гар--
гарга--
гаргаг--
гва--
ге--
гек--
гео--
географиче--
герц--
ги--
глаз--
го--
гов--
гол--
гор--
гр--
граждан--
грек--
гру--
гу--
гуд--
гудж--
гур--
гуул--
гуула--
гуулаг--
гэ--
гэгш--
гэд--
гэнжэ--
гэр--
гү--
гүр--
д--
да--
даа--
даб--
дабһ--
дав--
даг--
дал--
дали--
дам--
дамж--
дан--
дар--
дая--
де--
декл--
дея--
дж--
джа--
ди--
диал--
дикта--
дн--
до--
добто--
доз--
доку--
дор--
дохюу--
др--
древ--
ду--
дур--
дури--
дуу--
дууһ--
духов--
дэ--
дэб--
дэбж--
дэг--
дэл--
дэлбэрэл--
дэм--
дэмж--
дүн--
дүүр--
дөр--
е--
ж--
жа--
жаб--
жаг--
жагсаг--
жам--
жан--
жар--
жаруу--
жаруул--
же--
жи--
жип--
жир--
жэ--
жэл--
жэр--
жүр--
з--
за--
зааг--
заб--
залга--
залгамжа--
зам--
зан--
зап--
зар--
зарсуу--
заха--
захи--
захираг--
заяв--
заһ--
зен--
зи--
зо--
зог--
зогсо--
зон--
зоо--
зор--
зорюу--
зохи--
зохисуу--
зу--
зуг--
зуга--
зул--
зур--
зура--
зүбш--
зүг--
зүд--
зүл--
зүн--
зүр--
зүрил--
зөв--
зөвш--
зөө--
зөөбэр--
и--
иву--
иде--
из--
ии--
ил--
илаг--
илгаг--
илгар--
им--
ин--
ингу--
интер--
инфля--
ир--
ира--
ирраци--
ис--
ита--
их--
к--
ка--
кабар--
каза--
кам--
камчат--
кап--
кар--
кара--
каре--
карл--
каст--
кау--
ке--
кер--
ки--
кино--
кл--
кла--
классифи--
кли--
книж--
ко--
кол--
колле--
ком--
коммер--
комсомоль--
кон--
конф--
конфе--
концеп--
кор--
крис--
кро--
ку--
л--
ла--
лаб--
лав--
лаг--
лал--
лам--
лар--
лбар--
лдвэр--
ле--
лек--
ли--
либ--
ло--
логариф--
лу--
луу--
луч--
лха--
лытк--
ль--
лэ--
лэд--
лю--
люб--
любли--
люден--
м--
ма--
маа--
маври--
маг--
мак--
мал--
ман--
мар--
мастер--
мат--
математиче--
ме--
меди--
медицин--
ми--
мик--
мике--
микены--
микро--
мин--
миф--
млеч--
мо--
мон--
моно--
мор--
москов--
му--
муницип--
муу--
мыс--
мэ--
мэд--
мэдр--
мэдэг--
мэдэр--
мэн--
мэр--
мэргэ--
мя--
мү--
мүл--
мүр--
мөң--
н--
на--
нам--
народ--
нас--
науч--
наци--
не--
нев--
ни--
нии--
ник--
ники--
но--
нобе--
ном--
ноо--
ноогдуу--
нор--
ното--
нсь--
ну--
нур--
нх--
нэг--
нэгт--
нэгэд--
нэл--
нэм--
нэмэ--
нэмэг--
нэрэ--
нэхэ--
нээ--
нээг--
нээлтэ--
ню--
нюрга--
нютаг--
ня--
нян--
нү--
нүхэл--
нүүл--
о--
об--
обществе--
объяв--
ог--
од--
одон--
ок--
оке--
окру--
ол--
олзо--
оло--
ом--
он--
они--
оног--
онц--
оо--
оп--
оппо--
ор--
орен--
орке--
оро--
орол--
оролсуу--
оруулаг--
оршо--
ос--
оск--
от--
откры--
отно--
относи--
официаль--
п--
па--
паке--
пале--
пан--
пар--
пат--
пе--
пек--
пер--
печ--
пи--
пиз--
пись--
пл--
по--
под--
пол--
политиче--
популяр--
порт--
пре--
пред--
при--
про--
прус--
пси--
пу--
пя--
р--
ра--
ради--
раз--
рал--
ралал--
ран--
ре--
регис--
рекл--
реп--
ри--
риве--
рим--
рлал--
ро--
рож--
роз--
рон--
роя--
ру--
руб--
руковод--
рус--
руу--
ры--
с--
са--
сааза--
саван--
сам--
сан--
сасаг--
сасуу--
сахюу--
сая--
све--
се--
секу--
сер--
си--
сик--
син--
ск--
сло--
см--
со--
соб--
собы--
современ--
соко--
сони--
сор--
софо--
сохи--
соци--
сп--
спа--
спар--
сред--
ст--
статистиче--
су--
суб--
суг--
суд--
судал--
супер--
сур--
суса--
суу--
сэ--
сэг--
сэд--
сэдь--
сэдьхэ--
сэр--
ся--
сүм--
сүсэг--
т--
та--
таамагл--
таб--
таби--
тав--
так--
тан--
танил--
тар--
тат--
таһа--
творче--
те--
тер--
террито--
ти--
то--
тогл--
тогт--
тогтно--
тогто--
тод--
томилог--
тон--
тоо--
тор--
тотали--
тохи--
тр--
треть--
три--
триме--
ту--
тубер--
тул--
тула--
тун--
турист--
тус--
туурби--
тэ--
тэг--
тэд--
тэлэ--
тэмс--
тэн--
тэр--
тэт--
тэһ--
тү--
түб--
түл--
түлх--
түм--
түхе--
тө--
төл--
төлөө--
у--
уг--
уд--
удари--
ударидуу--
удир--
ул--
ула--
ун--
уна--
унагаа--
унал--
унша--
ур--
урбал--
уриг--
урил--
уря--
ус--
усад--
ут--
ута--
уу--
уул--
уулза--
уур--
ухаа--
ухам--
ухуу--
уче--
учи--
ушар--
уһа--
уһаж--
ф--
фа--
фара--
фатими--
фе--
федер--
федератив--
фер--
фи--
физи--
физиоло--
физиче--
фир--
фло--
фор--
фр--
х--
ха--
хаа--
хаанша--
хаб--
хаба--
хаг--
хад--
хадгалаг--
хал--
халь--
хам--
хамаа--
хамгаа--
хан--
хана--
ханя--
хар--
харгал--
хари--
харисуу--
харья--
хас--
хат--
хата--
хах--
хахал--
хаш--
хая--
хаһ--
хи--
хии--
химиче--
хин--
хир--
хич--
хло--
хо--
хозаха--
хок--
хол--
холи--
хон--
хонги--
хоол--
хор--
хори--
хос--
хот--
хоюу--
хрис--
ху--
хуба--
хубааг--
хуби--
хубилаг--
хувил--
хуга--
хун--
хур--
хура--
хуу--
хэ--
хэб--
хэв--
хэл--
хэлбэр--
хэлэ--
хэлэл--
хэм--
хэмээг--
хэн--
хэр--
хэрэг--
хэс--
хю--
хяз--
хү--
хүб--
хүг--
хүгжэ--
хүгжүүл--
хүдэл--
хүдэлэл--
хүл--
хүмүүж--
хүмүүжүү--
хүн--
хүнөө--
хүр--
хүрт--
хүрь--
хүрьһэ--
хүтэ--
хүү--
хүүр--
хө--
хөг--
хөө--
хөөр--
ц--
цар--
цз--
цзи--
цзы--
цзян--
ци--
цив--
цин--
цу--
цы--
ч--
чан--
че--
чемп--
чер--
чи--
чу--
чува--
чун--
ш--
ша--
шаа--
шаар--
шаб--
шаг--
шагнаг--
шад--
шада--
шалт--
шалтгаа--
шам--
шан--
шапи--
шар--
шата--
шах--
ше--
ши--
шиг--
шии--
шиид--
шо--
шоргоол--
шта--
шу--
шуул--
шэ--
шэг--
шэл--
шэлэ--
шэм--
шэнэ--
шү--
шүл--
шүү--
шүүм--
э--
эб--
эблэр--
эв--
эг--
эги--
эгэ--
эд--
эдэ--
эз--
эзлэ--
эзлэхүү--
эзэл--
эзэм--
эзэр--
экзю--
эко--
экономиче--
экс--
эл--
элек--
электр--
эли--
элирхы--
эль--
эм--
эмн--
эмхи--
эмхид--
эмшэ--
эн--
энэ--
эр--
эргэ--
эргэл--
эргү--
эрне--
эрх--
эрхи--
эрхэ--
эрьюу--
эрэ--
эс--
эт--
эти--
этниче--
этно--
эх--
эхил--
эхэ--
эц--
ээ--
ээр--
ю--
юр--
юу--
я--
ябаг--
ябуу--
ябуул--
яв--
яг--
яд--
якут--
ян--
яоб--
япон--
яр--
ят--
қ--
ү--
үб--
үг--
үгыд--
үд--
үдэ--
үз--
үзүү--
үл--
үлүү--
үм--
үнгэр--
үнгэрүү--
үнэ--
үнэм--
үр--
үргэм--
үрди--
үре--
үржэ--
үрэ--
үрэжүү--
үс--
үсөө--
үү--
үүд--
үүнэ--
үүр--
үүргэ--
үүс--
үүһэ--
һ--
һа--
һан--
һар--
һахи--
һая--
һии--
һиил--
һо--
һол--
һон--
һу--
һуд--
һунга--
һур--
һэ--
һэл--
һэр--
һэргы--
һэргээг--
һү--
һүн--
һүр--
ө--
өдр--
өн--
өр--
өс--
өө--
өөр--
ال--
ع--
अ--
བ--
འ--
ལ--
ᠵ--
--0
--00
--08
--1
--2
--3
--4
--40
--47
--48
--490
--5
--51
--57
--594
--6
--614
--7
--8
--82
--86
--9
--a
--able
--ac
--ad
--af
--age
--ai
--aki
--al
--an
--ance
--ans
--ant
--ar
--ard
--ary
--as
--at
--ate
--ated
--ation
--ations
--au
--ave
--ay
--b
--ba
--be
--bility
--ble
--bo
--bs
--burg
--c
--ca
--cal
--ce
--cent
--ception
--ces
--ch
--cio
--ck
--cked
--cks
--cs
--ct
--cted
--cts
--d
--da
--de
--ded
--ds
--dy
--e
--east
--ect
--ed
--ei
--el
--em
--en
--enburg
--ent
--ep
--er
--ers
--es
--ess
--est
--et
--ey
--f
--fen
--ff
--field
--ft
--g
--ge
--ger
--ges
--ght
--go
--gy
--h
--ham
--he
--hes
--hip
--ht
--i
--ia
--ial
--ian
--ic
--ica
--ical
--ics
--id
--idae
--ide
--ids
--ie
--ied
--ier
--ies
--ija
--ik
--ile
--in
--ine
--ing
--ings
--io
--ion
--ional
--ions
--ir
--is
--ism
--it
--ite
--ities
--ity
--ive
--ix
--j
--jn
--k
--kh
--ks
--l
--la
--ld
--le
--lf
--lin
--lk
--ll
--lla
--lo
--ls
--lus
--ly
--m
--ma
--man
--mb
--me
--mp
--ms
--n
--na
--nce
--nd
--ne
--ner
--ng
--nia
--nial
--nian
--nity
--nn
--ns
--nse
--nt
--nta
--nts
--ny
--o
--od
--ogical
--ogie
--ogy
--ological
--ology
--on
--ons
--or
--ors
--ort
--os
--ot
--ov
--ow
--p
--phie
--phies
--phy
--ps
--pt
--r
--ra
--rae
--ral
--rat
--rd
--re
--rea
--red
--ren
--ri
--ria
--rn
--ro
--rry
--rs
--rsk
--rt
--ry
--s
--sa
--schaft
--sco
--se
--sed
--sen
--ses
--sh
--sia
--sion
--son
--ss
--st
--t
--ta
--tains
--tan
--tat
--te
--ted
--ter
--tes
--th
--thing
--thy
--ti
--tia
--tic
--tin
--ting
--tion
--tive
--to
--ton
--ts
--tt
--ty
--tz
--u
--uar
--ue
--uel
--um
--ur
--ure
--urs
--us
--v
--va
--vax
--ve
--w
--wn
--x
--xa
--y
--ya
--ys
--z
--ze
--zing
--ς
--υ
--а
--аа
--аад
--аар
--аба
--аг
--агдаа
--агдадаг
--агдажа
--агдан
--агдана
--агша
--ад
--адов
--ажа
--аз
--аи
--ак
--ал
--алжа
--алһан
--ам
--амжа
--ан
--ани
--анов
--анта
--ань
--ар
--араа
--ардаг
--ари
--арида
--арыі
--ас
--ат
--атор
--ау
--аф
--ах
--аха
--ации
--ация
--аши
--ая
--б
--ба
--би
--бин
--бо
--бург
--бы
--бэ
--бэри
--в
--ва
--вд
--ве
--ви
--вич
--вно
--во
--вые
--вын
--г
--га
--гаа
--гаар
--гада
--гаи
--гда
--гдаж
--гдажа
--гдан
--гдана
--гдодог
--гдожо
--гдоһон
--гдэбэ
--гдэж
--гдэжэ
--гдэнэ
--гдэһэн
--ге
--ги
--гид
--гии
--гиин
--гир
--гия
--го
--гои
--гоор
--гта
--гтаи
--гты
--гуи
--гун
--гууд
--гуудаи
--гч
--гчид
--гша
--гшад
--гшадаи
--гшо
--гшын
--гшэ
--гшэд
--гы
--гые
--гын
--гэ
--гэд
--гэи
--гээ
--гээр
--гүи
--гүүд
--гөө
--гөөр
--д
--да
--даа
--даг
--дадаг
--дажа
--даи
--дан
--дана
--джа
--ди
--дмэл
--до
--дог
--дожо
--доо
--дта
--дхан
--дхаһан
--дхэ
--дхэл
--дхэлгэ
--дхэн
--ды
--дые
--дын
--дэ
--дэбэ
--дэг
--дэдэг
--дэж
--дэжэ
--дэи
--дэл
--дэмэл
--дэнь
--дэнэ
--дээ
--дэһэн
--дөө
--е
--ев
--еи
--ел
--ем
--ен
--ения
--енных
--ер
--ера
--ерэи
--ес
--ет
--ец
--еэ
--еэр
--ж
--жа
--жаһан
--жело
--жения
--жи
--жо
--жу
--жууд
--жые
--жэ
--жэжэ
--жэлтэ
--жэн
--жүүлбэ
--жүүлжэ
--жүүлхэ
--з
--за
--заци
--зациин
--зацилга
--зе
--зм
--змын
--зы
--зын
--зь
--зүи
--и
--ив
--иг
--ид
--ида
--ие
--изации
--изм
--измые
--измын
--ии
--иие
--иин
--иинь
--ик
--ика
--икын
--ил
--ила
--илга
--им
--ин
--ина
--инь
--ио
--ировалдаг
--ис
--ист
--истики
--ит
--итэи
--иха
--ихо
--ица
--ич
--ическая
--ическэ
--ию
--ия
--к
--ка
--каз
--кан
--кая
--ке
--ки
--кии
--кин
--ко
--ков
--кс
--кт
--кта
--кын
--л
--ла
--лаа
--лаад
--лагдадаг
--лагдажа
--лагдамал
--лагдана
--лагдаһан
--лаи
--лал
--лалга
--лалта
--лалтаи
--лалтые
--лалые
--лан
--лах
--лаха
--лахые
--лаһан
--лба
--лбэ
--лга
--лгые
--лгын
--лгэ
--лгүи
--лда
--лдаг
--лдэг
--лдэхэ
--ле
--ления
--лент
--лж
--лжа
--лжо
--лжэ
--ли
--лиг
--лна
--лнэ
--ло
--лобо
--логдожо
--логи
--лодог
--ложо
--лол
--лон
--лохо
--лт
--лта
--лтые
--лтэ
--лу
--луур
--лха
--лхын
--лхэ
--лцох
--лыг
--лые
--ль
--льм
--льных
--лэбэ
--лэг
--лэгдэбэ
--лэгдэжэ
--лэгдэнэ
--лэгдэхэ
--лэгдэһэн
--лэгшын
--лэдэг
--лэж
--лэжэ
--лэи
--лэл
--лэлгын
--лэлгэ
--лэлтые
--лэлтэ
--лэлтэи
--лэлэи
--лэмэл
--лэн
--лэх
--лэхын
--лэхэ
--лээ
--лээд
--лэһэн
--лю
--ля
--лүүлбэ
--лүүлжэ
--лүүлхэ
--лүүлһэн
--лһан
--лһон
--лһэн
--лһэнээр
--м
--ма
--маг
--мат
--мба
--мд
--ми
--мо
--мы
--мые
--мын
--мэл
--н
--на
--наи
--нар
--нг
--нги
--нд
--нда
--ндаа
--ндо
--ндэ
--ни
--ние
--нии
--ниие
--ник
--нин
--ния
--нко
--но
--ного
--нои
--нол
--ности
--ность
--нт
--нууд
--нуудаи
--нуудые
--нуудынь
--нхэи
--ны
--ные
--ныи
--ным
--нын
--ных
--нь
--нэ
--нэи
--нэр
--нээр
--нүүд
--нүүдтэ
--нүүдые
--нүүдэи
--нһаа
--нһээ
--о
--ов
--ова
--ович
--овна
--овои
--ог
--од
--одо
--ое
--ои
--ок
--ол
--ом
--он
--оо
--оор
--ор
--ори
--орнууд
--ос
--п
--пе
--пын
--р
--ра
--раа
--раи
--рал
--ралгын
--ран
--рб
--рба
--рбэ
--рг
--рга
--ргаһан
--рд
--рдаг
--ре
--рель
--ржа
--ржо
--ри
--рид
--рии
--риин
--рнэ
--роо
--рра
--рт
--рх
--рха
--рхаг
--рхаи
--рхо
--рхы
--ры
--рь
--рэ
--рэг
--рэи
--рэл
--рэн
--рээ
--ря
--ряа
--рүүлжэ
--рһан
--с
--са
--саа
--садаг
--сажа
--саи
--сан
--се
--си
--сии
--сис
--ск
--ска
--ская
--ские
--скии
--ского
--скои
--скын
--скэ
--сл
--со
--сон
--ст
--стан
--ствын
--сти
--сы
--сэ
--сэбэ
--сэжэ
--сөн
--т
--та
--таа
--таар
--тад
--таи
--тан
--танаи
--тах
--те
--ти
--тив
--тика
--то
--тов
--тои
--тон
--ту
--туудаи
--ты
--тые
--тын
--ть
--тэ
--тэд
--тэи
--тэн
--тэнэи
--түүд
--у
--уа
--уд
--удаи
--удыг
--уз
--уи
--укциин
--ун
--уп
--ур
--ури
--ус
--ут
--уу
--ууд
--уудаар
--уудаи
--уудта
--уудые
--уудһаа
--уулдаг
--уун
--ф
--фф
--х
--ха
--хажа
--хаи
--хан
--хеэ
--хи
--хид
--хинь
--хо
--хои
--хон
--хы
--хые
--хын
--хэ
--хэи
--хэн
--хээ
--хяа
--хөө
--ц
--ци
--ции
--циин
--ция
--цк
--цкын
--ч
--ча
--ческии
--чи
--чид
--чилал
--чуудын
--ш
--ша
--шаг
--шад
--шадта
--шажа
--шан
--шанаи
--шо
--шууд
--шуудаи
--шые
--шын
--шье
--шэ
--шэдэи
--шэжэ
--шэн
--шээ
--шүүд
--щи
--ы
--ыг
--ые
--ыень
--ым
--ын
--ынь
--ь
--ье
--ьск
--ьскии
--ья
--э
--эбэ
--эг
--эггүи
--эгшэ
--эд
--эжэ
--эи
--эл
--элдэ
--элые
--элэи
--эн
--энь
--энэи
--эр
--эрээ
--ээ
--ээр
--ээрээ
--эһэн
--эһээ
--ю
--юун
--юур
--я
--яа
--яар
--яи
--ян
--ү
--үд
--үи
--үш
--үүд
--үүдтэ
--үүдые
--үүдэи
--үүл
--үүлбэ
--үүлхэ
--үүлээ
--үүн
--һа
--һаа
--һан
--һон
--һоо
--һэ
--һэн
--һээ
--һөө
--ө
--өг
--өл
--өн
--өр
--өө
--өөр
--འ
--ᠢ
--ᠨ
--ᠭ
--ᠭᠠᠨ
