!
"
#
##0
##1
##10
##11
##12
##13
##14
##15
##16
##17
##18
##19
##2
##20
##21
##22
##23
##24
##25
##26
##27
##28
##29
##3
##30
##31
##32
##33
##34
##35
##36
##37
##38
##39
##4
##40
##41
##42
##43
##44
##45
##46
##47
##48
##49
##5
##50
##51
##52
##53
##54
##55
##56
##57
##58
##59
##6
##60
##61
##62
##63
##64
##65
##66
##67
##68
##69
##7
##70
##71
##72
##73
##74
##75
##76
##77
##78
##79
##8
##80
##81
##82
##83
##84
##85
##86
##87
##88
##89
##9
##90
##91
##92
##93
##94
##95
##96
##97
##98
##99
$
%
&
'
(
)
*
+
,
-
.
/
0
00
000
001
01
010
02
03
04
05
06
07
08
09
1
10
100
1000
1001
101
1016
102
1024
103
104
1040
105
1050
106
1066
107
108
1080
1086
109
11
110
1100
111
112
113
1130
114
115
1150
116
1160
117
1170
118
1180
119
1190
12
120
1200
1204
121
1212
122
1220
1225
1227
123
1230
124
1240
1241
1248
125
1250
126
1260
1265
127
1270
1275
128
1280
1282
1285
1287
1288
129
1290
1291
1295
1296
1297
13
130
1300
1301
1302
1303
1304
1305
1307
1308
131
1310
1312
1315
1316
132
1320
1325
1326
1328
133
1330
1333
1336
1337
134
1340
1342
1345
1346
1347
1348
1349
135
1350
1351
1355
1356
136
1360
1361
1364
1365
1368
137
1370
1371
1375
1378
138
1380
1381
1382
1384
1385
1386
1388
1389
139
1390
1392
1395
1396
1397
1399
14
140
1400
1401
1402
1404
1405
1409
141
1410
1412
1415
1417
1418
1419
142
1420
1421
1422
1423
1425
1426
1427
1428
1429
143
1430
1431
1432
1433
1435
1436
1438
1439
144
1440
1442
1443
1444
1445
145
1450
1451
1452
1453
1454
1455
1456
1457
1458
1459
146
1460
1461
1462
1463
1464
1465
1466
1467
1468
1469
147
1470
1471
1472
1473
1474
1475
1476
1477
1478
1479
148
1480
1481
1482
1483
1484
1485
1486
1487
1488
1489
149
1490
1491
1492
1493
1494
1495
1496
1497
1498
1499
15
150
1500
1501
1502
1503
1504
1505
1506
1507
1508
1509
151
1510
1511
1512
1513
1514
1515
1516
1517
1518
1519
152
1520
1521
1522
1523
1524
1525
1526
1527
1528
1529
153
1530
1531
1532
1533
1534
1535
1536
1537
1538
1539
154
1540
1541
1542
1543
1544
1545
1546
1547
1548
1549
155
1550
1551
1552
1553
1554
1555
1556
1557
1558
1559
156
1560
1561
1562
1563
1564
1565
1566
1567
1568
1569
157
1570
1571
1572
1573
1574
1575
1576
1577
1578
1579
158
1580
1581
1582
1583
1584
1585
1586
1587
1588
1589
159
1590
1591
1592
1593
1594
1595
1596
1597
1598
1599
16
160
1600
1601
1602
1603
1604
1605
1606
1607
1608
1609
161
1610
1611
1612
1613
1614
1615
1616
1617
1618
1619
162
1620
1621
1622
1623
1624
1625
1626
1627
1628
1629
163
1630
1631
1632
1633
1634
1635
1636
1637
1638
1639
164
1640
1641
1642
1643
1644
1645
1646
1647
1648
1649
165
1650
1651
1652
1653
1654
1655
1656
1657
1658
1659
166
1660
1661
1662
1663
1664
1665
1666
1667
1668
1669
167
1670
1671
1672
1673
1674
1675
1676
1677
1678
1679
168
1680
1681
1682
1683
1684
1685
1686
1687
1688
1689
169
1690
1691
1692
1693
1694
1695
1696
1697
1698
1699
17
170
1700
1701
1702
1703
1704
1705
1706
1707
1708
1709
171
1710
1711
1712
1713
1714
1715
1716
1717
1718
1719
172
1720
1721
1722
1723
1724
1725
1726
1727
1728
1729
173
1730
1731
1732
1733
1734
1735
1736
1737
1738
1739
174
1740
1741
1742
1743
1744
1745
1746
1747
1748
1749
175
1750
1751
1752
1753
1754
1755
1756
1757
1758
1759
176
1760
1761
1762
1763
1764
1765
1766
1767
1768
1769
177
1770
1771
1772
1773
1774
1775
1776
1777
1778
1779
178
1780
1781
1782
1783
1784
1785
1786
1787
1788
1789
179
1790
1791
1792
1793
1794
1795
1796
1797
1798
1799
18
180
1800
1801
1802
1803
1804
1805
1806
1807
1808
1809
181
1810
1811
1812
1813
1814
1815
1816
1817
1818
1819
182
1820
1821
1822
1823
1824
1825
1826
1827
1828
1829
183
1830
1831
1832
1833
1834
1835
1836
1837
1838
1839
184
1840
1841
1842
1843
1844
1845
1846
1847
1848
1849
185
1850
1851
1852
1853
1854
1855
1856
1857
1858
1859
186
1860
1861
1862
1863
1864
1865
1866
1867
1868
1869
187
1870
1871
1872
1873
1874
1875
1876
1877
1878
1879
188
1880
1881
1882
1883
1884
1885
1886
1887
1888
1889
189
1890
1891
1892
1893
1894
1895
1896
1897
1898
1899
19
190
1900
1901
1902
1903
1904
1905
1906
1907
1908
1909
191
1910
1911
1912
1913
1914
1915
1916
1917
1918
1919
192
1920
1921
1922
1923
1924
1925
1926
1927
1928
1929
193
1930
1931
1932
1933
1934
1935
1936
1937
1938
1939
194
1940
1941
1942
1943
1944
1945
1946
1947
1948
1949
195
1950
1951
1952
1953
1954
1955
1956
1957
1958
1959
196
1960
1961
1962
1963
1964
1965
1966
1967
1968
1969
197
1970
1971
1972
1973
1974
1975
1976
1977
1978
1979
198
1980
1981
1982
1983
1984
1985
1986
1987
1988
1989
199
1990
1991
1992
1993
1994
1995
1996
1997
1998
1999
2
20
200
2000
2001
2002
2003
2004
2005
2006
2007
2008
2009
201
2010
2011
2012
2013
2014
2015
2016
2017
2018
2019
202
2020
2021
2022
2023
2024
2025
2029
203
2030
204
2045
205
206
207
208
209
21
210
2100
211
212
213
214
2142
215
216
217
218
219
22
220
2200
221
222
223
224
225
226
227
228
229
23
230
2300
231
232
233
234
235
236
237
238
239
24
240
2400
241
242
243
244
245
246
247
248
249
25
250
2500
251
252
253
254
255
256
257
258
259
26
260
2600
261
262
263
264
265
266
267
268
269
27
270
271
272
273
274
275
276
277
278
279
28
280
281
282
283
284
285
286
287
288
289
29
290
291
292
293
294
295
296
297
298
299
3
30
300
3000
301
302
303
304
305
306
307
308
309
31
310
311
312
313
314
315
316
3166
317
318
319
32
320
321
322
323
324
325
326
327
328
329
33
330
331
332
333
334
335
336
337
338
339
34
340
341
342
343
344
345
346
347
348
349
35
350
3500
351
352
353
354
355
356
357
358
359
36
360
361
362
363
364
365
366
367
368
369
37
370
371
372
373
374
375
376
377
378
379
38
380
381
382
383
384
385
386
387
388
389
39
390
391
392
393
394
395
396
397
398
399
4
40
400
4000
401
402
403
404
405
406
407
408
409
41
410
411
412
413
414
415
416
417
418
419
42
420
421
422
423
424
425
426
427
428
429
43
430
431
432
433
435
436
437
438
439
44
440
441
442
443
444
445
446
447
448
45
450
4500
451
452
453
454
455
456
457
458
46
460
461
462
464
465
466
47
470
471
472
474
475
476
48
480
485
486
488
49
490
491
495
496
498
499
5
50
500
5000
501
502
503
504
505
506
507
508
509
51
510
511
512
514
515
518
52
520
521
525
529
53
530
532
533
534
535
538
54
540
545
548
55
550
555
56
560
565
568
57
570
575
578
58
580
585
59
590
6
60
600
6000
601
602
603
604
605
61
610
614
616
618
62
620
625
628
63
630
639
64
640
65
650
66
660
666
67
670
675
68
680
69
690
7
70
700
7000
707
71
710
72
720
73
730
737
74
740
745
747
75
750
76
760
767
77
770
777
78
780
79
8
80
800
8000
802
81
810
817
82
820
83
830
84
840
85
850
86
860
87
870
88
880
89
89494
9
90
900
9000
901
90210
91
910
911
918048
9182
92
920
923058
924
925
93
930
94
940
95
950
96
960
965
97
970
975
978
9789044628142
98
980
99
990
999
:
;
<
=
>
?
@
[
\
]
^
_
`
a
aa
aaa
aachen
aad
aal
aalborg
aalsmeer
aalst
aalten
aan
aanbesteding
aanbeveling
aanbevelingen
aanbevolen
aanbidding
aanbieden
aanbieder
aanbieders
aanbiedt
aanblik
aanbod
aanbood
aanbouw
aanbrengen
aandacht
aandeel
aandeelhouder
aandeelhouders
aandelen
aandoen
aandoening
aandoeningen
aandrijving
aandringen
aanduiden
aanduiding
aanduidingen
aanduidt
aaneen
aaneengesloten
aangaan
aangaande
aangaat
aangaf
aangeboden
aangeboren
aangebouwd
aangebracht
aangebrachte
aangedaan
aangedreven
aangeduid
aangeeft
aangegaan
aangegeven
aangehaald
aangehecht
aangehouden
aangeklaagd
aangekocht
aangekomen
aangekondigd
aangelegd
aangelegde
aangelegenheden
aangelegenheid
aangemaakt
aangemerkt
aangemoedigd
aangenaam
aangename
aangenomen
aangepakt
aangepast
aangepaste
aangeplant
aangeraden
aangereden
aangericht
aangeschaft
aangeslagen
aangesloten
aangespannen
aangesproken
aangesteld
aangestoken
aangestuurd
aangetast
aangetoond
aangetroffen
aangetrokken
aangevallen
aangeven
aangevoerd
aangevraagd
aangevuld
aangewend
aangewezen
aangezet
aangezicht
aangezien
aangifte
aangrenzende
aanhaling
aanhang
aanhanger
aanhangers
aanhangsel
aanhangsels
aanhechting
aanhouden
aanhoudend
aanhoudende
aanklacht
aanklager
aankomen
aankomende
aankomst
aankomt
aankondigde
aankondiging
aankoop
aankopen
aankwam
aankwamen
aanleg
aanleggen
aanleiding
aanloop
aanmaken
aanmelden
aanmerkelijk
aanmerking
aannam
aanname
aanneemt
aannemelijk
aannemen
aannemer
aanpak
aanpakken
aanpassen
aanpassing
aanpassingen
aanraden
aanraken
aanraking
aanschaf
aanschouwen
aanslag
aanslagen
aansloot
aansluit
aansluiten
aansluitend
aansluitende
aansluiting
aansluitingen
aanspraak
aansprakelijk
aansprakelijkheid
aanspraken
aanspreken
aanstaande
aanstelling
aantal
aantallen
aantasting
aantekeningen
aantonen
aantonende
aantrad
aantreden
aantreffen
aantreft
aantrekkelijk
aantrekkelijke
aantrekken
aantrekkingskracht
aanvaard
aanvaardde
aanvaarden
aanvaarding
aanval
aanvallen
aanvallende
aanvaller
aanvallers
aanvang
aanvankelijk
aanvankelijke
aanvaring
aanverwante
aanviel
aanvoegende
aanvoer
aanvoerder
aanvoering
aanvraag
aanvragen
aanvullend
aanvullende
aanvulling
aanvullingen
aanwezig
aanwezige
aanwezigen
aanwezigheid
aanwijzen
aanwijzing
aanwijzingen
aanzet
aanzetten
aanzien
aanzienlijk
aanzienlijke
aap
aar
aard
aardappel
aardappelen
aardbeving
aardbevingen
aarde
aarden
aardewerk
aardgas
aardig
aardige
aardkorst
aardolie
aardoppervlak
aardrijkskunde
aardse
aargau
aarhus
aarlen
aaron
aarschot
aart
aarts
aartsbisdom
aartsbisschop
aartsengel
aartshertog
aartsrivaal
aas
aasgarnalensoort
aat
ab
aba
abacetus
abacus
abajo
abba
abbas
abbaye
abbe
abbey
abbot
abbots
abbott
abby
abc
abchazie
abcoude
abd
abdij
abdijen
abdijkerk
abdis
abdul
abdullah
abe
abeele
abel
aberdeen
abington
ablatief
abn
abonnees
abonnement
aborigines
abortus
about
above
abraham
abrupt
abs
absolute
absoluut
abstract
abstracte
abt
abteilung
abu
ac
acade
academia
academic
academie
academisch
academische
academy
acapulco
accademia
accent
accenten
acceptatie
accepteerde
accepteert
accepteren
access
accessoires
accommodatie
accordeon
account
accountant
accu
accusatief
ace
aceh
acentropinae
ach
achievement
achille
achilles
acht
achtbaan
achten
achter
achteraan
achteraf
achterberg
achtereen
achtereenvolgende
achtereenvolgens
achteren
achtergebleven
achtergelaten
achtergevel
achtergrond
achtergronden
achtergrondzang
achterhaald
achterhalen
achterhoede
achterhoek
achterhoofd
achterin
achterkant
achterkleinzoon
achterland
achterlaten
achterliggende
achterlijf
achterna
achternaam
achterneef
achterpoten
achterrand
achterstand
achterste
achteruit
achteruitgang
achtervoegsel
achtervolgd
achtervolgen
achtervolging
achterwaarts
achterwand
achterwege
achterwiel
achterzijde
achthoekige
achthonderd
achtig
achtige
achtjarige
achtste
achtte
achttien
achttiende
achttienjarige
acid
acker
acleris
acoustic
acres
acrididae
acroniem
across
act
acta
acte
acteercarrie
acteerde
acteren
acteur
acteurs
actie
actief
actiefilm
actiegroep
acties
actieve
action
activa
active
activeren
activist
activiste
activisten
activiteit
activiteiten
actor
actors
actress
actrice
actrices
acts
actualiteit
actueel
actuele
acute
ad
ada
adagio
adalbert
adam
adams
add
addams
addison
addy
ade
adel
adela
adelaar
adelaide
adele
adelheid
adellijk
adellijke
adelstand
adem
ademen
ademhaling
aden
ader
aderidae
aders
aderus
adjudant
adjunct
adler
administrateur
administratie
administratief
administratieve
administration
administrator
admiraal
admiral
admiraliteit
ado
adobe
adolf
adolph
adolphe
adoptie
adres
adressen
adria
adriaan
adriaen
adrian
adriana
adrianus
adriatico
adriatische
adrien
adrienne
adult
advance
advanced
adventure
adventures
advertentie
advertenties
advies
adviesraad
adviezen
adviseerde
adviseert
adviseren
adviseur
adviseurs
advocaat
advocate
advocaten
advocatenkantoor
ae
aek
aen
aeneas
aero
aert
aerts
af
afb
afbeelding
afbeeldingen
afbraak
afbreken
afc
afdaling
afdeeling
afdeling
afdelingen
afdelingsaanduiding
afdelingsletter
afdruk
afdrukken
afdwingen
affair
affaire
affairs
affiche
affiches
affinis
afgebakend
afgebeeld
afgebeelde
afgeblazen
afgebouwd
afgebrand
afgebroken
afgedaan
afgedekt
afgedrukt
afgedwongen
afgegeven
afgegraven
afgekeurd
afgekondigd
afgekort
afgelast
afgelegd
afgelegen
afgeleid
afgeleide
afgeleverd
afgelopen
afgelost
afgemaakt
afgenomen
afgeplat
afgeplatte
afgerond
afgeronde
afgeschaft
afgescheiden
afgeslagen
afgesloten
afgesneden
afgespeeld
afgesplitst
afgesproken
afgestaan
afgestemd
afgestoten
afgestudeerd
afgevaardigd
afgevaardigde
afgevaardigden
afgeven
afgevoerd
afgevuurd
afgewerkt
afgewezen
afgewisseld
afgezet
afgezien
afghaanse
afghanistan
afgrond
afhangt
afhankelijk
afhankelijke
afhankelijkheid
afkeer
afkomst
afkomstig
afkomstige
afkorting
afkortingen
afl
afleggen
afleiden
afleiding
aflevering
afleveringen
afliep
afloop
aflopen
aflopende
aflossing
afmaken
afmeting
afmetingen
afnam
afname
afneemt
afnemen
africa
african
africana
africanus
afrika
afrikaans
afrikaanse
afrikanen
afrit
afro
afronden
afronding
afrotropisch
afschaffen
afschaffing
afscheid
afscheiding
afslag
afsloot
afsluitdijk
afsluiten
afsluitende
afsluiting
afspeelt
afspelen
afsplitsing
afspraak
afspraken
afstaan
afstammeling
afstammelingen
afstammen
afstamming
afstand
afstanden
afstudeerde
afstuderen
aftakking
after
aftiteling
aftocht
aftreden
aftrek
afval
afvalwater
afvoer
afvuren
afwachting
afwatering
afwerking
afwezig
afwezigheid
afwijken
afwijkend
afwijkende
afwijking
afwijkingen
afwijkt
afwijzing
afwisselend
afwisseling
afzet
afzetten
afzetting
afzettingen
afzonderlijk
afzonderlijke
ag
again
against
agassiz
agatha
agave
age
agency
agenda
agent
agenten
agentschap
ages
agglomeratie
agnes
agostini
agovv
agra
agrarisch
agrarische
agressie
agressief
agressieve
agrippa
agromyzidae
agrypnus
agt
agua
aguilar
aguirre
agung
agusta
ah
ahead
ahmad
ahmed
ahoy
ai
aid
aids
aime
ain
air
airbus
aircraft
aire
aires
airlines
airport
airways
ais
aise
aisne
aix
aj
ajax
ajs
ak
aka
akademie
akbar
aken
aki
akira
akker
akkerbouw
akkers
akkoord
akkoorden
akoestisch
akoestische
akte
akten
al
ala
alabama
aladdin
alain
alan
aland
alarm
alarmschijf
alaska
alba
alban
albanees
albanese
albanezen
albanie
albany
albatros
albers
albert
alberta
alberti
albertkanaal
alberto
alberts
albertus
albin
albion
albrecht
album
albums
alcala
alchemie
alcock
alcohol
alcoholische
alcoholpercentage
aldaar
alde
alden
aldo
aldrich
aldus
ale
alec
alegre
alejandro
aleksander
aleksandr
aleksej
aleppo
alert
alessandro
alessio
aletta
alex
alexander
alexandra
alexandre
alexandria
alexandrie
alexis
aleyrodidae
aleyrodinae
alf
alfa
alfabet
alfabetisch
alfabetische
alfabetiseringsgraad
alfons
alfonso
alfoz
alfred
alfredo
algarve
algebra
algebrai
algehele
algemeen
algemeene
algemene
algen
algerije
algerijns
algerijnse
algiers
algoritme
alhier
alhoewel
ali
alias
alicante
alice
alicia
alida
alien
aliens
alinea
alison
alive
alkmaar
all
alla
allah
allan
allard
alle
allebei
alledaagse
alleen
alleenstaande
allegorische
allegretto
allegro
allemaal
allen
aller
allereerst
allereerste
allerhande
allerlaatste
allerlei
alles
alley
allgemeine
alliance
alliantie
allier
allington
allison
allium
allmusic
allotment
allround
alluaud
ally
alma
almeida
almelo
almere
almeri
almost
aloe
alois
alom
alone
along
alonso
alpen
alpes
alpha
alphen
alphonse
alpina
alpine
alpineskie
alpineskiester
als
alsmede
alsnog
also
alsof
alsook
alt
alta
altaar
altaarstuk
altaren
alte
alten
altena
altenburg
alter
alternatief
alternatieve
alternatieven
alternative
althans
althobo
altijd
alto
alton
altona
altsaxofoon
altviolen
altviool
aluminium
alumni
alv
alva
alvarez
alvast
alves
alvin
alvorens
alwaar
always
alweer
alzheimer
alzo
alzoo
am
ama
amadeus
amador
amalia
amand
amanda
amara
amateur
amateurclub
amateurniveau
amateurs
amateurvoetbal
amateurvoetbalclub
amateurvoetbalvereniging
amaurobiidae
amazing
amazon
amazone
ambacht
ambachtelijke
ambachten
ambachtslieden
ambassade
ambassadeur
ambassadeurs
amber
ambient
ambitie
ambities
ambitieuze
ambo
ambon
ambrose
ambrosius
ambt
ambtelijke
ambten
ambtenaar
ambtenaren
ambtstermijn
ambulance
amc
ame
ameland
amelia
amen
amendement
america
american
americana
amerika
amerikaan
amerikaans
amerikaanse
amerikanen
amerongen
amersfoort
ames
amfibiee
amfitheater
ami
amiens
amiga
amin
aminozuren
amir
amis
ammoniak
amnestie
amnesty
amoer
amon
among
amor
amore
amos
amour
ampe
ampedus
amper
amplitude
amro
amsel
amstel
amstelveen
amsterdam
amsterdammer
amsterdams
amsterdamsche
amsterdamse
amt
amusement
amy
an
ana
analoge
analogie
analoog
analyse
analyseren
analyses
analysis
analytische
anarchistische
anastasia
anatoli
anatolie
anatomie
anatomische
anatomy
anc
ancien
ancient
ancona
and
andalusie
andante
ander
andere
anderen
anderhalf
anderhalve
anderlecht
andermaal
anders
andersen
andersom
anderson
andersson
anderszins
anderzijds
andes
andorra
andra
andrade
andre
andrea
andreas
andrei
andrej
andrena
andrenidae
andres
andrew
andrewes
andrews
andries
andriessen
android
andrzej
andy
ane
ang
ange
angel
angela
angeles
angeli
angelique
angelo
angels
angelsaksische
angers
angle
anglia
anglicaanse
anglo
angola
angoule
angst
angstig
anguilla
angus
anhalt
ani
animal
animals
animated
animatie
animatiefilm
animatieserie
animation
anime
anisoptera
anita
anja
anjou
ankara
anke
anker
ann
anna
annalen
annales
annan
anne
anneke
annelies
annemarie
annette
annex
annexatie
annie
anniversary
anno
annuaire
annual
anobiidae
anolis
anoniem
anonieme
anorganische
another
anouk
ans
anstey
ant
antalya
antarctica
antarctische
ante
antenne
antennen
antennes
anthem
anthicidae
anthology
anthomyiidae
anthonie
anthony
anthophora
anthos
anthozoa
anti
antibiotica
antiek
antieke
antigonos
antigua
antillen
antilliaanse
antiochie
antiochus
antisemitische
antisemitisme
anto
antoine
antoinette
anton
antoni
antonia
antonie
antonio
antonius
antonov
antony
antoon
antropologie
antropoloog
antwerp
antwerpen
antwerps
antwerpse
antwoord
antwoordde
antwoorden
antwoordt
anubis
anus
anwb
any
anything
ao
aosta
aow
ap
apache
apanteles
apart
aparte
apartheid
apeldoorn
apen
apertura
apg
aphelinidae
aphrodite
aphrophoridae
api
apicalis
apidae
apocalypse
apollo
apostel
apostelen
apostolisch
apostolische
apotheek
apotheker
app
apparaat
apparaten
apparatuur
appartement
appartementen
appartementencomplex
appel
appels
appenzell
appingedam
apple
applicatie
applicaties
application
applied
approach
apps
apr
apre
april
apsis
apulie
aqua
aquaduct
aquarel
aquarellen
aquarium
aquila
aquino
aquitaine
aquitanie
ar
ara
arab
arabie
arabieren
arabisch
arabische
arago
aragon
aramees
aranda
araneidae
araneus
arauzo
arbeid
arbeider
arbeiders
arbeidersbeweging
arbeidersklasse
arbeiderspartij
arbeiderspers
arbeiderswoningen
arbeidsmarkt
arbitrage
arboretum
arc
arcade
arch
archai
arche
archeologen
archeologie
archeologisch
archeologische
archeoloog
archer
archibald
archie
archief
archieven
archipel
architect
architecten
architectenbureau
architectonische
architecture
architectuur
archivaris
archive
archives
arco
arctic
arctiinae
arctische
ard
arde
ardennen
ardennes
ardisia
are
area
areaal
aren
arena
arenberg
arend
arent
ares
arg
argent
argentijns
argentijnse
argentina
argentinie
argo
argos
argument
argumenten
argus
ari
aria
ariane
arias
arie
ariel
aristocratie
aristocratische
aristoteles
arizona
arjan
arjen
ark
arkansas
arkel
arles
arlington
arm
armada
armagnac
armand
armando
armata
arme
armee
armeens
armeense
armen
armenie
armin
armoede
armor
arms
armstrong
army
arn
arnaud
arne
arnhem
arnhemse
arno
arnold
arnoldus
arnoud
arnulf
arol
aroma
aromatische
aron
around
arp
arrangement
arrangementen
arrangeur
arras
array
arrest
arrestatie
arrestaties
arresteren
arriba
arriva
arriveerde
arriveerden
arriveert
arriveren
arrondissement
arrondissementen
arrow
arroyo
ars
arse
arsenaal
arsenal
art
arte
artefacten
artemis
artes
artesie
arthur
arti
article
articles
artiest
artiesten
artiestennaam
artikel
artikelen
artikels
artillerie
artillery
artis
artist
artistiek
artistieke
artists
artois
arts
artsen
artur
arturo
artwork
aru
aruba
as
asch
asfalt
ash
ashford
ashley
ashmead
ashton
asia
asian
asiel
asielzoekers
asilidae
ask
aso
asp
aspect
aspecten
aspirant
aspo
ass
assassin
asse
assemblage
assemble
assemblee
assembly
assen
asser
assisi
assist
assistent
assistente
assistenten
assistentie
assists
associated
associatie
association
assortiment
assyrie
assyrische
astana
asten
asterix
astma
aston
astra
astrid
astrologie
astronaut
astronauten
astronomen
astronomical
astronomie
astronomische
astronoom
asturie
asymmetrische
at
ata
atalanta
atari
atatu
atelier
ateliers
aten
athanasius
atheense
athei
athena
athenaeum
athene
atheners
atheneum
athletic
athletics
atie
atjeh
atkins
atkinson
atlanta
atlantic
atlantique
atlantiques
atlantis
atlantisch
atlantische
atlas
atle
atleet
atlete
atleten
atletiek
atmosfeer
atmosferische
atol
atomen
atomic
atoom
atoombom
atoomnummer
atp
atrecht
attack
attelabidae
attila
attractie
attractiepark
attracties
attributen
attribuut
au
aube
aubert
aubin
auch
auckland
aude
audi
audio
auditie
auditorium
audrey
auf
auflage
aug
auge
augsburg
august
augusta
auguste
augustin
augustinus
augusto
augustus
aula
aura
aurea
aurelius
aureus
aurivillius
aurora
aus
auschwitz
auspicie
austin
australaziatisch
australia
australian
australie
australis
australisch
australische
austria
auteur
auteurs
auteursrecht
auteursrechten
authenticiteit
authentiek
authentieke
author
authority
autisme
auto
autobahn
autobiografie
autobiografisch
autobiografische
autobus
autochtone
autocoureur
autodidact
autodromo
autofabrikant
automaat
automatisch
automatische
automerk
automobile
autonome
autonomie
autonoom
autoritaire
autoriteit
autoriteiten
autosalon
autosnelweg
autosnelwegen
autosport
autoverkeer
autoweg
autumn
auvergne
aux
auxerre
av
ava
available
avalon
avant
avatar
ave
avec
avengers
avenue
averbode
avermaet
avery
avesnes
aveyron
avia
aviation
avibase
avignon
aviv
avon
avond
avonden
avondmaal
avonds
avonturen
avontuur
avro
avrotros
award
awards
away
ax
axel
axioma
ay
az
azerbeidzjaans
azerbeidzjaanse
azerbeidzjan
aziatisch
aziatische
azie
azijn
aziz
azoren
azur
azuur
b
ba
baa
baai
baan
baantjer
baantjes
baanvak
baanwielrennen
baar
baard
baarde
baarle
baarmoeder
baarn
baars
baart
baas
baat
bab
baba
babel
baby
babylon
babylonie
babylonische
bac
bach
bachelor
back
backer
bacon
bacterie
bactrocera
bad
baden
badge
badhuis
badkamer
badminton
badplaats
baehr
baert
baetidae
bafta
bag
bagage
bagdad
baha
bahama
bahia
bahn
bahnhof
bahrein
bai
bailey
bains
baird
baja
bak
bakel
baker
bakermat
bakken
bakker
bakkerij
bakoe
baksteen
bakstenen
bal
balans
baldwin
balen
bali
balie
baljuw
balk
balkan
balken
balkenende
balkon
balkspiraalstelsel
ball
ballad
ballade
ballen
ballet
ballingschap
ballon
balthasar
balthazar
baltimore
baltische
balustrade
baly
bam
bamberg
bamboe
bamos
ban
banaan
bananen
banco
band
banda
bandar
banden
bandleden
bandleider
bandlid
bands
bandung
banen
bang
bangka
bangkok
bangladesh
banjo
bank
bankbiljetten
banken
bankier
banks
banner
banska
bantam
banten
baptist
baptiste
bar
bara
barabas
barack
barakken
barangays
barat
barbadillo
barbados
barbara
barbarossa
barbe
barber
barbier
barbuda
barbus
barcelona
barclay
bare
baren
barend
barendrecht
bari
bariton
barker
barlow
barman
barmhartigheid
barnard
barnes
barnett
barneveld
barney
barok
barokke
barokstijl
baron
barones
baronie
barr
barre
barrett
barrie
barrio
barrion
barrios
barron
barrow
barry
bars
barst
barstte
bart
barth
barthe
bartholomeus
barto
barton
bartsch
baru
bas
basaal
basale
base
baseball
based
baseerde
basel
bases
basgitaar
basgitarist
basic
basie
basil
basilewsky
basilica
basiliek
basin
basis
basisonderwijs
basisplaats
basisscholen
basisschool
basisspeler
baskenland
basket
basketbal
basketball
basketballer
basketbalspeler
basketbalteam
baskisch
baskische
basklarinet
bass
basse
bassett
bassie
bassin
bassist
bassler
basso
bast
basten
bastenaken
bastia
bastiaan
bastien
bastille
bastion
bat
bataafse
bataljon
bataljons
batang
batavia
bate
baten
batenburg
bates
bath
batista
batman
baton
batterij
batterijen
battista
battle
batu
bauer
bauhaus
baumann
baureihe
bauwens
bax
baxter
bay
bayer
bayern
bayreuth
bazel
bb
bbc
bc
bd
bdo
be
bea
beach
bean
beantwoord
beantwoorden
bear
beast
beat
beata
beatles
beatrice
beatrix
beats
beatty
beau
beauchamp
beaufort
beaulieu
beaumont
beautiful
beauty
beauvais
beaux
beaver
bebost
beboste
bebouwd
bebouwde
bebouwing
bec
because
bechyne
beck
becker
beckermet
bed
bedacht
bedankt
bedankte
bedden
bedding
bede
bedekken
bedekt
bedekte
bedenken
bedenker
bedenkt
bedevaart
bedevaartsoord
bedford
bediend
bediende
bedienden
bedienen
bediening
bedient
bedoeld
bedoelde
bedoeling
bedoelingen
bedoelt
bedraagt
bedrag
bedragen
bedreigd
bedreigde
bedreigen
bedreiging
bedreigingen
bedreigt
bedreven
bedrijf
bedrijfskunde
bedrijfsleven
bedrijfsnaam
bedrijfsvoering
bedrijven
bedrijvende
bedrijventerrein
bedrijvigheid
bedroeg
bedroegen
bedrog
bedrogen
beduidend
bee
beek
beekkevers
beeld
beelden
beeldend
beeldende
beeldengroep
beeldenpark
beeldenstorm
beeldhouwen
beeldhouwer
beeldhouwers
beeldhouwkunst
beeldhouwster
beeldhouwwerk
beeldhouwwerken
beeldje
beeldjes
beeldmateriaal
beeldscherm
beeldt
beeltenis
been
beenderen
beer
beerdiertjes
beernaert
beers
beerschot
beervlinder
beervlinders
beest
beesten
beet
beethoven
beetje
befaamde
before
begaan
begaf
begane
begeeft
begeerte
begeleid
begeleidde
begeleiden
begeleidende
begeleider
begeleiding
begeleidt
begeven
begijnhof
begin
beginjaren
beginnen
beginnend
beginnende
beginners
beginning
beginperiode
beginpunt
beginsel
beginselen
begint
begintijd
begon
begonnen
begraafplaats
begraafplaatsen
begrafenis
begraven
begreep
begrensd
begrenzing
begrepen
begrijp
begrijpen
begrijpt
begrip
begrippen
begroeid
begroeide
begroeiing
begroting
behaald
behaalde
behaalden
behaalt
behaard
behaarde
behalen
behalve
behandeld
behandelde
behandelen
behandeling
behandelingen
behandelt
behartigen
beheer
beheerd
beheerde
beheerder
beheersen
beheersing
beheerst
beheerste
beheert
beheren
behield
behielden
behind
behoeden
behoeft
behoefte
behoeften
behoeve
behoeven
behoorde
behoorden
behooren
behoorlijk
behoorlijke
behoort
behoren
behorend
behorende
behoud
behouden
behoudens
behoudt
behuizing
behulp
bei
beiaard
beide
beiden
beier
beieren
beierse
beige
beijerland
beijing
being
beiroet
bejaarde
bek
bekeerd
bekeerde
bekeken
beken
bekend
bekende
bekenden
bekender
bekendere
bekendgemaakt
bekendheid
bekendmaking
bekendst
bekendstaat
bekendste
bekendstond
bekennen
bekent
bekentenis
beker
bekeren
bekerfinale
bekering
bekers
bekertoernooi
bekerwedstrijd
bekerwinnaar
bekijken
bekijkt
bekken
bekkens
bekleden
bekleding
bekleed
bekleedde
bekleedt
beklimmen
beklimming
beklommen
beknopte
bekomen
bekostigen
bekrachtigd
bekrachtiging
bekritiseerd
bekritiseerde
bekroning
bekroond
bekroonde
bekwaam
bekwaamheid
bel
bela
belachelijk
beladen
beland
belandde
belanden
belandt
belang
belangen
belangrijk
belangrijke
belangrijker
belangrijkste
belangstelling
belast
belasting
belastingdienst
belastingen
belbo
belde
bele
belediging
beleefd
beleefde
beleeft
beleend
beleg
belegd
belegerd
belegerde
belegering
beleggen
beleggers
beleid
beletten
beleven
belevenissen
beleving
belfast
belfort
belg
belge
belgen
belges
belgian
belgica
belgie
belgique
belgisch
belgische
belgium
belgrado
belicht
believe
belize
bell
bella
bellamy
belle
bellen
belles
bellevue
belli
bellini
bello
bells
belo
belofte
beloften
belokobylskij
beloning
beloofd
beloofde
belooft
beloond
beloven
belt
beluisteren
belvedere
bemachtigen
bemand
bemande
bemanning
bemanningsleden
bemanningslid
bembidion
bemiddelaar
bemiddeling
bemmel
bemoeien
bemoeilijkt
ben
benaderd
benaderde
benaderen
benadering
benadert
benadrukken
benadrukt
benadrukte
benaming
benamingen
bend
bende
bender
bene
beneden
benedenloop
benedetto
benedict
benedictus
benelux
benen
benevento
benfica
bengaalse
bengalen
bengkulu
beni
benin
benito
benjamin
bennekom
bennett
benno
benny
benodigde
benoemd
benoemde
benoemen
benoeming
benoemingen
benoemt
benoi
benoist
benoit
benson
bent
benth
bentheim
bentinck
bentley
benton
benut
benutten
benz
benzine
benzinemotor
beoefend
beoefenen
beoefening
beoogde
beoordeeld
beoordelen
beoordeling
beoordelingen
beoordelingsjaar
bepaald
bepaalde
bepaalt
bepalen
bepalend
bepaling
bepalingen
beperken
beperkende
beperking
beperkingen
beperkt
beperkte
beplant
ber
berbers
berchem
bere
berecht
bereden
bereid
bereidde
bereiden
bereiding
bereik
bereikbaar
bereiken
bereikt
bereikte
bereikten
berekend
berekende
berekenen
berekening
berekeningen
beren
berend
berg
bergachtig
bergachtige
bergamo
berge
bergen
berger
bergh
berghe
bergketen
bergklassement
bergman
bergpas
bergsma
bergtop
bergtoppen
berhaupt
bericht
berichten
berichtgeving
berichtte
beringen
berio
berk
berkel
berkeley
berkhout
berkshire
berlage
berland
berlijn
berlijnse
berlin
berliner
berlusconi
bermuda
bern
bernadette
bernard
bernardino
bernardo
bernardus
bernd
berner
bernhard
bernie
bernstein
beroemd
beroemde
beroemdheden
beroemdste
beroep
beroepen
beroepsbevolking
beroepshalve
beroepsonderwijs
beroerte
beroofd
berouw
berry
bert
bertha
berthold
bertrand
bertus
berucht
beruchte
berust
berusten
berwick
bes
besanc
besar
beschadigd
beschadigde
beschadigen
beschadiging
beschadigingen
beschaving
beschavingen
bescheiden
beschermd
beschermde
beschermen
beschermende
beschermer
beschermheer
beschermheilige
bescherming
beschermingsstatus
beschermt
beschikbaar
beschikbaarheid
beschikbare
beschikken
beschikking
beschikt
beschikte
beschikten
beschilderd
beschilderde
beschoten
beschouwd
beschouwde
beschouwden
beschouwen
beschouwing
beschouwingen
beschouwt
beschreef
beschreven
beschrijft
beschrijven
beschrijvende
beschrijvers
beschrijving
beschrijvingen
beschuldigd
beschuldigde
beschuldigden
beschuldigen
beschuldiging
beschuldigingen
beschuldigt
besef
beseffen
beseft
besefte
beslaan
beslaat
beslag
beslecht
beslissen
beslissend
beslissende
beslissing
beslissingen
beslissings
beslissingswedstrijd
beslist
besliste
besloeg
besloot
besloten
besluit
besluiten
besluitvorming
besmet
besmette
besmettelijke
besmetting
besmettingen
besparen
bespeeld
bespeelde
bespeelt
bespelen
bespreekt
bespreken
bespreking
besprekingen
besproken
bessen
best
bestaan
bestaand
bestaande
bestaat
bestand
bestanddeel
bestanddelen
bestanden
beste
besteden
besteed
besteedde
besteedt
besteeg
bestek
besteld
bestelde
bestellen
bestelling
bestemd
bestemde
bestemming
bestemmingen
bestemmingsplan
bestempeld
besten
bestond
bestonden
bestorming
bestraft
bestreden
bestrijden
bestrijding
bestseller
bestudeerd
bestudeerde
bestudeert
bestuderen
bestudering
besturen
besturing
besturingssysteem
besturingssystemen
bestuur
bestuurd
bestuurde
bestuurder
bestuurders
bestuurlijk
bestuurlijke
bestuurslaag
bestuursleden
bestuurslid
bestuursorgaan
bestuursvergadering
bestuursvoorzitter
bestuurt
bet
beta
betaald
betaalde
betaalden
betaalt
betalen
betaling
betalingen
beteekenis
betekende
betekenen
betekenis
betekenissen
betekent
beter
betere
beth
bethlehem
bethune
beton
betonnen
betoog
betrapt
betreden
betreffen
betreffende
betreft
betrekkelijk
betrekken
betrekking
betrekkingen
betreuren
betrof
betrok
betrokken
betrokkene
betrokkenen
betrokkenheid
betrouwbaar
betrouwbaarheid
betrouwbare
betsy
better
betty
betuwe
between
betwist
beu
beuk
beuken
beul
beuningen
beurs
beurt
beurzen
bevaarbaar
beval
bevallen
bevalling
bevat
bevatte
bevatten
bevechten
beveelt
beveiligd
beveiligen
beveiliging
bevel
beveland
bevelen
bevelhebber
bever
beveren
beverly
beverwijk
bevestigd
bevestigde
bevestigen
bevestigend
bevestiging
bevestigt
beviel
bevinden
bevindingen
bevindt
bevoegd
bevoegde
bevoegdheden
bevoegdheid
bevolen
bevolking
bevolkingsaantal
bevolkingsdichtheid
bevolkingsgroei
bevolkingsgroep
bevolkingsgroepen
bevolkingsontwikkeling
bevolkt
bevond
bevonden
bevoorrading
bevorderd
bevorderde
bevorderen
bevordering
bevordert
bevriend
bevriende
bevrijd
bevrijden
bevrijding
bevroren
bevruchting
bewaakt
bewaard
bewaarde
bewaart
bewaken
bewaker
bewakers
bewaking
bewapend
bewapende
bewapening
bewaren
bewaring
beweegbare
beweegt
beweerd
beweerde
beweerden
beweert
bewees
bewegen
bewegende
beweging
bewegingen
beweren
bewering
beweringen
bewerken
bewerkers
bewerking
bewerkingen
bewerkingsgeschiedenis
bewerkstelligen
bewerkt
bewerkte
bewezen
bewijs
bewijsmateriaal
bewijst
bewijzen
bewind
bewogen
bewonderaar
bewonderde
bewonderen
bewondering
bewonen
bewoner
bewoners
bewoning
bewoog
bewoond
bewoonde
bewoonden
bewust
bewuste
bewusteloos
bewustzijn
bey
beyer
beyonce
beyond
bezat
bezaten
bezet
bezeten
bezette
bezetten
bezetter
bezetters
bezetting
bezichtigen
bezield
bezien
bezienswaardigheden
bezig
bezige
bezigheden
bezigheid
bezighield
bezighouden
bezighoudt
bezirksliga
bezit
bezitten
bezitter
bezittingen
bezocht
bezochte
bezochten
bezoek
bezoeken
bezoeker
bezoekers
bezoekerscentrum
bezoekt
bezorgd
bezorgde
bezorgdheid
bezorgen
bezuinigingen
bezwaar
bezwaren
bf
bfc
bh
bhutan
bi
bianca
bianchi
biatlon
bible
bibliografie
biblioteca
bibliothe
bibliotheca
bibliothecaris
bibliotheek
bibliotheken
bickington
bickleigh
bicolor
bid
bidden
biden
bie
biecht
bieden
biedt
biekorf
biel
bielefeld
bien
bier
bierbrouwerij
biercultuur
bieren
bierfirma
bierley
bies
biesbosch
biesen
biezen
big
bigband
bigot
bij
bijbehorende
bijbel
bijbels
bijbelse
bijbelvertaling
bijdrage
bijdragen
bijeen
bijeenkomst
bijeenkomsten
bijen
bijenkorf
bijgaand
bijgebouwd
bijgebouwen
bijgedragen
bijgehouden
bijgeloof
bijgenaamd
bijgestaan
bijgevolg
bijgewerkt
bijgewoond
bijgezet
bijhorende
bijhouden
bijkomend
bijkomende
bijl
bijlage
bijleveld
bijlmer
bijna
bijnaam
bijnamen
bijrol
bijrollen
bijstaan
bijstand
bijt
bijten
bijv
bijval
bijvoeglijk
bijvoeglijke
bijvoorbeeld
bijwerkingen
bijwonen
bijwoord
bijzijn
bijzin
bijzonder
bijzondere
bijzonderheden
bijzonderheid
bike
bil
biland
bilbao
bill
billboard
billie
billy
bilt
bilthoven
bin
binair
binaire
binden
bindend
bindende
binding
bindingen
bindt
bing
bingen
binnen
binnendringen
binnengehaald
binnenhof
binnenin
binnenkant
binnenkomen
binnenkort
binnenland
binnenlands
binnenlandse
binnenplaats
binnenstad
binnenste
binnenvaart
binnenzijde
bio
biochemie
biodiversiteit
biograaf
biografie
biografiee
biografisch
biografische
biographical
biographie
biography
biological
biologie
biologisch
biologische
biology
bioloog
biomassa
bioscoop
bioscoopfilm
bioscopen
bir
bird
birdlife
birds
birgit
birma
birmingham
birth
birthday
bis
bisch
bische
bisdom
bisdommen
bishop
bismarck
bissau
bisschop
bisschoppelijk
bisschoppelijke
bisschoppen
bisschopswijding
bit
bits
bitter
bittere
bizarre
bjergby
bjo
bk
bl
bla
blaadjes
blaas
blaasinstrumenten
blaast
blaauw
black
blackburn
blackpool
blackwell
blad
blade
bladen
bladeren
bladkevers
bladmuziek
bladrolkevers
bladrollers
bladsprietkevers
bladwespen
bladzijde
bladzijden
blair
blaise
blake
blanc
blanca
blanchard
blanche
blanco
blandford
blang
blank
blanke
blanken
blankenberge
blaricum
blasmusikverlag
blasmusikwesens
blast
blau
blauw
blauwe
blazen
blazers
blazoenering
ble
bleef
bleek
bleeker
bleke
bleken
blerick
blessure
blessures
blessuretijd
bleu
bleven
bli
blies
blij
blijde
blijdschap
blijf
blijft
blijk
blijkbaar
blijken
blijkens
blijkt
blijven
blijvend
blijvende
blik
blikken
bliksem
blind
blinde
blinden
blitz
blo
bloch
block
bloed
bloedbad
bloedcellen
bloeddruk
bloeddrupjes
bloedige
bloedvaten
bloei
bloeide
bloeien
bloeiende
bloeiperiode
bloeit
bloeitijd
bloeiwijze
bloem
bloemdieren
bloemen
bloemendaal
bloemlezing
bloemvliegen
blog
blogs
blois
blok
blokfluit
blokjes
blokkade
blokken
blokker
blokkeren
blom
blond
blonde
blood
bloody
bloom
bloot
blootgelegd
blootgesteld
blootstelling
blote
blow
blu
blue
blues
blume
blz
bmatrix
bmc
bmw
bn
bner
bnn
bnnvara
bnp
bo
boa
board
boat
bob
bobby
bobo
bobsleee
boca
bochelvliegen
bocholt
bocht
bochten
bochum
bock
bod
bode
bodegraven
bodem
bodemjachtspinnen
bodems
boden
body
boe
boeck
boedapest
boeddha
boeddhisme
boeddhistische
boef
boeg
boeien
boeing
boek
boekarest
boeken
boekenreeks
boekhandel
boekhouder
boekhouding
boekje
boekjes
boekte
boekvorm
boel
boer
boerderij
boerderijen
boeren
boerenoorlog
boete
boetes
boettger
boeven
boezem
bogaert
bogen
bogor
bogota
boheemse
boheman
bohemen
boijmans
bois
boisduval
bok
boksen
bokser
boktorren
bol
bold
bolesław
boli
bolivia
boliviaans
boliviaanse
bolle
bollen
bologna
bolsjewieken
bolsward
bolt
bolton
bolus
bolvormig
bolvormige
bolwerk
bom
bomaanslag
bomans
bomb
bombardement
bombardementen
bombarderen
bombardier
bombay
bombyliidae
bomen
bommel
bommen
bommenwerper
bommenwerpers
bon
bonaire
bonaparte
bond
bonden
bondgenoot
bondgenootschap
bondgenoten
bondscoach
bondscoaches
bondsdag
bondskanselier
bondspresident
bondsraad
bondsrepubliek
bone
bonen
bones
bonifatius
bonn
bonne
bonnet
bonnie
bono
bont
bonte
bonus
boo
bood
boodschap
boodschappen
boodschapper
boog
boogie
boogschieten
boogschutter
book
booker
books
boom
boomen
boomgaard
boon
boone
boonen
boor
boord
boorvliegen
boos
boot
booth
bootje
boots
bor
bora
borculo
bord
bordeaux
borden
border
borealis
boren
borg
borger
borgerhout
borgmeier
borgo
boring
boris
born
borne
bornem
borneo
bornholm
borough
borre
borsato
borst
borstbeeld
borstelsteenvliegen
borstelworm
borsten
borstkanker
borststuk
borussia
bos
bosbouw
bosbranden
bosch
bosco
bosgebied
bosman
bosmans
bosnie
bosnisch
bosnische
bosranden
boss
bossche
bosschen
bossen
boston
bot
botanic
botanical
botanicus
botanische
boten
boter
both
botnische
botsen
botsing
botsingen
botste
botswana
botten
bottom
bou
boucek
boucher
bouchet
boudewijn
bouillon
boulanger
boulder
boulenger
boulevard
boulogne
bouma
bouman
bourbon
bourg
bourgeois
bourgeoisie
bourges
bourgogne
bourgondie
bourgondische
bourne
bournemouth
boursin
bout
bouterse
bouvier
bouw
bouwde
bouwden
bouwen
bouwer
bouwers
bouwjaar
bouwkunde
bouwkundig
bouwkundige
bouwkunst
bouwlagen
bouwman
bouwmateriaal
bouwmaterialen
bouwmeester
bouwstijl
bouwt
bouwwerk
bouwwerken
boven
bovenaan
bovenal
bovenbouw
bovendien
bovengenoemde
bovengronds
bovengrondse
bovenkaak
bovenkaaksbeen
bovenkant
bovenleiding
bovenliggende
bovenloop
bovennatuurlijke
bovenop
bovenrand
bovenstaand
bovenstaande
bovenste
bovenverdieping
bovenzijde
bovey
bow
bowie
bowl
box
boxmeer
boxtel
boy
boycot
boyd
boyer
boyle
boys
boz
boze
bp
br
bra
braak
braam
brabant
brabants
brabantse
brache
bracht
brachten
brachycera
bracon
braconidae
brad
bradford
bradley
bradwell
brady
braga
bragg
brahms
brain
brak
brakel
braken
bram
brampton
bran
branch
branche
branco
brand
brandde
branden
brandenburg
brandend
brandende
brandon
brands
brandstapel
brandstof
brandstoffen
brandt
brandweer
bras
brasil
brasiliensis
brass
brassband
brasschaat
brasserie
bratislava
bratton
brauer
braun
braunschweig
brave
bravo
bray
brazil
braziliaan
braziliaans
braziliaanse
brazilie
brazzaville
bre
break
breakfast
breaking
brecht
breda
brede
breder
bredere
brederode
bredevoort
bree
breed
breede
breedte
breedtegraad
breekt
breidde
breiden
breidt
brein
breisgau
breken
brel
bremen
bremer
bremerhaven
brenda
brendan
breng
brengen
brengt
brenner
brent
bres
brescia
brescovit
breslau
brest
bretagne
breton
brett
breuk
breukelen
breuken
breuning
brevis
brewer
brewster
brexit
brian
bride
bridestowe
bridge
bridges
bridget
brie
brief
briefje
briefwisseling
brielle
brien
brieven
brigade
brigadegeneraal
brigades
brigadier
briggs
bright
brighton
brigitte
brignoli
bril
brill
bring
brink
brinkman
brisbane
bristol
brit
britain
britannia
britannica
british
brits
britse
britt
brittannie
britten
britton
brixton
brno
bro
broad
broadcasting
broadway
broch
brochure
brock
brod
broeck
broeden
broeder
broeders
broederschap
broedt
broek
broer
broers
broertje
broken
brokken
brom
bromfietsen
bromley
bron
bronckhorst
broncode
bronnen
brons
bronstijd
bronswespen
bronx
bronze
bronzen
brood
brook
brooke
brooklyn
brooks
broom
broos
bros
brother
brotherhood
brothers
brough
broughton
broun
brouwen
brouwer
brouwerij
brouwerijen
brouwers
brown
browne
browning
browser
brt
bru
bruce
bruegel
brues
brug
bruges
brugge
bruggen
bruggenhoofd
brugs
brugse
brui
bruid
bruidegom
bruidsschat
bruijn
bruikbaar
bruikbare
bruikleen
bruiloft
bruin
bruine
bruins
brulle
brun
bruna
brunei
bruner
brunnea
brunner
bruno
brunssum
brunswick
brunswijk
brussel
brussels
brusselse
brute
bruto
brutoformule
brutus
bruxelles
bruyn
bruyne
bryan
bryant
bs
bsa
bsc
bsg
bsp
btw
bu
buccinidae
buch
buchanan
buck
buckfastleigh
buckingham
buckinghamshire
buckland
buckley
bud
budapest
buddy
bude
budget
budleigh
buenos
buffalo
buffer
bug
bugs
bui
buigen
buiging
buigt
buik
buikharige
buiksloot
buikzijde
build
building
buis
buit
buiten
buitenaardse
buitenaf
buitenechtelijke
buitengebied
buitengewone
buitengewoon
buitenkant
buitenland
buitenlanders
buitenlands
buitenlandse
buitenlucht
buitenplaats
buitenste
buitenverblijf
buitenwereld
buitenwijk
buitenwijken
buitenzijde
buizen
bul
bulgaars
bulgaarse
bulgaren
bulgarije
bull
bulle
bullet
bulletin
bulls
bult
buma
bun
bundel
bundeling
bundels
bundesamt
bundesliga
bundesstraße
bunker
bunkers
bunny
burchard
burcht
bureau
bureba
buren
burg
burgemeester
burgemeesters
burgemeesterschap
burgenland
burger
burgerij
burgerlijk
burgerlijke
burgeroorlog
burgerrechten
burgers
burgess
burggraaf
burgh
burgos
burke
burkina
burmeister
burn
burnett
burning
burns
burt
burton
burundi
bury
bus
busch
busck
bush
bushalte
business
busk
buskruit
buslijn
buslijnen
bussen
busstation
bussum
buste
buster
but
butch
butler
butterfly
button
buur
buurdorp
buuren
buurgemeente
buurland
buurlanden
buurman
buurt
buurtbewoners
buurten
buurtschap
buurtschappen
buurvrouw
buy
buys
buzz
bv
bw
bwp
bwv
by
bye
byrd
byrne
byron
bystrica
bytes
byzantijnen
byzantijns
byzantijnse
byzantium
bə
c
ca
cab
cabaret
cabaretier
cabine
cabrera
cabriolet
cacao
cadeau
cadet
cadillac
caecilia
caen
caesar
caf
cafe
cage
cagliari
cahiers
cai
caicoseilanden
cairns
cairo
cake
cal
calabria
calabrie
calais
calcarea
calcio
calcium
calciumcarbonaat
calcutta
caldwell
caledonie
calgary
cali
california
californica
californie
californische
caligula
call
calle
called
calliostoma
caloptilia
calvados
calvert
calvijn
calvin
calvinistische
cam
camargo
cambodja
cambridge
cambridgeshire
cambuur
camden
came
cameo
camera
cameraman
cameron
camilla
camille
camillo
camino
camp
campagne
campagnes
campaign
campanie
campbell
campeonato
camping
campo
camponotus
campos
camps
campus
can
canada
canadees
canadensis
canadese
canadezen
canadian
canal
canarische
canberra
cancellara
cancer
cande
candy
canis
cannes
cannon
canon
cantate
cantates
canterbury
cantharidae
canthocamptidae
canto
canton
cantor
canu
canvas
canyon
cao
cap
capaciteit
capaciteiten
cape
capella
capelle
capensis
capital
capitol
capitulatie
capo
caporiacco
cappella
capra
capri
caprice
capsule
captain
car
cara
carabidae
carabus
caracas
caradja
carai
caravan
carbon
carboon
carburateur
carcassonne
card
carden
cardiff
cardiophorus
cardoso
care
carel
carex
carey
cargo
caribbean
caribisch
caribische
carillon
carl
carla
carleton
carlgren
carlisle
carlo
carlos
carlton
carly
carmen
carnaval
carnegie
carnival
carnivoor
caro
carol
carola
carolina
caroline
carolus
carpenter
carr
carre
carrera
carrie
carrier
carroll
carrosserie
carry
cars
carson
cartagena
carter
carthaagse
carthagers
carthago
cartman
cartograaf
cartoon
cartoonist
cartoons
caruso
carvalho
cas
casa
casablanca
casanova
cascade
case
cases
casey
cash
casimir
casino
caspar
casper
cass
cassatie
cassette
cassidy
cassius
cast
castel
castello
castellum
castelnau
castiglione
castilie
castilla
castillo
castle
castor
castricum
castrillo
castro
cat
catalaans
catalaanse
catalogue
catalogus
catalonie
catalunya
catania
catarina
catch
cate
categorie
categoriee
category
catharina
cathe
cathedral
catherine
catholic
catholique
cathy
cato
catocala
cats
caundle
cause
cavalerie
cave
cavendish
cavia
cb
cbs
cc
ccc
cd
cda
cdh
cdot
cdu
ce
ceara
cebu
cecidomyiidae
cecil
cecilia
cedar
cees
cel
celebes
celebration
cell
celle
cellen
celli
cellist
cello
celsius
celstraf
celtic
cement
cemetery
cen
cena
census
censuur
cent
centaur
center
centimeter
centra
centraal
central
centrale
centre
centro
centrum
century
ceo
cerambycidae
ceratopogonidae
cercle
cercopidae
ceremonie
ceres
cerezo
cerf
cerne
cerro
certificaat
cervera
ces
cesar
cesare
cessna
cest
cestoda
cet
cetera
ceylon
cf
cgc
ch
cha
chad
chaetonotus
chain
chair
chal
chalcididae
challenge
challenger
chalon
chamber
chamberlain
chamberlin
chambers
chambre
champ
champagne
champion
champions
championship
championships
champs
chan
chance
chandler
chang
change
changes
channel
chanson
chansons
chant
chantal
chao
chaos
chaotische
chapel
chapelle
chaplin
chapman
chapter
char
characidae
character
charente
charge
charity
charkov
charleroi
charles
charleston
charley
charlie
charlotte
charlton
charly
chart
charter
chartres
charts
chase
chasse
chassis
chat
chaucer
chaudoir
chauffeur
chavanel
chaves
che
check
chef
chelonus
chelsea
chemical
chemicalie
chemicus
chemie
chemin
chemins
chemisch
chemische
chemistry
chemnitz
chemsak
chen
cheng
cher
cherbourg
cheriton
cherokee
cherry
cheshire
chess
chessgames
chester
chesterfield
chet
chevalier
chevrolat
chevrolet
chez
chi
chiang
chiara
chiba
chicago
chick
chicken
chickering
chico
chief
chiesa
child
children
chile
chileens
chileense
chilensis
chili
chilton
chin
china
chinatown
chinees
chinensis
chinese
chinezen
ching
chip
chipkaart
chippenham
chips
chironomidae
chirurg
chirurgie
chlaenius
chloe
chloor
chloride
cho
choc
chocolade
choi
choice
choir
cholera
chopard
chopin
chords
choreograaf
choreografie
chorus
chou
chr
chre
chris
christ
christa
christchurch
christelijk
christelijke
christen
christendemocraten
christendemocratische
christendom
christenen
christensen
christenunie
christi
christiaan
christian
christiane
christie
christina
christine
christmas
christoffel
christoph
christophe
christopher
christus
christy
chromosomen
chromosoom
chronicle
chronicles
chronische
chronologie
chronologisch
chronologische
chroom
chrysler
chrysomelidae
chrysopidae
chu
chuck
chun
chung
church
churchill
ci
cia
cicero
cichlidae
cichliden
cid
cie
cijfer
cijfers
cile
cilinder
cilinderinhoud
cilinders
cilindrisch
cin
cincinnati
cindy
cine
cinema
cinq
cinquante
cio
circa
circle
circuit
circuito
circuits
circulatie
circus
cirkel
cirkels
cirkelvormige
cirri
cis
cistercie
citaat
citadel
citaten
cite
cities
citizen
citroe
citroen
citrus
citta
city
ciudad
civic
civiel
civiele
civil
ck
cke
cken
cker
cl
cla
clade
claes
claeys
claim
claimde
claims
clair
claire
clan
clancy
clans
clapton
clara
clare
clarence
clarendon
clark
clarke
clash
class
classic
classical
classicisme
classicistische
classics
classificatie
clathria
claude
claudia
claudio
claudius
claus
clausilia
clav
clay
clayton
cle
clean
clear
clemens
clement
clemente
clementine
cleopatra
clerck
clercq
clermont
clerus
cleveland
clie
client
cliff
clifford
clifton
clijsters
climate
climax
clint
clinton
clio
clip
clive
clock
close
cloud
clouseau
clovelly
clovis
clown
club
clube
clubgeschiedenis
clubhuis
clubiona
clubkleuren
clubnaam
clubs
clubteams
cluj
cluny
cluster
clusters
clyde
clyst
cm
cn
cnn
co
coach
coaches
coalitie
coast
coaster
cobb
cobra
coburg
coca
cocai
cock
cockerell
cockpit
cocktail
coco
coda
code
codenaam
codes
codex
cody
coe
coelioxys
coen
coenagrionidae
coenen
coenraad
coeur
coevorden
coffee
cofidis
cognitieve
cohen
coimbra
col
cola
colbert
cold
cole
coleman
coleophora
coleophoridae
colette
colin
coll
collaboratie
colle
collectie
collectief
collecties
collectieve
collection
collector
collega
college
colleges
collegiale
collegium
collenette
colletes
colletidae
collier
collin
collins
colo
colombia
colombiaans
colombiaanse
colombo
colonel
colonia
colonna
colonne
color
colorado
colt
coltrane
columbia
columbus
column
columnist
columns
com
coma
comarca
combat
combe
combinatie
combinaties
combineerde
combineert
combineren
combo
come
comeback
comedy
comes
comfort
comfortabel
comic
comics
coming
comitaat
comite
command
commandant
commandanten
commander
commanderij
commandeur
commando
comme
comment
commentaar
commentaren
commentator
commerce
commercial
commercie
commercieel
commissariaat
commissaris
commissarissen
commissie
commissies
commission
committee
commodore
common
commons
commonwealth
commotie
communal
commune
communes
communicatie
communication
communications
communiceren
communisme
communist
communisten
communistisch
communistische
community
como
comoren
compact
compacte
compagnie
compagniee
companion
company
compatibel
compensatie
compenseren
competitie
competitiedebuut
competitieduels
competitieniveau
competities
competitievoetbal
competitiewedstrijd
competitiewedstrijden
competition
compilatie
compilatiealbum
compiler
compleet
complete
complex
complexe
complexen
complexiteit
complicaties
complot
componeerde
componeert
component
componenten
componeren
componist
componiste
componisten
composer
composers
compositie
composities
composition
compressie
compressor
compromis
compton
computer
computerprogramma
computers
computerspel
computerspellen
comte
comune
con
conan
concacaf
concentratie
concentratiekamp
concentratiekampen
concentraties
concentreerde
concentreert
concentreren
concept
concepten
concern
concert
concertante
concerten
concertgebouw
concertgebouworkest
concertino
concerto
concertzaal
concessie
concessies
concie
concilie
conclaaf
concludeerde
concludeert
conclusie
conclusies
concolor
concord
concorde
concordia
concours
concreet
concrete
concurrent
concurrenten
concurrentie
concurreren
concurrerende
conde
condicional
conditie
condities
conditionnel
condor
conduct
confederatie
confederations
conference
conferentie
conferenties
configuratie
conflict
conflicten
conform
confrontatie
confrontaties
congo
congolese
congregatie
congres
congress
congressen
conidae
coninc
coninck
conmebol
connecticut
connectie
connecties
connection
connexxion
connie
connolly
connor
conny
conrad
conscience
conseil
consensus
consequent
consequenties
conservatief
conservatieve
conservatieven
conservation
conservatoire
conservator
conservatorium
conservatory
consistorie
console
consortium
constance
constant
constante
constantijn
constantin
constantine
constantinopel
constantius
constateerde
constitutie
constitutionele
constructeur
constructeurs
constructie
constructies
construction
consul
consulaat
consultant
consument
consumenten
consumptie
contact
contacten
contador
container
containers
conte
contemporaine
contemporary
content
contest
context
conti
continent
continentaal
continental
continentale
continenten
continu
continue
continui
continuo
contouren
contra
contrabas
contrabassen
contract
contracten
contrapunt
contrast
contre
contreras
contribute
control
controle
controleert
controleren
controller
controverse
controversie
controversieel
conus
convent
conventie
conventies
convention
conventionele
conway
coo
cook
cooke
cookeilanden
cool
cools
coomans
cooper
cop
copa
cope
copeland
copelatus
coppa
coppens
coppieters
coquillett
cor
cora
coral
corbett
cordillera
core
corey
corinthians
cork
corneille
cornelia
cornelis
cornelisz
cornelius
cornell
corner
cornet
cornu
cornwall
corona
coronacrisis
coronapandemie
coronavirus
corporate
corporation
corps
corpus
corre
correct
correcte
correctie
correspondent
correspondentie
corridor
corrigeren
corrupte
corruptie
corry
corse
corsica
corso
cort
corte
cortex
corun
cos
cosmetica
cosmetidae
cosmic
cosmopterigidae
cosmos
cossidae
costa
costello
coster
cot
cottage
cotton
could
council
count
country
county
coup
coupe
couperus
couplet
cour
courage
courant
coureur
coureurs
cours
course
court
courtenay
courtney
cousin
cousins
cove
coventry
cover
covers
covid
cowboy
cowboys
cox
cp
cpn
cr
craig
crambidae
cramer
crane
crash
crashte
crassus
crawford
crazy
cre
creatie
creatief
creatieve
creation
creative
creativiteit
credit
crediton
credits
cree
creed
creek
cremer
cresson
crest
cretaceous
crew
cri
cricetidae
cricket
crime
criminal
criminaliteit
crimineel
criminele
criminelen
crimson
crisis
cristian
cristiano
cristina
cristo
criteria
criterium
critical
critici
critics
criticus
cro
croce
crocidura
croix
cromwell
crosby
cross
crossing
crow
crown
croy
cru
cruciaal
cruciale
cruijff
cruise
cruz
cry
crypte
crystal
cs
csa
csc
csi
cska
css
csu
ct
ctenus
ctor
cu
cuba
cubaans
cubaanse
cube
cuenca
cuesta
cuevas
cuijk
cul
culemborg
culex
culicidae
cult
cultural
culture
cultureel
culturele
culturen
cultus
cultuur
cultuurhistorische
cultuurraad
cum
cumberland
cumbria
cummings
cuneo
cunha
cunningham
cuore
cup
cupido
cups
curac
curator
cure
curie
curran
current
curriculum
currie
curry
curse
cursief
cursus
cursussen
curtis
curve
cushman
cut
cuthbert
cuvier
cuypers
cv
cvp
cy
cycle
cycling
cyclocross
cycloon
cyclopidae
cyclops
cyclus
cynthia
cyperus
cyprinidae
cypriotische
cyprus
cyriel
cyril
cyrillisch
cyrillische
cyrillus
cyrus
cz
cœur
d
da
daad
daadwerkelijk
daadwerkelijke
daags
daalde
daalt
daan
daar
daaraan
daarachter
daarbij
daarbinnen
daarboven
daarbuiten
daardoor
daarenboven
daarentegen
daarheen
daarin
daarmede
daarmee
daarna
daarnaast
daarom
daaromheen
daaronder
daarop
daaropvolgende
daarover
daartegen
daartoe
daartussen
daaruit
daarvan
daarvoor
dach
dachau
dacht
dachten
dad
dada
daddy
dadelijk
daden
dader
daders
daer
daf
dag
dagblad
dagbladen
dagboek
dagboeken
dage
dagelijks
dagelijkse
dagen
dageraad
daglicht
dagobert
dahl
dai
daily
daimler
daisy
dak
dakar
daken
dakota
dakpannen
dakruiter
dal
dalai
dalby
dale
dalen
dalende
dali
daling
dall
dalla
dallas
dalmatie
dalton
daly
dam
damascus
dame
damen
damerel
dames
damesteam
damian
damiano
damien
damme
dammen
damon
damp
dampen
dampierre
dan
dana
dance
dances
dancing
dane
danger
dangerous
dani
danie
daniel
daniela
daniele
danielle
daniels
danilo
dank
dankbaar
dankbaarheid
danken
dankse
dankt
dankte
dankzij
danny
dans
danse
dansen
danser
danseres
dansers
danske
dansmuggen
danst
dansvliegen
dante
danzig
daphne
dapper
dappere
dapperheid
dar
dare
dario
darius
dark
darkness
darling
darlington
darm
darmbeen
darmen
darmstadt
darren
dart
darter
darth
darts
darwin
daryl
das
dasch
dash
dashboard
dat
data
databank
database
date
dateerde
dateert
dateren
daterend
daterende
datering
datgene
datief
datum
datzelfde
daughter
dauphin
dauphine
dautzenberg
dave
davenport
david
davide
davids
davidsfonds
davidson
davies
davis
davy
dawn
dawson
day
days
dayton
daytona
db
dbnl
dc
dcm
dd
ddr
de
dead
deadline
deadly
deal
dean
dear
death
debat
debatten
debbie
debiet
deborah
debussy
debutant
debuteerde
debuut
debuutalbum
debuutsingle
dec
decaan
decca
december
decennia
decennialang
decennium
decimaal
decker
declercq
deco
decor
decoratie
decoraties
decoratieve
decors
decreet
dede
deden
dee
deed
deeg
deel
deelde
deelden
deeleman
deelen
deelgebied
deelgebieden
deelgemeente
deelgemeenten
deelgenomen
deelnam
deelname
deelnamen
deelnames
deelneemsters
deelneemt
deelnemen
deelnemende
deelnemer
deelnemers
deels
deelstaat
deelstaten
deelt
deeltje
deeltjes
deelverzameling
deelwoord
deen
deens
deense
deep
deer
dees
deeze
def
defect
defence
defense
defensie
defensieve
definie
definieert
definitie
definitief
definities
definitieve
degelijk
degen
degene
degenen
degli
degradatie
degradeerde
degradeerden
degradeert
degraderen
dei
deinze
dejean
dek
deken
dekken
dekker
dekkers
dekking
deksel
del
delaware
delden
dele
delegatie
delen
delfland
delft
delftse
delfzijl
delgado
delhi
deli
delias
delict
delige
deling
delivery
dell
della
delle
delpher
delphi
dels
delta
deluxe
delven
dem
demetrius
demi
demo
democraat
democracy
democraten
democratic
democratie
democratisch
democratische
demografische
demon
demonen
demoniem
demonstranten
demonstratie
demonstraties
demonstreren
demospongiae
den
dender
dendermonde
dendronephthya
dendy
denemarken
denen
deng
denis
denise
denk
denkbeeld
denkbeelden
denkbeeldige
denken
denker
denkers
denkt
denmark
dennen
dennis
denny
dent
dentarium
dentificeerd
dentificeerde
denton
denver
denys
deo
departement
departementen
department
deportatie
deportivo
depot
depressie
depressies
der
derby
derbyshire
derd
derde
derden
derek
dergelijk
dergelijke
derhalve
derk
derksen
dermate
dermestidae
derrick
ders
dert
dertien
dertiende
dertig
dertigjarige
dertigste
des
desalniettemin
desbetreffende
descamps
descartes
description
descriptions
dese
desen
desert
desi
design
designated
designer
desire
deskundige
deskundigen
desmet
desmond
desondanks
dessau
dessel
destijds
destiny
destruction
det
detail
details
detecteren
detective
detroit
deugd
deugden
deur
deuren
deurne
deus
deutsch
deutsche
deutschen
deutscher
deutsches
deutschland
deutschlands
deuve
deux
development
deventer
devil
devon
devoon
devos
devotie
dewelke
dewey
dexter
deze
dezelfde
dezelve
dezen
dezer
dfb
dg
dh
dhabi
dharma
di
dia
diabetes
diablo
diagnose
diagonaal
diagram
diaken
diakonoff
dialect
dialecten
dialogen
dialoog
diamant
diamanten
diameter
diamond
diamonds
diana
diane
diapheromeridae
diapriidae
diarree
diary
dias
diaspora
diaz
diccionario
dich
dicht
dichtbij
dichtbundel
dichte
dichten
dichter
dichterbij
dichteres
dichters
dichtheid
dichtkunst
dichtst
dichtstbijzijnde
dick
dickens
dickinson
dicranomyia
dictator
dictatuur
dictionary
dictionnaire
did
didier
die
diederik
dieet
dief
diefstal
diegene
diegenen
diego
diemen
dien
dienaar
dienaren
diende
dienden
dienen
diens
dienst
dienstdeed
dienste
diensten
dienstensector
dienstgedaan
dienstjaren
dienstplicht
dienstregeling
diensttijd
dienstverlening
dient
diep
diepe
diepen
dieper
diepere
diepgang
dieppe
diepste
diepte
diepten
dieptepunt
dier
dieren
dierentuin
dierkunde
dierlijk
dierlijke
diersoort
diersoorten
diertje
dies
diesel
dieselmotor
dieselmotoren
diest
dieter
dietrich
dietz
dieu
dieven
diezelfde
different
dig
digd
digitaal
digital
digitale
dijbeen
dijck
dijk
dijken
dijkgraaf
dijkstra
dijle
dijon
dik
dikke
dikker
dikkere
dikkopjes
diksmuide
dikte
dikwijls
dilemma
dillenburg
dillon
dim
dimensie
dimensies
dimension
dimitri
din
dina
dinamo
dinant
diner
ding
dingen
dings
dino
dinosaur
dinosauria
dinosaurie
dinosaurs
dinsdag
dio
diocletianus
diogenes
dion
dionysius
diploma
diplomaat
diplomaten
diplomatie
diplomatiek
diplomatieke
diptera
dir
dirck
direct
directe
directeur
directeuren
directie
direction
director
directory
directrice
dirigeerde
dirigent
dirigenten
dirk
dirty
dis
disc
discipelen
discipline
disciplines
disco
discografie
discogs
discotheek
discours
discovery
discrete
discriminatie
discussie
discussies
discuswerpen
diskjockey
disney
disneyland
dispar
display
displaystyle
dispuut
dissertatie
distance
distant
distinguished
distributie
distribution
district
districten
dit
ditions
ditmaal
ditmar
dito
ditzelfde
diva
divers
diverse
diversiteit
divine
divisie
divisies
divisio
division
dix
dixie
dixon
diz
dizzy
dj
django
djibouti
dk
dkw
dl
dln
dm
dmitri
dn
dna
dnf
dnjepr
dns
do
doble
doc
doceerde
docent
docenten
doch
dochter
dochteronderneming
dochters
dochtertje
doctor
doctoraal
doctoraat
doctrine
document
documenta
documentaire
documentaires
documentatie
documenten
documents
dodd
dode
dodelijk
dodelijke
doden
dodge
dodo
doe
doek
doeken
doel
doeleinden
doelen
doelgroep
doelman
doelpunt
doelpunten
doelsaldo
doelstelling
doelstellingen
doelwit
doen
does
doesburg
doet
doetinchem
dof
dog
doge
dogma
dognin
dogs
doha
doherty
doi
dok
doken
dokkum
dokter
dokters
dol
dolf
dolfijn
dolfijnen
dolichopodidae
dolin
dolk
doll
dollar
dollars
dolle
dolly
dolmen
dolores
dom
domburg
dome
domein
domeinen
domenico
domi
dominant
dominante
dominantie
dominee
domineerde
domineren
domingo
dominic
dominica
dominicaanse
dominicanen
dominicus
dominion
dominique
domino
domitianus
domkerk
domme
dommel
don
donald
donaties
donau
donder
donderdag
done
donetsk
dong
dongen
donjon
donk
donker
donkerbruin
donkerbruine
donkerder
donkere
donkergrijs
donkey
donna
donne
donner
donny
donovan
donsvlinder
donsvlinders
doo
dood
doodde
doodgeschoten
doodslag
doodsoorzaak
doodstraf
doodt
doof
dook
doom
doop
doopsgezinde
doopvont
door
doorboord
doorbraak
doorbracht
doorbrak
doorbreken
doorbrengen
doorbroken
doordat
doordringen
doorgaan
doorgaande
doorgaans
doorgaat
doorgang
doorgebracht
doorgegeven
doorgetrokken
doorgeven
doorgevoerd
doorging
doorheen
doorkruist
doorliep
doorloopt
doorlopen
doorlopend
doorlopende
doorn
doornik
doornsprinkhanen
doornuitsteeksel
doornuitsteeksels
doors
doorsnede
doorsneden
doorsnee
doorstaan
doorstart
doorverkocht
doorverwijspagina
doorzichtig
doorzichtige
doos
doot
dop
dopen
doper
doperkerk
doping
dor
dora
dorado
dordogne
dordrecht
doris
dorothea
dorothy
dorp
dorpelingen
dorpen
dorpje
dorpjes
dorpscentrum
dorpsgezicht
dorpskerk
dorpskern
dorpsstraat
dorsale
dorsalis
dorset
dorst
dortmund
dos
dosis
dossier
dossiers
dot
dou
douane
douard
double
doubleday
doubs
doug
douglas
douwe
douwes
dove
doven
dover
dow
down
download
downloaden
downs
doyle
dozen
dozijn
dp
dpoliep
dq
dr
dra
draad
draadloze
draag
draagbare
draagt
draai
draaide
draaiden
draaien
draaiende
draait
draak
drachten
dracula
draden
draft
drag
dragen
dragende
drager
dragers
dragon
dragons
drake
draken
drama
dramafilm
dramaserie
dramatic
dramatisch
dramatische
drang
drank
dranken
drankje
drastisch
draudt
drayton
dre
dream
dreams
dreef
drees
drei
dreieck
dreigde
dreigden
dreigen
dreigende
dreiging
dreigt
drempel
drenthe
drents
drentse
drepanidae
dresden
dressuur
dreven
drew
dreyfus
dric
drie
driebergen
driebeukige
driedaagse
driedelige
driedimensionaal
driedimensionale
drieduizend
driee
driehoek
driehoeken
driehoekig
driehoekige
driehonderd
driejarig
driejarige
driekwart
drieluik
driemaal
dries
driessen
drietal
drievoudig
drievoudige
drift
drijft
drijven
drijvende
dringen
dringend
dringende
dringt
drink
drinken
drinkt
drinkwater
drive
driver
dro
droeg
droegen
droge
drogen
drogere
droit
dromen
drone
drong
drongen
dronk
dronken
droog
drooglegging
droogte
droom
droomt
drop
drost
drs
druce
drug
drugs
druif
druiven
druk
drukke
drukken
drukker
drukkerij
drukste
drukt
drukte
drukwerk
drum
drummer
drummond
drums
drumstel
druppel
druppels
drury
drusus
dry
ds
dsb
dsm
dt
du
dua
dual
duarte
dub
dubai
dubbel
dubbele
dubbelspel
dubia
dubium
dublin
dubois
duc
ducati
duck
duclos
dudley
due
duel
duels
duero
duet
duff
duffel
dufour
dui
duidelijk
duidelijke
duidelijker
duidelijkheid
duiden
duidt
duif
duiken
duiker
duikers
duikt
duim
duin
duinen
duinkerke
duisburg
duister
duistere
duisternis
duits
duitsche
duitschland
duitse
duitser
duitsers
duitsland
duitstalig
duitstalige
duivel
duiveland
duivels
duiven
duizend
duizenden
duke
dulden
dumas
dumont
dumoulin
dun
dunbar
duncan
dundee
dunlop
dunn
dunne
dunner
duo
duponchel
dupont
dupuis
dura
duran
durand
durban
durch
dure
duren
durend
durende
durfde
durft
durham
during
durven
dus
dusdanig
dust
dusver
dutch
duty
duur
duurde
duurden
duurder
duurdere
duurste
duurstede
duurt
duurzaam
duurzaamheid
duurzame
duval
duwen
duwt
duzee
dvd
dvor
dwaas
dwang
dwangarbeid
dwars
dwarsbalk
dwarsdoorsnede
dwarsfluit
dwarsfluiten
dwerg
dwergen
dwergmineermotten
dwest
dwight
dwingen
dwingt
dwong
dwongen
dws
dx
dy
dyar
dyck
dyke
dylan
dynamiek
dynamisch
dynamische
dynamo
dynastie
dynastiee
dynastieke
dynasty
dyscolus
dysdera
dytiscidae
dz
də
e
ea
each
eagle
eagles
earl
earle
early
earth
east
eastern
eastman
easton
easy
eat
eaton
eau
eb
eberhard
ebert
ebook
ebro
ec
ecb
echo
echt
echte
echter
echtgenoot
echtgenote
echtgenoten
echtpaar
echtscheiding
eck
eclectische
ecm
eco
ecolo
ecologie
ecologisch
ecologische
economen
economic
economics
economie
economisch
economische
economy
econoom
ecosysteem
ecuador
ecuadoraans
ed
eda
edam
edd
eddie
eddy
ede
edel
edele
edelen
edellieden
edelman
edelstenen
eden
edgar
edge
edict
edinburgh
edison
edit
edith
editie
edities
editing
edition
editions
editor
editors
edmond
edmonton
edmund
edo
edouard
eds
edu
eduard
eduardo
educatie
educatief
educatieve
education
edvard
edward
edwards
edwin
ee
eeckhout
eed
eeden
eeg
eekhoorn
eekhoorns
eeklo
eem
eems
een
eencilinder
eend
eenden
eendracht
eenduidig
eene
eenen
eenentwintigste
eener
eenheden
eenheid
eenhoorn
eenig
eenige
eenigen
eenjarige
eenmaal
eenmalig
eenmalige
eenoogkreeftjessoort
eens
eenstaartjes
eentje
eenvoud
eenvoudig
eenvoudige
eenvoudiger
eenvoudigste
eenwording
eenzaam
eenzaamheid
eenzame
eenzelfde
eenzijdig
eer
eerbetoon
eerbied
eerde
eerder
eerdere
eere
eerlijk
eerlijke
eerst
eerste
eersteklasser
eersten
eerstgeboorte
eerstgenoemde
eerstvolgende
eert
eertijds
eervol
eervolle
eet
eetbaar
eetbare
eeuw
eeuwen
eeuwenlang
eeuwenoude
eeuwig
eeuwige
eeuwigheid
eeuws
eeuwse
eeuwwisseling
ef
effect
effecten
effectief
effectieve
effectiviteit
effects
efficie
efteling
eg
egbert
egei
egel
egels
egg
egmond
egmont
ego
egoi
egon
egypt
egypte
egyptenaren
egyptisch
egyptische
eh
ehf
ehir
ehlers
ei
eieren
eifel
eigen
eigenaar
eigenaardige
eigenaars
eigenaren
eigendom
eigendommen
eigene
eigenhandig
eigenlijk
eigenlijke
eigenmann
eigennaam
eigenschap
eigenschappen
eigentijdse
eight
eijeren
eijk
eijsden
eik
eiken
eikenhouten
eikenloof
eiland
eilanden
eilandengroep
eilandje
eilandjes
eilandperron
ein
eind
einde
eindelijk
eindeloos
eindexamen
eindhoven
eindhovense
eindig
eindigde
eindigden
eindige
eindigen
eindigend
eindigt
eindklassement
eindklassering
eindklasseringen
eindnotering
eindpunt
eindrangschikking
eindredacteur
eindresultaat
eindronde
eindstand
eindstation
eindstrijd
eindtoernooi
eindzege
eine
einer
eines
einstein
eintracht
eis
eisen
eisenach
eisenbahn
eisenbahnatlas
eisenhower
eist
eiste
eisten
eitjes
eiwit
eiwitten
ek
eken
ekeren
el
ela
elachista
elachistidae
elaine
elateridae
elbe
elburg
elders
ele
eleanor
electric
electro
electronic
electronics
elegans
elegante
elektra
elektriciteit
elektriciteitscentrale
elektrificatie
elektrisch
elektrische
elektro
elektromagnetische
elektromotor
elektron
elektronen
elektronica
elektronisch
elektronische
elektrotechniek
element
elementaire
elementen
elena
eleonora
elephant
eleutherodactylus
eleven
elf
elfde
elfen
elfstedentocht
elftal
elftallen
eli
elia
elias
eline
eliot
elisa
elisabeth
elise
elite
eliza
elizabeth
elk
elkaar
elkaars
elkander
elke
elken
ell
ella
elle
ellen
ellende
ellepijp
ellie
ellington
elliot
elliott
elliptisch
elliptische
ellis
elly
elm
elmer
elmidae
elo
elongata
elongatus
elpee
els
elsa
else
elsene
elsevier
elsloo
elst
elton
elvis
elzas
em
email
emancipatie
emanuel
embleem
embrik
embryo
emden
emerald
emeritaat
emeritus
emerson
emery
emi
emiel
emigranten
emigratie
emigreerde
emil
emile
emilia
emilie
emilio
emily
emir
emiraat
emiraten
emirates
emissie
emma
emmanuel
emmen
emmer
emmy
emoji
emotie
emoties
emotioneel
emotionele
emperor
empididae
empire
empirische
ems
en
ena
encarsia
enci
enclave
encycliek
encyclopedia
encyclopedie
encyrtidae
end
ende
endemisch
endemische
enderlein
endomychidae
endurance
ene
enemy
enen
energie
energy
enerzijds
enfant
enfants
eng
engagement
enge
engel
engeland
engelbert
engelen
engels
engelsche
engelse
engelsen
engelsman
engelstalig
engelstalige
engine
engineer
engineering
engineers
engl
england
english
eni
enig
enige
enigma
enigszins
enkel
enkele
enkelen
enkelspel
enkelvoud
enkelvoudig
enkelvoudige
enkhuizen
enorm
enorme
enough
enque
enrico
enrique
ens
enschede
enschedese
ense
ensemble
ensembles
ensor
entente
enter
enterprise
entertainer
entertainment
enthousiasme
enthousiast
enthousiaste
entiteit
entiteiten
entomoloog
entourage
entre
entree
environment
environmental
enz
enzo
enzovoort
enzovoorts
enzym
enzymen
eo
eoceen
eos
ep
epe
ephydridae
epic
epidemie
epidendrum
epische
episode
episodes
epo
epos
epsilon
equatoriaal
equivalent
er
era
eraan
erachter
eragrostis
erasmus
erbij
erboven
erd
erde
erdo
erdog
erdoor
ere
erebidae
ereburger
eredienst
eredivisie
eredoctoraat
ereklasse
erekruis
erelid
eren
erepodium
ereteken
eretitel
erevoorzitter
erf
erfde
erfdeel
erfelijk
erfelijke
erfenis
erfgenaam
erfgename
erfgenamen
erfgoed
erfurt
erg
ergatief
ergens
erger
ergernis
ergste
eric
erica
erich
erichson
erik
erika
eriksson
erin
eritrea
erkend
erkende
erkenden
erkennen
erkenning
erkent
ermee
ermelo
ermisch
ermland
erna
ernaar
ernaast
ernest
ernesto
ernie
ernst
ernstig
ernstige
ero
erom
eromheen
eronder
erop
eros
erosie
erotische
erover
erp
error
ers
erse
ert
ertoe
erts
ertussen
eruit
ervaart
ervan
ervaren
ervaring
ervaringen
erven
ervoor
erwin
es
esa
esbjerg
escape
esch
escher
esgueva
eskader
eske
esko
esky
eso
espan
espanyol
espe
esper
esperanto
espi
espinosa
esprit
essai
essay
essayist
essays
essen
essentie
essentieel
essex
est
esta
estadio
estafette
estate
estates
este
esteban
estelle
ester
esther
esthetische
estisch
estische
estland
estlandse
estoril
estrada
estse
estuarium
et
eta
etage
etages
etappe
etappes
etc
eten
eternal
ethan
ethanol
ethel
ether
ethiek
ethiopie
ethiopisch
ethiopische
ethisch
ethische
etienne
etiket
etmaalgemiddelde
etniciteit
etnisch
etnische
etruskische
ets
etsbergs
etsen
etser
etten
etterbeek
etudes
etymologiebank
eu
euclidische
eucosma
euge
eugen
eugene
eugenio
eugenius
euler
eulimidae
eulophidae
eunice
eupelmidae
eupen
eupithecia
eur
euraziatische
eurazie
eure
eureka
euro
eurobasket
eurocup
euroleague
euroleagues
europa
europacup
europe
europeaan
european
europeanen
europees
europese
eurovisiesongfestival
eurytomidae
eusebius
euskadi
euskaltel
eustatius
euthanasie
ev
eva
evacuatie
evaluatie
evan
evangelie
evangelisch
evangelische
evangelist
evangelisten
evans
eve
evelyn
even
evenaar
evenaarde
evenals
evenaren
eveneens
evenement
evenementen
evenhoevigen
evening
evenmin
evenredig
evenredige
event
events
eventueel
eventuele
evenveel
evenwel
evenwicht
evenwijdig
evenzeer
ever
everard
everest
everett
everhard
evers
evert
everton
every
everybody
everything
evic
evidence
evil
evo
evolueerde
evolutie
evolution
evolutionaire
ewald
ex
exact
exacte
examen
examens
excel
excelsior
exchange
exclusief
exclusieve
excuses
exe
executeren
executie
executies
executive
exemplaar
exemplaren
exeter
exhibition
exit
exodus
exotische
expansie
expeditie
expedities
expedition
experience
experiment
experimenteel
experimenteerde
experimentele
experimenten
experimenteren
expert
expertise
experts
expliciet
expliciete
exploitant
exploitatie
exploiteerde
exploiteert
exploiteren
exploration
explorer
explosie
explosief
explosies
explosieve
explosieven
expo
export
exposeerde
expositie
exposities
exposition
express
expressie
expressionisme
expressionistische
extended
extension
exterieur
extern
external
externe
extra
extragalactic
extreem
extreemrechtse
extremadura
extreme
eyck
eye
eyes
eynde
ez
ezel
ezra
f
fa
faam
faber
fabian
fabio
fabricage
fabricius
fabriek
fabrieken
fabrieksteam
fabrikant
fabrikanten
fabrizio
fac
face
facebook
facelift
faces
facetten
faciliteiten
facility
factie
facto
factor
factoren
factory
faculteit
faculteiten
faero
fagot
fagotten
faille
failliet
faillissement
fair
faire
fairfield
fairmaire
fait
faith
falco
falcon
falen
fall
fallax
fallen
falling
falls
false
fame
familia
familie
familiebedrijf
familieleden
familielid
familienaam
families
familiewapen
famille
family
famous
fan
fanfare
fanfareorkest
fang
fanny
fans
fantasia
fantasie
fantastic
fantastische
fantasy
far
farao
farm
farmaceutische
farmer
farnese
farrell
fasciata
fasciatus
fascisme
fascistische
fase
fasen
fases
fashion
faso
fast
fat
fataal
fatale
fate
father
fauna
faure
faust
fausto
favoriet
favoriete
favorieten
favorite
fax
fay
faye
fb
fbi
fc
fdf
fdj
fdp
fe
fear
feat
feature
features
featuring
feb
februari
february
fed
federaal
federal
federale
federatie
federation
federer
federico
fee
feedback
feee
feel
feeling
feest
feestdag
feestdagen
feestelijk
feestelijke
feesten
feestje
feet
feijenoord
feit
feite
feitelijk
feitelijke
feiten
fel
felder
felice
felipe
felix
fell
felle
fellow
fellowship
felt
female
feminisme
feministe
feministische
femke
femme
femmes
fen
fender
fenerbahc
fenestra
feng
fenomeen
fenomenen
feodale
fer
ferdinand
ferenc
ferguson
ferna
fernand
fernandes
fernandez
fernando
ferrand
ferrara
ferrari
ferreira
ferrer
ferrie
ferry
fervent
fes
fest
festival
festivals
festiviteiten
fever
few
feyenoord
ff
ffer
fficie
fi
fia
fiat
fiba
fiche
fictie
fictief
fictieve
fiction
fide
fie
field
fields
fier
fiets
fietsen
fietsers
fietspad
fietspaden
fifa
fifth
fifty
fig
figaro
fight
fighter
fighters
fighting
figuratieve
figuren
figuur
figuurlijk
fiji
fijn
fijne
filantroop
file
files
filiaal
filialen
filiberke
filip
filipijnen
filipijns
filipijnse
filippo
filips
fille
filleigh
film
filmacteur
filmactrice
filmdebuut
filmen
filmfestival
filmindustrie
filmkomedie
filmmaker
filmmakers
filmmuziek
filmpje
filmpjes
filmproducent
filmregisseur
films
filmstudio
filologie
filosofen
filosofie
filosofisch
filosofische
filosoof
fils
filter
filters
fim
fin
final
finale
finales
finalist
finalisten
finals
finance
financial
financie
financieel
financierde
financieren
financiering
find
fine
finish
finishte
finishten
finland
finlay
finn
fins
finse
fiona
fiorentina
fire
firefox
firenze
firma
firmin
firmino
first
fis
fiscaal
fiscale
fischer
fish
fishbase
fisher
fit
fitzgerald
fitzpaine
fivb
five
fix
fjodor
fjord
fk
fl
fla
flag
flags
flame
flamengo
flames
flamingo
flanders
flandre
flank
flanken
flash
flat
flats
flauw
flava
flavescens
flavipes
flavius
fle
fleet
fleetwood
fleming
flensburg
fles
flesh
flessen
fletcher
fleur
fleutiaux
flevoland
flex
flexibel
flexibele
flight
flikken
flink
flinke
flint
flip
flo
floor
floot
flop
flor
flora
florence
florent
flores
florian
florida
floris
floron
flow
flower
flowers
floyd
flu
fluit
fluiten
fluitist
fluminense
flux
fly
flying
flynn
fm
fn
fnv
fo
focus
focussen
focust
foix
fok
fokken
fokker
fol
foley
folia
folie
folio
folk
folklore
follow
fonds
fondsen
fons
fonseca
font
fontaine
fontainebleau
fontana
fontein
fonteinen
foo
food
fool
foot
football
for
foramen
forbes
force
forces
ford
fore
foreest
foreign
forel
forensisch
forest
forever
forget
fork
form
formaat
format
formaten
formateur
formatie
formaties
formation
formeel
formeerde
formele
formica
formicinae
formosa
formula
formule
formuleerde
formuleren
formulering
formules
formulier
forrest
fors
forse
forster
fort
fortaleza
forten
fortis
fortuin
fortuna
fortune
fortuyn
forum
forward
fosfor
fossa
fosse
fossiel
fossiele
fossielen
foster
foto
fotograaf
fotografe
fotografen
fotograferen
fotografie
fotografische
fotomodel
foucault
found
foundation
fountain
four
fourth
fout
foute
fouten
foutief
fowler
fox
fr
fra
fraai
fraaie
frac
fractie
fractieleider
fracties
fractievoorzitter
fragilis
fragment
fragmenten
fram
frame
frames
framework
fran
franc
franca
france
frances
francesca
francesco
franche
franchise
francie
francine
francis
francisca
franciscanen
francisco
franciscus
franck
franco
francois
francorchamps
franeker
frank
franken
frankenstein
frankfurt
frankfurter
frankie
frankisch
frankische
franklin
frankrijk
franky
frans
fransche
franse
fransen
fransman
franssen
franstalig
franstalige
frantis
franz
fraser
frau
fraude
frazione
frazioni
fre
fred
freddie
freddy
frederic
frederick
frederik
frederika
fredrik
free
freedom
freek
freelance
freeman
freestyleskie
fregat
freguesia
frei
freiburg
freiherr
freire
french
frequent
frequentie
frequenties
fresco
fresh
fresno
freud
frey
fri
fribourg
frida
friday
friedman
friedrich
friend
friends
fries
friese
friesland
friezen
fris
friso
frisse
frits
fritz
friuli
fro
from
front
frontale
fronten
frontgevel
frontier
frontman
fronton
froome
frost
frozen
fru
fruhstorfer
fruit
frustratie
fry
fryske
frysla
fs
ft
fu
fuchs
fuck
fuente
fuentes
fuga
fuji
fukuoka
fulda
fulham
full
fuller
fulltime
fulton
fun
functie
functies
function
functionaliteit
functionaris
functionarissen
functioneel
functioneerde
functioneert
functionele
functioneren
fund
fundament
fundamenteel
fundamentele
fundamenten
fundering
fungeerde
fungeert
fungeren
fungorum
funk
funny
furore
fury
fusca
fuscus
fuseerde
fuseerden
fuseren
fusie
fusieclub
fusiegemeente
fusies
fusion
fusioneerde
fussball
futur
future
futuro
fv
fylogenetische
fysica
fysiek
fysieke
fysiologie
fysisch
fysische
g
ga
gaal
gaan
gaande
gaandeweg
gaarne
gaasvliegen
gaat
gabon
gabrie
gabriel
gabriele
gabrielle
gade
gae
gaede
gaelisch
gaen
gaetano
gaf
gaga
gahan
gaia
gaimard
gaius
gal
gala
galactica
galatasaray
galaxy
gale
galen
galerie
galerij
galerijen
gales
galg
galicie
galilea
galilei
galileo
gallagher
galle
gallen
gallery
gallia
gallie
gallimard
gallische
gallo
galmuggen
galway
gama
gamba
gambia
game
gameplay
games
gamma
gan
gandhi
gang
gangbaar
gangbare
gangen
gangster
gans
gansch
ganse
ganzen
gao
gap
gar
garage
garanderen
garantie
garci
garcia
gard
garde
garden
gardens
gardiner
gardner
gare
garen
garfield
garibaldi
garland
garnalen
garnalensoort
garner
garnizoen
garonne
garrett
garrison
garros
garth
gary
gas
gaspar
gaspard
gassen
gast
gasten
gastheer
gasthuis
gastland
gaston
gastoptreden
gastoptredens
gastrol
gastrollen
gastropoda
gat
gate
gaten
gates
gauld
gauliga
gaulle
gautier
gauw
gave
gaven
gavin
gay
gaz
gaza
gazastrook
gazet
gazprom
gb
gd
gdan
ge
geaardheid
geaccepteerd
geaccepteerde
geacht
geachte
geactiveerd
geadopteerd
geadviseerd
geallieerde
geallieerden
geanalyseerd
geannexeerd
geannuleerd
gear
gearchiveerd
gearchiveerde
gearrangeerd
gearresteerd
geassocieerd
geavanceerde
geb
gebaar
gebakken
gebaren
gebarentaal
gebaseerd
gebaseerde
gebed
gebeden
gebeeldhouwde
gebeld
gebergte
gebeten
gebeurd
gebeurde
gebeuren
gebeurt
gebeurtenis
gebeurtenissen
gebied
gebieden
gebiedende
gebit
geblazen
gebleken
geblesseerd
geblesseerde
gebleven
geblokkeerd
geboden
geboekt
gebogen
gebombardeerd
gebonden
geboorte
geboortedag
geboortedatum
geboortedorp
geboortehuis
geboortejaar
geboorteland
geboorteplaats
geboortestad
geboren
geborgen
gebouw
gebouwd
gebouwde
gebouwen
gebouwencomplex
gebouwtje
gebracht
gebragt
gebrandschilderde
gebrek
gebreken
gebrekkige
gebroeders
gebroken
gebrouwen
gebruik
gebruikelijk
gebruikelijke
gebruiken
gebruiker
gebruikers
gebruikgemaakt
gebruikmaakt
gebruikmaken
gebruiksvoorwerpen
gebruikt
gebruikte
gebruikten
gebundeld
gecast
geciteerd
geclassificeerd
gecombineerd
gecombineerde
gecompenseerd
gecomponeerd
geconcentreerd
geconcludeerd
geconfisqueerd
geconfronteerd
geconstateerd
geconstrueerd
gecontracteerd
gecontroleerd
gecontroleerde
gecoo
gecorrigeerd
gecoverd
gecree
gecremeerd
gedaald
gedaan
gedaante
gedacht
gedachte
gedachtegoed
gedachten
gedachtenis
gedanst
gedateerd
gedecoreerd
gedeeld
gedeelde
gedeelte
gedeeltelijk
gedeeltelijke
gedeelten
gedeeltes
gedefinieerd
gedegradeerd
gedekt
gedempt
gedempte
gedenkplaat
gedenksteen
gedenkteken
gedeporteerd
gedeputeerde
gedetailleerd
gedetailleerde
gedetineerden
gedicht
gedichten
gediend
geding
gediskwalificeerd
gedistribueerd
gedocumenteerd
gedomineerd
gedood
gedoopt
gedownload
gedraagt
gedraaid
gedraaide
gedrag
gedragen
gedragingen
gedreven
gedrongen
gedronken
gedroogd
gedroogde
gedrukt
gedrukte
geduld
gedurende
geduurd
geduwd
gedwongen
gee
geef
geeft
geel
geelachtig
geelbruin
geen
geene
geenszins
geer
geert
geertruida
geertruidenberg
geerts
gees
geest
geestelijk
geestelijke
geestelijken
geestelijkheid
geesten
gefabriceerd
gefascineerd
geffen
gefilmd
gefinancierd
gefinisht
geflankeerd
gefokt
geformeerd
geformuleerd
gefotografeerd
gefuseerd
gefusilleerd
gegaan
gegane
gegarandeerd
gegenereerd
gegeten
gegeven
gegevens
gegoede
gegooid
gegoten
gegraveerd
gegraven
gegrepen
gegroeid
gegroepeerd
gegund
gehaald
gehad
gehakt
gehalte
gehandeld
gehandhaafd
gehandicapte
gehandicapten
gehangen
gehanteerd
gehanteerde
gehecht
geheel
geheele
geheim
geheime
geheimen
geheimzinnige
gehele
gehesen
geheten
geheugen
geheven
gehinderd
geholpen
gehoopt
gehoor
gehoord
gehoorzaamheid
gehoorzamen
gehore
gehouden
gehucht
gehuchten
gehuisvest
gehuurd
gehuwd
gei
gein
geit
geiten
gejaagd
gek
gekant
gekapt
gekarakteriseerd
gekeerd
gekeken
gekend
gekende
gekenmerkt
gekko
geklasseerd
geklasseerde
gekleed
gekleurd
gekleurde
geknipt
gekocht
gekomen
gekookt
gekopieerd
gekoppeld
gekoppelde
gekost
gekozen
gekregen
gekromd
gekroond
gekroonde
gekruist
gekwalificeerd
gekwalificeerde
gekwantificeerd
gekweekt
gel
gelaat
gelabert
geladen
gelanceerd
geland
gelaten
geld
geldbedrag
geldboete
gelden
geldende
gelder
gelderland
geldermalsen
gelders
gelderse
geldgebrek
geldig
geldige
geldigheid
geldrop
geldt
gele
gelechiidae
gelede
geleden
gelederen
geledingen
geleedpotigen
geleefd
geleen
geleend
geleerd
geleerde
geleerden
gelegd
gelegen
gelegenheden
gelegenheid
gelegerd
geleid
geleide
geleidelijk
geleidelijke
geleider
gelet
geleverd
geleverde
gelezen
gelieerd
geliefd
geliefde
geliefden
gelijk
gelijkaardig
gelijkaardige
gelijke
gelijken
gelijkend
gelijkende
gelijkenis
gelijkenissen
gelijkgespeeld
gelijkgesteld
gelijkheid
gelijkmaker
gelijkmatig
gelijknamig
gelijknamige
gelijksoortige
gelijkspel
gelijktijdig
gelijktijdige
gelijkwaardig
gelijkwaardige
gelinkt
gelokaliseerd
gelokt
geloof
geloofd
geloofde
geloofden
geloofsbelijdenis
gelooft
gelooven
gelopen
geloven
gelovige
gelovigen
gelre
geluid
geluiden
geluidsstudio
geluidstechnicus
geluk
gelukkig
gelukkige
gelukt
gelyk
gem
gemaakt
gemaakte
gemaal
gemak
gemakkelijk
gemakkelijke
gemakkelijker
gemalen
gemalin
gemarkeerd
gemarteld
gematigd
gematigde
gemeen
gemeenschap
gemeenschappelijk
gemeenschappelijke
gemeenschappen
gemeente
gemeentebestuur
gemeentegrens
gemeentehuis
gemeentelijk
gemeentelijke
gemeentemuseum
gemeenten
gemeenteraad
gemeenteraadslid
gemeenteraadsverkiezingen
gemeentes
gemeentesecretaris
gemeentevlag
gemeentewapen
gemeld
gemene
gemenebest
gemenebestspelen
gemengd
gemengddubbel
gemengde
gemert
gemeten
gemetselde
gemiddeld
gemiddelde
gemini
gemist
gemixt
gemma
gemodelleerd
gemoderniseerd
gemoed
gemonteerd
gemotiveerd
gemotoriseerde
gen
genaamd
genade
genationaliseerd
gend
gender
gendt
gene
genealogie
geneesheer
geneeskunde
geneeskundige
geneesmiddel
geneesmiddelen
genegeerd
genegenheid
geneigd
genen
genera
generaal
generaals
general
generale
generalleutnant
generalmajor
generatie
generaties
generation
generator
genereren
genesis
genetica
genetisch
genetische
genezen
genezing
genie
geniet
genieten
genitief
genius
genk
gennaio
gennep
genoa
genocide
genoeg
genoegen
genoemd
genoemde
genomen
genomineerd
genomineerden
genoodzaakt
genoom
genoot
genootschap
genot
genoteerd
genoten
genre
genres
gens
gent
gentleman
gentse
genua
genummerd
genummerde
genus
geo
geoff
geoffrey
geoffroy
geograaf
geografie
geografisch
geografische
geographic
geological
geologie
geologisch
geologische
geoloog
geometridae
geometrische
geomteridae
geoogst
geopenbaard
geopend
geopende
geopereerd
geoplanidae
geopperd
geordend
georg
georganiseerd
georganiseerde
george
georges
georgetown
georgi
georgia
georgie
georgisch
georgische
georie
gepaard
gepaarde
gepakt
gepantserde
gepasseerd
gepensioneerde
geperst
geplaagd
geplaatst
geplaatste
geplakt
gepland
geplande
geplant
gepleegd
geplunderd
gepositioneerd
gepresenteerd
geprezen
geprobeerd
geproduceerd
geproduceerde
geprogrammeerd
geprojecteerd
gepromoot
gepromoveerd
gepubliceerd
gepubliceerde
ger
gera
geraadpleegd
geraakt
geraakte
geraardsbergen
gerais
geraken
gerald
gerangschikt
gerapporteerd
gerard
gerardus
gerben
gerd
gerda
gereageerd
gerealiseerd
gerecht
gerechtelijk
gerechtelijke
gerechten
gerechtigd
gerechtigheid
gerechtshof
gerechtvaardigd
gereconstrueerd
gered
gereden
gereduceerd
gereed
gereedschap
gereedschappen
gereformeerd
gereformeerde
gereformeerden
geregeerd
geregeld
geregelde
geregisseerd
geregistreerd
geregistreerde
gereisd
gerekend
gerekruteerd
gerelateerd
gerelateerde
gerenommeerde
gerenoveerd
gerepareerd
gereserveerd
gerespecteerd
gerestaureerd
gerestaureerde
gerhard
gericht
gerichte
geridderd
gering
geringe
gerlach
germaans
germaanse
germain
germaine
german
germanen
germania
germany
germar
germinal
geroemd
geroepen
gerrie
gerrit
gerritsen
gerry
gers
gershwin
gerst
gerstaecker
gert
gertrude
gertsch
gerucht
geruchten
geruild
geruime
gerundio
gerundium
gerust
gervais
gerwen
ges
geschapen
geschat
geschatte
gescheiden
geschenk
geschenken
geschichte
geschied
geschiedde
geschieden
geschiedenis
geschiedkundige
geschiedschrijver
geschiedschrijving
geschiedt
geschikt
geschikte
geschil
geschilderd
geschilderde
geschillen
geschokt
geschonden
geschonken
geschorst
geschoten
geschoven
geschrapt
geschreven
geschrift
geschriften
geschut
gescoord
gescoorde
gesegmenteerd
geselecteerd
geselecteerde
gesellschaft
geserveerd
gesignaleerd
gesigneerd
gesink
gesitueerd
geslaagd
geslaagde
geslacht
geslachten
geslachtengroep
geslachtscellen
geslachtsnaam
geslagen
gesleept
geslepen
gesloopt
gesloopte
gesloten
gesmolten
gesneden
gesneuveld
gesneuvelde
gesneuvelden
gesorteerd
gesp
gespaard
gespannen
gespecialiseerd
gespecialiseerde
gespeculeerd
gespeeld
gespeelde
gespeld
gespleten
gesplitst
gesponsord
gespoten
gespreid
gesprek
gesprekken
gesproken
gestaag
gestaakt
gestaan
gestalte
gestapo
gestart
gestationeerd
gesteente
gesteenten
gestegen
gestel
gesteld
gestelde
gestemd
gesteund
gesticht
gestichte
gestileerde
gestimuleerd
gestoken
gestolen
gestoord
gestopt
gestort
gestorven
gestraft
gestreden
gestreefd
gestreept
gestreepte
gestro
gestudeerd
gestuurd
gesu
gesuggereerd
get
getal
getale
getalenteerde
getallen
geteeld
geteisterd
getekend
getekende
geteld
getest
getijden
getijdenboek
getinte
getiteld
getogen
getoond
getracht
getraind
getransporteerd
getreden
getroffen
getrokken
getrouw
getrouwd
getrouwde
gets
getting
getto
getuige
getuigen
getuigenis
getuigenissen
getuigt
geu
geuit
geul
geur
geus
geuzen
gevaar
gevaarlijk
gevaarlijke
geval
gevallen
gevangen
gevangene
gevangenen
gevangengenomen
gevangengezet
gevangenis
gevangenissen
gevangenisstraf
gevangenschap
gevaren
gevarieerd
gevarieerde
gevat
gevecht
gevechten
geveild
gevel
gevels
gevelsteen
geven
gevers
gevestigd
gevestigde
gevierd
gevlekte
gevleugelde
gevlogen
gevlucht
gevluchte
gevochten
gevoed
gevoegd
gevoel
gevoeld
gevoelen
gevoelens
gevoelig
gevoelige
gevoeligheid
gevoerd
gevolg
gevolgd
gevolge
gevolgen
gevolmachtigd
gevonden
gevorderd
gevorderde
gevormd
gevormde
gevouwen
gevraagd
gevraagde
gevreesd
gevuld
gevulde
gewaad
gewaardeerd
gewaarschuwd
gewacht
gewapend
gewapende
gewas
gewassen
geweer
geweest
geweigerd
gewekt
geweld
gewelddadig
gewelddadige
geweldig
geweldige
gewelf
gewelven
gewend
gewenst
gewenste
geweren
gewerkt
gewervelde
gewest
gewestelijke
gewesten
gewestweg
geweten
geweven
gewezen
gewicht
gewichten
gewichtheffen
gewijd
gewijde
gewijzigd
gewijzigde
gewikkeld
gewild
gewisseld
gewond
gewonde
gewonden
gewone
gewonnen
gewoon
gewoond
gewoonlijk
gewoonte
gewoonten
geworden
geworpen
gewricht
gewrichten
gewrichtsuitsteeksels
gezag
gezagvoerder
gezamenlijk
gezamenlijke
gezang
gezangen
gezant
gezanten
gezegd
gezegde
gezelle
gezellig
gezelschap
gezelschappen
gezet
gezeten
gezicht
gezichten
gezichtspunt
gezien
gezin
gezinnen
gezocht
gezond
gezonde
gezonden
gezondheid
gezondheidsproblemen
gezondheidsredenen
gezondheidszorg
gezongen
gezonken
gezorgd
gezuiverd
ggd
ghana
ghanees
ghi
ghislain
ghost
ghy
gi
gia
giacomo
gian
giang
gianni
giant
giants
gibbons
gibbs
gibraltar
gibson
gidding
gideon
gids
gidsen
gie
giel
gier
gieten
gietijzeren
gif
gifford
gift
giften
giftig
giftige
gigantea
gigantische
gigas
gij
gijs
gijsbert
gijsbrecht
gijzelaars
gijzeling
gil
gilbert
gilberto
gilde
gilden
gilera
giles
gill
gilles
gillespie
gillis
gilmore
gilmour
gimbart
gime
gin
gina
ging
gingen
ginger
ginneken
gino
gion
giorgio
giovanni
gips
girard
giraud
girault
girl
girls
giro
girolamo
girona
gironde
gis
gisela
gist
gistel
gisteren
gisting
gitaar
gitaren
gitarist
gitaristen
giulia
giuliano
giulio
giuseppe
give
gl
glad
gladde
glam
glans
glanzend
glanzende
glas
glasgow
glass
glazen
glazenier
glee
glen
glenea
glenn
gletsjer
gletsjers
glijden
glimlach
glise
glo
globaal
global
globale
globe
gloed
gloria
glorie
glory
gloucester
glover
glu
glucose
gm
gmbh
gmelin
gnaphosidae
gne
gnu
go
goa
goal
goals
gobiidae
god
goddelijk
goddelijke
goden
godfather
godfrey
godfried
godheid
godin
godman
gods
godsdienst
godsdiensten
godsdienstige
godsdienstvrijheid
godshuis
godzilla
goe
goed
goede
goeden
goederen
goederentreinen
goederenvervoer
goedgekeurd
goedheid
goedkeuring
goedkoop
goedkope
goedkoper
goedkopere
goeree
goes
goet
goethals
goethe
gogh
goia
going
goire
gokken
gold
goldberg
golden
goldman
goldstein
golf
golfbaan
golfbanen
golfclub
golfer
golflengte
golfoorlog
golfprofessional
golftoernooi
golven
golvende
gomes
gomez
gomphidae
gon
gonc
gone
gong
gonna
gonomyia
gonyleptidae
gonza
gonzaga
gonzalez
gonzalo
good
goodbye
goodman
goodwill
google
gooi
gooide
gooien
gooit
goor
goossens
goot
goran
gorbatsjov
gorcum
gordel
gordijn
gordon
gore
gorilla
gorinchem
goris
gorochov
gory
gos
gospel
got
goten
gotha
gothic
gotiek
gotisch
gotische
gott
gottfried
gottlieb
gou
goud
gouda
gouden
goudse
gould
gouvernement
gouverneur
gouverneurs
gouw
gouwe
gov
governance
government
govert
goya
gp
gps
gr
gra
graad
graaf
graaff
graafschap
graafschappen
graafwespen
graag
graan
grace
gracht
grachten
gracilis
gracillariidae
grad
grade
graden
grady
graeff
graeme
graf
grafelijke
graffiti
grafheuvel
grafheuvels
graficus
grafiek
grafisch
grafische
grafkelder
grafmonument
grafsteen
grafstenen
graftombe
grafton
graham
gram
grammatica
grammaticale
grammy
gran
granaat
granada
granaten
grand
grande
grandes
grandis
grands
grandslamtoernooi
grandslamtoernooien
granen
grange
granger
graniet
granieten
grant
grap
graphics
grappen
grappig
gras
grasland
graslanden
grasmineermotten
grasmotten
grass
grassen
grassenfamilie
gratie
gratis
graubu
grauwe
grave
gravel
gravelbanen
graven
gravenhage
gravenhorst
graves
graveur
gravin
gravity
gravure
gravures
gray
graz
grazen
gre
great
greater
greatest
greef
greek
green
greene
greenwich
greenwood
greep
greet
greg
gregg
gregor
gregoriaanse
gregorio
gregorius
gregory
greipel
grenada
grenadier
grenadiers
grenadines
grenoble
grens
grensde
grensgebied
grensovergang
grenst
grenzen
grenzend
grepen
gressitt
greta
grey
grid
grieg
grieken
griekenland
grieks
griekse
griep
grietman
griffel
griffier
griffin
griffith
griffiths
grijpen
grijpt
grijs
grijsbruin
grijze
grimbergen
grimm
grind
grip
griswold
gro
groef
groei
groeide
groeiden
groeien
groeiend
groeiende
groeit
groen
groene
groenen
groenendaal
groeneveld
groenland
groenlinks
groenlo
groente
groenten
groep
groepen
groepering
groeperingen
groepje
groepjes
groepsfase
groepswedstrijd
groepswedstrijden
groepswinnaar
groesbeek
groet
groeten
groeve
groeven
grof
grofweg
grond
grondels
gronden
grondgebied
grondig
grondige
grondlegger
grondleggers
grondplan
grondslag
grondslagen
grondstof
grondstoffen
grondtoon
grondwater
grondwet
grondwettelijk
grondwettelijke
groningen
groninger
gronings
groningse
gronsveld
groot
groote
grooten
grooter
grootere
grootheden
grootheid
groothertog
groothertogdom
grootkruis
grootmeester
grootmoeder
grootofficier
grootouders
groots
grootschalig
grootschalige
grootse
grootst
grootste
grootte
grootvader
grootvorst
groove
gros
gross
grosse
grosso
grot
grote
groten
grotendeels
groter
grotere
grotetertstoonladder
grotten
ground
group
groupe
grouvelle
grove
groß
große
gru
grube
gruwelijke
gruyter
gryllacrididae
gryllidae
gs
gsm
gstaad
gt
gu
gua
guadalajara
guadalupe
guadeloupe
guam
guangzhou
guard
guardian
guatemala
gue
guene
guerra
guerre
guerrero
guerrilla
guest
guez
guggenheim
gui
guiana
guide
guido
guignot
guild
guillaume
guillermo
guillou
guinea
guinee
guinness
guitar
gulden
gulf
gulik
gulpen
gumiel
gun
gunnar
guns
gunst
gunste
gunstig
gunstige
gunther
gunung
guo
gupta
gus
gustaaf
gustaf
gustav
gustave
gustavo
gut
gutenberg
guthrie
gutie
guus
guy
guyana
guys
guzma
guzzi
gvb
gwen
gwijde
gy
gyatso
gymnasium
gymnastiek
gyo
gyrinidae
h
ha
haag
haags
haagsche
haagse
haai
haaien
haak
haakjes
haakon
haaks
haaksbergen
haal
haalbaar
haalde
haalden
haalt
haan
haar
haard
haaren
haarlem
haarlemmermeer
haarlemse
haartjes
haas
haast
haastig
haat
habe
habitat
habitats
habitatverlies
habsburg
habsburgers
habsburgse
hack
hacker
hackett
had
hadde
hadden
haddon
hadrianus
haer
haeseryn
haft
haga
hage
hagedis
hagedissen
hagen
hague
hahn
hai
haifa
haig
haile
hailwood
hainaut
hair
hak
haken
hakken
hal
halacaridae
hale
halen
haley
half
halfbroer
halfjaar
halfrond
halfronde
halfvleugelig
halfvleugeligen
halfweg
haliclona
halictidae
haliday
halifax
hall
halle
hallen
hallenkerk
haller
hallo
halloween
halo
hals
halsschild
halswervels
halt
halte
haltes
halve
halveringstijd
halverwege
halvorsen
ham
hamas
hamburg
hamburger
hamel
hamer
hamilton
hamlet
hamlets
hamm
hamme
hammer
hammond
hampshire
hampson
hampton
han
hanau
hancock
hand
handbal
handbalteam
handboek
handbook
handel
handelaar
handelaars
handelaren
handelde
handelen
handeling
handelingen
handels
handelsblad
handelsmerk
handelt
handen
handhaven
handhaving
handicap
handig
handige
handlangers
handleiding
handley
handmatig
hands
handschoenen
handschrift
handschriften
handtekening
handtekeningen
handvat
handvest
handvol
hang
hangen
hangende
hangmatspinnen
hangt
hank
hanley
hanna
hannah
hannes
hannibal
hannover
hanoi
hans
hansen
hanson
hansson
hanteerde
hanteert
hanteren
hanze
hao
happening
happiness
happy
har
hara
harald
harbor
harbour
hard
hardcore
hardcourt
hardcourtbanen
harde
hardenberg
harder
harderwijk
hardheid
harding
hardlopen
hardstenen
hardware
hardy
hare
harelbeke
haren
harer
hari
harige
haring
harlem
harley
harlingen
harm
harmonie
harmonieorkest
harmonieorkesten
harmonische
harmony
harmsen
harnas
harnasmeervallen
harold
harp
harpalus
harper
harrie
harriet
harrington
harris
harrison
harry
hars
hart
hartaanval
hartbeeld
harte
harten
hartford
hartinfarct
hartington
hartley
hartman
hartmann
hartog
hartslag
hartstilstand
harvard
harvest
harvey
harz
has
haspengouw
hassan
hasselt
hastings
hat
hatch
hate
hathaway
hattem
hattrick
hauptbahnhof
hauptmann
haus
haut
haute
hautes
hauts
havana
have
havelaar
haven
havengebied
havens
havenstad
haver
havezate
havo
havre
hawai
hawaii
hawk
hawkins
haworth
hay
hayashi
hayat
hayden
haydn
haye
hayes
hayward
haza
hazel
hazen
hazes
hb
hbf
hbo
hbs
hc
hcl
hd
he
head
heads
health
hear
heard
heart
hearts
heat
heath
heather
heaven
heavy
heavyweight
heb
hebard
hebben
hebbend
hebbende
hebreeuws
hebreeuwse
hebron
hebt
hecht
hechte
hechten
hechtenis
hecke
hectare
hector
heden
hedendaags
hedendaagse
hedgehog
hedley
hedwig
hee
heeckeren
heeft
heek
heel
heelal
heemskerk
heemstede
heen
heer
heere
heeren
heerenveen
heeresgruppe
heerlen
heerlijk
heerlijke
heerlijkheden
heerlijkheid
heerschappij
heersen
heersende
heerser
heersers
heerst
heerste
hees
heesters
heeswijk
heet
heette
heeze
heffen
heffing
heft
heftig
heftige
hegel
hegemonie
hei
heid
heide
heidelberg
heiden
heidenen
heidense
heidi
heids
heights
heijden
heijn
heil
heilig
heiligdom
heilige
heiligen
heim
heimelijk
hein
heine
heineken
heinrich
heinsberg
heinz
heist
hek
hekel
heks
heksen
hekserij
hekwerk
hel
helaas
held
helden
helder
heldere
helderheid
hele
helemaal
helen
helena
helene
helft
helga
helikopter
helikopters
helium
helix
hell
hella
hellas
helle
hellen
hellenistische
heller
hellevoetsluis
helling
hellingen
hello
helm
helmond
helmut
help
helpen
helper
helpt
helsinki
hem
hemd
hemel
hemellichaam
hemellichamen
hemelobject
hemels
hemelsbreed
hemelse
hemelvaart
hemert
hemileucinae
hemingway
hemzelf
hen
hendel
henderson
hendrick
hendrickx
hendrik
hendrika
hendriks
hendrikus
hendrix
henegouwen
hengelo
henk
henley
hennie
henning
henny
henri
henricus
henrie
henriette
henrik
henry
hepburn
her
hera
heracles
herakles
herald
heraldiek
heraldisch
heraldische
herb
herbegraven
herberg
herbergen
herbergt
herbert
herbie
herbouw
herbouwd
herbouwen
herbst
herbulot
hercules
herdacht
herdenken
herdenking
herder
herders
herdruk
herdrukken
herdrukt
here
heren
herengracht
herenhuis
herenigd
hereniging
herentals
herfst
herge
hergebruik
hergebruikt
herhaald
herhaalde
herhaaldelijk
herhaalt
herhalen
herhaling
herindeling
hering
herinnerd
herinnerde
herinneren
herinnering
herinneringen
herinneringsmedaille
herinnert
herinrichting
heritage
herk
herkansing
herkenbaar
herkenbare
herkend
herkende
herkennen
herkent
herkomst
herkozen
herman
hermann
hermans
hermanus
hermes
hermitage
herna
hernam
hernandez
hernieuwde
hernoemd
hernoemde
hero
herodes
herodotus
heroes
heroi
herontdekt
heropend
heropening
heropgebouwd
heropgericht
heropleving
heroverd
heroverde
heroveren
herr
herred
herrera
herreros
herrich
herring
herschel
herschreven
hersenen
hersenpan
herstal
herstart
herstel
hersteld
herstelde
herstellen
herstelt
herstructurering
hert
herten
hertha
hertog
hertogdom
hertogdommen
hertogen
hertogenbosch
hertogin
hertrouwde
hertz
heruitgave
heruitgegeven
hervat
hervatte
hervatten
herve
hervormd
hervormde
hervormden
hervormen
hervorming
hervormingen
herz
herzegovina
herzien
herziene
herziening
herzog
hesperiidae
hess
hesse
hessen
hester
het
hete
heten
heteropoda
hetgeen
hetwelk
hetzelfde
hetzij
heukels
heup
heur
heusden
heuvel
heuvelachtig
heuvelland
heuvelrug
heuvels
heverlee
hevig
hevige
hewitson
hewitt
hex
hexadecimaal
hey
heyden
hf
hfc
hg
hh
hi
hicks
hidalgo
hidden
hie
hief
hield
hielden
hielp
hielpen
hier
hieraan
hierachter
hierarchy
hierbij
hierboven
hierdoor
hierin
hiermee
hierna
hiernaast
hierom
hieronder
hieronymus
hierop
hierover
hiertegen
hiertoe
hiertussen
hieruit
hiervan
hiervoor
higgins
high
higher
highland
highlands
highway
hiiumaa
hij
hijzelf
hilaire
hilary
hilda
hilde
hildebrand
hildesheim
hill
hillary
hille
hills
hilton
hilversum
him
himalaya
himmler
hin
hinault
hinder
hinderlaag
hindi
hindoei
hing
hingen
hink
hinton
hip
hiphop
hippolyte
hiroshima
hirsch
hirsuta
his
hispania
hist
histoire
historia
historic
historica
historical
historici
historicus
historie
historique
historisch
historische
history
hit
hitchcock
hitje
hitler
hitlers
hitlijst
hitlijsten
hitparade
hitparades
hits
hitte
hiv
hk
hl
hle
hler
hm
hms
hn
hne
ho
hobart
hobby
hobo
hoboken
hoc
hochschule
hockey
hockeyclub
hockeyer
hockeyploeg
hodges
hoe
hoed
hoedanigheid
hoede
hoeden
hoef
hoefde
hoefden
hoeft
hoei
hoek
hoeken
hoekstra
hoektanden
hoen
hoensbroek
hoes
hoessein
hoeve
hoeveel
hoeveelheden
hoeveelheid
hoeven
hoeverre
hoewel
hoezeer
hof
hoff
hoffman
hoffmann
hofhouding
hofje
hofland
hofman
hofmann
hofstede
hogan
hoge
hogepriester
hoger
hogere
hogerhuis
hogescholen
hogeschool
hogesnelheidslijn
hogg
hogna
hohenlohe
hohenzollern
hok
hokkaido
hol
holcombe
hold
holden
holding
holdings
hole
holen
holes
holiday
holkema
holland
hollander
hollanders
hollandia
hollands
hollandsch
hollandsche
hollandse
holle
hollow
holloway
holly
hollywood
holm
holme
holmes
holmgren
holocaust
holotype
holst
holstein
holsworthy
holt
holte
holten
holthuis
holy
holzschuh
homburg
home
homepage
homer
homerus
hommage
homme
hommels
hommes
homo
homoseksualiteit
homoseksueel
homoseksuele
homoseksuelen
hon
hond
honda
honden
honderd
honderdduizenden
honderden
honderdjarige
honderdste
honderdtal
hondt
honduras
honey
hong
hongaars
hongaarse
hongaren
hongarije
honger
hongersnood
hongkong
honing
honiton
honkbal
honkballer
honkbalteam
honneur
honolulu
honor
honore
hontoria
hood
hoof
hoofd
hoofdaltaar
hoofdartikel
hoofdartikelen
hoofdbestuur
hoofdcoach
hoofddeksel
hoofddoel
hoofddorp
hoofde
hoofdeiland
hoofden
hoofdgebouw
hoofdingang
hoofdkantoor
hoofdklasse
hoofdkwartier
hoofdletter
hoofdletters
hoofdmacht
hoofdman
hoofdpersonage
hoofdpersonages
hoofdpersonen
hoofdpersoon
hoofdpijn
hoofdplaats
hoofdprijs
hoofdredacteur
hoofdrol
hoofdrollen
hoofdrolspeler
hoofdrolspelers
hoofdsponsor
hoofdstad
hoofdstedelijk
hoofdsteden
hoofdstraat
hoofdstuk
hoofdstukken
hoofdtelwoorden
hoofdtoernooi
hoofdtrainer
hoofdweg
hoofdzaak
hoofdzakelijk
hoofdzetel
hooft
hooftelwoord
hooftelwoorden
hoog
hoogaltaar
hoogbouw
hooge
hoogen
hooger
hoogeveen
hoogezand
hooggeplaatste
hooggerechtshof
hoogheemraadschap
hoogheid
hoogland
hooglanden
hoogleraar
hoogleraren
hoogovens
hoogspringen
hoogst
hoogste
hoogstens
hoogstraat
hoogstraten
hoogstwaarschijnlijk
hoogte
hoogten
hoogtepunt
hoogtepunten
hoogtes
hoogteverschil
hoogtijdagen
hooguit
hoogvlakte
hoogwaardige
hooi
hooiwagen
hooiwagens
hook
hooker
hoop
hooper
hoopt
hoopte
hoopten
hoor
hoorbaar
hoorde
hoorden
hooren
hoorn
hoorns
hoorspel
hoort
hoover
hop
hope
hopen
hopkins
hopper
hor
hora
horace
horde
horden
horeca
horen
horismenus
horizon
horizont
horizontaal
horizontale
horloge
hormonen
horn
horne
horner
horror
horrorfilm
horse
horst
horstmann
horta
horton
hortus
horwood
hospitaal
hospital
host
hoste
hot
hotel
hotelkamer
hotels
hotspur
hou
houben
houd
houden
houdend
houdende
houder
houding
houdt
houghton
hour
hours
house
houston
hout
houtboorders
houten
houtskool
houtsnijwerk
hove
hoven
how
howard
howe
hp
hr
hradec
hren
hrer
hrsg
hs
hsl
hsv
ht
htc
htm
html
http
https
hu
hua
huang
hub
hubbard
huber
hubert
hubertus
hubner
hudson
hue
huerta
huet
hufnagel
hugenoten
hugh
hughes
hugo
hui
huib
huid
huidig
huidige
huidskleur
huilen
huis
huisarrest
huisarts
huisdier
huisdieren
huish
huishoudelijk
huishoudelijke
huishouden
huishoudens
huishouding
huisje
huisjes
huisman
huisnummer
huisnummers
huisorde
huissen
huisstijl
huisvest
huisvesten
huisvesting
huisvrouw
huit
huize
huizen
huizinga
hulde
hulk
hull
hulland
hulp
hulpbisschop
hulpbronnen
hulpdiensten
hulpmiddel
hulpmiddelen
hulpverleners
hulpverlening
hulst
human
humaniora
humanisme
humanist
humanistische
humanitaire
humbert
humboldt
hume
humes
humilis
humo
humor
humoristische
humphrey
hun
hundred
hunebed
hunebedden
hunne
hunnen
hunner
hunt
hunter
huntington
hunze
huren
hurley
hurricane
hurt
hus
hut
hutchinson
hutten
hutton
huub
huur
huurbasis
huurde
huurder
huurders
huurlingen
huurt
huwde
huwelijk
huwelijken
huwen
huygens
huys
huysmans
hy
hybrid
hybride
hyde
hydra
hydraena
hydraulische
hydrobiidae
hydroi
hydropsychidae
hydroptilidae
hygie
hymedesmia
hymenoptera
hymne
hypotheek
hypothese
hyundai
hz
i
ia
iaaf
ian
iata
ib
iba
iberisch
iberische
ibiza
ibm
ibn
ibrahim
ic
ica
icao
ice
ich
ichneumon
ichneumonidae
ick
iconen
icoon
ict
id
ida
idaea
idaho
ide
idea
ideaal
ideale
idealen
idee
ideee
idem
identiek
identieke
identificatie
identification
identificeerden
identificeren
identiteit
identity
ideologie
ideologische
ido
idool
idstein
ie
ieder
iedere
iedereen
ieders
ieee
iemand
iemands
ieper
ier
ierland
iers
ierse
iets
ietwat
if
ifa
ifk
ig
iglesias
ignace
ignacio
ignatius
igor
ihr
ii
iie
iii
ij
ijmuiden
ijs
ijsbaan
ijshockey
ijsland
ijslands
ijslandse
ijssel
ijsselmeer
ijsselstein
ijstijd
ijszee
ijver
ijzer
ijzeren
ijzererts
ijzertijd
ik
ike
ikko
iktas
il
ilias
ilir
ilja
ill
ille
illegaal
illegale
illinois
illusie
illustrated
illustratie
illustraties
illustrator
illustre
illustreerde
illustreert
illustreren
ilse
im
image
images
imago
imam
imdb
imf
imitatie
immer
immers
immigrant
immigranten
immigratie
immuunsysteem
imola
impact
imparfait
impe
imperfectief
imperfectieve
imperfecto
imperial
imperium
implementatie
impliceert
import
important
importeur
imposante
impossible
impressionisme
impressionistische
improvisatie
impuls
in
ina
inaugurele
inbegrepen
inbegrip
inbouwmotoren
inbraak
inbreng
inbreuk
inc
inca
incertae
inch
incident
incidenteel
incidenten
incl
inclusief
inclusive
incredible
inde
indefinido
indeling
independence
independent
inderdaad
indertijd
index
india
indiaan
indiaanse
indiaas
indian
indiana
indianapolis
indianen
indiase
indica
indicatie
indicatif
indicator
indicus
indie
indien
indienen
indigd
indigde
indigen
indiging
indigo
indirect
indirecte
indisch
indische
individu
individueel
individuele
individuen
indo
indochina
indonesia
indonesie
indonesisch
indonesische
indoor
indre
indruk
indrukken
indrukwekkend
indrukwekkende
industrial
industrialisatie
industrie
industriee
industrieel
industriegebied
industries
industrieterrein
industry
indy
ine
ineen
ineens
ineenstorting
ineke
inergatief
inermis
infanterie
infanteriedivisie
infantes
infantry
infectie
infecties
inferior
inferno
infinity
inflatie
info
informatica
informatie
information
informeel
informele
informeren
infrarood
infrastructuur
infty
ing
inga
ingaan
ingang
ingangen
inge
ingeblazen
ingeborg
ingebouwd
ingebouwde
ingebracht
ingebruikname
ingedeeld
ingediend
ingegaan
ingegeven
ingehaald
ingehuldigd
ingehuurd
ingeklemd
ingekort
ingeleid
ingelijfd
ingenieur
ingenieurs
ingenomen
ingericht
ingeschakeld
ingeschreven
ingesloten
ingesproken
ingesteld
ingestelde
ingestort
ingetrokken
ingevoerd
ingevoerde
ingevolge
ingevuld
ingewijd
ingewikkeld
ingewikkelde
ingezet
ingezetenen
ingezonden
ingezongen
inging
ingredie
ingreep
ingrepen
ingrid
ingrijpen
ingrijpend
ingrijpende
ingrisch
inham
inheems
inheemse
inhield
inhoud
inhoudelijk
inhoudelijke
inhouden
inhoudsopgave
inhoudt
inhuldiging
initialen
initiatief
initiatiefnemer
initiatiefnemers
initiatieven
initie
initieel
injectie
inkeping
inkomen
inkomsten
inkomstenbelasting
inkt
inktvis
inktvissen
inleiding
inleveren
inlichtingen
inlichtingendienst
inlijving
inmenging
inmiddels
inn
innam
inname
inneemt
innemen
innen
inner
innerlijke
innocentius
innovatie
innovaties
innovatieve
innsbruck
inoue
input
inquisitie
inrichten
inrichting
inrichtingen
ins
inschrijven
inschrijving
inschrijvingen
inscriptie
inscripties
insect
insecten
insee
inside
insigne
insignis
inslag
inslagkrater
inspanning
inspanningen
inspecteur
inspectie
inspector
inspiratie
inspiratiebron
inspireerde
inspireren
inspraak
instabiliteit
instagram
installatie
installaties
installeren
instandhouding
instant
instantie
instanties
instellen
instelling
instellingen
instemming
instinct
institut
institute
instituten
instituties
institution
institutionele
instituto
instituut
instorten
instorting
instroom
instructeur
instructie
instructies
instrument
instrumentaal
instrumental
instrumentale
instrumentalist
instrumentatie
instrumenten
instruments
insularis
int
intact
inte
integendeel
integer
integraal
integrale
integratie
integreren
integriteit
integrity
intel
intellectueel
intellectuele
intellectuelen
intelligence
intelligent
intelligente
intelligentie
intens
intense
intensief
intensieve
intensiteit
intentie
inter
interactie
interacties
interactieve
interactive
interbellum
intercity
intercontinental
interessant
interessante
interesse
interesses
interest
interface
interieur
interieurs
interim
interland
interlands
intermedia
intermediair
intermedius
intermezzo
intern
internaat
internacional
internal
internationaal
international
internationale
internationals
internazionale
interne
internet
internetova
internetpagina
interpretatie
interpretaties
interpreteren
interstate
intertoto
interval
interventie
interview
interviews
intieme
intimidatie
into
intocht
intrede
intrek
intro
introduceerde
introduceert
introduceren
introductie
introduction
intui
intusschen
intussen
inuit
inval
invallen
invaller
invasie
invasieve
inventaris
inverness
inversie
investeerde
investeerder
investeerders
investeren
investering
investeringen
investigation
investment
invisible
invitational
invloed
invloeden
invloedrijk
invloedrijke
invloedrijkste
invloedssfeer
invoegsel
invoer
invoeren
invoering
invullen
invulling
inw
inwendig
inwendige
inwerkingtreding
inwijding
inwoner
inwoneraantal
inwoners
inwonersaantal
inwonertal
inzake
inzameling
inzending
inzendingen
inzet
inzette
inzetten
inzicht
inzichten
inzien
inzittenden
inzonderheid
io
ioc
ion
ionen
ionische
ios
iowa
ip
ipa
ipac
ipad
iphone
ipswich
iq
ir
ira
iraakse
iraans
iraanse
irak
iran
iras
ire
iredale
ireland
irene
irina
iris
irish
irma
iron
ironisch
ironman
irrigatie
irvine
irving
irwin
is
isa
isaac
isaak
isabel
isabella
isabelle
isbn
isch
ise
isis
isla
islam
islamitisch
islamitische
island
islands
isle
ismail
iso
isola
isolatie
isoleren
isotoop
isotopen
israe
israel
iss
issn
issue
ist
istanboel
istanbul
istat
istituto
istoc
istrie
istva
isu
it
ita
italia
italiaan
italiaans
italiaanse
italian
italiana
italianen
italie
italy
item
items
itf
ito
its
itu
itunes
itv
iucn
ius
iv
iva
ivan
ivanov
ivar
ivdnt
ives
ivie
ivo
ivoor
ivoorkust
ivoriaans
ivy
iwerne
ix
iz
izagirre
izegem
j
ja
jaagt
jaak
jaap
jaar
jaarboek
jaargang
jaargangen
jaarlijks
jaarlijkse
jaartal
jaartallen
jaartelling
jaarverslag
jac
jacht
jachthaven
jachtkrabspinnen
jack
jackie
jackson
jacksonville
jacky
jacob
jacoba
jacobi
jacobs
jacobsen
jacobus
jacoby
jacqueline
jacques
jade
jae
jagen
jager
jagers
jagger
jago
jaguar
jahre
jai
jaime
jak
jakarta
jake
jakob
jakobus
jakovlev
jalabert
jaloers
jaloezie
jam
jamaica
jamaicaans
jamaicaanse
jamal
jambi
james
jamie
jammer
jan
jana
jane
janeiro
janet
janine
janneke
jans
janse
jansen
janskerk
janssen
janssens
jansz
januari
january
janus
jap
japan
japanese
japanner
japanners
japans
japanse
japonica
japonicus
jar
jaramillo
jardin
jaren
jarenlang
jarenlange
jargon
jarig
jarige
jarigen
jaroslav
jas
jasje
jason
jasper
java
javaans
javaanse
javascript
javier
jay
jaya
jazyk
jazyka
jazykova
jazz
jazzmuzikant
jazzpianist
jc
je
jean
jeanne
jeannel
jeans
jedi
jedlicka
jeep
jef
jeff
jefferson
jeffrey
jegens
jehova
jekaterinenburg
jelena
jelle
jemen
jena
jenkins
jennifer
jennings
jenny
jens
jensen
jeremy
jerevan
jerez
jericho
jeroen
jerom
jerome
jerry
jersey
jerusalem
jeruzalem
jerzy
jes
jesaja
jesper
jess
jesse
jessica
jessie
jesu
jesus
jet
jets
jette
jeu
jeugd
jeugdbeweging
jeugdelftallen
jeugdige
jeugdopleiding
jeugdteams
jeugdtrainer
jeugdzomerspelen
jeune
jeunesse
jeux
jevgeni
jewish
jezelf
jezui
jezus
jg
jheronimus
jhr
ji
jia
jiang
jiddisch
jiddisj
jiddisje
jij
jill
jim
jime
jimi
jimmy
jin
jing
jir
jk
jkvr
jo
joa
joachim
joan
joanna
joanne
joannes
joannis
joaqui
joaquim
joaquin
job
jobs
jochem
jocque
joden
jodendom
joe
joeg
joegoslavie
joegoslavisch
joegoslavische
joel
joep
joeri
joey
jogjakarta
joh
johan
johann
johanna
johannes
johannesburg
johansen
johansson
john
johnnie
johnny
johns
johnson
johnston
join
joint
joke
joker
jolie
jommeke
jon
jonas
jonathan
jones
jong
jonge
jongeling
jongeman
jongen
jongens
jongensnaam
jonger
jongere
jongeren
jongerenklassement
jongetje
jongh
jonghe
jongs
jongste
jonker
jonkheer
jonkvrouw
jood
joods
joodse
joop
joos
joost
joosten
jordaan
jordaanoever
jordan
jordanie
jordi
jorge
joris
jos
jose
josef
josep
joseph
josephine
josephus
josh
joshua
josse
jou
jour
journaal
journal
journalist
journaliste
journalisten
journalistiek
journalistieke
journey
jours
jouw
joy
joyce
jozef
jr
jrg
js
ju
jua
juan
juarros
jubilee
jubileum
juda
judas
judea
judge
judith
judo
judoka
judy
juffers
juffrouw
jugendstil
jugovzhodna
juist
juiste
juistheid
juk
jukbeen
jul
jules
juli
julia
julian
juliana
julianus
julie
julien
juliet
juliette
julio
julius
jullie
july
jumbo
jump
jun
junction
june
jung
jungle
juni
junior
junioren
juniors
juno
junta
jupiler
jupiter
jura
jurassic
jurgen
juridisch
juridische
jurisdictie
jurist
juristen
jurk
jury
juryleden
jurylid
jus
just
justice
justicia
justin
justine
justinianus
justitie
justus
jutland
juventus
juweel
juwelen
jørgensen
k
ka
kaa
kaaimaneilanden
kaak
kaal
kaap
kaapkolonie
kaapse
kaapstad
kaapverdie
kaars
kaarsen
kaart
kaarten
kaartje
kaartjes
kaartspel
kaas
kabel
kabelbaan
kabels
kabinet
kabinetschef
kabinetten
kabouter
kabul
kade
kader
kafka
kahn
kai
kaiser
kaiserslautern
kaj
kaken
kal
kale
kalender
kalenderjaar
kalf
kali
kaliber
kalief
kalifaat
kalium
kalk
kalkrijke
kalksteen
kalm
kalmar
kam
kameel
kameleon
kamen
kamer
kameraden
kamerheer
kamerijk
kamerleden
kamerlid
kamermuziek
kameroen
kamerorkest
kamers
kamerverkiezingen
kammen
kamp
kampen
kampioen
kampioene
kampioenen
kampioenschap
kampioenschappen
kampte
kamtsjatka
kan
kanaa
kanaal
kanaat
kanalen
kandidaat
kandidaten
kandidatenlijst
kandidatuur
kane
kang
kangxi
kanker
kano
kanon
kanonnen
kanovaren
kans
kansas
kansel
kanselier
kansen
kansloos
kant
kantelen
kanten
kantine
kanton
kantongerecht
kantons
kantonsraad
kantoor
kantoorgebouw
kantoren
kanunnik
kanunniken
kap
kapel
kapelaan
kapelle
kapellen
kapelmeester
kapers
kapitaal
kapitalisme
kapitalistische
kapitein
kapitelen
kapittel
kapot
kappa
kappen
kapper
kapsel
kar
kara
karakter
karakteristiek
karakteristieke
karakters
karang
karate
kardinaal
kardinalen
karel
karen
kari
karim
karin
karinthie
karl
karlovac
karlsruhe
karma
karny
karolingische
karpaten
karpers
karperzalmen
karsch
kart
kartel
karting
karton
kas
kasjmir
kasper
kaspische
kassa
kassel
kassen
kast
kasteel
kasteelheer
kasteeltje
kastelen
kasten
kaszab
kat
katalysator
kate
kater
katharina
kathedraal
katherine
kathleen
katholicisme
katholiek
katholieke
katholieken
kathy
katie
katja
katjoesja
kato
katoen
katrien
katrina
katten
katwijk
kaukasus
kawasaki
kay
kaye
kazachs
kazachse
kazachstan
kazan
kazerne
kb
kbvb
kc
ke
keek
keel
keep
keeper
keer
keerde
keerden
keeren
keerpunt
keert
keerzijde
kees
kegel
kei
keith
keizer
keizerin
keizerlijk
keizerlijke
keizerrijk
keizers
keizersgracht
keken
kel
kelder
kelders
kelk
keller
kelly
kelten
keltische
kelvin
kemp
kempen
kemper
ken
kenbaar
kend
kendal
kendall
kende
kenden
kenia
keniaans
keniaanse
kenmerk
kenmerken
kenmerkend
kenmerkende
kenmerkt
kenmerkte
kennedy
kennelijk
kennemerland
kennen
kenner
kenneth
kennis
kennismaking
kennissen
kenny
kenrick
kensington
kent
kenteken
kenton
kentucky
kepler
keppel
ker
keramiek
keramische
kerel
keren
kerk
kerkdiensten
kerkdorp
kerkelijk
kerkelijke
kerken
kerkgebouw
kerkgebouwen
kerkgenootschap
kerkhof
kerkje
kerkleden
kerkmuziek
kerkorgel
kerkprovincie
kerkrade
kerkschip
kerkstraat
kerktoren
kermis
kern
kerncentrale
kernen
kernenergie
kernwapens
kerr
kerry
kers
kerspel
kerst
kersten
kerstman
kerstmis
kessel
kessler
ket
ketel
keten
ketens
ketnet
ketterij
ketting
kettingen
keuken
keulen
keulse
keur
keurde
keuren
keurmerk
keurvorst
keurvorstendom
keus
keuze
keuzes
kever
kevergeslacht
kevers
keverslakkensoort
keversoort
kevin
kew
key
keyboard
keyboards
keynes
keys
keyser
keyserling
kf
kfc
kg
kgb
kha
khan
khm
khmer
khz
ki
kick
kid
kids
kie
kiefer
kieffer
kiekeboe
kiel
kiem
kies
kiesarrondissement
kiesdistrict
kiesdistricten
kiesdrempel
kieskring
kiesrecht
kiest
kieuwen
kiev
kiezelnaalden
kiezen
kiezer
kiezers
kijk
kijkcijfers
kijken
kijker
kijkers
kijkt
kiki
kikker
kikkers
kil
kilburn
kill
killed
killer
killing
kilo
kilogram
kilometer
kilometers
kim
kimberley
kimberly
kimoto
kin
kind
kinder
kinderboek
kinderboeken
kinderen
kinderkoor
kinderloos
kinderopvang
kinderprogramma
kindertijd
kindje
kinetische
king
kingdom
kings
kingston
kington
kinshasa
kioto
kip
kippen
kira
kirby
kirche
kirgizie
kiriakoff
kirk
kirkby
kirke
kirsten
kiruna
kis
kishii
kiss
kist
kisten
kit
kitchen
kitts
kitty
kje
kjes
kl
kla
klaagde
klaar
klaas
klacht
klachten
klade
klagen
klagenfurt
klank
klanken
klant
klanten
klap
klappen
klara
klare
klarinet
klarinetten
klarinettist
klas
klasse
klassement
klassen
klassering
klassiek
klassieke
klassieker
klassiekers
klaus
klauw
klauwen
klavecimbel
klaver
klavier
kle
kleden
klederdracht
kledij
kleding
kledingstuk
kleed
kleef
kleermaker
klei
klein
kleindochter
kleine
kleinen
kleiner
kleinere
kleinkinderen
kleinood
kleinschalige
kleinste
kleinzoon
klem
klemtoon
klep
kleppen
kleren
klerk
kleur
kleuren
kleurloos
kleurloze
kleurrijke
kleurstelling
kleurstof
kleuterschool
klier
klieren
klif
kliffen
klik
klikken
klim
klimaat
klimaatclassificatie
klimaatverandering
klimmen
klimt
kliniek
klinisch
klinische
klinken
klinkende
klinker
klinkers
klinkt
klm
klo
klok
klokken
klokkentoren
klom
klomp
klonk
kloof
kloon
kloos
klooster
kloosterkerk
kloosters
klopkevers
kloppen
klopt
klopte
klug
kluge
kluis
kluizenaar
klus
kluwer
km
knaagdier
knaagdieren
knaap
knack
knap
knappe
knaw
knecht
knesset
knie
knieblessure
kniee
knight
knights
knik
knil
knip
knippen
kniptorren
knobbel
knobbels
knock
knoflook
knokke
knol
knoop
knooppunt
knop
knopen
knoppen
know
knowledge
knows
knox
knsb
knut
knutten
knvb
ko
kobayashi
kobe
koblenz
koc
koch
kocht
kochten
kock
koda
koe
koehler
koeien
koejavie
koek
koekoek
koel
koele
koelen
koeling
koeman
koen
koenraad
koepel
koepels
koerden
koerdische
koers
koersen
koersk
koets
koetshuis
koeweit
koffer
koffie
kogel
kogels
kogelspinnen
kogelstoten
kohl
kok
koken
koker
kokermotten
koksijde
kol
kolbe
kolen
kolibries
kolk
kolom
kolommen
kolonel
kolonia
koloniaal
koloniale
kolonie
kolonies
kolonisatie
kolonisten
kom
komaf
komedie
komedies
komeet
komen
komend
komende
komering
kometen
komiek
komisch
komische
komma
kompas
komst
komt
kon
konde
konden
kondigde
kondigden
kondigt
kong
kongo
konijn
konijnen
koning
koningen
koningin
konings
koningsbergen
koningschap
koningshuis
koninklijk
koninklijke
koninkrijk
koninkrijken
konnen
konrad
konst
konstantin
konstanz
kontich
konvooi
koog
kooi
kook
kookboek
kookkunst
kool
koolstof
koolstofatomen
koolstofatoom
koolstofdioxide
koop
koophandel
kooplieden
koopman
koopmans
koopt
koor
koord
koorts
koos
kooten
kootje
kop
kopen
kopenhagen
koper
koperblazers
koperen
koperkwintet
kopers
kopgroep
kopie
kopiee
kopje
koplampen
koppel
koppelen
koppeling
koppels
koppelteken
koppen
kor
koraal
koraalriffen
koraalsoort
koralen
koran
korea
koreaans
koreaanse
koren
korenbouten
korenmolen
korfbal
korinthe
kornicker
korporaal
korps
korrels
korst
korstmossen
kort
korte
kortebaan
kortebaanzwemmen
korten
korter
kortere
kortfilm
korting
kortom
kortrijk
kortste
kortstondig
kortstondige
kortweg
kos
kosmische
kosmos
kosovo
kost
kostbaar
kostbare
koste
kosten
koster
kostprijs
kostschool
kostte
kostuum
kostuums
kota
koto
kott
kotta
kottelat
kou
koud
koude
kov
kova
kovac
kozakken
kozen
kp
kpn
kr
kra
kraag
kraai
kraaien
kraamer
kraan
krab
krabbe
krabben
krabbensoort
krabspinnen
kracht
krachten
krachtens
krachtig
krachtige
krachtiger
kraft
kraj
krakau
kraken
kramer
krans
krant
kranten
kras
krater
kraters
kraus
krause
krauss
krc
krediet
kredietcrisis
kreeft
kreeftachtigen
kreeften
kreeg
kreek
kreet
krefeld
kregen
kreis
kreits
krekels
kremlin
kreta
kreuz
kriegsmarine
krijg
krijgen
krijger
krijgers
krijgsgevangen
krijgsgevangenen
krijgsmacht
krijgsraad
krijgt
krijt
krim
krimpen
krimson
kring
kringen
kris
krishna
kristal
kristallen
kristen
kristin
kristina
kristof
kritiek
kritieken
kritisch
kritische
kro
kroaten
kroatie
kroatisch
kroatische
kroeg
kroes
krokodil
krokodilachtigen
krokodillen
krol
krom
kromme
kromming
kronen
kroniek
kronieken
kroning
kroon
kroonbladen
kroonorde
kroonprins
krop
kru
kruger
kruid
kruidachtige
kruiden
kruin
kruipen
kruipt
kruis
kruisen
kruiser
kruisers
kruisiging
kruising
kruisingen
kruiskerk
kruispunt
kruist
kruistocht
kruistochten
kruisvaarders
kruisweg
krukas
kruseman
krzysztof
krzyz
ks
ksc
ksk
ksv
ktm
ku
kuala
kubieke
kubus
kudde
kuhn
kuifje
kuil
kuip
kuiper
kuipers
kuitbeen
kumar
kun
kung
kunnen
kunst
kunstacademie
kunstcollectie
kunstcriticus
kunsten
kunstenaar
kunstenaars
kunstenares
kunstgeschiedenis
kunsthalle
kunsthandel
kunsthandelaar
kunsthistoricus
kunstkring
kunstmatig
kunstmatige
kunstmuseum
kunstrijden
kunstschaatsen
kunstschaatser
kunstschaatsster
kunstschilder
kunstschilderes
kunstschilders
kunststof
kunstverzamelaar
kunstwerk
kunstwerken
kunstzinnige
kunt
kuroda
kurt
kus
kussen
kust
kusten
kustgebieden
kustlijn
kuurne
kuuroord
kuyper
kv
kvc
kvp
kw
kwaad
kwaadaardige
kwade
kwak
kwal
kwalificatie
kwalificatiereeks
kwalificatieronde
kwalificaties
kwalificatietoernooi
kwalificatiewedstrijd
kwalificatiewedstrijden
kwalificeerde
kwalificeerden
kwalificeren
kwalijk
kwalitatief
kwaliteit
kwaliteiten
kwam
kwamen
kwantummechanica
kwart
kwartaal
kwartet
kwartfinale
kwartfinales
kwartier
kwartieren
kwarts
kweekschool
kweken
kwestie
kwesties
kwetsbaar
kwetsbare
kwijt
kwijtgeraakt
kwik
kwintet
ky
kyle
kyo
kyoto
l
la
laag
laaggelegen
laagje
laagland
laagst
laagste
laan
laar
laars
laarzen
laat
laatgotische
laatst
laatste
laatstelijk
laatsten
laatstgenoemde
lab
label
labels
laboissiere
labor
laboratoria
laboratorium
laboratory
labour
labrador
lac
lach
lachen
lacht
lachte
lacroix
lad
lada
ladder
laden
ladies
lading
ladingen
lady
laet
laevis
lafayette
lag
laga
lage
lagedrukgebied
lagen
lager
lagere
lagerhuis
lago
lagos
laguna
lagune
lai
lak
lake
laken
lakes
lallemand
lam
lama
lamarck
lamb
lambda
lambert
lambertus
lambertuskerk
lambik
lambrechts
lamellen
lammers
lamp
lampen
lampre
lampung
lan
lana
lancashire
lancaster
lance
lanceerde
lanceren
lancering
lancia
land
landau
landbouw
landbouwer
landbouwers
landbouwgrond
landbouwproducten
landdag
landde
landden
lande
landelijk
landelijke
landen
landenteams
landenwedstrijd
lander
landerijen
landes
landesliga
landgemeente
landgenoot
landgenote
landgenoten
landgoed
landgoederen
landgraaf
landhuis
landing
landingsbaan
landinwaarts
landkreis
landmacht
landmeter
landoppervlakte
lands
landscape
landschap
landschappen
landskampioen
landskampioenschap
landstitel
landstitels
landstreek
landt
landvoogd
lane
lanen
lang
langdurig
langdurige
lange
langeafstandsloper
langebaan
langebaanschaatser
langebaanschaatsster
langen
langer
langere
langeveld
langgerekt
langgerekte
langhe
langlaufen
langlaufer
langley
langpootmuggen
langs
langst
langste
langton
language
languages
langue
languedoc
langwerpig
langwerpige
langzaam
langzaamaan
langzame
langzamer
langzamerhand
lanka
lannoo
lannoy
lans
lantaarn
laon
laos
lap
lapland
laporte
laptop
lar
lara
laren
large
largo
larry
lars
larsen
larson
larsson
larve
larven
las
laser
laseron
lasiocampidae
lasioglossum
lasse
lassen
last
laste
lasten
lastig
lastige
lat
lata
late
laten
later
laterale
lateralis
latere
latijn
latijns
latijnse
latin
latina
latino
latour
latreille
latridiidae
lau
laude
lauenburg
launch
laura
laureaat
laurel
lauren
laurence
laurens
laurent
laurentius
laurentiuskerk
laurie
lausanne
lauwerkrans
lauwers
lava
laval
lavington
law
lawaai
lawn
lawrence
laws
lawson
lay
lazare
lazarus
lazio
lazuur
lb
lc
ld
ldots
le
lea
leach
lead
leader
leadgitaar
leadzang
leadzanger
leaf
league
learning
least
leave
leben
lebia
leblanc
lec
lech
lecithoceridae
leclerc
leconte
lector
led
lede
ledematen
leden
ledenvergadering
lederer
lee
leech
leed
leeds
leef
leefbaar
leefde
leefden
leefgebied
leefgebieden
leefomgeving
leeft
leeftijd
leeg
leegte
leek
leem
leemans
leen
leende
leendert
leenheer
leent
leenvertaling
leenwoord
leenwoorden
leer
leerboek
leerdam
leerde
leerden
leeren
leerkracht
leerkrachten
leerling
leerlingen
leermeester
leerstoel
leert
lees
leesbaar
leesonderzoek
leest
leeswaarschuwing
leeuw
leeuwarden
leeuwarder
leeuwen
lefe
lefebvre
left
leg
legaal
legaat
legacy
legal
legale
legalov
legde
legden
lege
legend
legenda
legendarische
legende
legenden
legendes
legends
leger
legergroep
legering
legerkorps
legers
leggen
legio
legioen
legioenen
legion
legislatuur
lego
legrand
legs
legsel
legt
lehmann
lehr
lei
leibniz
leicester
leidde
leidden
leiden
leidend
leidende
leider
leiders
leiderschap
leiderstrui
leiding
leidingen
leidinggevende
leidraad
leids
leidsche
leidschendam
leidse
leidt
leie
leien
leigh
leiningen
leipzig
leita
lek
leken
lekker
lektrificeerd
lelie
lelijk
lelystad
lem
lemaire
lemma
lemmens
lemniscaat
lemy
len
lena
lend
lendenfeld
lenen
lengte
lengterichting
lengua
lenin
lening
leningen
leningrad
lennart
lennep
lennon
lenny
lens
lensvormig
lent
lente
lento
lenzen
leo
leon
leonard
leonardo
leonardus
leone
leonid
leopard
leopold
leopoldsorde
lepel
lepidoptera
lepidostoma
lepidus
leptoceridae
leptophlebiidae
leq
ler
leraar
leraren
lerares
leren
leroy
lers
les
lesbische
lesgeven
lesley
leslie
lesotho
less
lessen
lessert
lesson
lester
let
letland
lets
letse
letsel
letten
letter
letteren
lettergreep
lettergrepen
letterkunde
letterkundig
letterkundige
letterlijk
letterlijke
letters
lettertype
lettres
leugen
leugens
leuk
leuke
leukemie
leur
leusden
leuven
leuvense
lev
levant
leve
level
levels
leven
levend
levende
levendig
levendige
levens
levenscyclus
levensduur
levensjaar
levensjaren
levenslang
levenslange
levensmiddelen
levensonderhoud
levensstijl
levensverhaal
levensverwachting
levenswijze
lever
leverancier
leveranciers
leverbaar
leverde
leverden
leveren
levering
leverkusen
levert
levi
levin
levy
lewis
lex
lexicon
lexikon
lexington
ley
leycester
leysen
lez
lezen
lezer
lezers
lezing
lezingen
lf
lg
lga
lgus
lhasa
li
lia
liam
liang
lib
libanese
libanon
libe
libellen
libellensoort
libellulidae
liber
liberaal
liberal
liberale
liberalen
liberalisme
liberation
liberec
liberia
libertadores
liberte
liberty
libie
libische
library
libre
libretto
libri
license
licentiaat
licentie
licenties
lich
lichaam
lichaamsdelen
lichaamsgewicht
lichaamskleur
lichaamslengte
lichamelijk
lichamelijke
lichamen
licht
lichtbron
lichtbruin
lichte
lichten
lichtenberg
lichter
lichtere
lichtgewicht
lichtjaar
lichtsnelheid
lichtte
lid
lidmaatschap
lidstaat
lidstaten
lidwoord
lie
liebe
liebke
liechtenstein
lied
lieden
lieder
liederen
liedje
liedjes
liedjesschrijver
lief
liefde
liefhebber
liefhebbers
liefst
lieftinck
liegen
lien
liep
liepen
lier
lierse
lies
liesbeth
lieshout
liet
lieten
lieutenant
lieve
lieven
lievens
liever
life
lifetime
lift
liften
lig
liga
ligchaam
liggen
liggend
liggende
ligging
light
lightning
lights
lightweight
ligne
ligt
ligue
lij
lijden
lijdend
lijdende
lijdt
lijf
lijfwacht
lijk
lijken
lijks
lijkt
lijm
lijn
lijnen
lijnnummer
lijst
lijsten
lijsttrekker
like
lil
lila
lili
lilian
lille
lilly
lily
lim
lima
limacodidae
limburg
limburgs
limburgse
limenitidinae
limiet
limit
limited
limnephilidae
limoges
limoniidae
lin
lina
lincoln
lincolnshire
linda
lindau
lindberg
linde
linden
lindsay
lindsey
line
lineair
lineaire
lineata
lines
ling
linge
lingua
lingui
linie
linies
link
linker
linkerborst
linkerdeel
linkerflank
linkerhand
linkerkant
linkeroever
linkervleugel
linkerzijde
linkin
links
linksback
linkse
linn
linnaeus
linnen
lino
linschoten
linsley
lint
linten
linton
lintworm
linux
linyphiidae
linz
lio
lion
lionel
lions
lip
lippe
lippen
lippens
lips
lis
lisa
lisch
lische
lise
lissabon
lisse
list
listen
liszt
lit
liter
literair
literaire
literature
literatuur
literatuurprijs
literatuurverwijzingen
lithium
litouwen
litouws
litouwse
litte
litteraturselskab
little
liturgie
liturgische
liu
liv
live
livealbum
liverpool
lives
living
livingston
livius
livre
lix
liz
liza
ljubljana
ll
lla
lle
ller
lloyd
llustreerd
llustreerde
lm
ln
lni
lo
lob
lobby
loc
local
locatie
locatief
locaties
loch
lochem
lock
locke
lockhart
lockheed
locomotief
locomotieven
lode
loden
lodewijk
lodge
loe
loeb
loenen
loes
loew
lof
lofofoor
log
logan
loge
logeerden
loges
logic
logica
logie
logisch
logische
logistiek
logistieke
logo
logunov
loi
loir
loire
lois
lok
lokaal
lokale
lokalen
lokeren
loki
lokken
lokomotiv
lokte
lola
lom
lombard
lombardije
lombok
lommel
lon
londen
londense
london
londt
lone
lonely
lonen
long
longa
longen
longicornis
longipes
longkanker
longo
longontsteking
longrightarrow
lons
loo
lood
loodramen
loodrecht
loods
loodsen
loof
loofbomen
loofbossen
loog
look
looking
loon
loop
loopbaan
loopen
loopgraven
loopkevers
loopt
looptijd
loos
looy
lopatin
lopen
lopend
lopende
loper
lopers
lopes
lopez
lor
lord
lords
lorentz
lorenz
lorenzo
lori
loricariidae
lorraine
los
losgelaten
losgeld
losjes
loslaten
loss
losse
lossen
losser
lost
loste
lot
loterij
lothar
lotharingen
lotharius
loting
lotte
lotto
lotus
lou
louie
louis
louisa
louise
louisiana
louisville
lounge
loup
lourdes
louter
louvain
louvie
louvre
love
loved
lovell
lovende
lover
lovers
loves
loving
low
lowe
lower
lowlands
lowry
loyaal
loyaliteit
loze
lp
lpga
ls
lsd
lt
ltd
lu
lubbers
lublin
luc
luca
lucanidae
lucas
lucasgilde
lucca
lucht
luchtaanval
luchtaanvallen
luchtdruk
luchtfoto
luchthaven
luchthavens
luchtmacht
luchtruim
luchtvaart
luchtvaartmaatschappij
luchtvaartmaatschappijen
luchtvochtigheid
luchtwegen
lucia
luciano
lucie
lucien
lucifer
lucius
luck
lucky
lucy
ludo
ludwig
luftwaffe
lugano
lui
luid
luidde
luide
luiden
luidt
luigi
luik
luiken
luikse
luipaard
luis
luister
luisteraar
luisteraars
luisterde
luisteren
luistert
luit
luitenant
luiz
luk
luka
lukas
luke
lukken
lukt
lukte
lulu
lumie
lumpur
luna
lunar
lunch
lund
lune
lupus
lus
lust
luther
luthers
lutherse
lutz
luuk
lux
luxe
luxembourg
luxemburg
luxemburgs
luxemburgse
luxueuze
luz
luzern
luzon
lv
lvarez
lvaro
lviv
ly
lycaenidae
lyceum
lycidae
lycosa
lycosidae
lydia
lyman
lymantriinae
lynch
lynden
lynn
lynx
lyon
lyons
lyrische
lys
lz
m
ma
maag
maagd
maagdenburg
maagdeneilanden
maaike
maaiveld
maak
maakt
maakte
maakten
maal
maaltijd
maaltijden
maan
maand
maandag
maandblad
maandelijks
maandelijkse
maanden
maar
maarschalk
maarssen
maart
maarten
maas
maaseik
maasland
maassen
maassluis
maastricht
maastrichtien
maastrichtse
maat
maatregel
maatregelen
maatschappelijk
maatschappelijke
maatschappij
maatschappijen
maatstaf
mabel
mabille
mac
macau
macbeth
maccabi
macdonald
macedonie
macedonisch
macedonische
mach
machado
machine
machinefabriek
machinegeweer
machinegeweren
machines
machinist
macht
machten
machthebbers
machtig
machtige
machtiging
machtigste
machtsovername
machtsstrijd
macintosh
mack
mackay
mackenzie
macleay
macmillan
macpherson
macquart
macra
macro
maculata
maculatus
mad
madagascar
madagascariensis
madagaskar
madam
madame
made
madeira
madeleine
madison
madness
madonna
madre
madrid
madsen
mae
maer
maes
maestro
maffia
mag
magazijn
magazine
magda
magdalena
magdeburg
mager
magere
maggie
maggiore
magic
magie
magisch
magische
magister
magistraat
magleby
magma
magna
magnesium
magnetisch
magnetische
magnificus
magnitude
magnolia
magnum
magnus
maharashtra
mahler
mai
maiden
maigret
mail
main
maine
mainstream
mainz
maior
maire
mais
maison
maja
majesteit
majeur
majeurtoonladder
majoor
major
mak
make
makelaar
maken
maker
makers
makes
making
makkelijk
makkelijker
mal
mala
malacostraca
malakka
malang
malaria
malawi
malcolm
maldegem
maldiven
male
malediven
maleis
maleise
maleisie
maleisische
malen
mali
malicky
malik
mall
malle
malloch
mallorca
malmo
malo
malone
malta
maltees
maltese
malvern
mama
mammal
mammals
man
management
manager
managers
mancha
manche
manchester
mancini
mand
mandaat
mandaatgebied
mandarijn
mandela
mandeville
mandoline
mandy
manen
manet
manfred
mang
manga
mango
manhattan
mani
manie
manier
manieren
manifest
manifestatie
manifestaties
manila
manilla
manipulatie
manipuleren
mann
mannelijk
mannelijke
mannen
mannendubbel
mannenkoor
mannetje
mannetjes
mannheim
manning
manon
manor
mans
manschappen
mansfield
mansion
manteau
mantel
mantsjoerije
mantua
manu
manual
manuel
manuscript
manuscripten
manx
many
mao
maori
map
maps
maquette
mar
mara
marais
maranha
marasmius
marathon
marburg
marc
marcel
marcello
marcellus
marcelo
march
marcha
marche
marcheerde
marcia
marco
marcos
marcus
mare
marechaussee
marek
marga
margaret
margaretha
margarita
marge
marginale
marginata
marginellidae
margo
margot
margraten
margriet
marguerite
mari
maria
mariabeeld
mariakapel
mariakerk
marian
marianne
mariano
marie
marieke
mariene
marijke
marilyn
marimba
marin
marina
marine
marineofficier
marines
marineschepen
mariniers
marino
marinus
mario
marion
maris
marit
maritiem
maritieme
maritime
marius
marja
marjan
marjolein
mark
markante
marke
markeerde
markeert
marken
markeren
markering
market
marketing
markgraaf
markgraafschap
markies
marko
marks
markt
marktaandeel
markten
marktplein
markus
marlborough
marleen
marlene
marley
marlon
marlow
marmer
marmeren
marne
marnix
marokkaans
marokkaanse
marokko
marriage
married
marrons
mars
marsch
marseille
marsh
marshal
marshall
marston
mart
marta
martel
martelaar
martelaren
marteling
marten
martens
martha
marthe
marti
martial
martijn
martin
martina
martine
martinez
martini
martinique
martino
martins
martinus
martinuskerk
marty
marusik
marvel
marvin
marx
marxisme
marxistische
mary
maryland
mas
mascotte
maserati
masi
mask
masker
maskers
mason
mass
massa
massaal
massachusetts
massacre
massale
massief
massieve
massimo
mast
masten
master
masters
mat
mata
match
matchless
matchplay
mate
maten
mateo
mater
materiaal
materialen
materie
materieel
mateu
mathbb
mathbf
mathcal
mathematical
mathematics
mathias
mathieu
mathilde
mathrm
matig
matige
matlock
mato
matravers
matrijzen
matrix
matroos
matrozen
mats
matsumura
matt
matteo
matter
matteu
mattheus
matthew
matthews
matthias
matthijs
mattia
maud
maureen
maurice
mauritanie
mauritius
maurits
maurizio
mauro
mausoleum
mavo
max
maxi
maxim
maxima
maximaal
maximale
maxime
maximiliaan
maximilian
maximilien
maximum
maximumsnelheid
maximumtemperatuur
maximus
maxwell
may
maya
mayenne
mayer
maynard
mayo
mayor
mayr
mazda
mazovie
mazurie
mb
mba
mbezield
mbo
mbox
mc
mccarthy
mccartney
mccoy
mcdonald
mcdunnough
mcg
mcgee
mcgregor
mcintosh
mcintyre
mckay
mckenzie
mclachlan
mclaren
mclaughlin
mclean
mcleod
mcmahon
mcrae
md
me
meade
meadows
mean
mecenas
mechanica
mechanisch
mechanische
mechanisme
mechanismen
mechelen
mechelse
mecklenburg
mecky
med
medaille
medailleklassement
medailles
medaillewinnaars
medaillon
medal
medan
mede
mededeling
mededelingen
medegedeeld
medeklinker
medeklinkers
medelijden
medemblik
medeoprichter
medestanders
medestichter
medewerker
medewerkers
medewerking
media
mediabestanden
mediawiki
medical
medicatie
medici
medicijn
medicijnen
medicine
medicus
medieval
medina
medio
medisch
medische
meditatie
mediterrane
medium
medley
medvedev
mee
meedeed
meedoen
meegedaan
meegemaakt
meegenomen
meegerekend
meegespeeld
meegewerkt
meel
meeldraden
meen
meende
meenden
meenemen
meening
meent
meer
meerdaagse
meerdere
meerderheid
meerkamp
meermaals
meermalen
meern
meerssen
meertens
meervoud
meervoudig
meervoudige
meervoudsvorm
mees
meespeelde
meespelen
meest
meestal
meeste
meesten
meester
meesters
meesterwerk
meesterwerken
meet
meeting
meetkunde
meetkundige
meets
meeuwen
meeuwis
meewerken
meewerkte
meg
mega
megachile
megachilidae
megan
megaselia
mehmet
mei
meid
meiden
meidengroep
meier
meigen
meijer
meijers
mein
meine
meiningen
meisje
meisjes
meisjesnaam
meister
meißen
mekka
mel
melander
melanie
melanotus
melbourne
melbury
melchior
meldde
meldden
melden
melding
meldingen
meldt
melissa
melk
melkweg
melle
mello
melo
melodie
melodiee
melody
meloidae
melvill
melville
melvin
melzer
member
membraan
memoires
memorial
memoriam
memories
memory
memphis
men
mena
mendelssohn
mendes
mendoza
meneer
menen
meng
mengelberg
mengeling
mengen
mengsel
menig
menigte
mening
meningen
meningsuiting
meningsverschillen
menno
mens
mensch
menschen
menselijk
menselijke
menselijkheid
mensen
mensenrechten
mensheid
ment
mentaal
mentale
mentor
menu
menzies
meppel
mer
mercado
mercator
mercedes
mercer
mercier
merckx
mercurius
mercury
mercy
mere
meredith
merel
meren
merendeel
merendeels
mergel
meridiaan
meridionalis
merindad
merit
merk
merkbaar
merkel
merken
merknaam
merknamen
merksem
merkt
merkte
merkwaardig
merkwaardige
merlin
merode
merry
mers
mertens
merton
merwede
mes
mesa
mesdag
mesnil
mesopotamie
mesoregio
message
messe
messen
messenger
messi
messias
messina
messing
mest
met
meta
metaal
metacritic
metafoor
metal
metalband
metalen
metallica
metamorfose
metaphycus
meteen
meten
meteorologie
meter
meters
methaan
method
methode
methoden
methodes
meting
metingen
metro
metrolijn
metrolijnen
metropoliet
metropolitan
metropool
metrostation
metrostations
metselwerk
mette
metten
metz
meubel
meubelen
meubels
meubilair
meulen
meulenhoff
meunier
meurs
meurthe
meuse
mevr
mevrouw
mexicaans
mexicaanse
mexicana
mexico
mey
meyer
meyers
meyrick
mez
mezelf
mezzosopraan
mg
mgm
mgr
mhz
mi
mia
miami
mica
mich
micha
michae
michael
michaels
michaelsen
michail
miche
michel
michelangelo
michele
michelin
michelinster
michelle
michener
michiel
michiels
michielsgestel
michigan
mick
mickey
micro
microfoon
microregio
microscoop
microscopische
microsoft
mid
middag
middags
middel
middelbaar
middelbare
middelburg
middeleeuwen
middeleeuws
middeleeuwse
middelen
middelgrote
middellandse
middellange
middellijn
middelnederlands
middelnederlandse
middelpunt
middels
middelste
midden
middendeel
middenhandsbeen
middenklasse
middenmoot
middenschip
middenstand
middenveld
middenvelder
middenvoetsbeen
middernacht
middle
middlesbrough
middleton
midi
midland
midlands
midnight
midway
mie
mieke
miel
mien
miep
mier
mieren
mierenjagers
mierenleeuwen
mierensoort
mierlo
mies
mig
might
mighty
migranten
migratie
miguel
mij
mijl
mijlen
mijlpaal
mijn
mijnbouw
mijne
mijnen
mijner
mijnheer
mijnwerkers
mijtensoort
mika
mike
mil
milaan
milan
milano
mild
milde
mildred
mile
miles
milieu
milita
militair
militaire
militairen
military
militie
milities
miljard
miljoen
miljoenen
milk
mill
millar
mille
millennium
miller
millidge
millimeter
million
mills
milne
milo
milos
milt
milton
milwaukee
mimi
min
mina
minas
mind
mindanao
minden
minder
mindere
minderheden
minderheid
minderjarige
minderjarigen
minds
mine
mineermotten
mineervliegen
mineraal
mineralen
minerva
mines
mineur
ming
minh
minhstad
mini
miniaturen
miniatuur
minima
minimaal
minimale
minimum
minimumtemperatuur
minimus
miniserie
minister
ministerie
ministeries
ministerraad
ministers
ministerschap
minnaar
minnares
minne
minneapolis
minnesota
minor
minsk
minst
minste
minstens
minster
mint
minus
minuta
minute
minuten
minutes
minutus
minuut
mio
mioceen
mir
mira
mirabilis
miracle
mirage
miranda
miriam
mirjam
miroslav
mirror
mirza
mis
misbruik
misbruikt
mischa
misdaad
misdaadfilm
misdaden
misdadigers
misdrijf
misdrijven
mise
mishandeld
mishandeling
mislukken
mislukking
mislukt
mislukte
mislukten
miss
missa
misschien
missen
missie
missies
missing
mission
missionaris
missionarissen
mississippi
missouri
misstanden
mist
miste
misten
mister
misverstand
mit
mitch
mitchell
mits
mitsubishi
mitte
mix
mixed
mixtape
mk
ml
mls
mm
mma
mme
mn
mo
mobiel
mobiele
mobile
mobilisatie
mobiliteit
mobygames
mocht
mochten
mod
modder
mode
model
modellen
models
modena
modeontwerper
moderato
modern
moderne
modernere
moderniseren
modernisering
modernisme
modernistische
modesta
modo
module
modules
modus
moe
moed
moeder
moederbedrijf
moederland
moeders
moedertaal
moedig
moedigde
moeilijk
moeilijke
moeilijker
moeilijkheden
moeite
moeizaam
moeizame
moens
moer
moeras
moerassen
moerassige
moerdijk
moeskroen
moest
moesten
moet
moeten
moge
mogelijk
mogelijke
mogelijkheden
mogelijkheid
mogen
mogendheden
mogendheid
mohamed
mohammad
mohammed
moi
moire
moires
mojo
mol
moldavie
mole
moleculair
moleculaire
molecule
moleculen
molecuul
molen
molenaar
molenbeek
molens
molie
molina
moll
molle
mollema
mollusca
molly
molophilus
molto
molton
molukken
molukse
mom
moment
momenteel
momenten
mon
mona
monachorum
monaco
monarch
monarchie
monasterio
monbezield
mond
monday
monde
mondeling
mondelinge
monden
mondharmonica
mondiale
monding
mondopening
mondovi
mondriaan
mondt
monet
monetair
monetaire
money
monferrato
mongolen
mongolie
mongoolse
monica
monika
monique
monitor
monk
monkey
monkton
monne
monnik
monniken
monniot
mono
monografie
monogram
monolepta
monomorium
monopolie
monos
monotypisch
monotypische
monroe
mons
monsieur
monster
monsters
mont
montage
montagne
montagu
montana
montanus
monte
montenegro
monterey
monterrey
montes
monteur
monteverdi
montevideo
montfoort
montfort
montgomery
month
monthly
monti
monticola
montigny
montpellier
montre
montreal
montreuil
montreux
montserrat
monty
monument
monumentaal
monumentale
monumenten
monumentenlijst
monumentenzorg
monuments
monza
moody
mooi
mooie
mooier
mooiste
moon
moonlight
moor
moord
moorden
moordenaar
moordenaars
moore
moors
moorse
mor
mora
moraal
moral
morales
moran
moravie
morawitz
morchard
mordella
mordellidae
mordellistena
morden
more
moreau
moreel
moreira
morel
morele
moren
moreno
morfologie
morfologische
morgan
morgen
morgens
mori
morin
moritz
morley
morning
moro
morris
morrison
morse
mort
morten
mortensen
mortier
mortimer
morton
mortsel
morvan
mos
moscow
mosdiertjessoort
moselle
moser
moses
moskee
moskeee
moskou
moskouse
moslim
moslims
moss
mosselkreeftjes
mosselkreeftjessoort
mossen
most
mot
motel
mother
motie
motief
motieven
motion
motivatie
moto
motor
motorblok
motorcoureur
motorcross
motoren
motorfiets
motorfietsen
motorfietsmerk
motorische
motorola
motors
motorsport
motorwagen
motorwagens
motown
motschulsky
mott
motte
motten
motto
moulin
mount
mountain
mountainbike
mountains
moure
mouse
mouth
mouvement
mouwen
move
movement
moves
movie
movies
moving
movistar
mozai
mozambique
mozart
mozes
mp
mporteerd
mproviseerde
mr
mrs
mrt
ms
msds
msx
mt
mtv
mu
muara
much
muell
mueller
mug
muggen
muggensoort
muhammad
muiden
muis
muiterij
muizen
mulder
mulhouse
mulisch
mullen
muller
mulo
multatuli
multi
multifunctioneel
multimedia
multiplayer
multiple
mumbai
mummie
mun
mundi
mundo
municipal
municipality
munitie
munroe
munster
munt
munteenheid
munten
mura
murat
murcia
murder
muren
murex
muricidae
murphy
murray
mus
musa
muscidae
musculus
muse
musea
museeuw
museo
museum
music
musica
musical
musicale
musicals
musici
musicians
musicoloog
musicus
musik
musique
musser
mussolini
must
mustafa
mustang
mutant
mutatie
mutaties
muts
muur
muurschildering
muurschilderingen
muze
muziek
muziekalbum
muziekfestival
muziekgroep
muziekinstrument
muziekinstrumenten
muziekkapel
muziekleraar
muziekpedagoog
muziekproducent
muziekschool
muziekstijl
muziekstijlen
muziekstuk
muziektheater
muziektheorie
muziekuitgeverij
muziekvereniging
muziekvideo
muziekwereld
muzikaal
muzikale
muzikant
muzikanten
mv
mvv
mw
mx
my
myanmar
mycale
mycetophilidae
myers
mylord
mymaridae
myn
myra
myriam
myrmarachne
myrmeleon
myrmeleontidae
myrmicinae
myself
mysidae
myspace
mysterie
mysteries
mysterieuze
mystery
mystiek
mystieke
mythe
mythen
mythische
mythologie
mythologische
myzozoa
mz
møller
mørkøv
n
na
naakt
naakte
naald
naalden
naaldkreeftjessoort
naaldwijk
naam
naamgever
naamgeving
naamloze
naamsvermelding
naamswijziging
naamwoord
naamwoorden
naamwoordsvorm
naar
naarden
naargelang
naarmate
naartoe
naast
naaste
naastgelegen
nabestaanden
nabij
nabije
nabijgelegen
nabijheid
naburige
nac
nach
nacht
nachtclub
nachtegaal
nachtelijke
nachten
nachtkaardespinnen
nachtpauwogen
nachts
nachtvlinder
nacional
nacompetitie
nacompetitiewedstrijden
nad
nadal
nadat
nadeel
nadelen
nadenken
nader
naderde
nadere
naderen
naderende
naderhand
nadert
nadia
nadien
nadine
nadruk
nadrukkelijk
nadu
naer
nagano
nagar
nagasaki
nagedachtenis
nagel
nagelaten
nagels
nagenoeg
nageslacht
nagoya
nagy
nahuatl
nai
nairobi
najaar
nakamura
naked
nakomelingen
nal
nalatenschap
naleving
nam
name
named
namelijk
namen
namens
names
namibie
namiddag
namur
nan
nana
nancy
nantes
nanus
naomi
naoorlogse
nap
napels
napole
napoleon
napoleontische
napoli
nar
nara
narendran
narnia
narva
nas
nasa
nascar
nash
nashville
nasleep
nassau
nasser
nat
natal
natalensis
natalia
natalie
natasha
nate
nathalie
nathan
nathaniel
natie
naties
nation
nationaal
nationaalsocialisme
nationaalsocialistische
national
nationale
nationalisme
nationalisten
nationalistisch
nationalistische
nationaliteit
nationaliteiten
nationalliga
nations
native
natrium
natte
natura
natural
naturalis
nature
naturelle
natuur
natuurbescherming
natuurbeschermingsorganisatie
natuurgebied
natuurgebieden
natuurkunde
natuurkundige
natuurlijk
natuurlijke
natuurmonumenten
natuuronderzoeker
natuurpark
natuurpunt
natuurreservaat
natuursteen
natuurstenen
natuurwetenschappen
nau
nauru
nauw
nauwe
nauwelijks
nauwer
nauwkeurig
nauwkeurige
nauwkeuriger
nauwkeurigheid
nava
naval
navarra
navarro
navas
navigatie
navigator
navo
navolging
navy
naxos
nazaat
nazareth
nazaten
nazi
nazionale
nb
nba
nbc
nberg
nc
ncaa
ncbi
nchen
nchengladbach
nchez
ncrv
nd
nde
ndel
nden
nder
ndertig
ndez
ndia
ndido
ndose
ne
nea
neal
near
nearctisch
nebraska
nebria
neburg
nec
neck
nectar
ned
neder
nederduits
nederlaag
nederlagen
nederland
nederlanden
nederlander
nederlanders
nederlands
nederlandsch
nederlandsche
nederlandse
nederlandstalig
nederlandstalige
nedersaksen
nedersaksisch
nederzetting
nederzettingen
nee
need
needham
neef
neem
neemt
neen
neer
neergang
neergelegd
neergeschoten
neergeslagen
neergezet
neerkomt
neerleggen
neerslaan
neerslag
nees
negatief
negatieve
negen
negende
negenjarige
negentien
negentiende
negentig
negeren
negers
negro
neighbourhood
neiging
neil
neill
nek
nel
nelissen
nellie
nelly
nelson
nemen
nemertea
nemo
nen
neo
neoclassicistische
neogotisch
neogotische
neolithicum
neolithische
neon
neoromaanse
neotropisch
nep
nepal
nepticulidae
neptunus
ner
nereis
nergens
nero
ners
nervus
nes
nest
nesten
nestor
net
netanyahu
nete
neteldieren
netflix
nether
netherlands
netjes
netschildkevers
netten
netto
netvleugeligen
netwerk
netwerken
network
neu
neucha
neue
neuf
neufcha
neumann
neur
neurenberg
neuroptera
neus
neusgat
neusgaten
neushoorn
neuss
neustadt
neutraal
neutrale
neutraliteit
neutronen
neuve
neuville
nevada
neve
nevel
neven
nevens
never
nevers
neville
nevis
new
newark
newcastle
newell
newest
newfoundland
newman
newport
news
newton
next
nez
nf
nfl
nformeerd
ng
nga
ngc
nge
ngel
nger
ngo
nguez
nguyen
nh
nhalf
nhl
ni
nia
nias
nibali
nic
nica
nicaragua
niccolo
nice
nicholas
nichols
nicholson
nicht
nichtje
nick
nickelodeon
nicky
nico
nicola
nicolaas
nicolaaskerk
nicolaes
nicolai
nicolas
nicolaus
nicole
nicoline
nicosia
nie
niek
niel
niels
nielsen
niemand
nier
nieren
niet
nietig
nieto
niets
niettegenstaande
niettemin
nietzsche
nieuw
nieuwbouw
nieuwbouwwijk
nieuwe
nieuwegein
nieuwen
nieuwendam
nieuwenhuis
nieuwer
nieuwere
nieuwjaar
nieuwkomer
nieuwkomers
nieuwkoop
nieuwland
nieuwpoort
nieuws
nieuwsblad
nieuwsbrief
nieuwsgierig
nieuwsgierigheid
nieuwslezer
nieuwste
nieuwstraat
nig
nigel
niger
nigeria
nigeriaans
nigeriaanse
night
nightmare
nights
nigra
nigricans
nigsberg
nijgh
nijhoff
nijkerk
nijl
nijmeegse
nijmegen
nijs
nijvel
nijverheid
nik
nike
niki
nikita
nikkel
nikki
niklaas
niko
nikola
nikolai
nikolaj
nikolaus
niks
nil
nils
nilsson
nimfen
nimmer
nin
nina
nine
ning
nings
ninja
nino
ninove
nintendo
nio
nippon
nipt
nirvana
nis
nissan
nissen
niveau
niveaus
nix
nixon
nizjni
nj
nk
nl
nm
nmbs
nn
nnale
nnegentig
no
noah
nobel
nobelprijs
nobelprijswinnaar
nobili
nobilis
noble
noblesse
nobody
noc
noch
nochtans
noctuidae
nocturne
node
nodig
nodigde
nodige
nodigt
noe
noel
noem
noemde
noemden
noemen
noemenswaardige
noemer
noemt
nog
nogal
nogmaals
noir
noise
nok
nokia
nokkenas
nola
nolan
nolidae
nom
nomadische
nomen
nominale
nominatie
nominatief
nominaties
non
nonnen
nood
noodgedwongen
noodig
noodlot
noodtoestand
noodzaak
noodzakelijk
noodzakelijke
nooi
nooit
noor
noord
noordeinde
noordelijk
noordelijke
noordelijken
noordelijker
noordelijkste
noorden
noorder
noorderdepartement
noordgrens
noordkant
noordkust
noordoost
noordoostelijk
noordoostelijke
noordoosten
noordpool
noordrijn
noordse
noordwaarts
noordwest
noordwestelijk
noordwestelijke
noordwesten
noordwijk
noordzee
noordzijde
noormannen
noors
noorse
noorwegen
noot
nor
nora
norbert
nord
nordic
noren
norfolk
norm
norma
normaal
normal
normale
normaliter
norman
normandie
normandische
normen
norris
norte
north
northern
northumberland
northwest
norton
norwich
nos
nostra
not
nota
notabelen
notaris
notatie
note
noten
noteren
notering
notes
nothing
notice
notities
notodontidae
notre
nottingham
notulen
nou
nous
nouveau
nouvelle
nouvelles
nov
nova
novak
nove
novel
novelle
novellen
november
novgorod
novi
novo
now
nowy
noyes
np
npm
npo
nps
nr
nrc
nrs
ns
nsb
nsdap
nsf
nspireerd
nspireerde
nstalleerd
nste
nster
nstler
nsu
nsva
nt
ntaals
ntachtig
ntatie
nte
nteerd
nteerde
ntegreerd
ntegreerde
nten
nter
nteresseerd
nterneerd
nterpreteerd
nterviewd
nther
ntie
ntr
ntroduceerd
ntroduceerde
ntwintig
nu
nucleaire
nuclear
nuenen
nueva
nuevo
nuit
nul
num
number
numerieke
nummer
nummering
nummers
nun
nunspeet
nuntius
nuova
nur
nurse
nus
nusa
nut
nuts
nutteloos
nuttig
nuttige
nv
nveertig
nvesteerd
nvijftig
nvloed
nvloedde
nvloeden
nvloeding
nvloedt
nwa
nxt
ny
nya
nyi
nymphalidae
nymphon
nympton
nynorsk
nynorske
nys
nzestig
nzeventig
nørre
o
oak
oakland
oaks
oase
ob
obama
obelisk
obelix
ober
oberhausen
oberliga
oberst
oberthu
object
objecten
objectief
objectieve
oblast
obligaties
obscura
obscurus
observatie
observaties
observatorium
observatory
observer
observeren
obstakel
obstakels
oc
oca
occidentalis
occitanie
oceaan
ocean
oceanen
oceanie
oceanische
och
ochs
ochtend
ochtends
ocmw
octaaf
octave
octavianus
octavius
october
octopus
octrooi
od
oda
odd
ode
odense
oder
odessa
odilon
odin
odis
odo
odore
odysseus
odyssey
oe
oec
oecophoridae
oefende
oefenen
oefening
oefeningen
oefeninterland
oefent
oefenwedstrijd
oeganda
oegstgeest
oekrai
oer
oeral
oeuvre
oever
oevers
oeververbinding
oevervliegen
oezbekistan
of
ofc
off
offenbach
offensief
offensieve
offer
offeren
offers
office
officer
official
officie
officieel
officier
officieren
officieus
officieuze
offs
offshore
offwedstrijden
ofschoon
oft
ofte
oftewel
ofwel
og
ogan
ogen
ogenblik
ogenschijnlijk
oh
ohio
ohm
ohne
oi
oil
oirschot
ois
oise
oisterwijk
ok
okehampton
okinawa
oklahoma
okres
okt
oktober
oktoberrevolutie
ol
ola
olaf
old
oldambt
olde
oldenburg
oldenzaal
ole
oleg
olga
olie
oliekevers
oliemolen
olieverf
olifant
olifanten
olijfolie
olios
oliveira
oliver
olivia
olivier
ollie
olof
ologie
olomouc
olsen
olsson
olympedia
olympia
olympiakos
olympic
olympique
olympisch
olympische
olympus
om
oma
omaars
omaha
oman
omar
ombouw
ombudsman
omdat
ome
omega
omer
omgaan
omgang
omgebouwd
omgebracht
omgedoopt
omgedraaid
omgekeerd
omgekeerde
omgekomen
omgerekend
omgeven
omgeving
omgevingen
omgevormd
omgezet
omheen
omhoog
omhulsel
omkwam
omkwamen
omlaag
omliggende
omlijsting
omloop
ommelanden
ommen
ommuurde
omnibus
omnium
omringd
omringende
omroep
omroepen
omschreef
omschreven
omschrijft
omschrijven
omschrijving
omsingeld
omslag
omsloten
omstandigheden
omstandigheid
omstreden
omstreeks
omstreken
omtrek
omtrent
omvang
omvangrijk
omvangrijke
omvat
omvatte
omvatten
omver
omvoegsel
omwalling
omweg
omwenteling
omwille
omwonenden
omzeilen
omzet
omzetten
omzetting
omzwervingen
on
onaangenaam
onafgebroken
onafhankelijk
onafhankelijke
onafhankelijkheid
onafhankelijkheidsoorlog
onafhankelijkheidsverklaring
onard
onbedoeld
onbekend
onbekende
onbemande
onbepaald
onbepaalde
onbeperkt
onbeslist
onbewoond
onbewoonde
onbewust
onbewuste
onbezield
onbruik
onbruikbaar
once
ondanks
onder
onderaan
onderafdeling
onderafdelingen
onderbouw
onderbreking
onderbroken
onderdak
onderdanen
onderdeel
onderdelen
onderdistrict
onderdrukken
onderdrukking
onderdrukt
onderduiken
onderduikers
onderen
onderfamilie
ondergaan
ondergaat
ondergang
ondergebracht
ondergedoken
ondergeschikt
ondergeschikte
ondergeslacht
onderging
ondergrond
ondergronds
ondergrondse
onderhandelde
onderhandelen
onderhandelingen
onderhevig
onderhield
onderhoud
onderhouden
onderhoudt
onderkaak
onderkaken
onderkant
onderklasse
onderkomen
onderkoning
onderliggende
onderling
onderlinge
ondernam
ondernemen
ondernemer
ondernemers
onderneming
ondernemingen
ondernomen
onderofficieren
onderorde
onderrand
onderricht
onderscheid
onderscheidde
onderscheiden
onderscheidende
onderscheiding
onderscheidingen
onderscheidt
ondersoort
ondersoorten
onderstaand
onderstaande
onderste
onderstel
ondersteund
ondersteunde
ondersteunen
ondersteunende
ondersteuning
ondersteunt
ondertekend
ondertekende
ondertekenen
ondertekening
ondertitel
ondertussen
onderuit
onderverdeeld
onderverdeling
ondervinden
ondervindt
ondervond
ondervonden
ondervoorzitter
ondervraagd
ondervraagden
onderwees
onderweg
onderwereld
onderwerp
onderwerpen
onderwerping
onderwezen
onderwijs
onderwijsinstellingen
onderwijzen
onderwijzer
onderwijzeres
onderwijzers
onderworpen
onderzeeboot
onderzeeboten
onderzeee
onderzijde
onderzocht
onderzoek
onderzoeken
onderzoeker
onderzoekers
onderzoekingen
onderzoekscommissie
onderzoeksinstituut
onderzoekt
ondiep
ondiepe
onduidelijk
onduidelijke
onduidelijkheid
one
oneindig
oneindige
onenigheid
onervaren
ones
oneven
ongeacht
ongebruikelijk
ongebruikelijke
ongedaan
ongehuwd
ongekende
ongeldig
ongelijk
ongelijke
ongelijkheid
ongeluk
ongelukken
ongelukkig
ongelukkige
ongenoegen
ongeplaatste
ongeschikt
ongeschonden
ongeslagen
ongetwijfeld
ongeval
ongevallen
ongeveer
ongewenst
ongewenste
ongewervelde
ongewervelden
ongewijzigd
ongewone
ongewoon
ongunstig
ongunstige
onheil
onjuist
onjuiste
onkruid
onlangs
online
onlusten
only
onmiddellijk
onmiddellijke
onmisbaar
onmogelijk
onmogelijke
onno
onnodig
ono
onofficie
ononderbroken
onopgemerkt
onovergankelijk
onrecht
onrechte
onrechtmatig
onregelmatig
onregelmatige
onroerend
onroerende
onrust
onrustig
ons
onschadelijk
onschuld
onschuldig
onschuldige
onse
onsen
onstabiele
ont
ontario
ontbijt
ontbinden
ontbinding
ontbonden
ontbossing
ontbrak
ontbraken
ontbreekt
ontbreken
ontbrekende
ontdaan
ontdekken
ontdekker
ontdekking
ontdekkingen
ontdekkingsreiziger
ontdekt
ontdekte
ontdekten
ontdoen
onteigend
onterecht
ontevreden
ontevredenheid
ontginning
ontgonnen
onthaald
ontheven
onthoofd
onthophagus
onthouden
onthuld
onthulde
onthullen
onthulling
onthult
ontkend
ontkende
ontkennen
ontkennend
ontkent
ontkomen
ontlasting
ontleend
ontleende
ontleent
ontlopen
ontmanteld
ontmoet
ontmoeten
ontmoeting
ontmoetingen
ontmoetingsplaats
ontmoette
ontmoetten
ontnemen
ontnomen
ontploffen
ontploffing
ontploft
ontplofte
ontpopte
ontrouw
ontruimd
ontslaan
ontslag
ontslagen
ontsloeg
ontsloten
ontsluiting
ontsnappen
ontsnapping
ontsnapt
ontsnapte
ontspannen
ontspanning
ontspringen
ontspringt
ontstaan
ontstaat
ontstane
ontsteking
ontstoken
ontstond
ontstonden
onttrekken
onttrokken
ontvangen
ontvanger
ontvangers
ontvangst
ontvangt
ontving
ontvingen
ontvlucht
ontvluchten
ontvoerd
ontvoeren
ontvoering
ontwaakt
ontwaken
ontwerp
ontwerpen
ontwerper
ontwerpers
ontwerpt
ontwierp
ontwijken
ontwikkelaar
ontwikkelaars
ontwikkeld
ontwikkelde
ontwikkelden
ontwikkelen
ontwikkeling
ontwikkelingen
ontwikkelingslanden
ontwikkelingssamenwerking
ontwikkelt
ontworpen
ontzet
ontzetten
ontzettend
onuitgegeven
onveilig
onveranderd
onverbogen
onverharde
onvermijdelijk
onverminderd
onverschillig
onverwacht
onverwachte
onverwachts
onvoldoende
onvolledig
onvolledige
onvoltooid
onvoltooide
onvrede
onwaarschijnlijk
onweer
onze
onzeker
onzekere
onzekerheid
onzen
onzer
onzichtbaar
onzichtbare
onzijdig
onzin
oo
oock
oog
oogen
oogenblik
oogje
oogkas
oogkassen
oogmerk
oogpunt
oogst
oogsten
oogstte
ooievaar
ooit
ook
oom
ooms
oor
oord
oordeel
oordeelde
oordelen
oorkonde
oorlog
oorlogen
oorlogsgeweld
oorlogsjaren
oorlogsmisdaden
oorlogsmonument
oorlogsmonumenten
oorlogsschepen
oorlogsschip
oorlogstijd
oorlogsvoering
oorschot
oorsprong
oorspronkelijk
oorspronkelijke
oorzaak
oorzaken
oost
oostelijk
oostelijke
oosten
oostende
oostenrijk
oostenrijker
oostenrijkers
oostenrijks
oostenrijkse
oosterbeek
oosterhout
oosterhuis
oosters
oosterschelde
oosterse
oostfront
oostgrens
oostindische
oostkant
oostkust
oostwaarts
oostzaan
oostzee
oostzijde
op
opa
opbouw
opbouwen
opbrengen
opbrengst
opbrengsten
opdagen
opdat
opdracht
opdrachten
opdrachtgever
opdrachtgevers
opduiken
ope
opeens
opeenvolgende
opeenvolging
opel
open
openbaar
openbaarheid
openbare
openbaring
opende
openden
openen
opengesteld
openheid
opening
openingen
openingsceremonie
openingspartij
openingswedstrijd
openlijk
openlijke
openluchtmuseum
opent
opera
operatie
operaties
operation
operationeel
operationele
operations
operator
operatorname
operazangeres
opereerde
opereert
opereren
operette
opgaan
opgaande
opgang
opgave
opgaven
opgeblazen
opgebouwd
opgebracht
opgebroken
opgedaan
opgedeeld
opgedragen
opgee
opgegaan
opgegeten
opgegeven
opgegraven
opgegroeid
opgehaald
opgehangen
opgeheven
opgehouden
opgeknapt
opgekocht
opgelegd
opgelegde
opgeleid
opgeleide
opgeleverd
opgelopen
opgelost
opgeloste
opgemaakt
opgemerkt
opgenomen
opgepakt
opgepikt
opgericht
opgerichte
opgeroepen
opgeschort
opgeschreven
opgeslagen
opgesloten
opgesomd
opgesplitst
opgestart
opgesteld
opgestelde
opgetekend
opgeteld
opgetreden
opgetrokken
opgevangen
opgevat
opgeven
opgevoed
opgevoerd
opgevolgd
opgevuld
opgewaardeerd
opgewassen
opgewekt
opgeworpen
opgezet
opgezette
opging
opgraving
opgravingen
opgroeide
ophaalbrug
ophalen
ophanging
ophef
opheffen
opheffing
ophield
ophouden
opinie
opium
opius
opkomen
opkomende
opkomst
opkwam
oplage
opleggen
opleiding
opleidingen
opleverde
opleveren
oplevering
oplevert
opleving
opliep
oplopen
oplopende
oplosbaar
oplosmiddel
oplossen
oplossing
oplossingen
opm
opmaak
opmaken
opmars
opmerkelijk
opmerkelijke
opmerken
opmerking
opmerkingen
opnam
opname
opnamen
opnames
opnamesessies
opnamestudio
opneemt
opnemen
opnieuw
opold
opole
opp
opper
opperarmbeen
opperbevel
opperbevelhebber
opperhoofd
opperste
oppervlak
oppervlakken
oppervlakkig
oppervlakte
oppervlaktewater
oppositie
oprecht
oprichten
oprichter
oprichters
oprichting
oprichtte
opriep
oproep
oproepen
oproer
opruimt
oprukken
oprukkende
opschrift
opslaan
opslag
opslagplaats
opsluiting
opsomming
opsporen
opsporing
opspraak
opstaan
opstaande
opstand
opstandelingen
opstanden
opstandige
opstanding
opstarten
opstellen
opstelling
opstijgen
optica
optie
opties
optimaal
optimale
optioneel
optionele
optisch
optische
optocht
optrad
optraden
optreden
optredens
optreedt
optrekken
opus
opvallend
opvallende
opvalt
opvang
opvangen
opvarenden
opvatting
opvattingen
opvoeding
opvoering
opvolgde
opvolgen
opvolgende
opvolger
opvolgers
opvolging
opwachting
opwarming
opwekken
opwekking
opzet
opzettelijk
opzetten
opzicht
opzichte
opzichten
opzichter
opzien
opzij
opzoeken
or
ora
oracle
orakel
orale
orang
orange
oranje
oratorium
orbigny
orchard
orchestra
orchestre
orchideee
orchis
ordbog
orde
orden
ordening
order
orders
ordes
ordnet
ordo
ordre
ore
oregon
oren
org
orgaan
organ
organen
organisatie
organisaties
organisation
organisator
organisatoren
organisatorische
organisch
organische
organiseerde
organiseerden
organiseert
organiseren
organisme
organismen
organist
organization
orgel
orgelbouwer
orgels
orie
orient
oriental
orientalis
origin
original
origine
origineel
originele
origins
orion
orkaan
orkest
orkesten
orkestleider
orkestratie
orlando
orle
orleans
ornamenten
ornata
ornatus
orne
ornitholoog
oro
orpheus
ort
ortea
ortega
orthodox
orthodoxe
ortiz
orton
ortsgemeinde
ortsteil
os
osa
osaka
osborn
osborne
oscar
oscars
osdorp
osiris
oskar
oslo
osnabru
osrednjeslovenska
oss
ossetie
ost
osten
osteodermen
ostracoda
ostrava
oswald
ot
othello
other
otis
ottawa
otte
otten
otter
otto
ottomaanse
ottomanen
ou
oud
oude
ouden
oudenaarde
ouder
ouderdom
oudere
ouderen
ouderkerk
ouderlijk
ouders
ouderwets
ouderwetse
oudgrieks
oudgriekse
oudheden
oudheid
oudnoorse
oudsher
oudst
oudste
oudsten
ouest
our
out
outdoor
outer
outfase
output
outside
outstanding
ouverture
ouwe
ov
ova
ovaal
ovaalvormig
ovale
ovat
oven
ovens
over
overal
overall
overbleef
overblijfsel
overblijfselen
overblijft
overblijvende
overbodig
overboord
overbrengen
overbruggen
overdag
overdekt
overdekte
overdosis
overdraagbaar
overdracht
overdragen
overdreven
overdwars
overeen
overeengekomen
overeenkomen
overeenkomst
overeenkomsten
overeenkomstig
overeenkomstige
overeenkomt
overeenstemming
overeind
overgaan
overgaat
overgang
overgangsmetaal
overgankelijk
overgave
overgebleven
overgebracht
overgedragen
overgegaan
overgeheveld
overgelaten
overgeleverd
overgeleverde
overgenomen
overgeplaatst
overgeslagen
overgestapt
overgestoken
overgeven
overging
overgrootvader
overgrote
overhalen
overhand
overhandigd
overheden
overheen
overheersende
overheersing
overheerst
overheid
overheidsdienst
overig
overige
overigens
overijssel
overijsselse
overkant
overkoepelend
overkoepelende
overkomen
overl
overlappen
overlast
overleden
overledene
overledenen
overleed
overleefd
overleefde
overleefden
overleeft
overleg
overleggen
overleven
overlevende
overlevenden
overlevering
overlijden
overlijdt
overline
overmaat
overmacht
overmatig
overmatige
overnachten
overnam
overname
overnames
overnemen
overschot
overschreden
overschrijden
overspanning
overspant
overspel
overstap
overstappen
overstapte
overste
oversteek
oversteken
overstroming
overstromingen
overtocht
overtreden
overtreding
overtredingen
overtreffende
overtuigd
overtuigde
overtuigen
overtuigend
overtuiging
overtuigingen
overtuigt
overture
overval
overvallen
overview
overvloed
overvloedig
overweg
overwegen
overwegend
overweging
overwegingen
overwicht
overwinnaar
overwinnen
overwinning
overwinningen
overwinteren
overwintert
overwogen
overwonnen
overwoog
overzeese
overzicht
overzichtstentoonstelling
overzijde
ovice
ovidius
owen
owens
own
oxford
oxfordshire
oxidatie
oxide
oxyopes
oz
p
pa
paal
paar
paard
paarden
paardensport
paardrijden
paars
paarse
paartijd
pablo
pac
pace
pacific
pacifica
pacifische
pack
packard
paco
pact
pad
padang
paddenstoel
paddenstoelen
paddenstoelmuggen
paden
paderborn
padilla
padova
padua
paepe
pag
page
pages
pagina
pai
paige
pain
painting
pair
paix
pak
pakhuis
pakistaanse
pakistan
pakken
pakket
pakketten
pakt
pakte
pal
pala
palace
palacios
palaemonidae
palais
palau
palazzo
pale
palearctisch
paleis
paleizen
palen
paleoceen
paleontology
paleontoloog
palermo
palestijnen
palestijns
palestijnse
palestina
palet
paling
palladium
pallas
pallida
pallidus
palm
palma
palmas
palmeiras
palmen
palmer
palpen
palts
paltsgraaf
palustris
pam
pamela
pamflet
pamfletten
pan
panama
panchayat
pancras
pand
panda
pandemie
panden
pandora
paneel
panel
panelen
panic
paniek
panne
pannen
panorama
panter
pantheon
panther
pantser
pantserdivisie
panzer
panzergrenadier
paola
paolo
pap
papa
pape
papegaai
papegaaien
paper
paperback
papers
papier
papieren
papilio
papoea
papp
papyrus
par
para
parachute
parachutisten
parade
paradijs
paradise
paradiso
paradox
paragraaf
paraguay
parai
parallel
parallelle
paralympische
paramaribo
parameter
parameters
paramount
parana
paraplu
parasiet
parasieten
parasitaire
parc
parcours
pardo
pardon
pardosa
pardubice
parel
parels
paren
parfum
parijs
parijse
paring
paris
parish
parishes
park
parkeergarage
parkeerplaats
parkeerplaatsen
parken
parker
parkeren
parket
parkinson
parks
parlement
parlementair
parlementaire
parlementarie
parlementen
parlementsleden
parlementslid
parlementsverkiezingen
parma
parochie
parochiekerk
parochies
parodie
parool
parque
parra
parsons
part
partei
parti
partial
participatie
participe
participio
particulier
particuliere
particulieren
partido
partie
partij
partijbestuur
partijen
partijgenoot
partijleider
partijvoorzitter
partitief
partituur
partizanen
partner
partners
partnerschap
parts
party
parva
parvus
pas
pasadena
pasar
pascal
pascoe
pascual
pasen
pasgeboren
pasja
paso
paspoort
pass
passage
passages
passagier
passagiers
passalidae
passe
passeerde
passeert
passen
passend
passende
passer
passeren
passie
passief
passieve
passion
past
pasta
paste
pasten
pastoor
pastor
pastorale
pastorie
pat
patent
pater
paters
path
pathe
patie
patria
patriarch
patriarchaat
patrice
patricia
patriciaat
patricie
patrick
patriot
patriotten
patriottische
patrol
patronen
patroon
patroonheilige
patrouille
patterson
patti
patton
patty
pau
pauken
paul
paula
pauli
pauline
paulista
paulo
paulus
pauluskerk
pauly
paus
pauselijk
pauselijke
pausen
pauw
pauwels
pauze
pavel
pavia
paviljoen
pax
paxton
pay
payne
pays
paz
pb
pc
pcc
pd
pdc
pdf
pe
peace
peak
pearl
pearson
pec
pech
peck
peckham
pedaal
pedagogiek
pedagogische
pedagoog
pedersen
pedro
pedrosa
peel
peer
peers
peeters
pegasus
peggy
peil
peildatum
peilingen
pejoratief
pekela
peking
pel
pele
pelgrims
peloton
pels
pelt
pen
penalty
pend
pendant
penelope
peng
penguin
peninsula
penis
penn
penning
penningen
penningmeester
pennsylvania
penny
penseel
pensioen
pensioenen
pension
pensionering
people
peper
pepijn
pepper
per
peratie
peratieve
perceel
percelen
percentage
perche
percussie
percussionist
percy
perdita
pereira
perez
perfect
perfecte
perfectief
perfectieve
performance
peringuey
periode
perioden
periodes
periodiek
periodieke
peristomium
perk
perkament
perkamentus
perken
perkins
perlidae
perm
permanent
permanente
pernambuco
pero
perrier
perron
perrons
perry
pers
persbericht
persconferentie
persen
person
personage
personages
personal
personeel
personeelsleden
personele
personen
personenauto
personenvervoer
persoon
persoonlijk
persoonlijke
persoonlijkheden
persoonlijkheid
persoonsgegevens
perspectief
perth
peru
peruaanse
perugia
perzen
perzie
perzisch
perzische
pes
pest
pet
pete
petegem
peter
peters
petersburg
petersen
peterson
petit
petite
petitie
petr
petra
petri
petroleum
petronella
petrov
petrus
petruskerk
petter
petuch
peugeot
peyton
pez
pf
pfeiffer
pg
pga
pgc
ph
phab
phane
phantom
pharma
phasmatidae
phasmatodea
phd
pheidole
phi
phil
philadelphia
philharmonic
philharmonisch
philip
philipp
philippe
philippi
philippine
philippines
philippus
philips
phillip
phillips
philodromus
philopotamidae
philosophical
philosophie
philosophy
phine
pho
phoebe
phoenix
pholcidae
phone
phoridae
photo
photography
php
phu
phyllonorycter
phylogeny
physical
physics
pi
pia
piacenza
pianist
pianiste
piano
pianoconcert
pianotrio
piaui
piazza
pic
picard
picardie
picasso
piccadilly
piccolo
pick
pickard
pico
picta
picture
pictures
pidie
pie
piece
pieces
piek
pieken
piekte
piemonte
pier
pierce
pieridae
pierinae
piero
pierre
pierson
piet
pieter
pieters
pieterskerk
pietje
pietro
pigment
pijl
pijlen
pijler
pijlers
pijlstaarten
pijn
pijnacker
pijnlijk
pijnlijke
pijp
pijpen
pijpleiding
pike
pil
pilaren
pilasters
pilatus
piloot
pilot
piloten
pils
pilsbry
pilsen
pim
pin
pinar
pinda
pine
pineau
pineda
ping
pingui
pinilla
pink
pinkpop
pinksteren
pino
pinot
pinto
pinus
pinyin
pion
pioneer
pionier
pioniers
piotr
piper
piraat
piraeus
piramide
piraten
piraterij
pirates
pis
pisa
pissebed
piste
pistool
pit
pitt
pittsburgh
piu
pius
pixels
pizza
pje
pjes
pjotr
pk
pkc
pl
pla
plaag
plaat
plaatje
plaatjes
plaats
plaatse
plaatselijk
plaatselijke
plaatsen
plaatsgevonden
plaatsing
plaatsje
plaatsnaam
plaatsnamen
plaatst
plaatste
plaatsten
plaatsvervangend
plaatsvervanger
plaatsvinden
plaatsvindt
plaatsvond
plaatsvonden
place
places
plafond
plagen
plain
plains
plak
plakken
plan
planck
planckaert
plane
planeet
planet
planeten
planetoi
plank
planken
plannen
planning
plant
plantaardig
plantaardige
plantage
plantages
planten
plantenetende
plantensoorten
plantkunde
plants
plantsoen
plaquette
plas
plasma
plassen
plastic
plastische
plat
plata
plate
plateau
platen
platencontract
platenlabel
platenmaatschappij
platform
platforms
platia
platina
platinum
platnick
plato
platte
plattegrond
platteland
platworm
platwormen
platyhelminthes
platz
play
playboy
player
players
playing
plays
playstation
plaza
plc
ple
pleasant
please
pleasure
plechtig
plechtige
plechtigheid
pleegde
pleegt
plegen
pleidooi
plein
pleinen
pleistoceen
pleit
pleitbezorger
pleiten
pleitte
plek
plekje
plekke
plekken
plezier
plicht
plichten
plinius
plioceen
plo
ploeg
ploegen
ploegenachtervolging
ploegentijdrit
ploeggenoot
ploeggenoten
ploegleider
ploegleiders
ploegmaat
plooien
plot
plots
plotseling
plotselinge
plovdiv
plug
pluim
plukken
plunderden
plunderen
plundering
plunderingen
plus
plutarchus
pluto
plymouth
pm
po
poaceae
pocket
poco
pocock
pod
podcast
podia
podium
podiumplaats
podiumplaatsen
poe
poeder
poel
poels
poems
poes
poetin
poetry
poets
poging
pogingen
point
pointe
points
poitiers
poitou
pokal
poke
poker
pokken
pol
polak
polar
polder
poldermolen
polders
pole
polen
poli
police
policy
poliep
polis
politbureau
politica
political
politici
politicologie
politics
politicus
politie
politieagent
politieagenten
politiebureau
politiek
politieke
politieman
politique
polka
poll
polly
polo
pols
polsstokhoogspringen
polydor
polynesie
polynoidae
pomeroy
pommeren
pomp
pompeius
pompen
pond
ponder
ponerinae
pons
pont
ponte
pontificaat
pontus
pony
poogde
pool
poole
pools
poolse
poor
poore
poort
poorten
poorter
poortgebouw
poot
pooten
pootjes
pop
pope
poperinge
popgroep
popmuziek
popolazione
popov
poppe
poppel
poppen
populair
populairder
populaire
populairste
popular
populariteit
populatie
populaties
population
populations
por
porcellio
porie
porsche
porselein
port
porta
portaal
portal
porte
portefeuille
porter
portland
porto
portrait
portret
portretten
portsmouth
portugal
portugees
portugese
portugezen
pos
poseidon
positie
positief
posities
positieve
position
possible
post
postcode
posten
poster
posters
posthuma
postkantoor
postma
postuum
postzegel
postzegels
pot
poten
potentie
potentieel
potlood
potsdam
potten
potter
poule
poules
poulsen
pour
povolny
powell
power
powers
powiat
poznan
pp
ppen
pr
pra
praag
praagse
praat
praatprogramma
pracht
prachtig
prachtige
prachtmotten
prachtvlinders
practice
pradesh
prado
praemaxilla
praha
prairie
praktijk
praktijken
praktisch
praktische
praten
pratt
prayer
pre
precies
precieze
precisie
predator
predicaat
predikant
predikanten
prediker
prediking
preek
preekstoel
prees
prefect
prefectuur
prehistorie
prehistorische
preis
preken
prelude
premie
premier
premiers
premio
premium
prent
prenten
pres
preselectie
present
presentatie
presentaties
presentator
presentatoren
presentatrice
presente
presenteerde
presenteert
presenteren
presents
president
presidenten
presidentie
presidentschap
presidentskandidaat
presidentsverkiezingen
presidium
presley
press
prestatie
prestaties
presteerde
presteren
prestige
prestigieuze
presto
preston
prete
pretoria
pretpark
prettig
pretty
preußen
prevalence
preventie
pri
price
pride
priem
priemgetal
priemgetallen
priest
priester
priesterkoor
priesters
priestley
prijs
prijsvraag
prijzen
prijzengeld
prikkels
prima
primaat
primair
primaire
primaten
prime
primera
primeur
primitief
primitieve
primo
primus
prince
princeps
princes
princess
princeton
principe
principes
principles
prins
prinsbisdom
prinsen
prinsengracht
prinsenhof
prinses
print
prinz
prior
priorij
prioriteit
priscilla
prisma
prison
pristimantis
privacy
private
prive
privilege
privileges
prix
prize
pro
probeer
probeerde
probeerden
probeert
proberen
probleem
problem
problematiek
problematisch
problemen
problems
procedure
procedures
proceedings
procent
proces
process
processen
processie
processor
processus
procureur
procyclingstats
produceerde
produceerden
produceert
producent
producenten
producer
produceren
producers
product
producten
productie
productiebedrijf
productief
productiehuis
productieproces
producties
productieve
production
productions
productiviteit
products
proef
proefschrift
proeven
prof
profcarrie
profcontract
profdebuut
profeet
professional
professionals
professioneel
professionele
professor
professoren
profeten
profiel
profielen
profile
profit
profiteerde
profiteren
profs
profvoetbal
profvoetballer
program
programma
programmamaker
programme
programmeertaal
programmeertalen
programmeren
programmering
programmeur
progress
progressief
progressieve
progressive
project
projecten
projectie
projectpagina
projects
proletariaat
prolongeerde
proloog
promenade
prometheus
prominent
prominente
promo
promoten
promotie
promotor
promoveerde
promoveerden
promoveert
promovendus
promoveren
prompt
pronk
proof
prooi
prooidieren
prooien
proosdij
proost
propaganda
properties
property
proposals
prorail
prosper
prostituee
prostituees
prostitutie
prostomium
protagonist
protection
protectoraat
protei
protennislive
protest
protestant
protestanten
protestantisme
protestants
protestantse
protesteerde
protesten
protesteren
proto
protocol
protocollen
proton
protonen
prototype
prototypes
prout
provence
providence
province
provinciaal
provinciale
provincie
provinciehoofdstad
provincieraad
provincieraadslid
provincies
proximus
proza
pru
pruisen
pruisisch
pruisische
prunus
ps
psalm
psalmen
psalter
psc
pseudo
pseudoniem
pseudoniemen
psi
psp
psv
psyche
psychedelische
psychiater
psychiatrie
psychiatrisch
psychiatrische
psychidae
psychische
psycho
psychologie
psychologisch
psychologische
psychology
psycholoog
psychotria
pt
pterolophia
pteromalidae
pteromalus
pterophoridae
pterosaurie
pterostichus
ptn
ptolemaeus
ptt
pu
pub
pubescens
public
publicatie
publicaties
publications
publiceerde
publiceerden
publiceert
publiceren
publicist
publiciteit
publiek
publieke
publiekelijk
publieksprijs
publique
publishers
publishing
publius
puc
puck
puebla
pueblo
puerto
puin
pulau
pulchella
pulcher
pulchra
punch
punctata
punctatus
punische
punjab
punk
punkband
punt
punta
punten
puntenklassement
puntentelling
puntig
puntige
puntje
pupil
purcell
pure
purmerend
purple
push
pusilla
pusillus
put
putford
putte
putten
putzeys
puur
puy
puzzel
puzzels
pv
pvda
pvv
py
pyeongchang
pyralidae
pyramidellidae
pyre
pyreneee
pyrmont
pythagoras
python
pz
q
qadhafi
qaida
qatar
qi
qin
qing
qu
qua
quad
quadratum
quality
quam
quantum
quarantaine
quarante
quarter
quartet
quartier
quasi
quatre
quattro
que
quebec
queen
queens
queensland
quentin
quercus
querido
query
quest
question
quezon
qui
quick
quiet
quincy
quinn
quintana
quintanilla
quintet
quintus
quito
quiz
quo
quoy
r
ra
raad
raadgever
raadhuis
raadplegen
raadsbesluit
raadsel
raadsheer
raadsleden
raadslid
raadsman
raadt
raaf
raak
raakt
raakte
raakten
raalte
raam
raar
rabat
rabbijn
rabbit
rabobank
rac
race
racen
racer
races
raceweekend
raceweekenden
rachel
racing
racisme
racistische
rad
radar
radboud
rade
raden
raderdiertjessoort
radicaal
radical
radicale
radicalen
radio
radioactief
radioactieve
radiopresentator
radioprogramma
radiostation
radiostations
radiozender
radiozenders
rae
raf
rafae
rafael
rage
ragonot
rahman
rai
raid
rail
railroad
rails
railway
railways
rain
rainbow
raindorf
rainer
raire
raja
raken
raket
raketten
ral
rale
raleigh
ralf
rally
ralph
ram
rama
rambur
ramen
rami
ramme
ramo
ramon
ramos
ramp
rampen
ramses
ramsey
ran
rana
rance
ranch
rand
randall
randen
randolph
random
randstad
randstadrail
randy
rang
range
rangen
ranger
rangers
rangle
ranglijst
rangschikking
rangtelwoord
ranking
rao
raoul
rap
raphae
raphael
rapid
rapids
rapper
rappers
rapport
rapporteerde
rapporten
rapporteren
rarchie
rard
rare
ras
rasmussen
rassen
rat
rate
rathbun
ratif
rating
ratinggegevens
ratio
ration
rationele
ratten
rattus
ratzeburg
rau
rault
rauw
rauwe
ravel
raven
ravenbeksbeen
ravenna
ravenstein
ravijn
raw
ray
raya
raymond
razend
razowski
razzia
rb
rbc
rbel
rburgring
rc
rca
rcd
rch
rd
rde
rden
rdenas
rdinaten
rdinatie
rdinator
rdineren
rdoba
re
reach
reactie
reacties
reactor
read
reader
reading
ready
reagan
reageerde
reageerden
reageert
reagens
reageren
real
realisatie
realiseerde
realiseert
realiseren
realisme
realistisch
realistische
realiteit
reality
really
reason
rebecca
rebel
rebellen
rebellie
rec
recensent
recensenten
recensie
recensies
recent
recente
recentelijk
recentere
recept
recepten
receptoren
rech
recherche
rechercheur
rechercheurs
recht
rechtbank
rechtbanken
rechte
rechten
rechter
rechterflank
rechterhand
rechterkant
rechterlijke
rechteroever
rechters
rechtervleugel
rechterzijde
rechthoekig
rechthoekige
rechtmatige
rechtop
rechtopstaande
rechts
rechtsback
rechtse
rechtsgeleerde
rechtsgeleerdheid
rechtspersoon
rechtspraak
rechtstreeks
rechtstreekse
rechtszaak
rechtszaken
rechtvaardig
rechtvaardige
rechtvaardigen
rechtvaardigheid
rechtvleugelig
rechtvleugeligen
reclame
reconstructie
reconstrueren
record
recordaantal
recordhouder
recording
recordings
records
recreatie
recreatiegebied
recreatieve
rector
red
redacteur
redactie
redde
redden
redding
rede
redelijk
redelijke
reden
redenen
redenering
reder
rederij
redman
redt
redtenbacher
reduceren
reductie
ree
reed
reeder
reeds
reeks
reeksen
reekshoofd
rees
reese
reeve
reeves
refereert
reference
referendum
referentie
referenties
reflectie
reflections
reformatie
reformatorisch
refrein
reg
regan
regeerde
regeerden
regeering
regeerperiode
regeert
regel
regelde
regelen
regelgeving
regeling
regelingen
regelmaat
regelmatig
regelmatige
regels
regelt
regen
regenboog
regensburg
regent
regenten
regentes
regentschap
regenval
regenwater
regenwoud
regenwouden
regeren
regerend
regerende
regering
regeringen
regeringsleider
regeringsraad
reggae
reggio
regia
regie
regime
regiment
regimenten
regina
reginald
regio
region
regionaal
regional
regionale
regionalliga
regionen
regis
regisseerde
regisseren
regisseur
regisseurs
register
registers
registratie
registreren
reglement
reglementen
regout
regt
reguleren
regulier
reguliere
rehn
rehrig
rei
reich
reichenbach
reid
reiken
reikt
reikte
reilly
reims
rein
reina
reine
reinhard
reinhardt
reinhold
reinier
reinigen
reinoud
reis
reisde
reisden
reist
reistijd
reitter
reizen
reiziger
reizigers
rek
rekende
rekenen
rekening
rekeningen
rekenkamer
rekent
rekken
rel
related
relatie
relatief
relaties
relatieve
relations
relativiteitstheorie
release
relevant
relevante
relie
relieken
religie
religies
religieus
religieuze
religion
relikwiee
rellen
rem
remake
rembrandt
remco
remember
remi
remise
remix
remixes
remmen
remo
remos
remy
ren
renaissance
renaissancestijl
renard
renate
renato
renaud
renault
rend
rendabel
rende
rendement
rene
renesse
rennen
renner
renners
rennes
reno
renoir
renovatie
rens
rent
rente
rentmeester
rentree
rentz
reorganisatie
reparatie
reparaties
repareren
repertoire
replica
report
reportage
reportages
reporter
reports
representatie
representatieve
repressie
reprise
reptielen
republic
republiek
republieken
republikein
republikeinen
republikeinse
reputatie
request
requiem
rer
res
rescue
research
reservaat
reserve
reserves
reservoir
residence
resident
residente
residentie
resolutie
resoluties
resolution
resort
resource
resources
resp
respect
respecteren
respectievelijk
respectievelijke
rest
restant
restanten
restaurant
restaurants
restauratie
restauraties
restaureren
resten
resterende
restless
resultaat
resultaten
resulteerde
resulteert
resulteren
resulterende
results
ret
retabel
reticulata
retour
retrieved
rettskriving
return
returns
reu
reus
reusachtige
reuss
reuter
reuzen
reuzenslalom
rev
revalidatie
reve
revenge
revenue
reverse
review
reviews
revilla
revisie
revival
revolutie
revolution
revolutionair
revolutionaire
revolutionairen
revolver
revue
rex
rey
reyes
reykjavik
reynolds
rez
reza
rfc
rfd
rfn
rg
rga
rgen
rgy
rhapsody
rheden
rhein
rhenen
rhin
rho
rhode
rhodes
rhodesie
rhodos
rhynchitidae
rhythm
ri
ria
riau
rib
ribben
ribeiro
ribera
ric
rica
ricaans
ricardo
riccardo
ricci
rice
rich
richard
richards
richardson
richel
richelieu
richels
richie
richmond
richt
richten
richter
richting
richtingen
richtlijn
richtlijnen
richtte
richtten
rick
ricky
rico
rida
ridder
ridderkerk
ridderkruis
ridderorde
ridderorden
ridders
ridderschap
ride
rider
riders
ridge
riding
ridley
rie
riel
riem
riemann
rien
riep
riepen
ries
riet
rietveld
rieur
rieure
rif
rifkoralensoort
rig
riga
right
rightarrow
rights
rigs
rihanna
rij
rijbaan
rijbewijs
rijden
rijdende
rijder
rijders
rijdt
rijeka
rijen
rijk
rijkdom
rijke
rijkelijk
rijken
rijker
rijks
rijksakademie
rijksarchief
rijksbeschermd
rijksdag
rijksdienst
rijksmonument
rijksmonumenten
rijksmonumentenregister
rijksmuseum
rijksoverheid
rijksstad
rijkste
rijksuniversiteit
rijkswaterstaat
rijksweg
rijm
rijn
rijnland
rijnmond
rijp
rijpe
rijpen
rijsel
rijssen
rijst
rijstroken
rijswijk
rijtje
rijtuig
rijtuigen
rik
riksva
riley
rim
rin
ring
ringen
ringlijn
ringo
rings
ringvaart
ringweg
ringworm
rinus
rio
riodinidae
riodininae
rioja
riopisuerga
riot
ripley
rique
ris
risbec
rise
risico
rising
risk
rissoidae
rit
rita
ritchie
rite
ritme
ritmische
rito
ritten
ritter
ritueel
rituele
rituelen
ritus
riva
rivaal
rivalen
rivaliserende
rivaliteit
river
rivera
rivers
riverside
rivie
rivier
rivieren
riviertje
rk
rkc
rkd
rksv
rlitz
rm
rn
rna
rnberg
rner
rnva
ro
roa
roach
road
roads
rob
robbedoes
robbert
robbie
robbins
robert
roberta
roberto
roberts
robertson
robin
robinson
robles
robot
robots
robrecht
robson
robusta
robustus
robuust
robuuste
roc
rocca
rocco
rocha
roche
rochefort
rochelle
rochester
rock
rockband
rockefeller
rocket
rockgroep
rockmuziek
rocks
rocky
rod
roda
rode
roden
rodgers
rodney
rodolfo
rodri
rodrigo
rodrigues
rodriguez
roe
roebel
roeden
roeien
roeier
roel
roeland
roelof
roem
roemeens
roemeense
roemenen
roemenie
roemer
roep
roepen
roeping
roept
roer
roermond
roes
roeselare
roest
roet
roewer
roger
rogers
rogge
rogier
rohan
roi
rojas
rok
roken
rol
rola
roland
rolde
role
rolf
roll
rolland
rollen
roller
rolling
rollins
rolls
rolstoel
roltrappen
rom
roma
romaans
romaanse
romagna
romain
roman
romana
romance
romandie
romano
romans
romanschrijver
romantiek
romantisch
romantische
romanum
rombouten
rome
romein
romeinen
romeins
romeinse
romeo
romero
rommel
romp
romplengte
ron
ronald
ronaldo
rond
rondde
ronde
ronden
rondes
rondo
rondom
rondweg
rondwormensoort
ronique
ronnie
ronny
ronse
ronymus
roo
rood
roodachtig
roodbruin
roodbruine
roode
roof
roofdier
roofdieren
roofvliegen
roofvogel
roofvogels
rooij
rook
rookie
room
rooms
roomse
rooney
roos
roosendaal
roosevelt
rooster
root
roots
rooy
roque
rory
ros
rosa
rosalie
rosario
rose
rosemary
rosen
rosenberg
rosenthal
roses
rosie
roskilde
rosmalen
ross
rosse
rossem
rossi
rossini
rosso
rossum
rostock
rostov
rot
rotatie
roth
rothschild
rotonde
rotor
rots
rotsachtige
rotsen
rotte
rotten
rotterdam
rotterdams
rotterdamsche
rotterdamse
roubaix
rouen
rouge
rough
round
rousseau
roussel
route
routes
routledge
rouw
rouwmuggen
roux
rover
rovers
row
rowe
rowland
rowling
roy
royal
royale
royce
royen
roz
roze
rozen
rr
rrez
rs
rsc
rsssf
rst
rster
rt
rth
rtl
rts
rttemberg
rtv
ru
rubber
rube
ruben
rubens
rubin
rubinstein
rubio
rubra
rubriek
ruby
ruc
rudi
rudolf
rudolph
rudy
rue
rufescens
rufipes
rufus
rug
rugby
ruggengraat
ruggenwervels
rugnummer
rugosa
rugslag
rugvin
ruhr
ruhrgebied
rui
ruige
ruil
ruilde
ruilen
ruim
ruime
ruimen
ruimer
ruimere
ruimschoots
ruimte
ruimtelijk
ruimtelijke
ruimten
ruimtes
ruimteschip
ruimtestation
ruimtevaarder
ruimtevaart
ruimtevaartuig
ruimtevlucht
ruis
ruit
ruiten
ruiter
ruiters
ruiz
rukken
rukte
rukten
rule
rules
rum
rumble
run
rund
runderen
rundfunk
rune
runner
running
rupert
ruprecht
rups
rupsen
rural
rus
rush
rusland
russ
russell
russen
russia
russian
russin
russisch
russische
russo
rust
rusten
rustig
rustige
rustiger
rustplaats
ruta
rutger
rutgers
ruth
rutherford
rutte
rutten
ruud
ruw
ruwe
ruwweg
ruys
ruyter
ruzie
rv
rva
rvi
rw
rwanda
ry
ryan
ryder
rye
ryu
rz
rzburg
rður
s
sa
saab
saai
saale
saarbru
saaremaa
saarland
saba
sabatini
sabel
sabelsprinkhanen
sabina
sabine
sabotage
sabrina
sacha
sachs
sachsen
sacken
sacra
sacrale
sacrament
sacramenten
sacramento
sacre
sacred
sacrifice
sacristie
sacro
sad
saddam
safari
safe
safety
saga
sagan
sage
sagen
sahara
sai
said
sailor
saint
sainte
saints
saito
sakai
sake
saksen
saksische
sal
sala
saladin
salamanca
salamander
salamanders
salaris
salas
salazar
saldo
sale
salem
salerno
sales
salinas
salisbury
salle
sally
salm
salmon
salome
salomo
salomon
salomonseilanden
salon
salons
salt
salticidae
salvador
salvatore
salvin
salzburg
sam
samantha
samara
samba
same
samen
samengaan
samengebracht
samengesteld
samengestelde
samengevat
samengevoegd
samengewerkt
samenhang
samenhangend
samenhangende
samenkomen
samenleving
samenlevingen
samenstellen
samenstellende
samenstelling
samenstellingen
samentrekking
samenvatting
samenvloeiing
samenvoegen
samenvoeging
samenwerken
samenwerking
samenwerkingen
samenwerkingsverband
samenwerkte
samenzwering
sami
sammy
samoa
samoerai
sampford
sample
samples
sampson
samson
samsung
samtgemeinde
samuel
samurai
san
sanatorium
sanchez
sancho
sancti
sancties
sand
sande
sander
sanders
sandford
sandra
sandro
sands
sandy
sang
sankt
sanne
sans
sanskriet
sant
santa
santana
santander
santi
santiago
santiba
santo
santos
santschi
sao
saoedi
sap
sapporo
sar
sara
sarah
sarajevo
sarcofaag
sardinie
sari
sars
sarthe
sartre
sas
sasa
sasha
saskatchewan
saskia
sat
satan
satelliet
satellieten
satellite
satire
satirische
sato
saturday
saturn
saturniidae
saturniinae
saturnus
satyrinae
saul
saunders
saunier
sauron
sauropode
saus
saussure
sauvage
savage
savannah
savanne
save
savinjska
savoie
savoy
savoye
saw
sawyer
sax
saxo
saxofonist
saxofoon
saxon
saxophone
say
sb
sbb
sbs
sc
scala
scan
scandinavie
scandinavische
scar
scarabaeidae
scarlet
sce
scenario
scenarioschrijver
scenarist
scene
scenes
scepter
sch
scha
schaak
schaakpartijen
schaal
schaambeen
schaamte
schaap
schaar
schaarbeek
schaars
schaarse
schaarste
schaatsen
schaatser
schaatsers
schaatsster
schacht
schade
schadelijk
schadelijke
schadevergoeding
schaduw
schaduwen
schaffen
schaffer
schafte
schagen
schakel
schakelde
schakelen
schakeling
schakelt
schaken
schaker
schalen
schalke
schandaal
schande
schans
schansspringen
schap
schapen
scharen
schat
schatkamer
schatkist
schatte
schatten
schatting
schattingen
schaumburg
schaus
sche
schedel
schedeldak
schedels
scheef
scheen
scheenbeen
scheepsbouw
scheepswerf
scheepvaart
scheffer
scheidbare
scheidde
scheidden
scheiden
scheiding
scheidsrechter
scheidsrechters
scheidt
scheikunde
scheikundig
scheikundige
schelde
scheldwoord
schelp
schelpen
scheltema
schema
schemering
schending
schendingen
schenen
schenk
schenkel
schenken
schenking
schenkingen
schenkt
schepen
schepenbank
schepenen
scheppen
schepper
schepping
schept
scher
scherm
schermen
schermer
schermutselingen
scherp
scherpe
scherpenzeel
schers
scherzo
schets
schetsen
scheur
scheurde
scheuren
scheveningen
schie
schiedam
schiep
schiereiland
schiermonnikoog
schiet
schieten
schietmot
schietpartij
schietsport
schiffermu
schiffermuller
schijf
schijn
schijnbaar
schijnbare
schijndel
schijnen
schijnsnoerhalskevers
schijnt
schijven
schikking
schil
schild
schilden
schilder
schilderde
schilderen
schilderes
schilderij
schilderijen
schilderingen
schilderkunst
schilders
schildert
schildpad
schildpadden
schildwespen
schiller
schimmel
schimmelkevers
schimmelpenninck
schimmels
schip
schipbreuk
schiphol
schipper
schippers
schisma
schitterend
schitterende
schleck
schlegel
schler
schloss
schltr
schmid
schmidt
schmitt
schmitz
schneider
scho
schoen
schoenen
schoenmaker
schok
schol
scholen
scholengemeenschap
scholieren
scholing
scholten
scholz
schone
schonk
schoof
school
schoolgebouw
schooljaar
schoolmeester
schools
schoolslag
schooltijd
schoon
schoonbroer
schoone
schoonheid
schoonhoven
schoonmaken
schoonspringen
schoonvader
schoonzoon
schoorl
schoorsteen
schoot
schop
schoppen
schorpioen
schorpioenvliegen
schors
schorsing
schot
schotel
schoten
schotland
schots
schotse
schotte
schotten
schouder
schouderblad
schouders
schout
schouten
schouw
schouwburg
schouwen
schrappen
schreef
schreeuwen
schreven
schrift
schriftelijk
schriftelijke
schriften
schrijf
schrijfster
schrijft
schrijfwijze
schrijn
schrijven
schrijver
schrijvers
schrijvertjes
schrik
schrikken
schro
schroef
schroeven
schu
schubben
schubert
schubmieren
schudden
schuift
schuil
schuilen
schuilnaam
schuilplaats
schuim
schuimcicaden
schuin
schuine
schuiven
schuld
schuldeisers
schulden
schuldig
schule
schulte
schultz
schulz
schulze
schumacher
schumann
schuren
schurk
schuster
schut
schutter
schutterij
schutters
schuur
schuurman
schwa
schwartz
schwarz
schwarzburg
schweers
schweiz
schweizer
schwerin
sci
sciaridae
science
sciencefiction
sciencefictionfilm
sciences
scientific
scipio
sclerosomatidae
scooby
scoorde
scoorden
scoort
scooter
scooters
scopoli
scopula
score
scoren
scores
scotia
scotland
scott
scottish
scout
scouting
scouts
scratch
scream
screen
script
scripts
scudder
sculpture
sculpturen
sculptuur
scythris
scytodes
sd
sdap
se
sea
seal
sean
search
seas
season
seasons
seat
seaton
seattle
sebastia
sebastiaan
sebastian
sec
second
seconde
seconden
secret
secretaresse
secretariaat
secretaris
secretary
secrets
sectie
secties
section
sector
sectoren
seculiere
secundair
secundaire
security
sed
sedan
sedert
sediment
sedimenten
sedis
seds
see
seeland
seeley
seer
seg
sega
segers
segment
segmenten
segunda
sei
sein
seine
seinen
seizoen
seizoenen
seizoenshelft
sejm
seks
sekse
seksualiteit
seksueel
seksuele
sekte
sel
selatan
select
selected
selecteren
selectie
selecties
seleucus
self
selma
selo
sels
selve
selys
sem
semarang
semi
seminarie
semos
semper
sen
senaat
senator
senatoren
send
seneca
senegal
senegalees
senior
senioren
senna
sens
sense
sensor
sensoren
sent
sentai
seoel
seoul
sep
sepia
sept
september
ser
sera
seraing
serdang
serena
serenade
sereno
serge
sergeant
sergei
sergej
sergio
sergius
serie
seriemoordenaar
series
serieus
serieuze
serious
serra
serrano
serre
sers
servaas
servais
server
servers
service
services
servie
serville
servisch
servische
ses
sesiidae
sesiinae
sessie
sessies
session
sessions
set
setaria
seth
sets
setting
seven
seventh
severn
severus
sevilla
sex
sextet
sexy
seychellen
seymour
sf
sfeer
sforza
sg
sgp
sgt
sh
sha
shadab
shadow
shadows
shah
shake
shakespeare
shakespeares
shall
shan
shane
shang
shanghai
shannon
shark
sharon
sharp
sharpe
shaun
shaw
shawn
she
sheffield
sheila
shelby
sheldon
shell
shelley
shen
shepard
shepherd
sheridan
sheriff
sherlock
sherman
sherwood
shi
shield
shift
shin
shine
shinoda
ship
shire
shirley
shirt
shirts
shiva
sho
shock
shoes
shogun
shoot
shooter
shooting
shop
shore
short
shorttrack
shot
should
show
showcase
shows
shrek
shu
shuttle
si
sia
siam
siberie
siberische
sic
sica
sich
sicherheitsdienst
sichuan
siciliaanse
sicilie
sid
side
sidney
sidonia
sie
siegel
siegen
siegfried
siemens
sien
siena
sieraad
sieraden
sierlijke
sierra
siet
sig
sigaretten
sigismund
sigma
sigmund
sign
signaal
signal
signalen
signature
signatuur
significant
significante
signs
sijn
sijs
sijthoff
sikkel
sikkelmotten
sil
silence
silent
silezie
silicium
silva
silver
silverstone
silvia
silvio
sim
sima
simbad
simeon
similis
simmons
simo
simon
simone
simoni
simonis
simons
simpel
simpele
simpelweg
simple
simplex
simpson
simpsons
sims
sin
sinai
sinatra
since
sinclair
sind
sinds
sindsdien
sine
sinen
sinensis
sinfonia
sing
singapore
singel
singer
singers
singh
single
singles
sings
sinopel
sint
sinterklaas
sio
sion
sioux
sir
sire
sirius
sis
sister
sisters
sit
sitcom
site
sites
sith
sittard
sittardia
situatie
situaties
six
size
sj
sjah
sjo
sjoerd
sjors
sjostakovitsj
sk
ska
skelet
skeleton
skeletten
sketch
sketches
ski
skie
skigebied
skin
skinner
skip
sko
skopje
sku
skull
sky
sl
sla
slaaf
slaagde
slaagden
slaagt
slaan
slaap
slaapkamer
slaapt
slaat
slachtoffer
slachtoffers
slag
slagen
slager
slaggitaar
slagschepen
slagschip
slagveld
slagwerk
slagwerkers
slak
slakken
slakkensoort
slakrupsvlinders
slalom
slam
slang
slangen
slangster
slank
slanke
slankpootvliegen
slap
slapen
slapende
slater
slave
slaven
slavenhandel
slavernij
slavische
slayer
slecht
slechte
slechter
slechts
slechtste
sleen
sleep
sleepte
sleeswijk
slepen
sleutel
sleutels
slib
slide
sliep
slijm
slijtage
slikken
slim
slimme
slimste
slinger
sloane
slochteren
sloeg
sloegen
slogan
sloop
sloot
slopen
slot
sloten
sloterdijk
slotervaart
slotte
sloveens
sloveense
slovenie
slovenija
slovni
slow
slowaaks
slowaakse
slowakije
sluier
sluipvliegen
sluipwespen
sluis
sluit
sluiten
sluiter
sluiting
sluizen
slurf
sm
sma
smaak
smackdown
smaken
smal
small
smalle
smaller
smart
smartphone
smash
sme
smeden
smeedijzeren
smeets
smelt
smelten
smet
smid
smile
smit
smith
smithsonian
smits
smoke
smolensk
sms
smurfen
sn
snaar
snake
snaren
snavel
sncf
sneed
sneek
sneeuw
sneeuwwitje
snel
snelheden
snelheid
snelle
snellen
sneller
snellere
snelst
snelste
snelwandelen
snelweg
snelwegen
sneuvelde
sneuvelden
snij
snijden
snijders
snijdt
snoek
snoerhalskevers
snoerworm
snoerwormen
snor
snow
snowboarden
snuit
snuitmotten
snyder
so
soap
soapserie
soares
sober
sobere
soc
soccer
soccerway
sociaal
sociaaldemocraten
sociaaldemocratische
social
sociale
socialisme
socialist
socialiste
socialisten
socialistisch
socialistische
socie
sociedad
society
sociologie
socioloog
socrates
soe
soedan
soekarno
soenda
soep
soepel
soera
soerabaja
soest
soesterberg
soeverein
soevereine
soevereiniteit
sofia
sofie
soft
software
soir
soissons
soixante
sojoez
sokkel
sol
solar
soldaat
soldaatjes
soldaten
soldier
soldiers
sole
soleerd
soleerde
soleil
soler
solid
solidariteit
solide
solist
solisten
solitair
solitaire
solms
solo
soloalbum
solocarrie
solomon
solothurn
solutions
som
somalie
somalische
somber
sombere
somberkevers
some
somebody
someone
someren
somers
somerset
something
somme
sommer
sommige
sommigen
soms
somtijds
son
sonata
sonate
sonates
sonde
sonder
sonderburg
song
songfestival
songs
songwriter
sonia
sonic
sonja
sonnet
sonnetten
sonneveld
sonny
sons
sont
sony
soo
soon
soort
soortaanduiding
soorten
soortenbank
soortgelijk
soortgelijke
soortgenoten
soortnaam
sophia
sophie
sopraan
sor
sorbonne
sorry
sos
soto
sotsji
soudal
soude
soul
souls
sound
sounds
soundtrack
source
sourton
sous
sousa
south
southampton
southern
southwest
souvenir
souvenirs
souza
sovjet
sovjetrepubliek
sovjets
sowerby
sowieso
sp
spa
spaak
spaakbeen
spaan
spaans
spaanse
spaanstalige
space
spaceshuttle
spacex
spain
span
spande
spanish
spanjaard
spanjaarden
spanje
spannen
spannend
spannende
spanners
spanning
spanningen
spanwijdte
spar
sparassidae
sparen
sparks
sparta
spartaanse
spartak
spartanen
spartelkevers
spathius
spd
spe
spears
specerijen
specht
speciaal
special
speciale
specialisatie
specialiseerde
specialist
specialisten
specialiteit
specials
species
specificatie
specificaties
specifiek
specifieke
specimen
specimina
spectaculaire
spectrum
speech
speed
speedway
speel
speeldag
speelde
speelden
speelfilm
speelfilms
speelgoed
speelminuten
speelronde
speelster
speelsters
speelt
speeltijd
speeltuin
speelveld
speer
speerwerpen
spek
spektorren
spel
spelen
spelend
spelende
speler
spelers
spelerscarrie
spelersloopbaan
spelersprofiel
spellen
spelletjes
spelling
spellingregel
spencer
sperma
sphingidae
sphinx
spider
spiegel
spiegelbeeld
spiegels
spielberg
spier
spieren
spies
spijkenisse
spijker
spijkers
spijt
spike
spil
spilomelinae
spin
spinnen
spinnensoort
spinners
spinneruilen
spinola
spinosa
spinoza
spion
spionage
spionnen
spiraal
spiraalvormig
spirit
spiritualiteit
spiritueel
spirituele
spirou
spisovne
spits
spitsbergen
spitse
spleten
splinter
split
splitsen
splitsing
splitst
splitste
spo
spoed
spoedig
spoel
spoelen
spoken
sponginevezels
spons
sponsdieren
sponsor
sponsors
sponssoort
spontaan
spontane
sponzen
spook
spoor
spoorbrug
spoorlijn
spoorlijnen
spoorloos
spoorverbinding
spoorweg
spoorwegen
spoorwegmaatschappij
spoorwegmaatschappijen
spoorwegnet
spoorwegstation
spoorwegstations
sporadisch
sporen
sport
sportbestuurder
sportclub
sportcomplex
sporten
sporter
sporters
sporthal
sportief
sportieve
sporting
sportpark
sports
sportvereniging
spot
spraak
spraakgebruik
spraakkunst
sprak
sprake
spraken
spreek
spreekt
spreektaal
spreiding
spreken
sprekend
sprekende
spreker
sprekers
spreuk
spreuken
spring
springen
springende
springer
springfield
springs
springspinnen
springstaartensoort
springsteen
springt
sprint
sprinter
sprog
sprong
sprongen
sprookje
sprookjes
spui
spuiten
spullen
spvgg
spy
sqrt
squad
squadron
square
sr
sri
ss
sseldorf
ssr
st
sta
staaf
staakt
staakte
staal
staan
staand
staande
staart
staartlengte
staartstukje
staartwervels
staat
staatkundige
staats
staatsbedrijf
staatsblad
staatsbosbeheer
staatsburger
staatsburgerschap
staatse
staatsgreep
staatshoofd
staatshoofden
staatsman
staatsraad
staatssecretaris
staatsspoorwegen
staatsuniversiteit
stabiel
stabiele
stabiliteit
stack
stad
stade
stadhouder
stadhuis
stadia
stadion
stadions
stadium
stadje
stadler
stads
stadsarchief
stadsarchitect
stadsbestuur
stadsbrand
stadscentrum
stadsdeel
stadsdelen
stadsgezicht
stadsgezichten
stadskanaal
stadsmuren
stadsmuur
stadspark
stadspoort
stadspoorten
stadsrechten
stadsschouwburg
stadstaten
stadt
staf
stafchef
staff
stafford
stage
stagiair
stainton
stak
staken
staking
stakingen
stal
stalen
stalin
stallen
stam
stamboom
stamde
stammen
stamnummer
stamreeks
stamt
stamvader
stan
stand
standaard
standaardelftal
standaarden
standaardtaal
standaardwerk
standard
standards
standbeeld
standbeelden
standen
standing
standplaats
standpunt
standpunten
stanford
stanislaus
stanisław
stanley
stanton
stap
stapel
stappen
stapt
stapte
stapten
star
stara
stare
stargate
stark
starr
stars
start
startbaan
starten
startplaats
startplaatsen
startte
startten
stary
state
statement
staten
statenlid
states
station
stations
stationsgebouw
stationshal
stationsplein
statische
statistica
statistical
statistics
statistiek
statistieken
statistik
statistisch
statistische
stats
status
statuten
statuut
staudinger
stav
stavanger
staveley
staven
stavoren
stay
ste
stede
stedelijk
stedelijke
steden
stedenbouwkundige
stedt
steeds
steeg
steek
steekmuggen
steekt
steel
steele
steels
steelt
steen
steenbergen
steenen
steenkool
steentijd
steenvlieg
steenvliegen
steenweg
steenwijk
steeple
steevast
stef
stefaan
stefan
stefano
stefanus
stegen
steiger
steil
steile
stein
steindachner
steiner
stek
stekels
steken
stel
stelde
stelden
stelen
stella
stellen
stellende
stelling
stellingen
stelsel
stelt
steltmuggen
stem
stemacteur
stemde
stemden
stemmen
stemming
stempel
stempels
stemrecht
stemt
sten
stenen
stengel
stengels
step
stephan
stephanie
stephanus
stephen
stephens
stephenson
steppe
steps
ster
stereo
sterfbed
sterft
sterfte
stergo
sterk
sterke
sterker
sterkere
sterkst
sterkste
sterkte
sterling
stern
sternberg
sterre
sterreich
sterreichische
sterren
sterrenbeeld
sterrenhoop
sterrenkunde
sterrenstelsel
sterrenstelsels
sterrenwacht
sterven
stervende
stettin
steun
steunberen
steunde
steunden
steunen
steunpunt
steunt
steur
steve
steven
stevens
stevenson
stevie
stevig
stevige
stewart
sti
stichel
sticht
stichten
stichter
stichters
stichting
stichtingen
stichtte
stichtten
stick
stiefmoeder
stiefvader
stiekem
stier
stierf
stiermarken
stierven
stift
stiftung
stig
stigmella
stijf
stijgen
stijgende
stijging
stijgt
stijl
stijlen
stijn
stijve
stikstof
stil
stilaan
stilgelegd
still
stille
stilleven
stillevens
stills
stilstand
stilte
stimpson
stimuleerde
stimuleert
stimuleren
sting
stip
stippen
stirling
stirum
stisch
stische
sto
stock
stockholm
stockleigh
stockton
stoel
stoelen
stoep
stoet
stof
stoffelijk
stoffelijke
stoffen
stoi
stok
stoke
stokje
stokken
stolberg
stoll
stolpersteine
stomme
stomp
stompe
stond
stonden
stone
stones
stoom
stoomboot
stoomlocomotieven
stoommachine
stoomschip
stoomtram
stoornis
stoornissen
stoot
stootte
stop
stopgezet
stoppen
stopplaats
stopt
stopte
stopten
stoptrein
stor
store
stories
storing
storingen
stork
storm
stormen
stort
storten
stortte
story
stoten
stour
stout
stoute
str
stra
straal
straalvinnige
straat
straatbeeld
straatnaam
straatnamen
straatsburg
straf
strafbaar
strafbare
straffen
strafrecht
strafrechtelijk
strafschop
strafschoppen
straight
strak
strakke
straks
stralen
straling
strand
strandde
stranden
straneo
strange
stranger
strangers
strasbourg
strategie
strategisch
strategische
strategy
straten
stratencircuit
stratford
stratton
strauss
stravinsky
straße
stream
streden
streed
streefde
streeft
streek
streep
streepje
street
streets
streken
strekken
strekking
strekspinnen
strekt
strekte
streng
strenge
strengere
strepen
stress
streuer
streven
striata
strickland
strijd
strijde
strijden
strijdende
strijder
strijders
strijdkrachten
strijdmacht
strijdt
strijen
strijken
strijkers
strijkkwartet
strijkorkest
strik
strike
strikt
strikte
string
strings
strip
stripalbum
stripauteur
stripblad
stripreeks
strips
stripserie
striptekenaar
stripverhaal
stripverhalen
stro
strobl
stroken
stromen
stromend
stromende
stroming
stromingen
strong
strook
stroom
stroomafwaarts
stroomde
stroomden
stroomgebied
stroomopwaarts
stroomt
structure
structureel
structurele
structuren
structuur
struik
struiken
struikgewas
strumigenys
sts
stu
stuart
studeerde
studeert
student
studente
studenten
studententijd
studentenvereniging
studer
studeren
studie
studiebeurs
studies
studio
studioalbum
studioalbums
studios
study
stuff
stuifmeel
stuit
stuitte
stuk
stukje
stukjes
stukken
stuks
stunt
sturen
sturm
sturmgeschu
stuttgart
stuur
stuurde
stuurden
stuurman
stuurt
stuw
stuwdam
stuwmeer
style
styles
su
sua
sub
subaru
subject
subjectieve
subjonctif
subjuntivo
subkarpaten
subsidie
subsidies
subsp
substantie
substraat
subtiele
subtribus
subtropisch
subtropische
succes
successen
successieoorlog
succesvol
succesvolle
succesvolste
such
sucre
sud
sue
suez
suffolk
suffragaan
sugar
suggereerde
suggereert
suggereren
suggestie
suggesties
sui
suicide
suiker
suikerriet
suis
suisse
suite
suites
sul
sulawesi
sulla
sullen
sullivan
sultan
sultanaat
sum
sumatra
summary
summer
summit
sun
sunbeam
sundance
sunday
sunderland
sung
sungai
sunny
sunset
sunshine
supe
super
superbike
supercup
superfamilie
superheld
superieur
superieure
superior
superman
supermarkt
supermarkten
supernova
supersport
superstar
supervisie
suppan
supplement
support
supporters
supporting
supreme
sur
surface
surinaams
surinaamse
suriname
surinamers
surrealistische
surrey
survey
survival
survivor
sus
susan
susanna
susanne
suske
sussex
susteren
suter
sutherland
sutter
sutton
suzanne
suzuki
sv
sven
svenska
svensson
svetlana
svv
sw
swan
swansea
swart
swaziland
swedish
sweet
swift
swimming
swimrankings
swing
swinhoe
swiss
switch
sword
sy
sybra
sydney
sykes
syllidae
sylvain
sylvester
sylvia
sylvie
symbolen
symboliek
symbolisch
symbolische
symboliseert
symboliseren
symbool
symfonie
symfoniee
symfonieorkest
symfonisch
symfonische
symmetrie
symmetrisch
symmetrische
sympathie
symphonic
symphonie
symphony
symposium
symptomen
syn
synagoge
synanthedon
syndrome
syndroom
synode
synoniem
synoniemen
synthese
synthesizer
synthesizers
synthetisch
synthetische
syracuse
syrie
syrisch
syrische
syrphidae
sys
systeem
system
systematisch
systematische
systemen
systems
sz
szabo
szczecin
sze
szepligeti
szlo
sønder
sørensen
t
ta
taak
taal
taaladvies
taalfamilie
taalgebied
taalgebruik
taalgrens
taalhervorming
taalkunde
taalkundig
taalkundige
taalunie
taart
tabak
tabel
tabellen
tabernakel
table
tablet
taboe
tac
tachinidae
tachtig
tachtigjarige
tacitus
tactiek
tactische
tadzjikistan
taekwondo
tafel
tafels
tafeltennis
tafereel
taferelen
tag
tahiti
tai
tail
tain
taipei
tait
taiwan
taiwanese
tak
takahashi
take
takeda
taken
takes
takken
tal
talands
talbot
tale
talen
talent
talenten
talentenjacht
talentvolle
tales
talet
taliban
talk
talking
talkshow
tall
tallinn
talloze
talpa
talrijk
talrijke
tam
tamara
tamelijk
tamerlan
tamil
tamme
tampa
tampere
tan
tanaka
tanaro
tanasevitch
tand
tandarts
tanden
tandvlinders
tang
tanger
tangerine
tango
tanja
tanjung
tank
tanker
tanks
tankstation
tanner
tant
tante
tanzania
tao
taoi
tap
tape
tapes
tapijt
tapijten
taps
tar
tara
tardigrada
target
tarief
tarieven
tarn
tarragona
tarrant
tartu
tarwe
tarzan
tas
tasjkent
task
tasks
tasmanie
tast
taste
tastermotten
tat
tata
tataren
tate
tatjana
tatra
tau
taurus
tavy
tawton
taxa
taxi
taxon
taxonomic
taxonomie
taxonomische
taxonomy
taylor
tb
tbilisi
tbs
tc
td
te
tea
team
teamgenoot
teamgenoten
teams
teamsprint
tears
teatro
teau
teborg
tec
tech
technical
technici
technicus
techniek
technieken
technisch
technische
techno
technologie
technologiee
technologies
technologische
technology
ted
teddy
tee
teelt
teen
teenage
teer
tegel
tegelen
tegelijk
tegelijkertijd
tegels
tegemoet
tegen
tegenaanval
tegendeel
tegengaan
tegengehouden
tegengestelde
tegenhanger
tegenhouden
tegenkomen
tegenkomt
tegenover
tegenovergestelde
tegenpartij
tegenpaus
tegenslag
tegenslagen
tegenspeler
tegenspraak
tegenstand
tegenstander
tegenstanders
tegenstelling
[...]
