!
"
#
##0
##1
##10
##11
##12
##13
##14
##15
##16
##17
##18
##19
##2
##20
##21
##22
##23
##24
##25
##26
##27
##28
##29
##3
##30
##31
##32
##33
##34
##35
##36
##37
##38
##39
##4
##40
##41
##42
##43
##44
##45
##46
##47
##48
##49
##5
##50
##51
##52
##53
##54
##55
##56
##57
##58
##59
##6
##60
##61
##62
##63
##64
##65
##66
##67
##68
##69
##7
##70
##71
##72
##73
##74
##75
##76
##77
##78
##79
##8
##80
##81
##82
##83
##84
##85
##86
##87
##88
##89
##9
##90
##91
##92
##93
##94
##95
##96
##97
##98
##99
$
%
&
'
(
)
*
+
,
-
.
/
0
00
000
001
002
003
004
005
006
007
009
01
010
013
02
03
04
05
06
07
08
09
1
10
100
1000
10000
1001
1002
101
1016
102
1024
103
104
1040
105
1050
106
1066
107
1070
108
1080
1086
109
11
110
1100
111
112
1120
113
1130
1135
114
1140
115
1150
116
1160
117
1170
118
1180
119
1190
1191
12
120
1200
1204
121
1212
1214
1215
122
1220
1225
1226
1227
123
1230
124
1240
1241
1248
125
1250
1253
126
1260
1266
127
1270
1275
1279
128
1280
1282
1284
1285
1288
129
1290
1291
1294
1295
1296
1297
1299
13
130
1300
1301
1302
1303
1304
1305
1306
1307
1308
1309
131
1310
1312
1314
1315
1316
132
1320
1325
1326
1328
1329
133
1330
1333
1336
1337
1339
134
1340
1342
1343
1344
1345
1346
1347
1348
1349
135
1350
1355
1356
136
1360
1361
1364
1365
1368
137
1370
1371
1375
1377
1378
138
1380
1381
1382
1384
1385
1386
1388
1389
139
1390
1392
1394
1395
1396
1397
1398
1399
14
140
1400
1401
1402
1403
1404
1405
1409
141
1410
1412
1413
1414
1415
1417
1418
1419
142
1420
1421
1422
1423
1424
1425
1426
1427
1428
1429
143
1430
1431
1432
1433
1434
1435
1436
1437
1438
1439
144
1440
1441
1442
1443
1444
1445
1447
1449
145
1450
1451
1452
1453
1454
1455
1456
1457
1458
1459
146
1460
1461
1462
1463
1464
1465
1466
1467
1468
1469
147
1470
1471
1472
1473
1474
1475
1476
1477
1478
1479
148
1480
1481
1482
1483
1484
1485
1486
1487
1488
1489
149
1490
1491
1492
1493
1494
1495
1496
1497
1498
1499
15
150
1500
1501
1502
1503
1504
1505
1506
1507
1508
1509
151
1510
1511
1512
1513
1514
1515
1516
1517
1518
1519
152
1520
1521
1522
1523
1524
1525
1526
1527
1528
1529
153
1530
1531
1532
1533
1534
1535
1536
1537
1538
1539
154
1540
1541
1542
1543
1544
1545
1546
1547
1548
1549
155
1550
1551
1552
1553
1554
1555
1556
1557
1558
1559
156
1560
1561
1562
1563
1564
1565
1566
1567
1568
1569
157
1570
1571
1572
1573
1574
1575
1576
1577
1578
1579
158
1580
1581
1582
1583
1584
1585
1586
1587
1588
1589
159
1590
1591
1592
1593
1594
1595
1596
1597
1598
1599
16
160
1600
1601
1602
1603
1604
1605
1606
1607
1608
1609
161
1610
1611
1612
1613
1614
1615
1616
1617
1618
1619
162
1620
1621
1622
1623
1624
1625
1626
1627
1628
1629
163
1630
1631
1632
1633
1634
1635
1636
1637
1638
1639
164
1640
1641
1642
1643
1644
1645
1646
1647
1648
1649
165
1650
1651
1652
1653
1654
1655
1656
1657
1658
1659
166
1660
1661
1662
1663
1664
1665
1666
1667
1668
1669
167
1670
1671
1672
1673
1674
1675
1676
1677
1678
1679
168
1680
1681
1682
1683
1684
1685
1686
1687
1688
1689
169
1690
1691
1692
1693
1694
1695
1696
1697
1698
1699
17
170
1700
1701
1702
1703
1704
1705
1706
1707
1708
1709
171
1710
1711
1712
1713
1714
1715
1716
1717
1718
1719
172
1720
1721
1722
1723
1724
1725
1726
1727
1728
1729
173
1730
1731
1732
1733
1734
1735
1736
1737
1738
1739
174
1740
1741
1742
1743
1744
1745
1746
1747
1748
1749
175
1750
1751
1752
1753
1754
1755
1756
1757
1758
1759
176
1760
1761
1762
1763
1764
1765
1766
1767
1768
1769
177
1770
1771
1772
1773
1774
1775
1776
1777
1778
1779
178
1780
1781
1782
1783
1784
1785
1786
1787
1788
1789
179
1790
1791
1792
1793
1794
1795
1796
1797
1798
1799
18
180
1800
1801
1802
1803
1804
1805
1806
1807
1808
1809
181
1810
1811
1812
1813
1814
1815
1816
1817
1818
1819
182
1820
1821
1822
1823
1824
1825
1826
1827
1828
1829
183
1830
1831
1832
1833
1834
1835
1836
1837
1838
1839
184
1840
1841
1842
1843
1844
1845
1846
1847
1848
1849
185
1850
1851
1852
1853
1854
1855
1856
1857
1858
1859
186
1860
1861
1862
1863
1864
1865
1866
1867
1868
1869
187
1870
1871
1872
1873
1874
1875
1876
1877
1878
1879
188
1880
1881
1882
1883
1884
1885
1886
1887
1888
1889
189
1890
1891
1892
1893
1894
1895
1896
1897
1898
1899
19
190
1900
1901
1902
1903
1904
1905
1906
1907
1908
1909
191
1910
1911
1912
1913
1914
1915
1916
1917
1918
1919
192
1920
1921
1922
1923
1924
1925
1926
1927
1928
1929
193
1930
1931
1932
1933
1934
1935
1936
1937
1938
1939
194
1940
1941
1942
1943
1944
1945
1946
1947
1948
1949
195
1950
1951
1952
1953
1954
1955
1956
1957
1958
1959
196
1960
1961
1962
1963
1964
1965
1966
1967
1968
1969
197
1970
1971
1972
1973
1974
1975
1976
1977
1978
1979
198
1980
1981
1982
1983
1984
1985
1986
1987
1988
1989
199
1990
1991
1992
1993
1994
1995
1996
1997
1998
1999
2
20
200
2000
2001
2002
2003
2004
2005
2006
2007
2008
2009
201
2010
2011
2012
2013
2014
2015
2016
2017
2018
2019
202
2020
2021
2022
2023
2024
2025
2026
203
2030
204
205
206
207
208
209
21
210
2100
211
212
213
214
215
216
217
218
219
22
220
2200
221
222
223
224
225
226
227
228
229
23
230
2300
231
232
233
234
235
236
237
238
239
24
240
2400
241
242
243
244
245
246
247
248
249
25
250
2500
251
252
253
254
255
256
257
258
259
26
260
2600
261
262
263
264
265
266
267
268
269
27
270
2700
271
272
273
274
275
276
277
278
279
28
280
2800
281
282
283
284
285
286
287
288
289
29
290
291
292
293
294
295
296
297
298
299
3
30
300
3000
301
302
303
304
305
306
307
308
309
31
310
311
312
313
314
315
316
3166
317
318
319
32
320
3200
321
322
323
324
325
326
327
328
329
33
330
331
332
333
334
335
336
337
338
339
34
340
341
342
343
344
345
346
347
348
349
35
350
3500
351
352
353
354
355
356
357
358
359
36
360
361
362
363
364
365
3659
366
367
368
369
37
370
371
372
373
374
375
376
377
378
379
38
380
381
382
383
384
385
386
387
388
389
39
390
391
392
393
394
395
396
397
398
399
4
40
400
4000
401
402
403
404
405
406
407
408
409
41
410
411
412
413
414
415
416
417
418
419
42
420
421
422
423
424
425
426
427
428
429
43
430
431
432
433
434
435
436
437
438
439
44
440
441
442
443
444
445
446
447
448
449
45
450
4500
451
452
453
454
455
456
457
458
459
46
460
461
462
463
464
465
466
467
468
469
47
470
471
472
473
474
475
476
477
478
479
48
480
481
482
483
484
485
486
487
488
489
49
490
491
492
493
494
495
496
497
498
499
5
50
500
5000
501
502
503
504
505
506
507
508
509
51
510
511
512
513
514
515
516
517
518
519
52
520
521
522
523
524
525
526
527
528
529
53
530
531
532
533
534
535
536
537
538
539
54
540
541
542
543
544
545
546
547
548
549
55
550
551
552
553
554
555
556
557
558
559
56
560
561
562
563
564
565
566
567
568
569
57
570
571
572
573
574
575
576
577
578
579
58
580
581
582
583
584
585
586
587
588
589
59
590
591
592
593
594
595
596
597
598
6
60
600
6000
601
602
603
604
605
606
607
608
609
61
610
611
612
613
614
615
616
617
618
619
62
620
621
622
623
624
625
626
627
628
629
63
630
631
632
633
634
635
636
637
639
64
640
641
642
643
645
646
648
65
650
651
652
653
656
66
660
661
664
665
666
667
67
670
671
673
674
675
68
680
683
684
685
687
69
690
691
695
7
70
700
7000
701
702
705
707
71
710
711
712
714
715
716
717
718
72
720
721
722
725
727
73
730
731
732
737
74
740
741
743
745
747
748
75
750
751
754
757
76
760
765
767
768
77
770
774
775
777
78
780
787
79
790
795
8
80
800
8000
801
802
804
805
806
808
81
810
814
815
816
817
82
820
825
83
830
84
840
843
845
85
850
855
86
860
865
87
870
875
877
88
880
882
888
89
890
9
90
900
9000
901
90210
905
907
91
910
911
912
915
918
92
920
923058
924
925
928
93
930
936
94
940
95
950
96
960
962
965
97
970
975
978
98
980
985
987
99
990
995
996
997
999
:
;
<
=
>
?
@
\
^
_
`
a
aa
aaa
aachen
aad
aalborg
aalsmeer
aalst
aalten
aalter
aan
aanbesteding
aanbeveling
aanbevelingen
aanbevolen
aanbidding
aanbieden
aanbieders
aanbieding
aanbiedt
aanbod
aanbood
aanbouw
aanbrengen
aandacht
aandeel
aandeelhouder
aandeelhouders
aandelen
aandoen
aandoening
aandoeningen
aandrijving
aandringen
aanduiden
aanduiding
aanduidingen
aaneengesloten
aangaan
aangaande
aangaat
aangaf
aangeboden
aangeboren
aangebouwd
aangebracht
aangedaan
aangedreven
aangedrongen
aangeduid
aangeeft
aangegaan
aangegeven
aangehaald
aangehecht
aangehouden
aangeklaagd
aangekocht
aangekomen
aangekondigd
aangelegd
aangelegde
aangelegenheden
aangemaakt
aangemerkt
aangemoedigd
aangenaam
aangenomen
aangepakt
aangepast
aangepaste
aangeplant
aangeraden
aangereden
aangericht
aangeschaft
aangeslagen
aangesloten
aangespannen
aangesproken
aangesteld
aangestuurd
aangetast
aangetoond
aangetroffen
aangetrokken
aangevallen
aangeven
aangevoerd
aangevraagd
aangevuld
aangewend
aangewezen
aangezet
aangezicht
aangezien
aangifte
aangrenzende
aanhang
aanhanger
aanhangers
aanhangsel
aanhangsels
aanhechting
aanhouden
aanhoudende
aanklacht
aanklachten
aanklager
aankomen
aankomende
aankomst
aankomt
aankondigde
aankondiging
aankoop
aankopen
aankwam
aankwamen
aanleg
aanleggen
aanleiding
aanloop
aanmerkelijk
aanmerking
aannam
aanname
aanneemt
aannemelijk
aannemen
aannemer
aanpak
aanpassen
aanpassing
aanpassingen
aanraden
aanraking
aanschaf
aanslag
aanslagen
aansloot
aansluit
aansluiten
aansluitend
aansluitende
aansluiting
aansluitingen
aanspraak
aansprakelijk
aansprakelijkheid
aanspraken
aanstaande
aanstelling
aantal
aantallen
aantasting
aantekeningen
aantonen
aantrad
aantreden
aantrekkelijk
aantrekkelijke
aantrekken
aantrekkingskracht
aanvaard
aanvaardde
aanvaarden
aanvaarding
aanval
aanvallen
aanvallende
aanvaller
aanvallers
aanvang
aanvankelijk
aanvankelijke
aanvaring
aanverwante
aanviel
aanvoer
aanvoerder
aanvoering
aanvraag
aanvragen
aanvullend
aanvullende
aanvulling
aanwezig
aanwezige
aanwezigen
aanwezigheid
aanwijzen
aanwijzing
aanwijzingen
aanzet
aanzetten
aanzicht
aanzien
aanzienlijk
aanzienlijke
aap
aar
aard
aardappelen
aardbeving
aardbevingen
aarde
aarden
aardewerk
aardgas
aardig
aardolie
aardoppervlak
aardrijkskunde
aardse
aargau
aarhus
aarlen
aaron
aarschot
aart
aartsbisdom
aartsbisschop
aartsbisschoppen
aartsengel
aartshertog
aartsrivaal
aas
aasgarnalen
aasgarnalensoort
aat
ab
abba
abbas
abbaye
abbe
abbey
abbott
abby
abc
abchazie
abcoude
abd
abdij
abdijen
abdijkerk
abdis
abdul
abdullah
abe
abeele
abel
aberdeen
abigail
abn
abonnees
abonnement
aborigines
abortus
about
above
abraham
abrams
abrupt
abs
absolute
absoluut
abstract
abstracte
abt
abteilung
abu
ac
acade
academia
academic
academie
academisch
academische
academy
acapulco
accademia
accent
accenten
acceptatie
accepteerde
accepteert
accepteren
access
accessoires
accommodatie
accordeon
account
accountant
accu
ace
aceh
ach
achievement
achille
achilles
acht
achtbaan
achtbanen
achten
achter
achteraan
achteraf
achterberg
achterblad
achtereenvolgende
achtereenvolgens
achteren
achtergebleven
achtergelaten
achtergevel
achtergrond
achtergronden
achtergrondzang
achterhaald
achterhalen
achterhoede
achterhoek
achterhoofd
achterin
achterkant
achterkleinzoon
achterland
achterlaten
achterliggende
achterlijf
achterna
achternaam
achterneef
achterpoten
achterrand
achterstand
achterste
achteruit
achteruitgang
achtervoegsel
achtervolgd
achtervolgen
achtervolging
achterwaarts
achterwand
achterwege
achterwiel
achterzijde
achthoekige
achtig
achtige
achtjarige
achtste
achtte
achttien
achttiende
achttienjarige
acid
acker
acleris
acoustic
acrididae
acroniem
across
act
acta
acte
acteercarrie
acteerde
acteren
actes
acteur
acteurs
actie
actief
actiefilm
actiegroep
acties
actiespel
actieve
action
activa
active
activeren
activisme
activist
activiste
activisten
activiteit
activiteiten
actor
actors
actress
actrice
actrices
acts
actualiteit
actueel
actuele
acute
ad
ada
adagio
adam
adams
add
adder
addison
addy
ade
adel
adela
adelaar
adelaide
adele
adelheid
adellijk
adellijke
adelstand
adem
ademen
ademhaling
aden
adidas
adjudant
adjunct
adler
administrateur
administratie
administratief
administratieve
administration
administrator
admiraal
admiral
admiraliteit
ado
adobe
adolf
adolph
adolphe
adoptie
adres
adressen
adria
adriaan
adriaen
adrian
adriana
adrianus
adriatico
adriatische
adrien
adrienne
adult
advance
advanced
adventure
adventures
advertentie
advertenties
advies
adviesraad
adviezen
adviseerde
adviseert
adviseren
adviseur
adviseurs
advocaat
advocate
advocaten
advocatenkantoor
ae
aek
aen
aeneas
aero
aert
aerts
af
afb
afbeelding
afbeeldingen
afbraak
afbreken
afc
afdaling
afdeeling
afdeling
afdelingen
afdruk
afdrukken
afdwingen
affair
affaire
affairs
affiche
affiches
affinis
afgebeeld
afgebeelde
afgeblazen
afgebouwd
afgebrand
afgebroken
afgedaan
afgedekt
afgedrukt
afgedwongen
afgegeven
afgegraven
afgekeurd
afgekondigd
afgekort
afgelast
afgelegd
afgelegen
afgeleid
afgeleide
afgeleverd
afgelopen
afgelost
afgemaakt
afgenomen
afgeplat
afgeplatte
afgerond
afgeronde
afgeschaft
afgescheiden
afgeslagen
afgesloten
afgesneden
afgespeeld
afgesplitst
afgesproken
afgestaan
afgestemd
afgestoten
afgestudeerd
afgevaardigd
afgevaardigde
afgevaardigden
afgeven
afgevoerd
afgevuurd
afgewerkt
afgewezen
afgewisseld
afgezet
afgezien
afghaanse
afghanistan
afgrond
afhangt
afhankelijk
afhankelijke
afhankelijkheid
afkeer
afkomst
afkomstig
afkomstige
afkorting
afkortingen
afl
afleggen
afleiden
afleiding
aflevering
afleveringen
afliep
afloop
aflopen
aflopende
aflossing
afmaken
afmeting
afmetingen
afnam
afname
afneemt
afnemen
africa
african
africana
africanus
afrika
afrikaans
afrikaanse
afrikanen
afrit
afro
afronden
afronding
afrotropisch
afschaffen
afschaffing
afscheid
afscheiding
afslag
afsloot
afsluitdijk
afsluiten
afsluitende
afsluiting
afspeelt
afspelen
afsplitsing
afspraak
afspraken
afstaan
afstammeling
afstammelingen
afstammen
afstamming
afstand
afstanden
afstudeerde
afstuderen
aftakking
after
aftiteling
aftocht
aftreden
aftrek
afval
afvalwater
afvoer
afvuren
afwachting
afwatering
afwerking
afwezig
afwezigheid
afwijken
afwijkend
afwijkende
afwijking
afwijkingen
afwijkt
afwijzing
afwisselend
afwisseling
afzet
afzetten
afzetting
afzettingen
afzonderlijk
afzonderlijke
ag
again
against
agassiz
agatha
age
aged
agency
agenda
agent
agenten
agentschap
ages
agglomeratie
agnes
ago
agostini
agovv
agra
agrarisch
agrarische
agreement
agressie
agressief
agressieve
agrippa
agromyzidae
agrypnus
agt
aguilera
agung
agusta
ah
ahead
ahmad
ahmed
ahoy
ai
aid
aids
aime
ain
air
airborne
airbus
aircraft
aire
aires
airlines
airplay
airport
airways
ais
aise
aisne
aivd
aix
aj
ajax
ajs
ak
aka
akademie
akbar
aken
aki
akira
akker
akkerbouw
akkers
akkoord
akkoorden
akoestiek
akoestisch
akoestische
akte
akten
al
ala
alabama
aladdin
alain
alan
aland
alarm
alarmschijf
alaska
alba
albanees
albanese
albanezen
albanie
albany
albatros
albert
alberta
alberti
albertkanaal
alberto
alberts
albertus
albin
albion
albrecht
album
albums
alchemie
alcock
alcohol
alcoholische
alcoholpercentage
aldaar
aldo
aldus
ale
alec
alegre
alejandro
aleksandr
aleksej
aleppo
alert
alessandro
aletta
alex
alexander
alexandra
alexandre
alexandria
alexandrie
alexis
aleyrodidae
aleyrodinae
alf
alfa
alfabet
alfabetisch
alfabetische
alfabetiseringsgraad
alfons
alfonso
alfred
alfredo
algarve
algebra
algebrai
algehele
algemeen
algemeene
algemene
algen
algerije
algerijns
algerijnse
algiers
algoritme
alhoewel
ali
alias
alicante
alice
alicia
alida
alien
aliens
align
alignbars
alinea
alison
alive
alk
alkmaar
all
alla
allah
allan
allard
alle
allebei
alledaagse
alleen
alleenstaande
allegorische
allegretto
allegro
allemaal
allen
aller
allereerst
allereerste
allerhande
allerlaatste
allerlei
alles
alley
allge
allgemeine
alliance
alliantie
allied
allier
allison
allmusic
allround
ally
alma
almanak
almeida
almelo
almere
almeri
almost
alois
alom
alone
along
alonso
alpen
alpes
alpha
alpheidae
alphen
alphonse
alpina
alpine
alpineskie
alpineskiester
als
alsmede
alsnog
also
alsof
alsook
alt
alta
altaar
altaarstuk
altaren
alte
alten
altena
altenburg
alter
alternatief
alternatieve
alternatieven
alternative
althans
althobo
altijd
alto
altona
altsaxofoon
altviolen
altviool
aluminium
alumni
alva
alvarez
alvast
alves
alvin
alvorens
alwaar
always
alweer
alzheimer
alzo
am
ama
amadeus
amalia
amand
amanda
amara
amateur
amateurclub
amateurs
amateurvoetbal
amateurvoetbalclub
amateurvoetbalvereniging
amazing
amazon
amazone
ambacht
ambachtelijke
ambachten
ambachtslieden
ambassade
ambassadeur
ambassadeurs
amber
ambient
ambitie
ambities
ambitieuze
ambo
ambon
ambrose
ambrosius
ambt
ambtelijke
ambten
ambtenaar
ambtenaren
ambtsperiode
ambtstermijn
ambulance
ambulancemedewerker
amc
ame
ameland
amelia
amen
amendement
amer
america
american
americana
americans
amerika
amerikaan
amerikaans
amerikaanse
amerikanen
amerongen
amersfoort
ames
amfibiee
amfitheater
amg
ami
amiens
amiga
amin
aminozuren
amir
amis
ammoniak
amnestie
amnesty
amnh
amon
among
amor
amore
amos
amour
ampe
amper
amphipoda
amro
amsel
amstel
amstelveen
amsterdam
amsterdammer
amsterdammers
amsterdams
amsterdamsche
amsterdamse
amt
amusement
amy
an
ana
analoge
analogie
analoog
analyse
analyseren
analyses
analysis
analytische
anarchist
anarchistische
anastasia
anatoli
anatolie
anatomie
anatomisch
anatomische
anatomy
anc
anchor
ancien
ancienne
ancient
ancona
and
andalusie
andante
ander
andere
anderen
anderhalf
anderhalve
anderlecht
andermaal
anders
andersen
andersom
anderson
andersson
anderszins
anderzijds
andes
andorra
andra
andrade
andre
andrea
andreas
andrei
andrej
andrena
andrenidae
andres
andrew
andrewes
andrews
andries
andriessen
android
andromeda
andrzej
andy
ane
ang
ange
angel
angela
angeles
angelo
angels
angelsaksische
angers
angie
angle
anglia
anglicaanse
anglo
angola
angoule
angry
angst
angus
anhalt
ani
anichtchenko
animal
animals
animated
animatie
animatiefilm
animatieserie
animation
animator
anime
anisoptera
anita
anja
anjou
ankara
anke
anker
ann
anna
annalen
annales
annals
anne
anneke
annelies
annemarie
annette
annex
annexatie
annie
anniversary
anno
annotated
annuaire
annual
anoniem
anonieme
anorganische
another
anouk
anp
ans
ant
antalya
antarctica
antarctische
ante
antenne
antennen
antennes
anthem
anthicidae
anthology
anthomyiidae
anthonie
anthony
anti
antibiotica
antiek
antieke
antigonos
antigua
antillen
antilliaanse
antiochie
antiochus
antisemitische
antisemitisme
anto
antoine
antoinette
anton
antoni
antonia
antonie
antonio
antonius
antonov
antony
antoon
antorbitalis
antropologie
antropoloog
antweb
antwerp
antwerpen
antwerps
antwerpse
antwiki
antwoord
antwoordde
antwoorden
antwoordt
anubis
anwb
any
anything
ao
aos
aosta
aow
ap
apache
apanteles
apart
aparte
apartheid
apeldoorn
apen
apertura
apg
aphelinidae
aphia
aphrodite
aphrophoridae
api
apicalis
apidae
apocalypse
apollo
apostel
apostelen
apostolisch
apostolische
apotheek
apotheker
app
apparaat
apparaten
apparatuur
appartement
appartementen
appartementencomplex
appel
appels
appenzell
appingedam
apple
applicatie
applicaties
application
applied
approach
apps
apr
apre
april
apsis
apulie
aqua
aquaduct
aquarel
aquarellen
aquarium
aquila
aquino
aquitaine
aquitanie
ar
ara
arab
arabie
arabieren
arabisch
arabische
arafat
arago
aragon
araneidae
araneus
arbeid
arbeider
arbeiders
arbeidersbeweging
arbeidersklasse
arbeiderspartij
arbeiderspers
arbeiderswoningen
arbeidsmarkt
arbitrage
arboretum
arc
arcade
arch
archaeology
archaeopteryx
archai
arche
archeologen
archeologie
archeologisch
archeologische
archeoloog
archer
archibald
archie
archief
archieven
archimedes
archipel
architect
architecten
architectenbureau
architectonische
architecture
architectuur
archivaris
archive
archives
arctic
arctiinae
arctische
ard
arde
arden
ardennen
ardennes
are
area
areaal
arena
arenberg
arend
arent
ares
argentijns
argentijnse
argentina
argentinie
argo
argos
argument
argumenten
argus
ari
aria
ariana
ariane
arie
ariel
aristocratie
aristocratische
aristoteles
arizona
arjan
arjen
ark
arkansas
arkel
arles
arm
armada
armadillidae
armand
armando
armata
arme
armed
armee
armeens
armeense
armen
armenie
armin
arminia
armoede
armor
arms
armstrong
army
arn
arnaud
arne
arnhem
arnhemse
arno
arnold
arnoldus
arnulf
arol
aroma
aromatische
aron
around
arp
arrangement
arrangementen
arrangeur
arras
array
arrest
arrestatie
arrestaties
arresteren
arriva
arriveerde
arriveerden
arriveert
arriveren
arrondissement
arrondissementen
arrow
arroyo
ars
arsenaal
arsenal
art
arte
artefacten
artemis
artes
artesie
arthur
arti
article
articles
artiest
artiesten
artiestennaam
artikel
artikelen
artikels
artillerie
artillery
artis
artist
artistiek
artistieke
artists
artois
arts
artsen
artur
arturo
artwork
aruba
as
ascidiacea
asfalt
ash
ashes
ashley
ashmead
ashton
asia
asian
asiel
asielzoekers
asilidae
ask
asp
aspe
aspect
aspecten
aspirant
aspx
ass
assamiidae
assassin
asse
assemblage
assemble
assemblee
assembly
assen
assepoester
asser
assessment
assisi
assist
assistant
assistent
assistente
assistenten
assistentie
assists
associated
associatie
association
assortiment
assyrie
assyrische
astana
asten
asterix
astma
aston
astra
astrid
astrologie
astronaut
astronauten
astronomical
astronomie
astronomische
astronoom
asturie
asylum
asymmetrisch
asymmetrische
at
ata
atalanta
atari
atatu
atelier
ateliers
atheense
athei
athena
athenaeum
athene
atheners
atheneum
athletic
athletics
atjeh
atkins
atkinson
atlanta
atlantic
atlantique
atlantiques
atlantis
atlantisch
atlantische
atlas
atle
atleet
atlete
atleten
atletiek
atletiekvereniging
atmosfeer
atmosferische
atol
atomen
atomic
atoom
atoombom
atp
atrecht
atrium
attack
attelabidae
attila
attractie
attractiepark
attracties
attributen
atyidae
au
aube
aubert
aubin
auch
auckland
aude
audi
audie
audio
auditie
audities
auditorium
audrey
auf
auflage
aug
augsburg
august
augusta
auguste
augustin
augustinus
augusto
augustus
aula
aura
aurea
aurelius
aurivillius
aurora
aus
auschwitz
auspicie
austin
australaziatisch
australia
australian
australie
australis
australisch
australische
australopithecus
austria
autapomorfiee
auteur
auteurs
auteursrecht
authenticiteit
authentiek
authentieke
authority
autisme
auto
autobahn
autobiografie
autobiografisch
autobiografische
autobus
autochtone
autocoureur
autodidact
autofabrikant
automaat
automatisch
automatische
automerk
automobile
autonome
autonomie
autonoom
autoritaire
autoriteit
autoriteiten
autosalon
autosnelweg
autosnelwegen
autosport
autoverkeer
autoweg
autre
autres
autumn
auvergne
aux
auxerre
av
ava
available
avalon
avant
avatar
ave
avec
avengers
avenir
avenue
averbode
avery
avesnes
aveyron
aviation
avibase
avignon
aviv
avon
avond
avonden
avondmaal
avonds
avonturen
avonturenfilm
avontuur
avro
avrotros
aw
award
awards
away
ax
axel
axis
ay
az
azerbeidzjaans
azerbeidzjaanse
azerbeidzjan
aziatisch
aziatische
azie
aziz
azoren
azteekse
azur
azuur
b
ba
baa
baai
baan
baanrecord
baantjer
baanvak
baanwielrennen
baanwielrenner
baard
baarde
baarle
baarn
baas
baat
baba
babe
babel
baby
babylon
babylonie
babylonische
bac
bach
bachelor
back
backer
backgroundcolors
bacon
bacterie
bactrocera
bad
baden
badge
badhuis
badminton
badplaats
baehr
baert
baetidae
bafta
bag
bagage
bagdad
baha
bahama
bahia
bahn
bahnhof
bahrein
bai
bailey
bains
baird
baja
bak
bakel
baker
bakermat
bakken
bakker
bakkerij
bakoe
baksteen
bakstenen
bal
balans
baldwin
balen
bali
balie
baljuw
balk
balkan
balken
balkenende
balkon
balkspiraalstelsel
ball
ballad
ballade
ballads
ballard
ballen
ballerina
ballet
balletten
ballingschap
ballon
balthasar
balthazar
baltimore
baltische
balustrade
baly
bam
bamberg
bamboe
ban
bananen
band
banda
banden
bandleden
bandleider
bandlid
bands
bandung
banen
bang
bangka
bangkok
bangladesh
banjo
bank
bankbiljetten
banken
bankier
banks
banner
banska
bantam
banten
baptist
baptiste
bar
bara
barabas
barack
barakken
barangaysphilippine
barat
barbados
barbara
barbaren
barbarossa
barber
barbuda
barbus
barc
barcelona
barclay
bardata
barend
barendrecht
bari
barincrement
bariton
barker
barman
barmhartigheid
barnard
barnes
barnett
barneveld
barney
barok
barokke
barokstijl
baron
barones
baronie
barr
barra
barre
barrett
barrie
barrow
barry
bars
barset
bart
barth
barthe
bartholomeus
barto
barton
bartsch
baru
bas
basaal
basale
base
baseball
based
baseerde
basel
bases
basgitaar
basgitarist
basic
basie
basil
basilewsky
basilica
basiliek
basin
basis
basisonderwijs
basisplaats
basisscholen
basisschool
basisspeler
baskenland
basket
basketbal
basketball
basketballer
basketbalspeler
basketbalteam
baskisch
baskische
basklarinet
bass
basse
bassie
bassin
bassist
bassler
basso
bast
basten
bastenaken
bastiaan
bastien
bastille
bastion
bastions
bat
bataafse
bataljon
bataljons
batavia
bate
baten
batenburg
bates
bath
batista
batman
baton
batterij
batterijen
battista
battle
batu
bauer
baureihe
bax
baxter
bay
bayer
bayern
bayreuth
bazel
bb
bba
bbc
bc
bd
bdo
be
bea
beach
beachvolleyballer
bean
beantwoord
beantwoorden
bear
bears
beast
beat
beatles
beatrice
beatrix
beats
beatty
beau
beaufort
beaulieu
beaumont
beautiful
beauty
beauvais
beaux
beaver
bebost
beboste
bebouwd
bebouwde
bebouwing
bec
because
bechyne
beck
becker
beckett
becky
bed
bedacht
bedankt
bedankte
bedden
bedding
bede
bedekken
bedekt
bedekte
bedenken
bedenker
bedenkt
bedevaart
bedevaartsoord
bedford
bediend
bediende
bedienden
bedienen
bediening
bedient
bedoeld
bedoelde
bedoeling
bedoelingen
bedoelt
bedraagt
bedrag
bedragen
bedreigd
bedreigde
bedreigen
bedreiging
bedreigingen
bedreven
bedrijf
bedrijfskunde
bedrijfsleven
bedrijfsnaam
bedrijfsvoering
bedrijven
bedrijventerrein
bedrijvigheid
bedroeg
bedroegen
bedrog
bedrogen
beduidend
bedum
bee
beek
beekkevers
beeksteenvliegen
beeld
beeldbank
beelden
beeldend
beeldende
beeldengroep
beeldenpark
beeldenstorm
beeldhouwer
beeldhouwers
beeldhouwkunst
beeldhouwster
beeldhouwwerk
beeldhouwwerken
beeldje
beeldjes
beeldmateriaal
beeldscherm
beeldt
beeldvorming
beeltenis
been
beenderen
beer
beerdiertjes
beernaert
beers
beerschot
beervlinder
beervlinders
beest
beesten
beet
beethoven
beetje
befaamde
before
begaan
begaf
begane
begeleid
begeleidde
begeleiden
begeleidende
begeleider
begeleiding
begeleidt
begeven
begijnhof
begin
beginjaren
beginnen
beginnend
beginnende
beginners
beginning
beginperiode
beginpunt
beginsel
beginselen
begint
begintijd
begon
begonnen
begraafplaats
begraafplaatsen
begrafenis
begraven
begreep
begrensd
begrenzing
begrepen
begrijpen
begrijpt
begrip
begrippen
begroeid
begroeiing
begroting
behaald
behaalde
behaalden
behaalt
behaard
behaarde
behalen
behalve
behandeld
behandelde
behandelen
behandeling
behandelingen
behandelt
behavior
beheer
beheerd
beheerde
beheerder
beheersen
beheersing
beheerst
beheerste
beheert
beheren
behield
behielden
behind
behoeft
behoefte
behoeften
behoeve
behoorde
behoorden
behoorlijk
behoorlijke
behoort
behoren
behorend
behorende
behoud
behouden
behoudens
behoudt
behuizing
behulp
bei
beiaard
beide
beiden
beier
beieren
beierse
beijerland
beijing
being
beiroet
beitra
bejaarde
bek
beke
bekeerd
bekeerde
bekeken
beken
bekend
bekende
bekenden
bekender
bekendere
bekendgemaakt
bekendheid
bekendmaking
bekendst
bekendstaat
bekendste
bekendstond
bekennen
bekent
bekentenis
beker
bekeren
bekerfinale
bekering
bekers
bekertoernooi
bekerwedstrijd
bekerwinnaar
bekijken
bekijkt
bekken
bekkens
bekleden
bekleding
bekleed
bekleedde
beklimmen
beklimming
beklommen
beknopte
bekomen
bekostigen
bekrachtigd
bekrachtiging
bekritiseerd
bekritiseerde
bekroning
bekroond
bekroonde
bekwaam
bel
bela
belachelijk
beladen
beland
belandde
belanden
belandt
belang
belangen
belangrijk
belangrijke
belangrijker
belangrijkste
belangstelling
belast
belasting
belastingdienst
belastingen
belediging
beleefd
beleefde
beleeft
beleend
beleg
belegerd
belegerde
belegeren
belegering
beleggen
beleggers
beleid
beletten
beleven
belevenissen
beleving
belfast
belfort
belg
belge
belgen
belges
belgian
belgica
belgie
belgique
belgisch
belgische
belgium
belgrado
belicht
believe
belize
bell
bella
bellamy
bellan
belle
bellen
belles
bello
bells
belo
belofte
beloften
belokobylskij
beloning
beloofd
beloofde
belooft
beloond
beloven
belt
beluisteren
bemachtigen
bemand
bemande
bemanning
bemanningsleden
bemanningslid
bembidion
bemiddelaar
bemiddeling
bemmel
bemoeien
bemoeilijkt
ben
benaderd
benaderde
benaderen
benadering
benaderingen
benadert
benadrukken
benadrukt
benadrukte
benaming
benamingen
bend
bende
bender
bene
beneden
benedenloop
benedict
benedictus
benelli
benelux
benen
benevento
benfica
bengalen
bengkulu
beni
benin
benito
benjamin
bennett
benno
benny
benodigde
benoemd
benoemde
benoemden
benoemen
benoeming
benoemingen
benoemt
benoi
benoit
benson
bent
bentheim
bentinck
bentley
benton
benut
benutte
benutten
benz
benzine
benzinemotor
beoefend
beoefenen
beoogde
beoordeeld
beoordelen
beoordeling
beoordelingen
beoordelingsjaar
bep
bepaald
bepaalde
bepaalden
bepaalt
bepalen
bepalend
bepaling
bepalingen
beperken
beperking
beperkingen
beperkt
beperkte
bepleitte
ber
berbers
berchem
berecht
bereden
bereid
bereidde
bereiden
bereiding
bereik
bereikbaar
bereikbaarheid
bereiken
bereikt
bereikte
bereikten
berekend
berekende
berekenen
berekening
berekeningen
beren
berend
berg
bergachtig
bergachtige
bergamo
berge
bergen
berger
bergh
berghe
bergketen
bergklassement
bergman
bergpas
bergsma
bergtop
berhaupt
bericht
berichten
berichtgeving
berichtte
beringen
berio
berk
berkel
berkeley
berkshire
berlage
berland
berlijn
berlijnse
berlin
berliner
berlusconi
bermuda
bern
bernadette
bernard
bernardino
bernardo
bernardus
bernd
berner
bernhard
bernie
bernstein
beroemd
beroemde
beroemdheden
beroemdste
beroep
beroepen
beroepsbevolking
beroepshalve
beroepsonderwijs
beroerte
beroofd
berouw
berry
bert
bertens
bertha
berthold
bertrand
bertus
berucht
beruchte
berust
berusten
bes
besanc
besar
beschadigd
beschadigde
beschadigen
beschadiging
beschadigingen
beschaving
beschavingen
bescheiden
beschermd
beschermde
beschermen
beschermende
beschermer
beschermheer
beschermheilige
bescherming
beschermingsstatus
beschermt
beschietingen
beschikbaar
beschikbaarheid
beschikbare
beschikken
beschikking
beschikt
beschikte
beschikten
beschilderd
beschilderde
beschoren
beschoten
beschouwd
beschouwde
beschouwden
beschouwen
beschouwing
beschouwingen
beschouwt
beschreef
beschreven
beschrijft
beschrijven
beschrijvers
beschrijving
beschrijvingen
beschuldigd
beschuldigde
beschuldigden
beschuldiging
beschuldigingen
beschuldigt
besef
beseffen
beseft
besefte
beslaan
beslaat
beslag
beslecht
beslissen
beslissend
beslissende
beslissing
beslissingen
beslissingswedstrijd
beslist
besliste
besloeg
besloot
besloten
besluit
besluiten
besluitvorming
besmet
besmette
besmettelijke
besmetting
besmettingen
besparen
bespeeld
bespeelde
bespelen
besprak
bespreekt
bespreken
bespreking
besprekingen
besproken
bessen
best
bestaan
bestaand
bestaande
bestaat
bestand
bestanddeel
bestanddeelnr
bestanddelen
bestanden
beste
besteden
besteed
besteedde
besteeg
besteld
bestelde
bestellen
bestelling
bestemd
bestemming
bestemmingen
bestemmingsplan
bestempeld
besten
bestond
bestonden
bestorming
bestraft
bestreden
bestrijden
bestrijding
bestseller
bestudeerd
bestudeerde
bestudeert
bestuderen
bestudering
besturen
besturing
besturingssysteem
besturingssystemen
bestuur
bestuurd
bestuurde
bestuurder
bestuurders
bestuurlijk
bestuurlijke
bestuurslaag
bestuursleden
bestuurslid
bestuursorgaan
bestuursrecht
bestuursvoorzitter
bestuurt
bestverkochte
bet
beta
betaald
betaalde
betaalden
betaalt
betalen
betaling
betalingen
betekende
betekenen
betekenis
betekenissen
betekent
beter
betere
beth
bethlehem
bethune
beton
betonnen
betoogde
betrapt
betreden
betreffen
betreffende
betreft
betrekkelijk
betrekken
betrekking
betrekkingen
betreuren
betrof
betrok
betrokken
betrokkene
betrokkenen
betrokkenheid
betrouwbaar
betrouwbaarheid
betrouwbare
betsy
bette
better
betty
betuwe
between
betwist
beuk
beuken
beul
beuningen
beurs
beurt
beurzen
bevaarbaar
beval
bevalling
bevat
bevatte
bevatten
bevechten
beveelt
beveiligd
beveiliging
bevel
beveland
bevelen
bevelhebber
bevelhebbers
bever
beveren
beverly
beverwijk
bevestigd
bevestigde
bevestigen
bevestiging
bevestigt
beviel
bevinden
bevindingen
bevindt
bevoegd
bevoegde
bevoegdheden
bevoegdheid
bevolen
bevolking
bevolkingsaantal
bevolkingsdichtheid
bevolkingsgroei
bevolkingsgroep
bevolkingsgroepen
bevolkingsontwikkeling
bevolkt
bevond
bevonden
bevoorrading
bevorderd
bevorderde
bevorderen
bevordering
bevordert
bevriend
bevriende
bevrijd
bevrijden
bevrijding
bevroren
bevruchting
bewaakt
bewaard
bewaarde
bewaart
bewaken
bewaker
bewakers
bewaking
bewapend
bewapende
bewapening
bewaren
bewaring
beweegbare
beweegt
beweerd
beweerde
beweerden
beweert
bewees
bewegen
bewegende
beweging
bewegingen
beweren
bewering
beweringen
bewerken
bewerking
bewerkingen
bewerkstelligen
bewerkt
bewerkte
bewezen
bewijs
bewijsmateriaal
bewijst
bewijzen
bewind
bewogen
bewonderaar
bewonderde
bewonderen
bewondering
bewoner
bewoners
bewoning
bewoog
bewoond
bewoonde
bewust
bewuste
bewusteloos
bewustzijn
bey
beyer
beyonce
beyond
bezat
bezaten
bezet
bezeten
bezette
bezetten
bezetter
bezetters
bezetting
bezichtigen
bezien
bezienswaardigheden
bezig
bezige
bezigheden
bezighield
bezighouden
bezighoudt
bezirksliga
bezit
bezitten
bezittingen
bezocht
bezochte
bezochten
bezoek
bezoeken
bezoeker
bezoekers
bezoekerscentrum
bezoekt
bezorgd
bezorgde
bezorgdheid
bezorgen
bezuinigingen
bezwaar
bezwaren
bf
bfc
bh
bhutan
bi
bianca
bianchi
biatleet
biatlon
bible
bibliografie
biblioteca
bibliothe
bibliotheca
bibliothecaris
bibliotheek
bibliotheken
bicolor
bid
bidden
biden
bie
biecht
bieden
biedt
biekorf
biel
bielefeld
bien
bier
bierbrouwerij
biercultuur
bieren
bierfirma
biermerk
bies
biesbosch
biezen
big
bigband
bij
bijbehorende
bijbel
bijbels
bijbelse
bijbelvertaling
bijdrage
bijdragen
bijeen
bijeenkomst
bijeenkomsten
bijen
bijenkorf
bijgaand
bijgebouwd
bijgebouwen
bijgedragen
bijgehouden
bijgeloof
bijgenaamd
bijgestaan
bijgevolg
bijgewerkt
bijgewoond
bijgezet
bijhorende
bijhouden
bijkomend
bijkomende
bijl
bijlage
bijleveld
bijlmer
bijna
bijnaam
bijnamen
bijrol
bijrollen
bijstaan
bijstand
bijt
bijten
bijv
bijval
bijvoeglijk
bijvoorbeeld
bijwagens
bijwerkingen
bijwonen
bijzijn
bijzonder
bijzondere
bijzonderheden
bijzonderheid
bike
biland
bilbao
bild
bill
billboard
billie
billion
billy
bilt
bilthoven
bilzen
bin
binaire
binden
bindend
bindende
binding
bindingen
bindt
bing
bingen
binnen
binnengehaald
binnengevallen
binnenhof
binnenin
binnenkant
binnenkort
binnenland
binnenlands
binnenlandse
binnenplaats
binnenstad
binnenste
binnenvaart
binnenwerk
binnenzijde
bio
biochemicus
biodiversiteit
biodiversity
biograaf
biografie
biografiee
biografisch
biografische
biographical
biographie
biography
biological
biologie
biologisch
biologische
biology
bioloog
biomassa
bioscoop
bioscoopfilm
bioscopen
biotoop
bird
birdlife
birds
birma
birmingham
birth
birthday
bis
bisch
bische
bisdom
bisdommen
bishop
bislett
bismarck
bissau
bisschop
bisschoppelijk
bisschoppelijke
bisschoppen
bisschopswijding
bit
bits
bitter
bittere
bizarre
bjo
bk
bl
bla
blaadjes
blaasinstrumenten
blaaskwintet
blaast
black
blackadder
blackburn
blackpool
blackwell
blad
blade
bladen
bladeren
bladkevers
bladmuziek
bladrolkevers
bladrollers
bladsprietkevers
bladwespen
bladzijde
bladzijden
blair
blake
blanc
blanca
blanchard
blanche
blanco
blank
blanke
blanken
blankenberge
blaricum
blasmusikverlag
blasmusikwesens
blast
blauw
blauwe
blavatsky
blazen
blazers
blazoenering
ble
bleacher
bleef
bleek
bleeker
bleke
bleken
blerick
blessure
blessures
blessuretijd
bleu
bleven
blies
blij
blijde
blijf
blijft
blijk
blijkbaar
blijken
blijkens
blijkt
blijven
blijvend
blijvende
blik
blikken
bliksem
blind
blinde
blitz
bloch
block
bloed
bloedbad
bloedcellen
bloeddruk
bloeddrupjes
bloedige
bloedvaten
bloei
bloeide
bloeien
bloeiende
bloeiperiode
bloeit
bloeitijd
bloeiwijze
bloem
bloemdieren
bloemen
bloemendaal
bloemkevers
bloemlezing
bloemspartelkevers
bloemvliegen
blog
blois
blok
blokfluit
blokjes
blokkade
blokken
blokkeren
blom
blond
blonde
blood
bloody
bloom
bloot
blootgelegd
blootgesteld
blootstelling
blote
blow
blu
blue
bluegrass
blues
blvd
blz
bm
bmatrix
bmc
bmg
bmw
bmx
bn
bner
bnn
bnnvara
bnp
bo
boa
board
boat
bob
bobby
bobsleee
boca
bochelvliegen
bocholt
bocht
bochten
bochum
bock
bod
bode
bodegraven
bodem
bodemgebruik
bodemjachtspinnen
bodems
boden
body
boe
boeck
boedapest
boeddha
boeddhisme
boeddhistische
boef
boeg
boeien
boeing
boek
boekarest
boeken
boekenreeks
boekhandel
boekhouder
boekhouding
boekje
boekjes
boekte
boekten
boekverfilming
boekvorm
boel
boer
boerderij
boerderijen
boeren
boerenoorlog
boete
boetes
boettger
boeven
boezem
bogaert
bogaerts
bogen
bogor
bogota
boheemse
boheman
bohemen
bohn
boijmans
bois
boisduval
bok
boksen
bokser
boktorren
bol
bold
bolesław
boli
bolivia
boliviaanse
bolle
bollen
bologna
bolsjewieken
bolsward
bolt
bolton
bolvormig
bolvormige
bolwerk
bom
bomaanslag
bomans
bomb
bombardement
bombardementen
bombarderen
bombardier
bombay
bombyliidae
bomen
bommel
bommen
bommenwerper
bommenwerpers
bon
bonaire
bonaparte
bond
bonden
bondgenoot
bondgenootschap
bondgenoten
bondscoach
bondsdag
bondskanselier
bondspresident
bondsraad
bondsrepubliek
bone
bonen
bones
bongo
bonifatius
bonn
bonne
bonnet
bonnie
bont
bonte
bonus
bonustracks
boo
bood
boodschap
boodschappen
boodschapper
boog
boogie
boogschieten
boogschutter
book
booker
books
boom
boomen
boomgaard
boon
boone
boonen
boord
boorkevers
boorvliegen
boos
booster
boot
booth
bootje
boots
bopyridae
bor
bora
borculo
bord
bordeaux
borden
border
borealis
boren
borg
borger
borgerhout
borgmeier
boring
boris
born
borne
bornem
borneo
bornholm
borough
borsato
borst
borstbeeld
borstbeen
borstelsteenvliegen
borstelworm
borsten
borstkanker
borstkas
borststuk
borussia
bos
bosbouw
bosch
bosco
bosgebied
bosman
bosmans
bosnie
bosnisch
bosnische
boss
bossche
bossen
boston
bot
botafogo
botanic
botanical
botanicus
botanische
boten
boter
both
botnische
botsing
botsingen
botste
botswana
botten
bottom
boucek
bouchet
boudewijn
bouillon
boulder
boulenger
boulevard
boulogne
bouman
bourbon
bourg
bourgeois
bourgeoisie
bourges
bourgogne
bourgondie
bourgondische
bourne
bournemouth
bout
bouterse
bouvier
bouw
bouwde
bouwden
bouwen
bouwer
bouwers
bouwjaar
bouwkunde
bouwkundig
bouwkundige
bouwkunst
bouwlagen
bouwman
bouwmateriaal
bouwmaterialen
bouwmeester
bouwstijl
bouwt
bouwwerk
bouwwerken
boven
bovenaan
bovenaanzicht
bovenaf
bovenal
bovenbouw
bovendien
bovengenoemde
bovengronds
bovengrondse
bovenkaak
bovenkaaksbeen
bovenkant
bovenleiding
bovenliggende
bovenloop
bovennatuurlijke
bovenop
bovenrand
bovenstaande
bovenste
bovenverdieping
bovenvlak
bovenzijde
bow
bowie
bowl
box
boxmeer
boxshall
boxtel
boy
boycot
boyd
boyer
boyko
boyle
boys
boz
boze
bp
br
bra
braak
braam
brabant
brabants
brabantse
brache
bracht
brachten
brachycera
bracon
braconidae
brad
bradford
bradley
brady
braga
bragg
brahms
brain
brak
brakel
braken
bram
branch
branco
brand
branda
brandde
branden
brandenburg
brandende
brandon
brands
brandstapel
brandstof
brandstoffen
brandt
brandweer
brant
bras
brasil
brasiliensis
brass
brassband
brasschaat
brasserie
bratislava
braun
braunschweig
brave
bravo
bray
brazil
braziliaan
braziliaans
braziliaanse
brazilianen
brazilie
brazzaville
bre
break
breakfast
breaking
brecht
breda
bredase
brede
breder
bredere
brederode
bredevoort
bree
breed
breedte
breedtegraad
breekt
breidde
breiden
breidt
brein
breisgau
breken
brel
bremen
bremer
bremerhaven
brenda
brendan
breng
brengen
brengt
brennan
brent
bres
brescia
brescovit
breslau
brest
bretagne
breton
brett
breuk
breukelen
breuken
breuning
brevis
brexit
brian
bride
bridge
bridges
bridget
brie
brief
briefje
briefwisseling
brielle
brien
brieven
brigade
brigadegeneraal
brigades
brigadier
briggs
bright
brighton
brigitte
bril
brill
bring
brink
brinkman
brisbane
bristol
brit
britain
britannia
britannica
british
britney
brits
britse
britt
brittannie
britten
brno
bro
broadcasting
broadway
broch
brochure
brock
brod
broeck
broeden
broeder
broeders
broederschap
broedt
broek
broer
broers
broertje
broken
brokken
brom
bromfietsen
bron
bronckhorst
broncode
bronnen
brons
bronstijd
bronswespen
bronvermelding
bronx
bronze
bronzen
brood
brook
brooke
brooklyn
brooks
broom
broos
bros
brother
brotherhood
brothers
broun
brouwen
brouwer
brouwerij
brouwerijen
brouwers
brown
browne
browning
browser
brt
bru
bruce
bruegel
brues
brug
bruges
brugge
bruggen
bruggenhoofd
brugs
brugse
bruguie
bruid
bruidegom
bruidsschat
bruijn
bruikbaar
bruikbare
bruikleen
bruiloft
bruin
bruine
bruins
brulle
bruna
brunei
bruner
brunner
bruno
brunssum
brunswick
brunswijk
brussel
brussels
brusselse
brute
bruto
brutoformule
brutus
bruxelles
bruyn
bruyne
bryan
bryant
bryozoa
bs
bsa
bsc
bsg
bsp
bt
btw
bu
buccinidae
buch
buchanan
buck
buckingham
buckinghamshire
buckley
bud
budapest
buddy
budget
buenos
buffalo
bug
buigen
buiging
buigt
buik
buikzijde
build
building
buis
buisspinnen
buit
buiten
buitenaardse
buitenaf
buitenechtelijke
buitengebied
buitengewone
buitengewoon
buitenkant
buitenland
buitenlanders
buitenlands
buitenlandse
buitenplaats
buitenste
buitenverblijf
buitenwereld
buitenwijk
buitenwijken
buitenzijde
buizen
bul
bulgaars
bulgaarse
bulgaren
bulgarije
bull
bulle
bullet
bulletin
bullock
bult
buma
bun
bundel
bundeling
bundels
bundesliga
bundesstraße
bunker
bunkers
bunny
burchard
burcht
bureau
buren
burg
burgemeester
burgemeesters
burgemeesterschap
burgenland
burger
burgerbevolking
burgerij
burgerlijk
burgerlijke
burgeroorlog
burgerrechten
burgers
burgess
burggraaf
burgh
burgos
burke
burkina
burmeister
burn
burnett
burning
burns
bursa
burt
burton
burundi
bury
bus
busbaan
busch
bush
business
busk
buskruit
buslijn
buslijnen
bussen
busstation
bussum
buste
buster
busvervoer
but
butch
butler
butterfly
button
buuren
buurgemeente
buurland
buurlanden
buurman
buurt
buurtbewoners
buurten
buurtschap
buurtschappen
buurvrouw
buy
buys
buzz
bv
bw
bwp
bwv
by
bye
byrd
byrne
byron
bystrica
byzantijnen
byzantijns
byzantijnse
byzantium
bzn
c
ca
cab
cabaret
cabaretier
cabine
cable
cabriolet
cacao
cadeau
cadet
cadillac
caecilia
caen
caesar
caesarea
caf
cafe
cage
cagliari
cahiers
cai
cain
cairns
cairo
cake
cal
calabrie
calais
calcio
calcium
calciumcarbonaat
calcutta
caldwell
caledonie
calgary
cali
california
californie
californische
caligidae
caligula
call
called
calling
calliostoma
calvados
calvert
calvijn
calvin
calvinisten
calvinistische
cam
cambodja
cambridge
cambridgeshire
cambuur
camden
came
cameo
camera
cameraman
cameron
camilla
camille
camp
campagne
campagnes
campaign
campanie
campbell
campeonato
camping
campo
camponotus
campos
campus
can
canada
canadees
canadensis
canadese
canadezen
canadian
canal
canarische
canberra
cancer
cande
candy
cannabis
cannes
cannon
canon
cantate
cantates
canterbury
cantharidae
canthocamptidae
canto
cantor
canu
canvas
canyon
cao
cap
capaciteit
capaciteiten
cape
capella
capelle
capensis
capital
capitol
capitool
capitulatie
capo
caporiacco
capra
capriccio
caprice
capsule
captain
car
cara
carabidae
carabus
caracas
carai
caravan
carbon
carboon
carburateur
carcassonne
card
cardiff
care
career
carel
carex
carey
cargo
caribbean
caribisch
caribische
carillon
carl
carla
carlin
carlisle
carlo
carlos
carlton
carly
carmen
carmiggelt
carnaval
carnegie
carnival
carnivoor
caro
carol
carolina
caroline
carolus
carpenter
carr
carre
carrera
carrie
carrier
carroll
carrosserie
carry
cars
carson
cartagena
carter
carthaagse
carthagers
carthago
cartman
cartograaf
cartoon
cartoonist
cartoons
carvalho
cas
casa
casablanca
casanova
cascade
case
cases
casey
cash
casimir
casino
caspar
casper
cass
cassandra
cassatie
cassette
cassidy
cassius
cast
castel
castello
castellum
castelnau
castilie
castillo
casting
castle
castricum
castro
cat
catalaans
catalaanse
catalog
catalogue
catalogus
catalonie
catalunya
catania
catarina
catch
cate
catechismus
categorie
categoriee
catharina
cathe
cathedral
catherine
catholic
catholique
cathy
cato
cats
cause
cavalerie
cave
cavendish
cb
cbs
cc
ccc
cd
cda
cdh
cdot
cdu
ce
ceara
cebu
cecidomyiidae
cecil
cecilia
cedar
cees
cel
celebes
celebration
cell
celle
cellen
celli
cellist
cello
celsius
celstraf
celtic
cement
cemetery
cena
census
censuur
cent
centaur
center
centimeter
centra
centraal
central
centrale
centrales
centre
centro
centrum
century
ceo
cerambycidae
ceratopogonidae
cercle
cercopidae
ceremonie
ceres
cerf
cerithiopsidae
cerithium
cerro
certificaat
ces
cesar
cesare
cessna
cestoda
ceylon
cf
ch
cha
chad
chaetonotus
chain
chair
chalcididae
challenge
challenger
chalon
chamber
chamberlain
chamberlin
chambers
chambre
champ
champagne
champion
champions
championship
championships
champs
chan
chance
chandler
chang
change
changes
changing
channel
chanson
chansons
chant
chantal
chao
chaos
chaotische
chapel
chapelle
chaplin
chapman
chapter
char
characidae
character
charente
charge
charity
charkov
charleroi
charles
charleston
charley
charlie
charlotte
charlton
charly
chart
charter
chartres
charts
chase
chasse
chassis
chat
chateau
chaucer
chaudoir
chauffeur
che
check
checklist
chef
chelsea
chem
chemical
chemicalie
chemicus
chemie
chemin
chemins
chemisch
chemische
chemistry
chemnitz
chemsak
chen
cheng
cher
cherbourg
cherokee
cherry
cheryl
cheshire
chess
chester
chet
chevalier
chevrolat
chevrolet
chevrons
chez
chi
chiang
chiba
chicago
chick
chicken
chickering
chico
chief
chiesa
child
children
chile
chileens
chileense
chili
chimay
chin
china
chinees
chinensis
chinese
chinezen
ching
chip
chipkaart
chips
chironomidae
chirurg
chirurgie
chirurgische
chlaenius
chloe
chloor
chloride
cho
chocolade
chocolate
choi
choice
choir
cholera
chopard
chopin
choral
chords
choreograaf
choreografie
chorus
chr
chre
chris
christ
christa
christelijk
christelijke
christen
christendemocraten
christendemocratische
christendom
christenen
christensen
christenunie
christi
christiaan
christian
christiane
christie
christina
christine
christmas
christoffel
christoph
christophe
christopher
christus
christy
chromosomen
chromosoom
chronicle
chronicles
chronische
chronologie
chronologisch
chronologische
chroom
chrysler
chrysomelidae
chrysopidae
chu
chuck
chun
chung
church
churchill
ci
cia
cicero
cichlidae
cichliden
cie
cijfer
cijfers
cile
cilinder
cilinderinhoud
cilinderkop
cilinders
cilindrisch
cilindrische
cincinnati
cindy
cine
cineast
cinema
cinematic
cinq
cio
circ
circa
circle
circuit
circuito
circuits
circulatie
circus
cirkel
cirkels
cirkelvormige
cirolanidae
cirri
cis
cistercie
citaat
citadel
citaten
cite
cities
citizen
citroe
citroen
citta
city
ciudad
civiel
civiele
civil
cj
ck
cke
cken
cker
cl
cla
clade
claes
claeys
claim
claimde
claims
clair
claire
clan
clancy
clans
clapton
clara
clare
clarence
clark
clarke
clarkson
clash
class
classic
classical
classicistische
classics
classificatie
classification
clathria
claude
claudia
claudio
claudius
claus
clausilia
clausiliidae
clausule
clausura
clay
clayton
cle
clean
clear
clemens
clement
cleo
cleopatra
clerck
clercq
clermont
clerus
cleveland
clie
client
cliff
clifford
clifton
clijsters
climate
climax
clinical
clint
clinton
clio
clip
clive
clock
close
closer
cloud
clouseau
clovis
clown
club
clubcarrie
clube
clubgeschiedenis
clubhuis
clubiona
clubkleuren
clubnaam
clubs
clubstatistieken
clubteams
clubvoetbal
cluj
cluster
clusters
clyde
cm
cn
cnn
cnt
co
coa
coach
coaches
coalitie
coast
coaster
coat
cobar
cobb
cobra
coburg
coc
coca
cocai
cock
cockerell
cockpit
cocktail
coco
coda
code
codenaam
codering
codes
codex
cody
coe
coelioxys
coen
coenagrionidae
coenen
coenraad
coeur
coevorden
coffee
cofidis
cognackevers
cognitieve
cohen
coimbra
col
cola
colbert
cold
cole
coleman
coleophora
coleophoridae
coleoptera
colette
colijn
colin
coll
collaborateur
collaboratie
colle
collected
collectie
collectief
collecties
collectieve
collection
collections
collective
collector
collega
college
colleges
collegiale
collegium
collenette
colletes
colletidae
collier
collin
collins
colo
colombia
colombiaans
colombiaanse
colombo
colonel
colonia
colonial
colonne
color
colorado
colors
colour
colt
coltrane
columbellidae
columbia
columbus
column
columnist
columns
com
coma
comarca
combat
combinatie
combinaties
combineerde
combineert
combineren
combo
come
comeback
comedy
comes
comet
comfort
comic
comics
coming
comitaat
comite
command
commandant
commandanten
commander
commanderij
commandeur
commando
comme
commentaar
commentaren
commentator
commerce
commercial
commercie
commercieel
commissaris
commissarissen
commissie
commissies
commission
committee
commodore
common
commons
commonwealth
commotie
communal
commune
communes
communicatie
communication
communications
communiceren
communisme
communist
communisten
communistisch
communistische
community
como
compact
compacte
compagnie
compagniee
companion
company
comparative
compatibel
compensatie
compenseren
competitie
competitiedebuut
competitieduels
competitieresultaten
competities
competitievoetbal
competitiewedstrijd
competitiewedstrijden
competition
compilatie
compilatiealbum
compilaties
compleet
complete
complex
complexe
complexen
complexiteit
complicaties
complot
componeerde
component
componenten
componeren
componist
componiste
componisten
composer
composers
compositie
composities
composition
compressie
compressor
compromis
comptes
compton
computer
computerprogramma
computers
computerspel
computerspellen
comte
comune
con
conan
concacaf
concentratie
concentratiekamp
concentratiekampen
concentraties
concentreerde
concentreren
concept
concepten
concern
concert
concertante
concerten
concertgebouw
concertgebouworkest
concertino
concerto
concertzaal
concessie
concessies
concie
concilie
conclaaf
concludeerde
concludeert
conclusie
conclusies
concord
concordia
concours
concreet
concrete
concurrent
concurrenten
concurrentie
concurreren
concurrerende
conde
conditie
condities
condor
conduct
confederatie
confederations
conference
conferentie
conferenties
configuratie
conflict
conflicten
conform
confrontatie
confrontaties
congo
congolese
congregatie
congres
congress
congressen
coninc
coninck
conmebol
connecticut
connectie
connecties
connection
connexxion
connie
connor
conny
conquest
conrad
conscience
conseil
consensus
consequent
consequenties
conservatief
conservatieve
conservatieven
conservation
conservative
conservatoire
conservator
conservatorium
consistorie
console
consortium
constance
constant
constante
constantijn
constantin
constantine
constantinopel
constantius
constitutie
constitution
constitutionele
constructeur
constructeurs
constructie
constructies
construction
consul
consulaat
consument
consumenten
consumptie
contact
contacten
contador
container
containers
conte
contemporaine
contemporary
content
contest
context
conti
continent
continentaal
continental
continentale
continenten
continu
continue
continui
continuo
contouren
contra
contrabas
contrabassen
contract
contracten
contrapunt
contrast
contre
control
controle
controleert
controleren
controller
controverse
controversie
controversieel
conus
convectie
convent
conventie
conventies
convention
conventionele
conway
coo
cook
cooke
cool
cools
coomans
cooper
cop
copa
cope
copepoda
coppa
coppens
coproductie
coquillett
cor
cora
coral
cordillera
core
corey
corinthians
cork
corneille
cornelia
cornelis
cornelisz
cornelius
cornell
corner
cornet
cornwall
corona
coronacrisis
coronapandemie
coronavirus
corporate
corporation
corps
corpus
corre
correct
correcte
correctie
correspondent
correspondentie
corridor
corrupte
corruptie
corry
corse
corsica
corso
corte
cortex
corun
cos
cosmetica
cosmetidae
cosmic
cosmopterigidae
cosmos
cossidae
costa
costello
coster
cot
cottage
cotton
could
council
count
countries
country
countryzanger
county
coup
coupe
couperus
couplet
cour
courage
courant
coureur
coureurs
cours
course
court
courtenay
courthouse
courtney
cousins
cove
coventry
cover
covers
covid
cowboy
cowboys
cox
cp
cpn
cr
cradle
craig
crambidae
cramer
crane
crash
crashte
crassus
crawford
crazy
cre
cream
creatie
creatief
creatieve
creation
creative
creativiteit
credit
credits
cree
creed
creek
crematogaster
cresson
cretaceous
crew
cricetidae
cricket
crime
crimes
criminal
criminaliteit
crimineel
criminele
criminelen
crimson
crisis
crista
cristian
cristiano
cristina
cristo
criteria
criterium
critical
critici
critics
criticus
critique
croce
crocidura
croix
cromwell
cropped
crosby
cross
crossing
crow
crown
croy
cru
cruciaal
cruciale
cruijff
cruise
crustaceans
cruz
cry
crypte
crystal
cs
csa
csi
cska
csu
ct
ctenus
ctor
cu
cuba
cubaans
cubaanse
cube
cuenca
cuijk
culemborg
culex
culicidae
cullen
cult
cultfilm
cultural
culture
cultureel
culturele
culturen
cultus
cultuur
cultuurhistorisch
cultuurhistorische
cultuurraad
cum
cumacea
cumberland
cumbria
cummings
cunha
cunningham
cup
cupido
cups
curac
curator
cure
curie
curling
curran
current
curriculum
currie
curry
curse
cursief
cursus
cursussen
curtis
curve
custom
cut
cuvier
cuypers
cv
cvp
cwgc
cy
cycle
cycling
cyclische
cyclocross
cycloon
cyclopidae
cyclops
cyclus
cynthia
cyprinidae
cypriotische
cyprus
cyriel
cyril
cyrillisch
cyrus
cytheruridae
cz
cœur
d
da
daad
daadwerkelijk
daadwerkelijke
daagde
daags
daalde
daalt
daan
daar
daaraan
daarachter
daarbij
daarbinnen
daarboven
daarbuiten
daardoor
daarenboven
daarentegen
daarheen
daarin
daarmee
daarna
daarnaast
daarom
daaromheen
daaronder
daarop
daaropvolgend
daaropvolgende
daarover
daartegen
daartoe
daartussen
daaruit
daarvan
daarvoor
dachau
dacht
dachten
dad
dada
daddy
dadelijk
daden
dader
daders
daer
daf
dag
dagblad
dagbladen
dagboek
dagboeken
dage
dagelijks
dagelijkse
dagen
dageraad
daglicht
dagobert
dahl
dai
daily
daimler
daisy
dak
dakar
daken
dakota
dakpannen
dakruiter
dal
dalai
dale
dalen
dalende
dalfsen
dali
daling
dall
dalla
dallas
dalmatie
dalton
daly
dam
damascus
dambordvliegen
dame
damen
dames
damesteam
damian
damien
damloop
damme
dammen
damon
dampierre
dan
dana
danainae
dance
dances
dancing
dane
danger
dangerous
dani
danie
daniel
daniela
daniele
danielle
daniels
danilo
dank
dankbaar
dankbaarheid
danken
dankt
dankzij
danny
dans
danse
dansen
danser
danseres
dansers
dansmuggen
danst
dansvliegen
dante
danzig
daphne
dapper
dappere
dapperheid
dar
dare
darfur
dario
darius
dark
darkness
darkride
darling
darlington
darm
darmbeen
darmen
darmstadt
darren
dart
darter
darth
darts
darwin
daryl
das
dasch
dash
dashboard
dat
data
databank
database
date
dateerde
dateert
dateformat
dateren
daterend
daterende
datering
datgene
datum
datzelfde
daughter
dauphin
dauphine
dautzenberg
dave
davenport
daverende
david
davide
davids
davidsfonds
davidson
davie
davies
davis
davy
dawn
dawson
day
days
dayton
daytona
dazen
db
dbnl
dc
dchen
dcm
dd
ddd
ddr
de
dead
deadline
deadly
deal
dean
dear
death
debat
debatten
debbie
debiet
deborah
debussy
debutant
debutanten
debuteerde
debuteren
debuut
debuutalbum
debuutsingle
dec
decaan
decca
december
decennia
decennialang
decennium
deck
decker
deco
decor
decoratie
decoraties
decoratieve
decors
decreet
decreten
deden
dee
deed
deel
deelde
deelden
deelen
deelgebied
deelgebieden
deelgemeente
deelgemeenten
deelgenomen
deelnam
deelname
deelnamen
deelnames
deelneemster
deelneemsters
deelneemt
deelnemen
deelnemende
deelnemer
deelnemers
deels
deelstaat
deelstaten
deelt
deeltje
deeltjes
deelverzameling
deen
deens
deense
deep
deer
deerlijk
dees
deeze
def
defect
defence
defense
defensie
defensieve
definie
definieert
definitie
definitief
definities
definitieve
degelijk
degen
degene
degenen
degli
degradatie
degradeerde
degradeerden
degradeert
degraderen
dei
deinze
dejean
dek
deken
dekenaat
dekken
dekker
dekkers
dekking
deksel
del
delaware
delden
dele
delegatie
delen
delfland
delft
delftse
delfzijl
delgado
delhi
delias
delict
deling
dell
della
delle
delpher
delphi
delta
deltopectorale
deluxe
delven
dem
demetrius
demi
demo
democraat
democracy
democraten
democratic
democratie
democratisch
democratische
demografie
demografische
demon
demonen
demonstranten
demonstratie
demonstraties
demonstreren
demospongiae
demping
den
dender
dendermonde
dendronephthya
dendy
denemarken
denen
denis
denise
denk
denkbeelden
denkbeeldige
denken
denker
denkers
denkt
denlijsten
denmark
dennis
denny
dentarium
dentificeerd
dentificeerde
denver
denys
deo
departement
departementen
department
deportatie
deportivo
depot
depressie
depressies
deprez
der
derby
derbyshire
derde
derden
deredactie
derek
dergelijk
dergelijke
derhalve
derk
derksen
dermate
dermestidae
derrick
dertien
dertiende
dertig
dertigjarige
dertigste
des
desalniettemin
desbetreffende
descamps
descartes
described
description
descriptions
dese
desert
deshayes
desi
design
designated
designer
desire
deskundige
deskundigen
desmet
desmond
desondanks
desperate
dessau
dessel
destijds
destiny
destruction
det
detachement
detail
details
detecteren
detective
detroit
deugd
deugden
deur
deuren
deurne
deus
deutsch
deutsche
deutschen
deutscher
deutsches
deutschland
deutschlands
deuve
deux
development
deventer
devil
devils
devon
devoon
devos
devotie
dewelke
dewey
dexter
deze
dezelfde
dezelve
dezen
dezer
dfb
dh
dhabi
dharma
dhr
di
dia
diabetes
diablo
diagnose
diagonaal
diagram
diaken
diakonoff
dialect
dialecten
dialogen
dialoog
diamant
diamanten
diameter
diamond
diamonds
diana
diane
diapheromeridae
diapriidae
diaptomidae
diarree
diary
dias
diaspora
diaz
dich
dicht
dichtbij
dichtbundel
dichte
dichten
dichter
dichterbij
dichteres
dichters
dichtheid
dichtkunst
dichtst
dichtstbijzijnde
dick
dickens
dickinson
dicranomyia
dictator
dictatuur
dictionary
dictionnaire
did
didemnidae
didier
die
died
diederik
dieet
dief
diefstal
diegene
diegenen
diego
diemen
dien
dienaar
dienaren
diende
dienden
dienen
diens
dienst
dienstdeed
dienste
diensten
dienstensector
dienstgedaan
dienstplicht
dienstregeling
diensttijd
dienstverlening
dient
diep
diepe
dieper
diepere
diepgang
dieppe
diepste
diepte
dieptepunt
dier
dieren
dierentuin
dierlijke
diersoort
diersoorten
diertje
dies
diesel
dieselmotor
dieselmotoren
diest
dieter
dietrich
dietz
dieu
dieven
diezelfde
different
digd
digitaal
digital
digitale
dijbeen
dijck
dijk
dijken
dijkgraaf
dijkstra
dijle
dijon
dik
dikke
dikker
dikkopjes
dikkopmotten
diksmuide
dikte
dikwijls
dilemma
dillenburg
dillon
dimensie
dimensies
dimension
dimitri
din
dina
dinamo
dinant
diner
ding
dingen
dinner
dino
dinosaur
dinosauria
dinosaurie
dinosaurs
dinsdag
dio
diocletianus
diogenes
dion
dionysius
dios
diploma
diplomaat
diplomaten
diplomatie
diplomatiek
diplomatieke
diptera
dir
dirck
dire
direct
directe
directeur
directeuren
directie
direction
director
directory
directrice
dirigeerde
dirigent
dirigenten
dirk
dirty
dis
disaster
disc
discipelen
discipline
disciplines
disco
discografie
discogs
discotheek
discours
discovery
discrete
discriminatie
discussie
discussies
discuswerpen
disease
diskjockey
disney
disneyland
dispar
display
dispuut
dissertatie
distale
distance
distant
distinguished
distributie
distribution
district
districten
dit
ditions
ditmaal
ditrysia
ditzelfde
diva
divers
diverse
diversiteit
diversity
divertimento
divine
divisie
divisies
divisio
division
dixie
dixon
diz
dizzy
dj
django
dk
dkw
dl
dln
dm
dmitri
dn
dna
dnb
dnf
dnjepr
dns
do
doble
doc
doceerde
docent
docenten
doch
dochter
dochteronderneming
dochters
dochtertje
doctor
doctoraat
doctrine
document
documenta
documentaire
documentaires
documentatie
documenten
documents
dodd
dode
dodelijk
dodelijke
doden
dodge
dodo
dodson
doe
doek
doeken
doel
doeleinden
doelen
doelgroep
doelman
doelpunt
doelpunten
doelsaldo
doelstelling
doelstellingen
doelwit
doen
does
doesburg
doet
doetinchem
dog
doge
dogg
dogma
dognin
dogs
doha
doherty
doi
dok
doken
dokkum
dokter
dokters
dol
dolf
dolfijn
dolfijnen
dolichopodidae
dolin
dolk
doll
dollar
dollars
dolle
dolls
dolly
dolmen
dolores
dom
domburg
dome
domein
domeinen
domenico
dominant
dominante
dominantie
dominee
domineerde
domineren
domingo
domini
dominic
dominica
dominicaanse
dominicanen
dominicus
dominion
dominique
domino
domitianus
dommel
don
donald
donaldson
donaties
donau
donder
donderdag
done
donetsk
dong
dongen
donjon
donk
donker
donkerbruin
donkerbruine
donkerder
donkere
donkey
donna
donne
donner
donny
donovan
donsker
donsvlinder
donsvlinders
doo
dood
doodde
doodgeschoten
doodslag
doodsoorzaak
doodstraf
doodt
dook
doom
doop
doopsgezinde
doopvont
door
doorboord
doorbraak
doorbracht
doorbrak
doorbreken
doorbrengen
doorbroken
doordat
doorgaan
doorgaande
doorgaans
doorgang
doorgebracht
doorgegeven
doorgetrokken
doorgeven
doorgevoerd
doorging
doorheen
doorkruist
doorliep
doorloopt
doorlopen
doorlopend
doorlopende
doorn
doornik
doornsprinkhanen
doornuitsteeksel
doornuitsteeksels
doors
doorsnede
doorsneden
doorsnee
doorstaan
doorstart
doorverkocht
doorverwijspagina
doorverwijzing
doorzichtig
doorzichtige
doos
doot
dopen
doper
doperkerk
doping
dora
dordogne
dordrecht
dordtse
doris
dorothea
dorothy
dorp
dorpelingen
dorpen
dorpje
dorpjes
dorpscentrum
dorpsgezicht
dorpskerk
dorpskern
dorpsstraat
dorsale
dorsalis
dorset
dorst
dortmund
dos
dosis
dossier
dossiers
dot
douane
douard
double
doubleday
doubles
doubs
doug
douglas
douwe
douwes
dove
doven
dover
down
download
downloaden
downs
downtown
doyle
dozen
dozijn
dp
dpoliep
dq
dr
dra
draad
draadloze
draagbare
draagraket
draagt
draai
draaide
draaiden
draaien
draaiende
draaistellen
draait
draak
drachten
draco
dracula
draden
draft
drag
dragen
dragende
drager
dragers
dragon
dragons
drake
draken
drama
dramafilm
dramaserie
dramatic
dramatisch
dramatische
drang
drank
dranken
drastisch
draudt
dre
dream
dreams
dreef
drees
drei
dreieck
dreigde
dreigden
dreigen
dreigende
dreiging
dreigt
drempel
drenthe
drents
drentse
dresden
dressuur
dreven
drew
dreyfus
dric
drie
driebergen
driebeukige
driedaagse
driedelige
driedimensionaal
driedimensionale
driee
driehoek
driehoeken
driehoekig
driehoekige
driehonderd
driejarig
driejarige
driekwart
drieluik
driemaal
dries
driessen
drietal
drievoudig
drievoudige
drift
drijft
drijven
drijvende
dringen
dringend
dringende
dringt
drink
drinken
drinkt
drinkwater
drive
driver
dro
droeg
droegen
droge
drogen
droit
dromen
drone
drong
drongen
dronken
dronten
droog
drooglegging
droogte
droom
droomt
drop
drost
drs
druce
drug
drugs
druif
druiven
druk
drukke
drukken
drukker
drukkerij
drukste
drukt
drukte
drukwerk
drum
drummer
drummond
drums
drumstel
druppel
drusus
dry
ds
dsb
dsc
dsm
dso
dt
du
dua
dual
duarte
dub
dubai
dubbel
dubbele
dubbelspel
dubbelster
dubia
dubium
dublin
dubois
duc
ducati
duck
dudley
dudok
due
duel
duels
duet
duetten
duff
duffel
duidde
duidelijk
duidelijke
duidelijker
duidelijkheid
duiden
duidt
duif
duiken
duiker
duikers
duikt
duim
duin
duinen
duinkerke
duisburg
duister
duistere
duisternis
duits
duitse
duitser
duitsers
duitsland
duitstalig
duitstalige
duivel
duiveland
duivels
duiven
duizend
duizenden
duke
dumas
dumont
dumoulin
dun
duncan
dundee
dune
dunlop
dunn
dunne
dunner
duo
duponchel
dupont
dupuis
duran
durand
durban
durch
dure
duren
durende
durfde
durft
durham
during
durven
dus
dusdanig
dust
dusver
dutch
duty
duur
duurde
duurden
duurder
duurdere
duurste
duurstede
duurt
duurzaam
duurzaamheid
duurzame
duval
duvivier
duwen
dvd
dvor
dwang
dwangarbeid
dwangarbeiders
dwars
dwarsdoorsnede
dwarsfluit
dwarsfluiten
dwerg
dwergen
dwerggaasvliegen
dwergmineermotten
dwest
dwight
dwingen
dwingt
dwong
dwongen
dx
dy
dyar
dyck
dying
dyke
dylan
dynamics
dynamiek
dynamisch
dynamische
dynamite
dynamo
dynastie
dynastiee
dynastieke
dynasty
dytiscidae
dz
e
ea
eagle
eagles
earl
early
earth
east
easter
eastern
eastman
eastwood
easy
eat
eaton
eau
eb
eberhard
ebert
ec
ecb
echo
echt
echte
echter
echtgenoot
echtgenote
echtgenoten
echtpaar
echtscheiding
eck
eclectische
ecm
eco
ecolo
ecologie
ecologisch
ecologische
ecology
economen
economic
economics
economie
economisch
economische
economy
econoom
ecoregio
ecosysteem
ecuador
ecuadoraans
ecw
ed
edam
edd
eddie
eddy
ede
edel
edele
edelen
edellieden
edelman
edelstenen
eden
edgar
edge
edict
edinburgh
edison
edit
edited
edith
editie
edities
edition
editions
editor
editors
edmond
edmonton
edmund
edna
edo
edouard
eds
edu
eduard
eduardo
educatie
educatief
educatieve
education
edvard
edward
edwards
edwin
ee
eed
eeden
eeg
eekhoorn
eekhoorns
eeklo
eemnes
eems
een
eencilinder
eend
eendagswielerwedstrijd
eenden
eendracht
eenduidig
eene
eenen
eenentwintigste
eener
eenheden
eenheid
eenhoorn
eenig
eenige
eenjarige
eenmaal
eenmalig
eenmalige
eenoogkreeftjessoort
eens
eenstaartjes
eentje
eenvoud
eenvoudig
eenvoudige
eenvoudiger
eenvoudigste
eenwording
eenzaam
eenzaamheid
eenzame
eenzelfde
eenzijdig
eenzijdige
eer
eerbetoon
eerbied
eerde
eerder
eerdere
eere
eerlijk
eerlijke
eerst
eerste
eersteklasser
eersten
eerstgeboorte
eerstgenoemde
eerstvolgende
eert
eervol
eervolle
eet
eetbare
eeuw
eeuwen
eeuwenlang
eeuwenoude
eeuwig
eeuwige
eeuwigheid
eeuws
eeuwse
eeuwwisseling
ef
effect
effecten
effectief
effectieve
effectieven
effectiviteit
effects
efficie
efteling
eg
ega
egbert
egei
egel
egels
egg
eglise
egmond
egmont
ego
egoi
egon
egypt
egypte
egyptenaren
egyptian
egyptisch
egyptische
eh
ehf
ehir
ehlers
ei
eieren
eifel
eigen
eigenaar
eigenaars
eigenaren
eigendom
eigendommen
eigene
eigenhandig
eigenlijk
eigenlijke
eigenmann
eigenschap
eigenschappen
eigentijdse
eight
eijk
eijsden
eik
eiken
eikenhouten
eikenloof
eiland
eilanden
eilandengroep
eilandgebieden
eilandje
eilandjes
eilandperron
eilean
eileen
eilema
ein
eind
einde
eindelijk
eindexamen
eindfase
eindhoven
eindhovens
eindhovense
eindig
eindigde
eindigden
eindige
eindigen
eindigend
eindigt
eindklassement
eindklassementen
eindklasseringen
eindpunt
eindrangschikking
eindredacteur
eindronde
eindstand
eindstanden
eindstation
eindstrijd
eindtoernooi
eindzege
eine
einem
einer
eines
einstein
eintracht
eis
eisen
eisenach
eisenbahn
eisenhower
eist
eiste
eisten
eitjes
eiwit
eiwitten
ek
eken
ekeren
el
elachista
elachistidae
elaine
elateridae
elbe
elburg
elders
ele
eleanor
election
elections
electra
electric
electro
electronic
elegans
elegante
elektra
elektriciteit
elektriciteitscentrale
elektrificatie
elektrisch
elektrische
elektromagnetische
elektromotor
elektron
elektronen
elektronica
elektronisch
elektronische
elektrotechniek
element
elementaire
elementen
elements
elena
eleonora
elephant
eleutherodactylus
eleven
elf
elfde
elfen
elfstedentocht
elftal
elftallen
eli
elia
elias
elimination
eliot
elisa
elisabeth
elise
elite
eliza
elizabeth
elk
elkaar
elkaars
elkander
elke
ell
ella
elle
ellen
ellende
ellepijp
ellie
ellington
elliot
elliott
elliptisch
elliptische
ellis
elly
elmidae
elongata
elongatus
elpee
els
elsa
else
elsene
elsevier
elst
elton
elvis
elzas
em
email
emancipatie
emanuel
embleem
embrik
embryo
emden
emergency
emeritaat
emeritus
emerson
emery
emi
emiel
emigranten
emigratie
emigreerde
emil
emile
emilia
emilie
emilio
emily
eminem
emir
emiraat
emiraten
emirates
emissie
emma
emmanuel
emmen
emmer
emmy
emoji
emotie
emoties
emotioneel
emotionele
emperor
empididae
empire
empirische
ems
en
enclave
encore
encycliek
encyclopaedia
encyclopedia
encyclopedie
encyclopædia
encyrtidae
end
ende
endemisch
endemische
enderlein
endomychidae
ends
endurance
ene
enemy
enen
energie
energy
enerzijds
enfant
enfants
eng
engagement
engel
engeland
engelandvaarder
engelbert
engelen
engels
engelse
engelsen
engelsman
engelstalig
engelstalige
engine
engineer
engineering
engineers
england
english
enig
enige
enigma
enigszins
enkel
enkele
enkelen
enkelspel
enkelvoud
enkelvoudig
enkelvoudige
enkhuizen
eno
enoplida
enorm
enorme
enough
enque
enrico
enrique
ens
enschede
ense
ensemble
ensembles
ensor
ent
entente
enter
enterprise
entertainer
entertainment
enthousiasme
enthousiast
entiteit
entiteiten
entomoloog
entourage
entre
entree
entry
environment
environmental
enz
enzo
enzovoort
enzovoorts
enzym
enzymen
eo
eoceen
eos
ep
epe
epic
epidemie
epidendrum
epirus
epische
episode
episodes
epitoniidae
epo
epos
epsilon
epstein
equatoriaal
equivalent
er
era
eraan
erachter
erasmus
erbij
erboven
erd
erde
erdog
ere
erebidae
ereburger
erectus
eredienst
eredivisie
eredoctoraat
ereklasse
erelid
erelijst
eren
erepodium
ereteken
eretitel
erevoorzitter
erf
erfde
erfdeel
erfelijk
erfelijke
erfenis
erfgenaam
erfgename
erfgenamen
erfgoed
erft
erfurt
erg
ergens
erger
ergernis
ergste
eric
erica
erich
erichson
eridanus
erik
erika
eriksson
erin
eritrea
erkend
erkende
erkenden
erkennen
erkenning
erkent
ermee
ermelo
ermisch
ermland
erna
ernaar
ernaast
ernest
ernesto
ernie
ernst
ernstig
ernstige
erom
eromheen
eronder
erop
eros
erosie
erotische
erover
erp
ers
erse
erste
ert
ertoe
erts
ertussen
eruit
ervan
ervaren
ervaring
ervaringen
erven
ervoor
erwin
es
esa
esbjerg
escape
esch
escher
eskader
eske
eso
espan
espanyol
espe
esper
esperanto
espi
espinosa
espn
esprit
essai
essay
essayist
essays
essen
essent
essential
essentie
essentieel
essex
est
esta
estadio
estafette
estafetteploeg
estate
este
esteban
estelle
ester
esther
esthetische
estisch
estische
estland
estlandse
estonian
estoril
estrada
estse
et
eta
etage
etages
etappe
etappes
etappezeges
etc
eten
eternal
ethan
ethanol
ethel
ether
ethiek
ethiopie
ethiopisch
ethiopische
ethische
etienne
etiket
etniciteit
etnisch
etnische
etruskische
ets
etsen
etser
etten
etterbeek
etudes
etymologie
eu
eucharitidae
euclidische
eucosma
eufonium
euge
eugen
eugene
eugenio
eugenius
euler
eulimidae
eulophidae
eunice
eupelmidae
eupen
eupithecia
eupterotidae
eur
eurazie
eure
euro
eurobasket
eurocity
eurocup
euroleague
euroleagues
euronext
europa
europacup
europarlementarie
europe
europeaan
european
europeanen
europees
europese
eurovisiesongfestival
eurovision
eurozone
eurytomidae
eusebius
eustatius
euthanasie
ev
eva
evacuatie
evacueren
evaluatie
evan
evangelie
evangelisch
evangelische
evangelist
evangelisten
evans
eve
evelyn
even
evenaar
evenaarde
evenals
evenaren
eveneens
evenement
evenementen
evenhuis
evening
evenmin
evenredig
evenredige
event
eventing
events
eventueel
eventuele
evenveel
evenwel
evenwicht
evenwijdig
evenzeer
ever
everest
everett
evergreen
everhard
evers
evert
everton
every
everybody
everything
evic
evidence
evil
evo
evolueerde
evolutie
evolution
evolutionaire
ex
exact
exacte
examen
examens
excel
excelsior
exchange
exclusief
exclusieve
excuses
executeren
executie
executies
executive
exemplaar
exemplaren
exeter
exhibition
exit
exodus
exotische
expansie
expeditie
expeditieleger
expedities
expedition
experience
experiment
experimental
experimenteel
experimenteerde
experimentele
experimenten
experimenteren
expert
expertise
experts
expliciet
expliciete
exploitant
exploitatie
exploiteerde
exploiteert
exploiteren
exploration
explorer
explosie
explosief
explosies
explosieve
explosieven
expo
export
exposeerde
expositie
exposities
exposition
express
expressie
expressionisme
expressionistische
extended
extension
exterieur
extern
externe
extra
extragalactic
extreem
extreemrechtse
extreme
eyck
eye
eyed
eyes
eynde
eyskens
ez
ezel
ezra
f
fa
faalde
faam
faber
fabian
fabio
fabius
fabricage
fabricius
fabriek
fabrieken
fabrieksteam
fabrikant
fabrikanten
fac
face
facebook
facelift
faces
facet
facetten
faciliteiten
facility
fact
factie
facto
factor
factoren
factory
facts
faculteit
faculteiten
faero
fagot
fagotten
faille
failliet
faillissement
fair
fairmaire
fairy
fait
faith
falco
falcon
falen
fall
fallax
fallen
falling
fallon
falls
false
fame
familia
familiale
familie
familiebedrijf
familieleden
familielid
familienaam
families
familiewapen
famille
family
famous
fan
fanfare
fanfareorkest
fang
fanny
fano
fans
fantasia
fantasie
fantastic
fantastische
fantasy
far
farao
farewell
farm
farmaceutische
farmer
farnese
farrell
fasciata
fasciatus
fasciolariidae
fascisme
fascistische
fase
fasen
fases
fashion
faso
fast
fat
fataal
fatal
fatale
fate
father
fauna
faure
faust
fausto
favoriet
favoriete
favorieten
favorite
fay
faye
fb
fbi
fc
fd
fdf
fdp
fe
fear
feat
feature
features
featuring
feb
februari
february
fed
federaal
federal
federale
federatie
federation
federer
federico
fee
feee
feel
feeling
feest
feestdag
feestdagen
feestelijk
feestelijke
feesten
feestje
feet
feijenoord
feit
feite
feitelijk
feitelijke
feiten
fel
felder
feldmann
felice
felipe
felix
felle
fellow
fellowship
felt
female
feminisme
feminist
feministe
feministische
femke
femme
femmes
fender
fenerbahc
fenestra
fenicie
fenomeen
fenomenen
feodale
fer
ferdinand
ferenc
ferguson
ferme
ferna
fernand
fernandes
fernandez
fernando
ferrand
ferrara
ferrari
ferreira
ferrer
ferrie
ferry
fervent
fest
festival
festivals
festiviteiten
feu
fever
few
feyenoord
ff
ffer
fficie
fi
fia
fiat
fiba
fiche
fictie
fictief
fictieve
fiction
fide
field
fields
fiesta
fiets
fietsen
fietsers
fietspad
fifa
fifth
fig
figaro
fight
fighter
fighters
fighting
figuratieve
figure
figuren
figures
figuur
fiji
fijn
fijne
filantroop
file
files
filiaal
filialen
filip
filipijnen
filipijns
filipijnse
filippo
filips
fille
film
filmacteur
filmcarrie
filmdebuut
filmen
filmfestival
filmindustrie
filmkomedie
filmmaker
filmmakers
filmmuziek
filmografie
filmpje
filmpjes
filmproducent
filmregisseur
films
filmstudio
filologie
filoloog
filosofen
filosofie
filosofisch
filosofische
filosoof
fils
filter
fim
fin
final
finale
finaleplaatsen
finaleronde
finales
finalist
finalisten
finals
finance
financial
financie
financieel
financierde
financieren
financiering
finch
find
finding
fine
finish
finishte
finland
finlay
finn
fins
finse
fiona
fiorentina
fire
firefox
firenze
firma
firmin
firmino
first
fis
fiscaal
fiscale
fischer
fish
fishbase
fisher
fissurellidae
fit
fitzgerald
fivb
five
fjodor
fjord
fk
fl
flag
flags
flair
flame
flamenco
flamengo
flames
flamingo
flanders
flandre
flank
flanken
flash
flat
flats
flava
flavius
fle
fleet
fleetwood
fleming
fles
flesh
flessen
fletcher
fleur
fleutiaux
flevoland
flex
flexibel
flexibele
flies
flight
flikken
flink
flinke
flint
flip
flirt
flo
flodder
floor
floot
flop
flor
flora
florence
florent
flores
florian
florida
floris
flow
flower
flowers
floyd
flu
fluit
fluiten
fluitist
fluminense
fly
flying
flynn
fm
fn
fnv
fo
focus
focussen
foix
fokken
fokker
fol
foley
folia
folio
folk
folklore
follow
fonds
fondsen
fons
fontaine
fontainebleau
fontana
fontein
fonteinen
fontsize
foo
food
fool
foot
football
foote
for
foramen
forbes
force
forces
ford
fore
foreign
forel
forensisch
forest
forever
forget
forgotten
fork
form
formaat
format
formaten
formateur
formatie
formaties
formation
formeel
formeerde
formele
former
formica
formicinae
formosa
formula
formule
formuleerde
formulering
formules
forrest
fors
forse
forster
fort
fortaleza
forte
forten
fortis
fortuin
fortuna
fortune
fortuyn
forum
forward
fosfaat
fosfor
fossa
fossiel
fossiele
fossielen
fossil
foster
foto
fotogalerij
fotograaf
fotografe
fotografen
fotograferen
fotografie
fotomodel
foucault
found
foundation
fountain
four
fourth
fout
foute
fouten
foutief
fowler
fox
fr
fra
fraai
fraaie
frac
fractie
fractieleider
fracties
fractievoorzitter
fragilis
fragment
fragmenten
frame
frames
framework
fran
franc
franca
france
frances
francesca
francesco
franche
franchise
francie
francine
francis
francisca
franciscanen
francisco
franciscus
franck
franco
francois
francorchamps
francs
franeker
frank
franken
frankenstein
frankfurt
frankfurter
frankie
frankisch
frankische
franklin
frankrijk
franky
frans
fransche
franse
fransen
fransman
franssen
franstalig
franstalige
frantis
franz
fraser
frau
fraude
fraussen
frazione
frazioni
fre
fred
freddie
freddy
frederic
frederick
frederik
fredrik
free
freedom
freek
freelance
freeman
freestyleskie
fregat
freguesia
frei
freiburg
freiherr
french
frequent
frequentie
frequenties
fresco
fresh
freshwater
freud
frey
fribourg
frida
friday
friedman
friedrich
friend
friends
fries
friese
friesland
friezen
friso
frits
fritz
friuli
fro
frog
froger
from
front
frontale
fronten
frontgevel
frontier
frontman
fronton
froome
frost
frozen
fru
fruit
frustratie
fry
fryske
frysla
fs
fsv
ft
fu
fuchs
fuck
fuga
fuji
fukuoka
fulda
fulham
full
fuller
fulltime
fun
functie
functies
functionaliteit
functionaris
functionarissen
functioneel
functioneerde
functioneert
functionele
functioneren
fund
fundament
fundamenteel
fundamentele
fundamenten
fundering
funderingen
fune
fungeerde
fungeert
fungeren
fungorum
funk
funky
funny
fury
fusca
fuseerde
fuseerden
fuseren
fusie
fusieclub
fusiegemeente
fusies
fusiliers
fusion
fusioneerde
fussball
future
fv
fylogenetische
fylogenie
fysica
fysiek
fysieke
fysiologie
fysisch
fysische
g
ga
gaal
gaan
gaande
gaandeweg
gaasvliegen
gaat
gabon
gabrie
gabriel
gabriele
gabrielle
gade
gae
gaede
gaelisch
gaf
gaga
gagne
gahan
gaia
gail
gaimard
gaius
gal
gala
galactica
galatasaray
galaxy
gale
galen
galerie
galerij
galerijen
galg
galicie
galilea
galilei
galileo
gallagher
galle
gallen
gallery
gallia
gallie
gallimard
gallische
gallo
galmuggen
galway
gama
gamba
gambia
game
gameplay
games
gamma
gandhi
gang
gangbaar
gangbare
gangen
gangster
gans
gansch
ganse
ganzen
gao
gap
gar
garage
garanderen
garantie
garci
garcia
gard
garde
garden
gardens
gardiner
gardner
gare
garfield
garibaldi
garland
garnalensoort
garnizoen
garonne
garrett
garrison
garros
garth
gary
gas
gaspar
gaspard
gassen
gast
gasten
gastheer
gasthuis
gastland
gaston
gastoptreden
gastoptredens
gastrol
gastrollen
gastropoda
gat
gate
gaten
gates
gau
gauld
gauliga
gaulle
gauw
gave
gaven
gavere
gavin
gay
gaz
gaza
gazastrook
gazet
gazette
gazprom
gb
gdan
ge
geaardheid
geaccepteerd
geaccepteerde
geacht
geactiveerd
geadopteerd
geadviseerd
geallieerde
geallieerden
geanalyseerd
geannexeerd
geannuleerd
gear
gearchiveerd
gearrangeerd
gearresteerd
geassocieerd
geavanceerde
geb
gebaar
gebakken
gebaren
gebarentaal
gebaseerd
gebaseerde
gebed
gebeden
gebeeldhouwde
gebeld
gebergte
gebeten
gebeurd
gebeurde
gebeuren
gebeurt
gebeurtenis
gebeurtenissen
gebied
gebieden
gebit
geblazen
gebleken
geblesseerd
geblesseerde
gebleven
geblokkeerd
geboden
geboekt
gebogen
gebombardeerd
gebonden
geboorte
geboortedag
geboortedatum
geboortedorp
geboortehuis
geboortejaar
geboorteland
geboorteplaats
geboortestad
geboren
geborgen
gebouw
gebouwd
gebouwde
gebouwen
gebouwencomplex
gebouwtje
gebracht
gebrandschilderde
gebrek
gebreken
gebrekkige
gebroeders
gebroken
gebrouwen
gebruik
gebruikelijk
gebruikelijke
gebruiken
gebruiker
gebruikers
gebruikgemaakt
gebruikmaakt
gebruikmaken
gebruiksvoorwerpen
gebruikt
gebruikte
gebruikten
gebundeld
gecast
geciteerd
geclaimd
geclassificeerd
gecombineerd
gecombineerde
gecompenseerd
gecomponeerd
geconcentreerd
geconcludeerd
geconfisqueerd
geconfronteerd
geconstateerd
geconstrueerd
gecontracteerd
gecontroleerd
gecontroleerde
gecoo
gecorrigeerd
gecoverd
gecree
gecremeerd
gedaald
gedaan
gedaante
gedacht
gedachte
gedachtegoed
gedachten
gedanst
gedateerd
gedecoreerd
gedeeld
gedeelde
gedeelte
gedeeltelijk
gedeeltelijke
gedeelten
gedeeltes
gedefinieerd
gedegradeerd
gedekt
gedempt
gedempte
gedenkplaat
gedenksteen
gedenkteken
gedeporteerd
gedeputeerde
gedetailleerd
gedetailleerde
gedetineerden
gedicht
gedichten
gediend
geding
gediskwalificeerd
gedistribueerd
gedocumenteerd
gedomineerd
gedood
gedoopt
gedownload
gedraagt
gedraaid
gedraaide
gedrag
gedragen
gedragingen
gedreven
gedrongen
gedronken
gedroogd
gedroogde
gedrukt
gedrukte
geduld
gedurende
geduurd
geduwd
gedwongen
gee
geef
geeft
geel
geen
geene
geenszins
geer
geert
geertruida
geertruidenberg
geerts
geest
geestelijk
geestelijke
geestelijken
geestelijkheid
geesten
gefabriceerd
gefascineerd
geffen
gefilmd
gefinancierd
gefinisht
geflankeerd
gefokt
geformeerd
geformuleerd
gefotografeerd
gefuseerd
gefusilleerd
gegaan
gegane
gegarandeerd
gegenereerd
gegeten
gegeven
gegevens
gegoede
gegooid
gegoten
gegraveerd
gegraven
gegrepen
gegroeid
gegroepeerd
gegund
gehaald
gehad
gehalte
gehandeld
gehandhaafd
gehandicapte
gehandicapten
gehangen
gehanteerd
gehanteerde
gehecht
geheel
geheele
geheim
geheime
geheimen
geheimzinnige
gehele
gehesen
geheten
geheugen
geheven
gehinderd
geholpen
gehoopt
gehoor
gehoord
gehoorzaamheid
gehore
gehouden
gehucht
gehuchten
gehuisvest
gehuurd
gehuwd
gei
geit
geiten
gejaagd
gek
gekant
gekapt
gekarakteriseerd
gekeerd
gekeken
gekend
gekende
gekenmerkt
gekko
geklasseerd
geklasseerde
gekleed
gekleurd
gekleurde
geknipt
gekocht
gekomen
gekookt
gekopieerd
gekoppeld
gekoppelde
gekost
gekozen
gekregen
gekromd
gekromde
gekroond
gekroonde
gekruist
gekwalificeerd
gekwalificeerde
gekwantificeerd
gekweekt
gel
gelaat
gelabert
geladen
gelanceerd
geland
gelast
gelaten
geld
geldbedrag
geldboete
gelden
geldende
gelder
gelderland
gelderlander
geldermalsen
gelders
gelderse
geldgebrek
geldig
geldige
geldigheid
geldrop
geldt
gele
gelechiidae
gelede
geleden
gelederen
geledingen
geleedpotigen
geleefd
geleen
geleend
geleerd
geleerde
geleerden
gelegd
gelegen
gelegenheden
gelegenheid
gelegerd
geleid
geleide
geleidelijk
geleidelijke
gelet
geleverd
geleverde
gelezen
gelieerd
geliefd
geliefde
geliefden
gelijk
gelijkaardig
gelijkaardige
gelijke
gelijkend
gelijkende
gelijkenis
gelijkenissen
gelijkgespeeld
gelijkgesteld
gelijkheid
gelijkmaker
gelijkmatig
gelijknamig
gelijknamige
gelijkspel
gelijktijdig
gelijktijdige
gelijkwaardig
gelijkwaardige
gelimiteerde
gelinkt
gelokaliseerd
gelokt
geloof
geloofd
geloofde
geloofden
geloofsbelijdenis
gelooft
gelopen
geloven
gelovige
gelovigen
gelre
gelsenkirchen
geluid
geluiden
geluidsband
geluidsstudio
geluidstechnicus
geluk
gelukkig
gelukkige
gelukt
gem
gemaakt
gemaakte
gemaal
gemak
gemakkelijk
gemakkelijker
gemalen
gemalin
gemarkeerd
gemarteld
gematigd
gematigde
gemechaniseerde
gemeen
gemeenschap
gemeenschappelijk
gemeenschappelijke
gemeenschappen
gemeente
gemeentearchief
gemeentebestuur
gemeentegrens
gemeentehuis
gemeentelijk
gemeentelijke
gemeentemuseum
gemeenten
gemeenteraad
gemeenteraadslid
gemeenteraadsverkiezingen
gemeentes
gemeentesecretaris
gemeentevlag
gemeentewapen
gemeld
gemene
gemenebest
gemenebestspelen
gemengd
gemengde
gemert
gemeten
gemetselde
gemiddeld
gemiddelde
gemini
gemist
gemixt
gemodelleerd
gemoderniseerd
gemoed
gemoeid
gemonteerd
gemotiveerd
gemotoriseerde
gen
genaamd
genade
genationaliseerd
gender
gendt
gene
genealogie
geneesheer
geneeskunde
geneeskundig
geneeskundige
geneesmiddel
geneesmiddelen
genegeerd
geneigd
genen
genera
generaal
generaals
general
generale
generalleutnant
generalmajor
generatie
generaties
generation
generator
genereren
genesis
genetica
genetisch
genetische
genezen
genezing
genie
geniet
genieten
genius
genk
gennep
genoa
genocide
genoeg
genoegen
genoemd
genoemde
genomen
genomineerd
genomineerden
genoodzaakt
genoom
genoot
genootschap
genot
genoteerd
genoten
genre
genres
gens
gent
gentleman
gentse
genua
genummerd
genummerde
genus
geo
geoff
geoffrey
geograaf
geografie
geografisch
geografische
geograph
geographic
geological
geologie
geologisch
geologische
geoloog
geometridae
geometrische
geomteridae
geopend
geopende
geopereerd
geoplanidae
geopperd
geordend
georg
georganiseerd
georganiseerde
george
georges
georgi
georgia
georgie
georgisch
georgische
georie
gepaard
gepaarde
gepakt
gepantserde
gepasseerd
gepensioneerde
geperst
geplaagd
geplaatst
geplaatste
gepland
geplande
geplant
gepleegd
geplunderd
gepoogd
gepositioneerd
gepresenteerd
geprezen
geprobeerd
geproduceerd
geproduceerde
gepromoot
gepromoveerd
gepromoveerde
gepubliceerd
gepubliceerde
ger
gera
geraadpleegd
geraakt
geraakte
geraardsbergen
gerais
geraken
gerald
gerangschikt
gerapporteerd
gerard
gerardo
gerardus
gerd
gerda
gereageerd
gerealiseerd
gerecht
gerechtelijk
gerechtelijke
gerechten
gerechtigd
gerechtigheid
gerechtsgebouw
gerechtshof
gerechtvaardigd
gereconstrueerd
gered
gereden
gereduceerd
gereed
gereedschap
gereedschappen
gereformeerd
gereformeerde
gereformeerden
geregeerd
geregeld
geregelde
geregisseerd
geregistreerd
geregistreerde
gereisd
gerekend
gerekruteerd
gerelateerd
gerelateerde
gerenommeerde
gerenoveerd
gerepareerd
gereserveerd
gerespecteerd
gerestaureerd
gerestaureerde
gerhard
gericht
gerichte
geridderd
gering
geringe
gerken
gerlach
germaans
germaanse
germain
germaine
german
germanen
germania
germanicus
germany
germar
germinal
geroemd
geroepen
gerrit
gerritsen
gerry
gers
gershwin
gerst
gert
gertrud
gertrude
gertsch
gerucht
geruchten
geruild
geruime
gerust
gerwen
ges
geschapen
geschat
geschatte
gescheiden
geschenk
geschenken
geschichte
geschied
geschiedde
geschieden
geschiedenis
geschiedkundige
geschiedschrijver
geschiedschrijving
geschiedt
geschikt
geschikte
geschil
geschilderd
geschilderde
geschillen
geschokt
geschonden
geschonken
geschorst
geschoten
geschoven
geschrapt
geschreven
geschrift
geschriften
geschut
gescoord
gescoorde
gesegmenteerd
geselecteerd
geselecteerde
gesellschaft
geserveerd
gesignaleerd
gesigneerd
gesitueerd
geslaagd
geslaagde
geslacht
geslachten
geslachtengroep
geslachtscellen
geslachtsnaam
geslagen
gesleept
gesloopt
gesloopte
gesloten
gesmolten
gesneden
gesneuveld
gesneuvelde
gesneuvelden
gesorteerd
gesp
gespaard
gespannen
gespecialiseerd
gespecialiseerde
gespeculeerd
gespeeld
gespeelde
gespeld
gesplitst
gesponsord
gespoten
gespreid
gesprek
gesprekken
gesproken
gestaag
gestaakt
gestaan
gestalte
gestapo
gestart
gestationeerd
gesteente
gesteenten
gestegen
gestel
gesteld
gestelde
gestemd
gesteund
gesticht
gestichte
gestileerde
gestimuleerd
gestoken
gestolen
gestopt
gestort
gestorven
gestraft
gestreden
gestreepte
gestro
gestudeerd
gestuurd
gesuggereerd
get
getal
getalenteerde
getallen
getaltheorie
geteeld
geteisterd
getekend
getekende
geteld
getest
getijden
getijdenboek
getinte
getiteld
getoond
getracht
getraind
getransporteerd
getreden
getroffen
getrokken
getrouwd
getrouwde
gets
getting
getto
getty
getuige
getuigen
getuigenis
getuigenissen
getuigt
geu
geuit
geul
geur
geus
geuzen
gevaar
gevaarlijk
gevaarlijke
geval
gevallen
gevangen
gevangene
gevangenen
gevangengenomen
gevangengezet
gevangenis
gevangenissen
gevangenisstraf
gevangenschap
gevaren
gevarieerd
gevarieerde
gevat
gevecht
gevechten
geveild
gevel
gevels
gevelsteen
geven
gevers
gevestigd
gevestigde
gevierd
gevlekte
gevleugelde
gevlogen
gevlucht
gevluchte
gevochten
gevoed
gevoegd
gevoel
gevoeld
gevoelens
gevoelig
gevoelige
gevoeligheid
gevoerd
gevolg
gevolgd
gevolge
gevolgen
gevolmachtigd
gevonden
gevorderd
gevormd
gevormde
gevouwen
gevraagd
gevraagde
gevreesd
gevuld
gevulde
gewaad
gewaardeerd
gewaarschuwd
gewapend
gewapende
gewas
gewassen
geweer
geweest
geweigerd
gewekt
geweld
gewelddadig
gewelddadige
geweldig
geweldige
gewelf
gewelven
gewend
gewenst
gewenste
geweren
gewerkt
gewervelde
gewest
gewestelijke
gewesten
gewestweg
geweten
geweven
gewezen
gewicht
gewichten
gewichtheffen
gewijd
gewijde
gewijzigd
gewijzigde
gewild
gewisseld
gewond
gewonde
gewonden
gewone
gewonnen
gewoon
gewoond
gewoonlijk
gewoonte
gewoonten
geworden
geworpen
gewricht
gewrichten
gewrichtsknobbels
gewrichtsuitsteeksels
gezag
gezagvoerder
gezamenlijk
gezamenlijke
gezang
gezangen
gezant
gezanten
gezegd
gezegde
gezelle
gezelschap
gezelschappen
gezet
gezeten
gezicht
gezichten
gezichtspunt
gezien
gezin
gezinnen
gezocht
gezond
gezonde
gezonden
gezondheid
gezondheidsproblemen
gezondheidsredenen
gezondheidszorg
gezongen
gezonken
gezorgd
gezuiverd
gezworen
ghana
ghanees
ghi
ghislain
ghost
ghosts
ghy
gi
gia
giacomo
gian
giang
gianni
giant
giants
gibbons
gibbs
gibraltar
gibson
gideon
gids
gidsen
giel
gier
gieten
gietijzeren
gif
gift
giften
giftig
giftige
gigantea
gigantische
gigas
gij
gijs
gijsbert
gijsbrecht
gijzelaars
gijzeling
gil
gilbert
gilberto
gilde
gilden
gilera
giles
gill
gilles
gillespie
gillis
gilmore
gilmour
gilze
gimbart
gime
gina
ging
gingen
ginger
ginneken
gino
gion
giorgio
giovanni
gips
girard
girault
girl
girls
giro
girona
gironde
gis
gist
gistel
gisteren
gisting
gitaar
gitaren
gitarist
gitaristen
gittenberger
giulia
giulio
giuseppe
give
gl
glad
gladde
gladys
glans
glanzend
glanzende
glas
glasgow
glasramen
glass
glassponzen
glazen
glazenier
glazenmakers
glee
glen
glenea
glenn
gletsjer
gletsjers
glimlach
glimwormen
glise
glo
globaal
global
globale
globe
gloed
gloria
glorie
glory
glossosomatidae
gloucester
glover
glu
glucose
gm
gmbh
gmelin
gnaphosidae
gne
gnome
gnu
go
goa
goal
goals
gobiidae
god
godard
goddelijk
goddelijke
goden
godfather
godfrey
godfried
godheid
godin
gods
godsdienst
godsdiensten
godsdienstige
godsdienstvrijheid
godshuis
godzilla
goed
goede
goeden
goederen
goederentreinen
goederenvervoer
goedgekeurd
goedkeuring
goedkoop
goedkope
goedkoper
goedkopere
goeree
goes
goet
goethals
goethe
gofas
gogh
goia
going
goire
gold
goldberg
golden
goldman
goldwyn
golf
golfbaan
golfbanen
golfclub
golfer
golflengte
golfoorlog
golfprofessional
golftoernooi
goliath
golven
golvende
gomes
gomez
gomphidae
gonc
gondor
gone
gong
gonna
gonomyia
gonyleptidae
gonza
gonzaga
gonzalez
gonzalo
good
goodbye
goodman
goodwill
google
gooi
gooide
gooien
gooise
gooit
goor
goossens
goot
goran
gorcum
gordel
gordijn
gordon
gore
gorilla
gorinchem
goris
gorochov
gory
goslar
gospel
got
goten
gotha
gothic
gotiek
gotisch
gotische
gott
gotta
gottfried
gottlieb
goud
gouda
gouden
goudse
goudwespen
gould
gouvernement
gouvernementele
gouverneur
gouverneurs
gouw
gouwe
gov
governance
government
governor
govert
goya
gp
gps
gr
gra
graad
graaf
graaff
graafschap
graafschappen
graafwespen
graag
graan
grace
gracht
grachten
gracilis
gracillariidae
gracillariinae
grade
graden
grady
graeff
graeme
graf
grafelijke
graffiti
grafheuvel
grafheuvels
graficus
grafiek
grafisch
grafische
grafkelder
grafmonument
grafsteen
grafstenen
graftombe
grafzerken
graham
gram
grammatica
grammy
gran
granaat
granada
granaten
grand
grande
grandes
grandis
grands
grandslamtoernooi
grandslamtoernooien
granen
granger
graniet
granieten
grant
grap
graphics
grappen
gras
grasland
graslanden
grasmineermotten
grasmotten
grass
grassen
grassenfamilie
gratie
gratis
graubu
grauwe
grave
gravel
gravelbanen
graven
gravenhage
gravenhorst
graves
graveur
gravin
gravity
gravure
gravures
gray
graz
grazen
gre
great
greater
greatest
greece
greek
green
greene
greenwich
greenwood
greep
greet
greg
gregg
gregor
gregoriaanse
gregorio
gregorius
gregory
grenada
grenadier
grenadiers
grenoble
grens
grensde
grensgebied
grensovergang
grensoverschrijdende
grenst
grenzen
grenzend
grepen
gressitt
greta
grey
grid
gridcolor
grids
grieg
grieken
griekenland
grieks
griekse
griep
grietman
griffel
griffier
griffin
griffith
griffiths
grijpen
grijpt
grijs
grijsbruin
grijze
grille
grimbergen
grimm
grind
grip
griswold
gro
groef
groei
groeide
groeiden
groeien
groeiend
groeiende
groeit
groen
groene
groenen
groeneveld
groenland
groenlinks
groenlo
groente
groenten
groep
groepen
groepering
groeperingen
groepje
groepjes
groepsfase
groepswedstrijd
groepswedstrijden
groepswinnaar
groesbeek
groet
groeten
groeve
groeven
grof
grofweg
grond
grondels
gronden
grondgebied
grondig
grondige
grondlegger
grondleggers
grondplan
grondslag
grondslagen
grondstof
grondstoffen
grondwater
grondwet
grondwetsherziening
grondwettelijk
grondwettelijke
groningen
groninger
gronings
groningse
gronsveld
groot
groote
grooten
grootheden
grootheid
groothertog
groothertogdom
grootkruis
grootmachten
grootmeester
grootmoeder
grootofficier
grootouders
groots
grootschalig
grootschalige
grootscheepse
grootse
grootst
grootste
grootte
grootvader
grootvorst
groove
gros
gross
grosso
grot
grote
groten
grotendeels
groter
grotere
grotten
grottensprinkhanen
ground
group
groupe
grouvelle
grove
growth
groß
große
gru
grube
grumman
gruppe
gruwelijke
gruyter
gryllacrididae
gryllidae
gs
gsm
gstaad
gt
gu
guadalajara
guadeloupe
guam
guangdong
guangzhou
guard
guardian
guardians
guards
guatemala
gue
guene
guernsey
guerra
guerre
guerrero
guerrilla
guest
guetta
guez
guggenheim
gui
guiana
guide
guido
guignot
guild
guillaume
guillermo
guinea
guinee
guinness
guitar
gulden
gulf
gulik
gulpen
gun
gunnar
guns
gunst
gunste
gunstig
gunstige
gunther
gunung
guo
gupta
gus
gustaaf
gustaf
gustav
gustave
gustavo
gut
gutenberg
guthrie
gutie
guus
guy
guyana
guys
guzma
guzzi
gva
gvb
gw
gwen
gwijde
gy
gyatso
gymnasium
gymnast
gymnastiek
gynoplistia
gyo
gyrinidae
h
ha
haag
haaglanden
haags
haagsche
haagse
haai
haaien
haak
haakjes
haaks
haaksbergen
haal
haalbaar
haalde
haalden
haalt
haan
haar
haard
haaren
haarlem
haarlemmermeer
haarlemse
haarsterren
haarzelf
haas
haase
haast
haastig
haat
habe
habitat
habitats
habsburg
habsburgers
habsburgse
hacker
hackett
had
hadde
hadden
hadrianus
haer
haft
hagedis
hagedissen
hagen
hague
hahn
hai
haifa
hailwood
hair
hak
haken
hakken
hal
halacaridae
hale
halen
haley
half
halfbroer
halfjaar
halfrond
halfronde
halfvleugelig
halfweg
haliclona
halictidae
halifax
haliplidae
hall
halle
hallen
hallenkerk
hallo
halloween
halmvliegen
halo
hals
halsschild
halswervel
halswervels
halt
halte
haltes
halve
halveringstijd
halverwege
halvorsen
ham
hamas
hamburg
hamburger
hamel
hamer
hamilton
hamlet
hamm
hamme
hammer
hammersmith
hammond
hampshire
hampson
hampton
han
hana
hanau
hancock
hand
handbal
handballer
handbalteam
handboek
handbook
handbuch
handel
handelaar
handelaars
handelaren
handelde
handelen
handeling
handelingen
handels
handelsblad
handelsmerk
handelt
handen
handhaven
handhaving
handicap
handig
handlangers
handleiding
handmatig
hands
handschoenen
handschrift
handschriften
handtekening
handtekeningen
handvest
handvol
hang
hangen
hangende
hangmatspinnen
hangt
hank
hanna
hannah
hannes
hannibal
hannover
hanoi
hans
hansen
hanson
hansson
hanteerde
hanteert
hanteren
hanze
hao
hapoel
happened
happiness
happy
hara
harald
harbor
harbour
hard
hardcore
hardcourt
hardcourtbanen
harde
hardenberg
harder
harderwijk
hardheid
harding
hardlopen
hardstenen
hardware
hardy
hare
harelbeke
haren
harer
hari
harige
haring
harlem
harley
harlingen
harm
harmonie
harmonieorkest
harmonische
harmonium
harmony
harmsen
harnas
harnasmeervallen
harold
harp
harpalus
harper
harrie
harriet
harris
harrison
harry
hart
hartaanval
hartbeeld
harte
harten
hartinfarct
hartley
hartman
hartmann
hartog
hartstilstand
harvard
harvest
harvey
harz
has
hassan
hasselt
hastings
hat
hatch
hate
hathaway
hattem
hattrick
haunted
hauptbahnhof
hauptmann
haus
haut
haute
hautes
hauts
havana
have
havelaar
haven
havengebied
havens
havenstad
haver
havezate
havilland
havo
havre
hawai
hawaii
hawk
hawker
hawkins
haworth
hay
hayashi
hayat
hayden
haydn
haye
hayes
hayward
hazard
hazel
hazes
hb
hbf
hbo
hbs
hc
hd
he
head
heads
health
hear
heard
heart
hearts
heat
heath
heather
heaven
heavy
heavyweight
heb
hebard
hebben
hebbende
hebreeuws
hebreeuwse
hebt
hecht
hechte
hechten
hechtenis
hecke
hectare
hector
heden
hedenbijgewerkt
hedendaags
hedendaagse
hedgehog
hedley
hedwig
hee
heeckeren
heeft
heek
heel
heelal
heemkundige
heemskerk
heemstede
heen
heenwedstrijd
heenwedstrijden
heer
heere
heeren
heerenveen
heeresgruppe
heerhugowaard
heerlen
heerlijk
heerlijke
heerlijkheden
heerlijkheid
heerschappij
heersen
heersende
heerser
heersers
heerst
heerste
hees
heeswijk
heet
heette
heeze
heffen
heffing
heft
heftig
heftige
hegel
hegemonie
hei
heide
heidelberg
heiden
heidense
heidi
height
heights
heijden
heijn
heil
heilig
heiligbeen
heiligdom
heilige
heiligen
heimelijk
hein
heine
heineken
heinemann
heinrich
heinsberg
heinz
heist
hek
hekel
heks
heksen
hekserij
hekwerk
hel
helaas
held
helden
helder
heldere
helderheid
hele
helemaal
helen
helena
helene
helft
helga
helikopter
helikopters
helium
helix
hell
hellas
hellen
hellendoorn
hellenistische
heller
hellevoetsluis
helling
hellingen
hello
helm
helmond
helmut
help
helpen
helper
helpt
helsinki
hem
hemel
hemellichamen
hemelobject
hemels
hemelsbreed
hemelse
hemelvaart
hemert
hemingway
hemiptera
hemzelf
hen
hendel
henderson
hendrick
hendrickx
hendrik
hendriks
hendrikus
hendrix
henegouwen
hengelo
henk
henley
henning
henny
henri
henricus
henrie
henriette
henrik
henry
hepburn
heptageniidae
her
heracles
herakles
herald
heraldiek
heraldische
herb
herbegraven
herberg
herbergen
herbergt
herbert
herbie
herbouw
herbouwd
herbouwde
herbouwen
herbst
herbulot
hercules
herculis
herdacht
herdenken
herdenking
herder
herders
herdruk
herdrukken
herdrukt
here
heren
herengracht
herenhuis
herenhuizen
herenigd
hereniging
herentals
herfst
herge
hergebruikt
herhaald
herhaalde
herhaaldelijk
herhaalt
herhalen
herhaling
herindeling
hering
herinnerd
herinnerde
herinneren
herinnering
herinneringen
herinneringsmedaille
herinnert
herinrichting
heritage
herk
herkansing
herkenbaar
herkenbare
herkend
herkende
herkennen
herkenning
herkent
herkomst
herkozen
herman
hermann
hermans
hermanus
hermelien
hermes
hermitage
herna
hernam
hernandez
herne
hernieuwde
hernoemd
hernoemde
hero
herodes
herodotus
heroes
heroi
herontdekt
heropbouw
heropend
heropening
heropgebouwd
heropgericht
heropleving
heroverd
heroverde
heroveren
herovering
herr
herred
herrera
herrich
herschel
herschreven
hersenen
hersenpan
herstal
herstart
herstel
hersteld
herstelde
herstellen
herstelt
herstructurering
hert
herten
hertha
hertog
hertogdom
hertogdommen
hertogelijke
hertogen
hertogenbosch
hertogin
hertrouwde
hertz
heruitgave
heruitgegeven
hervat
hervatte
hervatten
herve
hervormd
hervormde
hervormen
hervorming
hervormingen
herz
herzegovina
herzien
herziene
herziening
herzog
hesperiidae
hesperiinae
hess
hesse
hessen
hester
het
hete
heten
hetgeen
hetzelfde
hetzij
heup
heupgewricht
heure
heures
heusden
heuvel
heuvelland
heuvelrug
heuvels
heverlee
hevig
hevige
hewitson
hewitt
hex
hexatoma
hey
heyden
hezbollah
hf
hfc
hg
hi
hicks
hidalgo
hidden
hiddink
hie
hief
hield
hielden
hielp
hielpen
hier
hieraan
hierachter
hierarchy
hierbij
hierboven
hierdoor
hierin
hiermee
hierna
hiernaast
hierom
hieronder
hieronymus
hierop
hierover
hiertegen
hiertoe
hieruit
hiervan
hiervoor
higgins
high
higher
highland
highway
hiiumaa
hij
hijzelf
hilaire
hilary
hilda
hilde
hildebrand
hildegard
hildesheim
hill
hillary
hills
hilton
hilvarenbeek
hilversum
him
himalaya
himmler
hindenburg
hinder
hinderlaag
hindi
hindoei
hindoes
hinds
hing
hingen
hink
hip
hiphop
hippolyte
hiroshima
hirsch
his
hispania
hispaniola
hist
histoire
historia
historiae
historic
historica
historical
historici
historicus
historie
historiek
historique
historisch
historische
historisches
history
hit
hitchcock
hitje
hitler
hitlers
hitlijst
hitlijsten
hitnotering
hitnoteringen
hitparade
hits
hitte
hiv
hk
hl
hle
hlen
hler
hln
hm
hms
hn
hne
ho
hoa
hobart
hobby
hobo
hoboken
hoc
hochschule
hockey
hockeyclub
hockeyer
hockeyploeg
hodges
hoe
hoed
hoedanigheid
hoede
hoeden
hoef
hoefde
hoefden
hoeft
hoei
hoek
hoeken
hoeksche
hoekse
hoekstra
hoektanden
hoen
hoes
hoessein
hoeve
hoeveel
hoeveelheden
hoeveelheid
hoeven
hoeverre
hoewel
hof
hoff
hoffman
hoffmann
hofhouding
hofje
hofman
hofmann
hofstede
hogan
hoge
hogeland
hogepriester
hoger
hogere
hogerhuis
hogescholen
hogeschool
hogesnelheidslijn
hogna
hohenlohe
hohenzollern
hokkaido
hol
hold
holden
holding
holdings
hole
holen
holes
holiday
holkema
holland
hollander
hollanders
hollandia
hollands
hollandsche
hollandse
holle
hollow
holloway
holly
hollywood
holm
holmes
holmgren
holocaust
holotype
holst
holstein
holt
holte
holten
holthuis
holy
holzschuh
homburg
home
homepage
homer
homerus
hommage
homme
hommels
hommes
homo
homohuwelijk
homoseksualiteit
homoseksueel
homoseksuele
homoseksuelen
hond
honda
honden
honderd
honderdduizenden
honderden
honderdjarige
honderdste
honderdtal
hondt
honduras
honey
hong
hongaars
hongaarse
hongaren
hongarije
honger
hongersnood
hongkong
honing
honkbal
honkballer
honkbalteam
honneur
honolulu
honor
honore
honorius
hood
hoof
hoofd
hoofdaltaar
hoofdbestuur
hoofdcoach
hoofdcommissaris
hoofddorp
hoofde
hoofden
hoofdgebouw
hoofdhaar
hoofdingang
hoofdinspecteur
hoofdkantoor
hoofdklasse
hoofdkwartier
hoofdletter
hoofdletters
hoofdlijn
hoofdmacht
hoofdman
hoofdpersonage
hoofdpersonages
hoofdpersonen
hoofdpersoon
hoofdpijn
hoofdplaats
hoofdprijs
hoofdredacteur
hoofdrol
hoofdrollen
hoofdrolspeler
hoofdrolspelers
hoofdsponsor
hoofdstad
hoofdstedelijk
hoofdstraat
hoofdstuk
hoofdstukken
hoofdtoernooi
hoofdtrainer
hoofdweg
hoofdzaak
hoofdzakelijk
hoofdzetel
hooft
hoog
hoogaltaar
hoogbouw
hooge
hoogeveen
hoogezand
hooggeplaatste
hooggerechtshof
hoogheemraadschap
hoogheid
hoogland
hooglanden
hoogleraar
hoogleraren
hoogovens
hoogspringen
hoogst
hoogste
hoogstens
hoogstraat
hoogstraten
hoogstwaarschijnlijk
hoogte
hoogten
hoogtepunt
hoogtepunten
hoogtes
hoogteverschil
hoogtijdagen
hooguit
hoogvlakte
hoogwaardige
hooi
hooiwagen
hooiwagens
hook
hooker
hoop
hooper
hoopt
hoopte
hoopten
hoor
hoorbaar
hoorde
hoorden
hooren
hoorn
hoorns
hoorspel
hoorspelen
hoort
hoover
hop
hope
hopen
hopkins
hopper
hora
horace
horde
hordeloper
horden
horeca
horen
horizon
horizontaal
horizontal
horizontale
horloge
horn
horne
horner
horror
horrorfilm
horse
horst
horta
horton
hortus
horus
hospitaal
hospital
host
hoste
hot
hotel
hotels
hotspur
hou
houart
houben
houd
houden
houdende
houder
houders
houding
houdt
hour
hours
house
houston
hout
houtboorders
houten
houtskool
houtsnijwerk
houtzwamkevers
hove
hoven
how
howard
howe
hp
hr
hradec
hren
hrer
hrsg
hrung
hs
hsl
hsv
htc
htm
html
http
https
hu
hua
huang
hub
hubbard
huber
hubert
hubertus
hubner
huckett
hudson
huene
hufnagel
hugenoten
hugh
hughes
hugo
hugues
hui
huib
huid
huidig
huidige
huidskleur
huilen
huis
huisarrest
huisarts
huisdier
huisdieren
huishoudelijke
huishouden
huishoudens
huishouding
huisje
huisjes
huisman
huisnummer
huisnummers
huisorde
huissen
huisstijl
huisvest
huisvesten
huisvesting
huisvrouw
huiswaarts
huize
huizen
huizinga
hulde
hulk
hull
hulp
hulpbisschop
hulpbronnen
hulpmiddel
hulpmiddelen
hulpverleners
hulpverlening
hulst
human
humaniora
humanisme
humanist
humanistisch
humanistische
humanitaire
humbert
humboldt
hume
humes
humo
humor
humoristische
humphrey
hun
hundred
hunebed
hunebedden
hunne
hunnen
hunner
hunt
hunter
huntington
hunze
huren
hurley
hurricane
hurt
hut
hutchinson
hutten
hutton
huub
huur
huurbasis
huurde
huurder
huurlingen
huurt
huwde
huwelijk
huwelijken
huwen
huye
huygens
huys
huysmans
hy
hybosoridae
hybotidae
hybrid
hybride
hyde
hydra
hydraulische
hydrobiidae
hydroi
hydropsychidae
hydroptilidae
hygie
hymedesmia
hymenoptera
hymn
hymne
hypotheek
hypothese
hyundai
hz
i
ia
iaaf
ian
iata
ib
iba
iberisch
ibiza
ibm
ibn
ibrahim
ic
ica
icao
ice
ich
ichneumon
ichneumonidae
ick
iconen
iconografie
icoon
ict
id
ida
idaea
idaho
ide
idea
ideaal
ideale
idealen
idealisme
idee
ideee
idem
identiek
identieke
identificatie
identificeerden
identificeren
identiteit
identity
ideologie
ideologische
idol
idool
idstein
ie
ieder
iedere
iedereen
ieders
ieee
iemand
iemands
ieper
ier
ieren
ierland
iers
ierse
iets
ietwat
if
ifk
ig
iglesias
ignace
ignacio
ignatius
igor
iguanodon
ihr
ihre
ii
iie
iii
ij
ijmuiden
ijs
ijsbaan
ijsdansen
ijshockey
ijshockeyer
ijsland
ijslands
ijslandse
ijssel
ijsselmeer
ijsselstein
ijstijd
ijszee
ijver
ijzer
ijzeren
ijzererts
ijzertijd
ik
ike
ikko
iktas
il
ilias
ilir
ilja
ill
ille
illegaal
illegale
illinois
illusie
illustrated
illustratie
illustraties
illustrator
illustre
illustreerde
illustreren
ilo
ils
ilse
im
image
images
imagesize
imago
imam
imdb
imf
img
imitatie
immaterieel
immer
immers
immigranten
immigratie
immuniteit
immuunsysteem
imola
impact
impe
imperial
imperium
implementatie
implications
impliceert
import
importeur
imposante
impossible
impressionisme
impressionistische
improvisatie
impuls
in
ina
inachtneming
inaugurele
inbegrepen
inbegrip
inbouwmotoren
inbreng
inbreuk
inc
inca
incertae
inch
incident
incidenteel
incidenten
incl
inclusief
incredible
increment
inde
indeling
independence
independent
inderdaad
indertijd
index
india
indiaan
indiaanse
indiaas
indian
indiana
indianapolis
indianen
indiase
indica
indicatie
indicator
indicus
indie
indien
indienen
indigd
indigde
indigen
indiging
indigo
indirect
indirecte
indisch
indische
individu
individueel
individuele
individuen
indo
indochina
indonesia
indonesie
indonesisch
indonesische
indoor
indoorkamp
indoorkampioenschappen
indre
indruk
indrukken
indrukwekkend
indrukwekkende
indus
industrial
industrialisatie
industrie
industriee
industrieel
industriegebied
industries
industrieterrein
industry
indy
indycar
ine
ineen
ineens
ineenstorting
ineke
inermis
infanterie
infanteriedivisie
infanteriedivisies
infanterieregiment
infantry
infectie
infecties
inferior
inferno
infinity
inflatie
influence
info
informateur
informatica
informatie
information
informeel
informele
informeren
infrarood
infrastructuur
infty
ing
ingaan
ingang
ingangen
inge
ingeblazen
ingeborg
ingebouwd
ingebouwde
ingebracht
ingebruikname
ingedeeld
ingediend
ingegaan
ingegeven
ingehaald
ingehuldigd
ingehuurd
ingeklemd
ingekort
ingeleid
ingelijfd
ingenieur
ingenieurs
ingenomen
ingericht
ingeschakeld
ingeschreven
ingesloten
ingesnoerd
ingesproken
ingesteld
ingestelde
ingestort
ingetrokken
ingevoerd
ingevoerde
ingevolge
ingevuld
ingewijd
ingewikkeld
ingewikkelde
ingezet
ingezetenen
ingezien
ingezonden
ingezongen
inging
ingredie
ingreep
ingrepen
ingrid
ingrijpen
ingrijpend
ingrijpende
inheems
inheemse
inhield
inhoud
inhoudelijk
inhoudelijke
inhouden
inhoudt
inhuldiging
initiaal
initialen
initiatief
initiatiefnemer
initiatiefnemers
initiatieven
initie
initieel
injectie
inkeping
inkomen
inkomsten
inkomstenbelasting
inkt
inktvis
inktvissen
inleiding
inleveren
inlichtingen
inlichtingendienst
inlijving
inline
inmenging
inmiddels
inn
innam
inname
inneemt
innemen
innen
inner
innerlijke
innes
innocentius
innovatie
innovaties
innovatieve
innovation
innsbruck
inoue
inquisitie
inrichten
inrichting
inrichtingen
ins
inschrijven
inschrijving
inschrijvingen
inscriptie
inscripties
insect
insecta
insecten
insee
inside
insigne
insignis
inslag
inslagkrater
inspanning
inspanningen
inspecteur
inspectie
inspector
inspiratie
inspiratiebron
inspireerde
inspireren
inspraak
instabiliteit
instagram
installatie
installaties
installeren
instandhouding
instant
instantie
instanties
instellen
instelling
instellingen
instemming
institut
institute
instituten
instituties
institution
institutionele
instituto
instituut
instorten
instorting
instroom
instructeur
instructie
instructies
instrument
instrumentaal
instrumental
instrumentale
instrumentalist
instrumentatie
instrumenten
instruments
insularis
int
intact
inte
integendeel
integraal
integrale
integratie
integreren
integriteit
integrity
intel
intellectueel
intellectuele
intellectuelen
intelligence
intelligent
intelligente
intelligentie
intens
intense
intensief
intensieve
intensiteit
intentie
inter
interactie
interacties
interactieve
interactive
interbellum
intercity
intercontinental
interessant
interessante
interesse
interesses
interest
interface
interieur
interieurs
interim
interior
interland
interlandcarrie
interlands
intermedia
intermediair
intermedius
intermezzo
intern
internaat
internacional
internationaal
international
internationale
internationals
internazionale
interne
internet
internetpagina
interpretatie
interpretaties
interpreteren
interstate
intertoto
interval
interventie
interview
interviews
intieme
intimidatie
into
intocht
intrede
intrek
intrekken
intro
introduceerde
introduceert
introduceren
introductie
introduction
intui
intussen
inuit
inv
inval
invallen
invaller
invasie
invasieve
invasion
inventaris
inventarisatie
investeerde
investeerder
investeerders
investeren
investering
investeringen
investigation
investment
invisible
invitational
invloed
invloeden
invloedrijk
invloedrijke
invloedrijkste
invloedssfeer
invoer
invoeren
invoering
invulling
inw
inwendig
inwendige
inwerkingtreding
inwijding
inwoner
inwoneraantal
inwoners
inwonersaantal
inwonerspersbericht
inwonertal
inzake
inzending
inzendingen
inzet
inzette
inzetten
inzicht
inzichten
inzien
inzittenden
io
ioc
ion
ionen
ionische
ios
iowa
ip
ipac
ipad
iphone
ipod
ipswich
iq
ir
ira
iraakse
iraans
iraanse
irak
iran
iras
ire
iredale
ireland
irene
irina
iris
irish
irma
iron
ironisch
ironman
irregularia
irrigatie
irvine
irving
irwin
is
isa
isaa
isaac
isaak
isabel
isabella
isabelle
isbn
ise
isis
isla
islam
islamitisch
islamitische
island
islands
isle
ismail
iso
isolatie
isopod
isotoop
isotopen
israe
israel
israeli
iss
issn
issue
ist
istanboel
istanbul
istat
istrie
istva
isu
it
ita
italia
italiaan
italiaans
italiaanse
italian
italiana
italianen
italie
italy
item
items
itf
ito
its
itu
itunes
itv
iucn
ius
iv
iva
ivan
ivanov
ivie
ivo
ivoor
ivoorkust
ivy
ix
iz
izegem
j
ja
jaagt
jaak
jaap
jaar
jaarboek
jaargang
jaargangen
jaarlijks
jaarlijkse
jaartal
jaartallen
jaartelling
jaarverslag
jac
jacht
jachthaven
jachtkrabspinnen
jack
jackie
jackson
jacksons
jacky
jacob
jacoba
jacobi
jacobs
jacobsen
jacobus
jacoby
jacqueline
jacques
jade
jae
jagen
jager
jagers
jagger
jago
jaguar
jahre
jai
jaime
jak
jakarta
jake
jakob
jakobus
jaloers
jaloezie
jam
jamaica
jamaicaans
jamaicaanse
jamal
jambi
james
jamie
jammer
jan
jana
jane
janeiro
janet
janine
jans
janse
jansen
janskerk
janssen
janssens
jansz
januari
january
janus
jap
japan
japanese
japanner
japanners
japans
japanse
japonica
japonicus
jar
jardin
jared
jaren
jarenlang
jarenlange
jargon
jarig
jarige
jaroslav
jarvis
jas
jasje
jason
jasper
java
javaanse
javier
jay
jaya
jazz
jazzcomponist
jazzdrummer
jazzgitarist
jazzmusicus
jazzmuzikant
jazzpianist
jazzsaxofonist
jazztrompettist
jazzzanger
jc
je
jean
jeanne
jeannel
jeans
jedi
jedlicka
jeep
jef
jeff
jefferson
jeffrey
jegens
jehova
jekaterinenburg
jelena
jelle
jemen
jena
jenkins
jenna
jennifer
jennings
jenny
jens
jensen
jeremy
jerevan
jerez
jericho
jeroen
jerom
jerome
jerry
jersey
jerusalem
jeruzalem
jerzy
jesaja
jess
jesse
jessica
jessie
jesu
jesus
jet
jets
jette
jeu
jeugd
jeugdacteur
jeugdbeweging
jeugdelftallen
jeugdige
jeugdjaren
jeugdopleiding
jeugdserie
jeugdteams
jeugdtrainer
jeugdzomerspelen
jeune
jeunesse
jeux
jevgeni
jewish
jezelf
jezui
jezus
jg
jheronimus
jhr
ji
jia
jiang
jihad
jij
jill
jim
jime
jimi
jimmy
jin
jing
jk
jkvr
jo
joa
joachim
joan
joanna
joanne
joannes
joaqui
joaquim
joaquin
job
jobs
jocque
joden
jodendom
joe
joegoslavie
joegoslavisch
joegoslavische
joel
joep
joeri
joey
jogjakarta
joh
johan
johann
johanna
johannes
johannesburg
johansson
john
johnnie
johnny
johns
johnson
johnston
join
joins
joint
joke
joker
jolie
joling
jommeke
jon
jonas
jonathan
jones
jong
jonge
jongeling
jongeman
jongen
jongens
jongensnaam
jonger
jongere
jongeren
jongerenklassement
jongerenorganisatie
jongetje
jongh
jonghe
jongs
jongste
jonker
jonkheer
jonkvrouw
jood
joods
joodse
joop
joos
joost
joosten
jordaan
jordaanoever
jordan
jordanie
jordi
jorge
joris
jos
jose
josef
josep
joseph
josephine
josephus
josh
joshua
josse
jou
jour
journaal
journal
journalist
journaliste
journalisten
journalistiek
journalistieke
journey
jours
jouw
joy
joyce
jozef
jozua
jp
jpeg
jpg
jr
jrg
js
ju
jua
juan
jubilee
jubileum
juda
judas
judea
judge
judith
judo
judoka
judy
juffers
juffrouw
jugendstil
jugovzhodna
juist
juiste
juk
jukbeen
jul
jules
juli
julia
julian
juliana
julianus
julie
julien
juliet
juliette
julio
julius
jullie
july
jumbo
jump
jun
junction
june
jung
jungle
juni
junior
junioren
juniors
juno
junta
jupiler
jupiter
jura
jurassic
jurgen
juridisch
juridische
jurisdictie
jurist
juristen
jurk
jury
juryleden
jurylid
just
justice
justify
justin
justine
justinianus
justinus
justitie
justus
jutland
juvenielen
juventus
juweel
juwelen
k
ka
kaa
kaak
kaal
kaap
kaapkolonie
kaapse
kaapstad
kaapverdie
kaardertjes
kaars
kaarsen
kaart
kaarten
kaartje
kaartjes
kaartspel
kaas
kabel
kabelbaan
kabels
kabinet
kabinetschef
kabinetten
kabouter
kabul
kadaster
kade
kader
kafka
kahn
kai
kaiser
kaiserslautern
kaken
kale
kalender
kalenderjaar
kalf
kali
kaliber
kalief
kalifaat
kaliningrad
kalium
kalk
kalkrijke
kalksponzen
kalksteen
kalm
kalmar
kalmthout
kam
kameleon
kamen
kamer
kameraden
kamerheer
kamerijk
kamerleden
kamerlid
kamermuziek
kameroen
kamerorkest
kamers
kamerverkiezingen
kammen
kamp
kampen
kampgevangene
kampioen
kampioene
kampioenen
kampioenschap
kampioenschappen
kampioenstrui
kampte
kamspinnen
kamtsjatka
kan
kanaa
kanaal
kanaat
kanalen
kandidaat
kandidaten
kandidatenlijst
kandidatuur
kane
kang
kangxi
kanker
kano
kanon
kanonnen
kanovaarder
kanovaren
kans
kansas
kansel
kanselier
kansen
kansloos
kant
kanten
kantine
kanton
kantongerecht
kantonnale
kantonrechter
kantons
kantonsraad
kantoor
kantoorgebouw
kantoren
kanunnik
kanunniken
kap
kapel
kapelaan
kapelle
kapellen
kapelmeester
kapers
kapitaal
kapitalisme
kapitein
kapitelen
kapittel
kapot
kappa
kappen
kapsel
kar
kara
karakter
karakteristiek
karakteristieke
karakteristieken
karakters
karaman
karanovic
karate
kardinaal
kardinalen
karel
karen
karim
karin
karinthie
karl
karlovac
karlsruhe
karma
karny
karolingische
karpaten
karpers
karperzalmen
karsch
kart
kartel
karting
karton
kas
kasjmir
kasper
kaspische
kassa
kassel
kast
kasteel
kasteelheer
kasteeltje
kastelen
kasten
kat
katalysator
katchoo
kate
kater
katharina
kathedraal
katherine
kathleen
katholicisme
katholiek
katholieke
katholieken
kathy
katie
katja
kato
katoen
katrien
katrina
katten
katwijk
katy
katz
kaukasus
kawasaki
kay
kaye
kazachs
kazachse
kazachstan
kazan
kazerne
kb
kbvb
kc
kde
ke
keane
keek
keel
keep
keeper
keer
keerde
keerden
keerpunt
keert
keerzijde
kees
kegel
kei
keith
keizer
keizerin
keizerlijk
keizerlijke
keizerrijk
keizers
keizersgracht
keken
kelder
kelders
kelk
keller
kelly
kelten
keltische
kelvin
kemp
kempen
kemper
ken
kenbaar
kendall
kende
kenden
kenia
keniaans
keniaanse
kenmerk
kenmerken
kenmerkend
kenmerkende
kenmerkt
kenmerkte
kennedy
kennelijk
kennemerland
kennen
kenner
kenneth
kennis
kennisgeving
kennismaking
kennissen
kenny
kensington
kensley
kent
kenteken
kentucky
kenya
kepler
keppel
keramiek
keramische
keren
kerk
kerkdiensten
kerkdorp
kerkelijk
kerkelijke
kerken
kerkgebouw
kerkgebouwen
kerkgenootschap
kerkhof
kerkje
kerkleden
kerkmuziek
kerkorgel
kerkplein
kerkprovincie
kerkrade
kerkschip
kerkstraat
kerktoren
kermis
kern
kerncentrale
kernen
kernenergie
kernwapens
kerr
kerry
kerspel
kerst
kersten
kerstmis
kessel
kessler
ketel
keten
ketens
ketnet
ketterij
ketting
kettingen
keuken
keulen
keulse
keuning
keur
keurde
keuren
keurmerk
keurvorst
keurvorstendom
keus
keuze
keuzes
kever
kevergeslacht
kevers
keversoort
kevin
kew
key
keyboard
keyboards
keynes
keys
keyser
keyserling
kf
kfc
kg
kgb
kha
khalid
khan
khm
khmer
khz
ki
kick
kid
kids
kiefer
kieffer
kiel
kies
kiesarrondissement
kiesdistrict
kiesdistricten
kiesdrempel
kieskanton
kieskring
kieskringen
kieslijst
kiesrecht
kiest
kieuwen
kiev
kiezelnaalden
kiezen
kiezer
kiezers
kijk
kijkcijfers
kijken
kijker
kijkers
kijkt
kiki
kikker
kikkers
kilburn
kill
killed
killer
killing
kilo
kilogram
kilometer
kilometers
kim
kimberley
kimberly
kimi
kimoto
kin
kind
kinder
kinderboek
kinderboeken
kinderboekenschrijver
kinderen
kinderkoor
kinderloos
kinderopvang
kinderprogramma
kindertijd
kindje
kinetische
king
kingdom
kings
kingston
kinshasa
kioto
kip
kippen
kira
kirby
kirche
kirgizie
kiriakoff
kirk
kirke
kirsten
kiruna
kiss
kist
kisten
kit
kitchen
kitts
kitty
kl
klaagde
klaar
klaas
klacht
klachten
klade
klagen
klagenfurt
klank
klanken
klant
klanten
klap
klappen
klara
klare
klarinet
klarinetten
klarinettist
klas
klasse
klassekampioenschap
klassement
klassementsproeven
klassen
klassering
klassiek
klassieke
klassieker
klassiekers
klaus
klauw
klauwen
klavecimbel
klaver
klavier
klederdracht
kledij
kleding
kledingstuk
kleed
kleef
klei
klein
kleindochter
kleine
kleiner
kleinere
kleinkinderen
kleinood
kleinschalige
kleinste
kleinzoon
klem
klemtoon
klep
kleppen
kleren
klerk
kleur
kleuren
kleurloze
kleurrijke
kleurstelling
kleurstof
kleuterschool
klieren
klif
kliffen
klik
klim
klimaat
klimaatclassificatie
klimaatverandering
klimmen
klimt
kliniek
klinisch
klinische
klinken
klinkende
klinker
klinkers
klinkt
klm
klok
klokken
klokkentoren
klom
klonk
kloof
klooster
kloosterkerk
kloosters
klopkevers
kloppen
klopt
klopte
klug
kluge
kluis
kluivert
kluizenaar
klus
kluwer
km
knaagdier
knaagdieren
knaap
knack
knap
knappe
knau
knaw
knecht
knesset
knie
knieblessure
kniee
knight
knights
knik
knil
knippen
kniptorren
knmi
knobbel
knobbels
knock
knokke
knol
knoop
knooppunt
knooppunten
knop
knopen
knoppen
know
knowledge
known
knows
knox
knsb
knut
knutten
knvb
ko
kobe
koblenz
koch
kocht
kochten
kock
koda
koe
koehler
koeien
koejavie
koek
koel
koele
koelen
koeling
koeman
koen
koenraad
koepel
koepels
koerden
koerdische
koerier
koerland
koers
koersen
koersk
koets
koetshuis
koeweit
koffer
koffie
kofi
kogel
kogels
kogelslingeren
kogelspinnen
kogelstoten
kohl
kok
koken
kokermotten
koksijde
kol
kolbe
kolen
kolibries
kolk
kolom
kolommen
kolonel
kolonia
koloniaal
koloniale
kolonie
kolonies
kolonisatie
kolonisten
kom
komaf
komedie
komedies
komedieserie
komeet
komen
komende
komering
komiek
komisch
komische
komma
kompas
komst
komt
kon
konden
kondigde
kondigden
kondigt
kong
kongo
konijn
konijnen
koning
koningen
koningin
konings
koningsbergen
koningschap
koningshuis
koninklijk
koninklijke
koninkrijk
koninkrijken
konnen
konrad
konst
konstantin
konstanz
kontich
konvooi
kooi
kool
koolstof
koolstofatoom
koolstofdioxide
koop
koophandel
kooplieden
koopman
koopmans
koopt
koor
koorts
koos
kooten
kootje
kop
kopen
kopenhagen
koper
koperblazers
koperen
koperkwintet
kopers
kopgroep
kopie
kopiee
kopje
koplampen
koploper
kopman
koppel
koppelen
koppeling
koppels
koppen
koppige
koraal
koraalsoort
koralen
koran
korea
koreaans
koreaanse
koren
korenbouten
korenmolen
korfbal
korinthe
kornicker
korporaal
korps
korpsen
korrels
korst
korstmossen
kort
korte
kortebaan
kortebaanzwemmen
korter
kortere
kortfilm
korting
kortom
kortrijk
kortste
kortstondig
kortstondige
kortweg
kos
kosmische
kosmos
kosovo
kost
kostbaar
kostbare
koste
kosten
koster
kostprijs
kostschool
kostte
kostuum
kostuums
kota
koto
kott
kou
koud
koude
kouwenberg
kov
kova
kovac
kozakken
kozen
kp
kpn
kr
kra
kraag
kraan
krabbe
krabben
krabbensoort
krabspinnen
kracht
krachten
krachtens
krachtig
krachtige
krachtiger
kraft
kraj
krakau
kraken
kralingen
kramer
krans
krant
kranten
krater
kraters
kraus
krauss
krc
krediet
kredietcrisis
kreeft
kreeftachtigen
kreeg
kreek
krefeld
kregen
kreis
kreits
krekels
kremlin
kreta
kreuz
kriegsmarine
krijg
krijgen
krijger
krijgers
krijgsgevangen
krijgsgevangene
krijgsgevangenen
krijgsmacht
krijgsraad
krijgt
krijt
krim
krimpen
krimpenerwaard
krimson
kring
kringen
kris
krishna
kristal
kristallen
kristen
kristin
kristina
kristof
kritiek
kritieken
kritisch
kritische
kro
kroaten
kroatie
kroatisch
kroatische
kroeg
kroes
krokodil
krokodilachtigen
krokodillen
krol
kromme
kromming
kronen
kroniek
kronieken
kroniekschrijver
kroning
kroon
kroonbladen
kroonde
kroonprins
kru
kruger
kruidachtige
kruiden
kruin
kruipen
kruis
kruisen
kruiser
kruisers
kruisiging
kruising
kruisingen
kruiskerk
kruispunt
kruist
kruistocht
kruistochten
kruisvaarders
kruisweg
krukas
krzysztof
krzyz
ks
ksc
ksk
ksv
ktm
ku
kuala
kubieke
kubus
kudde
kuhn
kuifje
kuil
kuip
kuiper
kuipers
kuitbeen
kun
kung
kunnen
kunst
kunstacademie
kunstcollectie
kunstcriticus
kunsten
kunstenaar
kunstenaars
kunstenares
kunstgeschiedenis
kunsthalle
kunsthandel
kunsthandelaar
kunsthistoricus
kunstkring
kunstmatig
kunstmatige
kunstmuseum
kunstrijden
kunstschaatsen
kunstschaatser
kunstschaatsster
kunstschilder
kunstschilderes
kunstschilders
kunststof
kunstverzamelaar
kunstwerk
kunstwerken
kunt
kuroda
kurt
kus
kussen
kust
kusten
kustgebieden
kustlijn
kuurne
kuuroord
kuyper
kv
kvc
kvp
kw
kwaad
kwaadaardige
kwade
kwal
kwalificatie
kwalificatiereeks
kwalificatieronde
kwalificaties
kwalificatietoernooi
kwalificatiewedstrijd
kwalificatiewedstrijden
kwalificeerde
kwalificeerden
kwalificeert
kwalificeren
kwalijk
kwalitatief
kwaliteit
kwaliteiten
kwam
kwamen
kwantummechanica
kwart
kwartaal
kwartet
kwartfinale
kwartfinales
kwartier
kwartieren
kweekschool
kweken
kwestie
kwesties
kwetsbaar
kwetsbare
kwijt
kwik
kwintet
ky
kyle
kyo
kyoto
l
la
laadvermogen
laag
laaggelegen
laagje
laagland
laagst
laagste
laan
laar
laat
laatgotische
laatst
laatste
laatstelijk
laatsten
laatstgenoemde
lab
label
labels
laboissiere
labor
laboratoria
laboratorium
laboratory
labour
labrador
lac
lach
lachen
lacht
lada
ladder
laden
ladies
lading
ladingen
lady
laevis
lag
laga
lage
lagedrukgebied
lagen
lager
lagere
lagerhuis
lago
lagos
laguna
lagune
lai
lake
laken
lakes
lallemand
lam
lama
lamarck
lamas
lamb
lambda
lambert
lambertus
lambertuskerk
lambiek
lambik
lamborghini
lambrechts
lamellen
lammers
lamp
lampen
lampung
lan
lana
lancashire
lancaster
lance
lanceerde
lanceren
lancering
lancia
land
landau
landbouw
landbouwer
landbouwers
landbouwgrond
landbouwproducten
landdag
landde
landden
lande
landelijk
landelijke
landen
landenteams
landenwedstrijd
lander
landerijen
landes
landesliga
landgemeente
landgenoot
landgenote
landgenoten
landgoed
landgoederen
landgraaf
landhuis
landing
landingen
landingsbaan
landinwaarts
landkreis
landmacht
landmark
landmeter
landoppervlakte
lands
landscape
landschap
landschappen
landskampioen
landskampioenschap
landstitel
landstitels
landstreek
landt
landvoogd
lane
lanen
lang
langdurig
langdurige
lange
langeafstandsloper
langebaan
langebaanschaatsen
langebaanschaatser
langebaanschaatsster
langen
langer
langere
langgerekt
langgerekte
langlaufen
langlaufer
langpootmug
langpootmuggen
langs
langspeelfilm
langst
langste
language
languages
langwerpig
langwerpige
langzaam
langzaamaan
langzame
langzamer
langzamerhand
lanka
lannoo
lannoy
lans
lantaarn
laon
laos
lap
laporte
lara
laren
large
largo
larry
lars
larsen
larson
larsson
larve
larven
las
laser
laseron
lasiocampidae
lasioglossum
lassen
last
laste
lasten
lastig
lastige
lat
late
laten
later
laterale
lateralis
latere
latijn
latijns
latijnse
latin
latina
latino
latour
latreille
latridiidae
lau
laude
lauenburg
launch
laura
laureaat
laurel
lauren
laurence
laurens
laurent
laurentius
laurentiuskerk
laurie
lausanne
lauwerkrans
lauwers
lava
laval
law
lawaai
lawrence
laws
lawson
lay
layer
lazare
lazarus
lazio
lb
lc
ld
ldots
le
lea
leach
lead
leader
leadgitaar
leading
leadzang
leadzanger
leaf
league
lear
learning
least
leave
leaves
leben
lebia
lecce
lech
lecithoceridae
leclerc
leconte
lector
led
lede
ledematen
leden
lederer
lee
leech
leed
leeds
leef
leefbaar
leefde
leefden
leefgebied
leefmilieu
leefomgeving
leeft
leeftijd
leefwijze
leeg
leegte
leek
leem
leen
leende
leendert
leenheer
leent
leenwoorden
leer
leerdam
leerde
leerden
leeren
leerkracht
leerkrachten
leerling
leerlingen
leermeester
leerstoel
leert
lees
leest
leeuw
leeuwarden
leeuwarder
leeuwen
lefe
lefebvre
left
leg
legaal
legaat
legacy
legal
legale
legde
legden
lege
legend
legenda
legendarische
legende
legenden
legendes
legends
leger
legergroep
legering
legerkorps
legers
leggen
legio
legioen
legioenen
legion
legislatuur
legitieme
lego
legrand
legs
legt
lehmann
lei
leibniz
leicester
leidde
leidden
leiden
leidende
leider
leiders
leiderschap
leiderstrui
leiding
leidingen
leidinggevende
leidraad
leidsch
leidsche
leidschendam
leidse
leidt
leie
leien
leigh
leipzig
leita
lek
leken
lekker
lektrificeerd
lelie
lelystad
lemaire
lemaitre
lemma
lemmens
lemy
len
lena
lenen
lengte
lengterichting
lenin
lening
leningen
leningrad
lennep
lennon
lenny
lens
lensvormig
lent
lente
lento
lenzen
leo
leon
leonard
leonardo
leonardus
leone
leonid
leopard
leopold
leopoldsorde
lepidoptera
lepidus
leptoceridae
leptophlebiidae
ler
leraar
leraren
lerares
leren
leroy
les
lesbisch
lesbische
lesgeven
leslie
lesnar
lesotho
less
lessen
lesson
lester
let
leterme
letland
lets
letse
letsel
letten
letter
letteren
lettergreep
lettergrepen
letterkunde
letterkundig
letterkundige
letterlijk
letterlijke
letters
lettertype
lettres
leucosiidae
leudal
leugen
leuk
leukemie
leur
leurs
leusden
leuven
leuvense
lev
levant
leve
level
levels
leven
levend
levende
levendig
levendige
levens
levenscyclus
levensduur
levensjaar
levensjaren
levenslang
levenslange
levensloop
levensmiddelen
levensonderhoud
levensstijl
levensverhaal
levensverwachting
levenswijze
lever
leverancier
leveranciers
leverbaar
leverde
leverden
leveren
levering
leverkusen
levert
levi
levin
levine
levy
lew
lewis
lex
lexicon
lexikon
lexington
leycester
leyden
leyte
lez
lezen
lezer
lezers
lezing
lezingen
lf
lg
lga
lhasa
li
lia
liam
liang
lib
libanese
libanon
libe
libellen
libellensoort
libellulidae
liber
liberaal
liberal
liberale
liberalen
liberalisme
liberation
liberec
liberia
libertadores
liberte
liberty
libie
libische
library
libre
libretto
libri
licentiaat
licentie
licenties
lichaam
lichaamsdelen
lichaamsgewicht
lichaamslengte
lichamelijk
lichamelijke
lichamen
licht
lichtbruin
lichte
lichten
lichtenberg
lichter
lichtere
lichtervelde
lichtgewicht
lichtjaar
lid
lidmaatschap
lidstaat
lidstaten
lidwoord
lie
liebe
liebke
liechtenstein
lied
lieden
lieder
liederen
liedje
liedjes
liedjesschrijver
lief
liefdadigheid
liefde
liefhebber
liefhebbers
liefst
lieftinck
lien
liep
liepen
lier
lierse
lies
liesbeth
lieshout
liet
lieten
lieutenant
lieve
lieveheersbeestjes
lieven
liever
life
lifetime
lift
liften
lig
liga
liggen
liggend
liggende
ligging
light
lightning
lights
lightweight
ligne
ligt
ligue
lijden
lijdt
lijf
lijfwacht
lijk
lijken
lijkt
lijm
lijn
lijnen
lijnnummer
lijst
lijsten
lijsttrekker
like
lil
lila
lili
lilian
lille
lilly
lily
lim
lima
limacodidae
limburg
limburger
limburgs
limburgse
limenitidinae
limes
limiet
limieten
limineerd
limit
limited
limits
limnephilidae
limoges
limoniidae
lin
lina
lincoln
lincolnshire
linda
lindberg
linde
linden
lindsay
lindsey
line
lineair
lineaire
lineata
linegrey
lines
ling
linge
lingen
lingua
lingui
linie
linies
link
linker
linkerborst
linkerflank
linkerhand
linkerkant
linkeroever
linkervleugel
linkerzijde
linkin
links
linksback
linkse
linnaeus
linnean
linnen
linschoten
linsley
lint
lintworm
lintwormen
linux
linyphiidae
linz
lio
lion
lionel
lions
lip
lippe
lippen
lippens
lips
lipvissen
lis
lisa
lisch
lische
lise
lissabon
lisse
list
listen
liszt
lit
liter
literair
literaire
literature
literatuur
literatuurprijs
literatuurverwijzingen
lithium
lithograaf
litouwen
litouws
litouwse
litte
little
liturgie
liturgische
liu
liv
live
livealbum
liverpool
lives
living
livius
livre
lix
liz
liza
lizzy
ljubljana
ll
lla
lle
ller
lloyd
llustreerd
llustreerde
lm
ln
lng
lo
loan
lobby
loc
local
locatie
locaties
loch
lochem
lock
lockdown
locke
lockhart
lockheed
locomotief
locomotieven
lode
loden
lodewijk
lodge
loeb
loenen
loes
loew
lof
log
logan
loge
loges
loghum
logic
logica
logie
logisch
logische
logistiek
logistieke
logo
loi
loir
loire
loiret
lois
lok
lokaal
lokale
lokalen
lokeren
loki
lokken
lokomotiv
lokte
lola
lolita
lombard
lombardije
lombok
lomisoidea
lommel
londen
londense
london
lone
lonely
lonen
long
longen
longicornis
longipes
longkanker
longobarden
longontsteking
longrightarrow
lons
loo
lood
loodramen
loodrecht
loods
loodsen
loog
look
looking
loon
loop
loopbaan
loopgraven
loopkevers
loopspinnen
loopt
looptijd
loos
loose
looy
lopen
lopend
lopende
loper
lopers
lopes
lopez
lord
lords
lorentz
lorenz
lorenzo
lori
loricariidae
lorraine
los
lose
losgelaten
losgeld
losjes
loss
losse
lossen
losser
lost
loste
lot
loterij
lothar
lotharingen
lotharius
loting
lotte
lotto
lotus
lou
loud
louie
louis
louisa
louise
louisiana
lounge
loup
lourdes
louter
louvain
louvie
louvre
love
loved
lovende
lover
lovers
loves
lovin
loving
low
lowe
lower
lowlands
lowry
loyaal
loyaliteit
loze
lp
lpf
lpga
lr
ls
lsd
lt
ltd
lten
lu
lubbers
lublin
luc
luca
lucanidae
lucas
lucca
lucht
luchtaanval
luchtaanvallen
luchtdruk
luchtfoto
luchtgekoelde
luchthaven
luchthavens
luchtmacht
luchtruim
luchtvaart
luchtvaartmaatschappij
luchtvaartmaatschappijen
luchtvochtigheid
luchtwegen
lucia
luciano
lucie
lucien
lucifer
lucille
lucius
luck
lucky
lucratieve
lucy
ludo
ludwig
luftwaffe
lugano
lui
luid
luidde
luide
luiden
luidt
luigi
luik
luiken
luiks
luikse
luis
luister
luisteraars
luisterde
luisteren
luistert
luit
luitenant
luiz
luk
luka
lukas
luke
lukt
lukte
lulu
lumie
lumpur
luna
lunar
lunch
lund
lune
luns
lupus
lus
lust
luther
luthers
lutherse
lutz
luuk
lux
luxe
luxembourg
luxemburg
luxemburgs
luxemburgse
luxueuze
luz
luzern
luzon
lv
lvarez
lvaro
lviv
ly
lycaena
lycaenidae
lyceum
lycosidae
lydia
lyman
lymantriinae
lynch
lynden
lynn
lynx
lyon
lyons
lyra
lyrische
lys
lz
m
ma
maag
maagd
maagdenburg
maagdeneilanden
maaike
maaiveld
maak
maakt
maakte
maakten
maal
maaltijd
maaltijden
maalvaardige
maan
maand
maandag
maandblad
maandelijks
maandelijkse
maanden
maandenlang
maar
maarschalk
maarssen
maart
maarten
maas
maaseik
maasland
maasmechelen
maassen
maassluis
maastricht
maastrichtse
maat
maatregel
maatregelen
maatschappelijk
maatschappelijke
maatschappij
maatschappijen
mabel
mabille
mac
macau
macbeth
maccabi
macdonald
macedonie
macedonisch
macedonische
mach
machado
machine
machinefabriek
machinegeweer
machinegeweren
machines
machinist
macht
machten
machthebbers
machtig
machtige
machtiging
machtigste
machtsovername
machtspositie
machtsstrijd
macintosh
mack
mackay
mackenzie
macleay
macmillan
macos
macpherson
macquart
macro
maculata
maculatus
mad
madagascar
madagascariensis
madagaskar
madam
madame
made
madeira
madeleine
madhya
madison
madness
madonna
madre
madrid
madsen
mae
maer
maes
maestro
maffia
mag
magazijn
magazine
magda
magdalena
magdeburg
magere
maggie
maggiore
magic
magie
magisch
magische
magister
magistraat
magistraten
magma
magna
magnesium
magnetisch
magnetische
magnificus
magnitude
magnolia
magnum
magnus
maharashtra
mahler
mai
maia
maiden
maigret
mail
main
maine
mainstream
mainz
maior
maire
mairie
mais
maison
maja
majesteit
majeur
majoor
major
mak
make
makelaar
maken
maker
makers
makes
making
makkelijk
makkelijker
mal
mala
malacostraca
malakka
malang
malaria
malawi
malcolm
maldegem
maldiven
male
maleis
maleisie
maleisische
malen
mali
malik
mall
malle
malloch
mallorca
mallory
malmedy
malmo
malo
malone
malta
maltese
mama
mammal
mammals
mamola
man
management
manager
managers
mancha
manche
manchester
mand
mandaat
mandaatgebied
mandarijn
mandela
mandoline
mandy
manen
manet
manfred
mang
manga
mangeliidae
manhattan
mani
manie
manier
manieren
manifest
manifestatie
manifestaties
manila
manilla
manipulatie
manipuleren
mann
mannelijk
mannelijke
mannen
mannendubbelspel
mannenkoor
mannentoernooi
mannetje
mannetjes
mannheim
manning
manon
manor
mans
manschappen
mansfeld
mansfield
mansion
manteau
mantel
mantsjoerije
mantua
manu
manual
manuel
manuscript
manuscripten
manx
many
mao
maori
map
maps
maquette
mar
mara
marais
maranha
marathon
marathonloper
marburg
marc
marcel
marcello
marcellus
marcelo
march
marcha
marche
marcheerde
marcia
marco
marcos
marcus
mare
marechaussee
marek
marga
margaret
margaretha
margarita
marge
marginale
marginata
marginellidae
margot
margraten
margriet
marguerite
mari
maria
mariabeeld
mariakapel
mariakerk
marian
marianne
mariano
marie
marieke
mariene
marijke
marilyn
marimba
marin
marina
marine
marineofficier
marines
marineschepen
marineschip
marinespecies
mariniers
marino
marinus
mario
marion
maris
maritiem
maritieme
maritime
marius
marjan
marjolein
mark
markante
marke
markeerde
markeert
marken
marker
markeren
market
marketing
markgraaf
markgraafschap
markies
marko
marks
markt
marktaandeel
markten
marktplein
markus
marle
marleen
marlena
marlene
marley
marlon
marmer
marmeren
marne
marnix
marokkaans
marokkaanse
marokko
marques
marquis
marriage
married
marrons
mars
marsch
marseille
marsen
marsh
marshal
marshall
mart
marta
martel
martelaar
martelaren
marteling
marten
martens
martha
marthe
marti
martial
martijn
martin
martina
martine
martinez
martini
martinique
martino
martins
martinus
martinuskerk
marty
marusik
marvel
marvin
marx
marxisme
marxistische
mary
maryland
mas
mascotte
mask
masker
maskers
mason
mass
massa
massaal
massachusetts
massacre
massale
massastart
massief
massieve
massimo
mast
masten
master
masters
mat
mata
mataram
match
matches
matchless
matchplay
mate
maten
mater
materiaal
material
materialen
materie
materieel
mateu
mathbb
mathbf
mathcal
mathematical
mathematics
mathias
mathieu
mathilde
mathis
mathrm
matig
matige
mato
matrijzen
matrix
matroos
matrozen
matsumura
matt
matteo
matter
matteu
mattha
mattheus
matthew
matthews
matthias
matthijs
maud
maura
maureen
maurice
mauritanie
mauritius
maurits
maurizio
mauro
mausoleum
mavo
max
maxi
maxilla
maxillaire
maxim
maxima
maximaal
maximale
maxime
maximiliaan
maximilian
maximilien
maximum
maximumsnelheid
maximus
maxwell
may
maya
mayenne
mayer
maynard
mayo
mayor
mayr
mazda
mazovie
mazurie
mazurka
mb
mba
mbar
mbo
mc
mca
mccarthy
mccartney
mccoy
mcdonald
mcdunnough
mcg
mcgrath
mcgregor
mcintosh
mcintyre
mckay
mckenzie
mclaren
mclaughlin
mclean
mcmahon
mcrae
md
me
mea
meadows
mean
meat
meaux
mecenas
mechanica
mechanisch
mechanische
mechanisme
mechanismen
mechelen
mechelse
mecklenburg
med
medaille
medailleklassement
medailleoverzicht
medailles
medaillespiegel
medaillewinnaars
medaillon
medal
mede
mededeling
mededelingen
medeklinker
medeklinkers
medelijden
medemblik
medeoprichter
medestanders
medestichter
medewerker
medewerkers
medewerking
media
medical
medicatie
medici
medicijn
medicijnen
medicine
medicus
medieval
medina
medio
medisch
medische
meditatie
mediterrane
medium
medley
medvedev
mee
meedeed
meedoen
meegedaan
meegemaakt
meegenomen
meegerekend
meegewerkt
meel
meeldraden
meende
meenden
meenemen
meent
meer
meerdaagse
meerdere
meerderheid
meerkamp
meermaals
meermalen
meern
meerssen
meertens
meervallen
meervoud
meervoudig
meervoudige
mees
meespeelde
meespelen
meest
meestal
meeste
meesten
meester
meesters
meesterwerk
meesterwerken
meet
meeting
meetkunde
meetkundige
meets
meeuwen
meeuwis
meewerken
meewerkte
meg
mega
megachile
megachilidae
megan
megaselia
megazord
mehmet
mei
meid
meiden
meidengroep
meier
meigen
meijer
meijers
mein
meine
meiningen
meisje
meisjes
meisjesnaam
meisjesschool
meister
meißen
mekka
mel
melander
melanie
melanotus
melbourne
melchior
meldde
meldden
melden
melding
meldingen
meldt
melissa
melk
melkweg
melle
mello
melo
melodie
melodiee
melody
meloidae
melvill
melville
melvin
member
members
membraan
memoires
memoirs
memorial
memoriam
memories
memory
memphis
men
mendelssohn
mendes
mendoza
meneer
menen
mengelberg
mengeling
mengen
mengsel
menig
menigte
mening
meningen
meningsuiting
meningsverschillen
menno
mens
mensch
menschen
menselijk
menselijke
menselijkheid
mensen
mensenrechten
mensheid
ment
mentaal
mental
mentale
mentor
menu
menzies
meppel
mer
mercator
mercedes
mercer
merchant
mercier
merckx
mercurius
mercury
mercy
mere
meredith
merel
meren
merendeel
merendeels
mergel
meridiaan
meridionalis
merit
merk
merkbaar
merkel
merken
merknaam
merknamen
merksem
merkt
merkte
merkwaardig
merkwaardige
merlin
merode
merovingische
merry
mertens
merton
merwede
mes
mesa
mesnil
mesopotamie
mesoregio
message
messe
messen
messenger
messerschmitt
messi
messias
messina
messing
mest
mesto
met
meta
metaal
metacritic
metafoor
metafysica
metal
metalband
metalen
metallica
metamorfose
meteen
meten
meter
meters
methaan
method
methode
methoden
methodes
meting
metingen
metro
metrolijn
metrolijnen
metropoliet
metropolis
metropolitan
metropool
metrostation
metrostations
metselwerk
metten
metz
meubelen
meubels
meubilair
meulen
meulenhoff
meunier
meurs
meurthe
meuse
mevr
mevrouw
mexicaans
mexicaanse
mexicana
mexico
mey
meyer
meyers
meyrick
mez
mezzosopraan
mg
mgm
mgr
mh
mhnt
mhz
mi
mia
miami
mica
mich
michae
michael
michaels
michail
michel
michelangelo
michele
michelinster
michelle
michels
michiel
michiels
michielsgestel
michigan
mick
mickey
micro
microfoon
microregio
microscoop
microscopische
microsoft
mid
middag
middags
middel
middelbaar
middelbare
middelburg
middeleeuwen
middeleeuws
middeleeuwse
middelen
middelgrote
middellandse
middellange
middellangeafstandsloper
middelnederlands
middelnederlandse
middelpunt
middels
middelste
midden
middendeel
middenhandsbeen
middenklasse
middenmoot
middenschip
middenstand
middenveld
middenvelder
middenvoetsbeen
middernacht
middle
middlesbrough
midi
midland
midlands
midnight
midway
mie
mieke
mien
mieren
mierenjagers
mierenleeuwen
mierensoort
mierlo
mies
mig
might
mighty
migranten
migratie
miguel
mij
mijl
mijlpaal
mijn
mijnbouw
mijne
mijnen
mijnheer
mijnwerkers
mijtensoort
mika
mike
mil
milaan
milan
milano
mild
milde
mildred
mile
miles
milieu
milita
militair
militaire
militairen
military
militie
milities
miljard
miljoen
miljoenen
milk
mill
millar
mille
millennium
miller
millidge
millimeter
million
mills
milne
milo
milos
milt
milton
milwaukee
mimi
min
mina
minas
mind
mindanao
minden
minder
mindere
minderheden
minderheid
minderjarige
minderjarigen
minds
mindy
mine
mineermotten
mineervliegen
mineiro
mineraal
mineralen
minerva
mines
mineur
ming
minh
minhstad
mini
miniaturen
miniatuur
minima
minimaal
minimale
minimum
minis
miniserie
minister
ministerie
ministeries
ministerraad
ministers
ministerschap
ministry
minnaar
minnares
minne
minneapolis
minnesota
minor
minsk
minst
minste
minstens
minus
minuta
minute
minuten
minutes
minutus
minuut
mio
mioceen
mir
mira
mirabilis
miraciidae
miracle
mirage
miranda
miriam
mirjam
miroslav
mirror
mirza
mis
misbruik
misbruikt
misdaad
misdaadfilm
misdaden
misdrijf
misdrijven
mise
mishandeld
mishandeling
mislukken
mislukking
mislukt
mislukte
mislukten
miss
missa
misschien
missen
missie
missies
missing
mission
missionaris
missionarissen
mississippi
missouri
misstanden
mist
miste
misten
mister
misverstand
mit
mitch
mitchell
mithridates
mits
mitsubishi
mitte
mix
mixed
mixtape
mk
ml
mls
mm
mma
mme
mn
mo
mob
mobiel
mobiele
mobile
mobilisatie
mobiliteit
mocht
mochten
mod
modder
mode
model
modellen
modena
modeontwerper
moderato
modern
moderne
moderner
modernere
moderniseren
modernisering
modernisme
modernistische
modesta
modified
module
modules
modus
moe
moed
moeder
moederbedrijf
moeders
moedertaal
moedig
moedigde
moeilijk
moeilijke
moeilijker
moeilijkheden
moeite
moeizaam
moeizame
moer
moeras
moerassen
moerasweekschilden
moerdijk
moeskroen
moest
moesten
moet
moeten
moge
mogelijk
mogelijke
mogelijkheden
mogelijkheid
mogen
mogendheden
mogendheid
mogolrijk
mohamed
mohammad
mohammed
moi
moire
moires
mois
mojo
mol
moldavie
mole
moleculaire
molecular
molecule
moleculen
molecuul
molen
molenaar
molenbeek
molens
molie
molina
moll
molle
mollusca
molly
molophilus
molto
molukken
molukse
mom
moment
momenteel
momenten
moments
mon
mona
monaco
monarch
monarchie
mond
monday
monde
mondeling
mondelinge
monden
mondharmonica
mondiaal
mondiale
monding
mondo
mondopening
mondriaan
mondt
monet
monetair
monetaire
money
monferrato
mongolen
mongolie
mongoolse
monhysterida
monica
monique
monitor
monk
monkey
monne
monnik
monniken
monniot
mono
monogenea
monografie
monogram
monolepta
monomorium
monopolie
monotype
monotypisch
monroe
mons
monsieur
monster
monsters
mont
montage
montagne
montagu
montana
montanus
monte
montenegro
monterey
monterrey
monteur
monteverdi
montevideo
montferland
montfoort
montfort
montgomery
month
monticola
montigny
montpellier
montre
montreal
montreux
montserrat
monty
monument
monumenta
monumentaal
monumentale
monumenten
monumentenlijst
monumentenregister
monumentenzorg
monuments
monza
moody
mooi
mooie
mooiste
mook
moon
moonlight
moor
moord
moordaanslag
moorden
moordenaar
moordenaars
moore
moors
moorse
moorsel
mor
mora
moraal
moral
morales
moran
moravie
mordella
mordellidae
mordellistena
more
moreau
moreel
moreira
morel
morele
moren
moreno
morfologie
morfologische
morgan
morgen
morgens
mori
moritz
morley
morning
moro
morris
morrison
morse
mort
morten
mortier
mortimer
morton
mortsel
mos
mosaic
moscow
mosdiertjessoort
moselle
moser
moses
moskee
moskeee
moskou
moskouse
moslim
moslims
moss
mosselkreeftjes
mosselkreeftjessoort
mossen
most
mot
motel
motet
mother
motie
motief
motieven
motion
motivatie
motmuggen
moto
motogp
motor
motorblok
motorcoureur
motorcross
motorcycle
motoren
motorfiets
motorfietsen
motorfietsmerk
motorische
motors
motorsport
motorwagen
motorwagens
motown
motschulsky
mott
motta
motte
motten
motto
moulin
mount
mountain
mountainbike
mountainbiker
mountains
mouse
mouth
mouvement
move
movement
moves
movie
movies
moving
mozai
mozambique
mozart
mozes
mp
mpc
mpeg
mph
mporteerd
mproviseerde
mr
mrs
ms
msc
msds
msx
mt
mtoe
mtv
mu
muara
much
mueller
mug
muggen
muggensoort
muhammad
muiden
muis
muiterij
muizen
mulder
mulhouse
mulisch
muller
mulo
multatuli
multi
multifunctioneel
multimedia
multinational
multiplayer
multiple
mumbai
mummie
mun
mundi
mundo
municipal
municipality
municipio
munitie
munroe
munster
munt
munteenheid
munten
mura
murat
murcia
murder
murdoch
muren
mures
murex
muricidae
murphy
murray
mus
musa
muscidae
musculus
muse
musea
museeuw
museo
museu
museum
music
musica
musical
musicale
musicals
musici
musicians
musicoloog
musicus
musik
musique
musk
mussolini
must
mustafa
mustang
mutant
mutanten
mutatie
mutaties
muts
muur
muurschildering
muurschilderingen
muze
muziek
muziekalbum
muziekarchief
muziekfestival
muziekfilm
muziekgroep
muziekindustrie
muziekinstrument
muziekinstrumenten
muziekleraar
muziekpedagoog
muziekproducent
muziekprogramma
muziekschool
muziekstijl
muziekstijlen
muziekstuk
muziektheater
muziektheorie
muziekuitgeverij
muziekvideo
muziekwereld
muzikaal
muzikale
muzikant
muzikanten
mv
mvv
mw
mx
my
myanmar
mycetophilidae
mydidae
myers
mylord
mymaridae
myn
myotis
myra
myrmeleon
myrmeleontidae
myrmicinae
myself
mysidae
myspace
mysterie
mysteries
mysterieuze
mystery
mystic
mystiek
mystieke
myth
mythe
mythen
mythische
mythologie
mythologische
myzozoa
mz
møller
n
na
naakt
naakte
naald
naalden
naaldkreeftjes
naaldkreeftjessoort
naaldwijk
naam
naamgever
naamgeving
naamloze
naamsverandering
naamswijziging
naamwoord
naamwoorden
naar
naarden
naargelang
naarmate
naartoe
naast
naaste
naastgelegen
nabestaanden
nabij
nabije
nabijgelegen
nabijheid
naburige
nac
nach
nacht
nachtclub
nachtelijke
nachten
nachtkaardespinnen
nachtpauwogen
nachts
nachtvlinder
nachtwacht
nacional
nacompetitie
nad
nadal
nadat
nadeel
nadelen
nader
naderde
nadere
naderen
naderende
naderhand
nadert
nadia
nadien
nadine
nadruk
nadrukkelijk
nadu
naer
nagano
nagar
nagasaki
nagedachtenis
nagel
nagelaten
nagels
nagenoeg
nageslacht
nagoya
nagy
nai
naididae
nairobi
najaar
nakamura
naked
nakomelingen
nalatenschap
naleving
nam
name
named
namelijk
namen
namens
names
namibie
namiddag
namur
nan
nana
nancy
nantes
naomi
naoorlogse
nap
napels
napole
napoleon
napoleons
napoleontische
napoli
nar
nara
narbonne
narendran
narnia
narva
nas
nasa
nascar
nash
nashville
naslagwerk
nasleep
nassariidae
nassau
nasser
nasynchronisatie
nat
natal
natalia
natalie
natasha
nate
nathalie
nathan
nathaniel
natie
naties
nation
nationaal
nationaalsocialisme
nationaalsocialistische
national
nationale
nationalisme
nationalisten
nationalistisch
nationalistische
nationaliteit
nationaliteiten
nations
native
nato
natrium
natte
natura
naturae
natural
naturalis
nature
naturelle
natuur
natuurbescherming
natuurbeschermingsorganisatie
natuurgebied
natuurgebieden
natuurhistorisch
natuurkunde
natuurkundig
natuurkundige
natuurlijk
natuurlijke
natuurmonumenten
natuuronderzoeker
natuurpark
natuurpunt
natuurreservaat
natuursteen
natuurstenen
natuurwetenschappen
nauw
nauwe
nauwelijks
nauwer
nauwkeurig
nauwkeurige
nauwkeurigheid
nava
naval
navarra
navarro
navigatie
navigator
navo
navolging
navy
naxos
nazareth
nazaten
nazi
nazionale
nb
nba
nbc
nberg
nc
ncaa
ncarnatie
nchen
nchengladbach
nchez
ncrv
nd
nde
ndel
nden
nder
ndez
ndia
ndido
ndp
ne
nea
neal
near
nearctic
nearctisch
nebraska
neburg
nec
neck
neckar
nectar
ned
neder
nederduits
nederlaag
nederlagen
nederland
nederlanden
nederlander
nederlanders
nederlands
nederlandsch
nederlandsche
nederlandse
nederlandstalig
nederlandstalige
nedersaksen
nedersaksisch
nederzetting
nederzettingen
nee
need
neef
neem
neemt
neen
neer
neergang
neergelegd
neergeschoten
neergeslagen
neergezet
neerkomt
neerleggen
neerslaan
neerslag
nees
negatief
negatieve
negen
negende
negenjarige
negentien
negentiende
negentig
negeren
negro
neighbourhood
neiging
neil
neill
nek
nel
nell
nellie
nelly
nelson
nemacheilidae
nematodes
nemen
nemertea
nemo
nemys
nen
neo
neoclassicistische
neogotisch
neogotische
neolithicum
neolithische
neon
neoromaanse
neotropisch
nepal
nepenthes
nepticulidae
neptunus
ner
nereididae
nergens
nero
ners
nervus
nes
nest
nesten
nestor
net
netanyahu
nete
neteldieren
netflix
netherlands
netschildkevers
netten
netto
netvleugeligen
netwerk
netwerken
network
networks
neu
neucha
neue
neuen
neues
neufcha
neumann
neurenberg
neurologische
neuroptera
neuropterida
neus
neusbeen
neusbeenderen
neusgat
neusgaten
neushoorn
neuss
neustadt
neutraal
neutrale
neutraliteit
neutronen
neuve
neuville
nevada
neve
nevel
neven
nevenfuncties
never
nevers
neville
nevis
new
newark
newcastle
newell
newfoundland
newman
newport
news
newton
next
nexus
nez
nf
nfl
nformeerd
ng
nga
ngc
nge
ngel
nger
ngo
nguyen
nh
nhalf
nhl
ni
nia
nias
nic
nica
nicaragua
niccolo
nice
nicholas
nichols
nicholson
nicht
nichtje
nick
nickelodeon
nickerie
nicki
nicky
nico
nicola
nicolaas
nicolaaskerk
nicolaes
nicolai
nicolas
nicolaus
nicole
nicosia
nie
niel
niels
nielsen
niemand
nieren
niet
nietig
nieto
niets
niettemin
nietzsche
nieuw
nieuwbouw
nieuwe
nieuwegein
nieuwelingen
nieuwenhuis
nieuwer
nieuwere
nieuwjaar
nieuwkomer
nieuwkomers
nieuwkoop
nieuwland
nieuwpoort
nieuws
nieuwsbericht
nieuwsblad
nieuwsbrief
nieuwslezer
nieuwste
nieuwstraat
nig
nigel
niger
nigeria
nigeriaans
nigeriaanse
night
nightmare
nights
nigra
nigsberg
nijgh
nijhoff
nijkerk
nijl
nijmeegse
nijmegen
nijs
nijvel
nijverheid
nik
nike
niki
nikita
nikkel
nikki
niklaas
niko
nikola
nikolai
nikolaj
nikolaus
niks
nils
nilsson
nimfen
nimmer
nin
nina
nine
ninh
ninja
nino
ninove
nintendo
nio
nippon
nipt
nirvana
nis
nispen
nissan
nissen
niveau
niveaus
nix
nixon
nizjni
nj
nk
nl
nm
nmbs
nmvb
nn
nnale
no
noah
noardeast
nobel
nobelprijs
nobelprijswinnaar
nobilis
noble
noblesse
nobody
noc
noch
nochtans
noctuidae
nocturne
node
nodig
nodigde
nodige
nodigt
noe
noel
noemde
noemden
noemen
noemenswaardige
noemer
noemt
nog
nogal
nogmaals
noir
noise
nok
nokia
nokkenas
nola
nolan
nolidae
nom
nomadische
nomen
nomenclature
nomenclatuur
nominale
nominatie
nominaties
non
none
nonnen
nood
noodgedwongen
noodig
noodlot
noodtoestand
noodzaak
noodzakelijk
noodzakelijke
nooi
nooit
noor
noord
noordeinde
noordelijk
noordelijke
noordelijken
noordelijker
noordelijkste
noorden
noorder
noorderdepartement
noordgrens
noordkant
noordkust
noordoost
noordoostelijk
noordoostelijke
noordoosten
noordoostpolder
noordpool
noordrijn
noordse
noordwaarts
noordwest
noordwestelijk
noordwestelijke
noordwesten
noordwijk
noordzee
noordzijde
noormannen
noors
noorse
noorwegen
noot
nor
nora
norbert
nord
nordic
noren
norfolk
norm
norma
normaal
normaalspoor
normal
normale
normaliter
norman
normandie
normandische
normen
norrbottens
norris
norte
north
northamptonshire
northern
northumberland
northwest
norton
norwich
nos
not
nota
notabelen
notaris
notatie
note
noten
noteren
notering
notes
nothing
notice
notities
notoc
notodontidae
notre
nottingham
nou
nous
nouveau
nouvelle
nouvelles
nov
nova
novak
nove
novel
novelle
novellen
november
novgorod
novi
novo
now
nowhere
noyes
np
npm
npo
nps
nq
nr
nrc
nrs
ns
nsb
nsdap
nsf
nspireerd
nspireerde
nstalleerd
nster
nsu
nsva
nt
ntaals
ntatie
nte
nteerd
nteerde
ntegreerd
ntegreerde
nten
nter
nteresseerd
nterneerd
nterpreteerd
nterviewd
nther
ntie
ntr
ntroduceerd
ntroduceerde
ntwintig
nu
nucleaire
nuclear
nuenen
nueva
nuevo
nuit
nul
number
numbers
numerieke
nummer
nummering
nummers
nun
nunspeet
nuntius
nur
nusa
nut
nuts
nuttig
nuttige
nv
nvesteerd
nvloed
nvloedde
nvloeden
nvloeding
nvloedt
nwa
nws
nxt
ny
nyi
nymphalidae
nymphon
nys
nzh
o
oak
oakland
oasis
ob
obama
obelisk
obelix
ober
oberhausen
oberliga
oberst
oberthu
object
objecten
objectief
objectieve
oblast
obligaties
obscura
obscurus
observatie
observaties
observatorium
observatory
observer
observeren
obstakel
obstakels
occidentalis
occitanie
oceaan
ocean
oceanen
oceanie
oceanische
och
ochs
ochtend
ochtends
ocmw
octaaf
octave
octavianus
octavius
october
octopus
octrooi
od
oda
odd
ode
odense
oder
odessa
odilon
odin
odis
odo
odonata
odore
odysseus
odyssey
oe
oecophoridae
oedenrode
oefende
oefenen
oefening
oefeningen
oefeninterland
oefenwedstrijd
oefenwedstrijden
oeganda
oegstgeest
oekrai
oeral
oeuvre
oever
oevers
oeververbinding
oevervliegen
oezbekistan
of
off
offenbach
offensief
offensieve
offer
offeren
offers
office
officer
official
officie
officieel
officier
officieren
officieus
officieuze
offs
offshore
ofschoon
oft
ofte
oftewel
ofwel
og
ogan
ogen
ogenblik
ogenschijnlijk
oh
ohio
ohne
oil
oirschot
ois
oise
oisterwijk
ok
okinawa
oklahoma
okres
okt
oktober
ol
ola
olaf
old
oldambt
olde
oldenbarnevelt
oldenburg
oldenzaal
ole
oleg
olga
olie
oliekevers
oliemolen
olieverf
olifant
olifanten
oligoceen
olios
oliveira
oliver
olivia
olivier
ollie
olof
ologie
olomouc
olsen
olsson
olv
olympia
olympiakos
olympic
olympique
olympisch
olympische
olympus
om
oma
omaars
omaha
oman
omar
ombouw
ombudsman
omdat
ome
omega
omer
omgaan
omgang
omgebouwd
omgebracht
omgedoopt
omgedraaid
omgekeerd
omgekeerde
omgekomen
omgerekend
omgeven
omgeving
omgevingen
omgevormd
omgezet
omheen
omhoog
omhulsel
omkwam
omkwamen
omlaag
omliggende
omloop
ommegang
ommelanden
ommen
ommuurde
omnibus
omnium
omringd
omringende
omroep
omroepen
omschreef
omschreven
omschrijft
omschrijven
omschrijving
omsingeld
omslag
omsloten
omstandigheden
omstreden
omstreeks
omstreken
omtrek
omtrent
omvang
omvangrijk
omvangrijke
omvat
omvatte
omvatten
omver
omwalling
omweg
omwenteling
omwille
omwonenden
omzeilen
omzet
omzetten
omzetting
on
onafgebroken
onafhankelijk
onafhankelijke
onafhankelijkheid
onafhankelijkheidsoorlog
onafhankelijkheidsverklaring
onard
onbedoeld
onbekend
onbekende
onbemande
onbepaalde
onbeperkt
onbewoond
onbewoonde
onbewust
onbruik
onbruikbaar
once
ondanks
onder
onderaan
onderaardse
onderarm
onderbouw
onderbreking
onderbroken
onderdak
onderdanen
onderdeel
onderdelen
onderdistrict
onderdrukken
onderdrukking
onderdrukt
onderduiken
onderduikers
onderen
onderfamilie
ondergaan
ondergaat
ondergang
ondergebracht
ondergedoken
ondergeschikt
ondergeschikte
ondergeslacht
onderging
ondergrond
ondergronds
ondergrondse
onderhandeld
onderhandelde
onderhandelen
onderhandelingen
onderhevig
onderhield
onderhoud
onderhouden
onderhoudt
onderkaak
onderkaken
onderkant
onderklasse
onderkomen
onderkoning
onderliggende
onderling
onderlinge
onderluitenant
ondernam
ondernemen
ondernemer
ondernemers
onderneming
ondernemingen
ondernomen
onderofficieren
onderorde
onderrand
onderricht
onderscheid
onderscheidde
onderscheiden
onderscheidende
onderscheiding
onderscheidingen
onderscheidt
ondersoort
ondersoorten
onderstaand
onderstaande
onderste
onderstel
ondersteund
ondersteunde
ondersteunen
ondersteunende
ondersteuning
ondersteunt
ondertekend
ondertekende
ondertekenen
ondertekening
ondertitel
ondertussen
onderuit
onderverdeeld
onderverdeling
ondervinden
ondervindt
ondervond
ondervonden
ondervoorzitter
ondervraagd
ondervraagden
onderwees
onderweg
onderwereld
onderwerp
onderwerpen
onderwerping
onderwezen
onderwierp
onderwijs
onderwijsinstellingen
onderwijzen
onderwijzer
onderwijzeres
onderwijzers
onderworpen
onderzeeboot
onderzeeboten
onderzeee
onderzijde
onderzocht
onderzoek
onderzoeken
onderzoeker
onderzoekers
onderzoekscommissie
onderzoeksinstituut
onderzoekt
ondiep
ondiepe
onduidelijk
onduidelijke
onduidelijkheid
one
oneindig
oneindige
onenigheid
onervaren
ones
oneven
ongeacht
ongebruikelijk
ongebruikelijke
ongedaan
ongehuwd
ongekende
ongeldig
ongelijk
ongelijke
ongelijkheid
ongeluk
ongelukken
ongelukkig
ongelukkige
ongenoegen
ongeplaatste
ongeschikt
ongeschonden
ongeslagen
ongetwijfeld
ongeval
ongevallen
ongeveer
ongewenst
ongewenste
ongewervelden
ongewijzigd
ongewone
ongewoon
ongunstig
ongunstige
onjuist
onjuiste
onlangs
online
onlusten
only
onmiddellijk
onmiddellijke
onmogelijk
onmogelijke
onno
onnodig
ono
onofficie
ononderbroken
onopgemerkt
onrecht
onrechte
onrechtmatig
onregelmatig
onregelmatige
onroerend
onroerende
onroerenderfgoed
onrust
ons
onschadelijk
onschuld
onschuldig
onschuldige
onse
onstabiele
ont
ontario
ontbijt
ontbinden
ontbinding
ontbonden
ontbossing
ontbrak
ontbraken
ontbreekt
ontbreken
ontbrekende
ontdaan
ontdekken
ontdekker
ontdekking
ontdekkingen
ontdekkingsreiziger
ontdekt
ontdekte
ontdekten
ontdoen
onteigend
onterecht
ontevreden
ontevredenheid
ontginning
ontgonnen
onthaald
ontheven
onthoofd
onthophagus
onthouden
onthuld
onthulde
onthullen
onthulling
onthult
ontkend
ontkende
ontkennen
ontkent
ontkomen
ontlasting
ontleend
ontleende
ontleent
ontlopen
ontmanteld
ontmanteling
ontmoet
ontmoeten
ontmoeting
ontmoetingen
ontmoette
ontmoetten
ontnomen
ontploffing
ontploft
ontplofte
ontpopte
ontruimd
ontslaan
ontslag
ontslagen
ontsloeg
ontsloten
ontsluiting
ontsnappen
ontsnapping
ontsnapt
ontsnapte
ontspannen
ontspanning
ontspringt
ontstaan
ontstaansgeschiedenis
ontstaat
ontstane
ontsteking
ontstoken
ontstond
ontstonden
onttrekken
onttrokken
ontvangen
ontvanger
ontvangers
ontvangst
ontvangt
ontving
ontvingen
ontvlucht
ontvluchten
ontvoerd
ontvoeren
ontvoering
ontwaakt
ontwaken
ontwerp
ontwerpen
ontwerper
ontwerpers
ontwierp
ontwijken
ontwikkelaar
ontwikkelaars
ontwikkeld
ontwikkelde
ontwikkelden
ontwikkelen
ontwikkeling
ontwikkelingen
ontwikkelingslanden
ontwikkelingssamenwerking
ontwikkelt
ontworpen
ontzet
ontzetten
ontzetting
onuitgegeven
onveilig
onveranderd
onvermijdelijk
onverminderd
onverwacht
onverwachte
onverwachts
onvoldoende
onvolledig
onvolledige
onvoltooid
onvoltooide
onvrede
onwaarschijnlijk
onweer
onze
onzeker
onzekere
onzekerheid
onzen
onzer
onzichtbaar
onzichtbare
oo
oock
oog
oogen
oogenblik
oogje
oogkas
oogkassen
oogmerk
oogpunt
oogst
oogsten
oogstte
ooievaar
ooit
ook
oom
ooms
oor
oord
oordeel
oordeelde
oordelen
oorkonde
oorlog
oorlogen
oorlogsfilm
oorlogsgeweld
oorlogsgraven
oorlogsjaren
oorlogsmisdaden
oorlogsmisdadiger
oorlogsmonument
oorlogsmonumenten
oorlogsschepen
oorlogsschip
oorlogstijd
oorlogsvoering
oorlogvoering
oorschot
oorsprong
oorspronkelijk
oorspronkelijke
oorzaak
oorzaken
oost
oostelijk
oostelijke
oosten
oostende
oostenrijk
oostenrijker
oostenrijkers
oostenrijks
oostenrijkse
oosterbeek
oosterhout
oosterhuis
oosters
oosterschelde
oosterse
oostfront
oostgrens
oostindische
oostkant
oostkust
oostwaarts
oostzee
oostzijde
op
opa
opbouw
opbouwen
opbrengst
opbrengsten
opdagen
opdat
opdeling
opdracht
opdrachten
opdrachtgever
opdrachtgevers
ope
opeens
opeenvolgende
opeenvolging
opel
open
openbaar
openbaarheid
openbare
openbaring
opende
openden
openen
opengesteld
openheid
opening
openingen
openingsceremonie
openingspartij
openingswedstrijd
openlijk
openlijke
openluchtmuseum
opensourcesoftware
opent
opera
operatie
operaties
operation
operationeel
operationele
operations
operator
operatorname
operazanger
opereerde
opereert
opereren
operette
opgaan
opgaande
opgang
opgave
opgeblazen
opgebouwd
opgebroken
opgedaan
opgedeeld
opgedragen
opgee
opgegaan
opgegeten
opgegeven
opgegraven
opgegroeid
opgehaald
opgehangen
opgeheven
opgehouden
opgeknapt
opgekocht
opgelegd
opgelegde
opgeleid
opgeleide
opgeleverd
opgelopen
opgelost
opgemaakt
opgemerkt
opgenomen
opgepakt
opgepikt
opgericht
opgerichte
opgeroepen
opgeschort
opgeschreven
opgeslagen
opgesloten
opgesomd
opgesplitst
opgestart
opgesteld
opgestelde
opgetekend
opgeteld
opgetreden
opgetrokken
opgevangen
opgevat
opgeven
opgevoed
opgevoerd
opgevolgd
opgevuld
opgewaardeerd
opgewassen
opgewekt
opgeworpen
opgezet
opgezette
opging
opgraving
opgravingen
opgroeide
ophaalbrug
ophalen
ophanging
ophef
opheffen
opheffing
ophield
ophouden
opiliones
opinie
opium
opius
opkomen
opkomende
opkomst
opkwam
oplage
opleggen
opleiding
opleidingen
opleverde
opleveren
oplevering
oplevert
opleving
opliep
oplopen
oplopende
oplosbaar
oplosmiddel
oplossen
oplossing
oplossingen
opm
opmaken
opmars
opmerkelijk
opmerkelijke
opmerking
opmerkingen
opnam
opname
opnamen
opnames
opnamesessies
opnamestudio
opneemt
opnemen
opnieuw
opold
opole
opper
opperarmbeen
opperbevel
opperbevelhebber
opperste
oppervlak
oppervlakken
oppervlakte
oppervlaktewater
oppositie
oppositiepartij
oprecht
oprichten
oprichter
oprichters
oprichting
oprichtte
opriep
oproep
oproepen
oproer
oprukken
oprukkende
ops
opschrift
opslaan
opslag
opslagplaats
opsluiting
opsomming
opsporen
opsporing
opspraak
opstaan
opstaande
opstand
opstandelingen
opstanden
opstandige
opstanding
opstellen
opstelling
opstijgen
optica
optie
opties
optimaal
optimale
optioneel
optionele
optisch
optische
optocht
optrad
optraden
optreden
optredens
optreedt
optrekken
opus
opvallend
opvallende
opvang
opvangen
opvarenden
opvatting
opvattingen
opvoeding
opvoering
opvolgde
opvolgen
opvolgende
opvolger
opvolgers
opvolging
opwachting
opwarming
opwekken
opwekking
opzet
opzettelijk
opzetten
opzicht
opzichte
opzichten
opzichter
opzien
opzij
opzoeken
or
ora
oracle
orakel
orale
orange
oranje
oratoria
oratorium
orbigny
orchestra
orchestre
orchideee
orde
orden
ordening
order
orders
ordes
ordo
ordre
ore
oregon
oren
org
orgaan
organ
organen
organisatie
organisaties
organisation
organisator
organisatoren
organisatorische
organisch
organische
organiseerde
organiseerden
organiseert
organiseren
organisme
organismen
organist
organization
orgel
orgelbouwer
orgels
orie
orient
oriental
orientalis
orientation
origin
original
origine
origineel
originele
origins
orion
orkaan
orkest
orkesten
orkestleider
orkestratie
orlando
orle
orleans
ornamenten
ornata
ornatus
orne
ornitholoog
oro
orpheus
ort
ortea
ortega
orthodox
orthodoxe
ortiz
orton
ortsgemeinde
ortsteil
os
osaka
osborn
osborne
oscar
oscars
osdorp
osiris
oskar
oslo
osmia
osnabru
oss
ossetie
ost
osten
osteodermen
ostracoda
ostrava
oswald
othello
other
otis
ottawa
otte
otten
otter
otterspeer
otto
ottomaanse
ottomanen
ou
oud
oude
ouden
oudenaarde
ouder
ouderdom
oudere
ouderen
ouderkerk
ouderlijk
ouders
ouderwetse
oudewater
oudgrieks
oudgriekse
oudheden
oudheid
oudheidkundige
oudsher
oudst
oudste
oudsten
ouest
our
out
outdoor
outer
outfase
outside
outstanding
ouverture
ov
ova
ovaal
ovaalvormig
ovale
oven
over
overal
overall
overbleef
overblijfsel
overblijfselen
overblijft
overblijvende
overbodig
overbrengen
overbrenging
overbruggen
overdag
overdekt
overdekte
overdosis
overdraagbaar
overdracht
overdragen
overdreven
overdwars
overeen
overeengekomen
overeenkomen
overeenkomst
overeenkomsten
overeenkomstig
overeenkomstige
overeenkomt
overeenstemming
overeind
overgaan
overgaat
overgang
overgangsklasse
overgave
overgebleven
overgebracht
overgedragen
overgegaan
overgeheveld
overgelaten
overgeleverd
overgeleverde
overgenomen
overgeplaatst
overgeslagen
overgestapt
overgestoken
overgeven
overging
overgrootvader
overgrote
overhalen
overhand
overhandigd
overheden
overheen
overheersing
overheid
overheidsdienst
overig
overige
overigen
overigens
overijssel
overijsselse
overkant
overkapping
overkoepelende
overkomen
overkwam
overlappen
overlast
overleden
overledene
overledenen
overleed
overleefd
overleefde
overleefden
overleeft
overleg
overleggen
overleven
overlevende
overlevenden
overlevering
overleveringen
overlijden
overlijdensbericht
overlijdt
overmaat
overmacht
overnachten
overnam
overname
overnames
overnemen
overschot
overschreden
overschrijden
overspanning
overspant
overspel
overstap
overstappen
overstapte
overste
oversteek
oversteken
overstroming
overstromingen
overtocht
overtreden
overtreding
overtredingen
overtuigd
overtuigde
overtuigen
overtuigend
overtuiging
overtuigingen
overtuigt
overture
overval
overvallen
overview
overvloed
overweg
overwegen
overwegend
overweging
overwegingen
overwicht
overwinnaar
overwinnen
overwinning
overwinningen
overwinteren
overwintert
overwogen
overwonnen
overwoog
overzeese
overzicht
overzichtstentoonstelling
overzijde
ovidius
owen
owens
own
oxford
oxfordshire
oxidatie
oxide
oxyopes
oyen
oz
p
pa
paal
paar
paard
paarden
paardensport
paardentram
paars
paarse
pablo
pac
pace
pacific
pacifica
pacifische
pack
packard
paco
pact
pad
padang
paddenstoel
paddenstoelen
paddenstoelmuggen
paddington
paden
paderborn
padua
paepe
pag
page
pages
pagina
paguridae
paguroidea
pai
paige
pain
painter
painting
pair
pais
paix
pak
pakhuis
pakhuizen
pakistaanse
pakistan
pakken
pakket
pakketten
pakt
pakte
pal
pala
palace
palaemonidae
palais
palau
palazzo
pale
palearctisch
paleis
paleizen
palen
paleoceen
paleontologie
paleontology
paleontoloog
palermo
palestijnen
palestijns
palestijnse
palestina
palestine
paling
pallas
pallida
pallidus
palm
palma
palmares
palmas
palmeiras
palmen
palmer
palpen
palts
paltsgraaf
pam
pamela
pamflet
pamfletten
pamphagidae
pan
panama
panchayat
pand
panda
pandemie
panden
pandora
paneel
panel
panelen
panhuysen
panic
paniek
panne
pannen
panorama
panoramio
pantheon
panther
pantser
pantserdivisie
pantserkorps
pantserleger
panzer
panzergrenadier
paola
paolo
papa
pape
paper
paperback
papers
papier
papieren
papilio
papoea
papp
papyri
papyrus
par
para
parachute
parachutisten
parade
paradijs
paradise
paradiso
paradox
paragraaf
paraguay
parai
parallel
parallelle
paralympisch
paralympische
paramaribo
parameter
parameters
paramount
parana
paraplu
parasiet
parasieten
parasitaire
parc
parcours
pardon
pardosa
pardubice
parel
parels
paren
parijs
parijse
paring
paris
parish
park
parkeergarage
parkeerplaats
parkeerplaatsen
parken
parker
parket
parkinson
parks
parlement
parlementair
parlementaire
parlementarie
parlementen
parlementsleden
parlementslid
parlementsverkiezingen
parliament
parma
parochie
parochiekerk
parochies
parodie
parool
parque
parra
parsed
parsons
part
partei
partement
parthen
parti
partial
participatie
particulier
particuliere
particulieren
partido
partie
partij
partijbestuur
partijcongres
partijen
partijgenoot
partijleider
partijvoorzitter
partita
partituur
partizanen
partner
partners
partnerschap
partnersteden
parts
party
parva
parvus
pas
pascal
pascoe
pasen
pasgeboren
pasja
paso
paspoort
pass
passage
passages
passagier
passagiers
passalidae
passe
passeerde
passeert
passen
passend
passende
passer
passeren
passie
passief
passieve
passion
past
paste
pasten
pastoor
pastor
pastorale
pastorie
pat
patent
pater
paters
path
pathe
patie
patria
patriarch
patriarchaat
patrice
patricia
patriciaat
patricie
patrick
patriot
patriotten
patriottische
patrol
patronen
patroon
patroonheilige
patrouille
patterson
patti
patton
patty
pau
pauken
paul
paula
pauli
pauline
paulista
paulo
paulus
pauluskerk
paus
pauselijk
pauselijke
pausen
pauw
pauwels
pauze
pavel
pavia
paviljoen
pax
pay
payne
pays
paz
pb
pc
pcc
pd
pdc
pdf
pe
peace
peacock
peak
pearl
pearson
pec
pech
peck
peckham
pedaal
pedagogiek
pedagogische
pedagoog
pedersen
pediciidae
pedro
peel
peer
pees
peeters
pegasus
peggy
peil
peildatum
peilingen
peine
pekela
peking
pele
pelgrims
pelle
peloponnesos
peloton
pels
pen
penalty
pendant
penelope
peng
penguin
penis
penn
penning
penningen
penningmeester
pennsylvania
penny
pensioen
pensioenen
pension
pensionering
people
peper
pepijn
pepper
per
peratie
peratieve
perceel
percelen
percentage
percussie
percussionist
percy
pereira
perez
perfect
perfecte
performance
peringuey
period
periode
perioden
periodes
periodetitel
periodiek
periodieke
peristomium
perk
perkament
perkamentus
perken
perkins
perlidae
perm
permanent
permanente
pernambuco
pero
perron
perrons
perry
pers
persbericht
persconferentie
persen
perseus
person
personage
personages
personal
personality
personeel
personeelsleden
personele
personen
personenauto
personenvervoer
persoon
persoonlijk
persoonlijke
persoonlijkheden
persoonlijkheid
persoonsgegevens
perspectief
perspective
perspectives
perth
peru
perugia
perzen
perzie
perzisch
perzische
pest
pet
pete
peter
peters
petersburg
petersen
peterson
petit
petite
petitie
petra
petri
petroleum
petronella
petrus
petuch
peugeot
peyton
pez
pezen
pf
pfeiffer
pg
pga
pgc
ph
phane
phantom
phase
phasmatidae
phasmatodea
phd
pheidole
phi
phil
philadelphia
philharmonic
philharmonisch
philip
philipp
philippe
philippi
philippine
philippines
philippus
philips
phillip
phillips
philodromus
philopotamidae
philosciidae
philosophical
philosophie
philosophy
pho
phoebe
phoenix
pholcidae
phone
phoridae
photo
photography
php
phu
phyllis
phyllodocidae
phyllonorycter
phylogenetic
phylogeny
physical
physics
pi
pia
piacenza
pianist
pianiste
piano
pianoconcert
pianotrio
piaui
piazza
pic
picard
picardie
picasso
piccadilly
piccolo
pick
pickard
pico
picta
pictogram
picture
pictures
pidie
pie
piece
pieces
piek
pieken
piekte
pier
pierce
pieridae
piero
pierre
pierson
piet
pieter
pieters
pieterskerk
pietje
pietro
pigment
pijl
pijlen
pijler
pijlers
pijlstaarten
pijn
pijnacker
pijnlijk
pijnlijke
pijp
pijpen
pijpleiding
pike
pilaren
pilasters
pilatus
piloot
pilot
piloten
pils
pilsbry
pilsen
pim
pin
pine
ping
pingui
pink
pinkpop
pinksteren
pinot
pinto
pinus
pinyin
pion
pioneer
pionier
pioniers
piotr
piper
pippi
piraat
piraeus
piramide
pirate
piraten
piraterij
pirates
pisa
pissebed
piste
pistool
pit
pitkin
pitt
pittsburgh
piu
pius
pixels
pizza
pjotr
pk
pkc
pkn
pl
pla
plaag
plaat
plaatje
plaatjes
plaats
plaatse
plaatselijk
plaatselijke
plaatsen
plaatsgevonden
plaatsing
plaatsje
plaatsnaam
plaatsnamen
plaatst
plaatste
plaatsten
plaatsvervangend
plaatsvervanger
plaatsvinden
plaatsvindt
plaatsvond
plaatsvonden
place
places
plafond
plain
plains
plak
plakken
plan
planck
plane
planeet
planet
planetaire
planeten
planetoi
plank
planken
plannen
planning
plant
plantaardig
plantaardige
plantage
plantages
planten
plantenetende
plantensoorten
plants
plantsoen
plaquette
plas
plasma
plassen
plastic
plastische
plat
plata
plate
plateau
platen
platencontract
platenlabel
platenmaatschappij
platform
platforms
platia
platina
platinum
platnick
plato
platte
plattegrond
platteland
platworm
platwormen
platygastridae
platyhelminthes
platz
play
playboy
player
players
playhouse
playing
plays
playstation
plaza
plc
please
pleasure
plechtig
plechtige
plechtigheid
pleegde
pleegden
pleegt
plegen
pleidooi
plein
pleinen
pleistoceen
pleit
pleitbezorger
pleiten
pleitte
plek
plekke
plekken
pleurocoelen
plezier
plicht
plichten
plinius
plint
plioceen
plo
ploeg
ploegen
ploegenachtervolging
ploegenklassement
ploegentijdrit
ploeggenoot
ploeggenoten
ploegleider
ploegmaat
plot
plotarea
plotdata
plots
plotse
plotseling
plotselinge
plovdiv
plug
plunderden
plunderen
plundering
plunderingen
plus
plutarchus
pluto
plymouth
pm
pneumatische
png
po
pocket
poco
pocock
pod
podcast
podia
podium
podiumplaats
podiumplaatsen
podiumplekken
podlachie
poe
poeder
poel
poems
poes
poetin
poetry
poging
pogingen
point
pointe
points
poirot
poison
poitiers
pokal
poke
poker
pokerspeler
pokken
pol
polaire
polak
polanen
polar
polder
poldermolen
polders
pole
polen
poli
police
policy
poliep
polis
politbureau
politica
political
politici
politicologie
politicoloog
politics
politicus
politie
politieagent
politieagenten
politiebureau
politiek
politieke
politieman
politieserie
politique
polizei
polka
poll
polly
polo
pols
polsstokhoogspringen
polycentropodidae
polydor
polynesie
polynoidae
polyrhachis
pommeren
pomp
pompeius
pompen
pond
ponder
ponerinae
pons
pont
ponte
pontificaat
pontus
pony
poogde
pool
poole
pools
poolse
poor
poore
poort
poorten
poortgebouw
poot
pootjes
pop
pope
poperinge
popgroep
popmuziek
popov
poppe
poppen
populair
populairder
populaire
populairste
popular
populariteit
populatie
populaties
population
por
porie
porsche
porselein
port
porta
portaal
portal
porte
portefeuille
porter
portland
porto
portrait
portret
portretten
portsmouth
portugal
portugees
portugese
portugezen
pos
poseidon
positie
positief
posities
positieve
position
post
postcode
postcrania
posten
poster
posters
postkantoor
postma
postorbitale
postume
postuum
postzegel
postzegels
pot
potamidae
poten
potentie
potentieel
potlood
potsdam
potten
potter
poule
poules
poulsen
pour
powell
power
powers
powiat
poznan
pp
ppen
pr
pra
praag
praat
praatprogramma
pracht
prachtig
prachtige
prachtmotten
prachtvlinders
practice
pradesh
prado
praemaxilla
praha
prairie
praktijk
praktijken
praktisch
praktische
praten
pratt
prayer
pre
precies
precieze
precisie
predator
predicaat
predikant
predikanten
prediking
preek
preekstoel
prees
prefect
prefectuur
prefrontale
prehistorie
prehistorische
preis
preken
prelude
preludes
premie
premier
premiere
premiers
premierschap
premio
premium
prent
prenten
pres
preselectie
present
presentatie
presentator
presentatoren
presentatrice
presenteerde
presenteert
presenteren
presents
president
presidenten
presidential
presidentie
presidentschap
presidentskandidaat
presidentsverkiezingen
presidium
presley
press
pressure
prestatie
prestaties
prestatietabel
presteerde
presteren
prestige
prestigieuze
presto
preston
pretoria
pretpark
pretty
preußen
preventie
preview
pri
price
pride
priemgetal
priemgetallen
priest
priester
priesterkoor
priesters
priestley
prijs
prijsvraag
prijzen
prijzengeld
prikkels
prima
primair
primaire
primary
prime
primera
primeur
primitief
primitieve
primo
primus
prince
princeps
princess
princeton
principe
principes
principles
prins
prinsbisdom
prinsen
prinsengracht
prinses
print
prinz
prior
priorij
prioriteit
prisma
prison
pristimantis
privacy
private
prive
privilege
privileges
prix
prize
pro
probeerde
probeerden
probeert
proberen
probleem
problem
problematiek
problematisch
problemen
problems
proc
procedure
procedures
proceedings
procent
proces
process
processen
processie
processor
processus
procureur
produceerde
produceerden
produceert
producent
producenten
producer
produceren
producers
product
producten
productie
productiebedrijf
productief
productiehuis
productieproces
producties
productieve
production
productions
productiviteit
products
proef
proefschrift
proeven
prof
profcarrie
profcontract
profeet
professional
professionals
professioneel
professionele
professor
professoren
profeten
profiel
profielen
profile
profiteerde
profiteren
profs
profvoetbal
profvoetballer
program
programma
programmamaker
programme
programmeertaal
programmeren
programmering
progress
progressief
progressieve
progressive
project
projecten
projectie
prolongeerde
proloog
promenade
prometheus
prominent
prominente
promise
promo
promoten
promotie
promotor
promoveerde
promoveerden
promoveert
promovendus
promoveren
prompt
pronk
proof
prooi
prooidieren
prooien
proosdij
proost
propaganda
proporties
prorail
prosper
prostituee
prostituees
prostitutie
prostomium
protagonist
protectie
protection
protectoraat
protei
protest
protestant
protestanten
protestantisme
protestants
protestantse
protesteerde
protesten
protesteren
proto
protocol
protocollen
proton
protonen
prototype
prototypes
prout
provence
providence
province
provincia
provinciaal
provinciale
provincie
provincieraad
provincieraadslid
provincies
proximus
proza
pru
pruisen
pruisisch
pruisische
ps
psalm
psalmen
psalter
psc
psd
pseudo
pseudomelatomidae
pseudoniem
psg
psi
psp
psv
psyche
psychedelische
psychiater
psychiatrie
psychiatrisch
psychiatrische
psychidae
psychische
psycho
psychologie
psychologisch
psychologische
psychology
psycholoog
psychomyiidae
pt
pteromalidae
pteromalus
pterophoridae
pteropus
pterosaurie
pterostichus
pterygoi
ptilodactylidae
ptn
ptolemaeus
ptt
pu
pub
public
publicatie
publicaties
publications
publiceerde
publiceerden
publiceert
publiceren
publicist
publiciteit
publiek
publieke
publiekelijk
publieksprijs
publique
published
publishers
publishing
publius
pueblo
puerto
puin
pulau
pulchra
punch
punctata
punctatus
punische
punjab
punk
punkband
punt
punta
punten
puntenklassement
puntenkoers
puntentelling
puntig
puntige
puntje
pupil
purcell
pure
purmerend
purple
push
pusilla
put
putte
putten
putzeys
puur
puy
puzzel
pv
pvda
pvv
px
pyeongchang
pyralidae
pyramidellidae
pyre
pyreneee
pyrgomorphidae
pyrmont
pyrrhus
pythagoras
python
pz
q
qadhafi
qaida
qatar
qbuzz
qi
qin
qing
qu
qua
quad
quadratojugale
quadratum
quality
quam
quantum
quarantaine
quarterly
quartet
quasi
quatre
quattro
que
quebec
queen
queens
queensland
quentin
quercus
querido
quest
question
questions
quezon
qui
quick
quiet
quincy
quinn
quintana
quintet
quintus
quito
quiz
quo
quoy
r
ra
raad
raadgever
raadhuis
raadplegen
raadpleging
raadsbesluit
raadsel
raadsheer
raadsleden
raadslid
raadsman
raaf
raak
raakt
raakte
raakten
raakvlak
raalte
raam
rabat
rabbijn
rabbit
rabobank
rac
race
racen
racer
racers
races
raceweekend
raceweekenden
rachel
racing
racisme
racistische
rad
radar
radboud
rade
raden
raderdieren
raderdiertjessoort
radiale
radicaal
radical
radicale
radicalen
radio
radioactief
radioactieve
radiopresentator
radioprogramma
radiostation
radiostations
radiozender
radiozenders
rae
raf
rafae
rafael
rage
ragonot
rahman
rai
raid
rail
railroad
rails
railway
railways
rain
rainbow
rainer
raire
raja
raken
raket
raketten
ral
rale
ralf
rally
ralph
ram
rama
rambur
ramen
rami
ramique
ramme
ramo
ramon
ramos
ramp
rampen
ramsay
ramses
ramsey
ran
rana
rance
ranch
rand
randall
randen
randolph
random
randstad
randstadrail
randy
rang
range
rangen
ranger
rangers
rangle
ranglijst
rangschikking
ranking
rao
raoul
rap
raphae
raphael
raphitomidae
rapid
rapids
rapper
rappers
rapport
rapporteerde
rapporten
rapporteren
rarchie
rard
rare
ras
rasmussen
rassen
rat
rate
rathaus
rathbun
rating
ratio
ration
rationele
rats
ratten
rattus
ratzeburg
rau
rault
rauwe
ravel
raven
ravenbeksbeen
ravenna
ravenstein
raw
ray
raya
raymond
razend
razowski
razzia
rb
rbc
rburgring
rc
rca
rcd
rce
rd
rde
rden
rdinaten
rdinatie
rdinator
rdineerde
rdineren
rdoba
re
reactie
reacties
reactor
reactoren
read
reader
reading
ready
reagan
reageerde
reageerden
reageert
reagens
reageren
real
realisatie
realiseerde
realiseert
realiseren
realisme
realistisch
realistische
realiteit
reality
really
rear
reason
rebecca
rebel
rebellen
rebellie
rebro
rec
recensent
recensenten
recensie
recensies
recent
recente
recentelijk
recentere
recept
recepten
receptie
receptoren
recessie
recherche
rechercheur
rechercheurs
recht
rechtbank
rechtbanken
rechte
rechten
rechter
rechterflank
rechterhand
rechterkant
rechterlijke
rechteroever
rechters
rechtervleugel
rechterzijde
rechthoekig
rechthoekige
rechtmatige
rechtop
rechtopstaande
rechts
rechtsback
rechtse
rechtsgeleerde
rechtsgeleerdheid
rechtspersoon
rechtspraak
rechtstreeks
rechtstreekse
rechtszaak
rechtszaken
rechtvaardige
rechtvaardigen
rechtvaardigheid
rechtvleugelig
rechtvleugeligen
reclame
reconstructie
reconstrueren
record
recordaantal
recordhouder
recording
recordings
records
recreatie
recreatiegebied
recreatieve
rector
recueil
red
redacteur
redactie
redde
redden
redding
rede
redelijk
redelijke
reden
redenen
reder
rederij
redman
redt
redtenbacher
reduceren
reductie
ree
reed
reeder
reeds
reeks
reeksen
reekshoofd
rees
reese
reeve
reeves
refereert
reference
referendum
referentie
referenties
reflectie
reflections
reformatie
reformatorisch
refrein
reg
regan
regeerde
regeerden
regeering
regeerperiode
regeert
regel
regelde
regelen
regelgeving
regeling
regelingen
regelmaat
regelmatig
regelmatige
regels
regelt
regen
regenboog
regensburg
regent
regenten
regentes
regentschap
regenval
regenwater
regenwoud
regenwouden
regeren
regerend
regerende
regering
regeringen
regeringsleider
regeringsraad
reggae
reggio
regia
regie
regime
regiment
regimenten
regina
reginald
regio
region
regionaal
regional
regionale
regionalliga
regionen
regisseerde
regisseren
regisseur
regisseurs
register
registers
registratie
registreren
registry
reglement
reglementen
regout
reguleren
regulier
reguliere
rehn
rei
reich
reid
reigns
reiken
reikt
reikte
reilly
reims
rein
reina
reine
reinhard
reinhardt
reinhold
reinier
reinoud
reis
reisde
reisden
reist
reistijd
reitter
reizen
reiziger
reizigers
rekende
rekenen
rekening
rekeningen
rekenkamer
rekent
rel
related
relatie
relatief
relaties
relatieve
relations
relativiteitstheorie
release
releases
relevant
relevante
relie
relief
relieken
religie
religies
religieus
religieuze
religion
religious
relikwiee
rellen
rem
remains
remake
rembrandt
remco
remember
remi
remise
remix
remixen
remixes
remmen
remo
remy
ren
renaissance
renaissancestijl
renard
renate
renato
renaud
renault
rend
rendabel
rende
rendement
rene
renesse
renkum
rennen
renner
renners
rennes
reno
renoir
renovatie
rens
renspinnen
rent
rente
rentmeester
rentree
reorganisatie
reparatie
reparaties
repareren
repertoire
replay
replica
report
reportage
reportages
reporter
reports
representatie
representatieve
repressie
reprise
reptielen
republic
republiek
republieken
republikein
republikeinen
republikeins
republikeinse
reputatie
request
requiem
rer
res
rescue
research
reservaat
reserve
reserves
reservoir
residence
resident
residentie
resistance
resolutie
resoluties
resolve
resolver
resort
resource
resources
resp
respect
respecteren
respectievelijk
respectievelijke
respons
response
rest
restant
restanten
restatistieken
restaurant
restaurants
restauratie
restauraties
restaureren
resten
resterende
restless
resultaat
resultaten
resulteerde
resulteert
resulteren
resulterende
results
ret
retabel
reticulata
retour
retrieved
retro
return
returns
reu
reunion
reus
reusachtige
reuss
reuter
reuters
reuzen
reuzenslalom
rev
revalidatie
reve
revenge
reverse
review
reviews
revised
revisie
revision
revisited
revival
revolutie
revolution
revolutionair
revolutionaire
revolutionairen
revolver
revue
rex
rey
reyes
reykjavik
reynolds
rez
rfc
rfd
rfn
rg
rgb
rgen
rhabditophora
rhapsody
rheden
rhein
rhenen
rhin
rho
rhode
rhodes
rhodesie
rhodos
rhyacophilidae
rhynchitidae
rhythm
ri
ria
riau
rib
ribben
ribeiro
ric
rica
ricaans
ricardo
riccardo
ricci
rice
rich
richard
richards
richardson
richel
richelieu
richels
richie
richmond
richt
richten
richter
richting
richtingen
richtlijn
richtlijnen
richtte
richtten
rick
ricky
rico
rida
ridder
ridderkerk
ridderkruis
ridderorde
ridderorden
ridders
ridderschap
ride
rider
riders
ridge
riding
ridley
rie
riel
riem
riemann
rien
riep
riepen
ries
riet
rietveld
rieur
rieure
rif
rifkoralen
rifkoralensoort
riga
right
rightarrow
rights
rihanna
rij
rijbaan
rijbewijs
rijden
rijdende
rijder
rijders
rijdt
rijeka
rijen
rijk
rijkdom
rijke
rijkelijk
rijken
rijks
rijksarchief
rijksbeschermd
rijksdag
rijksdienst
rijksmonument
rijksmonumenten
rijksmonumentenregister
rijksmuseum
rijksoverheid
rijksstad
rijkste
rijksuniversiteit
rijkswaterstaat
rijksweg
rijn
rijnland
rijnmond
rijp
rijpen
rijsel
rijssen
rijst
rijstroken
rijswijk
rijtje
rijtuig
rijtuigen
rik
riksva
riley
rin
ring
ringen
ringlijn
ringo
rings
ringvaart
ringweg
ringworm
rinus
rio
riodinidae
riodininae
rioja
riot
rique
ris
risbec
rise
risico
rising
risk
rissoidae
rit
rita
ritchie
rite
ritme
ritmische
rito
ritten
ritter
ritueel
rituele
rituelen
ritus
rius
riva
rivaal
rivalen
rivaliserende
rivaliteit
river
rivera
rivers
riverside
rivie
rivier
rivieren
riviertje
rivm
rk
rkc
rkd
rlitz
rm
rn
rna
rnberg
rner
rnva
ro
roach
road
roads
roadster
rob
robbedoes
robben
robbert
robbie
robbins
robert
roberta
roberto
roberts
robertson
robin
robinson
robot
robots
robrecht
robson
robusta
robustus
robuust
robuuste
roc
rocca
rocco
rocha
roche
rochefort
rochelle
rochester
rochus
rock
rockband
rockefeller
rocket
rockgroep
rockin
rockmuziek
rocks
rocky
rockzanger
rod
roda
rode
rodelen
roden
rodgers
rodney
rodolfo
rodri
rodrigo
rodrigues
rodriguez
roe
roeden
roeien
roeier
roel
roeland
roelof
roem
roemeens
roemeense
roemenen
roemenie
roemer
roep
roepen
roeping
roept
roer
roermond
roeselare
roest
roet
roewer
roger
rogers
rogge
rogier
rogue
rohan
roi
rojas
rok
roken
rol
rola
roland
rolbezetting
rolde
role
rolf
roll
rollen
rolling
rollins
rolls
rolstoel
roltrappen
rolverdeling
rom
roma
romaans
romaanse
romagna
romain
romaleidae
roman
romana
romance
romandie
romano
romans
romanschrijver
romantiek
romantisch
romantische
romanum
rombouten
rome
romein
romeinen
romeins
romeinse
romeo
romero
rommel
romp
romplengte
ron
ronald
ronaldo
rond
rondde
ronde
ronden
rondes
rondo
rondom
rondweg
rondwormensoort
ronique
ronnie
ronny
ronse
ronymus
roo
rood
roodbruin
roodbruine
roode
roof
roofdieren
roofvliegen
roofvogels
rook
rookie
room
rooms
roomse
rooney
roood
roos
roosendaal
roosevelt
rooster
root
roots
roque
rory
ros
rosa
rosalie
rosario
rosberg
rose
rosemary
rosen
rosenberg
rosenthal
roses
rosie
roskilde
rosmalen
ross
rosse
rossem
rossi
rossini
rosso
rossum
rostock
rostov
rot
rotatie
roth
rothschild
rotonde
rotor
rots
rotsachtige
rotsen
rotten
rotterdam
rotterdams
rotterdamsche
rotterdamse
roubaix
rouen
rouge
rough
round
rousseau
roussel
route
routes
routledge
rouw
rouwmuggen
roux
rover
rovers
row
rowan
rowland
roxy
roy
royal
royale
royce
royen
roz
roze
rozen
rp
rr
rrez
rs
rsc
rsssf
rst
rster
rt
rtbf
rth
rtl
rts
rttemberg
rtv
ru
rubber
rube
ruben
rubens
rubin
rubinstein
rubio
rubra
rubriek
ruby
rudi
rudolf
rudolph
rudy
rue
rufescens
rufus
rug
rugby
ruggengraat
ruggenwervel
ruggenwervels
rugnummer
rugslag
ruhr
ruhrgebied
rui
ruige
ruil
ruilde
ruilen
ruim
ruime
ruimen
ruimer
ruimere
ruimschoots
ruimte
ruimtelijk
ruimtelijke
ruimten
ruimtes
ruimteschip
ruimtestation
ruimtevaarder
ruimtevaart
ruimtevaartuig
ruimtevlucht
ruis
ruit
ruiten
ruiter
ruiters
ruiz
rukken
rukte
rukten
rule
rules
rum
rumble
run
rund
runderen
rundfunk
runner
runners
running
rupert
ruprecht
rups
rupsen
rural
rus
rush
rusland
russ
russell
russen
russia
russian
russin
russisch
russische
russo
rust
rusten
rustig
rustige
rustiger
rustplaats
ruta
rutger
rutgers
ruth
rutherford
rutte
rutten
ruud
ruw
ruwe
ruwweg
ruys
ruyter
ruzie
rv
rva
rvi
rw
rwanda
rwandese
rwdm
ry
ryan
ryder
ryu
rz
rzburg
rður
s
sa
saab
saale
saar
saarbru
saaremaa
saarland
saba
sabel
sabellidae
sabelsprinkhanen
sabina
sabine
sabotage
sabrina
sabrosky
sacha
sachs
sachsen
sacra
sacrale
sacrament
sacramenten
sacramento
sacre
sacred
sacrifice
sacristie
sad
saddam
safari
safe
safety
saga
sagan
sage
sagen
sahara
sai
said
saint
sainte
saints
sainz
saito
sakai
sake
saksen
saksische
sal
sala
saladin
salamanca
salamander
salamanders
salaris
salazar
saldo
sale
salem
salerno
sales
salisbury
salle
sally
salm
salmon
salome
salomo
salomon
salomonseilanden
salon
salons
salt
salticidae
salvador
salvatore
salzburg
sam
samantha
samara
samba
same
samen
samengaan
samengebracht
samengesteld
samengestelde
samengevat
samengevoegd
samengewerkt
samenhang
samenhangend
samenhangende
samenkomen
samenleving
samenlevingen
samenstellen
samenstelling
samenstellingen
samentrekking
samenvatting
samenvloeiing
samenvoegen
samenvoeging
samenwerken
samenwerking
samenwerkingen
samenwerkingsverband
samenwerkte
samenzwering
sami
sammlung
sammy
samoa
samoerai
sampdoria
sample
samples
samson
samsung
samtgemeinde
samuel
samurai
san
sanamyan
sanatorium
sanchez
sancho
sancti
sancties
sanctuary
sand
sande
sander
sanders
sandra
sandro
sands
sandy
sanering
sang
sankt
sanne
sans
sanskriet
sant
santa
santana
santander
santi
santiago
santini
santo
santos
santschi
sao
saoedi
sap
sapporo
sar
sara
sarah
sarajevo
sarcofaag
sarcophagidae
sardinie
sari
sarkozy
sarron
sars
sarthe
sartre
sas
sasha
saskatchewan
saskia
sat
satan
satelliet
satellieten
satellite
satire
satirische
sato
saturday
saturn
saturniidae
saturniinae
saturnus
satyrinae
sauber
saudi
saul
saunders
sauron
sauropoda
sauropode
sauropoden
saus
saussure
sauvage
savage
savannah
save
savoie
savoye
saw
sawyer
sax
saxofonist
saxofoon
saxofoonkwartet
saxon
saxophone
say
says
sb
sbb
sbs
sbv
sc
scala
scale
scalemajor
scaleminor
scan
scandinavie
scandinavische
scar
scarabaeidae
scarlet
sce
scelionidae
scenario
scenarioschrijver
scenarist
scene
scenes
scepter
sch
scha
schaakgrootmeester
schaal
schaambeen
schaap
schaarbeek
schaars
schaarse
schaatsen
schaatser
schaatsers
schaatsster
schacht
schade
schadelijk
schadelijke
schadevergoeding
schaduw
schaduwen
schaffen
schaffer
schafte
schagen
schakel
schakelde
schakelen
schakelt
schaken
schaker
schalen
schalke
schandaal
schande
schans
schansspringen
schansspringer
schapen
scharen
schat
schatkamer
schatkist
schatte
schatten
schatting
schattingen
schaumburg
schaus
sche
schedel
schedeldak
schedels
scheemda
scheen
scheenbeen
scheepsbouw
scheepswerf
scheepvaart
scheffer
scheidde
scheidden
scheiden
scheiding
scheidsrechter
scheidsrechters
scheidt
scheikunde
scheikundige
schelde
schelp
schelpen
scheltema
schema
schematische
schending
schendingen
schenk
schenkel
schenken
schenking
schenkingen
schenkt
schepen
schepenbank
schepenen
scheppen
schepper
schepping
schept
scherm
schermen
schermer
schermutselingen
scherp
scherpe
scherpenzeel
scherzo
schets
schetsen
scheurde
scheuren
scheveningen
schiedam
schiep
schiereiland
schiermonnikoog
schiet
schieten
schietmot
schietpartij
schietsport
schiffermuller
schijf
schijn
schijnbaar
schijnbare
schijnboktorren
schijndel
schijnen
schijnsnoerhalskevers
schijnt
schijven
schikking
schil
schild
schilden
schilder
schilderde
schilderen
schilderes
schilderij
schilderijen
schildering
schilderingen
schilderkunst
schilders
schildert
schildpad
schildpadden
schildwespen
schiller
schimmel
schimmelgeslacht
schimmelkevers
schimmelpenninck
schimmels
schimmelsoort
schinnen
schip
schipbreuk
schiphol
schipper
schippers
schisma
schitterende
schizofrenie
schlegel
schloss
schltr
schmid
schmidt
schmitt
schmitz
schneider
scho
schoen
schoenen
schoenmaker
schok
scholen
scholengemeenschap
scholieren
scholing
scholten
schone
schonk
schoof
school
schoolgebouw
schoolhoofd
schooljaar
schoolmeester
schools
schoolslag
schooltijd
schoon
schoonbroer
schoone
schoonheid
schoonhoven
schoonspringen
schoonvader
schoonzoon
schoorl
schoorsteen
schoot
schorpioen
schorpioenvliegen
schors
schorsing
schot
schotel
schoten
schotland
schots
schotse
schotte
schotten
schouder
schouderblad
schoudergewricht
schoudergordel
schouders
schout
schouten
schouw
schouwburg
schouwen
schrappen
schreef
schreven
schrift
schriftelijk
schriftelijke
schriften
schrijfster
schrijft
schrijfwijze
schrijn
schrijven
schrijver
schrijvers
schrijvertjes
schrik
schro
schroef
schroeven
schu
schubben
schubert
schubmieren
schudden
schuift
schuil
schuilen
schuilnaam
schuilplaats
schuimcicaden
schuin
schuine
schuiven
schuld
schuldeisers
schulden
schuldig
schuldige
schule
schulte
schultz
schulz
schulze
schumacher
schumann
schuren
schurk
schuster
schutter
schutterij
schutters
schuur
schuurman
schwa
schwabe
schwartz
schwarz
schwarzburg
schweiz
schweizer
schwerin
sci
science
sciencefiction
sciencefictionfilm
sciences
scientific
scipio
sclerosomatidae
scooby
scoorde
scoorden
scoort
scooter
scooters
scopoli
scopula
score
scoren
scores
scorsese
scotia
scotland
scott
scottish
scout
scouting
scouts
scratch
scream
screen
script
scripts
scudder
sculpture
sculpturen
sculptuur
scythen
scythris
sd
sdap
sdu
se
sea
seal
sean
search
seas
season
seasons
seat
seattle
sebastia
sebastiaan
sebastian
sec
second
seconde
seconden
secret
secretaresse
secretariaat
secretaris
secretary
secrets
sectie
secties
section
sector
sectoren
seculiere
secundair
secundaire
security
sed
sedan
sedert
sediment
sedimenten
sedis
seds
see
seeland
seeley
seen
seer
sega
segers
segment
segmenten
segunda
sei
sein
seine
seinen
seizoen
seizoenen
seizoenshelft
seks
seksualiteit
seksueel
seksuele
sekte
sel
selatan
select
selected
selecteren
selectie
selectief
selectieprocedure
selecties
selection
seleucus
self
selma
selo
sels
selys
sem
semarang
semi
seminarie
sen
senaat
senator
senatoren
seneca
senegal
senior
senioren
senna
sens
sense
sensor
sensoren
sent
sentai
seoel
seoul
sep
sepia
sept
september
ser
sera
seraing
serena
serenade
sereno
serge
sergeant
sergei
sergej
sergio
sergius
serie
seriemoordenaar
series
serieus
serieuze
serious
seront
serra
serre
servaas
servaasbasiliek
servais
server
servers
service
services
servie
serville
servisch
servische
ses
sesiidae
sesiinae
sessie
sessies
session
sessions
set
seth
sets
setting
seven
seventh
severus
sevilla
sex
sextet
sexual
sexy
seychellen
seymour
sf
sfeer
sforza
sg
sgp
sgt
sh
sha
shadow
shadows
shah
shake
shakespeare
shakespeares
shall
shan
shane
shang
shanghai
shannon
shape
shark
sharon
sharp
sharpe
shaun
shaw
shawn
she
shea
shearer
sheen
sheffield
sheila
shell
shelley
shen
shenkar
shepard
shepherd
sheridan
sheriff
sherlock
sherman
sherwood
shi
shield
shift
shin
shine
ship
shire
shirley
shirt
shirts
shiva
sho
shock
shoes
shogun
shoot
shooter
shooting
shop
shore
short
shorttrack
shot
should
show
shows
shrek
shu
shuttle
si
sia
siam
siberie
siberische
sic
sica
sich
sicherheitsdienst
sichuan
siciliaanse
sicilie
sick
sid
side
sidecar
sideman
sident
sidney
sidonia
sie
siegel
siegen
siegfried
siemens
sien
siena
sieraden
sierlijke
sierra
siet
sigaretten
sigismund
sigma
sigmund
sign
signaal
signal
signalen
signature
signatuur
significant
significante
signs
sijn
sijthoff
sikkel
sikkelmotten
silence
silent
silezie
silicium
silk
silva
silver
silverstone
silvia
silvio
sim
sima
simbad
simenon
simeon
similis
simmons
simo
simon
simone
simonis
simons
simpel
simpele
simpelveld
simpelweg
simple
simplex
simpson
simpsons
sims
simson
sin
sinai
sinatra
since
sinclair
sind
sinds
sindsdien
sine
sinensis
sinfonia
sinfonietta
sing
singapore
singel
singer
singers
singh
singing
single
singles
sings
sint
sinterklaas
sio
sion
sir
sire
sirius
sis
sisak
sister
sisters
sit
sitcom
site
sites
sith
sittard
situ
situatie
situaties
situering
six
size
sj
sjaak
sjah
sjiitische
sjo
sjoerd
sjors
sjostakovitsj
sk
ska
skelet
skeleton
skeletten
sketch
sketches
ski
skie
skies
skiff
skigebied
skin
skinner
skip
sko
skopje
skull
sky
skyline
sl
sla
slaaf
slaagde
slaagden
slaagt
slaan
slaap
slaapkamer
slaapt
slaapvenster
slaat
slachtoffer
slachtoffers
slag
slagen
slager
slagschepen
slagschip
slagveld
slagwerk
slagwerkers
slak
slakken
slakkensoort
slakrupsvlinders
slalom
slam
slang
slangen
slangster
slank
slanke
slankpootvliegen
slapen
slapende
slater
slave
slaven
slavenhandel
slavernij
slavia
slavische
slayer
slecht
slechte
slechter
slechts
slechtste
sleen
sleep
sleeping
sleepte
sleeswijk
slepen
sleutel
sleutels
slide
slijmvissen
slijtage
slikken
slim
slimme
slimste
slinger
sloane
slochteren
sloeg
sloegen
sloet
slogan
sloop
sloot
slopen
slot
sloten
sloterdijk
slotfase
slotte
sloveens
sloveense
slovenie
slovenija
slow
slowaaks
slowaakse
slowakije
sluier
sluipvliegen
sluipwespen
sluis
sluit
sluiten
sluiter
sluiting
sluizen
slurf
sm
sma
smaak
smackdown
smaken
smal
small
smalle
smaller
smart
smartphone
smash
sme
smeden
smeedijzeren
smeets
smelt
smelten
smet
smid
smile
smit
smith
smiths
smithsonian
smits
smoke
smolensk
sms
smurf
smurfen
sn
snaar
snake
snaren
snavel
sncf
sneek
sneeuw
sneeuwwitje
snel
snelheden
snelheid
snelle
snellen
sneller
snellere
snelst
snelste
sneltram
snelwandelen
snelweg
snelwegen
sneuvelde
sneuvelden
snijden
snijders
snijdt
snoek
snoerhalskevers
snoerworm
snoerwormen
snor
snow
snowboarden
snowboarder
snuit
snuitmotten
snyder
so
soap
soapserie
soares
sober
sobere
soc
soccer
soccerway
sociaal
sociaaldemocraten
sociaaldemocratische
social
sociale
socialisme
socialist
socialiste
socialisten
socialistisch
socialistische
socie
sociedad
society
sociologie
socioloog
socrates
soe
soedan
soekarno
soennitische
soep
soera
soerabaja
soest
soestdijk
soesterberg
soeverein
soevereine
soevereiniteit
sofia
sofie
soft
software
soir
soissons
soit
sojoez
sokkel
sol
solar
soldaat
soldaatjes
soldaten
soldier
soldiers
sole
soleerd
soleerde
soleil
solid
solidariteit
solide
solist
solisten
solitaire
solms
solo
soloalbum
soloalbums
solocarrie
solomon
solothurn
som
somalie
somaliland
somalische
somber
sombere
somberkevers
some
somebody
someone
someren
somers
somerset
something
somewhere
somme
sommer
sommige
sommigen
soms
son
sonata
sonate
sonates
sonde
sonder
sonderburg
song
songfestival
songs
songwriter
sonia
sonic
sonja
sonnet
sonnetten
sonneveld
sonny
sons
sont
sony
soo
soon
soort
soortaanduiding
soorten
soortgelijk
soortgelijke
soortgenoten
soortnaam
sophia
sophie
sopraan
sopraansaxofoon
sorbonne
sorry
sos
soto
sotsji
soude
soul
souls
sound
sounds
soundtrack
soundtracks
source
sources
sous
sousa
south
southampton
southern
souvenir
souvenirs
souza
soviet
sovjet
sovjetrepubliek
sovjets
sowerby
sowieso
sołectwo
sp
spa
spaak
spaakbeen
spaan
spaans
spaanse
space
spaceshuttle
spacex
spain
spande
spanish
spanjaard
spanjaarden
spanje
spannend
spannende
spanners
spanning
spanningen
spanwijdte
spar
sparassidae
sparen
sparks
sparrow
sparta
spartaanse
spartak
spartanen
spartelkevers
spd
spe
speak
spears
specerijen
specht
speciaal
special
speciale
specialisatie
specialiseerde
specialist
specialisten
specialiteit
specials
species
specificatie
specificaties
specifiek
specifieke
specimen
specimens
specimina
spectaculaire
spectrum
speech
speed
speedway
speeldag
speeldagen
speelde
speelden
speelfilm
speelfilms
speelgoed
speelminuten
speelronde
speelster
speelsters
speelt
speeltijd
speeltuin
speelveld
speer
speerwerpen
spek
spektorren
spel
spelcomputer
spelen
spelend
spelende
speler
spelers
spelerscarrie
spelersloopbaan
spelersprofiel
spellen
spelletjes
spelling
spelprogramma
spelregels
spencer
sperma
sphaeromatidae
sphingidae
sphinx
spider
spiegel
spiegelbeeld
spiegels
spielberg
spier
spieren
spies
spijkenisse
spijker
spijkers
spijt
spike
spil
spilomelinae
spin
spinnen
spinnensoort
spinners
spinneruilen
spinola
spinosa
spinoza
spion
spionage
spionidae
spionnen
spiraal
spiraalvormig
spirit
spirits
spiritualiteit
spirituele
spirou
spits
spitsbergen
spitse
spitshalskevers
splash
splinter
split
splitsen
splitsing
splitst
splitste
spo
spoed
spoedig
spoel
spoelen
spoken
sponginevezels
spons
sponsdieren
sponsor
sponsoring
sponsors
sponssoort
spontaan
spontane
sponzen
spook
spoor
spoorbrug
spoorlijn
spoorlijnen
spoorloos
spoorverbinding
spoorweg
spoorwegen
spoorwegmaatschappij
spoorwegmaatschappijen
spoorwegnet
spoorwegstation
spoorwegstations
sporadisch
sporen
sport
sportaccommodatie
sportbestuurder
sportcarrie
sportclub
sportcomplex
sporten
sporter
sporters
sportevenement
sporthal
sportief
sportieve
sporting
sportjournalist
sportpaleis
sportpark
sports
sportvereniging
sportwagen
sporza
spot
spp
spraak
sprak
sprake
spraken
spreek
spreekt
spreiding
spreken
sprekend
sprekende
spreker
sprekers
spreuk
spreuken
spring
springen
springende
springer
springfield
springs
springspinnen
springstaarten
springstaartensoort
springsteen
springt
sprint
sprinter
sprong
sprongbeen
sprongen
sprookje
sprookjes
spui
spullen
spvgg
spy
sqrt
squad
squadron
squamosum
square
sr
sri
ss
sseldorf
ssler
ssr
st
sta
staaf
staakt
staakte
staal
staan
staand
staande
staart
staartlengte
staartstukje
staartwervel
staartwervels
staat
staatkundige
staats
staatsbedrijf
staatsblad
staatsbosbeheer
staatsburger
staatsburgerschap
staatscourant
staatse
staatsgreep
staatshoofd
staatshoofden
staatsleningen
staatsman
staatsraad
staatsschuld
staatssecretaris
staatsspoorwegen
staatsuniversiteit
stabiel
stabiele
stabiliteit
stacy
stad
stade
stadhouder
stadhuis
stadia
stadion
stadions
stadium
stadje
stadler
stads
stadsarchief
stadsarchitect
stadsbestuur
stadsbrand
stadscentrum
stadsdeel
stadsdelen
stadsgezicht
stadsgezichten
stadskanaal
stadsmuren
stadsmuur
stadspark
stadspoort
stadspoorten
stadsrechten
stadsschouwburg
stadstaten
stadt
staf
stafchef
staff
stafford
staffordshire
stafleu
stage
stagiair
stainton
stak
staken
staking
stakingen
stal
stalen
stalin
stalingrad
stallen
stam
stamboom
stamde
stammen
stamnummer
stamreeks
stamt
stamvader
stan
stand
standaard
standaardelftal
standaarden
standaardtaal
standaardwerk
standard
standards
standbeeld
standbeelden
standen
standing
standplaats
standpunt
standpunten
stanford
stanisław
stanley
stanton
stap
stapel
stappen
stapt
stapte
stapten
star
stara
stardust
stare
stargate
stark
starnieuws
starr
stars
starship
start
startbaan
starten
starter
startplaats
startplaatsen
startte
startten
stary
state
statement
staten
statenverkiezingen
statenvertaling
states
station
stations
stationsgebouw
stationshal
stationsplein
stationsstraat
statische
statistical
statistics
statistiek
statistieken
statistisch
statistische
stats
status
statuten
statuut
staudinger
stavanger
stavelot
staven
stavoren
stay
ste
steam
stebbing
stede
stedelijk
stedelijke
steden
stedenband
stedenbanden
stedenbouwkundige
stedt
steeds
steeg
steek
steekmuggen
steekt
steel
steele
steelt
steen
steenbergen
steenhuis
steenkool
steentijd
steenvlieg
steenvliegen
steenweg
steenwijk
steeple
steeplechase
steevast
stef
stefaan
stefan
stefano
stefanus
stegen
steiger
steil
steile
stein
steindachner
steiner
stekels
steken
stel
stelde
stelden
stelen
stella
stellen
stelling
stellingen
stellingmolen
stelsel
stelsels
stelt
steltmug
steltmuggen
stem
stemacteur
stemde
stemden
stemmen
stemming
stempel
stemrecht
stemronde
stemt
sten
stenen
stengel
stengels
stentor
step
stephan
stephanie
stephanus
stephen
stephens
stephenson
steppe
steps
ster
stereo
sterfbed
sterft
sterfte
stergo
sterk
sterke
sterker
sterkere
sterkst
sterkste
sterkte
sterling
stern
sternberg
sterre
sterreich
sterreichische
sterren
sterrenbeeld
sterrenhoop
sterrenkunde
sterrenstelsel
sterrenstelsels
sterrenwacht
sterven
stervende
stettin
steun
steunberen
steunde
steunden
steunen
steunpunt
steunt
steur
steve
steven
stevens
stevenson
stevie
stevig
stevige
stewart
sti
stica
sticht
stichten
stichter
stichters
stichting
stichtingen
stichtse
stichtte
stichtten
stick
stiefmoeder
stiefvader
stiekem
stier
stierf
stiermarken
stierven
stift
stiftung
stigmella
stijf
stijgen
stijgende
stijging
stijgt
stijl
stijlen
stijn
stijve
stikstof
stil
stilaan
stilgelegd
still
stille
stilleven
stillevens
stills
stilstand
stilte
stimpson
stimuleerde
stimuleert
stimuleren
sting
stippelmotten
stippen
stirling
stirum
stisch
stische
sto
stock
stockholm
stockholms
stoel
stoelen
stoet
stof
stoffelijk
stoffelijke
stoffen
stok
stoke
stokje
stokken
stolberg
stoll
stolpersteine
stols
stomme
stomp
stompe
stond
stonden
stone
stones
stoom
stoomboot
stoomlocomotief
stoommachine
stoomschip
stoomtram
stoornis
stoornissen
stoot
stootte
stop
stopgezet
stoppen
stopplaats
stopt
stopte
stopten
stoptrein
stoptreinen
store
stories
storing
storingen
stork
storm
stormen
stort
storten
stortte
story
stoten
stout
stoute
stra
straal
straalvinnige
straat
straatbeeld
straatnaam
straatnamen
straatsburg
straf
strafbaar
strafbare
straffe
straffen
strafhof
strafpunten
strafrecht
strafrechtelijk
strafrechtelijke
strafschop
strafschoppen
strafvordering
straight
strak
strakke
straks
stralen
straling
strand
strandde
strandden
stranden
straneo
strange
stranger
strangers
strasbourg
strategie
strategisch
strategische
strategy
straten
stratford
strauss
stravinsky
straße
stream
streden
streed
streefde
streeft
streek
streekvervoer
streep
streepresultaten
street
streets
streken
strekken
strekking
strekspinnen
strekt
strekte
streng
strenge
strengere
strepen
stress
streuer
streven
striata
strijd
strijde
strijden
strijdende
strijder
strijders
strijdig
strijdkrachten
strijdmacht
strijkers
strijkkwartet
strijkorkest
strik
strike
strikes
strikt
strikte
string
strings
strip
stripalbum
stripauteur
stripblad
stripreeks
strips
stripserie
striptekenaar
stripverhaal
stripverhalen
stro
strobl
stroken
strokeplay
stromen
stromend
stromende
stroming
stromingen
strong
strook
stroom
stroomafwaarts
stroomde
stroomden
stroomgebied
stroomopwaarts
stroomt
stroomversnelling
structure
structureel
structurele
structuren
structuur
struik
struiken
struikgewas
struikzakspinnen
strumigenys
sts
stu
stuart
stucwerk
studeerde
studeert
student
studente
studenten
studententijd
studentenvereniging
studeren
studie
studiebeurs
studien
studies
studio
studioalbum
studioalbums
studios
study
stuff
stuit
stuitte
stuk
stukje
stukjes
stukken
stuks
stunt
sturen
sturm
sturmgeschu
stuttgart
stuur
stuurde
stuurden
stuurman
stuurt
stuwdam
stuwmeer
stvv
styelidae
style
styles
su
sua
sub
subaru
subcontinent
subject
subjectieve
subkarpaten
subsidie
subsidies
subsp
substantie
substraat
subtiele
subtribus
subtropische
succes
successen
successieoorlog
succesvol
succesvolle
succesvolste
such
sucre
sud
sue
suetonius
suez
suezkanaal
suffolk
suffragaan
sugar
suggereerde
suggereert
suggereren
suggestie
sui
suicide
suiker
suikerriet
suisse
suite
suites
sul
sulawesi
sulla
sullivan
sultan
sultanaat
sum
sumatra
summer
summerslam
summit
sun
sunbeam
sundance
sunday
sunderland
sung
sungai
sunny
sunrise
sunset
sunshine
supe
super
superbike
supercopa
supercup
superfamilie
superheld
superieur
superieure
superior
superman
supermarkt
supermarkten
supernova
supersport
superstar
supervisie
suppan
supplement
support
supporters
supporting
supreme
supremes
sur
surangulare
surface
surinaams
surinaamse
suriname
surinamers
surrealistische
surrey
survey
survival
survivor
sus
susan
susanna
susanne
suske
sussex
susteren
suter
sutherland
sutton
suv
suzanne
suzuki
sv
sven
svenska
svensson
svetlana
svg
sw
swalla
swan
swansea
swart
swaziland
swedish
sweet
swift
swimming
swing
swinhoe
swiss
switch
sword
sy
sydney
sykes
syllidae
syllis
sylvain
sylvester
sylvia
sylvie
symbol
symbolen
symboliek
symbolisch
symbolische
symboliseert
symboliseren
symbool
symfonie
symfoniee
symfonieorkest
symfonisch
symfonische
symmetrie
symmetrisch
symmetrische
sympathie
symphonic
symphonie
symphony
symposium
symptomen
syn
synagoge
synanthedon
syndrome
syndroom
synode
synoniem
synoniemen
synopsis
synthese
synthesizer
synthesizers
synthetisch
synthetische
syracuse
syria
syrie
syrisch
syrische
syrphidae
systeem
system
systema
systematic
systematiek
systematisch
systematische
systemen
systems
sz
szczecin
sze
szepligeti
szlo
sørensen
t
ta
taak
taal
taalfamilie
taalgebied
taalgebruik
taalgrens
taalkunde
taalkundig
taalkundige
taart
tabak
tabel
tabellen
tabernakel
table
tablet
tabletten
taboe
tac
tachinidae
tachtig
tachtigjarige
tacitus
tactiek
tactische
tadzjikistan
taekwondo
tafel
tafels
tafeltennis
tafereel
taferelen
tag
tahiti
tai
tail
tain
taipei
tait
taiti
taiwan
taiwanese
tak
takahashi
take
takeda
taken
takes
taking
takken
tal
talands
talbot
tale
talen
talent
talenten
talentenjacht
talentvolle
tales
taliban
talk
talking
talks
talkshow
tall
tallinn
talloze
talpa
talrijk
talrijke
tam
tamara
tamelijk
tamerlan
tamil
tampa
tampere
tan
tanaka
tanasevitch
tand
tandarts
tandem
tanden
tandvlinders
tang
tanger
tangerine
tango
tanja
tanjung
tank
tanker
tanks
tanner
tante
tanzania
tao
taoi
tape
tapes
tapijt
tapijten
taps
tar
tara
tardigrada
target
tarief
tarieven
tarn
tarragona
tartu
tarwe
tarzan
tas
tasjkent
task
tasmanie
taste
tastermotten
tat
tata
tataren
tate
tatjana
tatra
tau
taveri
taxa
taxdetails
taxi
taxon
taxonomic
taxonomie
taxonomische
taylor
tb
tbilisi
tbs
tc
td
te
tea
team
teamgenoot
teamgenoten
teams
teamsprint
tears
teatro
teau
teborg
tech
technical
technici
technicus
techniek
technieken
technisch
technische
techno
technologie
technologiee
technologies
technologische
technology
ted
teddy
tee
teelt
teen
teenage
tegel
tegelen
tegelijk
tegelijkertijd
tegels
tegemoet
tegen
tegenaanval
tegendeel
tegengaan
tegengehouden
tegengestelde
tegenhanger
tegenhouden
tegenover
tegenovergestelde
tegenpartij
tegenslag
tegenslagen
tegenspeler
tegenspraak
tegenstand
tegenstander
tegenstanders
tegenstelling
[...]
