!
"
#
##a
##aa
##ab
##ac
##ad
##ae
##af
##ag
##ah
##ai
##aj
##ak
##al
##am
##an
##ao
##ap
##aq
##ar
##as
##at
##au
##av
##aw
##ax
##ay
##az
##b
##ba
##bb
##bc
##bd
##be
##bf
##bg
##bh
##bi
##bj
##bk
##bl
##bm
##bn
##bo
##bp
##bq
##br
##bs
##bt
##bu
##bv
##bw
##bx
##by
##bz
##c
##ca
##cb
##cc
##cd
##ce
##cf
##cg
##ch
##ci
##cj
##ck
##cl
##cm
##cn
##co
##cp
##cq
##cr
##cs
##ct
##cu
##cv
##cw
##cx
##cy
##cz
##d
##da
##db
##dc
##dd
##de
##df
##dg
##dh
##di
##dj
##dk
##dl
##dm
##dn
##do
##dp
##dq
##dr
##ds
##dt
##du
##dv
##dw
##dx
##dy
##dz
##e
##ea
##eb
##ec
##ed
##ee
##ef
##eg
##eh
##ei
##ej
##ek
##el
##em
##en
##eo
##ep
##eq
##er
##es
##et
##eu
##ev
##ew
##ex
##ey
##ez
##f
##fa
##fb
##fc
##fd
##fe
##ff
##fg
##fh
##fi
##fj
##fk
##fl
##fm
##fn
##fo
##fp
##fq
##fr
##fs
##ft
##fu
##fv
##fw
##fx
##fy
##fz
##g
##ga
##gb
##gc
##gd
##ge
##gf
##gg
##gh
##gi
##gj
##gk
##gl
##gm
##gn
##go
##gp
##gq
##gr
##gs
##gt
##gu
##gv
##gw
##gx
##gy
##gz
##h
##ha
##hb
##hc
##hd
##he
##hf
##hg
##hh
##hi
##hj
##hk
##hl
##hm
##hn
##ho
##hp
##hq
##hr
##hs
##ht
##hu
##hv
##hw
##hx
##hy
##hz
##i
##ia
##ib
##ic
##id
##ie
##if
##ig
##ih
##ii
##ij
##ik
##il
##im
##in
##io
##ip
##iq
##ir
##is
##it
##iu
##iv
##iw
##ix
##iy
##iz
##j
##ja
##jb
##jc
##jd
##je
##jf
##jg
##jh
##ji
##jj
##jk
##jl
##jm
##jn
##jo
##jp
##jq
##jr
##js
##jt
##ju
##jv
##jw
##jx
##jy
##jz
##k
##ka
##kb
##kc
##kd
##ke
##kf
##kg
##kh
##ki
##kj
##kk
##kl
##km
##kn
##ko
##kp
##kq
##kr
##ks
##kt
##ku
##kv
##kw
##kx
##ky
##kz
##l
##la
##lb
##lc
##ld
##le
##lf
##lg
##lh
##li
##lj
##lk
##ll
##lm
##ln
##lo
##lp
##lq
##lr
##ls
##lt
##lu
##lv
##lw
##lx
##ly
##lz
##m
##ma
##mb
##mc
##md
##me
##mf
##mg
##mh
##mi
##mj
##mk
##ml
##mm
##mn
##mo
##mp
##mq
##mr
##ms
##mt
##mu
##mv
##mw
##mx
##my
##mz
##n
##na
##nb
##nc
##nd
##ne
##nf
##ng
##nh
##ni
##nj
##nk
##nl
##nm
##nn
##no
##np
##nq
##nr
##ns
##nt
##nu
##nv
##nw
##nx
##ny
##nz
##o
##oa
##ob
##oc
##od
##oe
##of
##og
##oh
##oi
##oj
##ok
##ol
##om
##on
##oo
##op
##oq
##or
##os
##ot
##ou
##ov
##ow
##ox
##oy
##oz
##p
##pa
##pb
##pc
##pd
##pe
##pf
##pg
##ph
##pi
##pj
##pk
##pl
##pm
##pn
##po
##pp
##pq
##pr
##ps
##pt
##pu
##pv
##pw
##px
##py
##pz
##q
##qa
##qb
##qc
##qd
##qe
##qf
##qg
##qh
##qi
##qj
##qk
##ql
##qm
##qn
##qo
##qp
##qq
##qr
##qs
##qt
##qu
##qv
##qw
##qx
##qy
##qz
##r
##ra
##rb
##rc
##rd
##re
##rf
##rg
##rh
##ri
##rj
##rk
##rl
##rm
##rn
##ro
##rp
##rq
##rr
##rs
##rt
##ru
##rv
##rw
##rx
##ry
##rz
##s
##sa
##sb
##sc
##sd
##se
##sf
##sg
##sh
##si
##sj
##sk
##sl
##sm
##sn
##so
##sp
##sq
##sr
##ss
##st
##su
##sv
##sw
##sx
##sy
##sz
##t
##ta
##tb
##tc
##td
##te
##tf
##tg
##th
##ti
##tj
##tk
##tl
##tm
##tn
##to
##tp
##tq
##tr
##ts
##tt
##tu
##tv
##tw
##tx
##ty
##tz
##u
##ua
##ub
##uc
##ud
##ue
##uf
##ug
##uh
##ui
##uj
##uk
##ul
##um
##un
##uo
##up
##uq
##ur
##us
##ut
##uu
##uv
##uw
##ux
##uy
##uz
##v
##va
##vb
##vc
##vd
##ve
##vf
##vg
##vh
##vi
##vj
##vk
##vl
##vm
##vn
##vo
##vp
##vq
##vr
##vs
##vt
##vu
##vv
##vw
##vx
##vy
##vz
##w
##wa
##wb
##wc
##wd
##we
##wf
##wg
##wh
##wi
##wj
##wk
##wl
##wm
##wn
##wo
##wp
##wq
##wr
##ws
##wt
##wu
##wv
##ww
##wx
##wy
##wz
##x
##xa
##xb
##xc
##xd
##xe
##xf
##xg
##xh
##xi
##xj
##xk
##xl
##xm
##xn
##xo
##xp
##xq
##xr
##xs
##xt
##xu
##xv
##xw
##xx
##xy
##xz
##y
##ya
##yb
##yc
##yd
##ye
##yf
##yg
##yh
##yi
##yj
##yk
##yl
##ym
##yn
##yo
##yp
##yq
##yr
##ys
##yt
##yu
##yv
##yw
##yx
##yy
##yz
##z
##za
##zb
##zc
##zd
##ze
##zf
##zg
##zh
##zi
##zj
##zk
##zl
##zm
##zn
##zo
##zp
##zq
##zr
##zs
##zt
##zu
##zv
##zw
##zx
##zy
##zz
$
%
&
'
(
)
*
+
,
-
.
/
0
00
000
001
01
02
03
04
05
06
07
08
09
0a
0b
0c
0d
0e
0f
0g
0h
0i
0j
0k
0l
0m
0n
0o
0p
0q
0r
0s
0t
0u
0v
0w
0x
0y
0z
1
10
100
1000
1001
101
102
103
104
105
106
107
108
1080
109
11
110
1100
111
112
113
114
115
1150
116
117
118
1180
119
12
120
1200
1204
121
122
1220
123
1230
124
1240
125
1250
126
1260
127
1270
128
1280
1285
129
1290
13
130
1300
1302
131
1310
132
1320
1328
133
1330
134
1340
135
1350
136
1360
137
1370
1375
138
1380
139
1390
14
140
1400
1404
141
1410
1415
142
1420
1425
143
1430
1435
144
1440
145
1450
1453
1455
146
1460
1465
147
1470
1471
1473
1475
1477
148
1480
1481
1482
1483
1485
1488
149
1490
1492
1493
1494
1495
1498
1499
15
150
1500
1501
1502
1503
1504
1505
1506
1508
1509
151
1510
1511
1512
1513
1514
1515
1516
1517
1518
1519
152
1520
1521
1522
1523
1524
1525
1526
1527
1528
1529
153
1530
1531
1532
1533
1534
1535
1536
1537
1538
1539
154
1540
1541
1542
1543
1544
1545
1546
1547
1548
1549
155
1550
1551
1552
1553
1554
1555
1556
1557
1558
1559
156
1560
1561
1562
1563
1564
1565
1566
1567
1568
1569
157
1570
1571
1572
1573
1574
1575
1576
1577
1578
1579
158
1580
1581
1582
1583
1584
1585
1586
1587
1588
1589
159
1590
1591
1592
1593
1594
1595
1596
1597
1598
1599
16
160
1600
1601
1602
1603
1604
1605
1606
1607
1608
1609
161
1610
1611
1612
1613
1614
1615
1616
1617
1618
1619
162
1620
1621
1622
1623
1624
1625
1626
1627
1628
1629
163
1630
1631
1632
1633
1634
1635
1636
1637
1638
1639
164
1640
1641
1642
1643
1644
1645
1646
1647
1648
1649
165
1650
1651
1652
1653
1654
1655
1656
1657
1658
1659
166
1660
1661
1662
1663
1664
1665
1666
1667
1668
1669
167
1670
1671
1672
1673
1674
1675
1676
1677
1678
1679
168
1680
1681
1682
1683
1684
1685
1686
1687
1688
1689
169
1690
1691
1692
1693
1694
1695
1696
1697
1698
1699
17
170
1700
1701
1702
1703
1704
1705
1706
1707
1708
1709
171
1710
1711
1712
1713
1714
1715
1716
1717
1718
1719
172
1720
1721
1722
1723
1724
1725
1726
1727
1728
1729
173
1730
1731
1732
1733
1734
1735
1736
1737
1738
1739
174
1740
1741
1742
1743
1744
1745
1746
1747
1748
1749
175
1750
1751
1752
1753
1754
1755
1756
1757
1758
1759
176
1760
1761
1762
1763
1764
1765
1766
1767
1768
1769
177
1770
1771
1772
1773
1774
1775
1776
1777
1778
1779
178
1780
1781
1782
1783
1784
1785
1786
1787
1788
1789
179
1790
1791
1792
1793
1794
1795
1796
1797
1798
1799
18
180
1800
1801
1802
1803
1804
1805
1806
1807
1808
1809
181
1810
1811
1812
1813
1814
1815
1816
1817
1818
1819
182
1820
1821
1822
1823
1824
1825
1826
1827
1828
1829
183
1830
1831
1832
1833
1834
1835
1836
1837
1838
1839
184
1840
1841
1842
1843
1844
1845
1846
1847
1848
1849
185
1850
1851
1852
1853
1854
1855
1856
1857
1858
1859
186
1860
1861
1862
1863
1864
1865
1866
1867
1868
1869
187
1870
1871
1872
1873
1874
1875
1876
1877
1878
1879
188
1880
1881
1882
1883
1884
1885
1886
1887
1888
1889
189
1890
1891
1892
1893
1894
1895
1896
1897
1898
1899
19
190
1900
1901
1902
1903
1904
1905
1906
1907
1908
1909
191
1910
1911
1912
1913
1914
1915
1916
1917
1918
1919
192
1920
1921
1922
1923
1924
1925
1926
1927
1928
1929
193
1930
1931
1932
1933
1934
1935
1936
1937
1938
1939
194
1940
1941
1942
1943
1944
1945
1946
1947
1948
1949
195
1950
1951
1952
1953
1954
1955
1956
1957
1958
1959
196
1960
1961
1962
1963
1964
1965
1966
1967
1968
1969
197
1970
1971
1972
1973
1974
1975
1976
1977
1978
1979
198
1980
1981
1982
1983
1984
1985
1986
1987
1988
1989
199
1990
1991
1992
1993
1994
1995
1996
1997
1998
1999
1a
1b
1c
1d
1e
1f
1g
1h
1i
1j
1k
1l
1m
1n
1o
1p
1q
1r
1s
1t
1u
1v
1w
1x
1y
1z
2
20
200
2000
2001
2002
2003
2004
2005
2006
2007
2008
2009
201
2010
2011
2012
2013
2014
2015
2016
2017
2018
2019
202
2020
2021
2022
2023
2024
2025
2029
203
2030
204
2045
205
206
207
208
209
21
210
211
212
213
214
215
216
217
218
219
22
220
2200
221
222
223
224
225
226
227
228
229
23
230
231
232
233
234
235
236
237
238
239
24
240
241
242
243
244
245
246
247
248
249
25
250
2500
251
252
253
254
255
256
257
258
259
26
260
2600
261
262
263
264
265
266
267
268
269
27
270
271
272
273
274
275
276
277
278
279
28
280
281
282
283
284
285
286
287
288
289
29
290
291
292
293
294
295
296
297
298
299
2a
2b
2c
2d
2e
2f
2g
2h
2i
2j
2k
2l
2m
2n
2o
2p
2q
2r
2s
2t
2u
2v
2w
2x
2y
2z
3
30
300
3000
301
302
303
304
305
306
307
308
309
31
310
311
312
313
314
315
316
3166
317
318
319
32
320
321
322
323
324
325
326
327
328
329
33
330
331
332
333
334
335
336
337
338
339
34
340
341
342
343
344
345
346
347
348
349
35
350
3500
351
352
353
354
355
356
357
358
359
36
360
361
362
363
364
365
366
367
368
369
37
370
371
373
375
378
379
38
380
381
384
385
386
387
388
39
390
391
393
395
399
3a
3b
3c
3d
3e
3f
3g
3h
3i
3j
3k
3l
3m
3n
3o
3p
3q
3r
3s
3t
3u
3v
3w
3x
3y
3z
4
40
400
4000
401
402
403
404
405
406
407
408
41
410
411
412
414
415
416
42
420
425
43
430
431
432
435
44
440
445
446
45
450
451
455
46
460
47
470
475
476
48
480
49
490
499
4a
4b
4c
4d
4e
4f
4g
4h
4i
4j
4k
4l
4m
4n
4o
4p
4q
4r
4s
4t
4u
4v
4w
4x
4y
4z
5
50
500
5000
501
502
51
510
512
515
52
520
521
525
53
530
538
54
540
55
550
56
560
57
570
58
580
59
5a
5b
5c
5d
5e
5f
5g
5h
5i
5j
5k
5l
5m
5n
5o
5p
5q
5r
5s
5t
5u
5v
5w
5x
5y
5z
6
60
600
6000
61
610
62
620
625
63
630
64
640
65
650
66
660
67
670
68
680
69
6a
6b
6c
6d
6e
6f
6g
6h
6i
6j
6k
6l
6m
6n
6o
6p
6q
6r
6s
6t
6u
6v
6w
6x
6y
6z
7
70
700
7000
71
72
720
73
730
737
74
747
75
750
76
77
78
780
79
7a
7b
7c
7d
7e
7f
7g
7h
7i
7j
7k
7l
7m
7n
7o
7p
7q
7r
7s
7t
7u
7v
7w
7x
7y
7z
8
80
800
8000
802
81
82
83
84
840
85
850
86
87
870
88
89
8a
8b
8c
8d
8e
8f
8g
8h
8i
8j
8k
8l
8m
8n
8o
8p
8q
8r
8s
8t
8u
8v
8w
8x
8y
8z
9
90
900
9000
901
90210
91
911
9182
92
923058
93
94
95
950
96
960
97
978
98
99
999
9a
9b
9c
9d
9e
9f
9g
9h
9i
9j
9k
9l
9m
9n
9o
9p
9q
9r
9s
9t
9u
9v
9w
9x
9y
9z
:
;
<
=
>
?
@
[
[CLS]
[MASK]
[PAD]
[SEP]
[UNK]
\
]
^
_
`
a
a0
a1
a2
a3
a4
a5
a6
a7
a8
a9
aa
aaa
aachen
aad
aal
aalborg
aalsmeer
aalst
aalten
aan
aanbesteding
aanbeveling
aanbevelingen
aanbevolen
aanbidding
aanbieden
aanbiedt
aanbod
aanbood
aanbouw
aanbrengen
aandacht
aandeel
aandeelhouder
aandeelhouders
aandelen
aandoen
aandoening
aandoeningen
aandrijving
aandringen
aanduiden
aanduiding
aanduidingen
aaneengesloten
aangaan
aangaande
aangaat
aangaf
aangeboden
aangeboren
aangebouwd
aangebracht
aangedaan
aangedreven
aangeduid
aangeeft
aangegaan
aangegeven
aangehaald
aangehecht
aangehouden
aangeklaagd
aangekocht
aangekomen
aangekondigd
aangelegd
aangelegde
aangelegenheden
aangemaakt
aangemerkt
aangemoedigd
aangenaam
aangenomen
aangepakt
aangepast
aangepaste
aangeplant
aangeraden
aangeschaft
aangeslagen
aangesloten
aangesproken
aangesteld
aangetast
aangetoond
aangetroffen
aangetrokken
aangevallen
aangeven
aangevoerd
aangevraagd
aangevuld
aangewend
aangewezen
aangezien
aangifte
aangrenzende
aanhaling
aanhang
aanhanger
aanhangers
aanhangsels
aanhechting
aanhouden
aanhoudende
aanklacht
aanklager
aankomen
aankomende
aankomst
aankomt
aankondiging
aankoop
aankopen
aankwam
aanleg
aanleggen
aanleiding
aanloop
aanmaken
aanmerkelijk
aanmerking
aannam
aanname
aanneemt
aannemelijk
aannemen
aannemer
aanpak
aanpassen
aanpassing
aanpassingen
aanraden
aanraking
aanschaf
aanslag
aanslagen
aansloot
aansluit
aansluiten
aansluitend
aansluitende
aansluiting
aansluitingen
aanspraak
aansprakelijk
aansprakelijkheid
aanspraken
aanstaande
aanstelling
aantal
aantallen
aantasting
aantekeningen
aantonen
aantonende
aantreden
aantrekkelijk
aantrekkelijke
aantrekken
aantrekkingskracht
aanvaard
aanvaardde
aanvaarden
aanvaarding
aanval
aanvallen
aanvallende
aanvaller
aanvallers
aanvang
aanvankelijk
aanvankelijke
aanvaring
aanverwante
aanvoegende
aanvoer
aanvoerder
aanvoering
aanvraag
aanvragen
aanvullend
aanvullende
aanvulling
aanwezig
aanwezige
aanwezigen
aanwezigheid
aanwijzing
aanwijzingen
aanzet
aanzetten
aanzien
aanzienlijk
aanzienlijke
aap
aar
aard
aardappel
aardappelen
aardbeving
aardbevingen
aarde
aarden
aardewerk
aardgas
aardig
aardolie
aardoppervlak
aardrijkskunde
aardse
aarhus
aarlen
aaron
aarschot
aart
aartsbisdom
aartsbisschop
aartsengel
aartshertog
aas
aasgarnalensoort
aat
ab
abacus
abajo
abba
abbas
abbe
abbey
abbot
abbots
abbott
abc
abcoude
abd
abdij
abdijen
abdijkerk
abdis
abdul
abdullah
abe
abeele
abel
aberdeen
abn
abonnees
abonnement
aborigines
abortus
about
above
abraham
abrupt
absolute
absoluut
abstract
abstracte
abt
abteilung
abu
ac
academia
academie
academisch
academische
academy
accent
accepteerde
accepteert
accepteren
access
accommodatie
accordeon
account
accountant
accu
accusatief
ace
aceh
ach
achievement
achille
achilles
acht
achtbaan
achten
achter
achteraan
achteraf
achterberg
achtereenvolgende
achtereenvolgens
achteren
achtergebleven
achtergelaten
achtergrond
achtergronden
achtergrondzang
achterhaald
achterhalen
achterhoek
achterhoofd
achterkant
achterland
achterliggende
achterlijf
achterna
achternaam
achterpoten
achterrand
achterstand
achterste
achteruit
achteruitgang
achtervoegsel
achtervolgd
achtervolgen
achtervolging
achterwege
achterwiel
achterzijde
achtig
achtige
achtste
achtte
achttien
achttiende
acid
acker
acrididae
across
act
acta
acte
acteerde
acteren
acteur
acteurs
actie
actief
acties
actieve
action
activist
activisten
activiteit
activiteiten
actor
actress
actrice
actrices
acts
actueel
actuele
acute
ad
ada
adagio
adam
adams
add
addy
adel
adelaar
adelaide
adele
adelheid
adellijk
adellijke
adelstand
adem
ademen
ademhaling
aderus
adjudant
adjunct
adler
administratie
administratief
administratieve
administration
admiraal
admiral
admiraliteit
ado
adobe
adolf
adolph
adolphe
adoptie
adres
adressen
adriaan
adriaen
adrian
adriana
adrianus
adriatische
adrien
advance
advanced
adventure
adventures
advertentie
advertenties
advies
adviezen
adviseerde
adviseert
adviseren
adviseur
adviseurs
advocaat
advocate
advocaten
ae
aen
aero
aert
aerts
af
afbeelding
afbeeldingen
afbraak
afbreken
afc
afdaling
afdeling
afdelingen
afdelingsaanduiding
afdelingsletter
afdrukken
afdwingen
affair
affaire
affairs
affiches
affinis
afgebeeld
afgebeelde
afgebouwd
afgebroken
afgedekt
afgedrukt
afgedwongen
afgegeven
afgegraven
afgekeurd
afgekondigd
afgekort
afgelast
afgelegd
afgelegen
afgeleid
afgeleide
afgeleverd
afgelopen
afgemaakt
afgenomen
afgeplat
afgerond
afgeronde
afgeschaft
afgescheiden
afgeslagen
afgesloten
afgesneden
afgespeeld
afgesplitst
afgesproken
afgestaan
afgestemd
afgestudeerd
afgevaardigd
afgevaardigde
afgevaardigden
afgevoerd
afgevuurd
afgewerkt
afgewezen
afgewisseld
afgezet
afgezien
afghaanse
afghanistan
afhankelijk
afhankelijke
afhankelijkheid
afkeer
afkomst
afkomstig
afkomstige
afkorting
afkortingen
afl
afleggen
afleiden
afleiding
aflevering
afleveringen
afloop
aflopende
afmaken
afmeting
afmetingen
afname
afneemt
afnemen
africa
african
africana
africanus
afrika
afrikaans
afrikaanse
afrikanen
afrit
afro
afronden
afrotropisch
afschaffing
afscheid
afscheiding
afslag
afsloot
afsluiten
afsluitende
afsluiting
afspeelt
afspelen
afsplitsing
afspraak
afspraken
afstaan
afstammeling
afstammelingen
afstamming
afstand
afstanden
afstudeerde
afstuderen
aftakking
after
aftiteling
aftreden
afval
afvoer
afwachting
afwatering
afwerking
afwezig
afwezigheid
afwijken
afwijkend
afwijkende
afwijking
afwijkingen
afwijkt
afwijzing
afwisselend
afwisseling
afzetten
afzetting
afzettingen
afzonderlijk
afzonderlijke
ag
again
against
agassiz
agatha
age
agency
agenda
agent
agenten
agentschap
ages
agglomeratie
agnes
agostini
agovv
agra
agrarisch
agrarische
agressie
agressief
agressieve
agrippa
agromyzidae
agrypnus
agt
agua
aguilar
agung
agusta
ah
ahead
ahmad
ahmed
ahoy
ai
aids
aime
ain
air
airbus
aircraft
aires
airlines
airport
airways
ais
aisne
aix
aj
ajax
ajs
ak
aka
akademie
aken
akira
akker
akkers
akkoord
akkoorden
akoestische
akte
akten
al
ala
alabama
alain
alan
aland
alarm
alaska
alba
albanees
albanese
albanie
albany
albert
alberta
alberti
alberto
alberts
albertus
albion
albrecht
album
albums
alcock
alcohol
alcoholische
alcoholpercentage
aldaar
aldo
aldus
ale
alec
alejandro
aleksandr
aleksej
alert
alessandro
alex
alexander
alexandra
alexandre
alexandria
alexandrie
alexis
aleyrodidae
aleyrodinae
alf
alfa
alfabet
alfabetisch
alfabetische
alfabetiseringsgraad
alfons
alfonso
alfoz
alfred
alfredo
algarve
algebra
algebraische
algehele
algemeen
algemeene
algemene
algen
algerije
algerijns
algerijnse
algiers
algoritme
alhoewel
ali
alias
alice
alicia
alien
aliens
alison
alive
alkmaar
all
alla
allah
allan
allard
alle
allebei
alledaagse
alleen
alleenstaande
allegretto
allegro
allemaal
allen
aller
allereerst
allereerste
allerhande
allerlaatste
allerlei
alles
alliance
alliantie
allison
allium
allmusic
allround
alma
almeida
almelo
almere
almeria
alois
alom
alone
along
alonso
alpen
alpes
alpha
alphen
alphonse
alpina
alpine
alpineskien
alpineskier
alpineskiester
als
alsmede
alsnog
also
alsof
alsook
alt
alta
altaar
altaarstuk
altaren
alte
altena
altenburg
alter
alternatief
alternatieve
alternatieven
alternative
althans
altijd
alto
alton
altona
altsaxofoon
altviolen
altviool
aluminium
alv
alva
alvarez
alvaro
alvast
alvin
alvorens
alwaar
always
alweer
alzheimer
am
amadeus
amalia
amanda
amara
amateur
amateurclub
amateurniveau
amateurs
amateurvoetbal
amateurvoetbalclub
amateurvoetbalvereniging
amazing
amazon
amazone
ambacht
ambachten
ambassade
ambassadeur
ambassadeurs
amber
ambitie
ambities
ambitieuze
ambo
ambrosius
ambt
ambtelijke
ambten
ambtenaar
ambtenaren
ambtstermijn
ambulance
amc
ameland
amelia
amelie
amen
amendement
america
american
americana
amerika
amerikaan
amerikaans
amerikaanse
amerikanen
amerongen
amersfoort
amfibieen
amfitheater
ami
amiens
amiga
aminozuren
amis
ammoniak
amnesty
amon
among
amor
amore
amos
amour
amper
amro
amsel
amstel
amstelveen
amsterdam
amsterdammer
amsterdams
amsterdamsche
amsterdamse
amt
amy
an
ana
analoge
analogie
analoog
analyse
analyseren
analyses
analysis
analytische
anastasia
anatolie
anatomie
anc
ancien
ancient
and
andalusie
andante
ander
andere
anderen
anderhalf
anderhalve
anderlecht
andermaal
anders
andersen
andersom
anderson
andersson
anderzijds
andes
andorra
andrade
andre
andrea
andreas
andrei
andrej
andrena
andrenidae
andres
andrew
andrewes
andrews
andries
andriessen
android
andrzej
andy
angel
angela
angeles
angelique
angelo
angels
angelsaksische
angers
anglicaanse
anglo
angola
angouleme
angst
anguilla
angus
anhalt
animal
animals
animatie
animatiefilm
animatieserie
animation
anime
anisoptera
anita
anja
anjou
ankara
anker
ann
anna
annalen
annales
anne
anneke
annemarie
annette
annex
annexatie
annie
anniversary
anno
annuaire
annual
anolis
anoniem
anonieme
anorganische
another
anouk
ans
ant
antarctica
antenne
antennen
antennes
anthicidae
anthomyiidae
anthony
anti
antieke
antigua
antillen
antiochie
antiochus
antisemitisme
antoine
antoinette
anton
antoni
antonia
antonie
antonin
antonio
antonius
antonov
antony
antoon
antropologie
antropoloog
antwerp
antwerpen
antwerpse
antwoord
antwoordde
antwoorden
antwoordt
any
ao
aow
ap
apache
apanteles
apart
aparte
apartheid
apeldoorn
apen
apg
aphelinidae
aphrodite
aphrophoridae
api
apicalis
apidae
apollo
apostel
apostelen
apostolisch
apostolische
apotheek
apotheker
app
apparaat
apparaten
apparatuur
appartement
appartementen
appel
appels
appingedam
apple
applicatie
applicaties
apps
apr
apres
april
apsis
aq
aqua
aquaduct
aquarellen
aquarium
aquila
aquino
aquitaine
aquitanie
ar
ara
arabie
arabieren
arabisch
arabische
aragon
aranda
araneidae
araneus
arauzo
arbeid
arbeider
arbeiders
arbeiderspartij
arbeiderspers
arbeidsmarkt
arbitrage
arc
arcade
archeologen
archeologie
archeologisch
archeologische
archeoloog
archer
archibald
archie
archief
archieven
archipel
architect
architecten
architectenbureau
architectonische
architecture
architectuur
archivaris
archive
archives
arctiinae
ard
ardeche
ardennen
ardennes
are
area
arena
arenberg
arend
arg
argentijns
argentijnse
argentina
argentinie
argument
argumenten
argus
ari
aria
ariane
arie
ariel
aristocratie
aristocratische
aristoteles
arizona
arjan
arjen
ark
arkansas
arkel
arles
arlington
arm
armand
armando
arme
armee
armeens
armeense
armen
armenie
armeniers
armin
armoede
arms
armstrong
army
arnaud
arne
arnhem
arnhemse
arno
arnold
arnoldus
arnulf
aromatische
aron
around
arp
arrangement
arrangementen
arrangeur
arras
array
arrest
arrestatie
arresteren
arriba
arriva
arriveerde
arriveerden
arriveert
arriveren
arrondissement
arrondissementen
arrow
arroyo
ars
arsenaal
arsenal
art
arte
artefacten
artemis
arthur
arti
article
articles
artiest
artiesten
artiestennaam
artikel
artikelen
artikels
artillerie
artillery
artis
artist
artistiek
artistieke
artists
arts
artsen
artur
arturo
aruba
as
asfalt
ash
ashford
ashley
ashmead
ashton
asia
asian
asiel
asielzoekers
asilidae
ask
asp
aspect
aspecten
assemblee
assembly
assen
assist
assistent
assistente
assists
associatie
association
assortiment
assyrische
astana
asten
asterix
aston
astra
astrid
astrologie
astronaut
astronomical
astronomie
astronomische
astronoom
asturie
at
ata
atari
atelier
ateliers
atheense
athena
athene
atheners
atheneum
athletic
atjeh
atkins
atlanta
atlantic
atlantique
atlantis
atlantische
atlas
atleet
atlete
atleten
atletico
atletiek
atmosfeer
atmosferische
atol
atomen
atoom
atoomnummer
atp
attack
attelabidae
attila
attractie
attractiepark
attracties
attributen
attribuut
au
aube
aubert
auch
auckland
aude
audi
audio
auditie
audrey
auf
auflage
aug
auge
augsburg
august
augusta
auguste
augustin
augustinus
augustus
aula
aurelius
aurivillius
aurora
aus
auschwitz
auspicien
austin
australaziatisch
australia
australian
australie
australier
australis
australisch
australische
austria
auteur
auteurs
auteursrecht
authentiek
authentieke
authority
auto
autobahn
autobiografie
autobiografische
autocoureur
autodidact
autodromo
automatisch
automatische
automerk
automobile
autonome
autonomie
autonoom
autoritaire
autoriteit
autoriteiten
autosnelweg
autosnelwegen
autosport
autoweg
autumn
auvergne
aux
auxerre
av
avant
avatar
ave
avec
avengers
avenue
avermaet
avery
aviation
avibase
avignon
avila
aviv
avon
avond
avonden
avondmaal
avonds
avonturen
avontuur
avro
aw
award
awards
away
ax
axel
ay
az
azerbeidzjaanse
azerbeidzjan
aziatisch
aziatische
azie
aziz
azur
azuur
b
b0
b1
b2
b3
b4
b5
b6
b7
b8
b9
ba
baai
baal
baan
baantjer
baanwielrennen
baar
baard
baarde
baarle
baarn
baars
baas
baat
bab
baba
babel
baby
babylon
babylonische
bac
bach
bachelor
back
backer
bacon
bacterie
bacterien
bactrocera
bad
baden
badminton
badplaats
baehr
baert
baetidae
bafta
bag
bagage
bagdad
baha
bahama
bahia
bahn
bahnhof
bahrein
bailey
bains
baird
bak
baker
bakken
bakker
bakkerij
bakoe
baksteen
bakstenen
bal
balans
baldwin
bali
balie
baljuw
balk
balkan
balken
balkenende
balkon
balkspiraalstelsel
ball
ballad
ballade
ballen
ballet
ballingschap
ballon
balthasar
balthazar
baltimore
baltische
baly
bam
ban
bananen
band
banda
banden
bandleden
bandleider
bandlid
bands
bandung
banen
bang
bangkok
bangladesh
banjo
bank
bankbiljetten
banken
bankier
banks
banner
bantam
banten
baptist
baptiste
bar
barabas
barack
barakken
barangays
barat
barbadillo
barbados
barbara
barbarossa
barber
barbuda
barbus
barcelona
barend
bari
bariton
barker
barnard
barnes
barneveld
barney
barok
barokke
baron
barones
baronie
barre
barrett
barriere
barrios
barrow
barry
bars
bart
barth
barthelemy
bartholomeus
barton
bartsch
baru
bas
basaal
basale
base
baseball
based
baseerde
basel
bases
basgitaar
basgitarist
basic
basilewsky
basilica
basiliek
basin
basis
basisonderwijs
basisplaats
basisscholen
basisschool
basisspeler
baskenland
basketbal
basketball
basketballer
basketbalteam
baskisch
baskische
basklarinet
bass
bassett
bassie
bassin
bassist
bassler
basso
bast
bastenaken
bastion
bat
bataafse
bataljon
bataljons
batavia
bate
baten
bates
bath
batman
baton
batterij
batterijen
battista
battle
batu
bauer
bauwens
bax
baxter
bay
bayer
bayern
bazel
bb
bbc
bc
bd
be
beach
bean
beantwoord
beantwoorden
bear
beast
beat
beatles
beatrice
beatrix
beats
beau
beaufort
beaumont
beautiful
beauty
beaux
beboste
bebouwd
bebouwde
bebouwing
because
bechyne
beck
becker
bed
bedacht
bedankt
bedden
bedding
bedekken
bedekt
bedekte
bedenken
bedenker
bedenkt
bedevaart
bedford
bediend
bediende
bedienden
bedienen
bediening
bedient
bedoeld
bedoelde
bedoeling
bedoelingen
bedoelt
bedraagt
bedrag
bedragen
bedreigd
bedreigde
bedreigen
bedreiging
bedreigingen
bedreven
bedrijf
bedrijfskunde
bedrijfsleven
bedrijfsnaam
bedrijven
bedrijvende
bedrijventerrein
bedrijvigheid
bedroeg
bedrog
bedrogen
beduidend
bee
beedigd
beeindigd
beeindigde
beeindigen
beeindiging
beek
beekkevers
beeld
beelden
beeldend
beeldende
beeldenpark
beeldhouwer
beeldhouwers
beeldhouwkunst
beeldhouwster
beeldhouwwerk
beeldhouwwerken
beeldje
beeldmateriaal
beeltenis
been
beenderen
beer
beerdiertjes
beernaert
beerschot
beervlinder
beervlinders
beest
beesten
beet
beethoven
beetje
befaamde
before
begaan
begaf
begane
begeleid
begeleidde
begeleiden
begeleidende
begeleider
begeleiding
begeleidt
begeven
begijnhof
begin
beginjaren
beginnen
beginnend
beginnende
beginperiode
beginpunt
beginsel
beginselen
begint
begon
begonnen
begraafplaats
begraafplaatsen
begrafenis
begraven
begreep
begrensd
begrepen
begrijpen
begrijpt
begrip
begrippen
begroeid
begroeiing
begroting
behaald
behaalde
behaalden
behaalt
behaard
behaarde
behalen
behalve
behandeld
behandelde
behandelen
behandeling
behandelingen
behandelt
beheer
beheerd
beheerde
beheerder
beheersen
beheerst
beheerste
beheert
beheren
behield
behielden
behind
behoeft
behoefte
behoeften
behoeve
behoorde
behoorden
behooren
behoorlijk
behoorlijke
behoort
behoren
behorend
behorende
behoud
behouden
behoudens
behoudt
behuizing
behulp
bei
beiaard
beide
beiden
beier
beieren
beierse
beijing
being
beinvloed
beinvloedde
beinvloeden
beiroet
bek
bekeerd
bekeerde
bekeken
beken
bekend
bekende
bekendgemaakt
bekendheid
bekendst
bekendstaat
bekendste
bekendstond
bekennen
bekent
bekentenis
beker
bekeren
bekerfinale
bekering
bekers
bekertoernooi
bekerwinnaar
bekijken
bekken
bekleden
bekleed
bekleedde
beklimmen
beklimming
beklommen
beknopte
bekomen
bekrachtigd
bekritiseerd
bekritiseerde
bekroond
bekroonde
bekwaam
bel
bela
belachelijk
beladen
beland
belandde
belanden
belandt
belang
belangen
belangrijk
belangrijke
belangrijker
belangrijkste
belangstelling
belast
belasting
belastingdienst
belastingen
belbo
beleefd
beleefde
beleg
belegerd
belegerde
belegering
beleggers
beleid
beletten
beleven
belfast
belfort
belg
belge
belgen
belges
belgian
belgica
belgie
belgique
belgisch
belgische
belgium
belgrado
belicht
believe
belize
bell
bella
belle
bellen
bello
bells
belofte
beloften
belokobylskij
beloning
beloofd
beloofde
belooft
beloond
beloven
belt
beluisteren
belvedere
bemachtigen
bemande
bemanning
bemanningsleden
bemanningslid
bembidion
bemiddeling
bemoeien
bemoeilijkt
ben
benaderd
benaderde
benaderen
benadering
benadrukken
benadrukt
benadrukte
benaming
benamingen
bend
bende
bene
beneden
benedenloop
benedict
benedictus
benelux
benen
benfica
bengalen
bengkulu
benin
benito
benjamin
bennett
benny
benodigde
benoemd
benoemde
benoemen
benoeming
benoemingen
benoemt
benoist
benoit
benson
bent
benth
bentheim
bentley
benton
benut
benutten
benz
benzine
benzinemotor
beoefend
beoefenen
beoogde
beoordeeld
beoordelen
beoordeling
beoordelingsjaar
bepaald
bepaalde
bepaalt
bepalen
bepalend
bepaling
bepalingen
beperken
beperking
beperkingen
beperkt
beperkte
ber
berchem
berecht
bereden
bereid
bereiden
bereiding
bereik
bereikbaar
bereiken
bereikt
bereikte
bereikten
berekend
berekenen
berekening
berekeningen
beren
berend
berg
bergachtig
bergachtige
bergamo
berge
bergen
berger
bergh
berghe
bergketen
bergklassement
bergman
bergtop
bericht
berichten
beringen
berio
berk
berkel
berkeley
berlage
berland
berlijn
berlijnse
berlin
berliner
bermuda
bern
bernard
bernardino
bernardo
bernardus
bernd
bernhard
bernie
bernstein
beroemd
beroemde
beroemdheden
beroemdste
beroep
beroepen
beroepshalve
beroepsonderwijs
beroerte
beroofd
berry
bert
bertha
bertrand
bertus
berucht
beruchte
berust
berwick
bes
besancon
besar
beschadigd
beschadigde
beschadigen
beschadiging
beschaving
beschavingen
bescheiden
beschermd
beschermde
beschermen
beschermende
beschermer
beschermheer
bescherming
beschermingsstatus
beschermt
beschikbaar
beschikbaarheid
beschikbare
beschikken
beschikking
beschikt
beschikte
beschikten
beschilderd
beschoten
beschouwd
beschouwde
beschouwden
beschouwen
beschouwing
beschouwingen
beschouwt
beschreef
beschreven
beschrijft
beschrijven
beschrijvers
beschrijving
beschrijvingen
beschuldigd
beschuldigde
beschuldiging
beschuldigingen
besef
beseffen
beseft
besefte
beslaan
beslaat
beslag
beslissen
beslissende
beslissing
beslissingen
beslissings
beslissingswedstrijd
beslist
besliste
besloeg
besloot
besloten
besluit
besluiten
besluitvorming
besmet
besmetting
besmettingen
besparen
bespeeld
bespelen
bespreken
bespreking
besprekingen
besproken
bessen
best
bestaan
bestaand
bestaande
bestaat
bestand
bestanden
beste
besteden
besteed
besteedde
besteld
bestelde
bestellen
bestelling
bestemd
bestemming
bestemmingen
bestemmingsplan
bestempeld
besten
bestond
bestonden
bestraft
bestreden
bestrijden
bestrijding
bestseller
bestudeerd
bestudeerde
bestudeert
bestuderen
bestudering
besturen
besturing
besturingssysteem
bestuur
bestuurd
bestuurde
bestuurder
bestuurders
bestuurlijk
bestuurlijke
bestuurslaag
bestuursleden
bestuurslid
bestuursvoorzitter
bestuurt
bet
beta
betaald
betaalde
betaalden
betaalt
betalen
betaling
betalingen
betekende
betekenen
betekenis
betekenissen
betekent
beter
betere
beth
bethlehem
bethune
beton
betonnen
betrapt
betreden
betreffen
betreffende
betreft
betrekkelijk
betrekken
betrekking
betrekkingen
betrof
betrok
betrokken
betrokkene
betrokkenen
betrokkenheid
betrouwbaar
betrouwbaarheid
betrouwbare
better
betty
betuwe
between
betwist
beuk
beuken
beuningen
beurs
beurt
beurzen
beval
bevalling
bevat
bevatte
bevatten
beveelt
beveiliging
bevel
beveland
bevelen
bevelhebber
bever
beveren
beverly
beverwijk
bevestigd
bevestigde
bevestigen
bevestigend
bevestiging
bevestigt
beviel
bevinden
bevindingen
bevindt
bevoegd
bevoegde
bevoegdheden
bevoegdheid
bevolking
bevolkingsdichtheid
bevolkingsgroei
bevolkingsgroep
bevolkingsgroepen
bevolkt
bevond
bevonden
bevoorrading
bevorderd
bevorderen
bevordering
bevordert
bevriend
bevriende
bevrijd
bevrijden
bevrijding
bevroren
bevruchting
bewaakt
bewaard
bewaarde
bewaart
bewaken
bewaker
bewakers
bewaking
bewapend
bewapening
bewaren
bewaring
beweegt
beweerd
beweerde
beweert
bewees
bewegen
bewegende
beweging
bewegingen
beweren
bewering
beweringen
bewerken
bewerking
bewerkingen
bewerkingsgeschiedenis
bewerkstelligen
bewerkt
bewerkte
bewezen
bewijs
bewijst
bewijzen
bewind
bewogen
bewonderen
bewondering
bewoner
bewoners
bewoning
bewoog
bewoond
bewoonde
bewust
bewuste
bewusteloos
bewustzijn
bey
beyond
bezat
bezaten
bezet
bezeten
bezette
bezetten
bezetter
bezetters
bezetting
bezichtigen
bezield
bezien
bezienswaardigheden
bezig
bezige
bezigheden
bezighield
bezighouden
bezighoudt
bezirksliga
bezit
bezitten
bezittingen
bezocht
bezochte
bezochten
bezoek
bezoeken
bezoeker
bezoekers
bezoekerscentrum
bezoekt
bezorgd
bezorgde
bezorgdheid
bezorgen
bezuinigingen
bezwaar
bezwaren
bf
bg
bh
bhutan
bi
bianca
bianchi
biatlon
bible
bibliografie
bibliothecaris
bibliotheek
bibliotheken
bibliotheque
bickington
bicolor
bid
bidden
bie
biecht
bieden
biedt
bielefeld
bien
biennale
bier
biercultuur
bieren
bierfirma
big
bigband
bij
bijbehorende
bijbel
bijbelse
bijdrage
bijdragen
bijeen
bijeenkomst
bijeenkomsten
bijen
bijgaand
bijgebouwen
bijgedragen
bijgehouden
bijgenaamd
bijgestaan
bijgevolg
bijgewerkt
bijgewoond
bijgezet
bijhorende
bijkomende
bijl
bijlage
bijna
bijnaam
bijnamen
bijrol
bijstand
bijt
bijten
bijv
bijvoeglijk
bijvoeglijke
bijvoorbeeld
bijwerkingen
bijwoord
bijzijn
bijzin
bijzonder
bijzondere
bijzonderheden
bil
bilbao
bill
billboard
billie
billy
bilt
bin
binair
binaire
binden
binding
bindingen
bindt
bing
binh
binnen
binnenhof
binnenin
binnenkant
binnenkort
binnenland
binnenlands
binnenlandse
binnenplaats
binnenstad
binnenste
binnenzijde
bio
biodiversiteit
biograaf
biografie
biografieen
biografisch
biografische
biographical
biographie
biography
biologie
biologisch
biologische
biology
bioloog
bioscoop
bioscopen
bird
birdlife
birds
birma
birmingham
birth
birthday
bis
bisdom
bisdommen
bishop
bismarck
bissau
bisschop
bisschoppelijk
bisschoppelijke
bisschoppen
bit
bits
bitter
bittere
bizarre
bj
bjergby
bjork
bjorn
bk
bl
bla
blaadjes
blaas
black
blackburn
blackwell
blad
blade
bladen
bladeren
bladkevers
bladmuziek
bladrolkevers
bladrollers
bladsprietkevers
bladwespen
bladzijde
bladzijden
blair
blake
blanc
blanca
blanchard
blanche
blanco
blank
blanke
blanken
blankenberge
blaricum
blasmusikverlag
blasmusikwesens
blauw
blauwe
blazen
blazers
blazoenering
bleef
bleek
bleeker
bleke
bleken
blessure
blessures
bleu
bleven
blies
blij
blijde
blijf
blijft
blijk
blijkbaar
blijken
blijkt
blijven
blijvend
blijvende
blik
blikken
bliksem
blind
blinde
bloch
block
bloed
bloedbad
bloedcellen
bloeddruk
bloeddrupjes
bloedige
bloedvaten
bloei
bloeide
bloeien
bloeiende
bloeiperiode
bloeit
bloeitijd
bloeiwijze
bloem
bloemen
bloemendaal
bloemlezing
bloemvliegen
blog
blois
blok
blokjes
blokkade
blokken
blokkeren
blom
blond
blonde
blood
bloom
bloot
blootgesteld
blootstelling
blote
blow
blu
blue
blues
blz
bm
bmatrix
bmc
bmw
bn
bnn
bo
boa
board
boat
bob
bobby
bobsleeen
boca
bochelvliegen
bocht
bochten
bochum
bock
bod
bode
bodem
bodemjachtspinnen
bodems
boden
body
boe
boeck
boedapest
boeddha
boeddhisme
boeddhistische
boeg
boeing
boek
boekarest
boeken
boekhandel
boekje
boekte
boel
boer
boerderij
boerderijen
boeren
boete
boezem
bogen
bogota
boheemse
boheman
bohemen
boijmans
bois
boisduval
bok
boksen
bokser
boktorren
bol
bold
bolesław
bolivar
bolivia
boliviaanse
bolle
bollen
bologna
bolsjewieken
bolsward
bolt
bolton
bolus
bolvormige
bolwerk
bom
bomaanslag
bomans
bomb
bombardement
bombardementen
bombardier
bombay
bombyliidae
bomen
bommel
bommen
bommenwerper
bommenwerpers
bon
bonaire
bonaparte
bond
bonden
bondgenoot
bondgenootschap
bondgenoten
bondscoach
bondscoaches
bondsdag
bondskanselier
bondsraad
bondsrepubliek
bone
bonen
bones
bonifatius
bonn
bonne
bonnet
bonnie
bono
bont
bonte
bonus
bood
boodschap
boodschappen
boog
boogie
boogschieten
book
booker
books
boom
boomen
boon
boone
boonen
boor
boord
boorvliegen
boos
boot
booth
boots
bor
bord
bordeaux
borden
border
borealis
boren
borg
borger
borgerhout
borgmeier
boring
boris
born
borneo
borough
borst
borstbeeld
borstelsteenvliegen
borstelworm
borsten
borussia
bos
bosbouw
bosch
bosco
bosgebied
bosman
bosmans
bosnie
bosnisch
bosnische
boss
bossche
bossen
boston
bot
botanical
botanicus
botanische
boten
boter
both
botnische
botsing
botswana
botten
bottom
boucek
boucher
bouchet
boudewijn
bouillon
boulenger
boulevard
boulogne
bourbon
bourg
bourgeois
bourges
bourgogne
bourgondie
bourgondische
bourne
bouterse
bouvier
bouw
bouwde
bouwden
bouwen
bouwer
bouwjaar
bouwkunde
bouwkundig
bouwkundige
bouwkunst
bouwman
bouwmeester
bouwstijl
bouwt
bouwwerk
bouwwerken
boven
bovenaan
bovenal
bovenbouw
bovendien
bovengenoemde
bovengronds
bovengrondse
bovenkaak
bovenkaaksbeen
bovenkant
bovenleiding
bovenliggende
bovenloop
bovennatuurlijke
bovenop
bovenrand
bovenstaande
bovenste
bovenzijde
bow
bowie
bowl
box
boxmeer
boxtel
boy
boycot
boyd
boyer
boys
boze
bp
bq
br
bra
braak
brabant
brabants
brabantse
brachene
bracht
brachten
brachycera
bracon
braconidae
brad
bradford
bradley
brady
braga
brahms
brain
brak
brakel
braken
bram
branch
brand
brandde
branden
brandenburg
brandende
brandon
brands
brandstof
brandstoffen
brandt
brandweer
brasil
brasiliensis
brass
brassband
brasserie
bratislava
bratton
braun
braunschweig
brave
bravo
bray
brazil
braziliaans
braziliaanse
brazilie
brazzaville
break
breakfast
breaking
brecht
breda
brede
breder
bredere
brederode
bredevoort
bree
breed
breedte
breedtegraad
breekt
breidde
breiden
brein
breken
bremen
bremer
brenda
brendan
breng
brengen
brengt
brent
brescia
brescovit
breslau
brest
bretagne
brett
breuk
breukelen
breuning
brevis
brexit
brian
bride
bridge
bridges
bridget
brie
brief
briefje
briefwisseling
brien
brieven
brigade
brigadegeneraal
brigades
brigadier
bright
brighton
brigitte
brignoli
bril
brill
bring
brink
brinkman
brisbane
bristol
brit
britain
britannia
britannica
british
brits
britse
britt
brittannie
britten
brno
bro
broad
broadcasting
broadway
broch
brochure
brock
broeck
broeden
broeder
broeders
broederschap
broedt
broek
broer
broers
broertje
broken
brokken
brom
bron
bronckhorst
broncode
bronnen
brons
bronstijd
bronswespen
bronx
bronzen
brood
brook
brooke
brooklyn
brooks
bros
brother
brotherhood
brothers
brough
broughton
broun
brouwen
brouwer
brouwerij
brouwerijen
brouwers
brown
browne
browning
browser
brt
bruce
bruegel
brues
brug
bruges
brugge
bruggen
bruggenhoofd
brugse
bruid
bruidegom
bruijn
bruikbaar
bruikbare
bruikleen
bruiloft
bruin
bruine
brulle
bruna
brunei
bruner
brunner
bruno
brunswick
brunswijk
brussel
brussels
brusselse
bruto
brutoformule
brutus
bruxelles
bruyn
bruyne
bryan
bryant
bs
bsa
bsc
bsg
bsp
bt
btw
bu
buccinidae
buch
buck
buckingham
buckland
bud
buddy
budget
buenos
buffalo
bug
bui
buigen
buigt
buik
building
buis
buit
buiten
buitenaardse
buitenaf
buitenechtelijke
buitengewone
buitengewoon
buitenkant
buitenland
buitenlanders
buitenlands
buitenlandse
buitenplaats
buitenste
buitenwereld
buitenwijk
buitenwijken
buitenzijde
buizen
bul
bulgaars
bulgaarse
bulgaren
bulgarije
bull
bulle
bulletin
bult
buma
bundel
bundels
bundesamt
bundesliga
bundesstraße
bunker
bunkers
burcht
bureau
bureba
buren
burg
burgemeester
burgemeesters
burgemeesterschap
burger
burgerij
burgerlijk
burgerlijke
burgeroorlog
burgers
burgess
burggraaf
burgh
burgos
burke
burkina
burmeister
burn
burning
burns
burt
burton
burundi
bury
bus
busch
busck
bush
business
buslijn
buslijnen
bussen
busstation
bussum
buste
buster
but
butler
butterfly
button
buurland
buurlanden
buurman
buurt
buurten
buurtschap
buurtschappen
buurvrouw
buys
bv
bw
bwv
bx
by
bye
byrne
byron
byzantijnen
byzantijns
byzantijnse
byzantium
bz
bə
c
c0
c1
c2
c3
c4
c5
c6
c7
c8
c9
ca
cabaret
cabaretier
cabine
cadeau
cadiz
caen
caesar
caf
cafe
cafes
cage
cairns
cairo
cal
calabrie
calais
calcio
calcium
calcutta
caledonie
calgary
california
californie
californische
caligula
call
called
calliostoma
calvados
calvert
calvin
calvinistische
cam
cambodja
cambridge
cambridgeshire
cambuur
came
cameo
camera
cameraman
cameron
camille
camino
camp
campagne
campagnes
campaign
campbell
campeonato
camping
campo
camponotus
campos
camps
campus
can
canada
canadees
canadese
canadezen
canadian
canal
canarische
cancellara
cancer
candeze
candido
candy
cannes
cannon
canon
cantate
canterbury
cantharidae
canthocamptidae
canto
canton
cantor
canu
canvas
canyon
cao
cap
capaciteit
cape
capella
capelle
capensis
capital
capitol
capitulatie
caporiacco
capsule
captain
car
cara
carabidae
carabus
caraiben
caraibische
caravan
carbon
card
cardiff
cardiophorus
care
carel
carey
cargo
caribbean
caribisch
caribische
carl
carla
carleton
carlisle
carlo
carlos
carlton
carmen
carnaval
carnegie
carnivoor
carol
carolina
caroline
carolus
carpenter
carr
carre
carrera
carrie
carriere
carroll
carrosserie
carry
cars
carson
cartagena
carter
carthago
cartman
cartoon
cartoonist
caruso
carvalho
cas
casa
casablanca
casanova
cascade
case
casey
cash
casimir
casino
caspar
casper
cassatie
cassette
cassidy
cassius
cast
castel
castello
castelnau
castiglione
castilie
castilla
castillo
castle
castrillo
castro
cat
catalaans
catalaanse
catalogue
catalogus
catalonie
catalunya
catania
catarina
catch
cate
categorie
categorieen
catharina
cathedral
catherine
catholic
cato
cats
caundle
cavalerie
cave
cavendish
cb
cbs
cc
cd
cda
cdot
cdu
ce
cebu
cecidomyiidae
cecil
cecile
cecilia
cedar
cedric
cees
cel
celebes
celine
cell
celle
cellen
celli
cellist
cello
celsius
celstraf
celtic
cement
cemetery
cen
cena
census
censuur
cent
center
centimeter
centra
centraal
central
centrale
centre
centro
centrum
century
ceo
cerambycidae
ceratopogonidae
cercle
cercopidae
ceremonie
ceremoniele
cerf
cerro
certificaat
cervera
ces
cesar
cesare
ceskeho
cesko
cesky
cest
cestoda
cet
ceylon
cf
cg
cgc
ch
cha
chad
chaetonotus
chain
chalcididae
challenge
challenger
chalon
chamber
chamberlain
chamberlin
chambers
champ
champagne
champion
champions
championship
championships
champs
chan
chance
chandler
chang
change
changes
channel
chanson
chant
chantal
chao
chaos
chapel
chapelle
chaplin
chapman
chapter
char
characidae
charente
charge
charity
charkov
charleroi
charles
charleston
charley
charlie
charlotte
charlton
chart
charter
chartres
charts
chase
chassis
chat
chateau
chatillon
chau
chaudoir
chauffeur
chavanel
chavez
che
check
chef
chelsea
chemical
chemicalien
chemicus
chemie
chemin
chemins
chemisch
chemische
chemsak
chen
cheng
cher
cherry
cheshire
chess
chessgames
chester
chevalier
chevrolat
chevrolet
chez
chi
chiang
chicago
chicken
chickering
chico
chief
chiesa
child
children
chile
chileens
chileense
chili
china
chinees
chinensis
chinese
chinezen
chip
chips
chironomidae
chirurg
chirurgie
chloe
chloor
chloride
cho
choc
chocolade
choice
chopard
chopin
choreograaf
choreografie
chorus
chr
chretien
chris
christ
christelijk
christelijke
christen
christendemocratische
christendom
christenen
christensen
christenunie
christi
christiaan
christian
christiane
christie
christina
christine
christmas
christoffel
christoph
christophe
christopher
christus
chromosomen
chromosoom
chronicles
chronische
chronologie
chronologisch
chronologische
chroom
chrysler
chrysomelidae
chrysopidae
chu
chuck
chun
church
churchill
ci
cia
cicero
cichlidae
cichliden
cid
cie
cijfer
cijfers
cilinder
cilinderinhoud
cilinders
cilindrisch
cincinnati
cindy
cinema
cinq
circa
circle
circuit
circuito
circuits
circus
cirkel
cirkels
cirkelvormige
cirri
cis
citaat
citadel
citaten
cite
citroen
citta
city
ciudad
civiel
civiele
civil
cj
ck
cl
claes
claeys
claim
claimde
claims
clair
claire
clan
clans
clapton
clara
clare
clarence
clark
clarke
class
classic
classical
classicistische
classics
classificatie
clathria
claude
claudia
claudio
claudius
claus
clausilia
clay
clayton
clean
clear
clemens
clement
clemente
clementine
cleopatra
clerck
clercq
clermont
cleveland
client
cliff
clifford
clifton
climax
clinton
clip
clive
clock
close
cloud
clown
club
clubgeschiedenis
clubhuis
clubiona
clubkleuren
clubs
clubteams
cluster
clyde
clyst
cm
cn
cnn
co
coach
coalitie
coast
cobb
cobra
coburg
coca
cocaine
cock
cockerell
cockpit
coco
code
codenaam
codes
codex
cody
coefficienten
coelioxys
coen
coenagrionidae
coenen
coenraad
coevorden
cofidis
cognitieve
cohen
col
cola
cold
cole
coleman
coleophora
coleophoridae
colin
coll
collaboratie
collectie
collectief
collecties
collectieve
collection
collega
college
colleges
collegiale
collegium
collenette
colletidae
collier
collin
collins
colombia
colombiaans
colombiaanse
colombo
colon
colonel
color
colorado
columbia
columbus
column
columnist
columns
com
coma
combat
combe
combinatie
combinaties
combineerde
combineert
combineren
come
comeback
comedie
comedy
comes
comfort
comic
comics
coming
comitaat
comite
command
commandant
commander
commandeur
commando
comme
commentaar
commentaren
commentator
commerce
commercial
commercieel
commerciele
commissaris
commissarissen
commissie
commissies
commission
committee
commodore
common
commons
commonwealth
communal
commune
communicatie
communication
communications
communiceren
communisme
communist
communisten
communistisch
communistische
community
como
comoren
compact
compacte
compagnie
company
compensatie
compenseren
competitie
competitieduels
competitieniveau
competities
competitievoetbal
competitiewedstrijd
competitiewedstrijden
competition
compilatie
compilatiealbum
compleet
complete
complex
complexe
complexen
complexiteit
complicaties
complot
componeerde
component
componenten
componeren
componist
componiste
componisten
composers
compositie
composities
compromis
compton
computer
computerprogramma
computers
computerspel
computerspellen
comte
comune
con
conan
concacaf
concentratie
concentratiekamp
concentratiekampen
concentraties
concentreerde
concentreren
concept
concepten
concern
concert
concerten
concertgebouw
concertgebouworkest
concerto
concertzaal
concessie
concessies
concilie
conclaaf
concludeerde
conclusie
conclusies
concord
concordia
concours
concreet
concrete
concurrent
concurrenten
concurrentie
concurreren
concurrerende
conde
condicional
conditie
conditionnel
condor
confederatie
conference
conferentie
conferenties
configuratie
conflict
conflicten
conform
confrontatie
congo
congolese
congregatie
congres
congress
congressen
coninc
coninck
conmebol
connecticut
connection
connexxion
connie
connor
conny
conrad
conseil
consensus
consequent
consequenties
conservatief
conservatieve
conservatieven
conservation
conservatoire
conservator
conservatorium
consistorie
console
consortium
constance
constant
constante
constantijn
constantin
constantinopel
constantius
constitutie
constitutionele
constructeur
constructeurs
constructie
constructies
construction
consul
consulaat
consument
consumenten
consumptie
contact
contacten
contador
container
containers
conte
contemporary
content
context
conti
continent
continentaal
continental
continentale
continenten
continu
continue
continuiteit
continuo
contra
contrabas
contrabassen
contract
contracten
contrast
contreras
control
controle
controleert
controleren
controverse
controversieel
controversiele
conus
conventie
conventies
convention
conventionele
conway
cook
cooke
cookeilanden
cool
coomans
cooper
cooperatie
cooperatieve
coordinaten
coordinatie
coordinator
cop
copa
cope
coppa
coppens
coquillett
cor
cordillera
cordoba
core
cork
cornelia
cornelis
cornelius
cornell
corner
cornet
cornwall
corona
coronacrisis
coronapandemie
coronavirus
corporation
corps
corpus
correct
correcte
correspondent
correspondentie
corridor
corrupte
corruptie
corry
corsica
corso
cortes
coruna
cos
cosmopterigidae
cossidae
costa
coster
cot
cote
cotes
cotton
could
council
count
country
county
coup
coupe
couperus
couplet
courant
coureur
coureurs
cours
course
court
courtenay
courtney
cove
coventry
cover
covers
covid
cowboy
cox
cp
cpn
cq
cr
craig
crambidae
cramer
crane
crash
crassus
crawford
crazy
creatie
creatief
creatieve
creation
creative
creativiteit
credit
credits
creed
creeerde
creeert
creek
creeren
creme
cresson
crest
cretaceous
crew
cricket
crime
criminaliteit
crimineel
criminele
criminelen
crimson
crisis
cristina
cristo
criteria
criterium
critical
critici
criticus
croce
croix
cromwell
crosby
cross
crossing
crow
crown
croy
cruciaal
cruciale
cruijff
cruise
cruz
cry
crypte
crystal
cs
csi
cska
ct
cu
cuba
cubaanse
cuesta
cuijk
culemborg
culex
culicidae
cult
cultural
culture
cultureel
culturele
culturen
cultus
cultuur
cultuurhistorische
cultuurraad
cum
cumbria
cummings
cuneo
cunningham
cup
cupido
cups
curacao
curator
cure
curie
curran
curry
cursief
cursus
cursussen
curtis
cut
cuvier
cuypers
cv
cvp
cw
cx
cy
cycle
cycling
cyclocross
cycloon
cyclopidae
cyclops
cyclus
cynthia
cyprinidae
cypriotische
cyprus
cyril
cyrillisch
cyrus
cz
d
d0
d1
d2
d3
d4
d5
d6
d7
d8
d9
da
daad
daadwerkelijk
daadwerkelijke
daags
daalde
daalt
daan
daar
daaraan
daarachter
daarbij
daarboven
daarbuiten
daardoor
daarenboven
daarentegen
daarin
daarmee
daarna
daarnaast
daarom
daaromheen
daaronder
daarop
daaropvolgende
daarover
daartoe
daartussen
daaruit
daarvan
daarvoor
dachau
dacht
dachten
dad
daddy
dadelijk
daden
dader
daders
daer
daf
dag
dagblad
dagbladen
dagboek
dagboeken
dage
dagelijks
dagelijkse
dagen
dageraad
daglicht
dagobert
dahl
dai
daily
daimler
daisy
dak
dakar
daken
dakota
dakruiter
dal
dalai
dale
dalen
dalende
daling
dall
dalla
dallas
dalton
daly
dam
damascus
dame
damen
dames
damien
damme
dammen
damon
dampen
dan
dana
dance
dancing
danger
dangerous
dani
daniel
daniela
daniele
danielle
daniels
dank
dankbaar
dankbaarheid
danken
dankse
dankt
dankzij
danny
dans
danse
dansen
danser
danseres
dansers
danske
dansmuggen
dansvliegen
dante
danzig
daphne
dapper
dappere
dapperheid
dar
dario
darius
dark
darkness
darling
darlington
darm
darmbeen
darmen
darmstadt
darren
darter
darts
darwin
das
dasch
dat
data
databank
database
date
dateert
dateren
daterend
datering
datgene
datief
datum
datzelfde
daughter
dauphine
dave
davenport
david
davids
davidsfonds
davidson
davies
davis
davy
dawn
dawson
day
days
db
dbnl
dc
dd
ddr
de
dead
deal
dean
dear
death
debat
debatten
debbie
deborah
debussy
debutant
debuteerde
debuut
debuutalbum
debuutsingle
dec
decaan
decca
december
decennia
decennialang
decennium
decimaal
decker
deco
decor
decoratie
decoraties
decoratieve
decors
decreet
deden
dee
deed
deeg
deel
deelde
deelden
deelen
deelgebied
deelgebieden
deelgemeente
deelgemeenten
deelgenomen
deelnam
deelname
deelnamen
deelnames
deelneemsters
deelneemt
deelnemen
deelnemende
deelnemer
deelnemers
deels
deelstaat
deelstaten
deelt
deeltje
deeltjes
deelwoord
deen
deens
deense
deep
deer
dees
deeze
def
defect
defense
defensie
defensieve
definieren
definitie
definitief
definities
definitieve
degelijk
degen
degene
degenen
degli
degradatie
degradeerde
degradeerden
degradeert
degraderen
dei
deinze
dejean
dek
deken
dekken
dekker
dekkers
dekking
deksel
del
delaware
delden
dele
delegatie
delen
delft
delftse
delfzijl
delgado
delhi
delias
deling
dell
della
delle
delta
deluxe
dem
demetrius
demi
demo
democraten
democratie
democratisch
democratische
demon
demonen
demoniem
demonstranten
demonstratie
demonstraties
demospongiae
den
dendermonde
dendy
denemarken
denen
denis
denise
denk
denkbeeld
denkbeelden
denken
denkers
denkt
dennis
denton
denver
deo
departement
departementen
department
deportatie
deportivo
depot
depressie
der
derby
derbyshire
derd
derde
derden
derek
dergelijk
dergelijke
derhalve
derk
derksen
dermate
dermestidae
ders
dert
dertien
dertiende
dertig
dertigjarige
des
desalniettemin
desbetreffende
descamps
descartes
description
dese
desert
design
designated
desire
deskundige
deskundigen
desmond
desondanks
dessau
dessel
destijds
destiny
det
detail
details
detective
detroit
deugd
deugden
deur
deuren
deurne
deus
deutsch
deutsche
deutschen
deutscher
deutsches
deutschland
deuve
deux
development
deventer
devil
devon
devos
devotie
dewey
dexter
deze
dezelfde
dezelve
dezen
dezer
df
dfb
dg
dh
dhabi
di
dia
diabetes
diagnose
diagonaal
diagram
diaken
diakonoff
dialect
dialecten
dialogen
dialoog
diamant
diamanten
diameter
diamond
diamonds
diana
diane
diapheromeridae
diary
dias
diaspora
diaz
diccionario
dich
dicht
dichtbij
dichtbundel
dichte
dichten
dichter
dichterbij
dichteres
dichters
dichtheid
dichtst
dichtstbijzijnde
dick
dickens
dickinson
dicranomyia
dictator
dictatuur
dictionary
dictionnaire
did
didier
die
diederik
dieet
dief
diefstal
diegene
diegenen
diego
diemen
dien
dienaar
dienaren
diende
dienden
dienen
diens
dienst
dienste
diensten
dienstensector
dienstplicht
dienstregeling
dienstverlening
dient
diep
diepe
dieper
diepere
diepgang
diepste
diepte
dieptepunt
dier
dieren
dierentuin
dierkunde
dierlijke
diersoort
diersoorten
diertje
dies
diesel
dieselmotor
dieselmotoren
diest
dieter
dietrich
dietz
dieu
diezelfde
different
dig
digitaal
digital
digitale
dijbeen
dijk
dijken
dijkgraaf
dijkstra
dijon
dik
dikke
dikker
dikkopjes
diksmuide
dikte
dikwijls
dilemma
dillenburg
dillon
dim
dimensie
dimensies
dimension
dimitri
din
dinamo
dinant
diner
ding
dingen
dino
dinosaur
dinosaurier
dinosauriers
dinsdag
dio
diogenes
dion
dionysius
diploma
diplomaat
diplomaten
diplomatieke
dir
dirck
direct
directe
directeur
directie
director
directory
dirigeerde
dirigent
dirigenten
dirk
dirty
dis
disc
discipline
disciplines
disco
discografie
discogs
discovery
discriminatie
discussie
discussies
discuswerpen
diskjockey
disney
disneyland
display
displaystyle
dispuut
dissertatie
distant
distinguished
distributie
district
districten
dit
ditmaal
ditmar
diva
divers
diverse
diversiteit
divisie
divisies
division
dix
dixon
dizzy
dj
djibouti
dk
dl
dln
dm
dmitri
dn
dna
dnf
do
doc
doceerde
docent
docenten
doch
dochter
dochteronderneming
dochters
dochtertje
doctor
doctoraat
doctrine
document
documentaire
documentaires
documentatie
documenten
dode
dodelijk
dodelijke
doden
dodge
doe
doek
doeken
doel
doeleinden
doelen
doelgroep
doelman
doelpunt
doelpunten
doelsaldo
doelstelling
doelstellingen
doelwit
doen
does
doesburg
doet
doetinchem
dog
doge
dogma
dognin
dogs
doha
doherty
doi
dok
dokkum
dokter
dol
dolf
dolfijn
dolfijnen
dolichopodidae
dolin
dollar
dollars
dolle
dolly
dolmen
dom
dome
domein
domeinen
domenico
dominant
dominante
dominantie
dominee
domineerde
domingo
dominguez
dominic
dominica
dominicaanse
dominicanen
dominique
domino
dommel
don
donald
donaties
donau
donder
donderdag
done
donetsk
dong
dongen
donjon
donk
donker
donkerbruin
donkerbruine
donkerder
donkere
donkey
donna
donner
donovan
donsvlinder
donsvlinders
doo
dood
doodde
doodgeschoten
doodstraf
doodt
dook
doom
doop
doopsgezinde
doopvont
door
doorbraak
doorbracht
doorbrak
doorbreken
doorbrengen
doordat
doorgaan
doorgaande
doorgaans
doorgang
doorgebracht
doorgegeven
doorgetrokken
doorgeven
doorgevoerd
doorging
doorheen
doorkruist
doorliep
doorloopt
doorlopen
doorlopend
doorlopende
doorn
doornik
doornsprinkhanen
doornuitsteeksels
doorsnede
doorsneden
doorsnee
doorstaan
doorstart
doorverwijspagina
doos
doot
dopen
doper
doping
dor
dora
dordogne
dordrecht
doris
dorothea
dorothy
dorp
dorpelingen
dorpen
dorpje
dorpjes
dorpscentrum
dorpsgezicht
dorpskerk
dorpskern
dorpsstraat
dorset
dorst
dortmund
dos
dosis
dossier
dot
douane
double
doubleday
doubs
doug
douglas
douwe
dove
doven
dover
down
download
downloaden
doyle
dp
dq
dr
dra
draad
draagbare
draagt
draai
draaide
draaien
draaiende
draait
draak
drachten
dracula
draden
draft
dragen
drager
dragers
dragon
dragons
drake
draken
drama
dramafilm
dramaserie
dramatisch
dramatische
drang
drank
dranken
drastisch
draudt
drayton
dre
dream
dreams
dreef
drei
dreigde
dreigen
dreigende
dreiging
dreigt
drempel
drenthe
drents
drentse
dresden
dreven
drew
drie
driebergen
driebeukige
driedaagse
driedelige
driedimensionale
drieen
driehoek
driehoekig
driehoekige
driehonderd
driejarig
driejarige
driekwart
drieluik
driemaal
dries
driessen
drietal
drift
drijft
drijven
drijvende
dringen
dringend
dringende
dringt
drink
drinken
drinkt
drinkwater
drive
driver
droeg
droegen
droge
drogen
droit
drome
dromen
drong
drongen
dronken
droog
droogte
droom
drop
drost
drs
druce
drug
drugs
druif
druiven
druk
drukke
drukken
drukker
drukkerij
drukste
drukt
drukte
drum
drummer
drums
drumstel
dry
ds
dsb
dsm
dt
du
dub
dubai
dubbel
dubbele
dubbelspel
dubia
dubium
dublin
dubois
duc
duck
dudley
due
duel
duels
duero
duet
duidelijk
duidelijke
duidelijker
duidelijkheid
duiden
duidt
duif
duiken
duiker
duikers
duikt
duim
duin
duinen
duinkerke
duisburg
duister
duistere
duisternis
duits
duitse
duitser
duitsers
duitsland
duitstalige
duivel
duivels
duiven
duizend
duizenden
duke
dumas
dumont
dumoulin
dun
duncan
dundee
dunlop
dunn
dunne
dunner
duo
duponchel
dupont
dupuis
duran
durand
durch
dure
duren
durend
durende
durfde
durft
durham
during
durven
dus
dusdanig
dusseldorf
dust
dusver
dutch
duty
duur
duurde
duurden
duurder
duurste
duurt
duurzaam
duurzaamheid
duurzame
duval
duwen
duzee
dv
dvd
dw
dwang
dwars
dwarsfluit
dwarsfluiten
dwerg
dwergen
dwight
dwingen
dwingt
dwong
dwongen
dx
dy
dyar
dyck
dyke
dylan
dynamiek
dynamisch
dynamische
dynamo
dynastie
dynastieen
dysdera
dytiscidae
dz
e
e0
e1
e2
e3
e4
e5
e6
e7
e8
e9
ea
eagle
eagles
earl
early
earth
east
eastern
easton
easy
eaton
eau
eb
eberhard
ebook
ec
ecb
echo
echt
echte
echter
echtgenoot
echtgenote
echtpaar
echtscheiding
eclectische
ecm
eco
ecole
ecolo
ecologie
ecologisch
ecologische
economic
economics
economie
economisch
economische
economy
econoom
ecosysteem
ecuador
ecuadoraans
ed
edam
edd
eddie
eddy
ede
edel
edele
edelen
edelman
edelstenen
eden
edgar
edge
edict
edinburgh
edison
edit
edith
editie
edities
edition
editions
editor
edmond
edmonton
edmund
edo
edouard
eds
edu
eduard
eduardo
educatie
educatieve
education
edvard
edward
edwards
edwin
ee
eed
eeg
eekhoorn
eeklo
eems
een
eend
eenden
eendracht
eenduidig
eene
eenen
eenentwintigste
eener
eenheden
eenheid
eenhoorn
eenig
eenige
eenigen
eenjarige
eenmaal
eenmalig
eenmalige
eenoogkreeftjessoort
eens
eentje
eenvoud
eenvoudig
eenvoudige
eenvoudiger
eenvoudigste
eenzaam
eenzaamheid
eenzame
eenzelfde
eenzijdig
eer
eerbetoon
eerbied
eerder
eerdere
eere
eerlijk
eerlijke
eerst
eerste
eersteklasser
eersten
eerstgeboorte
eerstgenoemde
eerstvolgende
eert
eervol
eervolle
eet
eeuw
eeuwen
eeuwenlang
eeuwenoude
eeuwig
eeuwige
eeuwigheid
eeuws
eeuwse
eeuwwisseling
ef
effect
effecten
effectief
effectieve
effectiviteit
effects
efficient
efficiente
efficienter
efficientie
efteling
eg
egbert
egeische
egel
egels
eglise
egmond
egmont
ego
egypt
egypte
egyptenaren
egyptisch
egyptische
eh
ehf
ei
eieren
eigen
eigenaar
eigenaars
eigenaren
eigendom
eigendommen
eigene
eigenlijk
eigenlijke
eigenmann
eigennaam
eigenschap
eigenschappen
eigentijdse
eight
eijsden
eik
eiken
eiland
eilanden
eilandengroep
eilandje
eilandjes
eilandperron
ein
eind
einde
eindelijk
eindexamen
eindhoven
eindig
eindigde
eindigden
eindige
eindigen
eindigt
eindklassement
eindklassering
eindklasseringen
eindnotering
eindpunt
eindrangschikking
eindronde
eindstand
eindstrijd
eindtoernooi
eine
einer
einstein
eintracht
eis
eisen
eisenach
eisenbahn
eisenhower
eist
eiste
eisten
eitjes
eiwit
eiwitten
ej
ek
ekeren
el
elachista
elachistidae
elaine
elateridae
elbe
elders
eleanor
electric
electro
electronic
elegans
elegante
elektra
elektriciteit
elektrisch
elektrische
elektromagnetische
elektromotor
elektron
elektronen
elektronica
elektronisch
elektronische
elektrotechniek
element
elementaire
elementen
elena
eleonora
elf
elfde
elfen
elftal
elftallen
eli
elia
elias
eliot
elisa
elisabeth
elise
elite
eliza
elizabeth
elk
elkaar
elkaars
elkander
elke
ella
elle
ellen
ellende
ellepijp
ellington
elliot
elliott
elliptisch
ellis
elly
elmidae
elongata
elongatus
elpee
els
elsa
else
elsene
elsevier
elst
elton
elvis
elzas
em
email
emancipatie
emanuel
embleem
embrik
embryo
emden
emeritaat
emeritus
emerson
emery
emi
emiel
emigratie
emigreerde
emil
emile
emilia
emilie
emilio
emily
emir
emiraten
emma
emmanuel
emmen
emmer
emmy
emoji
emotie
emoties
emotioneel
emotionele
emperor
empididae
empire
en
enclave
encycliek
encyclopedia
encyclopedie
encyrtidae
end
ende
endemisch
endemische
enderlein
endomychidae
ene
enemy
energie
energy
enerzijds
enfant
eng
engagement
engel
engeland
engelbert
engelen
engels
engelse
engelsen
engelsman
engelstalig
engelstalige
engine
engineering
engineers
england
english
enig
enige
enigszins
enkel
enkele
enkelen
enkelspel
enkelvoud
enkelvoudig
enkelvoudige
enkhuizen
enorm
enorme
enough
enquete
enrico
enrique
enschede
ensemble
ensembles
ensor
enter
enterprise
entertainment
enthousiasme
enthousiast
entiteit
entomoloog
entre
entree
environment
enz
enzo
enzovoort
enzovoorts
enzym
enzymen
eo
eoceen
ep
epic
epidemie
epidendrum
episode
episodes
epos
epsilon
eq
equatoriaal
equivalent
er
era
eraan
erachter
eragrostis
erasmus
erbij
erboven
erdogan
ere
erebidae
ereburger
eredienst
eredivisie
eredoctoraat
ereklasse
erelid
eren
ereteken
eretitel
erf
erfde
erfelijk
erfelijke
erfenis
erfgenaam
erfgenamen
erfgoed
erfurt
erg
ergatief
ergens
erger
ergernis
ergste
eric
erica
erich
erichson
erik
erika
erin
eritrea
erkend
erkende
erkennen
erkenning
erkent
ermee
ermland
erna
ernaar
ernaast
ernest
ernesto
ernie
ernst
ernstig
ernstige
erom
eromheen
eronder
erop
erosie
erotische
erover
erp
ers
ertoe
eruit
ervan
ervaren
ervaring
ervaringen
erven
ervoor
erwin
es
esa
escape
esch
esgueva
eskader
eso
espana
espanola
esper
esperanto
espinosa
essay
essayist
essays
essen
essentie
essentieel
essentiele
essex
est
estadio
estafette
estate
este
esteban
ester
esther
esthetische
estisch
estische
estland
estlandse
et
eta
etage
etappe
etappes
etat
etc
eten
ethan
ether
ethiek
ethiopie
ethiopisch
ethiopische
ethische
etienne
etmaalgemiddelde
etnisch
etnische
etoile
etruskische
ets
etsbergs
etsen
etser
etten
etude
etudes
etymologiebank
eu
eugen
eugene
eugenie
eugenio
eugenius
eulimidae
eulophidae
eunice
eupelmidae
eupen
eupithecia
eur
eure
euro
eurobasket
eurocup
euroleagues
europa
europacup
europe
europeaan
european
europeanen
europees
europese
eurovisiesongfestival
eurytomidae
euskadi
eustatius
euthanasie
ev
eva
evacuatie
evaluatie
evan
evangelie
evangelien
evangelisch
evangelische
evangelist
evans
eve
evelyn
even
evenaar
evenals
eveneens
evenement
evenementen
evening
evenmin
evenredig
event
events
eventueel
eventuele
evenveel
evenwel
evenwicht
evenwijdig
evenzeer
ever
everest
everett
everhard
evers
evert
everton
every
everybody
everything
evidence
evil
evolueerde
evolutie
evolution
evolutionaire
ew
ex
exact
exacte
examen
examens
excelsior
exchange
exclusief
exclusieve
excuses
executie
executive
exemplaar
exemplaren
exeter
exhibition
exit
exodus
exotische
expansie
expeditie
expedities
experience
experiment
experimenteel
experimenteerde
experimentele
experimenten
experimenteren
expert
expertise
experts
expliciet
exploitatie
exploiteren
explorer
explosie
explosief
explosieve
explosieven
expo
export
exposeerde
expositie
exposities
exposition
express
expressie
expressionisme
extended
extern
externe
extra
extragalactic
extreem
extreme
ey
eyck
eye
eyes
eynde
ez
ezel
ezra
f
f0
f1
f2
f3
f4
f5
f6
f7
f8
f9
fa
faam
faber
fabian
fabio
fabricage
fabricius
fabriek
fabrieken
fabrikant
fabrikanten
facade
face
facebook
facelift
faces
faciliteiten
facto
factor
factoren
factory
faculteit
faculteiten
faeroer
fagot
fagotten
failliet
faillissement
fair
faire
fairfield
fairmaire
fait
faith
falco
falcon
falen
fall
fallen
falling
falls
fame
familie
familiebedrijf
familieleden
familielid
familienaam
families
famille
family
famous
fan
fanfare
fanfareorkest
fanny
fans
fantasia
fantasie
fantastic
fantastische
fantasy
far
farao
farm
farmaceutische
farmer
farnese
farrell
fasciata
fascisme
fascistische
fase
fasen
fases
fashion
faso
fast
fat
fataal
fatale
father
fatima
fauna
faust
favoriet
favoriete
favorieten
fax
fay
fb
fbi
fc
fd
fdj
fdp
fe
fear
feat
featuring
feb
februari
february
fed
federaal
federal
federale
federatie
federation
federer
federico
fee
feedback
feel
feeling
feest
feestdag
feestdagen
feestelijk
feestelijke
feesten
feestje
feet
feijenoord
feit
feite
feitelijk
feitelijke
feiten
fel
felder
felice
felipe
felix
felle
fellow
fellowship
felt
female
feministe
feministische
femke
femme
femmes
fen
fender
fenerbahce
fenestra
feng
fenomeen
feodale
fer
ferdinand
ferguson
fernand
fernandes
fernandez
fernando
ferrand
ferrara
ferrari
ferreira
ferrer
ferry
fes
fest
festival
festivals
festiviteiten
fever
feyenoord
ff
fg
fh
fi
fia
fiat
fiba
fiche
fictie
fictief
fictieve
fiction
fide
fie
field
fields
fiets
fietsen
fietsers
fietspad
fifa
fifth
fig
fight
fighter
fighting
figuren
figuur
figuurlijk
fiji
fijn
fijne
file
files
filiaal
filialen
filip
filipijnen
filipijns
filipijnse
filippo
filips
film
filmacteur
filmdebuut
filmen
filmfestival
filmindustrie
filmkomedie
filmmaker
filmmuziek
filmpje
filmpjes
filmproducent
filmregisseur
films
filmstudio
filologie
filosofen
filosofie
filosofisch
filosofische
filosoof
filter
fim
fin
final
finale
finales
finalist
finalisten
finals
financial
financieel
financiele
financien
financieren
financiering
find
fine
finish
finishte
finland
finn
fins
finse
fiona
fiorentina
fire
firma
firmino
first
fis
fiscaal
fiscale
fischer
fish
fishbase
fisher
fit
fitzgerald
fivb
five
fj
fjord
fk
fl
flag
flags
flamingo
flanders
flank
flanken
flash
flat
flats
flavius
fleet
fleming
fles
flessen
fletcher
fleur
fleutiaux
flevoland
flexibel
flight
flikken
flink
flinke
flint
flip
floor
floot
flor
flora
florence
florent
flores
florian
florida
floris
flow
flower
flowers
floyd
fluit
fluiten
fluitist
fly
flying
flynn
fm
fn
fo
focus
fokker
fol
folk
folklore
follow
fonds
fondsen
fons
fontaine
fontana
fontein
fonteinen
food
fool
foot
football
for
forbes
force
forces
ford
foreign
forel
forest
foret
forever
form
formaat
format
formatie
formaties
formation
formeel
formeerde
formele
formicinae
formosa
formula
formule
formules
formulier
forrest
fors
forse
forster
fort
forten
fortis
fortuin
fortuna
fortune
fortuyn
forum
forward
fossiel
fossiele
fossielen
foster
foto
fotograaf
fotografen
fotograferen
fotografie
fotomodel
found
foundation
four
fourth
fout
foute
fouten
fowler
fox
fp
fq
fr
fra
fraai
fraaie
frac
fractie
fracties
fractievoorzitter
fragilis
fragment
fragmenten
frame
frames
fran
franc
franca
francais
francaise
france
frances
francesca
francesco
franche
franchise
francine
francis
francisca
franciscanen
francisco
franciscus
franck
franco
francois
francoise
francorchamps
franeker
frank
franken
frankenstein
frankfurt
frankfurter
frankie
frankische
franklin
frankrijk
frans
fransche
franse
fransen
fransman
franstalig
franstalige
franz
fraser
frau
fraude
frazione
frazioni
fred
freddie
freddy
frederic
frederick
frederik
fredrik
free
freedom
freek
freelance
freeman
freestyleskien
fregat
freguesia
freiburg
freiherr
french
frequent
frequentie
frequenties
fresco
fresh
fresno
freud
frey
fribourg
friday
friedman
friedrich
friend
friends
fries
friese
friesland
friezen
friso
frits
fritz
from
front
frontale
fronten
frontier
frontman
fronton
froome
frost
fruit
fry
fryslan
fs
ft
fu
fuchs
fuente
fuga
fukuoka
fulham
full
fuller
fulltime
fun
functie
functies
functionaliteit
functionarissen
functioneel
functioneerde
functioneert
functionele
functioneren
fund
fundament
fundamenteel
fundamentele
fundamenten
fundering
fungeerde
fungeert
fungeren
fungorum
funk
fur
furth
fury
fusca
fuseerde
fuseerden
fuseren
fusie
fusieclub
fusiegemeente
fusies
fusion
fussball
futur
future
futuro
fv
fw
fx
fy
fysica
fysiek
fysieke
fysiologie
fysische
fz
g
g0
g1
g2
g3
g4
g5
g6
g7
g8
g9
ga
gaal
gaan
gaande
gaandeweg
gaarne
gaasvliegen
gaat
gabon
gabriel
gabriele
gabrielle
gade
gaede
gaelisch
gaf
gaga
gahan
gaius
gal
gala
galatasaray
galaxy
galen
galerie
galerij
galicie
galileo
gallen
gallery
gallia
gallie
gallische
gallo
galmuggen
gama
gamba
gambia
game
games
gamma
gan
gandhi
gang
gangbaar
gangbare
gangen
gans
gansch
ganse
ganzen
gap
gar
garage
garanderen
garantie
garcia
gard
garde
garden
gardens
gardiner
gardner
gare
garfield
garland
garnalensoort
garnizoen
garonne
garrett
garrison
garros
garth
gary
gas
gaspar
gassen
gast
gasten
gastheer
gasthuis
gastland
gaston
gastrol
gastrollen
gastropoda
gat
gate
gaten
gates
gauld
gauliga
gaulle
gauw
gave
gaven
gavin
gay
gaz
gaza
gazastrook
gb
gc
gd
gdansk
ge
geaccepteerd
geaccepteerde
geacht
geactiveerd
geadopteerd
geallieerde
geallieerden
geannexeerd
geannuleerd
gear
gearchiveerd
gearchiveerde
gearresteerd
geassocieerd
geavanceerde
geb
gebaar
gebakken
gebaseerd
gebaseerde
gebed
gebeden
gebergte
gebeurd
gebeurde
gebeuren
gebeurt
gebeurtenis
gebeurtenissen
gebied
gebieden
gebiedende
gebit
gebleken
geblesseerd
gebleven
geblokkeerd
geboden
geboekt
gebogen
gebombardeerd
gebonden
geboorte
geboorteland
geboorteplaats
geboortestad
geboren
gebouw
gebouwd
gebouwde
gebouwen
gebracht
gebrek
gebreken
gebrekkige
gebroeders
gebroken
gebrouwen
gebruik
gebruikelijk
gebruikelijke
gebruiken
gebruiker
gebruikers
gebruikgemaakt
gebruikmaakt
gebruikmaken
gebruikt
gebruikte
gebruikten
gebundeld
gecast
geciteerd
geclassificeerd
gecombineerd
gecombineerde
gecomponeerd
geconcentreerd
geconfronteerd
geconstateerd
geconstrueerd
gecontracteerd
gecontroleerd
gecontroleerde
gecoverd
gecreeerd
gedaald
gedaan
gedaante
gedacht
gedachte
gedachtegoed
gedachten
gedateerd
gedecoreerd
gedeeld
gedeelde
gedeelte
gedeeltelijk
gedeeltelijke
gedeelten
gedefinieerd
gedegradeerd
gedekt
gedempt
gedempte
gedenksteen
gedenkteken
gedeporteerd
gedeputeerde
gedetailleerd
gedetailleerde
gedicht
gedichten
gediend
geding
gediskwalificeerd
gedocumenteerd
gedomineerd
gedood
gedoopt
gedraagt
gedraaid
gedrag
gedragen
gedreven
gedrongen
gedronken
gedroogd
gedroogde
gedrukt
gedrukte
geduld
gedurende
geduurd
gedwongen
geeerd
geef
geeft
geeindigd
geeist
geel
geelektrificeerd
geen
geene
geenszins
geer
geerfd
geert
geertruida
geest
geestelijk
geestelijke
geestelijken
geestelijkheid
geesten
geevacueerd
geexecuteerd
geexploiteerd
geexporteerd
gefabriceerd
gefascineerd
gefilmd
gefinancierd
gefinisht
geflankeerd
geformeerd
geformuleerd
gefuseerd
gefusilleerd
gegaan
gegarandeerd
gegeten
gegeven
gegevens
gegooid
gegoten
gegraven
gegrepen
gegroeid
gegroepeerd
gehaald
gehad
gehalte
gehandeld
gehandhaafd
gehandicapten
gehangen
gehanteerd
gehecht
geheel
geheele
geheim
geheime
geheimen
geheimzinnige
gehele
geheten
geheugen
geheven
gehinderd
geholpen
gehoopt
gehoor
gehoord
gehore
gehouden
gehucht
gehuchten
gehuisvest
gehuurd
gehuwd
geidentificeerd
geidentificeerde
geillustreerd
geillustreerde
geimporteerd
geinspireerd
geinstalleerd
geintegreerd
geintegreerde
geinteresseerd
geinterneerd
geinterpreteerd
geintroduceerd
geintroduceerde
geinvesteerd
geisoleerd
geisoleerde
geit
geiten
gejaagd
gek
gekapt
gekeerd
gekeken
gekend
gekende
gekenmerkt
gekko
geklasseerd
gekleed
gekleurd
gekleurde
gekocht
gekomen
gekookt
gekopieerd
gekoppeld
gekost
gekozen
gekregen
gekromd
gekroond
gekroonde
gekruist
gekwalificeerd
gekwalificeerde
gekwantificeerd
gekweekt
gel
gelaat
gelabert
geladen
gelanceerd
gelaten
geld
geldboete
gelden
geldende
gelder
gelderland
gelderse
geldig
geldige
geldrop
geldt
gele
gelechiidae
gelede
geleden
gelederen
geledingen
geleefd
geleen
geleend
geleerd
geleerde
geleerden
gelegd
gelegen
gelegenheden
gelegenheid
gelegerd
geleid
geleide
geleidelijk
geleidelijke
gelet
geleverd
gelezen
gelieerd
geliefd
geliefde
geliefden
gelijk
gelijkaardig
gelijkaardige
gelijke
gelijken
gelijkend
gelijkende
gelijkenis
gelijkenissen
gelijkgesteld
gelijkheid
gelijkmaker
gelijknamig
gelijknamige
gelijkspel
gelijktijdig
gelijkwaardig
gelijkwaardige
gelinkt
geloof
geloofde
geloofden
gelooft
gelooven
gelopen
geloven
gelovigen
gelre
geluid
geluiden
geluk
gelukkig
gelukkige
gelukt
gelyk
gem
gemaakt
gemaakte
gemaal
gemak
gemakkelijk
gemakkelijker
gemalen
gemalin
gemarkeerd
gemarteld
gematigd
gematigde
gemeen
gemeenschap
gemeenschappelijk
gemeenschappelijke
gemeenschappen
gemeente
gemeentebestuur
gemeentehuis
gemeentelijk
gemeentelijke
gemeentemuseum
gemeenten
gemeenteraad
gemeenteraadslid
gemeenteraadsverkiezingen
gemeentes
gemeentesecretaris
gemeentewapen
gemeld
gemene
gemenebest
gemenebestspelen
gemengd
gemengde
gemert
gemeten
gemiddeld
gemiddelde
gemini
gemist
gemoderniseerd
gemoed
gemonteerd
gemotoriseerde
gen
genaamd
genade
gend
gender
gendt
gene
genealogie
geneeskunde
geneeskundige
geneesmiddel
geneesmiddelen
genegeerd
geneigd
genen
generaal
generaals
general
generale
generatie
generaties
generation
generator
genereren
genesis
genetisch
genetische
geneve
genezen
genezing
genie
geniet
genieten
genitief
genk
gennep
genocide
genoeg
genoegen
genoemd
genoemde
genomen
genomineerd
genoodzaakt
genoot
genootschap
genot
genoteerd
genoten
genre
genres
gens
gent
gentse
genua
genummerd
genus
geo
geoff
geoffrey
geograaf
geografie
geografisch
geografische
geographic
geologie
geologisch
geologische
geoloog
geometridae
geometrische
geomteridae
geopend
geopende
geopperd
geordend
georg
georganiseerd
georganiseerde
george
georges
georgi
georgia
georgie
georgisch
georgische
georienteerd
georienteerde
gepaard
gepaarde
gepakt
gepasseerd
geperst
geplaagd
geplaatst
geplaatste
gepland
geplande
geplant
gepleegd
geplunderd
gepresenteerd
geprezen
geprobeerd
geproduceerd
geproduceerde
gepromoveerd
gepubliceerd
gepubliceerde
ger
geraadpleegd
geraakt
geraakte
geraardsbergen
gerais
geraken
gerald
gerangschikt
gerard
gerardus
gerd
gerda
gereageerd
gerealiseerd
gerecht
gerechtelijk
gerechtelijke
gerechten
gerechtigheid
gerechtshof
gereconstrueerd
gered
gereden
gereduceerd
gereed
gereedschap
gereedschappen
gereformeerd
gereformeerde
geregeerd
geregeld
geregisseerd
geregistreerd
geregistreerde
gereisd
gerekend
gerelateerd
gerelateerde
gerenommeerde
gerenoveerd
gereserveerd
gerespecteerd
gerestaureerd
gerestaureerde
gerhard
gericht
gerichte
gering
geringe
gerlach
germaans
germaanse
germain
german
germanen
germania
germany
germar
geroepen
gerrit
gerritsen
gerry
gers
gershwin
gerst
gert
gertrude
gertsch
gerucht
geruchten
geruime
gerundio
gerust
gerwen
ges
geschapen
geschat
geschatte
gescheiden
geschenk
geschenken
geschichte
geschied
geschiedde
geschieden
geschiedenis
geschiedkundige
geschiedschrijver
geschiedschrijving
geschiedt
geschikt
geschikte
geschil
geschilderd
geschilderde
geschillen
geschokt
geschonden
geschonken
geschorst
geschoten
geschoven
geschrapt
geschreven
geschrift
geschriften
geschut
gescoord
gesegmenteerd
geselecteerd
gesellschaft
geserveerd
gesitueerd
geslaagd
geslaagde
geslacht
geslachten
geslachtengroep
geslachtscellen
geslachtsnaam
geslagen
gesleept
gesloopt
gesloten
gesmolten
gesneden
gesneuveld
gesneuvelde
gesneuvelden
gesp
gespaard
gespannen
gespecialiseerd
gespecialiseerde
gespeeld
gespeelde
gespeld
gesplitst
gesponsord
gesprek
gesprekken
gesproken
gestaag
gestaakt
gestaan
gestalte
gestapo
gestart
gestationeerd
gesteente
gesteenten
gestegen
gestel
gesteld
gestelde
gestemd
gesteund
gesticht
gestichte
gestimuleerd
gestoken
gestolen
gestopt
gestort
gestorven
gestraft
gestreden
gestreepte
gestro
gestudeerd
gestuurd
gesu
gesuggereerd
get
getal
getallen
geteeld
geteisterd
getekend
geteld
getest
getijden
getijdenboek
getiteld
getoond
getracht
getraind
getransporteerd
getreden
getroffen
getrokken
getrouwd
getting
getto
getuige
getuigen
getuigenis
getuigt
geuit
geul
geur
geus
geuzen
gevaar
gevaarlijk
gevaarlijke
geval
gevallen
gevangen
gevangene
gevangenen
gevangengenomen
gevangengezet
gevangenis
gevangenissen
gevangenisstraf
gevangenschap
gevaren
gevarieerd
gevecht
gevechten
geveild
gevel
gevels
gevelsteen
geven
gevestigd
gevestigde
gevierd
gevlekte
gevleugelde
gevlogen
gevlucht
gevluchte
gevochten
gevoed
gevoegd
gevoel
gevoeld
gevoelen
gevoelens
gevoelig
gevoelige
gevoeligheid
gevoerd
gevolg
gevolgd
gevolge
gevolgen
gevonden
gevorderd
gevormd
gevormde
gevouwen
gevraagd
gevreesd
gevuld
gevulde
gewaad
gewaardeerd
gewaarschuwd
gewapend
gewapende
gewas
gewassen
geweer
geweest
geweigerd
gewekt
geweld
gewelddadig
gewelddadige
geweldig
geweldige
gewelf
gewelven
gewend
gewenst
gewenste
geweren
gewerkt
gewest
gewesten
geweten
gewezen
gewicht
gewichtheffen
gewijd
gewijde
gewijzigd
gewijzigde
gewild
gewisseld
gewond
gewonde
gewonden
gewone
gewonnen
gewoon
gewoond
gewoonlijk
gewoonte
gewoonten
geworden
geworpen
gezag
gezamenlijk
gezamenlijke
gezangen
gezant
gezegd
gezegde
gezelle
gezellig
gezelschap
gezet
gezeten
gezicht
gezichten
gezichtspunt
gezien
gezin
gezinnen
gezocht
gezond
gezonde
gezonden
gezondheid
gezondheidsproblemen
gezondheidsredenen
gezondheidszorg
gezongen
gezonken
gezorgd
gf
gg
gh
ghana
ghanees
ghi
ghislain
ghost
ghy
gi
giacomo
giang
gianni
giant
giants
gibbons
gibbs
gibraltar
gibson
gideon
gids
gidsen
gie
gier
gieten
gietijzeren
gif
gifford
gift
giften
giftig
giftige
gigantische
gij
gijs
gijsbert
gijzelaars
gil
gilbert
gilde
gilden
gilera
giles
gill
gilles
gillespie
gillis
gilmore
gilmour
gin
gina
ging
gingen
gino
giorgio
giovanni
gips
girard
girault
girl
girls
giro
gironde
gis
gist
gisteren
gisting
gitaar
gitaren
gitarist
giulio
giuseppe
give
gj
gk
gl
glad
gladde
glam
glans
glanzend
glanzende
glas
glasgow
glass
glazen
glen
glenea
glenn
gletsjer
gletsjers
glimlach
globaal
global
globale
globe
gloed
gloria
glorie
glory
gloucester
glucose
gm
gmbh
gmelin
gn
gnaphosidae
go
goa
goal
goals
gobiidae
god
goddelijke
goden
godfrey
godfried
godheid
godin
godman
gods
godsdienst
godsdienstige
godzilla
goed
goede
goeden
goederen
goederenvervoer
goedgekeurd
goedkeuring
goedkoop
goedkope
goedkoper
goedkopere
goeree
goes
goet
goethals
goethe
gogh
goias
going
gold
golden
goldman
golf
golfbaan
golfbanen
golfclub
golfer
golflengte
golfprofessional
golftoernooi
golven
golvende
gomes
gomez
gomphidae
gone
gong
gonna
gonyleptidae
gonzalez
gonzalo
good
goodbye
goodman
google
gooi
gooide
gooien
gooit
goor
goossens
goot
gora
goran
gorcum
gordel
gordijn
gordon
gore
gorilla
gorinchem
goring
gorochov
gos
gospel
got
goteborg
goten
gotha
gothic
gotiek
gotisch
gotische
gott
gottfried
gottingen
gottlieb
goud
gouda
gouden
goudse
gould
gouvernement
gouverneur
gouverneurs
gouw
government
gozmany
gp
gps
gq
gr
gra
graad
graaf
graaff
graafschap
graafschappen
graag
graan
grace
gracht
grachten
gracilis
gracillariidae
grad
graden
grady
graf
graffiti
grafheuvel
grafheuvels
graficus
grafiek
grafisch
grafische
grafkelder
grafmonument
grafsteen
grafstenen
graftombe
graham
gram
grammatica
grammy
gran
granaat
granada
granaten
grand
grande
grandis
grands
grandslamtoernooi
grandslamtoernooien
granen
grange
granger
graniet
grant
grap
graphics
grappen
gras
grasland
graslanden
grasmineermotten
grasmotten
grass
grassen
grassenfamilie
gratie
gratis
grauwe
grave
gravel
gravelbanen
graven
gravenhage
gravenhorst
graves
graveur
gravin
gray
graz
grazen
great
greater
greatest
greef
greek
green
greene
greenwich
greenwood
greep
greg
gregg
gregor
gregoriaanse
gregorio
gregorius
gregory
grenada
grenadines
grenoble
grens
grensgebied
grenst
grenzen
grenzend
grepen
gressitt
greta
grey
grieken
griekenland
grieks
griekse
griep
grietje
grietman
griffier
griffin
griffith
griffiths
grijpen
grijpt
grijs
grijsbruin
grijze
grimbergen
grimm
grind
grip
groef
groei
groeide
groeiden
groeien
groeiende
groeit
groen
groene
groenen
groenendaal
groenland
groenlinks
groente
groenten
groep
groepen
groepering
groeperingen
groepje
groepjes
groepsfase
groepswedstrijd
groepswedstrijden
groepswinnaar
groet
groeve
groeven
grof
grofweg
grond
grondels
gronden
grondgebied
grondig
grondige
grondlegger
grondleggers
grondplan
grondslag
grondstof
grondstoffen
grondtoon
grondwater
grondwet
groningen
groninger
gronings
groningse
groot
groote
grooten
grooter
grootheden
grootheid
groothertog
groothertogdom
grootkruis
grootmeester
grootmoeder
grootofficier
grootouders
groots
grootschalig
grootschalige
grootse
grootst
grootste
grootte
grootvader
grootvorst
groove
gros
gross
grosso
grot
grote
groten
grotendeels
groter
grotere
grotetertstoonladder
grotten
ground
group
groupe
grouvelle
grove
groß
große
grube
gryllidae
gs
gsm
gt
gu
guadalajara
guadeloupe
guam
guard
guardian
guatemala
guenee
guerin
guerra
guerre
guerrero
guerrilla
guide
guido
guild
guillaume
guillermo
guinea
guinee
guinness
guitar
gulden
gulik
gulpen
gumiel
gun
gunnar
guns
gunst
gunste
gunstig
gunstige
gunter
gunther
gunung
gupta
gus
gustaaf
gustaf
gustav
gustave
gustavo
gutenberg
gutierrez
guus
guy
guyana
guzman
guzzi
gv
gvb
gw
gwen
gwijde
gx
gy
gyatso
gymnasium
gymnastiek
gyrinidae
gz
h
h0
h1
h2
h3
h4
h5
h6
h7
h8
h9
ha
haag
haags
haagsche
haagse
haai
haaien
haak
haakjes
haaks
haal
haalbaar
haalde
haalden
haalt
haan
haar
haard
haaren
haarlem
haarlemmermeer
haarlemse
haas
haast
haat
habe
habitat
habsburg
habsburgers
habsburgse
hacker
hackett
had
hadde
hadden
haddon
hadrianus
haer
haeseryn
haft
hagedis
hagedissen
hagen
hahn
hai
haifa
hailwood
hair
haiti
hak
haken
hakken
hal
halacaridae
hale
halen
haley
half
halfbroer
halfjaar
halfrond
halfronde
halfvleugelig
halfweg
haliclona
halictidae
hall
halle
hallen
hallo
halloween
halo
hals
halswervels
halt
halte
haltes
halve
halveringstijd
halverwege
ham
hamas
hamburg
hamburger
hamel
hamer
hamilton
hamlet
hamlets
hamm
hamme
hammer
hammond
hampshire
hampson
hampton
han
hancock
hand
handbal
handbalteam
handboek
handbook
handel
handelaar
handelaars
handelaren
handelde
handelen
handeling
handelingen
handels
handelsblad
handelt
handen
handhaven
handhaving
handicap
handig
handlangers
handleiding
handmatig
hands
handschrift
handschriften
handtekening
handvest
handvol
hang
hangen
hangende
hangmatspinnen
hangt
hank
hanna
hannah
hannes
hannibal
hannover
hans
hansen
hanson
hansson
hanteerde
hanteert
hanteren
happy
har
hara
harald
harbor
harbour
hard
hardcore
hardcourt
hardcourtbanen
harde
hardenberg
harder
harderwijk
hardheid
harding
hardstenen
hardware
hardy
hare
harelbeke
haren
harer
hari
haring
harlem
harley
harlingen
harm
harmonie
harmonieorkest
harmonische
harmony
harnas
harold
harp
harper
harrie
harriet
harris
harrison
harry
hart
hartaanval
hartbeeld
harte
harten
hartington
hartley
hartman
hartmann
hartog
harvard
harvey
harz
has
hassan
hasselt
hastings
hat
hatch
hate
hattrick
hauptbahnhof
haus
haut
haute
hautes
hauts
havana
have
havelaar
haven
havengebied
havens
havenstad
haver
havezate
havo
havre
hawai
hawaii
hawk
hawkins
haworth
hay
hayashi
hayat
haydn
hayes
hayward
haza
hb
hbo
hbs
hc
hd
he
head
health
hear
heart
hearts
heat
heath
heather
heaven
heavy
heavyweight
heb
hebard
hebben
hebbend
hebbende
hebreeuws
hebreeuwse
hebt
hecht
hechte
hechten
hechtenis
hecke
hectare
hector
heden
hedendaags
hedendaagse
hedley
hedwig
heeft
heel
heelal
heemskerk
heemstede
heen
heer
heere
heeren
heerenveen
heeresgruppe
heerlen
heerlijk
heerlijke
heerlijkheden
heerlijkheid
heerschappij
heersende
heerser
heersers
heerst
heerste
hees
heeswijk
heet
heette
heffen
heft
heftig
heftige
hei
heid
heide
heidelberg
heiden
heidense
heidi
heights
heijden
heil
heilig
heiligdom
heilige
heiligen
heimelijk
hein
heine
heineken
heinrich
heinz
heist
hek
hekel
heks
heksen
hekserij
hekwerk
hel
helaas
held
helden
helder
heldere
helderheid
hele
helemaal
helen
helena
helene
helft
helikopter
helikopters
helium
hell
hellas
hellenistische
heller
helling
hellingen
hello
helm
helmond
helmut
help
helpen
helpt
helsinki
hem
hemel
hemelobject
hemels
hemelsbreed
hemelse
hemingway
hemzelf
hen
henderson
hendrick
hendrik
hendriks
hendrix
henegouwen
hengelo
henk
henning
henny
henri
henricus
henriette
henrik
henry
hepburn
her
heracles
herald
heraldiek
heraldische
herb
herberg
herbergen
herbergt
herbert
herbouw
herbouwd
herbulot
hercules
herdacht
herdenking
herder
herders
herdruk
herdrukt
here
heren
herengracht
herenhuis
herenigd
hereniging
herentals
herfst
herge
hergebruikt
herhaald
herhaalde
herhaaldelijk
herhaalt
herhalen
herhaling
herindeling
hering
herinnerd
herinnerde
herinneren
herinnering
herinneringen
herinnert
herinrichting
heritage
herkenbaar
herkenbare
herkend
herkende
herkennen
herkent
herkomst
herkozen
herman
hermann
hermans
hermanus
hermes
hermitage
hernam
hernandez
hernieuwde
hernoemd
hernoemde
hero
herodes
herodotus
heroes
heropend
heropgebouwd
heropgericht
heroverd
heroveren
herr
herred
herrera
herrich
herschel
hersenen
herstel
hersteld
herstelde
herstellen
hert
herten
hertha
hertog
hertogdom
hertogdommen
hertogen
hertogenbosch
hertogin
hertrouwde
hertz
heruitgave
heruitgegeven
hervat
hervatte
hervatten
herve
hervormd
hervormde
hervorming
hervormingen
herz
herzegovina
herzien
herziene
herziening
herzog
hesperiidae
hess
hessen
het
hete
heten
hetgeen
hetwelk
hetzelfde
hetzij
heukels
heup
heusden
heuvel
heuvelland
heuvelrug
heuvels
heverlee
hevig
hevige
hewitson
hewitt
hexadecimaal
hey
heyden
hf
hfc
hg
hh
hi
hidden
hief
hield
hielden
hielp
hielpen
hier
hieraan
hierarchie
hierarchy
hierbij
hierboven
hierdoor
hierin
hiermee
hierna
hiernaast
hierom
hieronder
hieronymus
hierop
hierover
hiertegen
hiertoe
hiertussen
hieruit
hiervan
hiervoor
higgins
high
highland
highway
hij
hijzelf
hilaire
hilary
hilda
hilde
hildebrand
hildesheim
hill
hills
hilton
hilversum
him
himalaya
himmler
hinderlaag
hindi
hindoeisme
hing
hingen
hink
hinton
hip
hiphop
hippolyte
hiroshima
hirsch
his
histoire
historia
historic
historica
historical
historici
historicus
historie
historique
historisch
historische
history
hit
hitchcock
hitje
hitler
hitlers
hitlijst
hitlijsten
hitparade
hits
hitte
hiv
hj
hk
hl
hm
hms
hn
ho
hoa
hobart
hobby
hobo
hoboken
hochschule
hockey
hockeyclub
hockeyer
hodges
hoe
hoed
hoedanigheid
hoede
hoeden
hoef
hoefde
hoefden
hoeft
hoei
hoek
hoeken
hoekstra
hoen
hoes
hoessein
hoeve
hoeveel
hoeveelheden
hoeveelheid
hoeven
hoeverre
hoewel
hof
hoff
hoffman
hoffmann
hofhouding
hofje
hofstede
hoge
hogepriester
hoger
hogere
hogerhuis
hogescholen
hogeschool
hohenlohe
hohenzollern
hokkaido
hol
hold
holden
holding
hole
holen
holes
holiday
holland
hollander
hollanders
hollandia
hollands
hollandsche
hollandse
holle
holloway
holly
hollywood
holm
holme
holmes
holmgren
holocaust
holotype
holst
holstein
holt
holte
holten
holy
holzschuh
homburg
home
homepage
homer
homerus
hommage
homme
hommels
hommes
homo
homoseksualiteit
homoseksueel
homoseksuele
homoseksuelen
hon
hond
honda
honden
honderd
honderdduizenden
honderden
honderdjarige
honderdste
hondt
honduras
honey
hong
hongaars
hongaarse
hongaren
hongarije
honger
hongersnood
hongkong
honing
honkbal
honkballer
honneur
honolulu
honor
honore
hontoria
hood
hoof
hoofd
hoofdaltaar
hoofdartikel
hoofdcoach
hoofddorp
hoofden
hoofdgebouw
hoofdingang
hoofdkantoor
hoofdklasse
hoofdkwartier
hoofdletter
hoofdletters
hoofdmacht
hoofdpersonage
hoofdpersonages
hoofdpersonen
hoofdpersoon
hoofdpijn
hoofdplaats
hoofdprijs
hoofdredacteur
hoofdrol
hoofdrollen
hoofdrolspeler
hoofdrolspelers
hoofdsponsor
hoofdstad
hoofdstedelijk
hoofdstraat
hoofdstuk
hoofdstukken
hoofdtelwoorden
hoofdtoernooi
hoofdtrainer
hoofdweg
hoofdzaak
hoofdzakelijk
hoofdzetel
hooft
hooftelwoord
hooftelwoorden
hoog
hoogaltaar
hooge
hooger
hoogeveen
hooggerechtshof
hoogheemraadschap
hoogheid
hoogland
hooglanden
hoogleraar
hoogleraren
hoogspringen
hoogst
hoogste
hoogstens
hoogstraat
hoogstraten
hoogstwaarschijnlijk
hoogte
hoogten
hoogtepunt
hoogtepunten
hoogtes
hoogteverschil
hooguit
hooi
hooiwagen
hooiwagens
hook
hooker
hoop
hooper
hoopt
hoopte
hoor
hoorbaar
hoorde
hoorden
hooren
hoorn
hoorns
hoorspel
hoort
hop
hope
hopen
hopkins
hopper
hora
horace
horde
horden
horeca
horen
horizon
horizontaal
horizontale
horloge
horn
horne
horner
horror
horrorfilm
horse
horst
horton
hortus
hospitaal
hospital
host
hoste
hot
hotel
hotels
hotspur
hou
houd
houden
houdende
houder
houding
houdt
houghton
hour
hours
house
houston
hout
houtboorders
houten
hove
hoven
how
howard
howe
hp
hq
hr
hradec
hrsg
hs
ht
htm
html
http
https
hu
huang
hub
huber
hubert
hubertus
hubner
hudson
huerta
hufnagel
hugh
hughes
hugo
hui
huib
huid
huidig
huidige
huilen
huis
huisarts
huisdier
huisdieren
huish
huishoudelijke
huishouden
huishoudens
huishouding
huisje
huisjes
huisman
huisorde
huisvest
huisvesten
huisvesting
huit
huize
huizen
hulde
hulk
hull
hulp
hulpmiddel
hulpmiddelen
hulpverlening
hulst
human
humanisme
humanist
humanistische
humanitaire
humboldt
humes
humo
humor
humoristische
humphrey
hun
hunebed
hunebedden
hung
hunne
hunnen
hunner
hunt
hunter
hunze
huren
hurricane
hus
hut
hutten
hutton
huub
huur
huurbasis
huurde
huurlingen
huwde
huwelijk
huwelijken
huwen
huygens
huys
hv
hw
hx
hy
hybride
hyde
hydraulische
hydroidpoliep
hydropsychidae
hydroptilidae
hygiene
hymenoptera
hymne
hypothese
hz
i
i0
i1
i2
i3
i4
i5
i6
i7
i8
i9
ia
iaaf
ian
iata
ib
iberisch
ibiza
ibm
ibn
ibrahim
ic
icao
ice
ich
ichneumon
ichneumonidae
ick
icoon
ict
id
ida
idaea
idaho
ide
idea
ideaal
ideale
idealen
idee
ideeen
idem
identiek
identieke
identificatie
identification
identificeerden
identificeren
identiteit
identity
ideologie
ideologische
idstein
ie
ieder
iedere
iedereen
iemand
iemands
ieper
ierland
iers
ierse
iets
ietwat
if
ifa
ig
iglesias
ignacio
ignatius
igor
ih
ihr
ii
iii
ij
ijmuiden
ijs
ijsbaan
ijshockey
ijsland
ijslands
ijslandse
ijssel
ijsselmeer
ijsselstein
ijstijd
ijver
ijzer
ijzeren
ijzertijd
ik
il
ile
ilja
illegaal
illegale
illinois
illusie
illustrated
illustratie
illustraties
illustrator
ilse
im
image
images
imago
imam
imdb
imf
immer
immers
immigranten
immigratie
impact
imparfait
imperatif
imperfectief
imperfectieve
imperfecto
imperial
imperium
implementatie
impliceert
import
imposante
impossible
impressionisme
impressionistische
improvisatie
impuls
in
ina
inaugurele
inbegrepen
inbegrip
inbreng
inbreuk
inc
inca
inch
incident
incidenteel
incidenten
incl
inclusief
inclusive
inde
indefinido
indeling
independence
independent
inderdaad
indertijd
index
india
indiaanse
indiaas
indian
indiana
indianapolis
indianen
indiase
indica
indicatie
indicatif
indicator
indicus
indie
indien
indienen
indirect
indirecte
indisch
indische
individu
individueel
individuele
individuen
indo
indochina
indonesia
indonesie
indonesisch
indonesische
indoor
indre
indruk
indrukken
indrukwekkend
indrukwekkende
industrial
industrialisatie
industrie
industrieel
industrieen
industriele
industries
industrieterrein
industry
indy
ine
ineen
ineens
inergatief
inermis
ines
infanterie
infanteriedivisie
infantry
infectie
infecties
infinity
inflatie
info
informatica
informatie
information
informeel
informele
informeren
infrastructuur
infty
ing
ingaan
ingang
ingangen
inge
ingeborg
ingebouwd
ingebouwde
ingebracht
ingebruikname
ingedeeld
ingediend
ingegaan
ingegeven
ingehaald
ingehuldigd
ingehuurd
ingekort
ingeleid
ingelijfd
ingenieur
ingenieurs
ingenomen
ingericht
ingeschakeld
ingeschreven
ingesloten
ingesproken
ingesteld
ingestelde
ingetrokken
ingevoerd
ingevoerde
ingevolge
ingevuld
ingewijd
ingewikkeld
ingewikkelde
ingezet
ingredienten
ingreep
ingrepen
ingrid
ingrijpen
ingrijpend
ingrijpende
inheems
inheemse
inhoud
inhoudelijk
inhoudelijke
inhoudt
inhuldiging
initialen
initiatief
initiatiefnemer
initiatiefnemers
initiatieven
injectie
inkomen
inkomsten
inkt
inktvis
inktvissen
inleiding
inlichtingen
inlichtingendienst
inmenging
inmiddels
inn
innam
inname
innemen
inner
innerlijke
innocentius
innovatie
innovatieve
innsbruck
inoue
input
inquisitie
inrichten
inrichting
ins
inschrijven
inschrijving
inschrijvingen
inscriptie
inscripties
insect
insecten
insee
inside
insignis
inslag
inspanning
inspanningen
inspecteur
inspectie
inspiratie
inspiratiebron
inspireerde
inspireren
installatie
installaties
installeren
instantie
instanties
instellen
instelling
instellingen
instemming
institut
institute
instituten
institution
instituut
instructie
instructies
instrument
instrumentaal
instrumental
instrumentale
instrumenten
insularis
int
intact
integendeel
integraal
integrale
integratie
integreren
integriteit
integrity
intel
intellectueel
intellectuele
intellectuelen
intelligence
intelligent
intelligente
intelligentie
intense
intensief
intensieve
intensiteit
intentie
inter
interactie
interactieve
interactive
interbellum
intercity
intercontinental
interessant
interessante
interesse
interest
interface
interieur
interim
interland
interlands
intermedia
intermedius
intermezzo
intern
internaat
internacional
internal
internationaal
international
internationale
internationals
internazionale
interne
internet
internetova
internetpagina
interpretatie
interpretaties
interpreteren
intertoto
interval
interventie
interview
interviews
intieme
into
intocht
intrede
intrek
intro
introduceerde
introduceert
introduceren
introductie
introduction
intussen
inval
invallen
invaller
invasie
inventaris
inversie
investeerders
investeren
investering
investeringen
investigation
invisible
invitational
invloed
invloeden
invloedrijk
invloedrijke
invoegsel
invoer
invoeren
invoering
invullen
invulling
inw
inwendig
inwendige
inwerkingtreding
inwijding
inwoner
inwoneraantal
inwoners
inwonertal
inzake
inzameling
inzending
inzendingen
inzet
inzetten
inzicht
inzichten
inzien
inzittenden
io
ioc
ion
ionen
ionische
ios
iowa
ip
ipa
ipac
iphone
iq
ir
ira
iraakse
iraans
iraanse
irak
iran
iras
iredale
ireland
irene
irina
iris
irish
irma
iron
ironisch
ironman
irvine
irving
irwin
is
isa
isaac
isaak
isabel
isabella
isabelle
isbn
isch
isere
isis
isla
islam
islamitisch
islamitische
island
islands
isle
iso
isolatie
isotoop
isotopen
israel
israelieten
israelisch
israelische
israels
iss
issn
issue
ist
istanboel
istanbul
istat
istrie
isu
it
italia
italiaan
italiaans
italiaanse
italian
italiana
italianen
italie
item
items
itf
ito
its
itu
itunes
iu
iucn
iv
ivan
ivanov
ivar
ivdnt
ives
ivie
ivo
ivoorkust
ivy
iw
ix
iy
iz
j
j0
j1
j2
j3
j4
j5
j6
j7
j8
j9
ja
jaagt
jaap
jaar
jaarboek
jaargang
jaargangen
jaarlijks
jaarlijkse
jaartal
jaartelling
jaarverslag
jac
jacht
jachthaven
jachtkrabspinnen
jack
jackie
jackson
jacky
jacob
jacoba
jacobi
jacobs
jacobus
jacoby
jacqueline
jacques
jade
jagen
jager
jagers
jagger
jaguar
jahre
jaime
jak
jakarta
jake
jakob
jaloers
jam
jamaica
jamaicaans
jamaicaanse
jambi
james
jamie
jammer
jan
jana
jane
janeiro
janet
janine
jans
janse
jansen
janssen
janssens
jansz
januari
january
janus
jap
japan
japanese
japanners
japans
japanse
japonica
jardin
jaren
jarenlang
jarenlange
jarig
jarige
jarigen
jaroslav
jas
jason
jasper
java
javaanse
javascript
javier
jay
jaya
jazyk
jazyka
jazykova
jazz
jazzmuzikant
jazzpianist
jb
jc
jd
je
jean
jeanne
jeannel
jeans
jedi
jedlicka
jef
jeff
jefferson
jeffrey
jegens
jelena
jelle
jemen
jena
jenkins
jennifer
jennings
jenny
jens
jensen
jeremy
jerevan
jericho
jeroen
jerom
jerome
jerry
jersey
jerusalem
jeruzalem
jerzy
jes
jesse
jessica
jessie
jesu
jesus
jet
jeu
jeugd
jeugdelftallen
jeugdige
jeugdopleiding
jeune
jeux
jevgeni
jewish
jezelf
jezuiet
jezuieten
jezus
jf
jg
jh
jhr
ji
jiang
jiddisch
jiddisj
jiddisje
jij
jill
jim
jimenez
jimmy
jin
jj
jk
jkvr
jl
jm
jn
jo
joachim
joan
joanna
joannes
joao
joaquin
job
jocque
joden
jodendom
joe
joegoslavie
joegoslavisch
joegoslavische
joel
joep
joeri
joey
jogjakarta
johan
johann
johanna
johannes
johannesburg
johansen
johansson
john
johnny
johns
johnson
johnston
join
joint
joke
joker
jommeke
jon
jonas
jonathan
jones
jong
jonge
jongeling
jongeman
jongen
jongens
jongensnaam
jonger
jongere
jongeren
jongerenklassement
jongetje
jongh
jongste
jonker
jonkheer
jonkvrouw
jood
joods
joodse
joop
joos
joost
jordaan
jordaanoever
jordan
jordanie
jordi
jorg
jorge
joris
jos
jose
josef
josep
joseph
josephine
josephus
josh
joshua
jou
jour
journaal
journal
journalist
journaliste
journalisten
journalistiek
journalistieke
journey
jouw
joy
joyce
jozef
jp
jq
jr
jrg
js
jt
ju
juan
juarez
juarros
jubilee
jubileum
juda
judas
judge
judith
judo
judoka
judy
juffers
juffrouw
jugovzhodna
juist
juiste
jukbeen
jul
jules
juli
julia
julian
juliana
julianus
julie
julien
juliette
julio
julius
jullie
july
jumbo
jump
jun
junction
june
jung
jungle
juni
junior
junioren
juniors
juno
junta
jupiler
jupiter
jura
jurassic
jurgen
jurgens
juridisch
juridische
jurisdictie
jurist
jurk
jury
juryleden
jurylid
just
justice
justicia
justin
justine
justinianus
justitie
justus
jutland
juventus
juwelen
jv
jw
jx
jy
jz
k
k0
k1
k2
k3
k4
k5
k6
k7
k8
k9
ka
kaa
kaaimaneilanden
kaak
kaal
kaap
kaapse
kaapstad
kaapverdie
kaars
kaart
kaarten
kaartje
kaartspel
kaas
kabel
kabelbaan
kabels
kabinet
kabinetten
kade
kader
kahn
kai
kaiser
kaiserslautern
kaken
kale
kalender
kalenderjaar
kalf
kaliber
kalief
kalium
kalk
kalksteen
kalm
kalmar
kam
kameleon
kamen
kamer
kamerheer
kamerijk
kamerleden
kamerlid
kamermuziek
kameroen
kamerorkest
kamers
kamerverkiezingen
kammen
kamp
kampen
kampioen
kampioene
kampioenen
kampioenschap
kampioenschappen
kampte
kamtsjatka
kan
kanaal
kanalen
kandidaat
kandidaten
kandidatenlijst
kandidatuur
kane
kang
kanker
kano
kanon
kanonnen
kans
kansas
kansel
kanselier
kansen
kant
kanten
kantine
kanton
kantons
kantonsraad
kantoor
kantoorgebouw
kantoren
kanunnik
kanunniken
kap
kapel
kapelaan
kapelle
kapellen
kapelmeester
kapitaal
kapitalisme
kapitalistische
kapitein
kapittel
kapot
kar
kara
karakter
karakteristiek
karakteristieke
karakters
karate
kardinaal
kardinalen
karel
karen
kari
karim
karin
karinthie
karl
karlsruhe
karma
karny
karolingische
karpers
karperzalmen
karsch
kartel
kas
kasjmir
kasper
kaspische
kassel
kast
kasteel
kasteelheer
kastelen
kat
katalysator
kate
katharina
kathedraal
katherine
kathleen
katholicisme
katholiek
katholieke
katholieken
kathy
katie
katja
katjoesja
kato
katoen
katrien
katten
katwijk
kaukasus
kawasaki
kay
kaye
kazachs
kazachse
kazachstan
kazan
kazerne
kb
kbvb
kc
kd
ke
keek
keel
keep
keeper
keer
keerde
keerden
keerpunt
keert
keerzijde
kees
kegel
kei
keith
keizer
keizerin
keizerlijk
keizerlijke
keizerrijk
keizers
keizersgracht
keken
kel
kelder
kelders
kelk
keller
kelly
keltische
kemp
kempen
ken
kenbaar
kend
kendal
kende
kenden
kenia
keniaans
keniaanse
kenmerk
kenmerken
kenmerkend
kenmerkende
kenmerkt
kennedy
kennelijk
kennen
kenner
kenneth
kennis
kenny
kensington
kent
kentucky
kepler
keppel
ker
keramiek
keren
kerk
kerkelijk
kerkelijke
kerken
kerkgebouw
kerkgebouwen
kerkgenootschap
kerkhof
kerkje
kerkleden
kerkprovincie
kerkrade
kerkschip
kerkstraat
kerktoren
kermis
kern
kerncentrale
kernen
kernenergie
kernwapens
kerr
kerry
kers
kerst
kerstmis
kessel
kessler
ket
ketel
keten
ketnet
ketting
keuken
keulen
keulse
keur
keurde
keurvorst
keurvorstendom
keus
keuze
keuzes
kever
kevergeslacht
kevers
keversoort
kevin
key
keyboard
keyboards
keynes
keys
keyser
keyserling
kf
kfc
kg
kh
khan
khm
khmer
ki
kick
kid
kids
kiefer
kieffer
kiel
kies
kiesdistrict
kieskring
kiesrecht
kiest
kiev
kiezelnaalden
kiezen
kiezers
kijk
kijkcijfers
kijken
kijker
kijkers
kijkt
kiki
kikker
kikkers
kill
killer
killing
kilo
kilogram
kilometer
kilometers
kim
kimoto
kin
kind
kinder
kinderboek
kinderboeken
kinderen
kinderkoor
kinderloos
kindertijd
kindje
king
kingdom
kings
kingston
kinshasa
kioto
kip
kippen
kirby
kirche
kirgizie
kiriakoff
kirk
kirkby
kirke
kirsten
kiss
kist
kit
kitts
kitty
kj
kje
kjes
kk
kl
klaagde
klaar
klaas
klacht
klachten
klade
klagen
klagenfurt
klank
klanken
klant
klanten
klap
klappen
klarinet
klarinetten
klarinettist
klas
klasse
klassement
klassen
klassering
klassiek
klassieke
klassieker
klassiekers
klaus
klauwen
klavecimbel
klaver
klavier
kledij
kleding
kledingstuk
kleed
kleef
kleermaker
klei
klein
kleindochter
kleine
kleiner
kleinere
kleinkinderen
kleinood
kleinschalige
kleinste
kleinzoon
klem
klemtoon
klep
kleppen
kleren
klerk
kleur
kleuren
kleurloze
kleurrijke
kleurstof
klier
klik
klim
klimaat
klimaatverandering
klimmen
klimt
kliniek
klinisch
klinische
klinken
klinker
klinkers
klinkt
klm
klok
klokken
klokkentoren
klom
klonk
kloof
klooster
kloosterkerk
kloosters
klopkevers
kloppen
klopt
klug
kluge
kluis
kluizenaar
klus
km
kn
knaagdier
knaagdieren
knaap
knap
knappe
knaw
knecht
knesset
knie
knieen
knight
knights
knil
knippen
kniptorren
knock
knoflook
knokke
knol
knoop
knooppunt
knop
knopen
knoppen
know
knowledge
knox
knut
knutten
knvb
ko
kobe
koblenz
koch
kocht
kochten
koe
koehler
koeien
koek
koel
koele
koeman
koen
koenraad
koepel
koerdische
koers
koersen
koersk
koets
koetshuis
koeweit
koffer
koffie
kogel
kogels
kogelspinnen
kogelstoten
kohl
kohler
kok
koken
kokermotten
koksijde
kol
kolbe
kolen
kolk
koln
kolom
kolommen
kolonel
kolonia
koloniaal
koloniale
kolonie
kolonien
kolonies
kolonisatie
kolonisten
kom
komaf
komedie
komeet
komen
komende
komering
komiek
komische
komma
kompas
komst
komt
kon
konden
kondigde
kondigt
kong
kongo
konig
konijn
konijnen
koning
koningen
koningin
konings
koningschap
koningshuis
koninklijk
koninklijke
koninkrijk
koninkrijken
konrad
konst
konstantin
konvooi
kooi
kookboek
kool
koolstof
koolstofdioxide
koop
koophandel
kooplieden
koopman
koopt
koor
koord
koorts
koos
kooten
kootje
kop
kopen
kopenhagen
koper
koperen
kopgroep
kopie
kopieen
kopieren
kopje
koppel
koppelen
koppeling
koppels
koppen
koraal
koraalsoort
koran
korea
koreaans
koreaanse
koren
korenbouten
korenmolen
korfbal
kornicker
korporaal
korps
korst
korstmossen
kort
korte
kortebaan
kortebaanzwemmen
korter
kortere
kortfilm
korting
kortrijk
kortste
kortstondig
kortstondige
kortweg
kos
kosice
kosmische
kosmos
kosovo
kost
kostbaar
kostbare
koste
kosten
koster
kostschool
kostte
kostuum
kostuums
kota
koto
kott
kotta
kou
koud
koude
kozakken
kozen
kozseg
kp
kpn
kq
kr
kraag
kraan
krabben
krabbensoort
krabspinnen
kracht
krachten
krachtens
krachtig
krachtige
krachtiger
kraft
kraj
krakau
kraken
kramer
krans
krant
kranten
krater
kraus
krc
krediet
kreeftachtigen
kreeg
kreek
kregen
kreis
krekels
kremlin
kreta
kreuz
kriegsmarine
krijg
krijgen
krijger
krijgers
krijgsgevangen
krijgsgevangenen
krijgsmacht
krijgt
krijt
krim
krimpen
kring
kringen
kris
krishna
kristal
kristallen
kristen
kristin
kristina
kristof
kritiek
kritieken
kritisch
kritische
kro
kroaten
kroatie
kroatisch
kroatische
kroeg
krokodil
krol
kromme
kromming
kronen
kroniek
kronieken
kroning
kroon
kroonprins
kruger
kruid
kruidachtige
kruiden
kruin
kruipen
kruis
kruisen
kruiser
kruisiging
kruising
kruisingen
kruiskerk
kruispunt
kruist
kruistocht
kruisvaarders
kruisweg
krukas
ks
ksk
ksv
kt
ku
kuala
kubieke
kubus
kudde
kuhn
kuifje
kuil
kuip
kuiper
kuipers
kula
kulczynski
kun
kung
kunnen
kunst
kunstacademie
kunsten
kunstenaar
kunstenaars
kunstenares
kunstgeschiedenis
kunsthistoricus
kunstkring
kunstmatig
kunstmatige
kunstmuseum
kunstschaatsen
kunstschaatser
kunstschaatsster
kunstschilder
kunstschilderes
kunstschilders
kunststof
kunstverzamelaar
kunstwerk
kunstwerken
kunt
kurt
kus
kussen
kust
kusten
kustlijn
kuurne
kuuroord
kuyper
kv
kvp
kw
kwaad
kwaadaardige
kwade
kwal
kwalificatie
kwalificatiereeks
kwalificatieronde
kwalificaties
kwalificatietoernooi
kwalificatiewedstrijd
kwalificatiewedstrijden
kwalificeerde
kwalificeerden
kwalificeren
kwalitatief
kwaliteit
kwaliteiten
kwam
kwamen
kwantummechanica
kwart
kwartaal
kwartet
kwartfinale
kwartfinales
kwartier
kweken
kwestie
kwesties
kwetsbaar
kwetsbare
kwijt
kwik
kwintet
kx
ky
kyle
kyoto
kz
l
l0
l1
l2
l3
l4
l5
l6
l7
l8
l9
la
laag
laagje
laagland
laagste
laan
laar
laat
laatgotische
laatst
laatste
laatsten
laatstgenoemde
lab
label
labels
laboissiere
labor
laboratorium
laboratory
labour
labrador
lac
lach
lachen
lacht
ladder
laden
ladies
lading
lady
lag
lage
lagen
lager
lagere
lagerhuis
lago
laguna
lagune
lai
lak
lake
laken
lakes
lallemand
lam
lama
lamarck
lamb
lambda
lambert
lambertus
lambertuskerk
lambik
lambrechts
lammers
lamp
lampen
lampre
lampung
lan
lancashire
lancaster
lance
lanceerde
lanceren
lancering
lancia
land
landau
landbouw
landbouwer
landbouwers
landbouwgrond
landbouwproducten
landdag
landde
lande
landelijk
landelijke
landen
landenteams
landenwedstrijd
lander
landerijen
landes
landgemeente
landgenoot
landgenote
landgenoten
landgoed
landgoederen
landgraaf
landhuis
landing
landingsbaan
landinwaarts
landkreis
landmacht
landoppervlakte
lands
landschap
landschappen
landskampioen
landskampioenschap
landstitel
landstreek
landt
landvoogd
lane
lang
langdurig
langdurige
lange
langebaan
langebaanschaatser
langebaanschaatsster
langen
langer
langere
langgerekt
langgerekte
langhe
langlaufen
langley
langpootmuggen
langs
langst
langste
langton
language
languages
langwerpig
langwerpige
langzaam
langzame
langzamer
langzamerhand
lanka
lannoo
lans
lansvag
lantaarn
laos
lap
laporte
lar
lara
laren
large
largo
larry
lars
larsen
larsson
larve
larven
las
laser
lasiocampidae
lasioglossum
lassen
last
laste
lasten
lastig
lastige
laszlo
lat
late
laten
later
laterale
latere
latijn
latijns
latijnse
latin
latina
latreille
lau
laude
laura
laureaat
laurel
lauren
laurence
laurens
laurent
laurentius
laurie
lausanne
lauwers
lava
laval
law
lawaai
lawrence
laws
lawson
lay
lazarus
lazio
lazuur
lb
lc
ld
ldots
le
lea
leach
lead
leader
leadzanger
league
learning
least
leave
leben
lebia
lech
leclerc
leconte
lector
led
lede
ledematen
leden
ledenvergadering
lederer
lee
leech
leed
leeds
leef
leefde
leefden
leefgebied
leefomgeving
leeft
leeftijd
leeg
leek
leem
leen
leende
leendert
leent
leenwoord
leer
leerdam
leerde
leerden
leeren
leerkracht
leerkrachten
leerling
leerlingen
leermeester
leerstoel
leert
lees
leesonderzoek
leest
leeswaarschuwing
leeuw
leeuwarden
leeuwarder
leeuwen
lefevre
left
leg
legaal
legaat
legacy
legal
legale
legales
legde
legden
lege
legend
legenda
legendarische
legende
legenden
legends
leger
legerkorps
legers
leggen
legio
legioen
legioenen
legion
legislatuur
lego
legt
lehmann
lei
leicester
leidde
leidden
leiden
leidende
leider
leiders
leiderschap
leiding
leidinggevende
leidschendam
leidse
leidt
leie
leien
leigh
leipzig
leitao
lek
leken
lekker
lelie
lelystad
lemaire
lemma
lemmens
len
lena
lend
lenen
lengte
lengua
lenin
lening
leningen
leningrad
lennep
lennon
lenny
lens
lensvormig
lente
lenzen
leo
leon
leonard
leonardo
leone
leopold
leopoldsorde
lepidoptera
leptoceridae
leq
ler
leraar
leraren
lerares
leren
leroy
lers
les
lesbische
lesgeven
leslie
lesotho
less
lessen
lester
let
letland
lets
letse
letsel
letten
letter
letteren
lettergreep
lettergrepen
letterkunde
letterkundige
letterlijk
letterlijke
letters
lettertype
lettres
leugen
leuk
leuke
leur
leuven
leuvense
lev
leve
level
levels
leven
levend
levende
levendig
levendige
levens
levensduur
levensjaar
levenslang
levenslange
levensmiddelen
levensonderhoud
levensstijl
levenswijze
lever
leverancier
leveranciers
leverbaar
leverde
leverden
leveren
levering
leverkusen
levert
levi
levy
lewis
lex
lexicon
lexikon
lexington
leycester
leysen
lez
lezen
lezer
lezers
lezing
lezingen
lf
lg
lga
lh
lhasa
li
liam
liang
libanese
libanon
libellen
libellensoort
libellulidae
liber
liberaal
liberal
liberale
liberalen
liberalisme
liberation
liberia
libertadores
liberty
libie
libische
library
libre
libretto
licentiaat
licentie
lichaam
lichaamslengte
lichamelijk
lichamelijke
lichamen
licht
lichtbruin
lichte
lichten
lichtenberg
lichter
lichtere
lichtjaar
lid
lidmaatschap
lidstaat
lidstaten
lidwoord
lie
liebe
liechtenstein
lied
lieden
lieder
liederen
liedje
liedjes
lief
liefde
liefhebber
liefhebbers
liefst
lieftinck
liege
lien
liep
liepen
lier
lierse
lies
liesbeth
lieshout
liet
lieten
lieutenant
lieve
lieven
lievens
liever
life
lifetime
lift
liften
lig
liga
liggen
liggend
liggende
ligging
light
lightning
lights
lightweight
ligne
ligt
ligue
lij
lijden
lijdende
lijdt
lijf
lijfwacht
lijk
lijken
lijkt
lijm
lijn
lijnen
lijst
lijsten
lijsttrekker
like
lil
lille
lily
lim
lima
limacodidae
limburg
limburgs
limburgse
limiet
limit
limited
limoges
limoniidae
lin
lincoln
linda
linde
linden
lindsay
line
lineair
lineaire
lines
ling
linie
linies
link
linker
linkerborst
linkerdeel
linkerflank
linkerhand
linkerkant
linkeroever
linkerzijde
links
linksback
linkse
linnaeus
linnen
linsley
lint
linton
lintworm
linux
linyphiidae
linz
lion
lionel
lions
lip
lippe
lippen
lis
lisa
lise
lissabon
lisse
list
liszt
liter
literair
literaire
literature
literatuur
literatuurprijs
literatuurverwijzingen
litouwen
litouws
litouwse
litteraturselskab
little
liturgie
liturgische
liu
liv
live
livealbum
liverpool
lives
living
livius
livre
liz
liza
lj
ljubljana
lk
ll
lloyd
lm
ln
lo
lobby
loc
local
locatie
locatief
locaties
loch
lochem
locke
lockheed
locomotief
locomotieven
lode
lodewijk
lodge
loenen
loes
loew
lof
log
logan
loge
logeerden
loges
logica
logisch
logische
logistiek
logistieke
logo
loir
loire
lois
lok
lokaal
lokale
lokeren
lokken
lola
lombard
lombardije
lombok
lommel
londen
londense
london
londt
lone
lonely
lonen
long
longa
longen
longicornis
longipes
longontsteking
loo
lood
loodramen
loodrecht
loods
loog
look
looking
loon
loop
loopbaan
loopen
loopkevers
loopt
loos
looy
lopen
lopend
lopende
loper
lopes
lopez
lord
lords
lorenz
lorenzo
lori
lorraine
los
losgelaten
losgeld
losjes
loss
losse
lossen
lost
lot
loterij
lotharingen
lotharius
loting
lotte
lotto
lotus
lou
louis
louisa
louise
louisiana
lourdes
louter
louvain
louvre
love
lover
lovers
loves
loving
low
lowe
lower
lowlands
loyaliteit
lp
lpga
lq
lr
ls
lt
ltd
lu
lubbers
lubeck
lublin
luc
luca
lucanidae
lucas
lucht
luchtaanvallen
luchtdruk
luchthaven
luchthavens
luchtmacht
luchtvaart
luchtvaartmaatschappij
luchtvaartmaatschappijen
luchtwegen
lucia
luciano
lucie
lucien
lucifer
lucius
luck
lucky
lucy
ludo
ludwig
luftwaffe
lugano
lui
luid
luidde
luide
luiden
luidt
luie
luigi
luik
luikse
luis
luister
luisteraars
luisterde
luisteren
luistert
luitenant
luk
luka
lukas
luke
lukt
lukte
lumpur
luna
lunar
lunch
lund
luneburg
lus
lust
luther
luthers
lutherse
lutz
lux
luxe
luxembourg
luxemburg
luxemburgs
luxemburgse
luzern
luzon
lv
lviv
lw
lx
ly
lycaenidae
lyceum
lycosidae
lydia
lyman
lymantriinae
lynch
lynden
lynn
lynx
lyon
lyrische
lys
lz
m
m0
m1
m2
m3
m4
m5
m6
m7
m8
m9
ma
maag
maagd
maagdenburg
maagdeneilanden
maak
maakt
maakte
maakten
maal
maaltijd
maaltijden
maan
maand
maandag
maandblad
maandelijks
maandelijkse
maanden
maar
maarschalk
maarssen
maart
maarten
maas
maaseik
maasland
maassen
maassluis
maastricht
maastrichtse
maat
maatregel
maatregelen
maatschappelijk
maatschappelijke
maatschappij
maatschappijen
mabel
mabille
mac
macau
macdonald
macedonie
macedonisch
macedonische
mach
machado
machine
machinegeweer
machines
machinist
macht
machten
machthebbers
machtig
machtige
machtigste
machtsovername
mack
mackay
mackenzie
macleay
macmillan
macon
macquart
macro
maculata
maculatus
mad
madagascar
madagascariensis
madagaskar
madame
made
madeira
madeleine
madison
madness
madonna
madre
madrid
madsen
mae
maer
maes
maffia
mag
magazijn
magazine
magda
magdalena
magere
maggie
maggiore
magic
magie
magisch
magische
magister
magistraat
magleby
magma
magna
magnesium
magnetisch
magnetische
magnificus
magnitude
magnum
magnus
mahler
mai
maiden
mail
main
maine
mainstream
mainz
maire
mais
maison
maitre
maitresse
majesteit
majeur
majoor
major
mak
make
makelaar
maken
maker
makers
making
makkelijk
makkelijker
mal
malacostraca
malaga
malakka
malang
malaria
malawi
malcolm
maldiven
male
malediven
maleis
maleisie
maleisische
malen
mali
malicky
malik
mall
malloch
mallorca
malmo
malone
malta
maltese
mama
mammal
man
management
manager
managers
mancha
manche
manchester
mand
mandaat
mandela
mandoline
manen
manet
manfred
mang
manga
manhattan
manier
manieren
manifest
manilla
mann
mannelijk
mannelijke
mannen
mannenkoor
mannetje
mannetjes
mannheim
manning
manon
manor
mans
manschappen
manteau
mantel
mantua
manu
manuel
manuscript
manuscripten
manx
many
mao
maori
map
maps
mar
mara
marathon
marburg
marc
marcel
marcello
marcelo
march
marche
marcia
marco
marcos
marcus
mare
marechaussee
marek
marga
margaret
margaretha
margarita
marge
marginata
margot
margraten
margriet
marguerite
mari
maria
mariabeeld
mariakapel
mariakerk
marian
marianne
mariano
marie
marieke
mariene
marijke
marilyn
marimba
marin
marina
marine
mariniers
marino
marinus
mario
marion
maris
maritiem
maritieme
maritime
marius
marja
marjolein
mark
markante
markeert
marken
market
marketing
markgraaf
markgraafschap
markies
marko
marks
markt
marktaandeel
markten
markus
marleen
marlene
marley
marlow
marmer
marmeren
marne
marnix
marokkaans
marokkaanse
marokko
marquez
mars
marsch
marseille
marsh
marshall
marston
mart
marta
martelaar
martelaren
marteling
marten
martens
martha
martial
martijn
martin
martina
martine
martinez
martini
martinique
martino
martins
martinus
martinuskerk
marty
marusik
marvel
marvin
marx
marxisme
mary
maryland
mas
mask
masker
maskers
mason
mass
massa
massaal
massachusetts
massale
massief
massieve
massimo
mast
master
masters
mat
mata
match
matchless
mate
maten
mater
materiaal
materialen
materie
materieel
materiele
mateu
mathbb
mathbf
mathcal
mathematical
mathematics
mathias
mathieu
mathilde
mathrm
matig
matige
mato
matrix
matroos
matsumura
matt
matteo
matter
matteus
mattheus
matthew
matthews
matthias
matthijs
maud
maureen
maurice
mauritanie
mauritius
maurits
maurizio
mauro
mausoleum
mavo
max
maxi
maxim
maxima
maximaal
maximale
maxime
maximiliaan
maximilian
maximum
maximumsnelheid
maximumtemperatuur
maximus
maxwell
may
maya
mayenne
mayer
mayo
mayor
mayr
mazda
mazovie
mazurie
mb
mbo
mc
mccarthy
mccartney
mcdonald
mcdunnough
mcg
mckenzie
mclaren
mclean
mcmahon
md
me
mean
mechanica
mechanisch
mechanische
mechanisme
mechelen
mecklenburg
med
medaille
medailles
medaillon
medal
mede
mededeling
mededelingen
medeklinker
medeklinkers
medelijden
medemblik
medeoprichter
medestichter
medewerker
medewerkers
medewerking
media
mediabestanden
mediawiki
medical
medicatie
medici
medicijn
medicijnen
medicine
medicus
medieval
medina
medio
medisch
medische
meditatie
mediterrane
medium
medley
medvedev
mee
meedeed
meedoen
meegedaan
meegemaakt
meegenomen
meegerekend
meegespeeld
meegewerkt
meel
meeldraden
meen
meende
meenden
meenemen
meent
meer
meerdere
meerderheid
meerkamp
meermaals
meermalen
meern
meerssen
meertens
meervoud
meervoudig
meervoudige
mees
meespelen
meest
meestal
meeste
meesten
meester
meesters
meesterwerk
meet
meeting
meetkunde
meets
meeuwen
meewerken
meewerkte
meg
mega
megachile
megachilidae
megan
megaselia
mehmet
mei
meid
meiden
meier
meigen
meijer
mein
meine
meisje
meisjes
meisjesnaam
mekka
mel
melander
melanie
melanotus
melbourne
melchior
meldde
meldden
melden
melding
meldingen
meldt
melissa
melk
melkweg
melle
mello
melodie
melodieen
melody
meloidae
melvill
melvin
member
membraan
memoires
memorial
memoriam
memories
memory
memphis
men
mendelssohn
mendes
mendoza
meneer
menen
meneville
mengeling
mengen
mengsel
menig
menigte
mening
meningen
meningsuiting
meningsverschillen
menno
mens
mensch
menschen
menselijk
menselijke
mensen
mensenrechten
mensheid
ment
mentale
mentor
menu
meppel
mer
mercado
mercedes
merckx
mercurius
mercury
mercy
mere
merel
meren
merendeel
merida
meridionalis
merindad
merit
merk
merkbaar
merkel
merken
merknaam
merkt
merkte
merkwaardig
merkwaardige
merlin
merode
merry
mers
mertens
merton
mes
mesa
mesnil
mesopotamie
mesoregio
message
messen
messina
mest
mesto
met
meta
metaal
metacritic
metal
metalband
metalen
metallica
meteen
meten
meteorologie
meter
meters
method
methode
methoden
methodes
meting
metingen
metro
metrolijn
metropole
metropoliet
metropolitan
metropool
metrostation
metselwerk
metten
metz
meubels
meubilair
meulen
meulenhoff
meurthe
meuse
mevrouw
mexicaans
mexicaanse
mexicana
mexico
mey
meyer
meyrick
mezzosopraan
mf
mg
mgm
mgr
mh
mhz
mi
mia
miami
mich
michael
michaels
michail
michel
michelangelo
michele
michelinster
michelle
michener
michiel
michiels
michigan
mick
mickey
micro
microfoon
microregio
microscopische
microsoft
mid
middag
middags
middel
middelbaar
middelbare
middelburg
middeleeuwen
middeleeuws
middeleeuwse
middelen
middelgrote
middellandse
middellange
middelnederlands
middelnederlandse
middelpunt
middels
middelste
midden
middenhandsbeen
middenklasse
middenmoot
middenschip
middenveld
middenvelder
middenvoetsbeen
middernacht
middle
middleton
midi
midland
midnight
mie
mieke
mieren
mierenleeuwen
mierensoort
mierlo
mies
mig
mighty
migranten
migratie
miguel
mij
mijl
mijlpaal
mijn
mijnbouw
mijne
mijnen
mijner
mijnheer
mijnwerkers
mijtensoort
mika
mike
mil
milaan
milan
milano
mild
milde
mile
miles
milieu
militair
militaire
militairen
military
militie
milities
miljard
miljoen
miljoenen
milk
mill
millar
mille
millennium
miller
millidge
millimeter
million
mills
milne
milo
milton
milwaukee
mimi
min
mina
minas
mind
mindanao
minder
mindere
minderheden
minderheid
minderjarige
mine
mineermotten
mineervliegen
mineraal
mineralen
minerva
mines
mineur
ming
minhstad
mini
miniaturen
miniatuur
minima
minimaal
minimale
minimum
minimumtemperatuur
miniserie
minister
ministerie
ministeriele
ministeries
ministerraad
ministers
minnaar
minnares
minne
minneapolis
minnesota
minor
minsk
minst
minste
minstens
minster
minus
minuta
minuten
minutes
minutus
minuut
mioceen
mir
mira
mirabilis
miracle
mirage
miranda
miriam
mirjam
mirror
mirza
mis
misbruik
misbruikt
misdaad
misdaden
misdrijf
misdrijven
mishandeld
mishandeling
mislukken
mislukking
mislukt
mislukte
miss
missa
misschien
missen
missie
missies
missing
mission
missionaris
missionarissen
mississippi
missouri
mist
miste
mister
misverstand
mit
mitch
mitchell
mits
mitsubishi
mitte
mix
mixed
mj
mk
ml
mls
mm
mn
mo
mobiel
mobiele
mobile
mobilisatie
mobiliteit
mobygames
mocht
mochten
mod
modder
mode
model
modellen
modena
moderato
modern
moderne
modernere
modernisering
modernistische
modesta
modo
module
modules
modus
moe
moed
moeder
moederbedrijf
moeders
moedertaal
moeilijk
moeilijke
moeilijker
moeilijkheden
moeite
moeizaam
moeizame
moer
moeras
moerassen
moeskroen
moest
moesten
moet
moeten
moge
mogelijk
mogelijke
mogelijkheden
mogelijkheid
mogen
mogendheden
mogendheid
mohamed
mohammed
moi
mojo
mol
moldavie
moleculaire
moleculen
molecuul
molen
molenaar
molenbeek
molens
molina
moll
molle
molly
molophilus
molto
molukken
mom
moment
momenteel
momenten
mon
mona
monaco
monarch
monarchie
monbezield
monchengladbach
mond
monde
mondeling
mondelinge
monden
mondharmonica
mondiale
monding
mondopening
mondovi
mondriaan
mondt
monet
monetaire
money
mongolen
mongolie
mongoolse
monica
monique
monk
monkey
monkton
monne
monnik
monniken
monniot
mono
monogram
monolepta
monopolie
monotypisch
monroe
mons
monsieur
monster
monsters
mont
montage
montagne
montana
montanus
monte
montenegro
monterey
montes
montevideo
montfoort
montfort
montgomery
monthly
monti
monticola
montpellier
montreal
montserrat
monty
monument
monumentaal
monumentale
monumenten
monumentenzorg
monuments
monza
moody
mooi
mooie
mooiste
moon
moor
moord
moorden
moordenaar
moore
moors
mor
mora
moraal
morales
moravie
morawitz
mordella
mordellidae
mordellistena
more
moreau
moreel
moreira
morele
moren
moreno
morfologie
morgan
morgen
morgens
mori
moritz
morley
morning
morris
morrison
morse
mort
mortensen
mortier
mortimer
morton
mos
moschler
mosdiertjessoort
moselle
moser
moses
moskee
moskeeen
moskou
moskouse
moslim
moslims
moss
mosselkreeftjes
mosselkreeftjessoort
mossen
most
mot
mother
motie
motief
motieven
motion
motivatie
moto
motor
motorblok
motorcoureur
motoren
motorfiets
motorfietsen
motorfietsmerk
motors
motorsport
motown
motschulsky
mott
motte
motten
motto
moulin
mount
mountain
mountainbike
mountains
mouse
mouvement
move
movement
movie
movistar
mozaiek
mozambique
mozart
mozes
mp
mq
mr
mrs
mrt
ms
msds
mt
mtv
mu
muara
much
mueller
muggensoort
muhammad
muis
muizen
mulder
muller
multatuli
multi
multifunctioneel
munchen
mundi
municipal
munitie
muno
munoz
munroe
munster
munt
munteenheid
munten
murat
murcia
murder
muren
murex
muricidae
murphy
murray
mus
muscidae
musculus
muse
musea
musee
museo
museum
music
musica
musical
musicals
musici
musicoloog
musicus
musik
musique
mussolini
must
mustafa
mutant
mutatie
muts
muur
muurschildering
muurschilderingen
muziek
muziekalbum
muziekfestival
muziekgroep
muziekinstrument
muziekinstrumenten
muziekpedagoog
muziekproducent
muziekschool
muziekstijl
muziekstuk
muziektheorie
muziekvereniging
muziekvideo
muziekwereld
muzikaal
muzikale
muzikant
muzikanten
mv
mvv
mw
mx
my
myanmar
mycetophilidae
myers
mylord
mymaridae
myn
myrmeleontidae
myrmicinae
mysidae
myspace
mysterie
mysterieuze
mystery
mystiek
mystieke
mythe
mythen
mythische
mythologie
mythologische
myzozoa
mz
n
n0
n1
n2
n3
n4
n5
n6
n7
n8
n9
na
naakt
naakte
naald
naaldkreeftjessoort
naaldwijk
naam
naamgever
naamgeving
naamloze
naamsvermelding
naamswijziging
naamwoord
naamwoorden
naamwoordsvorm
naar
naarden
naargelang
naarmate
naartoe
naast
naaste
naastgelegen
nabestaanden
nabij
nabije
nabijgelegen
nabijheid
naburige
nac
nach
nacht
nachtclub
nachtelijke
nachten
nachtpauwogen
nachts
nachtvlinder
nacional
nacompetitie
nacompetitiewedstrijden
nad
nadal
nadat
nadeel
nadelen
nadenken
nader
naderde
nadere
naderen
naderhand
nadert
nadia
nadien
nadine
nadruk
nadrukkelijk
nadu
naer
nagano
nagar
nagasaki
nagedachtenis
nagel
nagelaten
nagels
nagenoeg
nageslacht
nagoya
nai
nairobi
najaar
naked
nakomelingen
nalatenschap
naleving
nam
name
namelijk
namen
namens
names
namibie
namiddag
nan
nana
nancy
nantes
naomi
naoorlogse
nap
napels
napoleon
napoleontische
napoli
nar
narendran
nas
nasa
nascar
nash
nashville
nasleep
nassau
nat
natal
natalia
natalie
nate
nathalie
nathan
natie
naties
nation
nationaal
nationaalsocialisme
nationaalsocialistische
national
nationale
nationalisme
nationalisten
nationalistische
nationaliteit
nationaliteiten
nationalliga
nations
native
natrium
natte
natura
natural
naturalis
nature
natuur
natuurbeschermingsorganisatie
natuurgebied
natuurgebieden
natuurkunde
natuurkundige
natuurlijk
natuurlijke
natuurmonumenten
natuuronderzoeker
natuurpark
natuurreservaat
natuursteen
natuurstenen
natuurwetenschappen
nauw
nauwe
nauwelijks
nauwer
nauwkeurig
nauwkeurige
nauwkeurigheid
naval
navarra
navarro
navas
navigatie
navigator
navo
navolging
navy
naxos
nazareth
nazaten
nazi
nazionale
nb
nba
nbc
nc
ncaa
ncrv
nd
ne
neal
near
nearctisch
nebraska
nec
nectar
ned
neder
nederduits
nederlaag
nederlagen
nederland
nederlanden
nederlander
nederlanders
nederlands
nederlandsch
nederlandsche
nederlandse
nederlandstalig
nederlandstalige
nedersaksen
nedersaksisch
nederzetting
nederzettingen
nee
need
neef
neem
neemt
neen
neer
neergelegd
neergeschoten
neergeslagen
neergezet
neerslag
nees
negatief
negatieve
negen
negende
negenjarige
negentien
negentiende
negentig
negeren
negro
neiging
neil
neill
nek
nel
nelly
nelson
nemecky
nemen
nemertea
nen
neo
neoclassicistische
neogotisch
neogotische
neolithicum
neon
neotropisch
nepal
neptunus
ner
nergens
nero
nes
nest
nesten
nestor
net
netanyahu
neteldieren
netflix
nether
netherlands
netjes
netten
netto
netvleugeligen
netwerk
netwerken
network
neu
neuchatel
neue
neuf
neumann
neurenberg
neuroptera
neus
neushoorn
neustadt
neutraal
neutrale
neutraliteit
neuville
nevada
neve
nevel
neven
nevens
never
nevers
neville
nevis
new
newark
newcastle
newfoundland
newman
newport
news
newton
next
nf
nfl
ng
ngc
ngo
nguyen
nh
ni
nias
nibali
nic
nicaragua
nice
nicholas
nichols
nicholson
nicht
nichtje
nick
nickelodeon
nicky
nico
nicola
nicolaas
nicolaaskerk
nicolai
nicolas
nicole
nicoline
nie
niek
niels
nielsen
niemand
nieren
niet
nieto
niets
niettemin
nietzsche
nieuw
nieuwbouw
nieuwe
nieuwegein
nieuwenhuis
nieuwere
nieuwkomer
nieuwkomers
nieuwpoort
nieuws
nieuwsblad
nieuwsbrief
nieuwste
nieuwstraat
nigel
niger
nigeria
nigeriaans
nigeriaanse
night
nightmare
nights
nigra
nijgh
nijhoff
nijkerk
nijl
nijmeegse
nijmegen
nijs
nijvel
nijverheid
nike
nikita
nikkel
nikki
niklaas
niko
nikolai
nikolaj
niks
nils
nilsson
nimes
nimmer
nin
nina
nine
ning
ninja
nino
ninove
nintendo
nippon
nipt
nis
nissan
nissen
niveau
niveaus
nixon
nj
nk
nl
nm
nmbs
nn
no
noah
nobel
nobelprijs
nobelprijswinnaar
noble
noblesse
nobody
noc
noch
nochtans
noctuidae
node
nodig
nodigde
nodige
nodigt
noe
noel
noemde
noemden
noemen
noemenswaardige
noemer
noemt
nog
nogal
nogmaals
noir
noise
nola
nolidae
nom
nomen
nominale
nominatie
nominatief
nominaties
non
nonnen
nood
noodgedwongen
noodig
noodlot
noodzaak
noodzakelijk
noodzakelijke
nooi
nooit
noor
noord
noordelijk
noordelijke
noordelijken
noordelijker
noordelijkste
noorden
noorderdepartement
noordkant
noordkust
noordoost
noordoostelijk
noordoostelijke
noordoosten
noordpool
noordrijn
noordse
noordwaarts
noordwest
noordwestelijk
noordwestelijke
noordwesten
noordwijk
noordzee
noordzijde
noors
noorse
noorwegen
noot
nor
nora
norbert
nord
norfolk
norm
norma
normaal
normale
normaliter
norman
normandie
normandische
normen
norris
norte
north
northern
northumberland
northwest
norton
norwich
nos
not
nota
notabelen
notaris
notatie
note
noten
notering
notes
nothing
notities
notodontidae
notre
nottingham
notulen
nou
nous
nouveau
nouvelle
nov
nova
novak
novel
novelle
november
novgorod
novi
novo
now
noyes
np
npo
nps
nq
nr
nrc
nrs
ns
nsb
nsdap
nt
ntr
nu
nucleaire
nuclear
nueva
nuit
nul
number
numerieke
nummer
nummering
nummers
nuntius
nuova
nur
nurnberg
nusa
nut
nuts
nuttig
nuttige
nv
nw
nwa
nx
nxt
ny
nymphalidae
nymphon
nympton
nynorsk
nynorske
nys
nz
nørre
o
o0
o1
o2
o3
o4
o5
o6
o7
o8
o9
oa
oak
oakland
ob
obama
ober
oberliga
oberthur
object
objecten
objectief
objectieve
oblast
obscura
observatie
observaties
observatorium
obstakels
oc
oca
occidentalis
occitanie
oceaan
ocean
oceanen
oceanie
oceanische
och
ochtend
ochtends
ocmw
octaaf
octavius
october
octopus
octrooi
od
oda
odd
ode
odense
oder
odessa
odin
odis
odo
odysseus
oe
oecophoridae
oefende
oefenen
oefening
oefeningen
oefeninterland
oefenwedstrijd
oeganda
oekraiens
oekraiense
oekraine
oeral
oeuvre
oever
oevers
oeververbinding
oezbekistan
of
off
offensief
offer
offeren
offers
office
officer
official
officieel
officiele
officier
officieren
officieuze
offs
offshore
offwedstrijden
ofschoon
oft
ofte
oftewel
ofwel
og
ogan
ogen
ogenblik
oh
ohio
oi
oil
oise
oj
ok
oklahoma
okres
okt
oktober
ol
olaf
old
oldambt
olde
oldenburg
oldenzaal
ole
oleg
olga
olie
oliekevers
olieverf
olifant
olifanten
olios
oliveira
oliver
olivia
olivier
ollie
olof
olomouc
olsen
olsson
olympedia
olympia
olympic
olympique
olympisch
olympische
om
oma
omaha
oman
omar
ombouw
omdat
omega
omer
omgaan
omgang
omgebouwd
omgedoopt
omgekeerd
omgekeerde
omgekomen
omgeven
omgeving
omgevingen
omgevormd
omgezet
omheen
omhoog
omkwamen
omlaag
omliggende
omloop
ommen
omringd
omringende
omroep
omroepen
omschreef
omschreven
omschrijft
omschrijven
omschrijving
omsingeld
omslag
omsloten
omstandigheden
omstreden
omstreeks
omstreken
omtrek
omtrent
omvang
omvangrijk
omvangrijke
omvat
omvatte
omvatten
omver
omvoegsel
omwalling
omwenteling
omwille
omzet
omzetten
omzetting
on
onafgebroken
onafhankelijk
onafhankelijke
onafhankelijkheid
onafhankelijkheidsoorlog
onbekend
onbekende
onbemande
onbepaald
onbepaalde
onbewoond
onbewoonde
onbewust
onbezield
onbruik
onbruikbaar
once
ondanks
onder
onderaan
onderafdeling
onderafdelingen
onderbouw
onderbreking
onderbroken
onderdak
onderdanen
onderdeel
onderdelen
onderdistrict
onderdrukken
onderdrukking
onderdrukt
onderduikers
onderen
onderfamilie
ondergaan
ondergaat
ondergang
ondergebracht
ondergedoken
ondergeschikt
ondergeslacht
onderging
ondergrond
ondergronds
ondergrondse
onderhandelen
onderhandelingen
onderhevig
onderhield
onderhoud
onderhouden
onderhoudt
onderkaak
onderkaken
onderkant
onderkomen
onderkoning
onderliggende
onderling
onderlinge
ondernam
ondernemen
ondernemer
ondernemers
onderneming
ondernemingen
ondernomen
onderorde
onderrand
onderricht
onderscheid
onderscheidde
onderscheiden
onderscheidende
onderscheiding
onderscheidingen
onderscheidt
ondersoort
ondersoorten
onderstaand
onderstaande
onderste
onderstel
ondersteund
ondersteunde
ondersteunen
ondersteunende
ondersteuning
ondersteunt
ondertekend
ondertekende
ondertekenen
ondertekening
ondertitel
ondertussen
onderuit
onderverdeeld
onderverdeling
ondervinden
ondervond
ondervonden
ondervoorzitter
onderweg
onderwereld
onderwerp
onderwerpen
onderwezen
onderwijs
onderwijzer
onderwijzeres
onderworpen
onderzeeboot
onderzeeboten
onderzeeer
onderzijde
onderzocht
onderzoek
onderzoeken
onderzoeker
onderzoekers
onderzoekt
ondiep
ondiepe
onduidelijk
one
oneindig
oneindige
onenigheid
oneven
ongeacht
ongebruikelijk
ongebruikelijke
ongedaan
ongehuwd
ongeldig
ongelijk
ongelijke
ongelijkheid
ongeluk
ongelukken
ongelukkig
ongelukkige
ongenoegen
ongeplaatste
ongeschikt
ongeslagen
ongetwijfeld
ongeval
ongevallen
ongeveer
ongewenst
ongewenste
ongewervelden
ongewijzigd
ongewone
ongewoon
onjuist
onjuiste
onlangs
online
onlusten
only
onmiddellijk
onmiddellijke
onmogelijk
onnodig
ono
onofficiele
onopgemerkt
onovergankelijk
onrecht
onrechte
onregelmatig
onregelmatige
onroerend
onrust
ons
onschuld
onschuldig
onschuldige
onse
ont
ontario
ontbijt
ontbinden
ontbinding
ontbonden
ontbossing
ontbrak
ontbreekt
ontbreken
ontbrekende
ontdaan
ontdekken
ontdekker
ontdekking
ontdekkingen
ontdekkingsreiziger
ontdekt
ontdekte
ontdekten
ontdoen
onterecht
ontevreden
ontginning
ontgonnen
onthaald
ontheven
onthoofd
onthophagus
onthouden
onthuld
onthulde
onthulling
onthult
ontkend
ontkende
ontkennen
ontkennend
ontkent
ontkomen
ontlasting
ontleend
ontleende
ontleent
ontlopen
ontmanteld
ontmoet
ontmoeten
ontmoeting
ontmoetingen
ontmoette
ontmoetten
ontnomen
ontploffing
ontploft
ontruimd
ontslaan
ontslag
ontslagen
ontsloten
ontsnappen
ontsnapping
ontsnapt
ontsnapte
ontspannen
ontspanning
ontspringt
ontstaan
ontstaat
ontstane
ontsteking
ontstond
ontstonden
onttrekken
onttrokken
ontvangen
ontvanger
ontvangst
ontvangt
ontving
ontvingen
ontvluchten
ontvoerd
ontvoeren
ontvoering
ontwaakt
ontwerp
ontwerpen
ontwerper
ontwerpers
ontwierp
ontwijken
ontwikkelaar
ontwikkelaars
ontwikkeld
ontwikkelde
ontwikkelden
ontwikkelen
ontwikkeling
ontwikkelingen
ontwikkelingslanden
ontwikkelingssamenwerking
ontwikkelt
ontworpen
ontzet
onuitgegeven
onveranderd
onverbogen
onvermijdelijk
onverwacht
onverwachte
onverwachts
onvoldoende
onvolledig
onvolledige
onvoltooid
onvrede
onwaarschijnlijk
onweer
onze
onzeker
onzekerheid
onzen
onzer
onzichtbaar
onzichtbare
onzijdig
oo
oock
oog
oogen
oogenblik
oogje
oogkas
oogpunt
oogst
oogsten
ooievaar
ooit
ook
oom
ooms
oor
oord
oordeel
oordeelde
oordelen
oorkonde
oorlog
oorlogen
oorlogsjaren
oorlogsmisdaden
oorlogsmonument
oorlogsmonumenten
oorlogsschepen
oorlogstijd
oorschot
oorsprong
oorspronkelijk
oorspronkelijke
oorzaak
oorzaken
oost
oostelijk
oostelijke
oosten
oostende
oostenrijk
oostenrijkers
oostenrijks
oostenrijkse
oosterhout
oosterhuis
oosters
oosterse
oostfront
oostkant
oostkust
oostwaarts
oostzee
oostzijde
op
opa
opbouw
opbouwen
opbrengst
opbrengsten
opdagen
opdat
opdracht
opdrachten
opdrachtgever
opdrachtgevers
opeens
opeenvolgende
opeenvolging
opel
open
openbaar
openbare
openbaring
opende
openden
openen
opengesteld
opening
openingen
openlijk
openluchtmuseum
opent
opera
operatie
operaties
operation
operationeel
operationele
operations
operator
opereerde
opereert
opereren
operette
opgaan
opgaande
opgave
opgeblazen
opgebouwd
opgebracht
opgebroken
opgedaan
opgedeeld
opgedragen
opgeeist
opgegaan
opgegeten
opgegeven
opgegraven
opgegroeid
opgehaald
opgehangen
opgeheven
opgehouden
opgeknapt
opgekocht
opgelegd
opgelegde
opgeleid
opgeleverd
opgelopen
opgelost
opgemaakt
opgemerkt
opgenomen
opgepakt
opgepikt
opgericht
opgerichte
opgeroepen
opgeslagen
opgesloten
opgesplitst
opgestart
opgesteld
opgetekend
opgeteld
opgetreden
opgetrokken
opgevangen
opgevat
opgeven
opgevoed
opgevoerd
opgevolgd
opgevuld
opgewekt
opgeworpen
opgezet
opgezette
opging
opgraving
opgravingen
opgroeide
ophaalbrug
ophalen
ophanging
ophef
opheffen
opheffing
ophield
ophouden
opinie
opius
opkomende
opkomst
oplage
opleggen
opleiding
opleidingen
opleverde
opleveren
oplevering
oplevert
opleving
opliep
oplopen
oplosbaar
oplosmiddel
oplossen
oplossing
oplossingen
opm
opmaak
opmaken
opmars
opmerkelijk
opmerkelijke
opmerken
opmerking
opmerkingen
opnam
opname
opnamen
opnames
opnemen
opnieuw
opp
opper
opperarmbeen
opperbevel
opperbevelhebber
opperste
oppervlak
oppervlakte
oppositie
oprichten
oprichter
oprichters
oprichting
oprichtte
oproep
oproepen
oproer
oprukkende
opschrift
opslaan
opslag
opslagplaats
opsomming
opsporen
opspraak
opstand
opstandelingen
opstanden
opstandige
opstellen
opstelling
opstijgen
optica
optie
opties
optimaal
optimale
optioneel
optionele
optische
optocht
optrad
optraden
optreden
optredens
optreedt
optrekken
opus
opvallend
opvallende
opvang
opvangen
opvarenden
opvatting
opvattingen
opvoeding
opvoering
opvolgde
opvolgen
opvolgende
opvolger
opvolgers
opvolging
opwachting
opwarming
opwekken
opzet
opzettelijk
opzetten
opzicht
opzichte
opzichten
opzichter
opzij
opzoeken
oq
or
orakel
orale
orange
oranje
oratorium
orbigny
orchard
orchestra
orchestre
orchideeen
ordbog
orde
orden
ordening
order
orders
ordnet
ordre
oregon
oren
org
orgaan
organen
organisatie
organisaties
organisation
organisator
organisatoren
organisch
organische
organiseerde
organiseerden
organiseert
organiseren
organisme
organismen
organist
organization
orgel
orgelbouwer
orgels
orient
orientaals
oriental
orientalis
orientatie
origin
original
origine
origineel
originele
origins
orion
orkaan
orkest
orkesten
orkestleider
orkestratie
orlando
orleans
ornamenten
ornata
orne
oro
orpheus
ortea
ortega
orthodox
orthodoxe
ortiz
orton
ortsgemeinde
os
osaka
oscar
oscars
osdorp
oskar
oslo
osnabruck
oss
ossetie
ost
osten
ostracoda
oswald
ot
other
otis
ottawa
otte
otten
otter
otto
ottomaanse
ottomanen
ou
oud
oude
ouden
oudenaarde
ouder
ouderdom
oudere
ouderen
ouderlijk
ouders
ouderwetse
oudgrieks
oudgriekse
oudheid
oudnoorse
oudsher
oudst
oudste
ouest
our
out
outdoor
output
outstanding
ouverture
ov
ovaal
ovaalvormig
ovale
oven
over
overal
overall
overblijfsel
overblijfselen
overblijft
overblijvende
overbodig
overbrengen
overbruggen
overdag
overdekt
overdekte
overdraagbaar
overdracht
overdragen
overdreven
overdwars
overeen
overeengekomen
overeenkomen
overeenkomst
overeenkomsten
overeenkomstig
overeenkomstige
overeenkomt
overeenstemming
overeind
overgaan
overgaat
overgang
overgankelijk
overgave
overgebleven
overgebracht
overgedragen
overgegaan
overgeheveld
overgelaten
overgeleverd
overgenomen
overgeplaatst
overgestapt
overgeven
overging
overgrote
overhand
overheden
overheen
overheersing
overheid
overig
overige
overigens
overijssel
overijsselse
overkant
overkoepelend
overkoepelende
overkomen
overlast
overleden
overledene
overleed
overleefd
overleefde
overleefden
overleeft
overleg
overleven
overlevende
overlevenden
overlevering
overlijden
overlijdt
overmacht
overnachten
overnam
overname
overnemen
overschot
overschreden
overspanning
overspant
overspel
overstap
overstappen
overste
oversteek
oversteken
overstroming
overstromingen
overtreding
overtreffende
overtuigd
overtuigde
overtuigen
overtuigend
overtuiging
overture
overval
overvallen
overvloed
overweg
overwegen
overwegend
overweging
overwegingen
overwinnen
overwinning
overwinningen
overwinteren
overwintert
overwogen
overwonnen
overwoog
overzeese
overzicht
overzijde
ow
owen
owens
own
ox
oxford
oxidatie
oxide
oxyopes
oy
oz
p
p0
p1
p2
p3
p4
p5
p6
p7
p8
p9
pa
paal
paar
paard
paarden
paardensport
paars
paarse
pablo
pac
pace
pacific
pacifica
pacifische
pack
packard
pact
pad
padang
paddenstoel
paddenstoelen
paddenstoelmuggen
paden
paderborn
padilla
padua
paepe
pag
page
pages
pagina
pain
pak
pakhuis
pakistaanse
pakistan
pakken
pakket
pakketten
pakt
pakte
pal
palace
palacios
palais
palau
palazzo
pale
palearctisch
paleis
paleizen
palen
paleontoloog
palermo
palestijnen
palestijnse
palestina
paling
pallas
pallida
palm
palma
palmen
palmer
palpen
palts
pam
pamela
pamflet
pan
panama
panchayat
pand
panda
pandemie
panden
pandora
paneel
panel
panelen
paniek
panne
panorama
pantheon
panther
pantser
pantserdivisie
panzer
paola
paolo
pap
papa
paper
papers
papier
papieren
papilio
papoea
papp
papyrus
par
para
parachute
parade
paradijs
paradise
paradiso
paradox
paragraaf
paraguay
parallel
parallelle
paralympische
paramaribo
parameter
parameters
paramount
parana
parasiet
parasieten
parasitaire
parc
parcours
pardosa
parel
parels
paren
parijs
parijse
paring
paris
parish
parishes
park
parkeergarage
parkeerplaats
parken
parker
parkeren
parket
parkinson
parks
parlement
parlementair
parlementaire
parlementsleden
parlementslid
parlementsverkiezingen
parma
parochie
parochiekerk
parochies
parodie
parool
parque
parra
parsons
part
partei
parti
partial
participatie
participe
participio
particulier
particuliere
particulieren
partido
partiele
partij
partijen
partijgenoot
partijleider
partijvoorzitter
partitief
partituur
partizanen
partner
partners
party
parva
pas
pascal
pascoe
pascual
pasen
paso
paspoort
pass
passage
passages
passagier
passagiers
passe
passeerde
passeert
passen
passend
passende
passeren
passie
passief
passieve
passion
past
pasta
paste
pasten
pastoor
pastor
pastorale
pastorie
pat
patent
pater
paters
path
patient
patienten
patriarch
patriarchaat
patrice
patricia
patrick
patriot
patriotten
patrol
patronen
patroon
patroonheilige
patrouille
patterson
patton
patty
pau
pauken
paul
paula
pauli
pauline
paulista
paulo
paulus
pauluskerk
paus
pauselijk
pauselijke
pausen
pauw
pauwels
pauze
pavel
pavia
paviljoen
pax
paxton
pay
payne
pays
paz
pb
pc
pcc
pd
pdc
pdf
pe
peace
peak
pearl
pearson
pec
pech
peckham
pedaal
pedagogische
pedersen
pedro
pedrosa
peel
peer
peeters
pegasus
peggy
peil
peildatum
pejoratief
pekela
peking
pel
pelgrims
peloton
pels
pen
pena
penalty
penarol
penelope
peng
penguin
penis
penn
penning
penningmeester
pennsylvania
penny
pensioen
pensionering
people
peper
pepijn
pepper
per
perceel
percelen
percentage
percussie
percy
pere
pereira
perez
perfect
perfecte
perfectief
perfectieve
performance
peringuey
periode
perioden
periodes
periodiek
periodieke
peristomium
perk
perkament
perkins
perlidae
perm
permanent
permanente
peron
perron
perrons
perry
pers
persbericht
persconferentie
persen
person
personage
personages
personal
personeel
personeelsleden
personele
personen
personenauto
personenvervoer
persoon
persoonlijk
persoonlijke
persoonlijkheid
persoonsgegevens
perspectief
perth
peru
perugia
perzen
perzie
perzisch
perzische
pest
pet
pete
petegem
peter
peters
petersburg
petersen
peterson
petit
petite
petitie
petra
petri
petroleum
petronella
petrov
petrus
peugeot
pf
pfeiffer
pg
pga
pgc
ph
phab
phantom
phasmatidae
phasmatodea
pheidole
phi
phil
philadelphia
philharmonic
philip
philipp
philippe
philippi
philippine
philippines
philippus
philips
phillip
phillips
philodromus
philopotamidae
philosophie
philosophy
phoenix
pholcidae
phone
phoridae
php
phu
phuong
phyllonorycter
physical
physics
pi
pia
pianist
pianiste
piano
pianoconcert
pianotrio
piazza
pic
picasso
piccolo
pick
pickard
pico
picture
pictures
pidie
pie
piece
pieces
piek
piekte
piemont
piemonte
pier
pierce
pieridae
piero
pierre
pierson
piet
pieter
pieters
pieterskerk
pietro
pigment
pijl
pijlen
pijlers
pijlstaarten
pijn
pijnlijk
pijnlijke
pijp
pijpen
pil
pilaren
piloot
pilot
piloten
pils
pilsbry
pilsen
pim
pin
pinar
pine
pineau
ping
pinilla
pink
pinkpop
pinot
pinto
pinyin
pion
pioneer
pionier
pioniers
piper
piraat
piramide
piraten
pirates
pis
pisa
pissebed
pistool
pit
pitt
pittsburgh
pius
pixels
pizza
pj
pje
pjes
pjotr
pk
pkc
pl
pla
plaat
plaatje
plaatjes
plaats
plaatse
plaatselijk
plaatselijke
plaatsen
plaatsgevonden
plaatsing
plaatsje
plaatsnaam
plaatsnamen
plaatst
plaatste
plaatsten
plaatsvervangend
plaatsvervanger
plaatsvinden
plaatsvindt
plaatsvond
plaatsvonden
place
places
plafond
plain
plains
plak
plakken
plan
planckaert
planeet
planet
planeten
planetoide
planetoiden
plank
planken
plannen
planning
plant
plantaardig
plantaardige
plantage
plantages
planten
plantenetende
plantensoorten
plantkunde
plants
plaquette
plas
plasma
plassen
plastic
plastische
plat
plata
plate
plateau
platen
platencontract
platenlabel
platenmaatschappij
platform
platforms
platia
platina
platnick
plato
platte
plattegrond
platteland
platworm
platwormen
platyhelminthes
platz
play
playboy
player
players
playing
plays
playstation
plaza
pleasant
please
plechtig
plechtige
plechtigheid
pleegde
pleegt
plegen
pleidooi
plein
pleinen
pleistoceen
pleit
pleitte
plek
plekke
plekken
plezier
plicht
plichten
plinius
plo
ploeg
ploegen
ploegenachtervolging
ploegentijdrit
ploeggenoot
ploeggenoten
ploegleider
plot
plots
plotseling
plotselinge
plug
plunderen
plundering
plus
plutarchus
pluto
plymouth
pm
pn
po
poaceae
pocket
pocock
pod
podcast
podia
podium
podiumplaats
podiumplaatsen
poe
poeder
poel
poems
poes
poetin
poetische
poetry
poezie
poging
pogingen
point
pointe
points
poitiers
pokal
pokemon
poker
pol
polak
polder
polders
pole
polen
police
policy
poliep
politica
political
politici
politicologie
politics
politicus
politie
politieagent
politieagenten
politiebureau
politiek
politieke
politieman
polka
poll
polo
pols
polydor
pomeroy
pommeren
pomp
pompeius
pompen
pond
ponerinae
pons
pont
ponte
pony
poogde
pool
pools
poolse
poor
poort
poorten
poortgebouw
poot
pop
pope
poperinge
popgroep
popmuziek
poppe
poppel
poppen
populair
populairder
populaire
populairste
popular
populariteit
populatie
populaties
population
populations
por
porsche
porselein
port
porta
portaal
portal
porte
portefeuille
porter
portland
porto
portrait
portret
portretten
portsmouth
portugal
portugees
portugese
portugezen
pos
poseidon
positie
positief
posities
positieve
position
post
postcode
posten
postkantoor
postuum
postzegel
postzegels
pot
poten
potentieel
potentiele
potlood
potsdam
potten
potter
poule
pour
powell
power
powers
powiat
poznan
pp
pq
pr
praag
praat
praatprogramma
pracht
prachtig
prachtige
prachtmotten
prachtvlinders
practice
pradesh
prado
praemaxilla
prairie
praktijk
praktijken
praktisch
praktische
praten
pratt
prayer
pre
precies
precieze
predicaat
predikant
predikanten
preek
preekstoel
prees
prefect
prefectuur
prehistorie
prehistorische
preis
preken
prelude
premie
premier
premiere
premiers
premio
prent
prenten
pres
preselectie
present
presentatie
presentator
presentatoren
presentatrice
presente
presenteerde
presenteert
presenteren
presents
president
presidenten
presidentiele
presidentschap
presidentskandidaat
presidentsverkiezingen
presley
presov
press
prestatie
prestaties
presteerde
prestige
prestigieuze
preston
preterito
pretoria
pretpark
prettig
pretty
preußen
prevalence
preventie
pri
price
pride
priem
priest
priester
priesters
prijs
prijzen
prijzengeld
prima
primair
primaire
primaten
prime
primera
primitieve
primus
prince
princeps
princess
princeton
principe
principes
prins
prinsbisdom
prinsen
prinses
print
prior
priorij
prioriteit
prirucka
prirucni
prisma
prison
pristimantis
privacy
private
prive
privileges
prix
prize
pro
probeerde
probeerden
probeert
proberen
probleem
problem
problematiek
problematisch
problemen
procedure
procedures
proceedings
procent
proces
process
processen
processie
processor
processus
procureur
procyclingstats
produceerde
produceerden
produceert
producent
producenten
producer
produceren
producers
product
producten
productie
productieproces
producties
production
productions
proef
proefschrift
proeven
prof
profcarriere
profcontract
profeet
professional
professionals
professioneel
professionele
professor
professoren
profeten
profiel
profile
profiteerde
profiteren
profs
profvoetbal
profvoetballer
program
programma
programmeertaal
programmeren
programmering
progress
progressief
progressieve
project
projecten
projectie
projects
proletariaat
prolongeerde
proloog
prometheus
prominent
prominente
promoten
promotie
promotor
promoveerde
promoveerden
promoveert
promoveren
prompt
pronk
prooi
prooien
proost
propaganda
properties
property
prosper
prostituee
prostituees
prostitutie
prostomium
protagonist
protection
protectoraat
protennislive
protest
protestanten
protestantisme
protestants
protestantse
protesten
proto
protocol
proton
prototype
prototypes
prout
provence
province
provinciaal
provinciale
provincie
provincien
provincieraad
provincieraadslid
provincies
proximus
proza
pruisen
pruisisch
pruisische
prunus
ps
psalm
psalmen
psc
pseudo
pseudoniem
psi
psp
psv
psyche
psychiater
psychiatrie
psychiatrisch
psychiatrische
psychidae
psychische
psychologie
psychologisch
psychologische
psychology
psycholoog
psychotria
pt
pteromalidae
pterophoridae
pterostichus
ptn
ptolemaeus
ptt
pu
pub
public
publicatie
publicaties
publications
publiceerde
publiceerden
publiceert
publiceren
publicist
publiciteit
publiek
publieke
publiekelijk
publieksprijs
publishers
publishing
publius
puc
puebla
puerto
puin
pulau
pulchra
punctata
punctatus
punjab
punk
punkband
punt
punta
punten
puntenklassement
puntentelling
puntig
puntige
puntje
pupil
purcell
pure
purmerend
purple
pusilla
pusillus
put
putte
putten
putzeys
puur
puy
pv
pvda
pvv
pw
px
py
pyeongchang
pyralidae
pyramidellidae
pyreneeen
pyrenees
python
pz
q
q0
q1
q2
q3
q4
q5
q6
q7
q8
q9
qa
qatar
qb
qc
qd
qe
qf
qg
qh
qi
qin
qing
qj
qk
ql
qm
qn
qo
qp
qq
qr
qs
qt
qu
qua
quad
quam
quan
quang
quarter
quartet
quasi
quatre
quattro
que
quebec
queen
queens
queensland
quentin
querido
query
quest
question
quezon
qui
quick
quiet
quincy
quinn
quintana
quintanilla
quintet
quintus
quiz
quo
qv
qw
qx
qy
qz
r
r0
r1
r2
r3
r4
r5
r6
r7
r8
r9
ra
raad
raadgever
raadhuis
raadplegen
raadsbesluit
raadsel
raadsheer
raadsleden
raadslid
raaf
raak
raakt
raakte
raakten
raam
rabbijn
rabbit
rabobank
race
racen
racer
races
raceweekend
rachel
racing
racisme
rad
radar
radboud
raden
raderdiertjessoort
radicaal
radicale
radicalen
radio
radioactief
radioactieve
radiopresentator
radioprogramma
radiostation
radiostations
radiozender
raf
rafael
rage
ragonot
rahman
rai
raid
rail
railroad
rails
railway
rain
rainbow
rainer
raja
raken
raket
raketten
ral
raleigh
ralf
rally
ralph
ram
rama
rambur
ramen
ramirez
ramme
ramon
ramos
ramp
rampen
ramses
ramsey
ran
rana
ranch
rand
randall
randen
random
randstad
randy
rang
range
rangen
ranger
rangers
ranglijst
rangschikking
rangtelwoord
ranking
rao
raoul
rap
raphael
rapid
rapids
rapper
rapport
rapporten
rapporteren
rare
ras
rasmussen
rassen
rat
rathbun
rating
ratio
rationele
ratten
rattus
ratzeburg
raul
ravel
raven
ravenna
ravenstein
raw
ray
raymond
razend
razowski
rb
rbc
rc
rca
rd
re
reactie
reacties
reactor
read
reading
ready
reagan
reageerde
reageerden
reageert
reageren
real
realisatie
realiseerde
realiseert
realiseren
realisme
realistisch
realistische
realiteit
reality
really
rebecca
rebel
rebellen
recensent
recensenten
recensie
recensies
recent
recente
recentelijk
recept
recepten
recherche
rechercheur
recht
rechtbank
rechtbanken
rechte
rechten
rechter
rechterflank
rechterhand
rechterkant
rechterlijke
rechteroever
rechters
rechterzijde
rechthoekig
rechthoekige
rechtmatige
rechtop
rechtopstaande
rechts
rechtsback
rechtse
rechtsgeleerde
rechtsgeleerdheid
rechtspersoon
rechtspraak
rechtstreeks
rechtstreekse
rechtszaak
rechtszaken
rechtvaardige
rechtvaardigen
rechtvaardigheid
rechtvleugelig
rechtvleugeligen
reclame
reconstructie
record
recordhouder
recording
recordings
records
recreatie
recreatiegebied
recreatieve
rector
red
redacteur
redactie
redde
redden
redding
rede
redelijk
redelijke
reden
redenen
rederij
redman
redt
redtenbacher
reductie
ree
reed
reeder
reeds
reeel
reeks
reeksen
reekshoofd
reele
rees
reeve
reeves
refereert
reference
referendum
referentie
referenties
reflectie
reformatie
reformatorisch
refrein
reg
regan
regeerde
regeering
regeerperiode
regel
regelde
regelen
regelgeving
regeling
regelingen
regelmaat
regelmatig
regelmatige
regels
regelt
regen
regenboog
regensburg
regent
regenten
regentes
regentschap
regenval
regenwater
regenwoud
regenwouden
regeren
regerend
regerende
regering
regeringen
reggae
regie
regimbart
regime
regiment
regimenten
regina
reginald
regio
region
regionaal
regional
regionale
regionalliga
regis
regisseerde
regisseren
regisseur
regisseurs
register
registers
registratie
registreren
reglement
reglementen
regout
regt
reguleren
regulier
reguliere
rehn
rei
reich
reid
reiken
reikt
reikte
reilly
reims
rein
reina
reine
reinhard
reinhardt
reinhold
reinier
reinoud
reis
reisde
reisden
reist
reitter
reizen
reiziger
reizigers
rekende
rekenen
rekening
rekeningen
rekenkamer
rekent
rel
related
relatie
relatief
relaties
relatieve
relations
release
relevant
relevante
relief
reliefs
relieken
religie
religies
religieus
religieuze
religion
rellen
rem
remake
rembrandt
remco
remember
remi
remise
remix
remmen
remo
remy
ren
renaissance
renard
renate
renato
renault
rend
rendement
rene
renee
renesse
rennen
renner
renners
rennes
renovatie
rens
rent
rente
rentmeester
rentree
reorganisatie
reparatie
repareren
repertoire
replica
report
reportage
reportages
reporter
reprise
reptielen
republic
republiek
republieken
republikein
republikeinen
republikeinse
republique
reputatie
request
requiem
rer
res
rescue
research
reservaat
reserve
reserves
reservoir
residence
resident
residentie
resistance
resolutie
resoluties
resort
resources
resp
respect
respecteren
respectievelijk
rest
restant
restanten
restaurant
restaurants
restauratie
restaureren
resten
resterende
resultaat
resultaten
resulteerde
resulteert
results
ret
reticulata
retrieved
return
reunie
reunion
reus
reusachtige
reuss
reuter
reuzen
reuzenslalom
rev
reve
revenge
revenue
review
reviews
revilla
revival
revolutie
revolution
revolutionair
revolutionaire
revolutionairen
revolver
revue
rex
rey
reyes
reykjavik
reynolds
rf
rfc
rfn
rg
rh
rhapsody
rhein
rhenen
rhin
rho
rhode
rhodes
rhone
rhynchitidae
rhythm
ri
ria
riau
rib
ribben
ribeiro
ribera
rica
ricaans
ricardo
riccardo
rice
rich
richard
richards
richardson
richel
richelieu
richels
richie
richmond
richt
richten
richter
richting
richtingen
richtlijn
richtlijnen
richtte
richtten
rick
ricky
rico
ridder
ridderkruis
ridderorde
ridderorden
ridders
ridderschap
ride
rider
riders
ridge
riding
ridley
rie
riem
riemann
rien
riep
riepen
riet
rietveld
rifkoralensoort
rig
riga
right
rights
rij
rijbewijs
rijden
rijdende
rijder
rijders
rijdt
rijen
rijk
rijkdom
rijke
rijkelijk
rijken
rijks
rijksarchief
rijksbeschermd
rijksdag
rijksdienst
rijksmonument
rijksmonumenten
rijksmonumentenregister
rijksmuseum
rijksoverheid
rijksstad
rijkste
rijksuniversiteit
rijkswaterstaat
rijksweg
rijn
rijnland
rijp
rijsel
rijssen
rijst
rijstroken
rijswijk
rijtuig
rijtuigen
rik
riksvag
riley
rin
ring
ringen
ringlijn
rings
ringweg
ringworm
rinus
rio
riodinidae
riodininae
rioja
riopisuerga
rios
ris
risbec
rise
risico
rising
rissoidae
rit
rita
ritchie
ritme
ritmische
ritten
ritter
ritueel
rituele
rituelen
ritus
rivaal
rivalen
rivaliserende
rivaliteit
river
rivera
rivers
riverside
rivier
riviere
rivieren
riviertje
rj
rk
rkc
rkd
rl
rm
rn
rna
ro
roa
road
rob
robbedoes
robbie
robbins
robert
roberto
roberts
robertson
robin
robinson
robot
robots
robrecht
robson
robusta
robustus
robuust
robuuste
roc
rocca
rocha
roche
rochefort
rochelle
rochester
rock
rockband
rocket
rockgroep
rocks
rocky
rod
roda
rode
rodgers
rodney
rodrigo
rodrigues
rodriguez
roe
roeden
roeien
roeier
roel
roelof
roem
roemeens
roemeense
roemenen
roemenie
roep
roepen
roeping
roept
roer
roermond
roes
roeselare
roest
roet
roewer
roger
rogers
rogge
rogier
rohan
roi
rojas
rok
roken
rol
rolan
roland
rolde
role
rolf
roll
rollen
rolling
rollins
rolls
rolstoel
rom
roma
romaans
romaanse
romagna
romain
roman
romana
romance
romano
romans
romantiek
romantisch
romantische
rombouten
rome
romein
romeinen
romeins
romeinse
romeo
romer
romero
rommel
romp
romplengte
ron
ronald
ronaldo
rond
rondde
ronde
ronden
rondes
rondo
rondom
rondweg
rondwormensoort
ronnie
ronny
ronse
roo
rood
roodbruin
roodbruine
roode
roof
roofdieren
roofvliegen
rook
rookie
room
rooms
roomse
roos
roosendaal
roosevelt
rooster
root
roots
ros
rosa
rosalie
rosario
rose
rosen
rosenberg
roses
roskilde
rosmalen
ross
rosse
rossem
rossi
rosso
rossum
rostock
rot
rotatie
roth
rothschild
rotonde
rots
rotsachtige
rotsen
rotten
rotterdam
rotterdams
rotterdamsche
rotterdamse
roubaix
rouen
rouge
round
rousseau
route
routes
routledge
rouw
roux
rover
rovers
row
rowe
rowland
roy
royal
royale
royce
roze
rozen
rp
rq
rr
rs
rsc
rsssf
rt
rtl
rtv
ru
rubber
ruben
rubens
rubin
rubriek
ruby
rudi
rudolf
rudolph
rudy
rue
rufus
rug
rugby
ruggenwervels
rugslag
rui
ruige
ruil
ruilen
ruim
ruime
ruimen
ruimere
ruimte
ruimtelijk
ruimtelijke
ruimten
ruimtes
ruimteschip
ruimtestation
ruimtevaarder
ruimtevaart
ruine
ruines
ruis
ruit
ruiten
ruiter
ruiters
ruiz
rukken
rukte
rule
rules
rum
rumble
run
rund
runderen
runner
running
rupert
rups
rupsen
rural
rus
rush
rusland
russ
russell
russen
russia
russian
russin
russisch
russische
russo
rust
rusten
rustig
rustige
rustiger
rustplaats
rutger
rutgers
ruth
rutherford
rutte
rutten
ruud
ruw
ruwe
ruwweg
ruys
ruyter
ruzie
rv
rw
rwanda
rx
ry
ryan
ryder
rz
s
s0
s1
s2
s3
s4
s5
s6
s7
s8
s9
sa
saab
saale
saarbrucken
saaremaa
saarland
saba
sabel
sabelsprinkhanen
sabina
sabine
sabrina
sacha
sachs
sachsen
sacra
sacrale
sacrament
sacramento
sacrifice
sacristie
sacro
sad
saddam
safari
safe
safety
saga
sagan
sage
sagen
sahara
sai
said
saint
sainte
saints
saito
sakai
saksen
saksische
sal
sala
salamanca
salamander
salaris
salas
salazar
saldo
sale
salem
salerno
salisbury
salle
sally
salm
salmon
salome
salomo
salomon
salomonseilanden
salon
salt
salticidae
salvador
salvatore
salzburg
sam
samantha
same
samen
samengaan
samengesteld
samengestelde
samengevat
samengevoegd
samengewerkt
samenhang
samenhangende
samenkomen
samenleving
samenstellen
samenstellende
samenstelling
samenstellingen
samentrekking
samenvatting
samenvloeiing
samenvoegen
samenvoeging
samenwerken
samenwerking
samenwerkingsverband
samenwerkte
samenzwering
sami
sammy
samoa
sampford
sample
samples
samson
samsung
samtgemeinde
samuel
san
sanatorium
sanchez
sancho
sancties
sand
sande
sander
sanders
sandford
sandra
sands
sandy
sang
sankt
sanne
sans
sanskriet
sant
santa
santana
santander
santi
santiago
santibanez
santo
santos
santschi
sao
saoedi
saone
sap
sar
sara
sarah
sarajevo
sardinie
sari
sars
sarthe
sas
sasa
saskia
sat
satan
satelliet
satellieten
satellite
satire
satirische
sato
saturday
saturn
saturniidae
saturnus
satyrinae
saul
saunders
saus
saussure
savage
save
savoie
savoye
saw
saxo
saxofonist
saxofoon
saxophone
say
sb
sbb
sbs
sc
scala
scan
scandinavie
scandinavische
scarabaeidae
scarlet
scenario
scenarioschrijver
scenarist
scene
scenes
scha
schaakpartijen
schaal
schaambeen
schaap
schaar
schaarbeek
schaars
schaatsen
schaatser
schaatsers
schaatsster
schacht
schade
schadelijk
schadelijke
schadevergoeding
schaduw
schaduwen
schaffen
schaffer
schafte
schagen
schakel
schakelde
schakelen
schaken
schaker
schalen
schalke
schandaal
schande
schans
schansspringen
schap
schapen
schat
schatkamer
schatkist
schatte
schatten
schatting
schattingen
schaumburg
schaus
sche
schedel
scheen
scheenbeen
scheepsbouw
scheepswerf
scheepvaart
scheidde
scheidden
scheiden
scheiding
scheidsrechter
scheidt
scheikunde
scheikundig
scheikundige
schelde
schelp
schelpen
schema
schending
schenk
schenkel
schenken
schenking
schenkt
schepen
schepenen
scheppen
schepper
schepping
scher
scherm
schermen
schermer
scherp
scherpe
schers
scherzo
schets
schetsen
scheuren
scheveningen
schie
schiedam
schiep
schiereiland
schiermonnikoog
schiet
schieten
schietmot
schietpartij
schietsport
schiffermuller
schijf
schijn
schijnbaar
schijnbare
schijndel
schijnen
schijnt
schijven
schikking
schil
schild
schilder
schilderde
schilderen
schilderes
schilderij
schilderijen
schilderingen
schilderkunst
schilders
schildert
schildpad
schildpadden
schildwespen
schimmel
schimmelkevers
schimmels
schip
schiphol
schipper
schippers
schitterende
schleck
schloss
schltr
schmid
schmidt
schmitt
schmitz
schneider
schoen
schoenen
schok
schol
scholen
scholengemeenschap
scholieren
scholing
scholten
schonberg
schone
schonk
schoof
school
schoolgebouw
schooljaar
schoolslag
schooltijd
schoon
schoone
schoonheid
schoonhoven
schoonvader
schoonzoon
schoorl
schoorsteen
schoot
schop
schors
schorsing
schot
schotel
schoten
schotland
schots
schotse
schotten
schouder
schouderblad
schouders
schout
schouten
schouw
schouwburg
schouwen
schreef
schreven
schrift
schriftelijk
schriftelijke
schriften
schrijf
schrijfster
schrijft
schrijfwijze
schrijn
schrijven
schrijver
schrijvers
schrijvertjes
schrik
schroder
schroef
schubben
schubert
schubmieren
schudden
schuift
schuil
schuilplaats
schuimcicaden
schuin
schuine
schuiven
schuld
schulden
schuldig
schulte
schultz
schulz
schulze
schumacher
schumann
schuren
schurk
schutter
schutterij
schuur
schuurman
schwartz
schwarz
schweiz
schwerin
science
sciencefiction
sciences
scientific
sclerosomatidae
scooby
scoorde
scoorden
scoort
scooter
scooters
scopoli
scopula
score
scoren
scores
scotia
scotland
scott
scottish
scout
scouting
scouts
scream
screen
script
scudder
sculpture
sculpturen
sculptuur
sd
sdap
se
sea
sean
search
season
seat
seattle
sebastiaan
sebastian
sebastien
sec
second
seconde
seconden
secret
secretaresse
secretariaat
secretaris
secrets
sectie
secties
section
sector
sectoren
seculiere
secundair
secundaire
security
sed
sedan
sedert
sediment
sedimenten
seds
see
seer
seg
sega
segers
segment
segmenten
segunda
sei
sein
seine
seinen
seizoen
seizoenen
seks
seksualiteit
seksueel
seksuele
sekte
sel
selatan
select
selecteren
selectie
selecties
self
sels
selys
sem
semarang
semi
seminarie
sen
senaat
senator
senatoren
seneca
senegal
senior
senioren
sense
sentai
seoel
sep
sept
september
ser
serena
serenade
serge
sergeant
sergej
sergio
sergius
serie
seriemoordenaar
series
serieus
serieuze
serious
serra
serrano
serre
servaas
server
servers
service
services
servie
serviers
serville
servisch
servische
ses
sesiidae
sesiinae
sessie
sessies
session
sessions
set
seth
sets
setting
seven
severus
sevilla
sex
sextet
sexy
seychellen
seymour
sf
sfeer
sg
sgp
sh
shadow
shadows
shah
shakespeare
shall
shan
shane
shanghai
shannon
shark
sharon
sharp
shaw
shawn
she
sheffield
sheila
sheldon
shell
shelley
shen
shepherd
sheridan
sheriff
sherlock
sherman
shi
shield
shin
shine
ship
shire
shirley
shirt
shock
shogun
shoot
shop
shore
short
shorttrack
shot
should
show
shows
shuttle
si
siam
siberie
siberische
sic
sich
sichuan
siciliaanse
sicilie
sid
side
sidney
sidonia
sie
siecle
siegen
siegfried
siemens
sien
siena
sieraden
sierlijke
sierra
sigismund
sigma
sigmund
sign
signaal
signalen
signature
signatuur
significant
significante
sijn
sijs
sijthoff
sikkelmotten
silence
silent
silezie
silva
silver
silverstone
silvia
silvio
sim
simbad
simeon
similis
simmons
simon
simone
simoni
simons
simpel
simpele
simpelweg
simple
simplex
simpson
simpsons
sims
sin
sinai
sinatra
since
sinclair
sind
sinds
sindsdien
sine
sinensis
sinfonia
sing
singapore
singel
singer
singers
singh
single
singles
sings
sint
sinterklaas
sion
sir
sis
sister
sisters
sitcom
site
sites
sittard
situatie
situaties
six
sj
sjah
sjoerd
sjostakovitsj
sjostedt
sk
ska
skane
skelet
skeletten
sketch
sketches
ski
skien
skigebied
skin
skoda
sky
sl
sla
slaaf
slaagde
slaagden
slaagt
slaan
slaap
slaapkamer
slaapt
slaat
slachtoffer
slachtoffers
slag
slagen
slager
slagschip
slagveld
slagwerk
slak
slakken
slakkensoort
slakrupsvlinders
slalom
slam
slang
slangen
slangster
slank
slanke
slankpootvliegen
slapen
slapende
slave
slaven
slavenhandel
slavernij
slavische
slecht
slechte
slechter
slechts
slechtste
sleep
sleepte
sleeswijk
slepen
sleutel
sleutels
slide
slijtage
slikken
slim
slimme
slimste
slinger
sloane
sloeg
sloegen
slogan
sloop
sloot
slopen
slot
sloten
sloterdijk
slotte
sloveens
sloveense
slovenie
slovenija
slovnik
slow
slowaaks
slowaakse
slowakije
sluipvliegen
sluipwespen
sluis
sluit
sluiten
sluiter
sluiting
sluizen
slurf
sm
smaak
smackdown
smaken
smal
small
smalle
smaller
smaort
smart
smartphone
smash
smeden
smeets
smelt
smelten
smet
smid
smile
smit
smith
smithsonian
smits
sms
smurfen
sn
snaar
snake
snaren
snavel
sncf
sneek
sneeuw
sneeuwwitje
snel
snelheden
snelheid
snelle
snellen
sneller
snellere
snelste
snelwandelen
snelweg
snelwegen
sneuvelde
sneuvelden
snijden
snijders
snijdt
snoek
snoerhalskevers
snoerworm
snoerwormen
snor
snow
snowboarden
snuit
snuitmotten
snyder
so
soap
soapserie
sober
sobere
soccer
soccerway
sociaal
sociaaldemocraten
sociaaldemocratische
social
sociale
socialisme
socialist
socialiste
socialisten
socialistisch
socialistische
societe
societeit
society
sociologie
socioloog
socrates
soe
soedan
soep
soera
soerabaja
soest
soeverein
soevereine
soevereiniteit
sofia
sofie
soft
software
soir
soissons
soixante
sojoez
sokkel
sol
solar
soldaat
soldaatjes
soldaten
soldier
soleil
solid
solidariteit
solist
solisten
solo
soloalbum
solocarriere
solomon
som
somalie
somalische
somber
sombere
somberkevers
some
somers
somerset
something
somme
sommige
sommigen
soms
son
sonata
sonate
sonde
sonder
song
songfestival
songs
songwriter
sonic
sonja
sonnet
sonny
sons
sont
sony
soo
soon
soort
soortaanduiding
soorten
soortenbank
soortgelijk
soortgelijke
soortnaam
sophia
sophie
sopraan
sorbonne
sorry
soto
sotsji
soude
soul
sound
sounds
soundtrack
source
sous
sousa
south
southampton
southern
souvenirs
souza
sovjet
sovjetrepubliek
sovjets
sowerby
sowieso
sp
spa
spaak
spaans
spaanse
space
spacex
span
spande
spanish
spanjaard
spanjaarden
spanje
spannend
spannende
spanners
spanning
spanningen
spanwijdte
spar
sparassidae
sparen
sparta
spartak
spartelkevers
spd
spe
spears
specht
speciaal
special
speciale
specialisatie
specialiseerde
specialist
specialisten
specialiteit
specials
species
specificaties
specifiek
specifieke
specimen
specimina
spectaculaire
spectrum
speech
speed
speedway
speel
speeldag
speelde
speelden
speelfilm
speelfilms
speelgoed
speelronde
speelster
speelsters
speelt
speeltijd
speer
speerwerpen
spek
spektorren
spel
spelen
spelende
speler
spelers
spelerscarriere
spelersprofiel
spellen
spelletjes
spelling
spellingregel
spencer
sphingidae
sphinx
spider
spiegel
spiegels
spielberg
spier
spieren
spijkenisse
spijkers
spijt
spike
spil
spin
spinnen
spinnensoort
spinners
spinneruilen
spinola
spinosa
spinoza
spion
spionage
spiraalvormig
spirit
spiritualiteit
spirituele
spisovneho
spits
spitsbergen
spitse
split
splitsen
splitsing
splitst
splitste
spoed
spoedig
spoel
spoelen
spoken
sponginevezels
spons
sponsor
sponsors
sponssoort
spontaan
spontane
sponzen
spook
spoor
spoorbrug
spoorlijn
spoorlijnen
spoorloos
spoorweg
spoorwegen
spoorwegmaatschappij
spoorwegmaatschappijen
spoorwegnet
spoorwegstation
spoorwegstations
sporadisch
sporen
sport
sportclub
sportcomplex
sporten
sporter
sporters
sporthal
sportief
sportieve
sporting
sportpark
sports
sportvereniging
spot
spraak
spraakkunst
sprak
sprake
spraken
spreek
spreekt
spreektaal
spreken
sprekend
sprekende
spreker
sprekers
spreuk
spreuken
spring
springen
springende
springer
springfield
springs
springspinnen
springstaartensoort
springsteen
springt
sprint
sprinter
sprog
sprong
sprongen
sprookje
sprookjes
spullen
spvgg
spy
sq
sqrt
squad
squadron
square
sr
sri
ss
ssr
st
sta
staaf
staakt
staal
staan
staand
staande
staart
staartlengte
staartstukje
staartwervels
staat
staats
staatsbosbeheer
staatse
staatsgreep
staatshoofd
staatsman
staatsraad
staatssecretaris
stabiel
stabiele
stabiliteit
stad
stade
stadhouder
stadhuis
stadia
stadion
stadions
stadium
stadje
stads
stadsarchief
stadsbestuur
stadsbrand
stadscentrum
stadsdeel
stadsdelen
stadsgezicht
stadsgezichten
stadskanaal
stadsmuren
stadsmuur
stadspark
stadspoort
stadspoorten
stadsrechten
stadsschouwburg
stadt
staf
stafchef
staff
stafford
stage
stagiair
stainton
stak
staken
staking
stal
stalen
stalin
stallen
stam
stamboom
stamde
stammen
stamnummer
stamt
stamvader
stan
stand
standaard
standaardelftal
standaarden
standaardwerk
standard
standbeeld
standbeelden
standen
standing
standplaats
standpunt
standpunten
stanford
stanley
stanton
stap
stapel
stappen
stapt
stapte
stapten
star
stara
stare
stargate
stark
starr
stars
start
starten
startplaatsen
startte
startten
stary
state
statement
staten
states
station
stations
stationsgebouw
stationshal
stationsplein
statische
statistics
statistiek
statistieken
statistik
statistische
status
statuten
statuut
staudinger
stavanger
staveley
staven
stay
ste
stede
stedelijk
stedelijke
steden
stedenbouwkundige
steeds
steeg
steek
steekmuggen
steekt
steel
steele
steelt
steen
steenbergen
steenkool
steenvlieg
steenweg
steenwijk
steeple
steevast
stef
stefan
stefano
stefanus
stegen
steil
steile
stein
steindachner
steiner
stekels
steken
stel
stelde
stelden
stelen
stella
stellen
stellende
stelling
stellingen
stelsel
stelt
steltmuggen
stem
stemacteur
stemde
stemden
stemmen
stemming
stempel
stemrecht
stemt
sten
stenen
stengel
stengels
step
stephan
stephane
stephanie
stephen
stephens
ster
stereo
sterft
sterk
sterke
sterker
sterkere
sterkste
sterkte
sterling
stern
sterren
sterrenbeeld
sterrenhoop
sterrenkunde
sterrenstelsel
sterrenstelsels
sterven
stervende
steun
steunde
steunden
steunen
steunt
steve
steven
stevens
stevenson
stevie
stevig
stevige
stewart
sticht
stichten
stichter
stichters
stichting
stichtte
stichtten
stick
stiefvader
stiekem
stier
stierf
stiermarken
stierven
stift
stijf
stijgen
stijgende
stijging
stijgt
stijl
stijlen
stijn
stijve
stikstof
stil
stilaan
stilgelegd
still
stille
stilleven
stillevens
stills
stilstand
stilte
stimpson
stimuleerde
stimuleren
sting
stirling
stock
stockholm
stockton
stoel
stoelen
stoet
stof
stoffelijk
stoffelijke
stoffen
stok
stoke
stokje
stokken
stolberg
stoll
stomme
stomp
stompe
stond
stonden
stone
stones
stoom
stoommachine
stoomtram
stoornis
stoot
stootte
stop
stopgezet
stoppen
stopplaats
stopt
stopte
stopten
store
stories
storing
stork
storm
stormen
stort
storten
stortte
story
stoten
stout
stoute
straal
straalvinnige
straat
straatnaam
straatnamen
straatsburg
straf
strafbaar
strafbare
straffen
strafrecht
strafschop
strafschoppen
straight
strak
strakke
straks
stralen
straling
strand
strandde
stranden
straneo
strange
stranger
strasbourg
strategie
strategisch
strategische
strategy
straten
stratford
stratton
strauss
stravinsky
straße
stream
streden
streed
streefde
streeft
streek
streep
street
streets
streken
strekken
strekking
strekt
strekte
streng
strenge
strepen
stress
streven
striata
strickland
strijd
strijden
strijdende
strijders
strijdkrachten
strijdmacht
strijkers
strijkkwartet
strijkorkest
strike
strikt
strikte
string
strings
strip
stripalbum
stripreeks
strips
striptekenaar
stripverhaal
stro
strobl
stroken
stromen
stromend
stroming
stromingen
strong
strook
stroom
stroomafwaarts
stroomde
stroomgebied
stroomopwaarts
stroomt
structure
structureel
structurele
structuren
structuur
struik
struiken
struikgewas
sts
stu
stuart
studeerde
studeert
student
studenten
studentenvereniging
studeren
studie
studiebeurs
studien
studies
studio
studioalbum
studioalbums
studios
study
stuff
stuifmeel
stuit
stuitte
stuk
stukje
stukjes
stukken
stuks
sturen
sturm
stuttgart
stuur
stuurde
stuurden
stuurman
stuurt
stuwmeer
style
su
suarez
sub
subject
subjectieve
subjonctif
subjuntivo
subsidie
subsidies
subsp
substantie
substraat
subtribus
subtropische
succes
successen
successieoorlog
succesvol
succesvolle
succesvolste
such
sud
sudwest
sue
suffolk
sugar
suggereerde
suggereert
suggereren
suggestie
sui
suicide
suiker
suisse
suite
sul
sulla
sullivan
sultan
sultanaat
sum
sumatra
summary
summer
summit
sun
sunday
sunderland
sung
sungai
sunny
sunset
sunshine
super
superbike
supercup
superfamilie
superieur
superieure
superior
superman
supermarkt
supermarkten
supersport
suppan
support
supporters
supreme
sur
surinaams
surinaamse
suriname
surrey
survey
sus
susan
susanna
suske
sussex
sutherland
sutton
suzanne
suzuki
sv
sven
svetlana
svv
sw
swan
swart
swaziland
sweet
swift
swing
swinhoe
swiss
switch
sword
sx
sy
sydney
sylvain
sylvester
sylvia
symbolen
symboliek
symbolisch
symbolische
symboliseert
symboliseren
symbool
symfonie
symfonieen
symfonieorkest
symfonisch
symfonische
symmetrie
symmetrisch
symmetrische
sympathie
symphony
symposium
symptomen
syn
synagoge
synanthedon
syndroom
synode
synoniem
synoniemen
synthese
synthesizer
synthesizers
synthetische
syracuse
syrie
syrisch
syrische
syrphidae
systeem
system
systematisch
systematische
systemen
systems
sz
szepligeti
sønder
sørensen
t
t0
t1
t2
t3
t4
t5
t6
t7
t8
t9
ta
taak
taal
taaladvies
taalfamilie
taalgebied
taalgebruik
taalhervorming
taalkunde
taalkundige
taalunie
taart
tabak
tabel
tabellen
table
tablet
tachinidae
tachtig
tachtigjarige
tacitus
tactiek
tactische
tadzjikistan
tafel
tafeltennis
tafereel
taferelen
tag
tahiti
tai
taipei
taiwan
tak
takahashi
take
takeda
taken
takes
takken
tal
talbot
tale
talen
talent
talenten
talentenjacht
tales
taliban
talk
talking
tallinn
talloze
talpa
talrijk
talrijke
tam
tamara
tamelijk
tamerlan
tamil
tamme
tan
tanaka
tanasevitch
tand
tandarts
tanden
tandvlinders
tang
tango
tanjung
tank
tanks
tanner
tant
tante
tanzania
tao
tap
tape
tapijt
tapijten
tar
tara
tardigrada
target
tarief
tarieven
tarn
tarrant
tartu
tarwe
tarzan
tas
tasmanie
tastermotten
tata
tate
tatjana
tau
tawton
taxa
taxi
taxon
taxonomie
taxonomische
taxonomy
taylor
tb
tbilisi
tc
td
te
tea
team
teamgenoot
teamgenoten
teams
teamsprint
tears
teatro
tec
tech
technical
technicus
techniek
technieken
technisch
technische
techno
technologie
technologieen
technologische
technology
ted
teddy
tee
teelt
teen
teenage
teer
tegelen
tegelijk
tegelijkertijd
tegels
tegemoet
tegen
tegenaanval
tegendeel
tegengaan
tegengehouden
tegengestelde
tegenhanger
tegenhouden
tegenover
tegenovergestelde
tegenpartij
tegenpaus
tegenstand
tegenstander
tegenstanders
tegenstelling
tegenstellingen
tegenvallende
tegenwoordig
tegenwoordige
tegenzin
teheran
tehuis
teil
teken
tekenaar
tekende
tekenden
tekenen
tekening
tekeningen
tekens
tekent
tekort
tekst
teksten
tekstschrijver
tel
telde
telden
tele
telecom
telecommunicatie
telefoon
telefoons
telegraaf
telenet
telescoop
teleurgesteld
teleurstellende
teleurstelling
televisie
televisiefilm
televisiefilms
televisiepresentator
televisiepresentatrice
televisieprogramma
televisieserie
televisieseries
televisiezender
television
telg
telkens
tell
tellen
tellende
teller
telling
tellingen
telstar
telt
tempel
tempeliers
tempels
temperaturen
temperatuur
temple
tempo
temps
temse
ten
tend
teneinde
tenen
tenerife
tengah
tenggara
tenminste
tennessee
tennis
tennisser
tennisspeelster
tennisster
tennistoernooi
tenor
tenorsaxofoon
tenslotte
tent
tentakels
tenten
tenthredinidae
tentoon
tentoongesteld
tentoonstelling
tentoonstellingen
tenue
tenuis
tenzij
teodor
tephritidae
ter
tercera
terecht
terechtgekomen
terechtgesteld
terechtkomen
terechtkomt
terechtkwam
terence
teresa
term
terme
termen
termijn
termijnen
terminal
terminologie
ternauwernood
terneuzen
terp
terpstra
terra
terras
terre
terrein
terreinen
terreur
territoria
territoriale
territories
territorium
territory
terror
terrorisme
terroristen
terroristische
terry
ters
terschelling
terstond
terts
terug
teruggaat
teruggebracht
teruggegeven
teruggekeerd
teruggetrokken
teruggevonden
terugkeer
terugkeerde
terugkeert
terugkeren
terugkerend
terugkerende
terugkomen
terugkomst
terugkomt
terugtocht
terugtrekken
terugtrekking
terugtrok
terugvinden
terugwedstrijd
terugweg
tervuren
terwijl
tes
tess
test
testament
testen
tests
tet
tetragnatha
tetrigidae
tettigoniidae
teun
teveel
tevens
tevergeefs
tevoorschijn
tevoren
tevreden
tex
texas
texel
text
textiel
textielindustrie
tezamen
tf
tfrac
tg
tgv
th
thai
thailand
thais
thaise
thames
than
thanh
thans
that
the
thea
theater
theaters
theatre
thebe
thee
theems
their
theischinger
them
thema
theme
then
theo
theobald
theodoor
theodor
theodora
theodore
theodorus
theodosius
theologen
theologie
theologische
theoloog
theoretisch
theoretische
theorie
theorieen
theory
theraphosidae
therapie
there
theresa
therese
theresia
theridiidae
theridion
thermische
theropode
these
thesis
thessaloniki
theta
they
thi
thiele
thierry
thijs
thijssen
thin
thing
things
think
third
this
tho
tholen
thom
thomas
thomisidae
thompson
thomson
thor
thora
thorbecke
thorell
thorn
thornton
thorpe
those
thou
thought
thousand
thracie
threatened
three
thriller
through
thuis
thuisbasis
thuishaven
thuisland
thuisploeg
thuiswedstrijd
thuiswedstrijden
thunberg
thunder
thunderbird
thuringen
thy
thys
ti
tian
tiberius
tibet
tibetaans
tibetaanse
ticket
tickets
tie
tiebreak
tiel
tielt
tien
tiende
tienduizenden
tienen
tiener
tieners
tiengen
tienjaarlijkse
tienjarige
tienpotigensoort
tiental
tientallen
ties
tig
tiger
tigs
tij
tijd
tijde
tijdelijk
tijdelijke
tijden
tijdens
tijdgenoot
tijdgenoten
tijdig
tijdje
tijdlang
tijdlijn
tijdperk
tijdrekening
tijdrijden
tijdrit
tijds
tijdschrift
tijdschriften
tijdstip
tijdvak
tijger
tikader
til
tilburg
till
tilly
tim
timberlake
time
times
timmer
timmerman
timmermans
timo
timor
timothy
timur
tin
tina
tine
tineidae
tineke
ting
tint
tinten
tiny
tip
tipparade
tips
tipula
tipulidae
tiran
tirana
tirannen
tirol
tiron
tis
titan
titanic
titel
titelrol
titels
titelsong
titelverdediger
titelverdedigster
title
tito
titulair
titus
tj
tje
tjes
tk
tl
tm
tmf
tn
tna
to
tobago
tobias
toby
toch
tocht
tochten
tod
today
todd
toe
toebedeeld
toedoen
toegang
toegangspoort
toegankelijk
toegankelijke
toegediend
toegekend
toegelaten
toegenomen
toegepast
toegepaste
toegeschreven
toegestaan
toegestane
toegeven
toegevoegd
toegevoegde
toegewezen
toegewijd
toekennen
toekenning
toekomende
toekomst
toekomstig
toekomstige
toelaten
toelating
toeleggen
toelichting
toen
toenadering
toenam
toename
toeneemt
toenemen
toenemend
toenemende
toenmalig
toenmalige
toentertijd
toepassen
toepassing
toepassingen
toer
toerde
toeren
toerisme
toeristen
toeristisch
toeristische
toernooi
toernooien
toernooischema
toeschouwer
toeschouwers
toespraak
toespraken
toestaan
toestand
toestanden
toestel
toestellen
toestemming
toetreding
toets
toetsen
toetsenbord
toetsenist
toetsing
toetsinstrumenten
toeval
toevallig
toevertrouwd
toevlucht
toevoegen
toevoeging
toevoegingen
toewijding
toezicht
together
togo
toi
toilet
tokio
tokyo
tol
toledo
tolerantie
tolk
tolkien
tolstoj
tom
tomas
tomatoes
tombe
tome
tommy
tomorrow
ton
tone
toneel
toneelgroep
toneelschool
toneelschrijver
toneelstuk
toneelstukken
tonen
tong
tonga
tongeren
toni
tonight
tony
too
tool
tools
toon
toonaangevende
toonde
toonden
toonder
toonen
toonladder
toonsoort
toont
toorn
top
topclub
topklasse
topman
topografische
topologische
toponiem
toppen
toppers
topschutter
topscorer
topsent
topsnelheid
topsport
tor
tord
toren
torens
torenspits
torentje
torhout
tori
torino
tornado
torne
toro
toronto
torpedo
torre
torres
torrington
tortricidae
torymidae
toscane
tot
totaal
total
totale
totdat
toto
totstandkoming
tottenham
touch
toulgoet
toulouse
tour
touring
tournament
tournee
tournees
tours
tous
toussaint
tout
touw
tovenaar
tower
towers
town
townes
townsend
township
toy
toyota
toys
tp
tq
tr
tra
traag
trace
tracey
tracht
trachten
trachtte
track
tracks
tracy
trad
trade
traden
traditie
tradities
traditioneel
traditionele
traffic
trage
tragedie
tragische
trail
trailer
train
trainde
trainen
trainer
trainers
training
trainingen
trains
trajanus
traject
trajecten
traktaat
tram
tramlijn
tramlijnen
trams
tran
trance
tranen
trans
transactie
transacties
transcriptie
transept
transfer
transfermarkt
transfervrij
transformatie
transformers
transit
transmissie
transparant
transport
transporteren
transsylvanie
transvaal
trap
trappen
trauma
traveeen
travel
travis
tre
treasure
trechus
treden
tree
treedt
trees
treffen
treffer
treffers
treft
trein
treindienst
treinen
treinstation
treinstel
treinstellen
treinverkeer
treitschke
trek
trekken
trekt
trend
trends
trent
trente
trentino
tres
trevor
tri
trial
trias
triatlon
tribunaal
tribune
tribus
tribute
trichogrammatidae
tricolor
trier
triest
trilharen
trillingen
trilogie
trilspinnen
trinidad
trinity
trio
triomf
trip
triple
tripoli
tristan
triumph
tro
troepen
troepenmacht
trof
trofee
trofeo
troffen
trog
trois
troje
trok
trokken
trom
trombone
trombones
trombonist
trommel
tromp
trompet
trompetten
trompettist
trondheim
troon
troonopvolger
troost
troostfinale
tropen
trophy
tropisch
tropische
tros
trots
trotski
trouble
trouw
trouwde
trouwden
trouwe
trouwen
trouwens
trouwt
troy
troyes
truck
trucks
true
trui
truiden
trump
trust
truth
try
ts
tsaar
tsjaad
tsjaikovski
tsjechie
tsjechisch
tsjechische
tsjecho
tsjechoslowakije
tsunami
tsv
tt
tu
tuba
tubantia
tuberculose
tubingen
tucker
tui
tuin
tuinbouw
tuindorp
tuinen
tumor
tune
tunesie
tunis
tunnel
tunnels
turbine
turbo
turbonilla
turf
turijn
turk
turken
turkije
turkmenistan
turks
turkse
turku
turn
turnen
turner
turnhout
turtles
tus
tusschen
tussen
tussendoor
tussenkomst
tussenliggende
tussenstand
tussentijd
tussentijds
tussentijdse
tuur
tv
tw
twaalf
twaalfde
twee
tweede
tweedeklasser
tweeduizend
tweeen
tweehonderd
tweejarig
tweejarige
tweekleppigen
tweekleppigensoort
tweeling
tweelingbroer
tweemaal
tweeslachtig
tweetal
tweetalig
tweevleugelige
twente
twentse
twenty
twijfel
twijfelen
twijfels
twilight
twin
twins
twintig
twintigste
twintigtal
twist
twisten
twitter
two
tx
ty
tyd
tyler
type
typelocatie
typen
typerend
types
typesoort
typisch
typische
tz
u
u0
u1
u2
u3
u4
u5
u6
u7
u8
u9
ua
ub
uber
uc
uchida
uci
ud
uden
udo
ue
uefa
ueno
uf
ug
ugc
ugent
uh
uhmann
ui
uil
uilen
uit
uitbarsting
uitbarstingen
uitbouw
uitbraak
uitbracht
uitbrak
uitbreiden
uitbreiding
uitbreidingen
uitbreken
uitbrengen
uitdaging
uitdagingen
uitdrukkelijk
uitdrukking
uitdrukkingen
uiteen
uiteenlopende
uiteenvallen
uiteinde
uiteindelijk
uiteindelijke
uiteinden
uiten
uiteraard
uiterlijk
uiterlijke
uitermate
uiterst
uiterste
uiterwaarden
uitg
uitgaan
uitgaande
uitgaat
uitgang
uitgangen
uitgangspunt
uitgave
uitgaven
uitgebaat
uitgebeeld
uitgebouwd
uitgebracht
uitgebrachte
uitgebreid
uitgebreide
uitgebroken
uitgedeeld
uitgedeelde
uitgedoofd
uitgedrukt
uitgegaan
uitgegeven
uitgegraven
uitgegroeid
uitgekomen
uitgekozen
uitgeleend
uitgelegd
uitgemaakt
uitgenodigd
uitgeoefend
uitgeput
uitgereikt
uitgeroepen
uitgerust
uitgeschakeld
uitgeschreven
uitgesloten
uitgespeeld
uitgesproken
uitgesteld
uitgestorven
uitgestrekt
uitgestrekte
uitgevaardigd
uitgevallen
uitgeven
uitgever
uitgeverij
uitgeverijen
uitgevers
uitgevochten
uitgevoerd
uitgevoerde
uitgevonden
uitgewerkt
uitgewezen
uitgezet
uitgezonden
uitgezonderd
uitgifte
uitgroeide
uitgroeien
uitholling
uiting
uitingen
uitkering
uitkomen
uitkomend
uitkomst
uitkomsten
uitkomt
uitkwam
uitkwamen
uitleg
uitloper
uitlopers
uitmaakt
uitmaakte
uitmaakten
uitmaken
uitmondt
uitnodiging
uitoefende
uitoefenen
uitoefening
uitreiking
uitroepen
uitrusting
uitschakelen
uitslag
uitslagen
uitsluitend
uitsluiting
uitspraak
uitspraken
uitspreken
uitsteeksel
uitsteeksels
uitstek
uitstekend
uitstekende
uitstel
uitsterven
uitstoot
uitstraling
uitstrekt
uitte
uitvallen
uitverkocht
uitvinder
uitvinding
uitvindingen
uitvoer
uitvoerde
uitvoeren
uitvoerend
uitvoerende
uitvoerig
uitvoering
uitvoeringen
uitvoert
uitwedstrijd
uitwendige
uitwerking
uitwisseling
uitzenden
uitzending
uitzendingen
uitzicht
uitzien
uitzondering
uitzonderingen
uitzonderlijk
uitzonderlijke
uj
uk
ukkel
ul
ulb
ulm
ulrich
ulster
ultieme
ultimate
ultra
ultratop
ulu
um
umberto
un
una
unaniem
uncle
und
under
undercover
underground
underwood
une
unesco
unicode
unicolor
unie
uniek
unieke
uniform
uniforme
uniformen
union
unit
united
universal
universe
universeel
universele
universidad
universitair
universitaire
universitat
universite
universiteit
universiteiten
universiteitsbibliotheek
university
universum
unix
unlimited
uno
uns
unsubscribe
unter
until
uo
up
update
uploaden
upon
upper
uppsala
ups
upton
uq
ur
uranium
urban
urbanus
uren
uri
urine
urk
url
ursula
uruguay
uruguayaans
uruguayaanse
us
usa
usb
use
used
user
users
using
uss
ussr
ustav
ut
utah
utara
utc
utrecht
utrechts
utrechtse
uttar
uu
uur
uurwerk
uv
uva
uvarov
uw
uwe
ux
uy
uyl
uyt
uz
v
v0
v1
v2
v3
v4
v5
v6
v7
v8
v9
va
vaag
vaak
vaals
vaandel
vaar
vaardigde
vaardigheden
vaardigheid
vaart
vaartuig
vaartuigen
vaarwel
vaas
vacature
vaccin
vachal
vacht
vacuum
vader
vaderland
vaders
vage
vaillant
vak
vakantie
vakbond
vakbonden
vaker
vakgebied
vakken
val
vale
valence
valencia
valenciennes
valentin
valentine
valerie
valerius
valk
valkenburg
valkenswaard
valladolid
valle
vallee
vallei
valleien
vallen
vallende
valles
valley
valois
vals
valse
valt
value
values
valuta
valverde
vampier
vampire
van
vanaf
vancouver
vandaag
vandaan
vandaar
vandalen
vande
vanden
vandenbroucke
vander
vandersteen
vandoor
vanessa
vangen
vangt
vanop
vanouds
vanuatu
vanuit
vanwaar
vanwege
vanzelf
vanzelfsprekend
var
vara
varen
varens
vargas
vari
variabel
variabele
variabelen
variabilis
variant
varianten
variatie
variaties
variations
varieert
varieren
varierend
varieteit
varieteiten
varken
varkens
varphi
vary
vas
vasco
vasili
vast
vaste
vasteland
vasten
vastgebonden
vastgehouden
vastgelegd
vastgesteld
vastgestelde
vastgezet
vastgoed
vasthouden
vastleggen
vastra
vaststellen
vaststelling
vat
vatbaar
vaten
vaticaan
vaticaans
vaticaanstad
vatte
vatten
vaud
vaughan
vaux
vazal
vb
vc
vd
ve
vec
vecht
vechten
vector
vectoren
vedermotten
vee
veel
veelal
veeleer
veelgebruikte
veelvuldig
veen
veendam
veenendaal
veer
veerboot
veerdienst
veere
veerle
veerman
veertien
veertiende
veertig
veeteelt
vega
vegas
vegetatie
veghel
veilig
veilige
veiliger
veiligheid
veiligheidsraad
veiling
vel
veld
velde
velden
veldheer
veldhoven
veldlopen
veldmaarschalk
veldrijden
veldslag
veldslagen
veldsprinkhanen
veldtocht
vele
velen
velsen
veluwe
velvet
ven
vendee
venen
venetiaanse
venetie
veneto
venezia
venezolaanse
venezuela
venlo
vennen
vennootschap
venray
venster
vensters
vent
ventura
venture
venus
ver
vera
veranderd
veranderde
veranderden
veranderen
veranderende
verandering
veranderingen
verandert
verantwoord
verantwoordelijk
verantwoordelijke
verantwoordelijkheden
verantwoordelijkheid
verantwoording
verbaal
verbaasd
verband
verbanden
verbandsgemeinde
verbannen
verbanning
verbastering
verbazing
verbeek
verbeelding
verbergen
verbeterd
verbeterde
verbeteren
verbetering
verbeteringen
verbieden
verbiedt
verbinden
verbinding
verbindingen
verbindingsweg
verbindt
verbintenis
verbleef
verbleven
verblijf
verblijfplaats
verblijft
verblijven
verbod
verboden
verbogen
verbond
verbonden
verbood
verborgen
verbouwd
verbouwde
verbouwen
verbouwing
verbouwingen
verbrak
verbrand
verbranden
verbranding
verbreding
verbreed
verbreken
verbroken
verbruik
verbuiging
verdacht
verdachte
verdachten
verde
verdedigd
verdedigde
verdedigen
verdedigende
verdediger
verdedigers
verdediging
verdedigingswerken
verdedigt
verdeeld
verdeelde
verdeeldheid
verdeelt
verdelen
verdeling
verdenking
verder
verdere
verderop
verdi
verdiend
verdiende
verdienen
verdienste
verdienstelijk
verdiensten
verdient
verdieping
verdiepingen
verdrag
verdragen
verdreven
verdriet
verdrijven
verdrinken
verdrongen
verdronken
verdubbeld
verdun
verduren
verdween
verdwenen
verdwijnen
verdwijning
verdwijnt
vereenigde
vereeniging
vereenvoudigd
vereerd
vereist
vereiste
vereisten
veren
verenigd
verenigde
verenigen
vereniging
verenigingen
verenkleed
verering
verf
verfilmd
verfilming
vergaan
vergadering
vergaderingen
vergeefs
vergeet
vergeleek
vergeleken
vergelijk
vergelijkbaar
vergelijkbare
vergelijken
vergelijkende
vergelijking
vergelijkingen
vergemakkelijken
vergetelheid
vergeten
vergeven
vergezeld
vergezelde
vergiftigd
vergissing
vergoeding
vergroeid
vergroot
vergrote
vergroten
vergrotende
vergroting
vergt
verguld
vergulde
vergunning
verhaal
verhaallijn
verhaalt
verhalen
verhalenbundel
verhandeld
verhandeling
verhandelingen
verharde
verheffing
verheven
verheyen
verhinderd
verhinderen
verhit
verhoeff
verhoeven
verhogen
verhoging
verhoogd
verhoogde
verhoogt
verhoor
verhouding
verhoudingen
verhuisd
verhuisde
verhuisden
verhuist
verhuizen
verhuizing
verhulst
verhuurd
verhuurde
verjaagd
verjaardag
verjagen
verkaste
verkeer
verkeerd
verkeerde
verkeersweg
verkeert
verkennen
verkenning
verkiesbaar
verkiezen
verkiezing
verkiezingen
verklaard
verklaarde
verklaarden
verklaart
verklaren
verklaring
verklaringen
verkleind
verkleinen
verkleinwoord
verkocht
verkochte
verkochten
verkoop
verkoopt
verkoos
verkopen
verkoper
verkort
verkorte
verkorting
verkozen
verkozenen
verkracht
verkrachting
verkreeg
verkregen
verkrijgbaar
verkrijgen
verkrijgt
verlaagd
verlaagde
verlaat
verlag
verlagen
verlaging
verlamd
verlangen
verlaten
verleden
verleend
verleende
verleent
verlegd
verlegen
verleiden
verlenen
verlengd
verlengde
verlengen
verlenging
verlengingen
verlicht
verlichte
verlichten
verlichting
verliefd
verliep
verlies
verliest
verliet
verlieten
verliezen
verliezend
verliezer
verliezers
verlof
verloofd
verloofde
verloop
verloopt
verloor
verlopen
verloren
verlossing
verloting
verloving
verluidt
vermaak
vermeden
vermeende
vermeer
vermeersch
vermeld
vermeldde
vermelde
vermelden
vermelding
vermeldingen
vermeldt
vermengd
vermenigvuldigen
vermenigvuldiging
vermeulen
vermijden
verminderd
verminderde
verminderen
vermindering
vermindert
vermist
vermoed
vermoedde
vermoedelijk
vermoedelijke
vermoeden
vermoedt
vermogen
vermogens
vermont
vermoord
vermoordde
vermoorde
vermoorden
vermoordt
vernam
vernield
vernietigd
vernietigde
vernietigen
vernietiging
vernieuwd
vernieuwde
vernieuwing
vernieuwingen
vernoemd
vernoemde
vernomen
vernon
verona
verondersteld
veronderstelde
veronderstellen
veronderstelling
veronderstelt
verongelukte
veronica
veronique
verontwaardiging
veroordeeld
veroordeelde
veroordeelden
veroordeling
veroorloven
veroorzaakt
veroorzaakte
veroorzaken
verordening
verouderd
verouderde
veroverd
veroverde
veroverden
veroveren
verovering
veroveringen
verovert
verpakking
verplaatsen
verplaatsing
verplaatst
verplaatste
verpleegkundige
verpleegster
verplicht
verplichte
verplichting
verplichtingen
verraad
verraden
verrader
verrassend
verrassende
verrassing
verrast
verre
verreden
verrees
verreweg
verrezen
verricht
verrichten
verrichtte
verrill
verruilde
vers
versailles
verschaffen
verschaft
verscheen
verscheidene
verscheidenheid
verschenen
verschijnen
verschijning
verschijnsel
verschijnselen
verschijnt
verschil
verschilde
verschillen
verschillend
verschillende
verschilt
verschoof
verschoven
verschrikkelijke
verschuilt
verschuiving
verschuldigd
verse
versie
versierd
versierde
versieren
versiering
versieringen
versierselen
versies
version
verslaafd
verslaan
verslaat
verslag
verslagen
verslaggever
verslaving
verslechterde
versleten
versloeg
versloegen
versneld
versnellen
versnelling
versnellingen
versnellingsbak
verspreid
verspreidde
verspreide
verspreiden
verspreiding
verspreidingsgebied
verspreidt
verspringen
verstaan
verstaat
verstand
verstandig
verstappen
verstek
versterken
versterking
versterkingen
versterkt
versterkte
verstoord
verstopt
verstoren
verstoring
verstrekken
verstrekt
versturen
verstuurd
versus
vert
vertaald
vertaalde
vertakte
vertalen
vertaler
vertaling
vertalingen
verte
vertegenwoordigd
vertegenwoordigde
vertegenwoordigden
vertegenwoordigen
vertegenwoordiger
vertegenwoordigers
vertegenwoordiging
vertegenwoordigt
verteld
vertelde
vertellen
verteller
vertellingen
vertelt
verticaal
verticale
vertolken
vertolking
vertolkt
vertolkte
vertonen
vertoond
vertoonde
vertoont
vertraagd
vertraging
vertrek
vertrekken
vertrekt
vertrok
vertrokken
vertrouwd
vertrouwde
vertrouwen
veruit
vervaardigd
vervaardigde
vervaardigen
vervaardiging
verval
vervallen
vervalt
vervangen
vervangende
vervanger
vervanging
vervangt
verve
verviel
verviers
verving
vervoeging
vervoer
vervoerd
vervoerde
vervoeren
vervolg
vervolgd
vervolgde
vervolgen
vervolgens
vervolging
vervolgt
vervorming
vervroegd
vervroegde
vervuiling
vervuld
vervulde
vervullen
vervulling
vervult
verwaarloosd
verwacht
verwachte
verwachten
verwachting
verwachtingen
verwachtte
verwaltungsgemeinschaft
verwant
verwante
verwanten
verwantschap
verward
verwarming
verwarren
verwarring
verwees
verwerken
verwerking
verwerkt
verwerkte
verwerven
verweten
verwezen
verwezenlijken
verwierf
verwierp
verwijderd
verwijderde
verwijderen
verwijdering
verwijst
verwijt
verwijzen
verwijzend
verwijzing
verwijzingen
verwikkeld
verwoest
verwoeste
verwoesting
verwoestte
verwondingen
verworpen
verworven
very
verzamelaar
verzamelaars
verzamelalbum
verzameld
verzamelde
verzamelden
verzamelen
verzameling
verzamelingen
verzamelnaam
verzamelt
verzekeraar
verzekerd
verzekerde
verzekeren
verzekering
verzekeringen
verzen
verzet
verzetsgroep
verzetsstrijder
verzette
verzetten
verzocht
verzoek
verzoeken
verzoening
verzonden
verzonnen
verzorgd
verzorgde
verzorgen
verzorging
verzorgingsplaats
verzorgt
verzwakt
verzwakte
ves
vest
vester
vestigde
vestigden
vestigen
vestiging
vestigingen
vestigt
vesting
vestingen
vestingwerken
vet
veteranen
vetgedrukt
vettel
vetten
veurne
vezels
vf
vfb
vfl
vg
vgl
vh
vi
via
viaduct
vianen
viborg
vibrafoon
vic
vicaris
vice
viceadmiraal
vicekampioen
vicente
vicepremier
vicepresident
vicevoorzitter
vichy
vickers
vicky
victor
victoria
victory
vid
vida
vidal
video
videoclip
videoclips
videospel
vie
viel
vielen
vienna
vienne
vier
viercilinder
vierdaagse
vierde
vieren
vierentwintig
vierhonderd
viering
vierkant
vierkante
viermaal
viert
viertal
vietnam
vietnamees
vietnamese
vietnamoorlog
viette
vieux
view
vii
viii
vijand
vijandelijke
vijandelijkheden
vijanden
vijandig
vijandige
vijf
vijfde
vijfentwintig
vijfhonderd
vijfjarige
vijfje
vijfkamp
vijfmaal
vijftal
vijftien
vijftiende
vijftienjarige
vijftig
vijver
vijvers
viking
vikingen
viktor
viktoria
vila
villa
village
villanueva
ville
villeneuve
villers
villiers
vilnius
vilvoorde
vin
vince
vincent
vincenzo
vinci
vind
vinden
vindplaats
vindplaatsen
vindt
ving
vinger
vingers
vingt
vinh
vink
vinyl
viola
violen
violet
violist
viool
vioolconcert
virgin
virginia
viridis
virtual
virtuele
virus
virussen
vis
visconti
visie
visioen
vision
visscher
vissen
vissensoort
visser
visserij
vissers
visstaartjes
vista
visual
visueel
visuele
visum
vita
vitale
vitamine
vitesse
vito
vitoria
vittorio
viva
vives
vivian
vizier
vj
vk
vl
vlaams
vlaamsche
vlaamse
vlaanderen
vlaardingen
vladimir
vlag
vlaggen
vlaggenschip
vlak
vlakbij
vlakke
vlakken
vlakte
vlam
vlamingen
vlammen
vlas
vld
vledder
vleermuis
vleermuizen
vlees
vlek
vlekjes
vlekken
vleugel
vleugels
vleuten
vlieg
vliegbasis
vliegdekschip
vliegen
vliegend
vliegende
vliegengeslacht
vliegensoort
vlieger
vliegt
vliegtuig
vliegtuigen
vliegveld
vliegvelden
vlieland
vlies
vliesvleugelig
vliesvleugeligen
vliet
vlinder
vlinders
vlinderslag
vlindersoort
vlissingen
vloed
vloeibaar
vloeibare
vloeien
vloeiend
vloeistof
vloeistoffen
vloeit
vloek
vloer
vloeren
vlogen
vlokreeftensoort
vloog
vloot
vlot
vlucht
vluchtelingen
vluchten
vluchtte
vluchtten
vlug
vm
vmbo
vn
vnv
vo
voc
vocal
vocale
vocalist
vocals
vocht
vochten
vochtig
vochtige
voeden
voeding
voedingsmiddelen
voedingsstoffen
voedsel
voedselrijke
voedt
voeg
voegde
voegden
voegen
voegt
voel
voelde
voelden
voelen
voelt
voer
voerde
voerden
voeren
voert
voertuig
voertuigen
voet
voetbal
voetbalbeker
voetbalbond
voetbalcarriere
voetbalclub
voetbalclubs
voetbalcoach
voetbalcompetitie
voetbalde
voetbalelftal
voetbalgrafiek
voetbalinterlands
voetbalkampioenschap
voetballen
voetballer
voetballers
voetbalscheidsrechter
voetbalstadion
voetbalster
voetbaltoernooi
voetbaltrainer
voetbalvereniging
voetbalwedstrijden
voeten
voetgangers
voetsporen
vogel
vogels
vogelsoort
vogelsoorten
vogelspinnen
voice
voices
voigt
vol
volbracht
voldaan
voldeed
voldemort
voldoen
voldoende
voldoet
volendam
volg
volgde
volgden
volgelingen
volgen
volgend
volgende
volgens
volgorde
volgt
volk
volken
volkenbond
volker
volkeren
volkomen
volks
volksgezondheid
volkshuisvesting
volkskerk
volkskrant
volkslied
volksmond
volksmuziek
volkspartij
volksrepubliek
volkstelling
volkstellingen
volksunie
volksvertegenwoordiger
volksvertegenwoordigers
volkswagen
volle
volledig
volledige
volleybal
volmaakt
volop
vols
volstrekt
volt
volta
voltaire
voltooid
voltooide
voltooien
voltooiing
voltrokken
voluit
volume
volumes
volvo
volwaardig
volwaardige
volwassen
volwassene
volwassenen
vom
von
vond
vondel
vonden
vondst
vondsten
vonk
vonnis
voogd
voogdij
voor
vooraan
vooraanstaand
vooraanstaande
vooraf
voorafgaand
voorafgaande
voorafgegaan
vooral
vooraleer
vooralsnog
vooravond
voorbeeld
voorbeelden
voorbehouden
voorbereid
voorbereiden
voorbereiding
voorbereidingen
voorbij
voorbije
voorburg
voordat
voordeel
voordele
voordelen
voordien
voordoen
voordoet
voordracht
voordrachten
voorgaande
voorganger
voorgangers
voorgedragen
voorgelegd
voorgenomen
voorgeschreven
voorgesteld
voorgestelde
voorgevel
voorgoed
voorgrond
voorhanden
voorheen
voorhoofd
voorjaar
voorkant
voorkeur
voorkeurstemmen
voorkomen
voorkomend
voorkomende
voorkomt
voorkwam
voorkwamen
voorlaatste
voorlichting
voorliefde
voorloper
voorlopers
voorlopig
voorlopige
voormalig
voormalige
voorman
voornaam
voornaamste
voornaamwoord
voorname
voornamelijk
voornemen
vooroorlogse
voorop
voorouder
voorouders
voorpoten
voorprogramma
voorraad
voorraden
voorrand
voorrang
voorronde
voorrondes
voors
voorschoten
voorschriften
voorspeld
voorspelde
voorspellen
voorspelling
voorspellingen
voorspraak
voorsprong
voorst
voorstad
voorstander
voorstanders
voorste
voorsteden
voorstel
voorstelde
voorstellen
voorstelling
voorstellingen
voorstelt
voort
voortaan
voortbestaan
voortbewegen
voortdurend
voortdurende
voortgang
voortgebracht
voortgekomen
voortgezet
voortijdig
voortplanting
voorts
voortzetten
voortzetting
vooruit
vooruitgang
vooruitzicht
voorval
voorvleugels
voorvoegsel
voorwaarde
voorwaardelijke
voorwaarden
voorwaarts
voorwerp
voorwerpen
voorwoord
voorzag
voorzichtig
voorzien
voorziene
voorziening
voorzieningen
voorziet
voorzijde
voorzitster
voorzitter
voorzitters
voorzitterschap
vor
vorarlberg
vordering
vorderingen
voren
vorig
vorige
vork
vorm
vormde
vormden
vormen
vormgegeven
vormgeving
vormig
vormige
vorming
vormt
vorst
vorstelijke
vorsten
vorstendom
vorstin
vos
vosges
voss
vossen
vous
voyage
voyager
vp
vpro
vq
vr
vraag
vraagstuk
vraagstukken
vraagt
vracht
vrachtauto
vrachtschip
vrachtwagen
vrachtwagens
vragen
vrede
vredesmacht
vredesverdrag
vreedzame
vreemd
vreemde
vreemdeling
vreemdelingen
vrees
vreesde
vreest
vreugde
vrezen
vriend
vriendelijk
vriendelijke
vrienden
vriendin
vriendinnen
vriendje
vriendschap
vriendschappelijk
vriendschappelijke
vries
vrij
vrijdag
vrije
vrijgegeven
vrijgekomen
vrijgelaten
vrijgemaakt
vrijgesproken
vrijgesteld
vrijgezel
vrijheden
vrijheid
vrijkomen
vrijkomt
vrijlating
vrijmetselarij
vrijstaande
vrijstaat
vrijstelling
vrijwel
vrijwillig
vrijwillige
vrijwilliger
vrijwilligers
vrijzinnig
vroeg
vroege
vroegen
vroeger
vroegere
vroegste
vroegtijdig
vrolijk
vrolijke
vrome
vroom
vrouw
vrouwe
vrouwekerk
vrouwelijk
vrouwelijke
vrouwen
vrouwenelftal
vrouwenkoor
vrouwenvoetbalelftal
vrouwtje
vrouwtjes
vrt
vrucht
vruchtbaar
vruchtbaarheid
vruchtbare
vruchten
vs
vt
vtm
vu
vuelta
vught
vuil
vuile
vuist
vulde
vulgaris
vulkaan
vulkanen
vulkanische
vullen
vult
vuren
vuur
vuurtoren
vuurwerk
vv
vvd
vvv
vw
vwo
vx
vy
vz
vzw
w
w0
w1
w2
w3
w4
w5
w6
w7
w8
w9
wa
waag
waagde
waal
waals
waalse
waalwijk
waanders
waar
waaraan
waarbij
waarbinnen
waarborgen
waard
waarde
waarden
waarderen
waardering
waardevol
waardevolle
waardig
waardigheid
waardoor
waardplant
waardplanten
waargenomen
waarheid
waarin
waarlangs
waarlijk
waarmede
waarmee
waarna
waarnaar
waarneembaar
waarnemen
waarnemend
waarnemer
waarnemers
waarneming
waarnemingen
waarom
waaronder
waarop
waarover
waarschijnlijk
waarschijnlijke
waarschijnlijkheid
waarschuwde
waarschuwen
waarschuwing
waarschuwt
waartegen
waartoe
waaruit
waarvan
waarvoor
waas
waasland
wacht
wachten
wachter
wachtte
wachtwoord
wacker
waddenzee
wade
waer
waffen
wagen
wagenaar
wageningen
wagens
wagner
wagon
wagons
waiting
wake
wakker
wal
walcheren
wald
waldeck
waldemar
wales
walibi
walk
walker
walking
wall
wallace
walle
wallen
wallis
wallonie
wally
wals
walsh
walsingham
walt
walter
walther
walton
waltz
walvis
walvissen
wan
wand
wanda
wandel
wandelaars
wandelen
wandeling
wandelingen
wandelpad
wandelroute
wanden
wanderers
wang
wangen
wanhoop
wanna
wanneer
want
wanted
wantrouwen
wants
wantsen
wapen
wapens
wapenschild
wapenstilstand
war
ward
ware
waregem
waren
warenhuis
warm
warme
warmer
warmte
warner
warren
warrior
warriors
wars
warschau
warwick
was
washington
wassen
wassenaar
wat
watch
water
wateren
watergraafsmeer
waterhouse
waterjuffers
waterkrachtcentrale
waterland
waterloo
waterloop
waterlopen
waterman
watermolen
wateroppervlak
waterpolo
waterroofkevers
waters
waterschap
waterschappen
watersportvereniging
waterstaat
waterstand
waterstof
watertoren
waterval
watervallen
waterweg
watson
watt
wattenwyl
watts
wauters
wave
waver
waves
way
wayne
wb
wc
wcw
wd
we
weaver
web
webb
webber
weber
weblink
webpagina
website
websites
webster
wed
wedding
weder
wederkerend
wederom
wederopbouw
wederzijds
wederzijdse
wednesday
wedstrijd
wedstrijden
wedstrijdgegevens
weduwe
weduwnaar
wee
weefsel
weefsels
weegt
week
weekblad
weekdieren
weekend
weekly
weelde
weense
weer
weergave
weergeeft
weergegeven
weergeven
weersomstandigheden
weerstaan
weerstand
weerszijden
weert
wees
weeshuis
weesp
weet
weg
wegdek
wegen
wegens
weggehaald
weggelaten
weggelegd
wegrace
wegvallen
wegwedstrijd
wehrmacht
wei
weide
weiden
weigerde
weigerden
weigeren
weigering
weigert
weiland
weilanden
weilburg
weimar
weinig
weinige
weinigen
weise
weiss
weiß
wekelijks
wekelijkse
weken
wekken
wekt
wekte
wel
welcke
welcome
weldra
weleens
welgestelde
weliswaar
welk
welke
welken
welkom
well
wellens
wellicht
wellington
wells
welsh
welshe
welt
welvaart
welvarende
welzijn
wembley
wen
wenceslaus
wendde
wenden
wending
wendy
wenen
wenn
wens
wenselijk
wensen
wenst
wenste
wer
werd
werden
werder
were
wereld
wereldatletiekfinale
wereldbeeld
wereldbeker
wereldbekerdebuut
wereldbekerwedstrijd
werelden
werelderfgoed
werelderfgoedlijst
wereldgroep
wereldkampioen
wereldkampioene
wereldkampioenschap
wereldkampioenschappen
wereldlijke
wereldoorlog
wereldoorlogen
wereldranglijst
wereldrecord
werelds
wereldtentoonstelling
wereldtitel
wereldwijd
wereldwijde
weren
werf
werk
werkdag
werkdagen
werkelijk
werkelijke
werkelijkheid
werken
werkend
werkende
werkgelegenheid
werkgever
werkgevers
werkgroep
werking
werkloosheid
werknemer
werknemers
werkplaats
werkplaatsen
werkt
werkte
werkten
werktuig
werktuigen
werkwijze
werkwoord
werkwoorden
werkwoordsvorm
werkzaam
werkzaamheden
werkzame
werner
werpen
werpt
wervel
wervelkolom
wervels
werven
wes
wesen
wesley
wespvlinders
wessel
wessex
west
westelijk
westelijke
westen
westerbork
westerlo
western
westers
westerschelde
westerse
westfalen
westkant
westkust
westland
westminster
weston
westwaarts
westwood
westzijde
wet
wetboek
weten
wetenschap
wetenschappelijk
wetenschappelijke
wetenschappen
wetenschapper
wetenschappers
wetering
wetgevende
wetgeving
wethouder
wethouders
wetsvoorstel
wettelijk
wettelijke
wetten
wettige
wevelgem
wever
wezen
wezenlijk
wezens
wezer
wf
wg
wh
what
wheel
wheeler
when
where
which
while
whisky
white
whitney
who
whole
why
wi
wide
wie
wiebes
wiedemann
wieg
wieken
wiel
wielen
wielerploeg
wielerploegen
wielersport
wielerwedstrijd
wielrennen
wielrenner
wielrenster
wielwebspinnen
wien
wiener
wiens
wier
wierd
wierde
wierden
wierp
wies
wiesbaden
wife
wiggins
wii
wij
wijd
wijdde
wijde
wijden
wijding
wijfje
wijk
wijkcode
wijken
wijkt
wijlen
wijn
wijnbouw
wijnen
wijngaard
wijngaarden
wijs
wijsbegeerte
wijsheid
wijst
wijten
wijze
wijzen
wijzigde
wijzigen
wijziging
wijzigingen
wiki
wikibooks
wikidata
wikimedia
wikinieuws
wikipedia
wikiquote
wikis
wikisource
wikispecies
wikiwoordenboek
wil
wilcox
wild
wildcard
wilde
wilden
wilder
wildernis
wilders
wileman
wiley
wilfried
wilhelm
wilhelmina
wilhelmus
wilkinson
will
wille
willekeurig
willekeurige
willem
willems
willemse
willemstad
willen
willi
william
williams
williamson
willie
willink
willis
willy
wilrijk
wils
wilson
wilt
wilton
wiltshire
wim
wimbledon
win
winchester
wind
winden
windmolen
windmolens
window
windows
windsnelheden
windsor
wine
wing
wings
winkel
winkelcentrum
winkels
winkler
winnaar
winnaars
winnares
winnen
winnende
winner
winning
winschoten
winst
winston
wint
winter
winterborne
winterbourne
winters
winterspelen
winterstop
winterswijk
wir
wirth
wis
wisconsin
wise
wish
wiske
wiskunde
wiskundig
wiskundige
wissel
wisselde
wisselen
wisselend
wisselende
wisselslag
wisselt
wissen
wist
wisten
wit
witch
with
within
without
witjes
witt
witte
wittem
witten
wittenberg
wittgenstein
wittmer
wizard
wj
wk
wl
wladislaus
wm
wmf
wmnl
wn
wo
woedde
woede
woedend
woensdag
woerden
woeste
woestijn
woiwodschap
wol
wolf
wolfenbuttel
wolff
wolfgang
wolfsburg
wolfspinnen
wolga
wolk
wolken
wolkenkrabber
wollaston
wolter
wolters
woluwe
wolven
wolverhampton
wolzwevers
woman
women
won
wond
wonden
wonder
wonderen
wonderful
wonderland
wonen
wonende
wong
woning
woningbouw
woningen
wonnen
wood
woodland
woods
woody
woog
woon
woonachtig
woonde
woonden
woongebied
woonhuis
woonhuizen
woonplaats
woont
woonwijk
woonwijken
woord
woorden
woordenboek
woordenlijst
woordenschat
woordvoerder
wootton
word
worden
wordende
words
wordt
work
working
works
workshop
workshops
world
worlds
worm
wormen
worms
worp
worst
worstelaar
worstelaars
worstelen
wortel
wortels
worth
wou
woud
wouden
would
wout
wouter
wouters
wouw
wp
wq
wr
wraak
wrak
wrede
wreed
wreken
wrestlemania
wrestling
wright
wrijving
write
writers
wrocław
wrong
ws
wsop
wt
wta
wu
wunderlich
wurttemberg
wurzburg
wv
ww
wwe
wwf
www
wx
wy
wyatt
wyoming
wz
x
x0
x1
x2
x3
x4
x5
x6
x7
x8
x9
xa
xavier
xb
xbox
xc
xd
xe
xf
xg
xh
xi
xii
xiii
xiv
xj
xk
xl
xm
xml
xn
xo
xp
xq
xr
xs
xt
xu
xv
xvi
xvii
xviii
xw
xx
xxiii
xy
xysticus
xz
y
y0
y1
y2
y3
y4
y5
y6
y7
y8
y9
ya
yale
yamaha
yan
yang
yannick
yard
yates
yb
yc
yd
ye
year
years
yellow
yen
yes
yf
yg
yh
yi
yin
yj
yk
yl
ym
yn
yo
yoga
yokohama
yonne
york
yorkse
yorkshire
you
young
your
yourself
youth
youtube
yp
yq
yr
ys
yt
yu
yuan
yuri
yv
yves
yvette
yvonne
yw
yx
yy
yz
z
z0
z1
z2
z3
z4
z5
z6
z7
z8
z9
za
zaad
zaag
zaak
zaal
zaalkerk
zaandam
zacht
zachte
zadel
zadeldak
zaden
zag
zagen
zagreb
zaire
zak
zake
zakelijk
zakelijke
zaken
zakenman
zakjesdragers
zakken
zakpijpensoort
zakt
zakte
zal
zalen
zalig
zalm
zaltbommel
zambia
zand
zandgronden
zandsteen
zandvoort
zang
zanger
zangeres
zangeressen
zangers
zangstem
zangvogel
zangvogels
zaragoza
zat
zaten
zaterdag
zb
zc
zd
ze
zealand
zebra
zeden
zee
zeeanemonensoort
zeebodem
zeebrugge
zeedijk
zeeen
zeegebied
zeekomkommer
zeekommasoort
zeeland
zeelands
zeelandse
zeeman
zeeniveau
zeep
zeer
zeeslag
zeespiegel
zeespin
zeester
zeestraat
zeeuws
zeeuwse
zeewater
zeg
zegde
zege
zegel
zegels
zegen
zeges
zeggen
zeggenschap
zegt
zei
zeide
zeiden
zeil
zeilen
zeiler
zeist
zeit
zeitung
zeker
zekere
zekerheid
zelden
zeldzaam
zeldzame
zelf
zelfbestuur
zelfde
zelfmoord
zelfportret
zelfs
zelfstandig
zelfstandige
zelfstandigheid
zelfstandignaamwoordsvorm
zeller
zelotes
zelve
zelven
zen
zend
zenden
zender
zenders
zending
zendt
zenuwen
zenuwstelsel
zeppelin
zer
zero
zes
zesdaagse
zesde
zeshonderd
zesjarige
zestien
zestiende
zestienjarige
zestig
zet
zeta
zetel
zetelde
zetelen
zetels
zetelt
zette
zetten
zetterstedt
zeus
zeven
zevenaar
zevende
zevenendertig
zevenjarige
zeventien
zeventiende
zeventienjarige
zeventig
zf
zg
zgn
zh
zhang
zhao
zheng
zhou
zhu
zi
zich
zicht
zichtbaar
zichtbare
zichzelf
zie
ziek
ziekbed
zieke
zieken
ziekenhuis
ziekenhuizen
ziekte
ziekten
ziektes
ziel
zielen
zien
zierikzee
ziet
zig
zij
zijaanzicht
zijbeuken
zijde
zijdelings
zijden
zijkant
zijkanten
zijlstra
zijn
zijnde
zijne
zijnen
zijner
zijrivier
zijrivieren
zijt
zijtak
zijwaarts
zilver
zilveren
zimbabwe
zimmer
zimmermann
zin
zingen
zingende
zingt
zink
zinken
zinnen
zintuigen
zit
zitbeen
zitplaatsen
zitten
zittend
zittende
zitting
zj
zk
zl
zm
zn
zo
zoals
zocht
zochten
zodanig
zodanige
zodariidae
zodat
zodoende
zodra
zoe
zoek
zoeken
zoekt
zoektocht
zoet
zoete
zoetermeer
zogeheten
zogenaamd
zogenaamde
zogenoemde
zoiets
zojuist
zolang
zolder
zomaar
zombie
zombies
zomer
zomermaanden
zomers
zomerspelen
zon
zond
zondag
zonde
zonden
zonder
zone
zonen
zones
zong
zongen
zonk
zonlicht
zonne
zonnepanelen
zonnestelsel
zonnige
zonsondergang
zoo
zooals
zoodat
zoodra
zoogdier
zoogdieren
zooloog
zoom
zoon
zoons
zoontje
zooveel
zoowel
zopheridae
zorg
zorgde
zorgden
zorgen
zorgt
zorgvuldig
zottegem
zou
zoude
zouden
zoudt
zout
zoute
zouten
zoveel
zover
zowat
zowel
zozeer
zp
zq
zr
zs
zt
zu
zucht
zuid
zuidelijk
zuidelijke
zuidelijken
zuidelijker
zuidelijkste
zuiden
zuiderzee
zuidkant
zuidkust
zuidoost
zuidoostelijk
zuidoostelijke
zuidoosten
zuidpool
zuidwaarts
zuidwest
zuidwestelijk
zuidwestelijke
zuidwesten
zuidzijde
zuil
zuilen
zuiver
zuivere
zuiveren
zuivering
zulk
zulke
zulks
zullen
zult
zulte
zum
zur
zure
zuren
zurich
zus
zusje
zussen
zuster
zusters
zutphen
zuur
zuurstof
zuylen
zv
zw
zwaan
zwaar
zwaard
zwaarden
[...]
