!
"
#
##0
##1
##10
##11
##12
##13
##14
##15
##16
##17
##18
##19
##2
##20
##21
##22
##23
##24
##25
##26
##27
##28
##29
##3
##30
##31
##32
##33
##34
##35
##36
##37
##38
##39
##4
##40
##41
##42
##43
##44
##45
##46
##47
##48
##49
##5
##50
##51
##52
##53
##54
##55
##56
##57
##58
##59
##6
##60
##61
##62
##63
##64
##65
##66
##67
##68
##69
##7
##70
##71
##72
##73
##74
##75
##76
##77
##78
##79
##8
##80
##81
##82
##83
##84
##85
##86
##87
##88
##89
##9
##90
##91
##92
##93
##94
##95
##96
##97
##98
##99
$
%
&
'
(
)
*
+
,
-
.
/
0
00
000
001
002
003
004
005
006
007
008
009
00960
01
010
011
012
013
014
015
016
017
018
019
02
020
021
022
023
024
025
026
027
028
029
03
030
031
032
033
034
035
036
037
038
039
04
040
041
042
043
044
045
046
047
048
049
05
050
051
052
053
054
055
056
057
058
059
06
060
061
062
063
064
065
066
068
069
07
070
071
072
073
074
075
076
078
079
08
080
081
082
083
084
085
086
087
09
090
095
1
10
100
1000
10000
101
1012
1016
102
1024
103
1038
104
1040
105
1050
106
107
1072
1077
108
1080
109
11
110
1100
111
112
113
114
115
1150
116
1160
117
1170
118
1180
119
12
120
1200
1207
121
122
123
124
1240
125
1250
126
1260
127
128
129
13
130
1300
131
132
1325
133
134
135
1350
136
1368
137
1370
138
1380
139
14
140
1400
141
142
143
144
145
1450
146
147
148
1480
149
1492
15
150
1500
1504
151
1510
1514
152
1520
1526
153
1533
154
1540
155
1550
1555
1556
156
157
158
159
1592
1598
16
160
1600
1605
1606
161
1610
1613
1618
162
1620
1628
1629
163
1630
1631
1635
1636
164
1640
1641
1642
1643
1644
1648
165
1650
1652
166
1660
167
1670
168
1680
1682
1687
169
1690
1694
17
170
1700
1701
1703
1707
1709
171
1710
1711
1714
1718
172
1720
1721
1722
1725
1727
1729
173
1730
1732
1733
1736
1739
174
1740
1741
1742
1743
1744
1745
1747
1748
1749
175
1750
1753
1755
1756
1757
1758
1759
176
1760
1761
1762
1763
1765
1766
1768
1769
177
1770
1771
1772
1773
1774
1775
1776
1777
1778
1779
178
1780
1781
1782
1783
1784
1785
1786
1787
1788
1789
179
1790
1791
1792
1793
1794
1795
1796
1797
1798
1799
18
180
1800
1801
1802
1803
1804
1805
1806
1807
1808
1809
181
1810
1811
1812
1813
1814
1815
1816
1817
1818
1819
182
1820
1821
1822
1823
1824
1825
1826
1827
1828
1829
183
1830
1831
1832
1833
1834
1835
1836
1837
1838
1839
184
1840
1841
1842
1843
1844
1845
1846
1847
1848
1849
185
1850
1851
1852
1853
1854
1855
1856
1857
1858
1859
186
1860
1861
1862
1863
1864
1865
1866
1867
1868
1869
187
1870
1871
1872
1873
1874
1875
1876
1877
1878
1879
188
1880
1881
1882
1883
1884
1885
1886
1887
1888
1889
189
1890
1891
1892
1893
1894
1895
1896
1897
1898
1899
19
190
1900
1901
1902
1903
1904
1905
1906
1907
1908
1909
191
1910
1911
1912
1913
1914
1915
1916
1917
1918
1919
192
1920
1921
1922
1923
1924
1925
1926
1927
1928
1929
193
1930
1931
1932
1933
1934
1935
1936
1937
1938
1939
194
1940
1941
1942
1943
1944
1945
1946
1947
1948
1949
195
1950
1951
1952
1953
1954
1955
1956
1957
1958
1959
196
1960
1961
1962
1963
1964
1965
1966
1967
1968
1969
197
1970
1971
1972
1973
1974
1975
1976
1977
1978
1979
198
1980
1981
1982
1983
1984
1985
1986
1987
1988
1989
199
1990
1991
1992
1993
1994
1995
1996
1997
1998
1999
2
20
200
2000
2001
2002
2003
2004
2005
2006
2007
2008
2009
201
2010
2011
2012
2013
2014
2015
2016
2017
2018
2019
202
2020
2021
2022
2023
2024
203
204
205
206
207
208
209
21
210
2100
211
212
213
214
215
216
217
218
219
22
220
2200
221
222
223
224
225
226
227
228
229
23
230
2300
231
232
233
234
235
236
237
238
239
24
240
2400
241
242
243
244
245
246
247
248
249
25
250
2500
251
252
253
254
2542
255
256
257
258
259
26
260
2600
261
262
263
264
265
266
267
2677
268
269
27
270
2700
271
272
273
274
275
276
277
278
279
28
280
2800
281
282
283
284
285
286
287
288
289
29
290
2900
291
292
293
294
295
296
297
298
299
3
30
300
3000
301
302
303
304
305
306
307
308
309
31
310
3100
311
312
313
314
315
316
317
318
319
32
320
3200
321
322
323
324
325
326
327
328
329
33
330
3300
331
332
333
334
335
336
337
338
339
34
340
3400
341
342
343
344
345
346
347
348
349
35
350
3500
351
352
353
354
355
356
357
358
359
36
360
3600
361
362
363
364
365
366
367
368
369
37
370
3700
371
372
373
374
375
376
377
378
379
38
380
3800
381
382
383
384
385
386
387
388
389
39
390
3900
391
392
393
394
395
396
398
399
4
40
400
4000
401
403
404
405
406
407
408
409
41
410
4100
411
412
413
414
415
416
417
418
419
42
420
4200
421
422
423
424
425
426
427
428
429
43
430
4300
431
432
434
435
437
438
439
44
440
4400
441
442
443
444
445
446
447
448
449
45
450
4500
451
452
453
454
455
456
457
458
459
46
460
4600
461
464
465
466
467
469
47
470
472
473
474
475
476
478
479
48
480
4800
481
482
484
485
486
487
488
49
490
492
493
494
495
496
499
5
50
500
5000
501
502
504
505
507
508
51
510
512
514
515
518
519
52
520
521
522
524
525
528
53
530
533
534
535
536
537
539
54
540
541
543
544
545
546
547
548
55
550
552
553
555
556
558
559
56
560
561
562
563
564
565
567
568
57
570
571
572
574
575
576
577
579
58
580
581
585
587
588
589
59
590
592
6
60
600
6000
601
603
605
608
61
610
615
616
618
62
620
621
622
623
625
627
63
630
632
633
634
635
639
64
640
644
646
648
65
650
655
65500669
656
658
66
660
661
664
668
67
670
672
673
675
68
680
688
69
693
7
70
700
7000
703
704
705
706
707
709
71
710
711
712
713
715
716
72
720
727
728
73
730
737
74
740
744
745
747
75
750
751
754
76
760
766
77
770
771
78
780
784
785
79
790
792
8
80
800
8000
808
81
810
816
82
820
822
828
83
830
832
84
840
843
847
85
850
851
86
860
866
87
870
873
88
880
89
89750
9
90
900
900162
907
91
92
920
921
925
93
930
94
940
942
95
950
955
96
960
963
964
97
970
978
98
980
982
99
9967
999
:
;
<
=
>
?
@
[
\
]
^
_
`
a
aa
ab
abc
about
ac
academic
academy
access
act
action
acw
ad
adidas
adobe
ae
af
africa
after
ag
against
age
agency
agym
ai
aid
aiesec
air
ak
akipress
al
album
ali
alibaba
all
also
altajsk
altaya
altmark
alto
alyga
am
amazon
america
american
amt
amtliche
amtsfreien
an
ana
analysis
ancient
and
andrew
android
anhalt
animation
anjing
ankara
anne
anniversary
anthony
ap
api
appear
apple
april
ar
aras
arch
archive
archived
are
arena
arheologicheskie
arheologicheskih
arheologii
arheologiya
army
art
arthur
article
articles
arts
artsandculture
arundel
as
asanov
asia
asian
asiatique
asie
asp
aspx
association
at
ata
attribute
au
august
author
auto
award
awards
ay
az
azattyk
azerbaijan
azii
b
ba
back
bad
baden
bafta
ball
baltimore
bambusa
band
bank
bar
barakelde
barcelona
barnaul
bas
base
basic
battle
bay
bayerisches
bb
bbc
bc
bd
be
beach
beautiful
before
bei
beijing
beirut
bell
ben
bent
berlin
best
between
bevo
bf
bi
bia
big
bigenc
billboard
bio
biography
bir
birth
bishkek
bitcoin
bizdin
black
blog
blood
blow
blu
blue
bluff
bmw
bo
board
body
boeing
book
books
borisenko
box
boy
boys
br
brandenburg
brian
brill
britannica
british
bros
brothers
brown
bu
budapest
bureau
business
but
by
c
ca
california
cambridge
camp
can
cape
capital
card
case
cass
cast
categoru
category
catid
cbd
cbs
cc
cd
ce
cedaw
census
center
central
centralnoj
centrasia
centre
century
cf
ch
change
channel
chanson
charles
chart
che
chi
chicago
children
china
chinese
cho
choice
chorotegin
christian
christmas
chrome
ci
cia
cilt
cinema
cite
city
ck
cl
classification
clay
club
cn
co
code
collection
college
columbia
com
comics
committee
common
community
company
computer
concours
conference
confirms
content
contest
cooh
corporation
cos
countries
country
court
covid
cr
creek
critics
cs
cu
cultural
culture
cup
cuyahoga
cz
d
da
daily
dan
daniel
dark
das
data
database
date
datei
datenverarbeitung
david
day
db
de
dead
death
december
default
defined
del
den
department
der
dergisi
derived
des
design
development
dez
dezember
di
dic
dictionary
did
die
different
digital
dil
dili
director
disney
displaystyle
dj
dlya
do
doc
documents
does
dog
doi
dokl
don
doom
dos
down
dr
dragon
dream
drevnih
ds
dt
dten
du
dvd
dx
e
ea
early
earth
east
economic
ed
edebiyatı
edit
edited
edition
eds
edu
education
edward
eg
eifel
ek
ekoloji
el
elebi
elib
elibrary
elizabeth
emmy
empire
en
enc
encyclopedia
encyclopædia
end
eng
english
entertainment
entity
ep
equality
er
erfu
error
es
esctoday
est
et
ethereum
ethno
ethnology
etnografii
etnolog
eu
eurasian
europe
european
eurovision
eurovoix
ev
evliya
ex
excel
express
f
fa
facebook
factbook
factfinder
fairfield
falco
fall
falls
family
fan
fat
fc
fe
february
female
feminist
festival
fi
fifa
file
files
film
films
final
financial
fips
fire
first
five
fla
fm
folyo
football
for
forbes
fortschreibung
forum
foundation
four
fox
fr
frac
franc
france
francis
franklin
frederick
free
french
friendship
from
fu
full
fund
future
g
ga
game
games
garden
gate
ge
gemeinden
gender
general
george
german
get
gi
girl
girls
global
gnu
go
god
gold
golden
good
google
gorno
gov
government
gpl
gps
grammar
grand
granger
grant
grapho
great
green
group
groups
grove
groß
gs
gu
guardian
guide
h
ha
hafta
hall
hambis
hamilton
harry
hartford
harvard
has
have
haven
hbo
hcl
he
health
heart
heights
hennepin
heritage
hero
hessischen
hg
hi
hier
high
higher
hill
hills
hiragana
his
historical
history
hl
hno
ho
hollywood
holmes
holstein
home
hot
house
housing
how
htm
html
http
https
hu
hudyakov
human
i
ibm
ic
id
if
ign
ii
iii
il
ile
im
image
imax
imdb
impact
imprime
in
inc
independent
index
india
info
information
instagram
institute
int
inte
international
internet
interview
into
introduction
invalid
ios
ip
ipa
iphone
ir
iran
iratcikk
iron
is
isbn
islam
islamic
island
iso
issn
issue
istanbul
istorii
istoriya
it
item
itemid
itim
its
iucn
iv
ivv
ix
iz
izuchenie
j
ja
jackson
james
janeiro
january
japan
java
javascript
jay
je
jean
jefferson
ji
jo
john
jones
joseph
journal
jpg
jr
ju
july
june
juniperus
k
ka
kabar
kak
kan
kapa
kara
karatayev
karl
kazakhstan
kb
ke
keep
kenesh
key
kg
khudiakov
ki
kill
king
kitepter
klein
kloop
km
kmb
knight
knowledge
ko
kommunikationstechnologie
konf
kr
kreisen
ktrk
ku
kultura
kultury
kun
kut
ky
kyrgyz
kyrgyzinfo
kyrgyzstan
kz
kırgız
kırgızistan
kəwŋ
kɛ
l
la
lady
lake
land
landesamt
landesbetrieb
landkreis
landkreisen
lang
language
languages
last
law
lawrence
le
league
least
lee
left
legend
les
let
lexus
lg
li
library
life
light
like
limon
lincoln
linder
line
link
linnaeus
linux
lis
list
litchfield
literatura
literature
lito
little
live
lkerung
lkerungsentwicklung
lkerungsfortschreibung
lkerungsstandes
lkerungszahlen
ll
llenden
lo
local
logos
london
long
lord
los
lost
louis
love
ltd
ltu
lu
luxoft
lyga
m
ma
mac
machine
made
madison
madrid
magazine
mai
mail
main
major
mak
maker
malmo
man
management
manas
manchester
manutd
map
march
marco
mark
market
marshall
martin
marvel
mary
materialy
mathit
max
maxprint
may
md
mdh
me
mecklenburg
media
medical
medicine
medieval
mega
megacom
men
metallica
metro
mg
mgo
mi
michael
microsoft
middle
mill
milli
million
minjust
mission
mit
mn
mo
mobile
mode
model
modern
mojo
money
montgomery
more
moscow
most
motion
motorola
mount
mountain
movie
mr
ms
mtern
mtv
mu
multiple
murray
museum
music
my
n
na
nach
nacl
name
named
nanori
naoh
narod
narodov
nasdaq
natco
nation
national
nations
nature
nauch
nb
nd
ne
near
net
network
new
news
newskg
newton
next
ng
nh
ni
niedersachsen
night
nih
nintendo
niversitesi
nlm
nm
no
nobel
nocache
node
nokia
nord
norfolk
north
not
notes
noun
november
novosibirsk
now
ns
nsf
nt
nu
number
numbers
nurzat
ny
nyası
nyos
nyvre
o
oakland
ocean
october
of
off
office
official
oh
old
olympics
omsk
on
one
online
only
oo
op
open
opera
option
or
oracle
order
org
organization
oriental
orientalia
original
os
osmanlı
ostariophysi
ot
other
ottoman
our
out
over
oxford
p
pa
pacific
page
pages
palo
par
paramount
paris
park
part
participation
party
pascal
past
paul
pb
pbs
pc
pd
pdf
pe
pelliot
people
per
persian
person
peter
pfalz
pg
ph
philosophy
phone
php
pi
picture
pictures
pine
pixar
place
play
playstation
plymouth
png
po
point
poland
policy
political
politics
polo
pop
population
post
posts
potter
power
pp
pr
present
president
press
presskg
prince
princeton
print
prior
prize
pro
problemy
production
productions
prof
professor
program
project
provided
pt
pu
public
publications
published
publishing
pubmed
px
python
q
qs
quartal
quartale
quartalsende
queen
quot
r
ra
radio
ran
ray
rb
re
read
real
realmadrid
record
records
red
ref
references
refs
regia
region
release
report
represent
republic
res
research
results
retrieved
return
review
rfc
rh
rheinland
ri
richard
right
rights
ringen
ringer
rings
rio
rise
risk
river
rk
rkc
rkiye
rn
ro
road
robert
rock
rolling
room
rotten
routledge
royal
rsssf
rttembergs
ru
rules
run
ruolo
rus
russia
russian
rx
s
sa
sachsen
saint
samsung
san
santa
sayı
sb
sc
schleswig
scho
scholars
school
sci
science
sciences
scientific
se
sea
search
second
secret
section
security
see
self
september
series
service
set
seven
sex
sexual
sh
sherlock
short
show
shtml
si
sibiri
silver
sin
sio
sir
site
sky
skype
sm
smith
sms
sn
so
social
society
software
some
somfai
song
songs
sony
sopredelnyh
source
south
soviet
space
spain
spanish
spb
special
species
sport
sports
spring
springs
sputnik
sr
st
sta
stanbul
stand
standard
star
stars
state
states
statistical
statistics
statistik
statistikamt
statistisches
stichtag
still
stock
stone
story
street
stub
studies
studio
studios
study
style
su
summer
summit
sun
super
sur
syn
system
systems
szaktanulma
szerk
szlet
t
ta
tablesl
tag
take
tarihi
task
tau
taylor
tb
te
team
technology
telegram
television
ten
term
terms
text
texte
tez
th
than
that
the
their
theory
there
they
third
this
thomas
threatened
three
through
thu
ti
time
times
title
to
today
tom
tomatoes
ton
too
top
totubayeva
tour
town
township
tr
translation
travel
true
tu
tudoma
turk
turkey
turkic
turkish
turkvizyon
turmush
tv
twitter
two
tırmaları
tɨ
u
ua
uefa
uk
uluslararası
un
uncreated
und
under
unesco
union
united
universal
universe
university
unix
up
uploads
url
us
usa
use
user
utc
uz
v
va
valley
van
var
variety
vb
ve
verlag
version
verwaltungsgemeinschaften
vi
victor
vid
video
vienna
viertes
view
vii
viii
village
violence
vo
vol
volume
von
vpn
vs
vu
vv
vyp
w
wa
walt
war
warner
was
washington
watch
water
way
wayback
wayne
we
web
website
wechat
weekly
were
west
western
westerwald
what
when
where
which
white
who
why
wi
wiki
wikipedia
wild
will
william
windows
winter
with
wo
woman
women
worcester
word
wordpress
work
works
world
wp
wright
wu
www
x
xbox
xe
xi
xii
xiii
xiv
xix
xls
xml
xn
xv
xvi
xvii
xviii
xx
xxi
y
ya
yahoo
yay
yayınları
ye
year
years
yi
yo
york
you
young
your
youtube
yu
yuzhnoj
z
za
zapadnoj
ze
zero
zi
zn
zo
zr
zu
zum
{
|
}
~
¢
£
¥
§
©
«
¬
­
®
¯
°
±
²
³
´
¶
·
º
»
¼
½
¾
×
ß
ø
ı
ŋ
ƒ
ɑ
ɓa
ɓan
ɓaŋ
ɔ
ɕ
ə
ɛ
ɭ
ɯ
ɵ
ɾa
ʌ
ʏ
ʏʏ
ʑa
ʔ
ʔa
ʔɛm
ʔɪj
ʰ
ʲ
ʷ
ʻ
ʼ
ʾ
ʿ
ˀ
ˈ
ˋ
ˌ
ː
˚
˥
˦
˧
˨
˩
̀
́
̂
̃
̄
̆
̇
̈
̉
̊
̋
̌
̍
̓
̔
̚
̛
̝
̞
̟
̠
̣
̦
̧
̨
̩
̯
̱
̸
̹
͂
͈
͡
α
β
γ
γγ
δ
ε
η
θ
ι
λ
μ
ν
ξ
ο
π
ρ
ς
σ
τ
υ
φ
χ
ψ
ω
ϑ
ϕ
ϵ
а
аа
ааббт
аак
аалам
ааламга
ааламда
ааламдагы
ааламдардын
ааламдашуу
ааламды
ааламдын
аалы
аалым
аалымдар
ааматов
аарчы
аарчып
аары
аарылар
аарынын
аб
аба
абага
абад
абада
абадагы
абадан
абадда
абаддагы
абадская
абажур
абаи
абак
абакан
абакиров
абакка
абактан
абал
абалак
абалга
абалда
абалдагы
абалдан
абалдары
абалды
абалдын
абалы
абалын
абалына
абалынан
абалында
абалындагы
абалынын
абамаи
абаны
абанын
абасы
абасыз
абат
аббас
абд
абдаллах
абдан
абдиев
абдраев
абдраимов
абдрахман
абдрахманов
абдугафуров
абдукаимов
абдул
абдулла
абдуллаев
абдуллах
абдумомунов
абдурахман
абдыкадыр
абдыкадыров
абдыкалыков
абдыкерим
абдылда
абдылдабек
абдылдаев
абдымомун
абдымомунов
абдыракман
абдыракманов
абдырахман
абдырахманов
абзел
абзелил
абии
аблаи
абляция
абляциясынын
аборт
абразивдүү
абрамзон
абрамзондун
аброи
абс
абсолют
абсолютно
абсолюттук
абстракттуу
абстрактуу
абстракция
абу
абубакр
абул
абулхасан
абхаз
абхазия
абыке
абылаи
абышка
ав
аваздык
авар
аватар
август
августа
августда
августин
августка
августта
августтан
августтун
августуна
августунан
августунда
августундагы
авиа
авиапочта
авиац
авиация
авиациялык
авиациянын
авлетим
авогадро
авпв
австралия
австралияда
австралиядагы
австралиялык
австралиянын
австрия
австрияда
австриялык
австриянын
авт
авто
автобиография
автобиографиялык
автобус
автомат
автоматика
автоматташтыруу
автоматташтырылган
автоматтык
автомашина
автомобилдер
автомобилдин
автомобиль
автоном
автономдук
автономдуу
автономия
автономиялуу
автономиялык
автономиясы
автор
автордук
автордун
автореферат
авторитардык
авторитет
авторлор
авторлордун
авторлору
авторлорунун
авторлош
авторлошу
авторстве
автору
автотранспорт
автоунаа
ага
агаи
агар
агартуу
агартуунун
агартуусунун
агартуучу
агартуучулук
агартуучусу
агарып
агасы
агасынын
агат
агач
агент
агенти
агенттиги
агенттигинде
агенттигинин
агенттик
агенттиктин
агитация
агитациялык
агломерациясы
агломерациясында
агностик
агрардык
агрегат
агрегаттык
агрегаты
агрессивдүү
агро
агроном
агрономия
агротехникалык
агрохимия
агуу
агуучу
агы
агызып
агылып
агым
агымга
агымдар
агымдардын
агымдары
агымдарынын
агымды
агымдын
агымы
агымын
агымына
агымынан
агымында
агымындагы
агымынын
агын
агынсыз
агып
агыш
агышаи
ад
ада
адабии
адабият
адабиятка
адабиятта
адабияттагы
адабияттар
адабияттарда
адабияттарды
адабияттардын
адабиятты
адабияттын
адабиятчы
адабиятчылар
адабияты
адабиятын
адабиятына
адабиятынан
адабиятында
адабиятындагы
адабиятынын
адал
адам
адамга
адамда
адамдагы
адамдаи
адамдан
адамдар
адамдарга
адамдарда
адамдардан
адамдарды
адамдардын
адамдары
адамдарын
адамдарына
адамдарынын
адамды
адамдык
адамдын
адамзат
адамзатка
адамзатты
адамзаттык
адамзаттын
адамс
адамча
адамы
адамын
адамына
адамынын
адан
адаптация
адаптацияланган
адаптациянын
адат
адатка
адатта
адаттагы
адаттагыдаи
адаттан
адаттар
адаттарды
адаттары
адаттарын
адаты
адатын
адашкан
адашып
адвокат
адегенде
адекваттуу
адел
адеми
аден
адеп
адепки
адептик
адептүүлүк
ади
адигине
адил
адилет
адилетсиз
адилетсиздик
адилеттик
адилеттүү
адилеттүүлүк
адис
адиси
адистер
адистерди
адистердин
адистери
адистешкен
адистештирилген
адистиги
адистигин
адистигине
адистик
адистикке
адм
админ
административдик
административно
администратор
администрация
администрациялык
администрациянын
администрациясы
администрациясында
администрациясынын
админстративдик
адмирал
адольф
адреналин
адрия
адур
адыл
адыр
адырлар
адырларда
адырлуу
адышев
ае
ажаи
ажал
ажалы
ажар
ажары
ажаткана
ажо
ажы
ажыбаи
ажыбек
ажыдаар
ажыдаардын
ажылык
ажынын
ажырабаи
ажыраган
ажырагыс
ажыраи
ажырап
ажырата
ажыратат
ажыратуу
ажыратууга
ажыратуучу
ажыратылат
ажыратылган
ажыратылып
ажыратып
ажырашкан
ажырашуу
ажырашы
ажырашып
ажыроо
ажыроосу
аз
аза
азабы
азабын
азабынан
азаи
азамат
азан
азап
азапка
азаптан
азаптуу
азапты
азар
азат
азаттык
азаттыкка
азаттыктын
азаюуда
азая
азаят
азбелев
азгырып
аздан
аздыгы
аздыр
азе
азем
аземи
аземинде
аземине
азерб
азербаи
азиз
азиза
азиздер
азии
азирети
азия
азияга
азияда
азиядагы
азиядан
азиялык
азияны
азиянын
азов
азот
азоттун
азоттуу
азуу
азчылык
азчылыктын
азы
азыгы
азыгын
азык
азыктанат
азыктандыруу
азыктануу
азыктанышат
азыктар
азыктарды
азыктардын
азыктары
азыктарын
азыктарынан
азыктарынын
азыкты
азыктык
азыр
азыраак
азыркы
азыркыга
азыркыдаи
азырынча
аи
аида
ак
акад
академ
академиги
академии
академик
академия
академияда
академиялык
академияны
академиянын
академиясы
академиясын
академиясына
академиясында
академиясынын
акаев
акаевдин
акак
акарат
акация
акбалта
акбалтанын
акбар
акбермет
акбуура
акварель
аквариум
аквинскии
акдемиясынын
аке
акжолтои
аки
аким
акими
акимии
акимушкин
акиташ
акиташтуу
акка
аккад
аккан
аккелте
аккредитив
аккула
аккуланы
аккуланын
аккумулятор
аккумуляциялык
аккуратно
аккуу
акмак
акман
акмат
акматалиев
акматбек
акматов
аксаи
аксак
аксакал
аксакалдар
аксакалдардын
аксакалдары
аксакалы
аксараи
аксиома
аксуу
аксы
аксынын
акт
актаи
акталган
акталып
актан
акташ
акте
актер
актердук
актердун
актерлор
актерлордун
актеру
актив
активдер
активдештирүү
активдуу
активдүү
активдүүлүгү
активдүүлүгүн
активдүүлүгүнүн
активдүүлүгүнө
активдүүлүк
активист
активисттер
актоо
актриса
актрисага
актрисанын
актрисасы
актуалдуу
актуальные
актуу
акты
актык
актылар
актыларды
актылардын
актылары
актыларын
актыларынын
актылуу
актын
актынын
актысы
акуб
акула
акулалар
акун
акунбешим
акунов
акустика
акустикалык
акушер
акушердик
акушерлик
акцепт
акционердик
акционерлердин
акция
акциялар
акцияларга
акцияларды
акциялардын
акциялары
акцияларынын
акциянын
акча
акчага
акчалаи
акчалар
акчаларды
акчалардын
акчаны
акчанын
акчасы
акчасын
акчии
акш
акшак
акшга
акшда
акшдагы
акшдан
акшнын
акшумкар
акшыи
акы
акыбети
акыи
акыл
акылаи
акылбек
акылбектин
акылга
акылдан
акылдуу
акылдын
акылман
акылмандыгы
акылмандык
акылсыз
акылуу
акылы
акылын
акылына
акылынан
акын
акындар
акындардын
акындары
акындарынын
акындык
акындын
акыны
акынын
акыр
акырет
акыретке
акыретте
акыркы
акыркысы
акыры
акырын
акырына
акырынан
акырында
акырындап
акырындык
акысы
акысыз
акысын
акысына
ал
ала
алаамат
алабуга
алабука
алабы
алабыз
алабын
алабына
алабынан
алабында
алабындагы
алабынын
алагды
алагушов
алаи
алака
алакалары
алакаларын
алакан
алаканы
алаканын
алалы
алам
аламан
аламын
аламыч
аламычы
аламүдүн
алан
алар
аларга
аларда
алардагы
алардан
аларды
алардын
аларча
аларын
аласыз
аласың
аласыңар
алат
алатоо
алатоонун
алатоосунун
алачык
алаш
алба
албаган
албаганда
албагандыктан
албагыла
албады
албадым
албаи
албан
албания
албаниянын
албарс
албас
албаса
албастан
албастык
албасын
албетте
албоо
алга
алган
алганга
алганда
алгандаи
алгандан
алгандар
алгандыгы
алгандыгын
алгандыктан
алганы
алганын
алгач
алгачкы
алгачкылардан
алгачкысы
алгебра
алгебралык
алгоритм
алгы
алгыла
алгылыктуу
алгын
алгыр
алгыс
алгысы
алгыч
алгычтар
алда
алдамчы
алдамчылык
алдан
алдап
алдар
алдаш
алдашев
алдеи
алдоо
алды
алдыга
алдыда
алдыдагы
алдык
алдым
алдымда
алдын
алдына
алдынала
алдыналуу
алдынан
алдында
алдындагы
алдынкы
алдынча
алдынчалыгы
алдынчалыгын
алдынчалыкка
алдыр
алдырат
алдырбаи
алдырган
алдырма
алдыруу
алдыруучу
алдырып
алдың
алдыңа
алдыңда
алдыңкы
алевролит
алеи
алек
алекс
александр
александра
александрия
александров
александрович
александровка
алексеев
алексеевич
алексеи
алектенген
алектенет
алектенип
алектенишет
алектенишкен
алеут
алжапкыч
алжир
али
алиге
алиги
алиев
алиева
алик
алим
алинин
алиппе
алиса
алифаттык
алишер
алия
алкагы
алкагын
алкагына
алкагында
алкагындагы
алкагынын
алкак
алкакка
алкакта
алкактар
алкактарда
алкактары
алкактарында
алкактуулук
алкактын
алкоголдук
алкоголь
алкым
алкыш
алла
аллага
алладан
алланы
алланын
аллах
аллахдан
аллахка
аллахтан
аллахты
аллахтын
аллен
аллергия
аллергиялык
аллювии
алма
алмаз
алмазбек
алмаи
алмак
алмалуу
алмамбет
алмамбетке
алмамбетти
алмамбеттин
алманын
алматы
алматыда
алматыдагы
алмашат
алмашкан
алмаштыра
алмаштырат
алмаштырган
алмаштыруу
алмаштырууга
алмаштыруучу
алмаштырылат
алмаштырылган
алмаштырылып
алмаштырып
алмашуу
алмашууга
алмашууда
алмашууну
алмашуунун
алмашуусу
алмашуусун
алмашуусуна
алмашуусунун
алмашылган
алмашылып
алмашып
алмурут
алои
алооке
алоокенин
алп
алпамыш
алса
алсак
алсаң
алсыз
алсын
алсырап
алтае
алтаи
алтая
алтоо
алты
алтымыш
алтын
алтынаи
алтынбек
алтынга
алтындан
алтынды
алтындыкы
алтындын
алтынчы
алуу
алууга
алууда
алуудагы
алуудан
алуулар
алуулары
алууну
алуунун
алуусу
алуусун
алуусуна
алуучу
алуучуга
алуучулар
алуучуларга
алуучулардын
алуучулук
алуучунун
алфавит
алфавити
алфавитин
алфавитиндеги
алфавитине
алфавитинин
алфавиттик
алфавиттин
алча
алчалуу
алчу
алчы
алшеев
алы
алыбаев
алыи
алык
алыкул
алыкулов
алым
алымбек
алымбектин
алымкан
алымкул
алымкулов
алымча
алын
алына
алынат
алынбаган
алынбаи
алынган
алынганда
алынгандан
алынганы
алынды
алынса
алынууда
алынуусу
алынуучу
алынып
алынышы
алынышына
алып
алыптыр
алыс
алыска
алыскы
алыста
алыстаган
алыстан
алыстап
алыстыкка
алыстыкта
алысыраак
алыш
алышат
алышкан
алышпаи
алышса
алышты
алышуу
алышы
алышын
алышына
алышып
алыңыз
аль
альб
альберт
альбом
альбомдору
альбомдун
альбому
альбомун
альбомунун
альгои
альдегид
альп
альт
альтенбург
альтенкирхен
альтернатива
альтернативдик
альтернативдүү
альтмарк
альтөттинг
альфа
альфонс
альфред
альцаи
альчик
альчики
альянс
алюминии
аляска
ам
амазонка
амал
амалдар
амалдарды
амалдары
амалдарын
амалкөи
амалы
аман
аманат
аманбаев
аманбек
амантур
амат
амберг
амбулатория
аме
амер
америка
америкага
америкада
америкадагы
америкадан
америкалык
америкалыктар
америкалыктардын
американы
американын
америкасында
америкасындагы
америкасынын
аметист
амин
аминдер
аминокислоталар
амир
амиралиев
амири
аммиак
аммиакты
аммонии
аморфтук
аморфтуу
ампер
амплитуда
амплитудасы
амстердам
аму
амур
ан
ана
анадолу
анализ
анализге
анализде
анализдеп
анализдик
анализдин
анализдөө
анализдөөдө
анализи
аналитикалык
аналогдук
аналогу
анан
ананас
анар
анара
анаркулов
анат
анатолии
анатомия
анатомиялык
анаэробдук
анвар
анварбек
анг
анга
ангара
ангидриди
ангина
англ
англии
англис
англисче
англичандар
англия
англияга
англияда
англиядагы
англиялык
англиянын
англо
ангола
ангрен
анд
анда
андагы
андаи
андан
андерсон
андижан
андре
андреас
андреев
андреевич
андреи
андрон
андыктан
анемия
анемометр
анжелес
анжелесте
анжиян
анжыр
анжыян
анимация
анимацияланган
анимациялык
аниме
анимисттик
анкара
анна
анны
анри
ансамблдери
ансамблдин
ансамбли
ансамблин
ансамблинин
ансамбль
ансбах
ансыз
ант
антанта
антарктида
антарктиданын
антарктика
антенна
анти
антибиотик
антибиотиктер
антибиотиктерди
антик
антикалык
антиклиналдык
антиклиналь
антил
антимонит
антип
антисептик
антитело
антителолор
анткен
анткени
антология
антологиясы
антон
антонио
антоновка
антпесе
антропоген
антропогендик
антропогендин
антропологии
антропология
антропологиялык
антуан
анты
анхальт
анча
анчалык
анчеи
аны
анык
аныктаган
аныктады
аныктаи
аныктала
аныкталат
аныкталбаган
аныкталган
аныкталды
аныкталуучу
аныкталып
аныктама
аныктамалар
аныктамасы
аныктап
аныкташат
аныкташкан
аныктоо
аныктоого
аныктоодо
аныктоону
аныктоонун
аныктоочу
анын
анысы
ао
ап
апа
апаат
апабыз
апам
апамдын
апасы
апасынын
апатит
апельсин
апенди
апендинин
апеннин
апии
аполлон
апостол
аппак
аппарат
аппаратта
аппараттар
аппараттарды
аппараттардын
аппараттары
аппаратты
аппараттык
аппараттын
аппаратура
аппараты
аппаратын
аппаратына
аппаратында
аппаратынын
апрелге
апрелде
апрелден
апрелдин
апрелинде
апрелиндеги
апрелине
апрелинен
апрель
апреля
апта
аптабачы
ар
ара
араа
араб
араба
арабаев
арабаева
арабдар
арабдардын
арабиясы
арабча
арабызда
араван
арага
арада
арадагы
арадан
арак
аракет
аракети
аракетин
аракетинде
аракетине
аракетинен
аракетинин
аракетке
аракетте
аракеттеги
аракеттенген
аракеттенет
аракеттенип
аракеттенишет
аракеттениши
аракеттенишип
аракеттенишкен
аракеттенүү
аракеттенүүгө
аракеттенүүсү
аракеттенүүчү
аракеттер
аракеттерге
аракеттерди
аракеттердин
аракеттери
аракеттерин
аракеттерине
аракеттеринен
аракеттеринин
аракеттешүү
аракеттешүүнүн
аракеттешүүсү
аракеттешүүсүнүн
аракетти
аракеттин
аракечтик
аракс
арал
аралап
аралары
араларын
араларына
аралаш
аралаша
аралашат
аралашкан
аралашма
аралашманы
аралашманын
аралашмасы
аралашмасын
аралашмасынан
аралаштыруу
аралаштырылып
аралаштырып
аралашып
аралга
аралда
аралдагы
аралдан
аралдар
аралдарда
аралдарды
аралдардын
аралдары
аралдарын
аралдарында
аралдарынын
аралды
аралдын
аралы
аралыгы
аралыгын
аралыгына
аралыгында
аралыгындагы
аралык
аралыкка
аралыкта
аралыктагы
аралыктан
аралыктарындагы
аралыкты
аралыктын
аралын
аралына
аралынан
аралында
аралындагы
аралынын
арам
арамеи
араны
аранын
арап
арапча
арасы
арасын
арасына
арасынан
арасында
арасындагы
арасынын
арашан
араң
араңарда
араңардан
арбагы
арбагын
арбагына
арбак
арбатско
арбир
арбитраждык
арбын
арваи
аргандаи
аргасыз
аргасыздан
аргентина
аргентинада
аргентиналык
аргентинанын
аргиллит
аргымак
аргын
аргындаштыруу
ард
ардагер
ардагери
ардагерлер
ардак
ардактуу
ареалы
ареалынын
арена
аренага
аренада
арзан
арзыбаган
арзыган
арзыи
арзымат
арзырлык
ариби
арии
арип
аристов
аристотелдин
аристотель
арифметикалык
арка
аркак
аркалаган
аркалап
аркалык
аркан
аркандын
аркар
аркасы
аркасынан
аркасында
арктика
арктикалык
аркы
аркыл
аркылуу
арман
армандуу
арманы
армения
арменияда
армениянын
армии
армия
армияга
армияда
армиядан
армияны
армиянын
армиясы
армиясын
армиясына
армиясында
армиясынын
армян
армяндар
армяндардын
арнаган
арналат
арналган
арналып
арналышы
арналышына
арнап
арнольд
арноо
арнсберг
ароматтык
аростук
арпа
арпанын
арсенал
арсенопирит
арслан
арстан
арстанбап
арстанбек
арстандын
арт
арта
артат
артезиан
артерия
артериялык
артиллерия
артиллериялык
артист
артисти
артисттер
артисттери
артисттик
артка
арткан
арткы
артта
арттырат
арттыруу
арттырууга
арттырып
артур
арты
артык
артыкбаев
артыкча
артыкчылыгы
артыкчылыгын
артыкчылык
артыкчылыкка
артыкчылыктарды
артыкчылыктары
артыкчылыктуу
артымдан
артын
артына
артынан
артында
артындагы
артып
арун
арунга
арундун
аруу
арфа
арх
архаикалык
архангель
архангельск
археол
археолог
археологдор
археологии
археологические
археологических
археология
археологиялык
археологиясы
архив
архивделген
архивдик
архиви
архивировано
архимед
архипелаг
архипелагы
архипелагынын
архитектор
архитекторлор
архитектору
архитектура
архитектурада
архитектуралык
архитектуранын
архитектурасы
архитектурасында
архитектурасынын
арча
арчалуу
арчалы
арчасы
арчычкан
аршин
ары
арыз
арызы
арык
арыктаи
арыктап
арыктын
арылтуу
арылуу
арым
арып
ас
аса
асаба
асан
асаналиев
асанбек
асанбеков
асанканов
асанков
асанкул
асанов
асанова
асбест
асел
асем
аска
аскага
аскалар
аскалуу
асканын
аскар
аскер
аскерге
аскерден
аскерди
аскердик
аскердин
аскери
аскерии
аскерин
аскеринин
аскерлер
аскерлерге
аскерлерди
аскерлердин
аскерлери
аскерлерин
аскерлерине
аскерлеринен
аскерлеринин
аскин
аскорбин
асма
асман
асманга
асманда
асмандагы
асмандан
асмандар
асманды
асмандын
аспабы
аспап
аспапта
аспаптар
аспаптарда
аспаптарды
аспаптардын
аспаптары
аспапты
аспаптык
аспаптын
аспектилери
аспекты
аспирант
аспирантура
аспирантурага
аспирантурада
аспирантураны
аспирантурасын
аспирантурасында
аспиранты
ассамблея
ассамблеясы
ассамблеясынын
ассимиляция
ассирия
ассистент
ассистенти
ассоциация
ассоциациялар
ассоциациянын
ассоциациясы
ассоциациясынын
асср
ассри
ассринин
аст
аста
астана
астмасы
астрахань
астрномия
астрол
астрон
астроном
астрономия
астрономияда
астрономиялык
астрономиянын
асты
астын
астына
астынан
астында
астындагы
астынкы
астыңкы
асфальт
асфальтталган
асыи
асыл
асылбек
асылган
асылма
асылуу
асылып
асып
асыраган
асыралат
асыралып
асыранды
асырап
асыресе
асыроо
ат
ата
атаандаш
атаандаштык
атаандаштыкка
атаандаштыкты
атаандашы
атаандашынын
атабаев
атабек
атабеков
атабыз
атабыздын
атага
атаган
атагы
атагын
атадан
атады
атаи
атак
атаке
атакка
атактуу
атактуулукка
атала
аталар
аталары
аталарынын
аталат
аталаш
аталган
аталганы
аталгы
аталгылары
аталгысы
аталды
аталса
аталуучу
аталчу
аталыгы
аталык
аталып
аталыш
аталышат
аталышка
аталышта
аталыштагы
аталыштар
аталыштардын
аталыштары
аталыштарынын
аталышты
аталыштын
аталышы
аталышын
аталышына
аталышынан
аталышында
аталышындагы
аталышынын
атам
атама
атамбаев
атамдан
атамды
атамдын
атамекендик
атан
атанган
атантаи
атаны
атанын
атанып
атап
атар
атаса
атасы
атасын
атасына
атасынан
атасынын
атат
ататүрк
ататүрктүн
аташат
аташкан
аташчу
атаң
атаңар
атаңдын
атбашы
атеизм
атеисттик
атеросклероз
ати
атка
аткан
атканда
аткар
аткара
аткарат
аткарбаи
аткарган
аткаргандар
аткаргандыгы
аткарганы
аткаргыла
аткарды
аткарса
аткаруу
аткарууга
аткарууда
аткаруудан
аткарууну
аткаруунун
аткаруусу
аткаруусунда
аткаруусундагы
аткаруучу
аткаруучулар
аткаруучулардын
аткаруучулук
аткаруучунун
аткаруучусу
аткарыла
аткарылат
аткарылбаи
аткарылган
аткарылса
аткарылуучу
аткарылып
аткарылышы
аткарылышын
аткарылышына
аткарымдар
аткарымдарды
аткарымдары
аткарып
аткарышат
аткарышкан
аткарышы
аткомунун
аткыч
аткычтар
атланта
атлантик
атлантика
атлас
атласы
атлетика
атлетико
атм
атмаи
атмосфера
атмосферага
атмосферада
атмосферадагы
атмосфералык
атмосфераны
атмосферанын
атмосферасы
атмосферасынын
атн
атом
атомдор
атомдордон
атомдордун
атомдору
атомдорунун
атомдук
атомдун
атомдуу
атому
атомунун
атоо
атоого
атооч
атоочтор
атоочтук
атоочтуктар
атоочтун
атпаи
атрибуту
атса
атта
аттан
аттанат
аттанган
аттанганда
аттанып
аттап
аттар
аттарга
аттарды
аттардын
аттары
аттарын
аттарына
аттарынан
аттарынын
аттестациялык
аттиң
аттокуров
атту
аттуу
атты
аттын
атуу
атууга
атуул
атуулдук
атуулу
атуучу
атф
атчан
атчандар
аты
атыгып
атыккан
атылган
атылып
атым
атын
атына
атынан
атында
атындагы
атынын
атып
атыр
атың
атыңды
атүгүл
аугсбург
аудио
аул
аула
ауле
аургазин
аурих
аутизм
ауэзов
афган
афганистан
афганстан
афганстандын
афина
афины
афк
африка
африкага
африкада
африкадагы
африкадан
африкалык
африканы
африканын
афшар
ах
ахатов
ахемениддер
ахлак
ахлактык
ахмад
ахмаддын
ахмадии
ахмадия
ахматов
ахмед
ахмедов
ахмет
ахун
ахунбаев
ахыска
ацетилен
ацетон
ач
ача
ачаары
ачакеи
ачарчылык
ачары
ачат
ачинск
ачка
ачкан
ачканда
ачкачылык
ачкыч
ачкычы
ачты
ачуу
ачууга
ачууда
ачууланган
ачуулануу
ачууланып
ачуулуу
ачууну
ачуусу
ачуучу
ачы
ачыган
ачык
ачыкка
ачыктык
ачыла
ачылат
ачылбаи
ачылган
ачылгандан
ачылды
ачылуу
ачылып
ачылыш
ачылыштар
ачылыштарды
ачылышы
ачылышына
ачып
ачыткы
ачыткысыз
ачышкан
ачышып
аш
аша
ашар
ашат
ашаффенбург
ашина
ашка
ашкабак
ашказан
ашкан
ашкана
ашканасы
ашкере
ашкерелеген
ашпаган
ашпаи
ашпозчу
ашпоого
ашса
ашта
аштан
ашташкан
ашты
аштын
ашуу
ашуудан
ашуулары
ашуун
ашуунун
ашуусу
ашуусуна
ашуусунан
ашуусунун
ашхабад
ашы
ашыгы
ашыгын
ашык
ашыктык
ашыкча
ашын
ашына
ашынган
ашында
ашындагы
ашып
ашыр
ашыра
ашырат
ашырбаи
ашырган
ашыруу
ашырууга
ашырууда
ашырууну
ашыруунун
ашыруучу
ашырыла
ашырылат
ашырылган
ашырылуучу
ашырылып
ашырылышы
ашырып
аэро
аэродинамикалык
аэродром
аэропорт
аэропорттору
аэропорту
аюу
аябаган
аябагандаи
аябаи
аягы
аягын
аягына
аягынан
аягында
аягындагы
аяз
аяк
аяккы
аяктаган
аяктаганда
аяктагандан
аяктады
аяктаи
аяктап
аяктар
аякташы
аяктуу
аякты
аял
аялга
аялдан
аялдар
аялдарга
аялдарда
аялдардан
аялдарды
аялдардыкы
аялдардын
аялдары
аялдарын
аялдарынан
аялдарыныкы
аялдарынын
аялдуулук
аялды
аялдык
аялдыкка
аялдын
аялуу
аялы
аялым
аялын
аялына
аялынан
аялынын
аялың
аян
аянт
аянтка
аянтта
аянттагы
аянттан
аянттарда
аянттары
аянттарынын
аянтты
аянттын
аянтча
аянтчада
аянтчасы
аянты
аянтын
аянтына
аянтында
аянтындагы
аянтынын
аянычтуу
аяп
аяр
аят
аяттан
аяттарын
аяш
аң
аңгеме
аңгемелер
аңгемелерди
аңгемелердин
аңгемелери
аңгемелерин
аңгемеси
аңглия
аңгыча
аңдап
аңдоо
аңдып
аңчылык
аңчылыкка
аңыз
б
ба
баа
баага
баада
баалаган
баалаи
бааланат
бааланган
бааланып
баалап
баалар
бааларды
баалардын
баалашат
баалашкан
баалоо
баалоого
баалоодо
баалуу
баалуулугу
баалуулугун
баалуулук
баалуулуктар
баалуулуктарга
баалуулуктарды
баалуулуктардын
баалуулуктары
баалуулуктарын
баамдаи
баамдалат
баамдап
баамдоо
бааны
баанын
бааракы
баардыгы
баардык
баарлашуу
баары
баарыбыз
баарыбызга
баарыдан
баарын
баарына
баарынан
баарында
баарынын
баарысы
баарысын
баарыңар
баасы
баасын
баасына
баасынын
баатыр
баатырга
баатырды
баатырдыгы
баатырдык
баатырдын
баатырлар
баатырларга
баатырларды
баатырлардын
баатырларча
баатырлары
баатырларынын
баатыры
баба
бабак
бабалар
бабалардын
бабалары
бабаларыбыз
бабаларынын
бабанын
бабасы
бабур
бабурдун
бабыр
бавария
баварияжеринде
бага
багам
багама
баган
багат
багбанчылык
багдад
багуу
багууга
багуучу
багы
багылат
багылган
багын
багына
багынбоочулук
багында
багындырган
багындырып
багынтып
багынын
багынып
багыныңкы
багып
багыт
багытка
багытта
багыттагы
багыттаи
багытталат
багытталган
багытталып
багыттап
багыттар
багыттарды
багыттардын
багыттары
багыттарын
багыттарынын
багыттоо
багыттоочу
багытты
багыттын
багыты
багытын
багытына
багытында
багытындагы
багытынын
багыш
багышат
багышкан
багышталган
багыштын
бад
бада
бадал
бадалдар
бадалдардын
бадалдары
бадалдуу
бадалча
бадам
бадан
бадахшан
баден
бадминтон
бадыраң
бае
баев
баетов
бажы
база
базалык
базальт
базар
базарбаев
базарга
базарда
базардагы
базардын
базаркоргон
базары
базарында
базарынын
базасы
базасын
базасына
базасында
базасынын
баи
бак
бака
бакаи
бакалавр
бакалар
бакалин
бакалоор
бакан
бакасы
бакдөөлөт
бакен
бакиев
бакиевдин
бакир
бакка
баккан
бакма
бакта
бактары
бактериологиялык
бактерия
бактериялар
бактерияларды
бактериялардын
бактериялары
бактериялык
бактрия
бакты
бактыбек
бактылуу
бактын
бактысы
бактысыз
баку
бакуда
бакча
бакчада
бакчалар
бакчанын
бакчасараи
бакчасы
бакчасынын
бакчиев
бакшы
бакы
бакырып
бакыт
бакытбек
бакытка
бал
бала
балага
балада
баладаи
баладан
балак
балакет
балалуу
балалыгы
балалык
балам
баланс
баланстагы
баланстык
баланстын
балансы
балансын
баланы
баланын
балапан
балапандары
балапандарын
балар
баларды
балардын
балары
баларын
баласагун
баласагын
баласагына
баласагындын
баластан
баласы
баласыз
баласын
баласына
баласынан
баласынын
балаты
балаң
балбаи
балбал
балбан
балбанга
балбандар
балбандын
балбаны
балдар
балдарга
балдарда
балдардан
балдарды
балдардын
балдары
балдарым
балдарын
балдарына
балдарынан
балдарынын
балдуу
балерина
балет
балети
балетмеи
бали
балка
балкамыш
балкан
балкар
балкаш
балким
балкон
балкып
балл
баллада
баллга
балта
балтачев
балтика
балтыр
балтыходжа
балуу
балх
балхаш
балыгы
балык
балыкка
балыкооз
балыктар
балыктарга
балыктарда
балыктардын
балыктарынын
балыкты
балыктын
балыкчы
балыкчылык
балыр
балырлар
бальнеологиялык
балээ
бам
бамберг
бамбук
бан
банан
банат
банаттар
банаттарды
банаттардын
бангладеш
банда
бандар
бандардын
бани
банк
банка
банкка
банкнот
банкноттор
банктагы
банктар
банктардын
банктык
банктын
банкы
банкынын
банту
баны
банын
бап
бар
бара
бараандуу
барабан
барабар
барабыз
барагы
барагын
бараи
барак
баракат
барактары
барактын
баракча
баракчасы
баракчасына
барам
барар
барат
бараталиев
баратат
бараткан
баратканда
баратканын
баратып
бараң
бараңга
барбадос
барбаи
барбара
барбы
барга
барган
баргана
барганда
баргандагы
баргандан
барганы
баргы
баргыла
барда
барды
бардыгы
бардыгын
бардыгына
бардыгынан
бардыгында
бардыгынын
бардык
бардым
баренц
барии
барит
барк
баркка
барктуу
баркут
баркы
баркын
баркына
баркыт
барлар
бармак
барнаба
барнаул
барокко
барон
барпы
барс
барса
барсаң
барсбек
барселона
барскан
барскани
барскон
барскоон
барт
бартольд
бартольддун
баруу
барууга
барууда
барууну
баруучу
баруучусу
барчу
бары
барыдан
барымта
барымтага
барын
барып
барыш
барышат
барышкан
барышты
барышы
барышып
бас
баса
басар
басары
басат
басаңдаи
басаңдап
басаңдатат
басаңдатуучу
баскаков
баскан
басканда
баскетбол
баскынчы
баскынчылар
баскынчыларга
баскынчылардан
баскынчыларына
баскынчылык
баскыч
баскычка
баскычта
баскычтагы
баскычтан
баскычтар
баскычтары
баскычтарында
баскычтуу
баскычты
баскычы
баскычын
баскычына
баскычында
басма
басмага
басмадан
басмаи
басмакана
басмаканасы
басмаканасында
басмасы
басмасынан
басмасында
басмасынын
басмачылар
басмачыларга
басмачылардын
басмырлоо
баспаган
баспаи
басса
бассеи
басты
бастырып
басуу
басууга
басуучу
басы
басыз
басылат
басылган
басылма
басылмалар
басылмаларда
басылмаларды
басылмалардын
басылмасы
басылып
басылыш
басылышы
басым
басымга
басымда
басымдагы
басымдуу
басымдуулук
басымды
басымдын
басымы
басымын
басымына
басымынын
басын
басына
басынан
басында
басынын
басып
бат
бата
батальон
батасы
батасын
батат
баткак
баткан
баткен
батлер
батпаи
баттамада
батыи
батып
батыр
батыра
батыш
батышка
батышта
батыштагы
батыштан
батышты
батыштын
батышы
батышын
батышына
батышынан
батышында
батышындагы
баутцен
бауэр
бах
бахаи
бахреи
бахчисараи
баш
башаламан
башаламандык
башат
башаты
башатын
башатынан
башатында
башк
башка
башкага
башкалар
башкаларга
башкаларда
башкалардан
башкаларды
башкалардын
башкалары
башканы
башканын
башкара
башкарат
башкарган
башкарма
башкармалыгы
башкармалыгына
башкармалыгында
башкармалыгынын
башкармалыктын
башкарманын
башкармасы
башкармасында
башкармасынын
башкаруу
башкарууга
башкарууда
башкарууну
башкаруунун
башкаруусу
башкаруусунда
башкаруучу
башкаруучулар
башкаруучулары
башкаруучуларынын
башкаруучулук
башкаруучунун
башкаруучусу
башкарылат
башкарылган
башкарылма
башкарылуучу
башкарып
башкасы
башкасын
башкасына
башкача
башкир
башкортостан
башкы
башкыр
башкырстан
башкырт
башкыртстан
башкыртстандын
башкысы
башта
баштаган
баштаганда
баштагандан
баштаганы
баштаганын
баштагы
баштады
баштаи
башталат
башталган
башталганга
башталганда
башталгандан
башталгыч
башталды
башталса
башталып
башталыш
башталышы
башталышын
башталышына
башталышынан
башталышында
баштан
баштап
баштапкы
баштары
баштарын
баштарына
баштаса
башташат
башташкан
башташты
башташы
баштоо
баштоого
баштоочу
баштоочусу
баштуу
башты
баштык
баштыкчан
баштын
башчы
башчылар
башчылардын
башчылары
башчыларын
башчыларына
башчыларынын
башчылыгы
башчылыгына
башчылык
башчынын
башчысы
башчысын
башчысына
башчысынын
башы
башыга
башым
башымды
башын
башына
башынан
башында
башындагы
башындаи
башынын
башың
башыңа
бая
баягы
баялинов
баялыш
баян
баяндаган
баяндаи
баяндалат
баяндалган
баяндалып
баяндалышы
баяндама
баяндамалар
баяндамачы
баяндап
баяндар
баяндары
баяндарында
баяндоо
баяндоонун
баяны
баянын
баяр
баңги
бб
ббк
бгу
бгунун
бе
бег
бегалиев
беген
беги
бегимаи
беда
беде
бедел
беделдүү
беделин
бедныи
бедняк
беду
бежать
без
безгек
бездер
бездердин
бездери
бездеринин
бездин
безетки
бези
безинин
беи
бек
бекбоев
бекболот
бекем
бекемдеген
бекемдеи
бекемделген
бекемделет
бекемделип
бекемдеп
бекемдиги
бекемдигин
бекемдөө
бекемдөөгө
бекен
бекер
бекеринен
бекет
бекети
бекетинен
беки
бекиген
бекии
бекип
бекитет
бекитилген
бекитилет
бекитилип
бекитип
бекиткен
бекитүү
бекитүүчү
бекке
беккер
бекмурат
бекназар
беков
бексултан
бектемир
бектен
бектенов
бектин
бектур
бел
беларус
беларуссия
беларусча
беларусь
белая
белбоо
белге
белги
белгилеген
белгилегендеи
белгиледи
белгилеи
белгиленген
белгиленди
белгиленет
белгиленип
белгилениши
белгиленүүчү
белгилеп
белгилер
белгилерге
белгилерди
белгилердин
белгилери
белгилерин
белгилерине
белгилеринен
белгилеринин
белгилешет
белгилешкен
белгилуу
белгилүү
белгилүүлөрү
белгилүүсү
белгилөө
белгилөөгө
белгилөөдө
белгилөөчү
белгини
белгинин
белгиси
белгисиз
белгисин
белгисине
белгисинин
белград
белдемчи
белден
белди
белдүү
беле
белебеев
белеги
белек
белекке
белем
беленделет
белес
белең
бели
белиз
белин
белине
белинен
белинскии
белл
белого
белогу
белое
белои
белок
белокатаи
белоктор
белоктордун
белоктун
белоктуу
белорет
белорус
белоруссия
белыи
бельгия
бельгияда
бельгиялык
бельгиянын
бен
бенгал
бенедикт
бензин
бензол
бензолдо
бенин
бентхаи
бер
бербе
бербеген
бербеи
бербесе
бербестен
бербөө
берг
берген
бергенге
бергенде
бергенден
бергендиги
бергендиктен
бергени
бергенин
бергенов
бергиле
бергин
бергич
бергсон
берди
бердиев
бердик
бердике
бердим
бере
беребиз
берегу
береи
береке
берекелүү
берели
берем
беремин
берен
берене
беренеси
беренц
берер
берерин
бересиң
берет
бери
берик
берилбеи
берилген
берилгенде
берилгендигин
берилди
бериле
берилет
берилип
берилиш
берилиши
берилиштер
берилиштерди
берилиштердин
бериллии
берилсе
берилүү
берилүүчү
беринг
берип
бериптир
бериш
беришет
бериши
беришинде
беришиндеги
беришине
беришип
беришкен
беришпеи
бериште
беришти
берки
беркли
беркут
беркута
беркшир
берлин
берлинде
берлиндеги
берлинди
бермек
бермекчи
бермет
берн
бернард
бернд
бернкастель
бернулли
бернхард
бернштам
берсе
берсең
берсин
беруу
берчи
берчү
берүү
берүүгө
берүүдө
берүүдөгү
берүүдөн
берүүлөр
берүүлөрдү
берүүлөрүн
берүүнү
берүүнүн
берүүсү
берүүсүн
берүүсүнүн
берүүсүнө
берүүчү
берүүчүлүк
берүүчүлөр
берүүчүнүн
бес
беспокои
бестселлер
бет
бета
бетачары
бетеге
бетегелүү
бетер
бети
бетин
бетинде
бетиндеги
бетине
бетинен
бетинин
бетинче
бетке
беткеи
бетме
бетон
бетонго
бетондон
бетте
беттен
беттеп
беттер
беттерде
беттери
беттерин
беттеринде
беттериндеги
беттерине
беттеринин
беттеш
беттешип
беттешкен
беттеште
бетти
беттик
беттин
беттүү
бехзад
бечара
беш
бешик
бешикке
бешим
бешинчи
бешке
бешмант
бешташ
бештен
бештин
бешөө
би
биберах
библиографическии
библиография
библиографиялык
библиотека
библия
биденкопф
бижбуляк
биз
бизге
бизде
бизден
бизди
биздин
бизнес
бизнеси
бизнесмен
бизнести
бии
бик
бикини
бил
билам
билбеген
билбеи
билге
билген
билгенден
билгендер
билгенин
билги
билгизбеи
билгизген
билгизет
билгизип
билгиле
билгич
билгичтик
билдирбеи
билдирген
билдиргич
билдирди
билдире
билдирет
билдирип
билдиришкен
билдирүү
билдирүүгө
билдирүүлөр
билдирүүлөрдү
билдирүүнүн
билдирүүсү
билдирүүчү
биле
билебиз
билек
билем
билерик
билерикти
билесиң
билесиңер
билет
билим
билимге
билимдер
билимдерге
билимдерди
билимдердин
билимдери
билимдерин
билимди
билимдин
билимдүү
билими
билимин
билимине
билиминин
билинбеи
билинбес
билинген
билине
билинер
билинери
билинет
билинип
билип
билиш
билишет
билиши
билишкен
билишпеи
билл
билли
билсе
билчү
билүү
билүүгө
билүүдө
билүүнү
билүүнүн
билүүсү
билүүчү
билүүчүлүк
бин
бинардык
бинген
бинт
био
биобиблиогр
биобиблиографическии
биографии
биография
биографиялык
биол
биолог
биология
биологияда
биологиялык
биологиясы
биосфера
биосфералык
биосферанын
биотехнология
биотит
биохим
биохимия
биохимиялык
бир
бирбүтүндүк
бирге
биргелешип
биргелешкен
биргеликте
бирде
бирдеи
бирдеме
бирден
бирди
бирдиги
бирдигин
бирдигинде
бирдигине
бирдигинин
бирдик
бирдикке
бирдикте
бирдиктер
бирдиктерди
бирдиктердин
бирдиктери
бирдиктеринин
бирдикти
бирдиктин
бирдиктүү
бирдин
биржа
биржалык
биржасы
бири
бирибизге
биригет
биригип
биригишет
биригиши
биригишинен
биригишкен
биригүү
биригүүсү
бириккен
бирикме
бирикмелер
бирикмелерге
бирикмелерди
бирикмелердин
бирикмелери
бирикмелерин
бирикмелеринде
бирикмелеринен
бирикмелеринин
бирикменин
бирикмеси
бирикмесин
бирикмесинде
бирикмесине
бирикмесинин
бириктирген
бириктиргич
бириктирет
бириктирилген
бириктирилет
бириктирилип
бириктирип
бириктирүү
бириктирүүгө
бириктирүүчү
биримдиги
биримдигин
биримдигине
биримдигинин
биримдик
биримдикке
биримдикте
биримдикти
биримдиктин
бирин
биринде
бирине
биринен
биринин
биринчи
биринчиден
биринчилерден
биринчилигинде
биринчилик
биринчиси
биринчисинде
бириң
бириңер
бириңерге
бириңерди
биркатар
биркенфельд
бирлери
бирлиги
бирлигинин
бирлик
бирма
бирнече
бирок
биротоло
биртоп
бируни
бирөө
бирөөгө
бирөөдөн
бирөөлөр
бирөөлөрдүн
бирөөлөрү
бирөөнү
бирөөнүн
бирөөсү
бирөөсүн
бирөөсүнүн
бисау
бит
битбург
бити
биттерфельд
бить
бич
биче
бичеси
бичурин
бишкек
бишкеке
бишкекке
бишкекте
бишкектеги
бишкектен
бишкектин
бия
бк
бкга
бкда
бкнын
бл
благовар
благовещен
ближе
близкии
близко
блинген
блинников
блог
блогу
блок
блокторго
блоктордун
блоктун
блоктуулугу
блэк
блюз
бниц
бництин
бо
боб
бог
бога
богатства
богатство
богатыи
богатыре
богатыреи
богатыри
богатырь
богатыря
боген
богок
богон
боден
бодензее
бодо
бое
боевои
боек
божомол
божомолдонот
божомолдор
боз
боздоп
бозо
бозомтук
бозомук
бозоруп
бои
бок
бокмурун
бокс
боксит
бол
болбо
болбогон
болбогондо
болбогондуктан
болбогону
болбогула
болбоду
болбои
болбоого
болбос
болбосо
болбостон
болбосун
болбошу
болгар
болгария
болгарияда
болгариянын
болгон
болгонго
болгондо
болгондои
болгондон
болгондор
болгондорго
болгондорду
болгондордун
болгондугу
болгондугун
болгондугуна
болгондуктан
болгону
болгонун
болгонуна
болгонунан
болгончо
болгула
болгун
болгусу
болгуча
болду
болдук
болдум
болдуң
более
болезни
болезнь
болжол
болжолдо
болжолдои
болжолдонот
болжолдуу
болжолу
боли
боливия
болмаи
болмок
болмокчу
болмуш
болмушту
болмуштун
боло
болобу
болобуз
болов
бололу
болом
болонья
болоор
болоору
болоорун
болор
болору
болорун
болосуң
болосуңар
болот
болотбек
болоттон
болотту
болоттун
болочок
болочоктогу
болоюн
болсо
болсок
болсом
болсоң
болсоңор
болсун
болтурбаи
болтурбоо
болумдуу
болуп
болуптур
болуу
болууга
болууда
болуудан
болууну
болуунун
болуусу
болуусун
болуусуна
болуучу
болучу
болуш
болушат
болушкан
болушпаи
болушса
болушту
болуштук
болушу
болушун
болушуна
болушунан
болушунда
болушунун
болушунча
болушуп
болчу
болчудаи
боль
больцман
большая
больше
большевик
большевиктер
большевиктердин
большевиктик
большие
большим
большими
большого
большое
большои
большую
бомба
бомбеи
бонн
бонча
боо
бообек
боогачы
бооз
боом
боор
боорго
боордо
боордош
боордун
боорсок
боору
боорукер
боорум
боорун
бооруна
боорунан
боорунда
боорундагы
боосу
боочу
бор
борб
борбор
борборго
борбордо
борбордогу
борбордон
борбордук
борбордун
борборлор
борборлордун
борборлору
борборлорун
борборлорунда
борборлорунун
борборлошкон
борборлоштурулган
борбору
борборун
борборуна
борборунан
борборунда
борборундагы
борборунун
борбугулов
борду
борис
борисенко
борисович
боркен
борколдои
борода
бороду
боромбаи
бороон
бороондуу
борпоң
борьба
борьбе
борьбы
бос
босния
босого
босоголуу
бостери
бостон
бот
ботан
ботаник
ботаника
ботаникалык
ботко
бото
ботои
ботом
ботою
ботсвана
бош
бошонуп
бошоп
бошоткон
бошотот
бошотулат
бошотулган
бошотулуп
бошотуп
бошотуу
бошотууга
боштондук
боштондукка
боштук
бою
боюн
боюна
боюнан
боюнда
боюндагы
боюнун
боюнча
боюу
бразилия
бразилияда
бразилиялык
бразилиянын
браи
бран
бранденбург
брань
брат
брать
браузер
браун
бреи
брекчия
бренд
бренди
брест
бригада
бригаданын
бригадасы
бригадасында
бригадасынын
бригадир
бригадири
бриллиант
бримкулов
бристоль
британ
британдык
британия
британияга
британияда
британиядагы
британиядан
британиялык
британиянын
бродвеи
брои
бром
бронх
бронхит
броун
брунеи
бруно
бруцелле
брэд
брюс
брюссель
брянск
бу
буг
буга
бугера
бугу
бугулар
бугулардын
бугунун
будапешт
будда
буддизм
буддизмдин
буде
будем
будет
будешь
будто
буду
будут
будущее
будь
буз
буза
бузат
бузбаи
бузган
бузгандыгы
буздяк
бузук
бузуку
бузукулук
бузулат
бузулбаи
бузулган
бузулганда
бузулса
бузулуп
бузулуу
бузулуудан
бузулуулар
бузулушу
бузулушун
бузулушуна
бузулушунан
бузулушунун
бузуп
бузуу
бузууга
бузуулар
бузуучу
буи
бук
бука
буканын
букар
букара
букаралыгына
букарга
букардан
букачар
букв
бул
була
булагы
булагын
булагына
булагынан
булагынын
булак
булакка
булакта
булактан
булактар
булактарга
булактарда
булактардан
булактарды
булактардын
булактары
булактарын
булактарына
булактарынан
булактарында
булактарынын
булактын
булалар
булалуу
булан
булар
буларга
буларда
булардан
буларды
булардын
буласы
буласынан
булат
булбул
булбулу
булгаары
булгаарыдан
булгаи
булганган
булгануу
булгануудан
булганышы
булгап
булгар
булгачы
булгоочу
булл
булут
булуттар
булуттардын
булуттун
булуң
булуңдары
булуңу
булуңуна
булуңунан
булуңунда
булуңундагы
булуңунун
булчуң
булчуңга
булчуңдар
булчуңдардын
булчуңдары
булчуңдарын
булчуңдарынын
булчуңдун
булчуңдуу
булчуңу
бумын
бун
бур
бура
бураев
бурак
буралып
бурама
бурана
бурап
бурат
бурбаи
бург
бурган
бургенланд
бургулоо
бургулоочу
бурж
буржуазия
буржуазиялык
буржуазиянын
бурзян
буркан
буркина
бурма
бурмаланган
бурмалап
бурно
бурул
бурулат
бурулган
бурулуп
бурулуш
бурулча
бурунди
буруп
бурут
буруу
бурушкан
бурч
бурчка
бурчтары
бурчту
бурчтук
бурчтуктун
бурчтун
бурчтуу
бурчу
бурчун
бурчуна
бурчунан
бурчунда
бурят
бус
бут
бута
бутага
бутагы
бутагына
бутак
бутактанган
бутактанып
бутактары
бутактарын
бутактарынын
бутактуу
бутан
бутанаев
бутка
буткул
бутпарас
бутпарастар
бутпарастардын
буттары
буттарын
буттарынын
бутту
буттун
буттуу
буттуулар
буту
бутун
бутуна
бутунан
бутунун
бутуңарды
буу
бууга
буудаи
буудан
бууланат
буулантып
буулануу
бууланып
бууну
буунун
бууп
буура
буурул
буурулду
буурчак
буусу
буусунун
бухара
бухарага
бухарест
бухгалтер
бухгалтердик
бухгалтериялык
бучагы
буш
бушаи
буэнос
буюм
буюмга
буюмдар
буюмдарга
буюмдарды
буюмдардын
буюмдары
буюмдарын
буюмдарына
буюмдарында
буюмдарынын
буюмду
буюмдун
буюму
буюрган
бы
бывает
быз
быи
бык
быка
был
была
былжыр
былжырлуу
были
было
былпылдактар
бырыш
быстро
быт
бытие
бытиенин
быту
быть
бычак
бычактын
бычмачы
бычылган
бычып
бышат
бышев
бышкан
быштак
бышты
бышык
бышыктоо
бышыктооч
бышыктыгы
бышып
бышырат
бышыруу
бышырылат
бышырылган
бышырып
бье
бэи
бэк
бэкон
бэтмен
бээ
бээден
бээжин
бээжинге
бээжинде
бээжинди
бээжиндин
бээни
бээнин
бюджет
бюджети
бюджетке
бюджеттен
бюджетти
бюджеттик
бюджеттин
бюро
бюросу
бюросунун
бюст
бюулук
бү
бүбү
бүбүсара
бүгүн
бүгүнкү
бүгүп
бүдөмүк
бүз
бүи
бүктөлүп
бүктөлүү
бүктөлүүгө
бүктөлүүлөргө
бүктөп
бүкүр
бүлгүнгө
бүлдүркөн
бүлдүркөндүн
бүлө
бүлөгө
бүлөдө
бүлөдөгү
бүлөдөн
бүлөлүк
бүлөлүү
бүлөлөр
бүлөлөрдүн
бүлөнү
бүлөнүн
бүлөсү
бүлөсүн
бүлөсүндө
бүлөсүнүн
бүлөсүнө
бүлөсүнөн
бүлөө
бүргө
бүргөндү
бүркүт
бүркүттү
бүркүттүн
бүртүктүү
бүртүкчөлүү
бүртүкчөлөрү
бүт
бүткүл
бүткөн
бүткөнгө
бүткөндө
бүткөндөи
бүткөндөн
бүткөрүлгөн
бүтпөгөн
бүтпөи
бүттү
бүтүм
бүтүмгө
бүтүмдөр
бүтүмү
бүтүн
бүтүндүгүн
бүтүндүк
бүтүндүккө
бүтүндүктү
бүтүндөи
бүтүп
бүтүргөн
бүтүргөндөн
бүтүрүп
бүтүрүү
бүтүрүүчүлөр
бүтүрүүчүлөрдүн
бүтүрүүчүлөрү
бүтүрүүчүсү
бүтүрөт
бүтүшү
бүтүү
бүтө
бүтөлүп
бүтөп
бүтөт
бүчүр
бөбөк
бөбөктөр
бөгөп
бөгөт
бөдөнө
бөи
бөк
бөксө
бөкөи
бөкөнбаев
бөл
бөлгүч
бөлгүчү
бөлгөн
бөлмө
бөлмөгө
бөлмөдө
бөлмөлүү
бөлмөлөр
бөлмөнү
бөлмөнүн
бөлмөсү
бөлмөсүндө
бөлчөк
бөлүгү
бөлүгүн
бөлүгүндө
бөлүгүндөгү
бөлүгүнчөлүк
бөлүгүнүн
бөлүгүнө
бөлүгүнөн
бөлүк
бөлүккө
бөлүктү
бөлүктүн
бөлүктүү
бөлүктө
бөлүктөн
бөлүктөр
бөлүктөргө
бөлүктөрдүн
бөлүктөрдөн
бөлүктөрү
бөлүктөрүн
бөлүктөрүндө
бөлүктөрүнүн
бөлүктөрүнө
бөлүктөрүнөн
бөлүкчө
бөлүкчөлөр
бөлүкчөлөргө
бөлүкчөлөрдү
бөлүкчөлөрдүн
бөлүкчөлөрдөн
бөлүкчөлөрү
бөлүкчөлөрүнүн
бөлүкчөнүн
бөлүкчөсү
бөлүм
бөлүмгө
бөлүмдүн
бөлүмдүү
бөлүмдө
бөлүмдөгү
бөлүмдөн
бөлүмдөр
бөлүмдөрү
бөлүмдөрүн
бөлүмдөрүндө
бөлүмдөрүнүн
бөлүмү
бөлүмүн
бөлүмүндө
бөлүмүндөгү
бөлүмүнүн
бөлүмүнө
бөлүмүнөн
бөлүнбөи
бөлүнбөс
бөлүнгөн
бөлүндү
бөлүнүп
бөлүнүш
бөлүнүшү
бөлүнүшүн
бөлүнүшүнүн
бөлүнүшүнө
бөлүнүшөт
бөлүнүү
бөлүнүүнүн
бөлүнүүсү
бөлүнүүчү
бөлүнө
бөлүнөт
бөлүп
бөлүшкөн
бөлүштүргүч
бөлүштүргөндө
бөлүштүрүлгөн
бөлүштүрүлүшү
бөлүштүрүлөт
бөлүштүрүп
бөлүштүрүү
бөлүштүрүүгө
бөлүштүрүүдө
бөлүштүрүүнүн
бөлүштүрүүчү
бөлүштүрөт
бөлүшүп
бөлүшүү
бөлүшөт
бөлүү
бөлүүгө
бөлүүдө
бөлүүчү
бөлө
бөлөк
бөлөкбаи
бөлөкчө
бөлөт
бөрде
бөрк
бөрү
бөрүбаи
бөтөлкө
бөтөн
бөтөнчө
бөтөнчөлүгү
бөтөнчөлүктөрү
бөө
бөөдө
в
ва
вавилов
вавилон
вавилония
вагнер
вагон
вади
важничать
важно
вазелин
вазир
ваи
вакуум
вакуумда
вакуумдагы
вакуумдук
вакцина
вал
валдын
валенсия
валентин
валентина
валенттик
валенттүү
валерии
вали
валиханов
валлэи
вальдек
вальднаб
вальдсхут
вальсы
вальтер
валюта
валюталык
валютанын
валютасы
вам
ван
ванадии
ваниль
ванк
ванкувер
ванна
ваннасын
вануату
вань
вап
вариант
вариантта
варианттар
варианттарда
варианттардан
варианттардын
варианттары
варианттарын
варианттарында
варианттарынын
варианттын
варианты
вариантын
вариантына
вариантынан
вариантында
вариантындагы
вариантынын
вариациялык
вартбург
варшава
вас
василии
васильев
васильевич
васюган
ватикан
ватсон
вахии
вацлав
вашингтон
вашингтондо
вв
введение
вверх
вдруг
вдун
ве
веб
вебер
вебсаи
вега
вегетатив
вегетативдик
вегетация
вегетациялык
веде
ведомости
ведомстволук
ведь
везердеги
веи
век
века
векселди
вексели
вексель
вектор
вектордук
вектору
велев
велел
великии
великого
великои
велосипед
вен
вена
венага
венада
веналардын
веналык
венгер
венгр
венгрия
венгрияда
венгриядагы
венгриялык
венгриянын
венедикт
венера
венесуэла
венесуэланын
венеция
венецияда
вер
вера
верблюд
верблюда
верблюдов
верблюжонок
верди
вере
вернер
вернигероде
верныи
верра
версаль
версия
версиялары
версиясы
версиясын
версиясында
вертикалдык
вертикаль
вертоле
верхняя
верховного
верхом
весе
весна
вест
вестервальд
вестерн
вести
вестник
вестфалия
весть
весь
вет
ветврач
ветер
ветераны
ветеринар
ветеринардык
ветеринария
ветеринариялык
ветерок
ветра
веттерау
вечернии
вещи
взаимн
взаимодеи
взвод
взгляд
взяв
взял
взять
ви
вид
вида
виде
видел
видео
видимо
видит
видно
видов
видом
византия
византиялык
византиянын
визуалдык
вики
википедия
википедиянын
виктор
виктория
вилаи
вилка
вилладж
вилли
вильгельм
вильнюс
вильфрид
вильхельм
вин
виндсхаи
винер
вино
виноградов
винсент
виолончель
виртуалдык
вирус
вируска
вирустар
вирустардын
вирусту
вирустук
вирустун
вирустуу
вирусу
вис
виска
висла
висмут
витамин
витаминге
витаминдер
витаминдерге
витаминдерди
витаминдердин
витаминдери
витаминдин
витаминдүү
витамини
витаминин
витамининин
витгенштеи
витебск
витлих
виттенберг
виттмунд
вице
вич
вишневскии
вка
вконтакте
вкп
вкус
владивосток
владимир
владимирович
владислав
власов
власти
власть
влияние
влксм
вместе
вместо
вне
вниз
внимание
внимания
внутри
во
вода
воде
водои
водород
воду
воды
военно
военное
вож
возвр
возглас
возможность
возраста
возрасте
вои
вокал
вокалдык
вокалист
вокзал
вокруг
вол
волга
волганын
волгоград
волеи
волк
волков
вологда
волосы
вольта
вольтер
вольф
вольфганг
вольфенбюттель
вольфрам
вольфратсхаузен
вон
вопрос
вопросу
вопросы
вор
вормс
воронеж
воротник
ворошилов
восток
востока
востоковедение
востоковедения
восточная
восточного
восточнои
восточныи
вот
воше
вп
впв
впвап
впере
впереди
вр
враг
врага
врагов
врач
врачка
врачтар
врачтык
врачтын
врачы
времен
времена
времени
время
всадник
все
всегда
всего
всем
всех
встречается
всю
вся
всякая
всякие
всякого
вт
вторая
второи
ву
вуд
вузов
вульканаи
вунзидель
вы
выдающии
вызывать
выи
вып
выпуск
выражает
выражение
высокии
высшеи
выходит
вычегда
выше
вышел
вышла
вь
вьетнам
вьетнамда
вьетнамдын
вэи
вэст
вюммдагы
вюртемберг
вюрцбург
вятка
г
га
гаага
габбро
габон
габсбургдар
гаваи
гавана
гавел
гага
гагарин
газ
газга
газда
газдан
газдар
газдарда
газдарды
газдардын
газдуу
газды
газдын
газета
газетасы
газетасында
газетасынын
гази
газы
газын
газынын
гаи
гаити
гак
гал
галактика
галактикалар
галактикалык
галактиканын
галдан
галенит
галерея
галереясы
галилеи
галит
галогендер
гамбар
гамбарга
гамбарды
гамбардын
гамбарлар
гамбарларга
гамбарларды
гамбарлардын
гамбарчылык
гамбары
гамбарыбыз
гамбарыбыздын
гамбия
гамбург
гамбургер
гамлет
гамма
ган
гана
ганг
ганга
ганда
гандан
ганди
ганновер
ганы
ганьсу
гапаров
гаплоиддик
гараев
гарат
гарвард
гарган
гармиш
гармоникалык
гармония
гармониялуу
гармониялык
гарри
гаруу
гарц
гарылат
гарылган
гарылды
гарылып
гарым
гарымдуу
гарып
гастрит
гастролдо
гасы
гат
гаусс
гафурии
гач
гашат
гашкан
гашкандыгы
гашкандыктан
гашса
гаштырат
гаштырган
гаштыруу
гаштырууга
гаштырылат
гаштырылган
гаштырылып
гаштырып
гашуу
гашуусу
гашуусун
гашуусуна
гашып
гашышты
гашышы
гвардия
гвардиялык
гвардиянын
гватемала
гвинея
гвинеянын
гг
гга
гдан
где
гдр
ге
геге
гегелдин
гегель
гезит
гезити
гезитин
гезитинде
гезитине
гезитинин
гезиттер
гезиттерге
гезиттерде
гезиттери
гезиттеринде
гезитти
гезиттин
геи
гектар
гектарынан
гелии
гельвеции
гелүү
гематит
гемоглобин
гемоглобиндин
геморрагиялык
геморрои
ген
генде
гендер
гендердик
гендердин
гендин
генеалогиялык
генерал
генералдык
генералы
генератор
генератору
генетика
генетикалык
гени
гении
генин
геннадии
генотип
генри
генрих
гент
генуя
гео
геогр
географ
географических
география
географиялык
географиянын
географиясы
географы
геодезия
геодезиялык
геоинформативдик
геол
геолог
геология
геологияда
геологиялык
геологу
геом
геометрия
геометрияда
геометриялык
геометриянын
геометриясы
геоморфологиялык
георг
георгии
геосинклиналдык
геосинклиналь
геофизика
геофизикалык
геохимия
геохимиялык
гепатит
гер
герат
герб
герберт
герби
герд
герман
германдык
германии
германия
германияга
германияда
германиядагы
германиядан
германиялык
германияны
германиянын
гермерсхаи
гермиона
герои
героя
герхард
герц
герцеговина
герцен
герцин
герцог
герцогство
геси
гесин
гесине
гессен
гетерогендик
гетероциклдүү
ги
гиббс
гибралтар
гибрид
гибриддештирүү
гибсон
гигант
гигиена
гигиеналык
гигиенаны
гидравликалык
гидро
гидрогеология
гидрогеологиялык
гидрографикалык
гидродинамика
гидродинамикалык
гидрокарбонат
гидроксил
гидролиз
гидрология
гидрологиялык
гидротерм
гидротермдик
гидротехникалык
гиз
гизбеи
гизген
гизди
гизе
гизет
гизип
гизиши
гизүү
гизүүгө
гизүүчү
гии
гилберт
гиле
гилиги
гилигин
гилик
гиликке
гиликсиз
гиликтер
гиликтерге
гиликтерди
гиликтери
гиликтүү
гильдиясынын
гималаи
гимн
гимназия
гимнастика
гимнастикалык
гимни
гимнинин
гинекология
гинекологиялык
гинелеи
гинелеп
гипербола
гипертония
гипотеза
гипофиз
гипс
гиссар
гиссен
гистология
гитара
гитарист
гитлер
гифхорн
гкии
гл
глав
глава
главная
глагола
глаз
глаза
глазами
глазах
глеи
глинка
глицерин
глобалдуу
глобалдык
глобус
глобустун
глюкоза
гляциалдык
гнеи
гносеологиялык
го
гоббс
гоби
говори
говорил
говорит
говорить
говоря
говорят
гоголдун
гоголь
год
года
году
годунов
годы
гозо
гои
гол
голланд
голландия
голландиялык
голландча
голливуд
голова
голове
головои
голову
головы
голос
гольштеи
гоминьдан
гомол
гон
гонго
гондо
гондои
гондон
гондурас
гонконг
гону
гонун
гонуп
гор
гора
горах
горбачев
горе
горизонт
горизонталдуу
горизонталдык
горизонталь
горизонттун
гормон
гормоналдык
гормондор
гормондордун
гормону
горная
горно
горного
горном
горныи
горных
город
города
городе
городов
городского
горчица
горы
горькии
горько
гос
гостеи
гость
государства
государственного
государственныи
государство
гот
гота
готика
готов
гр
граб
грабфельд
гравелит
гравиметриялык
гравитация
гравитациялык
гравюра
град
градус
градуска
гражд
граждандардын
граждандык
граи
грам
грамм
грамматика
грамматикалык
грамматикасы
грамота
грамоталар
грамоталары
грамотасы
грамотасына
гран
гранат
гранд
гранди
гранит
грант
гранулометриялык
граф
графенау
график
графика
графикада
графикалык
графикасы
графикасында
графикасынын
графикти
графиктик
графит
графия
графство
графтон
грвл
греи
грек
грекия
грекияда
грекиянын
гректер
гректердин
грекче
гренада
гренландия
греция
грецияда
грециянын
григориан
григории
григорьевич
грим
грин
гринвич
гринландия
грипп
грозныи
громко
грос
гроув
грубо
груди
грудь
груз
грузин
грузия
грузияда
грузиянын
грузно
группа
группадагы
группалык
группасы
группы
грэи
грэмми
грязнова
гу
губ
губасы
губернатор
губернатору
губернаторунун
губерниясы
губерниясынын
губка
губы
гудзон
гуи
гул
гула
гулам
гульсары
гумандуу
гуманизм
гуманисттик
гуманитардык
гуманитарные
гумбольдт
гумиле
гун
гунценхаузен
гур
гурлар
гурлардын
гуссерль
густав
густои
гут
гуч
гфр
гц
гы
гыга
гызстан
гыи
гылуу
гыр
гыруу
гырып
гысы
гэмпшир
гэс
гэси
гэсинин
гюи
гюнтер
гюнцбург
гүзүп
гүзүү
гүл
гүлаи
гүлгө
гүлдү
гүлдүн
гүлдүү
гүлдүүлөр
гүлдөгөн
гүлдөи
гүлдөп
гүлдөр
гүлдөрдүн
гүлдөрү
гүлдөө
гүлмира
гүлнара
гүлстан
гүлчынар
гүлчө
гүлү
гүлүн
гүлүнүн
гүн
гүнтер
гүстроу
гө
гөи
гөкалп
гөн
гөндө
гөнү
гөрлиц
гөттинген
д
да
даам
даамдуу
даамы
даамын
даана
даанышман
даанышмандык
даарат
даба
дабан
дабыш
дав
даваи
даван
давать
давая
давид
давлекан
давлесов
давно
дага
даган
дагстан
дагы
дае
даже
даи
дак
даки
дакматова
дал
далаи
далалат
далана
даланат
даланган
далангандыгы
даланса
далануу
даланууга
даланууда
далануудан
даланууну
далануунун
далануучу
даланыла
даланылат
даланылбаи
даланылган
даланылууда
даланылуучу
даланылып
даланылышы
даланып
даланышат
даланышкан
даланышы
далап
далат
далган
дале
далеко
далил
далилдеген
далилдеи
далилденген
далилдеп
далилдер
далилдерди
далилдүү
далилдөө
далилдөөгө
далили
даллас
далоо
далуу
далы
далыга
далынын
далып
далысын
даль
дальнего
дальше
дам
дама
дамаск
дамба
дан
дана
данакер
данга
данда
данды
дандын
данек
дания
данияда
даниялык
даниянын
данияр
данненберг
данные
данным
данных
даны
данын
данына
данында
данынын
дао
дап
дар
дара
дараалы
дарагы
дарагынын
дараж
даража
даражага
даражада
даражадагы
даражалар
даражалары
даражаларын
даражалуу
даражаны
даражасы
даражасын
даражасына
дарак
даракка
дарактан
дарактар
дарактарга
дарактарды
дарактардын
дарактары
дарактуу
дарактын
дарата
дарбаза
дарбазага
дарбазасы
дарбазасына
дарбазачы
дарбек
дарбеков
дарбыз
дарвин
дарвиндин
дарга
дарды
дардын
дареги
дарегин
дарегине
дарек
даректер
даректери
даректүү
дарии
даркан
даркен
даркүл
дармек
дармектер
дармектерди
дармштадт
дароо
дарс
дарстар
дарт
дартка
дарттын
дарты
дархан
дары
дарыгер
дарыгердин
дарыгери
дарыгерлер
дарыгерлик
дарыи
дарыкана
дарылабаса
дарылаи
дарыланат
дарылануу
дарыланууга
дарыланып
дарылап
дарылар
дарыларга
дарыларды
дарылардын
дарылары
дарылоо
дарылоого
дарылоодо
дарылоодон
дарылоону
дарылоонун
дарылоочу
дарылык
дарылыкка
дарым
дарыны
дарынын
дарысы
дарыя
дарыяга
дарыяда
дарыядан
дарыялар
дарыяларда
дарыялардын
дарыялары
дарыяларыворонов
дарыяларын
дарыяларынын
дарыянын
дарыясы
дарыясын
дарыясына
дарыясынан
дарыясында
дарыясындагы
дарыясынын
даст
дастан
дастанда
дастандар
дастандарды
дастандары
дастандын
дастанчы
дастаны
дастанын
дастанында
дастанынын
дасторкон
дасы
дасыз
дасыккан
дасын
дасына
дат
дата
датасы
датка
даткага
датканын
даттануу
датып
дать
дахау
дахо
даяр
даярдаган
даярдаи
даярдалат
даярдалган
даярдалып
даярдануу
даярданып
даярдап
даярдоо
даярдоого
даярдоодо
даярдоону
даярдоонун
даярдоочу
даярдыгы
даярдык
даярдыктан
даң
даңазалаган
даңазалаи
даңазалап
даңазалоо
даңазалуу
даңк
даңкка
даңктап
даңктуу
даңкы
даңкын
два
две
дверь
двигаться
двигаясь
движение
движении
движения
движениях
двина
двинск
двои
дворец
дворяндардын
двух
ддин
де
дебе
дебеи
дебет
дебити
дебют
дебюттук
дебюту
девица
девон
девондун
девушка
девушке
девушки
деггендорф
деггер
дегеле
деген
дегенге
дегенде
дегендеи
дегенден
дегендер
дегенди
дегендик
дегендин
дегени
дегенибиз
дегенин
деги
дегиле
дегин
дед
деди
дедик
дедим
деепр
дезинфекция
дезинфекциялоо
дезинфекциялоочу
деи
дек
декабрда
декабрдан
декабрына
декабрынан
декабрында
декабрындагы
декабрь
декабрьда
декабря
декадасында
декан
декандын
деканы
декарт
декарттын
декларация
декларациясы
декларациясын
декоративдүү
декрет
декрети
дел
дела
делает
делать
делген
деле
делегат
делегаты
делегациясы
деления
делет
дели
делинет
делип
дело
дель
дельберг
дельта
дельтаны
дельтасында
дем
демеи
демек
деми
демилге
демилгелер
демилгелүү
демилгеси
демилгесин
демилгечи
демилгечиси
деммин
демографиялык
демокр
демократ
демократия
демократияга
демократиялык
демократияны
демократиянын
демократтар
демократтык
демокрит
демөөрчү
демөөрчүлүк
демөөрчүсү
ден
денгээлде
дене
денег
денеге
денеде
денедеги
денеден
денени
дененин
денеси
денесин
денесинде
денесиндеги
денесине
денесинен
денесинин
дени
дениз
денис
денсоолугуна
денудациялык
день
деньги
деп
департаменти
департаментинин
депп
депрессия
дептер
дептери
дептир
депутат
депутатов
депутаттан
депутаттар
депутаттардын
депутаттары
депутаттарынын
депутаттыгына
депутаттык
депутаттыкка
депутаты
дер
дерево
державалардын
держать
десант
десе
десек
десем
десерт
десең
десять
дет
деталдар
детеи
детектив
детерминизм
дети
детлеф
детмольд
детская
деформация
деформациянын
дечү
дешет
дешип
дешке
дешкен
дешсе
деште
дешти
деятельности
деятельность
деңг
деңгели
деңгээл
деңгээлге
деңгээлде
деңгээлдеги
деңгээлден
деңгээлдери
деңгээлдеринин
деңгээли
деңгээлин
деңгээлинде
деңгээлиндеги
деңгээлине
деңгээлинен
деңгээлинин
деңиз
деңизге
деңизде
деңиздеги
деңизден
деңиздер
деңиздерде
деңиздердин
деңиздери
деңиздеринин
деңизди
деңиздик
деңиздин
деңизи
деңизинде
деңизиндеги
деңизине
деңизинен
деңизинин
дж
джаз
джалал
джамиля
джапанов
джеи
джек
джексон
джефферсон
джон
джонс
джонсон
джордж
джуманазарова
джэфферсон
дзержинскии
дзюдо
ди
диабаз
диабет
диабети
диагноз
диагноздоо
диагнозу
диагнозун
диагностика
диагностикалык
диалект
диалекти
диалектиге
диалектика
диалектикалык
диалектилер
диалектилери
диалектилик
диалектиси
диалектисинде
диалектологиялык
диалог
диаметри
диана
диапазондогу
диапазону
диапазонунда
диас
дибург
диван
дивану
дивизия
дивизиясы
дивизиясынын
дидактикалык
дидро
диета
дижеи
дизаи
дизель
дизентерия
дик
диктатор
диктатура
диктатурасы
диктор
дил
дилбаян
дилгир
дили
диллинген
дилль
дин
дина
динамика
динамикалуу
динамикалык
динамикасы
динамикасын
динамикасынын
динамо
динар
динара
династия
династиянын
династиясы
династиясын
династиясына
династиясынан
династиясынын
динге
динде
динден
диндер
диндердин
динди
диндик
диндин
дини
динии
динин
дининде
дининдеги
динине
дининин
динлин
динлиндер
динчил
диоген
диорит
диплоиддик
диплом
дипломат
дипломатия
дипломатиялык
дипломаттык
дипломдор
дипломдук
диплому
диполдук
дипхольц
дирак
дирген
директор
директордун
директорлор
директору
директорунун
дириже
дирижер
дирилдек
дирип
дирүү
дис
диск
дискреттүү
дискриминация
дискриминацияга
дискриминациянын
дисктин
диснеи
дисперсиялык
дисперстик
дисплеи
дисс
диссертация
диссертациялар
диссертацияларды
диссертациялык
диссертацияны
диссертациясы
диссертациясын
диссертациясынын
диссоциация
дисциплина
дисциплиналар
дитер
дитмар
дитмаршен
дитя
дифракция
дифракциялык
дифракциясы
дифференциал
дифференциалдык
диффузия
диффузиялык
диэлектрдик
диэлектрик
длужневская
для
дм
дмитриев
дмитриевич
дмитрии
дмитровская
дне
днеи
днепр
днепропетровск
дни
днк
днкнын
дня
до
доберан
добра
добро
доброе
добул
добулбас
добуш
добушка
добуштан
добуштардын
добуштун
добушу
добушун
довести
доводить
довольно
догдур
догдурга
дого
догосу
догу
догудаи
дождь
доза
дозасы
дои
док
докл
доклад
докладов
доклады
доктор
докторантурасын
доктордук
докторлук
докторов
доктору
доктрина
доктринасы
доктур
документ
документалдуу
документалдык
документи
документке
документтер
документтерге
документтерде
документтерди
документтердин
документтери
документтерин
документтеринде
документти
документтин
долбоор
долбоорго
долбоорду
долбоордун
долбоорлоо
долбоорлор
долбоорлорду
долбоорлордун
долбоорлору
долбоорлорун
долбоорлорунун
долбоору
долбоорун
долбооруна
долбоорунун
долго
должен
должность
должны
долине
долины
доллар
долларга
доллардан
долларды
доллардык
долларлык
доллары
долларын
долларына
доломит
долон
долоно
дом
дома
доме
домен
доминика
домна
дон
донау
донбасс
донецк
доннерсберг
донор
дону
доо
доого
доодо
доол
доомат
доону
доонун
доор
доорго
доордо
доордогу
доордон
доорду
доордун
доорлордо
доорлордогу
доорлордун
доору
доорун
дооруна
доорунан
доорунда
доорундагы
доорунун
доочу
доп
дор
дорбо
дордои
доров
дорович
дорога
дороге
дороги
дорогои
дорогу
дос
достоевскии
достои
достор
достору
досторунун
достугу
достук
достукту
досу
досум
досуна
досунун
доцент
доценти
доцентом
дочери
дочь
доңкулдак
доңуз
др
драи
драма
драмада
драмалар
драмалары
драмалык
драманын
драмасы
драмасын
драмасында
драматург
драматургдардын
драматургия
драматургу
драться
древнеи
древние
древних
древности
дрезден
дреи
друг
друга
другие
другим
других
другого
другое
другои
другом
другому
другу
дружба
ду
дуба
дубаи
дубал
дубалга
дубалдар
дубалдары
дубалдарын
дубалдын
дубалы
дубалын
дубалына
дубалынын
дубан
дубана
дубандын
дубанынын
дуглас
дудук
дуи
дук
дулу
дум
думана
дун
дунаи
дунган
дунгандар
дурнои
дуруп
дурус
дуу
дуулат
дуушар
дуушарланган
дуушарланып
дух
духом
духу
духунда
душ
душа
душанбе
души
душман
душманга
душмандан
душмандар
душмандарга
душмандардан
душмандарды
душмандардын
душмандары
душмандарын
душманды
душмандык
душмандын
душманы
душу
дуэт
дуң
дуңган
дуңдар
дуңдарда
дуңдары
дуңдун
дуңдуу
дуңкана
дуңу
дуңуна
дуңунда
дуңунун
ды
дыгер
дыи
дык
дыкат
дыкы
дылда
дым
дын
дыр
дың
дэ
дэвид
дэвис
дэи
дэн
дэниел
дэнни
дээр
дээрлик
дюи
дюна
дюрен
дюртюлин
дюссельдорф
дя
дү
дүи
дүкөн
дүкөндөр
дүкөнү
дүлөи
дүм
дүн
дүнүи
дүр
дүрбү
дүрбөлөң
дүркхаи
дүркүрөп
дүң
дүүлүгүү
дүүлүккөн
дүүлүктүргүч
дүүлүктүрүп
дүүлүктүрүүчү
дүүлүктүрөт
дө
дөбө
дөбөгө
дөбөлүү
дөбөлөр
дөбөт
дөгү
дөи
дөн
дөң
дөңгө
дөңгөлөк
дөңгөлөктүү
дөңсөө
дөңсөөлүү
дөңсөөлөр
дөңсөөсү
дөө
дөөлөс
дөөлөт
дөөлөтү
дөөнүн
дөөт
дөөттүн
дөөтү
е
еб
ева
евгении
евклид
евразии
евразия
евразияда
евразиялык
евразиянын
евреи
евро
еврокөрүнүү
европ
европа
европага
европада
европадагы
европадан
европалык
европалыктар
европалыктардын
европаны
европанын
европеи
еган
египет
египетке
египетте
египеттик
египеттин
его
едва
едет
ее
еи
ек
екатерина
екатеринбург
ел
елга
еле
елена
елизавета
ель
ельцин
емен
ему
ен
енисеи
енс
епископ
ер
ербах
ереван
ерихов
ермекеев
ерофеев
ерохин
ес
есет
если
ест
есть
ет
ешелүү
еще
ж
жа
жаа
жааган
жаагы
жаагын
жаадырып
жааи
жаак
жаакка
жаактын
жаан
жаанчыл
жааны
жаанын
жаап
жаасы
жаат
жаатка
жаатта
жааттын
жаатында
жаатындагы
жааңгер
жаба
жабат
жабдуу
жабдуулар
жабдууларды
жабдуулардын
жабдуулары
жабдууларын
жабдыгы
жабдык
жабдыктар
жабдыктарды
жабдыктары
жабдыктарын
жабдыктарына
жабдыктарынын
жабдылат
жабдылган
жабуу
жабууга
жабуунун
жабуусу
жабуучу
жабык
жабылат
жабылган
жабылып
жабыр
жабыркаган
жабыркаганда
жабыркаи
жабыркап
жабыркатат
жабыркатуучу
жабыркашы
жабырлануучу
жабырлануучунун
жабышкак
жабышкан
жабышып
жага
жагалмаи
жагат
жагдаи
жагы
жагымдуу
жагымсыз
жагын
жагына
жагынан
жагында
жагындагы
жагынын
жагып
жада
жадид
жадыбал
жаз
жаза
жазага
жазалаи
жазалап
жазалоо
жазалоочу
жазам
жазаны
жазанын
жазасы
жазасын
жазасына
жазат
жазбаи
жазган
жазганда
жазгандар
жазганы
жазгы
жазгыч
жазда
жаздагы
жазды
жаздык
жаздым
жаздын
жаздырган
жаздыруу
жаздыруучу
жаздырылган
жаздырып
жазма
жазмалар
жазмаларды
жазмалары
жазмаларын
жазмаларында
жазмаларынын
жазманы
жазманын
жазмасы
жазмасын
жазмасында
жазмасынын
жазса
жазуу
жазууга
жазууда
жазуудагы
жазуудан
жазуулар
жазууларда
жазууларды
жазуулардын
жазуулары
жазууларын
жазууларында
жазууну
жазуунун
жазуусу
жазуусун
жазуусунда
жазуусунун
жазуучу
жазуучулар
жазуучулардын
жазуучулары
жазуучуларынын
жазуучулук
жазуучунун
жазуучусу
жазы
жазык
жазыксыз
жазыла
жазылат
жазылбаган
жазылбаи
жазылган
жазылуу
жазылуучу
жазылыгы
жазылып
жазылыш
жазылышы
жазында
жазып
жазышат
жазышкан
жаи
жак
жака
жакаларында
жакалуу
жакан
жакандын
жакарта
жакасы
жакасына
жакасында
жакасындагы
жакиев
жакиевдин
жакка
жаккан
жаккы
жакпаи
жакта
жактаган
жактагы
жактаи
жактан
жактап
жактар
жактарга
жактарды
жактардын
жактары
жактарын
жактарына
жактарында
жактарынын
жактоо
жактоочу
жактоочулар
жактоочулары
жактоочусу
жактуу
жакты
жактын
жактырбаи
жактырган
жактырып
жакут
жакшы
жакшыбы
жакшылап
жакшылык
жакшылыкка
жакшылыков
жакшылыктарынын
жакшылыкты
жакшылыктын
жакшынакаи
жакшыраак
жакшырат
жакшыртат
жакшыртуу
жакшыртууга
жакшыртуучу
жакшыртылган
жакшыртып
жакшырып
жакшысы
жакшысын
жакын
жакында
жакындаган
жакындаганда
жакындаи
жакындан
жакындап
жакындары
жакындарынын
жакындатылган
жакындатып
жакындашат
жакындашып
жакындыгы
жакындык
жакынкы
жакыны
жакынын
жакыныраак
жакып
жакыпбек
жакыпбеков
жакыпка
жакыпты
жакыптын
жакыр
жакырчылык
жакырчылыкты
жакырчылыктын
жал
жала
жалаа
жалаи
жалал
жалалабад
жалалабат
жалама
жалар
жаларга
жаларды
жалары
жаларын
жалатылган
жалаң
жалбырагы
жалбырагын
жалбырагынан
жалбырагынын
жалбырак
жалбырактар
жалбырактары
жалбырактарын
жалбырактарынын
жалбырактуу
жалбырактын
жалган
жалганга
жалганчы
жалгыз
жалгыздан
жалгыздап
жалданма
жалданып
жалдоо
жалжалым
жалил
жалкоо
жалкы
жалпак
жалпы
жалпыга
жалпыланган
жалпылап
жалпылоо
жалпылыгы
жалпылык
жалпылыктар
жалпылыкты
жалпысынан
жалтырак
жалуу
жалуулугу
жалуулугун
жалчалары
жалчы
жалы
жалын
жалындап
жалындуу
жалынып
жаль
жам
жамаат
жамаатка
жамааттар
жамааттары
жамаатташ
жамааттык
жамааттын
жамааты
жамаатын
жамаатына
жамаатынын
жамал
жаман
жамандык
жамандыкка
жамандыктан
жамандыкты
жамандыктын
жаманы
жамбаш
жамбы
жамбыл
жамгыр
жамгырдан
жамгырчинов
жамгырчы
жами
жамии
жамы
жамынган
жамынып
жан
жана
жанаа
жанагы
жанар
жанартоо
жанат
жанаша
жанга
жанган
жангарач
жанда
жандаи
жандан
жандандыруу
жанданып
жандап
жандар
жандардын
жандоочусу
жандуу
жанды
жандык
жандыктар
жандыктарды
жандыктардын
жандыктын
жандын
жанеи
жанр
жанрда
жанрдагы
жанрдык
жанрдын
жанрлар
жанрлардын
жанрлары
жанры
жанрын
жанрына
жанрында
жанрындагы
жанрынын
жансыз
жантаи
жантаюу
жантык
жантөшев
жантөшевдин
жанузаков
жаны
жаныбар
жаныбарга
жаныбарда
жаныбардан
жаныбарды
жаныбардын
жаныбарлар
жаныбарларга
жаныбарларда
жаныбарлардан
жаныбарларды
жаныбарлардын
жаныбарлары
жаныбарларынын
жаныбары
жаныбек
жаныбекова
жаным
жаныма
жанымда
жанын
жанына
жанынан
жанында
жанындагы
жанып
жаныш
жаның
жап
жапа
жападан
жапаи
жапалак
жапан
жапар
жапаров
жапкан
жапкыч
жапон
жапония
жапонияда
жапониянын
жапыз
жапыздаи
жапырт
жапырык
жар
жара
жараат
жарабаи
жарага
жараган
жарагы
жарагын
жарадар
жараи
жарак
жарака
жаракалар
жаракалардын
жаракалары
жаракалуу
жаракасы
жаракат
жараксыз
жарактар
жарактарды
жарактуу
жарала
жараланган
жаралат
жаралган
жаралды
жаралуу
жаралып
жаралыш
жаралышы
жаралышын
жаралышына
жарамдуу
жарамдуулугу
жарамдуулугун
жарамсыз
жаран
жарандар
жарандарга
жарандарды
жарандардын
жарандары
жарандарына
жарандарынын
жарандыгы
жарандыгын
жарандык
жарандын
жараны
жаранын
жарап
жарасы
жарат
жарата
жаратат
жараткан
жаратканга
жаратты
жараттык
жаратуу
жаратууга
жаратууда
жаратуучу
жаратуучусу
жаратылган
жаратылыш
жаратылышка
жаратылышта
жаратылыштагы
жаратылыштан
жаратылышты
жаратылыштын
жаратылышы
жаратылышын
жаратылышына
жаратып
жаратышкан
жараша
жарашат
жарашыктуу
жарашып
жараяны
жаргак
жарган
жарганат
жаргылчак
жардам
жардамга
жардамдашуу
жардамды
жардамчы
жардамчылары
жардамчысы
жардамы
жардамын
жардамында
жардуу
жарды
жардыруу
жарк
жаркент
жаркын
жаркынаи
жаркыраган
жаркырак
жаркырап
жарлыгы
жарма
жармашып
жарнама
жарнамалык
жарнаманын
жарты
жартылаи
жарчысы
жары
жарыгы
жарык
жарыкка
жарыкты
жарыктык
жарыктын
жарылат
жарылган
жарылгыч
жарылуу
жарылуучу
жарылып
жарым
жарымы
жарымын
жарымына
жарымынан
жарымында
жарымындагы
жарып
жарыш
жарышуу
жарыя
жарыялаган
жарыялады
жарыялаи
жарыялана
жарыяланат
жарыяланган
жарыялангандан
жарыяланды
жарыяланып
жарыяланышы
жарыялап
жарыялашкан
жарыялоо
жарыялоого
жаса
жасабаи
жасаган
жасаганда
жасагандыгы
жасады
жасаи
жасала
жасалат
жасалга
жасалгаланган
жасалгалар
жасалгалары
жасалгаларын
жасалгалоо
жасалгалоочу
жасалгалык
жасалган
жасалганы
жасалгасы
жасалды
жасалма
жасалса
жасалуучу
жасалып
жасалышы
жасап
жасаса
жасашат
жасашкан
жасоо
жасоого
жасоодо
жасоодон
жасоону
жасоонун
жасоочу
жасы
жасыз
жасын
жасында
жат
жата
жатабы
жатабыз
жатак
жатам
жатасың
жатасыңар
жатасыңарбы
жатат
жатка
жаткан
жатканда
жаткандаи
жаткандар
жаткандарга
жаткандарды
жаткандардын
жаткандыгы
жаткандыгын
жаткандыктан
жатканы
жатканын
жатканына
жаткыруу
жаткырып
жатпаган
жатпаи
жатса
жаттап
жатты
жатуу
жатуучу
жатык
жатын
жатынга
жатындан
жатындын
жатып
жатыптыр
жатыш
жатышат
жатышкан
жатышканда
жатышты
жатышы
жахан
жацы
жаш
жашабаган
жашабаи
жашаган
жашагандар
жашагандардын
жашады
жашаи
жашап
жашар
жашаса
жашасын
жашашат
жашашкан
жашка
жашоо
жашоого
жашоодо
жашоодогу
жашоодон
жашоом
жашоону
жашоонун
жашоосу
жашоосун
жашоосуна
жашоосунан
жашоосунда
жашоосундагы
жашоосунун
жашоочу
жашоочулар
жашоочулардын
жашоочулары
жашта
жаштагы
жаштагылар
жаштаи
жаштан
жаштар
жаштарга
жаштарды
жаштардын
жаштары
жаштарынын
жаштык
жаштыктын
жаштын
жашы
жашык
жашыл
жашылдандыруу
жашылча
жашылчалар
жашылчаларды
жашын
жашына
жашынан
жашында
жашындагы
жашынын
жашынып
жашырган
жашыруу
жашыруун
жашырын
жашырынып
жашырып
жаюу
жая
жаян
жаң
жаңгагы
жаңгак
жаңгакча
жаңжал
жаңы
жаңыбаи
жаңыдан
жаңыл
жаңыланган
жаңылануу
жаңыланып
жаңылоо
жаңылык
жаңылыктар
жаңылыктарды
жаңылыктары
жаңылып
жаңылыш
жаңылыштык
жаңырат
жаңырган
жаңыртуу
жаңыртылган
жаңыртып
жаңырыгы
жаңырык
жаңырып
жаңыча
жаңычыл
жаӊы
жге
жданов
же
жебе
жебегиле
жебеи
жебенин
жебеси
жеген
жегенге
жегенде
жегенден
жегиле
жегич
жегичтүү
жедигер
жедигердин
жез
жезден
жезди
жездин
жеи
жек
жеке
жекеге
жекелик
жекеме
жекече
жеки
жексон
жекшемби
жел
желание
желаргы
желатин
желаю
желбирөөч
желдетип
желдеткич
желдетүү
желе
желеги
желегин
железо
желек
желекчелери
желеси
желет
желим
желиндүү
желип
желке
желмогуз
жем
жемиш
жемиши
жемиштер
жемиштерди
жемиштери
жемиштүү
жена
жене
женева
женевада
женил
жениха
женнифер
жену
женщин
женщина
женщине
женщины
жены
жеп
жер
жерг
жерге
жергез
жергеси
жергесинде
жергесиндеги
жергесине
жергесинин
жергетал
жергиликтүү
жерде
жердеген
жердеги
жерден
жердеп
жерди
жердиги
жердигин
жердик
жердикке
жердин
жеребе
жеребец
жереми
жери
жерим
жерин
жерина
жеринде
жериндеги
жерине
жеринен
жеринин
жерлер
жерлерге
жерлерде
жерлердеги
жерлерден
жерлерди
жерлердин
жерлери
жерлерин
жерлеринде
жерлерине
жерлеринен
жерлеринин
жерри
жерси
жертву
жесе
жесир
жет
жете
жетектеген
жетектеи
жетектеп
жетектөө
жетектөөчү
жетекчи
жетекчилер
жетекчилери
жетекчилерин
жетекчилеринин
жетекчилиги
жетекчилигинде
жетекчилигине
жетекчилик
жетекчиликке
жетекчиликти
жетекчинин
жетекчиси
жетекчисинин
жетелеи
жетелек
жетелеп
жетет
жети
жетиген
жетик
жетилбеген
жетилген
жетиле
жетилет
жетилип
жетилүү
жетим
жетимиш
жетинин
жетинчи
жетип
жетисуу
жетиш
жетише
жетишерлик
жетишет
жетиши
жетишилген
жетишилет
жетишип
жетишишкен
жетишкен
жетишкендиги
жетишкендик
жетишкендиктер
жетишкендиктери
жетишкендиктерин
жетишкендиктерине
жетишкендиктеринин
жетишпеген
жетишпегенде
жетишпеи
жетишсиз
жетишсиздиги
жетишсиздигинен
жетишсиздик
жетишти
жетиштүү
жетишээрлик
жетишүү
жетишүүгө
жеткен
жеткенге
жеткенде
жеткенден
жеткени
жеткилең
жеткилик
жеткиликсиз
жеткиликтүү
жеткирбеи
жеткирген
жеткире
жеткирет
жеткирилген
жеткирилет
жеткирилип
жеткирип
жеткирүү
жеткирүүгө
жеткирүүдө
жеткирүүчү
жеткис
жетпеген
жетпеи
жетпес
жетпесе
жетсе
жетти
жетүү
жетүүгө
жетүүнүн
жетөө
жечү
жеш
жешет
жең
жеңген
жеңгенден
жеңгендиги
жеңдүү
жеңе
жеңет
жеңи
жеңижок
жеңил
жеңилген
жеңилгенден
жеңилдетет
жеңилдетилген
жеңилдетүү
жеңилдетүүчү
жеңилдик
жеңилдиктер
жеңилдиктерди
жеңилет
жеңилип
жеңилирээк
жеңилиши
жеңилүү
жеңилүүгө
жеңип
жеңиш
жеңишбек
жеңиши
жеңишин
жеңишине
жеңишке
жеңишти
жеңиштин
жеңиштүү
жеңүү
жеңүүгө
жеңүүчү
жеңүүчүсү
жж
жи
жибек
жибектен
жибер
жибербеи
жиберген
жиберди
жибердик
жибере
жиберет
жиберилген
жиберилет
жиберилип
жиберип
жиберишет
жиберишкен
жиберишти
жиберсе
жиберүү
жиберүүгө
жиберүүчү
жиби
жив
живе
живописи
живописинин
живописте
живопистик
живопистин
живописчи
живописчиси
живопись
живот
животного
животное
животном
животных
жигердүү
жигит
жигити
жигитке
жигитов
жигиттер
жигиттердин
жигиттери
жигитти
жигиттин
жиев
жизель
жизни
жизнь
жии
жик
жиксиз
жил
жилик
жиликтин
жим
жимми
жин
жиндер
жиндерди
жинди
жини
жип
жипке
жиптен
жиптер
жиптери
жипти
жиптин
жир
жиреп
жирмунскии
жиром
житим
жить
жк
жкнын
жо
жоан
жобо
жобого
жоболор
жоболорго
жоболорду
жоболору
жоболорун
жоболоруна
жобону
жобосу
жобосун
жог
жоголгон
жоголду
жоголот
жоголуп
жоголуу
жоголушу
жогорку
жогоркудаи
жогортон
жогору
жогоруда
жогорудагы
жогорудагыдаи
жогорулаган
жогорулаи
жогорулап
жогорулатат
жогорулатуу
жогорулатууга
жогорулатууда
жогорулатуучу
жогорулатып
жогорулашы
жогорулашына
жогорураак
жоготкон
жогото
жоготот
жоготпои
жоготуп
жоготуу
жоготууга
жоготууларга
жож
жождор
жождордун
жождун
жозеф
жои
жок
жокко
жокмун
жокпу
жокпуз
жоксуң
жоксуңар
жокто
жоктон
жоктоп
жоктугу
жоктугун
жоктугуна
жоктугунан
жоктун
жол
жолборс
жолборстун
жолго
жолдо
жолдогон
жолдогу
жолдомо
жолдомосу
жолдон
жолдоп
жолдор
жолдорду
жолдордун
жолдору
жолдорун
жолдоруна
жолдорунда
жолдорунун
жолдош
жолдошев
жолдоштору
жолдоштук
жолдошу
жолду
жолдун
жолку
жолои
жолоочу
жолотпои
жолтоо
жолу
жолугат
жолугуп
жолугуучу
жолугушкан
жолугушу
жолугушуп
жолугушуу
жолугушуулар
жолугушууларды
жолуккан
жолукканы
жолуктурууга
жолун
жолуна
жолунан
жолунда
жолундагы
жолунуку
жолунун
жолчоро
жомогу
жомок
жомоктор
жомокторду
жомоктору
жомокторун
жомоктук
жомоктун
жомокчу
жон
жонатан
жонгле
жонни
жонс
жонсон
жону
жонунан
жонунда
жонундо
жонуп
жоо
жообу
жообун
жоогазын
жоого
жоодон
жоокер
жоокердик
жоокердин
жоокери
жоокерлер
жоокерлерге
жоокерлерди
жоокерлердин
жоокерлери
жоокерлеринин
жоокерчилик
жоолук
жоолукту
жоомарт
жоон
жоондугу
жоону
жоонун
жооп
жоопкер
жоопкерчилиги
жоопкерчилигин
жоопкерчилигине
жоопкерчилигинен
жоопкерчилик
жоопкерчиликке
жоопкерчиликти
жоопкерчиликтин
жоопкерчиликтүү
жоопко
жооптор
жоопту
жооптуу
жоосун
жоош
жорго
жорж
жоро
жоромол
жортуул
жортуулга
жортуулдары
жортуулу
жору
жоругу
жорук
жоруктары
жосун
жото
жошо
жоюлат
жоюлган
жоюлгандан
жоюлуп
жоюлушу
жоюп
жоюу
жоюуга
жоюуда
жу
жуан
жубаи
жубу
жугат
жугузуп
жугуучу
жугушсуз
жугуштуу
жугушу
жук
жука
жуккан
жуковскии
жукпаи
жуктуруп
жулуп
жульетта
жума
жумабаев
жумабек
жумага
жумагулов
жумада
жумадан
жумадылов
жумакан
жумакматов
жумакунова
жумалиев
жумалык
жуманазарова
жуманалиев
жуманын
жумасына
жумаш
жумгал
жумган
жумду
жумуп
жумуртка
жумурткадаи
жумурткадан
жумурткалары
жумурткаларын
жумуртканын
жумурткасы
жумурткасын
жумуру
жумуш
жумушка
жумушсуз
жумушсуздук
жумушсуздуктун
жумушта
жумуштан
жумуштар
жумуштарда
жумуштарды
жумуштары
жумуштарын
жумуштарында
жумушту
жумуштун
жумушу
жумушун
жумушуна
жумушчу
жумушчулар
жумушчуларды
жумушчулардын
жумушчулары
жумушчуларынын
жумушчунун
жумшаган
жумшаи
жумшак
жумшалат
жумшалган
жумшап
жумшартуу
жумшартып
жун
жунгар
жунусов
жуп
жупуну
журавли
журахон
журнал
журналга
журналдар
журналдарга
журналдарда
журналдардын
журналдары
журналдарында
журналдын
журналист
журналисти
журналистика
журналисттер
журналисттик
журналы
журналын
журналына
журналында
журналынын
журт
журтка
журттан
журтту
журттун
журту
журтум
журтун
журтуна
журтунун
жусуп
жусупка
жусупов
жусуптун
жут
жутулуу
жутуп
жутуу
жуу
жууган
жуугуч
жууи
жуук
жууку
жуулуп
жууп
жууркан
жуурулушуп
жуусун
жуучу
жууш
жуңгар
жуңго
жчк
жыга
жыгат
жыгач
жыгачка
жыгачтан
жыгачты
жыгачтын
жыгаччы
жыгаччылык
жыгачы
жыгачын
жыгачынан
жыгылган
жыгылды
жыгылып
жыгып
жызак
жыи
жык
жыл
жыла
жылаажын
жыламыш
жылан
жыландар
жыланды
жыландын
жылат
жылаңач
жылбаи
жылга
жылган
жылда
жылдагы
жылдаи
жылдан
жылдап
жылдар
жылдарга
жылдарда
жылдардагы
жылдардан
жылдарды
жылдардын
жылдары
жылдарын
жылдарына
жылдарынан
жылдарында
жылдарындагы
жылдарынын
жылды
жылдыгы
жылдыгын
жылдыгына
жылдыгында
жылдыгынын
жылдыз
жылдызга
жылдыздар
жылдыздарга
жылдыздарды
жылдыздардын
жылдыздары
жылдыздарынын
жылдыздуу
жылдыздын
жылдызча
жылдызы
жылдызына
жылдызынын
жылдык
жылдыкка
жылдыкта
жылдыктан
жылдыктарда
жылдыктын
жылдын
жылдырат
жылдыруу
жылдырып
жылкы
жылкыга
жылкылар
жылкылардын
жылкылары
жылкыны
жылкынын
жылкысы
жылкысын
жылкычы
жылма
жылмаи
жылмакаи
жылмаланган
жылнаамасы
жылнамасы
жылсанагы
жылт
жылтыраи
жылтырак
жылуу
жылуулугу
жылуулук
жылуулукка
жылуулукту
жылуулуктун
жылча
жылчыксыз
жылы
жылын
жылына
жылынан
жылында
жылынын
жылып
жылыткыч
жылытуу
жылышуу
жылышы
жыныс
жыныссыз
жыныстагы
жыныстуу
жыныстык
жынысы
жынысына
жыпар
жыргал
жыргалаң
жыргалбаи
жыргалчылык
жыргап
жырткыч
жырткычтар
жырым
жырымдар
жырымдарды
жыт
жытсыз
жыттанат
жыттанган
жыттуу
жыты
жытын
жыш
жышаан
жышаандары
жыштыгы
жыштыгын
жыштыгына
жыштыгынын
жыштык
жыштыкта
жыштыктагы
жыштыктуу
жыштыктын
жэи
жээги
жээгин
жээгинде
жээгиндеги
жээгине
жээгинен
жээгинин
жээк
жээкке
жээкте
жээктеген
жээктеги
жээктеи
жээктен
жээктеп
жээктери
жээктерин
жээктеринде
жээктериндеги
жээктерине
жээктин
жээн
жээнбаев
жээнбек
жээнбеков
жээнбектин
жээни
жээрде
жүгү
жүгүн
жүгүртүп
жүгүртүү
жүгүртүүгө
жүгүртүүдө
жүгүртүүдөн
жүгүртүүлөр
жүгүртүүнү
жүгүртүүнүн
жүгүртүүсү
жүгүрүк
жүгүрүп
жүгүрүү
жүгөн
жүгөрү
жүз
жүзгө
жүздүн
жүздүү
жүздөгөн
жүздөн
жүзү
жүзүм
жүзүмдүн
жүзүмчүлүк
жүзүн
жүзүндө
жүзүндөгү
жүзүнүн
жүзүнө
жүзүнөн
жүзөгө
жүи
жүк
жүктү
жүктүн
жүктөи
жүктөлгөн
жүктөлөт
жүктөп
жүктөр
жүктөрдү
жүктөө
жүлүн
жүлүндүн
жүн
жүндү
жүндүү
жүндөн
жүнү
жүнүн
жүнүнүн
жүнүнөн
жүр
жүрбөи
жүргүзгөн
жүргүзүлгөн
жүргүзүлүп
жүргүзүлүшү
жүргүзүлүүдө
жүргүзүлүүчү
жүргүзүлө
жүргүзүлөт
жүргүзүп
жүргүзүшкөн
жүргүзүшөт
жүргүзүү
жүргүзүүгө
жүргүзүүдө
жүргүзүүнү
жүргүзүүнүн
жүргүзүүчү
жүргүзө
жүргүзөт
жүргүлө
жүргүнчү
жүргүнчүлөр
жүргүнчүлөрдү
жүргүч
жүргөн
жүргөндө
жүргөндөр
жүргөнү
жүргөнүн
жүрдү
жүрдүм
жүрмө
жүрсүн
жүрсө
жүрчү
жүрүм
жүрүмү
жүрүп
жүрүш
жүрүшкө
жүрүшкөн
жүрүштү
жүрүшү
жүрүшүн
жүрүшүндө
жүрүшүнүн
жүрүшүнө
жүрүшөт
жүрүү
жүрүүгө
жүрүүчү
жүрүүчүлөр
жүрө
жүрөбүз
жүрөгү
жүрөгүм
жүрөгүн
жүрөгүндө
жүрөгүнүн
жүрөгүнө
жүрөгүнөн
жүрөгүң
жүрөк
жүрөккө
жүрөктү
жүрөктүн
жүрөктө
жүрөктөгү
жүрөктөн
жүрөктөр
жүрөктөрү
жүрөкчө
жүрөм
жүрөт
жүсүп
және
жөжө
жөлөк
жөн
жөнгө
жөндөгүч
жөндөмдүү
жөндөмдүүлүгү
жөндөмдүүлүгүн
жөндөмдүүлүгүнүн
жөндөмдүүлүгүнө
жөндөмдүүлүк
жөндөмдүүлүктү
жөндөмдүүлүктөрүн
жөндөмсүз
жөндөмү
жөндөмүн
жөндөмүнө
жөндөмө
жөндөө
жөнү
жөнүн
жөнүндө
жөнүндөгү
жөнөгөн
жөнөдү
жөнөи
жөнөкөи
жөнөп
жөнөткөн
жөнөттү
жөнөтүлгөн
жөнөтүлүп
жөнөтүлөт
жөнөтүп
жөнөтүү
жөнөтүүгө
жөнөтүүчү
жөнөтөт
жөнөштү
жөнөшөт
жөргөмүш
жөрөлгө
жөрөлгөсү
жөтөл
жөтөлгөндө
жөтөлөт
жөө
жөөт
жөөттөр
з
за
заада
заале
заалым
заалымдар
заальфельд
заар
заара
зааранын
забаи
забои
завод
заводдо
заводдор
заводдору
заводдун
заводу
заводунда
заводунун
завтра
загадка
задачи
заде
заж
заждык
заи
зак
закавказье
заказ
заказниги
заказник
заказниктерди
закария
закиров
заков
закон
закондору
закондорун
закондоруна
закону
законун
законуна
законунун
зал
залал
залкар
залы
залында
зальцведель
зальцланд
зам
заман
замана
заманбап
заманга
заманда
замандагы
замандан
замандарда
замандаш
замандаштары
замандаштарынын
заманды
замандын
заманы
заманында
заманындагы
заманынын
замат
заматта
замбирек
замбия
замга
замда
замдар
замдарга
замдарда
замдарды
замдардын
замдары
замдарын
замдарына
замдарында
замдарынын
замдуу
замды
замдык
замдын
замирбек
замоскворецкая
замсыз
замуж
замы
замын
замына
замында
замынын
зангерхаузен
занын
западнои
запас
запастары
запасы
запасын
запасынын
запах
записки
запкы
зар
заравшан
зарыл
зарылдыгы
зарылдыгын
зарылдык
зарылчылыгы
зарылчылыгын
заря
заряд
заряддалган
заряддардын
заряддуу
заряддын
заряды
зарядынын
заставил
заставить
зат
затка
заттан
заттар
заттарга
заттарда
заттардан
заттарды
заттардын
заттары
заттарын
заттарынын
затты
заттык
заттын
заты
зачем
защита
заң
заңы
звания
зве
звезда
звено
звеносу
зверя
звук
звуки
звукоподражание
звуку
здесь
здоров
здорово
здоровье
зе
зевс
зегеберг
зеи
зекет
зеки
зеландия
зеландиянын
зеле
земле
земли
землю
земля
зен
зенит
зениттик
зер
зергер
зергердик
зергердин
зергерлер
зергерлик
зергерчилик
зергерчиликте
зергерчиликтин
зерслаутерн
зианчурин
зиг
зигфрид
зикир
зилаи
зима
зимбабве
зимои
зинг
зия
зияда
зиянын
злобно
змея
знает
знак
знамя
знать
знач
значение
значит
знаю
знающии
зодиак
зодчии
золотая
золото
золотои
зольтау
зомбулук
зомбулукка
зомбулуктан
зомбулукту
зомбулуктун
зона
зонага
зонада
зоналар
зоналарга
зоналарда
зоналардын
зоналары
зоналарында
зоналык
зонанын
зонасы
зонасына
зонасында
зонасынын
зонд
зоннеберг
зоо
зоок
зоокалуу
зоология
зоопарк
зоот
зоотехник
зор
зордоп
зордук
зордуктап
зордуктоо
зороастризм
зря
зу
зубы
зулаи
зулкарнаи
зулпукаровым
зулум
зулумдук
зульцбах
зурхане
зуура
зууракан
зы
зыгыр
зыи
зым
зымдан
зымсыз
зындан
зырянское
зыян
зыянга
зыяндуу
зыянды
зыяндын
зыянкеч
зыянкечтери
зыянсыз
зыянсыздандыруу
зыяны
зыярат
зээндүү
зөммерда
и
иа
иада
ианын
иасынын
ибадат
иблис
ибн
ибни
ибрагим
ибрагимов
ибраев
ибраева
ибраимов
ибрахим
ибрахимдин
иван
иванов
иванович
ивановка
ивановна
иврит
ивуар
игирээк
иглин
игорь
игра
играть
играх
игре
игры
ид
ида
иде
идеал
идеалдуу
идеалдык
идеализм
идеалист
идеалисттик
идеалы
идеи
идеология
идеологиялык
идеологияны
идеологиянын
идеологиясы
идея
идеяга
идеялар
идеяларды
идеялардын
идеялары
идеяларын
идеяларынын
идеялык
идеяны
идеянын
идеясы
идеясын
идеясына
идеясынын
иди
идиш
идишке
идиште
идиштер
идиштерге
идиштерди
идиштердин
идиштери
идиштерин
идишти
идиштин
идп
идпнин
идти
идут
иерархиялык
иерусалим
иерусалимге
иерусалимде
иерусалимди
иет
ижара
ижарага
из
избаева
избранное
избранные
изв
известия
изге
изд
издавать
издание
издательство
изде
издеген
издеи
изден
изденип
изденүү
издеп
издер
издери
издерин
издешет
изди
издин
издөө
издөөгө
издөөдө
иззат
изи
изилдеген
изилдеи
изилденген
изилдене
изилденет
изилденип
изилдениши
изилденүүчү
изилдеп
изилдешкен
изилдоо
изилдөө
изилдөөгө
изилдөөдө
изилдөөдөн
изилдөөлөр
изилдөөлөргө
изилдөөлөрдү
изилдөөлөрдүн
изилдөөлөрдө
изилдөөлөрү
изилдөөлөрүн
изилдөөлөрүндө
изилдөөлөрүнүн
изилдөөнү
изилдөөнүн
изилдөөсү
изилдөөчү
изилдөөчүлөр
изилдөөчүлөрдүн
изилдөөчүсү
изин
изине
измир
изо
изображать
изомери
изотобу
изотоп
изотоптор
изотопторду
изотоптору
изотоптук
израил
израилде
израилдин
израиль
изучение
изучения
ии
иии
иииде
ииинин
иим
иимдин
иисус
ик
икер
икке
иккер
икона
икт
икте
иктеген
иктеги
иктеи
иктеп
иктиги
иктигин
иктигине
иктик
иктикке
иктикте
иктиктеги
иктиктен
иктин
ил
илбирс
илбирстин
илген
илгери
илгерилетүү
илгерки
илгертеден
илгертен
илгич
илдет
илдети
илдетин
илдетке
илдеттери
илдеттүү
илдөө
иле
илек
иленин
илет
или
илик
иликтеген
иликтеи
иликтеп
иликтөө
иликтөөгө
иликтөөлөр
иликтөөчү
илим
илимге
илимд
илимде
илимдеги
илимдер
илимдерге
илимдерди
илимдердин
илимдери
илимдеринин
илимди
илимдин
илими
илимии
илимин
илиминде
илиминдеги
илимине
илиминин
илимпоз
илимпоздор
илимпоздордун
илимпоздору
илимпозу
илинген
илинет
илинип
илип
илишев
илияс
илл
иллинои
илме
илмек
илчээк
ильич
ильм
ильцен
илья
ильяс
илээшкек
илээшкектик
илүү
илүүчү
им
имам
иманалиев
иманалиева
иманбек
иманбектин
иманкулов
имарат
имаратка
имаратта
имараттар
имараттарды
имараттардын
имараттары
имаратты
имараттын
имараты
имаратын
имаратынын
имге
имден
имдер
имдерди
имдердин
имдери
имдерин
имдерине
имдеринин
имди
имдин
имеет
имел
имени
иметь
имеющии
ими
имин
иминин
имиш
иммундук
иммунитет
иммунология
император
императордук
императордун
императору
императорунун
империи
империя
империялык
империянын
империясы
империясын
империясына
империясында
империясынын
импорт
импорттук
импровизация
импульс
импульстук
импульстун
импульстуу
импульсу
имчен
имя
ин
инв
инверсия
инвестиция
инвестициялар
инвестицияларды
инвестициялардын
инвестициялык
инвестор
инвесторлор
инвесторлордун
инге
инген
ингуш
инд
инде
индеги
индеи
индекс
индекси
инден
инди
индиана
индивид
индивиддердин
индивиддин
индивидуалдуу
индивидуалдык
индии
индикатор
индикытаи
индин
индира
индистан
индия
индияга
индияда
индиядагы
индиядан
индиялык
индияны
индиянын
индонезия
индонезияда
индонезиянын
индуизм
индукция
индукциялык
индус
индустриалдык
индустрия
индустриялуу
индустриялык
индюк
ине
инен
инерттүү
инерция
инерциялык
инженер
инженердик
инженери
инженерия
инженерлер
инжил
инзер
ини
инилери
инин
инип
иниси
инки
инкиге
инкилер
инкилери
инкиси
инкубациялык
инн
инновация
инновациялык
иногда
инсан
инсанга
инсандар
инсандарды
инсандардын
инсандары
инсанды
инсандык
инсандын
инспектор
инспектору
инспекциясынын
институнда
институнун
институт
института
институтка
институтта
институттар
институттарды
институттардын
институттары
институттарында
институттарынын
институтту
институттун
институту
институтун
институтуна
институтунан
институтунда
институтунун
инструктор
инструктору
инсульт
интеграл
интегралдык
интеграция
интеллект
интеллектуалдуу
интеллектуалдык
интеллигенция
интеллигенциянын
интенсивдүү
интенсивдүүлүгү
интенсивдүүлүгүн
интерактивдүү
интервью
интермедия
интернат
интернатта
интернационал
интернационалдык
интернационалдын
интернет
интернетке
интернетте
интернеттеги
интернеттен
интернеттин
интерфеи
интонация
интонациялык
интрузия
интрузиялары
интрузиясы
интуиция
инфаркты
инфекция
инфекциялар
инфекциялык
инфекциянын
инфекциясы
инфляция
инфляциянын
инфо
информатика
информация
информациялык
информацияны
информациянын
инфракызыл
инче
инчерээк
инчирээк
инь
инөнү
иоанн
иоганн
иод
ион
иондоо
иондор
иондордун
иондору
иондошкон
иондоштуруучу
иондошуу
иондук
иондун
иону
иордан
иордандын
иордания
иорданиянын
иосиф
ип
ипкер
ипкери
ипкерлердин
ир
ирак
иракка
иракта
ирактын
иран
иранга
иранда
ирандагы
ирандан
ирандык
ирандыктар
ирандын
иранча
ирет
ирети
иретинде
иретке
иретсиз
иретте
иреттүү
ири
иридии
ирик
ириклинск
ирилери
ирим
иримчик
ирина
ириси
ириң
ириңдеп
ириңдетүүчү
ириңдүү
иркеничтүү
иркутск
ирланд
ирландия
ирландиялык
ирландиянын
ирод
ирон
иррационалдык
ирригациялык
иртыш
иртышка
иртышке
ирээт
ирээти
ис
иса
исаак
исаев
исак
исаков
исанов
иск
искак
искактын
искать
искендер
искра
искусства
искусство
искусствого
искусстводо
искусстводогу
искусствону
искусствонун
искусствосу
искусствосун
искусствосуна
искусствосунда
искусствосундагы
искусствосунун
ислам
исламга
исламда
исламды
исламдык
исламдын
исланд
исландия
исландиянын
исмаил
исмаилов
исмаилова
исп
испан
испандар
испания
испанияга
испанияда
испаниядагы
испаниялык
испаниянын
испанча
использование
использования
испытывать
исраил
исследование
исследовании
исследования
иссык
ист
истеми
истории
историко
историография
историческая
исторические
историческии
исторических
исторического
историческои
история
источник
источники
исфаи
исфана
исфара
исфахан
исхак
ит
итал
италия
италияга
италияда
италиядагы
италиядан
италиялык
италиянча
италиянын
италияча
италян
италянча
итбек
ителги
ити
итии
итке
итмурун
итоги
иттеи
иттен
иттер
иттердин
итти
иттин
иудаизм
иудеи
их
ич
ичара
иче
ичеги
ичегиге
ичегиде
ичегиден
ичегини
ичегинин
ичегисинде
ичер
ичет
ичи
ичик
ичилет
ичимдик
ичимдиктерин
ичин
ичинде
ичиндеги
ичине
ичинен
ичип
ичирип
ичишет
ичке
ичкен
ичкенде
ичкенден
ичкери
ичкерип
ичкерээк
ички
ичкилик
ичкиликтер
ичпеи
ичсе
ичтен
ичти
ичтин
ичүү
ичүүгө
ичүүчү
иш
ишарат
ишемби
ишемиялык
ишенбеген
ишенбеи
ишенген
ишенгендер
ишенгендердин
ишенгендери
ишендирүү
ишене
ишенебиз
ишенем
ишенет
ишеним
ишенимге
ишенимде
ишенимден
ишенимдер
ишенимдерди
ишенимдердин
ишенимдери
ишенимди
ишенимдин
ишенимдүү
ишеними
ишенимин
ишенимине
ишенип
ишеничтүү
ишенишет
ишенишкен
ишенов
ишенүү
ишет
иши
ишим
ишимге
ишин
ишинде
ишиндеги
ишине
ишинен
ишинин
ишип
ишиң
ишкана
ишканага
ишканада
ишканалар
ишканаларга
ишканаларда
ишканаларды
ишканалардын
ишканалары
ишканаларын
ишканаларында
ишканаларынын
ишкананы
ишкананын
ишканасы
ишканасында
ишканасынын
ишке
ишкен
ишкер
ишкердик
ишкердүүлүк
ишкерлер
ишкерлердин
ишкерлик
ишмер
ишмердиги
ишмердигин
ишмердигине
ишмердигинин
ишмердик
ишмердикти
ишмердиктин
ишмердүүлүгү
ишмердүүлүгүн
ишмердүүлүгүндө
ишмердүүлүгүнүн
ишмердүүлүгүнө
ишмердүүлүк
ишмердүүлүккө
ишмердүүлүктү
ишмердүүлүктүн
ишмери
ишмерлер
ишмерлердин
ишмерлери
ишмерлеринин
иште
иштебеи
иштеген
иштегенде
иштегенден
иштегендер
иштегендерге
иштегендердин
иштеги
иштеди
иштеи
иштелген
иштелип
иштен
иштеп
иштер
иштерге
иштерде
иштерден
иштерди
иштердин
иштери
иштерин
иштеринде
иштерине
иштеринен
иштеринин
иштетет
иштетилген
иштетилет
иштетилип
иштетилүүчү
иштетип
иштеткен
иштетүү
иштетүүгө
иштетүүдө
иштетүүдөн
иштетүүнү
иштетүүнүн
иштетүүчү
иштешет
иштеши
иштешин
иштешине
иштешип
иштешкен
ишти
иштин
иштүү
иштөө
иштөөгө
иштөөдө
иштөөдөн
иштөөнү
иштөөнүн
иштөөсү
иштөөсүн
иштөөчү
июлга
июлда
июлдан
июлдуку
июлдун
июлуна
июлунан
июлунда
июлундагы
июль
июля
июлң
июнга
июнда
июндан
июндун
июнуна
июнунан
июнунда
июнь
июньда
июня
июнң
июс
иң
к
ка
каабаны
каада
каалабаи
каалаган
каалагандаи
каалаганын
каалаи
каалап
кааласа
каалашкан
каалга
каалоо
каалоосу
каалоосун
каан
каапыр
каапырлар
каапырларга
каапырларды
каапырлардын
каар
каарданып
каардуу
каарман
каарманга
каармандар
каармандарга
каармандарды
каармандардын
каармандары
каармандарына
каармандарынын
каарманды
каармандыгы
каармандык
каармандын
каарманы
каарманын
каарманынын
каары
каарына
каба
кабагы
кабаи
кабак
кабар
кабарга
кабарда
кабардар
кабарды
кабарлаган
кабарлаи
кабарлап
кабарлар
кабарларды
кабарлары
кабарлоо
кабарчы
кабарчысы
кабары
кабарын
кабат
кабаттардын
кабаттары
кабаттуу
кабаттын
кабаты
кабелдик
кабель
кабельдик
кабинет
кабинети
кабинетинин
кабир
кабирдин
кабо
кабул
кабы
кабыгы
кабыгын
кабыгынан
кабыгынын
кабык
кабыктуу
кабыктын
кабыкча
кабыкчасы
кабыл
кабылан
кабылат
кабылган
кабылдагыч
кабылдаи
кабылдап
кабылдоо
кабылдоого
кабылдоолорго
кабылдоосу
кабылып
кабын
кабырга
кабыш
кавалер
кавалери
кавказ
кавказга
кавказда
кавказдагы
кавказдын
кагаз
кагазга
кагаздар
кагаздарга
кагаздарды
кагаздардын
кагаздары
кагаздарын
кагазды
кагаздын
кагазы
каган
каганаты
каганатынын
кагандыгы
кагандыгын
кагандыгына
кагандыгынын
кагандын
каганы
каганынын
кагат
кагуу
кагылаи
кагылган
кагылып
кагылыш
кагылышуу
кагылышуулар
кагылышы
кагылышып
кагып
кагышы
кадалган
кадам
кадамжаи
кадамы
кадамын
кадастрларын
кадимки
кадимкидеи
кадмии
кадр
кадрлар
кадрларды
кадрлардын
кадыр
кадырбек
кадыресе
кадырлуу
кадырман
кадыров
кадыры
кадырын
кажар
кажары
каждого
каждыи
кажет
кажети
кажы
каз
каза
казак
казаков
казакстан
казакстанга
казакстанда
казакстандагы
казакстандан
казакстандык
казакстандын
казактар
казактарга
казактарда
казактардын
казактын
казакча
казал
казан
казанга
казанда
казандагы
казандын
казаны
казань
казарман
казат
казатка
казатта
казаттын
казахстан
казахстана
казахстане
казган
казуу
казууда
казуучу
казы
казыбек
казык
казылат
казылган
казылып
казына
казынасы
казынасын
казынасына
казып
каи
каир
как
какао
какая
какеи
какен
какие
каким
каккан
какого
какое
какои
каком
каксоо
кактус
какты
какшаал
какшык
какыр
какырык
кал
кала
калаа
калаар
калаарлык
калаасы
калабы
калабыз
калаи
калак
калам
калар
каларлык
калары
каласың
каласыңар
калат
калашников
калба
калбаган
калбады
калбаи
калбастан
калбасын
калбыр
калган
калганга
калганда
калгандаи
калгандан
калгандар
калгандары
калгандарын
калгандыгы
калгандыгын
калгандыктан
калганы
калганын
калганына
калдаи
калданат
калды
калдыгы
калдыгын
калдыгынан
калдык
калдыктар
калдыктарды
калдыктардын
калдыктары
калдыктарын
калдыктарынан
калдыктарынын
калдыктуу
калдым
калдын
калдыркан
калдыңар
каледон
калем
калемгер
калемине
калеминен
калемпир
календардык
календары
календарь
калии
калимантан
калинин
калининград
калининско
калифорния
калифорниядагы
калифорниянын
калк
калкалап
калкалоочу
калкан
калканы
калкка
калктан
калктар
калктардын
калктары
калктарынын
калктуу
калкты
калктын
калкы
калкыма
калкын
калкына
калкынын
калкып
калмак
калмактан
калмактар
калмактарга
калмактардан
калмактарды
калмактардын
калмактын
калп
калпагы
калпак
калпактын
калса
калсын
калтар
калтасин
калтыра
калтырат
калтыратма
калтырбаи
калтырган
калтырды
калтыруу
калтырууга
калтырылат
калтырылган
калтырып
калтырышкан
калуга
калужско
калуу
калууга
калууда
калуудан
калууну
калуунун
калуусу
калуусун
калуусуна
калуучу
калча
калчу
калыбы
калыбын
калыбына
калыбында
калыгул
калыева
калыи
калык
калым
калын
калындыгы
калып
калыпка
калыпта
калыптагы
калыптана
калыптанат
калыптанган
калыптандырат
калыптандырган
калыптандыруу
калыптандырууга
калыптандырууда
калыптандыруунун
калыптануу
калыптануусу
калыптануусуна
калыптанып
калыптанышы
калыптанышын
калыптанышына
калыптанышында
калыптанышынын
калыптоо
калыптыр
калыс
калыстар
калыстык
калыш
калышат
калышкан
калышпаи
калышты
калыштыра
калыштырат
калыштырган
калыштыруу
калыштырылган
калыштырып
калышы
калышын
калышына
калышынан
калышынын
калышып
калың
калыңдыгы
калыңдыктагы
кальв
калье
калькутта
кальции
кальцит
кам
кама
камакка
камакта
камалган
камалып
каман
камап
камбар
камбаркан
камбартеп
камберленд
камданып
камдап
камдашкан
каменскии
камень
камера
камералуу
камералык
камеранын
камерасы
камерун
камерундун
камкор
камкордук
камни
камоо
камоого
кампа
кампусу
камсыз
камсыздаган
камсыздаи
камсыздандыруу
камсыздандыруунун
камсыздандыруучу
камсыздандырылган
камсыздоо
камсыздоого
камсыздоону
камсыздоонун
камсыздоочу
камтуу
камтыган
камтыи
камтылат
камтылган
камтылып
камтып
камтышы
камчатка
камчы
камчыбек
камчынын
камын
камынып
камыр
камыш
камыштан
кан
кана
канаан
канааттандырарлык
канааттандырат
канааттандырган
канааттандыруу
канааттандырууга
канада
канадада
канададагы
канадалык
канаданын
канаи
канал
каналдар
каналдары
каналдын
канализация
каналы
каналын
каналына
каналында
каналынын
канат
канатка
канаттаи
канаттары
канаттарынын
канатташ
канаттуу
канаттуулар
канаттуулардан
канаттууларды
канаттуулардын
канаттуулары
канаттуунун
канаттын
канаты
канатын
канатына
канатынын
канбаи
канга
канд
канда
кандагаи
кандагы
кандаи
кандан
кандар
кандарга
кандарды
кандардын
кандары
кандарынын
кандидат
кандидатом
кандидаттары
кандидаттык
кандидаты
кандуу
кандуулук
канды
кандык
кандын
канжар
канин
канкор
канн
кансыз
кант
канталупа
кантип
кантон
кантты
канттын
канты
канча
канчалаган
канчалык
канчоро
канчоронун
канчылыгы
канчылык
канчылыкка
канчылыкта
канчылыктын
каны
каныбек
каныкеи
каныккан
каныкпаган
канын
канына
канынан
канында
канынын
каныш
каныша
канышаи
канышанын
канышасы
каньон
каолин
кап
капа
капар
капиллярдык
капит
капитал
капиталга
капиталды
капиталдык
капиталдын
капитализм
капитализмдин
капиталисттик
капиталы
капиталынын
капитан
капитаны
капка
капкак
капкалуу
капкан
капкара
каптаган
каптады
каптаи
каптал
капталат
капталга
капталган
капталдары
капталдарын
капталдарына
капталдарынан
капталдарында
капталдарындагы
капталдарынын
капталдуу
капталы
капталын
капталына
капталынан
капталында
капталындагы
капталынын
капталып
каптама
каптап
каптоо
каптоого
каптоодо
каптоонун
капты
каптын
капуста
капчыгаи
капыстан
капысынан
кар
кара
караагачлы
караан
карабаи
карабалта
карабастан
карабах
караван
карагаи
караган
караганда
караганды
карагат
карагул
карадан
карады
карадөө
караев
караевдин
каражат
каражаттар
каражаттарга
каражаттарды
каражаттардын
каражаттары
каражаттарын
каражаттарына
каражаттарынан
каражаттарында
каражаттарынын
каражатты
каражаттын
каражаты
каражатын
каражатына
каражатынын
караи
каракалпак
каракалпакстан
каракан
каракол
караколдогу
каракулжа
каракуш
каракчы
каракчылар
каракчылары
каракөи
каракөл
карала
каралаев
каралаевдин
каралат
каралбаса
каралган
каралжын
каралуучу
каралып
каралышы
карама
карамагына
карамагында
карамагындагы
карамолдо
каран
карандаш
каранды
карандылыгы
карандылыгын
карандылык
карандысыз
карандысыздыгы
карандысыздыгын
карандысыздык
карандысыздыкка
карантин
караны
карап
карапа
карапаи
карапачылык
карарып
караса
карасаев
карасак
карасаң
карасук
карасуу
карат
карата
каратаев
каратал
каратегин
караткан
каратылган
каратылып
каратылышы
каратып
каратэ
караханиддер
карахании
карач
карача
карачаи
карачач
карачы
караш
карашат
карашка
карашкан
карашта
караштагы
караштан
караштар
караштарды
караштардын
караштары
караштарын
караштарына
караштарынын
караштуу
карашты
караштын
карашы
карашын
карашына
карашынан
карашында
карашынын
караңгы
караңгыда
караңгылык
караңыз
карбон
карбонат
карбонаттар
карбонаттуу
карбонаты
карбондун
карга
каргыш
каргышка
каргышы
кардар
кардардын
кардарлар
кардарларга
кардарлардын
кардиология
карды
кардын
карел
карелия
каржы
каржылаган
каржылоо
каржылык
кариб
карим
каримов
каримова
каркыра
карл
карло
карлос
карлсруэ
карлук
карлуктар
карлуктардын
карлыгач
карма
кармаган
кармаганда
кармаи
кармалат
кармалган
кармалып
кармама
карман
карманган
карманышат
кармап
кармаса
кармаскалин
карматып
кармаш
кармашат
кармашкан
кармашта
кармашуу
кармашы
кармашып
кармен
кармоо
кармоого
кармоодо
кармоонун
кармоочу
карнеги
каролина
кароо
кароого
кароодо
кароодон
кароол
кароолчу
кароонун
кароосуз
кароосуна
каротин
карпат
карск
карст
карт
карта
картага
картада
картаи
карталар
карталарда
карталарды
карталардын
карталары
картасы
картасын
картаң
картер
картина
картинасы
картография
картографиялык
картон
картошка
карты
картөшкө
карфаген
карчыга
каршы
каршылаш
каршылыгы
каршылыгын
каршылыгына
каршылыгынын
каршылык
каршылыкка
каршылыктар
каршылыктарды
каршылыктардын
каршылыктуу
каршылыкты
каршылыктын
каршысы
кары
карыган
карыганда
карыз
карызга
карыздар
карызды
карызкор
карызкордун
карызы
карылар
карылык
карым
карымшаков
карын
карынга
карында
карындан
карындар
карындардын
карындашы
карынды
карындын
карыны
карынын
карып
карыпбек
карыпкулов
карысы
карыткан
карыш
карышкыр
карышкырдын
карыя
карыялар
карыянын
карьер
карьерасы
карьерасын
кас
каса
касам
касан
касиет
касиети
касиетин
касиетине
касиетинин
касиетке
касиеттер
касиеттерге
касиеттерди
касиеттердин
касиеттери
касиеттерин
касиеттерине
касиеттеринин
касиеттүү
касильяс
каскак
каспии
касса
кассалык
кассель
касситерит
кастык
касым
касымалы
касымбеков
касымов
кат
ката
катаал
катаган
катализатор
каталог
каталония
катар
катарга
катарда
катардагы
катардын
катарлаш
катары
катарын
катарына
катарынан
катарында
катарындагы
катасы
катат
категория
категорияга
категориядагы
категориялар
категориялардын
категориялары
категориялык
категориясы
категориясына
категориясында
катка
каткалаң
каткан
катмар
катмарга
катмарда
катмардагы
катмардан
катмарды
катмардын
катмарлар
катмарлардын
катмарлары
катмарларын
катмарларынан
катмарларында
катмарларынын
катмарлуу
катмары
катмарын
катмарына
катмарынан
катмарында
катмарындагы
катмарынын
катнаш
катнашка
катнашта
катнаштары
катнашы
катнашын
катод
католик
католиктер
католиктик
катта
каттаган
каттаи
катталат
катталган
катталып
каттап
каттар
каттарды
каттары
каттоо
каттоого
каттоодо
каттоодон
каттоонун
каттоочу
катты
каттык
каттын
катунь
катуу
катуулугу
катчы
катчысы
катчысынын
каты
катылган
катын
катында
катыны
катып
катыш
катыша
катышат
катышкан
катышкандар
катышкандардын
катышкандыгы
катышканы
катышпаган
катышпаи
катышса
катышта
катышты
катышуу
катышууга
катышуусу
катышуусун
катышуусуна
катышуусунда
катышуучу
катышуучулар
катышуучулардын
катышуучулары
катышуучуларына
катышуучуларынын
катышуучусу
катышы
катышын
катышына
катышынын
катышып
катышышат
катышышкан
каунас
кауфман
каучук
кафе
кафедра
кафедралуу
кафедранын
кафедрасы
кафедрасын
кафедрасына
кафедрасында
кафедрасынын
кач
качан
качандыр
качат
качества
качестве
качини
качкан
качканда
качкын
качкындар
качты
качуу
качууга
качуунун
качыбек
качып
качыр
качырып
качышат
качышы
каш
кашан
кашат
кашгар
кашгари
кашгаринин
кашка
кашкаи
кашкан
кашкар
кашкарга
кашкардан
кашкарды
кашкардын
кашкарлык
кашкулак
кашмир
каштан
каштары
каштык
кашы
кашык
кашын
кашына
кашынын
кашып
каюм
каяша
каңгаи
каңды
каңылтыр
кв
квадрат
квадраттык
квалификациялуу
квалификациялык
квалификацияны
квалификациясы
квалификациясын
квант
кванттык
квартал
квартирасы
кварц
кварцит
кварцтуу
квебек
кведлинбург
кверфурт
квн
квота
квт
кг
кгга
кгдан
кгну
кдж
кдк
кдкнын
ке
кебез
кебезден
кебезди
кебек
кебер
кебете
кебетеси
кеби
кебин
кевин
кеген
кегети
кедеи
кедерги
кедр
кез
кезге
кезде
кездеги
кездеме
кездемеге
кездемеден
кездемелер
кездемелерди
кездемени
кездеменин
кезден
кездерде
кездешери
кездешет
кездешип
кездешкен
кездешпеи
кездештирүүгө
кездешчү
кездешүү
кездешүүчү
кезеги
кезегин
кезегинде
кезек
кезексиз
кезекте
кезектеги
кезектери
кезектешип
кези
кезигет
кезигип
кезигүүчү
кезиккен
кезикпеи
кезимде
кезинде
кезиндеги
кезинен
кезип
кеи
кек
кекилик
кекиртек
кел
келатат
келаткан
келатканын
келатып
келбеген
келбеи
келбес
келбесе
келбети
келбетин
келген
келгенге
келгенде
келгендеи
келгенден
келгендер
келгендерге
келгендердин
келгендиги
келгендигин
келгендиктен
келгени
келгенин
келгенине
келгенсип
келгенче
келгиле
келгин
келгиндер
келгиче
келди
келдибек
келдик
келдим
келдиң
келе
келеби
келебиз
келем
келер
келери
келерин
келерки
келесоо
келет
келечеги
келечегин
келечек
келечекке
келечекте
келечектеги
келечекти
келечектин
келечектүү
кели
келин
келинге
келинген
келиндер
келиндердин
келинди
келиндин
келини
келинип
келип
келиптир
келиш
келишет
келиши
келишим
келишимге
келишимде
келишимдер
келишимдерге
келишимдерди
келишимдердин
келишимдери
келишимди
келишимдик
келишимдин
келишимдүү
келишими
келишимин
келишиминде
келишимине
келишиминин
келишин
келишине
келишинче
келишип
келишкен
келишкенде
келишпестиктер
келишсе
келишти
келки
келли
келмек
келсе
келсек
келсин
келте
келтир
келтирбеи
келтирген
келтиргендер
келтиргич
келтире
келтирет
келтирилген
келтирилет
келтирилип
келтирип
келтириши
келтирсе
келтирүү
келтирүүгө
келтирүүдө
келтирүүдөн
келтирүүнү
келтирүүчү
келчи
келчү
кельт
кельхаи
келээр
келээри
келүү
келүүгө
келүүдө
келүүнү
келүүсү
келүүсүн
келүүчү
кем
кемал
кемаль
кембридж
кембриж
кембрии
кемдүү
кемдүүлүгү
кемдүүлүк
кеме
кемеге
кемеде
кемеден
кемел
кемелер
кемелерди
кемелердин
кемелери
кемелерин
кемелеринин
кемени
кеменин
кементаи
кемер
кемеров
кемерово
кемеси
кемесинин
кемин
кеминде
кемирчек
кемирчектүү
кемирүүчүлөр
кемпир
кемсел
кемтиги
кемтик
кемчилиги
кемчилик
кемчиликсиз
кемчиликтер
кемчиликтерди
кемчиликтери
кемчиликтерин
кемчуг
кен
кенде
кендеги
кенден
кендер
кендерди
кендердин
кендери
кендерин
кендеринде
кендерине
кендеринин
кенди
кендин
кендир
кендүү
кене
кенедеи
кенелер
кенен
кененирээк
кененсариев
кенесары
кенеси
кенеш
кенешинин
кенештин
кенже
кенжеси
кени
кенин
кенинде
кенинин
кенири
кения
кениянын
кеннебек
кеннеди
кенташ
кенташтары
кенташы
кентукки
кенч
кенчелери
кенчеси
кенчи
кеп
кепил
кепилдиги
кепилдик
кепке
кеплер
кептер
кепти
кептик
кептин
кептөөр
кер
керамика
керамикалык
кербез
кербен
кере
кереге
керегеге
керегенин
кереги
керек
керекпи
керексиз
керектеи
керектелет
керектелүүчү
керектиги
керектигин
керектүү
керектөө
керектөөгө
керектөөлөр
керектөөлөрү
керектөөлөрүн
керектөөсү
керектөөсүн
керектөөчү
керектөөчүлөргө
керектөөчүлөрдүн
керемет
керемети
кереметтерди
кереметтүү
керик
керилген
керилип
керим
керип
керки
керман
керме
кернеи
керосин
керт
керээз
керээзи
кес
кесе
кесек
кесепети
кесепетинен
кесепеттерге
кесепеттери
кесепеттерин
кесет
кеси
кесиби
кесибин
кесибине
кесилген
кесилет
кесилип
кесилиш
кесилиши
кесилишинде
кесилишкен
кесинди
кесип
кесипке
кесипкөи
кесипте
кесиптенишет
кесиптенишип
кесиптенишкен
кесиптер
кесиптери
кесиптеши
кесиптештери
кесипти
кесиптик
кесиптин
кесипчилик
кескелдирик
кескелдириктер
кескелдириктердин
кескен
кескин
кескич
кесме
кести
кесүү
кесүүчү
кет
кете
кетеи
кетели
кетем
кетер
кетет
кетип
кетиптир
кетирбеи
кетирген
кетирет
кетирип
кетирүү
кетишет
кетиши
кетишин
кетишине
кетишинен
кетишкен
кетишти
кеткен
кеткенге
кеткенде
кеткендеи
кеткенден
кеткендер
кеткендиги
кеткендиктен
кеткени
кеткенин
кеткиле
кетмен
кетментөбө
кетпеген
кетпеи
кетпес
кетпесин
кетсе
кетсек
кетсин
кетти
кеттим
кетчуп
кетчү
кетүү
кетүүгө
кетүүдөн
кетүүнү
кетүүсү
кетүүсүн
кетүүсүнө
кетүүчү
кефир
кеч
кече
кечек
кечеси
кечигип
кечил
кечинде
кечип
кечир
кечирбеи
кечирген
кечирет
кечирим
кечиримдүү
кечирип
кечирээк
кечке
кечки
кечээ
кечүү
кеш
кеште
кең
кеңдиги
кеңдик
кеңдикке
кеңдикте
кеңдиктерде
кеңеи
кеңеш
кеңеши
кеңешин
кеңешинде
кеңешине
кеңешинин
кеңешип
кеңешке
кеңешме
кеңеште
кеңештер
кеңештерге
кеңештердин
кеңештеринин
кеңештин
кеңешчи
кеңешчиси
кеңири
кеңкол
кеңсе
кеңсеси
кеӊеи
ки
кибернетика
кив
кидик
кие
киев
киевде
кижи
кии
кикбоксинг
кикя
килем
килемдин
килеми
килограмм
килограммга
километр
километрге
ким
кимге
кимде
кимден
кимдер
кимди
кимдин
кимдир
кимиси
кимисинин
кин
кинг
киндиги
киндигин
киндигинде
киндигиндеги
киндигине
киндигинин
киндик
киндикке
киндикте
киндиктеги
киндикти
киндиктин
кинематикалык
кинематографисттер
кинематография
кинематографиялык
кинетикалык
кино
киноактерлор
киноварь
киного
кинодо
кинодогу
кинонун
кинорежиссе
кинорежиссер
киностудия
киностудиясы
киностудиясында
киностудиясынын
киносу
киносунда
киносунун
киносыи
киносынчылар
киносынчылардын
кинотасма
кинотеатр
кинотеатрларда
кинофестивалда
кинофестивалы
кинофестивалында
кинофестивалынын
кинофестиваль
кинофильм
кинциг
киото
кипр
кипрде
кир
кирбеген
кирбеи
кирг
кирген
киргенде
киргенден
киргиз
киргизген
киргизгосиздат
киргизди
киргизет
киргизии
киргизилген
киргизилди
киргизилет
киргизилип
киргизилиши
киргизип
киргизишет
киргизишкен
киргизия
киргизов
киргизская
киргизскии
киргизского
киргизскои
киргизском
киргизстан
киргизстана
киргизучпедгиз
киргизы
киргизүү
киргизүүгө
киргизүүнү
кирди
кирдин
кире
кирет
киреше
кирешеге
кирешелер
кирешелердин
кирешелери
кирешелүү
кирешени
кирешенин
кирешеси
кирешесинин
кири
кирибати
кирилл
кирип
кириптер
кириш
киришет
кириши
киришине
киришинен
киришип
киришкен
киришти
киришүү
киров
кирпи
кирпич
кирсе
кирүү
кирүүгө
кирүүсү
кирүүсүнө
кирүүчү
кислота
кислоталар
кислоталары
кислоталарынын
кислотасы
кислотасын
кислотасынын
киссинген
кит
китаб
китаи
китано
китеби
китебин
китебинде
китебиндеги
китебине
китебинен
китебинин
китеп
китепкана
китепканада
китепканалар
китепканалары
китепкананын
китепканасы
китепканасында
китепканасынын
китепканачы
китепке
китепте
китептеги
китептен
китептер
китептерге
китептерде
китептерди
китептердин
китептери
китептерин
китептеринде
китептерине
китептеринин
китепти
китептин
китепче
китцинген
кифхои
кихот
кичи
кичине
кичинекеи
кичинесинен
кичиреи
кичирээк
кичүү
кичүүсү
кишен
киши
кишиге
кишиде
кишиден
кишилер
кишилерге
кишилерде
кишилерди
кишилердин
кишилик
кишимжан
кишини
кишинин
кишиси
кия
кк
ккал
ккп
кл
клаи
клара
кларк
класс
класса
классиги
классик
классикалык
классификатор
классификатору
классификация
классификациялоо
классификациясы
классицизм
класска
класста
класстагы
класстан
класстар
класстарга
класстарда
класстардын
класстары
класстарынын
классты
класстык
класстын
классы
классын
классына
классында
классындагы
классынын
клаус
клеве
клеи
клетка
клеткага
клеткада
клеткадан
клеткалар
клеткаларда
клеткалардан
клеткаларды
клеткалардын
клеткалары
клеткаларын
клеткаларына
клеткаларынан
клеткаларында
клеткаларынын
клеткалуу
клеткалык
клетканы
клетканын
клеткасы
клеткасынын
клетчатка
клизма
климат
климатка
климаттуу
климаттык
климаттын
климаты
климатына
клиникалык
клинтон
клип
клод
клуб
клубдар
клубдун
клубу
клубуна
клубунда
клубунун
ключ
км
кмге
кмдеи
кмден
кми
кммада
кммиде
кммини
кмминин
кму
кмуда
кмуну
кмунун
кмуунун
кмш
кмшда
кмшнын
кмюанын
кн
книга
книги
кну
княздыгы
княздыгынын
князы
князь
ко
коалиция
коалициялык
кобальт
кобленц
кобург
ков
коваленттик
ковскии
когда
когеренттүү
кого
код
кодду
кодекси
кодексинин
коду
кодун
кое
коет
кожа
кожент
кожи
кожо
кожобеков
кожожаш
кожои
кожомбердиев
кожомкул
кожонун
кожоюн
кожоюну
коз
коза
козгогон
козгогуч
козгогучтар
козгогучтары
козгогучу
козгои
козголгон
козголоң
козголоңу
козголуп
козголуу
козгоо
козгоочу
козгоп
козле
козу
козуну
козунун
кои
кок
коко
кокон
коконго
кокондо
кокондук
кокондун
кокос
кокс
кокту
кокуи
кокус
кокустан
кокустук
кокусунан
кол
кола
колбаса
колбашчы
колва
колго
колгуев
колдо
колдогон
колдогу
колдои
колдон
колдонбои
колдонбоо
колдонгон
колдонгондо
колдонмо
колдонмолор
колдонмолорду
колдонмолору
колдонмосу
колдоно
колдонот
колдонсо
колдонула
колдонулат
колдонулбаи
колдонулган
колдонулса
колдонулуп
колдонулууда
колдонулуучу
колдонулушу
колдонулушун
колдонулушуна
колдонулчу
колдонуп
колдонуу
колдонууга
колдонууда
колдонуудагы
колдонуудан
колдонууну
колдонуунун
колдонуучу
колдонуучуга
колдонуучулар
колдонуучуларга
колдонуучулардын
колдонуучулары
колдонуучунун
колдонушат
колдонушкан
колдонушу
колдоо
колдоого
колдоону
колдоосу
колдоосуна
колдоочу
колдоочусу
колдоп
колдору
колдорун
колдоруна
колду
колдун
колдуу
количество
колл
коллегия
коллегиясынын
колледж
колледжи
коллеж
коллеждер
коллектив
коллективдештирүү
коллективдин
коллективдүү
коллективи
коллектор
коллекциясы
коллоиддик
коло
колодон
колониалдык
колония
колонияга
колониялар
колониялык
колониясы
колониясына
колонна
колорадо
колот
колоттор
колоттуу
колпаковскии
колтии
колтугуна
колтук
колу
колукту
колуктунун
колуктусу
колум
колумб
колумбия
колумда
колун
колуна
колунан
колунда
колундагы
колунун
колуң
колуңа
колуңарды
колуңду
колхоз
колхозго
колхоздо
колхоздор
колхоздун
колхозу
колхозуна
колхозунда
колхозунун
колхозчу
колыма
кольцевая
ком
кома
команда
командага
командалар
командалык
команданы
команданын
командасы
командасын
командасына
командасында
командасынын
командачы
командачылыгы
командачысы
командир
командири
командиринин
комбаи
комбинаты
комбинатында
комбинатынын
комедия
комедиялуу
комедиялык
комедиясы
комета
коми
комикс
комиссар
комиссариатында
комиссариатынын
комиссарлар
комиссары
комиссарынын
комиссия
комиссиянын
комиссиясы
комиссиясынын
комитет
комитети
комитетин
комитетинде
комитетине
комитетинин
комитеттер
комитеттери
комитеттеринин
комитеттин
комментарии
коммерциялык
коммуналдык
коммуналык
коммунизм
коммуникативдик
коммуникация
коммуникациялар
коммуникациялык
коммунист
коммунистик
коммунисттер
коммунисттик
компакттуу
компания
компанияга
компаниялар
компанияларды
компаниялардын
компаниялары
компанияларынын
компанияны
компаниянын
компаниясы
компаниясын
компаниясына
компаниясында
компаниясынын
компартия
компартиянын
компартиясынын
компас
компенсация
компетенттүү
комплекс
комплекси
комплексин
комплексинде
комплексине
комплексинин
комплекстер
комплекстерди
комплекстери
комплекстик
комплекстин
комплекстүү
композитор
композиторлор
композиторлордун
композиторлору
композиторлорунун
композитору
композиция
композициялык
композициянын
композициясы
компонент
компоненти
компоненттер
компоненттерди
компоненттердин
компоненттери
компоненттерин
компоненттеринин
компоненттүү
компот
компресс
компрессор
компьютер
компьютерге
компьютерде
компьютерди
компьютердик
компьютердин
компьютерлер
компьютерлерде
компьютерлердин
компүтер
компүтердик
комсомол
комсомолдук
комсомолдун
комсомолец
комсомолу
комсомолунун
комсомольская
кому
комуз
комузда
комузду
комуздун
комузун
комузчу
комузчулар
комузчулардын
комунда
комунун
кон
конан
конвеи
конвенция
конвенцияда
конвенциянын
конвенциясы
конвенциясына
конвенциясынын
конвергенция
конгломерат
конго
конгон
конгондо
конгонун
конгресс
конгресси
конгрессинде
конгрессинин
конгресстин
конденсатор
конденсация
кондитер
кондитердик
кондома
кондуруп
кондучалова
коне
конеи
конец
кони
конкреттүү
конкурс
конкурста
конкурстук
конкурстун
конкурсу
конкурсунда
конкурсунун
коннектикут
конок
конокко
коноктор
конот
конрад
консерва
консерваланган
консервалары
консервативдик
консервативдүү
консерватория
консерваториянын
консерваториясын
консерваториясында
консерваториясынын
консо
константин
константинович
константинополь
констанц
конституция
конституцияга
конституцияда
конституциялык
конституцияны
конституциянын
конституциясы
конституциясына
конституциясында
конституциясынын
конструктор
конструктордук
конструкция
конструкциялар
конструкциялары
конструкциялык
конструкциясы
консул
консулдук
консультант
консультанты
консультативдик
консультация
консультациялык
контакт
контакттуу
контеи
контекст
контексте
континент
континенталдык
континенттик
континенттин
контр
контракт
контролдоо
контролдук
контроль
контрреволюциячыл
конуп
конус
конустук
конуу
конуш
конуштар
конушу
конф
конфедерациясы
конференции
конференция
конференцияга
конференцияда
конференциялар
конференцияларга
конференцияларда
конференциянын
конференциясы
конференциясында
конференциясынын
конфликт
конфликттер
конфуции
конц
конца
конце
концент
концентрациясы
концентрациясын
концентрациясына
концентрациясынын
концепция
концепцияны
концепциясы
концепциясын
концепциясына
концепциясынын
концерт
концерти
концерттер
концерттик
конь
коню
коня
коо
коого
кооз
кооздолгон
кооздолот
кооздолуп
кооздоо
кооздоп
кооздугу
кооздугун
кооздук
кооздуктар
кооздуктарды
кооздукту
коолор
коолордун
коом
коомго
коомдо
коомдогу
коомдон
коомдор
коомдорго
коомдордо
коомдордун
коомдору
коомдорунун
коомду
коомдук
коомдун
коому
коомун
коомуна
коомунда
коомундагы
коомунун
коомчулугу
коомчулугунун
коомчулук
коомчулукка
коомчулукту
коомчулуктун
коон
коонун
кооператив
кооперативдик
кооперация
коопсуз
коопсуздугу
коопсуздугун
коопсуздугуна
коопсуздук
коопсуздукту
кооптуу
координата
координаталар
координаталары
координатору
координациялоо
координациялык
коочу
коп
копеи
копенгаген
копиялоо
копье
кор
коралл
корго
коргогон
коргои
коргол
корголгон
корголот
корголуучу
коргон
коргону
коргонуу
коргонууга
коргонуунун
коргонуучу
коргоо
коргоого
коргоодо
коргоол
коргоону
коргоонун
коргоочу
коргоочулар
коргоочусу
коргоп
коргошун
коргошундун
кордильера
кордова
кордоо
кордоп
кордук
кореи
корея
кореяда
кореялык
кореянын
коринф
корк
корккон
коркконунан
корккула
коркок
корком
коркот
коркпо
коркпогула
коркпои
коркунуч
коркунучсуз
коркунучту
коркунучтуу
коркунучу
коркунучун
коркунучуна
коркунучунда
коркуп
коркут
коркутуп
коркутуу
коркуу
корм
коров
корова
коровы
короз
королдугу
королдугуна
королдугунун
королдук
королдун
короле
королева
королу
король
коронавирус
короо
короонун
корпоративдик
корпорация
корпорациянын
корпорациясы
корпорациясынын
корпус
корпусу
корпусунун
корр
корректор
корреспондент
корреспонденти
коррозияга
коррупция
коррупцияга
корсаков
кору
коругу
коругунда
коругунун
корук
корукка
коруктар
коруктары
коруктун
корукчасы
корум
корумду
корунун
корутунду
корутундусу
косметика
косметикалык
космонавт
космонавттар
космос
космоско
космосто
космостук
косово
коста
костанаи
кости
кострома
кость
костюм
кот
коте
котон
котор
которая
которгон
которгондо
которгондор
котормо
котормолор
котормолору
котормосу
котормосунда
котормосунун
котормочу
котормочулук
котормочусу
которого
которое
которои
котором
которому
которот
которулат
которулган
которулуп
которулушу
которум
которуп
которуу
которууга
которуштуруп
которую
которые
которыи
которым
которых
котур
кофе
кофта
кох
кохем
коциттер
коциттердин
кочевников
кочкор
кочкорго
кочкордогу
кочкордун
кочкул
кош
кошкон
кошкондо
кошмо
кошмок
кошо
кошогу
кошои
кошок
кошот
кошпогондо
кошпои
кошсо
коштогон
коштои
коштолгон
коштолот
коштолуп
коштоо
коштоосу
коштоосунда
коштоочу
коштоп
коштошуп
коштошуу
кошту
кошула
кошулат
кошулбаи
кошулган
кошулганда
кошулгандан
кошулду
кошулмалар
кошулса
кошулуп
кошулуу
кошулууга
кошулуучу
кошулушу
кошулушунан
кошумча
кошумчалаи
кошумчаланган
кошуна
кошунду
кошундулар
кошундулары
кошундусу
кошуп
кошуу
кошууга
кошууда
кошуун
кошуундары
кошууну
кошуунун
кошушат
кошушкан
кошчу
коэффициенти
кою
коюла
коюлат
коюлган
коюлду
коюлуп
коюлуучу
коюлушу
коюн
коюп
коюптур
коюу
коюуга
коюуда
коюуну
коюунун
коюучу
коюшат
коюшкан
коюшту
коюшу
коюшуп
коюшчу
коңгуроо
коңуз
коңуздар
коңуздардын
коңур
коңурат
коңурбаи
коңшу
коңшулаш
кп
кпнын
кпсс
кпсстин
кр
краб
краи
краков
красавица
красная
краснодар
краснои
краснокам
краснопресненская
краснояр
красноярск
красныи
красота
краткая
краткии
крахмал
края
крде
крдин
кредит
кредитор
кредиттик
кредиттин
креи
кремль
кремнии
крепкии
крепко
крепостнои
крест
кривои
кризис
кризиси
кризиске
кризистен
кризистик
кризистин
крик
криминалдык
крис
кристалл
кристаллданат
кристаллдар
кристаллдарда
кристаллдардын
кристаллдары
кристаллдашат
кристаллдуу
кристаллдык
кристаллдын
кристен
кристиан
кристина
кристофер
крит
критерии
критикалык
кричать
крнын
крови
кровь
кровью
крои
крокодил
кроме
кросс
крсуда
круг
круз
крупныи
крупская
крутая
крылов
крым
крымда
крымдын
кс
ксрб
ксэ
кт
ктму
кто
ктор
кторду
ктрк
ктркнын
кту
ктун
ку
куала
куан
куб
куба
кубалап
кубан
кубанын
кубанып
кубаныч
кубанычбек
кубанычтуу
кубань
кубарып
кубат
кубатбек
кубаттуу
кубаттуулугу
кубаттуулугун
кубаттуулук
кубаттуулукту
кубаты
кубатын
кубдук
кубогу
кубогун
кубогуна
кубогунун
кубок
кубулуп
кубулуш
кубулуштар
кубулуштарга
кубулуштарды
кубулуштардын
кубулуштары
кубулуштарын
кубулуштарына
кубулуштарынын
кубулушту
кубулуштун
кубулушу
кубулушун
кубулушуна
кубулушунун
кувеи
куга
кугарчин
куда
кудагы
кудаи
кудаян
кудаяр
кудук
кудукка
кудум
кудурети
кудуреттүү
кужур
кузгун
кузеев
кузель
кузнецк
кузнецов
куи
кук
куксхафен
кул
кула
кулаган
кулагандан
кулагы
кулагын
кулагына
кулаи
кулак
кулакка
кулактын
кулан
куланак
кулап
кулатуу
кулатып
кулач
кулашы
кулашына
кулга
кулдар
кулдардын
кулдары
кулдук
кулжа
кулжыгач
кули
кулк
кулкун
кулмамбетов
кулов
кулон
кулпунаи
кулу
кулун
кулунду
кулунум
кулчулук
кулчулукка
куль
кульмбах
культ
культтук
культу
культур
культура
культурного
культурное
культурные
культуры
кум
кума
кумаи
кумар
кумбел
кумга
кумдак
кумду
кумдук
кумдун
кумдуу
кумтөр
куму
кумура
кумурска
кумурскалар
кумурскаларды
кумурскалардын
кумыс
кумыса
кун
кунан
кунг
кундуз
кунт
куну
кунун
купер
куприн
купулуна
купуя
кур
кура
курагы
курагына
курагында
кураи
курак
куракка
куракта
курактагы
курактык
курал
куралат
куралган
куралданган
куралдар
куралдарды
куралдардын
куралдары
куралдарын
куралдарынын
куралдуу
куралды
куралдын
куралсыз
куралуу
куралы
куралын
куралынын
куралып
курам
курама
курамасы
курамасынын
курамдагы
курамдык
курамы
курамын
курамына
курамынан
курамында
курамындагы
курамынын
куран
куранга
куранда
куранды
курандын
курани
курап
курат
кураштыруу
курбан
курбанов
курбу
кургаган
кургаи
кургак
кургакта
кургактагы
кургактык
кургактыкка
кургактыкта
кургактыктагы
кургактыктын
кургакчыл
кургакчылык
кургакчылыкка
курган
кургап
кургатат
кургатуу
кургатылат
кургатылган
кургатып
курдаи
курдурган
куржун
курил
курма
курман
курманбек
курмангазы
курмандыгы
курмандыгын
курмандыгына
курмандык
курмандыкка
курмандыктан
курмандыктар
курмандыктары
курмандыктарын
курмандыкты
курмандыктын
курманжан
курманов
курорт
курортология
курорттор
курорттору
курорттук
курорту
курс
курсагы
курсак
курск
курста
курстар
курстарды
курстары
курстарын
курсту
курстук
курстун
курсу
курсун
курсуна
курсунда
курсунун
курт
куртка
курттар
курттардын
курту
куру
курула
курулаи
курулат
курулган
курулду
курулма
курулмалар
курулмалардын
курултаи
курулуп
курулууда
курулуш
курулушка
курулушта
курулуштар
курулуштарды
курулуштардын
курулуштары
курулуштарынын
курулушту
курулуштун
курулушу
курулушун
курулушуна
курулушунда
курулушунун
куруп
курут
куруу
курууга
курууда
курууну
куруунун
куруучу
куруучусу
курушат
курушкан
курцвеи
курч
курчаган
курчаи
курчалган
курчалып
курчап
курчоо
курчоого
курчоосунда
курчуп
куршаб
курья
кусат
кусеи
кусок
кустардык
кусу
кусуу
кут
куткара
куткарат
куткаруу
куткаруучу
куткарып
кутман
куттубаев
куттуу
куту
кутубии
кутузов
кутула
кутулат
кутулган
кутулуп
кутулуу
кутум
кутурган
кутуча
куу
кууган
кууганды
куугунтукка
куугунтуктоо
куугучтук
куугучтуктун
кууда
куудул
куулган
куулуп
куума
куунун
кууп
куур
куураи
куурап
кууру
куурулган
кууруп
куурчак
куучулук
кууш
кууштап
куч
куча
кучагына
кучак
кучактап
кучкач
кучу
куш
кушан
кушка
кушнаренк
куштаи
куштар
куштарды
куштардын
куштары
кушту
куштун
кушу
кушчу
кушчудан
кушчулар
кушчулардын
кушчунун
куюлат
куюлган
куюлуп
куюлуучу
куюлушуна
куюлушунан
куюн
куюндуу
куюп
куюргазин
куюу
куюучу
куюшкан
куя
куялы
куярда
куят
кы
кыдыкеева
кыдыр
кыдыралиев
кыдыралы
кыдырбаева
кыдырган
кыдырып
кыз
кызамык
кызарат
кызарт
кызарып
кызга
кызгылт
кызгылтым
кыздан
кыздар
кыздарга
кыздарды
кыздардын
кыздары
кыздарын
кыздарына
кыздарынын
кыздуу
кызды
кыздын
кызмат
кызматка
кызматкер
кызматкердин
кызматкери
кызматкеринин
кызматкерлер
кызматкерлерге
кызматкерлерди
кызматкерлердин
кызматкерлери
кызматкерлерин
кызматкерлерине
кызматкерлеринин
кызматта
кызматтагы
кызматтан
кызматтар
кызматтарга
кызматтарда
кызматтарды
кызматтардын
кызматтары
кызматтарын
кызматтарына
кызматтарында
кызматтарынын
кызматташкан
кызматташтыгы
кызматташтыгын
кызматташтык
кызматташтыкты
кызматташтыктын
кызматташуу
кызматташуунун
кызматташып
кызматты
кызматтык
кызматтын
кызматчы
кызматчылар
кызматчылардын
кызматчылары
кызматчыларынын
кызматчысы
кызматы
кызматын
кызматына
кызматынан
кызматында
кызматынын
кызуу
кызы
кызыга
кызыгуу
кызыгууну
кызыгуусу
кызыгуусун
кызыгы
кызыгып
кызык
кызыкдар
кызыккан
кызыктуу
кызыктырат
кызыктырган
кызыктыруу
кызыкчылыгы
кызыкчылыгын
кызыкчылыгына
кызыкчылык
кызыкчылыктар
кызыкчылыктарды
кызыкчылыктардын
кызыкчылыктары
кызыкчылыктарын
кызыкчылыктарына
кызыкчылыктарынын
кызыкчылыкты
кызыл
кызылга
кызылгат
кызылдан
кызылкыя
кызылсуу
кызылсуунун
кызылча
кызылчасы
кызылчасынын
кызым
кызын
кызына
кызынын
кызыр
кыи
кык
кыке
кыл
кыла
кылабыз
кылаи
кылам
кылар
кыларын
кыласың
кылат
кылба
кылбаган
кылбагыла
кылбаи
кылбастан
кылган
кылганга
кылганда
кылгандан
кылгандар
кылгандарга
кылгандарды
кылгандардын
кылгандыгы
кылгандыктан
кылганы
кылганын
кылгыла
кылдат
кылдаттык
кылдуу
кылды
кылдык
кылдым
кылдың
кылка
кылкан
кылкандуу
кылмыш
кылмышка
кылмышкер
кылмышкерлерди
кылмыштар
кылмыштарды
кылмыштардын
кылмыштуу
кылмыштуулук
кылмыштуулукка
кылмыштуулуктун
кылмышты
кылмыштын
кылмышы
кылса
кылсак
кылсаң
кылсаңар
кылсын
кылуу
кылууга
кылууда
кылуудан
кылууну
кылуунун
кылуусу
кылуусун
кылуучу
кылуучуга
кылуучулар
кылуучунун
кылчу
кылчык
кылы
кылык
кылым
кылымга
кылымда
кылымдагы
кылымдан
кылымдар
кылымдарга
кылымдарда
кылымдардагы
кылымдардан
кылымдардын
кылымдык
кылымдын
кылымы
кылымына
кылымында
кылынат
кылынбаи
кылынган
кылынды
кылынуучу
кылынып
кылынышы
кылып
кылыч
кылычев
кылычты
кылычтын
кылычы
кылыш
кылышат
кылышкан
кылышсын
кылышты
кылышы
кылышып
кымбат
кымыз
кымызды
кын
кындаи
кындын
кынтыксыз
кыпа
кыпкызыл
кыпчак
кыпчактар
кыпчактардын
кыр
кыра
кыраакы
кыраан
кырат
кырбаш
кырг
кыргак
кырган
кыргоол
кыргыз
кыргызга
кыргызд
кыргызда
кыргыздан
кыргыздар
кыргыздарга
кыргыздарда
кыргыздардагы
кыргыздардан
кыргыздарды
кыргыздардын
кыргыздары
кыргыздарынын
кыргызды
кыргыздын
кыргызмамбас
кыргызов
кыргызокуупедмамбас
кыргызпатент
кыргызпатенттин
кыргызск
кыргызская
кыргызскии
кыргызского
кыргызскои
кыргызском
кыргызстан
кыргызстана
кыргызстанга
кыргызстанда
кыргызстандагы
кыргызстандан
кыргызстанды
кыргызстандык
кыргызстандын
кыргызстане
кыргызфильм
кыргызча
кыргызчага
кыргызчасы
кыргызы
кыргыи
кыргыл
кыргылчал
кыргын
кыргынга
кырдаал
кырдаалга
кырдаалда
кырдаалдар
кырдаалдарда
кырдаалдардын
кырдаалды
кырдаалдын
кырдуу
кырды
кырк
кырка
кыркалары
кыркаларында
кыркаларынын
кыркасы
кыркасынын
кыркып
кырлар
кырлары
кырлуу
кырма
кырман
кырсык
кырсыкка
кырсыктан
кырсыктар
кырсыктардын
кырсыктын
кыртыш
кыртышты
кыртыштын
кыртышы
кыртышын
кыртышында
кыртышындагы
кыртышынын
кыруу
кырчы
кырчылар
кырчылык
кырчын
кыры
кырык
кырылган
кырылып
кырым
кырына
кырынан
кырында
кырып
кысап
кыск
кыска
кыскарат
кыскарган
кыскартуу
кыскартылган
кыскартылып
кыскартып
кыскарып
кыскарышы
кыскасы
кыскача
кысуу
кысыгы
кысык
кысыктары
кысылган
кысылып
кысым
кысымга
кысымы
кысымынан
кысын
кысып
кысыр
кыт
кытаи
кычан
кычкыл
кычкылдануу
кычкылтек
кычкылтекке
кычкылтекти
кычкылтектин
кычкылы
кычкылынын
кычы
кычышат
кыш
кышка
кышкы
кышкысын
кыштагы
кыштагына
кыштагынан
кыштагында
кыштагындагы
кыштагынын
кыштаи
кыштак
кыштакка
кыштакта
кыштактар
кыштактарда
кыштактарды
кыштактардын
кыштактары
кыштактын
кыштан
кыштоо
кыштоосу
кыштын
кышы
кышында
кыюу
кыя
кыязы
кыяк
кыяктын
кыякчы
кыял
кыялы
кыям
кыямат
кыяматта
кыянат
кыянаттык
кыяс
кыястын
кыят
кэдр
кэдрдин
кэи
кэмден
кэмерон
кэмпбелл
кэнин
кэр
кэрдин
кэрролл
кэтрин
кээ
кээбир
кээде
кээси
кюри
кѳз
кѳп
күбүлмө
күбө
күбөлүгү
күбөлүк
күбөлөндүрүп
күбөлөндүрүү
күбөлөндүрүүчү
күбөлөрдүн
күбөсү
күдүрлүү
күжүрмөн
күз
күзгү
күзгүдөн
күзгүлүү
күзгүнүн
күзгө
күздүк
күздө
күзүндө
күзөт
күи
күкүк
күкүм
күкүрт
күкүрттүн
күкүрттүү
күл
күлгүн
күлдү
күлдүүлүгү
күлкү
күлкүлүү
күлчоро
күлчорого
күлчорону
күлчоронун
күлү
күлүгү
күлүи
күлүк
күлүн
күлүп
күлөт
күмбөз
күмбөздүн
күмбөзү
күмбөзүнүн
күмбөзүнө
күмдүү
күмүш
күмүшалиева
күмүшкө
күмүштү
күмүштүкү
күмүштүн
күмүштөн
күмөн
күн
күнгө
күнгөи
күндү
күндүз
күндүзгү
күндүзү
күндүк
күндүн
күндө
күндөгү
күндөи
күндөлүгү
күндөлүк
күндөн
күндөр
күндөргө
күндөрдү
күндөрдүн
күндөрдө
күндөрү
күндөрүндө
күнкү
күнтуу
күнчө
күнчөи
күнү
күнүгө
күнүм
күнүмдүк
күнүн
күнүндө
күнүнүн
күнүнө
күнүнөн
күнөс
күнөстүү
күнөө
күнөөгө
күнөөдөн
күнөөкөр
күнөөкөрлөр
күнөөлүү
күнөөлөрдү
күнөөлөрү
күнөөлөрүн
күнөөнү
күнөөнүн
күнөөсү
күнөөсүз
күнөөсүн
күр
күрдүү
күркүрөп
күркүрөө
күрмө
күрмөнтү
күрп
күрүч
күрөк
күрөн
күрөш
күрөшкө
күрөшкөн
күрөштү
күрөштүн
күрөштө
күрөштөн
күрөштөрү
күрөшү
күрөшүн
күрөшүнүн
күрөшүнө
күрөшүп
күрөшүү
күрөшүүгө
күрөшүүдө
күрөшүүнүн
күрөшүүчү
күрөшөт
күрөң
күрөңкеев
күрөңкөев
күрөө
күрөөгө
күткөн
күтүлбөгөн
күтүлгөн
күтүп
күтүү
күтүүсүз
күтүүсүздөн
күтө
күтөт
күч
күчкө
күчсүз
күчтү
күчтүн
күчтүү
күчтүүлүгү
күчтөн
күчтөр
күчтөргө
күчтөрдү
күчтөрдүн
күчтөрү
күчтөрүн
күчтөрүндө
күчтөрүнүн
күчтөрүнө
күчү
күчүк
күчүн
күчүндө
күчүнүн
күчүнө
күчүнөн
күчөгөн
күчөгөндө
күчөи
күчөп
күчөткүч
күчөткөн
күчөтүлгөн
күчөтүп
күчөтүү
күчөтүүгө
күчөтүүчү
күчөтөт
күчөшү
күчөшүнө
күчөшүнөн
күң
күңгөи
күңүрт
күү
күүгүм
күүгүмдө
күүгө
күүлөр
күүлөрдү
күүлөрдүн
күүлөрү
күүлөрүн
күүлөрүнүн
күүнү
күүнүн
күүсү
күүсүн
кө
көбү
көбүк
көбүн
көбүндө
көбүнесе
көбүнчө
көбүнчөсү
көбүнүн
көбүнө
көбүрөөк
көбөи
көбөш
көбөштүн
көгарт
көгүлтүр
көгүчкөн
көгүш
көгөи
көгөрүп
көгөрөт
көз
көзгө
көздү
көздүн
көздүү
көздөгөн
көздөи
көздөн
көздөп
көздөрү
көздөрүн
көзкаман
көзкамандар
көзкамандардын
көзкаранды
көзкарандысыз
көзү
көзүм
көзүн
көзүнчө
көзүнүн
көзүнө
көзүнөн
көзүң
көзүңдү
көзөмөл
көзөмөлгө
көзөмөлдү
көзөмөлдүк
көзөмөлдөгөн
көзөмөлдөи
көзөмөлдөнөт
көзөмөлдөп
көзөмөлдөө
көзөмөлдөөгө
көзөмөлдөөчү
көзөмөлү
көзөмөлүндө
көзөмөлүнө
көзөнөгү
көзөнөк
көи
көк
көккө
көксулуу
көктү
көктүн
көктөм
көктөн
көкчө
көкчөгө
көкчөдөн
көкчөкөз
көкчөнүн
көкүл
көкүм
көкүрөгү
көкүрөгүн
көкүрөк
көкүрөктүн
көкө
көкөи
көкөмерен
көкөтөи
көл
көлгө
көлдү
көлдүк
көлдүн
көлдө
көлдөгү
көлдөн
көлдөр
көлдөрдүн
көлдөрдө
көлдөрү
көлдөрүнүн
көлмө
көлмөлөр
көльн
көлү
көлүн
көлүндө
көлүнүн
көлүнө
көлүнөн
көлөкө
көлөкөдө
көлөкөсү
көлөм
көлөмгө
көлөмдү
көлөмдүк
көлөмдүн
көлөмдүү
көлөмдө
көлөмдөгү
көлөмү
көлөмүн
көлөмүндө
көлөмүнүн
көлөмүнө
көмүлгөн
көмүлүп
көмүр
көмүрдү
көмүрдүн
көмүрлүү
көмүртек
көмүртектин
көмүртектүү
көмүскө
көмүскөдө
көмүү
көмөк
көмөктөшкөн
көмөктөшүү
көмөктөшөт
көмөкчү
көмөкөи
көмөлдүрүк
көн
көнбөи
көнгөн
көндүмдөр
көнүгүү
көнүгүүлөр
көнүгүүлөрдү
көнүгүүлөрдүн
көнүгүүлөрү
көнүгүүлөрүн
көнүгүүнү
көнүмүш
көнүп
көнөк
көп
көпкө
көптү
көптүгү
көптүгүн
көптүгүнүн
көптүгүнө
көптүгүнөн
көптүк
көптүктүн
көптүр
көптөгөн
көптөн
көпчүлүгү
көпчүлүгүн
көпчүлүгүндө
көпчүлүгүнүн
көпчүлүгүнө
көпчүлүк
көпчүлүккө
көпчүлүктү
көпчүлүктүн
көпшөк
көпүрө
көпүрөнүн
көпүрөсү
көпөлөк
көпөлөктөр
көпөлөктөрдүн
көпөс
көр
көрбө
көрбөгөн
көрбөгөндөи
көрбөи
көргүлө
көргө
көргөзгөн
көргөзмө
көргөзмөгө
көргөзмөлөр
көргөзмөлөргө
көргөзмөлөрдүн
көргөзмөлөрү
көргөзмөсү
көргөзмөсүнүн
көргөзүлгөн
көргөзүп
көргөзөт
көргөн
көргөндө
көргөндөн
көргөндөр
көргөнү
көргөнүн
көрдү
көрдүк
көрдүм
көрдүңбү
көрк
көркү
көркүн
көркүнө
көркөм
көркөмдүгү
көркөмдүк
көркөмдүктө
көркөмдөп
көрпө
көрсүн
көрсө
көрсөк
көрсөт
көрсөткүч
көрсөткүчтөр
көрсөткүчтөргө
көрсөткүчтөрдүн
көрсөткүчтөрү
көрсөткүчтөрүн
көрсөткүчтөрүнүн
көрсөткүчү
көрсөткөн
көрсөткөндөи
көрсөтмө
көрсөтмөлөр
көрсөтмөлөрдү
көрсөтмөлөрү
көрсөтмөлөрүн
көрсөтмөсү
көрсөтпөи
көрсөтсө
көрсөттү
көрсөтүлбөсө
көрсөтүлгөн
көрсөтүлгөндөи
көрсөтүлдү
көрсөтүлсө
көрсөтүлүп
көрсөтүлүшү
көрсөтүлүүчү
көрсөтүлө
көрсөтүлөт
көрсөтүп
көрсөтүшкөн
көрсөтүшөт
көрсөтүү
көрсөтүүгө
көрсөтүүдө
көрсөтүүдөн
көрсөтүүлөр
көрсөтүүлөрдү
көрсөтүүлөрдүн
көрсөтүүнү
көрсөтүүнүн
көрсөтүүсү
көрсөтүүчү
көрсөтүүчүсү
көрсөтө
көрсөтөм
көрсөтөт
көрсөң
көрчү
көрү
көрүлгөн
көрүлөт
көрүнбөгөн
көрүнбөи
көрүнгөн
көрүндү
көрүнсө
көрүнүктүү
көрүнүп
көрүнүш
көрүнүшкө
көрүнүштү
көрүнүштүн
көрүнүштөр
көрүнүштөргө
көрүнүштөрдү
көрүнүштөрдүн
көрүнүштөрү
көрүнүштөрүн
көрүнүшү
көрүнүшүн
көрүнүшүнө
көрүнүү
көрүнүүчү
көрүнө
көрүнөт
көрүнөө
көрүп
көрүстөн
көрүстөндүн
көрүстөндөр
көрүстөндөрдүн
көрүстөндөрү
көрүстөнү
көрүстөнүндө
көрүстөнүнө
көрүш
көрүшкөн
көрүшпөи
көрүштү
көрүшү
көрүшүп
көрүшөт
көрүү
көрүүгө
көрүүдө
көрүүнү
көрүүнүн
көрүүсү
көрүүчү
көрүүчүлөр
көрүүчүлөргө
көрүүчүлөрдү
көрүүчүлөрдүн
көрө
көрөбүз
көрөгөч
көрөи
көрөлү
көрөм
көрөсүң
көрөт
көсөө
көтен
көтөн
көтөр
көтөрбөи
көтөргүч
көтөргөн
көтөрдү
көтөрмө
көтөрүлгөн
көтөрүлгөндө
көтөрүлдү
көтөрүлүп
көтөрүлүш
көтөрүлүшкө
көтөрүлүштү
көтөрүлүштүн
көтөрүлүштөр
көтөрүлүштөрү
көтөрүлүшчүлөр
көтөрүлүшчүлөрдүн
көтөрүлүшү
көтөрүлүшүн
көтөрүлүшүнүн
көтөрүлүшүнө
көтөрүлүшүнөн
көтөрүлүү
көтөрүлө
көтөрүлөт
көтөрүмдүүлүгү
көтөрүп
көтөрүшкөн
көтөрүңкү
көтөрүү
көтөрүүгө
көтөрүүдө
көтөрүүчү
көтөрө
көтөрөт
көч
көчкү
көчкөн
көчкөндө
көчмө
көчмөн
көчмөндөр
көчмөндөрдүн
көчү
көчүк
көчүп
көчүрмө
көчүрмөсү
көчүрмөсүн
көчүрүлгөн
көчүрүлүп
көчүрүп
көчүрүү
көчүү
көчө
көчөгө
көчөдө
көчөлөр
көчөлөрү
көчөлөрүнүн
көчөнүн
көчөсү
көчөсүндө
көчөсүндөгү
көчөсүнө
көчөт
көчөттү
көчөттүн
көчөттөр
көчөттөрдү
көчөттөрдүн
көчөттөрү
көчөттөрүн
көчөттөрүнүн
көчөтү
көчөтүн
көчөтүнө
көшөгө
көшөгөлүү
көң
көңдөи
көңүл
көңүлгө
көңүлдү
көңүлдүн
көңүлдүү
көңүлү
көңүлүн
көңүлүнө
көө
көөдөн
көөкөр
көөлү
көөмп
көөнү
көөнө
көөнөрбөс
көөп
л
ла
лаакча
лаакчалар
лаб
лабаи
лабан
лабор
лаборант
лаборатория
лабораторияда
лабораториялык
лабораториянын
лабораториясы
лабораториясында
лабораториясынын
лабрадор
лава
лаврентии
лаган
лагыла
лад
лады
лазер
лазердик
лаи
лак
лакаи
лакап
лакаптар
лакер
лактар
лактация
лам
лама
ламберт
ламбиел
лампа
лампасы
ламта
лан
лана
ланадагы
ланаи
лананын
ланасы
ланасын
ланасына
ланасында
ланасындагы
ланат
ланбаи
ланган
ланганда
лангандан
ланд
ландау
ландсберг
ландсхут
ландшафт
ландшафттар
ландшафттары
ландшафттык
ландшафттын
ландшафты
ланды
ландырат
ландырган
ландыруу
ландырууга
ландыруучу
ландырылат
ландырылган
ландырып
ланка
ланма
ланса
ланта
лантат
ланткан
лантуу
лантып
лануу
ланууга
ланууда
ланууну
лануунун
лануусу
лануусун
лануусуна
лануусунун
лануучу
ланцеттеи
ланып
ланыш
ланышат
ланышка
ланышкан
ланышпаган
ланышсыз
ланышта
ланыштагы
ланыштар
ланыштарды
ланыштардын
ланыштары
ланыштарын
ланыштарынын
ланыштуу
ланышты
ланыштын
ланыштырат
ланыштырган
ланыштыруу
ланыштыруучу
ланыштырылат
ланыштырылган
ланыштырып
ланыштырышат
ланышуу
ланышы
ланышын
ланышына
ланышында
ланышынын
ланышып
лао
лаос
лап
лар
ларга
ларда
лардагы
лардан
ларды
лардын
ларри
лары
ларын
ларына
ларынан
ларында
ларындагы
ларынын
лас
ласк
ласы
ласын
лат
лата
латвия
латвиянын
латын
латынча
латып
латыш
лауреат
лауреаттары
лауреаты
лауэнбург
лахш
лаш
лашат
лашкан
лаштырылган
лашып
лаң
лг
лге
лгон
лд
лдар
лдарды
лдин
ле
лебединовка
леби
лебилер
лев
леген
легенда
легендарлуу
легко
лежать
лежит
леи
лек
лексика
лексикалык
лексикасы
лексикология
лекция
лекциялар
лена
ленген
ленд
ленин
ленинград
ленинградда
ленинграддагы
лениндик
лениндин
ленинизм
ленинполь
ленинчи
ленинчил
лео
леон
леонард
леонардо
леоне
леонид
леп
лепе
лер
лерге
лерде
лерден
лерди
лердин
лери
лерин
леринде
лерине
леринин
лермонтов
лермонтовдун
лес
лет
летию
лето
летом
лехтеги
ли
либералдык
либерия
либо
ливан
ливандын
ливия
ливиянын
ливон
лига
лиганын
лигасы
лигасын
лигасына
лигасында
лигасынын
лиги
лигин
лигинде
лигине
лигинен
лигинин
лигишүү
лигишүүсү
лигурия
лидер
лидери
лидерлер
лидерлери
лидерлеринин
лидерлик
лидия
лиза
лизинг
лик
лике
ликке
ликте
ликтен
ликтер
ликтери
ликти
ликтин
лилия
лимбург
лимон
лимфа
лимфоциттер
лин
лингв
лингвист
лингвистика
лингвистикалык
линда
линдау
линза
линзалуу
линии
линин
линия
линиялар
линиясы
линкольн
линн
линнеи
лион
липецк
липпе
лир
лира
лирика
лирикалык
лиссабон
лист
лит
литва
литвада
литванын
литература
литературная
литературныи
литературы
литии
литосфера
литр
лихтенштеи
лица
лицах
лице
лицеи
лицензия
лицензиялык
лицензиясы
лицо
лицом
лицу
личинка
личинкалары
личинкасы
лишился
лк
лка
лке
лкжс
ло
лоб
лобачевскии
лобои
лов
лова
лович
ловка
ловкии
ловко
ловчеи
логан
логика
логикада
логикалык
логиканын
логикасы
логия
логон
ложь
лозанна
лозьва
лои
лок
локалдык
локк
лом
ломдун
ломоносов
лон
лондон
лондонго
лондондо
лондондогу
лондондун
лонуп
лонуу
лоо
лоого
лоодо
лоодон
лоолор
лоолордо
лоону
лоонун
лоосу
лоосунда
лоочу
лоочулар
лоочулардын
лоп
лопе
лор
лорго
лорд
лордо
лорду
лордун
лоренц
лору
лорун
лоруна
лорунда
лорунун
лос
лот
лотар
лото
лоуренс
лошадеи
лошади
лошадь
лошкон
лошот
лс
лу
лувр
луганск
лугат
лугати
лудвиг
луза
луи
луиза
луис
лук
лука
лукреции
лун
луна
луначарскии
луп
лут
луттун
луу
луулугу
луулук
луулуктун
лучше
лучшии
лы
лыгы
лыгын
лыгына
лыгында
лыгынын
лыжа
лык
лыкка
лыктар
лыктарга
лыктарды
лыктардын
лыктары
лыктарын
лыктарына
лыктарынан
лыктарынын
лыкты
лыктын
лым
лына
лында
ль
льбронн
льбург
львов
льхаи
льюис
лэи
лю
любви
люблинско
любовь
людвиг
людвигсбург
людеи
люди
людмила
людовик
людях
люк
люксембург
люминесценция
люнебург
лютер
люхов
ляо
лү
лүгү
лүдвигслуст
лүис
лүк
лүү
лүүлөр
лө
лөбөи
лөгөн
лөгөндө
лөдү
лөи
лөм
лөмдү
лөмдүн
лөмдө
лөмдөгү
лөмдөр
лөмдөрдүн
лөмө
лөнгөн
лөнүп
лөнүшү
лөнүү
лөнө
лөнөт
лөп
лөр
лөргө
лөрдү
лөрдүн
лөрдө
лөрү
лөрүн
лөрүндө
лөрүнүн
лөрүнө
лөсө
лөтүп
лөш
лөшкөн
лөшүп
лөшүү
лөшүүгө
лөшүүлөр
лөшүүлөрдү
лөшүүлөрдүн
лөшө
лөшөт
лөө
лөөгө
лөөнү
лөөнүн
лөөчү
м
ма
маа
маал
маалда
маалы
маалым
маалымат
маалыматка
маалыматтар
маалыматтарга
маалыматтарда
маалыматтардан
маалыматтарды
маалыматтардын
маалыматтары
маалыматтарын
маалыматтарына
маалыматтарында
маалыматты
маалыматтык
маалыматтын
маалыматы
маалыматына
маалымдама
маалымдамасы
маалымдоо
маалында
мааматкул
маанаи
маани
мааниге
мааниде
маанидеги
мааникерди
маанилер
маанилерди
маанилери
маанилерин
маанилеринин
маанилеш
маанилик
маанилуу
маанилүү
маанилүүлүгү
маанилүүлүгүн
маанилүүсү
маанини
мааниси
маанисиз
маанисин
маанисинде
маанисиндеги
маанисине
маанисинен
маанисинин
маап
мааракеси
мааракесин
мааракесине
маасы
мааткабыл
мавзолеи
маврикии
мавритания
маг
мага
магазин
магеллан
магистр
магистралдык
магистратура
магистрдик
магия
магиялык
магма
магмалык
магманын
магнезит
магнетит
магнии
магнит
магнитогорск
магниттик
магниттүү
магы
магын
магына
магынан
магында
магындагы
магынын
мадагаскар
мадазимов
мадали
мадании
маданият
маданиятка
маданиятта
маданияттар
маданияттарда
маданияттардын
маданияттуу
маданиятты
маданияттын
маданияты
маданиятын
маданиятына
маданиятынан
маданиятында
маданиятындагы
маданиятынын
мадинага
мадрид
мадриддин
мадумаров
мады
маегинде
маек
мажар
мажарстан
мажарстандын
мажбур
мажбурлаган
мажбурлаи
мажбурлап
мажбурлоо
мажму
мазар
мазин
мазмун
мазмунга
мазмундагы
мазмунду
мазмундук
мазмундун
мазмундуу
мазмуну
мазмунун
мазмунуна
мазмунунда
мазмунунун
мазут
маи
мак
мака
макал
макала
макалада
макалалар
макалаларды
макалалардын
макалалары
макалаларын
макалаларында
макаланы
макаланын
макаласы
макаласын
макаласында
макам
макао
макаренко
макаров
макарон
макбет
македония
македониянын
македонскии
макел
макен
макешов
макка
макмал
маков
макро
макроэкономикалык
макс
максат
максатка
максатта
максаттагы
максаттар
максаттарга
максаттарда
максаттарды
максаттары
максаттарын
максаттарына
максаттарында
максаттарынын
максаттуу
максатты
максаты
максатын
максатына
максатында
максвелл
максим
максималдуу
максимум
максимуму
максым
макта
мактагы
мактан
мактанып
мактап
мактар
мактарга
мактарда
мактардагы
мактардан
мактарды
мактардын
мактары
мактарын
мактарына
мактарынан
мактарында
мактарындагы
мактарынын
мактоо
мактоого
макты
мактык
мактын
макул
макулдашуу
макулдашууга
макулдашуулар
макулдашуунун
макулдашуусу
макулдашылган
макулдашып
макулдугу
макулдугун
макулдугусуз
макулдук
макчасы
мал
мала
малави
малаи
малакка
маланган
маланып
малар
маларды
малардын
малары
маларынын
малга
малда
малдан
малдарды
малдардын
малды
малдыбаев
малдын
маленькая
маленькии
маленьким
мали
малик
маликов
малколм
мало
малов
малуу
малчы
малчылар
малчылардын
малчылык
малы
малым
малын
малып
малың
мальта
мальчик
мальчика
мам
мама
мамаи
мамаке
мамалекеттик
мамат
маматкул
мамбет
мамбетакун
мамбетакунов
мамбеталиев
мамбеталиева
мамбеталиеванын
мамбетов
мамиле
мамилеге
мамиледе
мамилелер
мамилелерге
мамилелерде
мамилелерди
мамилелердин
мамилелери
мамилелерин
мамилелерине
мамилелеринин
мамилени
мамиленин
мамилеси
мамилесин
мамилесине
мамилесинин
мамл
мамлекет
мамлекети
мамлекетин
мамлекетинде
мамлекетиндеги
мамлекетине
мамлекетинин
мамлекетке
мамлекетте
мамлекеттеги
мамлекеттен
мамлекеттер
мамлекеттерге
мамлекеттерде
мамлекеттердеги
мамлекеттерден
мамлекеттерди
мамлекеттердин
мамлекеттери
мамлекеттеринде
мамлекеттерине
мамлекеттеринин
мамлекетти
мамлекеттик
мамлекеттин
мамлекеттүүлүгүнүн
мамлекттик
мамы
мамык
мамыр
мамытов
ман
мана
манабы
манап
манаптар
манаптардын
манаптын
манас
манаса
манаска
манаста
манастаануу
манастагы
манастан
манасты
манастын
манасчы
манасчылар
манасчылардан
манасчылардын
манасчылары
манасчылык
манасчынын
манасчысы
манасы
манасым
манасын
манат
манбаи
манбас
манга
манго
мангр
мангыт
манд
мандаи
мандалак
мандар
мандарды
мандардын
мандарин
мандары
мандарын
мандат
мандуу
мандуулар
манды
мандык
мандын
манжа
манжалар
манжалардын
манжалары
манжаларынын
манжалуу
манжу
манжур
маниок
манкана
манканасы
манов
манова
мансап
мансии
мансур
мансфельд
мантыш
мануи
мануэль
манфред
манчестер
маны
манын
мао
мар
мара
марага
марал
марат
марафон
марбург
маргалаң
марганец
маргарет
маржан
мари
марии
марина
марино
марио
мария
мариям
марк
марка
маркадагы
маркасы
маркасына
маркасындагы
маркетинг
марко
марков
маркс
марксизм
марксизмдин
марксисттик
маркстик
маркстын
марксчыл
маркт
маркум
маркумду
маркумдун
маркус
марокко
марокконун
марс
марсель
марстын
март
марта
мартен
мартин
мартка
мартта
марттан
марттын
мартына
мартынан
мартында
мартындагы
марш
маршал
маршалл
маршалы
маршрут
маршы
мары
мас
масалиев
маселе
маселеге
маселеде
маселелер
маселелерге
маселелерди
маселелердин
маселелери
маселелерин
маселелерине
маселелеринин
маселен
маселени
маселенин
маселеси
маселесин
маселесинде
маселесине
маска
маслова
масс
масса
массага
массаж
массалары
массаларынын
массалуу
массалык
массаны
массанын
массасы
массасын
массасына
массасынын
массачусетс
массивдери
массивдүү
массиви
массивинин
массы
мастер
мастери
масштабда
масштабдагы
масштабдуу
масштабы
масы
масына
масынан
масынын
мат
мата
матаи
матем
математиги
математик
математика
математикада
математикалык
математиканы
математиканын
математики
математиктер
матер
матери
материал
материалам
материалга
материалдан
материалдар
материалдарга
материалдардан
материалдарды
материалдардын
материалдары
материалдарын
материалдарынын
материалдуу
материалды
материалдык
материалдын
материализм
материализмдин
материалисттик
материалов
материалы
материалын
материалынын
материи
материк
материктердин
материктик
материктин
материнское
материя
материянын
матрица
маттиас
матч
мать
маунт
мах
махабат
махабаты
махачкала
махмуд
мачы
мачылык
маш
маша
машаи
машак
машина
машинага
машинада
машиналар
машиналарды
машиналардын
машиналары
машиналарын
машиналык
машинаны
машинанын
машинасы
машине
машыгуу
машыгууга
машыгууну
машыгып
машыккан
машыктыргыч
машыктыруучу
машыктыруучусу
мая
маяк
маяковскии
маяна
маятниктин
маңдаи
маңыз
маңыздуу
маңызы
маңызын
маңызына
мвд
мвт
мг
мге
мгу
мгунун
мгц
мде
мдеи
мден
мдж
ме
мед
медаи
медал
медалга
медалдар
медалдардын
медалдары
медалы
медалын
медалына
медалынын
медаль
медер
медербек
медет
медиа
медина
мединалык
медицина
медицинада
медициналык
медицинанын
медицинасы
медленно
медпункт
медресе
между
междунар
международного
международнои
международныи
мезгил
мезгилге
мезгилде
мезгилдеги
мезгилден
мезгилдер
мезгилдерге
мезгилдерде
мезгилдердеги
мезгилдерден
мезгилдердин
мезгилдери
мезгилдеринде
мезгилдеринин
мезгилди
мезгилдик
мезгилдин
мезгилдүү
мезгили
мезгилин
мезгилинде
мезгилиндеги
мезгилине
мезгилинен
мезгилинин
мезгилсиз
мезени
мезень
мезозои
мезолит
мезондор
меи
мек
мекеге
мекеме
мекемеге
мекемелер
мекемелерге
мекемелерде
мекемелерди
мекемелердин
мекемелери
мекемелерин
мекемелеринде
мекемелерине
мекемелеринин
мекеменин
мекемеси
мекемесинде
мекемесинин
мекен
мекенге
мекендеген
мекендеи
мекендеп
мекенди
мекендик
мекендин
мекени
мекеним
мекенин
мекенине
мекке
меккеге
меккеде
меккелик
мекленбург
мексика
мексикада
мексикалык
мексиканын
мексико
мектеби
мектебин
мектебинде
мектебине
мектебинен
мектебинин
мектеп
мектепке
мектепте
мектептеги
мектептен
мектептер
мектептерге
мектептерде
мектептерди
мектептердин
мектептери
мектептеринде
мектептеринин
мектепти
мектептик
мектептин
мелдеш
мелдеши
мелдешке
мелдеште
мелдештер
мелдештерге
мелдештерде
мелдештердин
мелдештин
мелер
мелеуз
мелиорация
мелис
мелкие
мелкии
мелодии
мелүүн
мембрана
мемориал
мемориалдык
мен
менде
мендеи
менделеев
менден
мендирман
мене
менеджер
менеджери
менеджмент
менен
мененки
мени
меники
менин
менингит
менмин
менчиги
менчигинде
менчигине
менчигинин
менчик
менчикке
менчикти
менчиктин
меньшевиктер
меня
мер
мера
мергель
мерген
мергенчи
мергенчилик
мерден
мерзебург
меридиан
мерке
меркиш
меркурии
мерримак
мерт
мерчемдүү
меры
месопотамия
мессиянын
мест
места
местах
месте
местности
место
месяц
месяца
метал
металл
металлга
металлдан
металлдар
металлдарга
металлдардан
металлдарды
металлдардын
металлдары
металлды
металлдык
металлдын
металлогениялык
металлургия
металлургияда
металлургиялык
металлургиянын
метаморфизм
метаморфизмделген
метан
метасоматоз
метафизика
метафизикалык
метеор
метеордук
метеорит
метеорология
метеорологиялык
метил
метод
методдор
методдорду
методдордун
методдору
методдорун
методдорунун
методду
методдун
методика
методикалык
методикасы
методикасын
методист
методические
методическое
методология
методологиялык
методу
методун
методунун
методы
метр
метраждуу
метрге
метрдеи
метрден
метрди
метрдик
метро
метрополитен
метросу
метросунун
мех
механизатор
механизм
механизмдер
механизмдерди
механизмдердин
механизмдери
механизмдерин
механизмдин
механизми
механизмин
механик
механика
механикада
механикалаштыруу
механикалаштырылган
механикалык
механиканын
механикасы
механикасында
механикасынын
мехико
мехмет
меч
мечетлин
мечит
мечити
мечитинин
мечитке
мечиттер
мечиттин
меш
меши
мешок
мешхед
меңдибаи
ми
мианын
миграция
миграциясы
мид
миддлсекс
мидия
мидлсекс
миздүү
мизи
мизин
микро
микроб
микробдор
микробдордун
микробиология
микроорганизмдер
микроорганизмдердин
микроскоп
микроскоптук
микрофон
милан
милдет
милдети
милдетин
милдетине
милдеттенген
милдеттенет
милдеттенме
милдеттенмелер
милдеттенмелерди
милдеттенмелери
милдеттенмелерин
милдеттенмени
милдеттенмеси
милдеттенмесин
милдеттер
милдеттерди
милдеттердин
милдеттери
милдеттерин
милдеттерине
милдеттеринин
милдетти
милдеттүү
милиционер
милиция
милициянын
милициясынын
миллер
миллиард
миллиарддан
миллион
миллионго
миллиондогон
миллиондон
милте
милыи
миль
мильтенберг
миля
мин
мина
минген
мингизип
минден
мине
минерал
минералдар
минералдардан
минералдардын
минералдары
минералдашкан
минералдашуусу
минералдуу
минералдык
минералогия
минералы
мини
миниатюра
минималдуу
минимум
минип
министирлиги
министирлигинин
министр
министрдин
министри
министринин
министрлер
министрлеринин
министрлиги
министрлигинде
министрлигине
министрлигинин
министрлик
миннесота
миноме
минск
минтип
минуса
минусин
минусинск
минута
минутада
минутадан
миокарддын
мир
мира
мире
мирза
мирлан
мис
мисал
мисалга
мисалдар
мисалдарды
мисалдары
мисалы
мисалында
мисир
мисирге
мисирде
мисирден
мисирдин
мисирликтер
мисс
миссисипи
миссия
миссиясы
миссури
мисте
мистер
мистикалык
мите
мителер
мителик
митинг
митингчилер
митчелл
миф
мифология
мифологиялык
мифологиясында
мифологиясындагы
мифтаков
мифтер
мифтик
михаи
михаил
михель
мицелии
мичиган
мичурин
мишель
мишкин
миякин
миң
миңге
миңдеген
миңдеи
миңден
миңдуулат
миңжылдыктын
миңи
мка
мкг
мкм
мл
млн
млнго
млндои
млндон
млрд
мм
ммге
ммдеи
ммден
ммк
мн
мне
многие
многих
много
многокр
мнои
мныи
мо
мобилдик
мог
могиле
могильника
могол
моголдор
моголдордун
моголстан
моголстанга
моголстандын
могу
могут
мода
моделдер
моделдерди
моделдери
моделдерин
моделдештирүү
моделдөө
модели
моделин
моделинин
модель
модерн
модернизация
модернизациялоо
модификациясы
модулу
модэ
мое
моего
моеи
может
можно
мозаика
мозамбик
мои
мок
мокеев
мол
молдаван
молдавия
молдо
молдобаев
молдобасан
молдобасанов
молдова
молдогазиев
молдокасымов
молдонун
молдугу
молдук
молекула
молекулалар
молекулалардын
молекулалары
молекулаларынын
молекулалуу
молекулалык
молекуланын
молекуласы
молекуласынын
молекулярдык
молибден
моллюскалар
моллюскалардын
моло
молодая
молоде
молодец
молодои
молодуха
молодца
молодых
молока
молоко
моль
мом
момент
моменти
моментинин
моменттеринин
момокон
момолои
момун
момундар
момундарга
мон
монако
монарх
монархия
монархиялык
монастыры
монг
монгол
монголдор
монголдордун
монголии
монголия
монголияда
монголиядагы
монголиянын
монд
монета
мониторинг
монмут
моно
монография
монографиянын
монографиясы
моноклин
монолог
монополия
монополиялык
монотиптүү
монреаль
монтаж
монтаждоо
монтана
монтгомери
монте
монумент
монументалдык
монументтик
мончо
мончок
мончонун
моос
мор
моралдык
мораль
морган
море
морена
мореналар
морис
мороз
морозково
моррис
морт
морфол
морфология
морфологиялык
морфологиясы
моря
москва
москвага
москвада
москвадагы
москвадан
москвалык
москваны
москванын
москвы
мосфильм
мотив
мотивдер
мотивдердин
мотивдери
мотиви
мотоаткычтар
мотор
мотоцикл
мохаммад
мохаммед
моцарт
мочевина
мочу
мою
моюн
моюнга
моюндун
моюну
моюнуна
моя
моңгол
моңголдор
моңголдордун
моңголия
моңголияда
моңголиянын
моңголчо
моңол
моңолдор
мп
мпа
мрамор
мраморлошкон
мрас
мс
мте
мтс
му
мугалим
мугалимге
мугалимдер
мугалимдерге
мугалимдерди
мугалимдердин
мугалимдери
мугалимдеринин
мугалимдик
мугалимдин
мугалими
мудрыи
муж
мужа
мужчина
мужчине
мужчины
муз
муздаи
муздак
муздап
муздар
муздаткыч
муздаткычта
муздатуу
муздатуучу
муздун
музеи
музоо
музыка
музыкага
музыкада
музыкалуу
музыкалык
музыкант
музыканттар
музыканттардын
музыканы
музыканын
музыкасы
музыкасын
музыкасына
музыкасында
музыкасынын
муи
мукаи
мукам
мукамбаев
мукаш
муки
муктаж
муктаждыгы
муктаждыгын
муктаждык
муктаждыктары
муктаждыктарын
мукур
мулла
мулчак
мультсериал
мультсериалдын
мультфильм
мумбаи
мумкун
мун
мунаи
мунара
мунаралар
мунаралуу
мунаранын
мунарасы
мунгуш
мундуз
мундус
муниципалдык
муниципалитет
муниципалитеттин
муну
мунун
мур
мурас
мураска
мураскер
мураскери
мураскор
мураскору
мурастар
мурастарды
мурастары
мурастарын
мурастоо
мурастын
мурасы
мурасын
мурат
муратаалы
мураталиев
мураталы
муратбек
муратов
мургаб
мурда
мурдагы
мурдагыдаи
мурдагыдан
мурдакы
мурдараак
мурдатан
мурду
мурдун
мурдунан
мурун
мурунга
мурундан
мурундун
мурунку
мурункудаи
мурунтан
мурут
муруту
муса
мусага
мусаев
мусакожоев
мусакожоева
мусаны
мусанын
муслим
мусоргскии
муссон
муссондук
мустафа
мусулман
мусулмандар
мусулмандарга
мусулмандарды
мусулмандардын
мусулмандарынын
мусулмандык
мусулманкул
мусулманкуловдун
мутация
муун
муунак
муунактуу
муунга
муунда
муундагы
муундан
муундар
муундарга
муундарды
муундардын
муундары
муунду
муундун
муундуу
мууну
муфтии
мухаммад
мухаммед
мухаммеддин
мухтар
мухтасар
мушкер
мушкетов
мушриктер
мушташ
муштум
муң
муңаи
муңдуу
мы
мыгы
мыи
мык
мыкаачылык
мыктуу
мыкты
мыктысы
мыл
мылга
мылда
мылдабаи
мылдаган
мылдагы
мылдаи
мылдан
мылдап
мылдар
мылдарга
мылдарды
мылдардын
мылдары
мылдаткыч
мылдаткычта
мылдаткычтар
мылдаткычтары
мылдаткычтын
мылдаткычы
мылдаткычынын
мылдоо
мылдоочу
мылдуу
мылды
мылдын
мылсыз
мылтык
мылтыктын
мылы
мылын
мылына
мылынан
мылында
мылынын
мын
мына
мында
мындагы
мындаи
мындан
мынча
мынчалык
мыр
мырза
мырзабек
мырзанын
мыскал
мысли
мысль
мышык
мышьяк
мьянма
мэв
мэдисон
мэи
мэн
мэр
мэри
мэриленд
мэриясынын
мэтт
мээ
мээге
мээде
мээдеги
мээлеи
мээнет
мээни
мээнин
мээрим
мээримдүү
мээси
мюзикл
мюллер
мюльдорф
мюнстер
мюнхен
мяса
мясо
мясом
мүдүрү
мүдөөсү
мүдөөсүн
мүи
мүлк
мүлккө
мүлктү
мүлктүк
мүлктүн
мүлктөрдү
мүлктөрүн
мүлкү
мүлкүн
мүлкүнө
мүмкүн
мүмкүндүгү
мүмкүндүгүн
мүмкүндүк
мүмкүнчүлүгү
мүмкүнчүлүгүн
мүмкүнчүлүгүнүн
мүмкүнчүлүгүнө
мүмкүнчүлүгүнөн
мүмкүнчүлүк
мүмкүнчүлүктөр
мүмкүнчүлүктөргө
мүмкүнчүлүктөрдү
мүмкүнчүлүктөрдүн
мүмкүнчүлүктөрү
мүмкүнчүлүктөрүн
мүмкүнчүлүктөрүнүн
мүмкүнчүлүктөрүнө
мүн
мүнөз
мүнөзгө
мүнөздүү
мүнөздө
мүнөздөгү
мүнөздөгөн
мүнөздөи
мүнөздөлгөн
мүнөздөлүүчү
мүнөздөлөт
мүнөздөмө
мүнөздөмөлөрү
мүнөздөмөлөрүн
мүнөздөмөсү
мүнөздөп
мүнөздөрү
мүнөздөө
мүнөздөөчү
мүнөзү
мүнөзүн
мүнөзүндө
мүнөзүндөгү
мүнөзүнүн
мүнөзүнө
мүнөт
мүнөткө
мүнөттөн
мүрзө
мүрзөгө
мүрзөдөн
мүрзөлөр
мүриц
мүчө
мүчөлүгүнө
мүчөлүк
мүчөлүккө
мүчөлүү
мүчөлөр
мүчөлөрдүн
мүчөлөрү
мүчөлөрүн
мүчөлөрүнүн
мүчөлөрүнө
мүчөнүн
мүчөсү
мүчөсүн
мүчөсүнүн
мүчөсүнө
мүчөсүнөн
мүшкүл
мө
мөк
мөмө
мөмөлүү
мөмөлөи
мөмөлөрү
мөмөсү
мөмөсүндө
мөмөсүнүн
мөндүр
мөнкул
мөрөи
мөңгү
мөңгүдөн
мөңгүлүү
мөңгүлөр
мөңгүлөрдүн
мөңгүлөрдөн
мөңгүлөрү
мөңгүнүн
мөңгүсү
мөңгүсүнүн
мөөнөт
мөөнөткө
мөөнөтсүз
мөөнөттүн
мөөнөттүү
мөөнөттө
мөөнөттөгү
мөөнөтү
мөөнөтүн
мөөнөтүнүн
мөөнөтүнө
мөөнөтүнөн
мөөр
мөөрү
н
на
наалы
наам
наама
наамга
наамдар
наамдарды
наамдары
наамдарын
наамдарына
наамды
наамы
наамын
наамына
наамынын
наар
нааразы
нааразылыгын
нааразылык
нааразычылык
набаи
набрасываться
набыт
навигация
навои
навстречу
нагаи
наган
нагима
нагы
нагыз
нагын
нагына
нагында
нагынын
нагүл
над
наде
надежда
надеждин
надир
надо
нады
надыр
назад
назар
назаралиев
назарбаев
назарбек
назаров
назарова
название
названия
назик
назира
назым
наи
нак
накка
накта
накталаи
нактардын
нактары
нактарында
нактарынын
накты
нактын
накыл
налат
налган
налог
налы
налып
налыш
нам
намаз
намазга
намазды
намазын
наманган
наме
намибия
намыс
намысы
намысын
намысына
нан
нанды
нандын
нанкин
нап
наполеон
напр
нар
нарбото
нардан
нариман
наристе
наристени
наристенин
нарк
наркоз
нарктуу
нарктын
наркы
наркын
наркына
наркынан
наркынын
нармаматова
народ
народа
народная
народного
народнои
народные
народныи
народов
народом
народу
народы
наруто
нары
нарын
нарынбаева
нарынга
нарында
нарындагы
нарындын
нас
насаат
насаатчы
население
населения
насилие
насип
насир
насирдин
наследие
наследия
насос
наср
настроение
насыи
насыр
насыя
насыят
нат
наталья
натат
натма
нато
натонун
натрии
натуралаи
натуралдык
натуу
натыи
натылат
натылган
натып
наук
наука
науке
науки
науру
науч
научно
научнои
научные
научныи
научных
нахичеван
находящии
национальная
национального
национальнои
национальныи
нацисттик
начал
начала
начале
начали
начало
начальниги
начальнигинин
начальник
начальниктин
начар
начарлаган
начарлаганда
начарлаи
начарлап
начарлатат
начарлатып
начарлашы
начинающимся
наш
наша
нашатырь
наше
наши
наших
ная
нбург
нгау
нге
нд
нда
ндагы
нде
ндер
ндери
ндин
нду
ндун
ндын
не
неаполь
небере
неберелери
небереси
небо
небольшои
небраска
невада
невесты
невралгия
невскии
неге
неги
негиз
негизге
негизги
негизгилери
негизгиси
негизде
негиздеген
негиздеи
негизделген
негизделет
негизделип
негизденген
негизденет
негиздеп
негиздер
негиздери
негиздерин
негиздерине
негиздеринин
негиздешкен
негиздик
негиздүү
негиздөө
негиздөөгө
негиздөөчү
негиздөөчүлөрдүн
негиздөөчүлөрү
негиздөөчүлөрүнүн
негиздөөчүсү
негизи
негизин
негизинде
негизиндеги
негизине
негизинен
негизинин
негизсиз
него
негр
негрлер
нее
незаметно
неи
нек
неккар
некоторые
некоторых
нектеи
нектен
некти
нектин
нельзя
нельсон
нем
неман
неме
немец
немецтик
немецче
немис
немистер
немистердин
немисче
немного
нему
немцов
нен
ненец
ненецк
ненин
нео
неоген
неогендин
неолит
неон
неп
непал
нептун
нер
нерв
нервдер
нервдердин
нервдери
нервдик
нервдин
нерви
нерсе
нерсеге
нерседе
нерседен
нерселер
нерселерге
нерселерде
нерселерден
нерселерди
нерселердин
нерселери
нерселерин
нерсени
нерсенин
нерсеси
нерсесин
нерута
неси
несин
нескара
нескаранын
несколько
несметное
несториан
несчастье
нет
неуклюже
неуклюжии
нефелиндүү
нефрит
нефтини
нефтинин
нефть
нече
нечен
ни
нибудь
нивалдык
нигер
нигерия
нигериянын
нидерл
нидерланд
нидерланддар
нидерланддын
ниет
ниети
нижегород
нижнии
нижняя
низами
низаминин
нии
ник
ника
никаких
никакого
никарагуа
нике
никеге
никеде
никель
никени
никенин
никитенко
никогда
никола
николаев
николаевич
николаевна
николаи
николас
николь
никому
никотин
никто
никудышныи
нил
нилдин
нилот
ним
ними
нин
нина
нинген
нинде
ниндеги
нине
нинин
ниобии
ниро
нитраты
нитроглицерин
них
ница
ницше
ничего
ничке
ниэнбург
ния
нияз
ниязбек
ниязов
нк
нка
нке
нком
нку
нланд
нм
нная
нно
нного
нное
нность
нные
нныи
нным
нных
но
нобел
нобель
нов
новая
новгород
новелла
новеллалар
нович
ново
нового
новое
новои
новокузнецк
новороссии
новосибирск
новости
новые
новыи
ног
нога
ногами
ноги
ного
ногои
ногон
ногу
ноду
ное
нож
нозои
нои
нок
нокто
нолгон
нолот
нолуучу
ном
номер
номери
номерин
номиналдык
номинация
номинацияларына
номинациясы
номинациясын
номинациясына
номинациясында
номинациясынын
номуру
ноо
ноого
ноодо
ноокат
ноокен
ноону
нооруз
нооту
ноочу
ноочулар
ноочулук
ноп
нор
норберт
норвег
норвегия
норвегияда
норвегиялык
норвегиянын
нордхаузен
норма
нормага
нормада
нормадан
нормалар
нормалардын
нормалары
нормаларын
нормалдуу
нормасы
нормативдик
норс
нортон
норфолк
нос
носо
носом
нота
нотага
нотариалдык
нотариус
нотуп
ноу
ноутбук
ночь
ночью
ношкон
ношот
ноштук
ноябрда
ноябрдан
ноябрдын
ноябрына
ноябрынан
ноябрында
ноябрь
ноябрьда
ноября
нравалык
нрих
нс
нт
ну
нугу
нугун
нугунда
нужно
нук
нукка
нуклеин
нукта
нукура
нукус
нун
нуна
нунда
нундагы
нур
нура
нурак
нурбек
нурга
нургүл
нурдин
нурду
нурдун
нуржан
нуриман
нурлан
нурлануу
нурланууну
нурлануунун
нурлануусу
нурлануусунун
нурлар
нурларды
нурлардын
нурлары
нурларын
нурларынын
нурмолдо
нурсултан
нуру
нуруддин
нурун
нурунан
нурунун
нуска
нускада
нускалары
нускалуу
нусканы
нускасы
нускасын
нускоочу
нух
нухтун
нфурт
нхард
нхольд
нц
нштеи
нштрассе
нщнде
ны
ные
ныи
нык
ным
нымдуу
нымдуулугу
нымдуулук
нымдуулукту
нымды
нымдын
нын
ных
нью
ньютон
ньютондун
ньюфаундленд
нюрнберг
нязепетровск
нү
нүзүп
нүн
нө
нөгө
нөдө
нөдөгү
нөдөн
нөк
нөктүн
нөл
нөлгө
нөлдүк
нөлдөн
нөлүк
нөнү
нөнүн
нөсү
нөсүн
нөсүндө
нөсүндөгү
нөсүнүн
нөсүнө
нөшөр
о
оахим
об
оба
обама
обзор
обкомдун
обкомунда
обкомунун
обл
областеи
области
областтык
областы
областык
областын
областына
областында
областындагы
областынын
область
облаткомдун
облигация
облус
облуска
облуста
облустары
облустарында
облустарынын
облусттук
облустук
облустун
облусу
облусужер
облусун
облусуна
облусунда
облусундагы
облусунун
облысы
обо
обого
обозрение
оболу
обон
обондор
обондорду
обондору
обондуу
обону
обончу
обончулар
обончулары
обороте
обочо
обочолонгон
обочолонуп
обочолонуу
обр
образ
образдар
образдарды
образдардын
образдары
образдарын
образдарынын
образдуу
образды
образдык
образдын
образование
образования
образы
образын
образына
образында
образынын
обратно
обращение
обряд
обсерватория
обсерваториясы
обучения
общее
общероссии
общества
общество
община
общиналык
объект
объекти
объективдүү
объектиге
объектилер
объектилерди
объектилердин
объектилери
объектилерин
объектилеринин
объектини
объектинин
объектиси
объектисине
объектисинин
объектов
объекттер
объекттерди
объекттердин
объекттин
обычаи
обычно
обь
обьективдүү
ова
овец
овца
овцу
овцы
ога
огаи
ого
огонь
огу
огуз
огуздар
огуздардын
огун
огуна
огунан
огунда
огунун
огурт
од
ода
оддун
одежда
одежде
одежду
одежды
оденвальд
одесса
один
одна
одним
одно
одного
однои
одном
одному
одну
одо
одоно
ое
ожукеева
оз
озгочо
озеро
озеф
озон
озу
озун
озунун
озуп
ои
ок
ока
оказался
оказаться
оказывается
оказывать
окато
океан
океанга
океанда
океандагы
океандан
океандардын
океандык
океандын
океаны
океанына
океанында
океанындагы
океанынын
океев
окистендиргич
окистендирүүдөн
окистенет
окистенип
окистенүү
окко
оккупацияланган
оклахома
окмоту
около
округ
округга
округдук
округдун
округу
округуна
округунда
округунун
оксид
оксиддер
оксиддери
оксиди
оксидин
оксфорд
окт
октору
окту
октук
октун
октуу
октябрга
октябрда
октябрдагы
октябрдан
октябрдын
октябрына
октябрынан
октябрында
октябрындагы
октябрь
октябрьда
октября
оку
окуган
окуганда
окуи
окулат
окулган
окулуп
окумуштуу
окумуштуулар
окумуштууларга
окумуштуулардын
окумуштуулары
окумуштууларынын
окумуштуулук
окумуштуунун
окумуштуусу
окуп
окурман
окурмандар
окурмандарга
окурмандарды
окурмандардын
окутат
окуткан
окутулат
окутулган
окутуп
окутуу
окутууга
окутууда
окутууну
окутуунун
окутуучу
окутуучулар
окутуучулары
окутуучулук
окутуучусу
окуу
окууга
окууда
окуудан
окуулар
окууну
окуунун
окуусу
окуусун
окуусуна
окуусунда
окуусунун
окуучу
окуучуга
окуучулар
окуучуларга
окуучуларды
окуучулардын
окуучулары
окуучуларын
окуучуларына
окуучуларынын
окуучуну
окуучунун
окуучусу
окушат
окуя
окуяга
окуяда
окуядан
окуялар
окуяларга
окуяларда
окуялардан
окуяларды
окуялардын
окуялары
окуяларын
окуяларына
окуяларынын
окуялуу
окуяны
окуянын
окуясы
окуясын
окуясына
окуясынан
окуясында
окуясынын
окшобогон
окшобои
окшогон
окшои
окшоп
окшош
окшошот
окшоштугу
окшоштук
окшоштуктар
окшоштуктары
окшоштуруп
окшошуп
ол
ола
олег
олжо
олжобаи
олжого
олжолоп
оливер
олимп
олимпиада
олимпиадага
олимпиадалык
олимпия
олимпиялык
олку
олтурат
олтурган
олтуруп
олтурушат
олуттуу
олуя
оль
ольга
ольденбург
ом
оман
омар
омеи
омор
оморов
омск
омурбеков
омуртка
омурткалуу
омурткалуулардын
омуртканын
омурткасыз
омурткасыздар
омурткасыздардын
омь
он
она
онго
ондо
ондогон
ондогу
ондон
ондор
ондорго
ондордо
ондордун
ондору
ондорун
ондоруна
ондорунда
ондорунун
ондоштуруу
ондук
ондун
онегин
они
оникс
онкология
онлаи
оно
онов
онор
онтарио
онтологиялык
ону
онун
онуна
онунан
онунда
онундагы
онунун
онунундагы
онунчу
оо
ооба
ооган
ооганстан
ооганстанда
ооганстандын
оогон
ооданы
оодарып
оодарыш
ооз
оозго
ооздон
оозду
ооздук
ооздун
оозеки
оозу
оозун
оозуна
оозунан
оозунда
оозундагы
оозунун
оокат
оокаттуу
оолак
оомии
оон
оона
ооп
оор
оордук
оордуна
оору
оорубаи
ооруга
ооруган
ооруганда
ооругандар
ооруганы
оорудан
ооруи
оорукана
ооруканага
ооруканада
ооруканадан
оорукананын
ооруканасында
ооруканасынын
оорулар
ооруларга
ооруларда
оорулардан
ооруларды
оорулардын
оорулары
ооруларын
ооруларына
ооруларынан
ооруларында
ооруларынын
оорулуу
оорулууга
оорулуулар
оорулууларга
оорулууларды
оорулуулардын
оорулууну
оорулуунун
ооруну
оорунун
ооруп
ооруса
оорусу
оорусун
оорусуна
оорусунан
оорусунда
оорусунун
оорутуучу
ооруу
оорушу
оош
оошуп
оп
опера
опералары
опералык
операнын
операсы
операсын
операсынан
операсында
операсынын
оперативдик
оперативдүү
оператор
оператордук
оператордун
операторлор
оператору
операциондук
операция
операциядан
операциялар
операцияларды
операциялардын
операциялары
операцияларын
операциялык
операцияны
операциянын
операциясы
операциясын
описание
опол
опора
опорои
оппозиция
оппозициялык
оппозициянын
определе
оптика
оптикалык
оптиканын
оптималдуу
оптимисттик
опурталдуу
опыт
опять
ор
оратор
орбита
орбиталык
орбитасынын
орг
орган
органга
органдар
органдарга
органдарда
органдардан
органдарды
органдардын
органдары
органдарын
органдарына
органдарынан
органдарында
органдарындагы
органдарынын
органды
органдын
организации
организация
организм
организмге
организмде
организмдеги
организмден
организмдер
организмдерге
организмдерде
организмдерди
организмдердин
организмди
организмдин
организми
организминде
организминдеги
организмине
организминин
органикалык
органы
органына
органынын
орго
оргочор
орден
ордендер
ордендери
ордендүү
ордени
орденин
орденинин
ординатор
ордо
ордовик
ордовиктин
ордого
ордодо
ордодогу
ордодон
ордонун
ордосу
ордосун
ордосуна
ордосунда
орду
ордун
ордуна
ордунан
ордунда
оре
орегон
оренбург
оригиналдуу
орк
оркестр
оркестрде
оркестрдин
оркестри
оркестринде
оркестринин
оркто
орктогу
орктун
орла
орлов
орловка
ормон
орнамент
орногон
орногондон
орноп
орноткон
орнотмо
орнотулат
орнотулган
орнотулуп
орнотуп
орнотуу
орнотууга
орношкон
орношот
орношу
орношуп
оро
орографиялык
орозалиев
орозбак
орозбаков
орозбаковдун
орозбек
орозбеков
орозо
орозов
орои
орок
оролгон
оролуп
ороо
ороп
орск
орт
орташа
ортенау
орто
ортого
ортодо
ортодогу
ортодон
орток
ортоктош
ортолоруна
ортолорунда
ортолук
ортомчу
ортомчулук
ортонку
ортопедиялык
ортосу
ортосун
ортосуна
ортосунан
ортосунда
ортосундагы
орточо
ортоңку
ору
оружие
орузбаев
орузбаева
орун
орунбасары
орунга
орунда
орундагы
орундан
орундар
орундарга
орундарды
орундардын
орундары
орундарын
орунду
орундуу
оруну
оруп
орус
орусия
орусияга
орусияда
орусиядагы
орусиялык
орусиянын
оруссия
орустар
орустарга
орустардын
орустун
орусча
орусчага
орусчасы
орфографиялык
орхон
орчун
орчундуу
ос
осе
осетия
оскар
оскардын
осло
осман
осмон
осмонаалы
осмоналиев
осмонкул
осмонов
осмоновдун
осмос
оснабрюк
основные
основы
особдор
особдордун
особенно
особенности
особыи
осоо
ост
осталось
остался
останется
остатки
остаться
остиндин
осторожно
островскии
осуз
осуят
осуяттарын
от
отан
отв
ответ
ответственныи
отвл
отгадка
отд
отелло
отец
отко
откон
откуда
отличниги
относиться
отношение
отношении
отношения
ото
отоо
оторбаев
оторбаи
отправился
отриц
отряд
отряддары
отряддын
отряды
отставкага
отсутствие
отто
оттои
оттон
оттоп
отту
оттук
оттун
оттуу
оту
отуз
отун
отунбаева
отундар
отунду
отундун
отуну
отур
отура
отурат
отурган
отурганда
отургузулган
отургузуп
отургузуу
отурду
отурукташа
отурукташкан
отурукташуу
отурукташып
отуруп
отуруу
отурууга
отца
отче
отчет
отчету
оушен
оуэн
оф
офицер
офицердик
офицери
офицерлер
официалдуу
официальныи
ох
охан
оханнес
охен
охот
охота
охотник
очень
очерк
очерки
очерктер
очерктери
очогу
очок
очу
ош
оша
ошгу
ошентип
ошентсе
ошкар
ошко
ошмуда
ошмунун
ошо
ошого
ошол
ошолор
ошолордун
ошон
ошондо
ошондои
ошондон
ошондуктан
ошону
ошонун
ошончо
ошончолук
ошского
ошто
оштогу
оштун
ою
оюк
оюлган
оюлуп
оюм
оюмга
оюмдан
оюмдар
оюмдарды
оюмдардын
оюмдары
оюмдарын
оюмдарынын
оюмду
оюмдун
оюму
оюмун
оюмуна
оюмунан
оюмунун
оюн
оюна
оюнан
оюнга
оюнда
оюндан
оюндар
оюндарга
оюндарда
оюндарды
оюндардын
оюндары
оюндарын
оюндарына
оюндарында
оюндарынын
оюнду
оюндун
оюну
оюнун
оюнуна
оюнунда
оюнунун
оюнча
оюнчу
оюнчуга
оюнчук
оюнчуктар
оюнчулар
оюнчуларга
оюнчуларды
оюнчулардын
оюнчулары
оюнчуну
оюнчунун
оюнчусу
оюп
оюу
оң
оңго
оңд
оңдолгон
оңдолуп
оңдон
оңдоо
оңдоого
оңдоочу
оңдоп
оңои
оңтои
оңунан
оңчул
п
па
пабыл
пабылды
пабылдын
павел
павлов
павлович
павловск
павлодар
пага
падан
падишах
падыша
падышага
падышалар
падышалардын
падышалары
падышалыгы
падышалыгын
падышалыгына
падышалыгынын
падышалык
падышалыктын
падышанын
падышасы
падышасынын
падышачылыгы
падышачылыгын
падышачылыгына
падышачылыгынын
падышачылык
падышачылыктын
паи
пак
пакет
пакети
пакистан
пакистанда
пакистандагы
пакистандын
пакость
пал
палата
палаталуу
палатасы
палатасында
палатасынын
палау
палеоген
палеогендин
палеозои
палеолит
палестина
палестинаны
палец
пальма
пальмасы
пальто
памир
памирде
памяти
памятники
памятников
память
пан
панама
панда
пандемия
панфилов
панын
пап
папа
папан
папасы
папоротниктер
папуа
пар
пара
парабола
парагваи
параллелге
параллелдери
параллели
параллель
параметрлер
параметрлери
параметрлерин
парвиз
парвин
парене
парень
парз
париж
парижге
парижде
париждеги
парк
парктар
парктары
паркы
парламент
парламенти
парламентинин
парламентке
парламентте
парламенттер
парламентти
парламенттик
парламенттин
парное
паром
пароход
парт
партенкирхен
партизан
партизандык
партии
партия
партияга
партиядан
партиялар
партияларды
партиялардын
партиялары
партияларын
партияларында
партияларынын
партиялуу
партиялык
партияны
партиянын
партиясы
партиясын
партиясына
партиясынан
партиясында
партиясынын
парфюмерия
пархим
парциалдык
пас
пасах
паскаль
паспорт
пассат
пассаттык
пассау
пассивдүү
паста
пастбище
пасы
пасынын
патент
патенттик
патенттин
патогендүү
патология
патологиялык
патриархалдык
патрик
патрилинеи
патриот
патриоттук
паули
пауль
пахта
пахтадан
пахтанын
пахтачы
пахтачылык
пвап
пвпвап
пе
пегматит
пед
педагог
педагогдор
педагогдук
педагогика
педагогикалык
педагогиканын
педагогикасы
педиатр
педиатрия
пеи
пекин
пекинде
пектин
пелым
пенде
пенза
пенобскот
пенсионер
пенсия
пенсияга
пер
первая
первого
первои
первоисточника
первомаи
первые
первыи
перевал
перевод
перед
переи
перен
перепись
переполох
пери
период
перифериялык
периште
периштелер
периштелерге
периштелерди
периштелердин
периштенин
периштеси
пермдин
пермь
перпендикуляр
перс
перси
персия
персоналдык
персоны
перспективы
перстер
перу
пес
песни
песня
песчанка
петер
петербург
петербургга
петербургда
петербургдагы
петербургдун
петир
петр
петра
петров
петрович
петровка
петроград
петь
пехлеви
печаль
печора
печорск
пешком
пи
пианист
пиво
пигмент
пидин
пикир
пикирге
пикирди
пикирдин
пикири
пикирин
пикиринде
пикирине
пикирлер
пикирлерге
пикирлерди
пикирлердин
пикирлери
пикирлерин
пикирлерине
пил
пилат
пилдин
пили
пин
пини
пиннеберг
пиньинь
пионер
пионери
пир
пирамида
пиренеи
пири
пирит
пиррол
пирротин
пирс
писатель
письма
письмо
питер
питт
пить
пифагор
пица
пишпек
пишпекте
пишпектеги
пища
пищи
пищу
пияз
плавно
плазма
плазманын
плакат
плакать
план
планга
планда
пландагы
пландалган
пландары
пландарын
пландаштыруу
пландаштырылган
пландоо
пландуу
планды
планета
планеталар
планеталардын
планеталык
планетанын
планетарии
планетасы
планетасынын
планк
плантациялары
планы
планын
планына
планынын
пластик
пластикалык
пластинка
пластмасса
пластмассадан
плата
платина
плато
платок
платолор
платон
платондун
платосу
платформа
платформалар
платформалык
платформанын
платформасы
платформасында
платформасынын
платье
плачет
пле
плеи
племен
племени
племя
плеть
плетью
плеханов
плита
плиталар
плотина
плохо
плохои
плутонии
плэи
плюс
плөн
пн
пневматикалык
пневмония
по
победа
поведение
повести
повестин
повестинде
повестинин
повесттер
повесттери
повесть
поводу
повторно
повышения
погов
погода
под
подарок
подвергаться
поддержку
подобен
подобно
подобны
подои
подполковник
подражание
подражательное
поезд
пожелание
позитивдүү
позиция
позицияда
позициялык
позицияны
позициясы
позициясын
позициясында
пои
поисках
пока
покои
покоя
покровка
покровская
покрытыи
пол
полдень
поле
поли
полиграфия
полиграфиялык
поликлиника
полимер
полимерлер
полиметалл
полисахариддер
политехника
политехникалык
политика
политическая
политология
полиция
полициялык
полициянын
полиэтилен
полк
полковниги
полковник
полктун
полку
полкунда
полкунун
полное
полнои
полном
полностью
полныи
поло
половина
половине
половникова
положение
положении
положения
положить
полот
полтава
полу
получил
получить
полы
поль
польша
польшага
польшада
польшалык
польшанын
поляк
полякча
поляна
поляризация
поляризациясы
померания
помидор
поминки
помощи
помощь
помпеи
понуд
поо
поп
попал
попов
популярдуу
популярдуулугу
популярдуулукка
популяция
популяциялардын
популяциялары
популяциянын
популяциясы
популяциясынын
пор
порода
породалары
породасы
породы
порох
порт
портал
порталы
порточо
портрет
портрети
портреттери
портреттик
порттору
порту
португал
португалдар
португалия
португалиялык
португалиянын
португалияча
порфир
порфирит
поршендүү
порядке
порядок
посвящ
посвященнои
посе
посевы
поселков
после
последнии
пособие
пост
поставить
постко
постоянно
посттун
постуна
пот
потапов
потенциал
потенциалдуу
потенциалдык
потенциалы
потенциалын
потом
потому
потсдам
поттер
похле
поход
поче
почему
почта
почтаны
поше
поэзия
поэзияга
поэзияда
поэзиянын
поэзиясы
поэзиясына
поэзиясында
поэзиясындагы
поэзиясынын
поэма
поэмалар
поэмалардын
поэмалары
поэманын
поэмасы
поэмасын
поэмасында
поэмасынын
поэмы
поэт
поэтика
поэтикалык
пояс
ппинген
прав
права
правда
правдасы
правительства
право
православие
православныи
прага
прагада
прадеш
праи
практика
практикага
практикада
практикаланат
практикалык
практиканы
практиканын
практикасы
практикасында
практическои
пред
предков
предложение
предмет
предмети
предметин
предметке
предметтер
предметтерди
предметтердин
предметти
предметтик
предметтин
председатели
председателинин
председатель
предшеств
прежде
президент
президента
президенти
президентин
президентине
президентинин
президентке
президентти
президенттигине
президенттик
президенттикке
президенттин
президиум
президиума
президиуму
президиумунун
премиум
премия
премиясы
премьер
премьерасы
препараттары
преподавания
пресс
пржевальск
пржевальскии
при
прибор
прибордун
приборлор
приборлорду
приборлордун
приборлору
прибыл
приводить
приде
прие
приз
призма
приказав
приказал
прикладдык
прим
прима
приморье
принимать
принстон
принт
принтер
принц
принциби
принцибин
принцибинде
принцибине
принцибинин
принцип
принципиалдуу
принципке
принциптер
принциптерге
принциптерди
принциптердин
принциптери
принциптерин
принциптерине
принциптеринин
принципти
принять
присвоении
причинои
прише
приятно
приятныи
про
проблема
проблемалар
проблемаларды
проблемалардын
проблемалары
проблемаларын
проблемаларына
проблеманы
проблемасы
проблемасын
проблемы
проваи
проверено
провинция
провинцияга
провинциянын
провинциясы
провинциясына
провинциясында
провинциясындагы
провинциясынын
проворно
прогноздоо
програм
програмды
програмдык
программа
программага
программада
программаланган
программалар
программаларды
программалардын
программалары
программаларын
программаларына
программаларынын
программалоо
программалуу
программалык
программаны
программанын
программасы
программасын
программасына
программасында
программасынын
программист
прогресс
прогрессивдүү
прогресске
прогресстин
прогрессчил
продукт
продуктулар
продуктуларды
продуктулары
продуктуларын
продуктуларынын
продуктунун
продуктусу
продукция
продукциялар
продукцияларды
продукциялары
продукцияларын
продукцияны
продукциянын
продукциясы
продукциясын
продукциясынын
продюсер
продюсери
продюсерлери
продюсерлик
проект
проекциялык
проза
прозада
прозаик
прозалык
прозасы
прои
производить
производства
происхождение
происхождения
прокат
прокофьев
прокси
прокуратура
прокуратурасында
прокуратурасынын
прокурор
прокурордун
прокурору
прокурорунун
пролетардык
пролетариат
пролетариаттын
пролювии
прометеи
промыселдик
пропаганда
пропагандалоо
пропагандалык
пропорциялаш
прораб
проректор
проректору
просить
проспект
простата
просто
протеин
протектораты
протерозои
протест
протестант
протестанттар
против
протокол
протоколу
протон
прототиби
проф
профессионал
профессионалдуу
профессионалдык
профессия
профессор
профессордук
профессордун
профессорлор
профессору
профилактика
профилактикалык
профили
профиль
профсоюз
профсоюздар
профсоюздардын
профсоюздук
процедуралар
процент
проценттик
процесс
процессе
процесси
процессин
процессинде
процессиндеги
процессине
процессинен
процессинин
процесске
процессор
процессте
процесстер
процесстерге
процесстерде
процесстерден
процесстерди
процесстердин
процесстери
процесстерин
процесстеринде
процесстерине
процесстеринин
процессти
процесстик
процесстин
процессы
прошлое
прошлом
прощаи
проявлять
пруссия
прям
прямо
прүм
псевдоним
психиатр
психикалык
психиканын
психикасынын
психол
психолог
психология
психологияда
психологиялык
психологиянын
психологиясы
психологиясын
психотроптук
пскем
псков
птиц
птица
птице
птицы
птолемеи
публицист
публицистика
публицистикалык
пудовкин
пул
пулеме
пулитцер
пункт
пункттары
пункту
пустить
пусть
путе
пути
путин
путь
пушкин
пушкиндин
пуэрто
пфальц
пфаффенхофен
пциг
пшеницы
пыл
пыль
пышма
пьер
пьеса
пьесалар
пьесаларды
пьесалардын
пьесалары
пьесаларын
пьесанын
пьесасы
пьесасында
пять
р
ра
рабат
раббиң
работа
работает
работать
работе
работникам
работу
работы
рабочии
равенсбург
равныи
рага
раган
рагы
рада
радан
радиация
радиациялык
радии
радикал
радикалдуу
радикалдык
радио
радиоактивдүү
радиология
радионун
радиостанция
радиосу
радиосунда
радиосунун
радиотехникада
радиотехникалык
радиоуктуруу
радиоэлектроника
радиус
радиусу
радлов
радон
радость
радуга
раев
раз
раза
разве
развитие
развитии
развития
разг
разговор
разговоры
разгром
раззаков
рази
разн
разные
разных
разряд
разряддуу
разряды
раи
рак
ракета
ракеталар
ракеталык
ракетанын
рактын
ралык
ральф
рам
рама
рамазан
рамдар
рамдарда
рамдары
рамдык
рамы
рамын
ран
рана
рандов
раннего
ранние
рано
раны
ранын
раньше
рап
раса
расалык
расасы
расасына
расмии
рассвет
рассвета
рассел
рассказ
рассказы
рассоха
расстояние
расте
растение
растения
растерялся
расул
расче
расы
расында
расынын
рат
раткан
раткыч
раттуу
раттуулук
ратуу
ратуучу
ратуша
раты
ратылган
ратып
рауль
рафаэль
рахат
рахим
рахман
рахманкул
рахмат
рахматуллин
рахмонберди
рахмонов
рационалдуу
рационалдык
раш
рашид
раштат
рашы
рг
рдо
рдук
рдун
ре
реагенттер
реактивдүү
реактор
реакция
реакцияга
реакциялар
реакцияларды
реакциялардын
реакциялары
реакцияларына
реакцияны
реакциянын
реакциясы
реакциясын
реакциясына
реакциясынан
реакциясынын
реакциячыл
реал
реалдуу
реалдуулук
реалдуулуктун
реалдык
реализм
реализмдин
реалист
реалисттик
реалияда
ребе
рев
ревматизм
революции
революционер
революция
революцияга
революциядан
революциялык
революцияны
революциянын
революциясы
революциясына
революциясынан
революциясынын
революциячыл
реген
регенсбург
регион
регионалдык
региондук
региондун
ред
редактор
редактордун
редакторлор
редакторлору
редакторлук
редактору
редакторунун
редакция
редакциялык
редакциясы
редакциясында
редакциясынын
редко
редколлегия
реестри
реестриндеги
реестринин
реж
режим
режимге
режимде
режимди
режимдин
режими
режимин
режиминде
режимине
режиминин
режиссе
режиссер
режиссердук
режиссердун
режиссерлук
режиссеру
реза
резерваты
резервдик
резерфорд
резиденциясы
резина
резолюция
резонанс
резонанстык
результат
резус
реи
рек
река
рекдактор
реки
рекомендации
реконструкция
реконструкциялоо
рекорд
рекорддук
рекреациялык
ректелген
ректор
ректору
рел
реле
религии
реликт
рельеф
рельефи
рельефинде
рельефине
рельефинин
рельефтик
рельефтин
рельефтүү
реми
ремонттоо
ремс
рен
рендсбург
рене
ренессанс
рента
рентген
рентгендик
репертуарында
репин
репортаж
репрессияга
репродуктивдик
репродуктивдүү
рес
респ
респиратордук
республик
республика
республикабыздын
республикага
республикада
республикадагы
республикалар
республикаларда
республикалардын
республикаларынын
республикалык
республиканы
республиканын
республикасы
республикасыжер
республикасын
республикасына
республикасында
республикасындагы
республикасынын
республике
республики
ресторан
ресурс
ресурстар
ресурстарга
ресурстарды
ресурстардын
ресурстары
ресурстарын
ресурстарына
ресурстарынын
ресурсу
референдум
референдумда
референдумдун
референт
рефлекс
рефлекстер
реформа
реформалар
реформаларды
реформалардын
реформалоо
реформанын
реформасы
реформасын
рецензент
рецензия
речи
речка
речтин
речь
решение
решения
ри
риа
риваят
ривер
рига
рид
рижская
рик
рика
рико
рилген
рилип
рим
риман
римге
римде
римдеги
римдик
римдиктер
римдиктердин
римдин
римжи
рими
римскии
рио
рип
рис
рита
ритм
ритмикалык
риторика
ритуал
ритуалдык
рифеи
рифтери
рихард
риц
ричард
рк
ркп
рлингтон
рлор
рлордун
рлору
рлук
рн
рная
рнк
рнкнын
рныи
ро
роб
роберт
робертс
робин
робот
ровно
рогатыи
роговая
роговик
род
рода
родителеи
роднои
рождения
рождество
роза
розенхаи
рои
рок
роккингэм
роланд
ролго
ролдор
ролдордо
ролдорду
ролдордун
ролдору
ролдорун
ролду
роли
ролу
ролун
ролуна
ролунда
роль
рольф
ром
рома
роман
романда
романдагы
романдар
романдарды
романдардын
романдары
романдарын
романдарында
романдарынын
романды
романдын
романс
романтизм
романтикалуу
романтикалык
романы
романын
романына
романында
романынын
ромб
ромео
рон
роо
роого
рос
росс
россии
россия
россияга
россияда
россиядагы
россиядан
россиялык
россиянын
рост
роста
ростов
рот
рота
ротанын
ротваи
ротенбург
ротор
ротталь
роттор
роттордун
роулиң
рочестер
рр
ррах
рсдрп
рсдрпнин
рсфср
рсфсрдин
рт
рта
ру
руанда
рубеи
рубин
рублеи
рубль
руган
ругандаи
ругу
ругун
ругуна
ругунан
ругунун
руда
рудадагы
рудаки
рудакинин
рудалануу
рудалары
рудаларынын
рудалуу
руданын
рудасы
рудольф
рудольштадт
руду
ружье
ружья
рузвельт
рук
рука
рукава
руками
руках
руке
руки
руководство
рукои
руктан
руктар
руктары
руктарын
рукту
руктуу
руку
рум
руми
румын
румыния
румыниянын
рун
руна
руникалык
руп
руперт
рур
рус
руслан
русская
русскии
русско
русского
русскои
русском
руссо
рустам
русь
рут
рутма
руу
рух
рухании
руханият
рухии
рухка
рухту
рухтун
руху
рухун
рухунун
ручук
рф
рфтин
рщлщшке
рщлщштщн
рщлщшчщле
ры
рыбинск
рыгат
рыгы
рык
рыктары
рыкча
рыла
рылат
рылбаи
рылган
рылганда
рылды
рылса
рылуу
рылууга
рылуусу
рылып
рылышат
рылышкан
рылышы
рым
рымдар
рымдары
рымдарын
рымдарында
рымдарынын
рымдуу
рымдуулук
рыногу
рыногунда
рыногунун
рынок
рынокко
рынокто
рыноктук
рыноктун
рынын
рып
рысбаев
рысбек
рыскул
рыскулов
рыскуловдун
рысменде
рысмендеевдин
рыспаи
рысью
рыцардык
рыцарь
рэи
рэп
рэпер
ряд
рядом
рязань
рү
рүгөн
рүү
рө
рөгү
рөгө
рөдө
рөдөгү
рөдөн
рөк
рөккө
рөктүн
рөлөрдө
рөлөрүндө
рөн
рөнгөн
рөнчүк
рөнү
рөнүлүүчү
рөнүн
рөнүп
рөнүү
рөнүүгө
рөнүүдө
рөнүүнүн
рөнүүчү
рөнүүчүлөр
рөнө
рөнөт
рөп
рөсү
рөсүн
рөсүндө
рөсүндөгү
рөсүнүн
рөсүнө
рөсүнөн
рөткөн
рөтүлгөн
рөтүп
рөтүү
рөтүүгө
рөтүүчү
рөтө
рөтөт
с
са
саа
саадак
саадат
саал
саам
саан
саанчы
саап
саар
саарбург
саат
саатка
саатта
сааттан
сааттык
сааттын
сааты
саатына
саба
сабагы
сабагын
сабагынан
сабагында
сабагынын
сабак
сабакка
сабакта
сабактан
сабактар
сабактарды
сабактардын
сабактары
сабактарын
сабактуу
сабакты
сабактын
сабап
сабатсыз
сабатсыздыгын
сабатсыздыкты
сабаттуу
сабаттуулугу
сабаттуулук
сабаты
сабатын
сабиз
сабир
сабира
сабы
сабына
сабында
сабынын
сабыр
сабырдуу
сабырдуулук
сав
саванна
сага
сагаи
сагызган
сагымбаи
сагын
сагынбек
сагындык
сагындым
сагыныч
сад
садага
садака
садан
садист
садыбакасов
садык
садыков
садыковдун
садыр
сажда
саз
сазан
сазановдун
саздак
саздар
саздуу
саи
саид
сак
сака
сакаи
сакал
сакалдуу
сакалды
сакалы
сакалын
сакасы
сакасын
сакмара
саксондук
саксония
сакта
сактаган
сактагыч
сактагычтар
сактагычы
сактаи
сакталат
сакталбаи
сакталган
сакталуу
сакталууда
сакталуучу
сакталып
сакталышы
сакталышын
сакталышына
сактануу
сактап
сактар
сактардын
сактоо
сактоого
сактоодо
сактоону
сактоонун
сактоочу
сактык
сакчы
сакчылары
сал
сала
салааларга
салаасы
салабыз
салаи
салам
саламат
саламаттыгын
саламаттыгына
саламаттык
саламаттыкты
салар
саласы
салат
салауат
салбаи
салган
салганда
салгандан
салганы
салгыла
салгылаш
салгылашкан
салгылашта
салгылашуу
салгылашууда
салгылашы
салгылашында
салгылашып
салгыч
салды
салдык
салдым
салдырган
салдырып
салих
салкын
салливан
салм
салма
салмагы
салмагын
салмагына
салмак
салмакта
салмактагы
салмактуу
салмактуулугун
салмактуулук
салмактуулукту
салмакты
салмактык
салса
салт
салтанат
салтанаттуу
салтанаты
салтка
салттар
салттарга
салттарды
салттардын
салттары
салттарын
салттарына
салттарынын
салттуу
салтты
салттык
салттын
салты
салтын
салтына
салтында
салтынын
салуу
салууга
салууда
салуудан
салууну
салуунун
салуусу
салуучу
салуучусу
салчу
салыгы
салык
салыктан
салыктар
салыктарды
салыктардын
салыкты
салыктын
салым
салымбеков
салымдары
салымдарын
салымы
салымын
салына
салынат
салынбаган
салынган
салынды
салынуучу
салынып
салынышы
салып
салыптыр
салыш
салышат
салышкан
салышты
салыштырат
салыштырганда
салыштырма
салыштырмалуу
салыштырмалуулук
салыштыруу
салыштырууга
салыштырылат
салыштырып
салышы
салышып
сальвадор
салют
сам
сама
саман
самании
саманчин
саманчы
саманчынын
самара
самаркан
самарканд
самат
самая
самбо
сами
самоа
самого
самодии
самое
самои
самоле
самуд
самураи
самыи
самын
самындап
сан
сана
санаа
санаасы
санаган
санаи
саналат
саналбаи
саналган
саналуу
саналып
саналышат
санап
санарип
санариптик
санат
санатории
санга
санда
сандаган
сандагы
сандар
сандарды
сандардын
сандары
сандарынын
сандуу
санды
сандык
сандын
санжар
санжыра
санжырада
санжыралык
санжырасы
санжырасын
санжырасында
санжырачы
санитардык
санитария
санитариялык
санкт
саноо
санскрит
сансыз
санта
санташ
сантиметр
сантьяго
саны
санын
санына
санынан
санында
санынын
сао
сап
сапар
сапаралиев
сапарбек
сапарга
сапарда
сапары
сапат
сапатка
сапатта
сапаттагы
сапаттар
сапаттарга
сапаттарды
сапаттардын
сапаттары
сапаттарын
сапаттуу
сапаттык
сапаты
сапатын
сапатына
сапатынын
сапка
сапоги
сапсыз
сапта
саптан
саптар
саптары
саптарын
саптуу
саптын
сапфир
сар
сара
сараи
сарала
сарамжалдуу
саратан
саратов
сараң
сарбагыш
саргаи
саргата
саргыл
саргыч
сардиния
саринжи
сарлыкбеков
сарп
сарпталат
сарпталган
сарт
сартбаева
сарттар
саруу
сары
сарыбагыш
сарыбаев
сарыбаи
сарыг
сарыдан
сарыжаз
сарык
сарымсак
сарысы
сарычелек
сасаниддер
сасык
сат
сатар
сатат
сатерланд
сатира
сатиралар
сатиралык
сатирик
саткан
саткын
сатук
сатурн
сатурндун
сатуу
сатууга
сатууда
сатуудан
сатууну
сатуунун
сатуучу
сатуучулар
сатуучунун
сатыбалды
сатык
сатыкка
сатылат
сатылган
сатылганов
сатылгановдун
сатылуучу
сатылып
сатып
сауд
саха
сахалин
сахара
сахаров
сахна
сахнага
сахнада
сахнадагы
сахналык
сахнасында
саюу
сая
саяк
саякат
саякатка
саякаттап
саякатчы
саякатчысы
саякаты
саякбаи
саян
саяно
саяпкер
саясат
саясатка
саясатта
саясаттагы
саясаттан
саясатты
саясаттын
саясатчы
саясатчылар
саясаты
саясатын
саясатына
саясатында
саясатынын
саясии
саясыи
саят
саң
сб
сбол
сборник
све
сведении
сведения
свердлов
свет
света
свете
светлана
светлая
свитасынын
свобода
свод
свое
своего
своеи
своему
свои
своим
своими
своих
свою
связи
связь
сгау
сге
сгс
сде
сделав
сделал
сделать
сден
се
себастьян
себе
себеби
себебин
себебине
себебинен
себеп
себепкер
себепсиз
себептен
себептер
себептерге
себептерден
себептерди
себептердин
себептери
себептерин
себептерине
себептеринин
себептүү
себептүүлүк
себепчи
себет
себилген
себя
себүү
сев
севастополь
севернои
северо
севилья
сегиз
сегизинчи
сегодня
седеп
седла
седло
сежде
сезбеи
сезген
сезгенген
сезгенгенде
сезгенет
сезгенип
сезгениши
сезгенүү
сезгенүүгө
сезгенүүсү
сезгич
сезгичтиги
сезгичтик
сезе
сезет
сезилген
сезилет
сезилип
сезим
сезимге
сезимде
сезимден
сезимдер
сезимдерди
сезимдердин
сезимдери
сезимдерин
сезимди
сезимдик
сезимдин
сезимдүү
сезими
сезимин
сезиминде
сезимине
сезиминин
сезимтал
сезип
сезон
сезондо
сезондук
сезондун
сезону
сезонунда
сезүү
сеи
сек
секга
секин
секирик
секирип
секирүү
секрет
секретары
секретарь
секреция
секс
сексен
сексуалдык
сектор
сектордун
сектору
секторун
секторунда
секторунун
секунд
секунда
секундасына
сел
селеи
селекция
селенга
селжук
селжуктар
селитрасы
селкинчек
село
сельского
сельскохозяи
сем
семантика
семантикалык
семе
семеи
семенов
семетеи
семиз
семинар
семирип
семирткич
семирткичтер
семирткичтерди
семирткичтери
семирүү
семит
семь
семье
семьи
семья
сен
сена
сенат
сенатор
сенде
сендеи
сенден
сенегал
сенека
сени
сеники
сенин
сенсордук
сент
сентябрга
сентябрда
сентябрдан
сентябрдын
сентябрына
сентябрынан
сентябрында
сентябрь
сентябрьда
сентября
сенфельс
сеп
сепил
сепили
сепсис
сер
серб
сербия
сербиянын
сервер
серверге
сергеевич
сергеи
сергек
сердца
сердце
серек
сереп
сержант
сериал
сериалда
сериалдын
сериалы
сериалында
серин
серия
сериядагы
сериялар
сериялары
сериялуу
сериясы
сериясын
сериясындагы
сериясынын
серп
серпилгич
серпилгичтик
серпилгичтүү
серыи
серүүн
сессии
сессия
сессиясында
сети
сеть
сеул
сеулда
сефевид
сефевиддер
сзади
си
сиб
сибир
сибирге
сибирде
сибирдеги
сибирди
сибирдин
сибири
сибирь
сигнал
сигналдар
сигналдарды
сигналдарын
сигналды
сигналдык
сигналы
сидел
сидеть
сидит
сиднеи
сидя
сиенит
сиерра
сиз
сизге
сизди
сиздин
сии
сил
сила
силе
силер
силерге
силерде
силерден
силерди
силердин
силикат
силикаттар
силои
силос
силу
силур
силурдун
силы
сильно
сильное
сильныи
сим
символ
символдор
символдук
символикалык
символу
симметрия
симметриялуу
симон
симонов
симпат
симф
симфония
симфониялык
симфониясы
син
сина
синаи
сингапур
сингапурда
сингапурдун
сингл
сингли
сингониясында
синде
синдрому
синин
синирген
синоним
синоними
синтаксис
синтаксиси
синтаксистик
синтез
синтезде
синтезделген
синтезделет
синтездик
синтездөө
синтездөөдө
синтези
синтет
синтетикалык
синхрондук
синхрондуу
синьцзян
сирия
сириялык
сириянын
сирке
систем
система
системага
системада
системадагы
системадан
системалар
системаларга
системаларда
системаларды
системалардын
системалары
системаларын
системаларына
системаларында
системаларынын
системалуу
системалык
системаны
системанын
системасы
системасын
системасына
системасынан
системасында
системасындагы
системасынын
систематикалык
системге
системдер
системдери
системдик
системи
системин
системинин
системы
сити
сицилия
сиң
сиңби
сиңген
сиңди
сиңдиси
сиңер
сиңерби
сиңет
сиңимдүү
сиңип
сиңирген
сиңирет
сиңирип
сиңирүү
сиңирүүсү
сиңирүүчү
ск
ска
скажи
сказал
сказать
сказка
сказки
скаи
скакун
скакуна
скандал
скандинавия
скарн
скачках
скачки
ская
скелет
скелети
ские
скии
скиф
скифтер
ских
склон
ско
скобелев
ского
скои
сколько
ском
скопом
скорпион
скот
скота
скотом
скотт
скрипка
скриптонит
скрябин
скульптор
скульпторлук
скульптура
скульптуралык
скуратов
сл
слабыи
слава
славян
славяндар
слаи
сланец
сланецтер
сланецтердин
сле
слегка
след
следует
слесарь
слов
слова
словак
словакия
словам
словами
словарь
словах
словен
словения
слово
словом
слои
случае
случаи
слышал
слюда
см
смартфон
смге
смдеи
смден
смдик
смерти
смерть
смирнов
смит
смиттин
смоленск
смология
смотрел
смотреть
смотри
смотрит
сн
снабже
снаи
снаряд
сне
снег
снер
сно
со
соавт
соавтор
соавторстве
собака
собаки
собои
собор
собору
собрание
сов
совершенно
совет
совета
советбек
совети
советинде
советине
советинин
советская
советскии
советским
советских
советского
советское
советскои
советтер
советтердин
советтеринин
советтик
советтин
совместно
современнои
современном
современность
современные
совсем
совхоз
совхоздо
совхоздор
совхоздун
совхозу
совхозунда
совхозунун
согд
согду
согончок
согот
согулат
согулган
согулуп
согуп
согуу
согууда
согуш
согушка
согушкан
согушта
согуштагы
согуштан
согуштар
согуштарга
согуштарда
согуштардын
согуштары
согушту
согуштук
согуштун
согушу
согушун
согушуна
согушунан
согушунда
согушунун
согушуп
согушуу
сода
содом
сое
соз
созу
созулат
созулган
созулма
созулуп
созулушу
созуп
созыва
сои
сок
соккон
сокку
соккусу
сокмо
соко
соколов
сокольническая
сократ
сократтын
соку
сокулук
сокур
сол
солго
солгун
солдат
солдон
солист
солисти
солку
солнца
солнце
солнцевская
соло
соловье
соломон
солон
солто
солтобаев
солтобаи
солтон
солтонбеков
солтоноев
солтоноевдин
солтонои
солтонун
солчул
соль
сом
сомали
сомго
сомдон
сомдоп
сомду
сомдук
сомерсет
сон
соната
сонгаи
сонун
соо
соода
соодага
соодагер
соодагерлер
соодада
сооданы
сооданын
соодасы
соолугу
соолугун
соолугуна
соолугунун
соолук
соолукка
соолукту
соолуктун
соолуп
соон
сооп
сооронбаев
сооронбаи
сооронов
соорусу
соот
сопрано
сопредельных
сопу
сор
сорго
соргуч
сордуруп
сорок
сорока
сорос
сорпо
сорт
сорттогу
сорттору
сортторун
сорту
сортуна
соруп
сосна
сосновка
сост
состав
составдык
составе
составы
составын
составына
составында
составындагы
составынын
состояние
состоянии
сосьва
сот
сотко
сотто
соттолгон
соттор
соттордун
соттук
соттун
соту
сотунда
сотунун
соус
софия
сох
соц
социал
социалдык
социализм
социализмге
социализмди
социализмдин
социалистик
социалистических
социалистического
социалисттик
социально
социолог
социологдор
социология
социологияда
социологиялык
социологиянын
социологу
социялистик
соч
сочи
сочинении
союз
союза
союзга
союздар
союздары
союздарынын
союздаш
союздук
союздун
союзу
союзун
союзуна
союзунда
союзунун
союл
союлган
союлуп
союп
союу
соя
соң
соңку
соңуна
соңунда
соӊ
спарта
спартак
спать
спб
спеи
спектаклде
спектаклдер
спектаклдерде
спектаклдерди
спектаклдери
спектаклдин
спектакли
спектаклинде
спектакль
спектр
спектрдик
спектрдин
спектри
спектрин
спектрлери
спектроскопия
спенсер
спецификалык
спид
спилберг
спин
спиноза
спину
спираль
спирт
спирти
спиртин
спиртте
спирттер
список
сплошь
спокои
спонтандык
спора
споралар
спорт
спортко
спортто
спортту
спорттук
спорттун
спорту
спортунун
спортчу
спортчулар
спортчулары
спортчусу
способ
способность
способныи
справочниги
справочник
спрингс
спутниги
спутник
ср
сразу
среди
средневековье
средневековья
среднеи
сс
сср
ссри
ссринин
ссрнин
ссрс
ссср
сссрге
сссрде
сссрдеги
сссрдин
ст
ставить
ставка
ставрополь
стадион
стадиону
стадионунда
стадия
стадияда
стадиясы
стадиясына
стадиясында
стакан
стал
стала
стали
сталин
сталинград
сталиндик
сталиндин
стало
стамбул
стамбулда
стамбулдагы
стан
стандарт
стандарттары
стандарттуу
стандарттык
стандарты
стандын
станислав
станиславскии
становится
становиться
станок
станокто
станоктук
станции
станция
станциялар
станциялары
станцияларынын
станциянын
станциясы
станциясынан
станциясында
станциясынын
станы
стараться
стареи
старик
старики
старом
старт
старуха
старшии
старые
старыи
статеи
статикалык
статистика
статистикалары
статистикалык
статистикасы
статус
статуска
статусу
статусун
статусуна
статуя
статуясы
стать
статьи
статья
стафилококк
стационардык
ств
ства
ствие
ствия
ство
ствовать
сте
стеи
стелла
степан
степанович
степеи
степени
степи
степь
стер
стереотиптер
стери
стерлибашев
стерлинг
стерлитамак
стефан
стив
стивен
стилде
стилдеги
стилдик
стили
стилин
стилинде
стилиндеги
стилине
стилинин
стилистикалык
стиль
стипендия
стих
стихи
стихиялуу
стихов
стихотворения
сто
стои
стоиктер
стоиктердин
стоит
стокгольм
стол
столько
сторон
сторона
стороне
сторону
стороны
стоун
стр
страд
стран
страна
страницы
страны
стратегия
стратегиялык
стратегиясы
стратегиясын
стратиграфиялык
страх
страха
стрептококк
стрит
строи
стронции
строфа
структура
структуралар
структуралардын
структуралары
структураларынын
структуралык
структуранын
структурасы
структурасын
структурасына
структурасында
структурасынын
студент
студенти
студентов
студенттер
студенттерге
студенттерди
студенттердин
студенттери
студенттерине
студенттеринин
студенттик
студия
студияда
студиялык
студияны
студиянын
студиясы
студиясын
студиясында
студиясынын
стук
стэнли
стюарт
су
суахили
субагаи
субакожоева
субальп
субнивалдык
субстанция
субстрат
субтропик
субтропиктик
субъект
субъективдүү
субъектилеринин
субъектинин
субъектиси
субъекттердин
субъекттери
субъекттин
субьективдүү
субэкватордук
суверендүү
суворов
сугаруу
сугарылат
сугарылган
сугарып
сугат
сугатка
судан
судандын
судьба
судьбы
судья
судьясы
суетиться
суждено
суз
сузак
суи
сулаи
сулалеси
сулеи
султан
султандыгы
султандын
султанов
султановдун
султаны
сулу
сулуу
сулуулугу
сулуулугун
сулуулук
сулуусу
сульфаниламид
сульфат
сульфаты
сульфид
сульфиддер
сульфиддүү
сульфиди
суматра
сумма
суммадагы
сумманы
суммасы
суммасын
суммасына
сумсар
сун
суна
сунган
сунниттер
сунулган
сунуп
сунуш
сунуштаган
сунуштаи
сунушталат
сунушталган
сунуштап
сунуштар
сунуштарды
сунуштары
сунуштарын
сунушту
сунушу
сунушун
суп
супа
супер
сур
сура
сурабаи
сураган
сураганда
сурады
сураи
сурак
суракка
сурамжылоо
суранам
суранат
суранган
суранып
сурап
сураса
сурасаң
сурашат
сурашты
суриков
сурнаи
суроо
суроого
суроолор
суроолорго
суроолорду
суроолордун
суроолору
суроону
суроонун
суроосуна
сурьма
сурьманын
суспензия
сутка
суткага
суткада
суткалык
суткасына
сутшербет
суу
сууга
сууда
суудагы
суудаи
суудан
суук
суукка
суукта
сууктан
суулар
сууларга
сууларда
суулардан
сууларды
суулардын
суулары
сууларын
сууларына
сууларынан
сууларында
сууларынын
суулук
суулуу
сууну
суунун
сууп
суур
суурулуп
сууруп
суусамыр
суусамырга
суусамырда
суусамырдагы
суусар
суусу
суусуз
суусун
суусуна
суусунан
суусунда
суусундук
суусунун
суутек
суутекти
суутектик
суутектин
суфии
сухои
сухона
сухте
сущ
суэц
суюк
суюктугу
суюктук
суюктукка
суюктукта
суюктуктар
суюктуктарда
суюктуктардын
суюктукту
суюктуктун
суюлтулган
суң
суңар
сфалерит
сфера
сфералык
сферасынын
схватить
схема
схемалар
схемасы
схемасын
схоластикалык
сценарии
сценарист
счастье
счастья
сче
считается
считать
сша
съе
съезд
съездде
съезддеринин
съезди
съездинде
съездине
съездинин
съемка
сы
сыбызгы
сыгып
сыдык
сыдыкбеков
сыдыкбековдун
сыдыков
сыдыкова
сыз
сызгычтаи
сыздап
сызма
сызыгы
сызыгын
сызыгындагы
сызыгынын
сызык
сызыкка
сызыксындагы
сызыкта
сызыктар
сызыктардын
сызыктары
сызыктарынын
сызыктуу
сызыкты
сызыктын
сызылат
сызылган
сызылып
сызып
сыи
сыктывкар
сыл
сылап
сылык
сым
сыма
сымал
сымалдар
сымалдардын
сымалдуу
сымалдуулар
сымап
сымаптын
сымбаттуу
сын
сына
сынагы
сынагына
сынагында
сынагындагы
сынагынын
сынаи
сынак
сынакка
сынакта
сынактарга
сынактардын
сынактары
сынактын
сыналгы
сыналуучунун
сынап
сынат
сынга
сынган
сында
сындаган
сындагы
сындап
сындоо
сындуу
сындырып
сыноо
сыноодон
сынуу
сынчы
сынчыл
сынчылар
сынчылардын
сынчынын
сынчысы
сыны
сынык
сыныктары
сынын
сынына
сынып
сынысы
сынысын
сынышы
сыпаи
сыпатталат
сыпаттап
сыпаты
сыр
сыра
сырга
сыргак
сыргактын
сырдарыя
сырдарыянын
сырдуу
сырды
сырдык
сырлар
сырлары
сырларын
сырт
сыртка
сырткаркы
сырткары
сырткы
сыртта
сырттан
сырты
сыртын
сыртына
сыртынан
сыртында
сыртындагы
сыры
сырын
сырье
сыя
сыягы
сыяктанат
сыяктанып
сыяктуу
сыяктуулар
сың
сыңар
сыңарбы
сыңары
сыңбы
сьерра
сэ
сэи
сэм
сэр
сээп
сюда
сюжет
сюжети
сюжетин
сюжетинин
сюжеттер
сюжеттердин
сюжетти
сюжеттик
сюжеттин
сюита
ся
сүз
сүзгүч
сүзмө
сүзүп
сүзүү
сүзүүчү
сүи
сүлгү
сүлүктү
сүлөөсүн
сүннөт
сүннөткө
сүннөттөр
сүр
сүргүнгө
сүргүндө
сүргөн
сүрдүү
сүртүп
сүртүү
сүрүлгөн
сүрүлүп
сүрүлүү
сүрүп
сүрүү
сүрө
сүрөсү
сүрөт
сүрөткө
сүрөттү
сүрөттүн
сүрөттүү
сүрөттө
сүрөттөгөн
сүрөттөи
сүрөттөлгөн
сүрөттөлүп
сүрөттөлүш
сүрөттөлүштү
сүрөттөлүштүн
сүрөттөлүштөрдү
сүрөттөлүшү
сүрөттөлүшүн
сүрөттөлөт
сүрөттөп
сүрөттөр
сүрөттөрдү
сүрөттөрдүн
сүрөттөрү
сүрөттөрүн
сүрөттөө
сүрөттөөгө
сүрөттөөдө
сүрөттөөлөр
сүрөттөөчү
сүрөтчү
сүрөтчүлөр
сүрөтчүлөрдүн
сүрөтчүлөрү
сүрөтчүлөрүнүн
сүрөтчүнүн
сүрөтчүсү
сүрөтү
сүрөтүн
сүт
сүткө
сүттү
сүттүн
сүттүү
сүттөн
сүтү
сүтүн
сүтүнөн
сүң
сүңгүп
сүңөр
сө
сөгөт
сөз
сөзгө
сөздү
сөздүгү
сөздүгүн
сөздүгүндө
сөздүк
сөздүктүн
сөздүктө
сөздүн
сөздүү
сөздө
сөздөгү
сөздөн
сөздөр
сөздөргө
сөздөрдү
сөздөрдүн
сөздөрдө
сөздөрдөн
сөздөрү
сөздөрүн
сөздөрүндө
сөздөрүнүн
сөздөрүнөн
сөзмө
сөзмөр
сөзсүз
сөзү
сөзүм
сөзүмдү
сөзүн
сөзүндө
сөзүнүн
сөзүнө
сөзүнөн
сөзүң
сөи
сөлөкөтү
сөң
сөңгөгү
сөөгү
сөөгүн
сөөгүнүн
сөөгүнө
сөөгүнөн
сөөк
сөөккө
сөөктү
сөөктүн
сөөктүү
сөөктөн
сөөктөр
сөөктөрдү
сөөктөрдүн
сөөктөрү
сөөктөрүнүн
сөөмөи
т
та
таа
таабалды
таажы
таажысы
таазим
таала
таалаи
тааланын
таалим
таалы
таамаи
таан
таандык
таануу
таанууга
таанууда
таануунун
таануучу
таануучулар
таануучусу
тааны
тааныбаи
тааныган
тааныи
тааныла
таанылат
таанылбаган
таанылган
таанылды
таанылып
тааным
таанымал
таанымдын
таанып
тааныткан
тааныш
таанышат
таанышкан
тааныштырат
тааныштырган
тааныштыруу
тааныштырып
таанышуу
таанышып
таап
таар
таардан
таарынып
таасир
таасирге
таасирден
таасирди
таасирдүү
таасири
таасирин
таасиринде
таасирине
таасиринен
таасиринин
таасирленип
таасирлер
таасирлерге
таасирлерден
таасирлерди
таасирлердин
таасирлери
таасирлерин
таасирлүү
таасын
таба
табак
табакча
табакчадан
табакчалардын
табакчаны
табакчанын
табалдиев
табам
табарсык
табарсыктын
табат
табгач
табигыи
табии
табит
табити
табитти
табият
табиятка
табиятта
табияттагы
табияттан
табиятты
табияттын
табияты
табиятын
табиятына
табиятынан
табиятынын
таблетка
таблица
таблицада
таблицалар
табуу
табууга
табууда
табууну
табуунун
табуусу
табуучу
[...]
