!
"
#
##a
##aa
##ab
##ac
##ad
##ae
##af
##ag
##ah
##ai
##aj
##ak
##al
##am
##an
##ao
##ap
##aq
##ar
##as
##at
##au
##av
##aw
##ax
##ay
##az
##b
##ba
##bb
##bc
##bd
##be
##bf
##bg
##bh
##bi
##bj
##bk
##bl
##bm
##bn
##bo
##bp
##bq
##br
##bs
##bt
##bu
##bv
##bw
##bx
##by
##bz
##c
##ca
##cb
##cc
##cd
##ce
##cf
##cg
##ch
##ci
##cj
##ck
##cl
##cm
##cn
##co
##cp
##cq
##cr
##cs
##ct
##cu
##cv
##cw
##cx
##cy
##cz
##d
##da
##db
##dc
##dd
##de
##df
##dg
##dh
##di
##dj
##dk
##dl
##dm
##dn
##do
##dp
##dq
##dr
##ds
##dt
##du
##dv
##dw
##dx
##dy
##dz
##e
##ea
##eb
##ec
##ed
##ee
##ef
##eg
##eh
##ei
##ej
##ek
##el
##em
##en
##eo
##ep
##eq
##er
##es
##et
##eu
##ev
##ew
##ex
##ey
##ez
##f
##fa
##fb
##fc
##fd
##fe
##ff
##fg
##fh
##fi
##fj
##fk
##fl
##fm
##fn
##fo
##fp
##fq
##fr
##fs
##ft
##fu
##fv
##fw
##fx
##fy
##fz
##g
##ga
##gb
##gc
##gd
##ge
##gf
##gg
##gh
##gi
##gj
##gk
##gl
##gm
##gn
##go
##gp
##gq
##gr
##gs
##gt
##gu
##gv
##gw
##gx
##gy
##gz
##h
##ha
##hb
##hc
##hd
##he
##hf
##hg
##hh
##hi
##hj
##hk
##hl
##hm
##hn
##ho
##hp
##hq
##hr
##hs
##ht
##hu
##hv
##hw
##hx
##hy
##hz
##i
##ia
##ib
##ic
##id
##ie
##if
##ig
##ih
##ii
##ij
##ik
##il
##im
##in
##io
##ip
##iq
##ir
##is
##it
##iu
##iv
##iw
##ix
##iy
##iz
##j
##ja
##jb
##jc
##jd
##je
##jf
##jg
##jh
##ji
##jj
##jk
##jl
##jm
##jn
##jo
##jp
##jq
##jr
##js
##jt
##ju
##jv
##jw
##jx
##jy
##jz
##k
##ka
##kb
##kc
##kd
##ke
##kf
##kg
##kh
##ki
##kj
##kk
##kl
##km
##kn
##ko
##kp
##kq
##kr
##ks
##kt
##ku
##kv
##kw
##kx
##ky
##kz
##l
##la
##lb
##lc
##ld
##le
##lf
##lg
##lh
##li
##lj
##lk
##ll
##lm
##ln
##lo
##lp
##lq
##lr
##ls
##lt
##lu
##lv
##lw
##lx
##ly
##lz
##m
##ma
##mb
##mc
##md
##me
##mf
##mg
##mh
##mi
##mj
##mk
##ml
##mm
##mn
##mo
##mp
##mq
##mr
##ms
##mt
##mu
##mv
##mw
##mx
##my
##mz
##n
##na
##nb
##nc
##nd
##ne
##nf
##ng
##nh
##ni
##nj
##nk
##nl
##nm
##nn
##no
##np
##nq
##nr
##ns
##nt
##nu
##nv
##nw
##nx
##ny
##nz
##o
##oa
##ob
##oc
##od
##oe
##of
##og
##oh
##oi
##oj
##ok
##ol
##om
##on
##oo
##op
##oq
##or
##os
##ot
##ou
##ov
##ow
##ox
##oy
##oz
##p
##pa
##pb
##pc
##pd
##pe
##pf
##pg
##ph
##pi
##pj
##pk
##pl
##pm
##pn
##po
##pp
##pq
##pr
##ps
##pt
##pu
##pv
##pw
##px
##py
##pz
##q
##qa
##qb
##qc
##qd
##qe
##qf
##qg
##qh
##qi
##qj
##qk
##ql
##qm
##qn
##qo
##qp
##qq
##qr
##qs
##qt
##qu
##qv
##qw
##qx
##qy
##qz
##r
##ra
##rb
##rc
##rd
##re
##rf
##rg
##rh
##ri
##rj
##rk
##rl
##rm
##rn
##ro
##rp
##rq
##rr
##rs
##rt
##ru
##rv
##rw
##rx
##ry
##rz
##s
##sa
##sb
##sc
##sd
##se
##sf
##sg
##sh
##si
##sj
##sk
##sl
##sm
##sn
##so
##sp
##sq
##sr
##ss
##st
##su
##sv
##sw
##sx
##sy
##sz
##t
##ta
##tb
##tc
##td
##te
##tf
##tg
##th
##ti
##tj
##tk
##tl
##tm
##tn
##to
##tp
##tq
##tr
##ts
##tt
##tu
##tv
##tw
##tx
##ty
##tz
##u
##ua
##ub
##uc
##ud
##ue
##uf
##ug
##uh
##ui
##uj
##uk
##ul
##um
##un
##uo
##up
##uq
##ur
##us
##ut
##uu
##uv
##uw
##ux
##uy
##uz
##v
##va
##vb
##vc
##vd
##ve
##vf
##vg
##vh
##vi
##vj
##vk
##vl
##vm
##vn
##vo
##vp
##vq
##vr
##vs
##vt
##vu
##vv
##vw
##vx
##vy
##vz
##w
##wa
##wb
##wc
##wd
##we
##wf
##wg
##wh
##wi
##wj
##wk
##wl
##wm
##wn
##wo
##wp
##wq
##wr
##ws
##wt
##wu
##wv
##ww
##wx
##wy
##wz
##x
##xa
##xb
##xc
##xd
##xe
##xf
##xg
##xh
##xi
##xj
##xk
##xl
##xm
##xn
##xo
##xp
##xq
##xr
##xs
##xt
##xu
##xv
##xw
##xx
##xy
##xz
##y
##ya
##yb
##yc
##yd
##ye
##yf
##yg
##yh
##yi
##yj
##yk
##yl
##ym
##yn
##yo
##yp
##yq
##yr
##ys
##yt
##yu
##yv
##yw
##yx
##yy
##yz
##z
##za
##zb
##zc
##zd
##ze
##zf
##zg
##zh
##zi
##zj
##zk
##zl
##zm
##zn
##zo
##zp
##zq
##zr
##zs
##zt
##zu
##zv
##zw
##zx
##zy
##zz
$
%
&
'
(
)
*
+
,
-
.
/
0
00
000
001
002
003
004
005
006
007
008
009
00960
01
010
011
012
013
014
015
016
017
018
019
02
020
021
022
023
024
025
026
027
028
029
03
030
031
032
033
034
035
036
037
038
039
04
040
041
042
043
044
045
046
047
048
049
05
050
051
052
053
054
055
056
057
058
06
060
062
063
064
065
066
068
07
070
074
075
076
08
080
082
083
084
085
09
090
095
0a
0b
0c
0d
0e
0f
0g
0h
0i
0j
0k
0l
0m
0n
0o
0p
0q
0r
0s
0t
0u
0v
0w
0x
0y
0z
1
10
100
1000
10000
101
1016
102
103
104
105
1050
106
107
1072
1077
108
1080
109
11
110
1100
111
112
113
114
115
116
117
1170
118
119
12
120
1200
121
122
123
124
1240
125
1250
126
127
128
129
13
130
1300
131
132
1325
133
134
135
136
1368
137
138
1380
139
14
140
1400
141
142
143
144
145
1450
146
147
148
149
1492
15
150
1500
151
152
153
154
155
156
157
158
159
1598
16
160
1600
1605
161
1610
162
1620
1629
163
1635
164
1640
1643
1644
1648
165
166
1660
167
1670
168
1680
169
1690
1694
17
170
1700
1701
1703
1709
171
1711
172
1720
1721
1727
173
1730
174
1740
1741
1744
1745
1747
1748
175
1750
1753
1755
1756
1757
1758
1759
176
1760
1762
1763
1765
1766
1768
1769
177
1770
1771
1772
1773
1774
1775
1776
1777
1778
1779
178
1780
1781
1782
1783
1784
1785
1786
1787
1788
1789
179
1790
1791
1792
1793
1794
1795
1796
1797
1798
1799
18
180
1800
1801
1802
1803
1804
1805
1806
1807
1808
1809
181
1810
1811
1812
1813
1814
1815
1816
1817
1818
1819
182
1820
1821
1822
1823
1824
1825
1826
1827
1828
1829
183
1830
1831
1832
1833
1834
1835
1836
1837
1838
1839
184
1840
1841
1842
1843
1844
1845
1846
1847
1848
1849
185
1850
1851
1852
1853
1854
1855
1856
1857
1858
1859
186
1860
1861
1862
1863
1864
1865
1866
1867
1868
1869
187
1870
1871
1872
1873
1874
1875
1876
1877
1878
1879
188
1880
1881
1882
1883
1884
1885
1886
1887
1888
1889
189
1890
1891
1892
1893
1894
1895
1896
1897
1898
1899
19
190
1900
1901
1902
1903
1904
1905
1906
1907
1908
1909
191
1910
1911
1912
1913
1914
1915
1916
1917
1918
1919
192
1920
1921
1922
1923
1924
1925
1926
1927
1928
1929
193
1930
1931
1932
1933
1934
1935
1936
1937
1938
1939
194
1940
1941
1942
1943
1944
1945
1946
1947
1948
1949
195
1950
1951
1952
1953
1954
1955
1956
1957
1958
1959
196
1960
1961
1962
1963
1964
1965
1966
1967
1968
1969
197
1970
1971
1972
1973
1974
1975
1976
1977
1978
1979
198
1980
1981
1982
1983
1984
1985
1986
1987
1988
1989
199
1990
1991
1992
1993
1994
1995
1996
1997
1998
1999
1a
1b
1c
1d
1e
1f
1g
1h
1i
1j
1k
1l
1m
1n
1o
1p
1q
1r
1s
1t
1u
1v
1w
1x
1y
1z
2
20
200
2000
2001
2002
2003
2004
2005
2006
2007
2008
2009
201
2010
2011
2012
2013
2014
2015
2016
2017
2018
2019
202
2020
2021
2022
2023
203
204
205
206
207
208
209
21
210
2100
211
212
213
214
215
216
217
218
219
22
220
2200
221
222
223
224
225
226
227
228
229
23
230
2300
231
232
233
234
235
236
237
238
239
24
240
2400
241
242
243
244
245
246
247
248
249
25
250
2500
251
252
253
254
2542
255
256
257
258
259
26
260
2600
261
262
263
264
265
266
267
2677
268
269
27
270
2700
271
272
273
274
275
276
277
278
279
28
280
2800
281
282
283
284
285
286
287
288
289
29
290
2900
291
292
293
294
295
296
297
298
299
2a
2b
2c
2d
2e
2f
2g
2h
2i
2j
2k
2l
2m
2n
2o
2p
2q
2r
2s
2t
2u
2v
2w
2x
2y
2z
3
30
300
3000
301
302
303
304
305
306
308
309
31
310
3100
311
312
313
314
315
316
317
318
319
32
320
3200
321
322
323
324
325
326
327
328
329
33
330
3300
331
332
333
334
335
336
337
338
339
34
340
3400
341
342
343
344
345
346
347
348
35
350
3500
351
352
353
354
355
356
357
358
359
36
360
3600
361
362
363
364
365
366
367
368
369
37
370
3700
372
373
374
375
376
377
378
379
38
380
3800
381
382
383
384
385
386
387
388
389
39
390
3900
391
392
393
394
395
399
3a
3b
3c
3d
3e
3f
3g
3h
3i
3j
3k
3l
3m
3n
3o
3p
3q
3r
3s
3t
3u
3v
3w
3x
3y
3z
4
40
400
4000
401
403
404
405
406
407
408
409
41
410
4100
411
412
413
414
415
416
418
419
42
420
4200
421
422
423
424
425
426
427
428
429
43
430
4300
431
432
435
437
438
439
44
440
443
444
445
446
447
448
449
45
450
4500
451
452
454
455
456
458
459
46
460
464
465
466
467
469
47
470
476
48
480
481
482
484
485
486
487
49
490
493
496
499
4a
4b
4c
4d
4e
4f
4g
4h
4i
4j
4k
4l
4m
4n
4o
4p
4q
4r
4s
4t
4u
4v
4w
4x
4y
4z
5
50
500
5000
501
504
508
51
510
512
514
515
518
519
52
520
521
522
525
528
53
530
534
535
536
539
54
540
543
544
546
548
55
550
552
555
558
559
56
560
561
563
565
57
570
572
575
576
58
580
581
585
59
590
5a
5b
5c
5d
5e
5f
5g
5h
5i
5j
5k
5l
5m
5n
5o
5p
5q
5r
5s
5t
5u
5v
5w
5x
5y
5z
6
60
600
6000
605
608
61
610
618
62
620
621
625
63
630
632
634
635
64
640
644
648
65
650
655
65500669
656
66
660
67
670
672
673
68
680
688
69
6a
6b
6c
6d
6e
6f
6g
6h
6i
6j
6k
6l
6m
6n
6o
6p
6q
6r
6s
6t
6u
6v
6w
6x
6y
6z
7
70
700
7000
71
710
711
715
716
72
720
727
728
73
74
745
747
75
750
751
76
760
77
78
780
784
79
790
7a
7b
7c
7d
7e
7f
7g
7h
7i
7j
7k
7l
7m
7n
7o
7p
7q
7r
7s
7t
7u
7v
7w
7x
7y
7z
8
80
800
8000
808
81
810
816
82
820
828
83
832
84
840
847
85
850
851
86
860
866
87
870
88
89
89750
8a
8b
8c
8d
8e
8f
8g
8h
8i
8j
8k
8l
8m
8n
8o
8p
8q
8r
8s
8t
8u
8v
8w
8x
8y
8z
9
90
900
900162
907
91
92
921
93
94
940
95
950
96
960
963
97
970
978
98
980
99
9967
9a
9b
9c
9d
9e
9f
9g
9h
9i
9j
9k
9l
9m
9n
9o
9p
9q
9r
9s
9t
9u
9v
9w
9x
9y
9z
:
;
<
=
>
?
@
[
[CLS]
[MASK]
[PAD]
[SEP]
[UNK]
\
]
^
_
`
a
a0
a1
a2
a3
a4
a5
a6
a7
a8
a9
aa
ab
abc
about
ac
academic
academy
act
action
acw
ad
adobe
ae
af
after
ag
against
age
ah
ai
aiesec
air
aj
ak
akipress
al
album
ali
all
altajsk
altaya
alto
alyga
am
amazon
america
american
amt
amtern
amtliche
amtsfreien
an
ana
analysis
ancient
and
android
anhalt
animation
ankara
anne
anthony
ao
ap
appear
apple
april
aq
ar
arastırmaları
arch
archive
archived
are
arena
arheologii
arheologiya
art
article
articles
arts
as
asanov
asia
asian
asp
aspx
association
at
attribute
au
august
author
av
aw
award
awards
ax
ay
az
azattyk
azii
b
b0
b1
b2
b3
b4
b5
b6
b7
b8
b9
ba
back
bad
baden
bafta
bambusa
band
bang
bank
bar
barakelde
barnaul
base
battle
bayerisches
bb
bbc
bc
bd
be
beach
before
bei
beijing
beirut
bell
ben
berlin
best
bevolkerung
bevolkerungsentwicklung
bevolkerungsfortschreibung
bevolkerungsstandes
bevolkerungszahlen
bf
bg
bh
bi
big
billboard
bio
bir
bishkek
bizdin
bj
bk
bl
black
blog
blood
blow
blue
bm
bn
bo
board
body
book
books
borisenko
box
boys
bp
bq
br
brandenburg
brian
britannica
british
bros
brothers
brown
bs
bt
bu
budapest
bureau
business
but
bv
bw
bx
by
bz
c
c0
c1
c2
c3
c4
c5
c6
c7
c8
c9
ca
california
cambridge
camp
can
card
case
cass
category
cb
cbd
cc
cd
ce
cedaw
celebi
census
center
central
centralnoj
centrasia
centre
century
cev
cf
cg
ch
charles
chicago
children
china
chinese
choice
chorotegin
christmas
chrome
ci
cia
cilt
cinema
cite
city
cj
ck
cl
classification
clay
club
cm
cn
co
code
college
columbia
com
committee
company
computer
conference
confirms
content
contest
corporation
cos
countries
country
court
covid
cp
cq
cr
creek
critics
cs
ct
cu
culture
cup
cuyahoga
cv
cw
cx
cy
cz
d
d0
d1
d2
d3
d4
d5
d6
d7
d8
d9
da
daily
dan
daniel
dark
das
data
database
date
datei
datenverarbeitung
david
day
db
dc
dd
de
dead
death
december
defined
del
den
department
der
dergisi
derived
des
development
dez
dezember
df
dg
dh
di
die
digital
disney
displaystyle
dj
dk
dl
dlya
dm
dn
do
doc
documents
does
doi
dokl
don
down
dp
dq
dr
dream
drevnih
ds
dt
du
dv
dvd
dw
dx
dy
dz
e
e0
e1
e2
e3
e4
e5
e6
e7
e8
e9
ea
early
earth
east
eb
ec
economic
ed
edebiyatı
edit
edition
editor
eds
edu
education
ee
ef
eg
egitim
eh
ei
eifel
ej
ek
ekoloji
el
elib
em
empire
en
encyclopedia
encyclopædia
end
eng
english
entertainment
eo
ep
eq
er
erfullenden
error
es
escape
esctoday
essay
essays
et
ethereum
etnografii
eu
europe
european
eurovision
eurovoix
ev
evliya
ew
ex
excel
ey
ez
f
f0
f1
f2
f3
f4
f5
f6
f7
f8
f9
fa
facebook
factbook
factfinder
fairfield
falco
falls
family
fb
fc
fd
fe
february
feminist
festival
ff
fg
fh
fi
fifa
file
files
film
films
final
fips
fire
first
fj
fk
fl
fm
fn
fo
football
for
forbes
fortschreibung
forum
found
foundation
fox
fp
fq
fr
frac
france
franklin
free
from
fs
ft
fu
full
fund
fur
future
fv
fw
fx
fy
fz
g
g0
g1
g2
g3
g4
g5
g6
g7
g8
g9
ga
game
games
gb
gc
gd
ge
gemeinden
gender
general
george
german
get
gf
gg
gh
gi
girl
gj
gk
gl
global
gm
gn
gnu
go
gold
golden
good
google
gorno
gov
gp
gq
gr
grammar
grand
grant
great
green
group
grove
groß
gs
gt
gu
guardian
guide
gv
gw
gx
gy
gz
h
h0
h1
h2
h3
h4
h5
h6
h7
h8
h9
ha
hafta
hall
hambis
harry
hartford
harvard
has
have
haven
hb
hbo
hc
hcl
hd
he
health
heights
heritage
hessischen
hf
hg
hh
hi
hier
high
hill
hills
hiragana
his
historical
history
hj
hk
hl
hm
hn
hno
ho
holmes
holstein
home
hot
house
housing
how
hp
hq
hr
hs
ht
htm
html
http
https
hu
hudyakov
human
hv
hw
hx
hy
hz
i
i0
i1
i2
i3
i4
i5
i6
i7
i8
i9
ia
ib
ic
id
ie
if
ig
ign
ih
ii
iii
ij
ik
il
ile
im
image
imdb
imprime
in
inc
independent
index
info
information
instagram
institute
int
international
internet
interview
into
introduction
invalid
io
ios
ip
ipa
iphone
iq
ir
iran
iron
is
isbn
islam
islamic
island
iso
issn
issue
istanbul
istorii
istoriya
it
item
itemid
its
iu
iucn
iv
ivv
iw
ix
iy
iz
j
j0
j1
j2
j3
j4
j5
j6
j7
j8
j9
ja
jackson
james
january
java
jb
jc
jd
je
jefferson
jf
jg
jh
ji
jj
jk
jl
jm
jn
jo
john
jones
journal
jp
jpg
jq
jr
js
jt
ju
july
june
juniperus
jv
jw
jx
jy
jz
k
k0
k1
k2
k3
k4
k5
k6
k7
k8
k9
ka
kabar
kan
kapa
kara
karatayev
kb
kc
kd
ke
kenesh
key
kf
kg
kh
ki
king
kitepter
kj
kk
kl
kloop
km
kmb
kn
ko
kommunikationstechnologie
konf
konyvreszlet
kp
kq
kr
kreisen
ks
kt
ku
kultur
kultury
kun
kut
kv
kw
kx
ky
kyrgyz
kyrgyzinfo
kyrgyzstan
kz
kırgız
kırgızistan
l
l0
l1
l2
l3
l4
l5
l6
l7
l8
l9
la
lake
land
landesamt
landesbetrieb
landkreis
landkreisen
lang
language
last
law
lb
lc
ld
le
lee
left
les
let
lexus
lf
lg
lh
li
library
life
limon
lincoln
line
link
linnaeus
linux
list
literature
lito
little
live
lj
lk
ll
lm
ln
lo
logos
london
long
lord
los
lost
louis
love
lp
lq
lr
ls
lt
ltd
lu
lua
luxoft
lv
lw
lx
ly
lz
m
m0
m1
m2
m3
m4
m5
m6
m7
m8
m9
ma
mac
machine
madrid
magazine
mai
mail
main
malmo
man
management
manas
manchester
manutd
map
march
mark
market
marshall
martin
marvel
materialy
mathit
max
maxprint
may
mb
mc
md
me
media
medical
medicine
megacom
men
metallica
metro
mf
mg
mh
mi
michael
microsoft
middle
milli
million
mit
mj
mk
ml
mm
mn
mo
mobile
modern
module
mojo
montgomery
more
most
mountain
movie
mp
mq
mr
ms
mt
mtv
mu
multiple
music
mv
mw
mx
my
mz
n
n0
n1
n2
n3
n4
n5
n6
n7
n8
n9
na
nach
name
named
nanori
naoh
narod
nasdaq
natco
national
nations
nature
nb
nc
nd
ne
near
net
network
new
news
newskg
newton
nf
ng
nh
ni
niedersachsen
night
nintendo
nj
nk
nl
nm
nn
no
nocache
nokia
nord
north
not
notes
noun
november
novosibirsk
now
np
nq
nr
ns
nt
nu
number
numbers
nurzat
nv
nw
nx
ny
nz
o
o0
o1
o2
o3
o4
o5
o6
o7
o8
o9
oa
ob
oc
ocean
october
od
oe
of
office
official
og
oh
oi
oj
ok
ol
old
olympics
om
omsk
on
one
online
oo
op
open
opera
option
oq
or
oracle
org
organization
oriental
original
os
osmanlı
ot
other
ou
our
out
ov
over
ow
ox
oxford
oy
oz
p
p0
p1
p2
p3
p4
p5
p6
p7
p8
p9
pa
package
page
pages
paper
par
paramount
paris
park
part
participation
party
pattern
paul
pb
pc
pd
pdf
pe
people
persian
person
peter
pf
pfalz
pg
ph
phone
php
pi
pictures
pine
pj
pk
pl
place
play
playstation
plymouth
pm
pn
po
point
policy
political
politics
pop
population
post
potter
power
pp
pq
pr
present
president
press
presskg
prince
prior
prize
pro
problemy
prof
professor
project
provided
ps
pt
pu
public
publications
publishing
pv
pw
px
py
python
pz
q
q0
q1
q2
q3
q4
q5
q6
q7
q8
q9
qa
qb
qc
qd
qe
qf
qg
qh
qi
qj
qk
ql
qm
qn
qo
qp
qq
qr
qs
qt
qu
quartal
quartale
quartalsende
queen
qv
qw
qx
qy
qz
r
r0
r1
r2
r3
r4
r5
r6
r7
r8
r9
ra
radio
ran
ray
rb
rc
rd
re
real
realmadrid
records
red
ref
references
refs
regia
report
represent
republic
research
retrieved
review
rf
rfc
rg
rh
rheinland
ri
richard
right
rights
rings
rio
river
rj
rk
rl
rm
rn
ro
road
robert
rock
rolling
room
royal
rp
rq
rr
rs
rsssf
rt
ru
ruolo
rus
russia
russian
rv
rw
rx
ry
rz
s
s0
s1
s2
s3
s4
s5
s6
s7
s8
s9
sa
sachsen
saint
samsung
san
santa
sayı
sb
sc
schleswig
school
science
sciences
sd
se
sea
search
second
see
self
september
ser
series
service
set
sex
sexual
sf
sg
sh
sherlock
short
show
shtml
si
sibiri
sin
sio
sir
site
sj
sk
skype
sl
sm
smith
sms
sn
so
social
society
software
some
somfai
song
songs
sony
source
south
soviet
sp
spain
spanish
species
sport
sports
springs
sputnik
sq
sr
ss
st
stadten
stanbul
stand
star
stars
state
states
statistical
statistics
statistik
statistikamt
statistisches
stichtag
stone
story
street
string
stub
studies
studios
study
style
su
summer
summit
sun
super
sur
sv
sw
sx
sy
syn
system
systems
sz
szaktanulmany
szerk
t
t0
t1
t2
t3
t4
t5
t6
t7
t8
t9
ta
tablesl
tag
take
talk
tarihi
tb
tc
td
te
technology
television
terms
text
texte
tez
tf
tg
th
than
that
the
their
theory
they
this
thomas
threatened
three
through
thuringen
thuringer
ti
time
times
title
tj
tk
tl
tm
tn
to
today
tom
too
top
totubayeva
tour
town
township
tp
tq
tr
translation
ts
tt
tu
tudomanyos
turk
turkey
turkic
turkish
turkiye
turkvizyon
tv
tw
twitter
two
tx
ty
tz
u
u0
u1
u2
u3
u4
u5
u6
u7
u8
u9
ua
ub
uc
ud
ue
uefa
uf
ug
uh
ui
uj
uk
ul
uluslararası
um
un
und
under
unesco
union
united
universal
universitesi
university
unix
uo
up
uploads
uq
ur
url
us
usa
use
ut
utc
uu
uv
uw
ux
uy
uz
v
v0
v1
v2
v3
v4
v5
v6
v7
v8
v9
va
valley
van
var
vb
vc
vd
ve
verlag
version
verwaltungsgemeinschaften
vf
vg
vh
vi
video
vienna
viertes
view
vii
viii
village
violence
vj
vk
vl
vm
vn
vo
vol
volume
von
vp
vq
vr
vs
vt
vu
vv
vw
vx
vy
vyp
vz
w
w0
w1
w2
w3
w4
w5
w6
w7
w8
w9
wa
walt
war
warner
was
washington
watch
way
wayback
wb
wc
wd
we
web
website
wechat
weekly
west
westerwald
wf
wg
wh
what
which
white
who
why
wi
wiki
wikipedia
will
william
windows
winter
with
wj
wk
wl
wm
wn
wo
woman
women
worcester
work
works
world
wp
wq
wr
ws
wt
wu
wurttembergs
wv
ww
www
wx
wy
wz
x
x0
x1
x2
x3
x4
x5
x6
x7
x8
x9
xa
xb
xbox
xc
xd
xe
xf
xg
xh
xi
xii
xiii
xiv
xix
xj
xk
xl
xm
xml
xn
xo
xp
xq
xr
xs
xt
xu
xv
xvi
xvii
xviii
xw
xx
xxi
xy
xz
y
y0
y1
y2
y3
y4
y5
y6
y7
y8
y9
ya
yay
yayınları
yb
yc
yd
ye
year
years
yf
yg
yh
yi
yj
yk
yl
ym
yn
yo
york
you
young
your
youtube
yp
yq
yr
ys
yt
yu
yuzhnoj
yv
yw
yx
yy
yz
z
z0
z1
z2
z3
z4
z5
z6
z7
z8
z9
za
zb
zc
zd
ze
zero
zf
zg
zh
zi
zj
zk
zl
zm
zn
zo
zp
zq
zr
zs
zt
zu
zum
zv
zw
zx
zy
zz
{
|
}
~
¢
£
¥
§
©
«
¬
®
¯
°
±
²
³
´
¶
·
¹
º
»
¼
½
¾
×
ß
æ
ð
ø
đ
ı
ł
ŋ
œ
ƒ
ɐ
ɑ
ɒ
ɓ
ɓa
ɓaŋ
ɔ
ɕ
ɗ
ə
ɛ
ɡ
ɣ
ɨ
ɪ
ɭ
ɯ
ɲ
ɵ
ɹ
ɾ
ʁ
ʂ
ʃ
ʈ
ʊ
ʌ
ʎ
ʏ
ʏʏ
ʐ
ʑ
ʒ
ʔ
ʔa
ʔɪj
ʰ
ʲ
ʷ
ʻ
ʼ
ʾ
ʿ
ˀ
ˈ
ˋ
ˌ
ː
˚
˥
˦
˧
˨
˩
α
β
γ
γγ
δ
ε
ζ
η
θ
ι
κ
λ
μ
ν
ξ
ο
π
ρ
ς
σ
τ
υ
φ
χ
ψ
ω
ϑ
ϕ
а
аа
аак
аалам
ааламга
ааламдагы
ааламдардын
ааламдашуу
ааламды
ааламдын
аалы
аалым
ааматов
аарчы
аарчып
аары
аарылар
аарынын
аба
абага
абад
абада
абадагы
абадан
абаддагы
абадская
абаи
абаиылда
абак
абакан
абакиров
абакка
абал
абалак
абалга
абалда
абалдагы
абалдан
абалдары
абалды
абалдын
абалы
абалын
абалына
абалынан
абалында
абалындагы
абалынын
абаны
абанын
абасы
абат
аббас
абд
абдан
абдиев
абдраев
абдрахман
абдрахманов
абдугафуров
абдукаимов
абдул
абдулла
абдуллах
абдумомунов
абдурахман
абдыкадыр
абдыкадыров
абдыкалыков
абдыкерим
абдылда
абдылдаев
абдымомун
абдыракман
абдыракманов
абдырахман
абдырахманов
абзел
абзелил
абииир
аблаи
абляция
абляциясынын
аборт
абрамзон
аброилуу
абс
абсолют
абсолюттук
абстракттуу
абстрактуу
абстракция
абу
абул
абулхасан
абхаз
абыке
абылаи
абышка
ав
аваздык
авар
аватар
август
августа
августда
августин
августка
августта
августтан
августтун
августуна
августунан
августунда
авиа
авиапочта
авиация
авиациялык
авиациянын
авлетим
авогадро
авпв
австралия
австралияда
австралиялык
австралиянын
австрия
австрияда
австриялык
австриянын
авт
авто
автобиография
автобиографиялык
автобус
автомат
автоматика
автоматташтыруу
автоматташтырылган
автоматтык
автомашина
автомобилдер
автомобилдин
автомобиль
автоном
автономдук
автономдуу
автономия
автономиялуу
автономиялык
автономиясы
автор
автордук
автордун
автореферат
авторитардык
авторитет
авторлор
авторлордун
авторлору
авторлорунун
авторлош
авторлошу
авторстве
автору
автоунаа
ага
агаи
агаидын
агаиын
агартуу
агартуунун
агартуусунун
агартуучу
агартуучулук
агарып
агасы
агасынын
агат
агент
агенти
агенттиги
агенттигинин
агенттик
агитация
агломерациясы
агломерациясында
агностик
агрардык
агрегат
агрегаттык
агрегаты
агрессивдүү
агроном
агрономия
агротехникалык
агрохимия
агуу
агуучу
агызып
агым
агымга
агымдар
агымдардын
агымдары
агымдарынын
агымды
агымдын
агымы
агымын
агымына
агымынан
агымында
агымындагы
агымынын
агын
агынсыз
агып
агыш
ад
адабии
адабият
адабиятка
адабиятта
адабияттагы
адабияттар
адабияттарда
адабияттарды
адабияттардын
адабиятты
адабияттын
адабиятчы
адабияты
адабиятын
адабиятына
адабиятынан
адабиятында
адабиятындагы
адабиятынын
адал
адам
адамга
адамда
адамдагы
адамдаи
адамдан
адамдар
адамдарга
адамдарда
адамдардан
адамдарды
адамдардын
адамдары
адамдарын
адамдарына
адамдарынын
адамды
адамдык
адамдын
адамзат
адамзатка
адамзатты
адамзаттык
адамзаттын
адамс
адамы
адамына
адамынын
адаптация
адаптацияланган
адат
адатка
адатта
адаттагы
адаттагыдаи
адаттан
адаттары
адаты
адатын
адашкан
адашып
адвокат
адегенде
адел
аден
адеп
адепки
адептик
адептүүлүк
ади
адигине
адил
адилет
адилетсиз
адилетсиздик
адилеттик
адилеттүү
адилеттүүлүк
адис
адиси
адистер
адистерди
адистердин
адистери
адистешкен
адистештирилген
адистиги
адистигин
адистигине
адистик
адм
админ
административдик
административно
администратор
администрация
администрациялык
администрациянын
администрациясы
администрациясында
администрациясынын
адмирал
адольф
адыл
адыр
адырлар
адырлуу
аеосуз
ажаиып
ажал
ажар
ажаткана
ажы
ажыбаи
ажыбек
ажыдаар
ажыдаардын
ажылык
ажынын
ажыраган
ажырагыс
ажыраит
ажырап
ажырата
ажыратат
ажыратуу
ажыратууга
ажыратуучу
ажыратылат
ажыратылган
ажыратылып
ажыратып
ажырашкан
ажырашуу
ажырашы
ажырашып
ажыроо
аз
аза
азабы
азабын
азабынан
азаиган
азаитат
азаитуу
азаитууга
азаитып
азаиып
азаиышы
азаиышына
азамат
азан
азап
азапка
азаптан
азапты
азар
азат
азаттык
азаттыктын
азаюуда
азаят
азбелев
азгырып
аздан
аздыгы
аздыр
азем
аземи
аземинде
азерб
азербаижан
азербаижанда
азербаижандын
азиз
азиза
азии
азирети
азия
азияга
азияда
азиядагы
азиядан
азиялык
азияны
азиянын
азов
азот
азоттун
азоттуу
азуу
азчылык
азчылыктын
азы
азыгы
азыгын
азык
азыктанат
азыктандыруу
азыктануу
азыктанышат
азыктар
азыктарды
азыктары
азыктарын
азыктарынын
азыктык
азыр
азыраак
азыркы
азыркыга
азыркыдаи
азырынча
аи
аиат
аиаттан
аибалта
аибан
аибанат
аибанаттар
аибанаттарды
аибанаттардын
аибандар
аибандардын
аибек
аига
аигинелеит
аигинелеп
аигыр
аигүл
аида
аидаган
аидаи
аидалат
аидалган
аидалып
аидама
аидан
аидап
аидар
аидаркен
аидарым
аидахо
аидоо
аидоого
аидоочу
аиды
аидын
аикалышат
аикалышкан
аикалыштыра
аикалыштырган
аикалыштыруу
аикалыштырылган
аикалыштырып
аикалышы
аикалышып
аикаш
аикаштары
аикашы
аикели
аикын
аикөл
аила
аилакер
аилампа
аилана
аиланадагы
аиланаиын
аилананын
аиланасы
аиланасын
аиланасына
аиланасында
аиланасындагы
аиланат
аиланган
аиланганда
аиланды
аиландырат
аиландырган
аиландыруу
аиландырууга
аиландыруучу
аиландырылган
аиландырып
аиланма
аиланта
аиланткан
аилантуу
аилантып
аилануу
аилануунун
аилануусу
аилануусун
аилануучу
аиланып
аиланышы
аиларында
аиласы
аилы
аилык
аилына
аилында
аим
аимагы
аимагын
аимагына
аимагынан
аимагында
аимагындагы
аимагынын
аимак
аимакка
аимаков
аимакта
аимактагы
аимактан
аимактар
аимактарга
аимактарда
аимактардагы
аимактардан
аимактарды
аимактардын
аимактары
аимактарын
аимактарына
аимактарынан
аимактарында
аимактарындагы
аимактарынын
аимакты
аимактык
аимактын
аинек
аинектеи
аинектен
аинектин
аинура
аиова
аиран
аиры
аирыгы
аирыкча
аирылган
аирылып
аирым
аирымдар
аирымдары
аирымдарын
аирымдарында
аирымдарынын
аирып
аисулуу
аит
аита
аитабыз
аитаиын
аитам
аитат
аитбаев
аитбаи
аитбаидын
аитиев
аиткан
аитканда
аиткандаи
аиткандан
аиткандары
аиткандарын
аитканы
аитканын
аитканына
аиткыла
аиткын
аитматов
аитматова
аитматовдун
аитор
аитпа
аитпаи
аитса
аитсак
аитсам
аитты
аиттым
аиттырып
аитуу
аитууга
аитууда
аитуудан
аитууну
аитуунун
аитуусу
аитуусуна
аитуусунда
аитуусундагы
аитуучу
аитуучулар
аитуучулардын
аитуучунун
аитчу
аитыла
аитылат
аитылбаит
аитылган
аитылгандаи
аитылса
аитылуу
аитылуучу
аитылып
аитылыш
аитылышы
аитым
аитымында
аитып
аитыш
аитышат
аитышкан
аитышты
аитышы
аитышып
аифель
аихах
аихсфельд
аичыктуу
аичүрөк
аичүрөккө
аичүрөктү
аичүрөктүн
аиш
аиша
аиы
аиыгат
аиыгып
аиыгышкан
аиыз
аиыккан
аиыктыруу
аиыктыруучу
аиыл
аиылга
аиылда
аиылдагы
аиылдан
аиылдар
аиылдарда
аиылдардын
аиылдары
аиылдарына
аиылдарынан
аиылдарында
аиылдарынын
аиылды
аиылдык
аиылдын
аиылных
аиылов
аиылчы
аиылы
аиылын
аиылына
аиылынан
аиылында
аиылындагы
аиылынын
аиым
аиымдар
аиымдын
аиымы
аиына
аиынан
аиында
аиындагы
аиынын
аиып
аиыптаган
аиыпталып
аиыптап
аиыптоо
аиыптуу
аиырма
аиырмалаи
аиырмалаит
аиырмаланат
аиырмаланбаит
аиырмаланган
аиырмаланып
аиырмаланышат
аиырмалап
аиырмалоо
аиырмалоочу
аиырмалуу
аиырмасы
аиырмасын
аиырмачылыгы
аиырмачылык
аиырмачылыктар
аиырмачылыктарга
аиырмачылыктары
ак
акад
академ
академиги
академии
академик
академия
академияда
академиялык
академиянын
академиясы
академиясын
академиясына
академиясында
академиясынын
акаев
акаевдин
акак
акация
акбалта
акбалтанын
акбар
аквариум
акдемиясынын
аке
акжолтои
аки
аким
акими
акимушкин
акиташ
акиташтуу
аккад
аккан
аккелте
аккредитив
аккула
аккуланы
аккуланын
аккумулятор
аккумуляциялык
аккуу
акмак
акмат
акматалиев
акматбек
акматов
аксаи
аксак
аксакал
аксакалдар
аксакалдары
аксакалы
аксиома
аксуу
аксы
акт
акталган
актан
акташ
актер
актердук
актердун
актерлор
актерлордун
актерлук
актеру
актив
активдер
активдүү
активдүүлүгү
активдүүлүгүн
активдүүлүгүнүн
активдүүлүк
активист
актоо
актриса
актрисанын
актрисасы
актуалдуу
актуальные
акты
актык
актылар
актыларды
актылардын
актылары
актыларын
актыларынын
актылуу
актысы
акула
акун
акунов
акустика
акустикалык
акушер
акушердик
акушерлик
акцепт
акционердик
акционерлердин
акция
акциялар
акцияларды
акциялардын
акциялары
акцияларынын
акциянын
акча
акчага
акчалаи
акчалар
акчаны
акчанын
акчасы
акчасын
акчии
акш
акшак
акшга
акшда
акшдагы
акшдан
акшнын
акшумкар
акшыирак
акы
акыбети
акыикат
акыикатка
акыикатта
акыикатты
акыикаттык
акыикатчы
акыл
акылаи
акылбек
акылбектин
акылга
акылдан
акылдуу
акылдын
акылман
акылмандык
акылсыз
акылуу
акылы
акылын
акын
акындар
акындардын
акындары
акындарынын
акындык
акындын
акыны
акынын
акыр
акырет
акыретке
акыретте
акыркы
акыркысы
акыры
акырын
акырына
акырында
акырындап
акырындык
акысы
акысыз
акысын
ал
ала
алаамат
алабуга
алабука
алабы
алабыз
алабын
алабына
алабынан
алабында
алабындагы
алабынын
алагушов
алаи
алаидын
алаикуу
алаилык
алаиын
алака
алакалары
алакаларын
алакан
алалы
алам
аламан
аламын
аламыч
аламүдүн
алан
алар
аларга
аларда
алардагы
алардан
аларды
алардын
аларча
аласыз
аласың
аласыңар
алат
алатоо
алатоонун
алатоосунун
алачык
алаш
алба
албаган
албаганда
албагандыктан
албагыла
албады
албадым
албаи
албаибыз
албаим
албаисың
албаисыңар
албаит
албан
албания
албас
албаса
албастан
албасын
албетте
албоо
алга
алган
алганга
алганда
алгандаи
алгандан
алгандар
алгандыгы
алгандыгын
алгандыктан
алганы
алганын
алгач
алгачкы
алгачкылардан
алгебра
алгебралык
алгоритм
алгы
алгыла
алгылыктуу
алгын
алгыр
алгыс
алгыч
алда
алдамчы
алдан
алдап
алдар
алдашев
алдеи
алдоо
алды
алдыга
алдыда
алдыдагы
алдык
алдым
алдымда
алдын
алдына
алдынала
алдыналуу
алдынан
алдында
алдындагы
алдынкы
алдынча
алдынчалыгын
алдынчалыкка
алдыр
алдырат
алдырган
алдырма
алдыруу
алдырып
алдыңда
алдыңкы
алевролит
алеи
алеихиссалам
алек
алекс
александр
александра
александрия
александрович
александровка
алексеевич
алексеи
алектенген
алектенет
алектенип
алеут
алжапкыч
алжир
али
алиге
алиги
алиев
алиева
алик
алим
алинин
алиппе
алиса
алифаттык
алишер
алия
алкагы
алкагына
алкагында
алкагындагы
алкагынын
алкак
алкакка
алкакта
алкактар
алкактарда
алкактары
алкактарында
алкактуулук
алкактын
алкоголдук
алкоголь
алкыш
алла
аллага
алладан
алланы
алланын
аллах
аллахдан
аллахка
аллахтан
аллахты
аллахтын
аллен
аллергия
аллергиялык
аллювии
алма
алмаз
алмазбек
алмак
алмалуу
алмамбет
алмамбетке
алмамбетти
алмамбеттин
алманын
алматы
алматыда
алматыдагы
алмашат
алмашкан
алмаштыра
алмаштырат
алмаштырган
алмаштыруу
алмаштырууга
алмаштыруучу
алмаштырылат
алмаштырылган
алмаштырып
алмашуу
алмашууга
алмашууда
алмашууну
алмашуунун
алмашуусу
алмашуусун
алмашуусуна
алмашуусунун
алмашылган
алмашылып
алмашып
алмурут
алооке
алоокенин
алп
алса
алсак
алсаң
алсыз
алсын
алсырап
алтае
алтаи
алтаига
алтаида
алтаидагы
алтаидан
алтаидын
алтаилык
алтаилыктар
алтаилыктардын
алтаиск
алтая
алтоо
алты
алтымыш
алтын
алтынаи
алтынбек
алтынга
алтындан
алтынды
алтындыкы
алтындын
алтынчы
алуу
алууга
алууда
алуудагы
алуудан
алуулар
алууну
алуунун
алуусу
алуусун
алуусуна
алуучу
алуучуга
алуучулар
алуучуларга
алуучулардын
алуучулук
алуучунун
алфавит
алфавити
алфавитин
алфавитиндеги
алфавитине
алфавитинин
алфавиттик
алча
алчу
алчы
алшеев
алы
алыбаев
алыкул
алыкулов
алым
алымбек
алымкан
алымкул
алымкулов
алына
алынат
алынбаган
алынбаи
алынбаит
алынган
алынгандан
алынды
алынса
алынууда
алынуусу
алынуучу
алынып
алынышы
алынышына
алып
алыптыр
алыс
алыска
алыскы
алыста
алыстаган
алыстан
алыстап
алыстыкка
алыстыкта
алыш
алышат
алышкан
алышпаит
алышты
алышуу
алышы
алышын
алышына
алышып
аль
альб
альберт
альбом
альбомдун
альбому
альбомун
альбомунун
альгои
альдегид
альп
альт
альтенбург
альтенкирхен
альтернатива
альтернативдик
альтернативдүү
альтөттинг
альфа
альфонс
альфред
альцаи
альчики
алюминии
алюминиидин
аляска
ам
амазонка
амал
амалдар
амалдарды
амалы
аман
аманат
аманбаев
амантур
амберг
амбулатория
амеба
амер
америка
америкага
америкада
америкадагы
америкалык
америкалыктар
америкалыктардын
американы
американын
америкасында
аметист
амин
аминдер
амир
амиралиев
аммиак
аммонии
аморфтук
аморфтуу
ампер
амплитудасы
амстердам
аму
амур
ан
ана
анадолу
анализ
анализге
анализде
анализдик
анализдин
анализдөө
анализи
аналитикалык
аналогдук
аналогу
анан
ананас
анар
анаркулов
анатолии
анатомия
анатомиялык
анвар
анварбек
анг
ангидриди
ангина
англ
англис
англисче
англичандар
англия
англияга
англияда
англиядагы
англиялык
англиянын
англо
ангола
анд
анда
андагы
андаи
андан
андерсон
андижан
андре
андреас
андреев
андреевич
андреи
андрон
андыктан
анемометр
анжелес
анжиян
анжыр
анжыян
анимация
анимацияланган
анимациялык
аниме
анкара
анна
анны
анри
ансамблдин
ансамбли
ансамблин
ансамблинин
ансамбль
ансбах
ансыз
ант
антанта
антарктида
антарктика
антенна
анти
антибиотик
антибиотиктер
антибиотиктерди
антик
антикалык
антиклиналдык
антиклиналь
антил
антимонит
антип
антитело
антителолор
анткен
анткени
антология
антологиясы
антон
антонио
антпесе
антропоген
антропогендик
антропогендин
антропологии
антропология
антропологиялык
анхальт
анча
анчалык
аны
анык
аныктаган
аныктаи
аныктаит
аныктала
аныкталат
аныкталбаган
аныкталган
аныкталды
аныкталуучу
аныкталып
аныктама
аныктамасы
аныктап
аныкташат
аныкташкан
аныктоо
аныктоого
аныктоодо
аныктоонун
аныктоочу
анын
анысы
ао
ап
апа
апаат
апабыз
апам
апасы
апасынын
апатит
апельсин
апенди
апендинин
апеннин
апииим
аполлон
аппак
аппарат
аппараттар
аппараттарды
аппараттардын
аппараттары
аппараттык
аппараттын
аппаратура
аппараты
аппаратын
аппаратына
аппаратында
аппаратынын
апрелге
апрелде
апрелден
апрелдин
апрелинде
апрелине
апрелинен
апрель
апреля
апта
аптабачы
ар
ара
араа
араб
араба
арабаев
арабдар
арабдардын
арабиясы
арабча
араван
арага
арада
арадан
арак
аракет
аракети
аракетин
аракетинде
аракетине
аракетинен
аракетинин
аракетке
аракетте
аракеттеги
аракеттенген
аракеттенет
аракеттенип
аракеттенишет
аракеттениши
аракеттенишкен
аракеттенүү
аракеттенүүгө
аракеттер
аракеттерге
аракеттерди
аракеттердин
аракеттери
аракеттерин
аракеттерине
аракеттеринен
аракеттеринин
аракеттешүү
аракеттешүүнүн
аракеттешүүсү
аракетти
аракеттин
аракечтик
арал
аралап
аралары
араларын
араларына
аралаш
аралаша
аралашат
аралашкан
аралашма
аралашманы
аралашмасы
аралашмасын
аралашмасынан
аралаштыруу
аралаштырып
аралашып
аралга
аралда
аралдан
аралдар
аралдарда
аралдарды
аралдардын
аралдары
аралдарын
аралдарында
аралдарынын
аралды
аралдын
аралы
аралыгы
аралыгын
аралыгына
аралыгында
аралыгындагы
аралык
аралыкка
аралыкта
аралыктагы
аралыктан
аралыктарындагы
аралыкты
аралыктын
аралын
аралына
аралынан
аралында
аралындагы
аралынын
арам
арамеи
араны
аранын
арап
арапча
арасы
арасын
арасына
арасынан
арасында
арасындагы
арасынын
арашан
араң
араңарда
араңардан
арбагы
арбагына
арбак
арбатско
арбир
арбитраждык
арбын
арваилер
аргандаи
аргасыз
аргасыздан
аргентина
аргентинада
аргентинанын
аргымак
аргын
аргындаштыруу
ард
ардагер
ардагери
ардагерлер
ардак
ардактуу
ареалы
арена
аренага
аренада
арзан
арзыган
арзымат
арзырлык
ариби
арии
ариине
арип
аристов
аристотелдин
аристотель
арифметикалык
арка
аркак
аркалаган
аркалап
аркалык
аркан
аркандын
аркар
аркасы
аркасынан
аркасында
арктика
арктикалык
аркы
аркыл
аркылуу
арман
армандуу
арманы
армения
армениянын
армии
армия
армияга
армияда
армиядан
армияны
армиянын
армиясы
армиясын
армиясына
армиясында
армиясынын
армян
армяндар
арнаган
арналат
арналган
арналып
арналышы
арнап
арнольд
арноо
арнсберг
ароматтык
аростук
арпа
арпанын
арсенал
арсенопирит
арслан
арстан
арстанбап
арстанбек
арстандын
арт
арта
артат
артерия
артериялык
артиллерия
артиллериялык
артист
артисти
артисттер
артисттери
артисттик
артка
арткан
арткы
артта
арттырат
арттыруу
арттырууга
арттырып
артур
арты
артык
артыкбаев
артыкча
артыкчылыгы
артыкчылыгын
артыкчылык
артыкчылыкка
артыкчылыктары
артыкчылыктуу
артын
артына
артынан
артында
артындагы
артып
арун
арунга
арундун
аруу
арфа
арх
архаикалык
архангель
архангельск
археол
археолог
археологдор
археологии
археологические
археологических
археология
археологиялык
археологиясы
архив
архивделген
архивдик
архиви
архивировано
архимед
архипелаг
архипелагы
архипелагынын
архитектор
архитекторлор
архитектору
архитектура
архитектурада
архитектуралык
архитектуранын
архитектурасы
архитектурасынын
арча
арчалуу
арчалы
арчасы
арчычкан
ары
арыз
арызы
арык
арыктаит
арыктап
арыктын
арылтуу
арылуу
арым
арып
ас
аса
асаба
асан
асаналиев
асанбек
асанканов
асанков
асанкул
асанов
асанова
асбест
асел
асем
аска
аскага
аскалар
аскалуу
асканын
аскар
аскер
аскерге
аскерден
аскердик
аскердин
аскери
аскерии
аскерин
аскеринин
аскерлер
аскерлерге
аскерлерди
аскерлердин
аскерлери
аскерлерин
аскерлерине
аскерлеринин
аскин
аскорбин
асма
асман
асманга
асманда
асмандагы
асмандан
асмандар
асманды
асмандын
аспабы
аспап
аспапта
аспаптар
аспаптарда
аспаптарды
аспаптардын
аспаптары
аспапты
аспаптык
аспаптын
аспекты
аспирант
аспирантура
аспирантурада
аспирантураны
аспирантурасын
аспирантурасында
аспиранты
ассамблея
ассамблеясы
ассамблеясынын
ассимиляция
ассирия
ассистент
ассистенти
ассоциация
ассоциациялар
ассоциациянын
ассоциациясы
ассоциациясынын
асср
ассри
ассринин
аста
астана
астрахань
астрномия
астрон
астроном
астрономия
астрономияда
астрономиялык
асты
астын
астына
астынан
астында
астындагы
астынкы
астыңкы
асфальт
асфальтталган
асыи
асыл
асылбек
асылган
асылып
асып
асыралат
асырап
асыресе
асыроо
ат
ата
атаандаш
атаандаштык
атаандаштыкка
атаандашы
атаандашынын
атабек
атабеков
атабыз
атабыздын
атага
атаган
атагы
атагын
атадан
атады
атаи
атаидын
атаилап
атаит
атаиы
атаиылап
атаиын
атак
атаке
атакка
атактуу
атактуулукка
атала
аталар
аталары
аталарынын
аталат
аталаш
аталган
аталгы
аталгылары
аталды
аталуучу
аталчу
аталыгы
аталык
аталып
аталыш
аталышат
аталышка
аталышта
аталыштагы
аталыштар
аталыштары
аталышты
аталыштын
аталышы
аталышын
аталышына
аталышынан
аталышында
аталышындагы
аталышынын
атам
атама
атамбаев
атамды
атамдын
атамекендик
атан
атанган
атаны
атанын
атап
атар
атаса
атасы
атасын
атасына
атасынан
атасынын
атат
ататүрк
ататүрктүн
аташат
аташкан
аташчу
атаң
атаңдын
атбашы
атеросклероз
атиканда
атка
аткан
атканда
аткар
аткара
аткарат
аткарбаи
аткарган
аткаргандыгы
аткарганы
аткаргыла
аткарды
аткарса
аткаруу
аткарууга
аткарууда
аткаруудан
аткарууну
аткаруунун
аткаруусу
аткаруусунда
аткаруусундагы
аткаруучу
аткаруучулар
аткаруучулардын
аткаруучулук
аткаруучусу
аткарыла
аткарылат
аткарылган
аткарылуучу
аткарылып
аткарылышы
аткарылышын
аткарылышына
аткарымдар
аткарымдарды
аткарып
аткарышат
аткарышкан
аткарышы
аткомунун
аткыч
аткычтар
атлантика
атлас
атласы
атлетика
атм
атмаи
атмосфера
атмосферага
атмосферада
атмосферадагы
атмосфералык
атмосферанын
атмосферасы
атмосферасынын
атн
атом
атомдор
атомдордун
атомдору
атомдорунун
атомдук
атомдун
атомдуу
атому
атомунун
атоо
атоого
атооч
атоочтор
атоочтук
атоочтуктар
атоочтун
атта
аттан
аттанат
аттанган
аттанып
аттап
аттар
аттарга
аттарды
аттардын
аттары
аттарын
аттарына
аттарынан
аттарынын
аттестациялык
аттиң
аттокуров
атту
аттуу
атты
аттын
атуу
атууга
атуул
атуулдук
атуулу
атуучу
атф
атчан
атчандар
аты
атыгып
атылган
атылып
атым
атын
атына
атынан
атында
атындагы
атынын
атып
атыр
атың
атүгүл
аугсбург
аудио
аул
аула
аургазин
аурих
ауэзов
афган
афганистан
афганстан
афганстандын
афины
афк
африка
африкага
африкада
африкадагы
африкадан
африкалык
африканы
африканын
афшар
ах
ахатов
ахлак
ахлактык
ахмад
ахмадии
ахмадия
ахматов
ахмед
ахмедов
ахмет
ахунбаев
ахыска
ацетилен
ацетон
ач
ача
ачаары
ачарчылык
ачары
ачат
ачинск
ачка
ачкан
ачкачылык
ачкыч
ачкычы
ачты
ачуу
ачууга
ачууда
ачууланып
ачууну
ачуусу
ачуучу
ачы
ачык
ачыкка
ачыла
ачылат
ачылган
ачылгандан
ачылды
ачылып
ачылыш
ачылыштар
ачылышы
ачылышына
ачып
ачыткы
ачыткысыз
ачышкан
аш
аша
ашар
ашат
ашаффенбург
ашина
ашка
ашкабак
ашказан
ашкан
ашкана
ашкере
ашкерелеген
ашпаган
ашпаи
ашпаит
ашта
аштан
ашты
аштын
ашуу
ашуудан
ашуун
ашуунун
ашуусу
ашуусуна
ашуусунан
ашхабад
ашы
ашыгы
ашыгын
ашык
ашыктык
ашыкча
ашын
ашына
ашынган
ашында
ашып
ашыр
ашыра
ашырат
ашырбаи
ашырган
ашыруу
ашырууга
ашырууда
ашырууну
ашыруунун
ашыруучу
ашырыла
ашырылат
ашырылган
ашырылуучу
ашырылып
ашырылышы
ашырып
аэро
аэродинамикалык
аэропорт
аэропорттору
аэропорту
аюу
аябаган
аябагандаи
аябаи
аягы
аягын
аягына
аягынан
аягында
аягындагы
аяз
аяк
аяккы
аяктаган
аяктагандан
аяктады
аяктаит
аяктап
аякташы
аяктуу
аял
аялга
аялдан
аялдар
аялдарга
аялдарда
аялдардан
аялдарды
аялдардыкы
аялдардын
аялдары
аялдарыныкы
аялдарынын
аялды
аялдык
аялдыкка
аялдын
аялуу
аялы
аялым
аялын
аялына
аялынан
аялынын
аян
аянт
аянтка
аянтта
аянттагы
аянттары
аянтты
аянттын
аянтча
аянтчада
аянтчасы
аянты
аянтын
аянтына
аянтында
аянтынын
аянычтуу
аяр
аят
аяттан
аяттарын
аяш
аң
аңгеме
аңгемелер
аңгемелерди
аңгемелердин
аңгемелери
аңгемелерин
аңгемеси
аңгыча
аңдап
аңдып
аңчылык
аңыз
б
ба
баа
баага
баада
баалаган
баалаи
баалаит
бааланат
бааланган
бааланып
баалап
баалар
баалардын
баалашкан
баалоо
баалоого
баалоодо
баалуу
баалуулугу
баалуулугун
баалуулук
баалуулуктар
баалуулуктарды
баалуулуктардын
баалуулуктары
баалуулуктарын
баамдалат
баамдап
бааны
баанын
бааракы
баардыгы
баардык
баарлашуу
баары
баарыбыз
баарыдан
баарын
баарына
баарынан
баарында
баарынын
баарысы
баарысын
баарыңар
баасы
баасын
баасына
баасынын
баатыр
баатырга
баатырды
баатырдыгы
баатырдык
баатырдын
баатырлар
баатырларга
баатырларды
баатырлардын
баатырлары
баатырларынын
баатыры
баба
бабак
бабалардын
бабалары
бабаларыбыз
бабаларынын
бабасы
бабур
бабурдун
бавария
баварияжеринде
бага
багам
багат
багбанчылык
багдад
багуу
багууга
багуучу
багы
багылат
багылган
багында
багындырган
багындырып
багынын
багынып
багыныңкы
багып
багыт
багытка
багытта
багыттагы
багытталат
багытталган
багытталып
багыттап
багыттар
багыттардын
багыттары
багыттарын
багыттарынын
багыттоо
багыттоочу
багытты
багыттын
багыты
багытын
багытына
багытында
багытындагы
багытынын
багыш
багышталган
бад
бадал
бадалдар
бадалдуу
бадам
бадахшан
баден
бадминтон
бадыраң
баетов
бажы
база
базалык
базальт
базар
базарбаев
базарга
базарда
базардагы
базардын
базаркоргон
базары
базарында
базарынын
базасы
базасын
базасына
базасында
базасынын
баи
баибиче
баибичеси
баиге
баигеге
баигелүү
баигени
баигесин
баигесине
баидарата
баидын
баижиев
баизак
баикабаи
баикаган
баикал
баикалат
баикалбаит
баикалган
баикалууда
баикалуучу
баикалып
баикап
баике
баикоо
баикоого
баикоолор
баикоочу
баикуш
баила
баилаган
баилаит
баиланат
баиланган
баиланып
баиланыш
баиланышат
баиланышка
баиланышкан
баиланышпаган
баиланышсыз
баиланышта
баиланыштагы
баиланыштар
баиланыштарды
баиланыштардын
баиланыштары
баиланыштарын
баиланыштарынын
баиланыштуу
баиланышты
баиланыштын
баиланыштырат
баиланыштырган
баиланыштыруу
баиланыштыруучу
баиланыштырылат
баиланыштырып
баиланыштырышат
баиланышуу
баиланышы
баиланышын
баиланышына
баиланышынын
баиланышып
баилап
баилар
баилоо
баилыгы
баилыгын
баилыгына
баилык
баилыкка
баилыктар
баилыктарды
баилыктардын
баилыктары
баилыктарын
баилыкты
баима
баимак
баипак
баирак
баироит
баит
баитал
баитик
баичечекеи
баиымбет
баиымдуу
баиып
баиыр
баиыркы
баиырлаган
баиырлап
баиырлашат
баиыртадан
баиыртан
баиыткан
баиытуу
баиытып
баиыш
бак
бака
бакаи
бакаига
бакаидын
бакалавр
бакалар
бакалин
бакалоор
бакан
бакасы
бакдөөлөт
бакен
бакиев
бакиевдин
бакир
баккан
бакма
бактары
бактерия
бактериялар
бактериялардын
бактериялык
бактрия
бакты
бактыбек
бактылуу
бактын
бактысы
бактысыз
баку
бакуда
бакча
бакчада
бакчанын
бакчасараи
бакчасы
бакчасынын
бакчиев
бакшы
бакы
бакыт
бакытбек
бал
бала
балага
баладаи
баладан
балак
балалуу
балалыгы
балалык
балам
баланс
баланстагы
баланстын
балансы
балансын
баланы
баланын
балапан
балапандарын
баласагун
баласагын
баласагына
баласы
баласыз
баласын
баласына
баласынын
балаты
балаң
балбаи
балбан
балбандар
балбандын
балбаны
балдар
балдарга
балдарда
балдарды
балдардын
балдары
балдарым
балдарын
балдарына
балдарынын
балерина
балет
балети
балетмеистер
бали
балка
балкан
балкар
балким
балкып
балл
баллада
баллга
балта
балтачев
балтика
балтыр
балтыходжа
балх
балык
балыкка
балыкооз
балыктар
балыктарда
балыктардын
балыктарынын
балыкты
балыктын
балыкчы
балыкчылык
балыр
балырлар
бам
бамберг
бамбук
банан
бангладеш
банк
банка
банкка
банктар
банктардын
банктык
банктын
банкы
банкынын
бар
бара
бараандуу
барабан
барабар
барабыз
барагы
барак
барактары
барактын
баракча
баракчасы
баракчасына
барам
барат
бараталиев
баратат
бараткан
баратканда
баратып
бараң
бараңга
барбаи
барбара
барбы
барган
баргана
барганда
баргандагы
барганы
баргы
баргыла
барда
барды
бардыгы
бардыгын
бардыгына
бардыгынан
бардыгында
бардыгынын
бардык
баренц
барии
барит
барк
баркка
барктуу
баркы
баркын
баркыт
барлар
бармак
барнаул
барокко
барон
барпы
барс
барса
барсаң
барсбек
барселона
барскан
барскани
барскон
барскоон
бартольд
баруу
барууга
барууда
барууну
баруучу
баруучусу
барчу
бары
барыдан
барымта
барымтага
барын
барып
барышат
барышкан
барышты
барышы
барышып
бас
баса
басар
басары
басат
басаңдаит
басаңдап
басаңдатуучу
баскаков
баскан
басканда
баскетбол
баскынчы
баскынчыларга
баскынчылардан
баскынчыларына
баскынчылык
баскыч
баскычка
баскычта
баскычтагы
баскычтан
баскычтары
баскычтарында
баскычтуу
баскычы
баскычын
баскычында
басма
басмага
басмадан
басмаиыл
басмакана
басмаканасы
басмасы
басмасынан
басмасында
басмасынын
басмачылар
басмачыларга
басмырлоо
баспаи
басса
бассеин
бассеиндер
бассеиндери
бассеиндин
бассеини
бассеинин
бассеининдеги
бассеининин
басты
бастырып
басуу
басууга
басыз
басылат
басылган
басылма
басылмалар
басылмаларда
басылмасы
басылып
басылыш
басылышы
басым
басымга
басымда
басымдагы
басымдуу
басымдуулук
басымды
басымдын
басымы
басымын
басымынын
басып
бат
бата
батасы
батасын
батат
баткак
баткан
баткен
батпаи
баттамада
батып
батыр
батыш
батышка
батышта
батыштагы
батыштан
батышты
батыштын
батышы
батышын
батышына
батышынан
батышында
батышындагы
баутцен
бах
бахреин
баш
башаламан
башат
башаты
башатынан
башатында
башка
башкага
башкалар
башкаларга
башкаларда
башкалардан
башкаларды
башкалардын
башкалары
башканы
башкара
башкарат
башкарган
башкарма
башкармалыгы
башкармалыгында
башкармалыгынын
башкармалыктын
башкарманын
башкармасы
башкармасында
башкармасынын
башкаруу
башкарууга
башкарууда
башкарууну
башкаруунун
башкаруусу
башкаруучу
башкаруучулар
башкаруучулары
башкаруучуларынын
башкаруучулук
башкаруучунун
башкаруучусу
башкарылат
башкарылган
башкарылуучу
башкарып
башкасы
башкасын
башкача
башкы
башкыр
башкырстан
башкырт
башкыртстан
башкыртстандын
башкысы
башта
баштаган
баштаганда
баштагандан
баштаганы
баштады
баштаит
башталат
башталган
башталганга
башталганда
башталгандан
башталгыч
башталды
башталса
башталып
башталыш
башталышы
башталышын
башталышына
башталышынан
башталышында
баштан
баштап
баштапкы
баштары
баштарын
баштарына
баштаса
башташат
башташкан
башташты
башташы
баштоо
баштоого
баштоочу
баштуу
башты
баштык
баштын
башчы
башчылар
башчылардын
башчылары
башчыларына
башчыларынын
башчылыгы
башчылыгына
башчылык
башчынын
башчысы
башчысын
башчысына
башчысынын
башы
башым
башын
башына
башынан
башында
башындагы
башынын
башыңа
баягы
баялинов
баян
баяндаган
баяндаит
баяндалат
баяндалган
баяндалып
баяндама
баяндамалар
баяндамачы
баяндап
баяндар
баяндарында
баяндоо
баяны
баянын
баяр
баңги
бб
ббк
бгу
бегалиев
беги
беда
беде
бедел
беделдүү
бедняк
беду
бежать
без
безгек
бездер
бездердин
бездери
бездеринин
бездин
бези
безинин
беи
беиит
беииш
беиишке
беииште
беииштен
беииштин
беикапар
беикут
беипил
беисбол
беитааныш
беитап
беитарап
беише
беишеке
беишемби
беишеналиев
беишеналиева
беиөкмөт
бек
бекбоев
бекем
бекемдеген
бекемдеит
бекемделген
бекемделет
бекемделип
бекемдеп
бекемдиги
бекемдигин
бекемдөө
бекемдөөгө
бекен
бекер
бекеринен
бекет
бекети
бекетинен
беки
бекиген
бекип
бекитет
бекитилген
бекитилет
бекитилип
бекитип
бекиткен
бекитүү
беккер
бекназар
бексултан
бектемир
бектенов
бектин
бектур
бел
беларус
беларуссия
беларусча
беларусь
белая
белге
белги
белгилеген
белгилегендеи
белгиледи
белгилеи
белгилеит
белгиленген
белгиленди
белгиленет
белгиленип
белгилениши
белгиленүүчү
белгилеп
белгилер
белгилерге
белгилерди
белгилердин
белгилери
белгилерин
белгилерине
белгилеринен
белгилеринин
белгилешет
белгилешкен
белгилуу
белгилүү
белгилүүлөрү
белгилүүсү
белгилөө
белгилөөгө
белгилөөдө
белгилөөчү
белгини
белгинин
белгиси
белгисиз
белгисин
белгисине
белгисинин
белград
белдемчи
белден
беле
белебеев
белеги
белек
белекке
белем
беленделет
белес
белең
бели
белиз
белин
белине
белинен
белинскии
белогу
белок
белокатаи
белоктор
белоктордун
белоктун
белорет
белорус
белоруссия
белыи
бельгия
бельгияда
бельгиянын
бен
бенгал
бензин
бензол
бенин
бентхаим
бер
бербе
бербеген
бербеи
бербеит
бербесе
бербестен
бербөө
берген
бергенге
бергенде
бергенден
бергендиги
бергендиктен
бергени
бергенин
бергиле
бергин
бергич
берди
бердик
бердике
бердим
бере
беребиз
берегу
береиин
береке
берекелүү
берем
беремин
берене
беренеси
беренц
берер
берерин
берет
бери
берик
берилбеит
берилген
берилди
бериле
берилет
берилип
берилиши
берилиштер
берилиштерди
берилиштердин
бериллии
берилсе
берилүү
берилүүчү
беринг
берип
бериптир
бериш
беришет
бериши
беришинде
беришиндеги
беришип
беришкен
беришпеит
бериште
беришти
берки
беркли
беркут
беркута
берлин
берлингтон
берлинде
берлиндеги
бермек
бермет
бернард
бернд
бернкастель
бернхард
бернштам
берсе
берсең
берсин
беруу
берчи
берчү
берүү
берүүгө
берүүдө
берүүдөгү
берүүдөн
берүүлөр
берүүнү
берүүнүн
берүүсү
берүүсүн
берүүсүнүн
берүүсүнө
берүүчү
берүүчүнүн
бестселлер
бет
бета
бетачары
бетеге
бетегелүү
бетер
бети
бетин
бетинде
бетиндеги
бетине
бетинен
бетинин
бетинче
бетке
беткеи
бетме
бетон
бетте
беттен
беттер
беттерде
беттери
беттерин
беттеринде
беттерине
беттеринин
беттеш
беттешип
беттешкен
бетти
беттик
беттин
беттүү
бехзад
бечара
беш
бешик
бешикке
бешим
бешинчи
бештен
бештин
бешөө
би
биберах
библиографическии
библиография
библиографиялык
библиотека
библия
биденкопф
бижбуляк
биз
бизге
бизде
бизден
бизди
биздин
бизнес
бизнеси
бизнести
бии
бииге
бииден
бииди
биидин
биии
бииигирээк
бииик
бииикке
бииикт
бииикте
биииктеген
биииктеги
биииктиги
биииктигин
биииктигине
биииктик
биииктикке
биииктикте
биииктиктеги
биииктиктен
биилеген
биилеп
биилер
биилердин
биилери
биилеринин
биилиги
биилигин
биилигинде
биилигине
биилигинен
биилигинин
биилик
бииликке
бииликте
бииликтен
бииликтери
бииликти
бииликтин
биичи
бил
билам
билбеген
билбеи
билбеим
билбеит
билге
билген
билгенин
билги
билгизбеи
билгизет
билгизип
билгиле
билгичтик
билдирген
билдирди
билдире
билдирет
билдирип
билдиришкен
билдирүү
билдирүүгө
билдирүүлөр
билдирүүлөрдү
билдирүүнүн
билдирүүсү
билдирүүчү
биле
билебиз
билек
билем
билерик
билесиң
билесиңер
билет
билим
билимге
билимдер
билимдерге
билимдерди
билимдердин
билимдерин
билимди
билимдин
билимдүү
билими
билимин
билимине
билинбеи
билинбеит
билинер
билинет
билинип
билип
билиш
билишет
билиши
билишкен
билишпеит
билл
билли
билсе
билчү
билүү
билүүгө
билүүдө
билүүнү
билүүнүн
билүүсү
билүүчү
билүүчүлүк
бин
бинардык
бинген
био
биобиблиогр
биобиблиографическии
биографии
биография
биографиялык
биол
биолог
биология
биологияда
биологиялык
биосфера
биосфералык
биотехнология
биотит
биохимия
биохимиялык
бир
бирге
биргелешип
биргелешкен
биргеликте
бирде
бирдеи
бирдеилиги
бирдеме
бирден
бирди
бирдиги
бирдигин
бирдигинде
бирдигине
бирдигинин
бирдик
бирдикте
бирдиктер
бирдиктерди
бирдиктердин
бирдиктери
бирдиктеринин
бирдикти
бирдиктин
бирдиктүү
бирдин
биржа
биржалык
биржасы
бири
биригет
биригип
биригиши
биригишинен
биригишкен
биригүү
биригүүсү
бириккен
бирикме
бирикмелер
бирикмелерге
бирикмелерди
бирикмелердин
бирикмелери
бирикмелерин
бирикмелеринде
бирикмелеринин
бирикменин
бирикмеси
бирикмесин
бирикмесинде
бирикмесине
бирикмесинин
бириктирген
бириктирет
бириктирилген
бириктирилет
бириктирилип
бириктирип
бириктирүү
бириктирүүгө
бириктирүүчү
биримдиги
биримдигин
биримдигине
биримдигинин
биримдик
биримдикке
биримдикте
биримдикти
биримдиктин
бирин
биринде
бирине
биринен
биринин
биринчи
биринчиден
биринчилерден
биринчилигинде
биринчилик
биринчиси
биринчисинде
бириң
бириңерге
бириңерди
биркатар
биркенфельд
бирлери
бирлиги
бирлик
бирма
бирнече
бирок
биротоло
бируни
бирөө
бирөөгө
бирөөлөр
бирөөлөрдүн
бирөөлөрү
бирөөнү
бирөөнүн
бирөөсү
бирөөсүнүн
бисау
бит
битбург
бити
биттерфельд
бить
бич
бичурин
бишкек
бишкекке
бишкекте
бишкектеги
бишкектен
бишкектин
бия
бк
бкга
бкда
бкнын
благовар
благовещен
близко
блинников
блогу
блок
блоктордун
блоктун
блоктуулугу
блэк
блюз
бо
боб
бог
богатство
богатырь
богатыря
боген
богок
бодо
боек
боектор
боекторду
боекту
боелгон
боео
боеочу
боеп
божомол
божомолдонот
божомолдор
боз
боздоп
бозо
бозомтук
бозомук
бои
боиго
боидок
боидон
боилои
боилоп
боилорунда
боилото
боилуу
боилуулук
боилуулуктун
боиунча
бок
бокмурун
бокс
боксит
бол
болбо
болбогон
болбогондо
болбогондуктан
болбогула
болбоду
болбои
болбоит
болбоого
болбос
болбосо
болбостон
болбосун
болбошу
болгар
болгария
болгариянын
болгон
болгонго
болгондо
болгондои
болгондон
болгондор
болгондорго
болгондорду
болгондордун
болгондугу
болгондугун
болгондугуна
болгондуктан
болгону
болгонун
болгонуна
болгончо
болгула
болгусу
болгуча
болду
болдук
болдум
болдуң
более
болезни
болезнь
болжол
болжолдо
болжолдоит
болжолдонот
болжолдуу
болжолу
боливия
болмаиды
болмок
болмуш
болмуштун
боло
болобу
болобуз
бололу
болом
болонья
болоор
болоору
болоорун
болор
болору
болорун
болосуң
болот
болотбек
болоттон
болотту
болоттун
болочок
болоюн
болсо
болсок
болсом
болсоң
болсоңор
болсун
болтурбоо
болуп
болуптур
болуу
болууга
болууда
болуудан
болууну
болуунун
болуусу
болуусун
болуусуна
болуучу
болучу
болуш
болушат
болушкан
болушса
болушту
болуштук
болушу
болушун
болушуна
болушунан
болушунда
болушунун
болушунча
болушуп
болчу
большая
больше
большевик
большевиктер
большевиктердин
большевиктик
большие
большим
большими
большое
большои
большую
бомба
бонча
боо
боогачы
бооз
боом
боор
боордо
боордош
боордун
боорсок
боору
боорукер
боорун
бооруна
боорунда
боорундагы
боосу
боочу
бор
борб
борбор
борборго
борбордо
борбордон
борбордук
борбордун
борборлор
борборлордун
борборлору
борборлорунда
борборлорунун
борборлошкон
борборлоштурулган
борбору
борборун
борборуна
борборунан
борборунда
борборундагы
борборунун
борбугулов
борду
борис
борисенко
боркен
борколдои
борода
боромбаи
бороон
борпоң
борьбе
борьбы
босния
босого
босоголуу
бостон
бот
ботан
ботаник
ботаника
ботаникалык
ботко
бото
ботои
ботом
бош
бошонуп
бошоп
бошоткон
бошотот
бошотулат
бошотулган
бошотулуп
бошотуп
бошотуу
бошотууга
боштондук
боштондукка
боштук
бою
боюн
боюна
боюнан
боюнда
боюндагы
боюнун
боюнча
бразилия
бразилияда
бразилиялык
бразилиянын
браиан
браисгау
бран
бранденбург
брат
брать
браузер
браун
брекчия
брест
бригада
бригаданын
бригадасы
бригадасынын
бригадир
бригадири
бриллиант
бримкулов
британ
британдык
британия
британияга
британияда
британиядагы
британиялык
британиянын
бром
бронх
бронхит
бруно
бруцеллез
брэд
брюс
брюссель
брянск
бу
буг
буга
бугера
бугу
бугунун
будапешт
будда
буддизм
будем
буденныи
будет
будешь
будто
буду
будут
будь
буза
бузат
бузган
бузгандыгы
буздяк
бузук
бузуку
бузукулук
бузулат
бузулбаи
бузулбаит
бузулган
бузулганда
бузулса
бузулуп
бузулуу
бузулуулар
бузулушу
бузулушун
бузулушуна
бузулушунан
бузулушунун
бузуп
бузуу
бузууга
бузуучу
буиру
буируган
буиругандаи
буиругу
буиругун
буиругуна
буируду
буирук
буируктарын
буирукту
буиткалуу
бук
бука
буканын
букар
букара
букарга
букардан
букачар
букв
бул
була
булагы
булагын
булагына
булагынан
булагынын
булак
булакка
булактан
булактар
булактарга
булактарда
булактардан
булактарды
булактардын
булактары
булактарын
булактарына
булактарында
булактарынын
булактын
булалуу
булан
булар
буларга
буларда
булардан
буларды
булардын
буласы
буласынан
булат
булбул
булгаары
булгаарыдан
булгаит
булганган
булгануу
булганышы
булгачы
булгоочу
булл
булут
булуттар
булуң
булуңу
булуңуна
булуңунда
булуңундагы
булуңунун
булчуң
булчуңга
булчуңдар
булчуңдардын
булчуңдары
булчуңдарын
булчуңдарынын
булчуңдун
булчуңдуу
булчуңу
бун
бур
бура
бураев
бурак
бурама
бурана
бурат
бурбаи
бурган
бургенланд
бургулоо
бургулоочу
бурж
буржуазия
буржуазиялык
буржуазиянын
бурзян
буркан
бурмалап
бурно
бурул
бурулат
бурулган
бурулуп
бурулуш
бурулча
бурунди
буруп
бурут
буруу
бурч
бурчка
бурчтары
бурчтук
бурчтуктун
бурчтун
бурчтуу
бурчу
бурчун
бурчуна
бурчунан
бурят
бут
бута
бутага
бутагы
бутагына
бутак
бутактанган
бутактанып
бутактары
бутактарынын
бутактуу
бутан
бутанаев
бутка
буткул
бутпарастар
буттары
буттарын
бутту
буттун
буттуу
буттуулар
буту
бутун
бутуна
бутунун
буу
бууга
буудаи
буудаидын
буудаиык
буудан
буулантып
буулануу
буунун
буура
буурул
буурчак
буусу
буусунун
бухара
бухарест
бухгалтер
бухгалтердик
бучагы
буш
буэнос
буюм
буюмга
буюмдар
буюмдарга
буюмдарды
буюмдардын
буюмдары
буюмдарын
буюмдарына
буюмдарында
буюмдарынын
буюмду
буюмдун
буюму
буюрган
бы
бывает
быиыл
бык
был
была
былжыр
былжырлуу
были
было
бырыш
быстро
быт
бытие
бытиенин
быту
быть
бычак
бычмачы
бычылган
бычып
бышат
бышкан
быштак
бышты
бышык
бышыктооч
бышыктыгы
бышып
бышыруу
бышырылган
бышырып
бэк
бэкон
бээ
бээжин
бээжинге
бээжиндин
бээнин
бюджет
бюджети
бюджетке
бюджеттен
бюджетти
бюджеттик
бюджеттин
бюро
бюросу
бюросунун
бюст
бюулук
бүбүсара
бүгүн
бүгүнкү
бүгүп
бүдөмүк
бүктөлүү
бүктөлүүгө
бүктөлүүлөргө
бүлгүнгө
бүлдүркөндүн
бүлө
бүлөгө
бүлөдө
бүлөдөгү
бүлөдөн
бүлөлүк
бүлөлүү
бүлөнү
бүлөнүн
бүлөсү
бүлөсүн
бүлөсүндө
бүлөсүнүн
бүлөсүнө
бүлөсүнөн
бүлөө
бүргө
бүргөндү
бүркүт
бүркүттүн
бүртүкчөлүү
бүт
бүткүл
бүткөн
бүткөнгө
бүткөндө
бүткөндөи
бүткөндөн
бүтпөгөн
бүтпөи
бүттү
бүтүм
бүтүмгө
бүтүмдөр
бүтүмү
бүтүн
бүтүндүгүн
бүтүндүк
бүтүндүктү
бүтүндөи
бүтүп
бүтүргөн
бүтүргөндөн
бүтүрүп
бүтүрүү
бүтүрүүчүлөр
бүтүрүүчүлөрү
бүтүрүүчүсү
бүтүрөт
бүтүшү
бүтүү
бүтө
бүтөлүп
бүтөт
бүчүр
бөбөктөр
бөгөт
бөдөнө
бөирөк
бөирөктүн
бөк
бөксө
бөкөи
бөкөнбаев
бөл
бөлгүч
бөлгүчү
бөлгөн
бөлмө
бөлмөгө
бөлмөдө
бөлмөлүү
бөлмөлөр
бөлмөнү
бөлмөнүн
бөлмөсү
бөлмөсүндө
бөлчөк
бөлүгү
бөлүгүн
бөлүгүндө
бөлүгүндөгү
бөлүгүнчөлүк
бөлүгүнүн
бөлүгүнө
бөлүгүнөн
бөлүк
бөлүккө
бөлүктүн
бөлүктүү
бөлүктө
бөлүктөн
бөлүктөр
бөлүктөргө
бөлүктөрдүн
бөлүктөрдөн
бөлүктөрү
бөлүктөрүн
бөлүктөрүндө
бөлүктөрүнүн
бөлүктөрүнө
бөлүктөрүнөн
бөлүкчө
бөлүкчөлөр
бөлүкчөлөргө
бөлүкчөлөрдү
бөлүкчөлөрдүн
бөлүкчөлөрдөн
бөлүкчөлөрү
бөлүкчөлөрүнүн
бөлүкчөнүн
бөлүкчөсү
бөлүм
бөлүмгө
бөлүмдүн
бөлүмдүү
бөлүмдө
бөлүмдөн
бөлүмдөр
бөлүмдөрү
бөлүмдөрүн
бөлүмдөрүндө
бөлүмдөрүнүн
бөлүмү
бөлүмүн
бөлүмүндө
бөлүмүндөгү
бөлүмүнүн
бөлүмүнө
бөлүмүнөн
бөлүнбөс
бөлүнгөн
бөлүндү
бөлүнүп
бөлүнүшү
бөлүнүшүн
бөлүнүшүнүн
бөлүнүшүнө
бөлүнүшөт
бөлүнүү
бөлүнүүсү
бөлүнүүчү
бөлүнө
бөлүнөт
бөлүп
бөлүшкөн
бөлүштүргүч
бөлүштүргөндө
бөлүштүрүлгөн
бөлүштүрүлүшү
бөлүштүрүлөт
бөлүштүрүп
бөлүштүрүү
бөлүштүрүүгө
бөлүштүрүүнүн
бөлүштүрүүчү
бөлүшүп
бөлүшүү
бөлүшөт
бөлүү
бөлүүгө
бөлүүдө
бөлүүчү
бөлө
бөлөк
бөлөкбаи
бөлөт
бөрде
бөрк
бөрү
бөтөлкө
бөтөн
бөтөнчө
бөтөнчөлүгү
бөөдө
в
ва
вавилов
вавилон
вагнер
вагон
важничать
важно
вазелин
вазир
ваильбург
ваильхаим
ваинштрассе
ваисенфельс
вакуум
вакуумда
вакуумдук
вакцина
вал
валенсия
валентина
валенттик
валенттүү
валерии
вали
валиханов
валлэи
вальднаб
вальдсхут
вальтер
валюта
валюталык
валютанын
валютасы
вам
ван
ванадии
ваниль
ванкувер
ванна
вануату
вап
вариант
вариантта
варианттар
варианттарда
варианттардан
варианттардын
варианттары
варианттарын
варианттарында
варианттарынын
варианты
вариантын
вариантына
вариантында
вариантындагы
вариантынын
вариациялык
вартбург
варшава
вас
василии
васильевич
васюган
ватикан
вацлав
вашингтон
вв
введение
вверх
вдруг
ве
веб
вебер
вегетатив
вегетативдик
вегетация
ведомости
ведомстволук
ведь
везердеги
веимар
века
вексели
вексель
вектор
вектордук
вектору
велел
великии
великои
велосипед
вена
венада
веналык
венгр
венгрия
венгрияда
венгриянын
венера
венесуэла
венеция
вера
верблюд
верблюда
верблюдов
верди
вернер
вернигероде
верныи
версаль
версия
версиялары
версиясы
версиясын
вертикалдык
вертикаль
вертолет
верхняя
верховного
верхом
весна
вест
вестервальд
вестерн
вести
вестник
вестфалия
весть
весь
вет
ветер
ветераны
ветеринар
ветеринардык
ветеринария
ветеринариялык
ветерок
ветра
веттерау
вечернии
вещи
взаимн
взвод
взгляд
взяв
взял
взять
вид
виде
видел
видео
видимо
видно
видов
видом
византия
византиялык
византиянын
визуалдык
википедия
виктор
виктория
вилка
вилладж
вилли
вильгельм
вильнюс
вильфрид
вильхельм
вин
виндсхаим
винер
вино
виноградов
виолончель
виртуалдык
вирус
вируска
вирустар
вирустардын
вирустук
вирустун
вирустуу
вирусу
вис
виска
висмут
витамин
витаминдер
витаминдердин
витаминдери
витаминдин
витаминдүү
витамини
витамининин
витлих
виттенберг
вице
вич
вишневскии
вкп
вкус
владимир
владимирович
власов
власти
власть
влияние
влксм
вместе
вместо
вниз
внимание
внимания
во
вода
воде
водои
водород
воду
воды
военно
военное
вож
возвр
возглас
возраста
возрасте
воина
воины
воиско
вокал
вокалдык
вокзал
вокруг
волга
волгоград
волеибол
волк
волков
вологда
волосы
вольтер
вольф
вольфганг
вольфенбюттель
вольфрам
вон
вопрос
вопросу
вопросы
вормс
воронеж
восток
востока
восточная
восточного
восточнои
восточныи
вот
вп
впв
впвап
вперед
вр
враг
врага
врач
врачка
врачтар
врачтык
врачтын
врачы
времен
времена
времени
время
все
всегда
всего
всем
всех
всю
вся
всякие
всякого
вт
второи
вуд
вузов
вульканаифель
вы
вызывать
выити
вып
выпуск
высокии
вычегда
вышел
вь
вьетнам
вьетнамдын
вэст
вюммдагы
вюртемберг
вюрцбург
вятка
г
га
гаага
габбро
габон
гаваии
гавана
гавел
гагарин
газ
газга
газдар
газдарды
газдардын
газдуу
газды
газдын
газета
газетасы
газетасында
газетасынын
гази
газы
газын
гаи
гаити
гал
галактика
галактикалык
галактиканын
галдан
галенит
галерея
галереясы
галилеи
галогендер
гамбург
гамлет
гамма
ган
гана
ганг
ганди
ганновер
гапаров
гарвард
гармиш
гармоникалык
гармония
гармониялык
гарри
гастрит
гастролдо
гасы
гат
гаусс
гафурии
гвардия
гвардиялык
гвардиянын
гватемала
гвинея
гг
гдан
где
гдр
ге
гегелдин
гегель
гезит
гезити
гезитин
гезитинде
гезитине
гезитинин
гезиттер
гезиттерде
гезиттери
гезиттеринде
гезиттин
гектар
гектарынан
гелии
гематит
гемоглобин
гемоглобиндин
ген
гендер
гендердик
гендердин
гендин
генеалогиялык
генерал
генералдык
генералы
генератор
генератору
генетика
генетикалык
геннадии
генри
генрих
геогр
географ
география
географиялык
географиянын
географиясы
географы
геодезия
геодезиялык
геоинформативдик
геол
геолог
геология
геологиялык
геологу
геометрия
геометриялык
геометриянын
геометриясы
геоморфологиялык
георг
георгии
геосинклиналдык
геосинклиналь
геофизика
геофизикалык
геохимия
геохимиялык
гепатит
геппинген
герат
герб
герберт
герби
герд
герман
германии
германия
германияга
германияда
германиядагы
германиядан
германиялык
германияны
германиянын
гермерсхаим
герои
героя
герхард
герц
герцеговина
герцен
герцин
герцог
герцогство
гессен
гете
ги
гибралтар
гибрид
гибриддештирүү
гибсон
гигант
гигиена
гигиеналык
гигиенаны
гидравликалык
гидро
гидрогеологиялык
гидрографикалык
гидродинамикалык
гидролиз
гидрология
гидрологиялык
гидротерм
гидротехникалык
гильдиясынын
гималаи
гималаидын
гимн
гимназия
гимнастика
гимнастикалык
гимни
гинекология
гинекологиялык
гипертония
гипотеза
гипс
гиссар
гиссен
гитара
гитарист
гитлер
гифхорн
гл
глава
глагола
глаз
глаза
глазами
глазах
глинка
глицерин
глобалдуу
глобалдык
глобус
глобустун
глюкоза
гляциалдык
гнеис
гносеологиялык
го
гоббс
говори
говорил
говорит
говорить
говоря
говорят
гоголь
год
года
году
годунов
годы
гозо
гол
голланд
голландия
голландиялык
голландча
голливуд
голова
голове
головои
голову
головы
голос
гольштеин
гон
гонконг
гор
гора
горах
горбачев
горе
горизонт
горизонталдуу
горизонталдык
горизонталь
гормон
гормондор
гормондордун
гормону
горная
горно
горного
горныи
горных
город
города
городов
городского
горчица
горы
горькии
горькиидин
гос
гость
государства
государственного
государственныи
государство
гота
готика
готов
гр
грабфельд
гравелит
гравитация
гравитациялык
гравюра
град
градус
градуска
гражд
граждандардын
граждандык
граиц
грам
грамм
грамматика
грамматикалык
грамматикасы
грамота
грамоталар
грамоталары
грамотасы
гран
гранат
гранд
гранит
грант
гранулометриялык
граф
графенау
график
графика
графикалык
графикасы
графикасынын
графиктик
графит
графство
графтон
грек
грекия
грекияда
грекиянын
гректер
гректердин
грекче
гренада
гренландия
греция
грецияда
грециянын
григориан
григории
григорьевич
грим
грин
гринландия
грипп
грозныи
громко
грос
гроув
груди
грудь
груз
грузин
грузия
грузияда
грузиянын
грузно
группа
группадагы
группалык
группасы
группы
грэмми
гу
губ
губасы
губернатор
губернатору
губернаторунун
губерниясы
губерниясынын
губы
гул
гулам
гумандуу
гуманисттик
гуманитардык
гуманитарные
гумбольдт
гумилев
гунценхаузен
густав
густои
гфр
гц
гы
гэмпшир
гэс
гэси
гюнтер
гюнцбург
гүл
гүлгө
гүлдү
гүлдүн
гүлдүү
гүлдүүлөр
гүлдөгөн
гүлдөит
гүлдөп
гүлдөр
гүлдөрдүн
гүлдөрү
гүлдөө
гүлмира
гүлнара
гүлстан
гүлчынар
гүлчө
гүлү
гүлүн
гүлүнүн
гүнтер
гүстроу
гө
гөкалп
гөрлиц
гөттинген
д
да
даам
даамдуу
даамы
даамын
даана
даанышман
даанышмандык
даарат
даба
дабан
дав
даван
давать
давид
давлекан
давлесов
дагстан
дагы
дает
даже
даи
даира
даирасынын
даиым
даиыма
даиын
даиындаган
даиындаит
даиындалат
даиындалган
даиындалды
даиындалып
даиындоо
даиынсыз
даки
дал
далаи
далалат
дале
далеко
далил
далилдеген
далилдеи
далилдеит
далилденген
далилдеп
далилдер
далилдерди
далилдүү
далилдөө
далилдөөгө
далили
даллас
далы
дальше
дам
дамаск
дамба
дан
данакер
данга
данды
дандын
дания
даниялык
даниянын
данияр
данненберг
данные
данным
данных
даны
дап
дар
дарагы
дарагынын
дараж
даража
даражага
даражада
даражадагы
даражаларын
даражалуу
даражаны
даражасы
даражасын
даражасына
дарак
даракка
дарактар
дарактарды
дарактардын
дарактары
дарактын
дарбаза
дарбазасы
дарбазачы
дарбыз
дарвин
дарга
дареги
дарек
даректүү
дарии
даркан
дармек
дармектер
дармектерди
дармштадт
дароо
дарс
дарстар
дарт
дартка
дарттын
дары
дарыгер
дарыгердин
дарыгери
дарыгерлер
дарыкана
дарылаит
дарылануу
дарыланууга
дарыланып
дарылап
дарылар
дарыларга
дарыларды
дарылардын
дарылары
дарылоо
дарылоого
дарылоодо
дарылоону
дарылоонун
дарылоочу
дарылык
дарыны
дарынын
дарыя
дарыяга
дарыядан
дарыялар
дарыялардын
дарыялары
дарыяларыворонов
дарыяларын
дарыяларынын
дарыянын
дарыясы
дарыясын
дарыясына
дарыясынан
дарыясында
дарыясындагы
дарыясынын
даст
дастан
дастандар
дастандын
дастаны
дастанын
дастанынын
дасторкон
дасыккан
дат
дата
датасы
датка
датканын
дать
даяр
даярдаган
даярдаит
даярдалат
даярдалган
даярдалып
даярдануу
даярданып
даярдап
даярдоо
даярдоого
даярдоодо
даярдоону
даярдоонун
даярдоочу
даярдыгы
даярдык
даң
даңазалаган
даңазалап
даңазалоо
даңазалуу
даңк
даңкка
даңктуу
даңкы
даңкын
два
две
дверь
двигаться
движение
движении
движения
движениях
двина
двинск
двух
де
дебе
дебеи
дебити
дебют
дебюттук
девон
девондун
девушка
девушке
девушки
деггендорф
дегеле
деген
дегенге
дегенде
дегендеи
дегенден
дегендер
дегенди
дегендик
дегендин
дегени
дегенибиз
дегенин
деги
дегин
деди
дедик
дедим
деепр
дезинсекциялоо
дезинфекциялоо
дезинфекциялоочу
деи
деибиз
деили
деим
деире
деисиңер
деиствие
деиствия
деиствовать
деит
декабрда
декабрдан
декабрына
декабрынан
декабрында
декабрындагы
декабрь
декабрьда
декабря
декан
декандын
деканы
декарт
декарттын
декларация
декларациясы
декоративдүү
декрет
дел
дела
делает
делать
делген
деле
делегат
делегаты
деления
делет
дели
делип
дело
дель
дельтаны
дем
демеиде
демеики
демек
деми
демилге
демилгелер
демилгелүү
демилгеси
демилгесин
демилгечи
демилгечиси
деммин
демографиялык
демокр
демократ
демократия
демократияга
демократиялык
демократияны
демократиянын
демократтар
демократтык
демокрит
ден
денгээлде
дене
денег
денеге
денеде
денедеги
денеден
денени
дененин
денеси
денесин
денесинде
денесиндеги
денесине
денесинен
денесинин
дени
дениз
денис
денудациялык
день
деньги
деп
департаменти
департаментинин
депрессия
дептери
дептир
депутат
депутатов
депутаттар
депутаттардын
депутаттары
депутаттарынын
депутаттыгына
депутаттык
депутаттыкка
депутаты
дер
дерево
державалардын
десант
десе
десек
десем
десерт
десең
дет
детеи
детектив
детерминизм
дети
детмольд
деформация
дечү
дешет
дешип
дешке
дешкен
дешсе
дешти
деңг
деңгээл
деңгээлге
деңгээлде
деңгээлдеги
деңгээлден
деңгээли
деңгээлин
деңгээлинде
деңгээлиндеги
деңгээлине
деңгээлинен
деңгээлинин
деңиз
деңизге
деңизде
деңиздеги
деңизден
деңиздер
деңиздерде
деңиздердин
деңиздери
деңиздеринин
деңизди
деңиздик
деңиздин
деңизи
деңизинде
деңизиндеги
деңизине
деңизинен
деңизинин
дж
джалал
джамиля
джапанов
джеимс
джек
джексон
джефферсон
джон
джонсон
джордж
джэфферсон
дзержинскии
дзюдо
ди
диабаз
диабет
диабети
диагноз
диагноздоо
диагнозу
диагнозун
диагностика
диагностикалык
диалект
диалектика
диалектикалык
диалектилик
диалектиси
диалог
диаметри
диана
диапазондогу
диапазону
дибург
диван
дивану
дивизия
дивизиясынын
дидактикалык
дидро
диета
дизаин
дизаины
дизель
дизентерия
дик
диктатор
диктатура
диктатурасы
диктор
дил
дили
диллинген
дилль
дин
дина
динамика
динамикалуу
динамикалык
динамикасы
динамикасынын
динара
династия
династиянын
династиясы
династиясын
династиясынан
династиясынын
динге
динден
диндер
диндердин
динди
диндик
диндин
дини
динии
динин
дининде
дининдеги
динине
дининин
динлин
диоген
диорит
диплом
дипломат
дипломатия
дипломатиялык
дипломаттык
дипломдук
диплому
дипхольц
дирак
директор
директордун
директорлор
директору
директорунун
дирижер
дирижерлук
дирижеру
диск
дискреттүү
дискриминация
дискриминацияга
дискриминациянын
дисктин
дисперсиялык
дисперстик
диссертация
диссертацияларды
диссертациялык
диссертациясын
диссоциация
дисциплиналар
дитер
дитмар
дитмаршен
дитя
дифракция
дифракциялык
дифракциясы
дифференциал
дифференциалдык
диффузия
диффузиялык
диэлектрдик
диэлектрик
длужневская
для
дм
дмитриевич
дмитрии
днеи
днепр
дни
днк
днкнын
дня
до
доберан
добра
добро
добул
добулбас
добуш
добушка
добуштан
добуштардын
добуштун
добушу
довольно
догдур
дого
дождь
док
докл
доклад
докладов
доклады
доктор
доктордук
докторлук
докторов
доктору
доктринасы
доктур
документ
документалдуу
документалдык
документи
документке
документтер
документтерге
документтерде
документтерди
документтердин
документтери
документтерин
документтеринде
документти
документтин
долбоор
долбоорго
долбоорду
долбоордун
долбоорлоо
долбоорлор
долбоорлорду
долбоорлордун
долбоорлору
долбоорлорун
долбоору
долбоорун
долбоорунун
долго
должен
должны
доллар
долларга
доллардан
долларды
доллары
долларын
долларына
доломит
долон
долоно
дом
дома
доме
домен
доминика
домна
дон
донау
донецк
доннерсберг
донор
доо
доор
доорго
доордо
доордогу
доордон
доорду
доордун
доорлордо
доорлордогу
доору
доорун
дооруна
доорунан
доорунда
доорундагы
доорунун
дор
дордои
дорога
дороги
дорогои
дорогу
дос
достоевскии
достор
достору
досторунун
достугу
достук
досу
досум
досунун
доцент
доценти
доцентом
дочери
дочь
доңкулдак
доңуз
др
драма
драмалар
драмалары
драмалык
драманын
драмасы
драмасында
драматург
драматургия
драматургу
древнеиших
древние
древних
древности
дрезден
друг
друга
другие
другим
других
другого
другое
другои
другом
другу
дружба
ду
дуба
дубал
дубалга
дубалдар
дубалдары
дубалдын
дубалы
дубалын
дубалына
дубалынын
дубана
дуглас
дудук
дулу
думана
дун
дунаи
дунаидын
дунган
дурус
дуу
дуулат
дуушар
дуушарланган
дуушарланып
дух
духом
духунда
душ
душа
душанбе
души
душман
душманга
душмандан
душмандар
душмандарга
душмандардан
душмандардын
душмандары
душманды
душмандык
душмандын
душманы
душу
дуңган
ды
дыикан
дыикандар
дыикандарга
дыикандарды
дыикандардын
дыикандын
дыиканчылыгы
дыиканчылык
дыиканчылыкка
дыиканчылыкта
дыиканчылыктын
дык
дыкат
дым
дын
дың
дэ
дэвид
дэвис
дэн
дэниел
дээр
дээрлик
дюна
дюртюлин
дюссельдорф
дүин
дүинө
дүинөгө
дүинөдө
дүинөдөгү
дүинөдөн
дүинөлүк
дүинөнү
дүинөнүн
дүинөсү
дүинөсүн
дүинөсүндө
дүинөсүндөгү
дүинөсүнүн
дүинөсүнө
дүишеев
дүишөмбү
дүишөн
дүиүм
дүкөн
дүкөнү
дүлөи
дүн
дүнүиө
дүр
дүрбү
дүрбөлөң
дүркхаим
дүркүрөп
дүң
дүүлүгүү
дүүлүккөн
дүүлүктүрүүчү
дө
дөбө
дөбөгө
дөбөлүү
дөбөлөр
дөбөт
дөгү
дөи
дөн
дөң
дөңгөлөк
дөңгөлөктүү
дөңсөө
дөңсөөлүү
дөңсөөлөр
дөңсөөсү
дөө
дөөлөс
дөөлөт
дөөнүн
дөөт
дөөттүн
дөөтү
е
еб
евгении
евклид
евразии
евразия
евразияда
евразиялык
евразиянын
евреи
евреилер
евро
еврокөрүнүү
европ
европа
европага
европада
европадагы
европадан
европалык
европалыктар
европалыктардын
европаны
европанын
еган
египет
египетке
египетте
египеттик
египеттин
его
едва
ее
еи
екатерина
екатеринбург
елга
еле
елена
елизавета
ель
ельцин
ему
ен
енисеи
енисеидин
енисеилик
енисеиских
ереван
ермекеев
ерофеев
ес
есет
если
есть
еще
ж
жа
жаа
жааган
жаагы
жаагын
жаадырып
жааит
жаак
жаакка
жаактын
жаан
жаанчыл
жааны
жаанын
жаап
жаат
жаатта
жааттын
жаатында
жаатындагы
жааңгер
жаба
жабдуу
жабдуулар
жабдууларды
жабдуулардын
жабдуулары
жабдууларын
жабдыгы
жабдык
жабдыктар
жабдыктарды
жабдыктары
жабдыктарын
жабдыктарына
жабдыктарынын
жабдылат
жабдылган
жабуу
жабуунун
жабык
жабылат
жабылган
жабылып
жабыр
жабыркаган
жабыркаганда
жабыркаит
жабыркап
жабыркатат
жабыркатуучу
жабыркашы
жабырлануучу
жабырлануучунун
жабышкак
жабышкан
жабышып
жагалмаи
жагдаи
жагдаида
жагдаиды
жагдаилар
жагдаиларга
жагдаиларда
жагдаиы
жагы
жагымдуу
жагымсыз
жагын
жагына
жагынан
жагында
жагындагы
жагынын
жагып
жада
жадыбал
жаз
жаза
жазага
жазалоо
жазалоочу
жазам
жазаны
жазанын
жазасы
жазасын
жазасына
жазат
жазган
жазгандар
жазганы
жазгы
жазгыч
жазда
жазды
жаздык
жаздым
жаздын
жаздырган
жаздыруу
жаздыруучу
жаздырып
жазма
жазмалар
жазмаларды
жазмалары
жазмасы
жазмасын
жазмасында
жазса
жазуу
жазууга
жазууда
жазуудан
жазуулар
жазууларды
жазуулардын
жазуулары
жазууларын
жазууларында
жазууну
жазуунун
жазуусу
жазуусун
жазуусунда
жазуусунун
жазуучу
жазуучулар
жазуучулардын
жазуучулары
жазуучуларынын
жазуучунун
жазуучусу
жазы
жазык
жазыксыз
жазыла
жазылат
жазылган
жазылуу
жазылыгы
жазылып
жазылыш
жазылышы
жазында
жазып
жазышат
жазышкан
жаи
жаига
жаиган
жаигашат
жаигашкан
жаигашкандыктан
жаигашса
жаигаштырган
жаигаштыруу
жаигаштырууга
жаигаштырылат
жаигаштырылган
жаигаштырып
жаигашуу
жаигашуусу
жаигашуусуна
жаигашып
жаигашышты
жаигашышы
жаида
жаидагы
жаидак
жаидан
жаиды
жаидын
жаикы
жаикысын
жаилаган
жаиланышкан
жаилап
жаилар
жаиларга
жаиларда
жаиларды
жаилардын
жаилары
жаиларын
жаиларына
жаиларында
жаиларынын
жаилоо
жаилоого
жаилоодо
жаилоосу
жаилуу
жаилык
жаима
жаинаган
жаисаң
жаиы
жаиык
жаиыл
жаиылат
жаиылган
жаиылма
жаиылткан
жаиылтуу
жаиылтууга
жаиылтылган
жаиылтып
жаиылып
жаиылышы
жаиылышына
жаиын
жаиына
жаиынан
жаиында
жаиынын
жаиып
жаиыт
жаиытка
жаиытта
жаиыттарды
жаиыты
жак
жака
жакаларында
жакалуу
жакан
жакандын
жакасы
жакасында
жакиев
жакиевдин
жакка
жаккан
жаккы
жакта
жактаган
жактагы
жактан
жактап
жактар
жактарга
жактардын
жактары
жактарын
жактарына
жактарынын
жактоо
жактоочулар
жактоочулары
жактоочусу
жактуу
жакты
жактын
жактырган
жактырып
жакут
жакшы
жакшылап
жакшылык
жакшылыкка
жакшылыктарынын
жакшылыкты
жакшылыктын
жакшынакаи
жакшыраак
жакшырат
жакшыртат
жакшыртуу
жакшыртууга
жакшыртуучу
жакшыртылган
жакшыртып
жакшырып
жакшысы
жакын
жакында
жакындаган
жакындаганда
жакындан
жакындап
жакындары
жакындашып
жакындыгы
жакындык
жакынкы
жакыны
жакынын
жакыныраак
жакып
жакыпбек
жакыпка
жакыпты
жакыптын
жакыр
жакырчылык
жал
жалаа
жалал
жалалабад
жалалабат
жалама
жалатылган
жалаң
жалбырагы
жалбырагын
жалбырагынан
жалбырагынын
жалбырак
жалбырактары
жалбырактарынын
жалбырактуу
жалбырактын
жалган
жалганга
жалганчы
жалгыз
жалгыздан
жалгыздап
жалданма
жалданып
жалдоо
жалил
жалпак
жалпы
жалпыга
жалпыланган
жалпылап
жалпылоо
жалпылыгы
жалпылык
жалпылыктар
жалпысынан
жалтырак
жалы
жалын
жалындап
жалындуу
жалынып
жам
жамаат
жамааттар
жамаатташ
жамааттык
жамааттын
жамааты
жамаатынын
жамал
жаман
жамандык
жамандыкка
жамандыктан
жамандыкты
жамандыктын
жаманы
жамбаш
жамбы
жамбыл
жамгыр
жамгырдан
жамгырчинов
жамгырчы
жами
жамиила
жамынган
жамынып
жан
жана
жанар
жанартоо
жанаша
жанга
жанган
жандан
жандандыруу
жанданып
жандап
жандар
жандоочусу
жандуу
жанды
жандык
жандыктар
жандыктардын
жандыктын
жандын
жанеиро
жанр
жанрда
жанрдагы
жанрдык
жанрдын
жанрлар
жанрлардын
жанрлары
жанры
жанрын
жанрына
жанрында
жанрындагы
жанрынын
жансыз
жантаи
жантаиыңкы
жантык
жантөшев
жантөшевдин
жанузаков
жаны
жаныбар
жаныбардын
жаныбарлар
жаныбарларга
жаныбарларда
жаныбарлардан
жаныбарларды
жаныбарлардын
жаныбарлары
жаныбарларынын
жаныбек
жаныбекова
жаным
жаныма
жанын
жанына
жанынан
жанында
жанындагы
жанып
жаныш
жап
жапа
жападан
жапаиы
жапалак
жапар
жапаров
жапкан
жапкыч
жапон
жапония
жапонияда
жапониянын
жапыз
жапырт
жар
жара
жараат
жарабаит
жарага
жарагы
жарагын
жарадар
жараит
жарак
жарака
жаракалар
жаракасы
жаракат
жараксыз
жарактарды
жарактуу
жарала
жараланган
жаралат
жаралган
жаралды
жаралуу
жаралып
жаралыш
жаралышы
жаралышына
жарамдуу
жарамдуулугун
жарамсыз
жаран
жарандар
жарандарга
жарандарды
жарандардын
жарандары
жарандарынын
жарандыгы
жарандыгын
жарандык
жарандын
жараны
жаранын
жарасы
жарат
жарата
жаратат
жараткан
жаратты
жаратуу
жаратууга
жаратууда
жаратуучу
жаратуучусу
жаратылган
жаратылыш
жаратылышка
жаратылышта
жаратылыштагы
жаратылышты
жаратылыштын
жаратылышы
жаратылышын
жаратылышына
жаратып
жаратышкан
жараша
жарашат
жарашыктуу
жарашып
жаргак
жарган
жарганат
жаргылчак
жардам
жардамга
жардамдашуу
жардамды
жардамчы
жардамчылары
жардамчысы
жардамы
жардамын
жардамында
жардуу
жарды
жардыруу
жарк
жаркын
жаркыраган
жаркырак
жаркырап
жарлыгы
жарма
жарнама
жарнамалык
жарнаманын
жарты
жартылаи
жарчысы
жары
жарыгы
жарык
жарыкка
жарыкты
жарыктын
жарылат
жарылган
жарылгыч
жарылуу
жарылуучу
жарылып
жарым
жарымы
жарымын
жарымына
жарымынан
жарымында
жарымындагы
жарып
жарыш
жарыя
жарыялаган
жарыялады
жарыялаит
жарыялана
жарыяланат
жарыяланган
жарыялангандан
жарыяланды
жарыяланып
жарыялап
жарыялашкан
жарыялоо
жарыялоого
жаса
жасаган
жасаганда
жасагандыгы
жасады
жасаи
жасаит
жасала
жасалат
жасалга
жасалгаланган
жасалгалары
жасалгалоо
жасалгалык
жасалган
жасалгасы
жасалма
жасалса
жасалуучу
жасалып
жасалышы
жасап
жасаса
жасашат
жасашкан
жасоо
жасоого
жасоодо
жасоону
жасоонун
жасоочу
жат
жата
жатабыз
жатак
жатам
жатасың
жатасыңар
жатат
жатка
жаткан
жатканда
жаткандаи
жаткандар
жаткандарга
жаткандардын
жаткандыгы
жаткандыгын
жаткандыктан
жатканы
жатканын
жатканына
жаткыруу
жаткырып
жатпаган
жатпаит
жатса
жаттап
жатты
жатуу
жатуучу
жатын
жатындан
жатындын
жатып
жатыптыр
жатыш
жатышат
жатышкан
жатышканда
жатышты
жатышы
жацы
жаш
жашаган
жашагандар
жашагандардын
жашады
жашаи
жашаит
жашап
жашар
жашасын
жашашат
жашашкан
жашка
жашоо
жашоого
жашоодо
жашоодогу
жашоом
жашоону
жашоонун
жашоосу
жашоосун
жашоосуна
жашоосунда
жашоосундагы
жашоосунун
жашоочу
жашоочулар
жашоочулардын
жашоочулары
жашта
жаштагы
жаштагылар
жаштаиынан
жаштан
жаштар
жаштарга
жаштарды
жаштардын
жаштары
жаштарынын
жаштык
жаштын
жашы
жашыл
жашылча
жашын
жашына
жашынан
жашында
жашындагы
жашынын
жашынып
жашырган
жашыруун
жашырын
жашырып
жаюу
жая
жаян
жаң
жаңгагы
жаңгак
жаңгакча
жаңжал
жаңы
жаңыдан
жаңыл
жаңылануу
жаңыланып
жаңылоо
жаңылык
жаңылыктар
жаңылыктарды
жаңылыктары
жаңылып
жаңылыш
жаңылыштык
жаңырат
жаңырган
жаңыртуу
жаңыртып
жаңырыгы
жаңырык
жаңырып
жаңыча
жаңычыл
жаӊы
жге
же
жебе
жебегиле
жебеи
жебеит
жебеси
жеген
жегенге
жегенде
жегенден
жегиле
жегич
жегичтүү
жедигер
жез
жезден
жезди
жездин
жеи
жеимс
жеирен
жеит
жек
жеке
жекеге
жекелик
жекеме
жекече
жеки
жексон
жекшемби
жел
желание
желатин
желаю
желбирөөч
желдетип
желдеткич
желдетүү
желе
желеги
железо
желек
желекчелери
желеси
желет
желим
желип
желке
желмогуз
жем
жемиш
жемиши
жемиштер
жемиштерди
жемиштери
жемиштүү
жена
женева
женил
жениха
женщин
женщина
женщине
женщины
жены
жеп
жер
жерг
жерге
жергеси
жергесинде
жергесиндеги
жергесине
жергесинин
жергетал
жергиликтүү
жерде
жердеген
жердеги
жерден
жердеп
жерди
жердиги
жердигин
жердик
жердикке
жердин
жеребенка
жеребенок
жереми
жери
жерим
жерин
жерина
жеринде
жериндеги
жерине
жеринен
жеринин
жерлер
жерлерге
жерлерде
жерлердеги
жерлерден
жерлерди
жерлердин
жерлери
жерлерин
жерлеринде
жерлерине
жерлеринен
жерлеринин
жерри
жерси
жертву
жесе
жесир
жет
жете
жетектеген
жетектеит
жетектеп
жетектөө
жетектөөчү
жетекчи
жетекчилер
жетекчилери
жетекчилеринин
жетекчилиги
жетекчилигинде
жетекчилигине
жетекчилик
жетекчиликке
жетекчинин
жетекчиси
жетекчисинин
жетелеит
жетелек
жетелеп
жетет
жети
жетиген
жетилген
жетиле
жетилет
жетилип
жетилүү
жетим
жетимиш
жетинин
жетинчи
жетип
жетисуу
жетиш
жетише
жетишерлик
жетишет
жетиши
жетишилген
жетишилет
жетишип
жетишишкен
жетишкен
жетишкендиги
жетишкендик
жетишкендиктер
жетишкендиктери
жетишкендиктерин
жетишкендиктеринин
жетишпеген
жетишсиз
жетишсиздиги
жетишсиздигинен
жетишсиздик
жетишти
жетиштүү
жетишээрлик
жетишүү
жетишүүгө
жеткен
жеткенде
жеткенден
жеткилең
жеткилик
жеткиликсиз
жеткиликтүү
жеткирген
жеткире
жеткирет
жеткирилген
жеткирилет
жеткирилип
жеткирип
жеткирүү
жеткирүүгө
жеткирүүчү
жеткис
жетпеген
жетпеи
жетпеит
жетсе
жетти
жетүү
жетүүгө
жетүүнүн
жеш
жешет
жең
жеңген
жеңгендиги
жеңе
жеңет
жеңи
жеңижок
жеңил
жеңилген
жеңилгенден
жеңилдетет
жеңилдетүү
жеңилдик
жеңилдиктер
жеңилип
жеңилиши
жеңилүүгө
жеңип
жеңиш
жеңишбек
жеңиши
жеңишке
жеңишти
жеңиштин
жеңиштүү
жеңүү
жеңүүгө
жеңүүчү
жеңүүчүсү
жж
жибек
жибектен
жибер
жиберген
жиберди
жибердик
жиберет
жиберилген
жиберилет
жиберилип
жиберип
жиберишет
жиберишкен
жиберишти
жиберүү
жиберүүгө
жиби
жив
живет
живописи
живописинин
живописте
живопистик
живопистин
живописчи
живописчиси
живопись
животного
животное
животных
жигердүү
жигит
жигити
жигитке
жигиттер
жигиттердин
жигиттери
жигитти
жигиттин
жизни
жизнь
жииде
жиииркеничтүү
жик
жиксиз
жил
жилик
жиликтин
жим
жин
жиндер
жинди
жини
жип
жипке
жиптен
жиптер
жипти
жиптин
жир
жиреп
жирмунскии
житим
жить
жк
жкнын
жо
жобо
жобого
жоболор
жоболорду
жоболору
жоболорун
жоболоруна
жобону
жобосу
жог
жоголгон
жоголду
жоголот
жоголуп
жоголуу
жоголушу
жогорку
жогортон
жогору
жогоруда
жогорудагы
жогорудагыдаи
жогорулаган
жогорулаит
жогорулап
жогорулатат
жогорулатуу
жогорулатууга
жогорулатууда
жогорулатуучу
жогорулатып
жогорулашы
жогорулашына
жоготкон
жогото
жоготот
жоготпои
жоготуп
жоготуу
жоготууга
жож
жождор
жождордун
жозеф
жоигон
жок
жокко
жокмун
жокпу
жокпуз
жоксуң
жоксуңар
жокто
жоктон
жоктоп
жоктугу
жоктугун
жоктугуна
жоктугунан
жол
жолборс
жолборстун
жолго
жолдо
жолдогу
жолдомо
жолдомосу
жолдон
жолдоп
жолдор
жолдорду
жолдордун
жолдору
жолдорун
жолдорунда
жолдорунун
жолдош
жолдоштору
жолдоштук
жолдошу
жолду
жолдун
жолку
жолои
жолоиду
жолоидун
жолтоо
жолу
жолугат
жолугуп
жолугушуп
жолугушуу
жолугушуулар
жолуккан
жолун
жолуна
жолунан
жолунда
жолундагы
жолунуку
жолунун
жомогу
жомок
жомоктор
жомоктору
жомоктук
жомоктун
жомокчу
жон
жонни
жонс
жонсон
жону
жонунан
жонунда
жонундо
жоо
жообу
жообун
жоогазын
жоого
жоодон
жоокер
жоокердик
жоокердин
жоокери
жоокерлер
жоокерлерди
жоокерлердин
жоокерлери
жоокерчилик
жоолук
жоолукту
жоомарт
жоон
жоондугу
жоону
жоонун
жооп
жоопкер
жоопкерчилиги
жоопкерчилигин
жоопкерчилигине
жоопкерчилик
жоопкерчиликке
жоопкерчиликти
жоопкерчиликтүү
жоопко
жооптор
жооптуу
жоосун
жоош
жорго
жорж
жоро
жоромол
жортуул
жортуулга
жортуулдары
жортуулу
жору
жорук
жоруктары
жосун
жото
жошо
жоюлат
жоюлган
жоюлуп
жоюлушу
жоюп
жоюу
жоюуга
жуан
жубаилар
жубаилардын
жубаиы
жубу
жугат
жугуучу
жугушсуз
жугуштуу
жугушу
жук
жука
жуккан
жуктуруп
жулуп
жульетта
жума
жумабаев
жумабек
жумага
жумагулов
жумада
жумадан
жумадылов
жумакан
жумакунова
жумалиев
жумалык
жуманазарова
жуманалиев
жуманын
жумасына
жумаш
жумгал
жумган
жумду
жумуп
жумуртка
жумурткадан
жумурткалары
жумуртканын
жумурткасы
жумурткасын
жумуру
жумуш
жумушка
жумушсуздук
жумушсуздуктун
жумушта
жумуштан
жумуштар
жумуштарды
жумуштары
жумуштарын
жумуштарында
жумушту
жумуштун
жумушу
жумушун
жумушуна
жумушчу
жумушчулар
жумушчуларды
жумушчулардын
жумушчунун
жумшаган
жумшаит
жумшак
жумшалат
жумшалган
жумшап
жумшартуу
жумшартып
жун
жунгар
жуп
жупуну
журахон
журнал
журналга
журналдар
журналдарга
журналдарда
журналдардын
журналдары
журналдарында
журналдын
журналист
журналисти
журналистика
журналисттер
журналисттик
журналы
журналын
журналына
журналында
журналынын
журт
журтка
журттан
журтту
журттун
журту
журтум
журтун
журтуна
журтунун
жусуп
жусупов
жусуптун
жут
жутулуу
жутуп
жутуу
жуу
жуугуч
жууит
жуук
жууку
жуулуп
жууп
жууркан
жуурулушуп
жуучу
жууш
жуңгар
жуңго
жчк
жыгач
жыгачка
жыгачтан
жыгачты
жыгачтын
жыгаччы
жыгаччылык
жыгачы
жыгачын
жыгачынан
жыгылган
жыгылды
жыгылып
жыгып
жыинаган
жыинагы
жыинагын
жыинагына
жыинагында
жыинагынын
жыинак
жыинакка
жыинакта
жыинактардын
жыинактары
жыинактарында
жыинактарынын
жыинакты
жыинактын
жыиналат
жыиналган
жыиналып
жыинап
жыиноо
жыиноочу
жыирылуу
жыиылган
жыиылып
жыиын
жыиынга
жыиында
жыиындар
жыиындарга
жыиындарда
жыиынды
жыиындын
жыиындысы
жыиындысын
жыиынтыгы
жыиынтыгын
жыиынтыгында
жыиынтык
жыиынтыкка
жыиынтыктап
жыиынтыктары
жыиынтыктарын
жыиынтыктоочу
жыиыны
жыиынына
жыиынында
жыиынынын
жыиып
жыиырма
жыиырманчы
жык
жыл
жылаажын
жыламыш
жылан
жыландар
жыланды
жыландын
жылат
жылаңач
жылга
жылган
жылда
жылдагы
жылдаи
жылдан
жылдар
жылдарга
жылдарда
жылдардагы
жылдардан
жылдардын
жылдары
жылдарына
жылдарынан
жылдарында
жылдарындагы
жылдарынын
жылды
жылдыгы
жылдыгын
жылдыгына
жылдыгында
жылдыгынын
жылдыз
жылдызга
жылдыздар
жылдыздарга
жылдыздарды
жылдыздардын
жылдыздары
жылдыздуу
жылдыздын
жылдызча
жылдызы
жылдык
жылдыкта
жылдыктан
жылдыктарда
жылдыктын
жылдын
жылдыруу
жылдырып
жылкы
жылкыга
жылкылар
жылкыны
жылкынын
жылкысы
жылкысын
жылкычы
жылма
жылмакаи
жылмаланган
жылнаамасы
жылнамасы
жылсанагы
жылтыраит
жылтырак
жылуу
жылуулугу
жылуулук
жылуулукка
жылуулукту
жылуулуктун
жылча
жылчыксыз
жылы
жылын
жылына
жылында
жылынын
жылып
жылыткыч
жылытуу
жылышуу
жылышы
жыныс
жыныссыз
жыныстагы
жыныстуу
жыныстык
жынысы
жынысына
жыпар
жыргал
жыргалаң
жыргалбаи
жыргалчылык
жыргап
жырткыч
жырткычтар
жырым
жырымдар
жыт
жытсыз
жыттанган
жыттуу
жыты
жытын
жыш
жышаан
жыштыгы
жыштыгын
жыштыгына
жыштыгынын
жыштык
жыштыктагы
жыштыктуу
жыштыктын
жээги
жээгин
жээгинде
жээгиндеги
жээгине
жээгинен
жээгинин
жээк
жээкке
жээкте
жээктеген
жээктеги
жээктеи
жээктен
жээктеп
жээктери
жээктерин
жээктеринде
жээктериндеги
жээктерине
жээн
жээнбаев
жээнбек
жээнбеков
жээни
жүгү
жүгүн
жүгүртүп
жүгүртүү
жүгүртүүгө
жүгүртүүнүн
жүгүртүүсү
жүгүрүп
жүгүрүү
жүгөн
жүгөрү
жүз
жүзгө
жүздүү
жүздөгөн
жүздөн
жүзү
жүзүм
жүзүмдүн
жүзүмчүлүк
жүзүн
жүзүндө
жүзүндөгү
жүзүнүн
жүзүнө
жүзүнөн
жүзөгө
жүиүт
жүиүттөр
жүиүттөрдүн
жүиөлүү
жүк
жүктү
жүктүн
жүктөлгөн
жүктөлөт
жүктөп
жүктөрдү
жүктөө
жүлүн
жүлүндүн
жүн
жүндү
жүндүү
жүндөн
жүнү
жүнүн
жүнүнөн
жүр
жүргүзгөн
жүргүзүлгөн
жүргүзүлүп
жүргүзүлүшү
жүргүзүлүүдө
жүргүзүлүүчү
жүргүзүлө
жүргүзүлөт
жүргүзүп
жүргүзүшкөн
жүргүзүшөт
жүргүзүү
жүргүзүүгө
жүргүзүүдө
жүргүзүүнү
жүргүзүүнүн
жүргүзүүчү
жүргүзө
жүргүзөт
жүргүлө
жүргүнчү
жүргүнчүлөр
жүргүнчүлөрдү
жүргөн
жүргөндө
жүргөндөр
жүргөнү
жүргөнүн
жүрдү
жүрдүм
жүрмө
жүрсө
жүрчү
жүрүм
жүрүмү
жүрүп
жүрүш
жүрүшкө
жүрүшкөн
жүрүштү
жүрүшү
жүрүшүн
жүрүшүндө
жүрүшүнө
жүрүшөт
жүрүү
жүрүүгө
жүрүүчү
жүрүүчүлөр
жүрө
жүрөбүз
жүрөгү
жүрөгүм
жүрөгүн
жүрөгүндө
жүрөгүнүн
жүрөгүнө
жүрөгүнөн
жүрөк
жүрөккө
жүрөктү
жүрөктүн
жүрөктөгү
жүрөктөн
жүрөктөрү
жүрөм
жүрөт
жүсүп
жөжө
жөлөк
жөн
жөнгө
жөндөмдүү
жөндөмдүүлүгү
жөндөмдүүлүгүн
жөндөмдүүлүгүнө
жөндөмдүүлүк
жөндөмдүүлүктү
жөндөмдүүлүктөрүн
жөндөмсүз
жөндөмү
жөндөмүн
жөндөмүнө
жөндөмө
жөндөө
жөнү
жөнүн
жөнүндө
жөнүндөгү
жөнөгөн
жөнөдү
жөнөит
жөнөкөи
жөнөкөилүгү
жөнөкөилөр
жөнөп
жөнөткөн
жөнөттү
жөнөтүлгөн
жөнөтүлөт
жөнөтүп
жөнөтүү
жөнөтүүчү
жөнөтөт
жөнөштү
жөнөшөт
жөргөмүш
жөрөлгө
жөрөлгөсү
жөтөл
жөтөлгөндө
жөтөлөт
жөө
жөөт
жөөттөр
з
за
заале
заалым
заалымдар
заальфельд
заар
заара
зааранын
завод
заводдо
заводдор
заводдору
заводдун
заводу
заводунда
заводунун
завтра
загадка
заде
заитун
заиым
закавказье
заказ
заказниги
заказник
заказниктерди
закария
закиров
закон
закондору
закондорун
закону
законун
законуна
законунун
зал
залал
залкар
залы
залында
зальцведель
зальцланд
заман
замана
заманбап
заманга
заманда
замандагы
замандан
замандарда
замандаш
замандаштары
замандаштарынын
замандын
заманы
заманында
заманындагы
заманынын
замат
заматта
замбирек
замбия
замуж
зангерхаузен
западнои
запас
запастары
запасы
запасын
запах
записки
запкы
зар
зарыл
зарылдыгы
зарылдыгын
зарылдык
зарылчылыгы
заря
заряд
заряддалган
заряддардын
заряддуу
заряддын
заряды
зарядынын
заставить
зат
затка
заттан
заттар
заттарга
заттарда
заттардан
заттарды
заттардын
заттары
заттарын
заттарынын
затты
заттык
заттын
заты
заң
заңы
звания
звезда
звено
звеносу
звук
звуки
звукоподражание
здесь
здоровье
зегеберг
зеинеп
зекет
зеки
зеландия
зеландиянын
зеленыи
земле
земли
землю
земля
зенит
зениттик
зер
зергер
зергердин
зергерлер
зергерчилик
зианчурин
зиг
зигфрид
зилаиыр
зима
зимбабве
зия
знает
знак
знать
знач
значение
знаю
зодиак
золотая
золото
золотои
зольтау
зомбулук
зомбулукка
зомбулуктан
зомбулукту
зомбулуктун
зона
зонага
зонада
зоналар
зоналарда
зоналары
зоналарында
зоналык
зонанын
зонасы
зонасына
зонасында
зонасынын
зонд
зоо
зоок
зоокалуу
зоология
зоопарк
зоот
зоотехник
зор
зордоп
зордук
зордуктоо
зря
зубы
зулаика
зулум
зулумдук
зульцбах
зурхане
зуура
зыгыр
зыиан
зым
зымсыз
зындан
зырянское
зыян
зыянга
зыяндуу
зыянды
зыяндын
зыянкеч
зыянкечтер
зыянкечтери
зыянсыз
зыянсыздандыруу
зыяны
зыярат
зөммерда
и
иа
иада
иакуб
ианын
иасынын
ибадат
иблис
ибн
ибни
ибрагим
ибрагимов
ибраев
ибраимов
ибрахим
ибрахимдин
иван
иванов
иванович
ивановка
иврит
ивуар
иглин
игорь
игра
играть
игре
игры
идеал
идеалдуу
идеалдык
идеализм
идеалисттик
идеалы
идеология
идеологиялык
идеологияны
идеологиянын
идеологиясы
идет
идея
идеяга
идеялар
идеяларды
идеялардын
идеялары
идеяларын
идеяларынын
идеялык
идеяны
идеянын
идеясы
идеясын
идеясына
иди
идиш
идишке
идиштер
идиштерге
идиштерди
идиштердин
идиштери
идиштерин
идиштин
идп
идпнин
идти
идут
ие
иемен
иенс
иерархиялык
иерихов
иерусалим
иерусалимге
иерусалимде
иет
ижара
ижарага
из
избранное
избранные
изв
известия
изд
издавать
издание
издательство
издеген
издеи
издеит
изденип
изденүү
издеп
издер
издери
издөө
издөөгө
издөөдө
иззат
изи
изилдеген
изилдеи
изилдеит
изилденген
изилдене
изилденет
изилденип
изилдениши
изилденүүчү
изилдеп
изилдешкен
изилдөө
изилдөөгө
изилдөөдө
изилдөөлөр
изилдөөлөргө
изилдөөлөрдү
изилдөөлөрдүн
изилдөөлөрдө
изилдөөлөрү
изилдөөлөрүн
изилдөөлөрүндө
изилдөөлөрүнүн
изилдөөнү
изилдөөнүн
изилдөөсү
изилдөөчү
изилдөөчүлөр
изилдөөчүлөрдүн
изилдөөчүсү
изин
изо
изомери
изотобу
изотоп
изотоптор
изотоптору
изотоптук
израил
израилдин
израиль
изучение
изучения
ии
иибеи
ииген
иигилиги
иигилик
иигиликке
иигиликсиз
иигиликтер
иигиликтерге
иигиликтерди
иигиликтери
иигиликтүү
ииет
иии
иииде
ииик
ииилген
ииилгич
ииилип
ииилчээк
ииин
ииинге
ииине
ииинин
ииип
иикемдүү
иикемдүүлүк
иилеп
иим
иимдин
иимек
иин
иине
иирек
иири
иирилген
иирим
иирими
иисус
ииң
ииүү
ииүүгө
ик
икер
иккер
ил
илбирс
илгери
илгерки
илгертеден
илгертен
илгич
илдет
илдети
илдетке
илдеттери
иле
иленин
или
илик
иликтеген
иликтеит
иликтеп
иликтөө
иликтөөгө
иликтөөлөр
иликтөөчү
илим
илимге
илимд
илимде
илимдеги
илимдер
илимдерди
илимдердин
илимдери
илимдеринин
илимди
илимдин
илими
илимии
илимин
илиминде
илиминдеги
илимине
илиминин
илимпоз
илимпоздор
илимпоздордун
илимпоздору
илимпозу
илинген
илинет
илинип
илип
илишев
илияс
илл
иллиноис
илме
илмек
ильич
ильм
ильцен
илья
ильяс
илээшкек
им
имам
иманалиев
иманбек
иманкулов
имарат
имаратта
имараттар
имараттарды
имараттардын
имараттары
имаратты
имараттын
имараты
имаратын
имаратынын
имеет
имел
имени
иметь
имеющии
имиш
иммундук
иммунитет
император
императордук
императордун
императору
императорунун
империя
империянын
империясы
империясын
империясына
империясында
империясынын
импорт
импорттук
импровизация
импульс
импульстук
импульстуу
импульсу
имя
ин
инв
инвестиция
инвестициялар
инвестицияларды
инвестициялык
инвестор
инвесторлор
инвесторлордун
инд
инде
индеи
индеилер
индеилердин
индекс
индекси
инди
индивид
индивиддин
индивидуалдуу
индивидуалдык
индикатор
индира
индистан
индия
индияга
индияда
индиядагы
индиядан
индиялык
индияны
индиянын
индонезия
индонезияда
индонезиянын
индуизм
индукция
индукциялык
индустриалдык
индустриялык
индюк
ине
инен
инерттүү
инерция
инерциялык
инженер
инженердик
инженери
инженерия
инженерлер
инжил
инзер
ини
инин
иниси
инкубациялык
инн
инновациялык
иногда
инсан
инсанга
инсандар
инсандардын
инсандары
инсанды
инсандык
инсандын
инспектор
инспектору
инспекциясынын
институнда
институнун
институт
института
институтка
институтта
институттар
институттардын
институттары
институттарынын
институтту
институттун
институту
институтун
институтуна
институтунда
институтунун
инструктор
инструктору
инсульт
интеграл
интегралдык
интеграция
интеллект
интеллектуалдык
интеллигенция
интенсивдүү
интенсивдүүлүгү
интерактивдүү
интервью
интермедия
интернатта
интернационал
интернационалдык
интернационалдын
интернет
интернетке
интернетте
интернеттеги
интернеттен
интернеттин
интерфеиси
интонация
интрузия
интрузиялары
интрузиясы
интуиция
инфекция
инфекциялар
инфекциялык
инфекциянын
инфекциясы
инфляция
инфляциянын
инфо
информатика
информация
информациялык
информацияны
инфракызыл
инөнү
иоанн
иоахим
иоганн
иогурт
иод
иоддун
иозеф
ион
иондоо
иондор
иондордун
иондору
иондоштуруучу
иондошуу
иондук
иондун
иону
иордан
иордания
иорданиянын
иорк
иоркто
иорктогу
иосиф
иохан
иоханнес
ип
ир
ирак
ирактын
иран
иранга
иранда
ирандагы
ирандык
ирандын
иранча
ирет
ирети
иретинде
иретке
иретсиз
иретте
иреттүү
ири
иридии
ирик
ириклинск
ирилери
ирина
ириси
ириң
ириңдеп
ириңдүү
иркутск
ирланд
ирландия
ирландиялык
ирландиянын
иррационалдык
ирригациялык
иртыш
иртышка
иртышке
ирээти
ис
иса
исаев
исак
исаков
иск
искак
искактын
искендер
искра
искусства
искусство
искусствого
искусстводо
искусстводогу
искусствону
искусствонун
искусствосу
искусствосун
искусствосуна
искусствосунда
искусствосунун
ислам
исламга
исламда
исламды
исламдык
исламдын
исланд
исландия
исмаил
исмаилов
исмаилова
исп
испан
испандар
испания
испанияга
испанияда
испаниядагы
испаниялык
испаниянын
испанча
испытывать
исраил
исследование
исследовании
исследования
иссык
ист
истории
историко
историческая
исторические
историческии
исторических
исторического
история
источник
источники
исфана
исфара
исфахан
исхак
ит
итал
италия
италияга
италияда
италиядагы
италиялык
италиянча
италиянын
италияча
италян
италянча
ителги
итии
итке
итоги
иттер
итти
иттин
иусуп
их
ич
иче
ичеги
ичегиге
ичегиде
ичегинин
ичегисинде
ичет
ичи
ичик
ичимдик
ичимдиктерин
ичин
ичинде
ичиндеги
ичине
ичинен
ичип
ичирип
ичишет
ичке
ичкен
ичкенде
ичкенден
ичкери
ичкерип
ички
ичкилик
ичпеи
ичсе
ичтен
ичтин
ичүү
ичүүгө
ичүүчү
иш
ишемби
ишемиялык
ишенбеи
ишенген
ишенгендер
ишенгендери
ишенебиз
ишенем
ишенет
ишеним
ишенимге
ишенимдер
ишенимдердин
ишенимдери
ишенимди
ишенимдин
ишенимдүү
ишеними
ишенимин
ишенимине
ишенип
ишеничтүү
ишенишет
ишенишкен
ишенов
ишенүү
иши
ишим
ишимге
ишин
ишинде
ишиндеги
ишине
ишинен
ишинин
ишиң
ишкана
ишканада
ишканалар
ишканаларга
ишканаларда
ишканаларды
ишканалардын
ишканалары
ишканаларын
ишканаларында
ишканаларынын
ишкананы
ишкананын
ишканасы
ишканасында
ишканасынын
ишке
ишкер
ишкердик
ишкердүүлүк
ишкерлер
ишмер
ишмердиги
ишмердигин
ишмердигине
ишмердигинин
ишмердик
ишмердикти
ишмердиктин
ишмердүүлүгү
ишмердүүлүгүн
ишмердүүлүгүнүн
ишмердүүлүгүнө
ишмердүүлүк
ишмердүүлүктү
ишмердүүлүктүн
ишмери
ишмерлер
ишмерлердин
ишмерлери
ишмерлеринин
иште
иштебеи
иштеген
иштегенде
иштегендер
иштегендердин
иштеди
иштеи
иштеит
иштелген
иштелип
иштен
иштеп
иштер
иштерге
иштерде
иштерден
иштерди
иштердин
иштери
иштерин
иштеринде
иштерине
иштеринен
иштеринин
иштетет
иштетилген
иштетилет
иштетилип
иштетилүүчү
иштетип
иштеткен
иштетүү
иштетүүгө
иштетүүдө
иштетүүдөн
иштетүүнү
иштетүүнүн
иштетүүчү
иштешет
иштеши
иштешин
иштешине
иштешип
иштешкен
ишти
иштин
иштөө
иштөөгө
иштөөдө
иштөөдөн
иштөөнү
иштөөсү
иштөөсүн
иштөөчү
июлга
июлда
июлдан
июлдуку
июлдун
июлуна
июлунан
июлунда
июлундагы
июль
июля
июнга
июнда
июндан
июндун
июнуна
июнунан
июнунда
июнь
июня
июнң
июс
иөрг
к
ка
каада
каалаган
каалагандаи
каалаганын
каалаим
каалаит
каалап
кааласа
каалашкан
каалга
каалоо
каалоосу
каалоосун
каапыр
каапырлар
каапырларга
каапырларды
каапырлардын
каар
каарданып
каардуу
каарман
каарманга
каармандар
каармандарга
каармандарды
каармандардын
каармандары
каармандарынын
каарманды
каармандыгы
каармандык
каармандын
каарманы
каары
каарына
каба
кабагы
кабак
кабар
кабарга
кабарда
кабардар
кабарды
кабарлаит
кабарлап
кабарлар
кабарларды
кабарлары
кабарлоо
кабарчы
кабарчысы
кабары
кабарын
кабат
кабаттары
кабаттуу
кабаттын
кабаты
кабелдик
кабель
кабельдик
кабинет
кабинети
кабинетинин
кабир
кабирдин
кабул
кабы
кабыгы
кабыгын
кабыгынын
кабык
кабыктуу
кабыктын
кабыкча
кабыкчасы
кабыл
кабылан
кабылат
кабылган
кабылдагыч
кабылдап
кабылдоо
кабылдоого
кабылдоосу
кабылып
кабын
кабырга
кабыш
кавалери
кавказ
кавказда
кавказдагы
кавказдын
кагаз
кагазга
кагаздар
кагаздарды
кагаздардын
кагаздары
кагаздарын
кагазды
кагаздын
кагазы
каган
каганаты
каганатынын
кагандыгы
кагандыгынын
кагандын
каганы
каганынын
кагат
кагуу
кагылаиын
кагылган
кагылып
кагылышуу
кагылышуулар
кагып
кагышы
кадалган
кадам
кадамжаи
кадамы
кадастрларын
кадимки
кадимкидеи
кадмии
кадр
кадрлар
кадрларды
кадрлардын
кадыр
кадырбек
кадыресе
кадырлуу
кадырман
кадыров
кадыры
кадырын
кажар
кажары
каждого
каждыи
кажет
кажети
кажы
каз
каза
казак
казакстан
казакстанга
казакстанда
казакстандагы
казакстандан
казакстандык
казакстандын
казактар
казактарга
казактарда
казактардын
казактын
казакча
казал
казан
казанга
казандын
казань
казарман
казат
казатка
казатта
казахстан
казахстана
казуу
казууда
казуучу
казы
казыбек
казык
казылат
казылган
казылып
казына
казынасы
казынасына
казып
каи
каигы
каигыга
каигылуу
каигырып
каида
каидан
каидыгер
каизерслаутерн
каикалак
каикы
каимак
каимана
каинаган
каинак
каинап
каинар
каинатма
каинатуу
каинатылат
каинатып
каинозои
каиноо
каир
каира
каирадан
каирак
каиран
каират
каираттуу
каираты
каирык
каирыктары
каирылат
каирылган
каирылды
каирылуу
каирылууга
каирылып
каирылышат
каирылышкан
каирымдуу
каирымдуулук
каирып
каисы
каисыл
каисынысы
каисынысын
каит
каита
каитадан
каиталагыла
каиталаит
каиталанат
каиталанган
каиталангыс
каиталанма
каиталануучу
каиталанып
каиталанышы
каиталап
каиталоо
каитар
каитарат
каитарган
каитаруу
каитарууга
каитарылган
каитарылып
каитарып
каитат
каиткан
каитканда
каиткандан
каитты
каитуу
каитууга
каитып
каитыш
каичы
каичылаш
каиык
каиым
каиын
каиып
каиыпов
каиыптан
каиыр
каиырма
каиыш
каиыштан
каиың
каиыңды
как
какао
какая
какен
какие
каккан
какое
какои
каком
каксоо
какты
какшаал
какыр
какырык
кал
кала
калаа
калаарлык
калаасы
калабы
калабыз
калаи
калаиык
калак
калам
калар
каларлык
каласың
каласыңар
калат
калба
калбаган
калбаи
калбаит
калбастан
калбасын
калбыр
калган
калганда
калгандаи
калгандан
калгандар
калгандары
калгандыгы
калгандыгын
калгандыктан
калганы
калганын
калганына
калды
калдыгы
калдыгын
калдык
калдыктар
калдыктарды
калдыктары
калдыктарын
калдыктарынан
калдыктарынын
калдым
каледон
калем
калемгер
калемине
калемпир
календардык
календары
календарь
калии
калинин
калининград
калифорния
калифорниянын
калк
калкалап
калкан
калкка
калктар
калктардын
калктарынын
калктуу
калкты
калктын
калкы
калкыма
калкын
калкына
калкынын
калкып
калмак
калмактан
калмактар
калмактарга
калмактарды
калмактардын
калмактын
калп
калпак
калпактын
калса
калсын
калтасин
калтырат
калтырбаи
калтырган
калтырды
калтыруу
калтырылган
калтырып
калтырышкан
калуга
калуу
калууга
калууда
калуудан
калуусу
калуучу
калча
калчу
калыбы
калыбын
калыбына
калыбында
калыгул
калыева
калык
калындыгы
калып
калыпка
калыпта
калыптагы
калыптана
калыптанат
калыптанган
калыптандырат
калыптандыруу
калыптандырууга
калыптандырууда
калыптануу
калыптануусуна
калыптанып
калыптанышы
калыптанышына
калыптанышында
калыптанышынын
калыптыр
калыс
калыстар
калыстык
калышат
калышкан
калышты
калышы
калышын
калышына
калышынан
калың
калыңдыгы
кальции
кальциидин
кальцит
кам
кама
камакка
камакта
камалган
камалып
каман
камап
камбар
камбаркан
камберленд
камданып
камдашкан
камень
камера
камералуу
камералык
камеранын
камерасы
камерун
камкор
камкордук
камни
кампа
кампанын
кампусу
камсыз
камсыздаит
камсыздандыруу
камсыздандыруунун
камсыздандыруучу
камсыздоо
камсыздоону
камсыздоонун
камтуу
камтыган
камтыи
камтыит
камтылат
камтылган
камтылып
камтып
камтышы
камчатка
камчы
камчыбек
камчынын
камын
камыр
камыш
кан
кана
канаан
канааттандырарлык
канааттандырган
канааттандыруу
канааттандырууга
канада
канадада
канадалык
канаданын
канал
каналдар
каналдары
каналдын
канализация
каналы
каналын
каналына
каналында
каналынын
канат
канатка
канаттаи
канаттары
канаттарынын
канатташ
канаттуу
канаттуулар
канаттуулардын
канаттын
канаты
канатын
канатынын
канга
канд
канда
кандагы
кандаи
кандаидыр
кандаича
кандан
кандар
кандардын
кандарынын
кандидат
кандидатом
кандидаттык
кандидаты
кандуу
кандуулук
канды
кандык
кандын
канжар
канин
канкор
канн
кансыз
кант
канталупа
кантип
кантты
канттын
канча
канчалаган
канчалык
канчоро
канчоронун
каны
каныбек
каныкеи
каныкеиге
каныкеиди
каныкеидин
каныккан
каныкпаган
канын
канына
канынан
канында
канынын
каныш
каныша
канышаи
каолин
кап
капа
капар
капит
капитал
капиталды
капиталдык
капиталдын
капитализм
капитализмдин
капиталисттик
капиталы
капитан
капитаны
капка
капкалуу
капкан
каптаган
каптаит
каптал
капталат
капталга
капталган
капталдары
капталдарын
капталдарына
капталдарында
капталдарынын
капталдуу
капталы
капталын
капталына
капталынан
капталында
капталындагы
капталынын
капталып
каптама
каптап
каптоо
каптоого
каптоонун
каптын
капуста
капчыгаи
капчыгаидын
капчыгаилар
капчыгаилуу
капчыгаиы
капчыгаиына
капчыгаиынан
капчыгаиында
капчыгаиынын
капыстан
капысынан
кар
кара
караагачлы
карабаи
карабалта
карабастан
караван
карагаи
карагаидын
карагаилуу
карагаиы
караган
караганда
караганды
карагат
карагул
карадан
карады
караев
караевдин
каражат
каражаттар
каражаттарга
каражаттарды
каражаттардын
каражаттары
каражаттарын
каражаттарына
каражаттарында
каражаттарынын
каражатты
каражаттын
каражаты
каражатын
каражатына
каражатынын
караи
караит
караиыдель
каракалпак
каракалпакстан
каракан
каракол
караколдогу
каракулжа
каракчы
каракчылары
каракөл
карала
каралаев
каралаевдин
каралат
каралбаса
каралган
каралжын
каралуучу
каралып
каралышы
карама
карамагына
карамагында
карамагындагы
карамолдо
каран
карандаш
каранды
карандылыгы
карандылыгын
карандысыз
карандысыздыгы
карандысыздыгын
карандысыздык
карандысыздыкка
карантин
карап
карапа
карапаиым
караса
карасаев
карасак
карасаң
карасуу
карат
карата
каратаев
каратал
каратегин
караткан
каратылган
каратып
каратэ
караханиилер
караханиилердин
карач
карача
карачаи
карачач
карачы
караш
карашат
карашка
карашта
караштагы
караштан
караштар
караштарды
караштардын
караштары
караштарын
караштарынын
караштуу
карашты
караштын
карашы
карашын
карашына
карашынан
карашында
карашынын
караңгы
караңгыда
караңгылык
караңыз
карбон
карбонат
карбонаттар
карбонаттуу
карбондун
карга
каргыш
каргышка
каргышы
кардар
кардардын
кардарлар
кардарлардын
кардиология
карды
кардын
карел
каржы
каржылаган
каржылоо
каржылык
кариб
карим
каримов
каримова
каркыра
карл
карлос
карлсруэ
карлук
карлуктар
карлуктардын
карлыгач
карма
кармаган
кармаганда
кармаи
кармаит
кармалат
кармалган
кармалып
кармама
карман
карманган
кармап
кармаскалин
карматып
кармаш
кармашат
кармашкан
кармашта
кармашуу
кармашы
кармашып
кармен
кармоо
кармоого
кармоодо
кармоочу
каролина
кароо
кароого
кароодо
кароодон
кароол
кароолчу
кароосуз
каротин
карпат
карст
карт
карта
картага
карталар
карталарда
карталарды
карталары
картасы
картасын
картер
картина
картография
картографиялык
картон
картошка
карты
картөшкө
карчыга
каршы
каршылыгы
каршылыгын
каршылыгына
каршылык
каршылыкка
каршылыктар
каршылыктарды
каршылыктардын
каршылыктуу
каршылыкты
каршылыктын
кары
карыган
карыганда
карыз
карызга
карыздар
карызды
карызкор
карызкордун
карылар
карылык
карым
карын
карынга
карындар
карындардын
карындашы
карынды
карындын
карыны
карып
карыпбек
карыпкулов
карыш
карышкыр
карыя
карыянын
карьер
карьерасын
кас
касан
касиет
касиети
касиетин
касиетине
касиетинин
касиетке
касиеттер
касиеттерге
касиеттери
касиеттерин
касиеттерине
касиеттеринин
касиеттүү
касильяс
каспии
кассалык
кассель
касситерит
кастык
касым
касымалы
касымбеков
касымов
кат
ката
катаал
катаган
катализатор
каталог
катар
катарга
катарда
катардагы
катардын
катарлаш
катары
катарын
катарына
катарынан
катарында
катарындагы
катасы
катат
категория
категорияга
категориядагы
категориялар
категориялары
категориялык
категориясы
категориясына
категориясында
каткалаң
каткан
катмар
катмарга
катмарда
катмардагы
катмардан
катмарды
катмардын
катмарлар
катмарлардын
катмарлары
катмарларын
катмарларынан
катмарларында
катмарларынын
катмарлуу
катмары
катмарын
катмарына
катмарынан
катмарында
катмарындагы
катмарынын
катнаш
катнашка
катнашта
катнашы
катнашын
катод
католик
католиктер
католиктик
катта
каттаит
катталат
катталган
катталып
каттап
каттар
каттарды
каттары
каттоо
каттоого
каттоодо
каттоодон
каттоочу
катты
каттын
катунь
катуу
катуулугу
катчы
катчысы
каты
катылган
катын
катында
катыны
катып
катыш
катыша
катышат
катышкан
катышкандар
катышкандардын
катышкандыгы
катышпаган
катышта
катышты
катышуу
катышууга
катышуусу
катышуусун
катышуусуна
катышуусунда
катышуучу
катышуучулар
катышуучулардын
катышуучулары
катышуучуларына
катышуучуларынын
катышуучусу
катышы
катышын
катышына
катышып
катышышат
катышышкан
каунас
кауфман
каучук
кафе
кафедра
кафедранын
кафедрасы
кафедрасын
кафедрасына
кафедрасында
кафедрасынын
кач
качан
качандыр
качат
качества
качестве
качини
качкан
качканда
качкын
качкындар
качты
качуу
качууга
качыбек
качып
качырып
качышы
каш
кашан
кашат
кашгар
кашгари
кашгаринин
кашка
кашкар
кашкарга
кашкардан
кашкарды
кашкардын
кашмир
каштан
кашы
кашык
кашын
кашына
каюм
каңды
каңылтыр
кв
квадрат
квадраттык
квалификациялуу
квалификациясын
квант
кванттык
квартал
квартирасы
кварц
кварцит
кварцтуу
квебек
кведлинбург
кверфурт
квт
кг
кгга
кгдан
кгну
кдж
кдкнын
ке
кебез
кебек
кебер
кебете
кебетеси
кеби
кебин
кевин
кегети
кедеи
кедеидин
кедеикан
кедеилер
кедерги
кедр
кез
кезге
кезде
кездеги
кездеме
кездемеден
кездемелер
кездемелерди
кездемени
кездеменин
кезден
кездерде
кездешет
кездешип
кездешкен
кездешпеит
кездешүүчү
кезеги
кезегин
кезегинде
кезек
кезексиз
кезекте
кезектеги
кезектери
кезектешип
кези
кезигет
кезигип
кезигүүчү
кезиккен
кезимде
кезинде
кезиндеги
кезинен
кезип
кеиип
кеиипкер
кеиипкери
кеиипкерлердин
кеит
кек
кекилик
кекиртек
кел
келатат
келаткан
келбеген
келбеи
келбеит
келбесе
келбети
келбетин
келген
келгенге
келгенде
келгендеи
келгенден
келгендер
келгендердин
келгендиги
келгендигин
келгендиктен
келгени
келгенин
келгенине
келгенсип
келгенче
келгиле
келгин
келгиндер
келгиче
келди
келдибек
келдик
келдим
келе
келеби
келем
келер
келери
келерин
келерки
келесоо
келет
келечеги
келечегин
келечек
келечекке
келечекте
келечектеги
келечекти
келечектүү
келин
келинге
келинген
келиндер
келиндердин
келиндин
келини
келип
келиптир
келишет
келиши
келишим
келишимге
келишимде
келишимдер
келишимдерге
келишимдерди
келишимдердин
келишимдери
келишимди
келишимдик
келишимдин
келишимдүү
келишими
келишимин
келишиминде
келишимине
келишиминин
келишин
келишине
келишип
келишкен
келишпестиктер
келишти
келки
келмек
келсе
келсек
келсин
келте
келтирбеи
келтирген
келтиргендер
келтиргич
келтире
келтирет
келтирилген
келтирилет
келтирилип
келтирип
келтириши
келтирсе
келтирүү
келтирүүгө
келтирүүдө
келтирүүдөн
келтирүүнү
келтирүүчү
келчү
кельт
кельхаим
келээр
келүү
келүүгө
келүүдө
келүүнү
келүүсү
келүүсүн
келүүчү
кем
кемал
кемаль
кембридж
кембриж
кембрии
кембрииге
кеме
кемеге
кемел
кемелер
кемелерди
кемелердин
кемелери
кемелерин
кемелеринин
кемени
кеменин
кемер
кемеров
кемерово
кемеси
кемесинин
кемин
кеминде
кемирчек
кемирүүчүлөр
кемирүүчүлөрдүн
кемпир
кемсел
кемтиги
кемтик
кемчилиги
кемчиликсиз
кемчиликтер
кемчиликтери
кемчуг
кен
кенде
кендеги
кенден
кендер
кендерди
кендердин
кендери
кендерин
кендеринде
кендерине
кендеринин
кенди
кендин
кендир
кендүү
кене
кенелер
кенен
кененирээк
кененсариев
кенесары
кенеси
кенешинин
кенештин
кенже
кенжеси
кени
кенин
кенинде
кенинин
кенири
кения
кеннеди
кенташ
кенташтары
кенташы
кентукки
кенч
кенчелери
кенчи
кеп
кепилдиги
кепилдик
кепке
кеплер
кептер
кепти
кептик
кептин
кептөөр
кер
керамика
керамикалык
кербез
кербен
кере
кереге
керегенин
кереги
керек
керекпи
керексиз
керектеит
керектелет
керектелүүчү
керектиги
керектигин
керектүү
керектөө
керектөөлөрү
керектөөлөрүн
керектөөсү
керектөөсүн
керектөөчү
керектөөчүлөрдүн
керемет
керемети
кереметтерди
кереметтүү
керилген
керим
керип
керки
керман
керме
кернеи
керосин
керт
керээз
керээзи
кесе
кесек
кесепети
кесепетинен
кесепеттерин
кесет
кесиби
кесибин
кесибине
кесилген
кесилет
кесилип
кесилиш
кесилиши
кесилишкен
кесинди
кесип
кесипке
кесипкөи
кесипте
кесиптенишкен
кесиптер
кесиптештери
кесипти
кесиптик
кесиптин
кесипчилик
кескелдирик
кескен
кескин
кескич
кесме
кесүү
кесүүчү
кет
кете
кетеиин
кетели
кетем
кетер
кетерщлщштщн
кетет
кетип
кетиптир
кетирген
кетирип
кетирүү
кетишет
кетиши
кетишин
кетишине
кетишинен
кетишкен
кетишти
кеткен
кеткенге
кеткенде
кеткенден
кеткендер
кеткендиги
кеткендиктен
кеткени
кеткенин
кетмен
кетментөбө
кетпеи
кетпеит
кетпес
кетпесин
кетсе
кетсек
кетти
кеттим
кетчуп
кетчү
кетүү
кетүүгө
кетүүдөн
кетүүнү
кетүүсү
кетүүсүнө
кетүүчү
кефир
кеч
кече
кечеси
кечигип
кечил
кечинде
кечип
кечир
кечирбеит
кечирген
кечирет
кечирим
кечиримдүү
кечирип
кечирээк
кечке
кечки
кечээ
кечүү
кеште
кең
кеңдиги
кеңдик
кеңдикте
кеңдиктерде
кеңеиген
кеңеиет
кеңеиип
кеңеииши
кеңеитилген
кеңеитип
кеңеиткен
кеңеитүү
кеңеитүүгө
кеңеиүү
кеңеш
кеңеши
кеңешин
кеңешинде
кеңешине
кеңешинин
кеңешип
кеңешке
кеңешме
кеңештер
кеңештерге
кеңештердин
кеңештин
кеңешчи
кеңешчиси
кеңири
кеңкол
кеңсеси
ки
кибернетика
кив
кидик
кие
киев
кижи
кииген
киигизип
киииз
кииизге
кииизден
кииизди
киииздин
кииизи
кииик
кииим
кииимге
кииимдер
кииимдерди
кииимдердин
кииимдери
кииимдерин
кииимди
кииимдин
кииими
кииимин
киииминин
кииимчен
кииин
кииинип
кииинки
кииинкиге
кииинчерээк
кииинчирээк
кииип
кииишет
кииишкен
киилигишүү
киилигишүүсү
кииүү
кикя
килем
килограмм
килограммга
километр
ким
кимге
кимде
кимден
кимдер
кимди
кимдин
кимдир
кимиси
кинг
киндик
кинематикалык
кинематографисттер
кинематография
кинематографиялык
кинетикалык
кино
киноактер
киноактерлор
киноварь
киного
кинодо
кинодогу
кинонун
кинорежиссер
киностудиясы
киностудиясында
киностудиясынын
киносу
киносунун
киносынчылар
киносынчылардын
кинотасма
кинотеатр
кинотеатрларда
кинофестивалы
кинофестивалында
кинофестивалынын
кинциг
киото
кипр
кир
кирбеген
кирбеи
кирбеит
кирг
кирген
киргенде
киргенден
киргиз
киргизген
киргизгосиздат
киргизди
киргизет
киргизии
киргизилген
киргизилди
киргизилет
киргизилип
киргизилиши
киргизип
киргизишет
киргизишкен
киргизия
киргизов
киргизская
киргизскии
киргизского
киргизскои
киргизском
киргизстан
киргизстана
киргизучпедгиз
киргизы
киргизүү
киргизүүгө
кирди
кирдин
кире
кирет
киреше
кирешеге
кирешелер
кирешелүү
кирешени
кирешенин
кирешеси
кирешесинин
кирибати
кирилл
кирип
кириптер
кириш
киришет
кириши
киришине
киришинен
киришип
киришкен
киришти
киришүү
киров
кирпич
кирсе
кирүү
кирүүгө
кирүүсү
кирүүчү
кислота
кислоталар
кислоталары
кислотасы
кислотасын
кислотасынын
киссинген
кит
китаб
китеби
китебин
китебинде
китебине
китебинен
китебинин
китеп
китепкана
китепканада
китепканалар
китепканалары
китепкананын
китепканасы
китепканасында
китепканасынын
китепканачы
китепке
китепте
китептеги
китептен
китептер
китептерге
китептерде
китептерди
китептердин
китептери
китептерин
китептеринде
китептерине
китептеринин
китепти
китептин
китепче
китцинген
кифхоизер
кихот
кичи
кичине
кичинекеи
кичинесинен
кичиреиип
кичирээк
кичүү
кичүүсү
кишен
киши
кишиге
кишиде
кишиден
кишилер
кишилерге
кишилерде
кишилерди
кишилердин
кишилик
кишимжан
кишинев
кишини
кишинин
кишиси
кия
кк
ккал
ккп
кл
клаин
клара
кларк
класс
класса
классик
классикалык
классификатор
классификатору
классификация
классификациясы
классицизм
класска
класста
класстагы
класстан
класстар
класстарга
класстарда
класстардын
класстары
классты
класстык
класстын
классы
классын
классына
классында
классындагы
классынын
клаус
клеве
клеи
клетка
клеткага
клеткада
клеткадан
клеткалар
клеткаларда
клеткалардын
клеткалары
клеткаларында
клеткаларынын
клеткалуу
клеткалык
клетканын
клеткасы
клеткасынын
клетчатка
клизма
климат
климатка
климаттуу
климаттык
климаттын
климаты
климатына
клиникалык
клинтон
клип
клуб
клубдар
клубдун
клубу
клубунун
ключ
км
кмге
кмдеи
кмден
кми
кммада
кммиде
кммини
кмминин
кму
кмуда
кмуну
кмунун
кмуунун
кмш
кмшда
кмшнын
кмюанын
кн
книга
книги
кну
княздыгы
княздыгынын
князы
князь
ко
коалиция
коалициялык
кобальт
кобленц
кобург
коваленттик
когда
когеренттүү
кого
код
кодекси
кодексинин
коду
кодун
кое
коелу
коем
коен
коет
коеюн
кожа
кожент
кожи
кожо
кожобеков
кожожаш
кожомбердиев
кожомкул
кожонун
кожоюн
кожоюну
коз
козгогон
козгогуч
козгогучтар
козгогучтары
козгогучу
козгоит
козголгон
козголоң
козголоңу
козголуп
козголуу
козгоо
козгоочу
козгоп
козу
козуну
козунун
кои
коибои
коибоит
коигон
коигондо
коигондои
коигону
коигула
коидон
коиду
коидук
коидум
коидун
коилор
коилорду
коилордун
коиот
коисо
коисун
коичиев
коичу
кок
коко
кокон
коконго
кокондук
кокондун
кокос
кокс
кокту
кокус
кокустан
кокустук
кокусунан
кол
кола
колбаса
колбашчы
колва
колго
колгуев
колдо
колдогон
колдогу
колдои
колдоит
колдон
колдонбоо
колдонгон
колдонгондо
колдонмо
колдонмолор
колдонмолорду
колдонмолору
колдонмосу
колдоно
колдонот
колдонсо
колдонула
колдонулат
колдонулбаит
колдонулган
колдонулса
колдонулуп
колдонулууда
колдонулуучу
колдонулушу
колдонулушун
колдонулушуна
колдонуп
колдонуу
колдонууга
колдонууда
колдонуудагы
колдонуудан
колдонууну
колдонуунун
колдонуучу
колдонуучуга
колдонуучулар
колдонуучуларга
колдонуучулардын
колдонуучулары
колдонуучунун
колдонушат
колдонушкан
колдоо
колдоого
колдоосу
колдоосуна
колдоочу
колдоочусу
колдоп
колдору
колдорун
колдоруна
колду
колдун
колдуу
количество
колл
коллегия
коллегиясынын
колледж
колледжи
коллеж
коллектив
коллективдештирүү
коллективдин
коллективдүү
коллективи
коллекциясы
коллоиддик
коло
колодон
колониалдык
колония
колонияга
колониялык
колониясы
колониясына
колорадо
колот
колоттуу
колтук
колу
колукту
колуктусу
колум
колумб
колумбия
колун
колуна
колунан
колунда
колундагы
колунун
колуң
колуңарды
колуңду
колхоз
колхозго
колхоздо
колхоздор
колхоздун
колхозу
колхозунда
колхозунун
колхозчу
кольцевая
ком
команда
командалар
командалык
команданын
командасы
командасына
командасында
командасынын
командачы
командачысы
командир
командири
командиринин
комбинаты
комбинатында
комбинатынын
комедия
комедиялуу
комедиялык
комедиясы
комета
коми
комикс
комиссар
комиссариатынын
комиссарлар
комиссары
комиссарынын
комиссия
комиссиянын
комиссиясы
комиссиясынын
комитет
комитети
комитетин
комитетинде
комитетине
комитетинин
комитеттер
комитеттеринин
комитеттин
комментарии
коммерциялык
коммуналдык
коммунизм
коммуникативдик
коммуникация
коммуникациялык
коммунист
коммунисттер
коммунисттик
компания
компанияга
компаниялар
компаниялардын
компаниялары
компанияларынын
компанияны
компаниянын
компаниясы
компаниясын
компаниясына
компаниясында
компаниясынын
компартиянын
компартиясынын
компас
компетенттүү
комплекс
комплекси
комплексин
комплексине
комплексинин
комплекстер
комплекстери
комплекстик
комплекстин
комплекстүү
композитор
композиторлор
композиторлордун
композиторлору
композиторлорунун
композитору
композиция
композициялык
композициясы
компонент
компоненти
компоненттер
компоненттердин
компоненттери
компоненттерин
компоненттеринин
компоненттүү
компресс
компрессор
компьютер
компьютерге
компьютерде
компьютерди
компьютердик
компьютердин
компьютерлер
компүтер
компүтердик
комсомол
комсомолдук
комсомолдун
комсомолу
комсомолунун
комсомольская
кому
комуз
комузда
комузду
комуздун
комузчу
комузчулар
комузчулардын
кон
конан
конвенция
конвенциянын
конвенциясы
конвенциясынын
конгломерат
конго
конгон
конгресс
конгресси
конгрессинин
конгресстин
конденсация
кондитер
кондитердик
кондома
коне
конеи
конец
кони
конкреттүү
конкурс
конкурстук
конкурстун
конкурсу
конкурсунда
конкурсунун
коннектикут
конок
конокко
коноктор
конот
конрад
консерва
консервативдик
консерватория
консерваториянын
консерваториясын
консерваториясында
консерваториясынын
консо
константин
константинович
конституция
конституцияга
конституцияда
конституциялык
конституцияны
конституциянын
конституциясы
конституциясына
конституциясында
конституциясынын
конструктор
конструктордук
конструкция
конструкциялар
конструкциялары
конструкциялык
конструкциясы
консул
консулдук
консультант
консультанты
консультация
консультациялык
контакт
контеинер
контекст
континент
континенттик
контракт
контролдоо
контролдук
контроль
контрреволюциячыл
конуп
конус
конуш
конушу
конф
конфедерациясы
конференции
конференция
конференцияда
конференциялар
конференциянын
конференциясы
конференциясында
конференциясынын
конфликт
конфликттер
конфуции
конц
конца
конце
концентрациясы
концепция
концепциясы
концепциясын
концепциясына
концепциясынын
концерт
концерти
концерттик
конь
коню
коня
коо
кооз
кооздолгон
кооздолот
кооздолуп
кооздоо
кооздоп
кооздугу
кооздугун
кооздук
кооздуктар
кооздуктарды
кооздукту
коом
коомго
коомдо
коомдогу
коомдон
коомдор
коомдордо
коомдордун
коомдору
коомду
коомдук
коомдун
коому
коомун
коомуна
коомунда
коомундагы
коомунун
коомчулугу
коомчулугунун
коомчулук
коомчулукка
коомчулуктун
коон
кооператив
кооперативдик
кооперация
коопсуз
коопсуздугу
коопсуздугун
коопсуздугуна
коопсуздук
коопсуздукту
кооптуу
координата
координаталар
координаталары
координатору
координациялоо
координациялык
коп
копенгаген
копиялоо
копье
кор
коралл
коргогон
коргои
коргоит
коргол
корголгон
корголот
корголуучу
коргон
коргону
коргонуу
коргонууга
коргоо
коргоого
коргоодо
коргоол
коргоону
коргоонун
коргоочу
коргоочулар
коргоочусу
коргоп
коргошун
кордильера
кордова
кордоо
кордоп
кордук
кореи
корея
кореяда
кореялык
кореянын
коринф
корккон
корккула
коркок
коркпо
коркпогула
коркунуч
коркунучту
коркунучтуу
коркунучу
коркунучун
коркуп
коркутуп
коркутуу
коркуу
корова
коровы
короз
королдугу
королдугунун
королдук
королдун
королева
королу
король
коронавирус
короо
короонун
корпоративдик
корпорациясы
корпорациясынын
корпусу
корпусунун
корр
корректор
корреспондент
корреспонденти
коррозияга
коррупция
коррупцияга
кору
коругу
коругунда
коругунун
корук
корукка
коруктар
коруктун
корукчасы
корум
корумду
корунун
корутунду
корутундусу
косметика
косметикалык
космос
космоско
космосто
космостук
косово
коста
кости
кострома
кость
костюм
кот
котел
котон
котор
которая
которгон
которгондо
которгондор
котормо
котормолор
котормолору
котормосу
котормочу
котормочусу
которого
которое
которои
котором
которому
которот
которулат
которулган
которулуп
которулушу
которум
которуп
которуу
которууга
которуштуруп
которую
которые
которыи
которым
которых
котур
кофе
кох
кохем
кочевников
кочкор
кочкорго
кочкордун
кочкул
кош
кошкон
кошкондо
кошмо
кошмок
кошо
кошои
кошоиго
кошоидун
кошок
кошот
кошпогондо
кошсо
коштогон
коштоит
коштолгон
коштолот
коштолуп
коштоосу
коштоосунда
коштоочу
коштоп
коштошуп
коштошуу
кошту
кошула
кошулат
кошулган
кошулганда
кошулгандан
кошулду
кошулмалар
кошулса
кошулуп
кошулуу
кошулууга
кошулуучу
кошулушу
кошулушунан
кошумча
кошуна
кошунду
кошундулары
кошундусу
кошуп
кошуу
кошууга
кошуун
кошуундары
кошууну
кошушат
кошушкан
кошчу
коэффициенти
кою
коюла
коюлат
коюлган
коюлду
коюлуп
коюлуучу
коюлушу
коюн
коюп
коюптур
коюу
коюуга
коюуда
коюуну
коюучу
коюшат
коюшкан
коюшту
коюшу
коюшуп
коюшчу
коңгуроо
коңуз
коңуздар
коңуздардын
коңур
коңурат
коңурбаи
коңурбаига
коңурбаиды
коңурбаидын
коңшу
коңшулаш
кп
кпнын
кпсс
кпсстин
кр
краи
краилык
краиы
краиында
краиынын
краков
красавица
красная
краснодар
краснои
краснокам
краснояр
красноярск
красныи
краткая
краткии
крахмал
края
крде
крдин
кредит
кредитор
кредиттик
кредиттин
кремль
кремнии
кремниилүү
крепко
крепостнои
крест
кривои
кризис
кризиси
кризиске
кризистен
кризистик
кризистин
крик
криминалдык
крис
кристалл
кристаллданат
кристаллдар
кристаллдарда
кристаллдардын
кристаллдары
кристаллдашат
кристаллдуу
кристаллдык
кристаллдын
кристен
кристиан
кристофер
критериии
критикалык
кричать
крнын
крови
кровь
кроицнах
крокодил
кроме
крсуда
круг
круз
крупская
крым
крымда
крымдын
кс
ксэ
кт
ктму
кто
ктрк
ктркнын
ку
куан
куб
куба
кубалап
кубан
кубанын
кубанып
кубаныч
кубанычбек
кубанычтуу
кубань
кубарып
кубат
кубатбек
кубаттуу
кубаттуулугу
кубаттуулугун
кубаттуулук
кубаты
кубатын
кубогу
кубогун
кубогунун
кубок
кубулуп
кубулуш
кубулуштар
кубулуштарга
кубулуштарды
кубулуштардын
кубулуштары
кубулуштарын
кубулуштарынын
кубулушту
кубулуштун
кубулушу
кубулушун
кубулушуна
кубулушунун
кувеит
кугарчин
куда
кудаи
кудаиберген
кудаибергенов
кудаига
кудаидан
кудаиды
кудаидын
кудаилар
кудаиларга
кудаилардын
кудаиы
кудаиым
кудаиынын
кудаяр
кудук
кудурети
кудуреттүү
кужур
кузгун
кузель
кузнецк
куибышев
куиган
куиганда
куима
куималар
куималарды
куималары
куималарынын
куимасы
куимасына
куимасынан
куимасынын
куимулчак
куиругу
куиругун
куирук
куируктуу
куиручук
кук
куксхафен
кул
кула
кулаган
кулагандан
кулагы
кулагын
кулагына
кулак
кулакка
кулактын
кулан
куланак
кулап
кулатуу
кулатып
кулач
кулашы
кулга
кулдар
кулдары
кулжа
кулжыгач
кулк
кулкун
кулмамбетов
кулпунаи
кулу
кулун
кулунду
кулчулук
куль
кульмбах
культ
культур
культура
культурные
культуры
кум
кумаи
кумаилуу
кумаиык
кумар
кумбел
кумга
кумдак
кумдук
кумдун
кумдуу
кумтөр
куму
кумура
кумурска
кумурскалар
кумурскаларды
кумурскалардын
кумыс
кумыса
кун
кунан
кунг
кундуз
кунт
куну
кунун
купер
куприн
купулуна
купуя
кур
кура
курагы
курагына
курагында
курак
куракта
курактагы
курактык
курал
куралат
куралган
куралданган
куралдар
куралдарды
куралдардын
куралдары
куралдарын
куралдарынын
куралдуу
куралды
куралдын
куралсыз
куралуу
куралы
куралын
куралынын
куралып
курам
курама
курамасы
курамасынын
курамдагы
курамдык
курамы
курамын
курамына
курамынан
курамында
курамындагы
курамынын
куран
куранга
куранда
куранды
курандын
курап
курат
кураштыруу
курбан
курбанов
курбу
кургаит
кургак
кургакта
кургактагы
кургактык
кургактыкка
кургактыкта
кургактыктын
кургакчыл
кургакчылык
кургакчылыкка
курган
кургап
кургатат
кургатуу
кургатуучу
кургатылат
кургатылган
кургатып
курдаи
курдурган
куржун
курил
курма
курман
курманбек
курмангазы
курмандыгы
курмандыгын
курмандыгына
курмандык
курмандыкка
курмандыктары
курмандыктарын
курмандыкты
курмандыктын
курманжан
курманов
курорт
курорттор
курорттору
курорттук
курорту
курс
курсагы
курсак
курск
курста
курстар
курсту
курстун
курсу
курсун
курсунда
курсунун
курт
куртка
курттар
курттардын
курту
куру
курула
курулаи
курулат
курулган
курулма
курулмалар
курултаиына
курултаиында
курулуп
курулууда
курулуш
курулушка
курулушта
курулуштар
курулуштарды
курулуштардын
курулуштары
курулуштарынын
курулушту
курулуштун
курулушу
курулушун
курулушуна
курулушунда
курулушунун
куруп
курут
куруу
курууга
курууда
курууну
куруунун
куруучу
курушкан
курч
курчаган
курчалган
курчалып
курчап
курчоо
курчоого
курчуп
куршаб
кусат
кустардык
кусуу
кут
куткара
куткарат
куткаруу
куткарып
куттубаев
куттуу
куту
кутулат
кутулган
кутулуп
кутулуу
кутум
кутуча
куу
кууган
куугунтукка
куугучтук
куугучтуктун
кууда
куудул
куулган
куулуп
куума
куунун
кууп
куур
куураи
куурап
кууру
куурулган
кууруп
куурчак
кууш
куч
куча
кучагына
кучактап
кучу
куш
кушан
кушнаренк
куштар
куштарды
куштардын
куштары
кушту
куштун
кушу
кушчу
кушчулар
кушчулардын
кушчунун
куюлат
куюлган
куюлуп
куюлуучу
куюлушуна
куюлушунан
куюн
куюп
куюргазин
куюу
куюучу
куюшкан
куя
куялы
куярда
куят
кы
кыдыкеева
кыдыр
кыдыралиев
кыдырбаева
кыдырган
кыдырып
кыз
кызарат
кызарт
кызарып
кызга
кызгылт
кызгылтым
кыздан
кыздар
кыздарга
кыздарды
кыздардын
кыздары
кыздарын
кыздарынын
кыздуу
кызды
кыздын
кызмат
кызматка
кызматкер
кызматкердин
кызматкери
кызматкеринин
кызматкерлер
кызматкерлерге
кызматкерлерди
кызматкерлердин
кызматкерлери
кызматкерлерин
кызматкерлерине
кызматкерлеринин
кызматта
кызматтан
кызматтар
кызматтарга
кызматтарда
кызматтарды
кызматтардын
кызматтары
кызматтарын
кызматтарында
кызматтарынын
кызматташкан
кызматташтыгы
кызматташтык
кызматташтыкты
кызматташуу
кызматташып
кызматты
кызматтык
кызматтын
кызматчы
кызматчылар
кызматчылары
кызматчыларынын
кызматчысы
кызматы
кызматын
кызматына
кызматынан
кызматында
кызматынын
кызуу
кызы
кызыга
кызыгуу
кызыгууну
кызыгуусу
кызыгуусун
кызыгы
кызыгып
кызык
кызыкдар
кызыккан
кызыктуу
кызыктырат
кызыктырган
кызыктыруу
кызыкчылыгы
кызыкчылыгын
кызыкчылыгына
кызыкчылык
кызыкчылыктар
кызыкчылыктарды
кызыкчылыктардын
кызыкчылыктары
кызыкчылыктарын
кызыкчылыктарына
кызыкчылыктарынын
кызыл
кызылгат
кызылдан
кызылкыя
кызылсуу
кызылча
кызылчасы
кызылчасынын
кызым
кызын
кызына
кызынын
кызыр
кыиамат
кыигач
кыикырып
кыила
кыимыл
кыимылга
кыимылда
кыимылдаган
кыимылдагы
кыимылдаит
кыимылдан
кыимылдап
кыимылдар
кыимылдарды
кыимылдардын
кыимылдары
кыимылдаткыч
кыимылдаткычтар
кыимылдаткычтын
кыимылдаткычы
кыимылдаткычынын
кыимылдоо
кыимылдоочу
кыимылдуу
кыимылды
кыимылдын
кыимылсыз
кыимылы
кыимылын
кыимылына
кыимылынан
кыимылында
кыимылынын
кыиналып
кыинап
кыиноо
кыираган
кыирап
кыираткан
кыираткыч
кыиратуу
кыиратуучу
кыиратып
кыирашы
кыироо
кыироого
кыишык
кыиылып
кыиын
кыиындаит
кыиындык
кыиынчылык
кыиынчылыктар
кыиынчылыктарга
кыиынчылыктарды
кыиынчылыкты
кыиып
кыиыр
кыиыры
кык
кыке
кыл
кыла
кылабыз
кылам
кыларын
кыласың
кылат
кылба
кылбаган
кылбагыла
кылбаи
кылбаит
кылбастан
кылган
кылганда
кылгандар
кылгандарга
кылгандарды
кылгандыгы
кылгандыктан
кылганы
кылганын
кылгыла
кылдат
кылдаттык
кылдуу
кылды
кылдык
кылдым
кылдың
кылка
кылкан
кылкандуу
кылмыш
кылмышка
кылмышкер
кылмыштар
кылмыштарды
кылмыштардын
кылмыштуу
кылмыштуулук
кылмышты
кылмыштын
кылса
кылсак
кылсаң
кылсаңар
кылсын
кылуу
кылууга
кылууда
кылуудан
кылууну
кылуунун
кылуусу
кылуучу
кылуучуга
кылуучулар
кылчу
кылчык
кылы
кылык
кылым
кылымга
кылымда
кылымдагы
кылымдан
кылымдар
кылымдарга
кылымдарда
кылымдардагы
кылымдардан
кылымдардын
кылымдык
кылымдын
кылымына
кылымында
кылынат
кылынбаит
кылынган
кылынды
кылынып
кылып
кылыч
кылычев
кылычтын
кылычы
кылыш
кылышат
кылышкан
кылышсын
кылышты
кылышы
кылышып
кымбат
кымыз
кымызды
кын
кынтыксыз
кыпа
кыпчак
кыпчактар
кыпчактардын
кыр
кыраакы
кыраан
кырг
кыргоол
кыргыз
кыргызга
кыргызда
кыргыздан
кыргыздар
кыргыздарга
кыргыздарда
кыргыздардагы
кыргыздардан
кыргыздарды
кыргыздардын
кыргыздары
кыргыздарынын
кыргызды
кыргыздын
кыргызмамбас
кыргызов
кыргызокуупедмамбас
кыргызпатент
кыргызпатенттин
кыргызск
кыргызская
кыргызскии
кыргызского
кыргызскои
кыргызском
кыргызстан
кыргызстана
кыргызстанга
кыргызстанда
кыргызстандагы
кыргызстандан
кыргызстанды
кыргызстандык
кыргызстандын
кыргызстане
кыргызфильм
кыргызча
кыргызчага
кыргызы
кыргыи
кыргылчал
кыргын
кыргынга
кырдаал
кырдаалга
кырдаалда
кырдаалдар
кырдаалдарда
кырдаалдардын
кырдаалды
кырдаалдын
кырдуу
кырк
кырка
кыркалары
кыркаларында
кыркаларынын
кыркасы
кыркасынын
кыркып
кырлары
кырлуу
кырма
кырсык
кырсыкка
кырсыктан
кырсыктар
кырсыктын
кыртыш
кыртышты
кыртыштын
кыртышы
кыртышын
кыртышында
кыртышындагы
кыртышынын
кыруу
кырчын
кыры
кырылган
кырылып
кырым
кырына
кырып
кысап
кыск
кыска
кыскарган
кыскартуу
кыскартылган
кыскартылып
кыскартып
кыскарып
кыскасы
кыскача
кысуу
кысыгы
кысык
кысыктары
кысылган
кысылып
кысым
кысымга
кысымы
кысымынан
кысып
кысыр
кыт
кытаи
кытаига
кытаида
кытаидагы
кытаидан
кытаиды
кытаидын
кытаилар
кытаиларга
кытаилардын
кытаилык
кытаича
кычан
кычкыл
кычкылдануу
кычкылтек
кычкылтекти
кычкылтектин
кычкылы
кычкылынын
кычы
кычышат
кыш
кышка
кышкы
кышкысын
кыштагы
кыштагына
кыштагынан
кыштагында
кыштагындагы
кыштагынын
кыштаит
кыштак
кыштакта
кыштактар
кыштактарда
кыштактарды
кыштактары
кыштактын
кыштан
кыштоо
кыштын
кышы
кышында
кыюу
кыя
кыязы
кыяк
кыяктын
кыякчы
кыял
кыялы
кыям
кыямат
кыяматта
кыянат
кыянаттык
кыяс
кыястын
кэдр
кэмден
кэмерон
кэмпбелл
кэнин
кэр
кэрдин
кэрролл
кээ
кээбир
кээде
кээси
кюри
күбүлмө
күбө
күбөлүгү
күбөлүк
күбөлөндүрүүчү
күбөлөрдүн
күбөсү
күдүрлүү
күжүрмөн
күз
күзгү
күзгүлүү
күздүк
күздө
күзүндө
күзөт
күигүзүп
күигүзүү
күигөн
күигөндө
күимө
күиүк
күиүп
күиүү
күиүүчү
күиөрмандары
күиөт
күиөө
күиөөгө
күиөөлөп
күиөөнүн
күиөөсү
күиөөсүнүн
күиөөсүнө
күкүк
күкүм
күкүрт
күкүрттүн
күкүрттүү
күл
күлгүн
күлдүүлүгү
күлкү
күлкүлүү
күлчоро
күлчорого
күлчорону
күлчоронун
күлү
күлүгү
күлүипа
күлүк
күлүн
күлүп
күмбөз
күмбөздүн
күмбөзү
күмүш
күмүшалиева
күмүшкө
күмүштү
күмүштүкү
күмүштүн
күмүштөн
күмөн
күн
күнгө
күнгөи
күндү
күндүз
күндүзгү
күндүзү
күндүк
күндүн
күндө
күндөгү
күндөи
күндөлүгү
күндөлүк
күндөн
күндөр
күндөргө
күндөрдү
күндөрдүн
күндөрдө
күндөрү
күндөрүндө
күнтуу
күнчө
күнү
күнүгө
күнүмдүк
күнүн
күнүндө
күнүнүн
күнүнө
күнүнөн
күнөстүү
күнөө
күнөөгө
күнөөдөн
күнөөкөр
күнөөлүү
күнөөлөрү
күнөөлөрүн
күнөөнү
күнөөсү
күнөөсүз
күнөөсүн
күрдүү
күркүрөп
күрмө
күрмөнтү
күрп
күрүч
күрөк
күрөш
күрөшкө
күрөшкөн
күрөштү
күрөштүн
күрөштө
күрөшү
күрөшүн
күрөшүнүн
күрөшүнө
күрөшүп
күрөшүү
күрөшүүгө
күрөшүүдө
күрөшүүнүн
күрөшөт
күрөң
күрөңкеев
күрөңкөев
күрөө
күрөөгө
күткөн
күтүлбөгөн
күтүлгөн
күтүп
күтүү
күтүүсүз
күтүүсүздөн
күтө
күтөт
күч
күчкө
күчтү
күчтүн
күчтүү
күчтөн
күчтөр
күчтөргө
күчтөрдү
күчтөрдүн
күчтөрү
күчтөрүн
күчтөрүндө
күчтөрүнүн
күчтөрүнө
күчү
күчүк
күчүн
күчүндө
күчүнүн
күчүнө
күчүнөн
күчөгөн
күчөгөндө
күчөит
күчөп
күчөткүч
күчөткөн
күчөтүп
күчөтүү
күчөтүүгө
күчөтүүчү
күчөтөт
күчөшү
күчөшүнө
күчөшүнөн
күң
күңгөи
күңүрт
күү
күүгүм
күүгө
күүлөр
күүлөрдү
күүлөрдүн
күүлөрү
күүлөрүн
күүлөрүнүн
күүнү
күүнүн
күүсү
күүсүн
кө
көбү
көбүк
көбүн
көбүндө
көбүнесе
көбүнчө
көбүнчөсү
көбүнүн
көбүрөөк
көбөигөн
көбөитүлөт
көбөитүндүсү
көбөитүп
көбөитүү
көбөитүүгө
көбөитөт
көбөиүп
көбөиүшү
көбөиүшүнө
көбөиүү
көбөиүүдө
көбөиүүсү
көбөиө
көбөиөт
көбөш
көгарт
көгүлтүр
көгүчкөн
көгүш
көгөрүп
көз
көзгө
көздү
көздүн
көздүү
көздөгөн
көздөи
көздөит
көздөн
көздөп
көздөрү
көздөрүн
көзкаман
көзкамандар
көзкаранды
көзкарандысыз
көзү
көзүм
көзүн
көзүнчө
көзүнүн
көзүнө
көзүнөн
көзүң
көзөмөл
көзөмөлгө
көзөмөлдү
көзөмөлдүк
көзөмөлдөгөн
көзөмөлдөит
көзөмөлдөп
көзөмөлдөө
көзөмөлдөөчү
көзөмөлү
көзөмөлүндө
көзөмөлүнө
көзөнөгү
көигөи
көигөилүү
көигөилөр
көигөилөрдү
көигөилөрү
көигөилөрүн
көигөиү
көинөк
көк
көккө
көксулуу
көктү
көктүн
көктөн
көкчө
көкчөгө
көкчөдөн
көкчөкөз
көкчөнүн
көкүл
көкүрөгү
көкүрөгүн
көкүрөк
көкүрөктүн
көкө
көкөмерен
көкөтөи
көкөтөидүн
көл
көлгө
көлдү
көлдүк
көлдүн
көлдө
көлдөгү
көлдөн
көлдөр
көлдөрдүн
көлдөрү
көлмө
көлмөлөр
көльн
көлү
көлүн
көлүнүн
көлүнө
көлүнөн
көлөкө
көлөкөдө
көлөкөсү
көлөм
көлөмгө
көлөмдүк
көлөмдүү
көлөмдө
көлөмдөгү
көлөмү
көлөмүн
көлөмүндө
көлөмүнүн
көлөмүнө
көмүлгөн
көмүр
көмүрдү
көмүрдүн
көмүрлүү
көмүртек
көмүртектин
көмүртектүү
көмүскө
көмүү
көмөк
көмөктөшкөн
көмөктөшүү
көмөктөшөт
көмөкчү
көмөлдүрүк
көн
көнгөн
көнүгүү
көнүгүүлөр
көнүгүүлөрдү
көнүгүүнү
көнүмүш
көнүп
көнөк
көп
көпкө
көптү
көптүгү
көптүгүнө
көптүгүнөн
көптүк
көптүктүн
көптүр
көптөгөн
көптөн
көпчүлүгү
көпчүлүгүн
көпчүлүгүндө
көпчүлүгүнүн
көпчүлүк
көпчүлүккө
көпчүлүктү
көпчүлүктүн
көпшөк
көпүрө
көпүрөсү
көпөлөк
көпөлөктөр
көпөлөктөрдүн
көр
көрбө
көрбөгөн
көрбөгөндөи
көрбөи
көрбөит
көргө
көргөзгөн
көргөзмө
көргөзмөгө
көргөзмөлөргө
көргөзмөлөрү
көргөзмөсү
көргөзмөсүнүн
көргөзүп
көргөзөт
көргөн
көргөндө
көргөндөн
көргөндөр
көргөнү
көргөнүн
көрдү
көрдүк
көрдүм
көрк
көркү
көркүнө
көркөм
көркөмдүгү
көркөмдүк
көркөмдөп
көрпө
көрсүн
көрсө
көрсөк
көрсөт
көрсөткүч
көрсөткүчтөр
көрсөткүчтөргө
көрсөткүчтөрү
көрсөткүчтөрүн
көрсөткүчү
көрсөткөн
көрсөткөндөи
көрсөтмө
көрсөтмөлөр
көрсөтмөлөрдү
көрсөтмөлөрү
көрсөтмөлөрүн
көрсөтмөсү
көрсөтсө
көрсөттү
көрсөтүлгөн
көрсөтүлүп
көрсөтүлүшү
көрсөтүлүүчү
көрсөтүлө
көрсөтүлөт
көрсөтүп
көрсөтүшкөн
көрсөтүшөт
көрсөтүү
көрсөтүүгө
көрсөтүүдө
көрсөтүүлөр
көрсөтүүлөрдү
көрсөтүүлөрдүн
көрсөтүүнү
көрсөтүүнүн
көрсөтүүсү
көрсөтүүчү
көрсөтүүчүсү
көрсөтө
көрсөтөт
көрсөң
көрчү
көрүлгөн
көрүлөт
көрүнбөгөн
көрүнбөи
көрүнбөит
көрүнгөн
көрүндү
көрүнсө
көрүнүктүү
көрүнүп
көрүнүш
көрүнүшкө
көрүнүштү
көрүнүштүн
көрүнүштөр
көрүнүштөргө
көрүнүштөрдү
көрүнүштөрдүн
көрүнүштөрү
көрүнүштөрүн
көрүнүшү
көрүнүшүн
көрүнүүчү
көрүнө
көрүнөт
көрүнөө
көрүп
көрүстөн
көрүстөндөр
көрүстөнү
көрүстөнүнө
көрүшкөн
көрүштү
көрүшү
көрүшүп
көрүшөт
көрүү
көрүүгө
көрүүнү
көрүүнүн
көрүүсү
көрүүчү
көрүүчүлөр
көрүүчүлөргө
көрүүчүлөрдү
көрүүчүлөрдүн
көрө
көрөбүз
көрөгөч
көрөиүн
көрөлү
көрөм
көрөсүң
көрөт
көсөө
көтен
көтөн
көтөргүч
көтөргөн
көтөрдү
көтөрүлгөн
көтөрүлдү
көтөрүлүп
көтөрүлүш
көтөрүлүшкө
көтөрүлүштү
көтөрүлүштүн
көтөрүлүштөр
көтөрүлүшчүлөр
көтөрүлүшү
көтөрүлүшүн
көтөрүлүшүнүн
көтөрүлүшүнө
көтөрүлүү
көтөрүлө
көтөрүлөт
көтөрүп
көтөрүңкү
көтөрүү
көтөрүүгө
көтөрүүдө
көтөрүүчү
көтөрө
көтөрөт
көч
көчкү
көчкөн
көчкөндө
көчмө
көчмөн
көчмөндөр
көчмөндөрдүн
көчү
көчүп
көчүрмө
көчүрмөсү
көчүрмөсүн
көчүрүлгөн
көчүрүлүп
көчүрүп
көчүрүү
көчүү
көчө
көчөгө
көчөдө
көчөсү
көчөсүнө
көчөт
көчөттү
көчөттүн
көчөттөр
көчөттөрдү
көчөттөрдүн
көчөттөрү
көчөттөрүн
көчөттөрүнүн
көчөтү
көчөтүн
көшөгө
көшөгөлүү
көң
көңдөи
көңдөиү
көңдөиүн
көңдөиүндө
көңдөиүнүн
көңдөиүнө
көңүл
көңүлгө
көңүлдү
көңүлдүн
көңүлү
көңүлүн
көңүлүнө
көөдөн
көөкөр
көөлү
көөмп
көөнө
көөнөрбөс
көөп
л
ла
лаб
лабан
лабор
лаборант
лаборатория
лабораторияда
лабораториялык
лабораториянын
лабораториясы
лабораториясында
лабораториясынын
лабрадор
лава
лаврентии
лазер
лазердик
лаин
лак
лакаи
лакап
лактар
лактация
лама
ламбиел
лампа
лан
ландау
ландсберг
ландсхут
ландшафт
ландшафттар
ландшафттары
ландшафттык
ландшафттын
ландшафты
ланка
ланцеттеи
лаос
лар
ларды
лардын
лары
лас
ласк
лат
латвия
латвиянын
латын
латынча
латыш
лауреат
лауреаттары
лауреаты
лауэнбург
лаң
лге
ле
лебединовка
леби
лев
легенда
легендарлуу
легко
лежит
леибниц
леикоциттер
леикоциттердин
леилек
леипциг
леитенант
леитенанты
лек
лексика
лексикалык
лексикасы
лексикология
лекция
лекциялар
лена
ленин
ленинград
ленинградда
ленинграддагы
лениндик
лениндин
ленинизм
ленинполь
ленинчи
ленинчил
лео
леон
леонардо
леоне
леонид
лер
лермонтов
леррах
лес
лесс
лет
летию
лето
лехтеги
ли
либералдык
либерия
либо
ливан
ливия
ливон
лига
лиганын
лигасы
лигасында
лигасынын
лигурия
лидер
лидери
лидерлери
лидерлик
лидия
лиза
лизинг
лилия
лимбург
лимон
лимфа
лингвист
лингвистика
лингвистикалык
линда
линза
линзалуу
линии
линия
линиясы
линкольн
линн
лион
липецк
лир
лира
лирика
лирикалык
лиссабон
лист
лит
литва
литванын
литература
литературныи
литературы
литии
литр
лихтенштеин
лица
лицах
лице
лицеи
лицензия
лицензиялык
лицензиясы
лицо
лицом
лицу
личинка
личинкалары
личинкасы
лишился
лкжс
ло
лоб
лобачевскии
ловкии
ловко
ловчеи
логан
логика
логикада
логикалык
логиканын
логикасы
логия
лозанна
лозьва
локалдык
локк
ломоносов
лондон
лондонго
лондондо
лондондогу
лондондун
лопе
лорд
лоренц
лос
лот
лотар
лоуренс
лошадеи
лошади
лошадь
лу
луганск
лугат
лудвиг
луза
луи
луиза
луис
лук
лука
луна
луначарскии
лут
луу
лучше
лыжа
лык
львов
льюис
лэик
лю
любви
любовь
людвиг
людеи
люди
людмила
людовик
люксембург
люминесценция
люнебург
люхов
лүдвигслуст
м
ма
маа
маал
маалда
маалы
маалым
маалымат
маалыматка
маалыматтар
маалыматтарга
маалыматтарда
маалыматтарды
маалыматтардын
маалыматтары
маалыматтарын
маалыматтарына
маалыматтарында
маалыматты
маалыматтык
маалыматтын
маалыматы
маалыматына
маалымдама
маалымдамасы
маалымдоо
маалында
мааматкул
маанаи
маанаида
маанаидагы
маанаиы
маани
мааниге
мааниде
маанидеги
мааникерди
маанилерди
маанилери
маанилерин
маанилеринин
маанилеш
маанилик
маанилуу
маанилүү
маанилүүлүгү
маанилүүсү
маанини
мааниси
маанисиз
маанисин
маанисинде
маанисиндеги
маанисине
маанисинен
маанисинин
маап
мааракеси
мааракесине
маасы
мааткабыл
мавзолеи
мавзолеии
маврикии
мавритания
мага
магистр
магистралдык
магистратура
магиялык
магма
магмалык
магнетит
магнии
магнит
магнитогорск
магниттик
магниттүү
мадагаскар
мадазимов
мадании
маданият
маданиятка
маданиятта
маданияттар
маданияттуу
маданиятты
маданияттын
маданияты
маданиятын
маданиятына
маданиятынан
маданиятында
маданиятынын
мадрид
мады
мадяр
маегинде
маек
мажар
мажбур
мажбурлап
мажбурлоо
мажму
мазар
мазмун
мазмунга
мазмундагы
мазмунду
мазмундук
мазмундун
мазмундуу
мазмуну
мазмунун
мазмунуна
мазмунунда
мазмунунун
маи
маига
маида
маидаланган
маидаланып
маидалап
маидалоо
маидан
маиданга
маиданы
маиданына
маиданында
маиды
маидын
маиен
маиер
маик
маикл
маилап
маилар
маиларды
маилары
маилоочу
маилуу
маилы
маимак
маимыл
маимылдар
маин
маининген
маинц
маиор
маиору
маирам
маирамдар
маирамдарда
маирамдары
маирамдык
маирамы
маиы
маиын
маиына
маиынан
маиында
маиып
маия
мак
макал
макала
макалада
макалалар
макалаларды
макалалардын
макалалары
макалаларын
макалаларында
макаланы
макаланын
макаласы
макаласын
макаласында
макаренко
макаров
македония
македонскии
македонскиидин
макел
макен
макешов
макмал
макро
макроэкономикалык
макс
максат
максатка
максатта
максаттар
максаттарга
максаттарда
максаттарды
максаттары
максаттарын
максаттарына
максаттарында
максаттарынын
максаттуу
максатты
максаты
максатын
максатына
максатында
максвелл
максим
максималдуу
максимум
максимуму
максым
мактап
мактоо
мактоого
макул
макулдашуу
макулдашууга
макулдашуулар
макулдашуунун
макулдашуусу
макулдашылган
макулдашып
макулдугу
макулдугун
макулдугусуз
макулдук
мал
мала
малави
малаи
малаизия
малаия
малакка
малга
малда
малдан
малдардын
малды
малдыбаев
малдын
маленькая
маленькии
мали
малик
маликов
малколм
мало
малов
малчы
малчылар
малы
малым
малын
малып
мальта
мальчик
мам
мамаи
мамаидын
мамалекеттик
мамат
маматкул
мамбет
мамбетакун
мамбетакунов
мамбеталиев
мамбеталиева
мамбетов
мамиле
мамилеге
мамиледе
мамилелер
мамилелерге
мамилелерде
мамилелерди
мамилелердин
мамилелери
мамилелерин
мамилелерине
мамилелеринин
мамилени
мамиленин
мамилеси
мамилесин
мамилесине
мамилесинин
мамл
мамлекет
мамлекети
мамлекетин
мамлекетинде
мамлекетиндеги
мамлекетине
мамлекетинин
мамлекетке
мамлекетте
мамлекеттеги
мамлекеттен
мамлекеттер
мамлекеттерге
мамлекеттерде
мамлекеттердеги
мамлекеттерди
мамлекеттердин
мамлекеттери
мамлекеттеринде
мамлекеттеринин
мамлекетти
мамлекеттик
мамлекеттин
мамлекеттүүлүгүнүн
мамы
мамык
мамыр
мамытов
ман
манабы
манап
манаптар
манаптын
манас
манаса
манаска
манаста
манастаануу
манастагы
манастан
манасты
манастын
манасчы
манасчылар
манасчылардан
манасчылардын
манасчылары
манасчылык
манасчынын
манасчысы
манат
манга
манго
мангр
манжа
манжалардын
манжалары
манжу
манжур
мансап
мансур
мансфельд
манфред
манчестер
мао
мар
марага
марал
марат
марбург
маргалаң
марганец
маргарет
мари
марии
марина
марино
марио
мария
мариям
марк
марка
маркадагы
маркасы
маркасына
маркасындагы
маркетинг
марко
марков
маркс
марксизм
марксизмдин
марксисттик
маркстын
маркум
маркумду
маркумдун
маркус
марокко
марс
марстын
март
марта
мартин
мартта
марттан
мартына
мартынан
мартында
мартындагы
марш
маршал
маршалл
маршалы
маршрут
мары
мас
маселе
маселеге
маселелер
маселелерге
маселелерди
маселелердин
маселелери
маселелерин
маселелерине
маселелеринин
маселен
маселени
маселенин
маселеси
маселесин
маселесине
маска
масс
масса
массага
массаж
массалары
массаларынын
массалуу
массалык
массанын
массасы
массасын
массасына
массасынын
массачусетс
массивдери
массивдүү
массиви
массы
мастер
мастери
масштабда
масштабдагы
масштабдуу
масштабы
масы
мат
матем
математиги
математик
математика
математикада
математикалык
математиканы
математиканын
матер
матери
материал
материалам
материалга
материалдан
материалдар
материалдарга
материалдардан
материалдарды
материалдардын
материалдары
материалдарын
материалдарынын
материалдуу
материалды
материалдык
материалдын
материализм
материалисттик
материалов
материалы
материалын
материалынын
материи
материк
материктик
материктин
материя
материянын
матрица
маттиас
матч
мать
маунт
махабат
махабаты
махмуд
маш
машаиак
машаиакка
машаиактын
машак
машина
машинага
машинада
машиналар
машиналарды
машиналардын
машиналары
машиналарын
машинаны
машинанын
машинасы
машине
машыгуу
машыгууга
машыгып
машыккан
машыктыруучу
машыктыруучусу
мая
маяк
маяковскии
маңдаи
маңдаиы
маңдаиына
маңдаиында
маңыз
маңыздуу
маңызы
маңызын
маңызына
мвт
мг
мге
мгунун
мгц
мдеи
мден
мдж
ме
мед
медал
медалга
медалдар
медалдардын
медалдары
медалы
медалын
медалына
медалынын
медаль
медет
медиа
медина
медицина
медицинада
медициналык
медицинанын
медицинасы
медленно
медпункт
медресе
между
междунар
международнои
международныи
мезгил
мезгилге
мезгилде
мезгилдеги
мезгилден
мезгилдер
мезгилдерге
мезгилдерде
мезгилдердин
мезгилдери
мезгилдеринде
мезгилдеринин
мезгилди
мезгилдик
мезгилдин
мезгилдүү
мезгили
мезгилин
мезгилинде
мезгилиндеги
мезгилине
мезгилинен
мезгилинин
мезгилсиз
мезень
мезозои
мезолит
меикиндиги
меикиндигин
меикиндигинде
меикиндигиндеги
меикиндигинин
меикиндик
меикиндикке
меикиндикте
меикиндиктеги
меикиндикти
меикиндиктин
меили
меиман
меиманд
меиманкана
мек
мекеге
мекеме
мекемеге
мекемелер
мекемелерге
мекемелерде
мекемелерди
мекемелердин
мекемелери
мекемелерин
мекемелеринде
мекемелерине
мекемелеринин
мекеменин
мекемеси
мекемесинин
мекен
мекенге
мекендеген
мекендеит
мекендеп
мекенди
мекендик
мекендин
мекени
мекеним
мекенин
мекенине
мекке
меккеге
меккеде
меккелик
мекленбург
мексика
мексикада
мексикалык
мексиканын
мексико
мектеби
мектебин
мектебинде
мектебине
мектебинен
мектебинин
мектеп
мектепке
мектепте
мектептеги
мектептен
мектептер
мектептерге
мектептерде
мектептерди
мектептердин
мектептери
мектептеринде
мектептеринин
мектепти
мектептин
мелдеш
мелдешке
мелдеште
мелдештер
мелдештерге
мелдештерде
мелдештин
мелеуз
мелиорация
мелис
мелкие
мелүүн
мембрана
мемориал
мемориалдык
мен
менде
мендеи
менделеев
менден
мене
менеджер
менеджери
менеджмент
менен
мененки
мени
меники
менин
менмин
менчиги
менчигине
менчигинин
менчик
менчикке
менчикти
менчиктин
меньшевиктер
меня
мера
мергель
мерген
мергенчи
мергенчилик
мерзебург
меридиан
мерке
меркиш
меркурии
мерт
меры
месопотамия
места
местах
месте
место
металл
металлга
металлдан
металлдар
металлдарга
металлдардан
металлдарды
металлдардын
металлдары
металлды
металлдык
металлдын
металлургия
металлургияда
металлургиялык
метаморфизм
метаморфизмделген
метан
метасоматоз
метафизикалык
метеор
метеорология
метеорологиялык
метил
метод
методдор
методдорду
методдордун
методдору
методдорун
методдорунун
методду
методдун
методика
методикалык
методикасы
методикасын
методист
методические
методическое
методологиялык
методу
методун
методунун
методы
метр
метраждуу
метрге
метрдеи
метрден
метрди
метро
метрополитен
метросу
метросунун
мех
механизатор
механизм
механизмдер
механизмдерди
механизмдердин
механизмдери
механизмдерин
механизмдин
механизми
механизмин
механик
механика
механикада
механикалаштыруу
механикалаштырылган
механикалык
механиканын
механикасы
механикасында
механикасынын
меч
мечетлин
мечит
мечити
мечиттер
мечиттин
меш
меши
мешок
ми
мианын
миграция
миграциясы
мид
миддлсекс
мидия
мидлсекс
миздүү
мизи
мизин
микро
микроб
микробдор
микробдордун
микробиология
микроорганизмдер
микроорганизмдердин
микроскоп
милан
милдет
милдети
милдетин
милдетине
милдеттенген
милдеттенет
милдеттенме
милдеттенмелер
милдеттенмелерди
милдеттенмелери
милдеттенмелерин
милдеттенмеси
милдеттер
милдеттерди
милдеттердин
милдеттери
милдеттерин
милдеттерине
милдеттеринин
милдетти
милдеттүү
милиция
милициянын
миллер
миллиард
миллион
миллионго
миллиондогон
миллиондон
милте
милыи
мильтенберг
мин
мина
минген
мингизип
минден
минерал
минералдар
минералдардан
минералдардын
минералдары
минералдашкан
минералдуу
минералдык
минералогия
минералы
мини
миниатюра
минималдуу
минимум
минип
министирлиги
министирлигинин
министр
министрдин
министри
министринин
министрлер
министрлиги
министрлигинде
министрлигине
министрлигинин
министрлик
миннесота
минск
минтип
минуса
минусин
минута
минутада
минутадан
миокарддын
мир
мира
мире
мирза
мис
мисал
мисалга
мисалдар
мисалдарды
мисалы
мисалында
мисир
мисирге
мисирде
мисирден
мисс
миссисипи
миссия
миссури
мисте
мистикалык
мите
мителер
мителик
митинг
митингчилер
миф
мифология
мифологиялык
мифологиясында
мифтаков
мифтер
мифтик
михаил
михаилович
михель
мичиган
мичурин
мишкин
миякин
миң
миңге
миңдеген
миңдеи
миңден
миңжылдыктын
миңи
мкг
мкм
мл
млн
млнго
млндон
млрд
мм
ммге
ммдеи
ммден
ммк
мн
мне
многие
многих
много
многокр
мнои
мо
мобилдик
мог
могол
моголдор
моголстан
моголстандын
могу
могут
мода
моделдер
моделдери
моделдештирүү
моделдөө
модели
моделин
модель
модерн
модулу
модэ
мое
моего
моеи
может
можно
мозаика
мозамбик
мои
моинок
моину
моинуна
моинунда
моиун
мокеев
мол
молдаван
молдавия
молдо
молдобаев
молдобасан
молдобасанов
молдова
молдокасымов
молдонун
молекула
молекулалар
молекулалардын
молекулалары
молекулаларынын
молекулалуу
молекулалык
молекуланын
молекуласы
молекуласынын
молекулярдык
молибден
моллюскалар
моллюскалардын
моло
молодая
молодец
молодои
молодца
молока
молоко
моль
мом
момент
моменти
момокон
момун
момундар
момундарга
монако
монарх
монархия
монархиялык
монастыры
монг
монгол
монголдор
монголдордун
монголии
монголия
монголияда
монголиядагы
монголиянын
монета
мониторинг
монмут
моно
монография
монографиянын
монографиясы
монолог
монополиялык
монотиптүү
монреаль
монтаж
монтана
монумент
монументалдык
монументтик
мончо
мончок
мончонун
моос
моралдык
мораль
морган
море
морена
мореналар
морис
мороз
морозково
моррис
морт
морфол
морфология
морфологиялык
морфологиясы
москва
москвага
москвада
москвадагы
москвадан
москвалык
москваны
москванын
москвы
мотив
мотивдер
мотивдердин
мотивдери
мотиви
мотоаткычтар
мотор
мотоцикл
мохаммад
моцарт
мочевина
мою
моюн
моюнга
моюндун
моюну
моюнуна
моя
моңгол
моңголдор
моңголдордун
моңголия
моңголияда
моңголиянын
моңголчо
моңолдор
мпа
мрамор
мтс
му
мугалим
мугалимдер
мугалимдерге
мугалимдерди
мугалимдердин
мугалимдери
мугалимдик
мугалимдин
мугалими
мужа
мужчине
мужчины
муз
муздак
муздап
муздар
муздаткыч
муздаткычта
муздатуу
муздун
музеи
музеиге
музеиде
музеидин
музеии
музеиинде
музеиине
музеиинин
музеилер
музеилери
музоо
музыка
музыкага
музыкада
музыкалуу
музыкалык
музыкант
музыканттар
музыканы
музыканын
музыкасы
музыкасын
музыкасына
музыкасында
музыкасынын
мукаи
мукам
мукамбаев
мукаш
муки
муктаж
муктаждыгын
муктаждык
муктаждыктарын
мулла
мультфильм
мумкун
мунаи
мунаидын
мунара
мунаралар
мунаранын
мунарасы
мундуз
муниципалдык
муниципалитет
муниципалитеттин
муну
мунун
мур
мурас
мураска
мураскери
мураскор
мурастар
мурастары
мурастарын
мурастын
мурасы
мурасын
мурат
муратаалы
мураталиев
муратбек
муратов
мургаб
мурда
мурдагы
мурдагыдаи
мурдагыдан
мурдакы
мурдараак
мурдатан
мурду
мурдун
мурдунан
мурун
мурунга
мурундан
мурундун
мурунку
мурункудаи
мурунтан
мурут
муруту
муса
мусага
мусаев
мусакожоев
мусакожоева
мусаны
мусанын
муслим
муссон
муссондук
мустафа
мусулман
мусулмандар
мусулмандарга
мусулмандардын
мусулмандык
мусулманкул
мусулманкуловдун
мутация
муун
муунак
муунактуу
муунга
муундагы
муундан
муундар
муундарга
муундарды
муундардын
муундары
муунду
муундун
мууну
мухаммад
мухаммед
мухаммеддин
мухтар
мушкер
мушриктер
мушташ
муштум
муң
муңдуу
мы
мыизам
мыизамга
мыизамда
мыизамдар
мыизамдарга
мыизамдарда
мыизамдарды
мыизамдардын
мыизамдары
мыизамдарын
мыизамдарына
мыизамдарында
мыизамдарынын
мыизамдуу
мыизамды
мыизамдык
мыизамдын
мыизамсыз
мыизамы
мыизамын
мыизамына
мыизамында
мыизамынын
мык
мыкаачылык
мыкты
мыктысы
мылтык
мылтыктын
мын
мына
мында
мындагы
мындаи
мындаича
мындан
мынча
мынчалык
мырза
мырзанын
мыскал
мысли
мысль
мышык
мышьяк
мьянма
мэдисон
мэи
мэн
мэр
мэри
мэриленд
мэриясынын
мээ
мээге
мээде
мээнет
мээнин
мээрим
мээримдүү
мээси
мюзикл
мюллер
мюльдорф
мюнстер
мюнхен
мяса
мясо
мүдүрү
мүдөөсүн
мүиүз
мүиүздүү
мүиүздөн
мүиүзү
мүлк
мүлккө
мүлктү
мүлктүк
мүлктүн
мүлкү
мүлкүн
мүлкүнө
мүмкүн
мүмкүндүгү
мүмкүндүгүн
мүмкүндүк
мүмкүнчүлүгү
мүмкүнчүлүгүн
мүмкүнчүлүгүнүн
мүмкүнчүлүгүнө
мүмкүнчүлүк
мүмкүнчүлүктөр
мүмкүнчүлүктөрдү
мүмкүнчүлүктөрү
мүмкүнчүлүктөрүн
мүмкүнчүлүктөрүнө
мүнөз
мүнөзгө
мүнөздүү
мүнөздө
мүнөздөгү
мүнөздөгөн
мүнөздөит
мүнөздөлгөн
мүнөздөлүүчү
мүнөздөлөт
мүнөздөмө
мүнөздөмөлөрү
мүнөздөмөлөрүн
мүнөздөмөсү
мүнөздөп
мүнөздөө
мүнөздөөчү
мүнөзү
мүнөзүн
мүнөзүндө
мүнөзүндөгү
мүнөзүнүн
мүнөзүнө
мүнөт
мүнөттөн
мүрзө
мүрзөгө
мүрзөдөн
мүрзөлөр
мүриц
мүчө
мүчөлүгүнө
мүчөлүккө
мүчөлүү
мүчөлөр
мүчөлөрдүн
мүчөлөрү
мүчөлөрүн
мүчөлөрүнүн
мүчөлөрүнө
мүчөнүн
мүчөсү
мүчөсүн
мүчөсүнүн
мүчөсүнө
мүчөсүнөн
мүшкүл
мөмө
мөмөлүү
мөмөлөит
мөмөлөрү
мөмөсү
мөмөсүндө
мөндүр
мөңгү
мөңгүдөн
мөңгүлүү
мөңгүлөр
мөңгүлөрдүн
мөңгүлөрдөн
мөңгүлөрү
мөңгүнүн
мөңгүсү
мөңгүсүнүн
мөөнөт
мөөнөткө
мөөнөттүн
мөөнөттүү
мөөнөттө
мөөнөтү
мөөнөтүн
мөөнөтүнө
мөөнөтүнөн
мөөр
мөөрү
н
на
наам
наама
наамга
наамдар
наамдары
наамдарын
наамдарына
наамды
наамы
наамын
наамына
наамынын
наар
нааразы
нааразылыгын
нааразылык
набрасываться
набыт
навигация
навои
нагыз
над
надежда
надир
надыр
назад
назар
назаралиев
назарбаев
название
назик
назира
наиза
наизанын
наиман
наиманбаи
наимандар
нак
накта
накталаи
накыл
нам
намаз
намазга
намазды
намазын
наманган
наме
намыс
намысын
намысына
нан
нанды
наполеон
напр
нар
нарбото
нардан
наристе
наристени
нарк
нарктуу
нарктын
наркы
наркын
наркынын
нармаматова
народ
народа
народного
народнои
народные
народов
народом
народу
народы
наруто
нары
нарын
нарынбаева
нарынга
нарында
нарындагы
нарындын
нас
насаат
насаатчы
население
населения
насип
насир
насирдин
наследие
наследия
насос
наср
насыикат
насыр
насыя
насыят
наталья
нато
натонун
натрии
натриилүү
натуралаи
натуралдык
натыижа
натыижага
натыижада
натыижалар
натыижаларга
натыижаларды
натыижалары
натыижаларын
натыижалуу
натыижалуулугу
натыижалуулугун
натыижасы
натыижасыз
натыижасын
натыижасында
наук
наука
науке
науки
науру
науч
научно
научнои
научныи
научных
находящиися
национальнои
национальныи
начал
начала
начале
начали
начало
начальниги
начальнигинин
начальник
начальниктин
начар
начарлаган
начарлаганда
начарлаит
начарлап
начарлатат
начарлашы
наш
наша
нашатырь
наших
нда
ндагы
не
неаполь
небере
неберелери
небереси
небо
небольшои
небраска
невада
невесты
невскии
неге
негиз
негизге
негизги
негизгилери
негизгиси
негизде
негиздеген
негиздеит
негизделген
негизделет
негизделип
негизденген
негиздеп
негиздер
негиздери
негиздерин
негиздешкен
негиздик
негиздүү
негиздөө
негиздөөгө
негиздөөчү
негиздөөчүлөрдүн
негиздөөчүлөрү
негиздөөчүлөрүнүн
негиздөөчүсү
негизи
негизин
негизинде
негизиндеги
негизине
негизинен
негизинин
негизсиз
него
негр
негрлер
нее
неи
неитралдуу
неитрон
неитрондор
неитрондордун
неккар
некоторые
некоторых
нельзя
нем
неме
немец
немецтик
немецче
немис
немистер
немисче
немного
нему
немцов
нен
ненец
ненецк
неоген
неогендин
неолит
непал
нептун
нерв
нервдер
нервдери
нервдин
нерсе
нерсеге
нерседе
нерседен
нерселер
нерселерге
нерселерде
нерселерден
нерселерди
нерселердин
нерселерин
нерсени
нерсенин
нерсеси
нерсесин
нескара
несколько
несметное
несториан
несчастье
нет
неуклюже
нефелиндүү
нефрит
нефтини
нефтинин
нефть
нече
нечен
ни
нибудь
нивалдык
нигер
нигерия
нидерл
нидерланд
нидерланддар
ниет
ниети
нижегород
нижнии
низами
низаминин
ник
никаких
никакого
никарагуа
нике
никеге
никеде
никель
никогда
никола
николаев
николаевич
николаи
никотин
никто
никудышныи
нил
ним
ними
нин
нина
ниобии
ниро
них
ница
ницше
ничего
ничке
ниэнбург
ния
нияз
ниязбек
ниязов
нм
но
нобел
нобель
новая
новгород
новелла
нового
новое
новокузнецк
новосибирск
новости
новые
новыи
ног
ногами
ноги
ногои
ногоидун
ногу
нои
ноивид
ноигут
ноиштадт
номер
номери
номиналдык
номинация
номинацияларына
номинациясы
номинациясын
номинациясына
номинациясында
номинациясынын
номуру
ноокат
ноокен
нооруз
нооту
норберт
норвег
норвегия
норвегиялык
норвегиянын
нордхаузен
норма
нормага
нормадан
нормалар
нормалары
нормаларын
нормалдуу
нормасы
нормативдик
норс
норфолк
нос
носом
нота
нотага
ноу
ночь
ночью
ноябрда
ноябрдан
ноябрына
ноябрынан
ноябрында
ноябрь
ноябрьда
ноября
нравалык
нс
ну
нугу
нугунда
нужно
нук
нукка
нуклеин
нукура
нукус
нун
нундагы
нур
нура
нурак
нурбек
нурга
нурдин
нурду
нурдун
нуриман
нурлан
нурлануу
нурланууну
нурлануунун
нурлануусу
нурлануусунун
нурлар
нурларды
нурлардын
нурлары
нурларын
нурларынын
нурмолдо
нурсултан
нуру
нуруддин
нурун
нурунун
нуска
нускада
нускалары
нускалуу
нусканы
нускасы
нускасын
нух
ны
нык
ным
нымдуу
нымдуулугу
нымдуулук
нымды
нымдын
нын
нью
ньютон
ньютондун
ньюфаундленд
нюрнберг
нязепетровск
нү
нүзүп
нүн
нөл
нөлгө
нөлдүк
нөшөр
о
об
обзор
обкомдун
обкомунда
обкомунун
обл
областеи
области
областтык
областы
областык
областын
областына
областында
областындагы
областынын
область
облаткомдун
облигация
облус
облуста
облустары
облустарында
облустарынын
облусттук
облустук
облустун
облусу
облусужер
облусун
облусуна
облусунда
облусундагы
облусунун
облысы
обо
обого
оболу
обон
обондор
обондорду
обондору
обондуу
обону
обончу
обончулары
обочо
обочолонгон
обочолонуп
обочолонуу
обр
образ
образдар
образдарды
образдардын
образдары
образдарын
образдуу
образды
образдык
образдын
образование
образования
образы
образын
образына
образында
образынын
обращение
обсерватория
обучения
общее
общероссиискии
общества
общество
община
общиналык
объект
объекти
объективдүү
объектиге
объектилер
объектилерди
объектилердин
объектилери
объектилерин
объектилеринин
объектини
объектинин
объектиси
объектисине
объектисинин
объектов
объекттер
объекттерди
объекттердин
объекттин
обычаи
обычно
обь
обьективдүү
овец
овца
овцу
овцы
огаио
ого
огонь
огу
огуз
огуздар
огуздардын
огуна
огунда
огунун
ода
одежда
одежде
одежду
одежды
оденвальд
одесса
один
одна
одним
одно
одного
однои
одном
одну
одоно
ожукеева
оз
озгочо
озеро
озон
озу
озун
озунун
озуп
ои
оиго
оигонуп
оидо
оидогудаи
оидон
оиду
оидун
оидуң
оидуңдар
оидуңдарда
оидуңдун
оидуңу
оидуңуна
оидуңунда
оидуңунун
оилогон
оилоим
оилоит
оилом
оиломдун
оилонуп
оилонуу
оилоо
оилоп
оилор
оилорду
оилору
оилорун
оимо
оимок
оимочу
оиногон
оиноду
оинои
оиноит
оинолгон
оинолот
оинолуучу
оиноо
оиноого
оиноочу
оиноп
оинотуп
оиношкон
оиношот
оиноштук
оирон
оирот
оироттор
оироттордун
оичул
оичулу
ок
ока
оказаться
оказывается
оказывать
окато
океан
океанга
океанда
океандагы
океандык
океандын
океаны
океанына
океанында
океанындагы
океанынын
океев
окистендиргич
окистендирүүдөн
окистенет
окистенип
окистенүү
окко
оккупацияланган
оклахома
окмоту
около
округ
округга
округдук
округу
округуна
округунда
округунун
оксиддери
оксиди
оксидин
оксфорд
окт
окту
октун
октуу
октябрга
октябрда
октябрдагы
октябрдан
октябрдын
октябрына
октябрынан
октябрында
октябрь
октября
оку
окуган
окуганда
окуи
окуит
окулат
окулган
окулуп
окумуштуу
окумуштуулар
окумуштуулардын
окумуштуулары
окумуштуулук
окумуштуунун
окумуштуусу
окуп
окурман
окурмандар
окурмандарга
окурмандарды
окурмандардын
окутат
окуткан
окутулат
окутуп
окутуу
окутууга
окутууда
окутууну
окутуунун
окутуучу
окутуучулар
окутуучулары
окутуучулук
окутуучусу
окуу
окууга
окууда
окуудан
окууну
окуунун
окуусу
окуусун
окуусуна
окуусунда
окуусунун
окуучу
окуучуга
окуучулар
окуучуларга
окуучуларды
окуучулардын
окуучулары
окуучуларын
окуучуларына
окуучуларынын
окуучунун
окуучусу
окушат
окуя
окуяга
окуяда
окуядан
окуялар
окуяларга
окуяларда
окуялардан
окуяларды
окуялардын
окуялары
окуяларын
окуяларына
окуяларынын
окуялуу
окуяны
окуянын
окуясы
окуясын
окуясына
окуясында
окуясынын
окшобогон
окшогон
окшоит
окшоп
окшош
окшошот
окшоштугу
окшоштук
окшоштуктар
окшоштуруп
окшошуп
ол
ола
олег
олжо
олжобаи
олжого
олжолоп
оливер
олимпиада
олимпиадалык
олимпия
олимпиялык
олку
олтурат
олтурган
олтуруп
олтурушат
олуттуу
олуя
ольга
ольденбург
ом
оман
омар
омор
оморов
омск
омуртка
омурткалуу
омурткалуулардын
омуртканын
омурткасыз
омурткасыздар
омь
он
она
онго
ондогон
ондон
ондук
онегин
они
оникс
онкология
онлаин
оно
онор
онтологиялык
онунчу
оо
ооба
ооган
ооганстан
ооганстанда
ооганстандын
оогон
оодарып
оодарыш
ооз
оозго
ооздон
оозду
ооздун
оозеки
оозу
оозун
оозуна
оозунан
оозунда
оокат
оокаттуу
оолак
оомииин
оон
оона
ооп
оор
оордук
оордуна
оору
ооруга
ооруган
ооруганда
ооругандар
оорудан
ооруит
оорукана
ооруканага
ооруканада
ооруканадан
оорукананын
ооруканасында
ооруканасынын
оорулар
ооруларга
ооруларда
оорулардан
ооруларды
оорулардын
оорулары
ооруларын
ооруларына
ооруларынан
ооруларында
ооруларынын
оорулуу
оорулууга
оорулуулар
оорулууларды
оорулуулардын
оорулууну
оорулуунун
ооруну
оорунун
ооруп
ооруса
оорусу
оорусун
оорусуна
оорусунан
оорусунда
оорусунун
ооруу
оорушу
оошуп
оп
опера
опералары
опералык
операнын
операсы
операсын
операсында
операсынын
оперативдик
оперативдүү
оператор
оператордук
операторлор
оператору
операциондук
операция
операциядан
операциялар
операцияларды
операциялардын
операцияларын
операциялык
операцияны
операциясы
описание
опора
оппозиция
оппозициялык
оппозициянын
оптика
оптикалык
оптиканын
оптималдуу
оптимисттик
опыт
опять
ор
оратор
орбита
орбиталык
орбитасынын
орг
орган
органга
органдар
органдарга
органдарда
органдарды
органдардын
органдары
органдарын
органдарына
органдарында
органдарынын
органдын
организации
организация
организм
организмге
организмде
организмдеги
организмден
организмдер
организмдердин
организмди
организмдин
организми
организминде
организминдеги
организмине
организминин
органикалык
органы
органына
органынын
орго
орден
ордендер
ордендери
ордендүү
ордени
орденин
орденинин
ординатор
ордо
ордовик
ордовиктин
ордого
ордодо
ордодогу
ордонун
ордосу
ордосун
ордосуна
ордосунда
орду
ордун
ордуна
ордунан
ордунда
оре
орегон
орел
оренбург
оригиналдуу
оркестр
оркестрдин
оркестри
оркестринде
оркестринин
орла
орлов
орловка
ормон
орнамент
орногон
орногондон
орноп
орноткон
орнотулат
орнотулган
орнотулуп
орнотуп
орнотуу
орнотууга
орношкон
орношот
орноштуруу
орношу
оро
орозбак
орозбаков
орозбаковдун
орозбек
орозбеков
орозо
орозов
орои
орок
оролгон
оролуп
ороп
орск
орт
ортенау
орто
ортого
ортодо
ортодогу
ортодон
орток
ортоктош
ортолорунда
ортолук
ортомчу
ортомчулук
ортонку
ортосу
ортосун
ортосуна
ортосунан
ортосунда
ортосундагы
орточо
ортоңку
оружие
орузбаев
орузбаева
орун
орунбасары
орунга
орунда
орундан
орундар
орундарды
орундардын
орундарын
орунду
орундуу
оруну
оруп
орус
орусия
орусияга
орусияда
орусиядагы
орусиялык
орусиянын
орустар
орустарга
орустардын
орустун
орусча
орусчага
орфографиялык
орхон
орчундуу
ос
оскар
оскардын
осло
осман
осмон
осмонаалы
осмоналиев
осмонкул
осмонов
осмоновдун
осмос
оснабрюк
основные
основы
особдордун
особенности
ост
осталось
остался
останется
остатки
осторожно
островскии
осуят
от
отв
ответственныи
отвл
отгадка
отелло
отец
отко
откон
отличниги
относиться
отношение
отношении
отношения
ото
отоб
отоо
оторбаев
отриц
отряд
отряддын
отряды
отставкага
отто
оттон
отту
оттук
оттун
оттуу
оту
отуз
отун
отунбаева
отундар
отунду
отундун
отуну
отур
отура
отурат
отурган
отурганда
отургузулган
отургузуп
отургузуу
отурду
отурукташа
отурукташкан
отурукташып
отуруп
отца
отчет
отчету
оушен
оф
офицер
офицердик
офицери
офицерлер
официалдуу
официальныи
охот
охота
охотник
очень
очерк
очерки
очерктер
очерктери
очогу
очок
ош
оша
ошгу
ошентип
ошентсе
ошко
ошмунун
ошо
ошого
ошол
ошолор
ошолордун
ошон
ошондо
ошондои
ошондон
ошондуктан
ошону
ошонун
ошончо
ошончолук
ошто
оштогу
оштун
ою
оюк
оюлган
оюлуп
оюм
оюмдан
оюмдар
оюмдарды
оюмдары
оюмдарын
оюмдарынын
оюмду
оюмдун
оюму
оюмун
оюмунан
оюмунун
оюн
оюна
оюнга
оюнда
оюндан
оюндар
оюндарга
оюндарда
оюндарды
оюндардын
оюндары
оюндарын
оюндарына
оюндарында
оюндарынын
оюнду
оюндун
оюну
оюнун
оюнуна
оюнунда
оюнунун
оюнча
оюнчу
оюнчуга
оюнчук
оюнчуктар
оюнчулар
оюнчуларга
оюнчуларды
оюнчулардын
оюнчулары
оюнчуну
оюнчунун
оюнчусу
оюп
оюу
оң
оңго
оңд
оңдолгон
оңдолуп
оңдон
оңдоо
оңдоого
оңдоочу
оңдоп
оңои
оңтоилуу
оңчул
п
па
пабыл
павел
павлов
павлович
павловск
павлодар
падишах
падыша
падышага
падышалар
падышалардын
падышалары
падышалыгы
падышалыгынын
падышалык
падышалыктын
падышанын
падышасы
падышасынын
падышачылыгы
падышачылыгын
падышачылыгынын
падышачылык
паи
паигамбар
паигамбарга
паигамбарды
паигамбардын
паигамбарлар
паигамбарларды
паигамбарлардын
паигамбарчылык
паигамбарыбыз
паигамбарыбыздын
паида
паидалана
паидаланат
паидаланган
паидалангандыгы
паидаланса
паидалануу
паидаланууга
паидаланууда
паидалануудан
паидаланууну
паидалануунун
паидалануучу
паидаланыла
паидаланылат
паидаланылган
паидаланылууда
паидаланылуучу
паидаланылып
паидаланылышы
паидаланып
паидаланышат
паидаланышкан
паидаланышы
паидалуу
паидасы
паидасыз
паидасына
паидубалы
паидубалын
паиыз
паиызга
паиыздан
паиызды
паиыздык
паиызы
паиызын
пак
пакети
пакистан
пакистанда
пакистандагы
пакистандын
палата
палаталуу
палатасы
палатасынын
палау
палеоген
палеогендин
палеозои
палеозоидун
палеолит
палестина
пальма
пальмасы
пальто
памир
памирде
памяти
памятники
памятников
пан
панама
панфилов
папа
папан
папасы
пар
пара
парагваи
параллелдери
параллели
параллель
параметрлери
параметрлерин
парвин
паренек
парень
парз
париж
парижге
парижде
париждеги
парк
парктар
парктары
паркы
парламент
парламенти
парламентинин
парламентке
парламентте
парламентти
парламенттик
парламенттин
парное
паром
пароход
парт
партенкирхен
партизан
партизандык
партии
партия
партияга
партиядан
партиялар
партияларды
партиялардын
партиялары
партиялуу
партиялык
партиянын
партиясы
партиясын
партиясына
партиясынан
партиясынын
парфюмерия
пархим
парциалдык
пас
пасах
паскаль
паспорт
пассат
пассаттык
пассау
пассивдүү
паста
пастбище
патент
патология
патологиялык
патриархалдык
патрик
патриоттук
пауль
пахта
пахтанын
пахтачы
пахтачылык
пвап
пвпвап
пегматит
пед
педагог
педагогдор
педагогдук
педагогика
педагогикалык
педагогиканын
педагогикасы
педиатрия
пеизаж
пеизаждык
пеиил
пекин
пекинде
пелым
пенде
пенобскот
пенсия
пенсияга
пер
первая
первого
первои
первоисточника
первомаи
первыи
перевал
перевод
перед
перен
перепись
переполох
пери
период
периште
периштелер
периштелерге
периштелердин
периштеси
пермдин
пермь
перпендикуляр
перс
перси
персия
персоналдык
персоны
перспективы
перстер
перу
пес
песни
песня
петер
петербург
петербургга
петербургда
петербургдагы
петир
петр
петра
петров
петрович
петроград
петь
пехлеви
печаль
печора
печорск
пианист
пиво
пигмент
пикир
пикирге
пикирди
пикирдин
пикири
пикирин
пикиринде
пикирине
пикирлер
пикирлерге
пикирлерди
пикирлери
пикирлерин
пикирлерине
пил
пилат
пили
пиниин
пиннеберг
пионер
пионери
пир
пирамида
пиренеи
пири
пирит
пиррол
пирс
писатель
письмо
питер
питт
пить
пица
пишпек
пишпекте
пища
пищи
пищу
пияз
плазма
плазманын
плакат
плакать
план
планга
планда
пландагы
пландары
пландарын
пландаштыруу
пландаштырылган
пландоо
пландуу
планды
планета
планеталар
планеталардын
планеталык
планетанын
планетасы
планетасынын
планк
планы
планын
планына
планынын
пластикалык
пластинка
пластмасса
плата
платина
плато
платок
платолор
платон
платондун
платосу
платформа
платформанын
платформасы
платформасынын
платье
племен
племени
пленка
плеть
плетью
плотина
плохо
плюс
плөн
пневматикалык
пневмония
по
победа
повести
повестин
повестинде
повестинин
повесттер
повесттери
повесть
поводу
погов
погода
под
подарок
поддержку
подобно
подражание
подражательное
поезд
пожелание
позитивдүү
позициялык
позицияны
позициясы
позициясын
позициясында
поинт
поисках
поити
пока
покровка
покровская
покрытыи
пол
поле
полиграфия
полиграфиялык
поликлиника
полимер
полимерлер
полиметалл
политехника
политехникалык
политика
политология
полиция
полиэтилен
полк
полковниги
полковник
полктун
полку
полкунда
полкунун
полнои
полном
полностью
полныи
половине
половникова
положение
положении
положения
положить
полот
полтава
полу
получил
получить
полы
поль
польша
польшада
польшанын
поляк
полякча
померания
помидор
помощи
помощь
понуд
поп
попов
популярдуу
популярдуулукка
популяция
популяциянын
популяциясынын
пор
порода
породалары
породасы
порох
порт
портал
порталы
портрет
портрети
портреттери
портреттик
порттору
порту
португал
португалдар
португалия
португалиялык
португалиянын
португалияча
порфир
порфирит
поршендүү
порядке
порядок
посвященнои
поселков
после
последнии
пособие
пост
поставить
постко
постоянно
посттун
постуна
пот
потенциал
потенциалдуу
потенциалдык
потенциалы
потенциалын
потом
потому
поттер
почему
почет
почта
пошел
поэзия
поэзияда
поэзиянын
поэзиясы
поэзиясына
поэзиясында
поэзиясындагы
поэзиясынын
поэма
поэмалар
поэмалардын
поэмалары
поэманын
поэмасы
поэмасын
поэмасында
поэмасынын
поэмы
поэт
поэтика
поэтикалык
пояс
прав
права
правда
правдасы
право
православие
православныилар
прага
прагада
прадеш
практика
практикага
практикада
практикалык
практиканын
практикасы
практикасында
практическои
пред
предложение
предмет
предмети
предметин
предметтер
предметтерди
предметтердин
предметти
предметтик
предметтин
председатели
председателинин
председатель
предшеств
президент
президента
президенти
президентине
президентинин
президентке
президентти
президенттигине
президенттик
президенттикке
президенттин
президиума
президиуму
президиумунун
премиясы
премьер
премьерасы
препарат
препараттар
препараттары
пресс
пржевальск
при
прибор
прибордун
приборлор
приборлорду
приборлордун
приборлору
прибыл
приводить
придет
призма
приказал
прикладдык
прим
принимать
принстон
принт
принтер
принц
принциби
принцибин
принцибинде
принцибине
принцибинин
принцип
принциптер
принциптерге
принциптерди
принциптердин
принциптери
принциптерин
принциптерине
принциптеринин
принять
присвоении
пришел
приятныи
про
проблема
проблемалар
проблемаларды
проблемалардын
проблемалары
проблемаларын
проблемаларына
проблеманы
проблемасы
проблемасын
проблемы
проверено
провинция
провинцияга
провинциянын
провинциясы
провинциясында
провинциясынын
програм
програмды
програмдык
программа
программага
программада
программалар
программаларды
программалардын
программалары
программаларын
программаларына
программаларынын
программалоо
программалык
программаны
программанын
программасы
программасын
программасына
программасында
программасынын
программист
прогресс
прогрессивдүү
прогресстин
прогрессчил
продукт
продуктулар
продуктуларды
продуктулары
продуктуларын
продуктусу
продукция
продукциялар
продукцияларды
продукциялары
продукцияларын
продукцияны
продукциянын
продукциясы
продукциясын
продукциясынын
продюсер
продюсери
продюсерлери
продюсерлик
проект
проекциялык
проза
прозаик
прозалык
производить
производства
происхождение
прокат
прокофьев
прокуратура
прокуратурасында
прокурор
прокурордун
прокурору
прокурорунун
пролетардык
пролетариат
пролетариаттын
пролювии
промыселдик
пропаганда
пропагандалоо
пропагандалык
пропорциялаш
проректор
проректору
просить
проспект
простата
просто
протеин
протерозои
протерозоидун
протестант
протестанттар
против
протокол
протоколу
протон
проф
профессионал
профессионалдык
профессор
профессордук
профессорлор
профессору
профилактика
профилактикалык
профили
профсоюз
профсоюздар
профсоюздук
процент
проценттик
процесс
процесси
процессин
процессинде
процессиндеги
процессине
процессинен
процессинин
процесске
процессор
процессте
процесстер
процесстерге
процесстерде
процесстерди
процесстердин
процесстери
процесстерин
процесстеринде
процесстерине
процесстеринин
процессти
процесстик
процесстин
процессы
прощаи
проявлять
пруссия
прям
прямо
прүм
психикалык
психиканын
психолог
психология
психологияда
психологиялык
психологиянын
психологиясы
психологу
психотроптук
пскем
псков
птиц
птица
птице
птицы
публицист
публицистика
публицистикалык
пул
пулемет
пункт
пункту
пусть
путем
пути
путин
путь
пушкин
пушкиндин
пуэрто
пфальц
пфаффенхофен
пыль
пышма
пьер
пьеса
пьесалар
пьесаларды
пьесалары
пьесаларын
пьесанын
пьесасы
пьесасында
пять
р
ра
рабат
работа
работать
работе
работникам
работу
работы
равенсбург
рага
рагы
рада
радиация
радиациялык
радикал
радикалдуу
радикалдык
радио
радиоактивдүү
радиология
радионун
радиостанция
радиосу
радиосунда
радиосунун
радиоуктуруу
радиоэлектроника
радиус
радиусу
радлов
радон
радость
радуга
раев
раз
раза
разве
развитие
развития
разг
разговор
разговоры
разгром
раззаков
рази
разн
разные
разных
разряд
разряды
раиан
раиком
раикомунда
раикомунун
раинер
раинхард
раион
раиона
раионго
раиондо
раиондогу
раиондор
раиондорго
раиондордо
раиондордун
раиондору
раиондорун
раиондорунда
раиондорунун
раиондоштуруу
раиондук
раиондун
раионов
раиону
раионун
раионуна
раионунан
раионунда
раионундагы
раионунун
раионунундагы
раис
раит
рак
ракета
ракеталык
ралык
ральф
рамазан
ран
рандов
рано
раньше
раса
расалык
расасына
расмии
рассвет
рассел
рассказ
рассказы
растение
растения
растерялся
расул
расы
ратуша
рахат
рахман
рахманкул
рахмат
рахмонберди
рахмонов
рационалдуу
рационалдык
рашид
ре
реагенттер
реактивдүү
реактор
реакция
реакцияга
реакциялар
реакцияларды
реакциялардын
реакциялары
реакцияны
реакциянын
реакциясы
реакциясын
реакциясына
реакциясынын
реакциячыл
реал
реалдуу
реалдуулук
реалдык
реализм
реализмдин
реалист
реалисттик
реалияда
ребенка
ребенок
рев
революции
революционер
революция
революцияга
революциядан
революциялык
революцияны
революциянын
революциясы
революциясына
революциясынан
революциясынын
революциячыл
регенсбург
регион
регионалдык
региондук
региондун
ред
редактор
редактордун
редакторлор
редакторлору
редактору
редакторунун
редакция
редакциялык
редакциясы
редакциясында
редакциясынын
редко
редколлегия
реестри
реестриндеги
реестринин
реж
режим
режимде
режимди
режимдин
режими
режимин
режиминде
режимине
режиминин
режиссер
режиссердук
режиссердун
режиссерлор
режиссерлору
режиссерлук
режиссеру
реза
резерваты
резервдик
резиденциясы
резина
резонанс
резонанстык
резус
реи
реин
реинланд
реитинг
реитинги
реитингинде
рекдактор
реки
реконструкция
реконструкциялоо
рекорд
рекреациялык
ректор
ректору
рел
религии
реликт
рельеф
рельефи
рельефине
рельефинин
рельефтин
ремонттоо
рендсбург
рене
ренессанс
рента
рентген
рентгендик
репертуарында
репин
репродуктивдик
респ
республик
республика
республикабыздын
республикага
республикада
республикадагы
республикалар
республикаларда
республикалардын
республикаларынын
республикалык
республиканын
республикасы
республикасыжер
республикасын
республикасына
республикасында
республикасындагы
республикасынын
республике
республики
ресторан
ресурс
ресурстар
ресурстарга
ресурстарды
ресурстардын
ресурстары
ресурстарын
ресурстарына
ресурстарынын
ресурсу
референдум
референдумда
референт
рефлекс
реформа
реформалар
реформаларды
реформалоо
реформанын
реформасы
реформасын
рецензент
речи
речка
речь
решение
ри
рига
рижская
рика
рико
рим
риман
римге
римде
римдеги
римдик
римдиктер
римдиктердин
римдин
римжи
римскии
рио
рис
ритм
риторика
ритуалдык
рифеидин
рифтери
рихард
ричард
ркп
рн
рнк
ро
роберт
робин
робот
ровно
роговая
род
рода
рождения
рождество
роза
розенхаим
рок
роккингэм
роланд
ролго
ролдор
ролдордо
ролдорду
ролдору
ролдорун
ролду
ролу
ролун
ролуна
ролунда
роль
рольф
ром
роман
романда
романдагы
романдар
романдардын
романдары
романдарын
романдарында
романдарынын
романды
романдын
романс
романтизм
романтикалуу
романтикалык
романы
романын
романына
романында
романынын
ромб
ромео
рон
росс
россии
россииская
россиискои
россия
россияга
россияда
россиядагы
россиядан
россиялык
россиянын
рост
роста
ростов
рот
рота
ротенбург
ротталь
роулиң
рсдрп
рсдрпнин
рсфср
рсфсрдин
рта
ру
руанда
рубин
рублеи
рубль
руда
рудадагы
рудаки
рудакинин
рудалануу
рудалары
рудалуу
руданын
рудасы
рудольф
рудольштадт
ружье
ружья
рук
рука
руками
руках
руки
рукои
руку
рум
румын
румыния
румыниянын
рун
руна
руникалык
руперт
рур
рус
руслан
русская
русскии
русско
русского
русскои
русском
руссо
русь
рух
рухании
рухии
рухка
рухту
рухтун
руху
рухунун
рф
рфтин
ры
рыбинск
рыногу
рыногунда
рыногунун
рынок
рынокко
рынокто
рыноктук
рыноктун
рынын
рысбаев
рыскулов
рысменде
рысмендеевдин
рыцарь
рэи
рэп
ряд
рядом
рязань
рүгөн
рөн
с
са
саа
саадак
саадат
саал
саам
саан
саанчы
саап
саар
саарбург
саат
саатка
саатта
сааттан
сааттык
сааттын
сааты
саатына
саба
сабагы
сабагын
сабагынан
сабагында
сабагынын
сабак
сабакка
сабакта
сабактан
сабактар
сабактарды
сабактардын
сабактары
сабактарын
сабактуу
сабакты
сабактын
сабап
сабатсыз
сабатсыздыгын
сабатсыздыкты
сабаттуу
сабаттуулугу
сабаты
сабатын
сабиз
сабира
сабы
сабыр
сабырдуу
сабырдуулук
сав
саванна
сага
сагызган
сагымбаи
сагымбаидын
сагын
сагынбек
сагындык
сагыныч
сад
садага
садист
садык
садыков
садыковдун
садыр
сажда
саз
сазан
сазановдун
саздак
саздар
саздуу
саи
саиган
саид
саида
саиды
саидын
саикал
саикалданат
саикалдын
саилык
саима
саималанган
саималуу
саиманын
саимасы
саимачы
саимачылык
саимон
саира
саит
саите
саиттын
саиты
саитында
саитындагы
саитынын
саиф
саиылган
саиын
саиып
саиыш
саиышка
сак
сака
сакал
сакалдуу
сакалды
сакалы
сакасы
сакмара
саксондук
саксония
сакта
сактаган
сактагыч
сактагычтар
сактагычы
сактаи
сактаит
сакталат
сакталган
сакталуу
сакталууда
сакталуучу
сакталып
сакталышы
сакталышын
сакталышына
сактануу
сактап
сактар
сактардын
сактоо
сактоого
сактоодо
сактоону
сактоонун
сактоочу
сактык
сакчы
сал
сала
салааларга
салам
саламат
саламаттыгын
саламаттыгына
саламаттык
саламаттыкты
салар
саласы
салат
салауат
салбаи
салган
салганда
салгандан
салганы
салгыла
салгылаш
салгылашкан
салгылашта
салгылашуу
салгылашууда
салгылашы
салгылашында
салгылашып
салгыч
салды
салдырган
салдырып
салих
салкын
салм
салмагы
салмагын
салмагына
салмак
салмакта
салмактагы
салмактуу
салмактуулугун
салмактуулук
салмактуулукту
салмакты
салса
салт
салтанат
салтанаттуу
салтанаты
салтка
салттар
салттарды
салттардын
салттары
салттарын
салттарына
салттуу
салтты
салттык
салттын
салты
салтын
салтына
салтында
салтынын
салуу
салууга
салууда
салууну
салуунун
салуучу
салуучусу
салыгы
салык
салыктан
салыктар
салыктарды
салыкты
салыктын
салым
салымбеков
салымдары
салымдарын
салымы
салымын
салына
салынат
салынган
салынды
салынуучу
салынып
салынышы
салып
салыптыр
салыш
салышат
салышкан
салышты
салыштырганда
салыштырма
салыштырмалуу
салыштырмалуулук
салыштыруу
салыштырууга
салыштырылат
салыштырып
салышы
салышып
сальвадор
сам
саман
саманчы
саманчынын
самара
самаркан
самарканд
самат
самая
самбо
сами
самоа
самого
самое
самолет
самолеттун
самураи
самыи
самын
самындап
сан
сана
санаа
санаасы
санаган
саналат
саналбаит
саналган
саналуу
саналып
саналышат
санап
санарип
санариптик
санат
санатории
санга
санда
сандаган
сандагы
сандар
сандарды
сандардын
сандары
сандуу
санды
сандык
сандын
санжар
санжыра
санжырада
санжырасы
санжырасын
санжырасында
санжырачы
санитардык
санитария
санитариялык
санкт
саноо
санскрит
сансыз
санта
санташ
сантиметр
сантьяго
саны
санын
санына
санынан
санынын
сап
сапар
сапаралиев
сапарбек
сапарга
сапарда
сапары
сапат
сапатка
сапатта
сапаттагы
сапаттар
сапаттарга
сапаттарды
сапаттардын
сапаттары
сапаттарын
сапаттуу
сапаттык
сапаты
сапатын
сапатына
сапатынын
сапка
сапта
саптан
саптар
саптары
саптарын
саптуу
сара
сараи
сараида
сараидын
сараилар
сараиы
сараиына
сараиында
сараиынын
сарала
сарамжалдуу
саратов
сараң
саргыч
саринжи
сарп
сарпталган
сарт
саруу
сары
сарыбагыш
сарыбаев
сарыбаи
сарыдан
сарыжаз
сарык
сарымсак
сарысы
сасаниддер
сасык
сатат
сатерланд
сатира
сатиралар
сатиралык
саткан
сатук
сатурн
сатуу
сатууга
сатууда
сатууну
сатуучу
сатуучулар
сатыбалды
сатык
сатыкка
сатылат
сатылган
сатылганов
сатылгановдун
сатылып
сатып
сауд
саха
сахалин
сахара
сахаров
сахна
сахнага
сахнада
сахналык
сахнасында
саюу
сая
саяк
саякат
саякатчы
саякатчысы
саякаты
саякбаи
саякбаидын
саян
саясат
саясатка
саясатта
саясаттагы
саясатты
саясаттын
саясатчы
саясатчылар
саясаты
саясатын
саясатына
саясатында
саясатынын
саясии
саясыи
саят
сб
сборник
сведения
свердлов
свет
света
светлана
светлая
свитасынын
свод
свое
своего
своеи
своем
своему
свои
своим
своими
своих
свою
связи
связь
сге
сгс
сде
сделал
сделать
сден
се
себастьян
себе
себеби
себебин
себебине
себебинен
себеп
себепкер
себепсиз
себептен
себептер
себептерге
себептерден
себептердин
себептери
себептерин
себептеринин
себептүү
себепчи
себет
себя
себүү
сев
севернои
сегиз
сегизинчи
сегодня
седла
седло
сежде
сезбеи
сезген
сезгенген
сезгенгенде
сезгенет
сезгенип
сезгениши
сезгенүү
сезгенүүгө
сезгенүүсү
сезгич
сезгичтиги
сезгичтик
сезет
сезилет
сезилип
сезим
сезимге
сезимде
сезимден
сезимдер
сезимдерди
сезимдери
сезимдерин
сезимди
сезимдик
сезимдин
сезимдүү
сезими
сезимин
сезиминде
сезимине
сезиминин
сезип
сезон
сезондо
сезондук
сезондун
сезону
сезонунда
сезүү
сеидакматова
сеиил
сеиилдөө
сеиит
сеирек
сеисмология
сеитаалы
сеитек
сеитекке
сеитекти
сеитектин
сеичас
сек
секга
секин
секирик
секирип
секирүү
секрет
секретары
секретарь
секреция
секс
сексен
сексуалдык
сектор
сектордун
сектору
секторун
секторунда
секторунун
секунд
секунда
секундасына
сел
селекция
селенга
селжук
селжуктар
селитрасы
селкинчек
село
сельского
семантика
семантикалык
семеи
семен
семенов
семенович
семетеи
семетеиге
семетеиде
семетеиден
семетеиди
семетеидин
семетеичи
семиз
семинар
семирип
семирткич
семирткичтер
семирткичтерди
семит
семь
сен
сенат
сенде
сендеи
сенден
сенегал
сенека
сени
сеники
сенин
сент
сентябрга
сентябрда
сентябрдан
сентябрдын
сентябрына
сентябрынан
сентябрында
сентябрь
сентября
сеп
сепил
сепили
сепсис
сер
серб
сербия
сервер
сергеевич
сергеи
сергек
сердца
сердце
серек
сержант
сериал
сериалдын
сериалы
сериалында
серин
серия
сериядагы
сериялары
сериялуу
сериясы
сериясын
сериясындагы
сериясынын
серпилгич
серпилгичтик
серпилгичтүү
серыи
сессия
сессиясында
сеть
сеул
сефевид
си
сибир
сибирге
сибирде
сибирдеги
сибирди
сибирдин
сибири
сибирь
сигнал
сигналдарды
сигналдарын
сигналды
сигналдык
сидит
сиднеи
сидя
сиенит
сиерра
сиз
сизге
сизди
сиздин
сиидик
сил
сила
силер
силерге
силерде
силерден
силерди
силердин
силикат
силикаттар
силои
силос
силостун
силу
силур
силурдун
силы
сильно
сильныи
сим
символ
символдор
символдук
символикалык
символу
симметрия
симметриялуу
симон
симфония
симфониялык
син
сина
синаи
сингапур
сингапурда
сингапурдун
сингл
сингли
сингониясында
синдрому
синин
синирген
синоним
синоними
синтаксис
синтаксиси
синтаксистик
синтез
синтезде
синтезделет
синтездик
синтездөө
синтездөөдө
синтези
синтет
синтетикалык
синхрондуу
синьцзян
сирия
сириянын
систем
система
системага
системада
системадагы
системадан
системалар
системаларга
системаларда
системаларды
системалардын
системалары
системаларын
системаларында
системаларынын
системалуу
системалык
системаны
системанын
системасы
системасын
системасына
системасынан
системасында
системасындагы
системасынын
систематикалык
системдери
системи
системин
системинин
системы
сити
сицилия
сиңген
сиңди
сиңдиси
сиңет
сиңимдүү
сиңип
сиңирген
сиңирет
сиңирип
сиңирүү
сиңирүүчү
ска
скажи
сказал
сказать
сказка
сказки
скакун
скакуна
скандал
скандинавия
скарн
скачках
скелет
скелети
скиф
скобелев
сколько
скорпион
скот
скота
скотт
скрипка
скриптонит
скрябин
скульптор
скульпторлук
скульптура
скульптуралык
скуратов
слабыи
слава
славян
славяндар
сланец
сланецтер
сланецтердин
слегка
следует
слезы
слесарь
слов
слова
словак
словакия
словам
словами
словарь
словах
словения
слово
словом
слои
случае
слюда
см
смге
смдеи
смден
смерти
смерть
смирнов
смит
смоленск
смотреть
смотрит
сн
снаряд
снег
со
соавт
соавторстве
собака
собаки
собои
собор
собору
собрание
сов
совершенно
совет
совета
советбек
совети
советине
советинин
советская
советскии
советских
советского
советскои
советтер
советтердин
советтеринин
советтик
советтин
совместно
современнои
современном
современность
современные
совсем
совхоз
совхоздо
совхоздун
совхозу
совхозунда
совхозунун
согду
согот
согулган
согуп
согуу
согуш
согушка
согушкан
согушта
согуштагы
согуштан
согуштар
согуштарга
согуштарда
согуштардын
согуштары
согушту
согуштук
согуштун
согушу
согушун
согушуна
согушунан
согушунда
согушунун
согушуп
согушуу
сода
соз
созулат
созулган
созулма
созулуп
созулушу
соилоп
сок
соккон
сокку
сокмо
соко
соколов
сократ
соку
сокулук
сокур
сол
солго
солгун
солдат
солдон
солист
солисти
солнца
солнце
соло
соловьев
соломон
солон
солто
солтобаев
солтоноев
солтонун
солчул
соль
сом
сомали
сомго
сомдон
сомдоп
сомдук
сомерсет
сон
соната
сонун
соо
соода
соодага
соодагер
соодагерлер
соодада
сооданы
сооданын
соодасы
соолугу
соолугун
соолугуна
соолугунун
соолук
соолукка
соолукту
соолуктун
соолуп
соон
сооп
сооронбаи
сооронов
соорусу
соот
сопрано
сопредельных
сопу
соргуч
сорок
сорока
сорос
сорпо
сорт
сорттогу
сорттору
сортторун
сорту
соруп
сосна
сосновка
сост
состав
составдык
составе
составы
составын
составына
составында
составындагы
состояние
состоянии
сосьва
сот
сотко
сотто
соттолгон
соттор
соттордун
соттук
соттун
соту
сотунда
сотунун
соус
софия
сох
соц
социал
социалдык
социализм
социализмге
социализмди
социализмдин
социалистик
социалистического
социалисттик
социально
социолог
социологдор
социология
социологиялык
социологиянын
социялистик
соч
сочи
сочинении
союз
союза
союзга
союздаш
союздук
союздун
союзу
союзун
союзуна
союзунда
союзунун
союл
союлган
союп
соя
соң
соңку
соңуна
соңунда
соӊ
спартак
спб
спектаклдер
спектаклдерди
спектаклдери
спектаклдин
спектакли
спектаклинде
спектакль
спектр
спектрдик
спектрдин
спектри
спектрин
спектрлери
спектроскопия
спенсер
спецификалык
спилберг
спин
спиноза
спираль
спирт
спирти
спиртин
спиртте
спирттер
список
сплошь
спокоино
спора
спорт
спортко
спортто
спорттук
спорттун
спорту
спортунун
спортчу
спортчулар
спортчусу
справочниги
справочник
спрингс
спутник
ср
сразу
среди
средневековья
среднеи
сс
сср
ссри
ссринин
ссрнин
ссрс
ссср
сссрге
сссрде
сссрдеги
сссрдин
ст
ставить
ставрополь
стадион
стадиону
стадионунда
стадияда
стадиясы
стадиясына
стадиясында
стажер
стакан
стал
стала
стали
сталин
сталинград
сталиндик
сталиндин
стало
стамбул
стамбулда
стан
стандарт
стандарттар
стандарттары
стандарттуу
стандарттык
стандарты
стандын
становится
становиться
станок
станокто
станоктук
станции
станция
станциялар
станциялары
станциясы
станциясынан
станциясында
станциясынын
станы
стараться
старик
старом
старт
старуха
старшии
старые
статеи
статикалык
статистика
статистикалары
статистикалык
статистикасы
статус
статуска
статусу
статусун
статусуна
статуясы
стать
статьи
статья
стационардык
степан
степанович
степеи
степени
степи
степь
стереотиптер
стерлибашев
стерлинг
стерлитамак
стефан
стив
стивен
стилде
стилдеги
стилдик
стили
стилин
стилинде
стилиндеги
стилине
стилинин
стилистикалык
стиль
стипендия
стих
стихи
стихиялуу
стихотворения
стоиктер
стоиктердин
стоит
стокгольм
стол
сторон
сторона
сторону
стороны
стр
страд
стран
страна
страны
стратегия
стратегиялык
стратегиясы
стратиграфиялык
страх
страха
стрит
строи
строиныи
структура
структуралар
структуралары
структуралык
структуранын
структурасы
структурасын
структурасына
структурасында
структурасынын
студент
студенти
студентов
студенттер
студенттерге
студенттерди
студенттердин
студенттери
студенттерине
студенттик
студия
студиялык
студиянын
студиясы
студиясын
студиясында
студиясынын
стюарт
су
субакожоева
субальп
субнивалдык
субстанция
субстрат
субтропик
субтропиктик
субъект
субъективдүү
субъектилеринин
субъектиси
субъекттердин
субъекттин
субьективдүү
субэкватордук
суворов
сугаруу
сугарылат
сугарылган
сугарып
сугат
сугатка
судан
судьба
судья
суз
сузак
сулаиман
сулаиманов
сулалеси
сулеиман
султан
султандыгы
султандын
султанов
султаны
сулу
сулуу
сулуулугу
сулуулугун
сулуулук
сулуусу
сульфат
сульфаты
сульфид
сульфиддер
сульфиддүү
сульфиди
суматра
сумма
сумманы
суммасы
суммасын
суммасына
сумсар
сун
сунган
сунуп
сунуш
сунуштаган
сунуштаит
сунушталат
сунушталган
сунуштап
сунуштар
сунуштарды
сунуштары
сунуштарын
сунушу
сунушун
супа
супер
сур
сура
сураган
сураганда
сурады
сураи
сураит
сурак
суракка
суранам
суранат
суранган
сурап
сураса
сурасаң
сурашат
сурашты
сурнаи
суроо
суроого
суроолор
суроолорго
суроолорду
суроолордун
суроону
суроосуна
сурьма
сурьманын
сутка
суткага
суткада
суткадан
суткалык
суткасына
сутшербет
суу
сууга
сууда
суудагы
суудаи
суудан
суук
суукка
суукта
суулар
сууларга
сууларда
суулардан
сууларды
суулардын
суулары
сууларын
сууларына
сууларынан
сууларында
сууларынын
суулук
суулуу
сууну
суунун
суур
суурулуп
сууруп
суусамыр
суусамырга
суусамырда
суусамырдагы
суусар
суусу
суусуз
суусун
суусуна
суусунан
суусунда
суусундук
суусунун
суутек
суутекти
суутектин
сухои
сухона
сухте
сущ
суэц
суюк
суюктугу
суюктук
суюктукка
суюктукта
суюктуктар
суюктуктардын
суюктукту
суюктуктун
суюлтулган
сфалерит
сфера
сфералык
сферасынын
схватить
схема
схемасы
схемасын
сценарии
сценариидин
сценариии
сценарииин
сценарист
счастье
счастья
счет
считается
считать
сша
съезд
съезддеринин
съезди
съездинде
съездине
съездинин
съемка
сы
сыбызгы
сыдык
сыдыкбеков
сыдыкбековдун
сыдыков
сыдыкова
сыз
сызгычтаи
сызма
сызыгы
сызыгындагы
сызыгынын
сызык
сызыкка
сызыксындагы
сызыкта
сызыктар
сызыктардын
сызыктары
сызыктуу
сызыкты
сызыктын
сызылган
сыи
сыиактуу
сыибаган
сыига
сыида
сыикыр
сыикырдуу
сыикырчы
сыикырчылар
сыикырчылык
сыил
сыилаган
сыиланган
сыиланды
сыиланып
сыилап
сыилоо
сыилуу
сыилыгы
сыилыгын
сыилыгына
сыилыгынын
сыилык
сыилыкка
сыилыктар
сыилыктарга
сыилыктарды
сыилыктардын
сыилыктары
сыилыктарын
сыилыктарына
сыилыктарынын
сыилыкты
сыилыктын
сыимыгы
сыимык
сыипап
сыипоо
сыира
сыирып
сыиымдуу
сыиымдуулугу
сыиымдуулук
сыиынган
сыиынгыла
сыиынуу
сыиынууга
сыиынуучу
сыиынып
сыктывкар
сылык
сым
сыма
сымал
сымалдар
сымалдардын
сымалдуу
сымалдуулар
сымап
сымаптын
сымбаттуу
сын
сына
сынагы
сынагына
сынагында
сынагындагы
сынагынын
сынак
сынакка
сынакта
сынактары
сынактын
сыналгы
сынап
сынат
сынга
сынган
сында
сындаган
сындагы
сындап
сындоо
сындуу
сындырып
сыноо
сыноодон
сынуу
сынчы
сынчыл
сынчылар
сынчылардын
сынчысы
сыны
сынык
сыныктары
сынын
сынып
сыпаттап
сыпаты
сыр
сырга
сыргак
сыргактын
сырдарыя
сырдуу
сырды
сырлар
сырлары
сырларын
сырт
сыртка
сырткары
сырткы
сыртта
сырттан
сырты
сыртын
сыртына
сыртынан
сыртында
сыртындагы
сыры
сырын
сырье
сырьенун
сырьесу
сыя
сыягы
сыяктуу
сыяктуулар
сыңар
сыңары
сьерра
сэинт
сэм
сэр
сээп
сюда
сюжет
сюжети
сюжетинин
сюжеттер
сюжеттердин
сюжеттик
сюжеттин
сүзгүч
сүзмө
сүзүп
сүзүү
сүзүүчү
сүи
сүибөит
сүигөн
сүилө
сүилөгөн
сүилөдү
сүилөи
сүилөит
сүилөм
сүилөмдү
сүилөмдүн
сүилөмдө
сүилөмдөр
сүилөмдөрдүн
сүилөп
сүилөшкөн
сүилөшүп
сүилөшүү
сүилөшүүлөр
сүилөшүүлөрдү
сүилөшөт
сүилөө
сүилөөгө
сүимөнкул
сүирү
сүирөп
сүиүктүү
сүиүнчү
сүиүп
сүиүү
сүиүүгө
сүиүүнү
сүиүүнүн
сүиүүсү
сүиүүсүн
сүиүүчүлөр
сүиөм
сүиөт
сүлгү
сүлүктү
сүлөөсүн
сүннөт
сүннөткө
сүр
сүргүнгө
сүргүндө
сүргөн
сүртүп
сүртүү
сүрүлгөн
сүрүлүп
сүрүлүү
сүрүп
сүрүү
сүрө
сүрөсү
сүрөт
сүрөткө
сүрөттү
сүрөттүн
сүрөттүү
сүрөттө
сүрөттөгөн
сүрөттөит
сүрөттөлгөн
сүрөттөлүп
сүрөттөлүш
сүрөттөлүштү
сүрөттөлүштүн
сүрөттөлүшү
сүрөттөлүшүн
сүрөттөлөт
сүрөттөп
сүрөттөр
сүрөттөрдү
сүрөттөрдүн
сүрөттөрү
сүрөттөрүн
сүрөттөө
сүрөттөөгө
сүрөттөөдө
сүрөттөөлөр
сүрөтчү
сүрөтчүлөр
сүрөтчүлөрдүн
сүрөтчүлөрү
сүрөтчүлөрүнүн
сүрөтчүнүн
сүрөтчүсү
сүрөтү
сүрөтүн
сүт
сүткө
сүттү
сүттүн
сүттөн
сүтү
сүтүн
сүтүнөн
сөгөт
сөз
сөзгө
сөздү
сөздүгү
сөздүгүн
сөздүгүндө
сөздүк
сөздүктүн
сөздүктө
сөздүн
сөздө
сөздөн
сөздөр
сөздөргө
сөздөрдү
сөздөрдүн
сөздөрдө
сөздөрдөн
сөздөрү
сөздөрүн
сөздөрүнүн
сөздөрүнөн
сөзмө
сөзсүз
сөзү
сөзүмдү
сөзүн
сөзүндө
сөзүнүн
сөзүнө
сөзүнөн
сөикө
сөңгөгү
сөөгү
сөөгүн
сөөгүнүн
сөөгүнөн
сөөк
сөөккө
сөөктү
сөөктүн
сөөктүү
сөөктөн
сөөктөр
сөөктөрдүн
сөөктөрү
сөөктөрүнүн
т
та
таа
таабалды
таажы
таажысы
таазим
таала
таалаи
таалаибек
тааланын
таалим
таамаи
таан
таандык
таануу
таанууга
таанууда
таануунун
таануучу
таануучулар
таануучусу
тааныган
тааныи
тааныит
тааныла
таанылат
таанылган
таанылды
таанылып
тааным
таанымал
таанымдын
таанып
тааныткан
тааныш
таанышат
таанышкан
тааныштыруу
тааныштырып
таанышуу
таанышып
таап
таар
таарынып
таасир
таасирге
таасирден
таасирди
таасирдүү
таасири
таасирин
таасиринде
таасирине
таасиринен
таасиринин
таасирлер
таасирлерге
таасирлерден
таасирлери
таасирлерин
таасирлүү
таасын
таба
табак
табакча
табалдиев
табарсык
табарсыктын
табат
табгач
табигыи
табиигыи
табит
табити
табият
табиятка
табиятта
табияттагы
табияттан
табиятты
табияттын
табияты
табиятын
табиятына
табиятынан
таблетка
таблица
таблицада
табуу
табууга
табууда
табууну
табуунун
табуусу
табуучу
табуучусу
табы
табыгыи
табылат
табылга
табылгалар
табылган
табылгы
табылды
табылса
табылып
табылышы
табын
табына
табынуу
табынын
табып
табыш
табышат
табышкан
табышмак
табышмактар
табышмактуу
табышып
таварих
таварихте
тавда
тагаи
тагдыр
тагдырга
тагдырдын
тагдыры
тагдырын
тагдырына
тагил
тагы
тагылат
тагылган
тагынган
тагынып
тагып
тагыраак
таж
тажик
тажикстан
тажикстанда
тажикстандагы
тажикстандын
тажиктер
тажрыиба
тажрыибага
тажрыибада
тажрыибалар
тажрыибаларды
тажрыибаларын
тажрыибалуу
тажрыибалык
тажрыибаны
тажрыибанын
тажрыибасы
тажрыибасын
тажрыибасына
тажрыибасынын
таз
таза
тазалаит
тазаланат
тазаланган
тазалануу
тазаланып
тазалап
тазалоо
тазалоого
тазалоодо
тазалоочу
тазалыгы
тазалык
тазалыкты
таи
таибуурул
таибуурулду
таивань
таига
таигак
таиган
таикы
таилак
таиланд
таим
таиманбас
таимаш
таимс
таимыр
таипа
таипак
таипасы
таипасынын
таитору
таиторуну
таиыз
таиып
так
така
такаи
такалат
также
такие
таким
таких
такка
такого
такое
такои
такси
такта
тактага
тактаи
такталар
такталат
такталган
такталып
тактан
тактанын
тактап
тактар
тактары
тактасы
тактикалык
тактоо
тактооч
тактыга
тактыгы
тактык
тактыкта
тактысы
тактысына
такыба
такыбаа
такыр
такыя
тал
талаа
талаага
талаада
талаадагы
талаадан
талаалар
талааларда
талаалардын
талаалары
талааларын
талааларында
талааларынын
талаалуу
талааны
талаанын
талаасы
талаасын
талаасына
талаасында
талаасындагы
талаасынын
талаачылык
талабы
талабын
талабына
талак
талант
таланттар
таланттуу
таланты
талантын
талантына
талап
талапка
талапкер
талапкери
талапкерлер
талапкерлердин
талапкерлиги
талаптагыдаи
талаптар
талаптарга
талаптарды
талаптардын
талаптары
талаптарын
талаптарына
талапты
талаптын
талар
талары
таларынын
талас
таласка
таласская
таласта
таластагы
таластан
таласты
таластык
таластын
талаш
талашкан
талашсыз
талаштуу
талашуу
талашып
талгак
талгат
талдан
талдап
талдоо
талдоого
талдоодо
талдоонун
талды
талдык
талдын
талкалаган
талкалаит
талкаланган
талкалануу
талкаланып
талкалап
талкалоо
талкалоого
талкан
талкуу
талкууга
талкууланып
талкуулап
талкуулоо
таллин
талма
талчалары
талык
талыкпаи
там
тамагы
тамагын
тамак
тамакаш
тамакка
тамактан
тамактандыруу
тамактануу
тамактануунун
тамактанып
тамактар
тамактарды
тамакты
тамактын
таман
таманы
таманын
таманына
таманынан
таманында
таманынын
тамара
тамаша
тамашага
тамашалуу
тамга
тамгалар
тамгалардын
тамгалары
тамган
тамганын
тамгасы
тамеки
тамекинин
тамсил
тамсилдер
тамчы
тамчылар
тамыр
тамырга
тамырды
тамырдын
тамырлар
тамырларга
тамырларды
тамырлардын
тамырлары
тамырларын
тамырларынын
тамырлуу
тамыры
тамырын
тамырынан
тамырында
тамырынын
тан
танат
танган
тандаган
тандаи
тандаит
тандалат
тандалган
тандалма
тандалмалар
тандалуу
тандалып
тандап
тандашат
тандоо
тандоого
тандоодо
тандоонун
тандоосу
танзания
танк
танкалык
тантал
тануу
танып
тап
тапан
тапанча
тапка
тапкан
тапканы
таппаи
тапса
тапта
таптакыр
таптап
таптар
таптардын
тапты
таптык
таптым
таптын
тапшырат
тапшырган
тапшырды
тапшырма
тапшырмалар
тапшырмаларды
тапшырмаларын
тапшырманы
тапшырмасы
тапшырмасын
тапшыруу
тапшыруусу
тапшырык
тапшырылат
тапшырылган
тапшырып
тар
тарабы
тарабын
тарабына
тарабынан
тарабында
тарабындагы
тарабынын
тараган
тарагандар
тараз
тараза
тараи
тараит
тарак
таралат
таралган
таралганы
таралуу
таралуучу
таралып
таралыш
таралышы
таралышын
таралышына
тарам
тарамдары
тарамыш
таранчы
тарап
тарапка
тарапта
тараптагы
тараптан
тараптар
тараптардын
тараптуу
тарапты
тараптын
таратат
тараткан
таратуу
таратууга
таратуучу
таратылган
таратып
тарбия
тарбиялаган
тарбиялаит
тарбияланат
тарбияланган
тарбияланып
тарбиялап
тарбиялоо
тарбиялоого
тарбиялоодо
тарбиялоону
тарбиялоонун
тарбиялык
тарбиянын
тарбиясы
тарбиячы
тардын
таржымалы
таризде
таризи
таризинде
тарим
тарифтик
тарих
таркаган
таркатуу
таркатылган
тармагы
тармагын
тармагына
тармагынан
тармагында
тармагындагы
тармагынын
тармак
тармакка
тармакта
тармактагы
тармактар
тармактарга
тармактарда
тармактарды
тармактардын
тармактары
тармактарын
тармактарына
тармактарында
тармактарынын
тармактуу
тармакты
тармактык
тармактын
тармал
тарт
тарта
тартат
тартиби
тартибин
тартибинде
тартибине
тартибинин
тартип
тартипке
тартипте
тартиптеги
тартипти
тартиптин
тарткан
тартканда
тартма
тартпаи
тартпаит
тартса
тартты
тарттырып
тартуу
тартууга
тартууда
тартуулаган
тартуулаит
тартууланган
тартуулап
тартууну
тартуунун
тартуусу
тартуучу
тартыла
тартылат
тартылган
тартылгандар
тартылды
тартылсын
тартылуу
тартылуучу
тартылып
тартылышкан
тартылышы
тартып
тартыш
тартышат
тартышкан
тартыштар
тартыштарды
тартышы
тартышып
таруу
тары
тарых
тарыхии
тарыхка
тарыхта
тарыхтагы
тарыхты
тарыхтын
тарыхчы
тарыхчылар
тарыхчылардын
тарыхчылары
тарыхчысы
тарыхы
тарыхыи
тарыхын
тарыхына
тарыхынан
тарыхында
тарыхындагы
тарыхынын
тасма
тасмага
тасмада
тасмадагы
тасмалар
тасмаларга
тасмаларда
тасмаларды
тасмалардын
тасмалары
тасмаларына
тасмаларында
тасмаларындагы
тасмаларынын
тасманы
тасманын
тасмасы
тасмасын
тасмасына
тасмасынан
тасмасында
тасмасындагы
тасмасынде
тасмасынын
тастыктаган
тастыктаит
тастыкталган
тасы
тасын
тасына
тасында
тасынын
тат
татаал
татаалдыгы
татар
татарлар
татарлары
татарстан
таттуу
таттыбүбү
татыган
татыктуу
татымал
татынакаи
татып
татышлин
татьяна
таунус
тауншип
тахир
таш
ташка
ташкен
ташкенге
ташкенде
ташкендеги
ташкент
ташкентте
ташкенттеги
ташкын
ташкындаит
ташкындап
ташкыны
ташкөмүр
ташта
таштаган
таштагы
таштады
таштаи
таштаит
таштак
ташталат
ташталган
таштан
таштанды
таштандылар
таштандыларды
таштап
таштар
таштарга
таштардан
таштарды
таштардын
таштары
таштарын
таштарынын
таштоо
таштоого
таштуу
ташты
таштын
ташуу
ташууга
ташууда
ташуучу
ташы
ташыгыч
ташыит
ташылат
ташылган
ташылып
ташын
ташып
таягы
таяк
таякеси
таякты
таяктын
таякча
таяна
таянат
таянган
таянсак
таянуу
таянып
таяныч
таянычы
таятасы
таң
таңга
таңгыч
таңдаи
таңкы
таңуу
таңы
таңып
тбилиси
тв
тверь
твое
твоего
твоеи
твои
твою
твоя
тга
те
театр
театра
театралдык
театрга
театрда
театрдын
театрлар
театрларда
театрлары
театрларында
театры
театрын
театрына
театрында
театрынын
тебе
тебелеп
тебетеи
тебриз
тебя
тебүү
тегеран
тегереги
тегерегин
тегерегинде
тегерегиндеги
тегерегине
тегерек
тегеректеп
тегеректин
тегеренип
тегерете
теги
тегиз
тегиздиги
тегиздигине
тегиздигинин
тегиздик
тегиздикте
тегиздиктеги
тегиздиктин
тегин
тегине
тегинен
тегинин
тегирич
тегирмен
тез
тездетет
тездетүү
тездик
тезинен
тезирээк
тезисы
теи
теии
теиит
теилеген
теилеит
теилор
теилөө
теилөөгө
теилөөнүн
теилөөчү
тек
теке
текенин
текес
текке
текст
тексти
текстиль
текстин
текстте
тексттеги
тексттер
тексттерди
тексттердин
тексттери
текстти
тексттик
тексттин
тектен
тектер
тектерге
тектерде
тектерден
тектерди
тектердин
тектери
тектерин
тектеринде
тектеринен
тектеринин
тектеш
тектир
тектирлүү
тектон
тектоника
тектоникалык
тектүү
текче
текшерилген
текшерилет
текшерип
текшерүү
текшерүүгө
текшерүүдө
текшерүүдөн
текшерүүнүн
текшерүүчү
текши
тел
тела
теле
телеберүү
телевидение
телевизиондук
телевизор
телегеии
телеграф
телеканалы
телеканалындагы
телеканалынын
телекоммуникация
телекоммуникациялык
телекөрсөтүү
телекөрсөтүүсү
телерадио
телерадиоберүү
телерадиокорпорациясынын
телесериал
телесериалында
телескоп
телефон
телецкое
тело
телолорунун
тель
тельман
тем
тема
темага
темада
темадагы
темалар
темаларга
темаларды
темалары
теманы
теманын
темасы
темасын
темасына
темасында
тематикалык
тематикасы
темгилдүү
темир
темирбек
темирге
темирден
темирди
темирдин
темиржол
темиркан
темиркандын
темирлүү
темп
температура
температурага
температурада
температурадагы
температуралык
температураны
температуранын
температурасы
температурасын
температурасына
температурасынан
температурасында
температурасынын
темпи
темпрасы
темпте
тен
тенденция
тенденциялар
тенденциясы
тенир
теннис
тенор
тентек
тентип
тео
теодор
теология
теологиялык
теологиянын
теорема
теоремасы
теоретиги
теоретик
теории
теория
теорияга
теорияда
теориялар
теориялардын
теориялары
теорияларын
теориялык
теорияны
теориянын
теориясы
теориясын
теориясына
теориясында
теориясынын
теп
тепе
теперь
тепкич
тепши
тер
терапевт
терапия
терге
тергөө
тергөөчү
тердеп
тердик
тердин
тереза
терезе
терек
теректи
терен
терең
тереңде
тереңдеп
тереңдетилген
тереңдетип
тереңдиги
тереңдигине
тереңдикке
тереңдикте
тереңдиктеги
тереңдиктен
тереңирээк
тери
териге
териде
теридеги
териден
терилип
терин
терини
теринин
терип
териси
терисин
терисинен
терисинин
терме
термелүү
термелүүлөр
термелүүнү
термелүүнүн
термелүүсү
термелүүчү
термикалык
термин
терминатор
терминдер
терминдердин
терминдери
терминдеринин
терминди
терминдин
термини
терминин
термининин
терминология
термиялык
термодинамика
термодинамикалык
термодинамиканын
термоядролук
терриген
территориального
территории
территориялык
территориясында
территориясынын
террордук
терс
терүү
теске
тескеи
тескери
тескерисинче
тескөө
тест
тестиер
тестирлөө
тесттер
тесттин
тете
тетиги
тетик
тетиктер
тетиктерди
тетиктери
тетиктерин
тетири
тех
техас
техник
техника
техникада
техникалар
техникалары
техникалык
техниканы
техниканын
техникасы
техникасын
техникасында
техникасынын
техникумду
техникумун
техникумунда
технол
технолог
технологии
технология
технологиялар
технологияларды
технологиялардын
технологиялары
технологиялык
технологияны
технологиянын
технологиясы
технологиясын
технологиясында
теше
тешиги
тешик
тешиктер
тешип
тең
теңге
теңдеме
теңдемелер
теңдемелердин
теңдемелери
теңдемени
теңдеменин
теңдемеси
теңдемесин
теңдеш
теңдештик
теңдик
теңи
теңир
теңирге
теңирден
теңирди
теңирдин
теңири
теңирибиз
теңирим
теңириң
теңириңдин
теңириңер
теңирлик
теңсалмактуу
теңсалмактуулук
теңсиздик
теңчилик
теңчиликти
ти
тибет
тибетке
тибеттин
тиби
тибин
тибинде
тибиндеги
тибине
тибинин
тигет
тиги
тигил
тигилген
тигилет
тигилип
тигип
тигр
тигүү
тигүүчү
тие
тиет
тиешелүү
тиешеси
тизгин
тизе
тизилген
тизилип
тизме
тизмеге
тизмеги
тизмегинде
тизмегине
тизмегинин
тизмеде
тизмеси
тизмесин
тизмесинде
тизмесине
тизмесинин
тиибеген
тиибеи
тииген
тиигенде
тиигизбеи
тиигизген
тиигизди
тиигизе
тиигизет
тиигизип
тиигизиши
тиигизүүчү
тииди
тииешелүү
тииип
тиииш
тииишип
тииишкен
тиииштүү
тиисе
тииүү
тик
тике
тикеден
тикелеи
тикен
тикендүү
тикенектүү
тикесинен
тиккен
тиктеп
тил
тилге
тилде
тилдеги
тилден
тилдер
тилдерге
тилдерде
тилдерден
тилдерди
тилдердин
тилдери
тилдерин
тилдеринде
тилдериндеги
тилдерине
тилдеринен
тилдеринин
тилди
тилдик
тилдин
тилдүү
тилеги
тилегин
тилек
тилеке
тилекке
тилекмат
тилеп
тили
тилин
тилинде
тилиндеги
тилине
тилинен
тилинин
тилип
тилке
тилкелери
тилкелүү
тилкени
тилкеси
тилкесинде
тилкесинин
тилмеленген
тилчи
тим
тимур
тимурдун
тимчеси
тин
тинин
тип
типа
типке
типологиялык
типтеги
типтери
типтерин
типтүү
тираж
тиражы
тирилип
тирилтет
тирилчилик
тиричилиги
тиричилигин
тиричилигинде
тиричилигине
тиричилигинин
тиричилик
тиричиликке
тиричиликте
тиричиликтин
тиркеме
тиршенроит
тирүү
тирүүлөи
тирүүсүндө
титан
титиреп
титирөө
титирөөдөн
титирөөлөр
титул
титулу
титулун
тихо
тиш
тиши
тишин
тиштеп
тиштер
тиштери
тишти
тиштин
тиштүү
тишчелүү
ткандар
ткандарга
ткандарда
ткандарды
ткандардын
ткандары
ткандарында
ткандарынын
ткандын
ткани
тканы
тканынын
ткань
ткэстин
то
тобо
тобои
тобокел
тобокелге
тобу
тобун
тобуна
тобунан
тобунда
тобундагы
тобунун
тобыл
товар
товарга
товарды
товардык
товардын
товарлар
товарларга
товарларды
товарлардын
товарлары
товарларын
тоган
тогда
того
тоголок
тогу
тогуз
тогуздун
тогузунчу
тогун
тогунун
тоже
тоз
тозок
тозокко
тозоктон
тозоктун
тои
тоибоит
тоиго
тоидо
тоилордо
ток
токио
токиодо
токкана
токко
токмок
токмоктогу
токои
токоиго
токоидо
токоиду
токоидун
токоилор
токоилордо
токоилордун
токоилору
токоилорунда
токоилуу
токол
токомбаев
токомбаевдин
токоч
токою
токоюнун
токсон
токтобаев
токтобои
токтоболот
токтогон
токтогул
токтогулдун
токтогулов
токтоит
токтолот
токтолуп
токтом
токтому
токтомуна
токтомунун
токтоналиев
токтоо
токтоосуз
токтоп
токтор
токторбаев
токтосун
токтосунов
токтоткон
токтото
токтотот
токтотулат
токтотулган
токтотуп
токтотуу
токтотууга
токтотуучу
токту
токтун
токулат
токулган
токум
токуп
токуу
толгон
толгондо
толгоо
толгоолор
толду
толкун
толкундар
толкундарды
толкундардын
толкундары
толкундарынын
толкундук
толкундун
толкундуу
толкуну
толкунунун
толо
толот
толстои
толстоидун
толтои
толтоидун
толтура
толтурат
толтурулат
толтурулган
толтуруп
толтуруу
толубаи
толугу
толугураак
толук
толукт
толуктаган
толуктаит
толукталат
толукталган
толукталып
толуктап
толуктоо
толуктоолор
толуп
только
том
томас
томат
томго
томдон
томдук
томдун
томдуу
томнан
томон
томпок
томпсон
томск
томсон
тому
томунун
томь
тон
тони
тонкии
тонна
тоннага
тоноо
тоноп
тону
тонун
тоо
тообо
тоого
тоодо
тоодогу
тоодои
тоодон
тоок
тоокен
тоолор
тоолорго
тоолордо
тоолордогу
тоолордон
тоолорду
тоолордун
тоолору
тоолорун
тоолоруна
тоолорунан
тоолорунда
тоолорундагы
тоолорунун
тоолу
тоолук
тоолуу
тоому
тоону
тоонун
тоосу
тоосун
тоосуна
тоосунан
тоосунда
тоосундагы
тоосунун
тоотек
тоотектер
тоотектердин
тоотектери
топ
топко
топографиялык
топоз
топон
топоним
топонимдер
топоними
топто
топтогон
топтогу
топтои
топтоит
топтолгон
топтолот
топтолуп
топтолушу
топтому
топтон
топтоо
топтоого
топтоочу
топтоп
топтор
топторго
топторду
топтордун
топтору
топторун
топторуна
топторунун
топтошуп
топту
топтук
топтун
топу
топурагы
топурак
топуракка
топуракта
топурактагы
топурактан
топурактар
топурактары
топурактуу
топуракты
топурактын
топчу
топчугүл
тор
торгои
тории
торкен
торко
торо
торонто
торпок
торт
тору
торугарт
торчо
торчонун
торчосу
тоскоол
тоскоолдук
тоскоолдуктар
тоскоолдуктарды
тосмо
тосмолор
тосо
тосор
тосот
тосуп
тосуу
тот
тоталитардык
тотем
тотемдик
тоту
точнее
точно
тою
тоют
тоң
тоңдурулган
тоңкулдак
тоңот
тоңуп
трава
травма
травы
травянистого
трагедия
трагедиялуу
трагедиялык
трагедиясы
традиции
традициялык
трактат
трактор
тракторист
транзиттик
транскрипциясы
транспорт
транспортто
транспорттук
транспорттун
транспорту
транспортунун
трансформатор
траунштаин
тренер
треска
треском
третьяков
трех
три
триас
тригонометриялык
трикотаж
триллер
трир
тропик
тропикалык
тропиктик
троя
труд
труда
трудов
труды
труппасы
ту
туба
тубар
тубаса
туберкулез
тува
тувалардын
тувалу
тувы
туда
туз
тузак
туздалган
туздар
туздарды
туздардын
туздары
туздарын
туздарынын
тузду
туздун
туздуу
туздуулугу
тузем
тузсуз
тузу
туигун
туимазин
тук
тукум
тукумга
тукумдан
тукумдары
тукумдун
тукуму
тукумун
тукумуна
тукумунан
тукумундагы
тукумунун
тукумчасы
тул
тула
тулку
тулкулары
тулкусу
тулкусунун
тулпар
тулпары
тумак
туман
тумар
тумарча
тумоо
тумшугу
тумшугуна
тумшугунан
тумшук
тун
тунгус
тунгуч
тунда
тундра
тундук
тунис
тунук
тунуктугу
тунун
тур
тура
турабыз
турак
туракжаи
турактуу
турам
туран
турар
турары
турарын
турат
турбаибы
турбаит
турбина
тургаи
турган
турганда
тургандаи
тургандар
тургандардын
тургандыгы
тургандыгын
тургандыгына
тургандыктан
турганы
турганын
турганына
тургузулган
тургузулуп
тургузуп
тургузуу
тургула
тургун
тургундар
тургундардын
тургундары
тургундарынын
тургуну
турду
турдуу
туризм
туризмдин
турист
туристтер
туристтерди
туристтердин
туристтик
турк
туркестан
туркестана
турмалин
турмуш
турмушка
турмушта
турмуштагы
турмуштан
турмушту
турмуштук
турмуштун
турмушу
турмушун
турмушуна
турмушунан
турмушунда
турмушундагы
турмушунун
турна
турналар
турнир
турпак
турпан
турпаты
турпатын
турса
турсун
турсуналиев
турсунбаи
турсунбек
туру
турук
туруксуз
турукташтыруу
туруктуу
туруктуулугу
туруктуулугун
туруктуулук
туруктуулукту
турум
турумдун
туруму
турумун
турумуна
турумунун
туруп
туруптур
турусбеков
туруу
турууга
турууну
туруусу
туруучу
туруш
турушат
турушкан
турушту
туруштук
турушу
турушун
турушуна
турушуп
турции
турция
турчу
тут
тутам
тутат
туташ
туташат
туташтырат
туташтырган
туташтырма
туташтыруучу
туташтырылат
туташтырылган
туткан
туткун
туткунга
туткундан
туткундап
туткуну
тутулган
тутум
тутумдашкан
тутумдун
тутуму
тутумун
тутумуна
тутумунда
тутумундагы
тутумунун
тутунган
тутуп
тутуу
тутушат
туу
тууган
туугандар
туугандарга
туугандардын
туугандары
туугандарым
туугандарын
туугандарына
туугандарынан
туугандарынын
туугандык
туугандын
тууганы
тууганым
тууганын
тууганынын
тууганың
туудурат
туудурган
туудуруп
тууит
туулат
туулга
туулган
туулганда
туулганы
туулуп
туулушу
туума
туунду
туундулары
туундусу
тууп
туура
тууралу
тууралуу
тууралыгын
туурап
туурасы
туурасынан
туурасында
туурасындагы
туурдук
тууроо
туусу
туусун
туф
туфли
туш
тушка
тушоо
тушта
тушташ
туштук
тушу
тушуна
тушунда
тушундагы
туюк
туюлат
туюм
туюндурат
туюндурган
туюндуруучу
туюнтат
туюнткан
туюнтма
туюнтулат
туюнтулган
туюнтуп
туюнтуу
туюнтуучу
туюу
туяк
туяктуу
туңгуч
ты
тыбыт
тыбыш
тыбыштар
тыбыштарды
тыбыштардын
тыбыштары
тыбышты
тыбыштык
тыбыштын
тыбышы
тыва
тыгыз
тыгызд
тыгыздыгы
тыгыздыгын
тыгыздыгына
тыгыздык
тыиуу
тыиын
тыиындар
тык
тыкан
тыкыс
тымызын
тын
тынаи
тынбаи
тынч
тынчтыгы
тынчтык
тынчтыкбек
тынчтыкка
тынчтыкта
тынчтыкты
тынчтыктын
тынчы
тынчын
тыныбек
тыныбеков
тыныбектин
тыныгуу
тыным
тынымсеиит
тынымсыз
тыныстанов
тырмак
тырмактын
тысяч
тыт
тыш
тышка
тышкаркы
тышкары
тышкы
тыюу
тыянак
тың
тыңчы
тээ
тээп
тюбинген
тюмень
тюрингия
тюрков
тюркских
тюрок
тяжело
тянь
тяньш
тянңшанң
тү
түбү
түбүн
түбүндө
түбүндөгү
түбүнүн
түбүнө
түбүнөн
түбөлүк
түбөлүккө
түбөлүктүү
түгү
түгүл
түгөи
түгөилүү
түгөиү
түгөл
түгөлбаи
түгөнүп
түз
түзгөн
түзгөндөр
түздү
түздүгү
түздүгүндө
түздүгүнүн
түздүк
түздүктүү
түздүктө
түздүктөр
түздүктөрдүн
түздүктөрдө
түздүктөрү
түздүктөрүндө
түздөн
түздөнтүз
түзмөк
түзсө
түзүлгөн
түзүлгөндөн
түзүлдү
түзүлмө
түзүлүп
түзүлүш
түзүлүшкө
түзүлүштү
түзүлүштүн
түзүлүштүү
түзүлүштө
түзүлүштөгү
түзүлүштөн
түзүлүштөр
түзүлүштөрдү
түзүлүштөрдүн
түзүлүштөрдө
түзүлүштөрү
түзүлүшү
түзүлүшүн
түзүлүшүндө
түзүлүшүндөгү
түзүлүшүнүн
түзүлүшүнө
түзүлүү
түзүлүүчү
түзүлө
түзүлөт
түзүмү
түзүмүн
түзүп
түзүшкөн
түзүшү
түзүшөт
түзүү
түзүүгө
түзүүдө
түзүүнү
түзүүнүн
түзүүчү
түзүүчүлөр
түзүүчүлөрдүн
түзүүчүсү
түзө
түзөт
түзөтүү
түзөң
түимө
түимөк
түиүлдүк
түиүлдүктүн
түиүн
түиүндөр
түиүндөрү
түиүнү
түиүп
түк
түксүз
түктүү
түлкү
түлкүнүн
түлүк
түлүктү
түлүктүн
түлөберди
түлөө
түмөн
түн
түндук
түндү
түндүгү
түндүгүн
түндүгүндө
түндүгүндөгү
түндүгүнө
түндүгүнөн
түндүк
түндүккө
түндүктү
түндүктүн
түндүктө
түндүктөгү
түндүктөн
түндүн
түндө
түнкү
түнкүсүн
түнт
түнү
түнөп
түп
түпкү
түпкүлүктүү
түптүү
түптөгөн
түптөлгөн
түптөлүп
түр
түргө
түргөн
түргөш
түргөштөр
түргөштөрдүн
түрдү
түрдүк
түрдүн
түрдүү
түрдүүлүгү
түрдүүлүгүн
түрдүүчө
түрдө
түрдөгү
түрдөн
түрк
түркии
түркия
түркияга
түркияда
түркиядагы
түркиялык
түркиянын
түркмөн
түркмөндөрдүн
түркмөнстан
түркмөнстанда
түркмөнстандын
түрколог
түркология
түркстан
түркстанга
түркстанда
түркстандагы
түркстанды
түркстандын
түрктөр
түрктөргө
түрктөрдүн
түрктөрү
түрктөрүнүн
түркча
түркчө
түркүк
түркүм
түркүмчөсү
түркүмү
түркүмүндөгү
түркүмүнүн
түркүмүнө
түркүн
түрлүү
түрлөр
түрлөргө
түрлөрдүн
түрлөрү
түрлөрүн
түрлөрүндө
түрлөрүнүн
түрлөрүнө
түрлөрүнөн
түрмө
түрмөгү
түрмөгө
түрмөдө
түрмөдөн
түрмөк
түрткү
түрткөн
[...]
