!
"
#
##0
##1
##10
##11
##12
##13
##14
##15
##16
##17
##18
##19
##2
##20
##21
##22
##23
##24
##25
##26
##27
##28
##29
##3
##30
##31
##32
##33
##34
##35
##36
##37
##38
##39
##4
##40
##41
##42
##43
##44
##45
##46
##47
##48
##49
##5
##50
##51
##52
##53
##54
##55
##56
##57
##58
##59
##6
##60
##61
##62
##63
##64
##65
##66
##67
##68
##69
##7
##70
##71
##72
##73
##74
##75
##76
##77
##78
##79
##8
##80
##81
##82
##83
##84
##85
##86
##87
##88
##89
##9
##90
##91
##92
##93
##94
##95
##96
##97
##98
##99
$
%
&
'
(
)
*
+
,
-
.
/
0
00
000
001
002
003
004
005
006
007
008
009
00960
01
010
011
012
013
014
015
016
017
018
019
02
020
021
022
023
024
025
026
027
028
029
03
030
031
032
033
034
035
036
037
038
039
04
040
041
042
043
044
045
046
047
048
049
05
050
051
052
053
054
055
056
057
058
059
06
060
061
062
063
064
065
066
068
069
07
070
072
074
075
076
078
079
08
080
082
083
084
085
087
09
090
095
1
10
100
1000
10000
101
1012
1016
102
1024
103
104
1040
105
1050
106
107
1070
1072
1077
108
1080
109
11
110
1100
111
112
113
114
115
1150
116
1160
117
1170
118
1180
119
12
120
1200
1207
121
1218
122
123
124
1240
125
1250
126
127
128
129
13
130
1300
131
132
1325
133
134
135
1350
136
1368
137
1370
138
1380
139
14
140
1400
141
142
143
144
145
1450
146
147
148
149
1492
15
150
1500
151
1510
1514
152
1524
1526
153
1533
154
1540
155
1550
1556
156
1563
157
158
1582
159
1592
1598
16
160
1600
1605
161
1610
1613
162
1620
1628
1629
163
1630
1635
164
1640
1641
1642
1643
1644
1648
165
1650
1652
1658
166
1660
1665
167
1670
168
1680
1682
169
1690
1694
17
170
1700
1701
1703
1707
1709
171
1710
1711
1714
1718
172
1720
1721
1722
1723
1725
1727
173
1730
1732
1736
1739
174
1740
1741
1742
1743
1744
1745
1747
1748
1749
175
1750
1751
1753
1755
1756
1757
1758
1759
176
1760
1761
1762
1763
1765
1766
1767
1768
1769
177
1770
1771
1772
1773
1774
1775
1776
1777
1778
1779
178
1780
1781
1782
1783
1784
1785
1786
1787
1788
1789
179
1790
1791
1792
1793
1794
1795
1796
1797
1798
1799
18
180
1800
1801
1802
1803
1804
1805
1806
1807
1808
1809
181
1810
1811
1812
1813
1814
1815
1816
1817
1818
1819
182
1820
1821
1822
1823
1824
1825
1826
1827
1828
1829
183
1830
1831
1832
1833
1834
1835
1836
1837
1838
1839
184
1840
1841
1842
1843
1844
1845
1846
1847
1848
1849
185
1850
1851
1852
1853
1854
1855
1856
1857
1858
1859
186
1860
1861
1862
1863
1864
1865
1866
1867
1868
1869
187
1870
1871
1872
1873
1874
1875
1876
1877
1878
1879
188
1880
1881
1882
1883
1884
1885
1886
1887
1888
1889
189
1890
1891
1892
1893
1894
1895
1896
1897
1898
1899
19
190
1900
1901
1902
1903
1904
1905
1906
1907
1908
1909
191
1910
1911
1912
1913
1914
1915
1916
1917
1918
1919
192
1920
1921
1922
1923
1924
1925
1926
1927
1928
1929
193
1930
1931
1932
1933
1934
1935
1936
1937
1938
1939
194
1940
1941
1942
1943
1944
1945
1946
1947
1948
1949
195
1950
1951
1952
1953
1954
1955
1956
1957
1958
1959
196
1960
1961
1962
1963
1964
1965
1966
1967
1968
1969
197
1970
1971
1972
1973
1974
1975
1976
1977
1978
1979
198
1980
1981
1982
1983
1984
1985
1986
1987
1988
1989
199
1990
1991
1992
1993
1994
1995
1996
1997
1998
1999
2
20
200
2000
2001
2002
2003
2004
2005
2006
2007
2008
2009
201
2010
2011
2012
2013
2014
2015
2016
2017
2018
2019
202
2020
2021
2022
2023
203
204
205
206
207
2077
208
209
21
210
2100
211
212
213
214
215
216
217
218
219
22
220
2200
221
222
223
224
225
226
227
228
229
23
230
2300
231
232
233
234
235
236
237
238
239
24
240
2400
241
242
243
244
245
246
247
248
249
25
250
2500
251
252
253
254
2542
255
256
257
258
259
26
260
2600
261
262
263
264
265
266
267
2677
268
269
27
270
2700
271
272
273
274
275
276
277
278
279
28
280
2800
281
282
283
284
285
286
287
288
289
29
290
2900
291
292
293
294
295
296
297
298
299
3
30
300
3000
301
302
303
304
305
306
307
308
309
31
310
3100
311
312
313
314
315
316
3166
317
318
319
32
320
3200
321
322
323
324
325
326
327
328
329
33
330
3300
331
332
333
334
335
336
337
338
339
34
340
3400
341
342
343
344
345
346
347
348
349
35
350
3500
351
352
353
354
355
356
357
358
359
36
360
3600
361
362
363
364
365
366
367
368
369
37
370
3700
371
372
373
374
375
376
377
378
379
38
380
3800
381
382
383
384
385
386
387
388
389
39
390
3900
391
392
393
394
395
396
398
399
4
40
400
4000
401
403
404
405
406
407
408
409
41
410
4100
411
412
413
414
415
416
418
419
42
420
4200
421
4217
422
423
424
425
426
427
428
429
43
430
4300
431
432
434
435
437
438
439
44
440
4400
441
442
443
444
445
446
447
448
449
45
450
4500
451
452
453
454
455
456
457
458
459
46
460
4600
461
462
463
464
465
466
467
469
47
470
471
472
473
474
475
476
477
478
479
48
480
4800
481
482
484
485
486
487
488
489
49
490
492
493
494
495
496
498
499
5
50
500
5000
501
502
504
505
507
508
509
51
510
512
514
515
518
519
52
520
521
522
524
525
527
528
53
530
534
535
536
537
538
539
54
540
541
543
544
545
546
547
548
55
550
551
552
553
555
556
558
559
56
560
561
562
563
564
565
566
567
568
57
570
571
572
574
575
576
577
579
58
580
581
584
585
588
59
590
592
599
6
60
600
6000
601
603
605
608
61
610
615
616
618
62
620
621
622
623
625
627
63
630
632
633
634
635
639
64
640
644
646
648
65
650
654
655
65500669
656
658
66
660
661
664
67
670
672
673
675
68
680
687
688
69
693
699
7
70
700
7000
702
703
704
705
706
707
709
71
710
711
712
713
715
716
718
72
720
727
728
73
730
737
74
740
744
745
747
75
750
751
754
76
760
766
77
770
771
78
780
784
785
79
790
792
8
80
800
8000
808
81
810
813
816
82
820
828
83
830
832
84
840
843
847
85
850
851
86
860
862
864
866
87
870
873
88
880
89
893
89750
9
90
900
900162
907
91
92
920
921
925
93
94
940
942
95
950
955
96
960
963
964
97
970
978
98
980
982
99
9967
999
:
;
<
=
>
?
@
\
^
_
`
a
aa
aakhmedova
ab
abc
able
ablon
ablona
ablono
about
above
ac
academic
academy
access
accesskey
according
account
acre
across
act
action
active
actual
ad
add
addclass
added
adding
addition
additional
address
adds
adidas
adobe
advanced
adventure
ae
af
africa
after
ag
again
against
age
agency
ai
aid
aiesec
air
airline
airpods
airport
ak
akipress
al
album
ali
alias
aliases
alibaba
align
all
allow
allowed
allows
alpha
already
also
alt
altae
altaica
altajsk
altaya
alternative
alto
always
am
amazon
ambox
america
american
among
amt
amtsfreien
an
ana
analysis
anchor
ancient
and
android
angry
anhalt
animal
animation
ankara
anne
anniversary
another
antropologii
any
anything
ap
api
appear
appears
append
apple
applied
apply
appropriate
april
ar
arabic
aras
archive
archives
are
area
arg
args
argument
arguments
arheologicheskie
arheologicheskih
arheologii
arheologiya
arms
army
around
array
art
article
articles
artist
arts
arxiv
as
asanov
asia
asian
asiatique
asin
ask
askar
asp
aspx
assigned
associated
association
at
atatu
attr
attribute
au
august
author
authority
authors
auto
autocollapse
automatic
automatically
available
average
avoid
award
awards
az
azattyk
azii
b
ba
back
background
bad
baden
bafta
baltimore
bambusa
band
bank
bar
barakelde
barnaul
bas
base
based
basic
battle
bb
bbc
bc
bd
be
beatles
because
become
been
before
begin
behavior
beijing
being
bell
below
berlin
best
beta
better
between
bevo
bf
bg
bi
big
bigenc
billboard
biorxiv
bir
birds
birth
bishkek
bizdin
black
blank
block
blog
blue
bmw
bn
bo
board
body
boeing
bold
book
books
boolean
border
borisenko
bosogo
bot
both
bottom
box
boy
boys
br
brandenburg
break
bridge
brill
britannica
british
bros
brothers
bs
bu
budapest
bug
build
building
bureau
business
but
button
by
c
ca
calendar
call
called
cambridge
campaign
can
canada
candidates
cannot
capital
caption
card
cards
care
case
cases
cass
cat
categories
categoru
category
categoryauthoritycontrol
categoryexternallink
categorytoc
cats
cause
causes
cbd
cc
cd
ce
cedaw
cell
cells
census
center
central
centralnoj
centrasia
centre
century
cf
cfg
ch
change
changed
changes
channel
chapter
char
character
characters
charles
charter
che
check
checktype
child
children
china
chinese
choice
choose
chorobek
chorotegin
christmas
chrome
church
ci
cilt
cinema
citation
citations
cite
citeseerx
citetb
citing
citoid
city
civilization
cl
claim
claims
class
classes
classification
clay
clean
clear
click
close
club
cn
co
code
codes
coins
col
collapse
collapsed
collapsible
collection
college
color
columbia
column
columns
com
comics
commas
comment
comments
committee
common
commons
communities
community
company
competition
complete
computer
concat
conduct
conference
config
configuration
conflict
congress
conservation
consultation
contact
contain
contains
content
contents
contest
context
continue
contributions
contributor
contributors
control
convention
convert
converted
coord
coordinate
coordinates
copy
copyright
corporation
correct
corresponding
cos
could
count
countries
country
county
court
cover
covid
cr
create
created
creative
critics
cross
cs
css
csstext
cu
cultural
culture
cup
current
currently
custom
cuyahoga
cy
cyberpunk
cz
d
da
daily
daniel
dannyh
dark
das
dash
data
database
dataset
datavalue
date
datei
datepart
dates
david
day
days
db
dd
de
dead
death
dec
december
decimal
default
defaults
defined
deg
degrees
del
delete
delivery
delo
demographics
den
density
department
deprecated
der
dergisi
des
desc
description
design
desired
destanı
detail
details
developer
developers
development
dez
dezember
df
di
dia
dialog
dic
dictionary
did
die
diff
different
digit
digital
digits
dil
dili
direction
directly
discuss
discussion
disney
display
displayed
displays
div
diversity
division
dj
dlya
dms
do
doc
document
documentation
documents
does
doesn
dog
doi
dokl
domain
domestic
don
done
doom
double
down
dr
dream
drevnih
drevnosti
ds
dt
dten
du
due
dunam
during
dvd
dx
e
ea
each
early
earth
easier
east
economic
ed
edebiyatı
edigan
edit
edited
editing
edition
editor
editors
edits
eds
edu
education
edward
eg
egy
ei
either
ek
ekoloji
el
elebi
election
elections
element
elements
elevation
elib
elibrary
else
elseif
em
email
embargo
emblem
empire
empty
en
enable
enabled
enc
encode
encyclopaedia
encyclopedia
encyclopædia
end
endangered
engelbert
english
enter
entered
entertainment
entity
entityid
entries
entry
eo
ep
epic
equality
er
erfu
err
error
errors
es
esc
esp
est
established
et
etal
etc
ethno
ethnology
etnografii
etnolog
eu
europe
european
eurovision
ev
even
event
events
every
everyone
everything
evliya
evrazii
ex
example
examples
excel
except
exist
existing
exists
expanded
experience
express
external
extinct
extra
extract
f
fa
facebook
fact
falco
fall
false
family
far
fc
fe
feature
featured
features
february
feedback
feel
female
feminism
feminist
festival
few
ff
fi
field
fields
fifa
file
files
fill
film
films
filter
final
financial
find
fips
first
five
fix
fixed
flag
float
floor
florida
fm
fo
focus
folk
folklore
follow
followed
following
font
fontsize
foo
football
footer
footnotes
for
forbes
force
foreign
form
format
formats
formatted
formatting
former
forum
forward
found
foundation
founder
four
fourth
fox
fr
frac
frame
frameless
franc
france
franklin
free
french
friends
friendship
from
ft
fu
full
function
functionality
functions
fund
future
g
ga
game
games
ge
gemeinden
gender
general
generate
genus
geo
george
german
germany
get
getargs
getlabelwithlink
getlabelwithoutlink
getparent
gi
gif
girl
girls
give
given
gives
gje
gl
global
globe
gnu
go
goal
goals
god
godovoj
gold
golden
gone
good
google
gorno
gornom
gov
government
gps
grand
grant
grants
gray
great
green
gregorian
group
groups
gs
gsub
gu
guardian
guide
guidelines
h
ha
had
hafta
hall
hambis
handler
handlers
harvard
has
have
hbo
hcl
hdl
he
head
header
health
hear
heart
height
hello
help
her
here
heritage
hero
hessischen
hg
hi
hidden
hide
high
higher
hill
his
historical
history
hl
hlist
hno
ho
holmes
holstein
home
homo
hope
host
hot
house
how
however
hp
hr
hth
htm
html
http
https
hu
hudyakov
human
hy
i
ia
ibm
icon
icons
id
idea
ideas
identifier
identifiers
ie
if
ignored
ii
iii
il
ile
im
image
images
imax
imdb
img
impact
imperial
important
imprime
improve
improvements
in
inc
include
included
includes
including
income
independent
index
india
individual
individuals
info
infoboks
infobox
infocards
information
initial
initials
inline
inner
input
insert
inserted
inside
instagram
instead
institute
instructions
int
inte
integer
intended
interface
internal
international
internet
interview
into
introduction
invalid
invisible
involved
ios
ip
ipad
ipairs
iphone
ir
iran
iron
is
isbn
islam
islamic
ismn
iso
issledovanij
issledovaniya
issn
issue
issues
istanbul
istorii
istoriya
it
italic
item
itemid
items
itim
its
iucn
iv
ix
iz
izuchenie
izucheniya
izv
j
ja
jackson
james
janeiro
january
japan
japanese
java
javascript
je
jean
jefferson
john
join
journal
jpg
jr
js
jstor
july
june
juniperus
just
justice
k
ka
kabar
kak
kapa
kara
karatayev
karl
kazakhstan
kb
kemerovo
kenesh
key
kg
kgbek
khudiakov
ki
kilometers
king
kingdom
kirghiz
kirgiz
kitepter
kk
kloop
km
kmb
know
knowledge
known
ko
kommunikationstechnologie
konf
korean
kr
kreisen
ku
kultura
kulturnogo
kultury
kut
ky
kyrgyz
kyrgyzinfo
kyrgyzov
kyrgyzstan
kyrgyzstana
kz
kırgız
kırgızistan
l
la
label
lake
land
landesamt
landesbetrieb
landkreisen
lang
language
languages
large
las
last
lat
later
latin
latitude
law
lay
lc
lccn
le
leader
leading
learn
learning
least
leave
lee
left
legacy
legal
legend
len
length
les
less
let
letter
letters
level
lexus
lg
li
library
license
life
light
like
limited
limon
lincoln
line
link
linked
links
linnaeus
linux
lis
list
listed
lists
liststyle
literature
little
live
lkerung
lkerungsfortschreibung
ll
llenden
ln
lo
load
local
location
lock
log
logged
logo
logos
lon
london
long
longer
longitude
look
looking
loop
los
lost
louis
love
loves
lower
lr
ls
lt
ltd
ltu
lu
lua
lv
m
ma
mac
machine
made
madrid
magazine
magic
mail
mailing
main
mainsnak
maint
maintenance
major
make
maker
makes
making
maksat
mal
male
mall
man
management
manas
manual
manually
many
map
maps
march
margin
maria
mark
market
markup
marshall
martin
marvel
mask
mass
master
match
matches
materialy
math
mathit
max
maxprint
may
mbox
me
means
media
mediawiki
medicine
medieval
mega
megacom
member
members
men
menu
message
messages
meta
metadata
metallica
method
metric
metro
mezhdunar
mg
mi
michael
microformat
microformats
microsoft
middle
might
miles
milli
million
min
minjust
minutes
missing
mit
mk
mm
mn
mo
mobile
mod
mode
model
modern
module
modules
mogilnika
montgomery
month
months
moon
more
moscow
most
move
moved
movement
movie
mp
mr
ms
msg
mt
mtern
mtv
mu
multiple
museum
music
musical
must
mw
my
n
na
nach
naciye
nacl
name
named
names
namespace
namespaces
nan
naoh
narod
narodov
naryn
nasdaq
naseleniya
nasledie
naslediya
natco
nation
national
nations
native
natural
nature
nauch
navbar
navbox
nazyrov
nb
ncbi
nd
ne
near
necessary
need
needed
needs
net
network
new
news
newskg
newsletter
newton
next
ng
nh
ni
niedersachsen
night
nih
nil
nintendo
niversitesi
nl
nm
nn
nnnnnn
no
nocache
nocat
node
nokia
non
none
nord
normal
north
not
notable
note
notes
nothing
notice
notoc
november
novosibirsk
now
nowrap
ns
nsf
nt
nu
num
number
numbers
numeric
numerical
nurzat
ny
nyası
nyos
nyse
nyvre
o
obj
object
oc
ocean
ocinsoutput
october
od
odd
of
off
office
official
offset
often
oh
ok
ol
old
omega
omit
omitted
omsk
on
once
one
online
only
oo
op
open
opera
operating
option
optional
options
or
oracle
order
org
organization
oriental
orientalia
orig
origin
original
os
osmanlı
other
others
otherwise
ottoman
our
out
output
outside
over
own
oxford
p
pa
pacific
padding
page
pages
pairs
palo
pamyatniki
pamyatnikov
par
param
parameter
parameters
paramount
params
parent
paris
park
part
participate
parts
party
password
past
path
pattern
paul
pb
pbs
pc
pd
pdf
pe
peer
pelliot
people
per
period
persian
person
peter
pfalz
ph
phabricator
phase
philosophy
phone
photo
photos
php
pi
picture
pictures
pixar
pl
place
placed
places
plain
plan
plantilla
play
player
playstation
please
plus
pmc
pmid
png
po
point
points
policy
political
politics
pop
population
portal
portrait
pos
position
possible
possibly
post
postal
posted
power
pp
pr
pre
precision
predefinic
predloga
preferences
preferred
prefix
present
presentation
president
press
presskg
prevent
preview
prince
print
private
prize
pro
problem
problems
problemy
proceedings
process
production
prof
professor
program
project
projectcode
projects
properties
property
proposal
proposals
protection
protocol
provide
provided
province
ps
psy
pt
public
publication
publications
published
publishing
pubmed
pushpin
put
px
python
q
queen
query
question
questions
quote
r
ra
radio
ran
range
rank
rather
raw
ray
rb
rc
rd
re
read
readers
reading
ready
real
reason
recent
recommended
record
records
red
redirect
ref
reference
references
regia
region
registration
related
relative
release
released
relevant
relief
religion
remove
removed
rendering
replace
replaces
report
reproductive
republic
request
require
required
requires
res
research
resources
result
results
ret
retrieved
return
returns
retval
review
revolution
rft
rh
rheinland
ri
richard
right
rights
ringer
rio
risk
river
rk
rkc
rkiye
rn
ro
road
robert
rock
role
rolling
roman
rotten
round
routledge
row
rows
royal
ru
run
running
ruolo
rural
rus
russia
russian
rx
s
sa
sablon
sachsen
saint
same
sample
samsung
san
sandbox
santa
sapiens
save
sayı
sb
sbn
sc
scale
scheme
schleswig
scholars
school
science
sciences
scientific
scientist
score
screenshot
script
sdk
se
sea
seal
search
season
sec
second
seconds
section
sections
security
see
select
selected
self
sempozyumu
sent
sep
separate
separator
sepc
september
series
server
service
services
sessii
set
sets
setting
settings
settlement
seven
several
severnoj
sex
sexual
sh
share
sherlock
shield
shift
short
should
show
showing
shown
shows
shtml
si
sibiri
side
sign
similar
simple
sims
sin
since
single
sio
site
sites
six
size
sjabloon
sk
skabelon
skin
skype
sl
sm
small
smaller
smith
sms
sn
so
social
society
software
solid
some
something
somfai
song
songs
sony
soon
sopredelnyh
sorry
sound
source
sources
south
southern
soviet
sp
space
spaces
spb
special
species
specific
specified
specify
spider
split
sport
sports
sputnik
sq
square
sr
srednevekove
ss
st
sta
stanbul
stand
standard
star
start
started
state
statement
states
statistics
statistik
statistikamt
statistisches
status
stay
stem
step
still
stone
store
stories
story
str
strategy
street
string
strings
structure
stub
studies
studio
studios
study
style
styles
su
sub
subdivision
subdivisions
subject
submit
subscribe
subscription
substitute
such
suffix
suggested
summary
summer
summit
sun
super
support
supported
sur
sure
surname
survey
sv
svg
switch
syilyk
symbol
syn
syntax
system
systems
szablon
szaktanulma
szerk
szlet
t
ta
tab
tabaldiev
table
tables
tag
tags
tail
take
takes
talk
tap
target
tarih
tarihi
task
taxa
taxobox
td
te
team
teams
technical
technology
telegram
television
templat
template
templatedata
templates
ten
term
territorii
territorij
tesla
test
tested
testing
text
texte
tez
tezcan
th
than
thank
thanks
that
the
their
them
then
theory
there
these
they
things
think
third
this
thomas
those
threatened
three
through
thu
thumb
thumbnail
ti
tie
till
time
times
tip
title
titles
tl
tnavbar
to
today
todo
together
tomatoes
tonumber
too
tool
toolbar
tools
top
topic
topics
tostring
total
totubayeva
tour
town
tr
tracking
trailing
trans
translate
translated
translation
translations
translator
translators
translit
travel
tree
trim
true
trustees
try
ts
tt
tu
tudoma
turk
turkey
turkic
turkish
tv
twitter
two
ty
type
types
tyurok
tırmaları
u
ua
ucoc
uk
ul
uluslararası
ulx
un
und
under
unesco
unicode
union
unit
united
units
universal
university
unix
unknown
unless
unnamed
unreviewed
until
up
update
updated
updates
upload
uploads
upper
upright
ur
urban
uri
url
us
usa
usage
usb
usd
use
used
useful
user
users
uses
using
ussr
ustring
usually
ut
utc
utilities
uz
uzbekistan
v
va
val
valid
value
values
van
vancouver
var
various
vb
ve
vector
verlag
version
vertical
verwaltungsgemeinschaften
very
vi
via
vid
video
view
vii
viii
village
violence
visual
visualeditor
vo
voennoe
vol
volume
volunteers
von
vorlage
vostoka
vote
voting
vpn
vremeni
vs
vu
vv
vyp
w
wa
walt
want
wants
war
warner
warning
was
washington
watch
watchlist
water
way
we
web
website
wechat
week
weekly
weight
welcome
well
were
west
western
what
when
where
whether
which
while
white
who
whole
why
wi
wide
width
wiki
wikibase
wikidata
wikilink
wikimania
wikimedia
wikipedia
wikipedias
wikiproject
wikis
wikitext
wikitranslate
wild
will
william
windows
wish
wishes
wishlist
with
within
without
wmf
woman
women
worcester
word
work
working
works
world
would
wp
wrap
write
writing
ws
www
x
xbox
xe
xi
xii
xiii
xiv
xix
xml
xn
xv
xvi
xvii
xviii
xx
xxi
y
ya
yahoo
yandex
yay
yayınları
year
years
yellow
yes
yesno
yet
yi
yildiz
yo
york
you
young
your
youtube
yu
yuzhnoj
yy
yyyy
z
za
zapadnoj
zerine
zero
zh
zn
zone
zoom
zr
zu
{
|
}
~
¢
£
¥
§
©
«
¬
­
®
¯
°
±
²
³
´
¶
·
º
»
¼
½
¾
×
ß
æ
ø
ı
ƒ
ə
ɛ
ɵ
ʏ
ʏʏ
ʻ
ʼ
ʾ
ʿ
ˈ
ˌ
ː
˚
̀
́
̂
̃
̄
̆
̇
̈
̉
̊
̋
̌
̓
̔
̛
̠
̣
̦
̧
̨
̯
̱
̸
͂
α
β
γ
γγ
δ
ε
η
θ
ι
λ
μ
ν
ξ
ο
π
ρ
ς
σ
τ
υ
φ
χ
ψ
ω
ϑ
ϕ
а
аа
ааббт
аак
аалам
ааламга
ааламда
ааламдагы
ааламдардын
ааламдашуу
ааламды
ааламдын
аалы
аалыбек
аалым
аалымдар
ааматов
аарчы
аарчып
аары
аарылар
аарынын
аба
абага
абад
абада
абадагы
абадан
абаддагы
абаи
абак
абакан
абакиров
абакка
абактан
абал
абалак
абалга
абалда
абалдагы
абалдан
абалдары
абалды
абалдын
абалы
абалын
абалына
абалынан
абалында
абалындагы
абалынын
абамаи
абаны
абанын
абасы
абат
аббас
аббасии
абд
абдан
абдиев
абдраев
абдраимов
абдрахман
абдрахманов
абдугафуров
абдукаимов
абдул
абдулла
абдуллаев
абдуллах
абдумомунов
абдурахман
абдыкадыр
абдыкадыров
абдыкалыков
абдыкерим
абдылда
абдылдабек
абдылдаев
абдымомун
абдымомунов
абдыракман
абдыракманов
абдырахман
абдырахманов
абдырашит
абзел
абзелил
абии
аблаи
абляция
абляциясынын
аборт
абрамзон
абрамзондун
аброи
абс
абсолют
абсолюттук
абстракттуу
абстрактуу
абстракция
абсурд
абу
абубакр
абул
абулхасан
абхаз
абыке
абылаи
абышка
ав
аваздык
авар
аватар
август
августа
августда
августин
августка
августта
августтан
августтун
августуна
августунан
августунда
августундагы
авиа
авиация
авиациялык
авиациянын
авлетим
авогадро
авпв
австралия
австралияда
австралиялык
австралиянын
австрия
австрияда
австриялык
австриянын
австро
авт
авто
автобиографиялык
автобус
автомат
автоматика
автоматически
автоматташтыруу
автоматташтырылган
автоматтык
автомобилдер
автомобилдин
автомобиль
автоном
автономдук
автономдуу
автономия
автономиялуу
автономиялык
автономиясы
автор
автордук
автордуку
автордун
автореферат
авторитардык
авторлор
авторлордун
авторлору
авторлорунун
авторлош
авторлошу
авторстве
автору
автоунаа
ага
агаи
агартуу
агартуунун
агартуусунун
агартуучу
агартуучулар
агартуучулук
агасы
агасынын
агат
агент
агенти
агенттиги
агенттигинде
агенттигинин
агенттик
агенттиктин
агитация
агитациялык
агломерациясы
агломерациясында
агрардык
агрегат
агрегаттык
агрегаты
агрессивдүү
агро
агроном
агрономия
агротехникалык
агрохимия
агуу
агуучу
агы
агызып
агым
агымга
агымдар
агымдардын
агымдары
агымдарынын
агымды
агымдын
агымы
агымын
агымына
агымынан
агымында
агымындагы
агымынын
агын
агынсыз
агып
агыш
агышаи
ад
адабии
адабият
адабиятка
адабиятта
адабияттагы
адабияттар
адабияттарда
адабияттарды
адабияттардын
адабиятты
адабияттын
адабиятчы
адабиятчылар
адабияты
адабиятын
адабиятына
адабиятынан
адабиятында
адабиятындагы
адабиятынын
адал
адам
адамга
адамда
адамдагы
адамдан
адамдар
адамдарга
адамдарда
адамдардан
адамдарды
адамдардын
адамдары
адамдарын
адамдарына
адамдарынын
адамды
адамдык
адамдын
адамзат
адамзатка
адамзатты
адамзаттык
адамзаттын
адамс
адамы
адамынын
адан
адаптация
адаптацияланган
адаптациянын
адат
адатка
адатта
адаттагы
адаттагыдаи
адаттан
адаттар
адаттары
адаты
адатын
адашкан
адашып
адвокат
адегенде
аден
адеп
адепки
адептик
адептүүлүк
ади
адигине
адил
адилет
адилетсиз
адилетсиздик
адилеттик
адилеттүү
адилеттүүлүк
адис
адиси
адистер
адистерди
адистердин
адистери
адистешкен
адистештирилген
адистиги
адистигин
адистигине
адистик
адистикке
адм
админ
административдик
административно
администратор
администрация
администрациялык
администрациянын
администрациясы
администрациясында
администрациясынын
админстративдик
адмирал
адольф
адрес
адур
адыгине
адыл
адыр
адырлар
адырлуу
ае
ажаи
ажал
ажар
ажаткана
ажо
ажы
ажыбаи
ажыбек
ажыдаар
ажыдаардын
ажылык
ажынын
ажыраган
ажырагыс
ажыраи
ажырап
ажырата
ажыратат
ажыратуу
ажыратууга
ажыратуучу
ажыратылат
ажыратылган
ажыратылып
ажыратып
ажырашкан
ажырашуу
ажырашы
ажырашып
ажыроо
ажыроосу
аз
аза
азабы
азабын
азабынан
азаи
азамат
азан
азап
азапка
азаптан
азапты
азат
азаттык
азаттыкка
азаттыктын
азаюуда
азаят
азбелев
аздан
аздыгы
аздыр
азем
аземи
аземинде
аземине
азерб
азербаи
азиз
азиза
азии
азирети
азия
азияга
азияда
азиядагы
азиядан
азиялык
азияны
азиянын
азов
азот
азоттун
азоттуу
азуу
азчылык
азчылыктын
азы
азыгы
азыгын
азык
азыктанат
азыктандыруу
азыктануу
азыктанышат
азыктар
азыктарды
азыктардын
азыктары
азыктарын
азыктарынын
азыктык
азыр
азыраак
азыркы
азыркыга
азыркыдаи
азырынча
аи
аида
ак
акад
академ
академиги
академии
академик
академиктер
академия
академияда
академиялык
академияны
академиянын
академиясы
академиясын
академиясына
академиясында
академиясынын
акаев
акаевдин
акак
акация
акбалта
акбалтанын
акбар
акбуура
аквинскии
акдемиясынын
аке
акжолтои
аки
аким
акими
акимии
акимушкин
акиташ
акиташтуу
аккад
аккан
аккелте
аккредитив
аккула
аккуланы
аккуланын
аккумулятор
аккумуляциялык
аккуу
акман
акмат
акматалиев
акматбек
акматов
аксаи
аксак
аксакал
аксакалдар
аксакалы
аксараи
аксуу
аксы
акт
актаи
акталган
актан
акташ
акте
актер
актердук
актердун
актерлор
актерлордун
актеру
активдер
активдештирүү
активдүү
активдүүлүгү
активдүүлүгүн
активдүүлүгүнүн
активдүүлүгүнө
активдүүлүк
активист
активисттер
актоо
актриса
актрисалар
актрисанын
актрисасы
актуалдуу
актуальные
актуу
акты
актык
актылар
актыларды
актылардын
актылары
актыларын
актыларынын
актылуу
актысы
актөбө
акуб
акула
акулалар
акун
акунбешим
акунов
акунова
акустика
акустикалык
акушер
акушердик
акушерлик
акцепт
акционердик
акционерлердин
акция
акциялар
акцияларды
акциялардын
акциялары
акцияларынын
акциянын
акча
акчага
акчалаи
акчаны
акчанын
акчасын
акчии
акш
акшак
акшга
акшда
акшдагы
акшдан
акшнын
акшумкар
акшыи
акы
акыбети
акыи
акыл
акылаи
акылбек
акылга
акылдан
акылдуу
акылдын
акылман
акылсыз
акылуу
акылы
акылын
акын
акындар
акындардын
акындары
акындарынын
акындык
акындын
акыны
акынын
акыр
акырет
акыретке
акыретте
акыркы
акыркысы
акыры
акырын
акырына
акырында
акырындап
акырындык
акысы
акысыз
акысын
ал
ала
алабуга
алабука
алабы
алабыз
алабын
алабына
алабынан
алабында
алабындагы
алабынын
алагушов
алаи
алака
алакалары
алакаларын
алакан
алалы
алам
аламан
аламын
аламыч
аламычы
аламүдүн
алан
алар
аларга
аларда
алардагы
алардан
аларды
алардын
аларча
аласыз
аласың
аласыңар
алат
алатоо
алатоонун
алатоосунун
алаш
албаган
албаганда
албагандыктан
албады
албаи
албан
албания
албаниянын
албаса
албастан
албетте
албоо
алга
алган
алганга
алганда
алгандан
алгандар
алгандыгы
алгандыгын
алгандыктан
алганы
алганын
алгач
алгачкы
алгачкылардан
алгачкысы
алгебра
алгебралык
алгоритм
алгы
алгыла
алгылыктуу
алгыр
алгыс
алгыч
алда
алдап
алдар
алдашев
алдеи
алдоо
алды
алдыга
алдыда
алдыдагы
алдык
алдым
алдын
алдына
алдынала
алдыналуу
алдынан
алдында
алдындагы
алдынкы
алдынча
алдынчалыгы
алдынчалыгын
алдынчалыкка
алдырат
алдырма
алдыруу
алдыруучу
алдырып
алдыңкы
алевролит
алеи
алек
алекс
александр
александра
александрия
александрович
александровка
александровна
алексеев
алексеевич
алексеи
алектенген
алектенет
алектенип
алектенишет
алеут
алжапкыч
алжир
али
алиге
алиев
алиева
алим
алинин
алиппе
алиса
алифаттык
алишер
алия
алкагы
алкагына
алкагында
алкагындагы
алкагынын
алкак
алкакка
алкакта
алкактар
алкактарда
алкактары
алкактарында
алкактуулук
алкактын
алкоголдук
алкоголь
алкыш
алла
аллага
алладан
алланы
алланын
аллах
аллахдан
аллахка
аллахтан
аллахты
аллахтын
аллен
аллергия
аллергиялык
аллювии
алма
алмаз
алмазбек
алмак
алмалуу
алмамбет
алмамбетке
алмамбетти
алмамбеттин
алманын
алматы
алматыда
алматыдагы
алмашат
алмашкан
алмаштыра
алмаштырат
алмаштырган
алмаштыруу
алмаштырууга
алмаштырууну
алмаштыруучу
алмаштырылат
алмаштырылган
алмаштырылып
алмаштырып
алмашуу
алмашууга
алмашууда
алмашууну
алмашуунун
алмашуусу
алмашуусун
алмашуусуна
алмашуусунун
алмашылган
алмашылып
алмашып
алмашышып
алмурут
алои
алооке
алоокенин
алп
алпамыш
алса
алсак
алсыз
алсын
алтае
алтаи
алтая
алтургаи
алты
алтылык
алтымыш
алтын
алтынаи
алтынбек
алтынга
алтындан
алтындыкы
алтындын
алтынчы
алуу
алууга
алууда
алуудагы
алуудан
алуулар
алуулары
алууну
алуунун
алуусу
алуусун
алуусуна
алуусунда
алуучу
алуучуга
алуучулар
алуучуларга
алуучулардын
алуучулук
алуучунун
алфавит
алфавити
алфавитин
алфавитиндеги
алфавитине
алфавитинин
алфавиттик
алфавиттин
алча
алчалуу
алчу
алчы
алшеев
алы
алыбаев
алыи
алыкул
алыкулов
алым
алымбек
алымбектин
алымкан
алымкул
алымкулов
алына
алынат
алынбаган
алынбаи
алынган
алынганда
алынгандан
алынганы
алынды
алынса
алынууда
алынуусу
алынуучу
алынып
алынышы
алынышына
алып
алыптыр
алыс
алыска
алыскы
алыста
алыстаган
алыстан
алыстап
алыстыкка
алыстыкта
алысыраак
алыш
алышат
алышкан
алышпаи
алышса
алышты
алышуу
алышы
алышын
алышына
алышып
аль
альб
альберт
альбом
альбомдор
альбомдору
альбомдун
альбому
альбомун
альбомунун
альгои
альманах
альп
альт
альтенбург
альтенкирхен
альтернатива
альтернативдик
альтернативдүү
альто
альфа
альфонс
альфред
альцаи
альянс
алюминии
аляска
ам
амазонка
амал
амалдар
амалдарды
амалдары
амалдарын
амалы
аман
аманат
аманбаев
аманбек
амантур
амат
амбулатория
аме
амер
америка
америкага
америкада
америкадагы
америкадан
америкалык
америкалыктар
америкалыктардын
американы
американын
америкасында
америкасындагы
аметист
амин
аминдер
аминокислоталар
амир
амиралиев
амири
аммиак
аммонии
аморфтук
аморфтуу
ампер
амплитудасы
амстердам
аму
амур
ан
ана
анадолу
анализ
анализге
анализде
анализдик
анализдин
анализдөө
анализи
аналитикалык
аналогдук
аналогу
анан
ананас
анар
анара
анаркулов
анатолии
анатомия
анатомиялык
анаэробдук
анвар
анварбек
анг
анга
ангара
ангидриди
ангина
англ
англии
англис
англисче
англичандар
англия
англияга
англияда
англиядагы
англиялык
англиянын
англо
ангола
анд
анда
андагы
андаи
андан
андерсон
андижан
андре
андреас
андреев
андреевич
андреи
андрон
андыктан
анемия
анжелес
анжелесте
анжиян
анжыян
анимация
анимацияланган
анимациялык
аниме
анимисттик
анкара
анна
анны
анри
ансамблдери
ансамблдин
ансамбли
ансамблин
ансамблинин
ансамбль
ансбах
ансыз
ант
антанта
антарктида
антарктика
антенна
анти
антибиотик
антибиотиктер
антибиотиктерди
антик
антикалык
антиклиналдык
антиклиналь
антил
антимонит
антип
антисептик
антитело
антителолор
анткен
анткени
антология
антологиясы
антон
антонио
антпесе
антропоген
антропогендик
антропогендин
антропологии
антропология
антропологиялык
антуан
анхальт
анча
анчалык
аны
анык
аныктаган
аныктады
аныктаи
аныктала
аныкталат
аныкталбаган
аныкталган
аныкталды
аныкталуучу
аныкталып
аныктама
аныктамалар
аныктамасы
аныктап
аныкташат
аныкташкан
аныктоо
аныктоого
аныктоодо
аныктоонун
аныктоочу
анын
анысы
ао
ап
апа
апаат
апабыз
апам
апамдын
апасы
апасынын
апатит
апельсин
апеннин
апии
аполлон
апостол
аппак
аппарат
аппаратта
аппараттар
аппараттарды
аппараттардын
аппараттары
аппаратты
аппараттык
аппараттын
аппаратура
аппараты
аппаратын
аппаратына
аппаратында
аппаратынын
апрелге
апрелде
апрелден
апрелдин
апрелинде
апрелине
апрелинен
апрель
апреля
апта
аптабачы
ар
ара
араа
араб
араба
арабаев
арабаева
арабдар
арабдардын
арабия
арабиясы
арабча
араван
арага
арада
арадагы
арадан
арак
аракет
аракети
аракетин
аракетинде
аракетине
аракетинен
аракетинин
аракетке
аракетте
аракеттеги
аракеттенген
аракеттенет
аракеттенип
аракеттенишет
аракеттениши
аракеттенишкен
аракеттенишүү
аракеттенүү
аракеттенүүгө
аракеттенүүсү
аракеттер
аракеттерге
аракеттерди
аракеттердин
аракеттери
аракеттерин
аракеттерине
аракеттеринен
аракеттеринин
аракеттешүү
аракеттешүүнүн
аракеттешүүсү
аракетти
аракеттин
аракечтик
аракс
арал
аралап
аралары
араларын
араларына
аралаш
аралаша
аралашат
аралашкан
аралашма
аралашманы
аралашмасы
аралашмасын
аралашмасынан
аралаштыруу
аралаштырып
аралашып
аралга
аралда
аралдагы
аралдан
аралдар
аралдарда
аралдарды
аралдардын
аралдары
аралдарын
аралдарында
аралдарынын
аралды
аралдын
аралы
аралыгы
аралыгын
аралыгына
аралыгында
аралыгындагы
аралык
аралыкка
аралыкта
аралыктагы
аралыктан
аралыктары
аралыктарындагы
аралыкты
аралыктын
аралын
аралына
аралынан
аралында
аралындагы
аралынын
арам
арамеи
араны
аранын
арап
арапча
арасы
арасын
арасына
арасынан
арасында
арасындагы
арасынын
арашан
араң
арб
арбагы
арбагына
арбак
арбатско
арбир
арбитраждык
арбын
арваи
аргандаи
аргасыз
аргасыздан
аргентина
аргентинада
аргентиналык
аргентинанын
аргиллит
аргымак
аргын
аргындаштыруу
ард
ардагер
ардагери
ардагерлер
ардак
ардактуу
ареалы
ареалынын
арена
аренага
аренада
арзан
арзыган
арзымат
арзырлык
ариби
арии
арип
аристов
аристотелдин
аристотель
арифметикалык
арка
аркак
аркалаган
аркалап
аркалык
аркан
аркандын
аркар
аркасы
аркасынан
аркасында
арктика
арктикалык
аркы
аркыл
аркылуу
арман
армандуу
арманы
армения
арменияда
армениянын
армии
армия
армияга
армияда
армиядан
армияны
армиянын
армиясы
армиясын
армиясына
армиясында
армиясынын
армстронг
армян
армяндар
армяндардын
арнаган
арналат
арналган
арналып
арналышы
арнап
арнольд
арноо
арнсберг
ароматтык
аростук
арпа
арпанын
арсенал
арсенопирит
арслан
арстан
арстанбап
арстанбек
арстандын
арт
арта
артат
артезиан
артерия
артериялык
артериясы
артиллерия
артиллериялык
артист
артисти
артисттер
артисттери
артисттик
артка
арткан
арткы
артта
арттырат
арттыруу
арттырууга
арттырып
артур
арты
артык
артыкбаев
артыкча
артыкчылыгы
артыкчылыгын
артыкчылык
артыкчылыкка
артыкчылыктары
артыкчылыктуу
артын
артына
артынан
артында
артындагы
артып
аруу
арх
архаикалык
архангель
архангельск
археол
археолог
археологдор
археологии
археологические
археологических
археология
археологиялык
археологиясы
архив
архивделген
архивдик
архиви
архимед
архипелаг
архипелагы
архипелагынын
архитектор
архитекторлор
архитектору
архитектура
архитектурада
архитектуралык
архитектуранын
архитектурасы
архитектурасында
архитектурасынын
арча
арчалуу
арчалы
арчасы
ары
арыз
арызы
арык
арыктаи
арыктап
арыктын
арылтуу
арылуу
арым
ас
аса
асаба
асан
асаналиев
асанбек
асанбеков
асанканов
асанков
асанкул
асанов
асанова
асбест
асел
асель
асем
аска
аскага
аскалар
аскалуу
аскар
аскер
аскерге
аскерден
аскерди
аскердик
аскердин
аскери
аскерии
аскерин
аскеринин
аскерлер
аскерлерге
аскерлерди
аскерлердин
аскерлери
аскерлерин
аскерлерине
аскерлеринен
аскерлеринин
аскин
аскорбин
асма
асман
асманга
асманда
асмандагы
асмандан
асмандар
асманды
асмандын
аспабы
аспап
аспапта
аспаптар
аспаптарда
аспаптарды
аспаптардын
аспаптары
аспапты
аспаптык
аспаптын
аспектилери
аспекты
аспирант
аспирантура
аспирантурага
аспирантурада
аспирантураны
аспирантурасын
аспирантурасында
аспиранты
ассамблея
ассамблеясы
ассамблеясынын
ассимиляция
ассирия
ассистент
ассистенти
ассоциация
ассоциациялар
ассоциациянын
ассоциациясы
ассоциациясынын
асср
ассри
ассринин
аста
астана
астероид
астмасы
астрахань
астроном
астрономдор
астрономия
астрономияда
астрономиялык
астрофизика
асты
астын
астына
астынан
астында
астындагы
астынкы
астыңкы
асфальт
асфальтталган
асыл
асылбек
асылган
асылуу
асылып
асып
асыралат
асыралып
асырап
асыресе
асыроо
ат
ата
атаандаш
атаандаштары
атаандаштарын
атаандаштык
атаандаштыкка
атаандаштыкты
атаандашы
атаандашын
атаандашынын
атабаев
атабек
атабеков
атабыз
атабыздын
атага
атаган
атагы
атагын
атадан
атады
атаи
атак
атаке
атакка
атактуу
атактуулукка
атала
аталар
аталары
аталарынын
аталат
аталаш
аталган
аталганы
аталгы
аталгылар
аталгылары
аталгысы
аталды
аталса
аталуучу
аталчу
аталыгы
аталык
аталып
аталыш
аталышат
аталышка
аталышта
аталыштагы
аталыштар
аталыштардын
аталыштары
аталыштарын
аталыштарынын
аталышты
аталыштын
аталышы
аталышын
аталышына
аталышынан
аталышында
аталышындагы
аталышынын
атам
атама
атамбаев
атамдын
атамекендик
атанган
атантаи
атанын
атап
атар
атаса
атасы
атасын
атасына
атасынан
атасынын
атат
ататүрк
ататүрктүн
аташат
аташкан
аташчу
атаң
атаңдын
атбашы
атеросклероз
ати
атка
аткан
атканда
аткара
аткарат
аткарбаи
аткарган
аткаргандыгы
аткарганы
аткарды
аткарса
аткаруу
аткарууга
аткарууда
аткаруудан
аткарууну
аткаруунун
аткаруусу
аткаруусунда
аткаруусундагы
аткаруучу
аткаруучулар
аткаруучулардын
аткаруучулук
аткаруучунун
аткаруучусу
аткарыла
аткарылат
аткарылбаи
аткарылган
аткарылса
аткарылуучу
аткарылып
аткарылышы
аткарылышын
аткарылышына
аткарымдар
аткарымдарды
аткарып
аткарышат
аткарышкан
аткарышы
аткомунун
аткыч
аткычтар
атланта
атлантика
атлантикалык
атлас
атласы
атлетика
атлетико
атм
атмаи
атмосфера
атмосферага
атмосферада
атмосферадагы
атмосфералык
атмосфераны
атмосферанын
атмосферасы
атмосферасынын
атн
атом
атомдор
атомдордон
атомдордун
атомдору
атомдорунун
атомдук
атомдун
атомдуу
атому
атомунан
атомунун
атоо
атоого
атооч
атоочтор
атоочтук
атоочтуктар
атоочтун
атрибуту
атта
аттан
аттанат
аттанган
аттанып
аттап
аттар
аттарга
аттарды
аттардын
аттары
аттарын
аттарына
аттарынан
аттарынын
аттестациялык
атту
аттуу
атты
аттын
атуу
атууга
атуул
атуулдук
атуулу
атуучу
атф
атчан
атчандар
аты
атыгып
атыккан
атылган
атылып
атым
атын
атына
атынан
атында
атындагы
атынын
атып
атыр
атырау
атүгүл
аугсбург
аудио
аудит
аургазин
аутоиммундук
ауэзов
афган
афганистан
афганстан
афганстандын
афина
афины
афк
африка
африкага
африкада
африкадагы
африкадан
африкалык
африканы
африканын
афшар
ах
ахатов
ахемениддер
ахлак
ахлактык
ахмад
ахмаддын
ахмадии
ахмадия
ахматов
ахмед
ахмедов
ахмет
ахун
ахунбаев
ахыска
ацетилен
ацетон
ач
ача
ачаары
ачакеи
ачарчылык
ачары
ачат
ачинск
ачка
ачкан
ачкачылык
ачкыч
ачкычы
ачты
ачуу
ачууга
ачууда
ачууланган
ачууланып
ачуусу
ачуучу
ачы
ачык
ачыкка
ачыла
ачылат
ачылбаи
ачылган
ачылгандан
ачылды
ачылып
ачылыш
ачылыштар
ачылыштарды
ачылышы
ачылышына
ачып
ачыткы
ачышкан
аш
аша
ашар
ашат
ашель
ашина
ашка
ашкабак
ашказан
ашкан
ашкана
ашканасы
ашкере
ашкерелеген
ашпаган
ашпаи
ашта
аштан
ашташкан
ашты
аштын
ашуу
ашуудан
ашуулар
ашуулары
ашуун
ашуунун
ашуусу
ашуусуна
ашуусунан
ашуусунун
ашхабад
ашы
ашыгы
ашыгын
ашык
ашыктык
ашыкча
ашын
ашына
ашынган
ашында
ашындагы
ашып
ашыра
ашырат
ашырбаи
ашырган
ашыруу
ашырууга
ашырууда
ашырууну
ашыруунун
ашыруучу
ашырыла
ашырылат
ашырылган
ашырылуучу
ашырылып
ашырылышы
ашырып
аэродинамикалык
аэропорт
аэропорттору
аэропорту
аюу
аябагандаи
аябаи
аягы
аягын
аягына
аягынан
аягында
аягындагы
аяз
аяк
аяккы
аяктаган
аяктаганга
аяктаганда
аяктагандан
аяктады
аяктаи
аяктап
аяктар
аякташы
аял
аялга
аялдар
аялдарга
аялдарда
аялдардан
аялдарды
аялдардыкы
аялдардын
аялдары
аялдарыныкы
аялдарынын
аялды
аялдык
аялдын
аялуу
аялы
аялын
аялына
аялынан
аялынын
аян
аянт
аянтка
аянтта
аянттагы
аянттан
аянттарда
аянттары
аянтты
аянттын
аянтча
аянтчада
аянтчасы
аянты
аянтын
аянтына
аянтында
аянтынын
аяр
аят
аяттан
аяттарын
аяш
аң
аңгеме
аңгемелер
аңгемелерди
аңгемелердин
аңгемелери
аңгемелерин
аңгемеси
аңглис
аңглия
аңгыча
аңдап
аңдоо
аңдып
аңчылык
аңчылыкка
аңыз
б
ба
баа
баага
баада
баалаган
баалаи
бааланат
бааланган
бааланып
баалап
баалар
бааларды
баалардын
баалашат
баалашкан
баалоо
баалоого
баалоодо
баалуу
баалуулугу
баалуулугун
баалуулук
баалуулуктар
баалуулуктарга
баалуулуктарды
баалуулуктардын
баалуулуктары
баалуулуктарын
баамдаи
баамдалат
баамдап
бааны
баанын
бааракы
баардыгы
баардык
баарлашуу
баары
баарыбыз
баарыбызга
баарыдан
баарын
баарына
баарынан
баарында
баарынын
баарысы
баарысын
баасы
баасын
баасына
баасынын
баатыр
баатырга
баатырды
баатырдыгы
баатырдык
баатырдын
баатырлар
баатырларга
баатырларды
баатырлардын
баатырлары
баатырларын
баатырларынын
баатыры
баатырынын
баба
бабак
бабалар
бабалардын
бабалары
бабаларыбыз
бабаларынын
бабасы
бабур
бабурдун
бавария
баварияжеринде
бага
багама
баган
багат
багбанчылык
багдад
багуу
багууга
багы
багылат
багылган
багында
багындырган
багындырып
багынын
багынып
багыныңкы
багып
багыт
багытка
багытта
багыттагы
багыттаи
багытталат
багытталган
багытталып
багыттап
багыттар
багыттарды
багыттардын
багыттары
багыттарын
багыттарынын
багыттоо
багыттоочу
багытты
багыттын
багыты
багытын
багытына
багытында
багытындагы
багытынын
багыш
багышталган
бад
бада
бадал
бадалдар
бадалдары
бадалдуу
бадам
бадан
бадахшан
баден
бадыраң
баев
баетов
бажы
база
базалык
базальт
базар
базарбаев
базарга
базарда
базардагы
базардын
базаркоргон
базары
базарында
базарынын
базасы
базасын
базасына
базасында
базасынын
базы
базылхан
баи
бак
бака
бакаи
бакалавр
бакалар
бакалин
бакалоор
бакан
бакасы
бакдөөлөт
бакен
бакиев
бакиевдин
бакир
бакка
баккан
бакма
бактары
бактерия
бактериялар
бактериялардын
бактериялык
бактрия
бакты
бактыбек
бактылуу
бактын
бактысы
бактысыз
баку
бакуда
бакча
бакчада
бакчалар
бакчанын
бакчасараи
бакчасы
бакчасынын
бакчиев
бакшы
бакы
бакыт
бакытбек
бакытка
бал
бала
балага
балада
баладан
балалуу
балалыгы
балалык
балам
баланс
баланстагы
балансы
балансын
баланы
баланын
балапан
балар
баларды
балардын
балары
баларын
баласагун
баласагын
баласагына
баласагындын
баластан
баласы
баласын
баласына
баласынан
баласынын
балаты
балбаи
балбал
балбан
балбандар
балбандын
балбаны
балдар
балдарга
балдарда
балдардан
балдарды
балдардын
балдары
балдарын
балдарына
балдарынын
балет
балети
балетмеи
бали
балка
балкан
балкар
балкаш
балким
балкып
балл
баллада
баллга
балта
балтачев
балтика
балтыр
балтыходжа
балуу
балх
балхаш
балыгы
балык
балыкка
балыкооз
балыктар
балыктарга
балыктарда
балыктардын
балыктарынын
балыкты
балыктын
балыкчы
балыкчылык
балыр
балырлар
бам
бамберг
бамбук
бан
банан
банат
банаттар
банаттарды
банаттардын
бангладеш
банда
бандар
бандардын
бани
банк
банка
банкка
банкноттор
банктар
банктардын
банктык
банктын
банкы
банкынын
банту
баны
банын
бао
бар
бара
бараандуу
барабан
барабар
барагы
барагын
барагына
барак
баракка
барактар
барактарды
барактардын
барактары
баракты
барактын
баракча
баракчасы
баракчасына
барам
барат
бараталиев
баратат
бараткан
баратканда
баратып
барбаи
барбара
барбы
барган
баргана
барганда
баргандагы
барганы
баргы
барды
бардыгы
бардыгын
бардыгына
бардыгында
бардыгынын
бардык
баренц
барии
барит
барк
баркка
барктуу
баркы
баркын
баркыт
барлар
бармак
барнаул
барокко
барон
барпы
барс
барса
барсбек
барселона
барскан
барскани
барскон
барскоон
бартольд
баруу
барууга
барууда
барууну
баруучу
баруучусу
барчу
бары
барыдан
барымта
барымтага
барын
барып
барыш
барышат
барышкан
барышы
барышып
бас
баса
басар
басары
басат
басаңдаи
басаңдап
басаңдатат
басаңдатуучу
баскаков
баскан
басканда
баскетбол
баскынчы
баскынчылар
баскынчыларга
баскынчылардан
баскынчыларына
баскынчылык
баскыч
баскычка
баскычта
баскычтагы
баскычтан
баскычтар
баскычтары
баскычтарында
баскычтуу
баскычты
баскычы
баскычын
баскычында
басма
басмага
басмадан
басмаи
басмакана
басмаканасы
басмаканасында
басмасы
басмасынан
басмасында
басмасынын
басмачылар
басмачыларга
басмачылардын
басмачылык
басмырлоо
басмырлоого
баспаи
бассеи
бастырып
басуу
басууга
басы
басыз
басыздар
басылат
басылган
басылма
басылмалар
басылмаларда
басылмаларды
басылмалардын
басылманын
басылмасы
басылып
басылыш
басылышы
басым
басымга
басымда
басымдагы
басымдуу
басымдуулук
басымды
басымдын
басымы
басымын
басымына
басымынын
басын
басына
басынан
басынын
басып
бат
бата
батальон
батасын
батат
баткак
баткан
баткен
батлер
батпаи
баттамада
батыи
батып
батыр
батыш
батышка
батышта
батыштагы
батыштан
батышты
батыштын
батышы
батышын
батышына
батышынан
батышында
батышындагы
баутцен
бауэр
бах
бахаи
бахреи
баш
башаламан
башаламандык
башат
башаты
башатын
башатынан
башатында
башжазуу
башка
башкага
башкалар
башкаларга
башкаларда
башкалардан
башкаларды
башкалардын
башкалары
башканы
башкара
башкарат
башкарган
башкарма
башкармалыгы
башкармалыгында
башкармалыгынын
башкармалыктын
башкарманын
башкармасы
башкармасында
башкармасынын
башкаруу
башкарууга
башкарууда
башкарууну
башкаруунун
башкаруусу
башкаруусунда
башкаруусунун
башкаруучу
башкаруучулар
башкаруучулары
башкаруучуларынын
башкаруучулук
башкаруучунун
башкаруучусу
башкарылат
башкарылган
башкарылма
башкарылуучу
башкарып
башкасы
башкасын
башкача
башкир
башкортостан
башкы
башкыр
башкырстан
башкырт
башкыртстан
башкыртстандын
башкысы
башта
баштаган
баштаганда
баштагандан
баштаганы
баштаганын
баштады
баштаи
башталат
башталган
башталганга
башталганда
башталгандан
башталгыч
башталды
башталса
башталып
башталыш
башталышы
башталышын
башталышына
башталышынан
башталышында
баштан
баштап
баштапкы
баштары
баштарын
баштарына
баштаса
башташат
башташкан
башташты
башташы
баштоо
баштоого
баштоочу
баштоочусу
баштуу
башты
баштык
баштыкчан
баштын
башчы
башчылар
башчылардын
башчылары
башчыларынын
башчылыгы
башчылыгына
башчылык
башчынын
башчысы
башчысын
башчысына
башчысынын
башы
башын
башына
башынан
башында
башындагы
башынын
баягы
баялинов
баян
баяндаган
баяндаи
баяндалат
баяндалган
баяндалып
баяндама
баяндамалар
баяндамасы
баяндамачы
баяндап
баяндар
баяндары
баяндарында
баяндоо
баяны
баянын
баяр
баңги
бб
ббк
бгу
бгунун
бе
бегалиев
беген
беги
бегимаи
беде
бедел
беделдүү
без
безгек
бездер
бездердин
бездери
бездеринин
бездин
бези
безинин
беи
бек
бекбоев
бекболот
бекем
бекемдеген
бекемдеи
бекемделген
бекемделет
бекемдеп
бекемдиги
бекемдигин
бекемдөө
бекемдөөгө
бекен
бекер
бекеринен
бекет
бекети
бекетинен
бекеттери
беки
бекиген
бекии
бекип
бекитет
бекитилген
бекитилет
бекитилип
бекитип
бекиткен
бекитүү
бекитүүчү
бекке
беккер
бекмурат
бекназар
бексултан
бектемир
бектен
бектенов
бектин
бектур
бел
беларус
беларусиянын
беларуссия
беларусча
беларусь
белая
белге
белги
белгилеген
белгилегендеи
белгиледи
белгилеи
белгиленген
белгиленди
белгиленет
белгиленип
белгилениши
белгиленүүчү
белгилеп
белгилер
белгилерге
белгилерди
белгилердин
белгилери
белгилерин
белгилерине
белгилеринен
белгилеринин
белгилешет
белгилешкен
белгилешүүдө
белгилуу
белгилүү
белгилүүлөрү
белгилүүсү
белгилөө
белгилөөгө
белгилөөдө
белгилөөчү
белгини
белгинин
белгиси
белгисиз
белгисин
белгисине
белгисинин
белград
белдемчи
беле
белебеев
белеги
белек
белекке
беленделет
белес
бели
белин
белине
белинен
белинскии
белл
белогу
белок
белокатаи
белоктор
белоктордун
белоктун
белорет
белорус
белоруссия
белыи
бельгия
бельгияда
бельгиялык
бельгиянын
бен
бенгал
бенедикт
бензин
бензол
бентон
бер
бербеген
бербеи
бербесе
бербестен
бербөө
берг
берген
бергенге
бергенде
бергенден
бергендиги
бергендиктен
бергени
бергенов
бергиле
бергич
бергсон
берди
бердиев
бердик
бердике
бере
беребиз
береи
береке
берекелүү
берем
берен
берене
беренеси
беренесине
беренц
берерин
берет
бери
берик
берилбеи
берилген
берилди
бериле
берилет
берилип
берилиш
берилиши
берилиштер
берилиштерди
берилиштердин
бериллии
берилсе
берилүү
берилүүчү
беринг
берип
бериш
беришет
бериши
беришинде
беришип
беришкен
беришпеи
бериште
беришти
берки
беркли
беркшир
берлин
берлинде
берлиндеги
берлинди
бермек
бермет
берн
бернард
бернд
бернкастель
бернхард
бернштам
берсе
берсин
беруу
берчи
берчү
берүү
берүүгө
берүүдө
берүүдөгү
берүүдөн
берүүлөр
берүүлөрүн
берүүнү
берүүнүн
берүүсү
берүүсүн
берүүсүнүн
берүүсүнө
берүүчү
берүүчүлөр
берүүчүлөрдүн
берүүчүнүн
бес
бестселлер
бет
бета
бетачары
бетеге
бетегелүү
бетер
бети
бетин
бетинде
бетиндеги
бетине
бетинен
бетинин
бетинче
бетке
беткеи
бетме
бетон
бетондон
бетте
беттен
беттер
беттерде
беттери
беттерин
беттеринде
беттериндеги
беттерине
беттеринин
беттеш
беттешип
беттешкен
беттеште
бетти
беттик
беттин
бехзад
беш
бешик
бешикке
бешим
бешинчи
бешташ
бештен
бештин
бешөө
би
биберах
библиографическии
библиография
библиографиялык
библиотека
библия
бижбуляк
биз
бизге
бизде
бизден
бизди
биздин
бизнес
бизнеси
бизнесин
бизнесмен
бизнести
бии
бик
бил
билбеген
билбеи
билге
билген
билгендер
билгендигин
билгенин
билги
билгизет
билгизип
билгиле
билгичтик
билдирбеи
билдирген
билдирди
билдире
билдирет
билдирип
билдиришкен
билдирүү
билдирүүгө
билдирүүлөр
билдирүүлөрдү
билдирүүнүн
билдирүүсү
билдирүүчү
биле
билебиз
билек
билем
билерик
билет
билим
билимге
билимдер
билимдерге
билимдерди
билимдердин
билимдерин
билимди
билимдин
билимдүү
билими
билимин
билимине
билинбеи
билинген
билинер
билинери
билинет
билинип
билип
билишет
билиши
билишкен
билишпеи
билл
билли
билүү
билүүгө
билүүдө
билүүнү
билүүнүн
билүүсү
билүүчү
билүүчүлүк
бин
бинардык
бинген
бинту
био
биобиблиогр
биобиблиографическии
биографии
биография
биографиялык
биографиясы
биол
биолог
биология
биологияда
биологиялык
биологиясы
биосфера
биосфералык
биосферанын
биотехнология
биотит
биохим
биохимия
биохимиялык
бир
бирге
биргелешип
биргелешкен
биргеликте
бирде
бирдеи
бирден
бирдиги
бирдигин
бирдигинде
бирдигине
бирдигинин
бирдик
бирдикке
бирдикте
бирдиктер
бирдиктерди
бирдиктердин
бирдиктери
бирдиктеринин
бирдикти
бирдиктин
бирдиктүү
бирдин
биржа
биржалык
биржасы
бири
биригет
биригип
биригишет
биригиши
биригишинен
биригишкен
биригүү
биригүүсү
бириккен
бирикме
бирикмелер
бирикмелерге
бирикмелерди
бирикмелердин
бирикмелери
бирикмелерин
бирикмелеринде
бирикмелеринин
бирикменин
бирикмеси
бирикмесин
бирикмесинде
бирикмесине
бирикмесинин
бириктирген
бириктиргич
бириктирет
бириктирилген
бириктирилет
бириктирилип
бириктирип
бириктирүү
бириктирүүгө
бириктирүүчү
биримдиги
биримдигин
биримдигине
биримдигинин
биримдик
биримдикке
биримдикте
биримдикти
биримдиктин
бирин
биринде
бирине
биринен
биринин
биринчи
биринчиден
биринчилерден
биринчилигинде
биринчилик
биринчиси
биринчисинде
биркатар
биркенфельд
бирлери
бирлиги
бирлигинин
бирлик
бирма
бирнече
бирок
биротоло
биртоп
бируни
бирөө
бирөөгө
бирөөлөр
бирөөлөрү
бирөөнү
бирөөнүн
бирөөсү
бирөөсүн
бирөөсүнүн
бит
битбург
бити
биттерфельд
бич
биче
бичеси
бичурин
бишкек
бишкеке
бишкекке
бишкекте
бишкектеги
бишкектен
бишкектин
бия
бк
бкга
бкда
бкнын
бл
благовар
благовещен
блеи
блинников
блог
блогу
блок
блоктор
блокторго
блоктордун
блоктун
блоктуулугу
блэк
блюз
бниц
бництин
бо
боб
богдан
боген
богок
богон
бодо
бое
боек
божомол
божомолдонот
божомолдор
боз
бозо
бозомтук
бозомук
бои
боинг
бокмурун
бокс
боксит
бол
болбо
болбогон
болбогондо
болбогондуктан
болбогону
болбоду
болбои
болбоого
болбос
болбосо
болбостон
болбосун
болбошу
болгар
болгария
болгариянын
болгон
болгонго
болгондо
болгондои
болгондон
болгондор
болгондорго
болгондорду
болгондордун
болгондугу
болгондугун
болгондугуна
болгондуктан
болгону
болгонун
болгонуна
болгонунан
болгула
болгусу
болду
болдук
болдум
более
болжол
болжолдо
болжолдои
болжолдонот
болжолдоо
болжолдуу
болжолу
боливия
болмаи
болмок
болмокчу
болмуш
болмушту
болмуштун
боло
болобу
болобуз
болов
болом
болонья
болоор
болоору
болоорун
болор
болору
болорун
болосуң
болот
болотбек
болоттон
болотту
болоттун
болочок
болочоктогу
болсо
болсок
болсом
болсоң
болсоңор
болсун
болтурбоо
болуп
болуптур
болуу
болууга
болууда
болуудан
болууну
болуунун
болуусу
болуусун
болуусуна
болуучу
болучу
болуш
болушат
болушкан
болушса
болушту
болуштук
болушу
болушун
болушуна
болушунан
болушунда
болушунун
болушунча
болушуп
болчу
больцман
большая
больше
большевик
большевиктер
большевиктердин
большевиктик
большои
бомба
бомбеи
бонн
бонус
бонча
боо
бообек
боогачы
бооз
боом
боор
боорго
боордо
боордош
боордун
боорсок
боору
боорукер
боорун
бооруна
боорунда
боорундагы
боосу
боочу
бор
борб
борбиев
борбор
борборго
борбордо
борбордогу
борбордон
борбордук
борбордун
борборлор
борборлордун
борборлору
борборлорунда
борборлорунун
борборлошкон
борборлоштурулган
борбору
борборун
борборуна
борборунан
борборунда
борборундагы
борборунун
борбугулов
борду
борис
борисенко
борисович
борколдои
боромбаи
бороон
борпоң
борьбы
босния
босого
босоголуу
бостери
бостон
бот
ботан
ботаник
ботаника
ботаникалык
ботко
бото
ботобекова
ботои
ботом
ботсвана
боттор
бош
бошонуп
бошоп
бошоткон
бошотот
бошотулат
бошотулган
бошотулуп
бошотуп
бошотуу
бошотууга
боштондук
боштондукка
боштук
бою
боюн
боюна
боюнан
боюнда
боюндагы
боюнун
боюнча
боюу
бразилия
бразилияда
бразилиялык
бразилиянын
браи
бранденбург
браузер
браун
бреи
брекчия
бренд
бренди
брест
бригада
бригаданын
бригадасы
бригадасында
бригадасынын
бригадир
бригадири
бриллиант
бримкулов
бристоль
британ
британдык
британия
британияга
британияда
британиядагы
британиядан
британиялык
британиянын
бродвеи
брои
бром
бронх
бронхит
броун
брунеи
бруно
бруцелле
брэд
брюс
брюссель
брянск
бу
буг
буга
бугера
бугу
бугунун
будапешт
будда
буддизм
буддизмдин
буде
будет
будут
буз
бузат
бузбаи
бузган
бузгандыгы
буздяк
бузук
бузуку
бузукулук
бузулат
бузулбаи
бузулган
бузулганда
бузулса
бузулуп
бузулуу
бузулуудан
бузулуулар
бузулуусу
бузулушу
бузулушун
бузулушуна
бузулушунан
бузулушунун
бузуп
бузуу
бузууга
бузуулар
бузуучу
буи
бук
бука
буканын
букар
букара
букаралыгына
букарга
букардан
бул
була
булагы
булагын
булагына
булагынан
булагынын
булак
булакка
булактан
булактар
булактарга
булактарда
булактардан
булактарды
булактардын
булактары
булактарын
булактарына
булактарынан
булактарында
булактарынын
булактын
булалуу
булан
булар
буларга
буларда
булардан
буларды
булардын
буласы
булат
булбул
булгаары
булгаарыдан
булгаи
булганган
булгануу
булганышы
булгачы
булгоочу
булл
булут
булуттар
булуттардын
булуң
булуңу
булуңуна
булуңунда
булуңундагы
булуңунун
булчуң
булчуңга
булчуңдар
булчуңдардын
булчуңдары
булчуңдарын
булчуңдарынын
булчуңдун
булчуңдуу
булчуңу
бумын
бун
бур
бура
бураев
бурама
бурана
бурат
бурбаи
бург
бурган
бургенланд
бургулоо
бургулоочу
бурж
буржуазия
буржуазиялык
буржуазиянын
бурзян
буркан
бурканчылык
буркина
бурмаланган
бурмалап
бурса
бурул
бурулат
бурулган
бурулуп
бурулуш
бурулча
буруп
бурут
буруу
бурч
бурчка
бурчтары
бурчтук
бурчтуктун
бурчтун
бурчтуу
бурчу
бурчун
бурчуна
бурчунда
бурят
бус
бут
бута
бутага
бутагы
бутагына
бутагынын
бутак
бутактанган
бутактанып
бутактары
бутактарынын
бутактуу
бутан
бутанаев
бутка
буткул
буттары
буттарын
буттарынын
бутту
буттун
буттуу
буттуулар
буту
бутун
бутуна
бутунун
буу
бууга
буудаи
буудан
буулантып
буулануу
бууну
буунун
буура
буурул
буурулду
буурчак
буусу
буусунун
бухара
бухарага
бухарест
бухари
бухгалтер
бухгалтердик
бухгалтериялык
бучагы
буш
буэнос
буюм
буюмга
буюмдар
буюмдарга
буюмдарды
буюмдардын
буюмдары
буюмдарын
буюмдарына
буюмдарында
буюмдарынын
буюмду
буюмдун
буюму
буюрган
бы
быз
быи
был
была
былжыр
былжырлуу
были
было
бырыш
быт
бытие
бытиенин
быть
бычак
бычмачы
бычылган
бычып
бышат
бышев
бышкан
быштак
бышык
бышыктооч
бышыктыгы
бышып
бышыруу
бышырылат
бышырылган
бышырып
бьюкенен
бэи
бэк
бэкон
бээ
бээден
бээжин
бээжинге
бээжинде
бээжиндеги
бээжиндин
бээнин
бюджет
бюджети
бюджетке
бюджеттен
бюджетти
бюджеттик
бюджеттин
бюро
бюросу
бюросунун
бюст
бюулук
бү
бүбү
бүбүсара
бүгүн
бүгүнкү
бүгүп
бүз
бүи
бүктөлүү
бүктөлүүгө
бүктөлүүлөргө
бүлгүнгө
бүлө
бүлөгө
бүлөдө
бүлөдөгү
бүлөдөн
бүлөлүк
бүлөлүү
бүлөлөр
бүлөлөрдүн
бүлөнү
бүлөнүн
бүлөсү
бүлөсүн
бүлөсүндө
бүлөсүнүн
бүлөсүнө
бүлөсүнөн
бүлөө
бүргө
бүргөндү
бүркүт
бүркүттүн
бүртүкчөлүү
бүт
бүткүл
бүткөн
бүткөнгө
бүткөндө
бүткөндөи
бүткөндөн
бүткөрүлгөн
бүтпөгөн
бүтпөи
бүттү
бүтүм
бүтүмгө
бүтүмдөр
бүтүмү
бүтүн
бүтүндүгүн
бүтүндүк
бүтүндүккө
бүтүндүктү
бүтүндөи
бүтүп
бүтүрбөөчү
бүтүргөн
бүтүргөндөн
бүтүрүлбөгөн
бүтүрүп
бүтүрүү
бүтүрүүчүлөр
бүтүрүүчүлөрдүн
бүтүрүүчүлөрү
бүтүрүүчүсү
бүтүрөт
бүтүшү
бүтүү
бүтө
бүтөлүп
бүтөт
бүчүр
бөбөк
бөбөктөр
бөгөп
бөгөт
бөи
бөк
бөксө
бөкөи
бөкөнбаев
бөлгүч
бөлгүчү
бөлгөн
бөлмө
бөлмөгө
бөлмөдө
бөлмөлүү
бөлмөлөр
бөлмөнү
бөлмөнүн
бөлмөсү
бөлмөсүндө
бөлчөк
бөлүгү
бөлүгүн
бөлүгүндө
бөлүгүндөгү
бөлүгүнүн
бөлүгүнө
бөлүгүнөн
бөлүк
бөлүккө
бөлүктү
бөлүктүн
бөлүктүү
бөлүктө
бөлүктөн
бөлүктөр
бөлүктөргө
бөлүктөрдүн
бөлүктөрдөн
бөлүктөрү
бөлүктөрүн
бөлүктөрүндө
бөлүктөрүнүн
бөлүктөрүнө
бөлүктөрүнөн
бөлүкчө
бөлүкчөлөр
бөлүкчөлөргө
бөлүкчөлөрдү
бөлүкчөлөрдүн
бөлүкчөлөрдөн
бөлүкчөлөрү
бөлүкчөлөрүнүн
бөлүкчөнүн
бөлүкчөсү
бөлүм
бөлүмгө
бөлүмдү
бөлүмдүн
бөлүмдүү
бөлүмдө
бөлүмдөн
бөлүмдөр
бөлүмдөрдүн
бөлүмдөрү
бөлүмдөрүн
бөлүмдөрүндө
бөлүмдөрүнүн
бөлүмү
бөлүмүн
бөлүмүндө
бөлүмүндөгү
бөлүмүнүн
бөлүмүнө
бөлүмүнөн
бөлүнбөи
бөлүнбөс
бөлүнгөн
бөлүнүп
бөлүнүш
бөлүнүшү
бөлүнүшүн
бөлүнүшүнүн
бөлүнүшүнө
бөлүнүшөт
бөлүнүү
бөлүнүүнүн
бөлүнүүсү
бөлүнүүчү
бөлүнө
бөлүнөт
бөлүп
бөлүшкөн
бөлүштүргүч
бөлүштүргөндө
бөлүштүрүлгөн
бөлүштүрүлүшү
бөлүштүрүлөт
бөлүштүрүп
бөлүштүрүү
бөлүштүрүүгө
бөлүштүрүүдө
бөлүштүрүүнүн
бөлүштүрүүчү
бөлүшүп
бөлүшүү
бөлүшөт
бөлүү
бөлүүгө
бөлүүдө
бөлүүчү
бөлө
бөлөк
бөлөкбаи
бөлөт
бөрде
бөрк
бөрү
бөрүбаи
бөтөн
бөтөнчө
бөтөнчөлүгү
бөө
в
ва
вавилов
вавилон
вавилония
вагнер
вагон
вади
вазелин
вазир
ваи
вакуум
вакуумда
вакуумдук
вакцина
вал
валенсия
валентин
валентина
валенттик
валенттүү
валерии
вали
валиханов
валлэи
вальсы
вальтер
валюта
валюталык
валютанын
валютасы
валюты
вам
ван
ванадии
ванк
ванкувер
ванна
ваннасын
вань
вап
вариант
вариантта
варианттар
варианттарда
варианттардан
варианттардын
варианттары
варианттарын
варианттарында
варианттарынын
варианттын
варианты
вариантын
вариантына
вариантынан
вариантында
вариантындагы
вариантынын
вариациялык
вартбург
варшава
вас
василии
васильев
васильевич
васюган
ватикан
ватсон
вахии
вацлав
вашингтон
вашингтондо
вв
введение
вдун
ве
веб
вебер
вебсаи
вегетатив
вегетативдик
вегетация
ведомости
ведомстволук
веи
века
вексели
вексель
вектор
вектордук
вектору
велиди
великии
великои
велосипед
вен
вена
венага
венада
веналардын
веналык
венгер
венгр
венгрия
венгрияга
венгрияда
венгриялык
венгриянын
венедикт
венера
венесуэла
венесуэланын
венеция
вера
верди
вернер
верныи
версаль
версия
версиялары
версиясы
версиясын
версиясында
вертикалдык
вертикаль
вертоле
верховного
вест
вестервальд
вестерн
вестник
вестфалия
вет
ветераны
ветеринар
ветеринардык
ветеринария
ветеринариялык
вечернии
взаимодеи
взвод
ви
вид
видео
византия
византиялык
византиянын
визуалдык
вики
викимедиа
википедии
википедия
википедиянын
виктор
виктория
вилаи
вилладж
вилли
вильгельм
вильнюс
вильфрид
вильхельм
виндсхаи
винер
виноградов
винсент
виолончель
виртуалдык
вирус
вируска
вирусология
вирустар
вирустардын
вирусту
вирустук
вирустун
вирустуу
вирусу
вис
виска
висла
висмут
витамин
витаминге
витаминдер
витаминдерге
витаминдерди
витаминдердин
витаминдери
витаминдин
витаминдүү
витамини
витаминин
витамининин
витгенштеи
витебск
витлих
виттенберг
вице
вич
вишневскии
вконтакте
вкп
владивосток
владимир
владимирович
владислав
власов
власти
влксм
вместо
во
водород
военно
военное
вож
вои
вокал
вокалдык
вокалист
вокзал
вол
волга
волгоград
волеи
волков
вологда
вольта
вольтер
вольф
вольфганг
вольфрам
вон
вооружение
вопросу
вопросы
вормс
воронеж
ворошилов
восток
востока
востоковедение
востоковедения
восточная
восточного
восточнои
восточныи
вп
впв
впвап
врач
врачка
врачтар
врачтык
врачтын
врачы
времен
времени
время
все
всегда
всего
всем
всероссии
всех
вт
вторая
второи
ву
вуд
вудбери
вузов
вульканаи
вы
вып
выпуск
вычегда
вь
вьетнам
вьетнамдын
вэи
вэст
вюммдагы
вюртемберг
вюрцбург
вятка
вячеслав
г
га
гаага
габбро
гаваи
гавана
гавел
гага
гагарин
газ
газга
газдан
газдар
газдарда
газдарды
газдардын
газдуу
газды
газдын
газета
газетасы
газетасында
газетасынын
гази
газы
газын
гаи
гаити
гак
гал
галактика
галактикалар
галактикалык
галактиканын
галдан
галенит
галерея
галереясы
галилеи
галогендер
гамбар
гамбарга
гамбардын
гамбарлар
гамбарларга
гамбарларды
гамбарлардын
гамбары
гамбарыбыз
гамбарыбыздын
гамбия
гамбург
гамлет
гамма
ган
гана
ганг
ганга
ганда
гандан
ганди
ганновер
ганы
ганьсу
гапаров
гаплоиддик
гараев
гарат
гарвард
гарган
гармоникалык
гармония
гармониялуу
гармониялык
гарри
гаруу
гарц
гарылат
гарылган
гарылды
гарылып
гарым
гарымдуу
гарып
гастрит
гастролдо
гасы
гаусс
гафурии
гач
гашат
гашкан
гашкандыктан
гашса
гаштырат
гаштырган
гаштыруу
гаштырууга
гаштырылат
гаштырылган
гаштырылып
гаштырып
гашуу
гашуун
гашуусу
гашуусун
гашуусуна
гашып
гашышы
гвардия
гвардиялык
гвардиянын
гватемала
гвинея
гвинеянын
гг
гга
гдан
где
гдр
ге
геге
гегелдин
гегель
гезит
гезити
гезитин
гезитинде
гезитине
гезитинин
гезиттер
гезиттерге
гезиттерде
гезиттери
гезиттеринде
гезитти
гезиттин
геи
гектар
гектарынан
гелии
гелүү
гематит
гемоглобин
гемоглобиндин
геморрагиялык
ген
генде
гендер
гендердик
гендердин
гендин
генеалогиялык
генерал
генералдык
генералы
генератор
генератору
генетика
генетикалык
гени
гении
генин
геннадии
генри
генрих
гент
генуя
гео
геогр
географ
географических
география
географиялык
географиянын
географиясы
географтар
географы
геодезия
геодезиялык
геоинформативдик
геол
геолог
геологдор
геология
геологиялык
геологу
геометрия
геометрияда
геометриялык
геометриянын
геометриясы
геоморфологиялык
георг
георгии
геосинклиналдык
геосинклиналь
геофизика
геофизикалык
геохимия
геохимиялык
гепатит
гепатити
гер
герат
герб
герберт
герби
герд
герман
германдык
германии
германия
германияга
германияда
германиядагы
германиядан
германиялык
германияны
германиянын
герои
герхард
герц
герцеговина
герцен
герцин
герцог
герцогство
геси
гесин
гесине
гессен
гетерогендик
гетероциклдүү
ги
гиббс
гибралтар
гибрид
гибриддештирүү
гибсон
гигант
гигиена
гигиеналык
гигиенаны
гигиенасы
гидравликалык
гидро
гидрогеологиялык
гидрографикалык
гидродинамика
гидродинамикалык
гидрокарбонат
гидроксил
гидролиз
гидрология
гидрологиялык
гидротерм
гидротехникалык
гизбеи
гизген
гизди
гизе
гизет
гизип
гизиши
гизүү
гизүүчү
гилберт
гилиги
гилик
гиликке
гиликсиз
гиликтер
гиликтерге
гиликтерди
гиликтери
гиликтүү
гильдиясынын
гималаи
гимн
гимназия
гимнастика
гимнастикалык
гимни
гинекология
гинекологиялык
гинелеи
гинелеп
гипербола
гипертония
гипотеза
гипофиз
гипс
гиссар
гиссен
гитара
гитарист
гитлер
гифхорн
гл
глав
глава
глеи
глинка
глицерин
глобалдуу
глобалдык
глобус
глобустун
глюкоза
гляциалдык
гнеи
гносеологиялык
го
гоббс
гоголдун
гоголь
год
года
годовои
году
годунов
годы
гозо
гои
гол
голланд
голландия
голландиялык
голливуд
гольштеи
гомол
гон
гонго
гондо
гондои
гондон
гонконг
гону
гонуп
гор
горбачев
горизонт
горизонталдуу
горизонталдык
горизонталь
гормон
гормоналдык
гормондор
гормондордун
гормону
горно
горного
горном
горных
город
города
городов
городского
горы
горькии
гос
государства
государственного
государственныи
государство
гота
готика
гр
грабфельд
гравелит
гравиметриялык
гравитация
гравитациялык
гравюра
градус
градуска
гражд
граждандардын
граждандык
граи
грамм
грамматика
грамматикалык
грамматикасы
грамота
грамоталар
грамоталары
грамотасы
грамотасына
гран
гранада
гранат
гранд
гранди
гранит
грант
гранулометриялык
граф
графасына
график
графика
графикада
графикалык
графикасы
графикасынын
графиктик
графит
графтон
грвл
греи
грек
грекия
грекияда
грекиянын
гректер
гректердин
грекче
гренландия
греция
грецияда
грециянын
григориан
григории
григорьевич
грим
грин
гринвич
грипп
грозныи
грос
гроув
грузин
грузия
грузияда
грузиянын
группа
группадагы
группасы
группы
грэи
грэмми
грязнова
гу
губасы
губернатор
губернатору
губернаторунун
губерниясы
губерниясынын
гудзон
гуи
гул
гула
гулам
гульсары
гумандуу
гуманисттик
гуманитардык
гуманитарные
гумбольдт
гумиле
гун
гур
гурлар
гурлардын
гуссерль
густав
гут
гуч
гфр
гц
гы
гыга
гыз
гызстан
гыи
гылуу
гыр
гэмпшир
гэс
гэси
гэсинин
гэстери
гюи
гюнтер
гюнцбург
гүзүп
гүзүү
гүл
гүлаи
гүлгө
гүлдү
гүлдүн
гүлдүү
гүлдүүлөр
гүлдөгөн
гүлдөи
гүлдөп
гүлдөр
гүлдөрдүн
гүлдөрү
гүлдөө
гүлмира
гүлнара
гүлстан
гүлчынар
гүлчө
гүлү
гүлүн
гүлүнүн
гүнтер
гүстроу
гө
гөи
гөкалп
гөн
гөндө
гөнү
гөрлиц
гөттинген
д
да
даам
даамдуу
даамы
даамын
даана
даанышман
даанышмандык
даарат
даба
дабан
даван
давид
давлекан
давлесов
даган
дагстан
дагы
даи
дак
даки
дакматова
дал
далаи
далана
даланат
даланган
далангандыгы
даланса
далануу
даланууга
даланууда
далануудан
даланууну
далануунун
далануучу
даланыла
даланылат
даланылбаи
даланылган
даланылууда
даланылуучу
даланылып
даланылышы
даланып
даланышат
даланышкан
даланышы
далап
далат
далган
дале
далил
далилдеген
далилдеи
далилденген
далилдеп
далилдер
далилдерди
далилдүү
далилдөө
далилдөөгө
далили
даллас
далоо
далуу
далы
далып
дальнего
дам
дама
дан
дана
данакер
данга
данда
данды
дандын
данек
дания
данияда
даниялык
даниянын
данияр
данного
данные
данныи
данным
данных
даны
данын
данына
данында
данынын
дао
дап
дар
дара
дарагы
дарагынын
дараж
даража
даражага
даражада
даражадагы
даражалар
даражалары
даражаларын
даражалуу
даражаны
даражасы
даражасын
даражасына
дарак
даракка
дарактар
дарактарга
дарактарды
дарактардын
дарактары
дарактуу
дарактын
дарата
дарбаза
дарбазага
дарбазасы
дарбазасына
дарбазачы
дарбек
дарбеков
дарбыз
дарвин
дарга
дарды
дардын
дареги
дарегине
дарек
даректүү
дарии
даркан
даркен
даркүл
дармек
дармектер
дармектерди
дармектердин
дармштадт
дароо
дарс
дарстар
дарт
дартка
дарттын
дархан
дары
дарыгер
дарыгердин
дарыгери
дарыгерлер
дарыгерлик
дарыи
дарыкана
дарылабаса
дарылаи
дарыланат
дарылануу
дарыланууга
дарыланып
дарылап
дарылар
дарыларга
дарыларды
дарылардын
дарылары
дарылоо
дарылоого
дарылоодо
дарылоодон
дарылоону
дарылоонун
дарылоочу
дарылык
дарым
дарыны
дарынын
дарыя
дарыяга
дарыядан
дарыялар
дарыялардын
дарыялары
дарыяларыворонов
дарыяларын
дарыяларынын
дарыянын
дарыясы
дарыясын
дарыясына
дарыясынан
дарыясында
дарыясындагы
дарыясынын
дарья
дастан
дастанда
дастандар
дастандары
дастандын
дастанчы
дастаны
дастанын
дастанында
дастанынын
дасторкон
дасы
дасыз
дасыккан
дасын
дасына
дат
дата
датасы
датка
даткага
датканын
даты
дахо
даяр
даярдаган
даярдаи
даярдалат
даярдалган
даярдалып
даярдануу
даярданып
даярдап
даярдоо
даярдоого
даярдоодо
даярдоону
даярдоонун
даярдоочу
даярдыгы
даярдык
даң
даңазалаган
даңазалаи
даңазалап
даңазалоо
даңазалуу
даңк
даңкка
даңктуу
даңкы
два
две
движения
двина
двинск
двух
де
дебеи
дебити
дебют
дебюттук
дебюту
девон
девондун
деггер
дегеле
деген
дегенге
дегенде
дегендеи
дегенден
дегендер
дегенди
дегендик
дегендин
дегени
дегенибиз
деги
дегин
деди
дедик
дезинфекция
дезинфекциялоо
дезинфекциялоочу
деи
дек
декабрга
декабрда
декабрдан
декабры
декабрына
декабрынан
декабрында
декабрындагы
декабрь
декабрьда
декабря
декадасында
декан
декандын
деканы
декарт
декарттын
декларация
декларациясы
декларациясын
декоративдүү
декрет
декрети
дел
делген
деле
делегат
делегаты
делегациясы
деления
делет
дели
делип
дело
дель
дельта
дельтаны
дем
демеи
демек
деми
демилге
демилгелер
демилгелүү
демилгеси
демилгесин
демилгечи
демилгечиси
деммин
демография
демографиялык
демографиясы
демокр
демократ
демократия
демократияга
демократиялык
демократияны
демократиянын
демократтар
демократтардын
демократтык
демокрит
демонстранттар
демөөрчү
демөөрчүлүк
демөөрчүсү
ден
денгээлде
дене
денеге
денеде
денедеги
денеден
денени
дененин
денеси
денесин
денесинде
денесине
денесинен
денесинин
дени
дениз
денис
денудациялык
день
деп
департаменти
департаментинин
депрессия
дептери
депутат
депутатов
депутаттан
депутаттар
депутаттардын
депутаттары
депутаттарын
депутаттарынын
депутаттыгына
депутаттык
депутаттыкка
депутаты
дер
деректири
державалардын
десант
десе
десек
десем
дет
детеи
детектив
детерминизм
дети
детмольд
детрои
дефис
деформация
дечү
дешет
дешип
дешке
дешкен
дешсе
деште
дешти
деятельности
деятельность
деңг
деңгели
деңгээл
деңгээлге
деңгээлде
деңгээлдеги
деңгээлден
деңгээлдери
деңгээли
деңгээлин
деңгээлинде
деңгээлиндеги
деңгээлине
деңгээлинен
деңгээлинин
деңиз
деңизге
деңизде
деңиздеги
деңизден
деңиздер
деңиздерде
деңиздердин
деңиздери
деңиздеринин
деңизди
деңиздик
деңиздин
деңизи
деңизинде
деңизиндеги
деңизине
деңизинен
деңизинин
дж
джаз
джамиля
джапанов
джаспер
джеи
джек
джексон
джефферсон
джинсы
джон
джонс
джонсон
джордж
джуманазарова
джэфферсон
дзержинскии
дзюдо
ди
диабаз
диабет
диабети
диагноз
диагноздоо
диагнозу
диагнозун
диагностика
диагностикалык
диалект
диалектика
диалектикалык
диалектилик
диалектиси
диалектисинде
диалектологиялык
диалог
диаметри
диана
диапазондогу
диапазону
диапазонунда
диас
диаспорасы
диван
дивану
дивизия
дивизиянын
дивизиясы
дивизиясынын
дидактикалык
дидро
диета
дижеи
дизаи
дизель
дизентерия
дик
диктатор
диктатура
диктатурасы
диктор
дил
дилбаян
дили
дин
дина
динамика
динамикалуу
динамикалык
динамикасы
динамикасынын
динамо
динара
династия
династиянын
династиясы
династиясын
династиясына
династиясынан
династиясынын
динге
динде
динден
диндер
диндердин
динди
диндик
диндин
дини
динии
динин
дининде
дининдеги
динине
дининин
динлин
динлиндер
диоген
диорит
диплоиддик
диплом
дипломат
дипломатия
дипломатиялык
дипломаттык
дипломдук
диплому
диполдук
дипхольц
дирак
дирген
директор
директордун
директорлор
директору
директорунун
дириже
дирижер
дирилдек
дирип
диск
дискографиясы
дискреттүү
дискриминация
дискриминацияга
дискриминациянын
дисктери
дисктин
диснеи
дисперсиялык
дисперстик
дисплеи
дисс
диссертация
диссертациялар
диссертацияларды
диссертациялык
диссертациясын
диссертациясынын
диссоциация
дисциплина
дисциплиналар
дитер
дитмар
дитмаршен
дифракция
дифракциялык
дифракциясы
дифференциал
дифференциалдык
диффузия
диффузиялык
диэлектрдик
диэлектрик
длится
длужневская
для
дм
дмитриев
дмитриевич
дмитрии
дмитровская
днеи
днепр
днепропетровск
днк
днкнын
дня
до
доберан
добул
добулбас
добуш
добушка
добуштан
добуштарды
добуштардын
добуштун
добушу
добушун
догдур
дого
догосу
догу
догудаи
дозасы
дои
док
докл
доклад
докладов
доклады
доктор
докторантурасын
доктордук
докторлору
докторлук
докторов
доктору
доктрина
доктринасы
доктур
документ
документалдуу
документалдык
документи
документке
документтер
документтерге
документтерде
документтерди
документтердин
документтери
документтерин
документтеринде
документти
документтин
долбоор
долбоорго
долбоорду
долбоордун
долбоорлоо
долбоорлор
долбоорлорго
долбоорлорду
долбоорлордун
долбоорлору
долбоорлорун
долбоорлорунун
долбоору
долбоорун
долбооруна
долбоорунун
должен
долине
доллар
долларга
доллардан
долларды
долларлык
доллары
долларын
долларына
доломит
долон
долоно
дольше
дом
домен
доминика
домна
дон
дональд
донау
донецк
доннерсберг
донор
дону
доо
доого
доодо
доонун
доор
доорго
доордо
доордогу
доордон
доорду
доордун
доорлор
доорлордо
доорлордогу
доорлордун
доору
доорун
дооруна
доорунан
доорунда
доорундагы
доорунун
доочу
доп
дор
дордои
дорович
дорога
дос
достоевскии
достор
достору
досторунун
достугу
достук
достукту
досу
досум
досунун
доцент
доценти
доцентом
доңуз
др
драи
драма
драмалар
драмалары
драмалык
драманын
драмасы
драмасында
драматург
драматургдар
драматургия
драматургиясы
драматургу
древнего
древнеи
древнетюркские
древние
древних
древности
дрезден
дреи
другие
других
дружба
ду
дуба
дубаи
дубал
дубалга
дубалдар
дубалдары
дубалдарын
дубалдын
дубалы
дубалын
дубалына
дубалынын
дубана
дубьюк
дуглас
дудук
дуи
дук
дулла
дулу
дум
думана
дун
дунаи
дунган
дунгандар
дуров
дуруп
дурус
дуу
дуулат
дуушар
дуушарланган
дуушарланып
дух
духунда
душанбе
душман
душманга
душмандан
душмандар
душмандарга
душмандардан
душмандарды
душмандардын
душмандары
душманды
душмандык
душмандын
душманы
дуэт
дуң
дуңган
дуңдар
дуңдарда
дуңдун
дуңдуу
дуңу
дуңуна
дуңунда
дуңунун
ды
дыгер
дыи
дык
дыкат
дыкы
дылда
дын
дыр
дың
дэ
дэвид
дэвис
дэи
дэн
дэниел
дээр
дээрлик
дюи
дюна
дюртюлин
дюссельдорф
дү
дүи
дүкөн
дүкөндөр
дүкөнү
дүлөи
дүн
дүнүи
дүр
дүрбү
дүрбөлөң
дүркхаи
дүркүрөп
дүң
дүүлүгүү
дүүлүккөн
дүүлүктүргүч
дүүлүктүрүүчү
дүүлүктүрөт
дө
дөбө
дөбөгө
дөбөлүү
дөбөлөр
дөбөт
дөгү
дөи
дөн
дөң
дөңгө
дөңгөлөк
дөңгөлөктүү
дөңсөө
дөңсөөлүү
дөңсөөлөр
дөңсөөсү
дөө
дөөлөс
дөөлөт
дөөнүн
дөөтү
е
еб
ева
евгении
евклид
евразии
евразия
евразияда
евразиялык
евразиянын
евреи
евро
еврокөрүнүү
европ
европа
европага
европада
европадагы
европадан
европалык
европалыктар
европалыктардын
европаны
европанын
европеи
европы
еган
египет
египетке
египетте
египеттик
египеттин
его
ее
еи
екатерина
екатеринбург
елга
елена
елизавета
ельцин
емен
ен
енисее
енисеи
енс
ер
ербах
ереван
ерихов
ермекеев
ерофеев
ерохин
ес
есет
если
есть
ет
ешелүү
еще
ж
жа
жаа
жааган
жаагы
жаагын
жааи
жаак
жаактын
жаан
жаанчыл
жааны
жаанын
жаап
жаат
жаатта
жааттын
жаатында
жаатындагы
жааңгер
жаба
жабат
жабдуу
жабдуулар
жабдууларды
жабдуулардын
жабдуулары
жабдууларын
жабдыгы
жабдык
жабдыктар
жабдыктарды
жабдыктары
жабдыктарын
жабдыктарына
жабдыктарынын
жабдылат
жабдылган
жабуу
жабууга
жабуусу
жабык
жабылат
жабылган
жабылып
жабыр
жабыркаган
жабыркаганда
жабыркаи
жабыркап
жабыркатат
жабыркатуучу
жабыркашы
жабырлануучу
жабырлануучунун
жабышкан
жабышып
жага
жагалмаи
жагдаи
жагы
жагымдуу
жагымсыз
жагын
жагына
жагынан
жагында
жагындагы
жагынын
жагып
жада
жадид
жадыбал
жаз
жаза
жазага
жазалаи
жазалоо
жазалоочу
жазам
жазаны
жазанын
жазасы
жазасын
жазасына
жазат
жазбаи
жазган
жазгандар
жазганы
жазгы
жазгыч
жазда
жаздагы
жазды
жаздык
жаздын
жаздырган
жаздыруу
жаздыруучу
жаздырылган
жаздырып
жазма
жазмалар
жазмаларды
жазмалары
жазмаларын
жазмаларында
жазмаларынын
жазманын
жазмасы
жазмасын
жазмасында
жазмасынын
жазса
жазуу
жазууга
жазууда
жазуудан
жазуулар
жазууларда
жазууларды
жазуулардын
жазуулары
жазууларын
жазууларында
жазууну
жазуунун
жазуусу
жазуусун
жазуусунда
жазуусунун
жазуучу
жазуучулар
жазуучулардын
жазуучулары
жазуучуларынын
жазуучулук
жазуучунун
жазуучусу
жазы
жазык
жазыксыз
жазыла
жазылат
жазылбаи
жазылган
жазылуу
жазылыгы
жазылып
жазылыш
жазылышы
жазылышына
жазында
жазып
жазышат
жазышкан
жаи
жак
жака
жакаларында
жакалуу
жакарта
жакасы
жакасында
жакасындагы
жакиев
жакиевдин
жакка
жаккан
жакпаи
жакта
жактаган
жактагы
жактаи
жактан
жактап
жактар
жактарга
жактарды
жактардын
жактары
жактарын
жактарына
жактарынын
жактоо
жактоочулар
жактоочулары
жактоочусу
жактуу
жакты
жактын
жактырбаи
жактырган
жактырылган
жактырып
жакут
жакшы
жакшылап
жакшылык
жакшылыкка
жакшылыков
жакшылыктарынын
жакшылыкты
жакшылыктын
жакшынакаи
жакшыраак
жакшырат
жакшыртат
жакшыртуу
жакшыртууга
жакшыртуучу
жакшыртылган
жакшыртып
жакшырып
жакшысы
жакын
жакында
жакындаган
жакындаганда
жакындаи
жакындан
жакындап
жакындары
жакындатылган
жакындатып
жакындашат
жакындашып
жакындыгы
жакындык
жакынкы
жакыны
жакынын
жакыныраак
жакып
жакыпбек
жакыпбеков
жакыпка
жакыпты
жакыптын
жакыр
жакырчылык
жакырчылыкты
жакырчылыктын
жал
жалаа
жалаи
жалал
жалалабад
жалалабат
жалама
жалар
жаларга
жаларды
жалары
жаларын
жалатылган
жалаң
жалбырагы
жалбырагын
жалбырагынан
жалбырагынын
жалбырак
жалбырактары
жалбырактарынын
жалбырактуу
жалбырактын
жалган
жалганга
жалганса
жалганчы
жалгыз
жалгыздан
жалгыздап
жалданма
жалданып
жалдоо
жалил
жалкы
жалпак
жалпы
жалпыга
жалпыланган
жалпылап
жалпылоо
жалпылыгы
жалпылык
жалпылыктар
жалпылыкты
жалпысынан
жалтырак
жалуу
жалуулугу
жалуулугун
жалчалары
жалын
жалындуу
жамаат
жамааттар
жамааттары
жамаатташ
жамааттык
жамааттын
жамааты
жамаатын
жамаатынын
жамал
жаман
жамандык
жамандыкка
жамандыктан
жамандыкты
жамандыктын
жамбаш
жамбы
жамбыл
жамгыр
жамгырдан
жамгырчинов
жамгырчы
жами
жамии
жамынып
жан
жана
жанар
жанартоо
жанаша
жанга
жанган
жангарач
жанда
жандаи
жандан
жандандыруу
жанданып
жандап
жандар
жандоочусу
жандуу
жанды
жандык
жандыктар
жандыктардын
жандын
жанеи
жанна
жанр
жанрда
жанрдагы
жанрдык
жанрдын
жанрлар
жанрлардын
жанрлары
жанры
жанрын
жанрына
жанрында
жанрындагы
жанрынын
жансыз
жантаи
жантык
жантөшев
жантөшевдин
жанузаков
жаны
жаныбар
жаныбарга
жаныбарда
жаныбардан
жаныбардын
жаныбарлар
жаныбарларга
жаныбарларда
жаныбарлардан
жаныбарларды
жаныбарлардын
жаныбарлары
жаныбарларынын
жаныбек
жаныбекова
жаныма
жанын
жанына
жанынан
жанында
жанындагы
жанып
жаныш
жап
жапа
жападан
жапаи
жапалак
жапар
жапаров
жапкан
жапкыч
жапон
жапония
жапонияда
жапониянын
жапыз
жапыздаи
жапырт
жапырык
жар
жара
жараат
жарабаи
жарага
жарагы
жарагын
жарадар
жараи
жарак
жарака
жаракалар
жаракалардын
жаракасы
жаракат
жараксыз
жарактар
жарактарды
жарактуу
жарала
жараланган
жаралат
жаралган
жаралды
жаралуу
жаралып
жаралыш
жаралышы
жаралышын
жаралышына
жарамдуу
жарамдуулугу
жарамдуулугун
жарамсыз
жаран
жарандар
жарандарга
жарандарды
жарандардын
жарандары
жарандарына
жарандарынын
жарандыгы
жарандыгын
жарандык
жарандын
жараны
жарасы
жарата
жаратат
жараткан
жаратты
жараттык
жаратуу
жаратууга
жаратууда
жаратуучу
жаратуучусу
жаратылган
жаратылыш
жаратылышка
жаратылышта
жаратылыштагы
жаратылышты
жаратылыштын
жаратылышы
жаратылышын
жаратылышына
жаратып
жаратышкан
жараша
жарашат
жарашып
жараяны
жаргак
жарган
жарганат
жаргылчак
жардам
жардамга
жардамдашуу
жардамды
жардамчы
жардамчылары
жардамчысы
жардамы
жардамын
жардамында
жардуу
жарды
жардыруу
жарк
жаркент
жаркын
жаркыраган
жаркырак
жаркырап
жарлыгы
жарма
жарнама
жарнамалык
жарнаманын
жарты
жартылаи
жарчысы
жары
жарыгы
жарык
жарыкка
жарыкты
жарыктын
жарылат
жарылган
жарылгыч
жарылуу
жарылуучу
жарылып
жарым
жарымы
жарымын
жарымына
жарымынан
жарымында
жарымындагы
жарып
жарыш
жарышуу
жарыя
жарыялаган
жарыялады
жарыялаи
жарыялана
жарыяланат
жарыяланган
жарыялангандан
жарыяланды
жарыяланып
жарыяланышы
жарыялап
жарыялашкан
жарыялоо
жарыялоого
жасаган
жасаганда
жасагандыгы
жасады
жасаи
жасала
жасалат
жасалга
жасалгаланган
жасалгалар
жасалгалары
жасалгаларын
жасалгалоо
жасалгалоочу
жасалгалык
жасалган
жасалганы
жасалгасы
жасалма
жасалса
жасалуу
жасалуучу
жасалып
жасалышы
жасап
жасаса
жасашат
жасашкан
жасоо
жасоого
жасоодо
жасоодон
жасоону
жасоонун
жасоочу
жасы
жасыз
жасын
жасында
жат
жата
жатабыз
жатак
жатам
жатат
жатка
жаткан
жатканда
жаткандаи
жаткандар
жаткандардын
жаткандыгы
жаткандыгын
жаткандыктан
жатканы
жатканын
жатканына
жаткыруу
жаткырып
жатпаган
жатпаи
жатса
жаттап
жатты
жатуу
жатуучу
жатын
жатынга
жатындан
жатындын
жатып
жатыш
жатышат
жатышкан
жатышты
жатышы
жахан
жацы
жаш
жашабаи
жашаган
жашагандар
жашагандардын
жашаи
жашап
жашар
жашашат
жашашкан
жашка
жашоо
жашоого
жашоодо
жашоодогу
жашоом
жашоону
жашоонун
жашоосу
жашоосун
жашоосуна
жашоосунан
жашоосунда
жашоосундагы
жашоосунун
жашоочу
жашоочулар
жашоочулардын
жашоочулары
жашта
жаштагы
жаштагылар
жаштаи
жаштан
жаштар
жаштарга
жаштарды
жаштардын
жаштары
жаштарынын
жаштыгы
жаштык
жаштын
жашы
жашыл
жашылча
жашылчалар
жашын
жашына
жашынан
жашында
жашындагы
жашынын
жашынып
жашырган
жашыруу
жашыруун
жашырын
жашырып
жаюу
жая
жаян
жаңгак
жаңгакча
жаңжал
жаңы
жаңыбаи
жаңыдан
жаңыл
жаңыланган
жаңылануу
жаңыланып
жаңылоо
жаңылык
жаңылыктар
жаңылыктарды
жаңылыктары
жаңылып
жаңылыш
жаңылыштык
жаңырат
жаңырган
жаңыртуу
жаңыртып
жаңырыгы
жаңырык
жаңырып
жаңыча
жаңычыл
жаӊы
жге
же
жебе
жебеи
жебеси
жеген
жегенге
жегенде
жегенден
жегиле
жегич
жегичтүү
жедигер
жез
жезден
жезди
жездин
жеи
жек
жеке
жекеге
жекелик
жекеме
жекече
жеки
жексон
жекшемби
жел
желбирөөч
желдетип
желдеткич
желдетүү
желе
желеги
желегин
желек
желектер
желекчелери
желеси
желет
желим
желиндүү
желке
желмогуз
жем
жемиш
жемиши
жемиштер
жемиштерди
жемиштери
жемиштүү
женева
женил
женнифер
женщин
женщина
женщины
жеп
жер
жерг
жерге
жергеси
жергесинде
жергесиндеги
жергесине
жергесинин
жергетал
жергиликтүү
жерде
жердеген
жердеги
жерден
жердеп
жерди
жердиги
жердигин
жердик
жердикке
жердин
жереми
жери
жерим
жерин
жерина
жеринде
жериндеги
жерине
жеринен
жеринин
жерлер
жерлерге
жерлерде
жерлердеги
жерлерден
жерлерди
жерлердин
жерлери
жерлерин
жерлеринде
жерлерине
жерлеринен
жерлеринин
жерри
жерси
жесе
жесир
жет
жете
жетектеген
жетектеи
жетектеп
жетектөө
жетектөөчү
жетекчи
жетекчилер
жетекчилери
жетекчилерин
жетекчилеринин
жетекчилиги
жетекчилигинде
жетекчилигине
жетекчилигинин
жетекчилик
жетекчиликке
жетекчинин
жетекчиси
жетекчисинин
жетелеи
жетелек
жетелеп
жетет
жети
жетиген
жетилген
жетиле
жетилет
жетилип
жетилүү
жетим
жетимиш
жетинин
жетинчи
жетип
жетисуу
жетише
жетишерлик
жетишет
жетиши
жетишилген
жетишилет
жетишип
жетишишкен
жетишкен
жетишкендиги
жетишкендик
жетишкендиктер
жетишкендиктерди
жетишкендиктери
жетишкендиктерин
жетишкендиктеринин
жетишпеген
жетишпегенде
жетишпеи
жетишсиз
жетишсиздиги
жетишсиздигине
жетишсиздигинен
жетишсиздик
жетишти
жетиштүү
жетишээрлик
жетишүү
жетишүүгө
жеткен
жеткенде
жеткенден
жеткилең
жеткилик
жеткиликтүү
жеткирбеи
жеткирген
жеткире
жеткирет
жеткирилген
жеткирилет
жеткирилип
жеткирип
жеткирүү
жеткирүүгө
жеткирүүдө
жеткирүүчү
жеткис
жетпеген
жетпеи
жетсе
жетти
жетүү
жетүүгө
жетүүнүн
жешет
жеңген
жеңгендиги
жеңе
жеңет
жеңи
жеңижок
жеңил
жеңилген
жеңилгенден
жеңилдетет
жеңилдетилген
жеңилдетүү
жеңилдетүүчү
жеңилдик
жеңилдиктер
жеңилет
жеңилип
жеңилиши
жеңилүү
жеңилүүгө
жеңип
жеңиш
жеңишбек
жеңиши
жеңишин
жеңишинин
жеңишке
жеңишти
жеңиштин
жеңиштүү
жеңүү
жеңүүгө
жеңүүчү
жеңүүчүлөр
жеңүүчүлөрү
жеңүүчүсү
жж
жи
жибек
жибектен
жиберген
жиберди
жибердик
жиберет
жиберилген
жиберилет
жиберилип
жиберип
жиберишет
жиберишкен
жиберүү
жиберүүгө
жиби
живописи
живописинин
живописте
живопистик
живопистин
живописчи
живописчиси
живопись
животных
жигердүү
жигит
жигити
жигитке
жигитов
жигиттер
жигиттердин
жигиттери
жигитти
жигиттин
жиев
жизни
жизнь
жии
жиксиз
жилик
жиликтин
жим
жимми
жин
жинди
жип
жипке
жиптен
жиптер
жиптери
жипти
жиптин
жиреп
жирмунскии
житим
жихад
жк
жкнын
жо
жоан
жобо
жобого
жоболор
жоболорго
жоболорду
жоболору
жоболорун
жоболоруна
жобону
жобосу
жог
жоголгон
жоголот
жоголуп
жоголуу
жоголушу
жогорку
жогортон
жогору
жогоруда
жогорудагы
жогорудагыдаи
жогорулаган
жогорулаи
жогорулап
жогорулатат
жогорулатуу
жогорулатууга
жогорулатууда
жогорулатуучу
жогорулатып
жогорулашы
жогорулашына
жоготкон
жогото
жоготот
жоготпои
жоготуп
жоготуу
жоготууга
жож
жождор
жождордун
жождун
жозеф
жои
жок
жокко
жокмун
жокпу
жокто
жоктон
жоктугу
жоктугун
жоктугуна
жоктугунан
жол
жолборс
жолборстун
жолго
жолдо
жолдогон
жолдогу
жолдомо
жолдомосу
жолдон
жолдоп
жолдор
жолдорду
жолдордун
жолдору
жолдорун
жолдорунда
жолдорунун
жолдош
жолдоштору
жолдоштук
жолдошу
жолду
жолдун
жолку
жолои
жолтоо
жолу
жолугат
жолугуп
жолугушкан
жолугушу
жолугушуп
жолугушуу
жолугушуулар
жолугушууларды
жолугушуусу
жолуккан
жолукканы
жолуктурууга
жолун
жолуна
жолунан
жолунда
жолундагы
жолунуку
жолунун
жолчоро
жомогу
жомок
жомоктор
жомоктору
жомокторун
жомоктук
жомоктун
жомокчу
жон
жонатан
жонни
жонс
жонсон
жону
жонунан
жонунда
жонундо
жоо
жообу
жообун
жоогазын
жоого
жоодон
жоокер
жоокердик
жоокердин
жоокери
жоокерлер
жоокерлерге
жоокерлерди
жоокерлердин
жоокерлери
жоокерлеринин
жоокерчилик
жоолук
жоолукту
жоомарт
жоон
жоондугу
жоону
жоонун
жооп
жоопкер
жоопкерчилиги
жоопкерчилигин
жоопкерчилигине
жоопкерчилик
жоопкерчиликке
жоопкерчиликти
жоопкерчиликтин
жоопкерчиликтүү
жоопко
жооптор
жоопту
жооптуу
жоосун
жоош
жорго
жорж
жоро
жоромол
жортуул
жортуулга
жортуулдары
жортуулу
жору
жорук
жоруктары
жосун
жото
жошо
жоюлат
жоюлган
жоюлгандан
жоюлуп
жоюлушу
жоюп
жоюу
жоюуга
жоюуда
жу
жуан
жубаи
жубу
жугат
жугузуп
жугуучу
жугушсуз
жугуштуу
жугушу
жузеппе
жука
жуккан
жуков
жуковскии
жуктуруп
жулуп
жульетта
жума
жумабаев
жумабек
жумага
жумагулов
жумада
жумадан
жумадылов
жумакан
жумакматов
жумакунова
жумалиев
жумалык
жумамүдүн
жуманазарова
жуманалиев
жуманын
жумасына
жуматурду
жумаш
жумгал
жумган
жумуп
жумуртка
жумурткадан
жумурткалары
жумурткаларын
жумуртканын
жумурткасы
жумурткасын
жумуру
жумуш
жумушка
жумушсуздук
жумушсуздуктун
жумушта
жумуштан
жумуштар
жумуштарда
жумуштарды
жумуштары
жумуштарын
жумуштарында
жумушту
жумуштун
жумушу
жумушун
жумушуна
жумушчу
жумушчулар
жумушчуларды
жумушчулардын
жумушчулары
жумушчуларынын
жумушчунун
жумшаган
жумшаи
жумшак
жумшалат
жумшалган
жумшап
жумшартуу
жун
жунгар
жунусов
жуп
жупуну
журавли
журахон
журнал
журналга
журналдар
журналдарга
журналдарда
журналдардын
журналдары
журналдарында
журналдын
журналист
журналисти
журналистика
журналисттер
журналисттери
журналисттик
журналы
журналын
журналына
журналында
журналынын
журт
журтка
журтту
журттун
журту
журтун
журтуна
журтунун
жусуп
жусупов
жусуповдун
жут
жутулуу
жутуп
жутуу
жуу
жуугуч
жууи
жуук
жууку
жуулуп
жууп
жуурулушуп
жуучу
жууш
жуңгар
жуңго
жчк
жыгач
жыгачка
жыгачтан
жыгачты
жыгачтын
жыгаччы
жыгаччылык
жыгачы
жыгачын
жыгылган
жыгылып
жыгып
жызак
жыи
жык
жыл
жыламыш
жылан
жыландар
жыланды
жыландын
жылат
жылаңач
жылга
жылган
жылда
жылдагы
жылдаи
жылдан
жылдар
жылдарга
жылдарда
жылдардагы
жылдардан
жылдардын
жылдары
жылдарына
жылдарынан
жылдарында
жылдарындагы
жылдарынын
жылды
жылдыгы
жылдыгын
жылдыгына
жылдыгында
жылдыгынын
жылдыз
жылдызга
жылдыздар
жылдыздарга
жылдыздарды
жылдыздардын
жылдыздары
жылдыздарынын
жылдыздуу
жылдыздын
жылдызча
жылдызы
жылдызына
жылдызынын
жылдык
жылдыкка
жылдыкта
жылдыктан
жылдыктар
жылдыктарда
жылдыктын
жылдын
жылдыруу
жылдырып
жылкы
жылкыга
жылкылар
жылкыны
жылкынын
жылкысы
жылкысын
жылкычы
жылма
жылмаи
жылмакаи
жылмаланган
жылнаама
жылнаамасы
жылнамасы
жылсанагы
жылтыраи
жылтырак
жылуу
жылуулугу
жылуулук
жылуулукка
жылуулукту
жылуулуктун
жылча
жылчыксыз
жылы
жылын
жылына
жылынан
жылында
жылынын
жылып
жылыткыч
жылытуу
жылышуу
жылышы
жыныс
жыныссыз
жыныстагы
жыныстуу
жыныстык
жынысы
жынысына
жыпар
жыргал
жыргалаң
жыргалбаи
жыргалчылык
жырткыч
жырткычтар
жырым
жырымдар
жырымдарды
жыт
жытсыз
жыттанган
жыттуу
жыты
жыш
жышаандары
жыштыгы
жыштыгын
жыштыгына
жыштыгынын
жыштык
жыштыкта
жыштыктагы
жыштыктуу
жыштыктын
жэи
жээги
жээгин
жээгинде
жээгиндеги
жээгине
жээгинен
жээгинин
жээк
жээкке
жээкте
жээктеген
жээктеги
жээктеи
жээктен
жээктеп
жээктери
жээктерин
жээктеринде
жээктериндеги
жээктерине
жээктин
жээн
жээнбаев
жээнбек
жээнбеков
жээни
жүгүн
жүгүртүп
жүгүртүү
жүгүртүүгө
жүгүртүүдө
жүгүртүүлөр
жүгүртүүнүн
жүгүртүүсү
жүгүрүп
жүгүрүү
жүгөн
жүгөрү
жүз
жүзгө
жүздүү
жүздөгөн
жүздөн
жүзү
жүзүм
жүзүмдүн
жүзүмчүлүк
жүзүн
жүзүндө
жүзүндөгү
жүзүнүн
жүзүнө
жүзөгө
жүи
жүк
жүктү
жүктүн
жүктөлгөн
жүктөлөт
жүктөп
жүктөрдү
жүктөө
жүлүн
жүлүндүн
жүн
жүндү
жүндүү
жүндөн
жүнү
жүнүн
жүнүнүн
жүнүнөн
жүр
жүрбөи
жүргүзгөн
жүргүзүлгөн
жүргүзүлүп
жүргүзүлүшү
жүргүзүлүүдө
жүргүзүлүүчү
жүргүзүлө
жүргүзүлөт
жүргүзүп
жүргүзүшкөн
жүргүзүү
жүргүзүүгө
жүргүзүүдө
жүргүзүүнү
жүргүзүүнүн
жүргүзүүчү
жүргүзө
жүргүзөт
жүргүнчү
жүргүнчүлөр
жүргүнчүлөрдү
жүргүч
жүргөн
жүргөндүктөн
жүргөндө
жүргөндөр
жүргөнү
жүргөнүн
жүрдү
жүрмө
жүрсө
жүрчү
жүрүм
жүрүмү
жүрүп
жүрүш
жүрүшкө
жүрүшкөн
жүрүшү
жүрүшүн
жүрүшүндө
жүрүшүнө
жүрүшөт
жүрүү
жүрүүгө
жүрүүчү
жүрүүчүлөр
жүрө
жүрөгү
жүрөгүм
жүрөгүн
жүрөгүндө
жүрөгүнүн
жүрөгүнө
жүрөгүнөн
жүрөк
жүрөккө
жүрөктү
жүрөктүн
жүрөктөгү
жүрөктөн
жүрөктөрү
жүрөкчө
жүрөм
жүрөт
жүсүп
және
жөжө
жөлөк
жөн
жөнгө
жөндөгүч
жөндөмдүү
жөндөмдүүлүгү
жөндөмдүүлүгүн
жөндөмдүүлүгүнө
жөндөмдүүлүк
жөндөмдүүлүктү
жөндөмдүүлүктөрүн
жөндөмсүз
жөндөмү
жөндөмүн
жөндөмүнө
жөндөмө
жөндөө
жөнү
жөнүн
жөнүндө
жөнүндөгү
жөнөгөн
жөнөдү
жөнөи
жөнөкөи
жөнөп
жөнөткөн
жөнөтүлгөн
жөнөтүлүп
жөнөтүлөт
жөнөтүп
жөнөтүү
жөнөтүүгө
жөнөтүүчү
жөнөтөт
жөнөшөт
жөргөмүш
жөрөлгө
жөрөлгөсү
жөтөл
жөтөлгөндө
жөтөлөт
жөө
жөөт
жөөттөр
з
за
заале
заалым
заалымдар
заальфельд
заар
заара
зааранын
забаи
завод
заводдо
заводдор
заводдору
заводдун
заводу
заводунда
заводунун
заголовок
задан
заде
заж
заждык
заи
зак
закавказье
заказ
заказниги
заказник
заказниктерди
закария
закиров
заков
закон
закондору
закондорун
закону
законун
законуна
законунун
зал
залал
залкар
залы
залында
зальцведель
зальцланд
зам
заман
замана
заманбап
заманга
заманда
замандагы
замандан
замандарда
замандаш
замандаштары
замандаштарынын
замандын
заманы
заманында
заманындагы
заманынын
замат
заматта
замбирек
замбия
замга
замда
замдар
замдарга
замдарда
замдарды
замдардын
замдары
замдарын
замдарына
замдарында
замдарынын
замдуу
замды
замдык
замдын
заметки
замсыз
замы
замын
замына
замында
замынын
зангерхаузен
занын
западнои
запас
запастары
запасы
запасын
запасынын
записки
запкы
зар
заравшан
зарыл
зарылдыгы
зарылдыгын
зарылдык
зарылчылыгы
зарылчылыгын
заряд
заряддалган
заряддардын
заряддуу
заряддын
заряды
зарядынын
зат
затка
заттан
заттар
заттарга
заттарда
заттардан
заттарды
заттардын
заттары
заттарын
заттарынын
затты
заттык
заттын
заты
заң
заңы
звания
звезда
звено
звеносу
здесь
зе
зевс
зегеберг
зеи
зекет
зеки
зеландия
зеландиянын
земли
зен
зенит
зениттик
зер
зергер
зергердин
зергерлер
зергерчилик
зергерчиликте
зерслаутерн
зианчурин
зигфрид
зилаи
зимбабве
зинг
зия
зиянын
зиярат
знак
значение
значения
зодиак
зодчии
золотая
золотои
зомбулук
зомбулукка
зомбулуктан
зомбулукту
зомбулуктун
зона
зонага
зонада
зоналар
зоналарда
зоналардын
зоналары
зоналарында
зоналык
зонанын
зонасы
зонасына
зонасында
зонасынын
зонд
зоо
зоок
зоокалуу
зоология
зоопарк
зоот
зоотехник
зор
зордоп
зордук
зордуктоо
зороастризм
зоя
зу
зубаи
зулаи
зулкарнаи
зулпукаровым
зулум
зулумдук
зурхане
зуура
зыгыр
зыи
зым
зымсыз
зындан
зырянское
зыян
зыянга
зыяндуу
зыяндын
зыянкеч
зыянкечтери
зыянсыз
зыянсыздандыруу
зыяны
зыярат
зээндүү
зөммерда
и
иа
иада
ианын
иасынын
ибадат
иблис
ибн
ибни
ибну
ибрагим
ибрагимов
ибраев
ибраева
ибраимов
ибрахим
ибрахимдин
иван
иванов
иванович
ивановка
ивановна
иврит
ивуар
игирээк
иглин
игорь
ид
идеал
идеалдуу
идеалдык
идеализм
идеалисттик
идеалы
идентификационныи
идеология
идеологиялык
идеологияны
идеологиянын
идеологиясы
идея
идеяга
идеялар
идеяларды
идеялардын
идеялары
идеяларын
идеяларынын
идеялык
идеяны
идеянын
идеясы
идеясын
идеясына
идеясынын
идиш
идишке
идиште
идиштер
идиштерге
идиштерди
идиштердин
идиштери
идиштерин
идиштин
идп
идпнин
идрис
иерархиялык
иерусалим
иет
иж
ижара
ижарага
из
избаева
избранное
избранные
изв
известия
изге
изд
издание
издательство
издеген
издеи
изден
изденип
изденүү
издеп
издер
издери
изди
издин
издөө
издөөгө
издөөдө
иззат
изи
изилдеген
изилдеи
изилденген
изилдене
изилденет
изилденип
изилдениши
изилденүүчү
изилдеп
изилдешкен
изилдоо
изилдөө
изилдөөгө
изилдөөдө
изилдөөлөр
изилдөөлөргө
изилдөөлөрдү
изилдөөлөрдүн
изилдөөлөрдө
изилдөөлөрү
изилдөөлөрүн
изилдөөлөрүндө
изилдөөлөрүнүн
изилдөөнү
изилдөөнүн
изилдөөсү
изилдөөчү
изилдөөчүлөр
изилдөөчүлөрдүн
изилдөөчүсү
изин
измир
изображение
изображения
изомери
изотобу
изотоп
изотоптор
изотопторду
изотоптору
изотоптук
израил
израилде
израилдин
израиль
изучение
изучения
ии
иии
иииде
ииинин
иим
иимдин
иисус
ик
икер
икке
иккер
икона
икт
икте
иктеген
иктеги
иктиги
иктигин
иктигине
иктик
иктикке
иктикте
иктиктеги
иктиктен
иктин
ил
илбирс
илбирстин
илген
илгери
илгерилетүү
илгерки
илгертеден
илгертен
илгич
илдет
илдети
илдетин
илдетке
илдеттери
илдөө
иле
илеге
иленин
илет
или
илик
иликтеген
иликтеи
иликтеп
иликтөө
иликтөөгө
иликтөөлөр
иликтөөчү
илим
илимге
илимд
илимде
илимдеги
илимдер
илимдерди
илимдердин
илимдери
илимдеринин
илимди
илимдин
илими
илимии
илимин
илиминде
илиминдеги
илимине
илиминин
илимпоз
илимпоздор
илимпоздордун
илимпоздору
илимпозу
илинген
илинет
илинип
илип
илишев
илл
иллинои
илме
илмек
илчээк
ильич
ильм
илья
ильяс
илээшкек
илээшкектик
илүү
илүүчү
им
имам
иманалиев
иманалиева
иманбек
иманбектин
иманкулов
имарат
имаратка
имаратта
имараттар
имараттарды
имараттардын
имараттары
имаратты
имараттын
имараты
имаратын
имаратына
имаратында
имаратынын
имге
имдер
имдерди
имдердин
имдери
имдерин
имдеринин
имди
имдин
имеет
имени
ими
имин
иминин
имиш
иммундук
иммунитет
император
императордук
императордун
императору
императорунун
империи
империя
империянын
империясы
империясын
империясына
империясында
империясынын
импорт
импорттук
импульс
импульстук
импульстуу
импульсу
имчен
имя
ин
инв
инверсия
инвестиция
инвестициялар
инвестицияларды
инвестициялардын
инвестициялык
инвестор
инвесторлор
инвесторлордун
инге
инген
ингуш
инд
инде
индеги
индеи
индекс
индекси
инди
индивид
индивиддин
индивидуалдуу
индивидуалдык
индии
индикатор
индикытаи
индира
индистан
индия
индияга
индияда
индиядагы
индиядан
индиялык
индияны
индиянын
индонезия
индонезияда
индонезиянын
индуизм
индукция
индукциялык
индус
индустриалдык
индустриялык
ине
инен
инерттүү
инерция
инерциялык
инженер
инженердик
инженери
инженерия
инженерлер
инзер
ини
инилери
инин
инип
иниси
инки
инкиге
инкилер
инкиси
инкубациялык
инн
инновация
инновациялык
инсан
инсанга
инсандар
инсандарга
инсандарды
инсандардын
инсандары
инсанды
инсандык
инсандын
инспектор
инспектору
инспекциясынын
институнда
институнун
институт
института
институтка
институтта
институттар
институттардын
институттары
институттарынын
институтту
институттун
институту
институтун
институтуна
институтунан
институтунда
институтунун
инструктор
инструктору
инсульт
интеграл
интегралдык
интеграция
интеллект
интеллектуалдык
интеллигенция
интеллигенциянын
интенсивдүү
интенсивдүүлүгү
интенсивдүүлүгүн
интерактивдүү
интервью
интермедия
интернатта
интернационал
интернационалдык
интернационалдын
интернет
интернетке
интернетте
интернеттеги
интернеттен
интернетти
интернеттик
интернеттин
интерфеи
интрузия
интрузиялары
интрузиясы
интуиция
инфаркты
инфекция
инфекциялар
инфекциялык
инфекциянын
инфекциясы
инфляция
инфляциянын
инфо
информатика
информации
информацию
информация
информациялык
информацияны
инфракызыл
инче
инчерээк
инчирээк
инь
инөнү
иоанн
иоганн
иод
ион
иондоо
иондор
иондордун
иондору
иондошкон
иондоштуруучу
иондошуу
иондук
иондун
иону
иордан
иордания
иорданиянын
иосиф
ип
ипкер
ипкери
ипкерлердин
ир
ирак
иракка
иракта
ирактын
иран
иранга
иранда
ирандагы
ирандан
ирандык
ирандыктар
ирандын
иранча
ирет
ирети
иретинде
иретке
иретсиз
иретте
иреттүү
ири
иридии
ирик
ириклинск
ирилери
ирина
ириси
ириң
ириңдеп
ириңдүү
иркутск
ирланд
ирландия
ирландиялык
ирландиянын
иррационалдык
ирригациялык
иртыш
иртышка
иртышке
ирээти
ис
иса
исаак
исаев
исак
исаков
исанов
искак
искактын
искендер
искра
искусства
искусство
искусствого
искусстводо
искусстводогу
искусствону
искусствонун
искусствосу
искусствосун
искусствосуна
искусствосунда
искусствосунун
ислам
исламга
исламда
исламдагы
исламды
исламдык
исламдын
исламии
исланд
исландия
исмаил
исмаилов
исмаилова
исп
испан
испандар
испания
испанияга
испанияда
испаниядагы
испаниялык
испаниянын
испанча
использование
использования
использовать
используется
используи
исраил
исскуствосу
исследование
исследовании
исследования
иссык
ист
истеми
истории
историко
историография
историческая
исторические
историческии
исторических
исторического
историческои
история
источник
источники
источников
исфаи
исфана
исфара
исфахан
исхак
ит
итал
италия
италияга
италияда
италиядагы
италиядан
италиялык
италиянын
италян
италянча
итбек
ителги
ити
итии
итке
итмурун
итоги
иттен
иттер
иттердин
итти
иттин
иудаизм
иудеи
их
ич
ичеги
ичегиге
ичегиде
ичегиден
ичегинин
ичегисинде
ичет
ичи
ичик
ичимдик
ичимдиктер
ичимдиктерин
ичин
ичинде
ичиндеги
ичине
ичинен
ичип
ичирип
ичишет
ичке
ичкен
ичкенде
ичкенден
ичкери
ичкерип
ичкерээк
ички
ичкилик
ичкиликтер
ичпеи
ичсе
ичтен
ичтин
ичүү
ичүүгө
ичүүчү
иш
ишемби
ишемия
ишемиялык
ишенбеи
ишенген
ишенгендери
ишендирүү
ишенебиз
ишенем
ишенет
ишеним
ишенимге
ишенимде
ишенимдер
ишенимдерди
ишенимдердин
ишенимдери
ишенимди
ишенимдин
ишенимдүү
ишеними
ишенимин
ишенимине
ишенип
ишеничтүү
ишенишет
ишенишкен
ишенов
ишенүү
ишет
иши
ишим
ишимге
ишин
ишинде
ишиндеги
ишине
ишинен
ишинин
ишип
ишкана
ишканада
ишканалар
ишканаларга
ишканаларда
ишканаларды
ишканалардын
ишканалары
ишканаларын
ишканаларында
ишканаларынын
ишкананы
ишкананын
ишканасы
ишканасында
ишканасынын
ишке
ишкен
ишкер
ишкердик
ишкердикти
ишкердүүлүк
ишкерлер
ишкерлердин
ишкерлик
ишмер
ишмердиги
ишмердигин
ишмердигине
ишмердигинин
ишмердик
ишмердикти
ишмердиктин
ишмердүүлүгү
ишмердүүлүгүн
ишмердүүлүгүндө
ишмердүүлүгүнүн
ишмердүүлүгүнө
ишмердүүлүк
ишмердүүлүккө
ишмердүүлүктү
ишмердүүлүктүн
ишмери
ишмерлер
ишмерлердин
ишмерлери
ишмерлеринин
иште
иштебеи
иштеген
иштегенде
иштегендер
иштегендердин
иштеги
иштеди
иштеи
иштелген
иштелип
иштен
иштеп
иштер
иштерге
иштерде
иштерден
иштерди
иштердин
иштери
иштерин
иштеринде
иштерине
иштеринен
иштеринин
иштетет
иштетилген
иштетилет
иштетилип
иштетилүүчү
иштетип
иштеткен
иштетүү
иштетүүгө
иштетүүдө
иштетүүдөн
иштетүүнү
иштетүүнүн
иштетүүчү
иштешет
иштеши
иштешин
иштешине
иштешип
иштешкен
ишти
иштин
иштүү
иштөө
иштөөгө
иштөөдө
иштөөдөн
иштөөнү
иштөөнүн
иштөөсү
иштөөсүн
иштөөчү
июлга
июлда
июлдан
июлдуку
июлдун
июлуна
июлунан
июлунда
июлундагы
июль
июльда
июля
июлң
июнга
июнда
июндан
июндун
июнуна
июнунан
июнунда
июнь
июньда
июня
июнң
июс
иң
к
ка
каада
каалабаи
каалаган
каалагандаи
каалаганын
каалаи
каалап
кааласа
каалашкан
каалоо
каалоосу
каан
каапыр
каапырлар
каапырларга
каапырларды
каапырлардын
каар
каардуу
каарман
каарманга
каармандар
каармандарга
каармандарда
каармандарды
каармандардын
каармандары
каармандарын
каармандарынын
каарманды
каармандыгы
каармандык
каармандын
каарманы
каарманын
каары
каарына
каба
кабаи
кабак
кабар
кабарга
кабарда
кабардар
кабарды
кабарлаган
кабарлаи
кабарлап
кабарлар
кабарларды
кабарлары
кабарлоо
кабарчы
кабарчысы
кабары
кабарын
кабат
кабаттардын
кабаттары
кабаттуу
кабаттын
кабаты
кабатында
кабелдик
кабель
кабинет
кабинети
кабинетинин
кабир
кабирдин
кабо
кабул
кабы
кабыгы
кабыгын
кабыгынын
кабык
кабыктуу
кабыктын
кабыкча
кабыкчасы
кабыл
кабылан
кабылат
кабылган
кабылдагыч
кабылдаи
кабылдап
кабылдоо
кабылдоого
кабылдоолорго
кабылдоосу
кабылып
кабылышат
кабын
кабырга
кавалери
кавказ
кавказга
кавказда
кавказдагы
кавказдын
кагаз
кагазга
кагаздар
кагаздарды
кагаздардын
кагаздары
кагаздарын
кагазды
кагаздын
кагазы
каган
каганаты
каганатынын
кагандыгы
кагандыгын
кагандыгынын
кагандын
каганы
каганынын
кагат
кагуу
кагылаи
кагылган
кагылып
кагылыш
кагылышуу
кагылышуулар
кагылышы
кагылышып
кагып
кагышы
кадам
кадамдар
кадамжаи
кадамы
кадимки
кадимкидеи
кадмии
кадр
кадрлар
кадрларды
кадрлардын
кадыр
кадырбек
кадыресе
кадырлуу
кадырмамбетов
кадырман
кадыров
кадыры
кажар
кажары
кажет
кажети
кажы
каз
каза
казак
казаков
казакстан
казакстанга
казакстанда
казакстандагы
казакстандан
казакстандык
казакстандын
казактар
казактарга
казактарда
казактардын
казактарынын
казактын
казакча
казал
казан
казанга
казандагы
казандын
казань
казарман
казат
казатка
казатта
казах
казахстан
казахстана
казуу
казууда
казуучу
казы
казыбек
казык
казылат
казылган
казылып
казына
казынасы
казынасын
казынасына
казып
каи
каир
как
какао
какеи
какен
каккан
каксоо
какты
какшаал
какырык
кал
кала
калаа
калаарлык
калаасы
калаи
калак
калам
калар
каларлык
калары
калат
калашников
калба
калбаган
калбаи
калбастан
калбасын
калган
калганда
калгандаи
калгандан
калгандар
калгандары
калгандыгы
калгандыгын
калгандыктан
калганы
калганын
калганына
калдаи
калданат
калды
калдыгы
калдыгын
калдыгынан
калдык
калдыктар
калдыктарды
калдыктардын
калдыктары
калдыктарын
калдыктарынан
калдыктарынын
калдым
калдын
каледон
калем
калемгер
калемине
калеминен
калемпир
календардык
календары
календарь
калии
калинин
калининград
калифорния
калифорниядагы
калифорниянын
калк
калкалап
калкалоочу
калкан
калканы
калкка
калктан
калктар
калктардын
калктары
калктарынын
калктуу
калкты
калктын
калкы
калкыма
калкын
калкына
калкынын
калкып
калмак
калмактан
калмактар
калмактарга
калмактардан
калмактарды
калмактардын
калмактын
калп
калпак
калпактын
калса
калсын
калтасин
калтырат
калтыратма
калтырбаи
калтырган
калтырды
калтыруу
калтырууга
калтырылган
калтырып
калтырышкан
калуга
калуу
калууга
калууда
калуудан
калуунун
калуусу
калуучу
калча
калчу
калыбы
калыбын
калыбына
калыбында
калыгул
калыева
калыи
калык
калындыгы
калып
калыпка
калыпта
калыптагы
калыптана
калыптанат
калыптанган
калыптандырат
калыптандыруу
калыптандырууга
калыптандырууда
калыптандыруунун
калыптануу
калыптануусу
калыптануусуна
калыптанып
калыптанышы
калыптанышына
калыптанышында
калыптанышынын
калыптар
калыптарды
калыптары
калыптоо
калыпты
калыптын
калыптыр
калыс
калыстар
калыстардын
калыстык
калыш
калышат
калышкан
калышты
калыштыра
калыштырат
калыштырган
калыштыруу
калыштырылган
калыштырып
калышы
калышын
калышына
калышынан
калышынын
калышып
калың
калыңдыгы
калыңдыктагы
калье
калькутта
кальции
кальцит
кам
кама
камакка
камакта
камалган
камалып
каман
камап
камбар
камбаркан
камбартеп
камберленд
камбожа
камданып
камдашкан
каменскии
камера
камералуу
камералык
камеранын
камерасы
камерун
камерундун
камкор
камкордук
камоого
кампа
кампустары
кампусу
камсыз
камсыздаган
камсыздаи
камсыздандыруу
камсыздандыруучу
камсыздоо
камсыздоого
камсыздоону
камсыздоонун
камтуу
камтыган
камтыи
камтылат
камтылган
камтылып
камтып
камтышы
камчатка
камчы
камчыбек
камчынын
камылга
камын
камыр
камыш
кан
кана
канааттандырарлык
канааттандырат
канааттандырган
канааттандыруу
канааттандырууга
канада
канадада
канададагы
канадалык
канаданын
канаи
канал
каналга
каналдар
каналдары
каналдын
канализация
каналы
каналын
каналына
каналында
каналынын
канат
канатка
канаттаи
канаттары
канаттарынын
канатташ
канаттуу
канаттуулар
канаттуулардын
канаттуулары
канаттын
канаты
канатын
канатына
канатынын
канбаи
канга
канд
канда
кандагы
кандаи
кандан
кандар
кандарга
кандарды
кандардын
кандары
кандарынын
кандидат
кандидатом
кандидаттары
кандидаттык
кандидаты
кандуу
кандуулук
канды
кандык
кандын
канжар
канин
канкор
канн
кансыз
кант
кантип
кантты
канттын
канты
канча
канчалаган
канчалык
канчоро
канчоронун
канчылыгы
канчылык
канчылыкка
канчылыкта
канчылыктын
каны
каныбек
каныкеи
каныккан
каныкпаган
канын
канында
канынын
каныш
каныша
канышаи
канышанын
канышасы
каньон
каолин
кап
капа
капаи
капар
капиллярдык
капит
капитал
капиталды
капиталдык
капиталдын
капитализм
капитализмдин
капиталисттик
капиталы
капитан
капитаны
капка
капкагы
капкалуу
капкан
капкара
каптаган
каптаи
каптал
капталат
капталга
капталган
капталдары
капталдарын
капталдарына
капталдарында
капталдарынын
капталдуу
капталы
капталын
капталына
капталынан
капталында
капталындагы
капталынын
капталып
каптама
каптап
каптоо
каптоого
каптоонун
каптын
капуста
капчыгаи
капыстан
капысынан
кар
кара
караагачлы
карабаи
карабалта
карабастан
караван
карагаи
караган
караганда
караганды
карагат
карагул
карадан
караев
караевдин
каражат
каражаттар
каражаттарга
каражаттарды
каражаттардын
каражаттары
каражаттарын
каражаттарына
каражаттарында
каражаттарынын
каражатты
каражаттын
каражаты
каражатын
каражатына
каражатынын
караи
каракалпак
каракалпакстан
каракан
каракол
караколдогу
каракулжа
каракуш
каракчы
каракчылары
каракөи
каракөл
карала
каралаев
каралаевдин
каралат
каралбаса
каралган
каралжын
каралуучу
каралып
каралышы
карама
карамагына
карамагында
карамагындагы
карамолдо
каран
карандаш
каранды
карандылыгы
карандылыгын
карандысыз
карандысыздыгы
карандысыздыгын
карандысыздык
карандысыздыкка
карантин
карап
карапа
карапаи
карапачылык
караса
карасаев
карасак
карасуу
карат
карата
каратаев
каратал
каратегин
караткан
каратылган
каратылып
каратылышы
каратып
карахандар
караханиддер
карахании
карач
карача
карачаи
карачач
караш
карашат
карашка
карашкан
карашта
караштагы
караштан
караштар
караштарды
караштардын
караштары
караштарын
караштарынын
карашту
караштуу
карашты
караштын
карашы
карашын
карашына
карашынан
карашында
карашынын
караңгы
караңгыда
караңыз
караңыздар
карбон
карбонат
карбонаттар
карбонаттуу
карбонаты
карбондун
карга
каргыш
каргышы
кардар
кардардын
кардарлар
кардарларга
кардарларды
кардарлардын
кардиология
карды
кардын
карел
каржы
каржылаган
каржылоо
каржылык
кариб
карим
каримов
каримова
каркыра
карл
карлос
карлсруэ
карлук
карлуктар
карлуктардын
карлыгач
кармаган
кармаганда
кармаи
кармалат
кармалган
кармалып
кармама
карман
карманган
карманышат
кармап
кармаскалин
карматып
кармаш
кармашат
кармашкан
кармашта
кармашуу
кармашы
кармашып
кармен
кармоо
кармоого
кармоодо
кармоочу
карнеги
каролина
кароо
кароого
кароодо
кароодон
кароол
кароолчу
кароонун
кароосуз
кароосуна
каротин
карпат
карск
карст
карт
карта
картага
картада
картаи
карталар
карталарда
карталарды
карталары
картасы
картасын
картасында
картер
картинасы
картография
картографиялык
картон
карточка
картошка
карты
картөшкө
карши
каршы
каршылаш
каршылыгы
каршылыгын
каршылыгына
каршылыгынын
каршылык
каршылыкка
каршылыктар
каршылыктарды
каршылыктардын
каршылыктуу
каршылыкты
каршылыктын
каршымын
каршысы
кары
карыган
карыз
карызга
карыздар
карызды
карызкор
карызкордун
карылар
карылык
карым
карын
карынга
карындан
карындар
карындардын
карындашы
карынды
карындын
карыны
карып
карыпкулов
карыш
карышкыр
карыя
карыянын
карьера
карьерасы
карьерасын
кас
каса
касан
касиет
касиети
касиетин
касиетине
касиетинин
касиетке
касиеттер
касиеттерге
касиеттерди
касиеттери
касиеттерин
касиеттерине
касиеттеринин
касиеттүү
касильяс
каскаде
каспии
касс
кассалык
кассель
касситерит
кастро
кастык
касым
касымалы
касымбеков
касымов
кат
ката
катаал
катаган
каталарды
катализатор
каталог
каталония
катар
катарга
катарда
катардагы
катардын
катарлаш
катары
катарын
катарына
катарынан
катарында
катарындагы
катат
категории
категорию
категория
категорияга
категориядагы
категориялар
категориялардын
категориялары
категориялык
категориясы
категориясына
категориясында
катка
каткалаң
каткан
катмар
катмарга
катмарда
катмардагы
катмардан
катмарды
катмардын
катмарлар
катмарлардын
катмарлары
катмарларын
катмарларынан
катмарларында
катмарларынын
катмарлуу
катмары
катмарын
катмарына
катмарынан
катмарында
катмарындагы
катмарынын
катнаш
катнашка
катнашта
катнаштары
катнашы
катнашын
катод
католик
католиктер
католиктик
католицизм
катта
каттаган
каттаи
катталат
катталган
катталуу
катталып
каттап
каттар
каттарды
каттары
каттоо
каттоого
каттоодо
каттоодон
каттоонун
каттоочу
катты
каттык
каттын
катунь
катуу
катуулугу
катчы
катчысы
катчысынын
каты
катылган
катын
катында
катып
катыш
катыша
катышат
катышкан
катышкандар
катышкандардын
катышкандыгы
катышканы
катышпаган
катышпаи
катышта
катыштар
катышты
катышуу
катышууга
катышуудан
катышууну
катышуусу
катышуусун
катышуусуна
катышуусунда
катышуучу
катышуучулар
катышуучулардын
катышуучулары
катышуучуларына
катышуучуларынын
катышуучусу
катышы
катышын
катышына
катышып
катышышат
катышышкан
каунас
кауфман
каучук
кафе
кафедра
кафедранын
кафедрасы
кафедрасын
кафедрасына
кафедрасында
кафедрасынын
качан
качандыр
качат
качестве
качини
качкан
качканда
качкын
качкындар
качты
качуу
качууга
качуунун
качыбек
качып
качырып
качышы
каш
кашан
кашат
кашгар
кашгари
кашгаринин
кашка
кашкаи
кашкан
кашкар
кашкарга
кашкарда
кашкардан
кашкарды
кашкардын
кашкарлык
кашкулак
кашмир
каштан
каштары
каштык
кашы
кашык
кашын
кашына
кашынын
каюм
каңгаи
каңды
каңылтыр
кв
квадрат
квадраттык
квалификациялуу
квалификациялык
квалификациясы
квалификациясын
квант
кванттык
квартал
квартирасы
кварц
кварцит
кварцтуу
квебек
кверфурт
квн
квота
квт
кг
кгга
кгдан
кгну
кдж
кдк
кдкнын
ке
кебез
кебезден
кебек
кебер
кебете
кебетеси
кеби
кебин
кевин
кеген
кегети
кедеи
кедерги
кедр
кез
кезге
кезде
кездеги
кездеме
кездемеден
кездемелер
кездемелерди
кездемени
кездеменин
кезден
кездерде
кездешери
кездешет
кездешип
кездешкен
кездешпеи
кездешүү
кездешүүчү
кезеги
кезегин
кезегинде
кезек
кезексиз
кезекте
кезектеги
кезектери
кезектешип
кези
кезигет
кезигип
кезигүүчү
кезиккен
кезикпеи
кезимде
кезинде
кезиндеги
кезинен
кезип
кеи
кек
кекилик
кекиртек
кел
келатат
келаткан
келбеген
келбеи
келбесе
келбети
келбетин
келген
келгенге
келгенде
келгендеи
келгенден
келгендер
келгендердин
келгендиги
келгендигин
келгендиктен
келгени
келгенин
келгенине
келгенче
келгиле
келгин
келгиндер
келгиче
келди
келдибек
келдик
келдим
келе
келеби
келем
келер
келери
келерин
келет
келечеги
келечегин
келечек
келечекке
келечекте
келечектеги
келечекти
келечектин
келечектүү
кели
келин
келинге
келинген
келиндер
келиндердин
келиндин
келини
келинип
келип
келиптир
келишет
келиши
келишим
келишимге
келишимде
келишимдер
келишимдерге
келишимдерди
келишимдердин
келишимдери
келишимди
келишимдик
келишимдин
келишимдүү
келишими
келишимин
келишиминде
келишимине
келишиминин
келишин
келишине
келишинче
келишип
келишкен
келишпестиктер
келишти
келки
келли
келсе
келсек
келсин
келте
келтирбеи
келтирген
келтиргендер
келтиргич
келтире
келтирет
келтирилген
келтирилет
келтирилип
келтирип
келтириши
келтирүү
келтирүүгө
келтирүүдө
келтирүүдөн
келтирүүнү
келтирүүчү
келчү
кельт
келээр
келүү
келүүгө
келүүдө
келүүнү
келүүсү
келүүсүн
келүүчү
кем
кемал
кемаль
кембридж
кембриж
кембрии
кемдүү
кемдүүлүгү
кемдүүлүк
кеме
кемеге
кемеде
кемел
кемелер
кемелерди
кемелердин
кемелери
кемелерин
кемелеринин
кемени
кеменин
кементаи
кемер
кемеров
кемерово
кемеси
кемесинин
кемин
кеминде
кемирчек
кемирүүчүлөр
кемпир
кемсел
кемтиги
кемтик
кемчилиги
кемчиликтер
кемчиликтери
кемчиликтерин
кемчуг
кен
кенде
кендеги
кенден
кендер
кендерди
кендердин
кендери
кендерин
кендеринде
кендерине
кендеринин
кенди
кендин
кендир
кендүү
кене
кенелер
кенен
кененирээк
кененсариев
кенесары
кенесарынын
кенеси
кенеш
кенешинин
кенештин
кенже
кенжеси
кени
кенин
кенинде
кенинин
кенири
кения
кениянын
кеннеди
кенташ
кенташтары
кенташы
кентукки
кенч
кенчелери
кенчи
кеп
кепилдиги
кепилдик
кепке
кеплер
кептер
кепти
кептик
кептин
кептөөр
кер
керамика
керамикалык
кербез
кербен
кере
кереге
керегенин
кереги
керек
керексиз
керектеи
керектелген
керектелет
керектелүүчү
керектиги
керектигин
керектүү
керектөө
керектөөгө
керектөөлөрүн
керектөөсү
керектөөсүн
керектөөчү
керектөөчүлөргө
керектөөчүлөрдүн
керемет
керемети
кереметтүү
керик
керилген
керим
керип
керки
керман
керме
кернеи
керосин
керт
керээз
керээзи
кесе
кесек
кесепети
кесепетинен
кесепеттерге
кесепеттери
кесепеттерин
кесет
кеси
кесиби
кесибин
кесибине
кесилген
кесилет
кесилип
кесилиш
кесилиши
кесилишинде
кесилишкен
кесинди
кесип
кесипке
кесипкөи
кесипте
кесиптенишет
кесиптенишип
кесиптенишкен
кесиптер
кесиптери
кесиптеши
кесиптештери
кесипти
кесиптик
кесиптин
кесипчилик
кескелдирик
кескелдириктер
кескелдириктердин
кескен
кескин
кескич
кесме
кесүү
кесүүчү
кет
кете
кетели
кетем
кетет
кетип
кетиптир
кетирбеи
кетирген
кетирет
кетирип
кетирүү
кетишет
кетиши
кетишин
кетишине
кетишинен
кетишкен
кетишти
кеткен
кеткенге
кеткенде
кеткенден
кеткендер
кеткендиги
кеткендиктен
кеткени
кеткенин
кетмен
кетментөбө
кетпеи
кетпес
кетсе
кетсек
кетти
кетчү
кетүү
кетүүгө
кетүүдөн
кетүүнү
кетүүсү
кетүүсүн
кетүүсүнө
кетүүчү
кефир
кеч
кече
кечек
кечеси
кечигип
кечил
кечинде
кечип
кечир
кечирбеи
кечирген
кечирет
кечирим
кечиримдүү
кечирип
кечирээк
кечке
кечки
кечээ
кечүү
кеш
кеште
кең
кеңдиги
кеңдик
кеңдикке
кеңдикте
кеңдиктерде
кеңеи
кеңеш
кеңеши
кеңешин
кеңешинде
кеңешине
кеңешинин
кеңешип
кеңешке
кеңешме
кеңеште
кеңештер
кеңештерге
кеңештерди
кеңештердин
кеңештеринин
кеңештин
кеңешчи
кеңешчиси
кеңири
кеңкол
кеңсе
кеңсеси
кеӊеи
кжтжнын
ки
кибернетика
кив
кидик
киев
кижи
кии
кикя
килем
килеми
килограмм
килограммга
километр
ким
кимге
кимде
кимден
кимдер
кимди
кимдин
кимдир
кимиси
кин
кинг
киндиги
киндигин
киндигинде
киндигиндеги
киндигине
киндигинин
киндик
киндикке
киндикте
киндиктеги
киндикти
киндиктин
кинематикалык
кинематограф
кинематографисттер
кинематография
кинематографиялык
кинетикалык
кино
киноактерлор
киноварь
киного
кинодо
кинодогу
кинонун
кинорежиссе
кинорежиссер
киностудиясы
киностудиясында
киностудиясынын
киносу
киносунун
киносыи
киносынчылар
киносынчылардын
кинотасма
кинотеатр
кинотеатрларда
кинофестивалда
кинофестивалы
кинофестивалында
кинофестивалынын
кинофильм
киокак
киото
кипр
кир
кирбеген
кирбеи
кирг
кирген
киргенде
киргенден
киргиз
киргизген
киргизгосиздат
киргизди
киргизет
киргизии
киргизилген
киргизилди
киргизилет
киргизилип
киргизилиши
киргизип
киргизишет
киргизишкен
киргизия
киргизов
киргизская
киргизскии
киргизского
киргизскои
киргизском
киргизстан
киргизстана
киргизучпедгиз
киргизүү
киргизүүгө
киргизүүнү
кирди
кирдин
кире
кирет
киреше
кирешеге
кирешелер
кирешелүү
кирешени
кирешенин
кирешеси
кирешесинин
кирилл
кирип
кириптер
кириш
киришет
кириши
киришине
киришинен
киришип
киришкен
киришти
киришүү
киров
кирпич
кирсе
кирүү
кирүүгө
кирүүсү
кирүүчү
кислота
кислоталар
кислоталары
кислоталарынын
кислотасы
кислотасын
кислотасынын
кит
китаб
китаи
китано
китеби
китебин
китебинде
китебине
китебинен
китебинин
китеп
китепкана
китепканада
китепканалар
китепканалары
китепкананын
китепканасы
китепканасында
китепканасынын
китепканачы
китепке
китепте
китептеги
китептен
китептер
китептерге
китептерде
китептерди
китептердин
китептери
китептерин
китептеринде
китептерине
китептеринин
китепти
китептин
китепче
китцинген
кифхои
кихот
кичи
кичине
кичинекеи
кичинесинен
кичиреи
кичирээк
кичүү
кичүүсү
киши
кишиге
кишиде
кишиден
кишилер
кишилерге
кишилерде
кишилерди
кишилердин
кишилик
кишимжан
кишини
кишинин
кишиси
кия
кк
ккал
ккп
кл
клаи
клара
кларк
класс
класса
классик
классикалык
классификатор
классификатору
классификация
классификациялоо
классификациясы
классицизм
класска
класста
класстагы
класстан
класстар
класстарга
класстарда
класстардын
класстары
класстарынын
классты
класстык
класстын
классы
классын
классына
классында
классындагы
классынын
клаус
клеи
клетка
клеткага
клеткада
клеткадан
клеткалар
клеткаларда
клеткалардан
клеткаларды
клеткалардын
клеткалары
клеткаларын
клеткаларына
клеткаларында
клеткаларынын
клеткалуу
клеткалык
клетканын
клеткасы
клеткасынын
клетчатка
клизма
климат
климатка
климаттуу
климаттык
климаттын
климаты
климатына
клиникалык
клинтон
клип
клод
клуб
клубдар
клубдары
клубдук
клубдун
клубу
клубун
клубуна
клубунда
клубунун
ключ
кляшторныи
км
кмге
кмдеи
кмден
кми
кммада
кммиде
кммини
кмминин
кму
кмуда
кмуну
кмунун
кмуунун
кмш
кмшда
кмшнын
кмюанын
кн
книга
книги
кну
княздыгы
княздыгынын
князы
князь
ко
коалиция
коалициялык
кобальт
кобленц
кобулу
ков
коваленттик
ковскии
когда
когеренттүү
код
коддоо
кодду
коддун
кодекси
кодексинин
коду
кодун
кодуобщероссии
кое
коет
кожент
кожо
кожобеков
кожожаш
кожои
кожомбердиев
кожомкул
кожонун
кожоюну
коз
козгогон
козгогуч
козгогучтар
козгогучтары
козгогучу
козгои
козголгон
козголоң
козголоңу
козголуп
козголуу
козгоо
козгоочу
козгоп
козу
кои
кок
коко
кокон
коконго
кокондо
кокондук
кокондуктар
кокондун
кокос
кокс
кокту
кокуи
кокус
кокустан
кокустук
кокусунан
кол
кола
коламбус
колбаса
колбашчы
колва
колго
колгуев
колдо
колдогон
колдогу
колдои
колдон
колдонбои
колдонбоо
колдонгон
колдонгондо
колдонмо
колдонмолор
колдонмолорду
колдонмолору
колдонмосу
колдоно
колдонот
колдонсо
колдонула
колдонулат
колдонулбаи
колдонулган
колдонулса
колдонулуп
колдонулууда
колдонулуучу
колдонулушу
колдонулушун
колдонулушуна
колдонулчу
колдонуп
колдонуу
колдонууга
колдонууда
колдонуудагы
колдонуудан
колдонууну
колдонуунун
колдонуучу
колдонуучуга
колдонуучулар
колдонуучуларга
колдонуучулардын
колдонуучулары
колдонуучуларынын
колдонуучунун
колдонушат
колдонушкан
колдонушу
колдоо
колдоого
колдоону
колдоосу
колдоосуна
колдоочу
колдоочусу
колдоп
колдору
колдорун
колдоруна
колду
колдун
колдуу
колл
коллегия
коллегиясынын
колледж
колледжи
коллеж
коллектив
коллективдештирүү
коллективдин
коллективдүү
коллективи
коллекции
коллекция
коллекциясы
коллоиддик
коло
колодон
колониалдык
колония
колонияга
колониялык
колониясы
колониясына
колонна
колорадо
колот
колоттуу
колпаковскии
колтии
колтугуна
колтук
колу
колукту
колуктусу
колумб
колумбия
колун
колуна
колунан
колунда
колундагы
колунун
колуңарды
колхоз
колхозго
колхоздо
колхоздор
колхоздун
колхозу
колхозуна
колхозунда
колхозунун
колхозчу
колыма
кольцевая
ком
команда
командага
командалар
командалары
командалык
команданы
команданын
командасы
командасын
командасына
командасында
командасынын
командачы
командачылыгы
командачысы
командир
командири
командиринин
комбаи
комбинаты
комбинатында
комбинатынын
комедия
комедиялуу
комедиялык
комедиясы
комета
коми
комикс
комиссар
комиссариатынын
комиссарлар
комиссары
комиссарынын
комиссия
комиссиянын
комиссиясы
комиссиясынын
комитет
комитета
комитети
комитетин
комитетинде
комитетине
комитетинин
комитеттер
комитеттери
комитеттеринин
комитеттин
комментарии
коммерциялык
коммуналдык
коммуналык
коммунизм
коммуникативдик
коммуникация
коммуникациялар
коммуникациялык
коммунист
коммунистик
коммунисттер
коммунисттик
компакт
компакттуу
компании
компания
компанияга
компаниялар
компаниялардын
компаниялары
компанияларынын
компанияны
компаниянын
компаниясы
компаниясын
компаниясына
компаниясында
компаниясынын
компартиянын
компартиясынын
компас
компенсация
компетенттүү
комплекс
комплекси
комплексин
комплексинде
комплексине
комплексинин
комплекстер
комплекстерди
комплекстери
комплекстик
комплекстин
комплекстүү
композитор
композиторлор
композиторлордун
композиторлору
композиторлорунун
композитору
композиция
композициялык
композициясы
компонент
компоненти
компоненттер
компоненттерди
компоненттердин
компоненттери
компоненттерин
компоненттеринин
компоненттүү
компот
компресс
компрессор
компьютер
компьютерге
компьютерде
компьютерди
компьютердик
компьютердин
компьютерлер
компьютерлерде
компүтер
компүтердик
комсомол
комсомолдук
комсомолдун
комсомолец
комсомолу
комсомолунун
комсомольская
комуз
комузда
комузду
комуздун
комузчу
комузчулар
комузчулардын
комунда
комунун
кон
конан
конвеи
конвенция
конвенциянын
конвенциясы
конвенциясына
конвенциясынын
конгломерат
конго
конгон
конгонун
конгресс
конгресси
конгрессинде
конгрессинин
конгресстин
конденсатор
конденсация
кондитер
кондитердик
кондома
кондуруп
конкреттүү
конкурс
конкурста
конкурстук
конкурстун
конкурсу
конкурсунда
конкурсунун
коннектикут
конок
конокко
коноктор
конот
конрад
консерва
консерваланган
консервалары
консервативдик
консервативдүү
консерватория
консерваториянын
консерваториясын
консерваториясында
консерваториясынын
константин
константинович
константинополь
конституция
конституцияга
конституцияда
конституциялык
конституцияны
конституциянын
конституциясы
конституциясына
конституциясында
конституциясынын
конструктор
конструктордук
конструкция
конструкциялар
конструкциялары
конструкциялык
конструкциясы
консул
консулдук
консультант
консультанты
консультативдик
консультация
консультациялык
контакт
контакттуу
контеи
контекст
контексте
континент
континенталдык
континенттик
континенттин
контр
контракт
контролдоо
контролдук
контроль
контрреволюциячыл
конуп
конус
конустук
конуу
конуш
конуштар
конуштары
конуштарын
конушу
конф
конфедерациясы
конференции
конференция
конференцияга
конференцияда
конференциялар
конференцияларга
конференцияларда
конференциянын
конференциясы
конференциясына
конференциясында
конференциясынын
конфликт
конфликттер
конфуции
конц
конце
концентрациясы
концепция
концепциялары
концепцияны
концепциясы
концепциясын
концепциясына
концепциясынын
концерт
концерти
концерттер
концерттик
коо
коого
кооз
кооздолгон
кооздолот
кооздолуп
кооздоо
кооздоп
кооздугу
кооздугун
кооздук
кооздуктар
кооздуктарды
кооздукту
коолор
коолордун
коом
коомго
коомдо
коомдогу
коомдон
коомдор
коомдорго
коомдордо
коомдордун
коомдору
коомдорунун
коомду
коомдук
коомдун
коому
коомун
коомуна
коомунда
коомундагы
коомунун
коомчулугу
коомчулугунун
коомчулук
коомчулукка
коомчулукту
коомчулуктун
коон
коонун
кооператив
кооперативдик
кооперация
коопсуз
коопсуздугу
коопсуздугун
коопсуздугуна
коопсуздук
коопсуздукту
кооптуу
координата
координаталар
координаталары
координатору
координациялаи
координациялоо
координациялык
коочу
коп
копенгаген
кор
коралл
корго
коргогон
коргогондугу
коргои
коргол
корголгон
корголот
корголуучу
коргон
коргондөбө
коргону
коргонуу
коргонууга
коргонуучу
коргоо
коргоого
коргоодо
коргоол
коргоону
коргоонун
коргоочу
коргоочулар
коргоочусу
коргоп
коргошун
кордильера
кордова
кордоо
кордук
кореи
корея
кореяда
кореялык
кореянын
коринф
корккон
корккула
коркпои
коркунуч
коркунучту
коркунучтуу
коркунучу
коркунучун
коркунучунда
коркуп
коркут
коркутуп
коркутуу
коркуу
короз
корол
королдугу
королдугунун
королдук
королдун
короле
королева
королевы
королу
король
коронавирус
короо
корпоративдик
корпорация
корпорациянын
корпорациясы
корпорациясынын
корпус
корпусу
корпусунун
корр
корректор
корреспондент
корреспонденти
коррозияга
коррупция
коррупцияга
корсаков
кору
коругу
коругунда
коругунун
корук
корукка
коруктар
коруктары
коруктун
корукчасы
корум
корумду
корутунду
корутундусу
косметика
косметикалык
космонавт
космонавттар
космос
космоско
космосто
космостук
косово
коста
костанаи
кострома
костюм
кот
котловины
котон
котор
которгон
которгондо
которгондор
котормо
котормолор
котормолору
котормосу
котормосунда
котормосунун
котормочу
котормочулар
котормочулук
котормочусу
которои
которот
которулат
которулган
которулуп
которулушу
которум
которуп
которуу
которууга
которуштуруп
которые
которыи
котур
кофе
кох
кохем
коциттер
коциттердин
кочевников
кочкор
кочкорго
кочкордогу
кочкул
кош
кошкон
кошкондо
кошмо
кошмок
кошо
кошои
кошок
кошот
кошпогондо
кошсо
коштогон
коштои
коштолгон
коштолот
коштолуп
коштоо
коштоосу
коштоосунда
коштоочу
коштоп
коштошуу
кошту
кошула
кошулат
кошулбаи
кошулган
кошулганда
кошулгандан
кошулду
кошулмалар
кошулса
кошулуп
кошулуу
кошулууга
кошулуучу
кошулушу
кошулушунан
кошумча
кошумчалаи
кошумчаланган
кошуна
кошунду
кошундулар
кошундулары
кошундусу
кошуп
кошуу
кошууга
кошуун
кошууну
кошушат
кошушкан
кошчу
коэффициенти
кою
коюла
коюлат
коюлбаи
коюлган
коюлду
коюлуп
коюлуучу
коюлушу
коюн
коюп
коюу
коюуга
коюуда
коюуну
коюунун
коюучу
коюшат
коюшкан
коюшту
коюшу
коюшуп
коюшчу
коңгуроо
коңуз
коңуздар
коңуздардын
коңур
коңурат
коңурбаи
коңшу
коңшулаш
кп
кпнын
кпсс
кпсстин
кр
краб
краи
краков
красная
краснодар
краснои
краснокам
краснояр
красноярск
красныи
краткая
краткии
крахмал
края
крде
крдин
кредит
кредиттик
креи
кремль
кремнии
крепостнои
крест
кривои
кризис
кризиси
кризиске
кризистен
кризистик
кризистин
крик
криминалдык
криминалистика
криминалистикалык
крис
кристалл
кристаллданат
кристаллдар
кристаллдарда
кристаллдардын
кристаллдары
кристаллдашат
кристаллдуу
кристаллдык
кристаллдын
кристен
кристиан
кристофер
крит
критерии
критикалык
крнын
крови
крои
крокодил
кросс
кроуфорд
крсуда
круз
крупская
крылов
крым
крымда
крымдын
крэи
кс
ксдп
ксрб
ксэ
кт
ктин
ктму
кто
ктор
кторду
ктрк
ктркнын
кту
ктун
ку
куала
куан
куб
куба
кубалап
кубан
кубанын
кубанып
кубаныч
кубанычбек
кубанычтуу
кубань
кубарып
кубат
кубатбек
кубатованыкы
кубаттуу
кубаттуулугу
кубаттуулугун
кубаттуулук
кубаттуулукту
кубатты
кубаты
кубатын
кубдук
кубогу
кубогун
кубогуна
кубогунун
кубок
кубулуп
кубулуш
кубулуштар
кубулуштарга
кубулуштарды
кубулуштардын
кубулуштары
кубулуштарын
кубулуштарына
кубулуштарынын
кубулушту
кубулуштун
кубулушу
кубулушун
кубулушуна
кубулушунун
кувеи
кугарчин
куда
кудагы
кудаи
кудаяр
кудук
кудурети
кудуреттүү
кужур
кузгун
кузель
кузнецк
кузнецов
куи
кук
куксхафен
кул
кула
кулаган
кулагандан
кулагы
кулагына
кулак
кулакка
кулактын
кулан
куланак
кулап
кулатов
кулатуу
кулатып
кулач
кулашы
кулашына
кулдар
кулжа
кулжыгач
кулк
кулкун
кулмамбетов
кулов
кулон
кулпунаи
кулу
кулун
кулунду
кулчулук
куль
культ
культтук
культу
культур
культура
культурного
культурное
культурные
культуры
кум
кума
кумаи
кумар
кумбел
кумга
кумдак
кумду
кумдук
кумдун
кумдуу
кумтөр
куму
кумурска
кумурскалар
кумурскаларды
кумурскалардын
кун
кунан
кунг
кундуз
кунт
куну
кунун
купер
куприн
купулуна
купуя
кур
кура
курагы
курагына
курагында
кураи
курак
куракта
курактагы
курактык
курал
куралат
куралган
куралданган
куралдар
куралдарды
куралдардын
куралдары
куралдарын
куралдарынын
куралдуу
куралды
куралдын
куралсыз
куралуу
куралы
куралын
куралынын
куралып
курам
курама
курамасы
курамасынын
курамдагы
курамдык
курамдын
курамы
курамын
курамына
курамынан
курамында
курамындагы
курамынын
куран
куранга
куранда
куранды
курандын
курани
курап
курат
кураштыруу
курбанов
кургаган
кургаи
кургак
кургакта
кургактагы
кургактык
кургактыкка
кургактыкта
кургактыктын
кургакчыл
кургакчылык
кургакчылыкка
курган
кургап
кургатат
кургатуу
кургатылат
кургатылган
кургатып
курдаи
курдурган
куржун
курил
курма
курман
курманбек
курмангазы
курмандыгы
курмандык
курмандыкка
курманжан
курманов
курорт
курорттор
курорттору
курорттук
курорту
курс
курса
курсагы
курсак
курск
курста
курстар
курстары
курстарын
курсту
курстун
курсу
курсун
курсуна
курсунда
курсунун
курт
куртка
курттар
курттардын
курту
куру
курула
курулат
курулган
курулду
курулма
курулмалар
курулмалардын
курултаи
курулуп
курулууда
курулуш
курулушка
курулушта
курулуштар
курулуштарды
курулуштардын
курулуштары
курулуштарынын
курулушту
курулуштун
курулушу
курулушун
курулушуна
курулушунда
курулушунун
куруп
курут
куруу
курууга
курууда
курууну
куруунун
куруучу
куруучусу
курушкан
курцвеи
курч
курчаган
курчалган
курчалып
курчап
курчоого
курчоосунда
курчуп
куршаб
кусат
кусеи
кустардык
кусу
кусуу
кут
куткарат
куткаруу
куткаруучу
куткарып
куттубаев
куттуу
куту
кутубии
кутузов
кутулган
кутулуп
кутулуу
кутум
кутурма
кутуча
куу
кууган
куугунтук
куугунтукка
куугунтуктоо
куугучтук
куугучтуктун
кууда
куудул
куудулдар
куулган
куулуп
куума
куумаи
куунун
кууп
куур
куураи
куурап
кууру
куурулган
кууруп
куурчак
кууш
куч
кучагына
кучкач
куш
кушан
кушнаренк
куштар
куштарды
куштардын
куштары
кушту
куштун
кушу
кушчу
кушчудан
кушчулар
кушчулардын
кушчунун
куюлат
куюлган
куюлуп
куюлушуна
куюлушунан
куюн
куюп
куюргазин
куюу
куюучу
куюшкан
куя
куярда
куят
кы
кыдыкеева
кыдыр
кыдыралиев
кыдырбаева
кыдырган
кыдырып
кыз
кызамык
кызарат
кызарт
кызарып
кызга
кызгылт
кызгылтым
кыздан
кыздар
кыздарга
кыздарды
кыздардын
кыздары
кыздарын
кыздарынын
кыздуу
кызды
кыздык
кыздын
кызмат
кызматка
кызматкер
кызматкердин
кызматкери
кызматкеринин
кызматкерлер
кызматкерлерге
кызматкерлерди
кызматкерлердин
кызматкерлери
кызматкерлерин
кызматкерлерине
кызматкерлеринин
кызматта
кызматтагы
кызматтан
кызматтар
кызматтарга
кызматтарда
кызматтарды
кызматтардын
кызматтары
кызматтарын
кызматтарына
кызматтарында
кызматтарынын
кызматташкан
кызматташтыгы
кызматташтыгын
кызматташтык
кызматташтыкты
кызматташтыктын
кызматташуу
кызматташып
кызматты
кызматтык
кызматтын
кызматчы
кызматчылар
кызматчылары
кызматчыларынын
кызматчысы
кызматы
кызматын
кызматына
кызматынан
кызматында
кызматынын
кызуу
кызы
кызыга
кызыгуу
кызыгууну
кызыгуусу
кызыгуусун
кызыгы
кызыгып
кызык
кызыкдар
кызыккан
кызыктуу
кызыктырат
кызыктырган
кызыктыруу
кызыкчылыгы
кызыкчылыгын
кызыкчылыгына
кызыкчылык
кызыкчылыктар
кызыкчылыктарды
кызыкчылыктардын
кызыкчылыктары
кызыкчылыктарын
кызыкчылыктарына
кызыкчылыктарынын
кызыкчылыкты
кызыл
кызылга
кызылдан
кызылкыя
кызылсуу
кызылча
кызылчасы
кызылчасынын
кызын
кызына
кызынын
кызыр
кыи
кык
кыл
кыла
кылабыз
кылам
кыларын
кылат
кылбаган
кылбагыла
кылбаи
кылбастан
кылган
кылганда
кылгандан
кылгандар
кылгандарга
кылгандарды
кылгандыгы
кылгандыктан
кылганы
кылганын
кылгыла
кылдат
кылдаттык
кылдуу
кылды
кылдык
кылдым
кылка
кылкан
кылкандуу
кылмыш
кылмышка
кылмышкер
кылмышкерлерди
кылмыштар
кылмыштарды
кылмыштардын
кылмыштуу
кылмыштуулук
кылмыштуулукка
кылмышты
кылмыштын
кылса
кылсак
кылсаңар
кылуу
кылууга
кылууда
кылуудан
кылууну
кылуунун
кылуусу
кылуучу
кылуучулар
кылчу
кылчык
кылы
кылык
кылым
кылымга
кылымда
кылымдагы
кылымдан
кылымдар
кылымдарга
кылымдарда
кылымдардагы
кылымдардан
кылымдардын
кылымды
кылымдык
кылымдын
кылымы
кылымына
кылымында
кылынат
кылынбаган
кылынбаи
кылынган
кылынды
кылынып
кылынышы
кылып
кылыч
кылычев
кылычтын
кылычы
кылыш
кылышат
кылышкан
кылышты
кылышы
кылышып
кымбат
кымыз
кын
кындын
кынтыксыз
кыпа
кыпчак
кыпчактар
кыпчактардын
кыр
кыраакы
кыраан
кырбаш
кырг
кыргоол
кыргыз
кыргызга
кыргызд
кыргызда
кыргыздан
кыргыздар
кыргыздарга
кыргыздарда
кыргыздардагы
кыргыздардан
кыргыздарды
кыргыздардын
кыргыздары
кыргыздарынын
кыргызды
кыргыздын
кыргызмамбас
кыргызов
кыргызокуупедмамбас
кыргызпатент
кыргызпатенттин
кыргызск
кыргызская
кыргызскии
кыргызских
кыргызского
кыргызскои
кыргызском
кыргызстан
кыргызстана
кыргызстанга
кыргызстанда
кыргызстандагы
кыргызстандан
кыргызстанды
кыргызстандык
кыргызстандын
кыргызстане
кыргызфильм
кыргызча
кыргызчага
кыргызы
кыргыи
кыргылчал
кыргын
кыргынга
кыргыны
кырдаал
кырдаалга
кырдаалда
кырдаалдар
кырдаалдарда
кырдаалдардын
кырдаалды
кырдаалдын
кырдуу
кырк
кырка
кыркалары
кыркаларында
кыркаларынын
кыркасы
кыркасынын
кыркып
кырлары
кырлуу
кырма
кырсык
кырсыкка
кырсыктан
кырсыктар
кырсыктардын
кырсыктын
кыртыш
кыртышты
кыртыштын
кыртышы
кыртышын
кыртышында
кыртышындагы
кыртышынын
кыруу
кырчы
кырчылар
кырчылык
кырчын
кыры
кырылган
кырылып
кырым
кырына
кырында
кырып
кысап
кыск
кыска
кыскарат
кыскарган
кыскартуу
кыскартууга
кыскартылган
кыскартылып
кыскартып
кыскарып
кыскарышы
кыскасы
кыскача
кысуу
кысыгы
кысык
кысыктар
кысыктары
кысылган
кысылып
кысым
кысымга
кысымы
кысымынан
кысын
кысып
кыт
кытаи
кычан
кычкыл
кычкылдануу
кычкылтек
кычкылтекке
кычкылтекти
кычкылтектин
кычкылы
кычкылынын
кычышат
кыш
кышкы
кышкысын
кыштагы
кыштагына
кыштагынан
кыштагында
кыштагындагы
кыштагынын
кыштаи
кыштак
кыштакта
кыштактар
кыштактарда
кыштактарды
кыштактары
кыштактын
кыштан
кыштоо
кыштын
кышы
кышында
кыюу
кыя
кыязы
кыяк
кыяктын
кыякчы
кыял
кыялы
кыям
кыямат
кыяматта
кыянат
кыянаттык
кыяс
кыястын
кэдр
кэи
кэмден
кэмерон
кэмпбелл
кэнин
кэр
кэрдин
кэрролл
кэтрин
кээ
кээбир
кээде
кээси
кюри
кѳп
күбүлмө
күбө
күбөлүгү
күбөлүк
күбөлөндүрүүчү
күбөлөрдүн
күбөсү
күдүрлүү
күжүрмөн
күз
күзгү
күзгүлүү
күздүк
күздө
күзүндө
күзөт
күи
күкүк
күкүм
күкүрт
күкүрттүн
күкүрттүү
күл
күлгүн
күлдүүлүгү
күлкү
күлкүлүү
күлчоро
күлчорого
күлчорону
күлчоронун
күлү
күлүгү
күлүи
күлүк
күлүп
күмбөз
күмбөздүн
күмбөзү
күмбөзүнүн
күмбөзүнө
күмүш
күмүшалиева
күмүшкө
күмүштү
күмүштүкү
күмүштүн
күмүштөн
күмөн
күн
күнгө
күнгөи
күндү
күндүз
күндүзгү
күндүзү
күндүк
күндүн
күндө
күндөгү
күндөи
күндөлүгү
күндөлүк
күндөн
күндөр
күндөргө
күндөрдүн
күндөрдө
күндөрү
күндөрүндө
күнтуу
күнчө
күнчөи
күнү
күнүгө
күнүмдүк
күнүн
күнүндө
күнүнүн
күнүнө
күнүнөн
күнөс
күнөстүү
күнөө
күнөөгө
күнөөкөр
күнөөлүү
күнөөлөрү
күнөөсү
күнөөсүз
күнөөсүн
күр
күрдүү
күрмө
күрмөнтү
күрп
күрүч
күрөш
күрөшкө
күрөшкөн
күрөштү
күрөштүн
күрөштө
күрөштөн
күрөштөрү
күрөшү
күрөшүн
күрөшүнүн
күрөшүнө
күрөшүп
күрөшүү
күрөшүүгө
күрөшүүдө
күрөшүүнүн
күрөшөт
күрөң
күрөңкеев
күрөңкөев
күрөө
күрөөгө
күткөн
күтүлбөгөн
күтүлгөн
күтүп
күтүү
күтүүсүз
күтүүсүздөн
күтө
күтөт
күч
күчкө
күчтү
күчтүн
күчтүү
күчтөн
күчтөр
күчтөргө
күчтөрдү
күчтөрдүн
күчтөрү
күчтөрүн
күчтөрүндө
күчтөрүнүн
күчтөрүнө
күчү
күчүк
күчүн
күчүндө
күчүнүн
күчүнө
күчүнөн
күчөгөн
күчөгөндө
күчөи
күчөп
күчөткүч
күчөткөн
күчөтүп
күчөтүү
күчөтүүгө
күчөтүүчү
күчөтөт
күчөшү
күчөшүнө
күчөшүнөн
күң
күңгөи
күңүрт
күү
күүгүм
күүгө
күүлөр
күүлөрдү
күүлөрдүн
күүлөрү
күүлөрүн
күүлөрүнүн
күүнү
күүнүн
күүсү
күүсүн
кө
көбү
көбүк
көбүн
көбүндө
көбүнесе
көбүнчө
көбүнчөсү
көбүнүн
көбүнө
көбүрөөк
көбөи
көбөк
көбөш
көбөштүн
көгарт
көгүлтүр
көгүчкөн
көгүш
көгөрүп
көз
көзгө
көздү
көздүн
көздүү
көздөгөн
көздөи
көздөн
көздөп
көздөрү
көздөрүн
көзкаман
көзкамандар
көзкаранды
көзкарандысыз
көзү
көзүм
көзүн
көзүнчө
көзүнүн
көзүнө
көзүнөн
көзөмөл
көзөмөлгө
көзөмөлдү
көзөмөлдүк
көзөмөлдөгөн
көзөмөлдөи
көзөмөлдөнөт
көзөмөлдөп
көзөмөлдөө
көзөмөлдөөгө
көзөмөлдөөчү
көзөмөлү
көзөмөлүндө
көзөмөлүнө
көзөнөгү
көи
көк
көккө
көктү
көктүн
көктөм
көктөн
көкчө
көкчөгө
көкчөдөн
көкчөкөз
көкчөнүн
көкүл
көкүрөгү
көкүрөк
көкүрөктүн
көкө
көкөмерен
көкөтөи
көл
көлгө
көлдү
көлдүк
көлдүн
көлдө
көлдөгү
көлдөн
көлдөр
көлдөрдүн
көлдөрдө
көлдөрү
көлдөрүнүн
көлмө
көлмөлөр
көльн
көлү
көлүн
көлүндө
көлүнүн
көлүнө
көлүнөн
көлөкө
көлөкөдө
көлөкөсү
көлөм
көлөмгө
көлөмдү
көлөмдүк
көлөмдүү
көлөмдө
көлөмдөгү
көлөмү
көлөмүн
көлөмүндө
көлөмүнүн
көлөмүнө
көмүлгөн
көмүлүп
көмүр
көмүрдү
көмүрдүн
көмүрлүү
көмүртек
көмүртектин
көмүртектүү
көмүскө
көмүскөдө
көмүү
көмөк
көмөктөшкөн
көмөктөшүү
көмөктөшөт
көмөкчү
көмөкөи
көмөлдүрүк
көн
көнгөн
көндүмдөр
көндүмдөрдү
көндүмдөрүн
көнүгүү
көнүгүүлөр
көнүгүүлөрдү
көнүгүүлөрдүн
көнүгүүлөрү
көнүгүүлөрүн
көнүгүүнү
көнүл
көнүмүш
көнүп
көнөк
көп
көпкө
көптү
көптүгү
көптүгүн
көптүгүнө
көптүк
көптүктүн
көптүр
көптөгөн
көптөн
көпчүлүгү
көпчүлүгүн
көпчүлүгүндө
көпчүлүгүнүн
көпчүлүк
көпчүлүккө
көпчүлүктү
көпчүлүктүн
көпшөк
көпүрө
көпүрөсү
көпөлөк
көпөлөктөр
көпөлөктөрдүн
көпөс
көр
көрбөгөн
көрбөгөндөи
көрбөи
көргөзгөн
көргөзмө
көргөзмөгө
көргөзмөлөр
көргөзмөлөргө
көргөзмөлөрдүн
көргөзмөлөрү
көргөзмөсү
көргөзмөсүнүн
көргөзүп
көргөзөт
көргөн
көргөндө
көргөндөн
көргөнү
көрдү
көрдүм
көрк
көркү
көркүнө
көркөм
көркөмдүгү
көркөмдүк
көркөмдөп
көрпө
көрсө
көрсөк
көрсөткүч
көрсөткүчтөр
көрсөткүчтөргө
көрсөткүчтөрдүн
көрсөткүчтөрү
көрсөткүчтөрүн
көрсөткүчтөрүнүн
көрсөткүчү
көрсөткүчүн
көрсөткөн
көрсөткөндөи
көрсөтмө
көрсөтмөлөр
көрсөтмөлөрдү
көрсөтмөлөрүн
көрсөтмөсү
көрсөтпөи
көрсөтсө
көрсөттү
көрсөтүлгөн
көрсөтүлгөндөи
көрсөтүлдү
көрсөтүлсө
көрсөтүлүп
көрсөтүлүшү
көрсөтүлүүчү
көрсөтүлө
көрсөтүлөт
көрсөтүп
көрсөтүшкөн
көрсөтүшөт
көрсөтүү
көрсөтүүгө
көрсөтүүдө
көрсөтүүдөн
көрсөтүүлөр
көрсөтүүлөрдү
көрсөтүүлөрдүн
көрсөтүүлөрү
көрсөтүүнү
көрсөтүүнүн
көрсөтүүсү
көрсөтүүчү
көрсөтүүчүсү
көрсөтө
көрсөтөт
көрчү
көрүлгөн
көрүлөт
көрүнбөгөн
көрүнбөи
көрүнгөн
көрүндү
көрүнсө
көрүнүктүү
көрүнүктүүсү
көрүнүп
көрүнүш
көрүнүшкө
көрүнүштү
көрүнүштүн
көрүнүштөр
көрүнүштөргө
көрүнүштөрдү
көрүнүштөрдүн
көрүнүштөрү
көрүнүштөрүн
көрүнүшү
көрүнүшүн
көрүнүшүнө
көрүнүүчү
көрүнө
көрүнөт
көрүнөө
көрүп
көрүстөн
көрүстөндөр
көрүстөндөрү
көрүстөнү
көрүстөнүндө
көрүстөнүнө
көрүшкөн
көрүшпөи
көрүшү
көрүшөт
көрүңүз
көрүү
көрүүгө
көрүүдө
көрүүнү
көрүүнүн
көрүүсү
көрүүчү
көрүүчүлөр
көрүүчүлөргө
көрүүчүлөрдү
көрүүчүлөрдүн
көрө
көрөбүз
көрөгөч
көрөлү
көрөм
көрөсүң
көрөт
көсөө
көтөн
көтөргүч
көтөргөн
көтөрмө
көтөрүлгөн
көтөрүлгөндө
көтөрүлдү
көтөрүлүп
көтөрүлүш
көтөрүлүшкө
көтөрүлүштү
көтөрүлүштүн
көтөрүлүштөр
көтөрүлүштөрү
көтөрүлүшчүлөр
көтөрүлүшчүлөрдүн
көтөрүлүшү
көтөрүлүшүн
көтөрүлүшүнүн
көтөрүлүшүнө
көтөрүлүшүнөн
көтөрүлүү
көтөрүлө
көтөрүлөт
көтөрүп
көтөрүшкөн
көтөрүңкү
көтөрүү
көтөрүүгө
көтөрүүдө
көтөрүүчү
көтөрө
көтөрөт
көч
көчкү
көчкөн
көчкөндө
көчмө
көчмөн
көчмөндөр
көчмөндөрдүн
көчү
көчүп
көчүрмө
көчүрмөсү
көчүрмөсүн
көчүрүлгөн
көчүрүлүп
көчүрүп
көчүрүү
көчүрүүгө
көчүү
көчө
көчөгө
көчөдө
көчөлөр
көчөлөрү
көчөлөрүнүн
көчөсү
көчөсүндө
көчөсүндөгү
көчөсүнө
көчөт
көчөттү
көчөттүн
көчөттөр
көчөттөрдү
көчөттөрдүн
көчөттөрү
көчөттөрүн
көчөттөрүнүн
көчөтү
көчөтүн
көшөгө
көшөгөлүү
көң
көңдөи
көңүл
көңүлгө
көңүлдү
көңүлдүн
көңүлү
көңүлүн
көңүлүнө
көө
көөдөн
көөкөр
көөлү
көөмп
көөнө
көөнөрбөс
көөп
л
ла
лаакча
лаакчалар
лаб
лабор
лаборант
лаборатории
лаборатория
лабораторияда
лабораториялык
лабораториясы
лабораториясында
лабораториясынын
лабрадор
лава
лаврентии
лавров
лаган
лагуна
лады
лазер
лазердик
лаи
лак
лакаи
лакап
лакаптар
лакер
лактар
лактация
лам
лама
ламберт
ламбиел
лампа
лампасы
ламта
лан
лана
ланадагы
лананын
ланасы
ланасын
ланасына
ланасында
ланасындагы
ланат
ланган
ланганда
лангандан
ланд
ландау
ландсберг
ландшафт
ландшафттар
ландшафттары
ландшафттык
ландшафттын
ландшафты
ланды
ландырат
ландырган
ландыруу
ландырууга
ландыруучу
ландырылат
ландырылган
ландырып
ланка
ланма
ланса
ланта
лантат
ланткан
лантуу
лантып
лануу
ланууга
лануунун
лануусу
лануусун
лануусуна
лануусунун
лануучу
ланцеттеи
ланып
ланыш
ланышат
ланышка
ланышкан
ланышпаган
ланышсыз
ланышта
ланыштагы
ланыштар
ланыштарды
ланыштардын
ланыштары
ланыштарын
ланыштарынын
ланыштуу
ланышты
ланыштын
ланыштырат
ланыштырган
ланыштыруу
ланыштыруучу
ланыштырылат
ланыштырылган
ланыштырып
ланыштырышат
ланышуу
ланышы
ланышын
ланышына
ланышында
ланышынын
ланышып
лао
лаос
лап
лар
ларга
ларда
лардагы
лардан
ларды
лардын
ларри
лары
ларын
ларына
ларынан
ларында
ларындагы
ларынын
лас
ласы
лат
лата
латвия
латвиянын
латын
латынча
латыш
лауреат
лауреаттары
лауреаты
лауэнбург
лафаи
лахш
лаш
лашат
лашкан
лаштырылган
лашып
лаң
лг
лге
лгон
лд
лдар
лдарды
лдин
ле
лебединовка
лев
леген
легенда
легендалар
легендарлуу
леи
лек
лексика
лексикалык
лексикасы
лексикология
лекция
лекциялар
лена
ленген
ленд
ленин
ленинград
ленинградда
ленинграддагы
лениндик
лениндин
ленинизм
ленинполь
ленинчи
ленинчил
лео
леон
леонард
леонардо
леонид
леп
лер
лерге
лерде
лерден
лерди
лердин
лери
лерин
леринде
лерине
леринин
лермонтов
лет
летию
ли
либералдык
либерия
либо
ливан
ливандын
ливерпуль
ливия
ливиянын
ливон
лига
лиганын
лигасы
лигасын
лигасына
лигасында
лигасынын
лиги
лигин
лигинде
лигине
лигинен
лигинин
лигишүү
лигишүүсү
лидер
лидери
лидерлер
лидерлери
лидерлеринин
лидерлик
лидия
лиза
лизинг
лик
лике
ликке
ликте
ликтеги
ликтен
ликтер
ликтери
ликти
ликтин
лилия
лимон
лимфа
лимфоциттер
лин
лингвист
лингвистика
лингвистикалык
линда
линза
линзалуу
линин
линия
линиялар
линиясы
линкольн
линн
линнеи
лион
липецк
лир
лира
лирика
лирикалык
лиссабон
лит
литва
литванын
литература
литературная
литературныи
литературы
литии
литосфера
литр
лихтенштеи
лицах
лицеи
лицензия
лицензиялоо
лицензиялык
лицензиясы
личинка
личинкалары
личинкасы
лкжс
ло
лобачевскии
лов
лова
лович
ловка
логан
логика
логикада
логикалык
логиканын
логикасы
логия
логон
логотиби
логотип
лозанна
лозьва
лои
локалдык
локк
лом
ломдун
ломоносов
лон
лондон
лондонго
лондондо
лондондогу
лондондун
лонуп
лонуу
лоо
лообек
лоого
лоодо
лоодон
лоолор
лоолордо
лоону
лоонун
лоосу
лоосунда
лоочу
лоочулар
лоочулардын
лоп
лопе
лор
лорго
лорд
лордо
лорду
лордун
лоренц
лору
лорун
лоруна
лорунда
лорунун
лос
лот
лотар
лото
лоуренс
лошкон
лошот
лс
лу
лувр
луганск
лугат
лугати
лудвиг
луза
луи
луиза
луис
лук
лукреции
луначарскии
луп
лут
луттун
луу
луулугу
луулук
луулуктун
лы
лыгы
лыгын
лыгына
лыгында
лыгынын
лыжа
лык
лыкка
лыктар
лыктарга
лыктарды
лыктардын
лыктары
лыктарын
лыктарына
лыктарынан
лыктарынын
лыкты
лыктын
лына
лында
ль
львов
льхаи
льюис
лэи
лю
любви
любовь
людвиг
людеи
люди
людмила
людовик
люк
люкс
люксембург
люминесценция
люнебург
лютер
ля
лүгү
лүдвигслуст
лүис
лүк
лүү
лө
лөбөи
лөгөн
лөи
лөм
лөмдү
лөмдүн
лөмдө
лөмдөгү
лөмдөр
лөмдөрдүн
лөмө
лөнгөн
лөнүп
лөнүшү
лөнүү
лөнө
лөнөт
лөп
лөр
лөргө
лөрдү
лөрдүн
лөрдө
лөрү
лөрүн
лөрүндө
лөрүнүн
лөрүнө
лөтүп
лөшкөн
лөшүп
лөшүү
лөшүүгө
лөшүүлөр
лөшүүлөрдү
лөшүүлөрдүн
лөшөт
лөө
лөөгө
лөөнү
лөөнүн
лөөчү
м
ма
маал
маалда
маалы
маалым
маалымат
маалыматка
маалыматтар
маалыматтарга
маалыматтарда
маалыматтардан
маалыматтарды
маалыматтардын
маалыматтары
маалыматтарын
маалыматтарына
маалыматтарында
маалыматты
маалыматтык
маалыматтын
маалыматы
маалыматына
маалымдама
маалымдамасы
маалымдоо
маалында
мааматкул
маанаи
маани
мааниге
мааниде
маанидеги
мааникерди
маанилер
маанилерди
маанилери
маанилерин
маанилеринин
маанилеш
маанилик
маанилуу
маанилүү
маанилүүлүгү
маанилүүлүгүн
маанилүүсү
маанини
мааниси
маанисиз
маанисин
маанисинде
маанисиндеги
маанисине
маанисинен
маанисинин
мааракеси
мааракесине
мааткабыл
мавзолеи
мавлянов
маврикии
мавритания
мага
магеллан
магистр
магистралдык
магистратура
магистрдик
магиялык
магма
магмалык
магманын
магнезит
магнетит
магнии
магнит
магнитогорск
магниттик
магниттүү
магы
магын
магына
магынан
магында
магындагы
магынын
мадагаскар
мадазимов
мадали
мадании
маданият
маданиятка
маданиятта
маданияттар
маданияттарда
маданияттардын
маданияттуу
маданиятты
маданияттын
маданияты
маданиятын
маданиятына
маданиятынан
маданиятында
маданиятындагы
маданиятынын
мадинага
мадрид
мадриддин
мады
маегинде
маек
маектер
мажар
мажарстан
мажбур
мажбурлаган
мажбурлаи
мажбурлап
мажбурлоо
мажму
мазар
мазин
мазмун
мазмунга
мазмундагы
мазмунду
мазмундук
мазмундун
мазмундуу
мазмуну
мазмунун
мазмунуна
мазмунунда
мазмунунун
маи
мак
макал
макала
макалага
макалада
макалалар
макалаларга
макалаларды
макалалардын
макалалары
макалаларын
макалаларында
макалаларынын
макаланы
макаланын
макаласы
макаласын
макаласында
макамын
макаренко
макаров
макбет
македония
македониянын
македонскии
макел
макен
макешов
макка
макмал
маков
макро
макроэкономикалык
макс
максат
максатка
максатта
максаттар
максаттарга
максаттарда
максаттарды
максаттары
максаттарын
максаттарына
максаттарында
максаттарынын
максаттуу
максатты
максаты
максатын
максатына
максатында
максвелл
максим
максималдуу
максимум
максимуму
максым
макта
мактагы
мактан
мактап
мактар
мактарга
мактарда
мактардагы
мактардан
мактарды
мактардын
мактары
мактарын
мактарына
мактарынан
мактарында
мактарындагы
мактарынын
мактоо
мактоого
макты
мактык
мактын
макул
макулдашуу
макулдашууга
макулдашуулар
макулдашуунун
макулдашуусу
макулдашылган
макулдашып
макулдугу
макулдугун
макулдугусуз
макулдук
макулмун
макчасы
мал
мала
малави
малаи
малакка
маланган
малар
маларды
малардын
малары
маларынын
малга
малда
малдан
малдардын
малды
малдыбаев
малдын
мали
малик
маликов
малколм
малов
малуу
малчы
малчылар
малчылардын
малчылык
малы
малын
малып
мальта
мам
мамаи
мамаке
мамалекеттик
мамат
маматкул
мамбет
мамбетакун
мамбетакунов
мамбеталиев
мамбеталиева
мамбеталиеванын
мамбетов
мамбеттурду
мамиле
мамилеге
мамиледе
мамилелер
мамилелерге
мамилелерде
мамилелерди
мамилелердин
мамилелери
мамилелерин
мамилелерине
мамилелеринин
мамилени
мамиленин
мамилеси
мамилесин
мамилесине
мамилесинин
мамл
мамлекет
мамлекети
мамлекетин
мамлекетинде
мамлекетиндеги
мамлекетине
мамлекетинен
мамлекетинин
мамлекетке
мамлекетте
мамлекеттеги
мамлекеттен
мамлекеттер
мамлекеттерге
мамлекеттерде
мамлекеттердеги
мамлекеттерден
мамлекеттерди
мамлекеттердин
мамлекеттери
мамлекеттеринде
мамлекеттерине
мамлекеттеринин
мамлекетти
мамлекеттик
мамлекеттин
мамлекеттүүлүгүнүн
мамлекттик
мамы
мамык
мамыр
мамытов
ман
мана
манабы
манап
манаптар
манаптардын
манаптын
манас
манаска
манаста
манастаануу
манастагы
манастан
манасты
манастын
манасчы
манасчылар
манасчылардан
манасчылардын
манасчылары
манасчылык
манасчынын
манасчысы
манасы
манасым
манасын
манат
манбаи
манбас
манга
мангр
мангыт
манд
мандалак
мандар
мандарды
мандардын
мандары
мандарын
мандат
мандела
мандуу
мандуулар
манды
мандык
мандын
манжа
манжалар
манжалардын
манжалары
манжаларынын
манжалуу
манжу
манжур
маниок
манкана
манканасы
манов
манова
мансап
манси
мансии
мансур
мансфельд
мантыш
мануи
мануэль
манфред
манчестер
маны
манын
мао
мар
мара
марага
марал
марат
марафон
марбург
маргалаң
марганец
маргарет
маржан
мари
марии
марина
марино
марио
мария
мариям
марк
марка
маркадагы
маркасы
маркасына
маркасындагы
маркетинг
марко
марков
маркс
марксизм
марксизмдин
марксисттик
маркстик
маркстын
марксчыл
маркт
маркум
маркумду
маркумдун
маркус
марокко
марокконун
марс
марсель
марстын
март
марта
мартен
мартин
мартка
мартта
марттан
марттын
мартына
мартынан
мартында
мартындагы
марш
маршал
маршалл
маршалы
маршрут
маршы
мары
мас
масалиев
маселе
маселеге
маселелер
маселелерге
маселелерди
маселелердин
маселелери
маселелерин
маселелерине
маселелеринин
маселен
маселени
маселенин
маселеси
маселесин
маселесинде
маселесине
маска
маслова
масс
масса
массага
массаж
массалары
массаларынын
массалуу
массалык
массаны
массанын
массасы
массасын
массасына
массасынын
массачусетс
массивдери
массивдүү
массиви
мастер
мастери
масштабда
масштабдагы
масштабдуу
масштабы
масы
масына
масынан
масынын
мат
матем
математиги
математик
математика
математикада
математикалык
математиканы
математиканын
математики
математиктер
матер
материал
материалам
материалга
материалдан
материалдар
материалдарга
материалдардан
материалдарды
материалдардын
материалдары
материалдарын
материалдарынын
материалдуу
материалды
материалдык
материалдын
материализм
материализмдин
материалисттик
материалов
материалы
материалын
материалынын
материгинин
материк
материктердин
материктик
материктин
материнское
материя
материянын
матрица
маттиас
матч
маунт
мах
махабат
махабаты
махачкала
махмуд
мачы
мачылык
маш
машак
машина
машинага
машинада
машиналар
машиналарды
машиналардын
машиналары
машиналарын
машиналык
машинаны
машинанын
машинасы
машине
машыгуу
машыгууга
машыгууну
машыгып
машыккан
машыктыруучу
машыктыруучусу
мая
маяк
маяковскии
маяна
маңдаи
маңыз
маңыздуу
маңызы
маңызын
маңызына
мвт
мг
мге
мгу
мгунун
мгц
мдеи
мден
мдж
ме
мед
медаи
медал
медалга
медалдар
медалдардын
медалдары
медалды
медалдын
медали
медалы
медалын
медалына
медалынын
медаль
медербек
медет
медиа
медиасы
медина
медицина
медицинада
медициналык
медицинанын
медицинасы
медпункт
медресе
медреселер
между
междунар
международного
международнои
международныи
мезгил
мезгилге
мезгилде
мезгилдеги
мезгилден
мезгилдер
мезгилдерге
мезгилдерде
мезгилдерден
мезгилдердин
мезгилдери
мезгилдеринде
мезгилдеринин
мезгилди
мезгилдик
мезгилдин
мезгилдүү
мезгили
мезгилин
мезгилинде
мезгилиндеги
мезгилине
мезгилинен
мезгилинин
мезгилсиз
мезени
мезень
мезозои
мезолит
меи
мек
мекеге
мекеме
мекемеге
мекемелер
мекемелерге
мекемелерде
мекемелерди
мекемелердин
мекемелери
мекемелерин
мекемелеринде
мекемелерине
мекемелеринин
мекеменин
мекемеси
мекемесинде
мекемесинин
мекен
мекенге
мекендеген
мекендеи
мекендеп
мекенди
мекендик
мекендин
мекени
мекеним
мекенин
мекенине
мекке
меккеге
меккеде
меккеден
меккелик
мекленбург
мексика
мексикада
мексикалык
мексиканын
мексико
мектеби
мектебин
мектебинде
мектебине
мектебинен
мектебинин
мектеп
мектепке
мектепте
мектептеги
мектептен
мектептер
мектептерге
мектептерде
мектептерди
мектептердин
мектептери
мектептеринде
мектептеринин
мектепти
мектептик
мектептин
мелдеш
мелдеши
мелдешке
мелдеште
мелдештер
мелдештерге
мелдештерде
мелдештердин
мелдештин
мелер
мелеуз
мелиорация
мелис
мелүүн
мембрана
мемориал
мемориалдык
мен
менде
менделеев
менден
мене
менеджер
менеджери
менеджмент
менен
мененки
мени
менимче
менин
менингит
менструация
менчиги
менчигинде
менчигине
менчигинин
менчик
менчикке
менчикти
менчиктин
меньшевиктер
меня
мер
мергель
мерген
мергенчи
мергенчилик
мерден
мерзебург
меридиан
мерке
меркурии
мерримак
мерт
мерчемдүү
месопотамия
место
мета
метал
металл
металлга
металлдан
металлдар
металлдарга
металлдардан
металлдарды
металлдардын
металлдары
металлды
металлдык
металлдын
металлогениялык
металлургия
металлургияда
металлургиялык
метаморфизм
метаморфизмделген
метан
метасоматоз
метафизика
метафизикалык
метеор
метеорит
метеорология
метеорологиялык
метил
метод
методдор
методдорду
методдордун
методдору
методдорун
методдорунун
методду
методдун
методика
методикалык
методикасы
методикасын
методист
методические
методическое
методология
методологиялык
методу
методун
методунун
методы
метр
метраждуу
метрге
метрдеи
метрден
метрди
метрдик
метро
метров
метрополитен
метросу
метросунун
мех
механизатор
механизм
механизмдер
механизмдерди
механизмдердин
механизмдери
механизмдерин
механизмдин
механизми
механизмин
механик
механика
механикада
механикалаштыруу
механикалаштырылган
механикалык
механиканын
механикасы
механикасында
механикасынын
мехико
мехмет
мечетлин
мечит
мечити
мечитинин
мечиттер
мечиттин
меш
меши
мешхед
меңдибаи
ми
мианын
миграция
миграциясы
мид
миддлсекс
мидил
мидия
мидлсекс
миздүү
мизи
мизин
микро
микроб
микробдор
микробдордун
микробиология
микроорганизмдер
микроорганизмдердин
микроскоп
микроскоптук
микстеи
милан
милдет
милдети
милдетин
милдетине
милдеттенген
милдеттенет
милдеттенме
милдеттенмелер
милдеттенмелерди
милдеттенмелери
милдеттенмелерин
милдеттенмеси
милдеттер
милдеттерди
милдеттердин
милдеттери
милдеттерин
милдеттерине
милдеттеринин
милдетти
милдеттүү
милиции
милиционер
милиция
милициянын
милициясынын
миллер
миллиард
миллиарддан
миллион
миллионго
миллиондогон
миллиондон
милте
миль
мильтенберг
мин
мина
минген
мингизип
минден
минерал
минералдар
минералдардан
минералдардын
минералдары
минералдашкан
минералдашуусу
минералдуу
минералдык
минералогия
минералы
мини
миниатюра
минималдуу
минимум
минип
министирлиги
министирлигинин
министр
министрдин
министри
министринин
министрлер
министрлери
министрлеринин
министрлиги
министрлигинде
министрлигине
министрлигинин
министрлик
миннесота
миноме
минск
минтип
минуса
минусин
минусинск
минусинскои
минута
минутада
минутадан
миокарддын
мир
мира
мире
мирза
мирлан
мис
мисал
мисалга
мисалдар
мисалдарды
мисалдары
мисалы
мисалында
мисир
мисирдин
мисс
миссисипи
миссия
миссиясы
миссури
мисте
мистер
мистикалык
мите
мителер
мителик
митинг
митингчилер
митчелл
миф
мифология
мифологиялык
мифологиясы
мифологиясында
мифтаков
мифтер
мифтик
михаи
михаил
михель
мицелии
мичиган
мичурин
мишель
мишкин
миякин
миң
миңге
миңдеген
миңдеи
миңден
миңжылдыктын
миңи
мка
мкг
мкм
мл
млн
млнго
млндои
млндон
млрд
мм
мма
ммге
ммдеи
ммден
ммк
мн
мне
мо
мобилдик
могильника
могол
моголдор
моголдордун
моголстан
моголстандын
могут
мода
моделдер
моделдери
моделдерин
моделдештирүү
моделдөө
модели
моделин
моделинин
модель
модерн
модернизациялоо
модификациясы
модулу
модэ
может
можете
можно
мозаика
мозамбик
мои
мок
мокеев
мол
молдаван
молдавия
молдо
молдобаев
молдобасан
молдобасанов
молдова
молдогазиев
молдокасымов
молдонун
молдугу
молекула
молекулалар
молекулалардын
молекулалары
молекулаларынын
молекулалуу
молекулалык
молекуланын
молекуласы
молекуласынын
молекулярдык
молибден
моллюскалар
моллюскалардын
молодая
молодин
моль
мом
момент
моменти
моментинин
моменттеринин
момокон
момун
момундар
момундарга
мон
монако
монарх
монархия
монархиялык
монастыры
монгол
монголдор
монголдордун
монголии
монголия
монголияда
монголиядагы
монголиянын
монд
монета
мониторинг
монмут
моно
монография
монографиялар
монографиялары
монографиялык
монографиянын
монографиясы
моноклин
монолог
монополиялык
монотиптүү
монреаль
монро
монтаж
монтана
монтгомери
монумент
монументалдык
монументтик
мончо
мончок
мончонун
моос
мор
моралдык
мораль
морган
море
морена
мореналар
морис
морозково
моррис
морт
морфол
морфология
морфологиялык
морфологиясы
моря
москва
москвага
москвада
москвадагы
москвадан
москвалык
москваны
москванын
мотив
мотивдер
мотивдердин
мотивдери
мотиви
мотоаткычтар
мотор
мотоцикл
мохаммад
мохаммед
моцарт
мочевина
мочу
моюн
моюнга
моюндун
моюну
моюнуна
моя
моңгол
моңголдор
моңголдордун
моңголия
моңголияда
моңголиянын
моңголчо
моңолдор
мп
мпа
мрамор
мраморлошкон
мрас
мс
мт
мтс
му
мугалим
мугалимге
мугалимдер
мугалимдерге
мугалимдерди
мугалимдердин
мугалимдери
мугалимдеринин
мугалимдик
мугалимдин
мугалими
муз
муздаи
муздак
муздап
муздар
муздаткыч
муздаткычта
муздатуу
муздун
музеи
музоо
музыка
музыкага
музыкада
музыкалуу
музыкалык
музыкант
музыканттар
музыканттардын
музыканы
музыканын
музыкасы
музыкасын
музыкасына
музыкасында
музыкасынын
муи
мукаи
мукам
мукамбаев
мукамбет
мукаш
муктаж
муктаждыгы
муктаждыгын
муктаждык
муктаждыктары
муктаждыктарын
мултимедиа
мулчак
мультфильм
мумбаи
мумкун
мун
мунаи
мунапыс
мунара
мунаралар
мунаралуу
мунаранын
мунарасы
мунгуш
мундуз
муниципалдык
муниципалитет
муниципалитеттин
муну
мунун
мур
мураками
мурас
мураска
мураскери
мураскор
мураскору
мурастар
мурастарды
мурастары
мурастарын
мурастоо
мурастын
мурасы
мурасын
мурат
муратаалы
мураталиев
мураталы
муратбек
муратов
мургаб
мурда
мурдагы
мурдагыдаи
мурдакы
мурдараак
мурдатан
мурду
мурдун
мурдунан
мурун
мурунга
мурундан
мурундун
мурунку
мурунтан
мурут
муруту
муса
мусага
мусаев
мусакожоев
мусакожоева
муслим
мусоргскии
муссон
муссондук
мустафа
мусулман
мусулмандар
мусулмандарга
мусулмандарды
мусулмандардын
мусулмандык
мусулманкул
мусулманкуловдун
мутация
муун
муунак
муунактуу
муунга
муунда
муундагы
муундан
муундар
муундарга
муундарда
муундарды
муундардын
муундары
муунду
муундун
муундуу
мууну
муфтии
мухаммад
мухаммед
мухаммеддин
мухтар
мушкер
мушкетов
мушриктер
мушташ
муңаи
муңгуш
муңдуу
мы
мыгы
мыи
мык
мыкаачылык
мыкты
мыктысы
мыл
мылга
мылда
мылдабаи
мылдаган
мылдагы
мылдаи
мылдан
мылдап
мылдар
мылдарга
мылдарды
мылдардын
мылдары
мылдаткыч
мылдаткычтар
мылдаткычтын
мылдаткычы
мылдаткычынын
мылдоо
мылдоочу
мылдуу
мылды
мылдын
мылсыз
мылтык
мылтыктын
мылы
мылын
мылына
мылынан
мылында
мылынын
мын
мына
мында
мындагы
мындаи
мындан
мынча
мынчалык
мыр
мырза
мырзабек
мырзанын
мыскал
мысли
мышык
мышьяк
мьянма
мэдисон
мэи
мэн
мэр
мэри
мэриленд
мэриясынын
мэтт
мээ
мээге
мээде
мээдеги
мээлеи
мээни
мээнин
мээрим
мээримдүү
мээси
мюзикл
мюллер
мюльдорф
мюнстер
мюнхен
мүдүрү
мүдөөсүн
мүи
мүлк
мүлккө
мүлктү
мүлктүк
мүлктүн
мүлктөрдү
мүлкү
мүлкүн
мүлкүнө
мүмкүн
мүмкүндүгү
мүмкүндүгүн
мүмкүндүк
мүмкүнчүлүгү
мүмкүнчүлүгүн
мүмкүнчүлүгүнүн
мүмкүнчүлүгүнө
мүмкүнчүлүгүнөн
мүмкүнчүлүк
мүмкүнчүлүктөр
мүмкүнчүлүктөргө
мүмкүнчүлүктөрдү
мүмкүнчүлүктөрү
мүмкүнчүлүктөрүн
мүмкүнчүлүктөрүнө
мүн
мүнөз
мүнөзгө
мүнөздүү
мүнөздө
мүнөздөгү
мүнөздөгөн
мүнөздөи
мүнөздөлгөн
мүнөздөлүүчү
мүнөздөлөт
мүнөздөмө
мүнөздөмөлөрү
мүнөздөмөлөрүн
мүнөздөмөсү
мүнөздөп
мүнөздөрү
мүнөздөө
мүнөздөөчү
мүнөзү
мүнөзүн
мүнөзүндө
мүнөзүндөгү
мүнөзүнүн
мүнөзүнө
мүнөт
мүнөткө
мүнөттөн
мүрзө
мүрзөдөн
мүрзөлөр
мүриц
мүчө
мүчөлүгүнө
мүчөлүк
мүчөлүккө
мүчөлүү
мүчөлөр
мүчөлөрдүн
мүчөлөрү
мүчөлөрүн
мүчөлөрүнүн
мүчөлөрүнө
мүчөнүн
мүчөсү
мүчөсүн
мүчөсүнүн
мүчөсүнө
мүчөсүнөн
мө
мөк
мөмө
мөмөлүү
мөмөлөи
мөмөлөрү
мөмөсү
мөмөсүндө
мөмөсүнүн
мөндүр
мөнкул
мөңгү
мөңгүдөн
мөңгүлүү
мөңгүлөр
мөңгүлөрдүн
мөңгүлөрдөн
мөңгүлөрү
мөңгүнүн
мөңгүсү
мөңгүсүнүн
мөөнөт
мөөнөткө
мөөнөттүн
мөөнөттүү
мөөнөттө
мөөнөттөгү
мөөнөтү
мөөнөтүн
мөөнөтүнүн
мөөнөтүнө
мөөнөтүнөн
мөөр
мөөрү
н
на
наалы
наам
наама
наамга
наамдар
наамдары
наамдарын
наамдарына
наамды
наамы
наамын
наамына
наамынын
наар
нааразы
нааразылыгын
нааразылык
нааразычылык
набыт
навигация
навигациялык
навои
наган
нагима
нагы
нагыз
нагын
нагына
нагында
нагынын
нагүл
над
надежда
надир
надыр
назар
назаралиев
назарбаев
назаров
назарова
название
названия
назик
назира
назым
наи
нак
накка
накта
накталаи
нактардын
нактары
нактарында
нактарынын
накты
нактын
накыл
налат
налган
налы
налып
нам
намаз
намазга
намазды
намазын
наманган
наме
намибия
намыс
намысын
намысына
нан
нанаи
нанкин
нап
наполеон
например
нар
нарбото
наристе
наристенин
нарк
наркоз
нарктуу
наркы
наркын
наркына
наркынын
нармаматова
народ
народа
народного
народов
народы
наруто
нары
нарын
нарынбаева
нарынга
нарында
нарындагы
нарындын
нас
насаат
насаатчы
населе
населения
насип
насир
насирдин
наследие
наследия
насос
наср
настоящее
насыи
насыр
насыя
насыят
нат
наталья
натат
натма
нато
натонун
натрии
натуралаи
натуралдык
натуу
натыи
натылат
натылган
натып
наук
наука
науке
науки
науч
научная
научно
научнои
научные
научныи
научных
нахичеван
находки
национального
национальнои
национальныи
нацисттик
начала
начале
начало
начальниги
начальнигинин
начальник
начальниктин
начар
начарлаган
начарлаганда
начарлаи
начарлап
начарлатат
начарлашы
нашатырь
наших
ная
нбург
нге
нд
нда
ндагы
нде
ндер
ндери
ндин
ндын
не
неаполь
небере
неберелери
небереси
небраска
невада
невскии
неге
негиз
негизге
негизги
негизгилери
негизгиси
негизде
негиздеген
негиздеги
негиздеи
негизделген
негизделет
негизделип
негизденген
негизденет
негиздеп
негиздер
негиздери
негиздерин
негиздеринин
негиздешкен
негиздик
негиздүү
негиздөө
негиздөөгө
негиздөөчү
негиздөөчүлөрдүн
негиздөөчүлөрү
негиздөөчүлөрүнүн
негиздөөчүсү
негизи
негизин
негизинде
негизиндеги
негизине
негизинен
негизинин
негизсиз
негр
негрлер
неи
нек
неккар
некоторые
некоторых
нектеи
нектен
некти
нектин
нельсон
нем
неман
неме
немец
немецтик
немецче
немис
немистер
немистердин
немисче
немцов
нен
ненец
ненецк
нео
неоген
неогендин
неолит
неон
неп
непал
нептун
нер
нерв
нервдер
нервдери
нервдин
нерви
нерсе
нерсеге
нерседе
нерседен
нерселер
нерселерге
нерселерде
нерселерден
нерселерди
нерселердин
нерселерин
нерсени
нерсенин
нерсеси
нескара
несколько
несториан
нет
нефелиндүү
нефрит
нефтини
нефтинин
нефть
нече
нечен
ни
нивалдык
нигер
нигерия
нигериянын
нидерланд
нидерланддар
ниет
ниети
нижегород
нижнии
низами
низаминин
нии
ник
никарагуа
нике
никеге
никеде
никель
никени
никенин
никола
николаев
николаевич
николаевна
николаи
николас
николь
никотин
нил
нилдин
нин
нина
нинген
нинде
ниндеги
нине
нинин
ниобии
ниро
них
ница
ницше
ничке
ния
нияз
ниязбек
ниязов
нк
нка
нланд
нм
нныи
но
нобел
нобель
нов
новая
новгород
новелла
новеллалар
нович
нового
новое
новои
новокузнецк
новороссии
новосибирск
новые
новыи
ного
ногои
ногон
ноду
нозои
нои
нок
нолгон
нолот
нолуучу
номер
номери
номерин
номиналдык
номинация
номинациялары
номинацияларына
номинациясы
номинациясын
номинациясына
номинациясында
номинациясынын
номуру
ноо
ноого
ноодо
ноокат
ноокен
ноону
нооруз
нооту
ноочу
ноочулук
ноп
нор
норберт
норвег
норвегия
норвегияда
норвегиялык
норвегиянын
нордхаузен
норма
нормага
нормадан
нормалар
нормалардын
нормалары
нормаларын
нормалдуу
нормасы
нормативдик
норс
норфолк
нос
носо
нота
нотага
нотариалдык
нотуп
ноу
ночь
ношкон
ношот
ноябрга
ноябрда
ноябрдан
ноябрдын
ноябры
ноябрына
ноябрынан
ноябрында
ноябрь
ноябрьда
ноября
нравалык
нрих
нс
нт
ну
нугу
нугунда
нужно
нук
нукка
нуклеин
нукта
нукура
нукус
нун
нуна
нунда
нундагы
нур
нура
нурак
нурбек
нурга
нургүл
нурдин
нурду
нурдун
нуржан
нуриман
нурлан
нурлануу
нурланууну
нурлануунун
нурлануусу
нурлануусунун
нурлар
нурларды
нурлардын
нурлары
нурларын
нурларынын
нурмолдо
нурсултан
нуру
нуруддин
нурун
нурунан
нурунун
нуска
нускада
нускалары
нускалуу
нусканы
нускасы
нускасын
нуу
нух
нфурт
нхард
нхольд
нц
нштеи
нштрассе
нщнде
ны
ные
ныи
нык
ным
нымдуу
нымдуулугу
нымдуулук
нымды
нымдын
нын
ных
нью
ньютон
ньютондун
ньюфаундленд
нюрнберг
нязепетровск
нү
нүзүп
нүн
нө
нөгө
нөдө
нөдөгү
нөдөн
нөк
нөл
нөлгө
нөлдүк
нөлдөн
нөлүк
нөнү
нөнүн
нөсү
нөсүн
нөсүндө
нөсүндөгү
нөсүнүн
нөсүнө
нөшөр
о
оахим
об
обама
обзор
обкомдун
обкомунда
обкомунун
обл
областеи
области
областтары
областтык
областы
областык
областын
областына
областында
областындагы
областынын
область
облаткомдун
облигация
облус
облуска
облуста
облустар
облустары
облустарында
облустарынын
облусттук
облустук
облустун
облусу
облусужер
облусун
облусуна
облусунда
облусундагы
облусунун
облысы
обо
обого
обозрение
оболу
обон
обондор
обондорду
обондору
обондуу
обону
обончу
обончулар
обончулары
обочо
обочолонгон
обочолонуп
обочолонуу
образ
образдар
образдарды
образдардын
образдары
образдарын
образдуу
образды
образдык
образдын
образование
образования
образы
образын
образына
образында
образынын
обсерватория
обсерваториясы
обсуждения
обучения
обществ
общества
общество
община
общиналык
объект
объекти
объективдүү
объектиге
объектилер
объектилерди
объектилердин
объектилери
объектилерин
объектилеринин
объектини
объектинин
объектиси
объектисине
объектисинин
объектов
объекттер
объекттерди
объекттердин
объекттин
объем
обь
обьективдүү
ова
огаи
ого
огу
огуз
огуздар
огуздардын
огуна
огунда
огунун
од
ода
оддун
оденвальд
одесса
один
однои
одо
одоно
ое
ождері
ожукеева
оз
озгочо
озеф
озон
озу
озун
озунун
озуп
ои
ок
ока
окато
океан
океанга
океанда
океандагы
океандар
океандык
океандын
океания
океаны
океанына
океанында
океанындагы
океанынын
океев
окистендиргич
окистендирүүдөн
окистенет
окистенип
окистенүү
окко
оккупацияланган
оклахома
окмоту
округ
округга
округдук
округдун
округу
округуна
округунда
округунун
округунің
оксиддер
оксиддери
оксиди
оксидин
оксфорд
окт
октору
окту
октун
октуу
октябрга
октябрда
октябрдагы
октябрдан
октябрдын
октябры
октябрына
октябрынан
октябрында
октябрындагы
октябрь
октябрьда
октября
оку
окуган
окуганда
окуи
окулат
окулган
окулуп
окумуштуу
окумуштуулар
окумуштууларга
окумуштуулардын
окумуштуулары
окумуштуулук
окумуштуунун
окумуштуусу
окуп
окурман
окурмандар
окурмандарга
окурмандарды
окурмандардын
окутат
окуткан
окутулат
окутулган
окутуп
окутуу
окутууга
окутууда
окутууну
окутуунун
окутуучу
окутуучулар
окутуучулары
окутуучулук
окутуучусу
окуу
окууга
окууда
окуудан
окууну
окуунун
окуусу
окуусун
окуусуна
окуусунда
окуусунун
окуучу
окуучуга
окуучулар
окуучуларга
окуучуларды
окуучулардын
окуучулары
окуучуларын
окуучуларына
окуучуларынын
окуучунун
окуучусу
окушат
окуя
окуяга
окуяда
окуядан
окуялар
окуяларга
окуяларда
окуялардан
окуяларды
окуялардын
окуялары
окуяларын
окуяларына
окуяларынын
окуялуу
окуяны
окуянын
окуясы
окуясын
окуясына
окуясынан
окуясында
окуясынын
окшобогон
окшобои
окшогон
окшои
окшоп
окшош
окшошот
окшоштугу
окшоштук
окшоштуктар
окшоштуктары
окшоштуруп
окшошуп
ол
ола
олег
олжо
олжобаи
олжого
олжолоп
оливер
олимп
олимпиада
олимпиадага
олимпиадалык
олимпия
олимпиялык
олтурат
олтурган
олтуруп
олтурушат
олуттуу
олуя
ольга
ом
оман
омар
омеи
омор
оморов
омск
омурбеков
омуртка
омурткалуу
омурткалуулардын
омуртканын
омурткасыз
омурткасыздар
омурткасыздардын
омь
он
она
онго
ондо
ондогон
ондогу
ондон
ондор
ондорго
ондордо
ондордун
ондору
ондорун
ондоруна
ондорунда
ондорунун
ондоштуруу
ондук
ондун
онегин
они
оникс
онкология
онлаи
онов
онор
онтарио
онтологиялык
ону
онун
онуна
онунан
онунда
онундагы
онунун
онунундагы
онунчу
оо
ооба
ооган
ооганстан
ооганстанда
ооганстандын
оогон
оодан
ооданы
оодарып
оодарыш
ооз
оозго
ооздон
оозду
ооздун
оозеки
оозу
оозун
оозуна
оозунан
оозунда
оокат
оокаттуу
оолак
оона
ооп
оор
оордук
оордуна
оору
ооруга
ооруган
ооруганда
ооругандар
оорудан
ооруи
оорукана
ооруканага
ооруканада
ооруканадан
оорукананын
ооруканасында
ооруканасынын
оорулар
ооруларга
ооруларда
оорулардан
ооруларды
оорулардын
оорулары
ооруларын
ооруларына
ооруларынан
ооруларында
ооруларынын
оорулуу
оорулууга
оорулуулар
оорулууларды
оорулуулардын
оорулууну
оорулуунун
ооруну
оорунун
ооруп
ооруса
оорусу
оорусун
оорусуна
оорусунан
оорусунда
оорусунун
ооруу
оорушу
оп
опера
опералары
опералык
операнын
операсы
операсын
операсынан
операсында
операсынын
оперативдик
оперативдүү
оператор
оператордук
операторлор
оператору
операциондук
операция
операциядан
операциялар
операцияларды
операциялары
операцияларын
операциялык
операцияны
операциянын
операциясы
операциясын
описание
оппозиция
оппозициялык
оппозициянын
оппозициячыл
оптика
оптикалык
оптиканын
оптималдуу
оптимисттик
опурталдуу
опыт
ор
оратор
орбита
орбиталык
орбитасынын
орг
орган
органга
органдар
органдарга
органдарда
органдарды
органдардын
органдары
органдарын
органдарына
органдарынан
органдарында
органдарындагы
органдарынын
органды
органдын
организации
организация
организм
организма
организмге
организмде
организмдеги
организмден
организмдер
организмдерге
организмдерде
организмдерди
организмдердин
организмди
организмдин
организми
организминде
организминдеги
организмине
организминин
органикалык
органы
органына
органынын
орго
оргочор
орден
ордендер
ордендери
ордендүү
ордени
орденин
орденинин
ординатор
ордо
ордовик
ордовиктин
ордого
ордодо
ордодогу
ордонун
ордосу
ордосун
ордосуна
ордосунда
орду
ордун
ордуна
ордунан
ордунда
оре
орегон
орел
оренбург
оригиналдуу
орк
оркестр
оркестрде
оркестрдин
оркестри
оркестринде
оркестринин
оркко
оркто
орктогу
орктун
орла
орлов
орловка
ормон
орногон
орногондон
орноп
орноткон
орнотулат
орнотулган
орнотулуп
орнотуп
орнотуу
орнотууга
орношкон
орношот
орношу
орношуна
орношуп
оро
орографиялык
орозалиев
орозбак
орозбаков
орозбаковдун
орозбек
орозбеков
орозо
орозов
орои
орок
оролгон
оролуп
ороп
орск
орт
орто
ортого
ортодо
ортодогу
ортодон
орток
ортолорунда
ортолук
ортомчу
ортомчулук
ортонку
ортопедиялык
ортосу
ортосун
ортосуна
ортосунан
ортосунда
ортосундагы
орточо
ортоңку
ору
орузбаев
орузбаева
орун
орунбасары
орунга
орунда
орундан
орундар
орундарга
орундарды
орундардын
орундары
орундарын
орунду
орундуу
оруну
оруп
орус
орусия
орусияга
орусияда
орусиядагы
орусиялык
орусиянын
орустар
орустарга
орустардын
орустун
орусча
орусчага
орфография
орфографиялык
орхон
орчун
орчундуу
ос
оскар
оскардын
осло
осман
осмон
осмонаалы
осмоналиев
осмонкул
осмонов
осмоновдун
осмос
оснабрюк
основе
основные
основы
особдор
особдордун
особенности
осоо
оссфр
ост
остин
островскии
осуз
осуят
от
отан
отв
ответственныи
отд
отелло
отко
откон
отличниги
отношении
ото
отоо
оторбаев
отряд
отряддары
отряддын
отряды
отставкага
отто
оттон
отту
оттук
оттун
оттуу
оту
отуз
отун
отунбаева
отунбаеванын
отундар
отунду
отундун
отуну
отура
отурат
отурган
отургузулган
отургузуп
отургузуу
отурукташа
отурукташкан
отурукташуу
отурукташып
отуруп
отуруу
отурушуп
отче
отчет
оушен
оуэн
оф
офицер
офицердик
офицери
офицерлер
официалдуу
официальныи
офф
охан
оханнес
охен
охота
охраны
очерк
очерки
очерктер
очерктери
очогу
очок
очу
ош
оша
ошгу
ошентип
ошентсе
ошкар
ошко
ошму
ошмуда
ошмунун
ошо
ошого
ошол
ошолор
ошолордун
ошон
ошондо
ошондои
ошондон
ошондуктан
ошону
ошонун
ошончо
ошончолук
ошто
оштогу
оштун
ою
оюк
оюлган
оюлуп
оюм
оюмга
оюмдан
оюмдар
оюмдарды
оюмдары
оюмдарын
оюмдарынын
оюмду
оюмдун
оюму
оюмун
оюмунан
оюмунун
оюн
оюна
оюнга
оюнда
оюндан
оюндар
оюндарга
оюндарда
оюндарды
оюндардын
оюндары
оюндарын
оюндарына
оюндарында
оюндарынын
оюнду
оюндун
оюну
оюнун
оюнуна
оюнунда
оюнунун
оюнча
оюнчу
оюнчуга
оюнчук
оюнчуктар
оюнчулар
оюнчуларга
оюнчуларды
оюнчулардын
оюнчулары
оюнчуну
оюнчунун
оюнчусу
оюп
оюу
оң
оңго
оңд
оңдолгон
оңдолуп
оңдон
оңдоо
оңдоого
оңдоочу
оңдоп
оңои
оңтои
оңунан
оңчул
п
па
павел
павлов
павлович
павловск
павлодар
падан
падишах
падыша
падышага
падышалар
падышалардын
падышалары
падышалыгы
падышалыгын
падышалыгынын
падышалык
падышалыктын
падышанын
падышасы
падышасынын
падышачылыгы
падышачылыгынын
падышачылык
паи
пак
пакети
пакистан
пакистанда
пакистандагы
пакистандын
палата
палаталуу
палатасы
палатасынын
палеоген
палеогендин
палеозои
палеолит
палестина
палестинаны
пало
пальма
пальмасы
памир
памирде
памяти
памятник
памятники
памятников
пан
панама
панда
пандемия
пандемиясы
панфилов
панын
пап
папа
папан
папасы
папоротниктер
папуа
пара
парагваи
парад
параллелге
параллелдери
параллели
параллель
параметр
параметра
параметре
параметрлер
параметрлери
параметрлерин
параметров
параметром
параметры
парвиз
парвин
парз
париж
парижге
парижде
париждеги
парк
паркер
парктар
парктары
паркы
парламент
парламенти
парламентинин
парламентке
парламентте
парламенттер
парламентти
парламенттик
парламенттин
пароход
парт
партизан
партизандык
партии
партия
партияга
партиядан
партиялар
партияларды
партиялардын
партиялары
партияларында
партияларынын
партиялуу
партиялык
партияны
партиянын
партиясы
партиясын
партиясына
партиясынан
партиясында
партиясынын
парфюмерия
пархим
парциалдык
пас
паскаль
паспорт
пассат
пассаттык
пассау
пассивдүү
паста
пастер
пасы
пасынын
патент
патенттик
патенттин
патология
патологиялык
патриархалдык
патрик
патриот
патриоттук
пауль
пахта
пахтанын
пахтачы
пахтачылык
паша
пвап
пвпвап
пе
пегматит
пед
педагог
педагогдор
педагогдук
педагогика
педагогикалык
педагогиканын
педагогикасы
педиатр
педиатрия
пеи
пекин
пекинде
пектин
пелым
пенде
пенза
пенобскот
пенсия
пенсияга
пер
первая
первого
первои
первом
первомаи
первыи
перевод
перед
пери
период
периште
периштелер
периштелерге
пермдин
пермь
перпендикуляр
перс
перси
персия
персоналдык
перспективы
перстер
перу
песни
песня
петер
петербург
петербургга
петербургда
петербургдагы
петр
петра
петров
петрович
петроград
пехлеви
печора
печорск
пи
пианист
пиво
пигмент
пидин
пикир
пикирге
пикирди
пикирдин
пикири
пикирин
пикиринде
пикирине
пикирлер
пикирлерге
пикирлерди
пикирлердин
пикирлери
пикирлерин
пикирлерине
пил
пин
пионер
пионери
пир
пирамида
пиренеи
пири
пирит
пиррол
пирс
писатель
письменности
питер
питт
пишпек
пишпекте
пишпектеги
пияз
плазма
плазманын
плакат
план
планга
планда
пландагы
пландалган
пландары
пландарын
пландаштыруу
пландаштырылган
пландоо
пландуу
планды
планета
планеталар
планеталардын
планетанын
планетарии
планетасы
планетасынын
планк
планы
планын
планына
планынын
пластик
пластикалык
пластинка
пластмасса
пластмассадан
платина
плато
платолор
платон
платондун
платосу
платт
платформа
платформалар
платформалык
платформанын
платформасы
платформасында
платформасынын
пле
плеи
племен
плита
плиталар
плотина
плутонии
плэи
плюс
плөн
пневматикалык
пневмония
по
победа
повести
повестин
повестинде
повестинин
повесттер
повесттери
повесть
под
подполковник
поезд
пожалуи
позитивдүү
позиция
позицияда
позициялык
позицияны
позициясы
позициясын
позициясына
позициясында
пои
поиск
покровка
покровская
пол
поле
полиграфия
полиграфиялык
поликлиника
полимер
полимерлер
полиметалл
полисахариддер
политехника
политехникалык
политика
политическая
политическои
политология
полиция
полициялык
полициянын
полиэтилен
полк
полковниги
полковник
полктун
полку
полкунда
полкунун
поло
половине
половникова
полот
полтава
поль
польша
польшага
польшада
польшалык
польшанын
поляк
поляризациясы
померания
помидор
помощью
помпеи
поо
поп
попечителеи
попов
популярдуу
популярдуулугу
популярдуулукка
популяция
популяциялардын
популяциялары
популяциянын
популяциясы
популяциясынын
порода
породалары
породасы
порт
портал
порталы
портко
портрет
портрети
портреттери
портреттик
порттору
порту
португал
португалдар
португалия
португалиялык
португалиянын
портуна
порфир
порфирит
поршендүү
посвящ
посвященнои
посе
поселков
после
последнии
пособие
пост
постко
постсоветтик
посттун
постуна
потапов
потенциал
потенциалдуу
потенциалдык
потенциалы
потенциалын
поттер
почему
почта
почталык
поэзия
поэзияга
поэзияда
поэзиянын
поэзиясы
поэзиясына
поэзиясында
поэзиясындагы
поэзиясынын
поэма
поэмалар
поэмалардын
поэмалары
поэманын
поэмасы
поэмасын
поэмасында
поэмасынын
поэмы
поэт
поэтика
поэтикалык
ппинген
права
правда
правдасы
православие
православныи
прага
прагада
прадеш
праи
практ
практика
практикага
практикада
практикалык
практиканы
практиканын
практикасы
практикасында
практическои
пред
предисловие
предмет
предмети
предметин
предметке
предметтер
предметтерди
предметтердин
предметти
предметтик
предметтин
председатели
председателинин
президент
президента
президенти
президентине
президентинин
президентке
президенттер
президенттери
президентти
президенттигине
президенттик
президенттикке
президенттин
президиума
президиуму
президиумунун
премиум
премия
премиясы
премьер
премьерасы
препараттары
преподавания
пресс
пржевальск
пржевальскии
при
прибор
прибордун
приборлор
приборлорду
приборлордун
приборлору
призма
прикладдык
прима
пример
примеры
приморье
принстон
принт
принтер
принц
принциби
принцибин
принцибинде
принцибине
принцибинин
принцип
принципиалдуу
принципке
принциптер
принциптерге
принциптерди
принциптердин
принциптери
принциптерин
принциптерине
принциптеринин
принципти
про
проблема
проблемалар
проблемаларды
проблемалардын
проблемалары
проблемаларын
проблемаларына
проблеманы
проблемасы
проблемасын
проблемы
проваи
провинция
провинцияга
провинциялары
провинциянын
провинциясы
провинциясына
провинциясында
провинциясындагы
провинциясынын
прогноздоо
програм
програмдар
програмды
програмдык
программа
программага
программада
программаланган
программалар
программаларды
программалардын
программалары
программаларын
программаларына
программаларынын
программалоо
программалуу
программалык
программаны
программанын
программасы
программасын
программасына
программасында
программасынын
программдык
программист
прогресс
прогрессивдүү
прогресстин
прогрессчил
продукт
продуктулар
продуктуларды
продуктулары
продуктуларын
продуктуларынын
продуктусу
продукция
продукцияларды
продукциялары
продукцияларын
продукцияны
продукциянын
продукциясы
продукциясын
продукциясынын
продюсер
продюсери
продюсерлер
продюсерлери
продюсерлик
проект
проекциялык
проза
прозаик
прозалык
прозасы
происхождение
происхождения
прокат
прокофьев
прокси
прокуратура
прокуратуранын
прокуратурасында
прокуратурасынын
прокурор
прокурордук
прокурордун
прокурору
прокурорунун
пролетардык
пролетариат
пролетариаттын
пролювии
прометеи
промыселдик
пропаганда
пропагандалоо
пропагандалык
пропорциялаш
проректор
проректору
просвещение
проспект
простата
протеин
протектораты
протерозои
протестант
протестанттар
против
протокол
протоколу
протон
прототиби
проф
профессионал
профессионалдуу
профессионалдык
профессионального
профессор
профессордук
профессорлор
профессору
профилактика
профилактикалык
профили
профиль
профсоюз
профсоюздар
профсоюздардын
профсоюздук
процедуралар
процент
проценттик
процесс
процесса
процессе
процесси
процессин
процессинде
процессиндеги
процессине
процессинен
процессинин
процесске
процессор
процессте
процесстер
процесстерге
процесстерде
процесстерден
процесстерди
процесстердин
процесстери
процесстерин
процесстеринде
процесстерине
процесстеринин
процессти
процесстик
процесстин
процессы
прошлое
прощаи
пруссия
пруссиянын
прүм
псевдоним
психиатр
психикалык
психиканын
психолог
психология
психологияда
психологиялык
психологиянын
психологиясы
психотроптук
пскем
псков
птолемеи
публицист
публицистика
публицистикалык
публицисттер
пудовкин
пул
пулеме
пулитцер
пункт
пункттары
пункту
пути
путин
путь
пушкин
пушкиндин
пуэрто
пфальц
пциг
пышма
пьер
пьеса
пьесалар
пьесаларды
пьесалары
пьесаларын
пьесанын
пьесасы
пьесасында
р
ра
рабат
работы
равенсбург
рага
раган
рагы
рада
радан
радиация
радиациялык
радии
радикал
радикалдуу
радикалдык
радио
радиоактивдүү
радиология
радионун
радиостанция
радиосу
радиосунда
радиосунун
радиотехникада
радиотехникалык
радиоуктуруу
радиоэлектроника
радиус
радиусу
радлов
радон
радуга
раев
развитие
развитии
развития
раззаков
рази
разных
разряд
разряддуу
разряды
раи
рак
ракета
ракеталар
ракеталык
рактын
ралык
ральф
рам
рамазан
рамдар
рамдарда
рамдары
рамдык
рамы
ран
рандов
раннего
ранние
раны
ранын
рап
раса
расалык
расасы
расасына
раскопки
расмии
рассвет
рассел
рассказ
рассказы
расул
расы
расынын
рат
раткан
раткыч
раттуу
ратуу
ратуучу
ратуша
раты
ратылган
ратып
рауль
рафаэль
рахат
рахим
рахман
рахманкул
рахмат
рахмон
рахмонберди
рахмонов
рационалдуу
рационалдык
раш
рашид
рашы
рдук
рдун
ре
реагенттер
реактивдүү
реактор
реакция
реакцияга
реакциялар
реакцияларды
реакциялардын
реакциялары
реакцияны
реакциянын
реакциясы
реакциясын
реакциясына
реакциясынан
реакциясынын
реакциячыл
реал
реалдуу
реалдуулук
реалдык
реализм
реализмдин
реалии
реалист
реалисттик
реалияда
рев
революции
революционер
революция
революцияга
революциядан
революциялар
революциялык
революцияны
революциянын
революциясы
революциясына
революциясынан
революциясынын
революциячыл
регенсбург
регион
регионалдык
региондор
региондук
региондун
ред
редактор
редактордун
редакторлор
редакторлору
редакторлук
редактору
редакторунун
редакция
редакциялаган
редакциялык
редакциясы
редакциясында
редакциясынын
редколлегия
реестриндеги
реестринин
реж
режим
режимге
режимде
режимди
режимдин
режими
режимин
режиминде
режимине
режиминин
режиссе
режиссер
режиссердук
режиссердун
режиссерлор
режиссерлору
режиссерлук
режиссеру
реза
резерваты
резервдик
резерфорд
резиденциясы
резина
резонанс
резонанстык
резус
реи
рек
рекдактор
рекомендации
рекомендуется
реконструкция
реконструкциялоо
рекорд
рекорддор
рекорддук
рекреациялык
ректор
ректору
религии
реликт
рельеф
рельефи
рельефинде
рельефине
рельефинин
рельефтин
рельефтүү
реми
ремонттоо
рен
рендсбург
рене
ренессанс
рента
рентген
рентгендик
репертуарында
репин
репрессияга
репродуктивдик
репродуктивдүү
рес
респ
республик
республика
республикабыздын
республикага
республикада
республикадагы
республикалар
республикаларда
республикалардын
республикалары
республикаларынын
республикалык
республиканы
республиканын
республикасы
республикасыжер
республикасын
республикасына
республикасында
республикасындагы
республикасынын
республике
республики
ресторан
ресурс
ресурстар
ресурстарга
ресурстарды
ресурстардын
ресурстары
ресурстарын
ресурстарына
ресурстарынын
ресурсу
референдум
референдумда
референдумдун
референт
рефлекс
рефлекстер
реформа
реформалар
реформаларды
реформалардын
реформалоо
реформанын
реформасы
реформасын
рецензент
речтин
речь
ри
риваят
ривер
рига
рид
рижская
рик
рика
рико
рилген
рим
риман
римге
римде
римдеги
римдик
римдиктер
римдиктердин
римдин
рими
римскии
рио
рип
рис
рита
ритм
риторика
ритуал
ритуалдык
рифеи
рифтери
рихард
риц
ричард
рк
ркп
рлингтон
рлор
рлордун
рлору
рлук
рн
рнк
ро
роб
роберт
робертс
робин
робот
рогатыи
роговая
роговик
род
рождения
рождество
роза
розенхаи
рои
рок
роккингэм
роланд
ролго
ролдор
ролдордо
ролдорду
ролдордун
ролдору
ролдорун
ролду
ролу
ролун
ролуна
ролунда
роль
рольф
ром
рома
роман
романда
романдагы
романдар
романдарды
романдардын
романдары
романдарын
романдарында
романдарынын
романды
романдын
романс
романтизм
романтикалуу
романтикалык
романы
романын
романына
романында
романынын
ромб
ромео
рон
роо
роого
росс
россии
россия
россияга
россияда
россиядагы
россиядан
россиялык
россиянын
ростов
рот
рота
ротанын
ротенбург
роттор
роттордун
роулиң
рочестер
рр
рсдрп
рсдрпнин
рсфср
рсфсрдин
ру
руанда
рубин
рубль
ругу
ругун
ругуна
ругунун
руда
рудадагы
рудаки
рудакинин
рудалануу
рудалары
рудаларынын
рудалуу
руданын
рудасы
рудольф
рудольштадт
рузвельт
рук
руководство
руктан
руктар
руктарын
рукту
руктуу
руку
рум
румын
румыния
румыниянын
рун
руна
руникалык
руперт
рур
рус
руслан
русская
русскии
русско
русского
русскои
русском
руссо
рустам
русь
рут
руу
рух
рухании
руханият
рухии
рухтун
руху
ручук
рф
рфтин
рщлщшке
рщлщштщн
рщлщшчщле
ры
рыбинск
рыгат
рыгы
рык
рыктары
рыкча
рыла
рылат
рылган
рылганда
рылуу
рылууга
рылуусу
рылып
рылышат
рылышкан
рылышы
рым
рымдар
рымдары
рымдарын
рымдарында
рымдарынын
рымдуу
рымдуулук
рыногу
рыногунда
рыногунун
рынок
рынокко
рынокто
рыноктук
рыноктун
рынын
рып
рысбаев
рысбек
рыскул
рыскулов
рысменде
рысмендеевдин
рыспаи
рыцарь
рэи
рэп
рэпер
рязань
рү
рүү
рө
рөгө
рөдө
рөдөгү
рөдөн
рөк
рөктүн
рөлөрдө
рөлөрүндө
рөн
рөнгөн
рөнү
рөнүн
рөнүп
рөнүү
рөнүүгө
рөнүүдө
рөнүүнүн
рөнүүчүлөр
рөнө
рөнөт
рөп
рөсү
рөсүн
рөсүндө
рөсүндөгү
рөсүнүн
рөсүнө
рөсүнөн
рөткөн
рөтүлгөн
рөтүп
рөтүү
рөтүүгө
рөтүүнүн
рөтүүчү
рөтөт
с
са
саадак
саадат
саан
саанчы
саап
саар
саарбург
саат
саатка
саатта
сааттан
сааттык
сааттын
сааты
саатына
саба
сабагы
сабагын
сабагынан
сабагында
сабагынын
сабак
сабакка
сабакта
сабактан
сабактар
сабактарды
сабактардын
сабактары
сабактарын
сабактуу
сабакты
сабактын
сабап
сабатсыз
сабатсыздыгын
сабатсыздыкты
сабаттуу
сабаттуулугу
сабаттуулук
сабаты
сабатын
сабиз
сабир
сабира
сабы
сабында
сабынын
сабыр
сабырдуу
сабырдуулук
сав
саванна
сага
сагаи
сагымбаи
сагын
сагынбек
сагындык
сагыныч
сад
садага
садака
садыбакасов
садык
садыков
садыковдун
садыр
сажда
саз
сазан
сазановдун
саздак
саздар
саздуу
саи
саид
сак
сака
сакаи
сакал
сакалды
сакасы
сакасын
сакмара
саксония
сактаган
сактагыч
сактагычтар
сактагычы
сактаи
сакталат
сакталбаи
сакталган
сакталуу
сакталууда
сакталуучу
сакталып
сакталышы
сакталышын
сакталышына
сактануу
сактап
сактар
сактардын
сактоо
сактоого
сактоодо
сактоону
сактоонун
сактоочу
сактык
сакчы
сакчылары
сал
сала
салааларга
салам
саламат
саламаттыгын
саламаттыгына
саламаттык
саламаттыкты
салар
саласы
салат
салауат
салбаи
салган
салганда
салгандан
салганы
салгылаш
салгылашкан
салгылашта
салгылашуу
салгылашууда
салгылашуусу
салгылашы
салгылашында
салгылашып
салгыч
салды
салдырган
салдырып
салих
салкын
салливан
салм
салмагы
салмагын
салмагына
салмагынын
салмак
салмакта
салмактагы
салмактуу
салмактуулугун
салмактуулук
салмактуулукту
салмакты
салмактык
салса
салт
салтанат
салтанаттуу
салтанаты
салтка
салттар
салттарга
салттарды
салттардын
салттары
салттарын
салттарына
салттарынын
салттуу
салтты
салттык
салттын
салты
салтын
салтына
салтында
салтынын
салуу
салууга
салууда
салуудан
салууну
салуунун
салуусу
салуучу
салуучусу
салыгы
салык
салыктан
салыктар
салыктарды
салыкты
салыктын
салым
салымбеков
салымдары
салымдарын
салымы
салымын
салына
салынат
салынган
салынды
салынуучу
салынып
салынышы
салып
салыптыр
салышат
салышкан
салыштырганда
салыштырма
салыштырмалуу
салыштырмалуулук
салыштыруу
салыштырууга
салыштырылат
салыштырып
салышы
салышып
сальвадор
салют
саман
самани
самании
саманчин
саманчы
саманчынын
самара
самаркан
самарканд
самат
самбо
самодии
самои
самоле
самураи
самын
самындап
сан
санаасы
санаган
санаи
саналат
саналбаи
саналган
саналуу
саналып
саналышат
санап
санарип
санариптик
санат
санатории
санга
санда
сандаган
сандагы
сандар
сандарды
сандардын
сандары
сандуу
санды
сандык
сандын
санжар
санжыра
санжырада
санжыралык
санжырасы
санжырасын
санжырасында
санжырачы
санитардык
санитария
санитариялык
санкт
саноо
санскрит
сансыз
санта
санташ
сантиметр
сантьяго
саны
санын
санына
санынан
санында
санынын
сао
сап
сапар
сапаралиев
сапарбек
сапарга
сапарда
сапары
сапат
сапатка
сапатта
сапаттагы
сапаттар
сапаттарга
сапаттарды
сапаттардын
сапаттары
сапаттарын
сапаттуу
сапаттык
сапаты
сапатын
сапатына
сапатынын
сапка
сапсыз
саптан
саптар
саптары
саптарын
саптуу
саптын
сар
сара
сараи
сарала
сарамжалдуу
саратов
сарбагышев
саргыч
сариев
саринжи
сарлыкбеков
сарп
сарпталган
сарт
сартбаева
сарттар
саруу
сары
сарыбагыш
сарыбаев
сарыбаи
сарыг
сарыдан
сарыжаз
сарык
сарымсак
сарычелек
сасаниддер
сасык
сатар
сатат
сатира
сатиралар
сатиралык
саткан
саткын
сатук
сатурн
сатурндун
сатуу
сатууга
сатууда
сатуудан
сатууну
сатуунун
сатуучу
сатуучулар
сатыбалдиев
сатыбалды
сатык
сатыкка
сатылат
сатылган
сатылганов
сатылгановдун
сатылуучу
сатылып
сатып
сауд
саундтрек
саха
сахабалар
сахалин
сахара
сахаров
сахна
сахнага
сахнада
сахналык
сахнасында
саюу
сая
саяк
саякат
саякаттап
саякатчы
саякатчылар
саякатчысы
саякаты
саякбаи
саян
саяно
саясат
саясатка
саясатта
саясаттагы
саясаттан
саясатты
саясаттын
саясатчы
саясатчылар
саясатчылары
саясаты
саясатын
саясатына
саясатында
саясатынын
саясии
саясыи
саят
саң
сб
сбол
сборник
свердлов
света
светлана
свитасынын
свод
свое
свои
связи
сгау
сге
сгс
сде
сден
се
себастьян
себеби
себебин
себебине
себебинен
себеп
себепкер
себепсиз
себептен
себептер
себептерге
себептерден
себептерди
себептердин
себептери
себептерин
себептеринин
себептүү
себептүүлүк
себепчи
себет
себүү
севастополь
севернои
северо
севилья
сегиз
сегиздик
сегизинчи
сегодня
сежде
сезбеи
сезген
сезгенген
сезгенгенде
сезгенет
сезгенип
сезгениши
сезгенүү
сезгенүүгө
сезгенүүсү
сезгич
сезгичтиги
сезгичтик
сезе
сезет
сезилет
сезилип
сезим
сезимге
сезимде
сезимден
сезимдер
сезимдерди
сезимдери
сезимдерин
сезимди
сезимдик
сезимдин
сезимдүү
сезими
сезимин
сезиминде
сезимине
сезиминин
сезип
сезон
сезондо
сезондук
сезондун
сезону
сезонунда
сезонунун
сезүү
сеи
сек
секга
секин
секирик
секирип
секирүү
секретары
секретарь
секреция
секс
сексен
сексизм
сексуалдык
сектор
сектордун
сектору
секторун
секторунда
секторунун
секунд
секунда
секундасына
сел
селеи
селекция
селенга
селжук
селжуктар
селитрасы
селкинчек
семантика
семантикалык
семе
семеи
семенов
семетеи
семиз
семинар
семирип
семирткич
семирткичтер
семирткичтерди
семирткичтери
семит
сен
сенат
сенден
сенегал
сенека
сени
сенин
сенсордук
сент
сентябрга
сентябрда
сентябрдан
сентябрдын
сентябрына
сентябрынан
сентябрында
сентябрь
сентябрьда
сентября
сеп
сепил
сепили
сепсис
сер
серб
сербия
сербиянын
сервер
серверге
сергеевич
сергеи
сергек
сердце
серек
сержант
сериал
сериалда
сериалдын
сериалы
сериалында
серин
серия
сериядагы
сериялар
сериялары
сериялуу
сериясы
сериясын
сериясында
сериясындагы
сериясынын
серпилгич
серпилгичтик
серпилгичтүү
сессии
сессия
сессиясында
сеул
сеулда
сефевид
сефевиддер
си
сиб
сибир
сибирге
сибирде
сибирдеги
сибирди
сибирдин
сибири
сибирь
сигнал
сигналдарды
сигналдарын
сигналды
сигналдык
сигналы
сиднеи
сиенит
сиз
сизге
сиздер
сизди
сиздин
сии
силер
силерге
силерден
силерди
силердин
силикат
силикаттар
силос
силур
силурдун
сим
символ
символдор
символдорду
символдук
символикалык
символу
симметрия
симметриялуу
симон
симонов
симпозиум
симф
симфония
симфониялык
син
сина
синаи
сингапур
сингапурда
сингл
синглдери
сингли
сингониясында
синде
синдрому
синин
синирген
синоним
синоними
синтаксис
синтаксиси
синтаксистик
синтез
синтезде
синтезделет
синтездик
синтездөө
синтездөөдө
синтези
синтет
синтетикалык
синхрондуу
синь
синьцзян
сирия
сириялык
сириянын
систем
система
системага
системада
системадагы
системадан
системалар
системаларга
системаларда
системаларды
системалардын
системалары
системаларын
системаларына
системаларында
системаларынын
системалуу
системалык
системаны
системанын
системасы
системасын
системасына
системасынан
системасында
системасындагы
системасынын
систематикалык
системдер
системдери
системдик
системи
системин
системинин
системы
сити
сицилия
сиң
сиңген
сиңдиси
сиңер
сиңет
сиңимдүү
сиңип
сиңирген
сиңирет
сиңирип
сиңирүү
сиңирүүчү
ск
ска
сказка
сказки
скаи
скандинавия
скарн
ская
скелет
скелети
ские
скии
скиф
скифтер
ских
скобелев
ского
скои
ском
скот
скотт
скрипка
скриптонит
скрябин
скульптор
скульпторлук
скульптура
скульптуралык
скуратов
сл
славян
славяндар
слаи
сланец
сланецтер
сланецтердин
следует
слесарь
слов
слова
словак
словакия
словарь
словения
слово
случае
слюда
см
смартфон
смге
смдеи
смден
смдик
смерти
смирнов
смит
смиттин
смоленск
смология
сн
снаи
снаряд
со
соавт
соавтор
соавторстве
собор
собору
собрание
сов
совет
совета
советбек
совети
советинде
советине
советинин
советская
советскии
советских
советского
советскои
советтер
советтердин
советтеринин
советтик
советтин
современнои
современном
современность
современные
совхоз
совхоздо
совхоздун
совхозу
совхозунда
совхозунун
согд
согду
согончок
согот
согулат
согулган
согуп
согуу
согуш
согушка
согушкан
согушта
согуштагы
согуштан
согуштар
согуштарга
согуштарда
согуштардын
согуштары
согушту
согуштук
согуштун
согушу
согушун
согушуна
согушунан
согушунда
согушунун
согушуп
согушуу
сода
соз
создания
созулат
созулган
созулма
созулуп
созулушу
созуп
сои
соискание
сок
соккон
сокку
сокмо
соко
соколов
сокольническая
сократ
сокулук
сокур
сол
солго
солгун
солдат
солдон
солист
солисти
солнцевская
соло
соловье
соломон
солон
солто
солтобаев
солтобаи
солтон
солтоноев
солтоноевдин
солтонои
солтонун
солчул
солчулдар
сом
сомали
сомго
сомдон
сомдоп
сомду
сомдук
сомерсет
сон
соната
сонгаи
сонун
соо
сообщения
сообщества
соода
соодага
соодагер
соодагерлер
соодада
сооданы
сооданын
соодасы
соолугу
соолугун
соолугуна
соолугунун
соолук
соолукка
соолукту
соолуктун
соолуп
соон
сооп
сооронбаи
сооронов
соот
сопрано
сопредельных
сопу
сорго
соргуч
сордуруп
сорос
сорпо
сорт
сорттогу
сорттору
сортторун
сорту
соруп
сосна
сосновка
сост
состав
составдык
составе
составы
составын
составына
составында
составындагы
состояние
состоянии
сосьва
сот
сотко
сотто
соттолгон
соттор
соттордун
соттук
соттун
соту
сотунда
сотунун
соус
софия
сох
соц
социал
социалдык
социализм
социализмге
социализмди
социализмдин
социалистик
социалистического
социалисттик
социально
социолог
социологдор
социология
социологиялык
социологиянын
социялистик
соч
сочи
сочинении
союз
союза
союзга
союздар
союздарынын
союздаш
союздук
союздун
союзу
союзун
союзуна
союзунда
союзунун
союлган
союп
соя
соң
соңку
соңуна
соңунда
соӊ
спартак
спб
спеи
спектаклде
спектаклдер
спектаклдерде
спектаклдерди
спектаклдери
спектаклдин
спектакли
спектаклинде
спектакль
спектр
спектрдик
спектрдин
спектри
спектрин
спектрлери
спектроскопия
спенсер
спецификалык
спид
спилберг
спин
спиноза
спираль
спирт
спирти
спиртин
спиртте
спирттер
списка
список
спонтандык
спора
споралар
спорт
спортко
спортто
спортту
спорттук
спорттун
спорту
спортунун
спортчу
спортчулар
спортчулары
спортчусу
справочниги
справочник
спрингс
спутниги
спутник
среди
средневековои
средневековых
средневековье
средневековья
среднеи
сс
сср
ссри
ссринин
ссрнин
ссрс
ссрстин
ссср
сссрге
сссрде
сссрдеги
сссрдин
ссылка
ссылки
ссылку
ст
ста
ставрополь
стадион
стадиону
стадионунда
стадияда
стадиясы
стадиясына
стадиясында
стадиясынын
стакан
сталин
сталинград
сталиндик
сталиндин
стамбул
стамбулда
стамбулдагы
стан
стандарт
стандарттары
стандарттуу
стандарттык
стандарты
стандартына
станислав
станиславскии
станок
станокто
станоктук
станция
станциялар
станциялары
станциянын
станциясы
станциясынан
станциясында
станциясынын
старт
статеи
статикалык
статистика
статистикалары
статистикалык
статистикасы
статус
статуска
статусу
статусун
статусуна
статуясы
статье
статьи
статью
статья
стационардык
ств
ства
ствие
ствия
ство
стеи
стелла
степан
степанович
степеи
степени
стер
стереотиптер
стери
стерлибашев
стерлинг
стерлитамак
стефан
стив
стивен
стилде
стилдеги
стилдик
стили
стилин
стилинде
стилиндеги
стилине
стилинин
стилистикалык
стиль
стипендия
стихи
стихиялуу
стихов
стихотворения
стоиктер
стоиктердин
стокгольм
стол
стори
стоун
стр
стран
страна
странице
страницу
страницы
страны
стратегии
стратегия
стратегиялык
стратегиясы
стратегиясын
стратиграфиялык
стрептококк
стресс
стрит
строи
стронции
структура
структуралар
структуралардын
структуралары
структуралык
структуранын
структурасы
структурасын
структурасына
структурасында
структурасынын
структуры
студент
студенти
студентов
студенттер
студенттерге
студенттерди
студенттердин
студенттери
студенттерине
студенттеринин
студенттик
студенттин
студия
студияда
студиялык
студияны
студиянын
студиясы
студиясын
студиясында
студиясынын
стэн
стэнли
стюарт
су
суахили
субакожоева
субальп
субнивалдык
субстанция
субстрат
субтропик
субтропиктик
субъект
субъективдүү
субъектилеринин
субъектиси
субъекттердин
субъекттери
субъекттин
субьективдүү
субэкватордук
суворов
сугаруу
сугарылат
сугарылган
сугат
сугатка
судан
судандын
судья
суз
сузак
суи
сулаи
сулалесинин
сулеи
султан
султандыгы
султандын
султанов
султановдун
султаны
сулу
сулуу
сулуулугу
сулуулугун
сулуулук
сулуусу
сульфаниламид
сульфат
сульфаты
сульфид
сульфиддер
сульфиддүү
сульфиди
суматра
сумма
суммадагы
сумманы
суммасы
суммасын
суммасына
сумсар
сун
сунган
сунниттер
сунуп
сунуш
сунуштаган
сунуштады
сунуштаи
сунушталат
сунушталган
сунуштап
сунуштар
сунуштарды
сунуштары
сунуштарын
сунушту
сунушу
сунушун
супер
сур
сура
сураган
сураганда
сурады
сураи
сурак
суракка
сурамжылоо
суранат
суранган
суранова
сурап
сураса
сурашат
суриков
сурнаи
суроо
суроого
суроолор
суроолорго
суроолорду
суроолордун
суроону
суроонун
суроосуна
сурьма
сурьманын
сутка
суткага
суткада
суткалык
суткасына
суу
сууга
сууда
суудагы
суудан
суук
суукка
суукта
сууктан
суулар
сууларга
сууларда
суулардан
сууларды
суулардын
суулары
сууларын
сууларына
сууларынан
сууларында
сууларынын
суулук
суулуу
сууну
суунун
суур
суурулуп
сууруп
суусамыр
суусамырга
суусамырда
суусамырдагы
суусар
суусу
суусуз
суусун
суусуна
суусунан
суусунда
суусундук
суусундуктар
суусунун
суутек
суутекти
суутектин
суфии
сухона
сухте
суэц
суюк
суюктугу
суюктук
суюктукка
суюктукта
суюктуктар
суюктуктарда
суюктуктардын
суюктукту
суюктуктун
суюлтулган
суң
сфалерит
сфера
сфералык
сферасынын
схема
схемалар
схемалык
схемасы
схемасын
сценарии
сценарист
сценаристтер
сша
съе
съезд
съездде
съезддеринин
съезди
съездинде
съездине
съездинин
съемка
сы
сыбызгы
сыдык
сыдыкбеков
сыдыкбековдун
сыдыков
сыдыкова
сыз
сызгычтаи
сызма
сызыгы
сызыгындагы
сызыгынын
сызык
сызыкка
сызыксындагы
сызыкта
сызыктар
сызыктардын
сызыктары
сызыктарынын
сызыктуу
сызыкты
сызыктын
сызыкча
сызылат
сызылган
сыи
сыктывкар
сыл
сылык
сым
сыма
сымал
сымалдар
сымалдардын
сымалдуу
сымалдуулар
сымап
сымаптын
сымбаттуу
сын
сынагы
сынагына
сынагында
сынагындагы
сынагынын
сынаи
сынак
сынакка
сынакта
сынактарга
сынактары
сынактын
сыналгы
сынап
сынга
сынган
сында
сындаган
сындагы
сындап
сындоо
сындуу
сыноо
сыноодон
сынуу
сынчы
сынчыл
сынчылар
сынчылардын
сынчылары
сынчысы
сыны
сынык
сыныктары
сынын
сынына
сынып
сынысын
сынышы
сыпаи
сыпаттап
сыпаты
сыр
сыргак
сыргактын
сырдарыя
сырдуу
сырды
сырдык
сырлар
сырлары
сырларын
сырт
сыртка
сырткаркы
сырткары
сырткы
сыртта
сырттан
сырты
сыртын
сыртына
сыртынан
сыртында
сыртындагы
сыры
сырын
сырье
сыя
сыягы
сыяктуу
сыяктуулар
сың
сыңар
сыңарбы
сыңары
сьерра
сэ
сэи
сэм
сэр
сээп
сюжет
сюжети
сюжетин
сюжетинин
сюжеттер
сюжеттердин
сюжетти
сюжеттик
сюжеттин
сюита
ся
сүз
сүзгүч
сүзмө
сүзүп
сүзүү
сүзүүчү
сүи
сүлгү
сүлүктү
сүлөөсүн
сүннөт
сүннөткө
сүннөттөр
сүр
сүргүнгө
сүргүндө
сүргөн
сүртүп
сүртүү
сүрүлгөн
сүрүлүп
сүрүлүү
сүрүп
сүрүү
сүрө
сүрөсү
сүрөт
сүрөткө
сүрөттү
сүрөттүн
сүрөттүү
сүрөттө
сүрөттөгөн
сүрөттөи
сүрөттөлгөн
сүрөттөлүп
сүрөттөлүш
сүрөттөлүштү
сүрөттөлүштүн
сүрөттөлүштөрдү
сүрөттөлүшү
сүрөттөлүшүн
сүрөттөлөт
сүрөттөп
сүрөттөр
сүрөттөрдү
сүрөттөрдүн
сүрөттөрү
сүрөттөрүн
сүрөттөө
сүрөттөөгө
сүрөттөөдө
сүрөттөөлөр
сүрөттөөчү
сүрөтчү
сүрөтчүлүк
сүрөтчүлөр
сүрөтчүлөрдүн
сүрөтчүлөрү
сүрөтчүлөрүнүн
сүрөтчүнүн
сүрөтчүсү
сүрөтү
сүрөтүн
сүт
сүткө
сүттү
сүттүн
сүттөн
сүтү
сүтүн
сүтүнөн
сөгөт
сөз
сөзгө
сөздү
сөздүгү
сөздүгүн
сөздүгүндө
сөздүгүнүн
сөздүк
сөздүктүн
сөздүктө
сөздүктөр
сөздүн
сөздө
сөздөгү
сөздөн
сөздөр
сөздөргө
сөздөрдү
сөздөрдүн
сөздөрдө
сөздөрдөн
сөздөрү
сөздөрүн
сөздөрүндө
сөздөрүнүн
сөздөрүнөн
сөзмө
сөзмөр
сөзсүз
сөзү
сөзүн
сөзүндө
сөзүнүн
сөзүнө
сөзүнөн
сөи
сөңгөгү
сөөгү
сөөгүн
сөөгүнүн
сөөгүнөн
сөөк
сөөккө
сөөктү
сөөктүн
сөөктүү
сөөктөн
сөөктөр
сөөктөрдү
сөөктөрдүн
сөөктөрү
сөөктөрүнүн
сөөмөи
т
та
таа
таабалды
таажы
таажысы
таазим
таала
таалаи
тааланын
таалим
таалы
таамаи
таандык
таануу
таанууга
таанууда
таануудагы
таануунун
таануучу
таануучулар
таануучусу
тааныбаи
тааныган
тааныи
тааныла
таанылат
таанылбаган
таанылган
таанылды
таанылып
тааным
таанымал
таанымдын
таанып
тааныткан
тааныш
таанышат
таанышкан
тааныштырат
тааныштырган
тааныштыруу
тааныштырып
таанышуу
таанышып
таап
таар
таарынып
таасир
таасирге
таасирден
таасирди
таасирдүү
таасири
таасирин
таасиринде
таасирине
таасиринен
таасиринин
таасирленип
таасирлер
таасирлерге
таасирлерден
таасирлердин
таасирлери
таасирлерин
таасирлүү
таасын
таба
табак
табакча
табакчалардын
табакчаны
табакчанын
табалдиев
табарсык
табарсыктын
табат
табгач
табигыи
табии
табит
табити
табитти
табият
табиятка
табиятта
табияттагы
табияттан
табиятты
табияттын
табияты
табиятын
табиятына
табиятынан
таблетка
таблица
таблицада
таблицалар
таблицасы
таблицы
табуу
табууга
табууда
табууну
табуунун
табуусу
табуучу
табуучусу
табы
табыгыи
табыз
табылат
табылга
табылгалар
табылгалары
табылган
табылгы
табылды
табылып
табылышы
табын
табына
табынуу
табынын
табып
табыш
табышат
табышкан
табышмак
табышмактар
табышмактуу
табышып
таварих
таварихте
тавда
таг
тагаев
тагаи
тагдыр
тагдырга
тагдырдын
тагдыры
тагдырын
тагдырына
тагил
тагы
тагылат
тагылган
тагылып
тагынган
тагынып
тагып
тагыраагы
тагыраак
тадан
таж
тажик
тажикстан
тажикстанда
тажикстандагы
тажикстандын
тажиктер
тажрыи
тажырыи
таз
таза
тазалаи
тазаланат
тазаланган
тазаланып
тазалап
тазалоо
тазалоого
тазалоодо
тазалоочу
тазалыгы
тазалык
тазалыкты
тазбаи
тазие
таи
таиланд
так
така
такаи
такалат
также
такка
такси
таксона
такта
тактага
тактаи
такталар
такталат
такталган
такталып
тактан
тактанын
тактап
тактар
тактары
тактасы
тактикалык
тактикасы
тактоо
тактыга
тактыгы
тактыдан
тактык
тактыкта
тактылар
тактысы
тактысына
такыба
такыр
тал
талаа
талаага
талаада
талаадагы
талаадан
талаалар
талааларда
талаалардын
талаалары
талааларын
талааларында
талааларынын
талаалуу
талааны
талаанын
талаасы
талаасын
талаасына
талаасынан
талаасында
талаасындагы
талаасынын
талаачылык
талабы
талабын
талабына
талагыла
талаи
талак
таламдарын
талана
таланат
таланган
талангыс
таланма
талант
таланттар
таланттуу
таланты
талантын
талантына
талануучу
таланып
таланышы
талап
талапка
талапкер
талапкердин
талапкери
талапкерлер
талапкерлерди
талапкерлердин
талапкерлиги
талапкерлигин
талаптагыдаи
талаптар
талаптарга
талаптарды
талаптардын
талаптары
талаптарын
талаптарына
талаптарынын
талапты
талаптын
талар
талары
таларынын
талас
таласка
таласта
таластагы
таластан
таласты
таластык
таластын
талаш
талашкан
талашсыз
талаштарды
талаштуу
талашуу
талашып
талбаи
талгак
талгат
талдаи
талдан
талдап
талдоо
талдоого
талдоодо
талдоонун
талды
талдык
талдын
талиев
талкалаган
талкалаи
талкаланган
талкалануу
талкаланып
талкалап
талкалоо
талкалоого
талкан
талкуу
талкууга
талкууланган
талкууланып
талкуулап
талкуулоо
таллин
талма
талоо
талчалары
талы
талык
талыкпаган
талыкпаи
тальк
там
тама
тамагы
тамак
тамакаш
тамакка
тамактандыруу
тамактануу
тамактануунун
тамактануусу
тамактар
тамактарды
тамакты
тамактын
таман
таманы
таманын
таманына
таманынан
таманында
таманынын
тамара
тамаша
тамашалуу
тамбов
тамга
тамгадан
тамгалар
тамгаларды
тамгалардын
тамгалары
тамгаларын
тамгаларынан
тамгаларынын
тамган
тамганын
тамгасы
тамгасын
тамеки
тамекинин
тамсил
тамсилдер
тамчы
тамчылар
тамыр
тамырга
тамырды
тамырдын
тамырлар
тамырларга
тамырларды
тамырлардын
тамырлары
тамырларын
тамырларынын
тамырлуу
тамыры
тамырын
тамырынан
тамырында
тамырынын
тан
танат
танган
тандаган
тандаи
тандалат
тандалган
тандалма
тандалмалар
тандалуу
тандалып
тандап
тандашат
тандоо
тандоого
тандоодо
тандоону
тандоонун
тандоосу
тандын
танзания
танк
танкалык
тантал
тануу
танып
тап
тапанча
тапанчасы
тапка
тапкан
тапканы
таппаи
тапса
тапта
таптакыр
таптап
таптар
таптарга
таптардын
тапты
таптык
таптын
тапшырат
тапшырган
тапшырды
тапшырма
тапшырмалар
тапшырмаларды
тапшырмаларын
тапшырманы
тапшырмасы
тапшырмасын
тапшыруу
тапшыруусу
тапшырык
тапшырылат
тапшырылган
тапшырылууда
тапшырып
тар
тара
тарабы
тарабын
тарабына
тарабынан
тарабында
тарабындагы
тарабынын
тарагаи
тараган
тарагандар
тараз
тараза
тараи
тарак
тарала
таралат
таралган
таралганы
таралуу
таралуусу
таралуучу
таралып
таралыш
таралышы
таралышын
таралышына
таралышынын
тарам
тарамдары
тарамча
тарамыш
таран
таранчы
тарап
тарапка
тарапта
тараптагы
тараптан
тараптар
тараптардын
тараптуу
тарапты
тараптын
тарат
таратат
тараткан
таратуу
таратууга
таратуучу
таратылган
таратып
тарбагатаи
тарбия
тарбиялаган
тарбиялаи
тарбияланат
тарбияланган
тарбияланып
тарбиялап
тарбиялоо
тарбиялоого
тарбиялоодо
тарбиялоону
тарбиялоонун
тарбиялык
тарбиянын
тарбиясы
тарбиясын
тарбиячы
тарган
таргыл
тардын
таржымакалы
таржымалы
таризде
таризи
таризинде
тарим
тарифтик
тарих
тарихи
таркаган
таркатуу
таркатылган
тармагы
тармагын
тармагына
тармагынан
тармагында
тармагындагы
тармагынын
тармак
тармакка
тармакта
тармактагы
тармактар
тармактарга
тармактарда
тармактарды
тармактардын
тармактары
тармактарын
тармактарына
тармактарынан
тармактарында
тармактарынын
тармактуу
тармакты
тармактык
тармактын
тармал
тарсылдак
тарт
тарта
тартат
тартиби
тартибин
тартибинде
тартибине
тартибинин
тартип
тартипке
тартипте
тартиптеги
тартипти
тартиптин
тарткан
тартканда
тартма
тартпаи
тартса
тартты
тарттырып
тарту
тартуу
тартууга
тартууда
тартуулаган
тартуулаи
тартууланган
тартуулап
тартууну
тартуунун
тартуусу
тартуучу
тартыла
тартылат
тартылбаи
тартылган
тартылгандар
тартылды
тартылуу
тартылууга
тартылуучу
тартылып
тартылышкан
тартылышы
тартып
тартыш
тартышат
тартышкан
тартыштар
тартыштарды
тартышы
тартышып
таруу
тарууга
тары
тарылат
тарылган
тарылып
тарып
тарых
тарыхии
тарыхка
тарыхта
тарыхтагы
тарыхты
тарыхтын
тарыхчы
тарыхчылар
тарыхчылардын
тарыхчылары
тарыхчысы
тарыхы
тарыхыи
тарыхын
тарыхына
тарыхынан
тарыхында
тарыхындагы
тарыхынын
тасма
тасмага
тасмаграфиясы
тасмада
тасмадагы
тасмадан
тасмалар
тасмаларга
тасмаларда
тасмаларды
тасмалардын
тасмалары
тасмаларына
тасмаларында
тасмаларындагы
тасмаларынын
тасманы
тасманын
тасмасы
тасмасын
тасмасына
тасмасынан
тасмасында
тасмасындагы
тасмасынде
тасмасынын
тастыктаган
тастыктаи
тастыкталган
тастыктап
тасы
тасын
тасына
тасында
тасынын
тат
татаал
татаалдыгы
татар
татарлар
татарлардын
татарлары
татарстан
таттуу
таттыбүбү
тату
татыган
татыктуу
татымал
татымалдар
татып
татышлин
татьяна
таун
таунус
тауншип
тафсир
тахир
таш
ташка
ташкен
ташкенге
ташкенде
ташкендеги
ташкент
ташкентте
ташкенттеги
ташкын
ташкындаи
ташкындап
ташкыны
ташкөмүр
ташта
таштабаи
таштаган
таштагы
таштаи
таштак
ташталат
ташталган
таштан
таштанды
таштандылар
таштандыларды
таштап
таштар
таштарга
таштардан
таштарды
таштардын
таштары
таштарын
таштарынын
таштоо
таштоого
таштуу
ташты
таштын
ташуу
ташууга
ташууда
ташуучу
ташы
ташыган
ташыгыч
ташыи
ташылат
ташылган
ташылып
ташын
ташып
таягы
таяк
таякеси
таякты
таяктын
таякча
таякчаларды
таяна
таянат
таянган
таянсак
таянуу
таянып
таяныч
таянычы
таятасы
таң
таңга
таңгыч
таңдаи
таңкы
таңуу
таңы
таңып
тбаев
тбаи
тбилиси
тв
тверь
творчества
творчество
тга
тд
те
театр
театра
театралдык
театрга
театрда
театрдагы
театрдын
театрлар
театрларда
театрлары
театрларында
театрларынын
театры
театрын
театрына
театрында
театрынын
тебетеи
тебриз
тебүү
тебүүгө
тегеран
тегереги
тегерегин
тегерегинде
тегерегиндеги
тегерегине
тегерек
тегеректин
тегеренип
тегерете
теги
тегиз
тегиздиги
тегиздигине
тегиздигинин
тегиздик
тегиздикке
тегиздикте
тегиздиктеги
тегиздиктин
тегин
тегине
тегинен
тегинин
тегирич
тегирмен
тед
тез
тездетет
тездетүү
тездик
тезинен
тезирээк
тезисы
теи
тек
теке
текенин
текес
текке
текст
текста
тексти
текстиль
текстин
текстке
текстте
тексттеги
тексттер
тексттерди
тексттердин
тексттери
текстти
тексттик
тексттин
тектен
тектер
тектерге
тектерде
тектерден
тектерди
тектердин
тектери
тектерин
тектеринде
тектеринен
тектеринин
тектеш
текти
тектин
тектир
тектирлүү
тектон
тектоника
тектоникалык
тектүү
текче
текшерилген
текшерилет
текшерип
текшерүү
текшерүүгө
текшерүүдө
текшерүүдөн
текшерүүнүн
текшерүүчү
текши
тел
тела
теле
телеберүү
телевидение
телевизиондук
телевизор
телегеи
телеграф
телеканал
телеканалдар
телеканалдары
телеканалдын
телеканалы
телеканалында
телеканалындагы
телеканалынын
телекоммуникация
телекоммуникациялык
телекөрсөтүү
телекөрсөтүүсү
телерадио
телерадиоберүү
телерадиокорпорациясынын
телесериал
телесериалдары
телесериалында
телескоп
телефон
телецкое
тело
телолор
телолордун
телолорунун
тель
тельман
тем
тема
темага
темада
темадагы
темалар
темаларга
темаларды
темалары
теманы
теманын
темасы
темасын
темасына
темасында
темасындагы
тематикалык
тематикасы
темгилдүү
темир
темирбек
темирге
темирден
темирди
темирдин
темиржан
темиржол
темиркан
темиркандын
темирлүү
темиров
темп
температу
температура
температурага
температурада
температурадагы
температуралык
температураны
температуранын
температурасы
температурасын
температурасына
температурасынан
температурасында
температурасынын
темпи
темпрасы
темпте
тен
тенант
тенанты
тенденция
тенденциялар
тенденциясы
тенир
тенишев
теннис
тенор
тентек
тео
теодор
теология
теологиялык
теологиянын
теорема
теоремасы
теоретиги
теоретик
теоретикалык
теории
теория
теорияга
теорияда
теориялар
теорияларды
теориялардын
теориялары
теорияларын
теориялык
теорияны
теориянын
теориясы
теориясын
теориясына
теориясында
теориясынын
теп
тепе
тепкич
тепши
тер
терапевт
терапия
терге
тергөө
тергөөчү
тердеи
тердик
тердин
тереза
терезе
терек
теректи
теректин
терен
терең
тереңде
тереңдеп
тереңдетилген
тереңдетип
тереңдетүү
тереңдиги
тереңдигин
тереңдигине
тереңдикке
тереңдикте
тереңдиктеги
тереңдиктен
тереңирээк
тери
териге
териде
теридеги
териден
терии
терилип
терилүү
терини
теринин
терип
териси
терисин
терисинде
терисине
терисинен
терисинин
териштирүү
терме
термелүү
термелүүлөр
термелүүнү
термелүүнүн
термелүүсү
термелүүчү
термикалык
термин
терминатор
терминдер
терминдердин
терминдери
терминдеринин
терминди
терминдин
термини
терминин
термининин
терминология
термиялык
термодинамика
термодинамикалык
термодинамиканын
термоядролук
терриген
территориального
территории
территориялык
территориясында
территориясынын
террордук
терс
терүү
теске
тескеи
тескери
тескерисинче
тескөө
тесла
тест
тестиер
тестирлөө
тесттер
тесттик
тесттин
тет
тете
тетик
тетиктер
тетиктерди
тетиктери
тетиктерин
тетири
тех
техас
техник
техника
техникада
техникалар
техникаларды
техникалары
техникалык
техниканы
техниканын
техникасы
техникасын
техникасында
техникасынын
техникумду
техникумун
техникумунда
техникумунун
технол
технолог
технологии
технология
технологиялар
технологияларды
технологиялардын
технологиялары
технологияларын
технологиялык
технологияны
технологиянын
технологиясы
технологиясын
технологиясына
технологиясында
теше
тешиги
тешик
тешиктер
тешип
тең
теңдеме
теңдемелер
теңдемелердин
теңдемелери
теңдемени
теңдеменин
теңдемеси
теңдемесин
теңдеш
теңдештик
теңдик
теңи
теңир
теңирге
теңирлик
теңиртоо
теңиртоолук
теңсалмактуу
теңсалмактуулук
теңсиздик
теңсиздиктин
теңчилик
теңчиликти
теӊ
ти
тибет
тибетке
тибеттин
тиби
тибин
тибинде
тибиндеги
тибине
тибинин
тигет
тиги
тигил
тигилген
тигилет
тигилип
тигип
тигр
тигүү
тигүүдө
тигүүчү
тиев
тиет
тиешелүү
тиешелүүлүгүнө
тиешеси
тизе
тизеге
тизилген
тизилип
тизме
тизмеге
тизмеги
тизмегинде
тизмегине
тизмегинин
тизмеде
тизмек
тизмеси
тизмесин
тизмесинде
тизмесине
тизмесинин
тии
тик
тике
тикеден
тикелеи
тикен
тикендүү
тикесинен
тиккен
тил
тилге
тилген
тилде
тилдеги
тилден
тилдер
тилдерге
тилдерде
тилдердеги
тилдерден
тилдерди
тилдердин
тилдери
тилдерин
тилдеринде
тилдериндеги
тилдерине
тилдеринен
тилдеринин
тилди
тилдик
тилдин
тилдүү
тилеги
тилегин
тилек
тилеке
тилекке
тилекмат
тилектеш
тилектештик
тилеп
тилет
тили
тилин
тилинде
тилиндеги
тилине
тилинен
тилинин
тилип
тилке
тилкеде
тилкелер
тилкелери
тилкелүү
тилкени
тилкеси
тилкесин
тилкесинде
тилкесинин
тилмеленген
тилчи
тилчилер
тилчиси
тим
тимор
тимур
тимурдун
тимчеси
тин
тинг
тинги
тингинде
тинин
тип
типа
типке
типологиялык
типте
типтеги
типтери
типтерин
типтүү
тираж
тиражы
тиреген
тирек
тирилтет
тирилчилик
тиричилиги
тиричилигин
тиричилигинде
тиричилигине
тиричилигинин
тиричилик
тиричиликке
тиричиликте
тиричиликти
тиричиликтик
тиричиликтин
тиркеме
тиркемелер
тирол
тирүү
тирүүлөи
титан
титаник
титирөө
титирөөдө
титирөөдөн
титирөөлөр
титирөөнүн
титул
титулдук
титулу
титулун
тиш
тиши
тиштеп
тиштер
тиштери
тишти
тиштин
тиштүү
тишчелүү
тка
ткалуу
ткан
тканга
тканда
ткандаи
ткандан
ткандар
ткандарга
ткандарда
ткандарды
ткандардын
ткандары
ткандарын
ткандарына
ткандарында
ткандарынын
тканды
ткандын
тканы
тканын
тканына
тканынан
тканынын
ткань
ткен
ткын
ткэстин
тматов
тматова
тматовдун
то
тобокел
тобокелге
тобольск
тобу
тобун
тобуна
тобунан
тобунда
тобундагы
тобунун
тобыл
товар
товарга
товарды
товардык
товардын
товарлар
товарларга
товарларды
товарлардын
товарлары
товарларын
тоган
того
тоголок
тогу
тогуз
тогуздун
тогузунчу
тогун
тогунун
тозок
тозокко
тозоктон
тозоктун
тои
ток
токио
токиодо
токкана
токко
токмок
токмоктогу
токобаев
токои
токол
токомбаев
токомбаевдин
токон
токою
токоюнда
токоюнун
токсон
токтобаев
токтобои
токтоболот
токтобүбү
токтогон
токтогул
токтогулдун
токтогулов
токтои
токтолгон
токтолот
токтолуп
токтом
[...]
