!
"
#
##0
##1
##10
##11
##12
##13
##14
##15
##16
##17
##18
##19
##2
##20
##21
##22
##23
##24
##25
##26
##27
##28
##29
##3
##30
##31
##32
##33
##34
##35
##36
##37
##38
##39
##4
##40
##41
##42
##43
##44
##45
##46
##47
##48
##49
##5
##50
##51
##52
##53
##54
##55
##56
##57
##58
##59
##6
##60
##61
##62
##63
##64
##65
##66
##67
##68
##69
##7
##70
##71
##72
##73
##74
##75
##76
##77
##78
##79
##8
##80
##81
##82
##83
##84
##85
##86
##87
##88
##89
##9
##90
##91
##92
##93
##94
##95
##96
##97
##98
##99
$
%
&
'
(
)
*
+
,
-
.
/
0
00
000
01
01001
02
0212
03
032
0342
0352
037
0372
04
041
044
04655
05
050
06
063
066
067
07
0719
08
0806
09
093
095
096
097
1
10
100
1000
10000
101
10140
102
103
103587413
104
105
106
108
109
11
110
1100
111
112
113
114
115
1150
116
117
118
119
12
120
1200
1201
121
122
123
124
125
126
126944
127
128
128583
1296
13
130
1300
133
134
135
139
14
140
1400
142
143
144
145
146
1473
149
15
150
1500
15000
151
152
154
155
156
159
16
160
1600
162
163510050000026004274482200
164
1648
165
167
1677
17
170
1700
171
175
17677
1781
18
180
1800
184
1850
186
187
1895
19
1900
191
1912
1914
1917
1919
192
1921
1923
1930
1932
1933
1936
1941
1944
1945
1960
1961
197
1975
198
1980
19800
1982
1990
1991
1992
1994
1997
1999
2
20
200
2000
20000
2001
2003
2004
2005
2006
2007
2008
2009
2010
2011
2012
2013
2014
2015
2016
2017
2018
2019
202
2020
2021
2022
2023
2030
205
2059
21
212
213
216
217
218
22
220
2200
222
223
224
225
228
23
230
2300
231
232
235
236
238
24
240
245
248
25
250
2500
253
256
26
260
26001274482201
26001274482203
26002274482202
26003274482201
26004274482200
27
270
271
2711
274301
275
276
279
28
280
282
283
284
285
286
288
29
290
3
30
300
3000
303
309
31
32
320
321
326
33
330
333
3334
34
340
343510050000026003274482201
35
350
3500
35000
351005
353
354
36
360
364
365
36628786
367
37
370
38
380
380673437434
387
39
3955
4
40
400
4000
404
41
410
412
42
420
43
435
439
44
440
45
450
46
47
475
48
4835
4859
49
490
5
50
500
5000
505
51
5100
52
520
522
526
529167
53
530
530167
532
54
540
55
550
5552
558
56
57
570
575
576
58
580
5827
59
590
6
60
600
6000
61
62
63
63487
64
65
650
6500
66
666
67
677
68
69
7
70
700
7000
71
7125
72
720
73
730
732
74
75
750
7539
76
765
766
77
777
78
79
8
80
800
8000
81
82
83
84
85
850
86
87
88
880
89
9
90
900
9015
91
916
92
93
930
94
95
95240
96
966
97
978
98
99
9900
:
;
<
=
>
?
@
[
\
]
_
`
a
abakumova
abbadon
ability
able
about
above
academy
accepted
access
according
account
accounts
aced
achievement
across
act
action
active
activities
activity
actual
actually
ad
add
addict
addition
additional
additionally
address
adm
admin
administration
adoption
advocacy
advocate
aeou
affiliate
africa
after
again
against
agencies
agency
agree
agreed
agreement
ahatanhel
ahonc
aiesec
aim
aimed
ais
aizek
aka
album
aleksandrit
alex
alexa
alexander
alexkozur
alexorgua
alice
alike
alina
aliona
all
alla
alle
allow
allows
almost
along
alps
already
also
altur
am
amakuha
ambassador
ame
among
amount
an
analysis
anastasiia
anatoliy
anatoliyvna
anatoly
anatolypm
and
andrew
andrii
andriidydiuk
andriy
android
anna
annakhrobolova
anne
anniversary
announce
announcelists
anntinomy
annual
anoniem
anons
another
antanana
anticop
anton
antonprotsiuk
antonyahu
any
apart
apg
api
apparaat
applicable
applicant
applicants
application
applications
apply
approach
appropriate
approval
approved
april
archaeology
archive
archived
archives
are
area
areas
armenia
around
art
artem
article
articles
artificial
artists
arxivist
as
asaf
aspects
assets
assistance
associated
association
asus
at
ation
atlas
atoly
attended
attention
attolippipgmail
attract
attracting
attribue
attribution
au
audience
audiences
audio
audit
august
authorities
authority
automatic
aux
available
average
award
awarded
awards
awareness
b
ba
babizhet
back
background
bad
balkhovitin
ballot
bank
banner
banners
bartov
base
based
basic
basis
battleships
bb
bc
bd
be
became
because
been
before
begin
beginning
being
below
benefit
berlebashka
best
better
between
bf
bible
biblio
big
bill
bilyy
biodasha
bionic
birds
biz
black
blitz
blog
blogwikimedia
blokha
board
boardwikimedia
boardwikimediaukraine
boberwin
bobok
bodiadub
bodies
body
bondarenko
book
books
border
bot
both
bovda
br
brand
branding
brenda
brief
bring
british
brizhnichenko
brunei
bruneiwmua
budget
bugs
build
building
bunyk
business
but
bw
by
bylaws
c
ca
calendar
call
called
camera
camp
campaign
campaigns
campanula
can
candidates
cannot
canon
capacity
carpathian
carpathians
case
cases
cat
category
cbr
cc
cd
cee
ceem
ceespring
cellen
center
central
centralnotice
centre
century
ceremony
certain
cg
ch
chair
chairman
chairpersons
chairwikimedia
chairwikimediaukraine
challenge
challenges
champagne
change
changes
chapter
chapters
chaque
charge
charitable
charko
check
chekhovskawikimedia
chemkaev
cherkasy
chernihiv
choose
christian
chrom
chrysis
ci
cisco
cite
citizens
city
civicua
ck
class
classical
classics
classroom
click
climb
close
closing
club
cm
cn
co
code
codes
coding
collaboration
collaborative
collect
collection
color
com
comment
comments
committee
common
commons
communication
communications
communities
community
company
competition
competitions
comple
complete
completed
composers
comprehensive
concern
concert
concours
conditions
conduct
conducted
conference
conferences
conflict
considered
consultation
contact
content
contest
contests
context
continue
continued
contractors
contribute
contributed
contribution
contributions
contributor
contributors
control
convention
cool
coolest
cooperation
coord
coordinator
coordinators
copy
copyright
core
cosmofuture
cost
costs
could
council
countries
country
course
courses
cov
coverage
covered
covid
cre
create
created
creating
creation
creative
creativecommons
crh
crimea
criminal
criteria
cs
csit
cultua
cultural
culture
curid
curie
currency
current
currently
cv
cycling
cylinders
cze
d
da
darevskia
dashboard
data
database
date
day
days
dc
dd
de
december
decerkva
decide
decided
deciding
decision
decisions
dedicated
defined
denamax
denis
department
dependent
depends
depo
deputy
des
description
descriptor
design
detailed
details
detector
develop
developed
developing
development
devices
dgho
dghooo
dia
did
didn
diff
different
difficult
digitization
digitizing
dilove
dim
dimi
dimon
directed
direction
directions
director
directorwikimediaukraine
disagree
discord
discovered
discussion
discussions
dissemination
distribution
district
div
diverse
diversity
divided
dixond
djvu
dmitrichenko
dmytro
dn
do
doc
docs
document
documentation
documents
does
doivent
dollars
domain
don
donate
donation
donations
done
donor
donors
dorohoff
dp
dr
draw
drbug
drohobych
du
due
dues
dumy
duration
during
duvnuj
dzie
dzyadyk
e
each
earth
easier
eastern
economic
ed
edcamp
edit
editing
edition
editor
editors
edits
edu
education
educational
eduwiki
ee
eest
eet
effective
effectively
efficient
efforts
either
ejensyd
elected
electronic
elects
elements
elena
elente
eligible
else
email
emails
emph
en
enable
encourage
encouraging
encyclopedia
end
engage
engaged
engaging
english
enhance
enhancing
enn
enrichment
ensure
enter
entity
entsiklopediya
environment
equal
equality
equity
erud
es
espc
especially
espreso
est
et
etc
etherpad
ethnic
eu
eugenmakh
eur
europe
european
europeana
europride
ev
evaluation
even
event
events
eventswikimedia
every
everyone
everything
example
examples
excel
exclusion
executive
exist
existing
exists
expanding
expect
expedition
expeditions
expenses
experience
experiences
experts
explain
external
f
facebook
facilitate
facilitation
fact
factors
far
faucon
fb
fdc
feature
featured
features
february
fed
feel
fees
female
fen
fest
festival
few
fi
field
fields
file
files
fin
final
financial
find
firef
firestormukr
first
fiscal
five
flickr
fluid
fm
focus
focusing
folkerman
follow
following
follows
foot
for
form
format
forms
forum
forward
foto
fotokonkurs
found
foundation
four
franc
france
francophone
frans
free
freedom
freely
freepanorama
friend
from
full
fully
functions
fund
funding
fundraising
funds
further
future
g
gac
galinfo
galka
gallery
galvm
games
gap
gaps
gazeta
gb
geliba
gender
general
generally
generated
generating
geografisch
geographic
geography
german
get
ghz
gif
giku
github
given
gives
glam
glamorous
glamwiki
glavlit
gle
glhf
global
glorin
gmail
gnu
go
goal
goals
going
gold
goo
good
google
gorod
got
gov
governance
governing
government
governmental
grammarly
grant
grants
green
grits
gromada
group
groups
growth
gucul
guide
guidelines
gurt
h
habibul
hackathon
had
haida
haidamac
hakon
half
halshka
hand
has
have
having
havryk
head
header
held
helgi
helixitta
help
her
herald
here
hereafter
heritage
hi
high
highest
hill
his
historic
historical
history
holding
hope
horiz
hour
house
how
however
href
html
http
https
hub
hulevychivna
human
i
ice
icq
id
idea
ideas
identified
identify
identifying
if
iforum
igor
igorpunda
igorturzh
ii
iii
ijon
il
illustrating
ilya
image
images
impact
implement
implementation
implemented
importance
important
improve
improved
improvement
improvements
improving
imramianna
in
inc
include
included
includes
including
increase
increasing
index
indigenous
individual
individuals
infinity
influence
info
inform
information
informational
informed
infowikimedia
infrastructure
ingelogd
initiative
initiatives
inkscape
inna
inside
inspired
instagram
instead
institute
institutions
integration
intent
interest
interested
interesting
interests
interfax
intermediate
internal
international
internet
into
introduction
involved
involvement
ip
ipconfig
ips
irc
irina
iron
iryna
is
isbn
island
islands
israel
issue
issues
it
italy
itc
item
its
itself
iurchenko
iv
ivan
j
james
jan
january
jarylhach
java
javascript
jbuket
je
job
john
johnny
join
joined
jpeg
jpg
jphwra
js
jts
juliia
julo
july
june
jurisdiction
jury
just
k
ka
kamelot
kazymir
kebenko
keep
keeping
key
kharkiv
kharkivian
kharkivoda
kharkivtoday
kharkov
kherson
khersoncbsgmail
khmelnytskyi
khnue
khrobolovawikimedia
kiev
kind
kit
kiwix
kiyanka
klymenkoy
km
know
knowledge
known
kobzar
komisarenko
konferencja
konferencji
konkurs
konkursi
konkursu
korniiko
kosovych
kpi
kr
krupski
krutyvuss
krystofer
ksenz
kuchurgany
kukhta
kukr
kultura
kulturnu
kurbiko
kurs
kushch
kuznets
kvz
kwietnia
kyiv
kyivcity
kyvt
l
la
labs
lack
lanatroy
landing
landscapes
lang
language
languages
large
largest
last
later
launch
launched
lavra
law
laws
le
lead
leader
leadership
learn
learned
learning
least
lectures
left
legal
legislation
legislative
lenovo
leonnef
leonst
les
less
let
letizia
letter
letters
level
li
lib
libel
libmaryna
libraries
library
license
licensed
licenses
lichen
life
liga
light
lightning
like
likely
lilypond
limits
line
link
linking
links
linux
lipca
list
listed
lists
little
live
lives
living
liza
ll
lobaria
loboda
local
located
location
logo
lomakavictory
long
look
lora
loss
lot
loves
low
lua
luda
lumpia
lviv
lxlalexlxl
lyasheva
lysenko
lystopad
lyubit
m
machine
made
madvin
magazine
maidan
mail
main
maint
major
majority
make
makes
making
makukhagmail
manage
managed
management
manager
many
map
maps
march
mardetanha
margin
marianasenkiv
mark
marmaros
marmaroskii
martial
martin
maryankod
marynachala
mass
massif
match
material
materials
matter
matters
may
mcoffsky
me
mean
means
measurable
measure
media
mediasapiens
mediawiki
medical
meet
meeting
meetings
mehman
member
members
membership
mentorship
meolya
message
meta
metrics
microgrants
micrograntswikimedia
microsoft
midpoint
might
milianovych
million
min
mind
mini
ministry
minor
minutes
missing
mission
mix
mk
mm
model
modern
moldova
month
months
monument
monuments
mooc
moodle
more
most
motivating
motivation
motorko
motorkowikimedia
mouflons
mountain
movement
moz
mozhut
mp
mpx
mr
mrkotmatroskin
mrudnytskyi
ms
much
mukachevo
multilingual
multiple
museum
museums
music
musicxml
must
mw
my
mycola
mykola
mykolaiv
n
na
nabin
nadiya
name
naming
nata
natalia
nataliia
natanaval
national
native
nativeplanting
natlastovetsgmail
natural
nature
nb
ne
near
necessary
need
needed
needs
negus
net
netherlands
network
new
newcomers
newly
news
newsletter
next
ng
ngo
nickispeaki
nickk
nikon
nikride
no
nocturnus
nomad
non
nor
north
not
note
noted
notepad
notes
notice
novaukraina
november
novyny
now
np
ntonyahu
ntymkiv
ntymkivwikimedia
number
nv
o
objectives
objects
oblast
obligations
observatory
ocr
octets
october
od
oda
odesa
odessa
of
off
offer
office
officewikimediaukraine
official
offline
ogg
ogolosila
oksana
oktoih
oldid
oleg
oleh
oleksandr
oleksandrkotliar
oleksii
olena
olenamuzychenko
olenawikimedia
olexa
olga
olgakolomoets
olggga
olha
olivia
olvin
olya
on
onboarding
once
one
ones
online
only
open
openglam
opening
openrefine
openstreetmap
opera
operating
operational
operations
opinion
opportunities
option
optional
or
order
org
organisation
organisational
organisations
organise
organised
organising
organization
organizational
organizations
organizing
original
originality
osm
osvita
other
others
otrs
ou
our
out
outcomes
outreach
outreachdashboard
outside
over
overall
overview
owing
own
p
pacheco
pad
page
pages
pam
panel
panorama
par
parameter
park
part
participant
participants
participate
participated
participating
participation
particular
particularly
parties
partners
partnership
partnerships
parts
party
past
patterns
pavelkirichenkoche
pavlo
pavlosh
pay
payu
pdf
peace
pedro
peg
people
per
performance
performed
period
periode
permission
permissions
perohanych
person
personal
perspective
petros
petroscherbyna
petscan
phabricator
phase
phone
photo
photographers
photographs
photography
photos
php
physical
pi
piano
picture
pictures
piotrowski
pip
pirzkhgl
pl
place
places
plan
planet
planned
planning
plans
please
plus
pm
png
po
points
policies
policy
polish
political
polska
polski
polsku
poltava
polytechnic
popularizing
portal
possible
post
postatej
postatey
posterrr
posts
potential
pour
power
powershot
pr
practices
pravda
pre
preparation
present
presentation
presentations
presented
preservation
press
presswikimedia
previous
primarily
primary
principles
prior
priorities
privacy
prix
pro
problem
problems
process
product
professor
profit
program
programmatic
programme
programs
progress
project
projecten
projects
promin
promote
promoting
promotion
promotional
proposal
proposals
proposed
prostir
protect
protected
protection
protsiuk
protsiukwikimedia
provide
provided
providing
proxen
proxy
przerwa
public
publication
publications
publicly
publish
published
publishing
pulmonaria
purpose
px
python
q
qr
qualite
quality
quarry
que
query
question
questions
quickstatements
quite
r
rada
radio
raion
raising
rakhiv
ralph
range
rare
rate
rated
raw
rayon
razomfest
rbrechko
rda
re
reach
reaching
read
readers
readership
reading
real
realization
reasonable
receive
received
recent
recipient
recommendations
record
recordings
records
red
redhotroof
reduce
redwarn
ref
references
refers
regarding
regia
region
regional
regionews
regions
registered
registration
regular
regularly
regulations
related
relating
relations
relationship
release
released
relevant
remain
renvoy
repertoire
replace
report
reporting
reports
representation
representatives
represented
request
requested
requests
required
requirements
research
reserve
reserves
residence
resolution
resolutions
resource
resources
respective
response
responsible
result
resulting
results
retain
retention
retreat
retrieved
return
revenue
revenues
review
revisionuser
revontulet
ridge
ridna
right
rights
rina
risk
risks
river
rivne
rluts
ro
road
role
romaine
romakogut
roman
romanbibwiss
romania
romanian
romanmagic
romkobomko
room
rosewater
round
route
rovchak
row
ru
rules
run
russia
russian
rv
s
sa
said
salicornia
same
samsung
san
sandra
santmatova
sapiens
sapkota
sars
sas
scale
scanner
schedule
scholarships
school
schools
science
sciencephoto
sciencephotowikimedia
sciences
scientific
scope
score
sea
search
second
secret
secretary
secretarywikimedia
section
security
see
seen
select
selected
selection
self
senior
sent
separate
september
serbest
serg
sergento
sergey
sergiy
serhii
service
services
session
sessions
set
several
shall
shani
shao
share
sharealike
shared
sharing
sharpness
shcherbak
she
shelter
shelya
shevchenko
shevelo
shkola
should
show
shown
shulha
shybetsky
side
sie
signature
significant
significantly
similar
simlikar
simple
since
sister
site
sites
situation
situations
six
size
ska
ski
skill
skills
skrypnyk
skype
sl
slides
slominska
slovolyub
small
smart
smilyano
smm
snow
so
social
society
software
some
somebody
something
sometimes
song
songs
sont
sopa
sos
source
sources
south
souvenirs
soviet
sp
space
spadshchinu
sparql
sparrov
spart
special
species
specific
speech
spending
spiritia
spread
spring
spudei
sql
st
staff
staffwikimedia
standin
star
start
started
state
statej
statement
statements
states
statey
station
statistical
statistics
status
stay
stem
step
steppe
still
stinson
stockholm
stop
stories
story
strainu
strategic
strategy
stream
street
strong
structure
stsasha
stub
students
studway
study
style
styles
sub
subject
submission
submit
submitted
subst
success
successful
such
sulutil
sum
summary
summit
sumy
support
supported
supporting
supports
sur
sure
survey
susanna
suspilne
sustainability
sustainable
svartkat
sven
svg
svidoma
svitu
svoboda
swarnyk
sx
system
t
ta
table
tables
tahayev
taille
take
taken
takes
talen
talk
talks
taras
target
targets
task
tasks
tax
tba
tbd
te
team
tech
technical
techniques
technological
technologies
technology
techstorm
telegram
telekritika
template
templates
temporarily
term
terms
territory
test
text
tf
th
than
thank
thanks
that
the
their
them
thematic
themselves
then
thenordar
there
therefore
these
they
thez
things
think
third
this
thon
those
three
through
throughout
thus
ticket
tie
tiff
till
time
timeline
timely
times
title
to
today
together
tohaomg
tomasz
too
took
tool
toolforge
tools
top
topics
total
touristic
towns
track
tracking
tract
tradition
traditionally
train
training
transfer
transformer
translate
translated
translatewiki
translation
translations
transparency
travel
tre
treasurer
treasurerwikimedia
treasurerwikimediaukraine
tree
trees
trello
tried
trips
true
trust
trustees
try
trydence
trying
tsimbal
tttaaannne
tutorial
tv
tvoemisto
twitter
two
tymkiv
type
u
ua
uah
uawikimedia
uchast
uczestniko
uk
ukr
ukrain
ukraina
ukraine
ukraini
ukrainian
ukrainy
ukrajini
ukrayini
ultimus
un
under
understand
understanding
une
unforeseen
union
unique
united
universities
university
unlikely
unported
unrecognized
until
up
upcoming
upload
uploaded
uploader
uploadwizard
upon
upper
urban
urgent
url
us
usd
use
used
useful
usefulness
uselang
usepackage
user
users
using
usually
utc
uzhgorod
v
vada
value
valued
values
van
var
variety
ve
venzz
verkhovna
version
very
via
viber
victoriya
vid
vidatnikh
video
videos
vie
view
vika
vikaivankiv
viki
viking
vikipedii
vikipediji
vikipediya
viktoria
viktoriia
village
villages
vimoculars
vinci
vinnytsia
viola
vira
viramotorko
visem
vision
visit
visiting
visitors
visual
vitchenko
vk
vkryzhanivsky
vlasenko
vocal
volodymyr
volunteer
volunteers
vote
voting
vous
vozna
vprypin
vs
vspace
w
wa
wadco
wan
want
wanted
war
was
watashi
watch
waterfall
wax
way
ways
wca
we
weather
web
webcite
webm
webmoney
website
week
weekend
weekly
weeks
welcome
welcomer
well
wep
were
wfp
what
whatsapp
when
where
whether
which
white
who
whole
whom
whose
why
wi
wide
wifi
wiki
wikia
wikibiocontest
wikibooks
wikicamp
wikicommunity
wikiconference
wikid
wikidata
wikiday
wikidays
wikiekspedycja
wikiexpedition
wikiexpeditions
wikifest
wikigap
wikigrade
wikikharkiv
wikikonferencja
wikilambda
wikiloves
wikilovesearth
wikilovesmonuments
wikimania
wikimarathon
wikimedia
wikimediafoundation
wikimedian
wikimedians
wikimediaua
wikimediaualists
wikimediaukraine
wikinews
wikipe
wikipedia
wikipedian
wikipedians
wikipedii
wikiphyscontest
wikiprojects
wikiquote
wikis
wikiscience
wikisource
wikispecies
wikistudia
wikitraining
wikivoyage
wikiwomen
wikiworkshop
wikizghushchivka
wiktionary
wild
will
win
window
windows
winners
winter
wir
with
within
without
wle
wlewikimedia
wlm
wlmua
wlmwikimedia
wlx
wm
wmcee
wmcon
wmde
wmf
wmfcc
wmflabs
wmfr
wmil
wmnl
wmpl
wmua
wmuacon
wmuaconwikimedia
wmuagooglegroups
wmuk
women
won
word
wordpress
work
working
works
workshop
workshops
world
would
wp
write
writing
written
wwf
www
x
xavier
xix
xml
xsandriel
xv
xvi
xvii
xviii
xx
xxi
xxx
xyz
y
ya
yakudza
yalovecky
yalynskii
yana
yasnodark
yatki
ye
year
years
yerevan
ykvach
you
your
youth
youtube
yur
yuri
yurii
yuriy
yuriyter
yyyy
z
zakarpattya
zakharian
zaxid
zbruc
zemlyu
zero
zh
zhuravel
zone
zoom
zp
{
|
}
~
£
§
©
«
­
°
²
·
»
×
ł
ɪ
ʺ
ʼ
̀
́
̂
̆
̇
̈
̊
̌
̣
̧
̨
̶
̸
α
θ
μακυχα
а
абзац
абзацу
абзаці
аби
або
абощо
абсолютна
абсолютних
абсолютно
абсолютноі
абсолютну
абстрактна
абстрактноі
абу
аванс
авансу
авдиторіі
австралія
австраліі
австріи
австрія
австріі
авто
автобус
автобуси
автобусні
автобусом
автовокзал
автовокзалу
автоматизаціі
автоматизувати
автоматична
автоматичне
автоматично
автоматичного
автомобілем
автомобіль
автомобіля
автомобілі
автономноі
автопереклад
автоперекладу
автор
автора
авторам
авторами
автори
авторитет
авторитетними
авторитетних
авторитетності
авторитетні
авторитетність
авторитету
авторові
автором
авторства
авторство
авторське
авторським
авторськими
авторських
авторського
авторські
автору
авторів
автошлях
авіаціи
агентства
агентство
агенція
агенціі
агонк
агонка
агонку
агресію
агресія
агресіі
агітувати
ад
адама
адаптація
адаптаціі
адаптувати
адбываецца
адвокаціи
адвокація
адвокацією
адвокаціі
адеф
адже
адмін
адміна
адміни
адмінів
адміністративнии
адміністративних
адміністративно
адміністративні
адміністративніи
адміністратор
адміністратора
адміністраторами
адміністратори
адміністратором
адміністраторів
адміністраціи
адміністрація
адміністрацією
адміністраціі
адміністрування
адрес
адреса
адресами
адреси
адресовании
адресою
адресу
аерофото
аерофотози
аж
азербаи
азізян
азізяна
азізяну
азіі
аи
академіка
академіків
академічноі
академія
академією
академіі
акаунт
акаунти
акаунту
акаунтів
акредитацію
акредитація
акредитаціі
акредитовані
акт
актами
акти
активи
активна
активне
активнии
активним
активними
активних
активно
активного
активному
активностеи
активності
активною
активноі
активну
активні
активність
активністю
активніша
активніше
активнішии
активнішим
активніших
активнішому
активніші
активів
активізація
активізаціі
активізувати
активіст
активістам
активісти
активістів
акту
актуальна
актуальним
актуальними
актуальних
актуально
актуальною
актуальноі
актуальну
актуальні
актуальність
актуалізація
актів
акумулятора
акумулятори
акуратне
акцент
акценти
акцентом
акцентувати
акціи
акціонерних
акціонерні
акцію
акція
акціі
албаніі
алгоритм
алгоритму
але
алеи
алекс
александр
алея
алла
альбом
альбоми
альбому
альона
альпи
альпіи
альпініст
альтернатива
альтернативи
альтернативнии
альтернативного
альтернативні
альтернативу
альянс
альянсу
аліна
аматори
аматорів
америка
американська
американську
америки
ами
амортизацію
амстердамі
амір
ан
аналог
аналогів
аналогічне
аналогічнии
аналогічно
аналогічні
аналогія
аналіз
аналізом
аналізу
аналізувати
анастасія
анастасіі
анатоліи
анатолію
анатолія
анатолієвна
анатоліі
ангел
ангеліна
англ
англвікі
англомовна
англомовнии
англомовних
англомовного
англомовноі
англомовні
англомовніи
англіи
андреи
андрєи
андріи
андрію
андрія
андрієві
андрієм
андріі
анекдот
анкет
анкета
анкети
анкету
анкеті
анна
анни
анну
анонс
анонси
анонсова
анонсовано
анонсову
анонсом
анонсу
анонсів
анонімні
анонімність
анотація
ансамбль
антанана
антанани
антанану
антанані
антарктиди
антарктики
антарктичнии
антикафе
антон
антона
антоном
антону
аня
ані
аніж
ап
апарату
апелювати
апеляціі
апліканти
апреля
апу
апіту
ар
арабська
арабською
арабськоі
арабську
арабськіи
аргентина
аргумент
аргументи
аргументів
арестович
арк
арсенальна
арсеналі
артем
артема
артемович
артист
артистка
археологічних
археологічні
археологія
археологіі
архитектура
архів
архівами
архівах
архіваціі
архіви
архівних
архівного
архівноі
архівні
архівом
архіву
архіві
архівів
архітектора
архітекторки
архітекторок
архітекторів
архітектура
архітектури
архітектурних
архітектурно
архітектуру
архітектурі
арія
ас
асаф
асафа
асафом
асоціацію
асоціація
асоціацією
асоціаціі
аспект
аспектами
аспектах
аспекти
аспектом
аспектів
аспіранти
аспірантів
асса
астероі
астрономічна
астрономічних
астрономія
астрономіі
астрофізики
ат
ата
ати
атлас
атмосфера
атмосфери
атмосферу
ауд
аудит
аудиторіи
аудиторію
аудиторія
аудиторіями
аудиторією
аудиторіі
аудиту
аудіо
аудіовізуальних
аудіозапис
аудіозаписи
аудіозаписів
аутентифікаціі
аутріч
африка
африки
африці
аффкому
афіліатів
афіліи
афіш
афіша
афіші
б
ба
баба
бабенко
бабич
бабича
бабка
багато
багатомовних
багатомовноі
багатьма
багатьом
багатьох
багмет
бажана
бажании
бажаним
бажання
бажанням
бажано
бажаного
бажаю
бажають
бажаючии
бажаючим
бажаючих
бажаючі
бажає
бажаєте
баз
база
бази
базова
базове
базовии
базових
базового
базовоі
базові
базою
базу
базуватись
базуватися
базуючись
базується
базі
баи
бал
балакліи
балакліі
баланс
балансу
балету
бали
балико
балоги
балом
балотуватися
балу
балховітін
балів
бан
банально
бангладеш
бандера
бандери
банер
банера
банери
банером
банеру
банерів
банк
банку
банків
банківським
банківськими
банківських
банківського
банківськоі
банківські
банківськіи
бар
баритон
барськии
бартов
бартова
батальи
батареи
батькові
батьківщини
бах
бахчисараи
бачать
бачення
баченням
бачив
бачили
бачимо
бачите
бачити
бачитимуть
бачить
бачиш
бачу
башкатов
башкирськоі
башкортостан
башта
бд
бджола
без
бездіяльності
бездіяльність
безкоштовна
безкоштовнии
безкоштовним
безкоштовно
безкоштовного
безкоштовному
безкоштовні
безліч
безоплатно
безпека
безпеки
безпеку
безперебіи
безповоротноі
безпосередньо
безпосереднього
безпосередньоі
безпосереднє
безрадичі
безсвітлинні
безсторонності
безумовно
безіменне
беи
беларуская
белград
белграді
бельгія
бензин
бердичів
бере
берег
берега
береги
берегова
берегу
берегів
бережанка
березень
березня
березні
березова
березовіи
березі
березівка
беремо
берете
береться
берлебашка
берлебашку
берлін
берліні
беру
берусь
беруся
беруть
беруться
беручи
беріть
би
биков
бикова
битва
бл
благо
благодіи
бланш
ближче
ближчии
ближчим
ближчих
ближчому
ближчі
близька
близько
близького
близькість
блискітка
блог
блогах
блогдопис
блоги
блогом
блогпост
блогу
блогів
блозі
блок
блоки
блокнот
блокноти
блокнотів
блокування
блокувати
бліц
бо
бог
богдан
богдана
богема
богомол
богомольця
богородиці
бодаи
боженка
божоі
бои
боки
боку
боків
болгарія
болгаріі
болдирєв
болотного
бондар
бондаренка
бондаренко
бондаренком
бондаренку
бонусних
бонусні
борзенська
борис
бориса
борисівна
борковськии
боромля
боротися
боротьба
боротьби
боротьбу
боротьбі
бортнянськии
бортнянського
борщ
борщагівська
борщик
борщу
борщівка
борщівськии
борщівського
бот
бота
ботами
ботаніки
ботанічна
ботанічних
боти
ботом
ботів
боці
бочуляк
бою
боюсь
бояться
боі
бпла
брав
бразильці
бразилія
бразиліі
брак
бракувало
бракує
брала
брали
браму
брати
братиметься
братиму
братимуть
братися
братська
бребенескул
бреи
бренд
бренду
брескул
брижниченко
бриків
британія
британіі
брифінгу
бросківці
брошур
брошура
брошури
брошуру
брюсселя
був
бувають
буває
буде
будемо
будет
будете
будеш
будинки
будинку
будинків
будинок
будиночок
буду
будувати
будут
будуть
будучи
будь
будьте
будівель
будівельна
будівельніи
будівлю
будівля
будівлі
будівництва
будівництво
буквально
букви
букет
букета
букетом
букету
буклет
буклети
буклетів
букмарклет
буковини
букрин
букринськии
була
були
булка
булки
булку
було
булці
бульвар
бульваром
бульвару
булінг
бурик
буркути
бурлук
бурлука
бурти
бус
бусом
бути
бутин
бутинець
бутнього
бутньому
бутньоі
бутнє
бутні
бутнім
бутніх
бухаресті
бухгалтер
бухгалтера
бухгалтерка
бухгалтерськии
бухгалтерських
бухгалтерського
бухгалтерські
бф
бфп
было
быть
бюджет
бюджети
бюджетом
бюджету
бюджеті
бюджетів
бюлетень
бюлетені
бюлетенів
бюро
бюрократ
бюрократа
бюрократів
бюрократія
бюрократіі
бєлінського
бібліи
бібліографічна
бібліоміст
бібліотек
бібліотека
бібліотекам
бібліотеками
бібліотекар
бібліотекарі
бібліотекарів
бібліотеках
бібліотеки
бібліотекою
бібліотеку
бібліотеці
бібліотечна
бібліотечних
бібліотечноі
бібліі
бізнес
бізнесу
бізнесі
біи
бік
біла
білгород
білецькии
білецького
білии
білих
білка
білки
білого
білорусь
білоруськоі
білорусі
білорусіі
білу
більче
більш
більша
більше
більшии
більшим
більшими
більших
більшого
більшому
більшості
більшою
більшоі
більшу
більші
більшіи
більшість
більшістю
біля
біляі
білі
біографіи
біографічних
біографічні
біографіі
біологічних
біологічноі
біологія
біологіі
біорізноманіття
біосфернии
біосферних
біосферного
в
ва
ваги
вагон
вагу
вадим
важелів
важко
важлива
важливе
важливии
важливим
важливими
важливих
важливо
важливості
важливою
важливоі
важливу
важливі
важливість
важливіше
важливішим
важливішими
важливіших
важливіші
важче
ваи
вакансію
вакансіі
вакарчук
вал
валентин
валентина
валентини
валентиною
валентину
валеріи
валерія
вальдимар
вам
вами
вандалізм
вандалізмом
вандалізму
вантажити
вань
варта
варте
варто
вартості
вартує
вартість
вартістю
варшаві
варіант
варіанти
варіантом
варіанту
варіанті
варіантів
варіянт
вас
василечко
василь
василькова
васильків
васильківська
васильківськии
васильович
васильовича
василюк
василюка
василя
василівна
ваш
ваша
ваше
вашим
вашими
ваших
вашого
вашому
вашою
вашоі
вашу
ваші
вашіи
вбачаю
вбачає
вбо
вважав
вважати
вважатися
вважаю
вважають
вважаються
вважаючи
вважає
вважаємо
вважаєте
вважається
введення
введено
ввели
ввести
ввечері
вводити
вводиться
ввіи
вг
вголос
вгору
вд
вдалии
вдалим
вдало
вдалось
вдалося
вдалі
вдасться
вдається
вдвічі
вдома
вдосконалення
вдосконаленням
вдосконалити
вдруге
вдячна
вдячнии
вдячні
ве
веб
вебсаи
вебінар
вебінари
вебінаром
вебінару
вебінарів
веде
ведення
ведеться
ведмедиці
веду
ведуть
ведуться
ведуча
вежа
вежею
веи
векторна
векторних
векторному
векторною
вела
велась
велася
велеснів
вели
велика
велике
великии
великим
великими
великих
великобританіі
великобурлуцька
великобурлуцькоі
великого
великомихаи
великому
великою
великоі
велику
великі
великіи
велися
величезнии
величезну
вело
велоекспедиціи
велоекспедиція
велоекспедиціі
веломісяць
велосипед
велосипедистів
велосипедом
вельми
венгера
венесуела
верді
вересень
вересня
вересні
верифікація
верифікаціі
верифіковуваність
верифіковуваністю
версіи
версію
версія
версіях
версією
версіі
верхньоі
верхнє
верхніи
верховна
верховного
верховною
верховноі
верховніи
верхівці
вершин
вершина
вершинами
вершини
вершину
вершині
весна
веснарка
весни
весну
веснянки
вести
весь
весілля
вечернии
вечеря
вечора
вечір
вечірки
вечірніи
вже
вживати
вживаються
вживу
вжити
вжиття
вз
взагалі
взаємне
взаємного
взаємодопомоги
взаємодопомогу
взаємодіи
взаємодію
взаємодія
взаємодіяти
взаємодіі
вздовж
вздовжкарпатська
взимку
взяв
взявся
взяла
взялася
взяли
взялися
взяло
взяти
взятись
взятися
взято
взятого
взяття
взяті
ви
вибачення
вибачитися
вибачте
вибирали
вибирати
вибирають
вибирає
вибирається
виборами
виборах
вибори
вибором
вибору
виборчоі
виборі
виборів
вибрали
вибрана
вибране
вибрании
вибраними
вибраних
вибраного
вибраною
вибраноі
вибрану
вибрані
вибрати
вибір
виведення
вивести
вивчати
вивчають
вивчення
вивчивши
вивчити
вигляд
виглядати
виглядатиме
виглядають
виглядає
вигляду
вигляді
вигоди
вигоду
вигорання
виготовити
виготовлення
виготовлено
виграв
виграваи
виграи
виграла
виграти
виграє
виграі
вид
видав
видавати
видавець
видавництв
видавництва
видавництво
видавнича
видавничии
видавничоі
видавців
видалення
видалили
видалити
видаляти
видаляються
видана
видании
виданих
видання
виданням
виданнях
виданні
видано
видань
видати
видатків
видатним
видатних
видатного
видатні
видатніших
видачі
видаються
видає
видається
види
видимими
видимість
видно
виду
видъ
видів
виділення
виділено
виділені
виділили
виділити
виділяи
виділяти
виділяємо
вижниця
визвольних
визвольноі
визнавати
визнали
визнана
визнании
визнання
визнанні
визнано
визнані
визнати
визначали
визначальними
визначати
визначатися
визначають
визначаються
визначає
визначається
визначена
визначении
визначеними
визначених
визначення
визначенням
визначенні
визначено
визначеного
визначеному
визначеноі
визначену
визначені
визначив
визначили
визначило
визначити
визначитись
визначитися
визначить
визначна
визначних
визначні
визнають
визнає
вии
вики
викиконференция
викимедиа
википедии
википедию
википедия
виклавши
виклад
викладати
викладач
викладача
викладачам
викладачами
викладачка
викладачі
викладачів
викладає
викладених
викладено
викладені
викладу
викласти
виклик
викликала
викликати
викликає
виклики
викликом
викликів
виключати
виключає
виключена
виключении
виключення
виключено
виключені
виключили
виключити
виключно
виключною
виключноі
виключні
виконавці
виконавців
виконавчии
виконавчим
виконавчих
виконавчого
виконавчому
виконавчоі
виконали
виконана
виконаних
виконання
виконанням
виконанні
виконано
виконані
виконати
викондир
викондира
виконувала
виконувалися
виконувати
виконувачем
виконують
виконує
виконується
використали
використана
використании
використаних
використанню
використання
використанням
використанні
використано
використань
використані
використати
використовувався
використовували
використовувалися
використовувати
використовуватись
використовуватися
використовуи
використовують
використовуються
використовуючи
використовує
використовуємо
використовується
викривлюють
вилучати
вилучена
вилучення
вилучено
вилучені
вилучили
вилучити
вимагали
вимагати
вимагатимуть
вимагають
вимагає
вимагається
вимог
вимога
вимогам
вимогами
вимоги
вимогою
вимогу
вимушені
вимірювати
виміряти
вина
винагороди
винаи
винен
винесення
винесені
винести
вини
виникали
виникало
виникати
виникають
виникає
виникла
виникли
виникло
виникнення
виникнуть
виноситься
виноски
виносок
винятки
винятково
винятком
винятку
виняток
виокремити
випадках
випадки
випадкових
випадково
випадку
випадків
випадок
випередила
виписка
виписки
випливають
випливає
виповнилося
виповнюється
виправив
виправити
виправлення
виправляти
випробувальним
випуск
випуску
вираження
виробити
вироблення
виробників
виробництва
вирушив
вирушили
вирізати
вирішальним
вирішена
вирішення
вирішенням
вирішенні
вирішено
вирішив
вирішила
вирішили
вирішило
вирішити
вирішить
вирішувати
вирішують
вирішує
вирішується
висвітлення
висвітлені
висвітлити
висвітлювали
висвітлює
висить
висловив
висловився
висловили
висловилися
висловити
висловитися
висловлених
висловлення
висловлено
висловлені
висловлю
висловлював
висловлювали
висловлювання
висловлювань
висловлювати
висловлюи
вислухати
висновками
висновки
висновку
висновків
висновок
висока
високии
високим
високо
високого
високому
високою
високоі
високу
високі
висота
висоти
виставити
виставка
виставки
виставку
виставляти
виставляються
виставок
виставці
вистачало
вистачає
вистачило
вистачить
виступ
виступав
виступали
виступами
виступати
виступах
виступають
виступає
виступи
виступив
виступила
виступили
виступити
виступу
виступів
висування
висувати
висуваю
висунення
висунув
висунула
висунути
висунуті
висічка
витачів
витрат
витрата
витратами
витрати
витратити
витрачати
витрачено
витрачені
вих
виховнии
виховному
виходи
виходити
виходить
виходу
виходять
виходячи
виході
вихід
вихіднии
вихідних
вихідного
вихідні
вичерпна
вичерпним
вичерпно
вичерпні
вичитано
вичитані
вичитати
вичитка
вичитки
вичитку
вичитування
вичитувати
вишами
вишах
вишколах
вишколи
вишколу
вишколів
вишкіл
вишнівець
вишів
вища
вище
вищии
вищим
вищими
вищих
вищому
вищою
вищоі
вищу
вищі
вищіи
виявив
виявився
виявилась
виявилася
виявили
виявились
виявилися
виявилось
виявилося
виявити
виявлення
виявлено
виявлені
виявляється
виі
вк
вка
вкажіть
вказав
вказавши
вказали
вказана
вказании
вказаним
вказаними
вказаних
вказання
вказанням
вказано
вказаного
вказану
вказані
вказати
вказувати
вказують
вказуючи
вказує
вказується
вказівки
вказівники
вказівок
вклад
вкладати
вкладатися
вкладку
вкласти
включав
включала
включати
включатиме
включають
включаючи
включає
включення
включенням
включено
включені
включили
включити
включно
вконтакте
вконтакті
вкраи
вкрите
влад
влада
влади
владислав
владою
владу
власна
власне
власнии
власник
власника
власниками
власником
власників
власним
власними
власних
власного
власному
власноруч
власності
власною
власноі
власну
власні
власніи
власність
власністю
властивості
влаштовує
влаштувати
влз
влп
влітку
вм
вместе
вмру
вмуа
вміння
вміннями
вмінь
вміст
вмістом
вмісту
вмісті
вміти
вмію
вміють
вміє
вна
внаслідок
внесена
внесеними
внесених
внесення
внесено
внесені
внески
внеском
внеску
внесків
внесла
внесли
внесок
внести
внз
вниз
внизу
вносити
вносяться
вночі
внутрішнього
внутрішньоі
внутрішню
внутрішня
внутрішнє
внутрішні
внутрішніи
внутрішніми
внутрішніх
вніс
во
вода
води
водних
водно
водночас
водои
водоростеи
водоспад
водоспаду
водосховища
водосховище
воду
водіи
водія
возна
вознесіння
вои
вокальних
вокальноі
вокальні
вокзал
вокзалу
вокзальна
волинська
волинськии
волинськоі
волинь
волині
волкова
володимир
володимира
володимирович
володимировича
володимиром
володимирська
володимирівна
володіння
володію
володіють
володіє
володієте
волонтер
волонтера
волонтерам
волонтерами
волонтери
волонтерка
волонтерками
волонтерок
волонтером
волонтерства
волонтерство
волонтерська
волонтерськии
волонтерських
волонтерського
волонтерською
волонтерськоі
волонтерські
волонтерів
волость
волошка
волощук
воля
волі
вона
вони
воно
воркшоп
воркшопи
воркшопів
воробея
ворогу
ворота
воріт
восени
востаннє
восьма
восьме
восьмии
восьмоі
вочевидь
воєннии
воєнного
воі
вп
впала
впевнении
впевнені
вперед
вперше
вписати
вписується
вплив
впливати
впливатимуть
впливають
впливає
впливові
впливом
впливу
вплине
вплинула
вплинути
вподобав
вподобань
впорядкування
вправи
впровадження
впровадженні
впроваджені
впроваджувати
впроваджується
впровадити
впродовж
впізнаваного
вр
вради
враження
враженнями
вразили
вранці
враховано
враховані
враховувати
враховуватися
враховуються
враховуючи
враховує
враховується
врахувавши
врахування
врахуванням
врахувати
врахуи
врегулювання
врешті
вру
вручати
вручаються
вручення
врученні
вручено
вручені
вручити
вручну
врядування
все
всеодно
всередині
всесвітнього
всесвітньоі
всесвітня
всесвітніи
всеукраі
вставити
вставляти
встановила
встановити
встановлении
встановлених
встановлення
встановлено
встановленоі
встановлені
встановлювати
встановлюються
встановлює
встановлюється
встиг
встигли
встигнемо
встигнути
вступ
вступати
вступити
вступне
вступнии
вступних
вступного
вступу
вступі
вська
вськии
вським
вських
вського
вському
вською
вськоі
вську
вськіи
всього
всьоме
всьому
всю
всюди
вся
всяк
всяких
всі
всіи
всім
всіма
всіх
всієі
вторая
вторгнення
вторинні
втрат
втрата
втрати
втратив
втратила
втратили
втратило
втратити
втратить
втрачається
втрачені
втретє
втричі
втручання
втручаючись
втілення
втілено
втілити
втілювати
втім
вузьких
вузьку
вул
вулицею
вулиць
вулицю
вулиця
вулиці
вуха
входження
входили
входило
входити
входить
входу
входять
вхід
вхіднии
вхідні
вці
вчасне
вчасно
вчасності
вчать
вчених
вченоі
вчені
вчергове
вчетверте
вчили
вчинення
вчинену
вчинити
вчиняють
вчитель
вчителька
вчителя
вчителями
вчителі
вчителів
вчити
вчитися
вчора
вшанування
вщини
вы
вячеслав
вячеслава
ві
вівся
вівторок
від
відбере
відбиває
відбору
відбувався
відбувалась
відбувалася
відбувалися
відбувалось
відбувалося
відбуватиметься
відбуватися
відбуваються
відбувається
відбувся
відбудеться
відбудуться
відбулась
відбулася
відбулись
відбулися
відбулось
відбулося
відбутися
відбір
відведении
відверто
відвідав
відвідала
відвідали
відвідало
відвіданих
відвідання
відвіданням
відвідано
відвідані
відвідати
відвідини
відвідувала
відвідували
відвідуваних
відвідування
відвідуваності
відвідувань
відвідуваність
відвідуваніші
відвідувати
відвідувачам
відвідувачів
відгук
відгуки
відгукнувся
відгукнулися
відгуку
відгуків
віддалених
віддалено
віддаленість
відданість
віддати
відділ
відділення
відділенням
відділеннями
відділеннях
відділень
відділи
відділу
відділів
відень
відео
відеозапис
відеозаписи
відеозапису
відеозаписів
відеозв
відеози
відеоконференціі
відеоматеріали
відеоматеріалів
відеоролики
відеороликів
відеофаи
відзвітуватися
відзнак
відзнака
відзнаками
відзнаки
відзнаку
відзначати
відзначать
відзначають
відзначаються
відзначає
відзначення
відзначено
відзначені
відзначив
відзначила
відзначили
відзначити
відзняти
відзнято
відзняті
відкидати
відкладено
відкласти
відкликання
відкликати
відкрив
відкриває
відкривається
відкрии
відкрила
відкрилась
відкрилася
відкрита
відкрите
відкрити
відкритии
відкритим
відкритими
відкритих
відкрито
відкритого
відкритому
відкритості
відкритою
відкритоі
відкриття
відкритті
відкриту
відкриті
відкритість
відкриється
відмова
відмови
відмовився
відмовились
відмовилися
відмовило
відмовити
відмовитись
відмовитися
відмовиться
відмовлено
відмовлятися
відмовляюся
відмовляються
відмову
відмові
відмінності
відмінну
відмінні
відмінність
відміну
відмітити
віднаи
віднесені
віднести
відновити
відновлення
відносин
відносинах
відносини
відносить
відноситься
відносна
відносно
відносною
відносноі
відносну
відносяться
відношенню
відношення
відні
відображався
відображають
відображає
відображення
відображені
відобразити
відокремлене
відокремлених
відокремлені
відома
відоме
відомии
відомим
відомих
відомо
відомого
відомостеи
відомості
відомоі
відомі
відомішим
відоміших
відомішого
відпатрульовано
відписав
відписати
відпишіть
відповів
відповідав
відповідала
відповідали
відповідальна
відповідальнии
відповідальним
відповідальними
відповідальних
відповідально
відповідального
відповідальному
відповідальності
відповідальною
відповідальноі
відповідальну
відповідальні
відповідальніи
відповідальність
відповідальністю
відповідати
відповідатиме
відповідатимуть
відповідачем
відповідаю
відповідають
відповідає
відповіддю
відповідеи
відповідна
відповідне
відповіднии
відповідним
відповідними
відповідних
відповідно
відповідного
відповідному
відповідності
відповідноі
відповідну
відповідні
відповідніи
відповідність
відповідь
відповідями
відповідях
відповіді
відповіла
відповіли
відповім
відповісти
відповість
відпочинку
відпочити
відправив
відправити
відправка
відправки
відправкою
відправку
відправлення
відправлено
відправляти
відправляються
відправок
відразу
відредагувати
відроги
відродження
відрядження
відрядженні
відряджень
відрізнятися
відрізняється
відсканувати
відслідковування
відслідковувати
відслідкувати
відсотки
відсотку
відсотків
відсоток
відстань
відстані
відстеження
відстежувати
відсутності
відсутня
відсутні
відсутніи
відсутність
відсутністю
відсутніх
відсіювання
відсіювати
відтак
відтворення
відтепер
відхилена
відхилення
відхилень
відхилені
відхилити
відчуваю
відчувають
відчуження
відчуття
відшкодовується
відшкодування
відшкодувати
відібрані
відіграє
відіи
віжуал
віз
візи
візит
візитки
візиток
візу
візуальне
візуальнии
візуального
візуальному
візуальні
візьме
візьмемо
візьметься
візьму
візьмуть
візьміть
віи
вік
вікна
вікно
вікні
віктор
віктора
вікторович
вікторовича
віктору
вікторівна
вікторія
вікторіі
віку
вікі
віківерситет
віківиди
віківишколах
віківишколи
віківишколу
віківишколів
віківишкіл
віківояж
віківісник
вікігрант
вікігранти
вікігрантом
вікігрантів
вікіданим
вікіданими
вікіданих
вікідані
вікідата
вікідень
вікіджерел
вікіджерела
вікіджерелами
вікіджерелах
вікідидактика
вікідіяльності
вікіекспедиціи
вікіекспедицію
вікіекспедиція
вікіекспедиціям
вікіекспедиціями
вікіекспедиціях
вікіекспедицією
вікіекспедиціі
вікізаходах
вікізаходів
вікізгущівка
вікізгущівки
вікізгущівку
вікізустріч
вікізустрічах
вікізустрічеи
вікізустрічі
вікіконкурси
вікіконкурсів
вікіконференціи
вікіконференцію
вікіконференція
вікіконференціях
вікіконференцією
вікіконференціі
вікіконцерт
вікіконцерту
вікікурс
вікікурсу
вікікурсів
вікімандрах
вікімандри
вікімандрів
вікіманію
вікіманія
вікіманіі
вікімарафон
вікімарафони
вікімарафоном
вікімарафону
вікімарафоні
вікімарафонів
вікімедисти
вікімедистів
вікімедіа
вікімедіи
вікімедія
вікімедієць
вікімедіі
вікіновин
вікіновинах
вікіновини
вікіпе
вікіпедист
вікіпедиста
вікіпедистам
вікіпедистами
вікіпедисти
вікіпедистка
вікіпедистки
вікіпедистом
вікіпедистів
вікіпедіи
вікіпедію
вікіпедія
вікіпедіях
вікіпедією
вікіпедіі
вікіпечиво
вікіпошта
вікіпошту
вікіпроект
вікіпроектам
вікіпроектами
вікіпроектах
вікіпроекти
вікіпроекту
вікіпроекті
вікіпроектів
вікіпроєктам
вікіпроєктами
вікіпроєктах
вікіпроєкти
вікіпроєктів
вікіпідручник
вікіпідручника
вікіпідручнику
вікірозмітка
вікірозмітки
вікірозміткою
вікірозмітці
вікіруху
вікісловник
вікісловника
вікісловнику
вікіспільнот
вікіспільнота
вікіспільноти
вікіспільнотою
вікіспільноту
вікіспільноті
вікістатеи
вікістаття
вікісторінка
вікістудіи
вікістудію
вікістудія
вікістудіі
вікісувеніри
вікісховища
вікісховище
вікісховищі
вікітабори
вікітабору
вікітабір
вікітексту
вікітижні
вікітижнів
вікіточки
вікіточку
вікітренінг
вікітренінги
вікітренінгу
вікітренінгів
вікіуроків
вікіфлешмоб
вікіфлешмобу
вікіфлешмобі
вікіфото
вікіфікація
вікіфіковані
вікіхакатон
вікіхакатону
вікіхарківщина
вікіхарківщини
вікіцитат
вікіцитатах
вікіцитати
вікічетвер
вільна
вільне
вільнии
вільним
вільними
вільних
вільно
вільного
вільному
вільною
вільноі
вільну
вільні
вільніи
він
вінницька
вінницькии
вінницьким
вінницького
вінницькому
вінницькоі
вінницькіи
вінниця
вінниці
вінниччини
вінниччині
віра
віри
вірмено
вірменська
вірменськоі
вірменські
вірменія
вірменіі
вірно
віросповідання
вірою
віртуальнии
віртуального
віртуальні
віру
вірш
вірю
вісем
вісник
віснику
вісників
вісті
вісім
вісімсот
віта
вітальне
віталіи
віталія
вітання
вітаю
вітаються
вітаємо
вітер
вітряк
вітряки
вітченка
вітченко
вітчизняноі
вітчизняніи
віхи
віху
віце
г
га
гаврик
гаврика
гаврилов
гагаріна
гадаю
гаджина
гаджинка
газет
газета
газети
газетно
газеті
гаи
галерею
галерея
галереями
галереі
галина
галицькии
галочку
галузеи
галузях
галузі
галушко
галшки
галіне
гана
ганзбург
ганзбурга
ганна
ганни
ганну
гаразд
гарантовано
гарантувати
гарантують
гарантує
гарантіі
гард
гармонія
гарна
гарне
гарнии
гарним
гарними
гарних
гарно
гарного
гарною
гарну
гарні
гаі
гг
ге
геи
гендерних
гендерного
гендерноі
гендерну
генеральнии
генерування
геніальність
географічне
географічнии
географічними
географічних
географічного
географічному
географічні
географію
географія
географіі
геологіі
геометричних
георгіи
геохіміі
герби
гербом
героя
героям
героі
гете
геть
главком
гласності
глибина
глибоке
глибоко
глибше
глиняному
глобальна
глобальне
глобальнии
глобальних
глобально
глобального
глобальноі
глобальні
глухові
глухів
глухівська
глухівськии
глухівського
глухівському
глухівську
глюк
глянути
гнучкість
гніздо
гніздівка
го
говерла
говерли
говор
говора
говорив
говорили
говорилося
говоримо
говорите
говорити
говорить
говорять
гоголя
год
года
годин
година
години
годинниковою
годину
годині
годиться
голова
голови
головна
головне
головнии
головним
головних
головного
головному
головною
головноі
головну
головні
головніи
головою
голову
головуючии
головуючим
головуючого
голові
голодомор
голодомору
голос
голосами
голоси
голосом
голосу
голосував
голосувала
голосували
голосування
голосуванням
голосуваннях
голосуванні
голосувань
голосувати
голосую
голосують
голосуємо
голосів
голосіі
голуб
голів
гонконгу
гончара
гончаров
гончарова
гончарову
гора
горах
горби
гордон
гори
горностаі
город
городецького
городища
городище
городня
городскои
гору
горщику
горького
горі
господарства
господарських
господарського
господарськоі
господарську
господарські
господнього
госпрозрахункових
гостеи
гостроі
гості
готель
готелю
готелі
готова
готовии
готовим
готовими
готових
готовності
готовність
готово
готові
готував
готували
готування
готувати
готуватися
готують
готуються
готується
гр
гра
градовськии
граматичними
граматичних
граматичні
грамотне
грамотно
грамотності
грамотність
граничнии
грант
грантами
гранти
грантова
грантовии
грантових
грантового
грантовою
грантовоі
грантову
грантові
грантовіи
грантодавцем
грантом
гранту
гранті
грантів
грати
графік
графіка
графіки
графікою
графіку
графічнии
графічних
грає
гребінківського
грецькии
грецьких
грецькоі
грецькі
греція
греціі
грибів
гривень
гривня
гривні
григорович
григорівка
григоріи
григорію
григорія
гриценка
гриценко
грн
грои
громад
громада
громадам
громади
громадська
громадське
громадськии
громадським
громадських
громадсько
громадського
громадському
громадськості
громадською
громадськоі
громадську
громадські
громадськіи
громадськість
громадськістю
громадян
громадянами
громадяни
громадянства
громадянського
громадянськоі
громаді
грошеи
грошовими
грошових
гроші
гру
грубо
грудень
грудня
грудні
грузіі
груп
група
групам
групами
групах
групи
групове
групові
групою
группа
групу
групі
грушевського
грінченка
губенко
гугл
гулевичівни
гуманітарного
гуманітарноі
гурт
гуртка
гута
гутин
гуцульські
гэтае
гібридному
гідних
гідність
гімназія
гімназіі
гінкул
гіннеса
гіперпосилання
гір
гірська
гірських
гірського
гірськоі
гірські
гірша
гірше
гіршим
гість
д
да
дав
давав
даваи
давали
давати
даведацца
давно
давньоруські
дадзенаи
дадуть
даи
дала
далеко
далекому
дали
дало
даля
далі
дамо
дамп
дан
дана
дании
даними
даних
данні
даного
даному
даноі
дану
данціж
данчик
данчиком
дані
даніи
данія
дарда
даремно
дарма
дасть
дат
дата
датам
датами
дати
датою
дату
дачок
даю
дають
даючи
дає
даємо
даєте
дається
два
двадцят
двадцять
дванадцять
двереи
двері
дводеннии
двом
двома
дворі
двотижневии
двох
двоє
дві
двічі
дд
де
дев
дедеркали
дедлаи
деи
декад
декади
декларацію
деклараціі
декого
деколи
декілька
декількома
декількох
делегати
делегатів
делегацію
делегаціі
делеговані
делегувала
делегування
делегувати
дело
демерджі
демо
демократизму
демократичнии
демократичним
демократично
демократія
демократіі
демонструють
демотивує
денис
дениса
дениші
денне
деннии
денного
денні
дено
день
дені
департамент
департаменту
депо
депозитнии
депозитні
депутат
депутата
депутатами
депутати
депутатом
депутатів
дер
дерев
дерева
дерево
деренівка
держав
держава
держави
державна
державне
державнии
державним
державними
державних
державного
державному
державності
державною
державноі
державну
державні
державніи
державою
державу
державі
держпром
держреєстру
держінвестпроекту
десна
десни
десь
десяте
десяти
десятиріччя
десятка
десятки
десятку
десятків
десяток
десятоі
десятці
десять
дет
деталеи
деталь
детальна
детальне
детальнии
детальним
детальних
детально
детального
детальну
детальні
детальніша
детальніше
детальнішии
детальнішою
детальнішу
детальніші
деталями
деталі
дете
детектор
деться
дефіцит
дехто
деш
дешево
дешевше
дещо
деяка
деякии
деяким
деякими
деяких
деякоі
деякі
дж
джан
джану
джарилгацькии
джарилгач
джеи
джерел
джерела
джерелами
джерелах
джерело
джерелом
джест
джести
джесту
джесті
джимбо
джиммі
джурин
джі
дзвоники
дзвіниця
дзвіниці
дзвінки
дзвінок
дземброня
дзеркало
дзюбівка
дзюми
дзяд
дзядик
дзядика
ди
див
диверсифікація
дивився
дивилися
дивилося
дивитись
дивитися
дивляться
дивлячись
дивних
дивно
дивіться
дизаи
дикоі
диктофон
динаміка
динаміки
динамікою
динаміку
диплом
дипломами
дипломатіі
дипломи
диплому
дипломів
директор
директора
директорка
директорові
директором
директору
дисбаланс
диск
дискваліфікація
дискваліфікаціі
дискваліфіковані
дискваліфікуються
дискримінаціи
диску
дискусіи
дискусію
дискусія
дискусіях
дискусіі
дисків
дистанціи
дистанціі
дисциплін
дисципліну
дитинця
дитячии
дитячоі
дитячі
дк
дла
для
дми
дмитра
дмитро
дмитрович
дмитровича
дмитросавченко
дмитрост
днабб
днем
днз
дно
дну
дню
дня
днями
дні
днів
дніпра
дніпро
дніпропетровська
дніпропетровськоі
дніпропетровщини
дніпрі
дністер
дністра
дністровськии
дністровським
до
доба
доби
добиратися
добових
добові
добра
добратися
добре
добрии
добрими
добрих
добро
добробуту
добровольці
добровольців
добровільних
добровільно
добровільного
добровільності
добровільноі
добровільну
доброго
доброі
добру
добрі
добу
добуток
добірку
довге
довгии
довгим
довго
довгостроковии
довгота
довготривалии
доведення
доведеться
довелось
довелося
довести
довженка
довжини
довкола
довкілля
доводив
доводилось
доводилося
доводити
доводиться
доволі
довше
довідка
довідки
довідкових
довідково
довідкового
довідкою
довідку
довідник
довідника
довідників
довільну
довіра
довіреностеи
довіреностями
довіреності
довіреність
довіреністю
довіри
довірив
довірителем
довіру
довіряти
довіряють
довіряє
догляду
договорами
договори
договору
договорів
договір
додав
додаваи
додавання
додаванням
додавати
додавши
додаи
додала
додали
додам
додана
додании
доданих
додано
доданого
доданоі
додані
додасть
додати
додатки
додаткова
додаткове
додатковии
додатковим
додатковими
додаткових
додатково
додаткового
додатковою
додатковоі
додаткову
додаткові
додатком
додатку
додатків
додаток
додачу
додають
додаються
додає
додається
додому
дозволено
дозволи
дозволив
дозволили
дозволило
дозволити
дозволить
дозволу
дозволяти
дозволять
дозволяють
дозволяє
дозволяється
дозволів
дозвіл
дозор
докази
доки
доклав
докладно
докладніше
докласти
доктор
документ
документа
документальним
документальні
документами
документах
документацію
документація
документаціі
документи
документознаство
документом
документу
документування
документують
документі
документів
дол
доларів
долина
долини
долинськии
долину
долині
долучався
долучаи
долучались
долучати
долучатись
долучатися
долучаються
долучається
долучення
долучився
долучилась
долучилася
долучились
долучилися
долучилось
долучилося
долучити
долучитись
долучитися
долучіться
доля
домашня
домашнє
домен
домени
домену
домені
доменів
домніч
домовився
домовилися
домовитись
домовитися
домовлено
домовленостеи
домовленості
домовленість
домовленістю
домовлятися
домогтися
дому
домі
дон
донбас
дондик
донесення
донести
донецьк
донецька
донецького
донецькоі
донецькіи
донеччини
донеччині
доннту
донор
донорами
донорів
донців
доопрацювання
доопрацювати
допис
дописати
дописах
дописи
допису
дописування
дописувати
дописувач
дописувача
дописувачам
дописувачами
дописувачем
дописувачок
дописувачі
дописувачів
дописуи
дописі
дописів
доповнена
доповнених
доповнення
доповненням
доповненнями
доповнено
доповненою
доповнень
доповнені
доповнивши
доповнили
доповнити
доповнювати
доповнюється
доповнять
доповів
доповідач
доповідача
доповідачка
доповідачки
доповідачі
доповідачів
доповіддю
доповідеи
доповідь
доповідями
доповіді
допомагав
допомагала
допомагали
допомагати
допомагаю
допомагають
допомагаючи
допомагає
допомога
допомоги
допомогла
допомогли
допомогло
допомогою
допомогти
допомогу
допоможе
допоможи
допоможу
допоможуть
допоможіть
допомозі
допоміг
допоміжні
допрацьована
допрацювання
допрацювати
допускати
допускаються
допускається
допустити
допущеними
допущено
допущені
доречна
доречним
доречно
доробити
доробок
дорога
дороги
дорого
дорогожичі
дорогою
дорогу
дорогі
дорожче
дорозі
дорослих
дорученими
доручення
дорученням
доручено
доручили
доручити
дорівнює
доріг
досвід
досвідом
досвіду
досвідчении
досвідченим
досвідченими
досвідчених
досвідченого
досвідчені
досить
дослівно
дослідження
дослідженням
досліджень
досліджували
досліджувати
досліджують
досліджуємо
дослідити
дослідник
дослідники
дослідників
доставки
доставку
достатньо
достатнього
достатньою
достатньоі
достатню
достатня
достатніи
достатніх
достовірність
достои
достоєвського
достроково
доступ
доступи
доступна
доступнии
доступним
доступними
доступних
доступно
доступні
доступність
доступом
доступу
доступі
досягла
досягли
досягнення
досягненням
досягненні
досягнень
досягнути
досягнуто
досягти
досі
дотаціи
дотичними
дотичних
дотичні
дотримання
дотриманням
дотримано
дотримуватись
дотримуватися
дотримується
доходи
доходу
доходів
доцент
доцільне
доцільним
доцільно
доцільності
доцільність
доцільніше
дочекаи
дошка
дошки
дошок
дощ
доі
доісторичну
драгоманова
дреса
дрогобицькому
дрогобич
дрогобичі
дротів
друг
друга
друге
другии
другим
других
другого
другому
другою
другоі
другу
другі
другіи
дружнього
дружнє
дружні
дружніи
друзям
друзями
друзі
друзів
друк
друкована
друковании
друкованих
друкованоі
друковану
друковані
друком
друку
друкувати
дріб
дрібних
дрібні
дсів
ду
дуб
дубильовського
дублювання
дубове
дужа
дуже
дужих
думав
думала
думали
думати
думаю
думають
думає
думаєте
думка
думками
думки
думкою
думку
думок
думці
дунін
дуть
дуться
дух
духовина
духу
душі
дьомін
дьте
дядько
дякую
дякуємо
дяченко
дяченкова
дячок
ді
діалог
діана
діаспори
діб
діброва
дів
діви
дівчина
дідона
дізнався
дізналась
дізналася
дізнались
дізналися
дізнатись
дізнатися
дізнаються
діи
ділитись
ділитися
діло
ділове
ділових
ділового
діловодства
діловодство
ділянка
ділянках
ділянки
ділянку
ділянці
діляться
дім
дістатись
дістатися
дітеи
діти
діть
дітьми
дітям
дію
діють
дія
діяла
діяли
діяльности
діяльності
діяльність
діяльністю
діями
діяти
діяч
діяча
діячі
діячів
діє
діі
е
егідою
едітатон
едітатони
едітатонів
езерпад
езерпаді
езіно
еи
екатерина
еквіа
еко
еколог
екологічна
екологічнии
екологічного
екологічні
екологія
екологіі
економіка
економіки
економічнии
економічним
економічного
економічному
економічноі
економічні
економіі
екран
екранна
екрану
екрані
екскурсію
екскурсія
екскурсіі
експедиціи
експедицію
експедиція
експедиціях
експедиціі
експериментів
експерт
експерта
експертами
експерти
експертизи
експертна
експертного
експертноі
експертну
експертом
експертів
експлуатаціі
експозиціі
експонатів
експрес
екстер
ел
електричкою
електронна
електроннии
електронним
електронними
електронних
електронного
електронному
електронною
електронноі
електронну
електронні
електронніи
електропоі
елемент
елемента
елементарних
елементи
елементу
елементів
еліта
емеи
емоціи
емоціі
енвікі
енеи
енергію
енергіі
ентомолог
ентомологіі
ентомофауни
ентузіазму
ентузіасти
енциклопед
енциклопедична
енциклопедичне
енциклопедичнии
енциклопедичним
енциклопедичних
енциклопедичного
енциклопедичному
енциклопедичну
енциклопедичні
енциклопедіи
енциклопедію
енциклопедія
енциклопедією
енциклопедіі
енцикопедією
епохи
епоху
ера
ервін
есе
ескалатора
ескалатором
если
еспресо
естонія
естоніі
етап
етапи
етапу
етапі
етапів
етики
етичних
етичноі
етно
етнологіі
етнічними
етнічних
етнічноі
еу
ефект
ефекти
ефективна
ефективне
ефективнии
ефективним
ефективними
ефективних
ефективно
ефективного
ефективності
ефективноі
ефективні
ефективність
ефективніше
ефективнішим
ефекту
ефір
ефірі
ж
жа
жаба
жаль
жанрів
жджали
жджають
же
желіба
жерепове
жертв
жертвам
жертводавців
жив
живе
живих
живлення
живого
живокіст
живу
живуть
живі
жили
жирним
жителями
жителі
жителів
жити
житло
житомир
житомира
житомирська
житомирськии
житомирськоі
житомирськіи
житомирі
життя
життям
життєвии
житті
жовтень
жовтець
жовтии
жовтня
жовтні
жовтого
жоден
жодна
жодних
жодного
жодному
жодноі
жодні
жодніи
жорсткии
жорстко
жу
жук
журавель
журнал
журнали
журналу
журнальне
журнального
журналі
журналів
журналіст
журналістам
журналістами
журналісти
журналістики
журналістів
журі
журітул
жюри
жюрі
жі
жінка
жінкам
жінками
жінки
жінку
жінок
жіночоі
з
за
заангажовані
забагато
забарвлення
забезпечення
забезпеченням
забезпеченні
забезпечено
забезпечити
забезпечувати
забезпечує
забирає
заблоковании
заблокувати
заболотного
заболотівка
заборгованість
заборона
заборонено
заборони
заборонити
заборону
забороняє
забороняється
забрав
забрали
забрати
забув
забуваи
забувати
забудова
забудови
забудьте
забули
забути
забуті
завадила
завадили
завадило
заважав
заважало
заважати
заважають
заважає
завантажена
завантажених
завантаження
завантаженням
завантаженні
завантажено
завантажень
завантажені
завантажив
завантажила
завантажили
завантажити
завантажте
завантажували
завантажувати
завантажувач
завантажувачі
завантажуи
завантажують
завантажуються
завантажує
завгодно
завдання
завданням
завданнями
завдань
завдяки
завершенню
завершення
завершенні
завершено
завершені
завершився
завершилася
завершили
завершилися
завершити
завершується
завжди
завод
заводу
завтра
завчасно
загаи
загалом
загалу
загальна
загальне
загальнии
загальним
загальними
загальних
загальновідома
загального
загальному
загальноосвітня
загальноосвітніми
загальноприи
загальною
загальноєвропеи
загальноі
загальну
загальні
загальніи
загиблим
загиблих
загинув
загинули
заголовок
заготовки
загроза
загрози
загрозою
загрозу
задавати
задаи
задати
задач
задача
задачі
задля
заднім
задовго
задоволена
задоволении
задоволеними
задоволення
задоволенням
задоволені
задовольняє
задовільно
задовільною
задокументовані
задокументувати
задум
задіяні
заж
зажем
зазвичаи
заздалегідь
зазделегіть
зазначати
зазначає
зазначається
зазначена
зазначеним
зазначеними
зазначених
зазначення
зазначенням
зазначено
зазначеного
зазначеноі
зазначені
зазначив
зазначила
зазначили
зазначити
зазначу
заи
заказник
заказника
заказниках
заказнику
закарпатська
закарпатськоі
закарпаття
заклад
закладами
закладати
закладах
закладена
закладено
заклади
закладка
закладом
закладу
закладі
закладів
закласти
заклик
закликав
закликали
закликати
закликаю
закликають
закликає
закликаємо
закликом
закон
законами
законах
закони
законних
законності
законодавства
законодавство
законодавством
законодавству
законодавстві
законодавців
законодавче
законодавчих
законодавчого
законодавчоі
законодавчі
законом
законопроект
законопроекти
законопроектом
законопроекту
законопроєкту
законопроєктів
закону
законі
законів
закордонних
закордонного
закордонні
закривати
закриває
закрили
закрите
закрити
закритии
закритим
закритими
закрито
закритого
закритому
закритою
закриття
закритті
закриту
закриті
закритість
закріпити
закріплення
закупити
закупівель
закупівлю
закупівля
закінченню
закінчення
закінченні
закінчив
закінчився
закінчили
закінчилося
закінчуються
закінчується
зал
зала
залежати
залежатиме
залежить
залежно
залежності
зали
заливати
заливка
заливки
залити
залишати
залишатися
залишають
залишаються
залишає
залишається
залишився
залишилася
залишили
залишились
залишилися
залишилось
залишилося
залишити
залишитися
залишиться
залишки
залишку
залишків
залишок
залиште
залишіть
залу
залучати
залучатися
залучають
залучаються
залучении
залучених
залученню
залучення
залученням
залученні
залучено
залучені
залученість
залучив
залучили
залучити
залюбки
залякування
залі
залізниця
залізниці
залізнична
залізничнии
залізничного
залізничні
залік
залікових
заліку
заліщики
заліщицькии
заліщицького
замало
замальовування
замку
замовити
замовлення
замовлені
замовляти
замовчуванням
замок
заміна
заміни
замінивши
замінити
заміну
замість
занадто
занесені
заняття
занять
заодно
заохотити
заохочення
заохочувальних
заохочувальні
заохочувати
заохочуються
заочне
запам
запасів
заперечення
заперечень
заперечую
заперечує
запис
записав
записався
записалися
записами
записании
записано
записані
записати
записатися
записи
записом
запису
записування
записувати
записуи
записів
запит
запитав
запитами
запитання
запитаннями
запитань
запитати
запити
запитом
запиту
запитували
запиті
запитів
заплава
заплавні
запланована
заплановане
заплановании
запланованих
заплановано
запланованого
запланованоі
заплановані
запланувати
запобігання
запобігти
заповнена
заповнення
заповнили
заповнило
заповнити
заповнював
заповнювали
заповнювати
заповніть
заповідна
заповідне
заповіднии
заповідник
заповідника
заповідниках
заповідники
заповідником
заповіднику
заповідників
заповідних
заповідного
заповідну
заповідні
запозичити
запоріжжя
запорізька
запорізькии
запорізькоі
започаткована
започатковании
започаткованими
започаткованих
започатковано
започатковані
започаткував
започаткували
започаткування
започаткувати
запровадження
запроваджено
запроваджувати
запровадили
запровадити
запропонована
запропоновании
запропонованих
запропоновано
запропонованого
запропоновані
запропонованіи
запропонував
запропонувала
запропонували
запропонувати
запропонуи
запросив
запросили
запросити
запрошении
запрошених
запрошення
запрошенням
запрошено
запрошень
запрошені
запрошували
запрошувались
запрошувалися
запрошувати
запрошуи
запрошують
запрошуються
запрошує
запрошуємо
запуск
запускати
запускає
запускаємо
запуску
запустили
запустити
запущено
запізно
заради
зараз
заразом
зараховуються
зараховується
зарахувати
зарезервувати
зареєстрована
зареєстровании
зареєстрованим
зареєстрованими
зареєстрованих
зареєстровано
зареєстровані
зареєструвався
зареєструвались
зареєструвалися
зареєструвалося
зареєструвати
зареєструватись
зареєструватися
зареєструи
зареєструються
заросляк
зарплати
зарубіжна
зарубіжноі
заріччя
засад
засадах
засади
засвоєння
засвідчена
заслуги
заслуговують
заслуговує
заслужена
заслуховування
заснована
засновании
заснованих
засновник
засновника
засновники
засновником
засновників
засновувати
заснування
засобами
засобах
засоби
засобом
засобів
застарілі
застереження
застосовувати
застосовуються
застосовує
застосовується
застосування
застосувати
застою
заступник
заступника
заступники
заступником
заступнику
заступників
засіб
засідання
засіданнями
засіданнях
засіданні
засідань
затверджена
затверджении
затверджених
затвердження
затвердженням
затверджено
затвердженого
затвердженому
затвердженоі
затверджену
затверджені
затвердженіи
затверджувати
затверджую
затверджує
затверджується
затвердили
затвердити
зате
затока
затрималися
затримка
затримки
затримкою
затримку
затягування
затягувати
зауваги
зауваження
зауваженнями
зауважень
зауважив
зауважила
зауважити
зауважте
зауважу
зауважує
зафіксовано
зафіксували
зафіксувати
захаржевських
захарян
захарівка
захист
захистити
захистом
захисту
захищати
захищених
захищені
заховане
заходами
заходах
заходжу
заходи
заходом
заходу
заході
заходів
захоплення
захоплювати
захоче
захочуть
захід
західнии
західних
західноі
західніи
зацитую
зацікавив
зацікавила
зацікавили
зацікавилися
зацікавило
зацікавити
зацікавить
зацікавлена
зацікавлении
зацікавленим
зацікавленими
зацікавлених
зацікавлення
зацікавленості
зацікавлені
зацікавленість
зачепити
зачіпає
зашкодити
заяв
заява
заяви
заявив
заявили
заявка
заявками
заявках
заявки
заявкою
заявку
заявник
заявника
заявникам
заявники
заявником
заявнику
заявників
заявок
заявою
заяву
заявці
заяві
заі
збагатити
збагачення
збереглася
збереглись
збереглися
зберегти
збережених
збереження
збереженості
збережені
зберігання
зберігати
зберігають
зберігаються
зберігає
зберігаємо
зберігається
збирався
збиралися
збирання
збирати
збиратися
збираюсь
збирають
збираються
збирає
збирається
зборам
зборами
зборах
збори
збором
збору
зборів
зброи
збудована
збудовании
збільшення
збільшенням
збільшила
збільшилась
збільшилася
збільшили
збільшити
збільшувати
збільшується
збір
збірка
збірки
збірна
збірник
збірника
збірниках
збірноі
зв
зважати
зважаючи
звання
званнями
звану
звернення
зверненням
звернено
звернень
звернув
звернувся
звернули
звернулися
звернути
звернутись
звернутися
зверніть
звертався
звертаи
звертали
звертання
звертати
звертатись
звертатися
звертаю
звертаюся
звертаються
звертає
звертається
зверху
звикли
звинувачення
звичаи
звичнии
зворотнии
зворотного
зворотному
зворотнього
зворотньому
зворотніи
звук
звукозаписувальноі
звукозаписів
звуку
звуться
звучить
звідки
звідси
звідти
звільнення
звільнити
звільняє
звірка
звірі
звірів
звісно
звіт
звітами
звітах
звіти
звітнии
звітного
звітності
звітні
звітність
звітом
звіту
звітування
звітуванням
звітувати
звітує
звіті
звітів
згадав
згадаи
згадали
згаданих
згадано
згаданого
згадані
згадати
згадка
згадки
згадку
згадок
згадував
згадували
згадування
згадувань
згадувати
згадується
згода
згоден
згоди
згодні
згодом
згодою
згоду
зголошення
зголошенням
зголошуи
згущівка
згущівки
згущівкою
згущівку
згущівок
згідним
згідно
зд
здавав
здавали
здатності
здатність
здачі
здається
здебільшого
зди
здила
здили
здити
здка
здки
здку
здобули
здобути
здобутки
здобутків
здобуття
здок
здом
здоров
зду
здці
зді
здібності
здіи
зекономити
зелена
зелене
зелении
зеленого
зеленськии
земельні
землю
земля
земляків
землі
зенко
зз
ззовні
зи
зима
зими
зимова
зимових
зимові
зинг
зингу
зисько
зла
злагоджено
злакові
злиття
зло
зловживання
зловживань
злотих
зліва
змагаи
змагання
змаганні
змагань
змагатися
зменшення
зменшити
зменшується
змова
змови
змовитися
змога
змоги
змогла
змогли
змогу
зможе
зможемо
зможете
зможу
зможуть
змушении
змушувати
змі
зміг
змін
зміна
змінами
змінено
змінені
зміни
змінив
змінився
змінила
змінилася
змінили
змінилося
змінити
змінитися
змінить
зміниться
змінні
зміною
зміну
змінювати
змінюватися
змінюють
змінюються
змінює
змінюється
зміст
змістовних
змістовно
змістом
змісту
зміцнення
зміі
зна
знав
знавців
знадобитися
знадобиться
знадобляться
знаи
знак
знаки
знаків
знала
знали
знам
знаменних
знання
знанням
знаннями
знаннях
знань
знати
знаходження
знаходився
знаходити
знаходить
знаходиться
знаходяться
знахідку
значення
значень
значимими
значимих
значимого
значимості
значимі
значимість
значить
значки
значна
значнии
значним
значних
значно
значною
значноі
значну
значні
значок
значущості
значущі
знаю
знають
знаючи
знає
знаємо
знаєте
знаєш
зниження
знижку
знизити
знизу
зникнення
знищення
знов
знову
зняли
зняти
зняття
знімати
знімаю
знімки
знімків
знімок
зобов
зображене
зображення
зображенням
зображеннями
зображено
зображеноі
зображень
зображені
зовні
зовнішнього
зовнішнє
зовнішні
зовнішніи
зовнішнім
зовнішніми
зовнішніх
зовсім
зодчество
зокрема
золотих
золоту
золоті
зона
зони
зону
зоні
зоологіі
зоопарк
зору
зосереджена
зосереджуватися
зося
зош
зрада
зразки
зразком
зразку
зразок
зразу
зранку
зрештою
зроби
зробив
зробила
зробили
зробимо
зробити
зробить
зроблена
зроблене
зроблении
зроблених
зроблено
зроблені
зроблю
зроблять
зробіть
зрозумів
зрозуміла
зрозуміли
зрозумілии
зрозумілим
зрозумілими
зрозуміло
зрозуміти
зросла
зростанню
зростання
зростанням
зростати
зростає
зруи
зручне
зручнии
зручним
зручно
зручного
зручності
зручні
зручніше
зрідка
зсередини
зу
зубов
зубченко
зупинитися
зупинка
зупинки
зупинні
зупинок
зусилля
зусиллям
зусиллями
зусиль
зустріти
зустрітися
зустріч
зустрічах
зустрічаються
зустрічеи
зустрічі
зчитувача
зюбіна
зі
зібрав
зібрала
зібрали
зібрана
зібраних
зібрання
зібрано
зібрані
зібрати
зібратися
зіи
зінаі
зіновіи
зіньків
и
из
ии
или
иншими
инших
ирина
истории
к
ка
каарел
кабінет
кабінетом
кабінету
кава
кави
кавуном
каденціи
каденцію
каденція
каденціях
каденціі
кадри
кадрові
кадрів
каже
кажете
кажу
кажуть
кажучи
казав
казала
казали
казати
казимір
как
кале
календар
календарик
календарики
календариків
календарнии
календарних
календарного
календаря
календарі
календарів
калини
калинівщина
кам
камери
камерою
ками
кампаніи
кампанію
кампанія
кампаніі
кампус
камінськии
камінь
канада
канади
канаді
канал
каналами
каналах
канали
каналу
каналі
каналів
кандидат
кандидата
кандидатам
кандидатами
кандидати
кандидатка
кандидатом
кандидату
кандидатур
кандидатура
кандидатури
кандидатуру
кандидатів
каневі
канцтовари
канцтоварів
каньи
канів
канівське
канівськии
кар
карабин
каразіна
карантин
карантинних
карантинні
карантину
караі
кардинально
карпат
карпатах
карпати
карпатськии
карпатського
карпатські
карт
карта
карти
картин
картини
картинку
картину
картка
картки
карткою
картку
карток
карту
карті
каскад
касі
каталог
каталонці
каталоніі
категоризацію
категоризація
категоризацією
категоризаціі
категоризовані
категоризувати
категорично
категоріи
категорію
категорія
категоріями
категоріях
категорією
категоріі
катерина
катерину
католицькии
кафе
кафедра
кафедри
каховка
качуровська
каштановии
каші
кб
кбаи
кваліфікатори
кваліфікаціі
кваліфікована
кваліфікованих
кваліфікованоі
квартал
кварталу
квартальнии
квартальних
квартири
квитанціі
квитка
квитками
квитки
квитків
квиток
кворум
кворуму
квотою
квітень
квіти
квітки
квітня
квітні
кголдерами
кеи
кельменецькии
керування
керувати
керуватись
керуючись
керує
керується
керч
керівник
керівника
керівником
керівників
керівних
керівництва
керівництво
керівництвом
керівного
керівні
кетрін
кзк
ки
киев
ким
кимось
кирила
кириленко
кирило
китаи
кишеньковии
кишеню
киян
кияниця
києва
києво
києвом
києві
киі
клавір
клавіш
кладовище
кладовищі
клас
класи
класика
класики
класицизму
класичноі
класичну
класна
класно
кластер
кластери
класу
класі
класів
клеи
клименко
клопотання
клопотати
клуб
клубами
клуби
клубу
клубів
ключ
ключа
ключове
ключовим
ключовими
ключових
ключові
ключі
ключів
клімат
клімату
км
кмда
кнаи
книг
книга
книгами
книгарні
книги
книгою
книгу
книжка
книжки
книжкова
книжковии
книжковому
книжковоі
книжкові
книжку
книжок
книзі
кнопка
кнопки
кнопку
кнопок
кну
княгині
князя
князів
ко
коваленко
коваль
ковальчука
ковськии
кові
кого
когось
когутяк
код
кодами
кодекс
кодексу
кодексі
коди
кодола
кодоли
кодолу
кодом
коду
кодів
коефіцієнт
коефіцієнтів
кожен
кожна
кожне
кожнии
кожним
кожного
кожному
кожною
кожноі
кожну
кожні
кожніи
козленка
козленко
козленком
козленку
кола
колаж
колажем
колажі
колах
колег
колегами
колеги
колегіум
колегія
коледж
коледжу
коледжі
колектив
колективи
колективна
колективне
колективнии
колективних
колективно
колективного
колективному
колективноі
колективні
колективу
колективів
колекціи
колекція
колекціі
колесси
коли
колись
количество
колишнього
колишньоі
колишня
колишніи
колишніх
коло
колодіи
колодія
колом
колонія
колу
колумбія
кольором
кольору
кольорів
колі
колір
коліі
ком
команд
команда
командами
команди
командира
команднии
командноі
командою
команду
команді
комарівка
комах
коментар
коментаря
коментарями
коментарях
коментарі
коментарів
коментувати
коментують
комерціи
комитет
комитетом
комп
компакт
компаніи
компанію
компанія
компанією
компаніі
компенсацію
компенсація
компенсаціі
компенсовано
компенсовують
компенсувати
компетентні
компетенціи
компетенцією
компетенціі
комплекс
комплексу
комплексі
композиторів
композиціі
компромісу
кому
комунальні
комунікаціи
комунікацію
комунікація
комунікацією
комунікаціі
комунікувати
комусь
комфортно
комісаренка
комісаренко
комісію
комісія
комісією
комісіі
комітет
комітетам
комітетами
комітетах
комітети
комітетом
комітету
комітеті
комітетів
конвертаціі
конгеніальність
конгресу
конкретики
конкретна
конкретне
конкретнии
конкретним
конкретними
конкретних
конкретно
конкретного
конкретному
конкретноі
конкретну
конкретні
конкретніше
конкуренцію
конкурс
конкурса
конкурсами
конкурсант
конкурсанта
конкурсантам
конкурсантами
конкурсанти
конкурсантов
конкурсантом
конкурсанту
конкурсантів
конкурсах
конкурсе
конкурси
конкурснии
конкурсними
конкурсних
конкурсного
конкурсні
конкурсніи
конкурсом
конкурсу
конкурсі
конкурсів
консенсус
консенсусу
консерваторіі
конспект
конспекти
конспектів
констатує
конституцією
конституціі
конструктивнии
консультанта
консультаціи
консультація
консультаціями
консультацією
консультаціі
контакт
контакти
контактна
контактнии
контактних
контактні
контакту
контактування
контактувати
контактів
контекст
контекстом
контексту
контекстуальноі
контексті
контент
контентних
контентових
контентом
контенту
контенті
контрактова
контраргументи
контроверсіи
контролем
контроль
контрольованих
контролю
контролювати
контролюючих
контролює
контролі
конференц
конференціи
конференцію
конференція
конференціях
конференцією
конференціі
конфлікт
конфліктами
конфлікти
конфліктних
конфліктноі
конфлікту
конфлікті
конфліктів
конфу
конфіденціи
концепціи
концепцію
концепція
концепцією
концепціі
концерт
концерти
концерту
концертів
конче
коопераціі
кооптацію
кооптація
кооптаціі
координат
координатами
координати
координатор
координатора
координаторами
координатори
координаторка
координатором
координатору
координаторів
координацію
координація
координаціі
координування
координувати
координуватися
координують
координує
коп
копані
копилів
копівіо
копіи
копіраи
копію
копіювання
копіювати
копія
копіі
корбут
кордон
кордоном
кордону
кордоні
кореи
корективи
коректно
коректність
кореспондент
кореспонденцію
кореспонденціі
корея
коригування
коригувати
корисна
корисне
кориснии
корисним
корисними
корисних
корисно
корисного
корисності
корисною
корисноі
корисну
корисні
корисність
користувалися
користування
користуванні
користуватись
користуватися
користувач
користувача
користувачам
користувачами
користувачеві
користувачем
користувачка
користувачки
користувачку
користувачок
користувачу
користувачці
користувачі
користувачів
користуюсь
користуються
користуючись
користується
користь
користю
користі
корніи
короленка
коронавірус
коронавірусноі
коронавірусом
коронавірусу
коростенського
коростенському
коростишів
коростишівськии
коротка
коротке
короткии
коротким
короткими
коротких
коротко
короткого
короткою
коротку
короткі
коротше
коротшии
корпус
корпусу
корпусі
корреспондент
корсунь
корінних
косово
костел
костелу
костенка
костенко
костянтин
костянтинівна
костін
косів
котляр
котляревського
котових
котра
котрии
котрі
коцюбинського
кошарка
кошт
коштами
кошти
коштом
кошторис
кошторису
кошторисів
коштує
коштів
кпі
кр
краб
кравченко
краи
красивіших
красна
красницька
красноград
краснограда
красу
крафт
краща
краще
кращии
кращим
кращими
кращих
кращого
кращому
кращою
кращоі
кращу
кращі
кращіи
краю
краєвидами
краєвиди
краєвидів
краєзнавець
краєзнавства
краєзнавство
краєзнавця
краєзнавцями
краєзнавці
краєзнавців
краєзнавча
краєзнавчии
краєзнавчих
краєзнавчого
краєзнавчому
краєзнавчоі
краєзнавчі
краі
креи
кременець
кременецькі
кременчук
кременчуцька
кременчуцькии
кременчуцькому
кременчуці
кречко
кривому
кривче
крижанівськии
кризи
крим
кримне
кримська
кримськии
кримських
кримського
кримськотатарського
кримськотатарською
кримськотатарськоі
кримськотатарську
кримськотатарськіи
криму
кримінального
криниця
критеріи
критерію
критеріям
критеріями
критерієм
критеріі
критика
критики
критику
критично
крок
кроки
кроком
кроків
кролевець
кролевецького
кропивницькии
круглии
круглого
круглому
круглі
крупнеи
крупним
крус
крутии
круто
круті
крутіших
крым
крымскотатарском
крім
крістофер
крістіан
крістінамаксименко
ксенія
ксеніі
ку
кубаи
куди
кудись
кузнеця
кулаківці
кулик
куликівка
куликівського
кулуарах
культові
культур
культура
культури
культурна
культурнии
культурним
культурними
культурних
культурно
культурного
культурному
культурною
культурноі
культурну
культурні
культурніи
культурою
культуру
культурі
куп
купа
купала
купе
купити
куплено
купляти
купол
купу
купувати
купчасті
купівлю
купівля
купівлі
кур
куратор
курган
курортів
курс
курси
курсивом
курсу
курсують
курсі
курсів
кут
кутові
куточків
кухня
кухні
кухта
кучурган
кущ
куща
кф
кшталт
кюрі
кі
ків
кілобаи
кілометр
кілометрів
кілька
кількадесят
кількасот
кільком
кількома
кількості
кількох
кількісна
кількіснии
кількісними
кількісних
кількісно
кількісного
кількісному
кількісноі
кількісні
кількість
кількістю
кімната
кімнати
кінець
кіно
кінофестиваль
кінофестивалю
кінцевии
кінцевим
кінцевого
кінцем
кінця
кінці
кіровоградська
кіровоградськоі
кіровоградщини
кіровограді
кіт
л
ла
лабораторіі
лав
лавра
лаври
лаврська
лаврськіи
ладу
лазаревського
лаи
лакуни
лакіи
лами
ланд
ландшафт
ландшафти
ландшафтнии
ландшафтних
ландшафтного
ландшафтів
лановецького
лапчук
ларинель
лариса
ларрі
ларіо
ласка
ластовець
латвіі
латиницею
латундур
лауреат
лауреатів
лгбт
лев
левицького
левон
левона
левону
легеневоподібна
легкии
легко
легкоі
легше
легітимність
ледь
лежати
лежать
лежить
леи
лексем
лексеми
лексикографічні
лектор
лектори
лекціи
лекцію
лекція
лекціями
лекцією
лекціі
леніна
леонід
леся
лесі
летичів
лз
лза
ли
ливе
лик
липень
липи
липинського
липка
липко
липня
липні
липовець
липовецького
лисенка
лисенко
лисича
лисичанськ
лисичанськии
лист
листа
листами
листи
листом
листопад
листопада
листопаді
листування
листуванні
листуватися
листі
листів
листівки
листівок
лиш
лишаи
лишаються
лишається
лише
лнма
лну
ло
лобарія
лобода
лобіювання
лович
ловник
лого
логотип
логотипа
логотипами
логотипи
логотипом
логотипу
логотипів
логін
логістика
логістики
логістику
логістична
логістичні
логічним
логічно
лозова
лозовоі
лозівськии
локальнии
локальним
локальними
локальних
локально
локального
локальноі
локальні
локалізація
локаціи
локаціях
локаціі
лом
лондоні
лопухів
лу
луганська
луганськоі
луганськіи
луганщина
луганщини
луганщині
лука
луки
луковиця
луцюк
луцюка
луці
ль
львова
львові
львів
львівська
львівськии
львівського
львівському
львівською
львівськоі
львівськіи
львівщини
львівщині
льнии
льськии
лю
любашівськии
любит
любителів
любить
люблю
люблять
любов
людвище
людеи
люди
людина
людини
людиною
людину
людині
людмила
людства
людством
людських
людьми
людям
лютии
лютинська
лютого
лютому
лі
лібрето
лів
лівии
лівка
лівна
ліворуч
лівська
лівськии
лівіи
ліга
ліги
лідер
лідери
лідером
лідерства
лідерів
лікарня
лікарні
ліквідаціи
ліквідацію
ліквідаціі
ліміт
лін
лінк
лінки
лінком
лінків
лініи
лінія
лініі
ліонкінг
ліонкінга
ліпше
лір
ліс
ліси
лісництво
лісовии
лісового
лісові
лісу
лісі
літ
літа
література
літератури
літературна
літературних
літературно
літературу
літературі
літери
літні
літніи
літнім
літніх
літо
літом
літред
ліття
ліцеи
ліцензування
ліцензіи
ліцензію
ліцензія
ліцензіями
ліцензією
ліцензіі
ліцею
ліцеі
лічильна
лічильноі
лічильну
м
ма
мабуть
мав
мався
магазин
магазину
магазині
магазинів
магніти
магнітик
магнітики
мазепи
маи
макаренка
макарівського
макарівські
македонських
македонськоі
македонія
македоніі
макет
макети
макету
макетування
маковськии
маковського
макрози
макрофото
макс
максим
максима
максимальна
максимально
максимальною
максимальноі
максимальну
максиму
максимум
максимуму
макусі
макуха
макухи
макуху
мала
малаи
малася
мале
маленька
маленькии
маленькі
мали
малии
малими
мались
малися
малих
мало
маловпливові
маловідомими
маловідомих
маловідомі
малого
малои
малороссіи
малося
малоі
малу
мальовничість
мальти
малюнки
малі
мами
мамон
мамона
ман
мандатно
мандатноі
мандри
мандрівка
мандрівки
мандрівна
мандрівників
мандрівниця
мании
маних
мання
маньковська
мапа
мапи
мапі
мар
марафон
марафону
марафоні
марафонів
марина
марка
маркетингу
марки
мармароси
мармароськии
мармароського
марною
мартін
маруша
маршрут
маршрути
маршрутизатор
маршрутизатора
маршрутки
маршрутом
маршруту
маршруті
маршрутів
маріуполь
маріуполі
марічеи
марія
маріі
мас
маси
масив
масиву
масивів
маски
масове
масових
масово
масового
масовоі
масові
масштаб
масштабна
масштабнии
масштабі
математика
математики
математичне
математичнии
математично
математичноі
математичні
матері
матеріал
матеріалами
матеріалах
матеріали
матеріалом
матеріалу
матеріальне
матеріальноі
матеріальну
матеріалів
матеріяли
матеріялів
мати
матиме
матимемо
матимете
матиму
матимуть
матись
матися
машинного
маю
маюсь
маюся
мають
маються
маючи
маяк
має
маємо
маєте
маєтки
маєтку
маєток
мається
маєш
мб
мбаи
мбф
ме
медаль
медеи
меджибізькии
меджибізького
медичних
медичного
медичноі
медичну
медичні
медова
медіа
медіавікі
медіаграмотності
медіаграмотність
медіаконтенту
медіапідтримка
медіатека
медіафаи
медіи
меж
межами
межах
международном
межу
межі
мезинськии
меи
мекк
мексика
мельничук
мельничука
мелітополь
мелітопольськии
мелітополі
меморандум
меморандуми
меморандуму
меморандумів
меморіал
меморіальнии
меморіального
меморіальні
мене
менеджер
менеджера
менеджерами
менеджери
менеджерка
менеджерки
менеджеркою
менеджером
менеджеру
менеджерів
менеджмент
менеджменту
менеджменті
менована
менторства
менторство
менторів
менували
менування
менуванням
менувати
менчул
менш
менша
менше
меншии
меншим
меншин
менших
меншості
меншою
меншу
менші
меншість
меню
мені
мереж
мережа
мережами
мережах
мережею
мережу
мережі
мерт
мері
место
мета
метаданих
метеликів
мети
метод
методами
методи
методичнии
методичним
методичних
методичного
методичноі
методичні
методом
методів
метою
метрик
метрики
метро
метрополітені
метрів
мету
меться
меті
механізм
механізми
механізму
механізмів
мехман
мехіко
мечеть
мешканці
мешканців
мзс
ми
мигидюк
миклашевських
микола
миколаи
миколая
миколаєва
миколаєві
миколаі
миколи
миколою
миколу
миколі
минуле
минулии
минулим
минулими
минулих
минуло
минулого
минулому
минулорічного
минулорічну
минулоі
минулі
мир
миру
мис
мислення
мистецтв
мистецтва
мистецтво
мистецтвом
мистецькии
мистецьких
мистецькоі
митрополита
митців
мить
михаи
михаі
миша
мкт
млаи
млини
млн
мм
мне
мною
мні
мо
моб
мобільнии
мобільних
мобільного
мобінг
мов
мова
мовами
мовах
мови
мовляв
мовна
мовнии
мовними
мовних
мовно
мовного
мовному
мовноі
мовні
мовніи
мовознаи
мовою
мову
мовців
мовчати
мовчу
мові
мовірно
мовірні
мовірність
мовірністю
могил
могила
могили
могилянська
могилів
могла
могли
могло
мого
могти
могут
моделеи
моделлю
модель
моделі
модератор
модератора
модератори
модераторів
модерація
модераціі
модерн
модерування
модерувати
модифікатори
модрі
модуль
модулі
модулів
може
можемо
можете
можеш
можлива
можливе
можливии
можливим
можливих
можливо
можливого
можливостеи
можливостями
можливості
можливоі
можливу
можливі
можливість
можливістю
можна
можно
можу
можуть
моз
мозку
мои
мокра
молдова
молдови
молдові
молода
молодих
молодці
молодшии
молодь
молоді
молодіжна
молодіжнии
молока
момент
моменти
моментом
моменту
моментів
мон
монастир
монастирьок
монастиря
монреалі
мону
монумент
монументальне
монументального
монітор
монітора
моніторинг
моніторингу
моніторити
моос
морально
моральну
море
мороз
моря
москаль
москаля
москва
московська
московського
мотивацію
мотивація
мотивацією
мотиваціі
мотиви
мотивовані
мотивування
мотивувати
мотивує
мотивів
мотичака
моторко
мою
моя
моє
моєму
моєі
моі
мп
мпкс
мріі
мськии
му
музеи
музею
музеями
музеях
музеєм
музеі
музика
музикантів
музики
музикою
музику
музиченко
музична
музичнии
музичних
музично
музичного
музичному
музичною
музичноі
музичну
музичні
музичніи
мукачеве
мукачеві
мулисте
мультимедіа
мультимедіи
мусить
мусорівці
мусять
мутинськии
муть
муфлони
мухавка
мушу
мфо
мы
мі
мів
міг
міден
між
міжнародна
міжнародне
міжнароднии
міжнародним
міжнародними
міжнародних
міжнародного
міжнародному
міжнародною
міжнародноі
міжнародну
міжнародні
міжнародніи
міжрічинськии
міжрічинського
міи
мікрогрант
мікрогранти
мікрогранту
мікрогрантів
мікроскопія
мікрофон
мілані
мільи
мільярдів
мілянович
мін
мінекологіі
мінкультури
мінськ
мінська
мінус
мінуси
міняти
міняємо
міні
мінімальнии
мінімально
мінімальноі
мінімальні
мінімум
мінімізаціі
міністерства
міністерство
міністерством
міністерству
міністерстві
міністр
міністра
міністрів
міри
мірило
міркування
мірошник
мірою
міру
мірі
міс
міст
міста
містами
містах
містечок
містив
містила
містили
містити
міститися
містить
міститься
місто
містобудування
містом
місту
містять
містяться
місті
місце
місцева
місцеве
місцевии
місцевим
місцевими
місцевих
місцевого
місцевому
місцевостеи
місцевості
місцевою
місцевоі
місцеві
місцевість
місцем
місцин
місць
місця
місцями
місцях
місці
міська
міськии
міських
міського
міському
міськоі
міськради
міські
міськіи
місяць
місяця
місяцями
місяці
місяців
місячнии
місячник
місячника
місячники
місячників
місячних
місячні
місію
місія
місіі
міться
міхалевська
міцкевича
н
на
набагато
набере
наберуть
набирають
набирає
наближається
наближення
набори
набором
набору
набрав
набрала
набрали
набрало
набрати
набув
набувати
набувають
набуває
набуде
набуло
набути
набуття
набуті
набір
нав
навантаження
наведении
наведених
наведено
наведені
наведіть
навесні
навести
навики
навиків
навичками
навички
навичок
навколишнього
навколишнє
навколо
навмисне
навмисних
навмисно
наводиться
наводяться
навпаки
навпроти
навряд
наврядчи
навчали
навчальнии
навчальним
навчальними
навчальних
навчально
навчального
навчальному
навчальною
навчальноі
навчальні
навчання
навчанні
навчати
навчаться
навчають
навчився
навчилися
навчити
навчитись
навчитися
навів
навігаціи
навіть
навіщо
нагадав
нагадати
нагадаю
нагадаємо
нагадування
нагадувати
нагадую
нагадує
нагадуємо
нагальна
нагляд
наглядова
наглядовоі
нагляду
нагода
нагоди
нагоду
нагоді
наголосив
наголосити
наголошено
нагород
нагорода
нагороджении
нагороджених
нагородження
нагородженням
нагородженні
нагороджено
нагороджені
нагороджувати
нагороджуються
нагороджує
нагороди
нагородила
нагородили
нагородити
нагороду
нагородять
над
надав
надавав
надавала
надавали
надавати
надаватися
надаи
надала
надали
надало
надалі
надана
надане
надании
наданими
наданих
надання
наданням
наданні
надано
надану
надані
надасть
надати
надають
надаються
надаючи
надає
надаємо
надається
надбання
надбанні
надзвичаи
надихає
надмірно
надрукувати
надсилав
надсилаи
надсилалися
надсилання
надсилати
надсилаються
надсилає
надсилається
надто
надходження
надходжень
надходить
надходять
надіи
надіслав
надіслала
надіслали
надіслании
надісланих
надіслано
надіслані
надіслати
надішліть
надію
надіюсь
надія
надією
нажаль
наживо
назад
назарв
назаренко
назв
назва
назвала
назвали
назвами
названих
названо
названі
назвати
назви
назвою
назву
назві
назвіть
називати
називають
називаються
називається
наи
наказ
наказу
наклад
накладає
накладом
наклеи
наклеп
накопичуються
накопичується
налагодженню
налагодження
налагодженні
налагоджено
налагодити
налаштовувати
налаштування
налаштуваннях
налаштувати
належать
належить
належне
належним
належного
наливаи
наліво
наліпка
наліпки
наліпок
налічує
налічується
нам
намагався
намагаи
намагалась
намагалася
намагалися
намагання
намагатимусь
намагатися
намагаюсь
намагаюся
намагаються
намагаючись
намагаємося
намагається
намети
наметів
нами
намір
наміри
намірів
нан
нана
нанесенням
нани
нану
наодинці
наостанок
нападівка
напевно
наперед
напередодні
написав
написавши
написала
написали
написана
написане
написании
написаних
написанню
написання
написанням
написанні
написано
написаного
написані
написати
написать
напише
напиши
напишу
напишуть
напишіть
наповненню
наповнення
наповненням
наповненні
наповнити
наповнювати
наповнюються
наповнюється
наполегливо
наполнению
напр
направити
направлено
направо
напрацьовані
напрацювання
наприклад
наприкінці
напрям
напрямам
напрямами
напрями
напрямкам
напрямками
напрямках
напрямки
напрямком
напрямку
напрямків
напрямок
напрямом
напряму
напрямі
напрямів
наразі
нараховуються
нараховує
нараховується
нарахування
нарешті
народження
народи
народився
народнии
народних
народного
народноі
народні
народонаселення
народу
народів
нас
насамперед
населении
населеними
населених
населення
населенням
населеного
населеному
населені
насичена
наскільки
наслідками
наслідки
наслідком
наслідків
наслідок
насправді
наставника
наставників
наставництва
настанов
настановам
настанови
наступна
наступне
наступнии
наступним
наступними
наступних
наступного
наступному
наступноі
наступну
наступні
наступніи
настіи
настільки
наталка
наталя
наталію
наталія
наталією
наталіі
натиснути
натисніть
нато
натомість
натрапив
натхнення
наук
наука
науки
наукма
наукова
наукове
науковець
науковии
науковим
науковими
наукових
науковиць
науково
наукового
науковому
науковою
науковоі
наукову
науковця
науковцям
науковцями
науковці
науковців
наукові
науковіи
науку
наумович
науці
нах
нацменшин
націлении
націона
національна
національне
національнии
національним
національними
національних
національно
національного
національному
національностеи
національною
національноі
національні
національніи
начальник
начальника
наче
начебто
наш
наша
наше
нашим
нашими
наших
нашого
нашому
нашою
нашоі
нашу
наші
нашіи
нащадків
нащо
наявна
наявнии
наявних
наявності
наявноі
наявну
наявні
наявність
наявністю
нв
нвк
нді
не
неактивних
неактивні
неактивність
неба
небагато
небагатьох
небажане
небаи
небезпеки
небезпеку
небесноі
небо
небудь
невдачі
невдовзі
невелика
невеликии
невеликим
невеликими
невеликих
невелику
невеликі
невеличкии
невеличкі
невже
невизначении
невиконання
невикористані
невичитано
невпинно
невід
невідомих
невідомо
невідомі
невільних
невільні
негаи
негарно
негатив
негативнии
негативними
негативних
негативно
негативного
негативні
недавно
недалеко
недолік
недоліки
недоліків
недопредставлених
недопущення
недосконалість
недостатньо
недостатню
недостатня
недоцільно
недіи
неділю
неділя
неділі
неефективно
неефективну
незабаром
незавершена
незадовільною
незадовільну
незаконним
незалежнии
незалежними
незалежних
незалежно
незалежності
незалежність
незважаючи
незвідане
незнаи
незначна
незрозуміло
незручне
незручно
неи
некомерціи
неконструктивних
некоректно
нема
немаи
нематеріального
нематеріальноі
нематеріальні
немає
неможливе
неможливо
неможливості
неможливість
необмежена
необов
необхідна
необхідне
необхіднии
необхідним
необхідними
необхідних
необхідно
необхідного
необхідності
необхідною
необхідноі
необхідну
необхідні
необхідність
необхідністю
неодноразово
неодноразові
неолімпіада
неолімпіади
неофіціи
непал
непередбачувані
неповнии
неповні
непогана
непогано
неподалік
непорозумінь
неправильно
неправомірних
неприбуткова
неприбуткових
неприбутковою
неприбутковіи
неприи
неприємно
непросто
нер
нереально
нерегулярною
нерозуміння
нерухоме
нерухомим
нерухомих
нерухомоі
нерів
нерівності
нерівність
нерідко
несамовите
несвобода
несе
несплати
несплатою
несплату
нестеренко
нести
несуть
нет
нетерпінням
неточності
неурядова
неформальне
нефотографічні
нехаи
нечленів
нечуя
нещодавно
нею
неякісні
неясно
неі
нз
ни
нижня
нижніи
нижче
низ
низка
низки
низку
низці
низька
низькии
низького
низькою
низькоі
низьку
нии
ник
никами
ники
ників
ним
ними
нині
нинішнього
нинішня
нинішніи
нинішніх
нирків
них
нка
нки
нмд
но
нова
новаків
новаціі
новачка
новачкам
новачками
новачки
новачком
новачків
новачок
новгород
нове
новии
новим
новими
новин
новина
новинами
новинах
новини
новину
нових
ново
новоаи
нововведення
нововодолазька
нового
новоград
новозареєстрованих
новому
новообрании
новосамарка
новостворених
новоствореноі
новостворені
новости
новосілка
новою
новоі
нову
нові
новіи
новітніх
нога
ного
нодіючих
нознавства
ном
номер
номера
номери
номером
номеру
номерів
номовна
номовнии
номовних
номовного
номовному
номовною
номовноі
номовну
номовні
номовніи
ному
номінантів
номінаціи
номінацію
номінація
номінаціями
номінаціях
номінацією
номінаціі
номіновані
номінувати
норвегія
норвежців
норм
норма
нормальне
нормальнии
нормально
нормативно
норми
норму
носити
ності
носівка
носіях
носіі
нот
нотаріально
нотаріальні
нотаріуса
нотаріусом
нотатки
нотаток
ноти
нотнии
нотних
нотні
ноут
ноутбук
ноутбука
ноутбуками
ноутбуки
ночувати
ночі
ночівлю
ночівлі
ною
ноі
нп
нпп
нпу
нр
нску
нська
нське
нськии
нським
нськими
нських
нсько
нського
нськомовного
нському
нською
нськоі
нську
нські
нськіи
нтз
нту
нтуу
ну
нування
нудно
нуль
нульова
нуля
нумерацію
нумерація
нумераціі
нумізматики
нуо
нциклопедія
нцям
нці
нців
нього
ньому
нью
нюанси
нюансів
няв
нявчин
няла
няли
няло
нята
няте
няти
нятии
нятим
нятими
нятись
нятися
нятих
нятнии
нятним
нятними
нятно
нятною
нято
нятого
нятості
няття
нятті
няті
нятість
нє
ні
ніби
нів
нігеріі
ніде
нідерландах
нідерланди
нідерландів
ніж
ніжин
ніжинська
ніжинськии
ніжинським
ніжинського
ніжині
нізували
ніи
нік
ніка
ніки
нікк
нікка
нікнеи
нікого
нікола
ніколаєнко
ніколи
ніком
нікому
нікуди
нікіспікі
нікітіна
нім
німецька
німецькии
німецько
німецького
німецькою
німецькоі
німеччина
німеччини
німеччині
німці
німців
ністики
ність
ніхто
ніч
нічим
нічнии
нічого
ніщо
ніяк
ніяких
ніякого
ніякоі
о
об
обг
обговоренню
обговорення
обговореннявнесок
обговоренням
обговореннях
обговоренні
обговорено
обговорень
обговорені
обговорили
обговоримо
обговорити
обговорювали
обговорювалися
обговорюваних
обговорювати
обговорюють
обговорюються
обговорюємо
обговорюється
обговорять
обгрунтування
обдумати
обере
оберуть
обидва
обидві
обирали
обирати
обирають
обираються
обирає
обираємо
обкладинка
обкладинки
обкладинку
обл
обладнання
обладнанням
обласна
обласне
обласнии
обласними
обласних
обласного
обласному
обласною
обласноі
обласні
обласніи
областеи
области
область
областю
областями
областях
області
облдержадміністраціі
обличчя
облік
обліковии
обліковим
облікових
облікового
обліковоі
облікові
обліку
обмежена
обмежении
обмеженими
обмежених
обмеження
обмеженнями
обмежено
обмеженою
обмежену
обмежень
обмежені
обмежити
обмежувальних
обмежувати
обмежує
обмежується
обмін
обміну
обмінюватися
обмінятися
обов
ободівка
обожин
обожина
обома
оборони
обох
ображали
ображати
образ
образи
образливим
образливих
образливі
образотворчого
образу
образів
обрала
обрали
обрало
обрана
обране
обрании
обраним
обраними
обраних
обранню
обрання
обрано
обраного
обрані
обрати
обробка
обробки
обробку
обробленими
обробляти
обсерваторія
обсерваторіі
обслуговування
обставин
обставини
обстеження
обсяг
обсяги
обсягом
обсягу
обсязі
объявляет
обід
обіди
обідньоі
обідня
обіду
обізнании
обізнаності
обізнаність
обіи
обіцяв
обіцянки
обіцянок
обіцяти
обіцяю
обґрунтовану
обґрунтовані
обґрунтування
обґрунтувати
ова
овании
ованими
ованих
овано
овані
ович
овича
овичу
огансен
огляд
оглядом
огляду
оглянути
ого
оголосив
оголосила
оголосили
оголосити
оголосить
оголошених
оголошення
оголошенням
оголошеннях
оголошено
оголошень
оголошені
оголошувати
оголошуються
оголошує
оголошуємо
оголошується
огієнка
од
ода
одержання
одержувати
одеса
одеси
одесу
одеська
одеськии
одеського
одеськоі
одеськіи
одесі
одещини
один
одинадцяти
одиницю
одиницях
одиниці
одна
однак
однакова
однакове
однаковии
однакових
однаково
однакову
однакові
одне
одним
одними
одних
одно
одного
одноголосно
одноденна
одноденні
однодумців
однозначно
однои
одному
одноосібно
одноразовии
одностаи
однотипних
одночасно
одну
одні
одніи
однією
однієі
одразу
одужання
оз
озаричанськии
озер
озера
озерець
озеро
озерце
озерцем
озерця
озерці
озері
озна
ознаи
ознак
ознаки
означати
означатиме
означає
означенню
означення
озних
озно
озного
озні
озніших
озірне
озірни
ои
ок
окни
окнянськии
око
околицях
околиці
окр
окрема
окреме
окремии
окремим
окремими
окремих
окремо
окремого
окремому
окремою
окремоі
окрему
окремі
окреміи
округ
округу
окрім
оксана
олег
олега
олегівна
олекса
олександр
олександра
олександрович
олександровича
олександру
олександрівка
олександрівна
олександрівну
олекси
олексинець
олексіи
олексія
олексієм
олексіі
олена
олени
олень
олені
олесь
олеся
олешківські
ольга
ольгинська
олюсь
оля
олімпіада
олімпіи
ом
ома
омив
омився
омии
омились
омилися
омими
омити
омитись
омитися
омих
омка
омки
омку
омкф
омлена
омлении
омлення
омств
омства
омство
омтеся
ому
омі
омів
он
она
онами
онах
они
онкович
онлаи
онна
онне
оннии
онних
онного
онноі
онну
онні
онніи
оновити
оновлення
оновлено
оновлювати
оновлюється
оновіть
оном
ону
онук
оні
онів
оон
оп
опанувати
опв
опера
оперативнии
оперативно
оперативного
оперативну
оператор
оператору
операціи
операціі
опери
оперу
опис
описав
описами
описана
описано
описані
описати
описи
описовии
описового
описом
опису
описувати
описує
опись
описі
описів
опитаних
опитати
опитувальна
опитувальні
опитуваних
опитування
опитуванні
опитувань
опишіть
оплат
оплата
оплати
оплатити
оплату
оплачувана
оплачуваного
оплачувати
оповідання
опосередковано
опрацьовано
опрацьовані
опрацьовувати
опрацювання
опрацювати
оприлюднення
оприлюднила
оприлюднювати
оптимальним
оптимально
оптимального
оптимізаціі
оптимістично
опублікована
опубліковане
опубліковании
опублікованими
опублікованих
опубліковано
опублікованого
опублікованому
опубліковані
опублікованіи
опублікував
опублікувала
опублікували
опублікування
опублікувати
опція
опціі
опікується
опішня
орг
орган
органам
органами
органах
органи
организации
организационным
организация
органом
органу
органів
організатор
організатора
організаторам
організаторами
організатори
організаторок
організатором
організатору
організаторів
організаці
організаціи
організацію
організація
організаціям
організаціями
організаціях
організацією
організаціі
організми
організована
організовании
організованих
організовано
організованого
організовані
організовував
організовувала
організовували
організовувати
організовують
організовуються
організовує
організовуємо
організовується
організував
організувала
організували
організувати
органічне
органічно
оргком
оргкому
оргкомі
оргкомів
оргкомітет
оргкомітетом
оргкомітету
оргкомітеті
оргкомітетів
оргів
ордакі
оренда
оренди
оренду
оригінал
оригінали
оригіналу
оригінальна
оригінальнии
оригінальних
оригінальноі
оригінальну
оригінальні
оригінальність
оригінальністю
оришківці
орк
орфографічними
орфографічні
орієнтаціі
орієнтовании
орієнтовані
орієнтовна
орієнтовнии
орієнтовно
орієнтовні
орієнтуватися
орієнтуючись
орієнтується
ос
оса
осадчук
освоєння
освоі
освіта
освіти
освітлення
освітлинимо
освітнього
освітньому
освітньою
освітньоі
освітню
освітня
освітнє
освітні
освітніи
освітнім
освітніми
освітніх
освіторія
освітою
освіту
освітян
освітяни
освіті
осені
осередків
осипенко
осипович
осиповича
оскарженню
оскільки
основ
основа
основам
основи
основна
основне
основнии
основним
основними
основних
основного
основному
основною
основноі
основну
основні
основніи
основою
основу
основі
особа
особам
особами
особи
особиста
особисте
особистии
особистим
особистими
особистих
особисто
особистого
особистостеи
особистості
особистоі
особисту
особисті
особистіи
особлива
особливе
особливии
особливих
особливо
особливого
особливостеи
особливостями
особливості
особливою
особливоі
особливу
особливі
особові
особою
особу
особі
осоки
осокою
осп
останнього
останньому
останньоі
останню
остання
останнє
останні
останніи
останнім
останніми
останніх
остаточна
остаточне
остаточнии
остаточними
остаточних
остаточно
остаточного
остаточною
остаточноі
остаточну
острова
острові
острозьких
острів
ось
осіб
осінь
от
отг
отже
ото
отож
оточення
отримав
отримавши
отримаи
отримала
отримали
отримало
отримании
отриманих
отримання
отриманням
отриманні
отримано
отриманоі
отримані
отримати
отримають
отримає
отримаємо
отримаєте
отримував
отримувала
отримували
отримувати
отримувач
отримувача
отримувачі
отримувачів
отримуи
отримують
отримує
отримуємо
отрошенка
отрс
отут
оунб
оф
офлаи
оформити
оформлення
оформленням
оформленні
оформлені
оформлювати
оффлаи
офіс
офісного
офісу
офісі
офіціи
охопив
охопила
охопили
охопити
охоплення
охопленням
охоплено
охоплює
охорона
охорони
охороннии
охоронних
охорону
охороняються
охороняється
охороні
охочии
охочих
охочі
оце
оцифроване
оцифровки
оцифровування
оцифрування
оцифрувати
оцінена
оцінених
оцінені
оцінив
оцінила
оцінили
оцінити
оцінка
оцінками
оцінки
оцінкою
оцінку
оцінок
оцінці
оцінювання
оцінюванні
оцінювати
оцінюватиме
оцінюватися
оцінюють
оцінюються
оцінює
оцінюється
оцініть
очах
очевидна
очевидним
очевидно
очевидні
очима
очно
очолила
очі
очікував
очікувании
очікування
очікуваного
очікувані
очікувати
очікую
очікують
очікуються
очікуємо
очікуєте
очікується
оі
п
па
павла
павле
павло
павлович
павловича
павлом
павлу
павлівна
павук
пагорба
падає
пазіи
пакет
пакетним
пакету
пакистан
палац
палаци
палацу
палаці
паливо
пальне
пам
памятки
памятников
пан
пана
панасюк
пандемію
пандемія
пандемією
пандеміі
пане
панель
панельна
панелі
панорама
панорами
панораму
пані
папери
паперовии
паперових
паперовому
паперу
папері
папка
папороть
папірець
пар
пара
парадних
параду
паралельних
паралельно
паралельною
паралімпіи
параметр
параметрами
параметри
параметрів
пари
париж
парижі
парк
парках
парки
паркового
парку
парків
парламент
парламентських
парламенту
парламенті
паролем
пароль
партнер
партнера
партнерам
партнерами
партнери
партнером
партнерств
партнерства
партнерство
партнерстві
партнерських
партнерські
партнерів
партіи
партію
партія
партіі
пару
пасаж
пасивних
паслухаць
паспорт
паспорту
патрульнии
патрульним
патрульних
патрульного
патрульні
патрулювання
патріархату
патріотів
певен
певна
певне
певнии
певним
певними
певних
певно
певного
певною
певноі
певну
певні
певніи
педагог
педагоги
педагогів
педагогічнии
педагогічних
педагогічного
педагогічному
педагогічноі
педагогічні
педія
пеи
пелещишин
пенсіонерів
первинна
первинно
первинного
первомаи
перебував
перебування
перебувати
перебувають
перебуває
перебіг
переваг
перевага
переваги
перевагою
перевагу
переважна
переважно
перевантаження
переведення
перевести
перевищення
перевищила
перевищувати
перевищують
перевищує
переводити
перевірено
перевірені
перевірили
перевірити
перевірка
перевірки
перевіркою
перевірку
перевірність
перевірок
перевірте
перевіряти
перевіряють
перевіряє
перегляд
переглядами
переглядати
переглядатися
переглядають
переглядає
перегляди
перегляду
переглядів
переглянувши
переглянули
переглянути
переглянуто
переглянуті
перегляньте
переговори
переговорів
перегони
перед
передав
передавати
передано
передані
передати
передача
передачу
передачі
передають
передаються
передає
передбачати
передбачатиме
передбачають
передбачаються
передбачає
передбачається
передбачена
передбачене
передбачених
передбачено
передбачені
передбачити
передконференціи
передоручення
передумовою
передусім
переи
переказати
переказу
перекидки
переклад
перекладали
перекладами
перекладати
перекладах
перекладач
перекладача
перекладачі
перекладачів
перекладається
перекладена
перекладених
перекладено
перекладеною
перекладені
переклади
перекладом
перекладу
перекладі
перекладів
переклали
перекласти
переконаи
переконання
переконати
переконатися
перелік
переліки
переліком
переліку
переліків
перелічених
перелічено
перелічені
перелічити
перемовини
перемога
перемоги
перемогла
перемогли
перемогло
перемогти
перемогу
переможець
переможні
переможцеві
переможцем
переможця
переможцям
переможцями
переможці
переможців
переміг
переміщення
перенаправити
перенаправлення
перенаправленням
перенаправлявся
перенесення
перенесено
перенесли
перенести
переносити
переписуватися
перепони
перепрошую
перераховані
перерахування
перерв
перерва
перерви
перервою
перереєстраціі
пересадка
пересилання
переслав
переслати
переслідування
перестав
перетворення
перетин
перетнула
перефразовуючи
переходи
переходимо
переходити
переходить
переходу
переходьте
переходять
перехрестя
перехід
перешкод
перешкоди
перешкодою
переяслав
переі
перлинами
пероганич
пероганича
пероганичем
пероганичу
персонал
персоналом
персоналу
персональна
персональнии
персональних
персонально
персонального
персональну
персональні
персоналіи
персоналіі
перспектив
перспектива
перспективи
перспективнии
перспективних
перспективні
перспективу
перспективі
перстень
перш
перша
перше
першии
першим
першими
перших
першого
першому
першочергово
першою
першоі
першу
перші
першіи
період
періоди
періодично
періодичні
періодом
періоду
петлюри
петра
петренко
петро
петров
петрова
петрович
петровича
петровичу
петрову
петрос
петрусь
петрушко
печатки
печаткою
печатку
печера
печерного
печерська
печерськии
печерським
печерського
печерському
печерськоі
печиво
печі
печірна
пз
пзф
пи
пирятинського
писав
писала
писали
писати
писатиме
писатимуть
писать
письменник
письменника
письменники
письменників
письмова
письмовии
письмових
письмово
письмового
письмовому
письмовою
письмовоі
письмову
письмові
письмовіи
питав
питанню
питання
питанням
питаннями
питаннях
питанні
питань
питати
пише
пишемо
пишете
пишеться
пишу
пишувікіпедію
пишуть
пишуться
пишіть
пк
пкс
пл
плагіат
плагіату
плакат
плакати
план
планами
планах
планети
планеті
плани
плановании
плановані
плановою
планом
плану
планував
планувала
планували
планувалось
планувалося
планування
планувати
планую
планують
плануються
планує
плануємо
плануєте
планується
плануєш
планшет
планшети
плані
планів
платежем
платежу
платежі
платежів
платити
платна
платне
платників
платних
платного
платну
платні
платформа
платформами
платформах
платформи
платформою
платформу
платформі
платять
платіжних
платіжні
плацдарм
плед
плоске
площа
площею
площині
площі
плр
плутанину
плутати
плюс
плюсом
плям
плями
по
побажання
побажаннями
побажань
побачив
побачила
побачили
побачило
побачимо
побачите
побачити
побачить
поблизу
побоювання
побувати
побудована
побудовании
побудови
побуту
побільше
пов
повага
поваги
повагою
поважні
поведінка
поведінки
поведінку
повернення
повернувся
повернулися
повернути
повернутись
повернутися
поверніть
повертаються
повертаючись
поверх
повз
повинен
повинна
повинне
повинно
повинні
повна
повне
повнии
повними
повно
повноваження
повноваженням
повноваженнями
повноважень
повного
повномасштабне
повномасштабного
повномасштабноі
повномасштабну
повному
повнота
повноту
повноціннии
повноцінно
повноцінного
повноцінноі
повноцінну
повною
повноі
повну
повні
повністю
повнішии
повнішу
повніші
поводитися
повстання
повторення
повторити
повторне
повторнии
повторно
повторного
повторю
повторювати
повідомив
повідомивши
повідомила
повідомили
повідомити
повідомить
повідомлення
повідомленням
повідомленнями
повідомленні
повідомлено
повідомлень
повідомляв
повідомляи
повідомляли
повідомляти
повідомляю
повідомляються
повідомляє
повідомте
повільно
повірених
повісити
повіт
повітря
повітрі
погана
погане
погании
поганим
поганих
погано
поганого
погані
поглибили
поглиблення
погляд
поглядами
погляди
поглядів
поговорили
поговоримо
поговорити
поговорки
погода
погодження
погодженням
погоджено
погоджуюсь
погоджуюся
погоджуються
погоджуємось
погоджуєтесь
погоджуєтеся
погоджується
погоди
погодився
погодились
погодилися
погодитися
погодних
погрози
под
подав
подавав
подаваи
подавалися
подавати
подаватися
подаи
подала
подали
подальша
подальше
подальшии
подальшим
подальших
подальшого
подальшому
подальшою
подальшоі
подальшу
подальші
подана
подании
поданих
подання
поданням
подано
поданоі
подану
подані
подаровано
подарувати
подарунки
подарунковии
подарункові
подарунків
подарунок
подасть
подати
податися
податковии
податкових
податковоі
податків
подача
подачу
подачі
подаю
подають
подаються
подає
подаєте
подається
подбати
подвіи
подвір
подекуди
подивився
подивитись
подивитися
подивіться
подобаються
подобається
подолала
подолання
подолати
подорож
подорожеи
подорожувати
подорожі
подумав
подумати
подяк
подяка
подяки
подяку
подякував
подякувати
подібна
подібне
подібнии
подібних
подібно
подібного
подібноі
подібну
подібні
подіи
поділена
поділені
поділився
поділилися
поділити
поділитись
поділитися
поділля
поділу
подільськии
подільського
подільському
подільськоі
поділяться
поділяє
поділяється
подію
подія
подіями
подіях
подією
подіі
поезіі
поета
пожертв
пожертви
пожертвувань
пожижевська
поза
позачерговими
позачергових
позачергового
позачергові
позашкільними
позашкільноі
позаштатних
позбавлении
позбавлення
позивачем
позитив
позитивне
позитивнии
позитивним
позитивних
позитивно
позитивного
позитивну
позитивні
позиціи
позицію
позиція
позицією
позиціі
позмагатися
познаи
позначаи
позначали
позначає
позначення
позначені
позначити
позначка
позначки
позначку
позов
позовних
пои
покаже
покажи
покажіть
показ
показав
показала
показали
показало
показании
показано
показати
показник
показника
показниками
показниках
показники
показником
показників
показувати
показують
показуючи
показує
покарання
поки
покинути
покладатися
покладено
покласти
покликана
покликании
покликані
покоління
поколінь
покращених
покращенню
покращення
покращенням
покращенні
покращено
покращень
покращені
покращили
покращити
покращували
покращувати
покрив
покривати
покривають
покриваються
покриває
покривом
покрити
покриття
покровськ
покровська
покровське
покровськии
покровську
покрокова
покупку
покіи
пол
поле
полегшення
полегшити
полегшує
полкова
половина
половини
половиною
половину
половині
положення
положенням
положень
полонина
полонини
полонину
полонині
полохалу
полтава
полтавська
полтавськии
полтавського
полтавськоі
полтавщини
полтавщині
полтаві
получить
польовии
польових
польові
польська
польськии
польським
польських
польського
польською
польськоі
польські
польськіи
польща
польщі
поля
полягала
полягати
полягатиме
полягає
поляками
поляки
поляків
полі
поліна
поліпшена
поліпшених
поліпшенню
поліпшення
поліпшенням
поліпшенні
поліпшено
поліпшеноі
поліпшені
поліпшили
поліпшити
поліпшить
поліпшували
поліпшувати
поліпшуючи
полісся
політ
політехніка
політехніки
політехніці
політехнічнии
політик
політика
політики
політикою
політику
політиків
політиці
політична
політичних
політичного
політичноі
політичну
політичні
поліщук
пом
помаранчевого
померли
помилка
помилками
помилки
помилково
помилкою
помилку
помилок
помиляюсь
помиляюся
поміж
помістити
помісячно
помітили
помітно
помітного
помітять
помічник
поміщених
понад
понеділок
поновлення
поняттю
поняття
понять
попа
попередження
попереджень
попередити
попередньо
попереднього
попередньому
попередньою
попередньоі
попередню
попередня
попереднє
попередні
попередніи
попереднім
попередніми
попередніх
попереду
поповнення
поповнено
поповнилась
поповнилася
поповнили
поповнити
поповнювати
поповнюватися
поправки
попрацювати
попри
попросив
попросили
попросити
попросіть
попрошу
популяризацію
популяризація
популяризацією
популяризаціі
популяризувати
популяризують
популяризує
популярнии
популярним
популярними
популярних
популярного
популярності
популярные
популярні
популярність
популярністю
популярніша
популярнішии
популярнішим
популярнішими
популярніших
популярнішою
популярніші
попівці
пора
порад
порада
порадами
поради
порадити
порадою
порахувати
пороги
порозуміння
поросле
порослі
порошенко
портал
портали
порталом
порталу
порталі
порталів
портрет
портрети
португальською
португалія
портфоліо
поруч
порушення
порушенням
порушеннями
порушень
порушники
порушували
порушувати
порушують
порушує
порушується
поряд
порядки
порядком
порядку
порядок
порівну
порівнювати
порівняльна
порівняння
порівнянні
порівняно
порівняти
поріг
посад
посада
посадах
посади
посадовими
посадою
посаду
посаді
посвідчення
посвідчується
поселення
поселенні
поселився
посеред
посередником
посередництва
посилання
посиланням
посиланнями
посилань
посилатись
посилатися
посилаються
посилається
посилення
посилки
пословицы
послуг
послугами
послуги
послухати
послідовно
послідовну
послідовність
посольства
посольство
посольством
поспілкуватись
поспілкуватися
поспіль
поспіхом
поспішати
пост
поставив
поставила
поставили
поставити
поставлено
поставлені
поставте
постанови
постановка
постараюсь
постатеи
постаті
постає
постер
постернак
пости
постити
постмортем
посту
поступ
поступово
пості
постів
постіи
посуд
посібник
посібника
посібники
посібником
посібників
посів
посідала
посідає
посіла
посіли
потенціал
потенціалу
потенціи
потоки
потоку
потоцьких
поточна
поточне
поточнии
поточним
поточних
поточного
поточному
поточноі
поточну
поточні
поточніи
потрапив
потрапила
потрапили
потрапило
потрапити
потрапить
потраплятимуть
потраплять
потрапляють
потрапляє
потреб
потреба
потреби
потребою
потребу
потребувала
потребуватимуть
потребують
потребує
потребуєте
потребі
потроху
потрібен
потрібна
потрібне
потрібнии
потрібних
потрібно
потрібності
потрібноі
потрібну
потрібні
потріи
потужне
потужним
потяг
потяга
потяги
потягне
потягом
потік
потім
пофотографувати
поховання
походження
походить
похід
похідних
похідні
поціновувачів
почав
почався
почала
почалась
почалася
почали
почалися
почалося
почати
початкова
початковии
початковим
початково
початком
початку
початківців
почато
початок
почаі
почекати
почесних
почесного
почесні
починати
починають
починаються
починаючи
починає
починається
почитаи
почитати
почне
почнеться
почнуть
почув
почути
почуття
пошвидше
поширенню
поширення
поширенням
поширенні
поширено
поширені
поширеніших
поширеніші
поширили
поширити
поширювали
поширювались
поширювати
поширюватися
поширюються
поширює
поширюється
пошта
пошти
поштова
поштовии
поштових
поштовоі
поштову
поштові
поштою
пошту
пошті
пошук
пошукаи
пошукати
пошуках
пошуки
пошуком
пошуку
пощастило
пощастить
появи
появу
пояснення
поясненням
пояснено
пояснень
пояснив
пояснити
поясню
пояснювали
пояснювати
пояснює
пояснюється
поясніть
поєднання
поєднати
поі
поінформованості
пп
ппв
пр
пра
прав
права
правами
правда
правди
правии
правил
правила
правилам
правилами
правилах
правило
правилом
правильне
правильнии
правильним
правильно
правильноі
правильні
правильність
правильніше
правки
правку
правлінець
правлінню
правління
правлінням
правлінні
правлінця
правлінцям
правлінці
правлінців
правлінь
правників
право
правовии
правовими
правових
правовласниками
правовласників
правого
правозахисті
правознавства
правок
правом
правомочними
правомочність
правомірні
правописних
правопису
праворуч
православна
правочини
праву
праві
правіи
прага
прагне
прагнемо
прагнення
прагнув
прагнути
прагнуть
празі
праи
практик
практика
практики
практикою
практику
практикум
практиці
практична
практичне
практичнии
практичним
практичних
практично
практичного
практичноі
практичну
практичні
практичніи
прапор
прапора
прапорець
прапорця
праць
працю
працював
працювала
працювали
працювати
працюватиме
працюватиму
працюватимуть
працюю
працюють
працюючи
працює
працюємо
праця
праці
працівник
працівника
працівникам
працівниками
працівники
працівником
працівників
пред
предмет
предмети
предметом
предмету
предметів
представив
представила
представили
представити
представить
представлена
представлении
представлених
представлення
представленням
представлено
представлені
представляв
представляли
представляти
представлятиме
представлять
представляють
представляє
представник
представника
представникам
представниками
представники
представником
представнику
представників
представництва
представництво
представництвом
представниць
представницьким
презентантів
презентаціи
презентацію
презентація
презентаціями
презентацією
презентаціі
презентовано
презентував
презентувала
презентували
презентування
презентувати
презентують
президент
президента
президію
президія
президіі
презумпціі
прекрасно
прем
премудрості
преміальними
преміальних
преміи
премію
премія
преміі
преображенськии
прес
преса
пресвятоі
преси
пресою
пресрелізи
пресрелізів
пресслужба
пресі
претендента
претендувати
претендуватимуть
претендує
претензіи
претензіі
при
прибирання
приблизна
приблизнии
приблизними
приблизно
приблизну
приблизні
прибрати
прибутки
прибуткових
прибутку
прибуття
прив
привабливості
привабливість
приватна
приватнии
приватним
приватних
приватного
приватності
приватноі
приватні
приватність
приведених
привезти
привернення
привернути
привертає
привести
привид
приводом
приводу
привід
привіт
привітаи
привітання
привітного
пригадати
пригадую
приготування
придатність
придбання
придбано
придбати
придніпровського
придумати
приділили
приділити
приділяти
приділяємо
приз
приза
призами
призведе
призвело
призвести
призводить
призери
призером
призерів
призи
призначати
призначається
призначена
призначении
призначення
призначено
призначені
призначити
призове
призовии
призових
призового
призові
призом
призу
призы
призів
прии
прикарпаття
приклад
прикладами
прикладах
приклади
прикладом
прикладу
прикладі
прикладів
прикордонноі
прикро
прилука
прим
примус
примірник
примірниках
примірників
приміром
примітка
примітки
приміток
приміщення
приміщенні
приміщень
принаи
приналежності
принесе
принесла
принести
приносить
приносять
принцип
принципам
принципами
принципах
принципи
принципова
принципово
принципом
принципу
принципі
принципів
принять
приніс
припадає
припинення
припиненням
припинено
припинені
припинити
припиняти
припиняються
припиняється
припускаю
припустимо
припущення
природа
природи
природнии
природних
природничих
природничого
природно
природного
природному
природноі
природні
природніи
природоохоронних
природоохоронні
природою
природу
природы
природі
прируслова
прирівнюється
присвоєння
присвячена
присвячении
присвячених
присвячено
присвяченого
присвячену
присвячені
присвяченіи
пристои
пристрою
пристроі
пристріи
присутності
присутня
присутнє
присутні
присутніи
присутнім
присутніми
присутність
присутніх
присяжнюк
притока
притулку
приурочена
приурочении
прихильник
прихильників
прихована
приховано
приховані
приходити
приходить
приходька
приходько
приходьте
приходять
причин
причина
причинами
причини
причиною
причину
причому
приєднався
приєдналася
приєдналися
приєднання
приєднатись
приєднатися
приємнии
приємно
приємні
приі
про
проактивно
проаналізовано
проаналізувати
пробачення
пробачте
проблем
проблема
проблемами
проблеми
проблемних
проблемні
проблемою
проблему
проблемі
пробував
пробували
пробувати
провадження
провадить
проваи
проведе
проведемо
проведена
проведении
проведених
проведенню
проведення
проведенням
проведенні
проведено
проведеного
проведені
проведу
проведуть
провела
провели
провело
провести
проводив
проводився
проводила
проводилась
проводилася
проводили
проводились
проводилися
проводилось
проводилося
проводимо
проводити
проводитиметься
проводитись
проводитися
проводить
проводиться
проводять
проводяться
проводячи
провів
провідних
прогалин
прогалини
проголосував
проголосували
проголосувало
проголосувати
проголошення
програм
програма
програмами
програмах
програми
програмна
програмне
програмнии
програмних
програмного
програмноі
програмну
програмні
програмою
програму
програмування
програмі
програміст
програмістів
прогрес
продаж
продажу
продемонструвати
проджект
продовження
продовженням
продовжено
продовжили
продовжити
продовжувала
продовжувалася
продовжували
продовжувати
продовжуватися
продовжую
продовжують
продовжує
продовжуємо
продовжується
продукт
продукти
продукту
продукцію
продукція
продукціі
продумати
проект
проектам
проектами
проектах
проекти
проектнии
проектною
проектні
проектом
проектор
проектора
проекту
проекті
проектів
проживання
проживають
проживає
прозвучав
прозвучало
прозора
прозоро
прозорості
прозороі
прозорість
прои
прокоментував
прокоментувала
прокоментувати
проконтролювати
промови
промоціи
промоцію
промоція
промоцією
промоціі
проміжку
проміжків
проміжнии
проміжних
проміжного
проміжні
промінь
пропаганда
пропагандою
пропагування
пропагувати
прописана
прописании
прописано
прописані
прописати
прописувати
пропозиціи
пропозицію
пропозиція
пропозиціями
пропозицією
пропозиціі
пропонована
пропоновании
пропонованих
пропоновані
пропонував
пропонувала
пропонували
пропонування
пропонувати
пропонуи
пропоную
пропонують
пропонуються
пропонує
пропонуємо
пропонуєте
пропонується
пропорціи
пропуску
пропустив
пропустила
пропустити
просвіта
просвіти
просив
просимо
просите
просити
просить
прослухати
просп
проспект
проспектом
проспекту
проста
просте
простии
простим
простих
просто
простого
просторах
простори
простору
просторі
простою
простоі
просту
прості
простіи
простір
простіше
простішии
просування
просувати
просять
проте
протесту
протестувати
проти
противагу
протидіі
протиепідемічних
протилежне
протилежнии
протилежного
протилежному
протилежноі
протокол
протоколи
протоколу
протоколі
протоколів
прототип
протрібно
протягом
проф
професор
професора
професорів
професіи
професіонали
професіоналів
професіоналізувалася
професіі
профільних
профільного
профінансувати
прохання
проханням
проходження
проходив
проходила
проходили
проходило
проходити
проходитиме
проходить
проходять
процедур
процедура
процедури
процедурою
процедуру
процентів
процес
процеси
процесом
процесу
процесі
процесів
процюк
процюка
процюком
процюку
прочитав
прочитаи
прочитання
прочитати
прошу
проявляють
проєкт
проєктами
проєктах
проєкти
проєктні
проєктом
проєкту
проєкті
проєктів
проі
проілюстрована
проілюстровано
проілюстровані
проілюстрували
проілюструвати
проінформована
проінформувати
пряма
прямии
прямих
прямо
прямого
прямому
пряму
прямі
прізвища
прізвище
пріоритет
пріоритети
пріоритетно
пріоритетом
пріоритету
пріоритетів
псують
птахи
птахів
пу
публікаторська
публікаціи
публікацію
публікація
публікаціях
публікацією
публікаціі
публіки
публікували
публікувалися
публікування
публікувати
публікуються
публікує
публікуємо
публікується
публічна
публічне
публічнии
публічним
публічними
публічних
публічно
публічного
публічному
публічності
публічноі
публічну
публічні
публічніи
публічність
пунда
пункт
пунктами
пунктах
пункти
пунктом
пункту
пункті
пунктів
пусте
путила
путильськии
путівник
путівника
путівники
пушкіна
пхдпу
пцу
пі
піар
піаром
піб
пів
півгодини
південна
південнии
південно
південного
південному
південноі
південь
півдня
півкола
півночі
північ
північна
північнии
північно
північноатлантичного
північного
північноі
північну
північні
північніи
півострова
півострові
півострів
півроку
піврічнии
півріччя
півріччі
півставки
півтора
півтори
під
підбиває
підбили
підбито
підбиття
підбиттям
підбір
підбірка
підведення
підвищенню
підвищення
підвищенням
підвищити
підвищувати
підгаи
підготовка
підготовки
підготовкою
підготовку
підготовлена
підготовлении
підготовлено
підготовлені
підготовленіи
підготовці
підготовча
підготовчии
підготовчі
підготував
підготувала
підготували
підготувати
підготуватися
підгірцях
піддомен
піде
підзвітнии
підзвітності
підзвітність
підземнии
підземного
піди
підказати
підкатегоріи
підключення
підкреслює
підлеглими
підлеглості
підлеглі
підлягають
підлягає
підліснюк
підліснюка
підняв
підняли
підняти
піднятись
піднято
підняття
підняті
підніжжя
піднімати
піднімає
підозри
підозрою
підпадають
підпадає
підпис
підписав
підписався
підписами
підписана
підписании
підписання
підписано
підписант
підписані
підписати
підписатися
підписи
підписка
підписку
підписники
підписників
підписом
підпису
підписувати
підписуються
підписує
підписується
підписів
підпиши
підпишіть
підпишіться
підпорядковании
підпорядковується
підпорядкування
підприємництва
підприємств
підприємства
підприємство
підприємцем
підприємців
підраховує
підрахунками
підрахунки
підрахунку
підрахунків
підрахунок
підрозділ
підрозділи
підрозділу
підрозділі
підрозділів
підручник
підручника
підручники
підручників
підряд
підрядник
підрядника
підрядникам
підрядниками
підрядники
підрядників
підсилення
підсилити
підстав
підстава
підставах
підстави
підставою
підставі
підсумками
підсумки
підсумкова
підсумковии
підсумку
підсумків
підсумовуються
підсумовуючи
підсумок
підтвердження
підтвердженням
підтверджені
підтверджую
підтверджують
підтверджує
підтвердив
підтвердили
підтвердити
підтримав
підтримаи
підтримала
підтримали
підтримана
підтримании
підтриманих
підтримання
підтримано
підтримані
підтримати
підтримають
підтримка
підтримки
підтримкою
підтримку
підтримував
підтримувала
підтримувалася
підтримували
підтримувати
підтримую
підтримують
підтримуються
підтримує
підтримуємо
підтримуєте
підтримується
підтримці
підходи
підходити
підходить
підходом
підходу
підходять
підході
підходів
підхід
підціль
підібрати
підігрування
підіи
пізнавальнии
пізнавальність
пізнати
пізно
пізніше
пікселях
пікселів
пілотнии
піп
пір
піратством
пісень
піски
пісковики
після
післядипломноі
пісня
пісні
піти
піч
піша
пішки
пішли
пішло
пішов
піші
піщана
піщании
р
ра
рад
рада
раденськ
ради
радии
радимо
радо
радомисль
радомишль
радою
раду
радше
радянська
радянських
радянського
радянськоі
раді
радіо
радіоелектроніки
радістю
раз
рази
разом
разу
разі
разів
раи
раковець
ракурсу
ракурсів
рамками
рамках
рамки
рамок
ранку
рано
ранок
раніше
раптом
раси
растрових
ратуші
раунд
раунди
раунду
раундів
рахманінов
рахманінова
рахувати
рахунках
рахунки
рахунком
рахунку
рахунків
рахунок
рахівськии
рда
реабілітаціі
реагування
реагувати
реакцію
реакція
реакцією
реакціі
реальна
реальне
реальнии
реальним
реально
реального
реальному
реальності
реальні
реальність
реалізацію
реалізація
реалізацією
реалізаціі
реалізована
реалізовании
реалізовано
реалізовані
реалізовувати
реалізовуються
реалізовує
реалізувати
реалізуються
реалізується
реаліях
реаліі
реанімаціи
ребра
ревенка
революція
революціі
ревізіи
регламент
регламентом
регламенту
регламенті
регламентів
регулювання
регулює
регулярна
регулярне
регулярних
регулярно
регулярного
регулярною
регулярну
регулярні
регіон
регіональна
регіональне
регіональнии
регіональним
регіональними
регіональних
регіонального
регіональному
регіональноі
регіональні
регіонами
регіонах
регіони
регіоном
регіону
регіоні
регіонів
ред
редагував
редагували
редагувалися
редагуванню
редагування
редагуванням
редагуваннями
редагуванні
редагувань
редагувати
редагуи
редагую
редагують
редагує
редагуємо
редагуєте
редактор
редактора
редакторам
редакторами
редактори
редактором
редакторі
редакторів
редакціи
редакцію
редакція
редакціями
редакцією
редакціі
редколегіі
режим
режиму
режимі
режисер
резиденціі
результат
результатами
результати
результатом
результату
результаті
результатів
резюме
реи
реквізити
реквізитів
реклама
реклами
рекламованих
рекламу
рекламі
рекомендаціи
рекомендацію
рекомендація
рекомендаціями
рекомендацією
рекомендаціі
рекомендованих
рекомендовано
рекомендував
рекомендувати
рекомендую
рекомендують
рекомендує
рекомендуємо
рекомендується
рекорд
рекордна
рекордною
рекордну
рекордом
рекордів
ректора
релевантні
релевантність
релігіи
релігіі
реліз
релізи
релізу
релізів
ременюк
ремонт
реорганізація
реорганізаціі
репало
репертуару
репліки
репозитаріи
репортаж
репортажі
репортер
репости
репостів
репрезентативнии
репрезентація
репрезентованих
репродукціі
репутаціи
репутацію
репутаціі
респонденти
респондентів
республіка
республіки
республіці
респіраторноі
реставраціі
ресурс
ресурсами
ресурсах
ресурси
ресурснии
ресурсом
ресурсу
ресурсі
ресурсів
ретельно
рефератів
рефлексія
рефлексіі
реформ
реформи
реформу
реформування
рецензування
рецензію
рецепти
речами
речеи
речення
речень
речові
речі
решт
решта
решти
решту
реєстр
реєстратором
реєстраціи
реєстрацію
реєстрація
реєстрацією
реєстраціі
реєстру
реєструвалися
реєструватися
реєструи
реєструється
реєстрі
рижков
ризик
ризики
ризику
ризиків
рикмас
рикмаса
рильського
ринку
ринок
рк
рлп
робив
робила
робили
робимо
робите
робити
робитиме
робитиму
робить
робиться
роблю
роблять
робляться
робота
роботи
роботою
роботу
роботі
робоча
робочии
робочих
робочому
робочою
робочоі
робочу
робочі
робіт
робіть
рогізне
родини
родинних
родичі
родкевич
родом
роду
родікова
роз
розалівка
розбити
розбиття
розбудови
розбудовою
розбіжності
розв
розвивати
розвиватися
розвивають
розвивається
розвинути
розвиткові
розвитком
розвитку
розвиток
розгляд
розглядали
розглядати
розглядатися
розглядаю
розглядають
розглядаються
розглядає
розглядається
розгляду
розгляді
розглянемо
розглянув
розглянувши
розглянути
розглянуто
розглянуті
розголошення
розголошуватися
роздавати
роздатковими
роздаткових
роздаткові
роздрукувати
роздуми
розділ
розділами
розділах
розділи
розділили
розділилися
розділити
розділом
розділу
роздільна
роздільну
роздільнянськии
роздільність
роздільністю
розділяти
розділяю
розділі
розділів
розеток
розкажуть
розкажіть
розказав
розказали
розказано
розказати
розказували
розказувати
розклад
розкладу
розкривати
розкрити
розкриття
розмаі
розмиття
розмов
розмова
розмови
розмову
розмові
розмір
розмірах
розміри
розміром
розміру
розмірі
розмірів
розмістили
розмістити
розмітка
розмітки
розміщена
розміщении
розміщених
розміщення
розміщено
розміщену
розміщені
розміщувати
розміщуються
розміщується
розписано
розписати
розписи
розписів
розпитати
розпишіть
розповсюдження
розповсюджувати
розповсюдити
розповів
розповідав
розповідала
розповідали
розповідати
розповідають
розповідає
розповідаємо
розповідь
розповіла
розповіли
розповім
розповісти
розподіл
розподілено
розподіленоі
розподілити
розподілом
розподілу
розподіляти
розподіляє
розпоряджатися
розпорядження
розпочався
розпочала
розпочалась
розпочалася
розпочали
розпочата
розпочати
розпочатися
розпочато
розпочинає
розпочинається
розпочнеться
розрахована
розраховании
розраховувати
розрахункові
розрахунку
розрахунок
розрив
розробив
розробила
розробили
розробити
розробить
розробка
розробки
розробкою
розробку
розроблена
розроблении
розроблення
розроблено
розроблені
розробляти
розробляють
розробник
розробники
розробників
розробці
розрізі
розсилалися
розсилання
розсилає
розсилка
розсилках
розсилки
розсилкою
розсилку
розсилок
розсилці
розслідувальноі
розслідування
розставити
розстрілу
розсуд
розташована
розташоване
розташовании
розташованих
розташовано
розташованого
розташованому
розташовані
розташування
розтоки
розумного
розумні
розумів
розуміли
розуміння
розумінням
розумінні
розуміти
розумію
розуміють
розуміє
розуміємо
розумієте
розуміється
розширення
розширенням
розширеного
розширити
розширювати
розі
розібратись
розібратися
розігрів
розіслано
розіслати
роками
роках
роки
роком
року
років
ролеи
ролик
ролика
роль
ролі
роман
романа
рос
рослин
рослини
рослинних
рослинності
рослинність
россии
росте
ростислав
росту
ростуть
рось
росіи
росія
росіян
росіяни
росіі
ротт
році
рояль
рпр
рр
рррр
рс
рсдд
рспд
ру
рубриці
рубіж
рувікі
рудка
рудченко
руи
рук
руками
руках
руки
рукою
руку
румунська
румунія
румуніі
руслан
руслана
русло
русскии
русь
руська
русі
русік
рух
рухаи
рухатись
рухатися
рухом
рухоме
рухомим
руху
ручка
ручки
ручок
рушили
руі
рф
ряд
рядка
рядки
рядком
рядку
рядків
рядок
ряду
ряді
рівень
рівна
рівне
рівнем
рівненська
рівненськоі
рівненщини
рівнии
рівних
рівно
рівнозначна
рівності
рівня
рівні
рівнів
рівність
рід
рідко
рідкісна
рідкісних
рідкісні
рідна
ріднии
рідного
рідною
рідноі
рідну
рідні
рідше
різании
різдва
різко
різкість
різне
різнии
різним
різними
різних
різницю
різниця
різниці
різновид
різного
різноманітними
різноманітних
різноманітного
різноманітності
різноманітну
різноманітні
різноманітність
різноманітніші
різноманіття
різному
різнотрав
різною
різні
рік
рімма
ріпкинського
ріст
річ
річка
річки
річку
річна
річнии
річним
річних
річницю
річниці
річного
річному
річні
річці
річчю
річчя
річчям
рішенню
рішення
рішенням
рішеннями
рішеннях
рішенні
рішень
рішуче
с
са
садиба
садиби
садибу
садки
садово
саи
салтівськоі
сам
сама
самборськии
саме
самии
самим
самими
самих
само
самовисування
самоврядною
самоврядування
самовідвід
самого
самои
самому
саморозпуску
самостіи
самою
самоі
самоізоляціі
саму
самученко
самые
самі
саміи
сан
санаторна
санкціи
санкціі
санта
сапогів
сарапулов
сбу
сбук
сбуку
сбуці
св
сварник
свидовець
свириденко
свобод
свобода
свободи
свободою
свободу
свободі
свого
свою
своє
своєму
своєрідну
своєчасно
своєю
своєі
своі
свят
свята
святковии
святкування
святкуватиме
святкують
святкує
святкуємо
свято
святого
святогірськ
святогірськоі
святом
святослав
святоі
священнии
свідомо
свідомі
свідоцтво
свідчення
свідчить
свіжі
свіи
свірзькии
світ
світанку
світанок
світлана
світлани
світлин
світлина
світлинами
світлини
світлиною
світлину
світлині
світлиця
світло
світлового
світлі
світова
світовии
світових
світового
світовому
світовоі
світові
світовіи
світогляд
світом
світу
світі
свічка
свіччине
себе
себто
севастополь
севастополя
севастополі
северинівка
сегменту
сегменті
сее
сеем
сезону
сеи
секрет
секретар
секретареві
секретарем
секретарю
секретаря
сексуальних
сексуальноі
сектор
сектору
секторі
секунд
секціи
секція
секціі
села
селами
селах
селища
селище
селищна
селищноі
селищі
село
селом
селі
семен
семена
семенченка
семенченко
семенюк
семенюка
семестр
семи
семінар
семінари
семінарськоі
семінару
семінарі
семінарів
сенгер
сененко
сенс
сенсу
сенсі
сербськоі
сербія
сербіі
сервер
сервера
сервери
сервером
сервері
серверів
сервіс
сервіси
сервісі
сервісів
сергеевна
сергіи
сергію
сергія
сергієм
сергіі
сердюка
серед
середа
середина
середини
середину
середині
середньовіччі
середнього
середньому
середньоі
середня
середнє
середніи
середніми
середніх
середовища
середовище
середовищі
сери
серпень
серпня
серпні
сертифікат
сертифікатами
сертифікати
сертифікату
сертифікатів
серцевиднии
серію
серія
серіі
сестринськими
сестринських
сестринські
сесіи
сесію
сесія
сесіях
сесіі
си
сигналу
сидоренкова
сидять
сил
сила
силами
силах
сили
силу
сильна
сильнии
сильних
сильно
символ
символікою
символіку
симона
синього
синівці
систем
система
системами
систематизація
систематично
системи
системна
системне
системнии
системності
системноі
системні
системою
систему
системі
ситуаціи
ситуацію
ситуація
ситуаціях
ситуацією
ситуаціі
скаже
скажи
скажу
скажімо
скажіть
сказав
сказала
сказали
сказано
сказати
скаи
скан
скандалу
скандинавська
скандинавських
сканер
сканера
скани
сканування
сканує
сканів
скарабеи
скарбник
скарбника
скарбникові
скарбником
скарбнику
скарг
скарги
скаргу
скасовано
скасовані
скасування
скасувати
скверу
скеля
скелі
скинути
склав
склад
складався
складалася
складання
складанні
складати
складатися
складають
складає
складається
складено
складна
складне
складнии
складним
складних
складно
складності
складнощі
складнощів
складну
складні
складність
складніше
складнішим
складніші
складова
складовою
складові
складу
складі
склала
склалася
склали
склалось
склалося
скласти
скликання
скликанні
скликані
скликати
скликаються
скликає
склодовська
сковороди
сконтактувати
сконцентруватися
скопіи
скопіювати
скориставшись
скористаи
скористатись
скористатися
скоро
скоротити
скорочене
скорочення
скорочено
скорше
скоріш
скоріше
скринька
скриньки
скриньку
скрипт
скрипти
скрізь
скульптур
скульптура
скульптури
скіли
скільки
скількимога
скія
слава
слави
слаи
слобожанськии
слобідка
слов
слова
словами
словацька
словаччина
словаччини
словник
словника
словники
словнику
слово
словом
слон
слугує
служба
служби
службою
службу
службі
слухав
слухали
слухання
слухати
слухачі
слухачів
слів
слід
слідкувати
слідкую
слідкує
слідувати
слідує
смана
смерті
смоленську
смт
сміливо
сміття
снд
снена
снення
снено
снені
снив
снии
снили
сним
сними
снити
сно
сності
снювали
снювати
снюватиметься
снюватися
снюють
снюються
снює
снюється
сні
сніг
снігу
сніданку
сніданків
сніданок
со
собор
собору
собою
собі
сови
совісті
сокіл
солодощі
солом
соломія
солоне
солоні
соліст
солістка
сом
сон
сонце
сонця
сопрано
сорок
соромно
сортування
сосна
сосни
сотень
сотню
сотня
сотні
софія
софіі
сохан
сохана
соц
соцмереж
соцмережами
соцмережах
соцмережі
соціальна
соціальнии
соціальними
соціальних
соціально
соціального
соціальноі
соціальні
соціальніи
союз
союзу
спадання
спадини
спадком
спадкоємців
спадку
спадок
спадщина
спадщини
спадщину
спадщині
спам
спартака
спасибі
спасо
спаське
спати
спектр
спершу
специфіка
специфіку
специфічних
спецномінаціи
спецномінацію
спецномінація
спецномінаціях
спецномінаціі
спеціальна
спеціальнии
спеціальних
спеціально
спеціального
спеціальностеи
спеціальності
спеціальноі
спеціальну
спеціальні
спеціальніи
спеціалізована
спеціалізованих
спеціалізовані
спеціалістами
спеціалісти
спеціалістів
списками
списках
списки
списком
списку
списків
список
спитати
спланувати
сплати
сплатив
сплатили
сплатити
сплату
сплачувати
сплачують
сплеск
сповільнилась
сповіщення
сподобався
сподобалась
сподобалася
сподобалися
сподобалось
сподобалося
сподівання
сподіватися
сподіваюсь
сподіваюся
сподіваємося
спокіи
сполучених
спонсорами
спонсори
спонсорів
спонукати
спорт
спортивного
спортивні
спортсменів
спорту
споруд
споруда
споруди
споруду
спорядження
способами
способи
способом
способу
способів
спостереження
спостереженнями
спостерігати
спосіб
спочатку
справ
справа
справами
справах
справді
справедливо
справедливість
справжнього
справжньою
справжню
справжня
справжнє
справжніи
справи
справою
справу
справі
сприи
спричиненоі
сприяла
сприяли
сприяло
сприяння
сприянням
сприяти
сприятиме
сприятливих
сприяють
сприяє
спроб
спроба
спроби
спробу
спробувати
спробуи
спробую
спробуємо
спрогнозувати
спроможностеи
спроможності
спроможність
спростити
спрощення
спрямована
спрямовании
спрямованим
спрямованих
спрямовані
спрямовувати
спрямовує
спрямування
спрямувати
спуск
спустіться
спів
співавтором
співавторстві
співачка
співбесід
співбесіди
співвідношення
співвідношенні
співзасновник
співорганізатор
співорганізатори
співпало
співпраць
співпрацю
співпрацював
співпрацювали
співпрацювати
співпрацюють
співпрацює
співпрацюємо
співпраця
співпраці
співробітник
співробітниками
співробітники
співробітників
співробітництва
співробітництво
спікер
спікера
спікери
спікерів
спілка
спілками
спілки
спілкою
спілкувався
спілкувалися
спілкування
спілкуванні
спілкуватись
спілкуватися
спілкуються
спілок
спільна
спільне
спільнии
спільним
спільними
спільних
спільно
спільного
спільнот
спільнота
спільнотам
спільнотами
спільнотах
спільноти
спільнотою
спільноту
спільноті
спільною
спільноі
спільну
спільні
спірних
спірні
срср
сс
ст
стаб
стаби
стабів
стабільно
стабільності
став
ставати
ставили
ставити
ставитись
ставитися
ставить
ставиться
ставки
ставку
ставлення
ставляться
ставте
ставши
стадіі
стала
стали
сталии
стало
сталого
сталося
сталі
стан
стандарт
стандартам
стандарти
стандартна
стандартнии
стандартно
стандартного
стане
станеться
становити
становить
становища
становлять
станом
стану
стануть
станціи
станцію
станція
станцією
станціі
стані
станіславського
стара
старе
старии
старих
старобільськ
старобільську
старовижівського
старого
старокиі
староі
старт
стартовал
старту
стартував
стартує
стару
старшии
старших
старшого
старі
старіших
статеи
стати
статистика
статистики
статистикою
статистику
статистична
статистичнии
статистичних
статистичноі
статистичну
статистичні
статтеи
статтею
статтю
стаття
статтям
статтями
статтях
статті
статус
статусом
статусу
статут
статутним
статутних
статутноі
статутом
статуту
статуті
стать
статьи
статью
статьями
статі
стають
стає
стається
стверджувати
створена
створении
створеним
створених
створенню
створення
створенням
створенні
створено
створеного
створеною
створену
створені
створи
створив
створивши
створила
створили
створити
створить
створював
створювали
створювалися
створювати
створювача
створюи
створюють
створюються
створюючи
створює
створюємо
створюєте
створюється
створять
створіть
стеблів
стеблівськии
стеження
стежити
стежте
стеи
стелі
стенд
стенду
стенді
степ
степан
степанович
степанівна
степова
степового
степові
стер
стерності
стерня
стерні
стефанко
сти
стикаються
стиль
стилю
стилі
стимул
стимулом
стимулювання
стимулювати
стипендіати
стипендіатів
стипендіи
стипендію
стипендія
стипендіями
стипендією
стипендіі
сто
стокгольм
стокгольмі
столи
столиці
столу
столі
століття
столітті
століть
стор
сторожинецькии
сторона
сторонами
сторони
сторонніх
стороною
сторону
стороні
сторін
сторінка
сторінками
сторінках
сторінки
сторінкою
сторінку
сторінок
сторінці
сторіччя
стосовно
стосувалися
стосуватися
стосунках
стосунки
стосунку
стосунків
стосунок
стосуються
стосується
стоялов
стоять
стоі
страи
стратегування
стратегічна
стратегічне
стратегічнии
стратегічним
стратегічних
стратегічно
стратегічного
стратегічноі
стратегічну
стратегічні
стратегічніи
стратегію
стратегія
стратегією
стратегіі
страшного
стри
строк
строки
строку
строків
структур
структура
структури
структуровані
структурованість
структуру
структурування
структурувати
структурі
струмка
струмок
стрів
стрім
стріха
стріхи
стрічках
стрічку
стрічці
стугна
студент
студента
студентам
студентами
студенти
студентом
студентських
студентськоі
студентів
студіи
студія
студіі
ступеня
ступенів
ступінь
стурбованість
сть
стюард
стюарди
стягнення
стівен
стіи
стіл
стільки
стільникові
стінах
стіни
су
суб
субнаціональні
субота
суботи
суботу
субсидіи
сувенір
сувенірами
сувеніри
сувенірна
сувенірних
сувенірноі
сувенірну
сувенірів
суверньова
суд
суддя
суддям
судді
суддів
судження
суджень
судимими
судити
судового
суду
судячи
суді
сукупнии
сукупним
сукупність
сум
сума
сумарно
сумах
сумду
суми
сумно
сумнів
сумніваюся
сумніви
сумнівів
сумою
сумська
сумського
сумському
сумськоі
суму
сумщини
сумі
суміжних
суміжні
сумісних
сумісні
супер
суперечать
суперечить
суперечки
суперечливі
суперечностеи
супровід
супутніх
сурб
сурма
суспільне
суспільних
суспільно
суспільного
суспільному
суспільноі
суспільства
суспільство
суспільству
суспільстві
сусідніх
сусідів
сутківцях
сутківці
сутність
суто
суттю
суттєва
суттєве
суттєвии
суттєвим
суттєвих
суттєво
суттєвого
суттєву
суттєві
суть
суті
сухомлинського
суцільних
сучасна
сучаснии
сучасники
сучасників
сучасних
сучасного
сучасному
сучасною
сучасноі
сучасні
сучасніи
сфер
сферах
сфери
сферу
сфері
сформована
сформовании
сформовано
сформованого
сформувати
сформулювати
сфоткати
сфотографованих
сфотографовано
сфотографовані
сфотографували
сфотографувати
сфотографуи
сфінкс
схвалення
схвалено
схема
схеми
схемою
схему
схил
схилах
схилу
схилі
сховища
сховище
сховищі
сходи
сходинку
сходу
сході
схожа
схоже
схожии
схожими
схожих
схожі
схід
східнии
східного
східноєвропеи
східноі
східну
східніи
сценаріи
сценаріі
сцені
сша
сь
ськ
ська
ське
ськии
ським
ськими
ських
сько
ськова
ськово
ськовоі
ськову
ськові
ського
ському
ською
ськоі
ську
ські
ськіи
сьогодні
сьогоднішніи
сьома
сьоме
сьомого
сьомоі
сюди
сюжет
ся
сягнула
сядьте
сєвєродонецьк
сєвєродонецька
сєвєродонецьку
сі
сів
сіл
сільради
сільська
сільських
сільського
сільськоі
сільську
сільські
сільськіи
сім
сімеи
сімох
сімсот
сінокос
сірии
січень
січня
січні
т
та
таблиць
таблицю
таблиця
таблиці
табличка
таблички
табличку
табличок
табори
табору
таборі
таборів
табір
тавріи
таи
так
така
таке
таки
такии
таким
такими
таких
такого
також
такому
такою
такоі
таксі
таку
такі
такіи
талановитоі
там
тамара
тами
танзаніі
таня
тарас
тараса
тариф
татар
татари
татаринці
тах
таємне
таємним
таємного
таі
тварин
тварини
твердження
твердженням
твердженнями
тверджень
твого
творами
творення
твори
творити
творить
твором
твору
творців
творча
творчии
творчими
творчих
творчого
творчості
творчоі
творчі
творчість
творів
твою
твоя
твоє
твоі
твіи
твір
твіт
твітері
твіти
твіттер
твіттеру
твітів
тд
те
театр
театральна
театральноі
театру
тебе
теж
тез
тезаурус
тези
текст
текстами
тексти
текстовии
текстових
текстового
текстовому
текстові
текстом
тексту
тексті
текстів
тел
телебачення
телебаченні
телеграм
телегіна
телеканал
телефон
телефонами
телефони
телефоном
телефону
тем
тема
темам
темами
тематик
тематика
тематики
тематикою
тематику
тематиці
тематична
тематичнии
тематичник
тематичника
тематичним
тематичних
тематично
тематичного
тематичному
тематичну
тематичні
темах
теми
темно
темою
температура
тему
темі
тенденція
тенденціі
теоретична
теоретично
теоріи
теорію
теорія
теоріі
тепер
теперішнього
теперішніи
теренах
терещенка
терещенків
територіальним
територіальних
територіальноі
територіи
територію
територія
територіями
територією
територіі
термін
термінами
термінах
терміни
термінових
терміново
термінологію
термінологія
термінологіі
терміном
терміну
термінів
тернополя
тернополяни
тернополі
тернопіль
тернопільська
тернопільськоі
тернопільщини
тернопільщині
тест
тесту
тестів
тесь
теся
тетерів
тетяна
тех
техком
техкому
технологіи
технологічного
технологічні
технологія
технологіі
техніки
техніку
технічна
технічне
технічнии
технічним
технічними
технічних
технічно
технічного
технічному
технічною
технічноі
технічну
технічні
течія
ти
тиждень
тижневе
тижневии
тижневик
тижневих
тижневому
тижня
тижнями
тижнях
тижні
тижнів
тим
тиметься
тими
тимків
тимошенко
тимчасове
тимчасовии
тимчасових
тимчасово
тимчасового
тимчасовоі
тимчасову
тинг
тингове
тингом
тингу
тип
типажі
типи
типова
типовии
типово
типові
типом
типу
типів
тираж
тире
тис
тиску
тись
тися
тисяч
тисяча
тисячами
тисячу
тисячі
тисі
тих
тиха
тихо
тихонкова
ткаченко
тлумачення
то
тобою
тобто
тобі
тов
товариств
товариства
товариство
товариством
того
тоді
тое
тож
тои
толерантність
том
томаш
томи
томнатик
тому
тон
топ
торбинки
торговельноі
торгівлі
торт
торік
тотожним
точка
точки
точку
точна
точне
точнии
точних
точно
точного
точноі
точну
точніше
точок
тощо
тра
трав
травень
траверс
травня
травні
травою
традиціи
традицію
традицією
традиціі
трактування
тральна
трально
тральності
тральноі
тральність
трамваи
трамваєм
трансляцію
трансляція
трансляцією
трансляціі
транслітераціі
транспорт
транспортнии
транспортного
транспортноі
транспортні
транспортом
транспорту
транспортування
трапезна
траплятимуться
трапляється
траси
трахтемирів
трахтемирівськии
трахтемирівського
трахтемирівському
треба
тренди
тренер
тренера
тренерам
тренерами
тренери
тренерка
тренерів
тренування
тренінг
тренінгах
тренінги
тренінгу
тренінгів
третина
третини
третього
третьому
третьоі
третю
третя
третє
третіи
третім
третіх
три
трибуна
тривав
тривала
тривали
тривалии
тривало
тривалого
тривалості
тривалість
тривалістю
тривати
триватиме
тривають
триває
тригір
тригірськии
триденнии
тридцять
тримати
трипілля
триста
тричі
трк
тролеи
тролінг
тростянець
трохи
трошки
троє
троі
тру
труднощами
труднощі
трьома
трьох
тріи
трішки
ття
ту
туди
туманне
туніс
тур
турбова
турбові
турбує
турбів
туреччина
туреччині
туржанськии
туржанського
тури
туризм
туризму
туристична
туристичне
туристичнии
туристичних
туристичного
туристичноі
туристичну
туристичні
туристів
туркул
турнікеті
туру
турі
турів
тустані
тут
тыс
ть
тячівського
тячівщини
тє
ті
тів
тігіпко
тіи
тіла
тільки
тім
тісно
тісніше
тією
тієі
у
уа
увага
уваги
увагою
увагу
уважно
увазі
увесь
увіи
увімкнули
увімкнути
угод
угода
угодами
угоди
угодою
угоду
угольсько
угорщина
угорі
угруповання
угруповань
угрупувань
угіддя
удвічі
удзельнікау
удосконалення
удосконаленням
удосконалити
уже
узагальнення
узагалі
узгодження
узгодженням
узгодженість
узгоджувати
узгодити
узяв
узяти
укажіть
указу
уквікі
укладання
укладати
укладає
укладення
укладено
уклали
укласти
укр
украина
украине
украинская
украинскои
украины
украі
украіне
укрвікі
укрпоштою
укрсиббанк
укртелекому
укрінформ
уку
улюблении
умов
умова
умовам
умовами
умовах
умови
умовно
умовою
умові
уміння
умінь
уміф
унеможливлює
уникати
уникнення
уникнути
унр
уніан
універсальна
універсальнии
універсальних
універсального
універсальноі
універсальніи
університет
університетами
університетах
університети
університетом
університету
університеті
університетів
унікальнии
унікальним
унікальних
унікальну
унікальні
унікальність
упередження
упереджень
уперше
уповноваженим
уповноваженими
уповноважених
уповноваження
уповноваженого
уповноважити
уповноважую
уподобання
уподобань
упор
упоряд
упорядкування
управління
управлінням
управлінні
управлінь
упродовж
урахування
урахуванням
урегулювання
урич
урок
уроках
уроки
уроку
уроків
урочиста
урочисте
урочисто
урочища
урочище
урочищі
урср
уругваи
уряд
урядами
урядовии
урядових
уряду
урядування
усвідомлення
усе
усередині
ускладнити
ускладнює
усних
усно
усні
успенська
успенськии
успенського
успіння
успіх
успіхи
успіхом
успіху
успіхів
успішне
успішнии
успішним
успішних
успішно
успішного
успішності
успішною
успішноі
успішні
успішність
установ
установа
установам
установами
установах
установи
установими
установити
установою
установче
установчих
установчі
установі
устечко
усть
усунення
усунені
усц
усього
усьому
усі
усім
усіма
усіх
усієі
утворена
утворення
утворити
утворювати
уточнення
уточнено
уточнень
уточни
уточнити
уточню
уточнюю
уточнюється
уточніть
утримався
утримались
утрималися
утримання
утримати
утриматися
утримуватися
утримуюсь
утім
ухвал
ухвала
ухвалами
ухвалене
ухвалення
ухвалені
ухвали
ухвалила
ухвалили
ухвалити
ухвалою
ухвалу
ухвалює
учасни
учасник
учасника
учасникам
учасниками
учасники
учасником
учаснику
учасників
учасниць
учасниця
учасницям
учасницях
учасниці
участи
участие
участник
участь
участю
участі
училища
учитель
учителів
учнями
учні
учнів
учнівськоі
уявити
уявлення
уявляю
уявіть
уінп
ф
фабрикатор
фабрикаторі
фази
фаи
факс
факт
фактами
факти
фактична
фактичних
фактично
фактичноі
фактичні
факто
фактом
фактори
фактором
факторів
факту
фактум
фактів
факультету
факультеті
фандреи
фантастика
фантастики
фантастична
фантастичних
фантастичноі
фасилітатора
фасилітація
фасилітаціі
фауни
фаховии
фахових
фахово
фахового
фахом
фахівець
фахівцями
фахівці
фахівців
фб
фвм
федерального
федеративна
федерація
федераціі
федорович
федорівка
феи
фель
феміністична
фест
фестиваль
фестивалю
фестивалях
фестивалі
фестивалів
флаєрів
флешки
флешмоб
флешмобу
флори
флуд
фн
фо
фокус
фокусом
фокусу
фон
фонд
фонда
фондом
фонду
фонді
фондів
фоноваликів
фонографічних
фону
фоні
фоп
форм
форма
формальна
формальнии
формальних
формально
формат
форматах
формати
форматом
формату
форматування
форматі
форматів
формах
форми
формою
форму
формуванню
формування
формуванням
формуванні
формувань
формувати
формула
формулою
формулу
формулювання
формулюванням
формулювань
формулювати
формують
формує
формується
формі
форс
фортепіано
фортеця
фортеці
форум
форумах
форуму
форумі
фотки
фото
фотоальбом
фотоапарат
фотоапарата
фотоапаратів
фотовиставка
фотовиставки
фотовиставку
фотогранти
фотограф
фотографа
фотографами
фотографи
фотографии
фотография
фотографиями
фотографували
фотографування
фотографувати
фотографую
фотографують
фотографів
фотографіи
фотографію
фотографія
фотографіям
фотографіями
фотографіях
фотографією
фотографіі
фотозвіт
фотози
фотозмагання
фоток
фотокамера
фотокамери
фотокамерою
фотоконкурс
фотоконкурсами
фотоконкурсах
фотоконкурси
фотоконкурсом
фотоконкурсу
фотоконкурсі
фотоконкурсів
фотолюбителі
фотолюбителів
фотоматеріал
фотоматеріали
фотоматеріалу
фотоматеріалів
фотомистецтва
фотопортретів
фоторепортаж
фоторепортажі
фотороботи
фототехніка
фототехніку
фотофіксація
фотохудожників
фр
фрагментів
франка
франко
франківськ
франківська
франківськоі
франківську
французька
французького
французькою
французькоі
французькіи
франція
франціі
фронт
функціи
функціонал
функціональні
функціонування
функціонує
функцію
функція
функціями
функціі
фунікулер
футбол
футболка
футболки
футболку
футболу
футболістів
фхаки
фігур
фігурантів
фідбек
фідбеку
фізика
фізики
фізико
фізику
фізична
фізичними
фізичних
фізично
фізичною
фізичноі
фізичну
фізичні
фізіологіі
фіксація
фіксаціі
фіксувати
філарета
філармонія
філологіі
фільм
фільми
фільмування
фільмів
фільтр
філіп
філіппіни
філіях
фінальнии
фінального
фіналізація
фінансами
фінанси
фінансова
фінансове
фінансовии
фінансовими
фінансових
фінансово
фінансового
фінансовому
фінансовоі
фінансову
фінансові
фінансування
фінансується
фінансів
фінляндія
фінляндіі
фіо
фірми
х
ха
хаб
хаби
хабу
хабів
хав
хаи
хакатон
хакатону
хакатоні
хакатонів
хала
халеп
хали
характер
характеристик
характеристики
характерні
характеру
харкова
харкові
харків
харківська
харківське
харківськии
харківським
харківських
харківського
харківському
харківською
харківськоі
харківську
харківські
харківськіи
харківщина
харківщини
харківщиною
харківщину
харківщині
харчування
харьков
харькове
хата
хати
хв
хвилин
хвилина
хвилини
хвилині
хвиля
хвороби
хднб
хема
хемптон
хендрюх
херсон
херсона
херсонес
херсонська
херсонськоі
херсонськіи
херсонщини
херсоні
хибне
хибні
хлопець
хлібня
хм
хмари
хмельницька
хмельницькии
хмельницького
хмельницькому
хмельницькоі
хмельницькіи
хмельниччини
хнеу
хну
хнього
хньому
хньою
хньоі
хню
хня
хнє
хні
хніи
хнім
хніми
хніх
хобі
ходити
ходить
ходорів
ходу
ходять
ході
холодне
хорватія
хорольська
хороша
хороше
хорошии
хорошим
хороших
хорошою
хорошоі
хорошу
хороші
хостинг
хостингу
хотин
хотів
хотіла
хотіли
хотілось
хотілося
хоч
хоча
хоче
хочемо
хочете
хочеться
хочеш
хочу
хочуть
хпі
храм
храми
храму
хребет
хребта
хребтом
хребті
хрест
хрести
хрещатик
христа
христина
християн
хроболова
хроболову
хронологія
хто
хтось
художник
художника
художня
художнє
художні
художніи
хх
хіба
хід
ц
ца
царук
царівка
царія
царіі
цбс
цвинтар
цвинтарі
це
цеи
цензура
цензури
центр
центральна
центральнии
центральним
центральних
центрально
центрального
центральному
центральноі
центральну
центральні
центральніи
централізована
централізоване
централізованоі
центрами
центрах
центри
центром
центру
центрі
центрів
церемоніи
церемонію
церемонія
церемонією
церемоніі
церква
церкви
церквою
церкву
церкві
церков
церковних
цивільнии
цивільного
цивільному
цикл
циклу
цим
цими
цитат
цитата
цитати
цитування
цитую
цифр
цифра
цифрами
цифри
цифровии
цифрових
цифровому
цифровоі
цифрову
цифрові
цих
цк
цсє
цукерки
цукерок
цум
ць
цього
цьогоріч
цьогорічного
цьогорічному
цьому
цю
ця
цям
цями
ці
ців
ціж
ціжа
ціи
цікава
цікаве
цікавии
цікавили
цікавим
цікавими
цікавинки
цікавить
цікавиться
цікавих
цікавлюсь
цікавлять
цікавляться
цікаво
цікавого
цікавою
цікавоі
цікаву
цікаві
цікавість
цікавіше
цікавіших
цікавіші
цілеи
цілии
цілих
цілковито
цілком
ціллю
цілого
цілому
цілоі
цілу
ціль
цільова
цільових
цільового
цільовою
цільовоі
цільову
цільові
цілям
цілями
цілях
цілі
цін
ціна
ціни
цінна
ціннии
цінним
цінними
цінних
цінностеи
цінностями
цінності
цінні
цінність
цінністю
ціною
ціну
цінувати
цією
цієі
ч
чаи
чаптер
чаптера
чаптери
чаптерів
час
часи
часовими
часових
часові
часом
частин
частина
частини
частинок
частиною
частину
частині
частка
часткова
часткове
частково
часткового
частковою
частковоі
часткову
часто
часті
частіше
часу
часі
часів
чат
чату
чаті
чатів
чашки
чаю
чду
чек
чекали
чеками
чекати
чекаю
чекають
чекає
чекаємо
чеки
червень
червня
червні
червона
червоне
червонии
червоним
червоних
червоноарміи
червоного
червоногород
червоногородськии
червоному
червоноі
червоні
черга
черги
чергове
черговии
черговими
чергових
чергового
чергові
чергу
черевко
через
черзі
черкас
черкасах
черкаси
черкаська
черкаськии
черкаськоі
черкащан
черкащини
чернетка
чернетки
чернетку
чернетці
черняк
чернівецька
чернівецькии
чернівецькоі
чернівці
чернігова
чернігові
чернігів
чернігівська
чернігівськии
чернігівських
чернігівського
чернігівському
чернігівськоі
чернігівськіи
чернігівщини
чесно
честь
чеською
чеськіи
четвер
четверга
четверта
четверте
четвертии
четвертому
чехи
чехова
чехів
чехія
чехіі
чи
чилі
чим
чимало
чимось
чиннии
чинників
чинним
чинного
чинному
чинності
чинність
чиновників
чином
чисельність
числа
численних
численні
число
числом
числі
чисто
читав
читаи
читали
читання
читати
читач
читача
читачам
читачами
читачі
читачів
читаю
читають
читає
читомо
чия
чиі
член
члена
членам
членами
члени
членкинею
членкинь
членкиня
членкині
членові
членом
членства
членство
членськии
членських
членського
членські
члену
членів
чнпу
чнту
чого
чогось
чоловік
чоловіки
чоловіків
чоловіча
чоловічии
чому
чомусь
чорна
чорнии
чорнобильськоі
чорнобиля
чорного
чорногора
чорногори
чорногорськии
чорногірськии
чорногірського
чорнокінці
чорні
чорта
чорткові
чортків
чортківськии
чортківського
чотири
чотириста
чотирьох
что
чув
чугаи
чугуі
чудова
чудовии
чудовим
чудовими
чудових
чудово
чудову
чудові
чужі
чук
чука
чули
чути
чітка
чітке
чіткии
чітких
чітко
чіткого
чіткоі
чітку
чіткі
чіткість
чіткіше
ш
ша
шаблон
шаблонами
шаблонах
шаблони
шаблоном
шаблону
шаблоні
шаблонів
шановне
шановнии
шановні
шанс
шанси
шансів
шані
шаром
шафа
шв
швеи
швеція
швеціі
швидке
швидкии
швидких
швидко
швидкого
швидкістю
швидше
ше
шевела
шевело
шевченка
шевченко
шевченкіана
шевченківськии
шевченківського
шевченківськоі
шекун
шеляженка
шептицького
шестакова
шести
шибене
ширина
ширину
ширити
широке
широкии
широким
широко
широкого
широкому
широкоі
широкі
широта
ширше
ширших
ширшого
ширшому
ширшою
ширшоі
шишківці
шкалою
шкода
шкоди
шкоду
шкодую
школа
школами
школах
школи
школу
школярами
школярі
школярів
школі
шкуматка
шкіл
шкільних
шкільноі
шкільніи
шла
шли
шлись
шло
шлося
шлюбу
шлях
шляхами
шляхи
шляхом
шляху
шляхів
шмальгаузена
шо
шов
шовши
шоколаднии
шолом
шопена
шосте
шостии
шостка
шостко
шось
шотам
шпаргалка
шпаргалки
шпаргалок
шпиці
шт
штаб
штампи
штат
штатах
штатних
што
штрафними
штрафних
штук
штука
штучнии
штучно
штучного
шуберт
шукаи
шукали
шукати
шукають
шукає
шукаємо
шульга
шульги
шумського
шутов
шутова
ші
шістдесяти
шістсот
шість
щ
щастить
щастя
ще
щекун
щербань
щербини
щиро
що
щоб
щоби
щоденнии
щоденник
щодня
щодо
щои
щоквартальних
щоквартально
щоквартальні
щомісяця
щомісячна
щомісячних
щомісячно
щомісячного
щомісячні
щонаи
щоправда
щоразу
щороку
щорічна
щорічнии
щорічних
щорічно
щорічного
щорічному
щорічноі
щорічні
щосекунди
щось
щотижневих
щотижневі
щучинка
ь
ю
ювілеи
ювілею
юдаі
юзер
юзергруп
юзерів
юліанна
юлія
юліі
юнацтва
юнеско
юридична
юридичне
юридичнии
юридичними
юридичних
юридично
юридичного
юридичною
юридичноі
юридичну
юридичні
юридичніи
юрист
юриста
юристами
юристи
юристів
юрко
юрченка
юрченко
юріи
юрію
юрія
юрієм
юстиціі
ютер
ютера
ютерами
ютери
ютерних
ютерноі
ютерні
ютером
ютерів
ютуб
я
яблуня
явився
явилась
явилася
явились
явилися
явилось
явилося
явитися
явиться
явищ
явища
явище
явищем
явлення
являться
являються
являє
являється
явно
ягільниця
язана
язане
язании
язаним
язаними
язаних
язання
язаннями
язано
язаного
язаноі
язану
язань
язані
язати
язатися
язка
язками
язках
язки
язкова
язкове
язковим
язковими
язкових
язково
язкового
язковою
язкові
язковість
язком
язкою
язку
язків
язок
язування
язувати
язує
язується
языке
як
яка
якась
якби
яке
якесь
якии
яким
якими
якимись
якимович
якимось
яких
якихось
якмога
якнаи
яко
якого
якогось
якомога
якому
якомусь
якості
якось
якою
якоі
якраз
яку
якубовських
якусь
якщо
якъ
які
яків
якіи
якісна
якісне
якіснии
якісним
якісними
якісних
якісно
якісного
якісному
якісноі
якісну
якісні
якісніше
якість
якістю
якісь
ялина
ялинськии
ялинського
ям
ян
яна
яндекс
яне
янець
яни
янии
янин
янисте
яних
янка
янович
яноі
янська
янське
янських
янського
янському
яну
янця
янці
яні
яніи
яр
яриловичі
ярмарок
ярослав
яс
яскраві
яснення
ясно
ясновська
ясп
ясування
ясувати
ята
ятаи
яталися
ятати
ятаю
ятають
ятдесят
яте
яти
ятибальною
ятии
ятка
яткам
ятками
ятках
ятки
яткоохоронців
яткою
ятку
ятнадцять
ятнии
ятник
ятника
ятники
ятників
ятних
ятницю
ятниця
ятниці
ятні
яток
ятоі
ятсот
ять
яті
яцожинськии
яцожинського
ячеслав
ячеслава
ячеславович
ящірка
є
єва
євген
євгена
євгене
євгенович
євгеновича
євгеном
євгену
євгеніи
євгенія
євреи
євро
євробачення
євромаи
європа
європарламенту
європарламенті
європеи
європи
європу
європі
євсюкова
єгорченко
єдина
єдине
єдинии
єдиним
єдиного
єдиною
єдиноі
єдину
єднаних
єднання
єднанням
єднанні
єднань
єднані
єднати
єднувати
єднує
єдр
єдрпоу
єзуцькии
єкт
єкта
єктами
єктах
єкти
єктивних
єктивно
єктивні
єктивність
єктом
єкту
єктів
єлизавета
єм
ємною
єр
єра
єреван
єревані
єри
єру
єрів
єс
і
іа
ів
іван
івана
іване
іванків
іванківці
івано
іванова
іванович
івановича
івану
іванівна
івашина
ігнорування
ігнорувати
ігор
ігорович
ігоровича
ігоря
ігри
іде
ідеальна
ідеальнии
ідеально
ідеальному
ідеалі
ідеи
ідентифікатор
ідентифікатором
ідентифікаціи
ідентифікація
ідентифікаціі
ідентифікувати
ідентичності
ідеться
ідею
ідея
ідеям
ідеями
ідеєю
ідеі
ідуть
ідіть
із
ізоляціі
ізраі
іи
ікона
ікони
ікт
іл
іллею
іллю
ілля
іллі
іллінського
ілліч
ілюстративним
ілюстраціи
ілюстрація
ілюстраціями
ілюстраціі
ілюстровании
ілюстровані
ілюстрували
ілюстрування
ілюструвати
ілюструють
ілюструємо
ім
імеи
імен
імена
іменем
іменування
імені
імовірно
імовірніше
імплементаціі
імпорт
імхо
імідж
іміджу
ін
інакше
інау
інвалідності
інвентаризаціи
інвентаризацію
інвентаризаціі
інвестиціи
інвестувати
індекс
індивідуальна
індивідуальнии
індивідуальним
індивідуальними
індивідуальних
індивідуального
індивідуальному
індивідуальні
індикатори
індонезіи
індонезія
індія
індіі
інженер
інклюзивності
інколи
інкубатор
інна
інноваціи
інноваціі
іноді
іноземних
іноземною
іноземноі
іноземні
іноземці
іноземців
інсаи
інспірована
інстаграм
інстаграмі
інститут
інститутом
інститутська
інститутську
інститутськіи
інституту
інституті
інституціи
інституціями
інституціі
інструкціи
інструкцію
інструкція
інструкціі
інструмент
інструментами
інструменти
інструментом
інструменту
інструменті
інструментів
інтеграцію
інтеграція
інтеграціі
інтегрувати
інтелект
інтелекту
інтелектуальнии
інтелектуальних
інтелектуальноі
інтер
інтерактивна
інтерактивнии
інтерактивні
інтерв
інтервал
інтервікі
інтерес
інтересами
інтересах
інтереси
інтересу
інтересів
інтернат
інтернаті
інтернет
інтернетом
інтернету
інтернеті
інтерфакс
інтерфеи
інфа
інфо
інфографік
інфографіка
інфографіки
інфографіку
інформ
інформативність
інформатизаціі
інформатика
інформатики
інформаціи
інформацію
інформація
інформацією
інформаціі
інформування
інформувати
інформує
інфраструктури
інфраструктуру
інфу
інша
інше
іншии
іншим
іншими
інших
іншого
іншомовних
іншомовноі
іншому
іншою
іншоі
іншу
інші
іншіи
ініціатив
ініціатива
ініціативам
ініціативи
ініціативна
ініціативне
ініціативною
ініціативноі
ініціативну
ініціативою
ініціативу
ініціативі
ініціатор
ініціатора
ініціатори
ініціатором
ініціаторів
ініціи
ініціював
ініціювала
ініціювання
ініціювати
ініціює
іпрі
ірану
ірина
існувала
існування
існувати
існують
існуючии
існуючих
існуючоі
існуючу
існуючі
існує
іспанська
іспанською
іспанськоі
іспанськіи
іспанія
іспаніі
історик
історики
історико
істориків
історична
історичнии
історичних
історично
історичного
історичному
історичноі
історичну
історичні
історіи
історію
історія
історіями
історією
історіі
істотно
іт
італіи
італія
італіі
ітд
іти
іх
ічня
ічнянськии
ічнянському
ішла
іще
іі
ііі
ґ
ґлам
ґрант
ґранту
ґрунтуватися
ґуґл
ָ
א
გ
ი
ᛒᚨᛊᛖ
​
‎
–
—
‘
’
“
”
„
•
…
⁰
€
₴
⃰
№
ℵ
←
→
↓
↔
↷
⇒
−
③
④
⑦
►
◄
●
✓
ⰱ
ⰳ
ⱁ
⺀
⺄
⺆
⺈
⺊
⺌
⺕
⺝
⺸
⺼
⿰
⿱
⿲
⿳
⿴
⿵
⿶
⿷
⿸
⿹
⿺
⿻
〢
ア
コ
タ
ナ
ユ
ン
㇁
㇂
㇄
㇇
㇈
㇉
㇓
㐁
㐄
㐅
㐌
㐫
㐬
㐭
㐮
㐱
㑒
㒵
㒸
㒼
㓁
㓞
㔾
㕛
㕣
㖾
㘝
㚅
㚇
㚔
㚘
㝉
㝡
㝴
㝵
㞋
㞢
㞷
㠩
㠭
㠯
㡀
㡭
㡿
㢲
㢴
㣇
㣺
㥯
㪅
㫄
㫐
㫒
㫺
㬅
㬎
㬥
㬰
㲋
㳄
㷠
㸒
㸚
㸦
㼌
㼲
㽞
㿟
䀠
䂞
䍃
䏍
䒑
䖍
䖒
䖝
䖵
䙴
䚻
䜌
䝿
䡛
䧹
䪞
一
丁
丂
七
丄
丅
丆
万
丈
三
上
下
丌
不
与
丏
丐
丑
专
且
丕
世
丘
丙
业
东
丞
丢
丣
两
严
並
丨
丩
个
丫
丬
中
丮
丰
丱
串
丵
丶
丷
丸
丹
为
主
丽
丿
乀
乂
乃
久
乆
乇
么
义
之
乌
乍
乎
乏
乐
乑
乔
乖
乗
乘
乙
乚
乛
乜
九
乞
也
习
乡
乳
乾
亀
亅
了
亇
予
争
事
二
亍
于
亏
亐
云
互
亓
五
井
亘
亚
亜
亞
亟
亠
亡
亢
交
亥
亦
产
亨
亩
享
京
亭
亮
亯
亰
亲
亳
亶
亷
人
亻
亼
亾
仁
今
介
仌
从
仐
仑
仒
仓
仕
他
付
仝
代
令
以
任
企
伊
伏
伐
休
会
伯
但
位
何
佘
余
作
佥
使
來
侈
侌
侖
侯
侵
便
保
俞
信
修
倉
倍
候
倠
備
僉
僕
儿
兀
允
兂
元
兄
充
兆
兇
先
光
兊
克
兌
免
兑
兒
兓
兔
党
兜
兟
入
全
兩
兪
八
公
六
兮
兰
共
关
兵
其
具
典
兹
兼
冀
冂
冃
冄
内
冈
冉
冊
冋
册
再
冎
冏
冐
冒
冓
冖
冗
冘
军
农
冝
冡
冥
冫
冬
冷
几
凡
凢
凵
凶
凷
凸
凹
出
函
凾
刀
刁
刂
刃
刄
刅
分
切
刍
刑
刕
刖
列
刘
则
初
別
利
别
到
制
刺
則
削
剌
前
剡
剽
劉
力
功
加
劦
助
劫
劳
劵
勃
勇
勉
勒
動
務
勞
勤
勹
勺
勻
勾
勿
匀
匂
包
匆
匈
匊
匋
匍
匕
化
北
匚
匝
匡
匪
匱
匸
匹
区
医
匽
匿
區
十
卂
千
卄
卅
卆
升
午
卉
半
卌
华
卑
卒
卓
单
卖
南
卜
卝
卞
占
卡
卢
卣
卤
卦
卩
卪
卬
卯
印
危
即
却
卵
卷
卸
卻
厂
厃
厄
历
厈
厉
厌
厓
厘
厚
原
厤
厥
厨
厭
厲
厶
厷
厸
去
厼
厽
叀
参
參
叅
又
叉
及
友
双
反
叐
发
叒
叔
叕
取
受
叚
叜
叟
口
古
句
另
叩
只
召
可
台
叱
史
右
叵
号
司
叹
吂
各
吅
合
吉
吊
吋
同
名
后
吏
向
吕
君
吝
吞
否
含
启
吳
吴
吹
吾
呂
呆
呈
告
员
呙
周
命
咅
和
咎
咠
咢
咨
咸
咼
哀
品
哉
員
哥
哲
唐
商
啇
問
啚
啬
啻
善
喜
喬
單
喿
嗇
噩
嚴
囊
囗
囘
囙
囚
四
回
囟
因
囧
囬
困
囱
囷
固
国
圂
圅
國
圍
圓
土
圡
圣
圥
在
圭
地
圶
圼
坐
坒
坚
坴
垂
垔
垚
埀
埋
埶
執
基
堂
堅
堆
堇
堯
塞
墨
壘
士
壬
壯
声
壳
壴
壹
壺
壽
夂
处
夅
夆
备
夊
夋
夌
复
夏
夒
夕
外
夗
夘
多
夜
夢
大
夨
天
太
夫
夬
夭
央
失
夲
头
夷
夸
夹
夻
夾
奂
奄
奇
奈
奉
奎
奏
奐
契
奓
奔
奚
奞
奠
奢
奥
奭
女
奴
奻
好
如
妄
妙
妟
妥
妻
妾
姑
委
姜
威
娄
婁
婴
嬰
嬴
子
孑
孔
孕
孖
字
存
孚
孛
孝
孟
季
孤
学
孫
孱
學
宀
宁
宂
它
宅
宇
守
安
宋
完
宏
宓
宗
官
定
宛
宜
宝
客
宣
室
宮
宰
害
家
容
宾
宿
寄
寅
密
富
寒
察
寧
審
寫
寬
寮
寸
对
寺
寻
寽
対
寿
封
尃
射
将
將
專
尉
尊
尋
尌
對
小
少
尒
尓
尔
尖
尗
尚
尞
尢
尣
尤
尧
尨
尭
就
尸
尹
尺
尻
尼
尽
尾
尿
局
居
屈
屋
屎
屏
屑
展
屖
屚
属
屠
屡
屬
屮
屯
屰
山
屵
屾
岁
岂
岑
岡
岩
岳
岸
峯
島
崇
崑
崔
崖
崙
崩
嵬
嶲
巂
巛
川
州
巟
巠
巢
巤
工
左
巧
巨
巩
巫
差
己
已
巳
巴
巷
巸
巽
巾
巿
帀
市
布
希
帚
帛
帝
带
師
席
帶
常
干
平
年
幵
并
幷
幸
幺
幻
幼
幽
幾
广
広
庄
床
底
店
庚
府
度
庫
庭
庶
康
庸
廉
廌
廛
廣
廩
廴
延
廷
建
廾
廿
开
弁
弃
弄
弇
弋
式
弓
弔
引
弗
弘
弜
弟
弥
弦
弱
張
強
强
彊
彌
彎
彐
彑
当
彔
录
彖
彗
彡
形
彥
彦
彧
彭
彳
役
彼
往
待
律
徒
得
徙
從
復
微
徵
心
忄
必
忌
忍
志
忝
忠
忩
快
念
忽
忿
思
怠
急
怱
恆
恒
恩
恭
息
悉
患
悤
悲
悶
惠
惡
惢
愁
愈
意
愛
感
慈
慧
慮
憂
憲
應
戀
戈
戉
戊
戋
戌
戍
戎
成
我
戒
戔
或
戚
戠
戢
截
戲
戶
户
戹
戼
戾
房
所
扁
扇
手
扌
才
打
托
执
承
折
拉
拜
拿
掌
推
提
摩
支
攴
攵
收
攸
改
放
政
敄
敏
敕
敖
敗
敝
敞
敢
散
敦
敫
敬
数
敷
數
斂
文
斉
斊
斗
斤
斥
斩
斬
斯
新
方
於
施
斿
旁
旋
族
无
旡
既
旣
日
旦
旧
旨
早
旬
旱
旲
时
旾
昆
昇
昌
昍
明
昏
易
昔
昗
昜
星
春
昬
是
昱
昴
昷
時
晃
晋
晏
普
景
晶
智
暑
暴
曇
曩
曰
曲
曳
更
曷
書
曹
曼
曾
替
最
朁
會
月
有
朋
服
朔
朕
朗
望
朝
木
朩
未
末
本
札
朮
术
朱
朵
朶
朿
杀
杏
杜
束
条
来
東
杲
杳
松
析
林
枚
果
枝
枲
枼
某
柔
查
柬
柰
柴
栗
桀
桑
桼
梁
條
梟
梨
棘
棠
棥
森
楚
業
楽
榮
樂
樊
欠
次
欣
欮
欲
欶
欽
款
歆
歇
歛
止
正
此
步
武
歨
歪
歮
歯
歰
歲
歴
歷
歸
歹
歺
死
殳
段
殷
殸
殹
殺
殻
殿
毋
毌
母
每
毒
比
毕
毚
毛
毳
氏
氐
民
气
氣
水
氵
氶
氷
永
氺
氾
求
汝
汞
江
沃
沓
沙
沝
泉
法
波
泣
泥
泰
洛
洪
活
派
流
浦
浪
浮
淡
淮
清
渚
渠
湯
滿
漸
火
灬
灭
灰
灵
灷
炅
炎
炏
炗
炙
炭
為
烈
烏
烝
焉
無
焦
焱
然
煞
熊
熏
燕
營
燮
爪
爫
爭
爯
爰
爱
爲
爵
父
爻
爽
爾
爿
片
牙
牚
牛
牜
牟
牢
牧
牪
牽
犀
犬
犭
犮
狂
狄
狊
独
狺
猋
猒
猪
献
獻
玄
率
玉
王
玟
玨
珎
班
琴
瑟
瑩
瓜
瓦
甘
甚
生
産
用
甫
甬
田
由
甲
申
电
甶
男
甸
甹
画
甾
畀
界
畏
畐
留
畜
畟
畢
畧
畨
番
畫
異
畱
當
畺
畾
疊
疋
疌
疑
疒
疾
癶
癸
癹
登
發
白
百
皀
皃
的
皆
皇
皋
皐
皕
皮
皷
皿
盃
盆
盇
盈
益
盍
盎
监
盒
盖
盛
盡
監
盤
盧
目
直
相
盾
省
眇
眉
看
眔
眞
真
眷
眼
眾
着
睘
睪
睿
瞏
瞢
瞿
矍
矛
矞
矢
矣
知
矦
短
石
破
碎
磊
磨
示
礻
礼
祟
票
祭
禀
禁
禸
禹
禺
离
禽
禾
禿
秀
秃
秉
秋
科
秝
秦
移
稟
穀
穌
穴
究
穹
空
穿
突
窄
窒
立
竒
竜
竝
竟
章
童
竹
笑
笠
筆
等
答
箕
算
箴
節
篤
篭
米
粉
粛
粟
粤
粦
粲
糞
糸
糹
系
約
納
素
索
紫
累
細
絜
絫
絲
維
綿
縣
繇
纍
纟
缶
网
罒
罔
罕
罗
罙
罡
罢
罪
署
罷
羅
羊
羌
羍
美
羔
羕
羗
羞
羡
羣
群
義
羲
羸
羽
翁
翏
習
翕
翟
翠
翼
老
耂
考
者
耆
而
耎
耑
耒
耳
耴
耶
耷
聂
聊
聖
聚
聶
聿
肀
肃
肅
肉
肖
肙
肥
肩
肯
育
肴
胃
背
胡
胥
能
脊
脩
膚
臣
臤
臧
自
臬
臭
臯
臱
至
致
臺
臼
臽
臾
臿
舀
舂
舄
與
興
舉
舌
舍
舛
舜
舞
舟
般
艮
良
色
艸
艹
艾
芒
芔
芬
芮
花
芳
芺
芻
苔
苗
苟
若
苦
英
茶
茸
荅
草
荒
荣
荼
莆
莧
莫
莽
菆
菊
菐
華
萬
落
葉
著
葛
董
葵
蒙
蒦
蒼
蓋
蓬
蓺
蔑
蔡
蕉
蕭
薄
薛
薦
薰
藍
藏
藥
蘭
虍
虎
虐
虒
虔
處
虖
虗
虘
虚
虛
虜
虞
虫
虽
蚤
蚩
蜀
蜜
蟲
蠡
血
行
衍
衛
衣
衤
表
衮
衰
袁
袞
褭
褱
襄
襾
西
覀
要
覃
見
規
覓
覧
親
覽
见
角
解
言
訁
訇
計
詹
誩
諸
讠
谷
豆
豈
豊
豐
豕
豖
豙
象
豦
豩
豪
豸
貇
貝
貞
貟
負
貢
貧
貪
貫
責
貳
貴
買
費
賁
資
賈
賏
賓
賔
賛
賞
賢
賣
質
賴
贊
贝
贡
责
贯
贲
贵
赖
赞
赤
赦
走
越
足
路
蹇
身
躬
車
軍
軎
軟
輦
车
辛
辜
辟
辥
辰
辱
農
辵
辶
边
达
过
近
连
迷
追
退
送
逆
逐
通
速
造
逢
連
逮
進
遀
遂
過
道
達
遣
適
遷
遺
邊
邑
邕
那
邦
邪
郎
部
郭
都
鄉
酉
酋
配
酓
釆
采
里
重
野
量
金
釒
錢
钅
長
镸
长
門
閃
閉
開
閏
閑
閒
間
閔
閵
閻
闌
门
间
闷
阑
阜
阝
阿
降
陳
隆
隊
隋
隡
隨
隱
隶
隹
隺
隻
隼
隽
难
雀
雁
集
雈
雋
雍
雐
雔
雙
雚
雜
雝
離
難
雨
雩
雪
雲
零
雷
需
霍
霜
霝
霞
霸
靈
靑
青
非
靡
面
靣
革
韋
韦
韭
韯
韱
音
頁
頃
項
須
頗
頡
頻
顛
页
風
风
飛
飞
食
飠
養
饣
首
香
馬
馮
駦
马
骨
高
髟
鬥
鬯
鬲
鬼
魚
魯
鮮
鱼
鲁
鳥
鳳
鸟
鹵
鹿
麃
麗
麥
麦
麻
黃
黄
黍
黎
黑
黒
黨
黹
黽
黾
鼎
鼓
鼠
鼻
齊
齋
齐
齒
齿
龍
龙
龜
龟
龠
龰
龱
龴
龵
龶
龷
龸
龹
者
艹
﻿
？
👍
𠀁
𠀃
𠀆
𠀉
𠀎
𠀐
𠁁
𠁣
𠂆
𠂇
𠂈
𠂉
𠂊
𠂋
𠂎
𠂒
𠂔
𠂛
𠂡
𠂢
𠂤
𠂬
𠂭
𠂹
𠃊
𠃋
𠃌
𠃍
𠃎
𠃑
𠃓
𠃔
𠃜
𠄌
𠄎
𠄠
𠄢
𠆢
𠆥
𠇍
𠈌
𠌵
𠓜
𠔉
𠔥
𠔼
𠔽
𠔿
𠕀
𠕁
𠕋
𠘧
𠘨
𠙻
𠙼
𠚏
𠚒
𠚤
𠚪
𠣏
𠤎
𠤕
𠥓
𠦄
𠦑
𠦝
𠧒
𠧗
𠧪
𠩺
𠪚
𠫓
𠫔
𠫤
𠬛
𠬝
𠬞
𠬢
𠬤
𠬶
𠮛
𠮦
𠮷
𠯑
𠱠
𠳮
𠷎
𡈼
𡉀
𡉵
𡌥
𡍮
𡏳
𡕒
𡕩
𡕰
𡖅
𡗗
𡗜
𡘆
𡘤
𡧱
𡨄
𡩧
𡬠
𡭽
𡰣
𡰥
𡰪
𡰯
𡰱
𡷈
𡸁
𡿨
𡿩
𡿪
𡿺
𢀖
𢀛
𢀩
𢁙
𢆉
𢆰
𢆶
𢇁
𢇇
𢉖
𢌬
𢌿
𢏚
𢑑
𢑚
𢖻
𢙣
𢛳
𢦏
𢦒
𢧵
𢼄
𢾕
𣁋
𣄼
𣅀
𣅽
𣍘
𣎳
𣎵
𣏋
𣏼
𣗥
𣥂
𣥖
𣦵
𣦼
𣧄
𣪊
𣪠
𣬉
𣳾
𣶒
𤇾
𤊽
𤐫
𤓰
𤔔
𤕨
𤣩
𤰇
𤰔
𤰞
𤴓
𤴔
𤽄
𥁑
𥁕
𥃦
𥃩
𥃭
𥇡
𥑟
𥘅
𥘈
𥝢
𥫗
𥱡
𦈢
𦉪
𦉬
𦉼
𦍌
𦍒
𦎧
𦐇
𦓔
𦔮
𦘒
𦙃
𦚏
𦣝
𦣞
𦣻
𦥑
𦥔
𦥯
𦨉
𦭝
𦰩
𧆞
𧈧
𧘇
𧰨
𧴪
𧴮
𧵩
𧾷
𨸏
𨾴
𩙿
𩠐
𩫏
𩵋
𪉷
𪜀
𪟽
𪠲
𪩲
𫇦
𫔭
𫜸
𫝀
𫠣
𫠩
𫢉
𫥞
𫩏
𫩠
𫪡
𫲽
𫶧
𬀷
𬐘
𬗌
𬙙
𬛸
𬜯
𬟩
𬯁
𬴘
𬺻
𬼉
𬼖
𭀰
𭁈
𭁨
𭅰
𭑈
𭕄
𭗼
𭤨
𭥫
𭻾
𮅕
𮊿
𮍌
𮍏
𮓗
𮥼
𮧮
廾
𰀁
𰀄
𰀈
𰀉
𰀕
𰀠
𰀡
𰀢
𰀪
𰁜
𰃮
𰆊
𰆘
𰋙
𰕎
𰢴
𰧭
𰯲
04--
12--
13--
1379--
14--
16--
17--
18--
19--
20--
21--
26--
27--
29--
33--
37--
39--
41--
50--
52--
56--
63--
66--
67--
74--
82--
94--
96--
a--
achi--
ack--
ad--
aff--
ag--
al--
amaz--
an--
ana--
ans--
ap--
app--
ar--
arch--
as--
ass--
astro--
at--
au--
b--
ba--
be--
bi--
biosp--
bo--
br--
bri--
bro--
bu--
buk--
c--
ca--
carp--
certifi--
ch--
che--
cher--
ci--
clar--
co--
con--
cons--
const--
cr--
cu--
d--
da--
de--
dead--
deleg--
di--
dig--
dis--
disc--
disse--
distri--
dm--
do--
e--
eco--
en--
er--
ex--
exclus--
exe--
exp--
expl--
f--
fa--
failu--
fam--
fas--
fes--
fi--
fil--
flu--
foot--
g--
ga--
gat--
ger--
gr--
gu--
h--
ha--
happ--
hei--
hi--
ho--
host--
i--
ibe--
ig--
illust--
imp--
in--
indi--
inhab--
innov--
inst--
inter--
inv--
j--
jas--
je--
ju--
k--
ka--
kh--
ko--
kor--
koz--
ku--
l--
la--
le--
lev--
li--
light--
lo--
lor--
lu--
m--
ma--
mak--
man--
mas--
me--
men--
mi--
mil--
mm--
mo--
moder--
mor--
my--
n--
na--
ne--
neg--
ni--
no--
o--
ob--
obta--
od--
out--
p--
pa--
parli--
pe--
pet--
pi--
pla--
plat--
po--
popu--
pos--
pr--
pre--
pri--
pro--
q--
quali--
r--
rat--
re--
rece--
requi--
ri--
ro--
ry--
s--
scho--
se--
ser--
sh--
sig--
sin--
so--
sp--
st--
su--
suffi--
sun--
sw--
sy--
t--
te--
tea--
th--
thou--
to--
tour--
tra--
tran--
trans--
transp--
u--
ua--
uk--
um--
un--
under--
uni--
up--
v--
ve--
vo--
vulg--
vy--
w--
we--
wiki--
wm--
wro--
wykł--
x--
y--
ya--
z--
za--
zhy--
zi--
а--
аб--
абстракт--
авди--
авто--
автоматиз--
аген--
агре--
агіта--
ад--
ада--
адек--
адекват--
аеропор--
ак--
акаде--
академіч--
акреди--
акредита--
акціонер--
ал--
аль--
альтер--
альтернатив--
амбі--
амери--
америка--
аморти--
ан--
ана--
аналітич--
анато--
андруші--
анонім--
анта--
антарктич--
ап--
апр--
ар--
араб--
арен--
арон--
арсе--
арх--
архео--
архітек--
ас--
астр--
ат--
атмо--
атрибу--
афіл--
афіліа--
б--
ба--
баб--
багато--
баку--
бал--
бар--
бать--
баш--
башки--
бе--
без--
безпеч--
бельг--
бер--
бл--
бо--
богодухів--
болот--
бор--
боре--
борщів--
бота--
боя--
бр--
бра--
бре--
бренд--
брита--
броню--
бру--
брюсс--
бу--
бузь--
букови--
бур--
бух--
бюле--
бі--
біблі--
бібліо--
бібліотеч--
біл--
біло--
білору--
біо--
в--
ва--
ваго--
важ--
важко--
вакци--
ван--
ванта--
вар--
варе--
васи--
вва--
вг--
вд--
вда--
ве--
век--
вело--
вер--
вза--
взаєм--
ви--
виба--
вибор--
вига--
виго--
вигі--
вид--
виділе--
визна--
вик--
вики--
вико--
викори--
виму--
вимуше--
вин--
вино--
випа--
вир--
вироб--
вирощу--
вирі--
висо--
високо--
вису--
витра--
витраче--
витяг--
вих--
вичер--
вичи--
вичита--
вище--
виявле--
вк--
вказів--
включе--
вла--
вм--
вмоти--
вно--
во--
вовчан--
вод--
вока--
вокаль--
воли--
воло--
вор--
ворд--
воєн--
вп--
впев--
впод--
впора--
впр--
вр--
вра--
все--
всіл--
втру--
вті--
втіле--
вузь--
вх--
вче--
вчи--
вщи--
вы--
ві--
від--
відео--
відреагу--
відскан--
відш--
вікі--
віківи--
вір--
вірме--
віртуа--
віртуаль--
вітчизн--
г--
га--
гаджи--
гали--
гар--
гаран--
гвоздець--
ге--
гек--
ген--
гендер--
гео--
географіч--
гер--
гл--
гле--
гли--
глух--
гнуч--
го--
гон--
гончар--
гор--
гр--
гра--
грабо--
гре--
гри--
гринь--
гу--
гі--
гіл--
гір--
д--
да--
дав--
дале--
дарниць--
дво--
де--
дезін--
декла--
деле--
ден--
дер--
держад--
дж--
джа--
дзв--
дзерка--
ди--
див--
дирек--
дис--
дити--
дитя--
дніпро--
до--
добро--
добі--
дов--
довго--
довжи--
довід--
додат--
дозв--
дозво--
докла--
долу--
домаш--
домініка--
доопраць--
допові--
допу--
дор--
дорад--
дору--
досто--
дося--
досяг--
дош--
др--
дру--
дружи--
ду--
дубе--
дуж--
дут--
ді--
діас--
дів--
діли--
е--
ево--
еду--
ек--
екземпл--
еко--
екс--
експеди--
ел--
ембле--
ен--
ентузіас--
еска--
есте--
есто--
ет--
етич--
етнографіч--
ж--
жа--
жар--
же--
жере--
жи--
життє--
жов--
жорст--
жу--
жі--
з--
за--
заблок--
забор--
зава--
заван--
завер--
заверши--
зага--
загально--
заго--
задово--
зазна--
заки--
закрі--
закін--
залеж--
замов--
зано--
зао--
заоч--
запа--
запові--
запор--
запорізь--
запу--
зар--
зас--
заслу--
засну--
застосу--
затвер--
зах--
захарів--
захи--
захище--
заці--
зацікавле--
заче--
зб--
зби--
збудо--
зв--
зве--
звер--
зверта--
звину--
звич--
звор--
зві--
звіль--
звір--
зга--
згаду--
зголошува--
зд--
зда--
здобу--
зе--
зеле--
зем--
зи--
зла--
змага--
зму--
зна--
знаход--
зни--
зниж--
зобра--
зовніш--
золо--
зоо--
зосе--
зосередже--
зосереди--
зр--
зруч--
зу--
зупи--
зупини--
зустр--
зчи--
зі--
зінь--
зінько--
зір--
и--
из--
ин--
к--
ка--
каб--
казах--
кали--
каль--
кам--
камер--
канів--
кар--
ката--
катало--
католиць--
кач--
квадрат--
кваліфікова--
кван--
кве--
кво--
ке--
керів--
ки--
кири--
клар--
клі--
книж--
книжко--
кня--
ко--
коза--
коле--
ком--
коме--
компетент--
кон--
конвер--
конкурен--
коно--
консер--
консерва--
конст--
конструктив--
консу--
конти--
континен--
конфере--
координа--
координу--
кор--
кори--
користу--
короп--
коросте--
кос--
кр--
крама--
краси--
крає--
кре--
креатив--
кременчу--
кри--
кризо--
крим--
кримсько--
кримськотатар--
критич--
кропивниць--
кру--
круг--
круж--
ку--
куль--
кі--
ків--
кім--
кін--
кіно--
кінце--
кірово--
кіровоград--
л--
ла--
лабо--
ле--
леген--
лексич--
лел--
ли--
лися--
лит--
лиш--
лиши--
ло--
логі--
логіч--
лозі--
лока--
лу--
луга--
луч--
ль--
лю--
люд--
лєт--
лі--
лів--
ліж--
лік--
лікар--
лінгві--
лісо--
літ--
літера--
лічиль--
м--
ма--
маг--
македон--
мало--
маль--
малю--
ман--
манд--
мар--
мас--
мах--
маши--
маєт--
ме--
мега--
медич--
медіа--
мек--
месе--
месен--
мета--
меха--
меш--
мешка--
ми--
мир--
мистець--
мит--
миш--
мо--
мобіль--
мов--
могилян--
моде--
модер--
модифі--
моло--
мора--
мос--
моско--
мотиву--
мр--
му--
музико--
мурман--
мі--
між--
мікро--
міні--
міт--
міц--
н--
на--
наби--
нав--
нави--
нага--
нагаль--
наго--
над--
нади--
нази--
нала--
належ--
напи--
наповне--
нар--
нас--
настав--
наяв--
не--
небезпеч--
неви--
недо--
недореч--
недостат--
нее--
неспод--
неу--
ниж--
нижче--
но--
нобелів--
ново--
номіну--
нс--
нсько--
нь--
ні--
нідерланд--
ніч--
о--
об--
обговорю--
обер--
оби--
облад--
обр--
объек--
обі--
обіг--
обіз--
обґрун--
огуль--
оде--
одно--
оз--
озвуче--
ок--
окр--
оку--
оле--
олек--
олеш--
оль--
ом--
оми--
омл--
омле--
он--
оно--
оновле--
оп--
опер--
опини--
опла--
опо--
оприлюд--
опублі--
опіш--
ор--
ора--
орг--
орен--
орієн--
орієнтов--
орієнтува--
ос--
осе--
оста--
остро--
от--
отри--
оформ--
оформле--
охоп--
охопле--
охор--
оцифр--
оч--
очи--
очіку--
п--
па--
пам--
паперо--
патрі--
патріотич--
пау--
пацієн--
пе--
пелі--
пен--
пер--
первин--
пере--
перевіре--
перегл--
перед--
переко--
перема--
перемож--
переможи--
перепис--
перерах--
перероб--
переселе--
пересу--
пересіч--
перс--
пи--
пир--
пись--
пл--
плаг--
плат--
платіж--
пле--
плі--
по--
победи--
побу--
пов--
поваж--
повно--
повсяк--
пові--
погли--
под--
подо--
поду--
подіб--
поділ--
поділь--
пое--
поз--
поза--
позба--
позна--
пок--
поки--
покла--
пол--
полта--
поль--
пом--
пообі--
попро--
попул--
популяр--
пор--
португаль--
поруш--
пос--
постраж--
потуж--
пох--
поч--
почат--
поче--
почи--
почу--
пошире--
поширю--
поширюю--
поя--
поін--
пр--
право--
пре--
пред--
прес--
при--
приве--
прид--
приз--
примі--
припа--
припу--
прир--
природ--
природо--
природоохор--
прих--
причет--
приє--
про--
прогля--
продо--
проду--
проконсультува--
пропо--
пропону--
просуну--
пру--
психо--
пу--
публи--
публі--
публіку--
пі--
пів--
півден--
під--
підгаєць--
підзе--
підкр--
підх--
піз--
пілот--
піс--
пісен--
піщан--
р--
ра--
радян--
радіо--
рам--
раф--
рах--
раху--
рахів--
ре--
реа--
реаль--
реалі--
реалізу--
ревк--
регуляр--
резолю--
рекла--
реклам--
рекомендова--
рекоменду--
релевант--
рене--
реплі--
рес--
ри--
ридо--
робо--
род--
роді--
роз--
розгл--
розпі--
розр--
розрахову--
розі--
роме--
ру--
рубе--
рук--
руму--
русс--
руч--
рюкза--
рі--
рівне--
рідкі--
різ--
різном--
с--
са--
само--
сан--
св--
сві--
свід--
се--
селищ--
сер--
серб--
сестри--
си--
син--
ск--
ска--
скандинав--
скель--
скл--
скон--
скори--
скр--
скульп--
сл--
сла--
слаб--
слу--
слугува--
служ--
слі--
смарт--
смач--
смо--
смі--
сне--
сню--
со--
соб--
соло--
солідар--
сооб--
сор--
специфі--
специфіч--
спеціа--
спеціаль--
спеціалі--
спи--
спира--
спл--
спла--
сплаче--
спо--
спон--
спро--
спів--
співпа--
спіл--
спір--
ст--
стар--
стаціонар--
ствер--
створю--
сте--
стеж--
стипе--
сто--
стор--
стосу--
стосува--
стр--
стра--
страт--
сту--
су--
суб--
сум--
сумі--
супереч--
сусі--
сутко--
сучас--
сформуль--
сх--
схв--
схва--
схо--
сь--
сько--
сі--
сідло--
сіль--
т--
та--
тар--
тара--
тарге--
татар--
таєм--
твер--
твор--
те--
теле--
телераді--
тем--
тен--
теоре--
тер--
тере--
територ--
тет--
тех--
теч--
ти--
тиж--
тим--
тлумач--
то--
тол--
толерант--
топ--
тор--
торго--
точ--
тр--
тран--
транс--
транслю--
тре--
трену--
три--
тру--
ту--
тул--
тур--
ті--
у--
увімк--
уго--
угор--
угорщи--
удоскона--
уж--
ужитко--
уз--
узага--
узгодже--
улю--
унемож--
універсаль--
унікаль--
уніфі--
ур--
урізном--
ус--
усвідом--
успіш--
устале--
усу--
утворюю--
утри--
уч--
учи--
ф--
фа--
фан--
фанта--
фантастич--
фар--
фаси--
фау--
фах--
фе--
фла--
фло--
фо--
фор--
фот--
фото--
фр--
фра--
фраг--
фрук--
фі--
фізи--
фізич--
фіксова--
фіксу--
фіксую--
філ--
філо--
філософ--
фін--
фіна--
фінан--
фір--
х--
ха--
хам--
хви--
хи--
хиб--
хлоп--
хм--
хмель--
холо--
хорва--
хоро--
хос--
хот--
хотин--
хр--
хри--
хроболо--
хроно--
ху--
худож--
ц--
цари--
цві--
це--
централіз--
ци--
цивіліз--
ць--
ці--
цікави--
цін--
ч--
ча--
чагар--
час--
чвер--
че--
чер--
черго--
чесні--
чехо--
чи--
чин--
чис--
чита--
чо--
чоло--
чор--
чорно--
чотир--
чу--
чуж--
чут--
ш--
ша--
шар--
шв--
шве--
швед--
шви--
швидкі--
ше--
шендерів--
ши--
шир--
широколужа--
шка--
школ--
шкіль--
шмат--
шо--
шриф--
штуч--
шу--
шум--
шіст--
щас--
щасти--
ще--
щер--
що--
щіль--
ь--
э--
ю--
юна--
юр--
я--
яблу--
яви--
яд--
яз--
язую--
яко--
ян--
яни--
яніше--
япо--
яр--
яс--
яскра--
ят--
яти--
є--
євп--
євро--
єди--
єдна--
єм--
єр--
і--
ів--
іванів--
ідеаль--
ізю--
іл--
ілю--
ілюст--
ілюстр--
ім--
ін--
інвалі--
інклюзи--
інклюзив--
інозем--
інте--
інтер--
інфо--
інфраструк--
іні--
іо--
ір--
іри--
ірпі--
існу--
іспан--
ґрун--
--0
--00
--1
--2
--3
--4
--5
--6
--67
--7
--8
--9
--a
--age
--al
--ally
--ama
--an
--ance
--ant
--ar
--ary
--ata
--ate
--ating
--b
--bot
--bs
--c
--ce
--ch
--con
--ct
--cted
--ction
--ctions
--ctly
--cy
--d
--da
--dia
--dm
--ds
--dy
--e
--ed
--ek
--el
--en
--ence
--enko
--er
--erence
--ern
--ers
--es
--et
--ets
--f
--fe
--g
--ga
--ge
--gh
--ging
--gmail
--graphics
--graphy
--h
--ha
--hen
--hing
--i
--ia
--ic
--id
--ied
--ies
--ii
--il
--im
--ine
--ing
--ion
--ions
--ire
--ists
--it
--ity
--ive
--izable
--ize
--k
--ka
--ke
--ki
--ko
--kov
--kova
--ky
--kyi
--l
--ld
--le
--li
--lo
--ly
--m
--ma
--media
--ment
--n
--na
--nce
--nces
--nd
--ness
--ng
--ning
--nko
--ns
--nt
--nts
--o
--on
--onia
--or
--orium
--orm
--ors
--os
--p
--pal
--r
--ra
--racy
--rd
--re
--ria
--ries
--room
--rs
--rse
--rship
--rt
--rts
--rum
--ry
--s
--se
--sed
--sing
--sk
--sky
--ss
--t
--ta
--te
--ted
--ter
--th
--ti
--ting
--tion
--tions
--tive
--ts
--ty
--u
--ua
--ught
--uk
--ukraine
--um
--ur
--ure
--us
--ut
--ution
--v
--va
--vent
--wikimedia
--wn
--x
--y
--ya
--ying
--yn
--yu
--z
--za
--zi
--а
--ав
--авлена
--авлених
--авляти
--аж
--аи
--ак
--ал
--ала
--али
--ались
--алися
--ало
--алося
--алу
--альна
--альне
--альним
--ально
--ального
--алі
--алізацію
--алізація
--ам
--ами
--ан
--ана
--ане
--ание
--ании
--аним
--аних
--ання
--анні
--ано
--аноі
--ари
--ас
--асте
--ась
--ася
--ат
--ати
--атися
--атки
--атор
--атора
--ату
--ах
--ацію
--ація
--аціі
--ач
--ача
--ачею
--ачу
--ачів
--аю
--ають
--аються
--аючи
--ає
--аємо
--аєте
--ається
--б
--би
--бирати
--бити
--бокс
--бу
--бы
--бі
--в
--ва
--вав
--вався
--вала
--валася
--вали
--валися
--вало
--вана
--вання
--ванням
--ванні
--вано
--вати
--ватися
--ває
--ве
--венко
--ви
--вии
--вим
--вими
--вих
--вич
--вка
--вки
--вку
--влення
--вля
--вна
--вне
--вно
--вну
--вні
--вність
--во
--вого
--вок
--вою
--воі
--вскии
--вства
--вся
--ву
--вувати
--вують
--вує
--вується
--вці
--вши
--ві
--вів
--г
--га
--ги
--го
--графія
--гу
--гів
--гіи
--гічна
--гію
--гія
--гіі
--д
--да
--денних
--десят
--ди
--док
--дор
--др
--дра
--дрі
--дя
--ді
--е
--ев
--ева
--евих
--евич
--едення
--ежень
--ез
--еи
--ели
--ем
--ен
--ена
--ене
--ении
--енко
--ення
--енні
--ено
--ент
--ену
--ень
--ені
--ер
--ери
--ерт
--ертати
--еру
--ерів
--еслення
--ет
--ети
--ету
--ець
--ецькіи
--ею
--ж
--жання
--жена
--женим
--женню
--ження
--женні
--жено
--жену
--жені
--жжя
--жка
--жна
--жно
--жню
--жніи
--жу
--жував
--жувати
--жує
--жі
--з
--зація
--заціі
--зе
--зуи
--зія
--и
--ибіж
--ив
--ивши
--ид
--ие
--ии
--ик
--ика
--ики
--ила
--илася
--иленко
--или
--илося
--им
--ими
--ин
--ина
--ини
--иняч
--ип
--ись
--ися
--ита
--ити
--ить
--иться
--их
--ицька
--ич
--ичкою
--ичне
--ичних
--ичні
--ия
--к
--ка
--казки
--казок
--ками
--ках
--кає
--ке
--ки
--кии
--ким
--кинути
--ких
--ко
--кова
--кове
--ковии
--кового
--кові
--кого
--кою
--коі
--кратична
--кратичних
--кт
--ку
--кувано
--кувати
--кі
--ків
--л
--ла
--лась
--лася
--лем
--лена
--лене
--лення
--ленні
--лено
--леноі
--лень
--лені
--ли
--лись
--лися
--ло
--логію
--логія
--лося
--лу
--ль
--льна
--льне
--льнии
--льним
--льно
--льну
--льня
--льні
--лю
--лювати
--люсь
--лює
--ля
--ляв
--ляли
--ляти
--ляю
--ляють
--ляє
--ляється
--лі
--ліи
--м
--ма
--маи
--ме
--меться
--ми
--мии
--мим
--мо
--мовна
--мпанія
--му
--мувати
--муть
--муться
--мує
--мується
--мі
--н
--на
--надцять
--нали
--нг
--нги
--нгу
--не
--нець
--ни
--нив
--ние
--нии
--ник
--ника
--ники
--ників
--нили
--нилось
--ним
--ними
--нини
--нити
--них
--ництва
--ництво
--ниць
--ницьких
--ницю
--ниця
--ниці
--ничі
--нка
--нко
--нку
--нно
--нню
--ння
--нням
--ннями
--нні
--но
--ного
--нок
--ному
--ною
--ноі
--нс
--нська
--нт
--нти
--ну
--ную
--нує
--нця
--нщина
--ных
--нь
--ньке
--ню
--нюк
--нюють
--ня
--ні
--ніи
--нік
--ніх
--о
--ов
--ова
--ована
--оване
--овано
--овану
--овані
--ове
--овии
--овиків
--овим
--овими
--ових
--ович
--овича
--овка
--ово
--ового
--овод
--овому
--овою
--овоі
--ову
--овувати
--овує
--овці
--ові
--овіи
--овість
--ого
--оз
--ок
--ол
--ологічні
--олі
--ом
--ому
--ор
--ора
--ори
--орів
--оріі
--ось
--ося
--ох
--очки
--ош
--ою
--оі
--п
--пис
--писувати
--ппо
--прогулянки
--пуск
--пускати
--р
--ра
--разово
--рами
--рб
--рд
--ре
--рення
--ри
--рии
--рия
--рка
--рна
--рне
--рнии
--рним
--рно
--рню
--рня
--рні
--ро
--ром
--рою
--рськии
--рт
--ру
--рух
--рх
--ршив
--ршує
--ряю
--рі
--рів
--ріи
--річ
--рія
--ріі
--с
--саи
--сах
--ску
--сле
--сли
--сна
--ст
--ста
--ств
--ства
--ство
--сти
--сть
--стю
--стями
--стях
--сті
--стів
--су
--сь
--ська
--ське
--ськии
--ським
--ськими
--ських
--ського
--ському
--ською
--ськоі
--ську
--ські
--ськіи
--ся
--сі
--сів
--сією
--т
--та
--тав
--тання
--тає
--те
--ти
--тив
--тивна
--тивне
--тивно
--тивну
--тивні
--тись
--тичне
--тки
--ткою
--тна
--тне
--тні
--тніи
--то
--тор
--тори
--торів
--торією
--тоі
--ту
--туція
--ть
--ться
--тя
--тями
--ті
--у
--ув
--ував
--увався
--увала
--ували
--увало
--ування
--уванні
--увати
--увач
--уи
--ула
--ун
--ут
--уть
--уться
--учення
--учені
--ують
--ує
--ується
--ф
--фаи
--фі
--фікаціі
--фія
--х
--ху
--ц
--цем
--цею
--ции
--ция
--ць
--цька
--цькии
--цькоі
--цькі
--цю
--ця
--цям
--цять
--цях
--ці
--ців
--ціи
--цію
--ція
--ціі
--ч
--ча
--чав
--чак
--чали
--чалися
--чан
--чане
--чани
--чанням
--чає
--чаємо
--че
--чена
--чене
--ченко
--ченні
--чено
--чи
--чив
--чии
--чими
--чих
--чки
--чку
--чна
--чне
--чнии
--чним
--чних
--чно
--чну
--чні
--чоі
--чте
--чу
--чук
--чі
--чів
--ш
--ша
--ше
--ши
--шив
--шии
--шим
--шими
--шина
--шись
--шити
--ших
--шка
--шки
--шньоі
--шню
--шня
--шні
--шого
--шою
--шоі
--шу
--ші
--щ
--ще
--щення
--щина
--щини
--щину
--щині
--ъ
--ы
--ых
--ь
--ька
--ьке
--ьки
--ькии
--ьких
--ько
--ькоі
--ькі
--ькіи
--ьна
--ьне
--ьнии
--ьним
--ьних
--ьно
--ьного
--ьності
--ьноі
--ьну
--ьні
--ься
--ьте
--ю
--ювання
--ювати
--юк
--юсь
--юся
--ють
--ються
--ючи
--ючии
--юють
--ює
--я
--яв
--ява
--як
--ям
--ями
--ян
--яні
--ять
--ях
--ячи
--яються
--яє
--яється
--є
--єв
--ємо
--єте
--ється
--єш
--єю
--і
--ів
--івка
--івна
--івці
--ігаю
--ігає
--ідчує
--ізація
--ізувати
--іи
--ік
--ілки
--ільна
--ільне
--ін
--іна
--інгу
--іння
--іс
--ість
--іть
--іться
--ічено
--ічна
--ічних
--ічно
--ічну
--ію
--ія
--ією
--іі
