!
"
#
##0
##1
##10
##11
##12
##13
##14
##15
##16
##17
##18
##19
##2
##20
##21
##22
##23
##24
##25
##26
##27
##28
##29
##3
##30
##31
##32
##33
##34
##35
##36
##37
##38
##39
##4
##40
##41
##42
##43
##44
##45
##46
##47
##48
##49
##5
##50
##51
##52
##53
##54
##55
##56
##57
##58
##59
##6
##60
##61
##62
##63
##64
##65
##66
##67
##68
##69
##7
##70
##71
##72
##73
##74
##75
##76
##77
##78
##79
##8
##80
##81
##82
##83
##84
##85
##86
##87
##88
##89
##9
##90
##91
##92
##93
##94
##95
##96
##97
##98
##99
$
%
&
'
(
)
*
+
,
-
.
/
0
00
000
0000
001
003
007
008
01
011
014
016
018
02
03
035
04
041
049
05
050
06
07
08
080
09
0907
1
10
100
1000
10000
1002
1003
1004
1006
101
1013
1014
1015
1016
1018
102
1020
102398
1027
103
1030
1034
1035
104
1040
1042
1045
105
1050
1051
1057
1058
106
1060
1062
1065
1066
107
1070
1071
1072
108
1080
1081
1086
1087
109
1090
1093
1094
1096
1097
1098
1099
11
110
1100
1106
1107
111
112
1126
113
1135
1139189
114
1141
115
1150
1151
1154
116
117
118
1185
1187
1189
119
1190
1191
1196
1197
1198
1199
12
120
1200
1206
1207
1209
121
1215
1216
1218
122
1223
1227
123
124
1241
1246
1248
125
1250
1252
1256
1257
126
1260
1261
127
1272
1276
1277
1278
1279
128
1280
1282
1289000
129
1292
1294
1298
1299
13
130
1300
1301
1305
1307
131
1312
132
1320
1321
1322
1325
1327
1328
133
1330
1331
1337
1339
134
1340
1345
1346
1348
135
1356
1358
136
1367
137
1370
1371
1376
1377
138
1384
1386
1387
139
1390
1395
1396
1399
14
140
1400
1408
141
1412
1413
142
1422
143
1430
1431
1437
1438
144
1440
1442
1443
145
1451
1453
1455
1456
1459
146
1460
1461
1469
147
1470
1471
148
1481
1482
1483
1485
1488
149
1490
1491
1492
1493
1499
15
150
1500
1501
1503
1505
1506
1508
1509
151
1512
1513
1514
1517
1519
152
1520
1521
1522
1525
1526
1527
1529
153
1530
1532
1533
1534
1535
1536
1537
1539
154
1540
1541
1542
1543
1547
155
1551
1553
1554
1556
1557
1558
1559
1560
1562
1564
1565
1566
1567
1568
1569
157
1570
1571
1572
1574
1578
1579
158
1580
1581
1582
1584
1585
1587
1588
1589
159
1590
1592
1594
1596
1598
1599
16
160
1600
1601
1602
1603
1604
1605
1606
1607
1608
1609
161
1610
1610471
1611
1612
1613
1616
1618
1619
162
1620
1621
1622
1623
1624
1625
1626
1630
1632
1634
1638
1639
164
1641
1642
1643
1644
1645
1648
1649
165
1650
1651
1652
1653
1654
1655
1658
1659
166
1660
1661
1664
1665
1666
1667
167
1670
1671
1672
1675
1676
1678
168
1680
1683
1684
1685
1686
1687
1688
1689
169
1690
1691
1692
1694
1695
1698
1699
17
170
1700
1701
1702
1703
1705
1706
1707
1710
1711
1712
1713
1714
1715
1717
1718
1719
172
1720
1721
1724
1725
1727
1728
1729
173
1730
1732
1732707
1734
1735
1736
1737
1740
1741
1743
1746
1747
1749
175
1750
1751
1752
1753
1754
1755
1757
1758
1759
176
1760
1762
1763
1764
1765
1766
1767
1768
1769
177
1770
1771
1772
1773
1774
1775
1776
1777
1778
1779
1780
1781
1782
1783
1784
1785
1786
1787
1788
1789
1790
1791
1792
1793
1794
1795
1796
1797
1798
1799
18
180
1800
1801
1802
1803
1804
1805
1806
1807
1808
1809
181
1810
1811
1812
1813
1814
1815
1816
1817
1818
1819
182
1820
1821
1822
1823
1824
1825
1826
1827
1828
1829
183
1830
1831
1832
1833
1834
1835
1836
1837
1838
1839
184
1840
1841
1842
1843
1844
1845
1846
1847
1848
1849
185
1850
1851
1852
1853
1854
1855
1856
1857
1858
1859
186
1860
1861
1862
1863
1864
1865
1866
1867
1868
1869
187
1870
1871
1872
1873
1874
1875
1876
1877
1878
1879
1880
1881
1882
1883
1884
1885
1886
1887
1888
1889
189
1890
1891
1892
1893
1894
1895
1896
1897
1898
1899
19
190
1900
1901
1902
1903
1904
1905
1906
1907
1908
1909
191
1910
1911
1912
1913
1914
1915
1916
1917
1918
1919
192
1920
1921
1922
1923
1924
1925
1926
1927
1928
1929
193
1930
1931
1932
1933
1934
1935
1936
1937
1938
1939
194
1940
1941
1942
1943
1944
1945
1946
1947
1948
1949
195
1950
1951
1952
1953
1954
1955
1956
1957
1958
1959
196
1960
1961
1962
1963
1964
1965
1966
1967
1968
1969
197
1970
1971
1972
1973
1974
1975
1976
1977
1978
1979
198
1980
1981
1982
1983
1984
1985
1986
1987
1988
1989
199
1990
1991
1992
1993
1994
1995
1996
1997
1998
1999
2
20
200
2000
2001
2002
2003
2004
2005
2006
2007
2008
2009
201
2010
2011
2012
2013
2014
2015
2016
2017
2018
2019
202
2020
2021
2022
2023
203
205
206
208
209
209458
2099
21
210
2100
211
212
213
214
215
216
217
218
219
22
220
221
222
223
224
225
226
227
228
229
23
230
231
232
233
234
235
237
238
239
24
240
241
242
244
245
246
247
248
249
25
250
251
252
253
254
255
256
257
258
259
26
260
261
262
264
265
267
268
269
27
270
271
274
275
276
277
278
28
280
282
283
284
285
286
287
288
289
29
290
292
293
294
295
296
297
298
299
3
30
300
3000
301
302
303
304
305
306
307
308
31
310
311
312
313
314
316
319
32
320
321
322
323
324
325
328
33
330
331
332
333
334
335
336
337
338
339
34
340
342
344
345
346
347
348
349
35
350
351
352
353
355
356
357
358
359
36
360
361
362
363
364
365
366
367
368
369
37
370
372
374
375
376
378
379
38
380
383
384
385
386
388
39
390
391
392
393
394
395
397
399
4
40
400
4000
401
403
405
408
409
41
410
411
412
413
414
415
417
418
419
42
420
421
422000
423
425
427
428
43
430
432
433
434
435
436
437
439
44
440
441
442
445
447
448
45
450
451
453
454
455
456
457
458
459
46
460
461
464
465
466
467
469
47
470
471
472
473
474
475
476
477
478
48
480
48000
481
484
486
49
491
493
496
5
50
500
5000
501
505
507
508
51
510
511
514
517
518
52
520
522
523
524
525
526
53
530
5300
532
533
534
535
536
538
54
540
541
546
547
548
549
55
550
551
552
554
556
558
559
56
560
563
564
565
567
568
569
57
570
572
573
574
575
578
579
58
580
581
584
586
587
589
59
590
591
599
6
60
600
604
608
61
614
616
618
62
622
623
624
625
626
627
629
63
630
631
634
63400
636
639
64
640
641
642
643
646
65
650
6500
651
652
655
658
66
660
661
665
668
67
670
675
68
680
681
685
69
690
693
7
70
700
705
709
71
714
717
72
721
722
724
727
73
731
73467
735
737
739
74
740
743
745
747
75
750
753
755
756
757
76
762
765
766
767
768
77
777
778
78
787
79
792
796
797
8
80
800
81
811
812
813
814
82
820
821
825
83
831
839
84
840
841
842
843
847
85
850
851
852
855
858
86
860
865
866
87
870
871
872
875
876
877
878
879
88
8859
887
888
89
890
892
893
896
899
9
90
900
901
902
91
915
916
918
92
923
924
925
927
928
93
930
932
936
937
939
94
940
943
946
95
951
953
954
955
959
96
962
965
969
97
970
971
973
974
975
977
978
98
980
981
987
988
99
994
995
997
:
;
<
=
>
?
@
\
^
_
`
a
aa
aachen
aalst
aammarpassuillu
aaron
ab
aba
abad
abandoned
abanned
abannede
abannedon
abba
abbas
abbey
abbod
abbodesse
abbot
abbreviated
abbreviation
abbreviations
abby
abc
abd
abdicated
abdicates
abdomen
abdominalis
abdominis
abdul
abdullah
abe
abead
abeag
abel
abercurnige
aberdeen
aberdonsci
abi
abidað
abide
abilene
ability
abitt
abl
able
ablon
abnormality
aboard
aboddesse
abolished
abolitionist
abord
aboriginal
abortus
about
above
abra
abrac
abraham
abrasio
abridged
abræc
abscessus
absence
absent
absolutely
abstract
abu
abuse
abusefilter
abusefilters
abusive
abyrstede
ac
aca
academic
academy
acan
acas
acc
accent
accented
accents
accept
acceptable
acceptance
accepted
accepting
access
accessed
accessibility
accessible
accident
accidentally
accomplishments
according
accordingly
accords
account
accounts
accuracy
accurate
accurately
accusative
accused
ace
acen
acenned
acennesse
acer
aces
ach
achieve
achieved
achievement
achievements
achiulf
acid
acis
acisc
aciscan
acisce
acknowledged
acna
acnaþ
acne
acniaþ
acnod
acnung
acnunge
acorus
acquire
acquired
acquiring
acre
acris
across
acsƿa
act
acted
acting
actio
action
actions
actium
activate
active
actively
activist
activities
activity
acton
actor
actress
actric
acts
actual
actually
actum
actæfl
acum
acusticus
acute
acutes
acwa
acy
acƿeall
acƿæþ
ad
ada
adam
adams
adan
adapt
adapted
adaþ
add
added
addihockey
adding
addition
additional
additionally
address
addresses
addressing
adds
ade
adelaide
aden
adenauer
adene
adenne
adenoma
adequate
ades
adesa
adesan
adga
adgar
adgares
adhaesio
adhere
adiabenicus
adig
adigeledon
adiglede
adiglod
adiglode
adigloden
adileged
adilegod
adj
adjective
adjectives
adjust
adlic
admin
administration
administrative
administrator
administrators
admins
adminship
admiral
admitted
admund
admundes
adne
ado
adod
adode
adolf
adolphus
adopt
adopted
adoption
adra
adraf
adri
adrianopolis
adriatiscan
adrifen
adrifon
adrihtlic
adræfdon
adu
adult
adults
adum
adunge
adv
advance
advanced
advancedsearch
advantage
adventitia
adventures
adverbs
adversum
adversus
advertising
advice
advocacy
advocate
advocates
adward
adweard
adweardes
adƿacer
adƿe
adƿeard
adƿeardes
adƿylle
ae
aegea
aelivs
aemilianus
aemilianvs
aemilivs
aerial
aetius
af
afa
afan
afand
afang
afangen
afar
afdas
afde
afdes
afe
afen
afene
afeng
affair
affairs
affect
affected
affecting
affects
affiliate
affiliated
affiliates
affrica
affrican
affricanisc
affricaniscan
affrice
afghan
afghana
afghanistan
afghanistane
afghanistanes
afghanum
afindere
afle
afli
aflic
aflicum
afliemed
afliemede
aflo
afo
afod
afodba
afodbollan
afodburg
afodburgum
afodburh
afodburȝ
afodbyrig
afodcampealdor
afodcirican
afodcirice
afoded
afodemnet
afodg
afodgeri
afodgesceaft
afodgesceafta
afodgewinna
afodgeƿrit
afodgod
afodli
afodlic
afodlica
afodlican
afodlice
afodman
afodmann
afodri
afodsce
afodsetl
afodsi
afodstede
afodsto
afodstol
afodta
afodti
afodƿeard
afodƿearde
afodƿeorc
afodƿi
afodƿita
afodƿo
afon
afonso
afordburg
africa
african
africanisc
africanvs
afrikaans
afrikaner
afro
after
aftermath
afterward
afterwards
aftur
afu
afum
afund
afunded
afunden
afundon
afylled
afþe
ag
aga
again
against
agan
agane
agann
aganspræ
aganspræc
aganspræce
agas
agatha
age
ageaf
agebu
aged
ageldung
agen
agena
agency
agenda
agent
agents
ages
aggregator
agincourt
agmodesham
agne
agnes
agnew
agnum
ago
agod
agode
agon
agra
agram
agree
agreed
agreeing
agreement
agreements
agrees
agricultural
agua
aguila
agum
agustus
agylda
ah
ahanged
ahbrego
ahbu
ahbytlere
ahde
ahe
ahead
ahebbung
ahebbunge
ahhæleðas
ahhæleþ
ahhƿæðere
ahleornungstede
ahli
ahlic
ahmed
ahnesse
ahsco
ahst
ahstræ
ahte
ahtlice
ahwearf
ahæfen
ahþe
ahþu
ahƿearf
ai
aid
aida
aids
aim
aiming
aims
air
airbus
aircraft
aired
aires
airliner
airlines
airport
airs
airship
airways
ais
aix
aj
ajaccio
ajax
aka
akashi
akihito
akk
akron
akuma
akumaizer
al
ala
alabama
alabaman
alameda
alamogordo
alamos
alan
alana
alandum
alas
alasca
alaska
alba
albania
albanian
albanie
albanisc
albanisce
albany
albert
alberta
albertan
alberto
alberts
album
albums
albuquerque
alcatraz
ald
ale
aleph
alert
alex
alexander
alexandra
alexandres
alexandria
alexandriam
alexandrie
alexbot
alexey
alexia
alexios
alexis
alexsh
alfonso
alfred
alfrednobel
alfredo
algebra
alger
algeria
algerian
algerie
algiers
ali
alia
alias
alibbede
alice
aliefþ
aliesed
aliesede
align
alignbars
aligned
alike
aliud
alius
alive
alkatiri
all
allado
allah
allan
alleborgobot
alleged
allegedly
allegro
allen
allentown
alliance
allie
allied
allies
allison
allium
allocate
allocation
allotted
allow
allowance
allowed
allowing
allows
allur
alma
almanac
almaza
almost
alone
along
alongside
alonso
alot
alpha
alphabe
alphabet
alphabetical
alphabets
alphege
alpis
already
alright
als
also
alt
altaglandes
altai
alter
alternate
alternative
alternatively
although
alum
alvin
always
alæ
am
ama
amadeus
amago
amal
amani
amarillo
amas
amazing
amazon
amazonas
ambassador
ambassadors
ambeht
ambehtas
ambehte
ambehtspræ
ambient
ambiguous
ambiht
ambihte
ambihthu
ambihtli
ambihtlic
ambihtlica
ambihtlican
ambihtlice
ambihtlicra
ambihtlicu
ambihtlicum
ambihtmann
ambihtspræc
ambra
ambrose
ambushed
ame
amearcod
amearcunge
amelia
amendment
amendments
amera
ameras
amere
america
american
americanisc
americanisca
americaniscan
americanisce
americaniscra
americaniscu
americaniscum
americans
americansc
americas
americawara
americaware
americaþe
americaƿare
americaƿarum
americe
americisc
americisca
americiscan
americisce
americiscum
americum
ames
amhe
amhord
amhorda
ami
amiga
amigaos
amilcare
amin
amir
amistad
amleð
amleþ
amli
amman
ammomanes
amo
amon
among
amongst
amory
amount
amounts
amsterdam
amto
amtre
amul
amum
amundsen
amy
amƿri
amƿægn
amƿægnas
an
ana
anaconda
anaemia
anaesthesia
anagus
anaheim
anahuac
analogous
analogy
analysis
analyst
anarchism
anarchist
anarchy
anastomosis
anatolie
anbord
ancestors
anchorage
anchors
ancient
ancivs
ancyra
and
anda
andalie
andalucie
andante
andefen
andefene
andefn
andefne
anders
andersenes
anderson
andersson
andes
andettere
andgiet
andgiete
andi
andiendli
andland
andlang
andlanga
andorra
andover
andre
andreas
andreev
andrei
andrew
andrews
andreƿ
andro
android
andromeda
andsƿara
andsƿare
andtimber
andtimbra
andtimbrum
andwlita
andwlitan
andy
andƿeard
andƿeardnesse
andƿeorc
andƿeorce
andƿi
andƿlita
andƿlitan
andƿyrde
ane
aned
anes
anesse
aneto
anfeald
anfealdan
ang
angann
angel
angela
angelcirican
angelcirice
angelcynne
angeles
angels
angelseaxisc
angelþe
angeowe
angeoƿ
angin
angina
anginn
anginne
angle
anglican
anglo
angola
anguilla
angul
angwiki
anhaga
anhalt
ani
animal
animals
animated
anime
animunge
anisc
anla
anlaf
anlafe
anlafes
anli
anlic
anlice
anliepig
ann
anna
annan
annapolis
annar
annars
anne
annenkovi
annexed
annexes
annie
anniversaries
anniversary
annivs
annotated
annotation
announce
announced
announcement
announcements
announcer
announces
announcing
annual
annum
anonymous
another
anphos
ans
anse
ansfride
ansi
answer
answers
antarctic
antarctica
antarctican
antarctice
antarctisc
antarctisca
antarctiscan
antarctisce
antarctiscum
ante
antecedent
antefn
anterior
anthem
anthemius
anthemivs
anthony
anti
anticipate
anticipated
antigua
antikythera
antilles
antiquity
anto
antofagasta
antoine
anton
antoninus
antoninvs
antonio
antonius
antonivs
antrimsci
antwerp
antƿerpen
anum
anwar
anweald
anxiety
anxiously
any
anyone
anything
anyway
anywhere
anzus
ao
aorta
aortae
aoyama
ap
apa
apan
apart
apartheid
apartment
apas
apaxco
ape
apes
apex
apge
aphandþo
api
apinsunge
apis
apmanna
apmannhæfen
apocalipsis
apod
apollo
apologies
apologize
apostate
apostoliscan
apostrophes
app
apparent
apparently
appeal
appeals
appear
appearance
appeared
appears
appendix
apple
applega
applegan
applegate
appleyard
applicable
applicants
application
applications
applied
applies
apply
applying
appointed
appomattox
appositive
appreciate
appreciated
approach
appropriate
appropriately
approval
approve
approved
approximate
approximately
april
apsto
apulder
apum
apung
apunga
apunge
aquae
aqualung
aquila
ar
ara
arab
araba
arabas
arabea
arabean
arabia
arabic
arabie
arabisc
arabiscan
arabisce
arabum
arafat
aragon
aragone
aragones
aramaic
aramoana
aran
aranan
aras
arashi
arasiend
arbela
arbitrary
arbitration
arbor
arc
arcadan
arcade
arcadius
arcadivs
arcadum
arcebiscop
archaeological
archaeologist
archaeologists
archaeology
archaic
archbishop
archduke
archibald
architect
architecture
archival
archive
archives
arctic
arcus
ard
ardagum
ardmachus
are
area
areas
areccede
arecƿuipa
aren
arena
ares
areƿan
areƿe
argentatus
argenteus
argenti
argentina
argentinan
argentinaƿare
argentine
argentinisc
argentinisca
argentiniscan
argentinisce
argued
argument
arguments
arhunde
arhundred
arhundrede
arhundredes
arhundredum
ari
arial
ariane
ariel
aries
arise
aristoteles
arizona
arizonan
arkansas
arli
arlic
arlicu
arlington
arm
armada
armed
armenia
armeniacus
armenian
armenicus
armenie
armenisc
armies
armistice
armo
arms
armstrong
army
arnold
aro
around
arpadingas
arran
arrange
array
arrest
arrested
arrhythmia
arrived
arrives
arrogantly
arrow
arsenal
art
arteria
arteriae
arterialis
arteries
arthritis
arthur
arti
article
articles
articularis
articulatio
articulationes
artifacts
artificial
artikel
artillery
artist
artistic
artists
arts
aru
aruba
arum
arvensis
arz
aræ
arærde
aræred
arþ
arþur
as
asce
ascendens
ascendo
ascent
ascii
ascode
ascu
ascunge
ase
asecgaþ
asegan
asegena
asen
asended
asere
asetted
asettede
asf
ash
ashcroft
asher
ashes
ashikaga
ashley
ashmore
asia
asian
asiatic
aside
asie
ask
askari
asked
asking
asks
askvoll
asnes
asnesse
asp
aspects
aspre
aspx
asr
assame
assamese
assamisc
assassin
assassinate
assassinated
assassination
assemble
assembly
assent
assert
assess
assign
assigned
assist
assistance
assisted
associate
associated
association
associations
asspell
asspella
asspellic
asspellum
assume
ast
asta
astan
astana
astdæ
astdæl
astdæle
aste
asteald
asten
astende
astengla
astenglum
aster
asterisk
asterisks
astermo
astermonaþ
astermonaþe
astern
asterna
asternan
asterne
asternes
asternmeste
asternre
asternu
asternum
asteroid
asterum
astes
astfrancena
astgotena
asthealf
asthealfe
asthma
astindea
astindi
astley
astne
astor
astpacistan
astre
astrecceþ
astri
astro
astronaut
astronauts
astronomer
astronomical
astseaxe
astseaxna
astseaxum
astslavisca
astsu
astum
astweard
astƿeard
asu
asum
asylums
asƿealt
asƿulton
at
ata
atan
atari
atas
atatu
ataxia
atbryten
ate
ateah
atena
ater
ates
atest
ath
athal
athe
athelhampton
athelstan
athens
athlans
athlete
athletes
athletica
athugun
atis
atlanta
atlantan
atlantate
atlantic
atlantis
atlantisc
atlantisca
atlantiscan
atlas
atm
atmosphere
atne
atoll
atomic
aton
ator
atost
atra
atre
atresia
atreus
atrial
atricilla
atrioventricularis
atrium
atru
att
attached
attack
attacked
attacking
attacks
attained
attalus
attempt
attempted
attempting
attempts
attend
attended
attending
attention
attorney
attract
attribute
attributed
attributes
attribution
atu
atum
atung
atƿic
au
auckland
aucland
auclande
auclandes
audience
audiences
audio
audios
auditus
aug
augis
augsburg
august
augusta
auguste
augustine
augustines
augusto
augustulus
augustus
augustusromulus
auka
aum
aurelian
aurelius
auris
aurora
auschwitz
austen
austerlitz
austin
australia
australian
australiaþe
australie
australis
australisc
australisca
australiscan
australisce
australiscum
austria
austrian
austro
aut
autaugaville
authentic
authenticity
author
authority
authorization
authorized
authorizing
authors
authorship
auto
autobiography
autocrat
automagical
automated
automatic
automatically
automobile
autonomous
aux
auxiliary
availability
available
average
avery
avgvstvs
aviation
aviator
avitus
avitvs
aviv
avlvs
avoid
avoided
avoiding
avrelianvs
avrelivs
aw
awa
awake
award
awarded
awards
aware
awareness
away
awc
awe
awearp
awendung
aweras
awere
awestran
awestre
awplega
awreðie
awreðunga
awum
axel
axis
ayaka
ayano
ayatollah
aymara
ayrscir
ayub
ayutthaya
az
azerbaicgan
azerbaijan
azerbaijani
azeri
aziz
aztecs
að
aða
aðas
aðe
aðeins
aðes
aðfeld
aðgerð
aðre
aþ
aþe
aþencend
aþes
aþsti
aƿ
aƿa
aƿas
aƿceastersci
aƿe
aƿearp
aƿend
aƿende
aƿended
aƿendeþ
aƿendung
aƿendunge
aƿeras
aƿere
aƿestran
aƿestre
aƿiendli
aƿli
aƿode
aƿodon
aƿorpen
aƿplega
aƿra
aƿreðaþ
aƿreðode
aƿum
aƿung
aƿunga
aƿunge
b
ba
baba
babbage
babe
babel
babez
babilo
baboonbagemihl
baby
bach
back
background
backlog
backward
bacterium
bad
baden
badly
badoglio
bagemihl
baghdad
bagrat
baha
bahamas
bahasa
bahia
bahn
bahrain
bahraine
bahraines
baikonur
bailey
bailliage
baius
bajnafotothalertamas
bak
baka
baker
bakteri
baku
balance
balancing
balc
balch
baldr
bale
baleares
baleen
balfour
balkan
ball
ballade
ballads
ballistic
ballo
balloon
balls
baltic
baltimore
bam
ban
bana
bancorena
band
banda
bandleader
bandvefsæxli
banff
banffsci
bang
bangkok
bangladesc
bangladesh
bangor
bani
bank
banker
banking
banks
bann
banna
banne
banned
bannede
banner
banners
banning
bans
bansp
baptist
baptiste
bar
bara
barack
barain
baratack
barbados
barbara
barbarian
barbarossa
barbary
barbuda
barcarolle
barcelona
bare
barkaky
barker
barn
barnaul
barns
barnum
barom
baron
baroque
barre
barrier
barriers
barrow
barry
bars
barset
bart
bartolomeo
barton
base
baseball
based
baseline
basement
basic
basically
basilica
basiliscus
basin
basis
basketball
basque
bass
bassel
bassist
bassmann
bastard
bastille
basu
basƿe
bat
bataan
bateman
bath
bathyscaphe
batianbyrg
batista
batman
baton
battle
battleground
battles
battleship
bau
bavaria
bavarian
bay
bayamon
bayern
baylor
baðanceaster
baðum
bb
bbc
bc
bce
bd
be
beach
beadanfordsci
beade
beadogod
beadu
beaduƿeorc
beadwe
beadƿe
beagle
beald
beall
beallas
beamon
bear
bearg
bearn
bearna
bearnum
bearrucsci
bearrucscire
bears
beast
beat
beatles
beatrix
beaufort
beauharnais
beaumont
beautiful
beauty
bebe
bebi
bebodu
bebogen
bebohte
bebyrgede
bec
became
because
bece
beck
becket
beco
becom
become
becomes
becoming
becumende
becyme
beda
bedan
bede
bedri
bedæ
bedæled
bedælede
bedæleden
bedæledon
bedæleþ
bedælunge
bee
beeastan
beebbod
beebbode
beehelpful
been
beendod
beendode
beer
beethoven
befang
befangen
befe
befeall
befeng
befo
beforan
before
bega
began
begang
beganga
begann
bege
begeat
begen
begeondan
begi
begieten
begin
beginnan
beginnende
beginners
beginneþ
beginning
begins
begra
begro
begun
begunnon
behalf
behavior
behavioral
behaviour
behe
beheaded
beheafdod
beheafod
behealdenda
behealdendum
behind
behindan
behre
behy
behæ
beijing
beilinson
bein
beinbo
being
beings
beinnan
beinnaþ
beinnende
beinniaþ
beinnodon
beins
bela
belamp
belarus
belfast
belg
belga
belgian
belgica
belgican
belgice
belgicum
belgisc
belgium
belgrade
belgum
beli
belief
beliefs
believe
believed
belifon
belimaþ
belimeþ
belimp
belimpas
belimpaþ
belimpede
belimpeð
belimpeþ
belimpum
belimpunga
belimpþ
belindabeorg
belisarius
belize
bell
belle
bellhu
belligerent
bellinghausen
bellingshausen
bellingshauseni
belo
belocen
belocuriha
belong
belonging
belongs
beloved
below
belsk
bemetendli
ben
benam
benaman
benatar
benazir
bend
benda
bendas
bende
bene
beneath
benedict
benedictus
beneficial
benefit
benefits
beneoðan
bengal
bengale
bengales
bengali
bengalisc
benificiary
benimen
benin
benito
benjamin
bennefis
benning
benny
benorðan
benorðen
benorþan
benorþen
benorþƿestan
benson
bentham
benutzer
benz
beo
beodberere
beon
beonne
beorg
beorga
beorgan
beorgas
beorgaþ
beorge
beorgena
beorgenne
beorges
beorgford
beorgfæst
beorgum
beorht
beorhta
beorhte
beormas
beormingaha
beormingaham
beorn
beorna
beornesle
beornica
beorðe
beorþdæg
beowulf
beoƿulf
ber
bera
beran
berascinnes
berasercas
beraþ
berber
berceuse
bere
bereceþ
berend
berende
berenne
bereƿic
bereƿicscir
bereƿicscire
bergan
berge
bergen
berkeley
berlin
berline
berliner
bermuda
bern
bernadotte
bernard
bernardino
berne
berners
bernstein
berry
berserk
berstung
bertrand
beræ
bese
besetnesse
besettede
besides
bespræc
bespæc
best
bestandende
bestendeþ
bestæ
besu
besungon
besuðan
besuðen
besuþan
besæ
bet
beta
betafeatures
betawiki
betera
betere
beth
bethel
beto
betrunga
betst
betsta
betstan
betstcu
better
betty
betwe
between
betweoh
betweonan
betweonum
betweox
betwuh
betwux
betwuxspræ
betwuxþe
bety
betæ
betæcnede
betƿe
betƿeoh
betƿeonan
betƿeonum
betƿeox
betƿeoxbend
betƿuh
betƿuht
betƿux
betƿuxþe
beweddod
beweddode
bewestan
bewesten
bewitend
bewitendhad
bewriehþ
bey
beygja
beyonce
beyond
beæ
beæftan
beƿeddede
beƿeddod
beƿeddode
beƿestan
beƿesten
beƿitendas
beƿitendha
beƿla
beƿodded
beƿre
beƿri
beȝen
beȝinnende
bg
bh
bha
bhagiratha
bhattacharjee
bhutan
bhutanes
bhutto
bi
biafra
bible
biblical
bibliographic
biblioþe
biblioþece
bibliþe
biceps
bid
biddan
bidde
biddeþ
biden
bierþ
bifurcatio
bifylc
big
bigbang
bigger
biggyrdel
bihar
bihare
bikini
bil
bilateral
bild
bilið
biliðas
biliðe
biliðum
biliþ
biliþbord
biliþe
biliþhelm
bill
billboard
billing
billion
billy
bin
binama
binaman
binda
bindas
binding
bindunge
bing
binh
binnan
bint
biobi
biobiƿes
biographical
biographies
biography
biological
biologist
birch
bird
birgit
birmingham
birth
birthday
births
birþ
bis
bisc
bisceop
bisceopas
bisceopri
biscop
biscopas
biscope
biscopes
biscopri
biscopsto
biscopstol
bisen
bisena
bisene
bisenung
bisenunga
bises
bisgu
bishop
bishopric
bismarck
bisne
bissau
bissextum
bisæ
bit
bitt
bið
biþ
bjo
bl
bla
blaca
black
blackpink
blackwell
bladu
blair
blamey
blanc
blanchard
blanche
blanda
blank
blast
blað
blaðra
ble
blecinga
bleoh
bleohcra
bleohfugolas
bleona
blessed
bli
blica
blimps
blind
blinda
blindan
blinde
blinded
blindes
blindne
blindra
blindre
blindum
bliss
blisse
blizzard
blizzardes
blo
bloc
block
blockade
blocked
blocker
blocking
blocks
blog
blogs
bloma
blond
blonde
blood
bloodiest
bloodless
bloom
bloomery
bloomes
bloomesdæg
bloomington
bloomsbury
bloomsday
blotmonað
blotsman
blow
blp
blu
blue
blues
blurb
blæ
blæc
blæcan
blæcesburg
blæðing
blæðingar
bmw
bn
bo
board
boards
boardvote
boat
boats
bob
bobby
boc
boca
boccræft
boclæden
bocstæf
bod
boda
bodan
bodede
boden
bodies
bodig
bodige
bodiges
bodigla
body
boe
boeing
boer
boga
bogan
bogara
bogas
boge
bogn
bogota
bohemian
boilerplate
boise
bojinka
bokura
bold
boldas
bolde
bolded
boldes
boldgetæl
bolding
boldum
bole
boli
bolifia
bolifie
bolshevik
bolur
bolyar
bolzano
bomb
bomba
bombay
bomber
bombers
bombing
bombings
bombs
bon
bonaparte
bond
bone
bonfire
bonham
bonne
bonnet
bonnie
bono
boogies
book
booker
bookmark
books
booth
boots
bora
bord
borde
border
borders
bored
borg
borh
boris
born
borneo
borrowed
borrowings
borussia
bose
bosna
bosnia
bosnian
bosnie
bosnisc
bosporos
boss
boston
bosworth
bot
botanist
botany
botflags
both
botmaster
botmba
botmsæ
botmultichill
botn
botolfessta
bots
botsƿana
botsƿanan
bottlenose
bottom
botwulfstu
boudreau
bouken
boulder
boundaries
bounty
bourg
bouterse
bowie
bowl
bowser
box
boxer
boxes
boxing
boy
boycott
boyd
boyle
boyne
boys
bpy
br
bra
brac
brachialis
brackets
brad
bradanford
braddock
braddockes
bradford
bradley
bradnesse
brady
brahma
braid
brain
bram
branch
brand
brandenburg
brandenbyrig
brandi
brandon
bras
brasil
brasile
brasiles
brasilia
brasilianisc
brasilisc
braun
bray
brazil
brazilian
bre
breac
breach
bread
break
breakfast
breaking
breakout
breaks
breath
brecen
brecende
brecensci
bred
breda
bredspearctellend
bref
bregas
breges
brego
bregodo
bregori
bregum
breinigerberg
bremen
brendan
breoca
breslu
bretcynn
breten
bretene
bretland
bretta
brettas
brettisc
brettisca
brettum
bretware
bretƿare
bretƿarum
brewer
breyting
breðer
bri
brian
bricg
bricge
bricgstowe
briddas
bridge
bridgeport
bridges
brief
briefly
brigade
brigadier
briggs
brighton
brigid
brigitte
brill
brillante
brillantes
brilliant
brim
brime
brimecge
brimes
bring
bringan
bringenne
bringer
bringing
brings
briq
bris
brisbane
bristol
britain
britannia
britannic
britannica
britannicus
britannicvs
britisc
britisca
britiscan
britisce
british
brittany
brittisc
brittiscan
brittisce
brittiscum
brittum
brjo
bro
broad
broadcast
broadcaster
broadcasting
broadway
broca
brocen
brodor
brohtede
brohtedon
broke
broken
bronchiale
bronchitis
bronchus
brondingum
bronze
brooke
brooklyn
bros
brot
brother
brothers
brottna
brought
brown
brownies
brownsville
browse
browser
browsers
broz
broðer
broðor
broþor
broƿn
bru
bruc
brucan
bruce
brucende
brucon
brunanburh
brunei
brunswic
brutal
brutus
bry
bryce
bryces
brycg
brycga
brycge
brycgsto
brycum
brycð
brycþ
bryd
bryda
bryde
brydguma
brysel
bryten
brytene
brytenwealda
brytenƿealda
bryttene
bryttisc
bryttisca
bryttiscan
bryttisce
bryttiscena
bryttiscu
bryttiscum
brzemie
bræ
bræc
brægen
brægnes
bs
bst
bu
buað
bubbles
bucc
buccan
buccingaha
buccingahamsci
buccingahamscire
buchan
buchanan
buchenwald
budapest
budda
buddado
buddendo
buddha
buddhist
buddy
budget
budon
buend
buenos
bufan
buffalo
bug
bugs
bugzilla
build
building
buildings
built
bukan
bulb
bulbi
bulbs
bulbus
bulgaria
bulgarian
bulgarians
bulk
bull
bullet
bulleted
bulletin
bullets
bunch
bunden
bundesarchiv
bundeskanzler
bundesliga
bunker
bureau
bureaucrat
bureaucrats
buren
burg
burga
burge
burgealdor
burgenda
burgendum
burgfolc
burggemo
burgheall
burgle
burgmenn
burgmiddel
burgsci
burgscipas
burgscipe
burgscipes
burgscipum
burgstede
burgtheater
burgum
burgwara
burgwarum
burgweard
burgƿara
burgƿare
burgƿarena
burgƿaru
burgƿeall
burgƿeard
burgƿeardes
burgƿeardum
burh
burhguman
burhgumena
burhstede
burhtu
burhwaregeriht
burhƿara
burhƿaras
burial
burials
buried
burke
burkina
burlington
burma
burman
burmanisc
burmese
burn
burned
burning
burns
burnside
bursa
burst
burt
burugƿare
burundi
burȝ
bus
bush
business
businessman
bust
buster
busy
but
butan
buteran
butere
butler
buton
butse
button
buttons
by
bye
bygen
byht
byhtas
byhte
byhtes
bylaws
byldenne
bypass
byrd
byrda
byrddæg
byrde
byrdling
byrdlingas
byrdness
byrdnesse
byrdsta
byre
byrg
byrgan
byrgde
byrgen
byrgenne
byrgum
byrgunge
byrial
byrialbot
byrig
byrige
byriȝ
byrne
byrneƿægn
byrst
byrstend
byrȝen
bysanti
bysen
bysena
bysene
bysne
bytes
bytlede
byzantine
byzantines
byzantisc
byzantisce
byzantium
byð
bæ
bæc
bæcbord
bæce
bæclic
bægen
bægwara
bægware
bægƿara
bægƿarum
bældæg
bældæges
bældæging
bæm
bæma
bæmaland
bæme
bæmisc
bæmum
bængladesc
bængladesce
bær
bærnet
bæron
bærst
bæþ
bæþru
c
ca
cabinet
cable
cabral
cabura
cache
cado
caelivs
caesar
cafansci
cafe
caicos
cairn
cairns
cairo
caivs
calabria
calabrie
calais
calamus
caland
calbraith
calc
calcaneus
calculated
calculations
calculator
caledonia
calendar
calendars
cali
calif
california
californian
californie
caligardamana
caligula
caliph
call
callaghan
called
calling
calls
callus
calmly
calpis
calpise
calques
calvin
calypso
camb
cambodge
cambodia
cambodian
cambodie
cambridge
came
camel
camele
camera
cameron
cameroon
camerune
camille
camp
campaign
campaigning
campaþ
campbell
campe
campo
campora
camps
campum
campus
campuses
campƿi
campƿæȝn
can
canada
canadan
canade
canades
canadian
canadiens
canadisc
canadisca
canadiscan
canadisce
canadisces
canal
canalis
canaveral
canaveralnæs
canberra
canberran
canceler
cancelere
cancer
candelmæssani
candidacy
candidate
candidates
canis
cann
cannae
canne
cannon
cannot
canst
cantawarabyrig
cantaƿara
cantaƿarabyrig
canterbury
canton
cantwara
cantwaraburg
cantwarabyrig
cantƿaraburg
canus
canvas
canyon
cap
capable
capacity
capcom
capcome
cape
capet
capital
capitals
capitis
capitol
caps
capsula
capsule
captain
captains
caption
captions
captive
captor
capture
captured
capuchin
caput
car
caracalla
carakan
carbon
carcere
carcerne
carcinoma
card
cardiff
cardiffes
cardinal
cards
care
careful
carefully
cargo
caribbean
caribisc
caribisca
caribiscan
caribou
caribu
carinus
carinvs
carl
carlas
carle
carles
carlin
carling
carlinga
carlingas
carlo
carlos
carlotta
carmarðensci
carmen
carnarfonsci
carnegie
carnival
carol
carolina
caroline
caron
carotis
carpenter
carpenters
carpicus
carr
carrie
carried
carrier
carries
carroll
carry
carrying
cars
carson
carsrac
cartaina
cartainan
cartainaþe
cartaine
cartainisc
cartainiscan
cartan
carte
carter
cartespil
carthage
carthago
cartier
cartilago
cartoon
cartoonist
cartwright
carvs
cary
cas
casa
casahstan
casahstane
cascmir
cascmire
case
casera
caseras
casere
caserein
caserepulgara
casereri
casererice
caseres
caserin
cases
caspia
caspie
cassidy
cassius
cast
castanea
castel
castellano
castenere
castile
castilla
castillan
castle
castles
castro
casual
casualties
casum
cat
catala
catalan
catalanisc
catalaunicos
catalonia
catalunya
cate
catedral
categories
categorization
categorizations
category
catgut
catharine
cathedral
catherine
catholic
catholicism
cathy
cato
catt
catta
cattas
cattbera
catte
cattecynn
cattum
caucasus
cauda
causa
cause
caused
causes
causing
caution
cavalry
cave
cavitas
cavour
cavum
cavy
cawlþo
caxton
caþ
caþanæ
caþerine
caþum
cbegi
cblæc
cbs
cburg
cburhfo
cburhgesamnunge
cburhgeþoftscipes
cbyrig
cc
ccc
ccm
ccræft
ccræfte
ccræftes
ccynn
cd
cdba
cde
cdo
cds
cdæ
ce
ceace
cead
ceadda
ceadmere
ceaferas
cealcho
cealctimber
ceald
cealdre
cealdum
cealfe
ceamp
ceampgelimpe
ceampscipe
ceann
ceapmann
ceapmanna
ceapmenn
ceapsto
ceapunge
ceapungta
ceare
cearu
ceas
ceaster
ceasterniscan
ceasterniscum
ceastersci
ceasterscipe
ceastra
ceastre
ceastrum
ceatre
ceausescu
ceaƿlin
ceb
cecil
cecilie
cecland
ceclande
ceclandes
cecoslofacia
cecoslofacie
cecræfte
ced
cedar
cede
cedes
cedilla
cednesse
cedo
cefet
ceha
cehe
cehy
celebrate
celebrated
celebrating
celebration
celebrations
celebrity
celic
celicu
cell
cello
cells
celso
celtic
celtisc
celtisca
cemetery
cempa
cempan
cempas
cempum
cen
cena
cend
cenda
cendas
cende
cendsi
cendum
cenia
cenie
cennaþ
cenne
cenned
cennedon
cennesse
cenneþ
cenning
cenningdæg
cennung
cenred
censeo
censorship
census
cent
centaur
cente
centennial
center
centers
central
centralis
centre
centro
centuries
century
ceo
ceoco
ceorla
ceorlode
ceosan
ceosung
ceosunge
cera
ceras
cerdic
cere
cerebral
cerebri
cerebrum
ceremonial
ceremonies
ceremony
ceres
certain
certainly
certificate
cerum
cervantes
cervicis
cervix
ces
cesang
cesdæg
ceshe
cessna
cessto
cest
cesto
cesweard
cet
cetaceans
cetere
cethamiega
ceti
ceylon
ceþ
cf
ch
cha
chad
chain
chair
chairman
chalcedon
challenge
challenger
challenges
cham
chamber
chamberlain
chambers
chames
chamhyrste
chamli
champion
championship
champlain
chan
chance
chancelier
chancellery
chancellor
chancellors
chancery
chances
chandler
chandra
chang
change
changed
changes
changing
channel
channels
chaos
chapel
chaplin
chapman
chapter
character
characteristics
characters
charge
charged
charges
chariot
chariots
charles
charleston
charlie
charlotte
charmed
chart
charter
chartres
charts
chase
chat
chateau
chattanooga
chaucer
chavez
che
chechen
check
checkbox
checkboxes
checked
checking
checklist
checks
checkuser
cheers
chef
chelsea
chemical
chemist
chemistry
cher
chernobyl
chesapeake
chess
chest
chester
cheyenne
chi
chiang
chicago
chief
chiefs
child
children
chile
chilean
china
chinese
chios
chirac
chloe
chlorus
cho
choice
choices
choire
choledochus
choose
chooses
choosing
chopin
chopines
chord
choreographer
chose
chosen
chou
choujin
chre
chris
christ
christchurch
christi
christiaan
christian
christianity
christie
christina
christmas
christoph
christopher
christophes
christophorus
chroicocephalus
chrome
chromes
chromosomal
chromosome
chronicle
chronicles
chrono
chrysler
chu
chuck
church
churches
churchill
chłopiec
ci
cia
cian
ciaþ
cibuti
cicero
cien
cienne
cilan
cild
cilda
cildamæssedæg
cilde
cildebert
cildes
cildha
cildra
cildru
cildrum
cile
ciles
ciliaris
ciliscena
cimban
cimbri
cin
cina
cinan
cincinnati
cine
cing
cinga
cingas
cinge
cingulum
cingum
cining
cinisc
cio
cipitis
cipros
circa
circean
circle
circolwyrde
circolƿyrde
circuit
circumspectly
circumstance
circumstances
circus
cirgisstan
cirican
cirice
ciricehu
ciricena
ciriceƿæl
ciricum
cis
cisc
cisca
ciscan
cisce
ciscra
ciscre
ciscum
cista
citation
citations
cite
cities
citing
citizen
citoid
city
ciu
ciudad
civic
civil
civilian
civilians
civility
civilization
cjk
ck
ckoerner
cksburg
cl
cla
clackmannansci
claim
claimant
claimed
claiming
claims
claire
clan
clande
clandes
clank
clappa
clara
clarification
clarity
clark
clarke
clarkes
clarkson
clarksville
clarsci
clashed
class
classed
classes
classic
classical
classiscan
clatrung
clatrungfatu
claude
claudia
claudius
claus
clause
clauses
clavdivs
clay
clayton
cle
clean
cleaned
cleaning
clear
clearer
clearing
clearly
clearwater
clement
cleopatra
clergyman
clerical
clerke
cleveland
cli
clic
clican
click
clicked
clicking
clicks
clicu
clif
cliferfe
cliff
clifford
climate
climb
clinical
clinton
clipiende
clitoral
clitoris
clive
clock
clodius
clodivs
close
closed
closely
closes
closing
cloud
clouds
clovis
clu
club
clubs
cluster
clusters
clyde
clæ
clæfere
clæferes
cm
cmann
cmp
cn
cna
cnaman
cnapa
cnas
cnaweþ
cnaþ
cne
cnearr
cneaw
cned
cneordlæ
cnes
cness
cnessa
cnesse
cneþ
cnian
cniaþ
cnienne
cniht
cnihta
cnihtas
cnihtha
cnihtum
cnisse
cnn
cno
cnocc
cnocende
cnod
cnode
cnotta
cnu
cnum
cnung
cnunga
cnunge
cnut
cnutes
cnutingas
cnyttan
cnyttede
cnæ
cnæppas
co
coach
coahuila
coal
coalition
coast
coastal
coastguard
coat
cobar
coburg
coca
cochrane
cocu
cod
code
codemirror
codes
codex
cody
coelacanth
cofa
cofan
cofe
cofentre
cofentreo
cog
coin
coinage
coined
coining
coinings
col
cola
colas
cold
cole
coli
colin
collaborate
collaboration
collaborative
collaboratively
collapse
collapsed
collapsible
collect
collected
collection
collections
collective
collectors
college
colleges
collided
collides
collingwood
collins
collision
coln
colneceaster
colnes
colo
coloma
colombia
colombian
colombie
colombo
colon
colonel
colonia
colonial
colonies
colons
colony
color
colorado
colors
colour
coloured
coludesstre
columba
columbia
columbian
columbie
columbus
column
columna
columns
com
coman
combat
combattler
combination
combine
combined
combines
come
comedian
comedy
comen
comes
comfort
comfortable
comic
comics
coming
comma
command
commanded
commander
commands
commas
commemoration
commenced
comment
commentary
commentator
comments
commercial
commiphora
commission
commissioned
commissura
commit
commitment
committed
committee
committees
committing
commodore
commodus
commodvs
common
commonly
commons
commonwealth
communicate
communication
communications
communis
communism
communist
communistisc
communists
communities
community
communityhealth
comon
comoros
comp
compact
companies
companion
company
comparative
compare
compared
comparison
compass
compat
compatibility
compatible
competent
competition
complaint
complaints
complements
complete
completed
completely
completes
completing
completion
complex
compliant
complicated
components
composed
composer
composite
compound
comprehensive
compromise
compulsive
computed
computer
computers
computing
con
concentration
concepcio
concepcion
concept
concepts
concern
concerned
concerning
concerns
concert
concerto
concha
concilium
concise
concluded
conclusion
conclusions
concord
concorde
condemning
condition
conditional
conduct
conducted
conducting
conductor
condylus
confederacy
confederate
confederation
conference
confidence
confident
configuration
configurations
configure
confinement
confirm
confirmation
confirmed
conflict
conflicting
conflicts
confused
confusing
confusion
cong
congestio
congo
congoland
congolande
congolisc
congratulations
congress
congressman
congƿes
conjugated
conjugation
conjunctiva
connect
connected
connecticut
connecting
connor
conquers
conquest
conrad
consecrated
consecutive
consensus
conservation
conservative
consider
considerable
considerably
consideration
considered
considering
consist
consistency
consistent
consistently
consisting
consists
consonant
consonants
consort
conspiring
constance
constans
constant
constanti
constantine
constantinople
constantinopoles
constantinopolim
constantinopolis
constantinus
constantinvs
constantius
constantivs
constellation
constitution
constitutional
constontinus
constraints
constructed
construction
constructive
constructs
consul
consulabe
consult
consultant
consultation
consultations
consumed
contact
contacted
contacting
contacts
contain
contained
containing
contains
contaminatio
contemporary
content
contents
contest
context
continental
continual
continually
continuation
continue
continued
continues
continuously
contra
contract
contracted
contractions
contractor
contribs
contribute
contributed
contributes
contributing
contribution
contributions
contributor
contributors
control
controlled
controversial
controversy
convened
convenience
convention
conventions
conversation
conversations
conversion
convert
converted
converts
convicted
convince
convoy
conþepþeon
cook
cooke
cookes
cookie
cool
coolidge
coomese
cooper
cooperation
cooperi
coordinate
coordinated
coordinating
coordination
coordinator
coper
copied
copies
copula
copy
copying
copyright
copyrights
cor
coral
coralsæ
corcaig
corcaigsci
cordis
core
corea
corean
coreanisc
coreaniscan
coreca
corey
corfen
coritiba
corn
cornelius
cornelivs
cornell
corner
cornu
cornwallis
cornweal
cornwealas
cornweall
cornwealla
cornƿeala
cornƿealle
coro
corona
coronation
coronbeag
coronel
corporate
corporation
corps
corpus
corpusculum
correct
corrected
correcting
correction
corrections
correctly
corrector
corresponding
corresponds
corruption
corsica
corsican
corte
cortes
cortex
corvidae
corvus
cosby
cosmodrome
cosmonaut
cost
costa
coste
costliest
costnung
costnunge
cot
cotton
couentre
could
council
counsel
count
counter
counterparts
counties
countries
country
counts
county
coup
couple
course
court
courts
cousin
cousins
cousteau
cove
cover
coverage
covered
covering
cra
crabba
crabbas
cracow
cradle
crafing
crafinge
craft
crafung
crafunge
craig
crainisc
crainiscan
crane
cranford
cranial
cranic
cranice
cranii
cranmer
crash
crashed
crashes
crater
crazy
crc
cre
create
created
creates
creating
creation
creations
creative
creator
creatures
creca
crecaland
crecalande
crecalandes
crecisc
creciscan
crecisce
crecum
crecy
credible
credit
credited
credo
cree
creek
creoda
creto
crew
crews
cri
criccet
cricket
cricketer
crime
crimes
criminal
criminals
crimson
crisis
crist
cristallisca
cristcirice
criste
cristen
cristena
cristendo
cristes
criteria
critic
critical
criticize
cro
croat
croatia
croatian
croatie
croatisc
croatisce
cromwell
cromwelles
cromƿell
cronin
crop
cropp
cropped
cros
crosby
cross
crosses
crossing
crosswiki
crowd
crown
crowned
cru
crucial
cruise
cruiser
crum
crumbaþynsci
crus
crusade
crust
cruz
crypla
crystal
cræ
cræft
cræfta
cræftan
cræftas
cræfte
cræftenne
cræftes
cræftful
cræfthi
cræftig
cræftige
cræftlice
cræftlicu
cræftum
crægnisc
cs
csaþ
csci
csiendlicu
csode
csodon
css
cstafa
cstafas
cstafum
cstæ
cstæf
cstæflice
cto
ctor
cu
cuba
cuban
cubo
cucamonga
cuenca
cugnot
cuisine
culfran
culloden
culmille
cult
cultural
culture
cultures
cum
cuman
cumað
cumaþ
cumb
cumbe
cumbol
cumbraland
cume
cumenne
cund
cuneiforme
cung
cunga
cunge
cunha
cunne
cunnian
cunnode
cunnon
cunnung
cunnunge
cup
cupala
cuppan
cuppe
cura
curdas
curdisc
curdiscan
curdisce
curie
curious
curitiba
curon
currency
current
currently
cursor
curt
curtis
curvatura
cusano
cuscan
cusco
custer
custody
custom
customize
customizing
customs
cut
cutty
cuðe
cuþ
cuƿait
cv
cwe
cweall
cwealmwi
cwebec
cwen
cwencte
cwene
cwi
cwidas
cwide
cwo
cwom
cwomon
cws
cwæl
cwæþ
cx
cy
cycene
cycle
cyclone
cydde
cyme
cymes
cymraeg
cymð
cymþ
cyn
cynd
cynde
cyndes
cyndum
cynebeag
cynecynn
cynecynne
cynecynnes
cynedo
cynedom
cynedome
cynedomes
cynehelm
cyneli
cynelic
cynelica
cynelican
cynelice
cynelicsang
cynelicu
cynelicum
cynemund
cynemunde
cynemundes
cyneri
cynerice
cynerices
cynesang
cynesto
cynewi
cynewisan
cynewise
cynewulf
cyneƿi
cyneƿisan
cyneƿise
cyng
cynge
cynges
cyning
cyninga
cyningas
cyningdo
cyninge
cyninges
cyningesbeorg
cyningestu
cyningle
cyningsboc
cyningsdohtor
cyningson
cyningum
cyninȝ
cynn
cynna
cynne
cynnes
cynnig
cynnum
cynric
cyprus
cyra
cyre
cyreg
cyres
cyricean
cyril
cyrillic
cyrnel
cyrnele
cyrre
cyrus
cyst
cystas
cyste
cystel
cystele
cystum
cyte
cyþþugaderunge
cz
czar
czech
czechoslovakia
czego
cæ
cæg
cægman
cælc
cælic
cænadan
cænugearde
cþ
cƿatbrycg
cƿe
cƿeald
cƿealde
cƿealdon
cƿeall
cƿealm
cƿellaþ
cƿellende
cƿellenne
cƿellode
cƿencte
cƿeðaþ
cƿic
cƿida
cƿidas
cƿide
cƿo
cƿom
cƿri
cƿuebec
cƿuebecceaster
cƿuebeces
cƿæl
cƿæþ
d
da
dacicus
dag
daga
dagas
dagena
dagger
daguerre
daguerreotype
dagum
dai
daily
daisy
daitetsujin
dakota
dalai
dalas
dalet
dalia
dallas
dalmatia
dam
damage
damages
damashii
dame
dan
danais
dance
dancer
dancers
dances
dane
danes
danger
dangerous
daniel
danielle
danish
danmarks
danmeltunge
danne
danny
dante
dantsic
darem
dari
darius
dark
darkling
dartmouth
darwin
darƿin
das
dashes
dass
dat
data
database
databases
date
dated
dateformat
dates
datestamp
dating
dative
daughter
dauid
dauides
dauiding
dauðlegur
dave
david
davis
davison
dawn
day
days
dayton
dað
daþ
dbora
dc
dcle
dclottgefadungægli
dclottspe
dcu
dd
dde
dden
ddon
de
deacon
dead
deadache
deadliest
deadline
deadministration
deal
dealing
dealt
dean
dear
death
deaths
deað
deaðe
deaþ
deaþe
deaþgeƿrit
debate
debates
debauchery
debris
debut
debuts
dec
decade
decades
decatur
december
decide
decided
decides
decimal
decimvs
decision
decisions
decisive
decisively
decius
decivs
declaration
declare
declared
declares
declaring
declension
declensions
decli
decline
declined
declines
decoration
decorations
decreases
decubitus
ded
dede
dedicated
dedication
deductions
deep
deeply
deer
deest
default
defeat
defeated
defeats
defect
defena
defenasci
defenascir
defence
defenders
defense
defenum
define
defined
defines
defining
definite
definitely
definition
definitions
defnum
degli
degree
degrees
degruyter
dehter
dei
deira
del
delacroix
delano
delaware
delay
delayed
delaƿare
delegates
delete
deleted
deletes
deleting
deletion
deletions
delhi
deliberately
delirium
deliver
delivered
delivers
delivery
della
dels
delta
delusion
dem
demand
demarcation
dementia
demo
democracy
democratic
demography
demon
demonstrate
demonstrated
demonstrates
demonstration
demonstrations
demonstrative
demonstrators
dempsey
den
dena
denan
denbihsci
denc
dend
dende
dendum
dene
denemearc
denemearcan
denemearce
denemearces
denes
denhelm
denied
denis
denisc
deniscan
denisce
deniscre
deniscum
denmark
denne
dennis
denny
denoted
density
densmore
dentata
dentes
denu
denum
denver
deny
deodoro
deor
deorc
deorcan
deorce
deorcum
deorling
departed
departing
department
departments
dependency
dependent
depending
depends
deploy
deployed
deploying
deployment
deployments
deported
depose
deposed
depot
deprecated
depressio
depth
deputies
deputy
der
dera
derails
deras
derby
dere
derede
deredon
derived
derives
dermatitis
derode
deroden
derum
des
desarrollo
desc
descendens
descent
describe
described
describes
describing
description
descriptions
descriptive
desert
design
designated
designed
designer
designing
designs
desirable
desire
desired
desk
desktop
desmann
despite
destined
destroy
destroyed
destroyer
destroying
destruction
desysopping
det
detail
detailed
details
detect
detected
determination
determine
determined
determiners
detonated
detrimental
detroit
detroite
dettingen
deutsch
deutsche
deutschen
deutschland
devastated
develop
developed
developer
developers
developing
development
developments
device
devices
devil
devleti
devon
devoted
dewey
dexter
dez
deð
deþ
dfarung
dferg
dfæstung
dg
dge
dgewrit
dgyrtel
dh
dhivehi
dhla
dhu
di
dia
diabetes
diablo
diaconus
diacritics
diadvmenianvs
diagnosis
diagram
diagrams
dial
dialect
dialog
diamond
dian
diana
diaphysis
dias
dic
dice
dick
dickens
dictionaries
dictionary
did
didius
didivs
didn
dido
die
died
diefenbaker
diegde
diego
diem
diemans
diena
dieppe
dierenpark
dies
diesel
diet
difelin
difelinbyrig
difeline
difelines
difelinsci
diff
differ
difference
differences
different
differently
differs
difficult
difficulties
difficulty
diffs
dig
dige
digital
digitorum
digits
digitus
digli
digraph
digraphs
diht
dihtan
dihtend
dihtenne
dihtere
dihtunge
dili
dimf
dinfæstunge
ding
dingsci
dinh
diocletian
diocletianvs
diophantus
diphthong
diplomat
diplomatic
direct
directed
direction
directions
directly
director
directories
directory
dis
disability
disable
disabled
disagree
disagreement
disagreements
disambig
disambiguation
disappear
disappeared
disaster
disasters
disastrous
disc
discas
disco
discography
discouraged
discover
discovered
discovery
discretion
discrimination
discus
discuss
discussed
discusses
discussing
discussion
discussions
disease
disgruntled
disney
disneyland
display
displayed
displays
dispute
disputes
disruption
disruptive
dissemination
dissolves
distalis
distance
distant
distinct
distinction
distinctive
distinguish
distinguished
distribute
distributed
distributes
distribution
district
disyllable
disyllables
diu
diverse
diversity
diverticulum
divi
divided
divine
division
diz
dj
dju
dl
dla
dle
dles
dli
dlic
dlice
dlicum
dlma
dmann
dmenn
dmicel
dmitri
dmitry
dmo
dmæ
dna
dnan
dne
dnes
dnesdæg
dnesse
dnum
do
dobbyn
dobbynes
doble
dobrila
docs
doctor
doctrine
document
documentary
documentation
documented
documents
dod
dode
dodge
dodgers
does
doesn
dofras
dofrum
dog
dogrib
dogs
dogviolet
doha
doherty
dohte
dohtor
doi
doing
doll
dollar
dollars
dolphin
dolphins
dom
doma
domain
domains
dome
domes
domestic
domingo
dominic
dominica
dominican
dominicaniscan
dominicanisce
domitian
domitianvs
domitivs
don
donald
donation
donations
done
dong
donne
donner
donor
donors
donua
doolittle
door
doors
dor
dore
dorgon
dormeolc
dornsæ
dorothy
dorpat
dorsalis
dorspræ
dorsum
dorsæ
dorsætum
dortmund
dos
dost
doste
dot
dots
double
doubled
doubt
douglas
dov
dover
down
downey
downing
download
downs
downtown
downwards
dozen
dozens
dr
dra
draca
dracan
dracu
dracula
draf
draft
drafting
drafts
drag
draga
dragon
drain
drake
drama
dramatic
dramatist
dran
draw
drawing
draws
dre
dream
dreamwaves
dred
dren
drenc
drencan
drencaþ
drence
drencen
drencende
drencest
drenceþ
drencst
drencte
drencten
drenctest
drencton
drencþ
dreorige
dres
dresden
dress
drew
dreyfus
dri
drifon
driht
drinc
drinca
drincas
drinking
drinrinde
drive
driven
driver
driving
drop
dropdown
dropped
dropping
drowned
dru
drudge
drug
drugon
drum
drummer
drums
drvsvs
dry
dryge
dryht
dryhte
dryhten
dryhtendom
dryhtne
dryhtnes
dryhtscipe
dræ
ds
dsi
dt
dte
du
dua
dual
dub
dubc
dubcek
dublin
duc
ducdom
duce
ducesse
duchy
ductus
dudes
due
duero
duet
dufenal
dufenales
duffy
dugonges
dugongidae
duguð
duguþ
duhamel
duke
dulo
duluth
dum
dumfriessci
dumont
dun
duncan
dundee
dune
dunecan
dunedin
dung
dunga
dunge
dungfy
dunghe
dungsci
dungum
dunholm
dunhuang
dunkirk
duo
duong
duplicate
duquesne
dura
durand
duration
durban
dure
durham
during
durrell
duru
dusquesne
dutch
duties
dutton
duty
duval
dux
dvd
dwarf
dweoligend
dweorpung
dwight
dwines
dwojaki
dwæscte
dx
dy
dyde
dydon
dydrung
dyer
dyfenal
dyke
dylan
dynastic
dynasty
dynbær
dyre
dyrne
dys
dyspnoea
dysselþorp
dz
dzyrzec
dæ
dæd
dædum
dæftunge
dæg
dægbe
dæge
dæges
dæglang
dægli
dægs
dæl
dælas
dæle
dælum
dæmonium
dærentamu
dæȝ
dæȝe
dæȝes
dþearf
dƿa
dƿe
dƿeligendan
dƿeligende
dƿiht
dƿines
dƿæ
dƿæscte
e
ea
eac
eacan
each
eacswa
eadgar
eadgifu
eadmund
eadmundes
eadmunding
eadred
eadweard
eadweardes
eadwearding
eadwela
eadwine
eadƿeard
eadƿearding
eadƿine
eadƿines
eaga
eage
eagle
eahta
eahtate
eahtati
eahtig
eahtoða
eahtoþa
eahtung
eal
eald
ealda
ealdan
ealdcre
ealde
ealdengliscre
ealdes
ealdfæder
ealdfædra
ealdhe
ealdne
ealdnorþisc
ealdor
ealdordo
ealdordome
ealdorlicum
ealdorlæ
ealdorlæce
ealdorman
ealdormann
ealdormenn
ealdorrihtærn
ealdorscipe
ealdra
ealdras
ealdre
ealdred
ealdsecgan
ealdsecgum
ealdti
ealdu
ealdum
ealdƿi
ealh
eall
ealla
eallan
eallbærnet
ealle
ealleric
ealles
eallic
eallican
eallice
eallicum
eallmæst
eallne
eallra
eallre
eallrihte
eallru
eallswa
eallsƿa
eallum
eallymbe
ealne
ealneg
ealra
ealre
ealswa
ealu
eam
eamon
eampa
eampas
eampmenn
eampscipe
eampscipemæccan
ear
eard
earda
eardaþ
earde
eardes
eardfæst
eardfæstan
eardfæste
eardfæstu
eardiaþ
eardum
earfeðum
earfoða
earfoþ
earfoþdæg
earl
earlier
earliest
early
earlyfebruary
earlyjanuary
earlymay
earm
earman
earme
earmum
earn
earnas
earnestly
earnienne
earnode
earon
earp
eart
earth
earthly
earthquake
earthquakes
earthrise
ease
easier
easiest
easily
east
eastan
eastdæl
eastdæle
easten
eastengla
easter
eastermo
eastermonað
eastern
easternan
easterne
easternum
eastgota
eastre
eastrice
eastrices
eastromanisc
eastþeodisc
easy
eating
eatun
eaxe
eb
ebe
ebichu
ebook
ebooks
eboren
ebre
ebsco
ec
ecan
eced
ecg
ecga
ecgan
ecgbriht
ecgbryht
ecgbryhting
ecge
ecgum
ecgþræce
echo
echolocation
eclipse
ecmascript
ecna
ecnede
economic
economics
economist
economy
ecoren
ecorenscipe
ecuador
ecuadores
ed
eda
edan
edcyre
edda
eddie
ede
eden
edgar
edge
edgeræ
edinburg
edinburgh
edinbyrig
edisc
edisce
edison
edit
edited
editing
edition
editions
editor
editorial
editors
edits
edmond
edmund
ednemnod
edni
edniwunge
eds
edsce
edstaðelode
edt
edu
eduard
educac
education
educational
educator
edward
edwin
edƿard
ee
ef
efaþ
efe
efed
efede
efeme
efen
efende
efene
efenlæ
efenne
efennesse
efenniht
efennihte
efenstaðoliend
efentimber
efentimbras
efenƿeorþfindunga
efenƿeorþlæ
eferest
effect
effective
effectively
effects
efficient
effort
efforts
efn
efne
efnhlytta
efni
efnum
efnungræ
efra
efri
eft
eftandweardig
eftir
eftna
eftso
eftsona
eftæ
efð
efþ
eg
ega
egbert
ege
egede
egena
eges
egflocc
egflocces
egg
eggjaleiðara
eghe
egilseg
egisca
egiscan
egiscum
egland
eglanda
eglande
eglandes
eglandum
egmontbot
egnativs
egra
egri
egsan
egum
egypt
egyptan
egyptian
egyptum
egƿelig
eha
ehst
ehsta
ehstan
ehste
eht
ehte
ehwilcum
ehþ
ehþe
ehþu
ei
eich
eichmann
eiffel
eight
eighteen
eighty
ein
eindhoven
einherjar
einkenni
einn
einstein
eiri
eisenhower
eista
either
eitlabo
eitlar
eitlaæxli
ejaculation
ejaculatory
ek
ekki
ektid
el
ela
elaborate
elba
elban
elcor
elcran
elden
elder
eldest
ele
eleanor
elect
elected
election
elections
electric
electrical
electro
electrocardiogram
electronic
elehu
elelandum
elelendisc
elelendiscum
element
elements
elene
elenesburh
elephant
elephants
eles
elesa
elesƿi
eletƿig
eleven
eli
elig
elige
eligibility
eligible
eliminatio
eliot
elisabeðe
elisabeþ
elisabeþe
elisabeþing
elisabeþyld
elisha
elitre
elizabeth
elizabeþ
ell
ella
ellandum
ellaspontus
ellen
ellendæ
elles
elleswi
elleswise
ellesƿi
elliott
elmer
elne
elpend
elpendas
elpendba
elpendi
elsass
elsasse
elsasses
else
elsevier
elsewhere
elton
elu
elvis
elþe
elþeodigum
em
email
emailed
emanuel
emaþ
embassy
embedded
emblem
emde
eme
emed
emede
emedon
emergency
emi
emil
emile
emiliano
emilio
emily
emission
emma
emmanuel
emmen
emnet
emo
emotional
emperor
emperors
emphasis
emphysema
empire
employed
employee
employees
employer
employers
employment
empress
empty
emæ
en
ena
enable
enabled
enables
enabling
enas
encephali
encoding
encounter
encountered
encourage
encouraged
encourages
encouraging
encrypted
encyclopedia
encyclopedias
encyclopedic
encyclopædia
end
enda
endas
endast
endaþ
endaþarm
endaþarms
ende
endeavour
endebyrd
endebyrdnes
endebyrdness
endebyrdnessa
endebyrdnesse
endebyrdnessum
endebyrdum
endebyrdung
endebyrdunge
ended
endede
endemest
endemesta
endemestan
endemeste
endeni
endenne
endes
endeð
endeþ
endhu
endian
endiaþ
endie
endien
endiende
ending
endings
endleofan
endleofen
endleofon
endleofoða
endleofta
endli
endlice
endmesta
endmestan
endmeste
endo
endod
endoda
endode
endoden
endodest
endodon
endometrium
endon
endorse
endothelium
ends
endum
endunga
endunge
ene
eneas
eneases
ened
enemy
energy
enes
enfo
enforce
enforceable
enforcement
eng
engage
engaged
engagement
engaging
enge
engel
engelbart
engglisce
engine
engineer
engineering
engineers
engines
engla
englacynn
englaland
englalande
englalandes
england
englari
englas
engle
englisc
englisca
engliscan
englisce
engliscena
englisces
engliscmenn
engliscra
engliscre
engliscu
engliscum
english
englum
eniac
enix
enjoy
enlightenment
enn
enne
enoch
enough
enra
enriching
enrico
ensure
ensuring
ent
entas
enter
entered
entering
enterprise
enters
entertainer
entertainment
enthroned
entire
entirely
entities
entitled
entity
entrena
entrepreneur
entries
entry
enum
enviously
environment
environmental
environments
envoy
enȝlisc
enȝlisce
eo
eode
eodon
eoferwic
eoferwicsci
eoferƿi
eoferƿic
eoferƿicsci
eoferƿicscire
eoforwi
eoforƿi
eoforƿic
eoforƿice
eofot
eoh
eolh
eom
eoric
eorl
eorla
eorlas
eorldo
eorldom
eorle
eorles
eorlum
eormanri
eormengyld
eormengylda
eormengyldas
eormengylde
eormengyldes
eormenlendisc
eormennett
eormenȝyld
eort
eorðan
eorðe
eorðpera
eorþ
eorþan
eorþbeofung
eorþbeofunga
eorþbeofunge
eorþbigenesse
eorþclu
eorþe
eorþla
eorþpera
eorþperu
eorþstyre
eorþstyren
eorþupgang
eotolwara
eotolware
eotolwarum
eotolƿara
eotolƿare
eotolƿarum
eow
eoƿland
eoƿum
ep
eparchivs
epe
epende
epge
epi
epic
epirus
episode
episodes
epitaph
epþ
epȝe
equal
equally
equals
equations
equatorial
equilibrium
equipment
equity
equivalent
equivalents
equus
er
era
eran
ercebisceop
ercebiscop
ercebiscopes
ere
erebus
erected
erectile
erection
eretz
ergo
eri
eric
erica
erie
eriht
erik
erin
eris
ernesmere
ernest
ernesto
ernst
erra
error
errors
erst
ersumiend
eru
erupted
eruption
erwin
erþ
es
esan
escanceaster
escape
escaped
escapes
escondido
esde
ese
esed
esest
esetednesse
eseþ
esing
esla
esland
esode
espan
especially
esperanto
espreon
esquivel
essayist
essays
esse
essential
essentially
est
establish
established
establishing
establishment
estadio
estado
este
esteban
estiano
estimated
estisc
estland
estlande
estlandes
estmere
estonia
estonian
estum
esung
esvvivs
esworenha
eswutelunge
et
eta
etan
etaþ
etc
ete
eten
etenne
eteras
etesta
etestan
eteste
etext
eteþ
eth
ethel
ethelbert
ethiopia
ethiopian
ethnic
ethnologue
etiquette
etis
etone
etones
etran
ett
etunge
etymology
etymonline
eu
eufra
euge
eugene
eugenius
euku
eur
eurasia
eurasie
eureka
euro
europa
europan
europe
european
europeans
europes
europewara
europisc
europisca
europiscan
europisce
europisces
europiscum
eurovision
euxine
euxines
euxinus
eva
evacuatio
evacuation
evaluate
evaluated
evaluation
evalwikimediaorg
evangelical
evangelos
evans
evansville
eve
evelyn
even
evening
event
events
eventually
ever
everest
everett
every
everybody
everyone
everything
everywhere
evgenivs
evidence
evil
evilly
evolution
evolve
evropa
ewan
ewealdas
ewen
ewi
ewritene
ex
exact
exactly
example
examples
exanceaster
exanceastre
exceed
excellent
except
excepting
exception
exceptional
exceptions
excessive
exchange
exchequer
excited
exclamation
excoriatio
excuse
exe
executed
execution
executive
exelero
exercise
exeter
exhibition
exile
exist
existed
existence
existent
existing
exists
exo
exogenous
exon
expand
expanded
expanding
expansion
expansions
expect
expected
expecting
expedition
expenses
expensive
experience
experienced
experiences
experiencing
experiment
experimental
experiments
expertise
experts
expired
expiry
explain
explained
explaining
explains
explanation
explanations
explanatory
explicit
explicitly
exploded
explodes
exploration
explore
explorer
exploring
explosion
explosives
export
exposed
exposing
exposition
express
expressed
expressing
extend
extended
extensio
extension
extensions
extensive
extensor
extent
extern
externa
external
externus
extinct
extra
extreme
extremely
eye
eyes
eyesight
eyorokon
eyra
eyre
ez
ezra
eð
eða
eðan
eðlilega
eðlilegur
eþ
eþel
eþeling
eþna
eƿan
eƿed
eƿen
eƿene
eƿenes
eƿenne
eƿþ
eȝe
eȝland
f
fa
fabian
fabriciano
face
facebook
faced
facies
facilitate
facilitates
facilitating
facilitators
facilities
facing
fact
factbook
faction
facto
factor
factors
factory
facts
fadung
fadunga
fadunge
fagundes
faham
fail
failed
failure
fair
fairfax
fairies
fairly
fairy
faisal
faith
faithful
faithfully
faland
falcon
fall
falla
fallen
falling
falls
false
falsely
falster
fame
famer
familia
familiar
families
family
famine
famous
fan
fana
fanadæg
fanan
fancy
fand
fandiaþ
fandode
fandung
fandunge
fang
fange
fangen
fanne
fans
fansite
fantaisie
fantasy
fao
faq
faqs
far
fara
farah
faran
faraþ
fare
faremenn
faren
farenda
farendas
farende
farenna
farenne
farmbrough
faroe
faroese
faroisc
faroisca
faroiscan
faroisce
faroiscra
faroþ
farragut
farrell
farsi
faru
faruc
farung
farunge
fascia
fascist
fashion
faso
faster
fastest
fat
fatally
fate
father
faticanburg
faticanbyrig
fatigue
fatima
fatu
faulkner
favor
favorite
favour
fawkes
fayetteville
faþ
fbi
fc
fcle
fcræft
fcynn
fcynnes
fdc
fde
fdi
fdige
fdon
fe
fea
feaht
feahte
feahtede
feahtedon
feahten
feahton
fealcenas
feald
feall
feallan
feallaþ
fealle
feallen
feallende
feallum
fear
fearh
fearr
fears
feasible
feast
feature
featured
features
featuring
feaƿe
feb
februarius
february
fed
federal
federation
federer
fee
feedback
feeding
feel
feeling
feels
fees
feet
fefora
fei
feira
fel
fela
feld
felda
felde
feldhocig
feldor
feldum
felipe
felix
fell
fellow
fellowship
fellum
felƿascipe
female
feminine
femininum
feminism
femoralis
femoris
fen
fena
fenbergan
fende
fendra
fenestra
feneswela
feneswelan
fenesƿela
fenesƿelan
feng
fengan
fengon
fenian
fenn
fenne
fennum
fenum
feo
feoh
feohport
feohsceatt
feoht
feohta
feohtan
feohtaþ
feohte
feohtend
feohtenne
feohtere
feohtes
feohwendung
feohwendunge
feohwendunglic
feohƿendunge
feoll
feor
feorglæs
feornesse
feorr
feorran
feorransi
feorrsi
feorrsiene
feorrspreca
feorrsprecan
feorrum
feorrunge
feorsian
feorst
feorðe
feorþa
feorþan
feower
feowertig
feowerþ
feoƿer
feoƿerscyte
feoƿerscytes
feras
ferde
ferdinand
fere
ferenc
feres
ferguson
ferhat
fermanagh
fermat
fermi
fernando
fero
ferry
fers
fersc
fes
festa
festival
festivals
fet
fever
few
fewer
feðan
feðer
feðera
feðerbra
feðerum
feðra
feðre
feðrum
ff
ffo
ffæri
ffæris
fge
fi
fibrosa
ficgi
ficgiege
fiction
fictional
fidel
fieht
field
fields
fielþ
fiend
fierd
fierde
fierdmenn
fierdstemmgere
fietnam
fietname
fietnames
fietnamisc
fif
fifa
fifta
fifte
fifteen
fifth
fiftiene
fiftig
fifty
figaro
fight
fighter
fighters
fighting
figure
figures
fih
fijian
fild
file
filed
fileexporter
fileimporter
files
filip
filipino
filippini
filivs
fill
filled
fillmore
film
filme
filmen
filmenbred
filmengetalu
filmenne
filmennu
filming
films
filter
fin
final
finalized
finally
finance
financial
find
findan
finde
findendu
findenne
findeþ
findi
findings
finds
fine
finger
fingur
finis
finish
finished
finishing
finland
finn
finna
finnas
finnisc
finniscan
finnish
finnland
finnlande
finnlandes
finnum
fint
finȝras
fire
fired
firefox
fireman
firena
fires
firing
first
firste
fisc
fisca
fiscal
fiscas
fiscera
fischer
fiscoþ
fiscoþe
fiscum
fish
fisher
fisk
fissura
fit
fits
fitzgerald
five
fix
fixed
fixing
fiðerle
fiðeru
fjo
fk
fl
fla
fladimir
flag
flagged
flags
flakes
fland
flanda
flanders
flandras
flat
flauius
flavius
flavivs
fle
fled
flede
fleet
fleming
flemisc
fleogend
fleogenne
fleoht
fleot
fleotendan
fleoƿeþ
flesh
fletcher
flett
flew
flexor
flexura
fli
flic
flice
flickr
flicum
fliemed
fliemede
fliemedon
flight
flint
flintsci
flip
fljo
flo
flocc
floccas
flocce
flocces
floccum
floccƿeorc
flodoard
flood
flooding
florence
florentia
flores
florianvs
florida
floridan
floride
flotan
flothere
flotilla
flotmenn
flow
flower
flowers
flown
flows
floyd
fluctuatio
flugon
flun
flunge
fluor
fly
flyer
flyht
flyhta
flyhte
flyhthæfen
flying
flæ
fmann
fmanna
fmenn
fn
fnas
fne
fnes
fo
focus
focused
focusing
fod
fode
folc
folca
folcandgiet
folcas
folccu
folce
folcena
folces
folcescyneƿi
folcg
folcgemo
folcisc
folcisce
folcla
folcland
folcle
folcli
folclic
folclican
folclice
folclices
folclicne
folclicra
folclicre
folclicu
folclicum
folcmorðor
folcmæ
folcri
folcriht
folcræ
folctellunge
folctoga
folcum
folcƿalding
fold
foldan
folde
folders
folga
folgað
folgaþ
folgede
folgedon
folgend
folgenda
folgendan
folgendas
folgende
folgendum
folgiendan
folgiendum
folgode
folio
folk
folklore
folks
follow
followed
followers
following
follows
fon
fonseca
font
fontaine
fonts
fontsize
foo
food
fool
foot
football
footed
footnotes
for
foramen
foran
forba
forbade
forbe
forbead
forbeodan
forberan
forbes
forbi
forbid
forbidden
forboden
forbærned
force
forced
forces
forcibly
forcing
ford
forda
fordas
forde
fordes
fordscipe
fordsƿice
fore
forefæder
forefæderas
foregenga
foregengan
foregesettendas
foreign
foremost
foremæ
foremæl
foremæle
forerunner
forese
foresee
foresette
foresittend
foresittendas
foresittende
foresittendes
foresittendha
foresittendlic
foresittendlican
forespil
forespila
forest
forestealde
foresteall
forestæ
foreti
forever
foreweard
forewearda
forewearde
foreƿeard
foreƿearde
forfangen
forfe
forflugon
forget
forgi
forgifendlic
forgifnesse
forgiveness
forgrunden
forhe
forhi
forhu
forhƿæ
forla
forle
forleorton
forloren
forlorena
forlæ
forlæt
form
forma
formal
formally
forman
format
formation
formats
formatted
formatting
formaþegn
forme
formed
formena
former
formerly
formest
formestan
formeste
forming
formosan
forms
formula
formulae
formulas
formulæ
formum
formæ
formæle
forna
forne
fornean
forniman
forrester
forscra
forscrah
forsetn
forsittend
forslæ
forsocan
forster
forsto
forsƿi
fort
forth
forthaem
fortunatus
forty
fortæld
forum
forums
forward
forwurde
forð
forðan
forðferde
forðian
forðiendum
forðode
forðodon
forðung
forðunge
forðy
forðæm
forþ
forþa
forþberenne
forþbirþ
forþboren
forþbæ
forþbæro
forþfe
forþferde
forþferdon
forþferede
forþfo
forþga
forþgang
forþgange
forþgæ
forþlæ
forþon
forþsend
forþsende
forþsendunge
forþy
forþæ
forþæm
forƿurde
fossa
foster
fought
found
foundation
founded
founder
founding
fountain
four
fourteen
fourth
fovea
fox
fr
fra
fractions
fractura
fragment
fram
framan
frame
framed
frameless
framework
framm
framscipe
fran
franc
franca
francan
francas
france
francena
frances
francis
francisc
francisco
franciscus
francland
franclande
franclandes
francna
franco
francri
francum
frank
frankell
frankenstein
frankfurt
franklin
frans
franz
fraser
fraternal
fraud
fray
fre
fred
freddie
frederic
frederick
frederik
free
freed
freedom
freedome
freedomes
freely
freeman
freezes
freezing
freiberg
freiberufler
freme
fremede
fremeden
fremedest
fremedon
fremest
fremeðe
fremeþ
fremfull
fremman
fremmaþ
fremme
fremmed
fremmede
fremmedon
fremmen
fremmende
fremmenne
fremminge
fremmunge
fremont
frenc
french
frencisc
frencisca
frenciscan
frencisce
frencisces
frenciscra
frenciscu
frenciscum
frenulum
freo
freodom
freolsung
freoþogar
frequency
frequent
frequently
freshwater
fresisc
fresisce
fresland
fresna
fresno
fri
friday
frideric
friedrich
friend
friendly
friends
frig
frigg
frignunge
fritz
frið
friðeric
friðric
friðricesburg
friðuric
friþ
friþhu
friþti
frjo
fro
frobisher
frog
froggamenn
from
froncum
front
frontalis
fru
fruit
frum
fruma
fruman
frumcyn
frume
frumgrota
frumli
frumlic
frumlicra
frummede
frummedon
frumtalu
frumtrah
frumtæl
frumum
fry
frygyld
frymþu
fræ
fscipe
fscipes
ft
fta
ftan
fte
fthlu
fti
ftig
ftigoða
ftur
fu
fuad
fucgi
fuchs
fuel
fugel
fugla
fuglas
fuglum
fugol
fugola
fugolas
fugolcynn
fugoli
fugolum
fuhton
ful
fulfealdende
fulfill
fulfills
fulgencio
fulgo
full
fullan
fulle
fullendode
fuller
fulli
fullice
fullkomið
fullmacod
fullnama
fullre
fulltum
fulluht
fullum
fully
fullæst
fulre
fultum
fultume
fultumode
fulwiht
fulƿihte
fum
fun
function
functionality
functions
fund
fundamental
funded
funden
funding
fundon
fundraiser
fundraising
funds
fundus
fune
fung
funge
funk
fur
further
furthermore
fury
furðum
furþor
futabasha
future
fuzzy
fuð
fuðs
fuþarc
fuþark
fuþorc
fuȝolas
fv
fva
fvii
fviia
fviii
fviiia
fvlvivs
fx
fxa
fxi
fxia
fxii
fxiia
fy
fylaþ
fylc
fylces
fylcum
fylfo
fylgan
fylgaþ
fylgde
fylgendum
fylke
fylle
fyllende
fyr
fyrbeorg
fyrd
fyrde
fyrding
fyrdinge
fyrdƿic
fyre
fyrest
fyrir
fyrmest
fyrmesta
fyrmestan
fyrmeste
fyrmestscealc
fyrst
fyrstan
fyrste
fyrstum
fyrðra
fyrðre
fyrðrend
fyrðrestre
fyrðrum
fyþþernæs
fæ
fæc
fæce
fæder
fæderes
fædres
fæg
fæger
fægernesse
fægra
fægre
fægrum
fæmne
fær
færa
færeld
færelde
færeldes
færm
færþ
fæst
fæsta
fæste
fæsted
fæsten
fæstes
fæstland
fæstne
fæstnes
fæstnessa
fæstnesse
fæstnode
fæstnung
fæstum
fæt
fæte
fæðing
fæðingu
fæþer
fæȝer
føroyingar
fþ
fƿi
g
ga
gabon
gabriel
gaderscypefa
gaderung
gaderunge
gadget
gadgets
gadriaþ
gadrienne
gadsden
gaelic
gafol
gafolbyrðen
gagarin
gagnan
gain
gained
gainesville
gaining
gaius
gaivs
gakeen
gala
galatasaray
galaxy
galba
gale
galerius
galerivs
galicia
galician
galicie
galileo
galland
gallblo
galleries
gallery
gallia
gallie
gallienus
gallienvs
gallisc
galliscan
gallra
gallro
gallus
gallvs
galveston
galwæg
galwægsci
gamal
gaman
gambia
gambie
game
gamel
gamen
gamena
gamene
gamenes
gamenpleȝ
gamensearu
gamensearufadung
gamenum
games
gaming
gamle
gamlu
gamma
gamne
gamol
gan
ganbare
ganda
gandhi
gandis
gang
ganga
gangan
gangere
ganges
gangnihessou
gaol
gap
gapt
garbage
garci
garcia
garden
gardening
garfield
garibaldi
garleac
garmitting
garmittunge
garrison
garry
garsecg
garsecge
garsecges
gary
gas
gasoline
gaspard
gaspra
gata
gate
gates
gather
gathered
gathering
gattai
gaudi
gaul
gaulle
gaunt
gave
gay
gaza
gazelle
gaðes
gaþ
gbagbo
gbord
gc
gcræt
gdan
gdansk
gdgourou
gdp
gdzie
ge
gea
geaf
geafon
geald
geanca
geandan
geandena
geaned
geanedan
geanede
geanedna
geanedra
geanedu
geanedum
geanlæ
geanlæhtan
geapanisc
gear
geara
gearas
geard
gearda
geardagum
geardas
gearde
geardes
geardugum
geardum
geare
gearena
geares
gearhund
gearhunde
gearhundes
gearhundred
gearhundrede
gearhundredes
gearhundum
gearone
gearora
gearore
gearu
gearum
gearwa
gearwe
gearwes
gearwum
gearƿa
gearƿe
gearƿes
gearƿum
geat
geata
geatinga
geatisc
geatnaburg
geatnabyrig
geatwe
geatƿeg
geaƿurpen
geba
gebacen
gebann
gebanne
gebanned
gebe
gebed
gebenned
gebeon
gebi
gebiegunge
gebinde
geble
gebletsod
gebo
geboden
gebodod
gebodri
gebogen
geboht
gebold
geboldas
gebolde
geboldes
geboren
geborgen
geborn
gebre
gebro
gebrocen
gebroht
gebrohted
gebru
gebry
gebræ
gebu
gebunden
geby
gebyrdaþ
gebyrddæg
gebyrddæge
gebyrde
gebyrdsta
gebyrged
gebæ
gebærnet
gece
gecenned
geceorren
geci
geclæ
gecna
gecnawen
gecnaƿen
gecne
gecnos
gecnytted
gecnyttede
gecoren
gecorena
gecorene
gecu
gecumen
gecuron
gecuþ
gecweald
gecy
gecynd
gecynda
gecynde
gecyndeli
gecyndelic
gecyndelicum
gecyndum
gecƿeald
ged
geda
gede
gedelf
gedo
gedon
gedre
gedrenced
gedruncen
gedser
gedæ
gedæg
gedæge
gedæled
gee
geearnian
geended
geendod
geendode
geeode
geeten
gefa
gefangen
gefaren
gefe
gefeaht
gefeahten
gefeall
gefengon
gefeoht
gefeohte
geferan
geferrædene
gefli
geflit
gefly
gefo
gefohten
gefolged
geforðod
gefre
gefremed
gefremmed
gefroren
gefrorenum
gefrummed
gefræ
gefu
gefullode
gefunded
gefunden
gefylged
gefylled
gefæstnod
gefƿulf
gegaderung
gegeafen
gegenpoint
gegiefen
gegield
gegiered
gegierwed
gegierƿed
gegifen
gegilda
gegildan
gegn
gegnum
gegrundwealled
gegryndde
gegyld
gegylda
gegyldan
gegyldas
gegyldena
gegyldum
geha
gehalgod
gehalgode
gehatan
gehaten
gehe
geheald
gehealden
geheten
gehi
gehierd
gehiersumod
gehiersumode
gehiersumoden
gehiersumodon
gehnæ
gehrinen
gehu
gehugod
gehy
gehyge
gehyldnes
gehyngred
gehæfd
gehæfted
gehæp
gehƿylc
gehƿæ
gei
geinnian
geinniende
geinnode
gel
gela
gelamp
gelang
geld
gele
geleged
gelenge
gelenged
geli
gelic
gelice
gelicnes
gelicnessa
gelicnesse
gelicum
gelimer
gelimp
gelimpan
gelimpas
gelimpaþ
gelimpe
gelimpeþ
gelimpung
gelimpungum
gelimpþ
gelo
gelocen
gelonus
gelosen
gelufod
gelytlode
gelæ
gelæd
gema
gemacod
gemang
gemanggegyld
gemaðel
gemaþel
geme
gemearc
gemearcas
gemearcod
gemearcum
gemen
gemene
gemenged
gemengednesse
gemet
gemete
gemette
gemiltsode
gemini
gemo
gemot
gemote
gemotli
gemunenne
gemynd
gemynddagas
gemynddæg
gemynde
gemyndgung
gemyndigung
gemynding
gemyndingdæg
gemyndsto
gemæ
gemæcca
gemæne
gemæneli
gemænre
gemære
gemæro
gemæðel
gemæþel
gen
gena
genamed
genamod
gend
gender
genders
gendli
gendum
gene
geneahhe
genealogical
genemned
genemnedum
genemnod
general
generally
generate
generated
generation
genered
generede
generic
genesis
genetic
geneticist
genett
genette
genettes
geneva
genf
genfe
genfland
genga
gengan
genge
gengu
genimen
genitalia
genitive
genitives
gennama
genne
geno
genoa
genocide
genomen
genotod
genseri
genseric
genshi
genspræ
gent
gentenaar
genuine
genumen
genus
genytted
geo
geocon
geoffrey
geofones
geofonum
geog
geographic
geographical
geography
geoguð
geoguðe
geola
geolmo
geolmonaþ
geolu
geolure
geoluseax
geond
geondri
geondsce
geondsceaƿung
geondþe
geong
geonga
geongan
geonge
geongum
geopenod
geopned
georg
george
georges
georgi
georgia
georgian
georgiaware
georgie
georgies
georging
georgisc
georgiscan
georgius
georn
georne
gepleged
ger
gera
gerad
geraes
gerais
gerald
gerardm
geras
gere
gerec
gereca
gerecan
gerecednes
gerecþegnung
gerecþegnunga
gerefearn
gerefearnes
gereode
gereord
gereordas
gereorde
gereordes
gereordum
geri
gerihted
gerimbec
gerimboc
gerinnunge
gerinnungendebyrdness
gerinnungendebyrdnesse
gerinnunginƿyrcend
gerinnunginƿyrcende
gerinnunginƿyrcendes
gerinnungtimber
german
germanas
germania
germaniam
germanian
germanic
germanicus
germanicvs
germanie
germanisc
germanisca
germaniscan
germanisce
germaniscena
germaniscra
germaniscum
germans
germantown
germany
geronimo
gerry
geru
geræ
gerð
ges
gesamnung
gesamnunge
gesang
gesaƿen
gescapen
gesce
gescea
gesceaft
gesceaftcræft
gesceafte
gesceaftes
gesceaftgele
gesceap
gesceape
gesceapen
geschichte
gescieppan
gescrife
gescriflicu
gescyrted
gese
geseah
geseald
gesealde
gesegen
gesegenum
gesend
gesended
geseon
geset
geseted
gesetede
gesetednessa
gesetednesse
gesetedon
gesetled
gesetnes
gesetnessa
gesetnesse
gesett
gesette
gesetted
gesewen
geseƿen
gesi
gesibb
gesibbnesse
gesihþ
gesihþa
gesiþas
geslagen
gesle
geslean
geslo
geslægen
gesme
geso
gesprec
gesprecen
gesprecenoste
gespro
gesprocen
gesprocene
gespræ
gestapo
gestaðelod
gestaðolde
gestaðoled
gestaðolede
gestaðoledon
gestaðoliend
gestaðolod
gestaðolode
gestaþolde
gestaþoled
gestaþolede
geste
gestolen
gestorfen
gestre
gestry
gesundrod
gesundrode
geswi
geswutelian
geswutelod
geswutoled
gesæ
gesægd
gesƿe
gesƿi
gesƿutelod
gesƿutoled
get
geta
getala
getale
getalu
getalum
gete
geteald
getealde
getel
geti
getica
getilod
getimbrod
getimbrode
getimbroden
getimbrodon
getre
getri
gets
getting
gettysburg
getæ
getæl
getæle
getælgeat
getælgeate
geugoslafia
geugoslafie
geuðe
gewe
geweald
gewealdes
geweder
gewedere
gewend
geweorc
geweorcum
gewi
gewierned
gewihta
gewinn
gewinnas
gewinne
gewinnum
gewisse
gewonn
gewonne
geworcestrateþ
geworden
geworht
gewrit
gewrita
gewritas
gewrite
gewriten
gewrites
gewritu
gewritum
gewro
gewrohten
gewuneli
gewunelic
gewunelice
gewunnen
geypped
geypte
geæ
geðoftscipe
geþ
geþa
geþafan
geþafanstede
geþafode
geþafum
geþafunge
geþance
geþe
geþeaht
geþencan
geþeo
geþing
geþingdo
geþinge
geþingedo
geþingode
geþingþ
geþo
geþoftan
geþofted
geþoftedan
geþoftede
geþoftedum
geþoftscipe
geþoftscipes
geþorften
geþrang
geþungen
geþynge
geþæhte
geƿanaþ
geƿann
geƿe
geƿeald
geƿealden
geƿealdes
geƿendedon
geƿeorc
geƿeorca
geƿeorce
geƿeorcen
geƿi
geƿidere
geƿierned
geƿiht
geƿinn
geƿinnan
geƿinnas
geƿinne
geƿinnenne
geƿinnes
geƿis
geƿonn
geƿonne
geƿonnen
geƿorden
geƿorht
geƿorhte
geƿrit
geƿrita
geƿriten
geƿritene
geƿritu
geƿritum
geƿro
geƿrohted
geƿrohten
geƿuna
geƿune
geƿuneli
geƿunelic
geƿunelice
geƿunnen
geƿunod
geƿæ
gfdl
gg
gh
ghaly
ghalybot
ghana
ghent
ghetto
ghord
ghorde
ghosts
ghwilc
ghwæðer
ghƿæs
ghƿæt
ghƿæðer
gi
giacomo
gibbon
gibson
gica
giefa
giefan
giefaþ
giefe
giefen
giefende
giefenne
giefu
giefð
giefþ
gield
gieldan
gieldgiefas
giengra
giengsta
giere
gierede
giereden
gieredest
gieredon
gierest
giereþ
giernes
giernesse
gierwan
gierwaþ
gierwe
gierwen
gierwende
gierƿan
gierƿaþ
gierƿe
gierƿen
gierƿende
giet
gif
gifen
gifica
gifða
gifðas
gifðum
gifþ
gilbert
gild
gildan
gille
gilles
gillette
gilmræ
gimel
gingifer
ginis
giovanni
girl
girls
gis
gislas
git
giuseppe
give
given
gives
giving
gje
gju
gl
gla
glada
glade
glades
gladly
gladu
gladum
glamorgane
gland
glandula
glandulae
glas
glasgow
glasgoƿ
glass
gle
gleich
glen
glendale
glenn
glesing
gli
glise
gliwdream
glo
global
globally
globe
glommum
glorieux
glorious
glory
glossary
gloucester
glover
glu
gluteus
glycerius
glæd
glædne
glædra
glædre
glæs
gmina
gn
gnaeus
gnan
gne
gness
gnesse
gniendlic
gnome
gnu
gnum
gnunge
go
goa
goal
goalkeeper
goals
goats
god
goda
godannar
godbo
godcund
goddard
goddess
gode
godes
godfrey
godmundesceaster
godrum
godrumes
gods
godspell
godspelleras
godspelltala
godu
godum
godwines
goes
gogh
goguryeo
goia
going
golan
golanhi
gold
golde
golden
goldes
goldman
goldræ
golf
golfer
golion
gomen
gon
gone
gonna
gonza
gonzales
good
goodman
goods
google
googles
gora
gorbachev
gorda
gordian
gordianvs
gordon
gories
gorki
gormaz
gorno
gosfreið
gospel
got
gotan
gotena
gotha
gothic
gothicus
gotisc
gotiscan
gotisce
gotiscum
gotland
gott
gotten
gottfried
gottisgut
gottistgut
gottlieb
gottorp
gough
gouken
gould
gov
governance
governing
government
governmental
governor
gower
goþas
gr
gra
grace
grad
grade
graded
gradu
gradually
grady
graham
grahamland
gram
grama
grammar
grammatical
grammaticcræft
grammatisc
grammatisce
grammy
gran
granadan
grand
grande
grandison
grant
granta
grantabrycg
grantabrycge
grantabrycgsci
grantaceaster
grantan
grantanbrycg
grantanbrycge
grantanbrycgsci
granted
granting
grants
granulocytar
graphic
graphs
grasaþ
grasiaþ
grateful
gratian
gratianus
gratianvs
graubu
grave
gravett
gravis
gray
gre
great
greater
greatest
greatly
greatoste
grecale
greece
greek
greeks
green
greenland
greensboro
greenville
greenwich
greetings
greg
gregorian
gregorisc
gregoriscan
gregorisce
gregorius
gregory
greina
gremman
grenade
grenadieg
grenadingas
grendel
grendles
grenelande
grey
grfc
gri
gridcolor
grietra
grietre
grievously
griffin
griffith
grim
grimm
grimum
griþ
gro
gross
ground
grounds
group
groups
grove
grover
grow
growing
grown
growth
gru
grund
grunde
grundenum
grundgesetnes
grundgesetnesse
grundri
grundriht
grundweall
grybauskaite
grytviken
grytvikne
græ
græfe
græs
græðsla
gu
guadalcanal
guadalupe
guam
guangsi
guantanamo
guarani
guarantee
guard
guardia
guardian
guards
guatemala
guatemalan
gue
guernsey
guerrilla
guevara
guglielmo
gui
guiana
guianan
guidance
guide
guidebook
guideline
guidelines
guides
guillaume
guillotine
guilty
guinea
guinean
guinness
guise
guitar
guitarist
gujarat
gujarati
gujaratisc
gulf
gulur
gum
guma
gun
gunfight
gung
gunge
gunman
guns
gur
guru
gus
gustaf
gustav
gustave
gustavus
gutenberg
guy
guyana
guyanan
guys
guyslugger
guþ
guþe
gw
gwyneth
gy
gyanendra
gyatso
gyden
gydenna
gydenne
gyld
gyldcræftes
gylde
gylden
gyldes
gyldfo
gyldheall
gyldna
gyldne
gypt
gypte
gyptes
gyptisc
gyrdel
gyta
gytaras
gæ
gæd
gædergemo
gæderung
gæderunga
gæderunge
gædes
gædre
gænt
gænte
gærs
gærsbe
gærse
gærsi
gæsoli
gð
gðe
gðer
gþ
gþa
gþe
gþum
h
ha
hab
habban
habbað
habbaþ
habbe
habsburg
hackathon
hacked
hacod
hacun
hacunes
had
hadde
hadraawi
hadrianvs
haec
haefþ
haema
haematoma
haemorrhagia
hafa
hafað
hafaþ
hafoc
hafocas
haga
hagena
hagosteald
hague
haifa
haile
haiti
hajno
hal
halan
halda
hale
half
halga
halgan
halge
halgode
halgodre
halifax
halig
haliga
haligan
halige
haligmo
haligmonað
haligmonaðes
haligrodmynstre
hall
hallux
halonen
hals
ham
hamburg
hamburger
hamilton
hamleaf
hammer
hammond
hamor
hamore
hampshire
hampton
hamtu
hamtunsci
han
hana
hand
handa
handan
handar
handbo
handbook
hande
handel
handgang
handlan
handlaþ
handle
handling
handsce
handsprecend
handum
handy
hanged
hanging
hangul
haniver
hank
hanlon
hann
hannah
hannes
hannibal
hannibales
hanover
hans
hansara
happen
happened
happening
happens
happy
har
hara
harald
haran
harassment
harbor
harbour
hard
harder
harding
hardships
hardy
hari
harlan
harlem
harlock
harm
harold
harolde
haroldes
harper
harriet
harris
harrisburg
harrison
harry
hart
hartford
harvard
harvey
harðacnut
harðor
has
hascemisce
hascemitisce
hash
hassan
hast
hat
hataþ
hate
hates
hateþ
hatte
hattin
hatton
hauser
haustrum
haute
have
haven
having
hawaii
hawaiian
hawker
hawkins
hay
haydne
hayes
hayward
haƿai
haƿaii
hbo
hd
he
hea
head
headed
header
headers
heading
headings
headland
headline
headquarters
heads
heafde
heafod
heafodburg
heafodburh
heafodcirice
heafodlic
heafodlican
heafodlicu
heafodmann
heafodsto
heafodstol
heafodstola
heafodstolas
heafodstole
heah
heahƿulf
heal
heald
healdan
healdanne
healdaþ
healde
healden
healdende
healdenne
healdeþ
healdon
healf
healfbroþor
healfdene
healfdæl
healfe
healfeorl
healfi
healftrendel
healftrendele
healftrendle
healfworulddæ
healfƿeg
healh
heall
healla
healle
heallum
healp
health
healthy
heanric
heanrices
heanrig
heanriges
heantun
heap
heapes
hear
heard
hearde
heardes
heardost
heardræd
heardum
hearing
hearm
heart
heartily
hearts
heasta
heat
heath
heather
heaven
heavily
heavy
heavyweight
hebe
hebre
hebrew
hecgaz
hedwig
heer
hefig
hefiga
hefige
hefignes
hefignesse
hefigosta
hefigoste
hefigra
hefigum
heidelberg
height
heila
heilbrigður
heilbronn
heili
heilkenni
heill
heinrich
heinz
heisei
hel
held
hele
helen
helena
helens
helgi
helicopter
helicopters
helix
hell
hella
helle
hellenic
hello
helm
helmut
helncan
help
helpan
helpaþ
helpdesk
helpe
helped
helpenne
helpful
helping
helps
helsingfors
helsinki
helvivs
hen
hence
hencg
henderson
hengest
henna
hennara
henni
henri
henric
henrice
henrices
henry
henshin
heo
heofnas
heofne
heofona
heofones
heofonum
heold
heoldan
heoldaþ
heoldenne
heoldeþ
heom
heonan
heora
heorotas
heorote
heort
heortan
heorte
heortford
heortfordsci
heortfordscire
hepar
hepaticus
hepatis
her
herald
heras
herb
herbert
hercules
hercvlivs
here
herebeorht
hereberht
hereford
herefordsci
herelic
herelican
herelingahre
herelof
herenuman
hereræ
heres
hereto
heretoga
heretogado
heretogan
heretogum
herewealdscield
herewealdscipe
hereðaland
hereƿic
hergas
herge
hergiendde
hergum
hergung
hergunge
herigas
herige
herigum
herigunge
heritage
herman
hermann
herna
hernando
hernia
hero
herodotus
heroes
herpes
herschel
hertogenbosch
herzegofina
herzegofinan
herzegovina
hester
het
hetaþ
heteþ
hett
hetwaraland
hetƿaraland
heures
hewlett
hey
hi
hialeah
hiatus
hibiscus
hic
hidalgo
hidden
hide
hideki
hider
hides
hiding
hie
hielt
hiera
hieran
hierarchical
hierarchy
hierde
hiere
hierum
hierþ
hiesta
hiestan
high
highbeam
higher
highest
highlight
highlighted
highlighting
highlights
highly
highway
hild
hilde
hildede
hilderic
hildric
hill
hillary
hills
hilt
hilton
hilum
him
himmler
himself
hindenburg
hindi
hindisc
hindu
hinduism
hinduismus
hindustani
hine
hippodroman
hira
hire
hired
hiredes
hiredmenn
hirohito
hiroshima
his
hisarnis
hispalis
hispania
hispaniam
histoire
historia
historian
historians
historiarum
historic
historical
historically
histories
history
hit
hitchcock
hitler
hitotsu
hits
hitting
hiw
hja
hjaltland
hjaltlande
hjarta
hjartabilun
hjartao
hjartavo
hjartsla
hla
hlaford
hlafordes
hlandlic
hlandpæð
hlaupa
hle
hlenc
hlenca
hlencan
hlencas
hlence
hli
hlinc
hlið
hliðlægur
hliþ
hljo
hlo
hlot
hloðere
hloðeringa
hloðwic
hloðwig
hloðwige
hloðƿic
hloðƿig
hloðƿige
hloþere
hloþhere
hloþwig
hloþƿig
hloþƿiges
hlu
hlust
hluti
hly
hlydanford
hlæ
hlæfdige
hlæst
hm
hmas
hms
hmwk
hne
hni
hnjo
hnu
hnyte
hnæf
hnæpp
ho
hoax
hobbit
hobgoblins
hoc
hocig
hocingum
hockey
hodgkin
hoera
hof
hogde
hogode
hogweard
hohenzollern
hokkaido
hol
hola
holbytla
hold
holding
holds
holdscipe
hole
holen
holharan
holiday
holidays
holland
hollerith
hollywood
holm
holocaust
holsta
holt
holte
holum
holy
home
homeless
homepage
homer
homes
hon
honda
hondsetene
honduras
hone
honest
honey
hong
hongcong
honiara
honolulu
honor
honorius
honorivs
honscu
honum
hood
hoover
hop
hopan
hope
hopefully
hopes
horatio
hord
horde
hordes
horizontal
horizonte
horn
hornas
horotiga
horowitz
hors
horsa
horse
horses
horsum
hosebend
hosebendha
hoshi
hospital
host
hostage
hosted
hostile
hostilianvs
hosting
hot
hotel
hour
hours
house
houses
housing
houston
hovercards
how
howard
however
hoym
hr
hra
hramsan
hramsiȝe
hran
hraðe
hre
hreddan
hreddede
hreddung
hremming
hremminga
hrer
hreðemo
hreðmonað
hreðmonðe
hreþmo
hri
hrif
hring
hringa
hringas
hringe
hringes
hringi
hringlaga
hringspyrd
hro
hroald
hrocesburgsci
hrolf
hrolfes
hroðberht
hru
hrvatska
hrycg
hrycgba
hrycgde
hrycge
hryggur
hryre
hræ
hrædsnacan
hræfn
hræfna
hræfnas
hrægl
hsb
hsi
hst
hsuan
ht
hta
htan
hte
hted
htedan
htede
hteden
htedon
htedum
hten
hter
htes
hthere
htm
html
htnesse
hton
htor
htra
htræ
http
https
htum
htunge
htƿealdes
hu
huang
hub
hubble
hubert
hubs
hudson
hudsones
hue
huffman
huge
hugh
hughes
hugo
hugur
huhwega
hui
hulanka
hull
hulmul
hulpon
human
humanist
humanitarian
humanities
humans
humbly
humbran
humbre
hume
humeri
humorist
humpback
humphrey
hunbeorht
hund
hunda
hundas
hunde
hundeahtatig
hundeahtatigoða
hundendleofantig
hundendleofantigoða
hundendleofontigoða
hundge
hundingum
hundnigontig
hundnigontigoða
hundoðan
hundred
hundreda
hundrede
hundredge
hundreds
hundredu
hundredum
hundseofontig
hundseofontigoða
hundte
hundtwelftig
hundtwelftigoða
hundtƿelftig
hundtƿelftigoða
hung
hungarian
hungary
hunger
hungerford
hunig
hunigbe
hunna
hunt
huntan
huntandu
huntandunsci
huntandunscir
huntaþ
hunter
hunteþ
huntiaþ
hunting
huntington
huntley
huntoðe
huntoþ
huntoþe
huntsville
hunuil
hunƿilla
hurricane
hurricanes
huru
hus
husayni
husband
huse
hussein
husvik
huygens
hvi
hw
hwa
hwam
hwan
hwanon
hwata
hwe
hwega
hwelc
hwelce
hwettan
hwi
hwilc
hwilcum
hwile
hwilum
hwitrussland
hwone
hwonne
hwy
hwyrft
hwæ
hwæl
hwænne
hwær
hwærin
hwærof
hwæs
hwæsingatu
hwæt
hwæðer
hwæþer
hy
hyakujuu
hycgaþ
hycge
hycgeþ
hycgð
hycgþ
hyde
hydrogen
hyge
hyhtes
hyll
hyllas
hylle
hylles
hymbre
hymel
hyngran
hyngraþ
hyngre
hyngrede
hyngreden
hyngredest
hyngredon
hyngren
hyngrende
hyngrest
hyngreþ
hyngrst
hyouga
hyp
hyper
hypertensio
hypnosis
hypo
hypotensio
hypotonia
hyrstod
hyð
hyða
hyðe
hyþ
hz
hæ
hæbban
hæbbaþ
hæbbe
hæbben
hæbbende
hæbbenne
hædde
hæfd
hæfde
hæfden
hæfdon
hæfedon
hæfen
hæfenƿeald
hæfeþ
hæfn
hæfne
hæfnes
hæfnum
hæfst
hæft
hæftas
hæfted
hæftede
hæfð
hæfþ
hægri
hægur
hælend
hæleþum
hæmus
hænep
hærfest
hærfeste
hærfestes
hærfestmo
hæringmæ
hæstinga
hæstingas
hæstinȝas
hæt
hæte
hæteþ
hætta
hæðenum
hæðnum
hæþnum
hæƿenhƿæl
hþ
hƿa
hƿala
hƿalas
hƿanon
hƿe
hƿega
hƿelc
hƿeorfde
hƿeorfendan
hƿeorfende
hƿeorfung
hƿeorfunga
hƿergen
hƿettan
hƿi
hƿider
hƿilc
hƿile
hƿilum
hƿo
hƿonan
hƿone
hƿonne
hƿy
hƿæ
hƿæl
hƿæles
hƿælhuntan
hƿælhuntena
hƿælhuntoþ
hƿælhuntoþƿic
hƿælhuntum
hƿænne
hƿærin
hƿærof
hƿæron
hƿærto
hƿæræt
hƿæs
hƿæsingatu
hƿæt
hƿæthƿega
hƿæthƿegu
hƿæðer
hƿæðera
hƿæþre
i
ia
iacobe
iacobes
iacobing
iacobus
iacobusi
iafan
iagellon
iamaica
iamaican
ian
ianan
iane
ianseniscan
iapan
iapane
iapanes
iapanisc
iapanisca
iapaniscan
iapanisce
iapaniscum
iapanri
iapanware
iapanƿare
iapanƿarum
iaponisc
iau
iberia
iberie
ibm
ibn
ic
ice
iceland
icelandic
ich
ichi
ichiro
ichirou
icis
icon
icons
ictus
id
ida
idaho
idea
ideal
idealab
idealized
ideally
ideas
identical
identified
identify
identifying
identity
ideology
idi
idiom
idiomatic
idioms
idis
idol
ie
iefa
ieg
iega
iege
iegena
iegheap
iegland
ieglandes
ieglandum
iegum
ield
ielda
ielde
ieldest
ieldesta
ieldestan
ieldeste
ieldra
ieldran
ieldre
ieldrena
ieldrum
ieldst
ieldsta
ieldste
ieldstum
ieldu
ieldum
iengra
iengsta
ieoþwel
ierfa
ierfan
ierfde
ierfe
ierfum
iernaþ
ierneð
ierneþ
iernð
iernþ
ierome
ierusalem
ierusaleme
ierusalemes
iervis
iesus
iesuse
iesuses
if
ig
iglande
ignace
ignatius
ignore
igor
igoþa
ii
iii
iiii
ik
ikaros
il
ilc
ilca
ilcan
ilce
ilcum
ild
ilde
ildo
ildra
ildru
ileus
ilfing
ilfingburg
ilia
iliaca
ilium
ill
illa
ille
illegal
illinois
illinoise
illkynja
illud
illustrated
illustrates
illustrator
illyrice
illyrices
illyricum
im
image
images
imagesize
imagine
imaginova
imbolc
imdb
ime
imf
immediate
immediately
immense
immigrants
immigration
imminent
immunodeficiency
impact
imperative
imperatives
imperator
imperial
impersonal
implement
implementation
implemented
implementing
implied
imply
import
importance
important
imported
impossible
impressio
impressive
imprisoned
imprisonment
impromptu
improperly
improve
improved
improvement
improvements
improving
impuls
impulsus
in
inactive
inappropriate
inauguration
inazuman
inbelæ
inbro
inbu
inc
inca
incena
incer
inch
inches
incident
incidents
incit
include
included
includes
including
inclusion
inclusive
income
incompletus
inconsistent
incontinentia
incorporated
incorporates
increase
increased
increases
increasing
incredulity
increment
ind
indea
indealand
indealande
indealandes
indean
indec
indeclinable
indeed
indent
indentation
indentations
indented
indenting
independence
independent
inderawuda
indeum
index
indi
india
indian
indiana
indianapolis
indianisc
indic
indicate
indicated
indicating
indicative
indicatun
indico
indie
indien
indies
indigenous
indirect
indisc
indisca
indiscan
indisce
indisces
indiscriminate
indiscum
individual
individually
individuals
indo
indonesia
indonesian
indonesie
indryhtegamen
indryhtegeard
industrial
industrialist
industries
industry
ine
ineligible
inevitably
infantilis
infantry
infarct
infarctio
infare
infaru
infarung
infectio
inferior
inferioris
infernal
inferness
infinitive
infinity
inflected
inflection
inflections
influence
influenced
influential
info
infobox
infoboxes
inform
information
informative
informed
infra
infrastructure
ing
ingang
inge
ingefe
ingefeoht
ingefeohte
ingeld
ingengan
ingewinn
ingewinne
ingeƿinn
ingeƿinne
ingeƿinnes
ingram
ingre
ingryð
inguinalis
inhabitants
inherently
inis
initial
initially
initiated
initiative
injectio
injured
injuries
injuring
injury
inland
inlande
inlende
inlendisc
inlendisca
inlendiscan
inli
inline
inlæ
inn
inna
innan
inne
innen
inner
innhere
inno
innocent
innoþ
innra
innri
innuendo
innung
innunge
input
insert
inserted
inserter
inserting
insertio
inside
insight
insights
insignia
insipidus
inspector
inspiration
inspire
inspired
inst
install
installed
instance
instant
instead
institut
institute
institution
instruction
instructions
instrument
instrumental
insufficientia
insular
insulin
insults
insultus
insurance
insurances
inswo
insƿe
int
intact
integral
integrated
integration
integrity
intel
intellectual
intelligence
intended
intense
intent
intention
intentionally
inter
interact
interaction
interactive
intercontinental
interest
interested
interesting
interests
interface
interfere
interior
interlanguage
interlingua
interlingue
intermitto
interna
internal
internally
international
internationalization
internet
internus
interpret
interpretation
interrogative
intersection
intervention
intervertebralis
interview
interviews
interwiki
interwikis
intestinum
intinga
intingan
intingum
into
intro
introduce
introduced
introduces
introducing
introduction
introductory
intrude
intuitive
inuktitut
invade
invaded
invading
invasion
invented
inventions
inventor
investigate
investigates
investigating
investigation
investigations
invictus
invictvs
invisible
invitation
invite
invited
invites
inviting
involve
involved
involvement
involves
involving
inwardly
inægli
inƿeard
io
ioachim
ioan
ioannes
ioannis
ioc
iohanne
iohannes
iohannesson
iohanni
iohannus
ioniscan
iordan
iordane
iordanes
iordanri
ios
ioseb
iosef
iosep
ioseph
iosephes
iosephus
iota
iovianvs
iovius
iovivs
iowa
iozzi
ioƿa
ip
ipa
ipad
ipe
iphone
ipod
iprage
ips
ipv
iqbal
ir
ira
irac
irace
iraces
iraciscan
iraclandes
iran
iranian
iraq
irc
ire
ireland
irfe
iric
irisc
irisca
iriscan
irish
irland
irlande
irlandes
irmenþe
irn
iron
iroquois
irregular
irregularity
irrelevant
irritatio
irum
irving
is
isaac
isabel
isabella
isabelle
isan
isbn
isbns
isc
isca
iscan
isce
ischii
iscum
iserna
islam
islamic
island
islands
isle
isles
ismail
isn
iso
isolation
ispania
ispanie
israe
israel
israeli
israhe
israhel
israhelisc
issuance
issue
issued
issues
issuing
ist
it
ita
italia
italiam
italian
italianisc
italiano
italicize
italicizing
italics
italie
italisc
italisca
italiscan
italisce
italiscum
italy
item
items
itidis
itis
ito
its
itself
itt
itumbiara
iu
iudah
iude
iudea
iudeas
iudeisc
iudeisca
iudeum
iudiþ
iulia
iulianes
iulianiscan
iulianus
iulies
iuliscan
iulius
ium
iusccenco
iustinianus
iustinus
iv
ivan
ivlianvs
ivlivs
ivnivs
ix
iz
izing
izuku
j
ja
jack
jackie
jackson
jacksonhy
jacksonville
jacob
jacques
jae
jaffna
jag
jagger
jaguar
jakob
jam
jamaican
james
jammu
jan
jana
jane
janeiro
janss
january
japan
japanese
jared
jargon
jarlaxleartemis
jarnut
jaruzelski
jason
java
javan
javascript
jay
jazz
je
jean
jeanette
jeeg
jeff
jefferson
jena
jenkins
jenner
jenny
jensen
jeremy
jerome
jerry
jersey
jerusalem
jesse
jessica
jesus
jet
jethrobt
jets
jewish
jews
jh
jikuu
jim
jimbo
jimmy
jin
jingsheng
jingtang
jo
joa
joachim
joan
joanna
joannes
job
jobs
jock
joe
johan
johann
johanna
johannes
john
johnglover
johnnie
johnny
johnson
johnston
johnstown
join
joined
joining
joint
jon
jonas
jonathan
jones
jong
jordan
jordanes
jorge
jose
josef
joseon
joseph
josh
joshua
josiah
josip
journal
journalism
journalist
journals
journey
jovinus
joy
joyce
jpeg
jpg
jr
js
jst
jstor
ju
jua
juan
judea
judge
judged
judges
judging
judgment
judicial
judiciary
judith
jules
julia
julian
julie
juliet
julio
julius
july
jump
jumping
junctura
june
jung
jungle
juni
junicode
junior
juraj
juris
jurisdiction
jury
jus
just
justice
justification
justified
justify
justin
justinian
justitiekanslern
juvenis
jv
jvlivs
k
ka
kaarina
kabila
kagayake
kagestar
kai
kaikyo
kal
kalamos
kaliman
kama
kamakura
kamen
kami
kamien
kanata
kangaroo
kanishka
kanji
kannada
kansas
kapodistrias
kara
karcher
karen
karim
karl
kashino
kashiyuka
kashmir
kashmiri
kaspar
kassa
kassel
kasta
kate
kategorier
katharina
katharine
katherine
kathmandu
katie
katowice
kavanagh
kawashima
kawayuka
kay
kazakhstan
kazimierz
kc
kd
kde
kdo
ke
keaggy
keaggye
keaton
keegan
keen
keep
keeping
keiji
keitel
keith
kellogg
kelly
kemal
kennedy
kenneth
kenny
kent
kentucky
kenya
kepler
kept
kerala
kerat
kerato
kerr
kerry
kevin
kevorkian
key
keyboard
keyboards
keys
kg
kh
khaimah
khan
khmer
khomeini
khrushchev
ki
kid
kidnapped
kids
kiel
kiev
kill
killed
killer
killing
kills
kilometers
kiloton
kim
kimi
kin
kind
kindly
kinds
king
kingdom
kings
kinross
kipling
kirche
kiribas
kirtildingull
kirtilæxli
kiss
kitchen
kite
kiæresburh
kja
kjo
kjs
kju
kk
kkli
kkun
kkur
kkvi
kla
klaipe
klan
klaus
kleg
klinefelter
klingon
klux
km
kman
kmfdm
kn
knight
knights
know
knowledge
known
knows
knox
knoxville
knud
knyaz
ko
kob
koch
kohl
koishite
kola
kollur
koma
komp
kon
kong
koniec
konin
konrad
korea
korean
koroleva
kos
koseidon
kosovo
kr
krako
krakowiak
kratos
kreuk
krieger
kringum
kristin
kro
kruger
kryptonite
krzna
krzyz
ksfjorðr
ksh
kt
ku
kuala
kublai
kuhn
kun
kuomintang
kur
kurgan
kurgans
kurier
kuro
kurt
kuwait
kvenna
kvi
kvo
kw
kwara
ky
kyiv
kylie
kynfæri
kyo
kyoto
kyouryuu
kyrgyz
kyrgyzstan
kyu
l
la
label
labeled
labels
labia
labium
labor
laboratory
labour
labrador
labs
labyrinthus
lac
lack
lacks
laconia
lacrimalis
lacroix
lacu
ladda
laden
ladies
ladmann
lady
laelianvs
laf
lafayette
laforas
lag
laga
lagan
lage
lagfæste
lagla
lagos
lagu
lagum
lahlicum
lahwita
laid
lait
lake
lakewood
lakseva
lalang
lama
lamb
lamica
lamicho
lamp
lan
lana
lancaster
lance
lanci
land
landa
landbe
landbo
landbu
landbunes
landbunesse
landcarte
landde
landdæ
lande
landed
landede
landedon
lander
landes
landesda
landesdæ
landfolc
landfolces
landfyrde
landfæst
landgebunden
landgemearc
landgemæ
landgemære
landgemæro
landgere
landhals
landhi
landi
landing
landkreis
landmark
landmearc
landmicelnes
landri
landrica
landrice
landriht
lands
landscape
landsce
landsceap
landsci
landscipa
landscipas
landscipe
landscipes
landscipum
landscitas
landscite
landse
landsetlan
landsetung
landskap
landslide
landsteort
landum
landþe
landƿara
landƿare
landƿorulddæ
lane
lanercsci
lang
langa
langaland
langan
langbearda
langbeardaland
langbeardas
langbeardna
langbeardum
lange
langfri
langi
langne
langre
langu
language
languages
langum
lanka
lankan
lansing
lao
laoland
laolande
laos
laparo
lapu
lar
laramie
larch
lare
laredo
large
largely
larger
largest
laridae
larry
larsen
larus
larynx
las
lasegue
laser
lassen
last
lasted
lasts
late
latejanuary
lately
latens
latent
lateo
later
lateralis
latest
latex
latin
latinivs
lator
latost
latoste
latter
latum
latvia
laudan
lauderdale
launch
launched
launching
laura
laureate
laurel
laurent
laurentes
laurenties
laut
lavoisier
law
lawerce
lawrence
laws
lawyer
layer
layla
layout
laþ
laƿrence
lb
lbein
lbs
lc
lce
lces
lcre
lcum
ld
lde
ldum
le
lea
lead
leader
leaders
leadership
leading
leads
leaf
league
leagues
learctre
learn
learned
learning
learnt
leary
least
leave
leaves
leaving
lebanon
lebu
lecgan
lecgaþ
lecge
lech
lecture
led
lede
lee
lefenax
left
leg
lega
legacy
legal
legally
legbolshimna
legde
legeceaster
legend
legendary
legends
leggo
legha
legi
legian
legie
legislation
legislative
legpi
legrey
legs
legsli
leibniz
leiden
leinster
leiða
lembeorg
lemprice
lena
lencten
lenctene
lenctenes
lenctenti
lend
lende
lendede
lendedon
lendisc
lendisca
lendisce
lendode
leng
lengan
lengde
lenger
lengest
lengestan
lengeste
lengra
lengran
lengre
lengsta
lengste
length
lengthen
lengthened
lengthy
lengu
lengðe
lengþ
lengþe
lengþu
lenin
lenines
leningrad
lenne
lennon
lennox
lens
leo
leoda
leode
leodræden
leodweard
leodwearde
leodweardes
leodƿeard
leodƿearde
leodƿeardes
leofric
leoht
leohtenstan
leohtes
leon
leonard
leonardo
leone
leonid
leopold
leopoldes
leornan
leornede
leornende
leorneras
leornian
leorniaþ
leornienne
leorningcniht
leorningcnihtas
leorninghu
leornode
leornung
leornungcnihtas
leornunge
leornunghu
leornunghus
leornungmann
leornungmanna
leornunȝmanna
leoðe
leoþ
lepanto
ler
leras
lere
leros
les
lescan
leskovi
leslie
lesotho
less
lesser
lestero
let
lethal
leto
lets
letseburg
letseburgisc
lettan
letter
letters
lettland
lettlande
lettlandes
leucophaeus
level
levels
levi
levu
levy
lewes
lewinsky
lewis
lewisi
lex
lexical
lexicon
lexington
leyden
leysa
leyte
lez
leð
leðere
leþ
leƿis
lf
lfar
lfra
lfsvi
lfur
lg
lga
lgan
lge
lgena
lges
lgod
lgu
lgum
lgung
lhe
lhnt
li
lia
liable
liaison
libane
libanisc
libanus
libbaþ
libbede
libbend
libbende
libbendum
liber
liberal
liberated
liberation
liberi
liberia
liberties
liberty
libeskind
libia
libius
libivs
library
lic
lica
lican
licað
licaþ
licc
liccidfeld
liccidfelde
lice
license
licensed
licenses
licensing
licgað
licgaþ
licgende
lich
licinianvs
licinius
licinivs
lick
licum
liczny
licð
licþ
licþegnung
lidƿicnæsi
lie
liechtenstein
liecð
lied
liefan
lies
lieutenant
lifandi
lifde
lifdon
life
lifeboat
lifere
liferpo
lifes
lifiaþ
lifigendu
lifode
liftid
lifwise
lig
ligamentum
ligan
ligatures
ligdagas
ligdo
ligdæg
lige
ligende
ligeþ
light
lighthouse
lightning
ligmo
ligne
lignes
lignesse
ligore
ligosta
ligostan
ligra
ligre
ligu
ligð
ligþ
like
likely
lila
lili
liliuokalani
lim
lima
limburgisce
limcynn
limerice
limit
limitation
limitations
limited
limits
limm
limousin
limpan
limu
limuc
lin
lincoln
lincolnes
lincolnsci
lincylene
linda
lindbergh
line
linea
linear
linegrey
liner
lines
lingua
linguist
linguistic
linguistics
link
linked
linking
links
linnaeus
linus
linux
linuxes
liofa
lion
lionel
lip
lipa
lipnitskaya
lips
lir
liran
lirena
lisa
lisbon
lisc
lisces
lissabon
list
listed
listening
listing
listings
lists
lit
lite
literally
literary
literature
litewska
lithograph
lithuania
lithuanian
litisc
litle
litli
little
liubena
liubenum
live
lived
liverpool
lives
living
livingstone
liza
lið
liðamo
liðan
liðska
liþ
liþmann
liþmenn
liþuania
liþuanian
liþuanie
liþuanisc
liþþuania
liþþuanie
liþþuanisc
liȝmo
liȝþ
ljo
lk
lka
lkun
lkur
ll
llama
ller
lli
llic
lloyd
lma
lmann
lmenn
lmo
ln
lness
lnessa
lnimunge
lno
lo
load
loaded
loading
loan
lobaris
lobengula
lobengulan
lobez
lobuli
lobus
loc
local
localisation
localisations
localisationupdate
localise
localised
localising
localization
locally
located
location
locations
loch
locke
locked
locomotive
lod
lodge
lodi
loeb
lof
lofbe
lofe
log
logan
logged
logging
logical
login
logo
logos
logs
lohman
loidis
loire
loka
lokasenna
loki
lokun
loma
lon
lonceaster
lonceastersci
lonceastre
london
lone
lonely
long
longbeardum
longe
longer
longest
longus
look
looked
looking
lookout
looks
loong
looong
loose
loosely
loppha
lord
lordi
lords
los
lose
losed
losede
loss
lost
lot
lots
lottery
louder
louis
louise
louisiana
louisiane
louisville
louvre
love
lover
loves
loving
low
lowell
lower
lowercase
lox
loyal
loyalist
loyola
loðene
loðƿic
lpa
lre
ls
lsd
lsslagæð
lsunge
lt
ltd
lti
ltimbrum
ltskog
lu
lua
lubbock
lubi
lublin
lubline
lucas
lucero
lucie
lucien
lucienbot
lucius
luck
lucy
lud
ludnos
ludovic
ludwig
luel
lufe
lufian
lufie
lufiendas
lufienne
luftwaffe
lufu
lugdunum
lugo
luh
luigi
luis
lum
lumbalis
lumen
lumpur
luna
lunar
lund
lundarhu
lundava
lunden
lundenceaster
lundenceastre
lundendeorysci
lundenderrysci
lundene
lundenes
lundne
lundnes
lunebyrig
lung
lunga
lunge
lungna
lungnabla
lungnablo
lungnaslagæð
lupin
lupus
lur
lutetia
luther
lutheres
luthor
luxembourg
luxemburg
luzon
luþer
lv
lvares
lvcivs
lw
lwendan
lx
ly
lydia
lydƿic
lydƿica
lyf
lyft
lyfta
lyftcræft
lyftcræftas
lyftcræftbora
lyftcræfte
lyftcræftes
lyfte
lyfthelm
lyfthelme
lyfthelmes
lyfthy
lyfthæfen
lyfthæfene
lyfthæfn
lyftscip
lyftscipu
lyftþre
lyftƿægn
lympatica
lympatici
lynched
lyndon
lyngstad
lynx
lyon
lyre
lyricist
lyrics
lys
lyt
lytel
lytela
lytele
lytelne
lytelra
lytelre
lytelum
lytla
lytlan
lytle
lytlu
lytlum
læ
læcce
læce
læd
lædan
lædde
lædede
læden
lædende
lædene
læg
lægreceastresci
læknanlegur
læland
lælandes
læppa
læppan
læs
læssa
læssan
læsse
læssena
læssum
læst
læsta
læstan
læste
læstede
læstum
læt
lætemest
lætra
lðe
lþ
lþe
m
ma
maas
maastricht
mabot
mac
macaque
macarthur
macau
macaþ
macbeoðen
macbeoþen
macdonald
macede
macedon
macedonia
macedonian
machine
machines
machu
macian
maciaþ
macie
maciende
macienne
macintosh
mack
mackenzie
macmillan
macod
macode
macodon
macrianus
macrianvs
macrinus
macrinvs
macron
macrons
macunge
madagascar
made
madeira
madero
madison
madonna
madrid
maecilivs
mafræði
maga
magan
magazine
magazines
magdalen
magdeburg
magellan
magen
mageo
mageosci
magi
magic
magical
magiefung
magiefunge
magister
magne
magnentius
magnes
magnetic
magnitude
magnus
magnvs
magon
maha
mahal
mahomet
mahometes
mai
maiale
maiden
mail
mailing
main
maine
mainland
mainly
maintain
maintained
maintains
maintenance
maiorianvs
major
majorian
majority
make
makes
making
mal
malaca
malacia
malawi
malay
malayalam
malaysia
malcolm
maldifi
male
males
mali
malia
malicious
malie
malisc
mall
malleolus
malmund
malone
malta
maltan
maltese
malus
malæga
malægsia
malægsie
mameceaster
mameceastre
mamluk
mammae
mammalia
mammals
man
mana
manage
managed
management
manager
manama
manassas
manatees
manati
manatus
manceurie
manchester
manchus
mandarin
mandate
mandatory
mandela
mane
manega
manfred
mang
manga
mangere
mangung
manhattan
mani
manifest
manifesto
manig
maniga
manige
maniges
manigfeald
manigfealda
manigfealde
manigfealdli
manigfealdlica
manigfealdlicu
manigfealdlicum
manigfealdness
manigfealdra
manigfealdre
manigfealdu
manigfealdum
manigne
manigra
manigre
manigri
manigu
manigum
manigþe
manila
manisc
maniscan
manisce
manitoba
manitoban
maniȝ
maniȝum
manli
mann
manna
manncynn
manncynnes
manne
manned
manner
mannes
manngetale
mannle
mannum
mano
mans
mansfield
manson
mantes
mantiscan
mantle
manual
manually
manuals
manuel
manuelt
manufacture
manufacturer
manufacturing
manus
manuscript
many
manzarek
mao
maore
maori
maorisca
map
mapframe
maplandia
maps
mar
mara
marathi
marathisc
marathon
marc
marces
march
marche
marched
marco
marcoaurelio
marconi
marcos
marcus
marcvs
mare
margaret
margareta
margrethe
marguerite
mari
maria
marian
mariana
marianburg
marianland
marianlande
maribo
marie
marieta
marietta
marilyn
marina
marine
mariner
mariners
marines
marino
marinus
mario
marion
maritime
marius
marivs
marjorie
mark
marked
markers
market
marking
marks
markt
markup
marley
marlowe
marne
maroare
marquis
marriage
married
marries
mars
marshal
marshall
martha
marti
martial
martianus
martin
martindale
martinic
martinique
martinus
martyr
martyrs
marx
marxist
mary
maryland
mas
masculine
mase
masofia
mason
masonry
mass
massachusetts
massacre
massacred
massive
massmessage
mast
master
masters
matabela
matabelaland
matabele
match
matches
matching
mate
mateo
mater
material
materials
math
mathbf
mathematical
mathematician
mathematics
mathias
matica
matrix
matt
matter
matters
matteus
matthew
matþeus
maurice
mauritania
mauritius
max
maxentius
maxentivs
maximian
maximianvs
maximilian
maximilien
maximinus
maximinvs
maximum
maximus
maximvs
may
mayagu
maybach
maybe
mayen
mayer
mayflower
mayor
maze
mazinger
mazur
mazurca
mazurcan
maðante
maþ
małopolskie
mb
mbe
mbeki
mblo
mbo
mburg
mbyrig
mc
mcallen
mccarthy
mcclellan
mcdc
mcdonald
mckinley
mclean
mcræft
mcræfte
mcræftes
mcræftmenn
mcræftum
md
mde
mden
mdennis
mdest
mdon
mdæg
me
meadows
meaht
meahtan
meahte
meahten
meahtli
mean
meaning
meaningful
meanly
means
meant
meantime
mearc
mearca
mearcas
mearcaþ
mearce
mearcgere
mearcienne
mearcod
mearcode
mearcodnesse
mearcum
mearcung
mearcunga
mearcungum
mearh
mearhse
measure
measuring
meatus
mec
meccan
mechander
mechanical
mechanism
mecklenburg
med
medal
mede
medes
media
medialis
mediawiki
medical
medici
medicina
medicinally
medicine
medicus
medieval
mediterranean
medium
medius
medulla
medume
medumweder
medumƿeder
meet
meeting
meetings
meets
meg
megaloman
megan
megelan
megelane
meghalaya
mehmed
mehmet
meiji
mein
melan
melano
melbourne
melcolm
melcolmes
melcomes
meld
meles
melita
melitan
mellitus
melode
melodia
melon
melos
meltunge
melville
member
members
membership
membrana
membri
memorial
memorials
memory
memphis
men
mena
menachem
mend
menda
mende
mendeleev
mendes
mene
menn
menne
mennisc
mennisca
menniscan
mennisce
menniscra
menniscum
mennscipe
mental
mentally
mentha
mention
mentioned
mentions
menu
menus
menuþias
menþ
meodu
meoduhealle
meolc
meolcbri
meolce
meore
meotedisca
meras
merce
merchant
mercia
mercian
mercurius
mercury
mere
merefolc
meregrot
meregrota
meregrotahy
merely
meremæg
meremægden
meremægdenlic
meremægdnes
meremægdnu
meres
meresƿi
mereweras
merge
merged
merging
merida
meridan
merit
meritorious
merits
meriwether
mermaid
mermaids
merritti
mersc
merum
mes
mesa
message
messages
messaging
messiah
messivs
mestre
met
meta
metal
metan
metawiki
mete
metenne
meteor
metera
meteras
meters
method
methodist
methods
metod
metro
metropolis
metropolitan
mette
mettig
meuse
mexican
mexicanisc
mexiciscan
mexico
mexicoburg
mexicori
mexicwe
mexicƿes
með
meðgo
mf
mfadunga
mfrumuæxli
mg
mhu
mi
mia
miami
mic
micahel
micel
micela
micelan
micele
micelne
micelnes
micelness
micelnessa
micelnesse
micelra
micelre
micelum
michael
michaeles
michel
michelangelo
michelle
michigan
michigane
mick
mickey
micla
miclan
micle
miclest
miclne
miclu
miclum
micronesie
microsoft
microsoftes
mid
middan
middangeard
middangearde
middangeardes
midde
middel
middelamerica
middelamerican
middelan
middelasia
middelasie
middele
middelenglisc
middelenglisce
middeleuropan
middelhæmus
middelieldum
middelra
middelre
middelseaxe
middelseaxna
middelseaxum
middelti
middeltu
middelum
middelylde
middelyldum
middla
middlan
middle
middlene
middles
middletown
middlum
middæg
middæle
midi
midland
midlandum
midloðene
midnight
midsumermo
midtown
midway
midwist
midƿearmum
midƿeorcere
midƿist
mie
mierce
miercelsas
miercna
miercum
miers
mifune
mig
might
mighty
migrate
migration
miguel
miht
mihta
mihte
mihtelic
mihten
mihtli
mihton
mij
mike
mikhail
mikil
mikið
mikołaja
mil
mila
milan
milcemo
mile
miles
milestones
milford
militant
military
militum
milk
mill
mille
millennium
miller
milli
million
millionan
millionas
millionen
millionena
millions
millionum
milne
milo
milra
milton
miltse
milvian
milwaukee
mimir
min
minami
minas
mind
mine
minecraft
miner
miners
mines
ming
mingas
minh
mini
miniature
miniatuur
minimize
minimum
minimus
mining
minis
minister
ministers
ministry
minneapolis
minnesota
minni
minogue
minor
minora
minority
minoru
minot
minsbot
minsc
mint
mintan
minte
minus
minute
minutes
miquelon
mir
miracle
miracles
mirce
mirei
mirror
mirrors
mis
misako
misc
misca
miscan
misce
miscellaneous
miscu
miscum
misgelimp
misguided
mislicum
miss
missenendebyrdnessa
missenli
missenlic
missenlica
missenlican
missenlice
missenlicra
missenlicu
missenlicum
misses
missile
missiles
missing
mission
missionary
mississippi
missouran
missouri
mistake
mistakes
misuse
mit
mitchell
mittung
mittwoch
mix
mixed
mizoram
mizuki
mið
mjo
mju
mk
ml
mla
mle
mli
mlic
mlican
mlicra
mlicu
mlicum
mls
mlæ
mm
mmæccan
mnadzikiewicz
mnan
mne
mnf
mo
mob
mobile
mobutu
moby
mockups
mod
mode
model
models
moderate
modern
modernan
modes
modesto
modified
modifies
modify
modifying
modo
modor
modules
moeda
mogadishu
mogiłki
mohamed
mohammad
mohammed
mohandas
moich
moines
moja
mol
moldovan
molecular
moment
momyllus
mon
mona
monaco
monan
monandæg
monandæges
monarch
monarchy
monastery
monaþ
monaþa
monaþes
monaþum
monday
money
mongol
mongolas
mongolia
mongolian
mongolisc
mongolland
mongolri
mongols
mongolum
monica
monitor
monitoring
monk
monkeybagemihl
monmu
monn
monna
mono
monobook
monochrome
monocytar
monongahela
monosyllabes
monosyllable
monosyllables
monroe
mons
monster
monsters
mont
montagu
montagui
montana
monte
montenegro
montevideo
montfort
montgolfier
montgomery
month
monthly
months
montpelier
montreal
montreale
montserrat
montsoreau
montt
montæ
monument
monumental
monuments
mood
moody
moon
moore
mor
mora
moral
morales
moray
morbid
morbus
more
moreau
moretoin
moretoine
moretoines
morgan
morgen
morgenmete
morgenmetecorn
morier
moritz
morkere
mormon
morning
moroccan
morocco
morris
morrison
morse
mortal
mortally
mortige
mortimer
morton
morum
morð
morðore
morþsliht
mosambice
moscone
moscow
moscoƿ
moscoƿe
mosque
moss
mossel
most
mosta
moste
mostena
mostly
mostra
mosul
mot
mota
motes
mother
motion
moto
motor
motors
motto
motu
motum
motung
mounds
mount
mountain
mountains
mounted
mouse
move
moved
movement
movements
moves
movie
movies
moving
moyse
mozart
mozilla
mp
mr
mri
ms
mscearplyftegedla
msci
msg
msnbc
mspyrd
mst
msta
mstede
mt
mtb
mte
mti
mtimber
mtimberinƿyrcendas
mtimbermanigfealdness
mtimbras
mtimbre
mtimbres
mtu
mu
much
mucosa
mugabe
muhammad
muir
multi
multichill
multilingual
multimedia
multipara
multiparus
multiple
multum
mum
mun
mundle
mung
munge
munich
municipalities
municipality
munt
muntgumnisci
munuc
munucas
munucha
munucregolas
munucum
mur
murat
murder
murdered
murders
murfreesboro
murphy
murray
mus
muscularis
musculus
muse
museum
musharraf
music
musical
musician
musicians
muslim
muslims
mussolini
must
mustafa
mustang
mutual
muþan
mv
mw
mware
mwarum
my
myasthenia
mycclum
mycel
mycobacterium
mylanguage
mynd
myndun
mynster
mynstre
mynstres
mynstrum
myositis
myrgingum
myrgþmacung
myrra
myrtle
myrðra
myself
myspace
mysteries
mysterious
mystery
mystic
myth
mythology
mzilikazi
mzn
mæ
mæcca
mæccan
mæcedonia
mæcedonie
mæcedonisce
mædmo
mædmonað
mædmonaþ
mæg
mægden
mægdenhæ
mæge
mægen
mægn
mægð
mægþ
mægþa
mægþe
mægþhlo
mægþu
mægþum
mæl
mælcolm
mælcolmes
mæna
mæneþ
mænig
mæniga
mænige
mænigfealde
mænigra
mænigum
mæniȝ
mæniȝfeald
mæniȝra
mæniȝum
mænu
mænþ
mær
mære
mæringa
mæringas
mærn
mærnes
mæroste
mæru
mæsse
mæssedæg
mæst
mæsta
mæstan
mæste
mæstum
mæterne
mæðe
mæþ
mæþhild
mæȝ
mæȝden
mþ
mþe
mƿara
mƿare
mƿarum
n
na
nabbað
nabbaþ
nacodan
nacodsæ
nagaland
nagasu
nage
naht
nahuatl
nakama
nakata
nalic
nam
nama
naman
namanstæ
namcu
name
named
namede
namely
namena
names
namespace
namespaces
namiaþ
namibia
namibie
naming
namna
namon
namum
namur
nan
nancy
nandæg
nandæge
nane
nantes
nap
napalm
naperville
napier
naples
napole
napoleon
napoleones
napoleonisc
napoli
narayan
narnia
narrator
narrow
narrowly
narrows
naruhito
narzeczony
nas
nasa
nasal
nasalis
nascimento
nase
nash
nashville
nasi
nasir
nassau
nasser
nat
natal
natalia
natalie
natchez
nates
nathaniel
nation
national
nationale
nationalism
nationalist
nationalists
nationally
nations
natis
native
nativity
nato
natsi
natsworthy
natural
naturalist
naturally
nature
nauplion
nauru
nautilus
nauðsynlegt
nav
naval
navigate
navigation
navigator
navy
nazaire
nazi
nazis
nað
naðe
naðes
naþ
naþbo
naþe
naþes
naþlang
nba
nbc
nbe
nburg
nc
nchen
nchengladbach
nchez
ncia
ncipe
ncræft
nd
nda
ndan
nde
ndebele
nden
ndena
ndha
ndhladanung
ndli
ndon
nds
ndu
ndum
ndun
ndæ
ne
nea
neah
neahhe
nealles
neam
neamere
nean
neapolis
near
nearby
nearly
nearon
nearu
nearuli
nearunes
nearuness
nearunesse
nearwe
nearwenes
nearwenesse
nearƿe
nearƿum
nebb
nebbe
nebraska
necessarily
necessary
necessity
necgd
ned
neda
nedan
nede
nedena
nederlands
nedo
nedra
nedri
nedu
nedum
need
needed
needing
needs
nef
nefa
nefan
nefaða
nefis
nefnhlytta
negative
negatives
negligence
negotiate
negotiations
neil
neill
neither
neland
nelande
nelandes
neli
nelic
nelican
nelice
nelle
nellie
nelson
nelsones
nema
nemde
nemnaþ
nemnde
nemned
nemnede
nemnedon
nemnest
nemneð
nemneþ
nemniendlic
nemniendlica
nemniendlicum
nemnode
nemnunga
nemnunge
nemo
nen
nena
nende
nene
nenne
neo
neologism
neologisms
neopolis
neoðan
nepal
nepale
nepales
nepos
neptune
ner
nere
nered
nerede
nereden
neredest
neredon
nerest
nereþ
neri
nerian
neriaþ
nerie
nerien
neriende
nero
nerva
nervi
nervosum
nervous
nervus
nes
nesci
nescipe
ness
nessa
nesse
nessum
nessunnandæg
nest
net
netflix
netherlands
netrebko
netscape
nett
nettweorc
nettþo
nettƿeorc
network
networking
neurosis
neuter
neutral
neutrality
neutrally
nevada
nevado
never
nevertheless
neville
new
newbie
newburgh
newcastle
newcomers
newer
newest
newline
newly
newport
news
newsitem
newsletter
newspaper
newspaperarchive
newspapers
newton
next
ney
neðri
neþ
nfaldan
nfalde
nfeald
nfealde
nfealdli
nfealdode
nfealdostan
nfealdum
nfl
nfordbrycge
ng
nga
ngeles
ngestre
ngli
ngo
ngoc
ngon
nguyen
nh
nha
nhe
nhencg
nhl
nholm
nholmsci
nhu
nhuntoþ
ni
nia
niagara
niagaracrundle
niagaran
nic
nica
nicaea
nicaragua
nicaraguan
nicarao
niccolo
nice
nicer
nicholas
nichols
nickel
nickname
nicola
nicolae
nicolas
nicole
nicomedie
nicopolis
nicotiana
nie
niede
niehst
niehsta
niehstan
niehste
nienda
niereþ
nierwan
nierƿan
nig
niga
nige
nigel
niger
nigeria
nigerian
nigerie
niges
night
nightingale
nights
nigon
nigone
nigonte
nigonti
nigontiene
nigontig
nigoða
nigre
nigum
niht
nihta
nihte
nihtlic
nihtum
nijigasaki
nika
nikita
nikolai
nile
niman
nimaþ
nime
nimende
nimenne
nimeþ
nimian
nimð
nimþ
nimþe
nin
nine
ning
ningur
ninja
nintendo
ninth
nio
nippon
nis
nisc
nisca
niscan
nisce
nisces
niscra
niscu
niscum
nishiwaki
nitro
niw
niwan
niwe
niwenglisc
niwenglisce
niwenglisces
niwes
niwgefundenland
niwgefundenlandes
niwlicu
niwsæland
niwsælande
niwsælandes
niwu
niwum
nixon
niðer
niðeran
niðerland
niðerlanda
niðerlande
niðerlandes
niðerlandisc
niðerlandum
niðerlendisc
niðerlendisca
niðerlendiscan
niðerlendisce
niðerlendiscum
niðeross
niðerseaxisce
niðerseaxland
niðerseaxlande
niðerþe
niðrum
niður
niþer
niƿ
niƿan
niƿe
niƿenglisc
niƿum
niȝ
nj
nl
nland
nlande
nlandes
nle
nlendisc
nlendisca
nlendisce
nli
nlic
nlica
nlice
nliceted
nlicre
nlicum
nloca
nlwiki
nlæ
nlæhtan
nmo
nn
nne
nnes
nnese
nnesse
no
noah
nobel
nobility
noble
nobleman
nobody
nocchi
nocte
nocturne
nocturnes
node
nodi
nodus
noeditsection
noes
noise
noises
nolan
nolde
nom
nomadic
nominal
nominate
nominated
nomination
nominations
nominative
nominators
nominees
non
none
nonne
nonsense
noon
nor
norad
nord
nordfjord
norenan
norene
norfolk
noriega
norm
normal
normally
norman
normandie
normandig
normandige
normandiges
normandiȝ
normandy
normanna
normannum
normenn
norms
norodom
norrena
norrenum
norsce
norse
norsemen
north
northern
northolt
northumbria
northwest
norton
norway
norwegian
norwich
norðamerica
norðamerican
norðamericanisc
norðan
norðdæ
norðdæl
norðdæle
norðe
norðen
norðende
norðene
norðern
norðerna
norðernan
norðerne
norðernes
norðernre
norðernum
norðhymbra
norðisc
norðiscan
norðisce
norðiscum
norðmanna
norðmannum
norðmenn
norðri
norðum
norðweard
norðþro
norðƿeard
norðƿege
norþ
norþaffrice
norþamerica
norþamerican
norþamerice
norþan
norþanhymbra
norþanhymbrum
norþcore
norþdakota
norþdæ
norþdæl
norþdæle
norþe
norþen
norþende
norþern
norþerna
norþernan
norþerne
norþernes
norþernmesta
norþernmeste
norþernre
norþernum
norþes
norþfolc
norþfolce
norþgermanisca
norþha
norþhealf
norþhealfe
norþhymbra
norþhymbraland
norþhymbralande
norþi
norþiege
norþisc
norþlande
norþmandiscan
norþmann
norþmanna
norþmannisc
norþmannum
norþmenn
norþmeore
norþmæcedonia
norþmæcedonie
norþri
norþsæ
norþum
norþweard
norþweg
norþwege
norþweges
norþwegisc
norþwest
norþwesten
norþwesterne
norþwesternum
norþƿeard
norþƿeg
norþƿege
norþƿeges
norþƿegisc
norþƿegisce
norþƿest
norþƿestan
norþƿesterne
norþƿesternum
norþƿestum
nos
nostan
noste
noster
nostum
not
nota
notability
notable
notation
notaþ
note
noted
notes
nothing
notice
noticeboard
noticed
noticing
notification
notifications
notified
notify
noting
notoc
notre
noun
nouns
nous
nov
nova
novak
novel
novelist
novels
november
now
nowhere
noðy
noððe
noþy
noþylæs
noþþe
npov
nra
nre
nri
nræ
nsang
nsangas
nsasburg
nsci
nscipas
nscipe
nscipes
nse
nsi
nskur
nsta
nstandende
nster
nstæf
nsumod
nsæ
nsƿingoþ
nt
ntgen
ntig
ntigoða
ntre
ntun
nu
nuclear
nuestra
nueva
num
numa
numan
number
numbered
numbers
numen
numeral
numerals
numerian
numeric
numerical
numerous
nunavut
nung
nunga
nunge
nungonginnpæþ
nur
nuremberg
nursing
nus
nvmerianvs
nvmerivs
nwealda
nwealde
nwri
ny
nyc
nylander
nystagmus
nytt
nyttan
nytte
nyttede
nz
nzst
næ
næbbaþ
næbbe
næfde
næfdon
næfre
næfð
næfþ
nægli
næppel
næpplas
næron
næs
næss
næssburg
næssbyrig
næsse
nð
nðe
nðes
nþ
nþa
nþas
nþe
nþes
nþo
nþum
nƿeald
nƿealda
nƿealde
nƿeard
nƿi
o
oakland
oath
oaxaca
ob
obama
oben
obey
obisenas
obituary
object
objection
objectionable
objections
objective
objects
obligation
obligatory
obliquus
obrador
obre
observances
observatory
observe
observed
obsolete
obtain
obtained
obtaining
obvious
obviously
oc
ocaasi
occasional
occasionally
occitan
occupation
occupied
occupy
occur
occurred
occurrence
occurrences
occurs
ocean
oceanic
ochu
ocinaƿa
ocinaƿan
ocnesse
oct
octauianes
octauianus
octavian
october
oculus
oczu
od
oda
odacynewi
odacyneƿi
odan
odas
odcyneƿi
odd
odda
odde
ode
oded
oden
odena
odendlic
odenne
odenri
oder
odes
odessos
odest
odfolgendas
odgemæ
odic
odin
odisc
odisca
odiscan
odisce
odisces
odiscland
odisclande
odisclandes
odiscra
odiscum
odland
odli
odlic
odlica
odlican
odlice
odlices
odmo
odna
odnas
odnes
odnesse
odo
odoacer
odode
ododum
odon
odor
odorata
odore
odra
odri
odric
odræ
odsc
odscan
odsce
odscipe
odscland
odsclande
odsclandes
odscmanna
odtele
odtelle
odu
odum
odweard
odwearde
odweardes
odwitena
odwitha
odyssey
odþing
odƿeard
odƿearde
odƿeardes
oe
oecd
oeno
oenoi
of
ofa
ofan
ofcymþ
ofe
ofen
ofena
ofendmanigfealdnesse
ofer
oferblo
ofercli
ofercom
oferdra
oferdri
oferdrifen
oferdrifon
ofere
ofereall
oferfe
oferferiend
oferfiehþ
oferga
ofergeƿiht
oferiordan
ofersce
ofersendaþ
ofersendeþ
ofersigelic
ofersihþ
oferso
oferstealles
ofersæ
ofersæton
ofersæwisc
ofersæwisce
ofersƿefn
oferwriehð
oferwrit
oferþra
oferƿann
ofet
off
offa
offan
offenbach
offensive
offer
offered
offering
offers
office
officer
officers
offices
official
officially
officials
offline
ofgeaf
ofiðelan
ofle
ofles
oflæ
ofodburg
ofol
ofon
ofonum
oforƿi
ofre
ofrum
ofsceat
ofscoten
ofslagen
ofsle
ofslean
ofslo
ofslog
ofslogen
ofslogon
ofsloh
ofstenþ
oft
oftar
often
oftor
oftost
ofvo
og
ogan
ogaþ
oge
ogeball
ogeballes
ogede
ogen
ogena
ogend
ogende
ogenne
ogg
ogiende
ogon
ogoðe
ogoþdre
ogunge
oh
ohba
oheort
ohio
oht
ohta
ohtas
ohtbiliþ
ohte
ohtensta
ohtes
ohtfy
ohttimbereletimber
ohtum
oi
oil
ois
ok
okkara
okkum
oklahoma
oklahoman
ol
ola
olaf
olagascipe
olan
oland
olande
olandes
olas
olav
olbers
old
oldakquill
oldenbarnevelt
oldenburg
older
oldest
oldon
olds
ole
olendisc
oles
olfactorius
olga
oli
olic
olig
oligo
olisipo
olive
oliver
oll
ollon
olmo
olmonaþ
olof
ols
olsas
olsaþ
olse
olsen
olsod
olsti
olterra
olterran
olum
olybrius
olybrivs
olympia
olympic
olympics
olympisc
olympiscum
olæ
om
omaha
oman
omar
ombuds
ombudsperson
omitted
on
ona
onan
onas
onbord
onbu
once
oncna
oncnæ
onco
oncwedendan
oncwiþþ
oncƿedend
oncƿeðenda
ond
onde
ondli
ondræ
ondscipe
ondum
one
oneardað
oneardaþ
oneardendas
oneardiaþ
oneardoden
onedæ
ones
onfand
onfang
onfangen
onfe
onfeng
onfenges
onfindend
onfo
onforan
onfæstode
ong
ongan
ongann
onge
ongeaf
ongean
ongeangeworht
ongemang
onginn
onginnan
onginnaþ
onginne
onginnenne
onginnes
onginnunge
onginnþ
onginþ
ongle
onglendingar
ongoing
ongunnen
ongunnon
onhebbinge
onhebbung
onhebbunge
oni
oninnan
onis
onisc
onisca
oniscan
onisce
oniscum
onland
onlande
onlandes
onli
online
only
onmang
onmiddan
onn
onne
ono
onræ
onræs
onsettunge
onsiglod
onsiglode
onsigloden
onspræc
onstandan
onsteald
onstealde
onstealdon
onstellende
onsting
onswo
onswog
onswogen
onsæc
onsæcc
onsæcce
onsæccede
onsæccedon
onsæt
onsƿo
onsƿog
ontarian
ontario
ontarioe
ontig
ontigoða
ontigoðena
onto
ontynung
onum
onwards
onweg
onwendung
onwendunge
onwriehþ
onwundendas
onwunenda
onwunendas
onwunendum
onwunienda
onæ
onƿeald
onƿended
onƿendung
onƿendunge
onƿo
onƿrigennes
onƿundendas
onƿunenda
onƿunendas
onƿunendum
onƿuniað
onƿuniaþ
onȝann
onȝe
onȝinnþ
oo
ooui
op
opard
ope
opec
opellivs
open
opened
openede
openfrumlic
openiendra
opening
openly
openness
openode
opens
opera
operate
operated
operates
operating
operation
operations
operative
operator
operators
opinion
opinions
opned
opnede
opole
opportunities
opportunity
oppose
opposed
opposing
opposition
opsunu
opt
opted
optimus
option
optional
options
opum
opungru
opus
or
ora
oraby
orabysci
oral
oram
oran
orange
oras
orbicularis
orbit
orbord
orca
orcanege
orcanegena
orcanegum
orchestra
orchestres
ord
orda
ordbre
order
ordered
ordering
orders
ordfruma
ordinal
ordinary
ordæ
ordæl
ore
ored
oregon
orel
orendli
orenne
ores
orestes
org
organ
organisation
organization
organizations
organize
organized
organizing
organum
orgilde
orha
ori
oricon
oriental
orientation
orig
origin
original
originally
origins
origo
oris
orisbe
orisc
orisce
orise
orises
orisse
oriya
orlando
orleans
orlege
ormulum
ormæ
ornest
orosie
orosies
orosius
orozco
orre
orrli
orsay
orsce
orscipe
orte
ortelius
orth
ortho
orthodox
orthodoxy
orthographic
orthography
oruchuban
orum
orville
orwell
orða
orðan
orðe
orðlinge
orþa
os
osama
osan
osanne
osaþ
osborne
oscar
osende
osenne
osgar
oslo
oslofle
osma
osmanlı
ossa
ossis
ossium
ossland
osslande
ost
ostas
oste
osteogenesis
osterby
ostium
ostmanntu
ostre
ostrogotha
ostsci
ostsæ
ostsæs
ostum
osung
osunga
osunge
oswald
osƿald
osƿiu
ot
otagan
otago
otaland
otan
otanwearde
ote
otend
otendas
otende
otenne
otes
other
others
otherwise
otho
oti
otig
otitis
otoko
otrs
ottawa
ottaƿa
otto
ottokar
ottoman
otung
otunge
oum
ounge
our
out
outbreak
outdated
outdent
outer
outlaw
outline
outlined
outlining
outreach
outside
oval
ovechkin
over
overall
overland
overlay
overload
oversight
overthrown
overture
overview
overwhelming
ow
owa
owan
owas
owdo
owen
owena
ower
owersci
owerscyte
owerte
owerti
owertiene
owertig
owertigoða
owertigum
owerum
owha
owic
owings
owl
owle
own
owned
owner
ownership
owns
owu
owulf
owum
owunge
owþ
ox
oxanfordsci
oxanslyppe
oxford
oxnaford
oxnaforda
oxnaforde
oxnafordes
oxnafordsci
oxnafordscir
oxygen
oxygene
oxygenonge
oz
oð
oða
oðan
oðe
oðer
oðerum
oðlic
oðlican
oðra
oðran
oðre
oðriendli
oðru
oðrum
oððe
oððæt
oðþe
oðþæt
oþ
oþa
oþan
oþe
oþer
oþgaderung
oþi
oþoman
oþomanisc
oþomaniscan
oþomanisce
oþomaniscum
oþon
oþra
oþre
oþru
oþrum
oþtimbercle
oþðe
oþðæt
oþþe
oþþæt
oþƿyrhta
oƿ
oƿa
oƿan
oƿas
oƿaþ
oƿdo
oƿe
oƿeardum
oƿen
oƿena
oƿer
oƿera
oƿersce
oƿerte
oƿerti
oƿertig
oƿertigoða
oƿertigum
oƿerum
oƿerþ
oƿes
oƿeþ
oƿic
oƿli
oƿnu
oƿod
oƿon
oƿu
oƿulf
oƿum
oƿunge
oƿþ
p
pa
pace
pacific
pacifist
pacistan
pacistane
pacistanes
package
pact
pad
paddington
paderewski
pagan
paganos
page
pages
pagetbeorg
pageviews
pagina
pago
pagos
pahlavi
paid
paine
painted
painter
painting
pair
pakistan
pakistani
palace
palacio
palatine
palatum
palau
pale
palermo
palestinan
palestine
palestinian
palestinisc
palestiniscan
palestiniscum
pali
palm
palmdale
palme
palmer
palmerland
paltrow
pan
panama
panaman
panamanian
pancreatis
panel
panic
pannonie
pannonum
pannonæƿare
panorama
panoramas
panther
panðer
panðeras
paola
papa
papal
papan
paper
papers
papilla
papua
par
para
parade
paradise
paragraph
paragraphs
paraguay
paralysis
parameter
parameters
paramilitary
paramount
parana
parc
pardo
parent
pareo
parietalis
paris
parise
parises
parish
park
parker
parks
parliament
parma
parotis
pars
parser
part
partement
parthicus
partial
partially
participants
participate
participated
participates
participating
participation
participle
participles
particular
particularly
parties
partitioning
partner
partners
partnerships
parts
partus
party
parum
parvus
parþenon
pas
pasadena
pashtu
paso
pass
passage
passed
passenger
passengers
passes
passion
passions
passive
password
passwords
past
paste
pasteur
pasting
pat
patagonie
patent
patented
patents
pater
pathet
pathoschild
pathways
patient
patil
patriae
patrices
patrick
patriot
patriotic
patriots
patrol
patrolling
patron
pattern
patterns
patterson
paul
paula
paules
pauli
pauline
paulo
paulus
paumier
pauper
pavel
pay
paying
payments
payne
pays
paz
pazyryk
paðas
paþ
pbs
pc
pcanada
pcanadan
pdf
pdo
pdt
pe
peace
peaceful
peacekeeping
peak
pearl
pearse
peasant
pecing
pecland
pectoralis
pede
pedis
pedro
peel
peer
peers
peggy
peior
peiper
pel
pele
pelvis
pen
pena
pencil
penda
pendan
pende
pending
penguin
penh
peninsula
penis
peniscan
penn
pennsylva
pennsylvania
pennsylvanie
pennyroyal
penrose
pensacola
pension
pensions
pentagon
pentecostenes
peohta
peohtum
people
peoples
peoria
pepper
pepys
per
perceived
percent
percentage
perceval
percy
perfect
perforatio
perform
performance
performed
performer
performing
perfume
perfumes
perhaps
peri
perineal
period
periods
perished
peritoneum
permanent
permanently
permission
permissions
permitted
perrins
perry
pers
perse
persea
persealand
persealande
persealandes
persecution
persena
perseum
perseus
persian
persican
persicus
persisc
persisca
persiscan
persisce
person
personal
personalities
personality
personally
personnel
persons
perspective
perspectives
persum
pertinax
peru
pervez
perwe
perþ
perþsci
perƿe
perƿes
pes
pessimus
pest
pestscire
pet
petar
pete
peter
peterbyrig
petersburg
petrarch
petres
petresburg
petri
petrograd
petronius
petronivs
petrus
pez
pfealcnas
pge
pgu
ph
phabricator
phantom
pharaoh
pharnavazingas
phase
phases
phenomenon
phil
philadelphia
philadelphian
philanthropist
phile
philip
philipp
philippe
philippes
philippine
philippinena
philippines
philippus
phillip
phillipvs
philologist
philosopher
philosophy
phnom
phoenician
phoenix
phone
phonic
photo
photograph
photographer
photographic
photographs
photography
photos
php
phra
phrase
phrases
phrasing
phren
phreno
phylum
physical
physician
physicist
physics
physiological
pi
pianestre
pianist
piano
pianoplegere
pianopleȝere
piavonivs
pic
picchu
picilemwe
pick
pickersgill
pickersgilli
pico
picture
pictured
pictures
piece
pieces
piech
piedmont
pierre
piers
pieszczotka
pietro
piew
pig
pige
pigs
pii
pila
pile
pili
pilihan
pillars
pilot
pilots
pinball
pine
ping
pinging
pinginisce
pingis
pink
pinocchio
pinochet
pintel
pintele
pinteles
pintscher
pinung
pioneer
pioneers
piosnka
pipe
piped
pipeline
pipep
pipepbot
piper
pippen
pirates
pireni
pirsquared
pisces
pisin
pistol
pitcearn
pitcearni
pitcher
pittsburgh
pius
pivs
pizarro
pl
pla
place
placed
placenta
places
placidvs
placing
plain
plains
plan
plane
planet
plang
plangung
planned
planning
plano
plans
plant
plantagenet
plantan
plantaris
plante
plantena
plants
plantum
planum
plas
plastic
plate
plates
platform
platforms
platinum
plato
platte
play
played
player
players
playing
plays
playstation
playwright
plaza
ple
please
pleased
pleg
plega
plegan
plegas
plegaþ
plegde
plegede
plegena
plegend
plegenda
plegendas
plegende
plegendum
plegenne
plegeras
plegere
plegestre
plegeþ
pleghu
plegodon
plegscip
plegscipa
plegscipflota
plegscipum
plegum
plegþing
plegƿeald
pleura
plexus
pleȝa
pleȝan
pleȝaþ
pleȝende
pleȝenne
pleȝere
pleȝestra
pleȝestran
pleȝestre
pleȝeþ
pleȝode
pleȝodon
plic
pliht
plo
plot
plotarea
plotdata
plug
plur
plural
plus
pluto
plymouth
plæcan
plæce
pm
pmid
pms
pn
pna
pnas
pne
pneum
pneumo
pneumonia
png
pnu
pnum
po
pocahontas
pockets
pod
podlaski
podolsk
pods
poe
poems
poet
poeta
poetic
poetical
poetry
point
pointing
pointless
points
poitiers
poki
pol
pola
polaland
polalande
polalandes
poland
polandball
polar
pole
polena
police
policies
policy
polisc
polisca
poliscan
polisce
polish
polite
political
politician
politicians
politics
polity
poll
polls
polo
polonaise
polonia
polosmak
polsc
polsce
polska
polum
polynesie
polynesisc
polypus
polyrhythm
pomorski
pompei
pompeius
pon
ponce
ponder
pondicherry
pont
pontcysyllte
pontevedra
pontiac
pontifex
pooh
poor
poorly
pop
pope
popov
popular
population
populations
popups
por
porfirio
port
portal
portas
porte
porten
porter
portesmu
portio
portion
portland
portrait
ports
portsmouth
portugal
portugale
portugales
portugalisc
portugalƿarum
portugles
portuglisc
portuglisce
portuguese
porus
posen
poseł
position
positions
positive
possession
possessive
possessives
possibility
possible
possibly
post
postage
postal
postea
posted
posters
posth
posting
postponed
postvmvs
pot
potato
potential
potentially
pothier
pov
powell
power
powered
powerful
powerpc
powerplants
powers
poznan
poƿell
pp
ppelberg
pr
prabanan
prabane
practical
practically
practice
practices
practitioner
pradesh
pradeshe
prae
praeceps
praeter
praetorian
praetorians
prag
prague
pratibha
pratt
prayer
pre
preaching
precede
preceded
precedent
preceding
precision
precursor
precz
predator
predictable
prefer
preferable
preference
preferences
preferred
prefix
prefsection
premature
premier
premiere
premiered
premieres
preossland
preossna
preparation
prepare
prepared
prepares
preparing
preposition
prepositions
prerequisite
presbyterian
preschool
prescott
prescriptive
presence
present
presentation
presentations
presented
presenter
presenting
presents
preserve
preserved
preside
presided
president
presidential
presidents
presley
press
pressburg
pressing
pressure
pretoria
prettier
pretty
prevent
prevention
prevents
preview
previews
previous
previously
pri
price
prices
pride
priest
primarily
primary
prime
primer
primo
primum
primus
prince
princes
princess
princeton
principal
principality
principle
principles
print
printed
printing
prior
priorities
prioritize
pripara
priscus
prison
prisoner
prisoners
prithvi
privacy
private
privately
privileged
privileges
privy
prix
prize
prizes
pro
probably
probe
problem
problematic
problems
probus
probvs
procedural
procedure
procedures
proceedings
process
processes
procession
processor
processus
proclaimed
proclaims
proclamation
proconsvl
procopius
procopivs
produce
produced
producer
produces
producing
product
production
productions
productive
products
profense
profentse
professional
professor
profile
profit
profundus
program
programme
programming
programs
progress
progressive
prohibition
project
projectile
projects
prolapsus
prologue
prominent
promote
promoting
promotion
promotions
prompt
prompted
pronoun
pronounced
pronouncing
pronouns
pronunciation
proof
proofread
proofreaders
proofreading
propaganda
proper
properly
properties
property
proponditis
proportion
proposal
proposals
propose
proposed
proposing
proprietary
prose
prospective
prostate
protect
protected
protecting
protection
protest
protestant
protesters
protesting
protests
proto
protoss
prototype
prototypes
prove
provence
provide
provided
providence
provides
providing
province
provinces
provincial
provision
provisional
provo
proximalis
proxy
pru
prussia
prussian
præ
ps
pseudo
psoriasis
psychologist
psychology
psychosis
pt
pta
pte
pu
puberty
pubis
public
publication
publications
publicity
publicly
publish
published
publisher
publishers
publishes
publishing
publius
puc
pudendum
pueblo
puente
puerto
puilla
pula
pulgara
pulgaraland
pulgaralande
pulgaralandes
pulgare
pulgarisc
pulgarum
pulmonalis
pulmonis
pulsatio
pulsus
pum
puma
pump
pumps
punctuate
punctuation
pund
punda
punjab
punjabi
punjabisc
punk
punt
puntas
pur
purbo
purely
purodha
purple
purpose
purposes
pursue
push
put
putin
putting
puyi
puzzle
puławy
pvblivs
pvpienvs
px
py
python
pyttesburh
pywikibot
pywikipedia
pywikipediabot
pæðes
pæþ
pƿe
q
qaem
qaida
qatar
qibya
qing
qu
qua
quadriceps
quae
quaint
quakes
qualifications
qualified
qualifier
qualify
qualifying
quality
quam
quang
quarter
quarterback
quarterly
quartet
que
quebec
quebecceaster
quebece
quechua
queen
queenston
queer
queries
quesnell
quest
questia
question
questions
queue
quezon
qui
quick
quickly
quiddity
quidem
quiet
quijote
quincy
quintana
quintillus
quite
quixote
quod
quotation
quotations
quote
quoted
quotes
qvintillvs
qvintvs
r
ra
rabin
race
racer
races
rachael
racial
racing
racum
radar
radetzky
radialis
radiation
radical
radio
radioactive
radix
raf
rafael
rage
rahimna
rahman
raid
raiders
raids
rail
railroad
railway
rain
rainer
rainier
raise
raised
raising
raja
raland
raleigh
rally
ralph
ram
rama
rambling
ramses
ramus
ran
rancho
rand
randolph
random
range
ranger
ranges
ranhu
rank
rankine
ranks
rann
raoul
rapid
rapids
rapper
rard
rare
rarely
ras
raschendorfer
raskjo
rasmus
rasmussen
raster
rat
rata
ratas
ratchet
rate
rates
rather
ratification
ratified
ratifies
ratings
ration
ratusz
ratzinger
rau
rauf
ray
raymond
rað
raþ
rbe
rbeorg
rbeorgas
rbo
rbra
rburg
rburna
rc
rd
rde
rdo
rdon
re
reach
reached
reaches
reaching
reactio
read
reada
readability
readable
readan
reader
readers
reading
readings
ready
reagan
reaht
real
reality
really
realms
rear
rearrange
reason
reasonable
reasonably
reasons
rebecca
rebel
rebelling
rebellion
rebels
rebuke
rec
recall
reccaþ
reccenne
reced
receive
received
receives
receiving
recent
recentchanges
recently
recession
recessus
recipient
recipio
recognised
recognition
recognize
recognized
recognizes
recognizing
recommend
recommendations
recommended
reconstruction
record
recorded
recording
records
recreated
recreation
recruiting
recti
rector
rectus
recycle
red
reddit
rede
redes
redesigned
redirect
redirected
redirects
redrawn
reds
redskins
reduce
reduced
reduction
reed
reeve
reeves
refer
reference
referenced
references
referencing
referendum
referred
referring
refers
reflect
reflecting
reflex
reform
reformation
reformed
reformer
refrain
refresh
refreshed
refugees
refusal
refuse
refuses
regan
regard
regarded
regarding
regardless
regards
regent
reggae
regia
regime
regiment
regina
regio
region
regional
regions
register
registered
registering
registration
regne
regnwyrmas
regol
regolas
regole
regollic
regollicum
regret
regular
regularly
regulations
rehab
rei
reich
reign
reilly
reindeer
reine
reinstate
reinstated
reinstating
rejected
rejoin
reka
relate
related
relates
relating
relations
relationship
relationships
relative
relatively
release
released
releases
relevant
reliable
reliably
relief
religion
religious
relirƿeccendly
rely
remain
remained
remaining
remains
remark
remarks
remember
remembered
remembrance
remigiu
reminder
remis
remisc
remiscan
remisce
remnants
remo
removal
removals
remove
removed
removing
remus
ren
rena
renaissance
renales
renalis
rename
renamed
rend
rendas
rende
render
rendered
rendering
rendes
rendlic
rene
renew
renewal
renewed
renis
renne
reno
reord
repeat
repeated
repeatedly
replace
replaced
replacements
replacing
replica
replied
reply
replying
report
reported
reportedly
reports
repository
represa
represent
representation
representative
representatives
represented
reprove
repu
republic
republican
republika
request
requested
requesting
requests
require
required
requirement
requirements
requires
requiring
rere
res
rescue
rescues
research
researcher
researchers
resemble
reserve
reserves
residence
resident
residential
resigned
resistance
resittend
resittende
resittendes
resolution
resolve
resolved
resort
resorted
resource
resourced
resources
respect
respected
respective
respectively
respond
responded
response
responses
responsibilities
responsibility
responsible
rest
resta
restan
restaurant
restaurants
restdæg
reste
restena
restne
restoration
restore
restored
restricted
restriction
restrictions
result
resulted
resulting
results
resume
retains
retaliation
retardatio
retentio
retirement
retires
retrieve
retrieved
retro
retroactive
return
returned
returning
returns
reunion
reuter
reutlingen
reval
revealed
reveals
reversal
reverse
reversed
reversion
revert
reverted
reverting
review
reviewed
reviewing
reviews
revised
revision
revisions
revisionslider
revival
revolt
revolution
revolutionary
rex
reykjavi
reynolds
rez
reza
reðurhu
reðurs
reþ
rf
rfa
rfas
rfc
rfda
rfor
rfram
rfræðingur
rfæst
rg
rgb
rgen
rgeþing
rgeþinge
rgeþinges
rhaeto
rhe
rhead
rhein
rheumatica
rhi
rhine
rhineland
rhino
rho
rhode
rhodes
rhodesia
rhonchi
rhu
ri
riaj
rian
riaþ
ribbon
ric
rica
rican
ricard
ricardes
rice
ricedom
ricend
rices
rich
richard
riches
richmond
richthofen
ricisce
riciscra
rick
rico
ricsode
ricsoden
ricsodon
ricu
ricum
rida
ride
rider
rides
ridge
ridibundus
riding
ridon
riebeeck
rienne
riffeng
rig
riga
rigadh
right
rights
riht
rihta
rihtan
rihtas
rihtbe
rihte
rihtes
rihtgewrit
rihtlic
rihtor
rihtstefne
rihtti
rihtum
rihtwebbsi
rihtƿebbsi
riley
rim
rima
riman
rimatu
rime
rimere
rimum
rin
rind
rinde
ring
ringa
ringo
rings
rinnan
rinne
rio
riot
rioting
riots
risc
risca
riscan
risce
risces
riscre
riscum
rise
risennesse
rising
risk
risks
rison
rist
rita
ritual
rituals
riu
riuciu
rival
river
rivera
rivers
riverside
rju
rk
rkur
rla
rland
rlande
rlandes
rle
rli
rlic
rlica
rlican
rlice
rlices
rlicre
rlicu
rlicum
rlæ
rmann
rmenn
rmid
rms
rn
rna
rnaman
rne
rnes
rnesse
rnt
rnum
rnun
ro
road
roald
roanoke
robach
robbins
robert
roberts
robertson
robespierre
robin
robinson
robo
robocon
robot
roche
rochester
rock
rockbat
rockefeller
rocket
rockets
rockford
rocks
rockville
rod
rodan
rodanes
rodbeart
rodbert
rodberting
roddy
rode
rodgers
rodor
rodorcræft
rodore
rodorhamor
rodorsceaþel
rodorƿic
rodriguez
rodu
roe
roebuck
rof
rofer
roger
rogers
roi
roland
rold
role
roles
roll
rollback
rolled
rolling
rolls
roma
romam
roman
romance
romania
romanian
romanie
romanisc
romanisca
romaniscan
romanisce
romaniscum
romans
romansh
romantic
romany
romburg
rome
romiscan
rommel
romsdæl
romsdæle
romules
romulus
romvlvs
ron
ronald
rondo
ronnie
roo
room
roosevelt
root
roots
ror
rosa
rosanna
rose
rosenbaum
rosenberg
ross
rossci
rost
rosta
rostan
roste
roswell
roteland
rothschild
rotunge
rouge
rough
roughly
round
rounds
roundtable
route
routed
routine
routledge
rover
row
rowan
rows
roxbury
roy
royal
royalist
royce
roðbeart
roðbeorht
roðem
roðos
rp
rpa
rpi
rr
rra
rramm
rramma
rrammas
rrammba
rramme
rrammri
rrammum
rran
rre
rremann
rrest
rresta
rrestan
rreste
rrihte
rrosta
rroste
rrsta
rrstan
rrste
rrum
rryda
rræ
rs
rsauki
rscipas
rscipe
rscipes
rse
rsecg
rsecga
rsecgas
rsecge
rsecges
rsecgum
rsetl
rsod
rsode
rst
rsta
rstan
rste
rstenfeldbruck
rsto
rsung
rta
rte
rti
rtl
rto
ru
rube
rubel
rubicon
ruby
rudenko
rudit
rudolf
rudolph
rufous
rufus
rugby
ruins
ruiz
rule
ruled
ruler
rulers
rules
ruling
rum
rumæ
run
runa
runes
rung
runga
runge
runic
runner
running
runs
rupert
rur
rural
rush
russa
russe
russel
russell
russena
russia
russian
russisc
russisca
russiscan
russisce
russiscum
russland
russlande
russlandes
russlandisc
russlendisc
russlendisca
russum
rutan
rutgers
ruth
ruthenian
ruþerford
rwanda
rwri
rwæ
ry
ryan
rymbe
ryne
rynek
rynþ
ryzhanovka
rz
rzeka
ræ
ræd
ræde
rædes
rædƿaldes
ræfnede
ræfter
ræg
rænki
ræplingas
ræs
ræste
ræt
rð
rømer
rþ
rþegn
rƿanda
rƿeorc
rƿri
rƿriteras
rƿritere
rƿæ
s
sa
saakashvili
sabbath
sac
saccus
sace
sacked
sacking
sacramento
sacred
sacrifice
sacrificed
sacrifices
sacrificing
sacu
sacunga
sadat
saddam
safari
safe
safety
saforrest
saga
sagar
sage
said
saigon
sailors
saint
sainte
saints
sajak
saka
sake
sakharov
sakura
saladin
salan
salaried
sale
salem
sales
salisbury
sally
salomon
salt
salute
salvador
salvadoran
salvatore
sam
sama
saman
sambia
sambie
same
samfarir
samguk
samnung
samnunge
samoa
samoan
samod
sample
samples
samsung
samsunges
samt
samuel
samueles
samum
samurai
samƿrædnessa
san
sanah
sanc
sanct
sancta
sanctan
sanctas
sancte
sanctes
sancti
sanctus
sand
sanda
sandbox
sande
sandefjord
sandeg
sanders
sandra
sands
sandwich
sandƿi
sandƿic
sanford
sang
sanga
sangas
sangbred
sangcræft
sangcræftmann
sangcræftmanna
sange
sangeras
sangere
sanges
sangestran
sangestre
sanggaderung
sanggaderunge
sanghord
sanghordas
sangum
sangwri
sangƿri
sank
sanka
sans
sanscrit
sanskrit
sanskritisc
sant
santa
santana
santiago
santos
sanȝhordas
sao
sar
sara
sarah
sarajevo
sarawak
saraƿak
sarbo
sarcoma
sardinia
sardiniam
sardinian
sardinie
sare
sark
sarmaticus
sas
sascatcewan
sasha
saskatchewan
satan
satellite
satirist
saturday
saturn
saud
saudi
saudisc
saundersi
saur
savang
savannah
save
saved
saving
savio
savonarola
savoy
saw
sawa
sawyer
saxo
saxon
saxons
saxony
say
saying
says
saþ
sbeorg
sbera
sbila
sbo
sbri
sc
sca
scacaspere
scacasperes
scale
scalemajor
scaleminor
scamu
scan
scandal
scandi
scandinavia
scandinavian
scape
scapulaires
sce
sceadƿe
sceal
sceald
scealdum
sceall
sceallon
scealt
sceanca
sceancan
sceap
sceapp
scearp
scearseax
sceat
sceattȝeƿyrhtod
scedelande
scedelandes
scellaþ
scene
scenes
sceolde
sceoldon
sceort
sceorte
sceortli
sceortne
sceortum
sceot
sceota
scg
sch
scharnhorst
schedule
scheduled
schedules
scheldt
scheme
schlesinger
schloss
schmidt
schoenoprasum
scholar
scholarly
scholars
scholarship
scholarships
school
schools
schu
sci
sciaþ
scield
sciena
science
sciences
scientific
scientist
scientists
scieppend
scieppende
scieppenne
scierte
scild
scinne
scio
scip
scipa
scipe
scipes
scipfe
scipfeðan
scipfierd
scipfierde
sciphere
scipheres
scipheretoga
sciphla
sciphlaford
scipio
scipmenn
scipmi
scipryne
scipu
scipum
scipwicas
scipƿic
scir
scira
scirburg
scire
scirgeþinge
sciringes
scirum
sciþþie
sciþþisc
scle
sclerosis
scli
scmasctimberpæþ
scmasctimberpæþhremming
scmete
scn
sco
scod
scode
scol
scolde
scole
scone
scop
scopas
scopcræft
scopcræfte
scope
scoppan
scopum
score
scored
scort
scorte
scortli
scortnes
scortum
scot
scotburg
scoten
scotia
scotland
scotlande
scotlandes
scots
scott
scotta
scottari
scottas
scottena
scottisc
scottish
scottsdale
scottum
scra
scratch
screen
screens
screenshot
screenwri
screenwriter
scri
script
scripting
scripts
scrobbesbyrig
scrobbesbyrigsci
scroll
scry
scræf
scræling
scrælinga
scrælingas
scrælingum
sct
scta
scte
sctes
scu
scuba
scuban
scufend
sculdorsce
sculon
sculptor
sculpture
scurry
scyld
scyldig
scyle
scyrte
scythia
scythian
scythians
scyttisc
scyttisca
scyttiscan
scyttisce
scyttisces
scyttiscum
scyttsc
scyttsce
scæ
sd
sde
sdo
se
sea
seah
seal
seald
sealde
sealdon
sealh
sealt
sealte
sealterisc
sealterland
sealtunge
sealty
seamless
search
searches
searching
searm
searme
searoburg
searu
searucræft
searucræftes
searusprecend
searusprecenda
searusprecendas
searusprecendum
searƿa
searƿe
searƿum
season
seat
seats
seattle
seax
seaxa
seaxan
seaxe
seaxena
seaxisc
seaxiscan
seaxisce
seaxland
seaxlande
seaxna
seaxum
seaƿ
sebastian
sec
secede
secg
secgan
secgað
secgaþ
secge
secgen
secgenne
secges
secgle
secgð
secgþ
second
secondary
secondas
seconds
secret
secretaries
secretary
sectio
section
sections
securepoll
security
sed
sedan
sede
sedge
see
seeing
seek
seeking
seeks
seem
seems
seen
sefan
sefi
seflaca
segde
segeþ
seglaþ
seglede
segledon
seglian
seglode
segloden
segment
segn
segð
segþ
seid
seine
seized
seizes
selassie
seldan
seldcu
selden
seldon
sele
seleciricesci
select
selected
selecting
selection
selector
selena
selene
self
selfan
selfcƿalu
selfdo
selfe
selffe
selfli
selfne
selfri
selfricsiendlic
selfridge
selfstandendu
selfum
selfwealdende
selfƿeald
selfƿealdend
selfƿealdende
selha
seljuk
sellan
sellende
selling
sells
sem
semi
semicircularis
seminalis
sempronianvs
semyon
sen
sena
senate
senates
senator
senatus
senburg
senc
sencacu
sencte
sencton
send
senda
sendan
sende
sended
sendede
senden
sendenne
sendeð
sendeþ
sending
sendmetera
sendmoltentimber
sends
sendu
sendum
sendung
sendunga
sendunge
sene
seneca
senecan
senegal
senha
senilis
senior
sensation
sense
senshi
sensible
sent
sentai
sentence
sentenced
sentences
seo
seofen
seofenburga
seofentiene
seofon
seofona
seofonbyrig
seofonte
seofonti
seofonum
seofoða
seofoþa
seoh
seolc
seolcscearplyftegedne
seolfor
seolfre
seolh
seolhhuntan
seoul
seoule
seox
seoxe
separate
separated
separately
separation
seperate
september
septimius
septimivs
septimvs
septum
sequel
sequence
ser
sera
seras
serb
serba
serbia
serbian
serbie
serbisc
serbiscan
serbum
serca
serchuk
sere
seremo
seremonaþ
serena
sereri
seres
sergei
sergio
serial
sericus
series
serif
serin
seringa
seringas
seringisc
seringum
serious
seriously
serizawa
serlic
serlican
sern
serne
sernweges
sernƿeg
serosa
serra
serre
serum
serve
served
server
servers
serves
servetus
service
services
serving
servivs
ses
session
sessions
set
sete
setede
setest
seteþ
seth
seti
setja
setl
setla
setlan
setle
setlede
setledon
setloden
setnes
setnesse
sets
sett
settan
settaþ
sette
settede
settedon
setten
settende
settenne
settest
setting
settings
settled
settlement
settlers
setton
settung
settunge
setup
seven
seventeenth
seventy
several
severe
severus
severvs
sex
sexlande
sextiae
sexual
seychelles
seymour
seð
seþ
sf
sflo
sful
sg
sgeard
sgrabarczuk
sgt
sgu
sh
shackleton
shadow
shah
shahr
shakespeare
shakespeares
shall
shamanism
shankbone
shape
shaped
share
shared
shares
sharing
sharon
sharp
shaw
shawnee
she
shearer
sheep
sheer
sheet
sheets
shelter
shenandoah
shenzhou
shepard
shepherd
sherborne
sherman
shi
shield
shift
ship
shipping
ships
shirley
shiro
shishi
shishman
shit
shiva
sho
shocig
shocigte
shociȝte
shock
shod
shogun
shooting
shootings
shore
short
shortcut
shortcuts
shorter
shortly
shot
shots
should
shouldn
shounen
show
showcase
showed
shower
showing
shown
shows
shreveport
shrewbagemihl
shrine
shunzhi
shuster
shute
shuttle
shæf
si
siachen
sibb
sibba
sibbe
siberia
siberie
sic
sicilia
sicilie
sidan
sidaþing
sidaþinga
side
sidebar
sides
sidney
sie
siebenbu
siebrand
siege
siegfried
sieh
siehþ
siemens
siene
sierra
sierwung
sierƿunge
siex
siexe
siexta
siexte
siextiene
siextig
siexum
sig
siga
sige
sigebe
sigeberht
sigefull
sigefæst
sigefæsta
sigehere
sigele
sigeleas
sigelhearwena
sigelhearƿena
sigelhearƿum
sigen
sigene
siges
sight
sign
signal
signature
signatures
signed
significance
significant
significantly
signing
signs
signup
signups
sigum
sigurdsson
sigþe
sihamoni
sihanouk
sihþ
sihþe
siissisoq
sikkim
siko
sikorsky
sildenafil
silent
silesian
silesisc
silla
sillende
silly
siluro
silverbacks
silverstein
sima
simbabwe
simbabƿan
simbabƿe
simeon
similar
similarities
similarity
similarly
simmons
simo
simon
simone
simple
simpler
simplest
simplewp
simplex
simplified
simply
simpson
simpsons
sin
sinai
sinaiticus
sincan
since
sincerely
sind
sindhi
sindhisc
sindon
sing
singan
singapore
singe
singer
singere
singers
singestre
singeþ
singing
single
singular
singunge
singþ
sinhala
sinhale
sinhalisce
sinister
sinking
sinn
sino
sint
sinus
sinȝestre
sio
sioux
sippe
siprage
sir
sire
sirena
sirhan
sirmaland
sirmium
sisavang
sisowath
sister
sisters
sit
site
sites
sitewide
siteþ
sitjandi
sits
sitt
sittan
sittaþ
sitteþ
situ
situation
situations
situs
sive
six
sixta
sixte
sixteen
sixth
sixti
sixtig
sixtigoða
sixty
size
sized
sizes
siðon
siððan
siþ
siþðan
siþþan
siþþin
siȝe
sja
sjo
sju
sk
ska
skal
skammsto
skanderbeg
skater
skaugum
skeleton
skelton
skera
ski
skidmore
skie
skier
skills
skin
skins
skja
skjo
sko
skoðun
skringssalr
skur
skurður
sky
skylab
skype
sl
sla
slagæð
slain
sland
slande
slandes
slandisce
slang
slaughtered
slave
slavery
slaves
slavic
slayer
sle
sleeping
slege
slegill
sleipnir
slendisc
slendiscan
slendisce
slendiscre
sles
sli
slican
slice
slider
slightly
slim
slincendas
slo
slocum
slofacia
slofacie
slofacisc
slofacisce
slofena
slofenia
slofenie
slofenisc
slog
slogon
slovak
slovenia
slovenian
slow
slower
slowly
slum
slæ
sm
sma
smale
small
smaller
smallest
smallpox
smallville
smallvilles
smalra
smalum
smart
smartphone
smartphones
smash
sme
smell
smg
smierest
smierwan
smierƿan
smile
smith
smithsonian
smiþ
smiþþfeld
smo
smoke
smutna
smyrna
smæ
smægden
smæl
smæȝden
sn
sna
snacan
snaccum
snacena
snake
snawhwite
sne
snesse
sni
snille
snooker
snorri
snotingaha
snow
snu
snæ
so
soap
soapbox
sobibor
sobieski
soc
soccer
soccerplex
social
socialism
socialist
socie
society
socn
socrates
sode
sofia
sofiet
sofietan
sofiete
sofietisc
sofietiscan
soft
software
sog
sohted
sohtede
sohtedon
soil
sol
solar
sold
soldier
soldiers
sole
solely
solicitor
solid
solidarity
solis
solitude
solmo
solmonaþ
solmonðes
solo
solomon
solution
solutions
solve
som
soma
somalaland
somali
somalia
somaliland
some
somebody
someone
someplace
something
sometimes
somewhat
somewhere
son
sonata
sonderburg
song
songes
songhord
songs
songwriter
songƿri
sonia
sonora
sons
sony
sonygegyld
soon
sophia
sophie
soprano
sorg
sorge
soria
sorie
sorry
sort
sotho
soto
sought
soul
soultaker
sound
sounds
source
sourced
sources
sous
south
southeast
southern
sovereignty
soviet
soviets
soweto
sox
soyuz
sp
spa
space
spacecraft
spaces
spacing
spain
spam
span
spanish
spann
spared
sparedu
spariende
sparienne
sparking
sparks
spe
speak
speaker
speakers
speaking
spear
spearcatella
spearccræftige
spearctellend
spearctellenda
spearctellendas
spears
special
specialized
specializing
specially
species
specific
specifically
specify
specimen
speculation
speech
speed
speedy
spela
spelan
spelaþ
speliend
spelienda
speliendas
speliendena
spelig
spell
spella
spellas
spelle
spelles
spelling
spellings
spellum
spellƿri
spena
spencer
spend
spending
spene
spenser
spent
spenum
speonisc
speonisce
speonlande
spere
sperm
speyer
spezia
sphincter
spi
spianato
spider
spidermonkey
spiegel
spielvan
spike
spina
spinal
spinalis
spiridon
spirit
spirits
spiritually
spiro
spite
spitu
spjaldhryggur
split
spokane
spoke
spoken
spongiosum
sponsored
sport
sporting
sports
spot
spotsylvania
spotted
spouse
spra
spre
spread
sprecan
sprecað
sprecaþ
sprecend
sprecenda
sprecende
sprecenne
sprecera
sprecungri
spricaþ
spriceþ
spricð
spricþ
spring
springfield
springs
springþ
sprutsen
spryttan
spræ
spræc
spræca
spræce
spræcon
spræcum
sputnik
spy
spying
spyrd
spæc
spærcletellas
spærcletelle
spærcletelles
spærcletellum
sq
squad
squadron
square
squares
squirrelfish
sr
sre
sri
srpskohrvatski
ss
ssa
ssan
ssb
sse
ssedæg
ssr
ssra
ssre
ssum
st
sta
stadium
stadt
stafan
stafas
staff
stafford
staffordshire
stafum
stage
staged
stages
stake
stale
stalfur
stalin
stallman
stamford
stamp
stan
stanbul
stand
standan
standard
standardisation
standardization
standards
standað
standaþ
standend
standende
standeð
standeþ
standing
stands
standunge
stanford
stange
stanisław
stanley
star
stardsen
starf
starfighter
starr
stars
start
started
starting
starts
stas
stasis
state
stated
statement
statements
states
statesman
static
stating
station
stations
statistical
statistics
stats
statue
status
stay
stayed
staying
staða
staðelode
staðelunge
staðol
staðolas
staðolde
staðoldede
staðole
staðoled
staðolede
staðoleden
staðoledon
staðolere
staðolod
staðolode
staðolunge
staþ
staþe
staþol
staþolde
staþolden
staþole
staþoled
staþolede
staþoledon
staþolere
stcirice
ste
steady
steaf
steafon
steal
steald
stealde
steall
stealle
steam
steamboat
steamer
stearc
stearf
stearfon
steda
stedas
stede
stedeheoldere
stedenama
stedes
stedum
steel
stefan
stefn
stefna
stefnas
stefne
stefnum
steinn
stelan
stellan
stellenne
stem
stemmed
stems
stemæssan
sten
stena
stenan
stenc
stend
stende
stendeþ
stendo
stene
stenosis
stent
stenum
stenþ
steorra
steorracræft
steorran
steorrfiscas
steort
step
stephanus
stephen
stephenes
stephens
stepne
steppe
steppes
steps
sterilis
sterni
stes
stesmæssan
stesmæsse
stettin
steve
steven
stevens
steward
stewards
stewart
steþ
sti
sticky
stig
stileca
still
stille
stillehæf
sting
stingum
stingur
stir
stla
stm
stman
stmum
stn
stna
stnan
stnas
stne
stnum
sto
stocc
stoccholme
stock
stockholm
stockton
stod
stoke
stoker
stol
stole
stolen
stoma
ston
stondeð
stone
stones
stonewall
stood
stop
stopped
stoppode
stor
storage
store
stored
stories
storm
stormed
story
stow
stowe
stowlic
stowlicu
stowlicum
stowum
stoƿe
stq
stra
straight
strait
strand
strande
strandum
strang
strangan
strange
stranger
stranges
strangled
strangne
strasznych
strategic
strategy
strauss
stravinsky
straw
stre
stream
streamed
street
streets
strengeste
strength
strengthening
strengðe
strengþe
strengþu
strengþugearwung
stress
strickland
strictly
strictura
strike
strikes
string
strip
strips
striuelin
striuelinsci
strive
strodt
stroke
stromnæs
stromnæsby
stromnæss
stromnæsse
strong
stronger
strongly
struck
structure
structured
struggle
stry
stræ
stræte
strætford
strætforda
sts
stsæ
stu
stuart
stub
student
studenti
students
studied
studies
studio
studios
studium
study
stuff
stum
stund
stunda
stunde
stundum
stunga
stunge
stupid
stur
sturfon
sturla
sturluson
sturm
stuttgart
stvo
sty
stybbanhyð
stycce
styccu
styccum
style
styles
stylesheets
styling
stylistic
styrianne
styriende
styrtan
styrung
styrunge
stæ
stæf
stæfcræft
stæfford
stæffordsci
stæflæ
stæfro
stæfræ
stæle
stænen
stænenum
stængfordes
stæpmæ
stær
stærboc
stære
stæðu
stæþ
su
sub
subclavia
subhas
subheading
subheadings
subject
subjective
subjects
subjunctive
submarine
submarines
submission
submissions
submit
submitted
submitting
subordinate
subreddits
subscribe
subscribed
subscription
subsequent
subset
substantia
substantial
substantially
substitutes
suburb
subway
succeed
succeeded
succeeding
success
successful
successfully
succession
successive
such
sucked
sucre
sudan
sudane
sudanes
sudanisc
suez
sufa
suffered
suffering
sufficient
sufficiently
suffix
suffixes
suffrage
sugar
suggest
suggested
suggester
suggestion
suggestions
suggests
suharto
sui
suicide
suit
suitable
suited
sul
sulcus
suleiman
sullivan
sultan
sum
suma
sume
sumer
sumere
sumes
summaries
summarized
summarizes
summary
summer
summit
summor
sumne
sumor
sumora
sumores
sumorsæ
sumorsæte
sumra
sumre
sumter
sumu
sumum
sun
suna
sunan
sunas
sund
sunday
sunde
sunderland
sunderri
sundor
sundorgeþing
sundorgeþinges
sundorha
sundorli
sundorlice
sundorri
sundorrice
sundorricehad
sundorriht
sundorspearctellendum
sundrod
sundrodland
sundur
sune
sung
sungon
sunk
sunnan
sunnandagas
sunnandæg
sunnandæge
sunne
sunni
sunnlican
sunnlice
sunnlicu
sunnstede
sunrise
sunspider
sunspot
sunstede
sunsunnu
sunu
sunum
sup
super
superficialis
superior
superioris
superiormere
superman
supernatural
superscript
supervises
supper
supplied
supply
supplying
support
supported
supporters
supporting
supports
supposed
suppositorium
supreme
sur
sure
surely
surface
surfaces
surgeon
suriname
surprise
surrender
surrendered
surrendering
surrenders
surrounding
surtur
survey
surveyor
surveys
survive
survived
surviving
surzhyk
sus
susan
suspect
suspected
suspended
suspension
suspicious
sussex
sustainability
sustainable
sustained
susume
sutherland
sutter
suus
suðamerican
suðan
suðdæl
suðdæle
suðeasten
suðeasternum
suðen
suðerne
suðernum
suðwesternum
suþ
suþaustralie
suþdæle
suþeastum
suþen
suþernum
suþgarsecg
suþiege
suþrigum
suþsæ
suþwesten
suþƿealas
sv
svenska
svetoslav
svg
svn
svo
svæði
swa
swamm
swar
swazi
swe
swealt
sweart
sweartbeorg
swearte
sweartæþeling
sweat
sweden
swedes
swedish
sweet
swege
swelc
swelce
sweolande
sweolandes
sweonisc
sweoster
sweostor
swept
swete
swi
swican
swicdo
swicdom
swicdome
swift
swiftnesse
swiftran
swilce
swimmer
swimming
swing
swiss
swissland
swisslande
swisslandes
swissum
switch
switched
switching
switum
switzerland
swiðe
swlyce
swlycum
sword
sworn
swutelode
swylc
swylca
swylce
swylces
swylcum
sy
syc
sycede
sycgum
sydney
sydneyburg
sydneycofa
sydneycofan
sykursy
syla
sylf
sylfe
sylfum
syllable
syllables
syllan
sylli
sylvestris
symbel
symbeldaga
symbeldagas
symbeldæg
symbeldæȝ
symbelhu
symble
symblede
symbol
symbolic
symbols
symmachus
symphony
symphysis
synaspismos
sync
syncing
syncopate
syncopated
synd
synderli
synderlic
synderlican
synderlice
syndrig
syndriga
syndrige
syndriges
syndrigli
syndrigra
syndrigu
syndrigum
syndriȝ
syndriȝes
syndriȝli
syndrome
synna
synnum
synovia
synoð
synoðe
syntax
synthebot
syphilis
syracuse
syrenka
syria
syrian
syrie
sysadmin
sysop
sysops
sysopship
system
systema
systematic
systems
sysylaland
syððan
syððon
sz
szczecin
szn
sæ
sæc
sæcc
sæcce
sæce
sæd
sædenum
sæfe
sæfern
sæferne
sæfernmu
sægde
sægdon
sægeþ
sægþ
sælande
særi
særim
særiman
særime
sæs
sæt
sætern
sæternesdæg
sæternesdæge
sƿa
sƿamm
sƿan
sƿasilande
sƿazi
sƿe
sƿeart
sƿearta
sƿeartan
sƿeartbeorg
sƿeartbeorge
sƿearttægelharan
sƿefn
sƿefne
sƿegn
sƿelc
sƿelca
sƿelce
sƿeoland
sƿeord
sƿeoster
sƿeostor
sƿeotolgeƿrit
sƿeotolian
sƿi
sƿicdo
sƿift
sƿifte
sƿiftlic
sƿiftnesse
sƿilc
sƿilce
sƿilcum
sƿimman
sƿissland
sƿisslande
sƿiðe
sƿlyc
sƿo
sƿulton
sƿummon
sƿutoled
sƿutolede
sƿutoledon
sƿylc
sƿylca
sƿylcan
sƿylce
sƿylcum
sƿæ
t
ta
taal
tab
table
tables
tablets
tabloid
tabs
tacgicastan
tacgice
tachycardia
tacitus
tacitvs
tacn
tacoma
taekwondo
tafla
tag
tagged
tags
tahiti
tai
taiko
tailed
tailor
taipei
taiwan
taiyou
taiƿan
taj
tajikistan
taka
take
taken
takeoff
takes
taking
tala
talbot
talcahuano
talcaƿano
tale
tales
taliban
talk
talking
tallahassee
tallest
talu
talum
tam
tamarin
tamarinbagemihl
tameni
tamer
tamil
tamilas
tampa
tan
tanaka
tandƿearde
tang
tangangicamere
tank
tanker
tanmarket
tann
tannebeorge
tansania
tansanie
tantei
tanweard
tanwearde
tanzania
tanƿeard
tanƿearda
tanƿearde
tao
tap
tape
taprabanan
taprabane
taprobane
tar
tara
taranaki
tarantelle
taranto
taraƿa
target
targeted
tarja
tarnovo
tarsus
tas
task
taskforce
tasks
tasman
tasmania
tasmanian
tasmanie
tasmansæ
tat
tatakae
tatar
tatis
tatsujin
taugakerfi
taunton
taurica
taurican
tax
taxable
taxation
taxed
taxes
taxonomy
tay
taylor
tað
taþ
tball
tballe
tballes
tballte
tberstendas
tbilisi
tchaikovsky
te
teach
teacher
teague
tealdon
teallaþ
tealleþ
team
teams
tears
teau
tece
tech
technical
technically
technology
technopop
tecnolo
tecumseh
ted
tede
tedon
teg
tegan
tehra
tehran
teikn
teimum
teir
teirra
tekkaman
tel
tela
tele
telegram
telegraph
telephone
telescope
televised
television
teleþ
telford
tell
tellað
tellaþ
telling
tells
teltimberægli
telugu
temes
temese
tempe
temperatures
tempest
template
templatedata
templates
templatestyles
temple
temporalis
temporarily
temporary
tempus
temuco
ten
tena
tend
tende
tender
tendo
tene
tenercebrai
tenerife
tenes
teng
tengja
tengsl
tennant
tenne
tennessee
tennis
tennisplegend
tenochtitlan
tense
tensio
tenth
tentum
tenzin
teoh
ter
tera
teras
tere
teres
teresa
tereshkova
term
terminal
terms
ternama
terra
terran
terre
terrible
territorial
territories
territory
terror
terrorist
terry
terter
tervel
tes
tess
test
testament
testamentum
tested
testing
testis
testre
tests
tetricvs
tevik
tex
texas
text
textbook
textbooks
texts
tey
teð
teþ
tf
tferð
tfpi
tg
tgemete
tgr
th
tha
thabo
thaet
thai
thailand
thailande
thailandes
thame
thames
than
thank
thanks
thant
that
thatcher
the
theater
theaters
theatre
thee
their
them
thematic
theme
themes
themselves
then
theodore
theodorus
theodosian
theodosius
theodosivs
theologian
theoretical
theories
theory
there
thereby
therefore
these
theta
they
thick
thief
thila
thilan
thing
things
think
thinking
thinks
third
thirteen
thirty
this
thju
tho
thocig
thomas
thompson
thor
thoracis
thorbecke
thorn
thoroughly
thorpe
those
thou
though
thought
thoughts
thousand
thousands
thrax
thread
threat
threats
three
threw
thriller
throne
through
throughout
throwing
thu
thumb
thumbnail
thumbnails
thunderbolt
thursday
thus
thyroidea
thƿanon
ti
tian
tiananmen
tiber
tiberius
tiberivs
tibet
tibete
tibialis
ticge
ticket
tictator
tictatorscipe
tid
tide
tidgenge
tidwulfes
tie
tied
tien
tiene
tienne
tier
ties
tiflis
tig
tiger
tigerhors
tightly
tigoða
tigres
tigris
til
tilaþ
tilde
tildes
tilfinning
tiliaceus
till
tilþ
tim
tima
timan
timber
timberas
timborƿyrhta
timbre
timbrian
timbrienne
timbrode
timbroden
timbrodon
timbrum
timbrung
timbrunge
time
timeaxis
timeless
timeline
timely
timeout
times
timing
timor
timoshenko
timothy
timoþeus
timur
tin
tina
tinan
ting
tiny
tipperary
tips
tiroƿen
tirpitz
tis
tissue
tit
titan
titanic
title
titles
tito
titul
titus
titvs
tius
tiwesdæg
tiwesdæge
tið
tl
tla
tland
tld
tlds
tle
tli
tlic
tlice
tlimur
tlu
tlum
tlyftballo
tmenn
tmo
tmonaþ
tn
tne
tnesse
to
toba
tobacco
tobago
tobeah
tobysene
toc
tocyme
tod
today
todæg
todæges
tofeoll
togeanes
togecuron
together
toggle
togo
togode
togoland
tok
token
tokuma
tokusatsu
tokyo
told
toledo
toler
tolerated
toli
tolkien
toll
toller
tollgæd
tollund
toln
tom
tomas
tomb
tombaugh
tombs
tome
tommy
tomography
tomorrow
tomtun
ton
tone
tong
tonga
tongan
tongue
tonight
tonnes
tonsillae
tony
too
took
tool
toolbar
tools
toothed
top
topeka
topic
topical
topics
topp
toppe
tor
torcoppe
tornado
tornadoes
torngemo
toronto
torpedo
torpedoed
torr
torras
torre
torrijos
tortola
tosce
toshiro
tostig
total
touch
tour
tourism
tourist
tournament
tours
toward
towards
tower
town
towns
township
toþegnung
toþegnunge
toƿeard
toƿeardes
tr
tra
trace
tracia
tracie
track
tracking
tracks
traction
tractus
trade
trademark
trading
tradition
traditional
traditionally
trafalgar
traffic
tragedy
traht
trahtas
trahtbo
trahte
trahtunga
traiano
traianvs
trail
train
training
trainings
trains
tramet
trameta
trametas
tramete
trametes
tran
trang
trans
transatlantic
transcontinental
transcription
transformed
transformers
transforming
transient
transistor
transit
transition
transitional
transjordan
transl
translate
translated
translates
translatewiki
translathon
translating
translation
translations
translator
translators
transliterated
transplant
transport
transportation
transporting
transvaal
transversum
transwikied
trasimene
trauma
travel
travels
traversayi
tre
treason
treasury
treat
treated
treatise
treatment
treaty
trebonianvs
treddan
tree
trees
trek
trenchant
trent
trente
tres
trevor
tri
triage
trial
trials
triangle
tribes
tribunal
triceps
trichechidae
trichechus
tried
tries
trieste
trigger
triggered
trigraph
trincomalee
trindade
trinity
trio
trip
triple
triplet
triplets
tripoli
tris
tristan
tristrames
triton
trivia
trivial
trizek
tro
trochlea
trois
trolls
troms
tromsi
trooper
troops
trophia
trophy
tropical
trotskig
troubadour
trouble
troubles
troy
tru
truck
true
trujillo
truly
trum
truman
trump
truncus
trung
truso
truss
trussice
trussisc
trussisce
trussland
trusslande
trust
trusted
trustee
trustees
truth
try
trying
trymminge
trzeba
ts
tsar
tscipe
tscipes
tsend
tsipras
tsman
tsonga
tst
tsunami
tsƿana
tt
ttan
ttar
ttarglo
tte
tten
ttera
ttgeheald
tti
ttilvo
ttir
tton
ttu
ttur
ttvo
tu
tuba
tubae
tube
tuberculosis
tuberculum
tubulus
tucker
tucson
tude
tudes
tudor
tudoryld
tuesday
tufalu
tuidi
tul
tulas
tule
tulsa
tulæt
tum
tumor
tun
tung
tunga
tungan
tunge
tungla
tunglas
tungles
tungol
tungolcræft
tungolæ
tungtramet
tungum
tunguska
tunica
tunis
tunisia
tunnel
tupolev
tur
turbo
turcas
turce
turcena
turcisc
turciscan
turcisce
turciscum
turcland
turclande
turclandes
turcmenistan
turcum
turice
turin
turkey
turkish
turkmenistan
turn
turned
turner
turning
turrets
tuscania
tuscanie
tutorial
tutorials
tv
tveir
tvi
tvo
twa
twafeald
twe
tweard
twearda
twearde
tweardlice
twegen
twegra
twelf
twelfta
twelftan
twelve
twentig
twentigoða
twenty
tweontig
tweora
twi
twice
twifeald
twin
twinn
twist
twitan
twitter
twl
two
twæ
twæm
ty
tybingen
tybingenes
tybinȝen
tygelwi
tykkara
tykkum
tyler
tyne
type
typeface
types
typeset
typewriter
typical
typically
typing
typo
typography
typos
tyson
tz
tæ
tæcn
tæfingstoc
tæfl
tæfleras
tæg
tægl
tæglas
tægle
tæl
tælmearc
tæppa
tæpped
tær
tætta
tæȝcƿondo
tþ
tþo
tƿa
tƿafeald
tƿe
tƿeard
tƿearda
tƿearde
tƿeardlice
tƿeg
tƿegen
tƿegra
tƿelf
tƿelfta
tƿelftan
tƿentig
tƿentigoða
tƿentigƿintrum
tƿentiȝƿintrum
tƿeolf
tƿeontig
tƿeonum
tƿeora
tƿeorp
tƿeȝen
tƿige
tƿinsti
tƿintorra
tƿintorras
tƿita
tƿorpen
tƿæ
tƿæm
u
ubuntu
ucero
ucoc
ucocproject
ucra
ucrægna
ucrægnan
ucrægne
ucrægnisc
ucrægnisce
udo
ue
uefa
uemg
uenus
uermont
uespers
uesuuius
uetersen
ufan
uferran
ufmg
ufor
uganda
ugandan
ugly
ui
uictor
uictoria
uictoriamere
uictoriameres
uictorie
uigenna
uigennan
uincentius
uirginia
uirginie
uk
ukraine
ukrainian
ul
uladstir
uladstires
ulcus
ulm
ulnaris
ulpio
ulrich
uls
ulster
ultimate
ultimately
ultra
ulvaeus
ulysses
um
umberto
umbilicalis
umm
un
una
unable
unacceptable
unanimously
unbiased
unblo
unblock
unblocked
unc
unce
uncer
uncertain
uncit
unclear
uncommon
uncovered
uncu
und
undan
unde
undelete
undeleted
undeletion
under
underburg
underbyrig
undercne
undercyning
undercynn
undercynna
undercynne
underdæ
undere
underendebyrdnesse
underfangen
underfe
underfeng
underfo
underforesittend
undergann
underginnunga
underground
undergrund
undergunnen
undergunnon
underha
underran
underri
underrice
underrices
underriciu
underricu
underset
undersi
underspræ
understand
understandable
understanden
understanding
understendest
understood
undersæ
undersæba
undertaken
underwater
underworld
underwæter
underþe
undi
undir
undo
undrc
une
unemployment
unesco
unexpected
unfortunately
unfriþ
unfriþe
ung
ungara
ungarisc
unge
ungebu
ungecnawen
ungefe
ungeli
ungemiscodum
ungemæ
ungera
ungere
ungeriscan
ungerland
ungerlande
ungerlandes
ungerum
ungeþe
ungeƿuneli
unguis
unhefig
unicef
unicode
unification
unified
uniform
unifying
uninflected
union
unions
unique
unit
united
units
unity
universal
universe
universidad
universidade
universita
universities
university
unix
unknown
unless
unlike
unlinked
unlæne
unmarried
unmeaht
unnan
unnecessary
uno
unofficial
unprotect
unprotected
unregistered
unrelated
unri
unræ
unræd
unsafe
unspe
unstearc
unsubscribe
unsuccessful
unsuccessfully
until
unusual
unverifiable
unwæ
unæ
unƿedere
unƿena
unƿæ
unȝefe
unȝeþe
uokalani
up
upa
upcanada
upcoming
update
updated
updates
updating
upedwi
upgrade
upgraded
uphebbinge
uphebbung
uphebbunge
upload
uploaded
uploading
uploads
uploadwizard
upon
upp
uppan
upper
uppercase
upphaf
uppre
uppsala
upptaka
upright
uprising
upset
upstigei
upstream
ur
uraemia
uranus
urban
urbanec
urdu
ure
urethrae
urgent
uri
urinae
urinariae
url
urls
uruguay
uruquaria
us
usa
usability
usable
usage
usbecistan
usd
use
used
useful
user
username
usernames
userpage
users
uses
using
usmar
usp
uss
ussr
usual
usually
usurper
ut
uta
utah
utan
utanwearde
utberstendes
utc
uteri
uterinae
utf
utgeaf
utgiefe
utgiefu
utilities
utility
utrecht
utwearda
utweardlican
utweardlice
utƿeardlican
uu
uwen
uz
uzbek
uzbekistan
uzumaki
v
va
vaccine
vacuum
vagina
vaginae
vaginalis
vain
valaravans
valdivia
vale
valens
valentina
valentinian
valentinianvs
valera
valeri
valerian
valerianvs
valerivs
valgus
valhalla
vali
valiant
valkyrjur
vallejo
valletta
valley
valparaiso
valse
valuable
value
values
valva
vampire
van
vancouver
vandal
vandalarius
vandalisation
vandalise
vandalism
vandalized
vandals
vandringsman
vanguard
var
variable
variables
variant
variants
variatio
variation
variations
varied
varies
variety
various
varlaam
varnent
varnum
vary
varying
varðveita
vas
vasa
vasco
vasileva
vasily
vasorum
vast
vatican
vatn
vatthana
vaudeville
vaux
ve
vec
vector
vefur
vegas
vegetarian
vegna
vehicle
veikur
veins
vel
veliko
vena
venda
vends
venice
venlo
venter
ventriculi
ventriculus
venue
venues
venus
ver
vera
verb
verbs
verde
verifiability
verifiable
verified
verify
verizon
verki
vermont
veronica
verrazano
versailles
version
versions
vertebrae
vertebralis
vertical
verus
vervs
very
vesica
vesicae
vesicula
vespasian
vespasianvs
vesta
vestibular
veteran
veterans
veto
vez
vi
via
vibivs
vibrations
vice
vicente
viceroy
vicksburg
victim
victor
victoria
victorinvs
victory
video
videos
vie
vienna
vienne
vientiane
viet
vietnam
vietnames
vietnamese
view
viewed
viewer
viewing
viewpoints
views
viharo
vii
viii
vik
viking
vikipedi
vikipediya
viktor
villa
village
villages
villar
villarrobledo
villeneuve
vilnius
viminale
vimy
vin
vincent
vinci
vindicationi
vinitharius
vinstri
viola
violate
violated
violation
violations
violence
violent
violently
violin
violinist
viper
viral
virgin
virginia
virginian
virginie
virtual
virtually
virus
virȝinian
vis
visceralis
viscount
visibility
visible
vision
visit
visited
visitor
visnun
visokoi
vissulega
vista
visual
visualeditor
visualeditordid
visually
vit
vita
vitacura
vital
vitellivs
vitro
vitrum
vivo
viz
við
viðbragð
vlad
vladimir
vladislav
vle
vlpivs
vls
vo
vocal
vocalist
voice
voicelugger
voices
voivodscip
voivodscipe
voivodscipu
vojvodina
vol
volcanic
volcano
volcanoes
volleyball
volume
voluntarily
voluntary
volunteer
volunteering
volunteers
volvsianvs
vomitus
von
vor
vote
voted
voter
voters
votes
voting
vowel
vowels
voyage
voyager
vs
vulcan
vultwulf
vulva
vun
vv
vyazma
vysokaya
w
wa
waco
wade
wage
wages
wagner
wagon
wailers
wait
waited
waiting
wake
wales
walesa
walhshalh
walk
walker
wall
walla
wallaby
wallace
wallis
walloon
walpole
walt
walter
walther
wambach
wan
waneting
wang
want
wanted
wanting
wants
war
wara
waracy
warburg
warcraft
ward
warera
warfare
warhol
warienne
warmly
warn
warner
warning
warnings
warrant
warren
warring
warrior
warriors
wars
warsaw
warsawes
warship
warships
wartime
warwick
was
wascisc
washington
waste
wat
watch
watchdogs
watched
watching
watchlist
watchlists
water
watergate
waterloo
waters
watertown
waticanburg
watson
watt
watts
wave
waves
waw
way
wayne
ways
wazi
waþ
wałe
wb
wdre
wdu
we
weak
weala
wealas
wealcdre
wealceras
wealcere
weald
wealda
wealde
wealdend
wealdendas
wealdende
wealdenne
wealdes
wealdse
wealdsecend
wealdum
wealh
weall
weallesende
wealth
wealum
weapon
weapons
wear
weard
weardan
weardaþ
weardes
weardhla
weardon
weardscipe
wearg
wearp
wearð
wearþ
weather
weax
weaxan
weaxaþ
weaxen
weaxunge
web
webb
webbe
webbnamena
webbse
webbsi
webbstede
webbþegnto
webfonts
webpage
website
websites
webstede
webster
wedding
weder
wedere
wednesday
week
weekend
weekly
weeks
ween
weenglisce
weevil
weg
wege
wehrmacht
wei
weight
weights
weimar
wel
wela
welcome
welcoming
welcu
welig
well
wella
welle
wellesley
welling
wellingatu
wells
welsh
welweorces
wen
wende
wendede
wendelsæ
wendelsæs
wendla
wendlum
wendon
wene
wenglisc
wenglisce
went
wenta
wentworth
wenum
weodmo
weodmonað
weoforwi
weoforwicburg
weonoðland
weorc
weorca
weorce
weorcendebyrdnessa
weorces
weorcrene
weorcsearu
weorcum
weorcung
weorcunga
weorcunge
weorcwri
weorcwrita
weorolde
weorpan
weorpenne
weorðan
weorðaþ
weorþ
weorþan
weorþanne
weorþaþ
weorþe
weorþod
wer
wera
weras
werbula
werder
were
weres
werli
werlic
werner
werod
werodas
werum
wes
wesan
wesenne
wesley
wessex
wessingatu
west
westan
westdæ
westdæl
westdæle
weste
westen
western
westernan
westerne
westernum
westgermanisca
westgotena
westhealf
westindi
westminster
westmynster
westmynstre
westnorþen
westriman
westro
westseaxe
westseaxna
westseaxum
westslavisca
westsæ
westsæs
westum
westweard
wf
whale
whales
whaling
what
whatamidoing
whatever
wheat
wheel
when
whence
whenever
where
whereas
wherein
wherever
whether
which
whichever
while
whilst
whirlpool
whiskey
whistles
white
whitehall
whites
whitlam
whitman
whitney
who
whole
whom
whose
why
wi
wic
wichita
wici
wicingas
wicingum
wicipedia
wicipæ
wickedly
wide
widely
wider
widespread
widow
width
wie
wielisc
wien
wiernan
wiernde
wierþ
wiext
wif
wife
wig
wiga
wigali
wigan
wige
wigtu
wiht
wihta
wihtum
wii
wiki
wikibo
wikibooks
wikidata
wikieval
wikifruma
wikifunctions
wikimania
wikimedia
wikimediafoundation
wikimedian
wikimedians
wikinews
wikip
wikipe
wikipedia
wikipedian
wikipedians
wikipedias
wikipedie
wikipedija
wikiproject
wikiprojects
wikipæ
wikipædia
wikiquote
wikis
wikisource
wikisources
wikispecies
wikitech
wikitext
wikiversity
wikivoyage
wikivoyages
wiktionary
wilcume
wild
wilda
wilde
wildes
wildne
wildra
wildre
wildu
wildum
wilhelm
wilkes
will
willan
willaþ
willcume
wille
willelm
willelmes
willem
william
williams
willie
willing
willingness
willis
wills
willy
wilmington
wilson
wilt
wiltu
win
winchester
wind
window
windows
winds
windsor
wine
wing
wings
winnan
winner
winners
winnie
winning
wins
winspector
winston
wintanceastre
winter
winterfylleð
winterfylleðe
winterfylleðes
winterfylleþ
winterfylleþe
winterfylleþes
winterlang
winteryld
wintra
wintre
wintrum
wiosna
wireless
wisan
wisconsin
wisdom
wise
wish
wishes
wishlist
wisle
wiste
wit
wita
witan
witangemot
witch
witches
wite
witen
witena
witenagemo
witenagemot
witenagemota
witenagemotas
witenagemote
witenagemotes
with
within
without
witnesses
wizard
wið
wiþ
wiþcweðan
wiþinnan
wiþnemnunge
wiþsacen
wiþu
wka
wle
wli
wlic
wlica
wlice
wlicu
wlitas
wm
wmde
wmf
wn
wne
wnod
wnyw
wo
wodan
woden
wodenhelm
wodening
wojak
wojciech
wolde
woldon
wolf
wolfgang
wolfsburg
wolves
woman
women
womensprosoccer
won
wonder
wonderful
wondering
wongas
wood
woodard
wooden
woodrow
woods
wool
worcester
word
worda
wordbe
wordbo
worde
worden
wordhord
wording
words
wordum
worhte
work
workboard
worked
workers
workflow
working
works
workshop
world
worldwide
worms
worry
worse
worship
worst
worth
woruld
worulddæ
worulde
woruldes
woruldgu
woruldguþe
woruldwi
wotan
would
wouldn
wound
wounded
wounds
wovel
wp
wps
wpwp
wra
wrat
wrath
wre
wreck
wren
wrestler
wrexham
wri
wright
writ
write
writer
writere
writers
writes
writing
written
writtinga
writung
writweb
wrixlfo
wro
wrohtede
wrong
wrongly
wrote
wræ
wræcce
wsæ
wt
wtc
wtf
wu
wuce
wucu
wucum
wuduland
wudustocce
wuhanes
wulf
wulfhere
wulfru
wum
wunaþ
wundor
wung
wunge
wungplega
wungplegan
wungplegto
wunian
wuniaþ
wunig
wunode
wunodon
wuodan
wurdon
wusa
wusc
www
wy
wyatt
wynn
wyoming
wyrcan
wyrcaþ
wyrcend
wyrcende
wyrceþ
wyrcþ
wyrd
wyrhtan
wyrt
wyrta
wyrte
wyrtgemang
wysce
wæ
wægn
wægnas
wæl
wælfeld
wælfelde
wæpnas
wære
wæringsci
wæron
wæs
wæsc
wæstm
wæstma
wæstmas
wæter
wætere
wæteres
wæterfugolas
wætertygas
wætertyge
wæterweg
wæterþoðer
wþ
wł
władysław
x
xa
xbox
xeno
xh
xhamster
xhosa
xi
xia
xii
xiii
xiiii
xiv
xl
xp
xtur
xv
xvi
xviii
xx
xxx
y
yacht
yad
yahoo
yale
yamasaki
yamato
yana
yankees
yasser
yasutaka
yczenie
ye
yeager
yeah
year
yearly
years
yellow
yeltsin
yes
yet
yfel
yfele
yfelli
yfir
yfle
yg
ygg
yggdrasil
yi
yitzhak
yld
yldan
ylde
yldo
yldum
ymb
ymbcyme
ymbe
ymbenama
ymbfeng
ymbfo
ymbga
ymbhabbende
ymbhammen
ymbhwyrft
ymbsce
ymbset
ymelan
ymele
ymen
ymma
yn
ync
ynca
yncas
ynce
yndia
ynglinga
yo
yogh
yom
yonkers
york
yorktown
yosemite
yoshimitsu
you
young
younger
youngest
your
yours
yourself
youse
youth
youtube
yr
yrþlingas
yspanie
yst
ytra
ytri
ytum
yu
yuan
yucatan
yue
yugoslavia
yuka
yuke
yuki
yuku
yulia
yume
yun
yuri
yurik
yuuka
yuusha
yves
yyyy
z
za
zachary
zagreb
zaian
zaire
zama
zamek
zamenhof
zane
zanzibar
zapata
zappas
zaragoza
zavodovski
zaza
zdro
zealand
zedong
zef
zelda
zeno
zeppelin
zerg
zero
zexu
zh
zhang
zhao
zhengzhou
zhou
zi
zoe
zog
zola
zone
zones
zoo
zoom
zotero
zu
zubat
zulfikar
zulu
zuse
zwingli
{
|
}
~


¡
£
¦
§
©
ª
«
­
®
¯
°
±
²
³
´
·
¹
»
¼
½
¾
¿
×
ß
æ
æa
æac
æadweard
æbbandun
æced
æcer
æcrum
æcs
æcsa
æd
ædgar
æf
æfen
æfer
æfre
æftemesta
æfter
æfteran
æfterfolgode
æfterge
æftergenga
æftergengan
æftergengde
æftermesta
æftermestan
æftermeste
æftermæ
æfterra
æfterran
æfterre
æfterrum
æfterti
æfterweard
æfterþæ
æfterƿeard
æfterƿearde
æfæstnes
æfæstnesse
æge
ægeles
ægelesburh
ægles
ægli
ægru
ægrum
ægypt
ægypte
ægyptes
ægyptisc
æht
æhte
æhtendebyrd
æl
ælc
ælce
ælces
ælcu
ælcum
ælde
ældu
ælf
ælfbeorht
ælfe
ælfre
ælfred
ælfrede
ælfredes
ælfri
ælfric
ælfƿine
ælfƿines
ælle
ælmer
ælmæ
ælmæst
ælric
æltæ
ælweardby
æm
æneid
ænglisc
ænglisce
ængliscum
ænig
ænigne
ænigum
æppel
æppelcyrnel
æppelle
ær
ærest
æreste
æriþrea
æriþrean
æror
ærra
ærre
ærrest
ærresta
ærrestan
ærreste
ærror
ærrsta
ærrste
ærum
æs
æsc
æscas
æscinga
æscum
æst
æt
ætbyrst
ætbyrstede
ætbystede
ætfang
ætfo
ætforan
ætgædere
ætgædre
æthelbald
æthelfled
æthelre
æthelred
æthelwulf
æti
ætla
ætlan
ætsacunga
ætsomne
ættreocum
æx
æxgealgan
æð
æða
æðelbryht
æðelbryhtes
æðele
æðelflæ
æðelgy
æðeling
æðelinga
æðelinges
æðelræ
æðelræd
æðelsta
æðelwulf
æðelþryþ
æðelƿulf
æðm
æðmhe
æðmlyft
æðmlyfte
æþela
æþelbeorht
æþele
æþelha
æþelic
æþelice
æþeling
æþelinga
æþelingas
æþelinge
æþelinges
æþelred
æþelræd
æþelrædes
æþelstan
æƿare
æƿielme
ð
ða
ðaffrica
ðaffrican
ðaffrice
ðaffricisc
ðam
ðamerica
ðamerican
ðan
ðane
ðar
ðara
ðarbo
ðas
ðaþ
ðde
ðdon
ðdæ
ðdæl
ðe
ðecelia
ðed
ðede
ðegn
ðegnede
ðegnunge
ðel
ðelbald
ðemesta
ðen
ðend
ðendum
ðene
ðenne
ðenscipe
ðenscipes
ðeos
ðer
ðera
ðeran
ðere
ðeres
ðerhe
ðerli
ðern
ðerna
ðernan
ðerne
ðernes
ðernmest
ðernmesta
ðernra
ðernre
ðernum
ðerplega
ðerra
ðerre
ðeru
ðerum
ðes
ðestre
ðexan
ðexe
ðexum
ðeþ
ðga
ðhe
ðheafod
ðhere
ðhlo
ði
ðian
ðider
ðin
ðine
ðing
ðinn
ðir
ðis
ðisre
ðisse
ðisses
ðissum
ðkynja
ðla
ðle
ðleysi
ðmo
ðna
ðnan
ðne
ðnessa
ðnesse
ðnu
ðnum
ðod
ðon
ðone
ðonne
ðor
ðost
ðoste
ðostena
ðr
ðra
ðran
ðras
ðre
ðreat
ðres
ðri
ðrie
ðrim
ðroði
ðru
ðrubo
ðruha
ðrum
ðscipe
ðscipu
ðscipum
ðsju
ðu
ðum
ðung
ðunge
ður
ðurh
ðva
ðvabo
ðvahju
ðvar
ðvasarkmein
ðvaspenna
ðvi
ðwig
ðy
ðæ
ðæge
ðæm
ðær
ðærbe
ðære
ðærin
ðærof
ðæs
ðæt
ðæxli
ððe
ðþry
ðƿeard
ðƿest
ðƿestdæ
ðƿesternum
ðƿulf
ø
þ
þa
þafaþ
þaffrica
þaffrican
þaffrice
þafrican
þam
þamerican
þan
þanc
þancas
þancie
þanne
þannig
þanon
þara
þas
þat
þatcher
þaustralia
þaustralie
það
þbe
þcarolina
þcore
þcorean
þcræft
þcræftes
þdakota
þde
þdæ
þdæl
þdæle
þe
þeah
þearf
þearfe
þearle
þec
þeceþ
þed
þede
þegn
þegnas
þegnaþ
þegndo
þegne
þegned
þegnede
þegneð
þegneþ
þegnode
þegnscipe
þegnto
þegnum
þegnung
þegnunga
þegnunge
þegnungsci
þeirri
þekkja
þekktur
þel
þelamearc
þen
þence
þencenne
þenceþ
þende
þenden
þensla
þeod
þeoda
þeodacynewise
þeode
þeoden
þeodena
þeodenri
þeodisc
þeodisce
þeodisclande
þeodisclandes
þeodlic
þeodlice
þeodmær
þeodoros
þeodosia
þeodric
þeodricing
þeodscland
þeodsclande
þeonon
þeos
þer
þern
þernan
þerne
þernes
þernmestan
þernmeste
þernum
þes
þeses
þet
þfietnam
þfietnames
þfolc
þfolce
þgeorgia
þgeorgie
þhealfe
þhjaltland
þhlo
þi
þicce
þiccnes
þiccum
þicnesse
þider
þincþ
þing
þinga
þinge
þinges
þingum
þis
þisne
þisra
þisre
þissa
þisse
þisses
þissum
þisum
þja
þjo
þland
þlande
þle
þlendisc
þli
þlice
þm
þmeore
þmo
þmonaþ
þne
þnes
þnesse
þo
þoftscipe
þoftscipes
þohte
þolede
þomas
þon
þonan
þone
þonne
þor
þorfte
þorfton
þorn
þorp
þorpas
þorpe
þorpes
þorpƿare
þoðer
þra
þrace
þran
þre
þreat
þreatas
þreate
þrengsli
þreo
þreora
þres
þresc
þri
þridda
þriddan
þridde
þriddum
þriding
þrie
þrige
þrigum
þrim
þrimilce
þrimilcemo
þrimilcemonað
þrimilcemonaþ
þrines
þrinesse
þringaþ
þritig
þritigoða
þro
þroti
þru
þrum
þrummas
þry
þrym
þrysmede
þræ
þsandwic
þsandƿi
þsandƿic
þsang
þsci
þscip
þscipe
þscipu
þseaxe
þseaxna
þseaxum
þslavisca
þsudan
þswe
þsæ
þtu
þtun
þu
þum
þung
þunor
þunres
þunresbeorg
þunresdæg
þunresdæge
þunreshæfen
þurfdon
þurfe
þurfon
þurfton
þurh
þurhstandende
þurhsto
þurhte
þurhu
þus
þusanda
þusend
þusenda
þvag
þvagblo
þvageitrun
þvagi
þvagla
þvagra
þvi
þwe
þwita
þwitan
þy
þyle
þyncaþ
þynceþ
þyncþ
þyrel
þyringa
þyringum
þyrla
þyrlas
þyrscru
þyrsmod
þyrssƿiþ
þyrssƿiþes
þæ
þæce
þægilegur
þæm
þæn
þær
þæra
þærbe
þære
þæreft
þærfor
þærin
þærmid
þærof
þærofer
þæron
þærymbe
þæræfter
þæræt
þæs
þæt
þætte
þþe
þþu
þþum
þƿe
þƿeala
þƿealas
þƿeard
þƿest
þƿestan
þƿestdæ
þƿesten
þƿestern
þƿesternre
þƿesternum
þƿestum
þƿi
þƿita
đ
đa
đo
ĳ
ł
łobez
łobzie
ŋ
œ
ſ
ƕ
ƿ
ƿa
ƿacca
ƿada
ƿade
ƿaes
ƿala
ƿaldere
ƿallace
ƿamblic
ƿan
ƿana
ƿang
ƿann
ƿara
ƿaracy
ƿare
ƿarren
ƿarsaƿ
ƿaru
ƿas
ƿascisc
ƿashington
ƿatson
ƿaþ
ƿbordfarung
ƿclæ
ƿdre
ƿe
ƿealcdre
ƿeald
ƿealda
ƿealdan
ƿealde
ƿealdend
ƿealdendas
ƿealdende
ƿealdendes
ƿealdes
ƿealdhere
ƿealdli
ƿealdse
ƿealdum
ƿealdung
ƿealh
ƿeallum
ƿealum
ƿear
ƿeard
ƿeardas
ƿeardba
ƿearde
ƿeardenne
ƿeardes
ƿeardon
ƿeardscipe
ƿeardum
ƿearman
ƿearmum
ƿearp
ƿearð
ƿearþ
ƿeax
ƿeaxan
ƿeaxaþ
ƿeaxenne
ƿeaxung
ƿebb
ƿebbes
ƿebbnamena
ƿebbsi
ƿebbstede
ƿebstedas
ƿebstede
ƿede
ƿeder
ƿeg
ƿegas
ƿege
ƿeges
ƿeggesi
ƿegunge
ƿel
ƿelan
ƿelcu
ƿelig
ƿell
ƿen
ƿena
ƿend
ƿendan
ƿendas
ƿende
ƿended
ƿendeldæ
ƿendelhere
ƿendelsæ
ƿendisc
ƿendla
ƿendlas
ƿendlum
ƿendon
ƿendum
ƿendung
ƿendunga
ƿene
ƿenglisc
ƿengliscan
ƿenglisce
ƿengliscum
ƿenne
ƿenodisc
ƿeoferƿicceastre
ƿeoforƿi
ƿeoforƿicburg
ƿeolcdre
ƿeold
ƿeonoðland
ƿeorc
ƿeorca
ƿeorcan
ƿeorce
ƿeorced
ƿeorcede
ƿeorcendebyrdness
ƿeorcendebyrdnessa
ƿeorcendebyrdnesse
ƿeorces
ƿeorchu
ƿeorcode
ƿeorcum
ƿeorcƿrithyrst
ƿeorcƿrithyrste
ƿeorpan
ƿeorpenne
ƿeorðan
ƿeorðaþ
ƿeorðe
ƿeorðende
ƿeorðenne
ƿeorðes
ƿeorþ
ƿeorþan
ƿeorþe
ƿeorþenne
ƿeorþlic
ƿeorþlica
ƿeorþlicnesse
ƿer
ƿera
ƿeras
ƿere
ƿerede
ƿeres
ƿeriaþ
ƿerisc
ƿerli
ƿerlic
ƿernum
ƿerod
ƿerodas
ƿerum
ƿes
ƿesan
ƿesend
ƿesende
ƿesenne
ƿest
ƿestaffrice
ƿestan
ƿestdæ
ƿestdæl
ƿestdæle
ƿeste
ƿesten
ƿestern
ƿesterna
ƿesternan
ƿesterne
ƿesternes
ƿesternmeste
ƿesternre
ƿesternum
ƿestes
ƿestgermanisc
ƿestgotan
ƿesthealf
ƿesthealfe
ƿestindi
ƿestmynster
ƿestmynstre
ƿestofer
ƿestre
ƿestri
ƿestseaxe
ƿestseaxena
ƿestseaxna
ƿestseaxum
ƿestsu
ƿestsæ
ƿestum
ƿestþe
ƿestƿeard
ƿeþ
ƿeȝ
ƿgefundenland
ƿgefundenlande
ƿhle
ƿi
ƿic
ƿicas
ƿiccehuntestre
ƿice
ƿicibo
ƿicigeƿeorc
ƿicing
ƿicingas
ƿicipæ
ƿicu
ƿicum
ƿidsið
ƿielisc
ƿielle
ƿielm
ƿielt
ƿiernan
ƿiernde
ƿiernode
ƿierþ
ƿierþþ
ƿiext
ƿiexþ
ƿif
ƿig
ƿiga
ƿigan
ƿige
ƿigreceastresci
ƿiht
ƿihta
ƿihte
ƿihtgils
ƿihtum
ƿikibo
ƿikimedia
ƿikipæ
ƿilcumani
ƿilcume
ƿild
ƿilda
ƿilde
ƿildes
ƿildne
ƿildra
ƿildre
ƿildu
ƿildum
ƿile
ƿilhelm
ƿill
ƿillan
ƿillaþ
ƿille
ƿillelm
ƿillelme
ƿillelmes
ƿillelmeshæfen
ƿilliam
ƿillisi
ƿilson
ƿiltu
ƿiltunsci
ƿind
ƿinde
ƿindelso
ƿindig
ƿindleso
ƿinedhere
ƿinlas
ƿinn
ƿinnende
ƿinston
ƿinstran
ƿintanceaster
ƿinter
ƿintera
ƿintere
ƿinterfylleð
ƿinterfylleðe
ƿinterfylleðes
ƿinterfylleþ
ƿinterfylleþes
ƿinterlang
ƿinterti
ƿintra
ƿintre
ƿintrum
ƿiogoraceastre
ƿisc
ƿisconsin
ƿist
ƿit
ƿita
ƿitan
ƿitancræfte
ƿitangemo
ƿiten
ƿitena
ƿitenagemo
ƿitenagemot
ƿiton
ƿittenbeorge
ƿitum
ƿið
ƿiðerƿinnung
ƿiðerƿinnunge
ƿiðfeaht
ƿiðu
ƿiþ
ƿiþcƿeðan
ƿiþfeohtere
ƿiþinnan
ƿiþsto
ƿiþȝefeoht
ƿla
ƿle
ƿli
ƿlic
ƿlican
ƿlice
ƿlicu
ƿlicum
ƿna
ƿne
ƿo
ƿod
ƿode
ƿoden
ƿolcnu
ƿold
ƿolde
ƿoldon
ƿole
ƿong
ƿongum
ƿonung
ƿoolf
ƿord
ƿorda
ƿordbe
ƿordbo
ƿordcƿide
ƿorde
ƿordes
ƿordhord
ƿordli
ƿordstæ
ƿordum
ƿorhte
ƿorhton
ƿorludgu
ƿorn
ƿorodon
ƿoruld
ƿoruldbehandolstede
ƿoruldc
ƿoruldceampscipe
ƿorulddæ
ƿorulddæles
ƿorulde
ƿoruldes
ƿoruldgu
ƿoruldhandelstede
ƿoruldlic
ƿoruldri
ƿoruldtre
ƿoruldƿi
ƿra
ƿre
ƿreccung
ƿregendlic
ƿrenoc
ƿrenoces
ƿri
ƿrite
ƿriten
ƿritere
ƿro
ƿrohtede
ƿræcce
ƿræce
ƿræþ
ƿsæ
ƿu
ƿuce
ƿucende
ƿucu
ƿuculang
ƿucum
ƿuda
ƿudu
ƿudulanda
ƿuldorulf
ƿulfingum
ƿulfsta
ƿull
ƿum
ƿunaþ
ƿunede
ƿunedon
ƿunenda
ƿunendas
ƿung
ƿunge
ƿungplegan
ƿungsearu
ƿungspell
ƿungspelles
ƿunian
ƿuniað
ƿuniaþ
ƿunienda
ƿunienne
ƿuninga
ƿunnon
ƿunode
ƿunodon
ƿununga
ƿurde
ƿurdon
ƿylla
ƿynn
ƿynne
ƿynnsta
ƿynstran
ƿyoming
ƿyrc
ƿyrcan
ƿyrcaþ
ƿyrce
ƿyrcende
ƿyrcendum
ƿyrcenne
ƿyrceþ
ƿyrcunge
ƿyrcþ
ƿyrhta
ƿyrhtan
ƿyrhted
ƿyrhtede
ƿyrhtode
ƿyrm
ƿyrmas
ƿyrt
ƿyrta
ƿyrte
ƿyrtum
ƿyrtæ
ƿæ
ƿæfersi
ƿæfersto
ƿægn
ƿægnas
ƿægnum
ƿæl
ƿælfelde
ƿælhealle
ƿælhræfn
ƿælmær
ƿæmpi
ƿæpnas
ƿæpned
ƿær
ƿære
ƿæringa
ƿæringsci
ƿæron
ƿæs
ƿæstm
ƿæstmum
ƿæter
ƿæterandefne
ƿæterdracan
ƿætere
ƿæteres
ƿæterlic
ƿætertyge
ƿæterum
ƿæterƿeg
ƿæterƿegum
ƿætre
ƿætres
ƿætrum
ƿæð
ƿæþ
ƿæȝn
ƿþ
ȝ
ȝa
ȝe
ȝea
ȝeaf
ȝeboren
ȝebrocen
ȝecoren
ȝecu
ȝecynd
ȝecynda
ȝecƿeald
ȝed
ȝefe
ȝefeoht
ȝefeohta
ȝefeohtes
ȝeha
ȝehealden
ȝehi
ȝehy
ȝehæ
ȝeinnaþ
ȝele
ȝeli
ȝelic
ȝelimp
ȝelimpaþ
ȝelimpþ
ȝemæ
ȝen
ȝenug
ȝeondþe
ȝera
ȝeri
ȝescapen
ȝesce
ȝescry
ȝeseted
ȝesetlic
ȝesprec
ȝestorfen
ȝetalod
ȝetalu
ȝetæl
ȝeþe
ȝeƿeorc
ȝeƿinn
ȝeƿinnende
ȝeƿitnesse
ȝeƿrit
ȝeƿrita
ȝeƿriten
ȝeƿritu
ȝeƿritum
ȝeƿuneli
ȝeƿæ
ȝeȝifen
ȝi
ȝiefen
ȝiefend
ȝiet
ȝif
ȝo
ȝra
ȝre
ȝƿ
ɡ
ɣ
ʀ
ʌ
ʰ
ʻ
ʿ
ˈ
ˌ
ː
ˤ
̀
́
̂
̃
̄
̆
̇
̈
̉
̊
̋
̌
̓
̔
̛
̣
̦
̧
̨
̮
̯
̸
̿
͂
α
αι
β
βικιπαι
γ
δ
δεια
ε
η
θ
ι
κ
κυριακη
λ
μ
ν
ο
π
ρ
ς
τ
ω
ϙ
ϛ
ϝ
ϰ
ϵ
алтаи
б
белокуриха
в
вид
википедија
владимир
вікіпедія
город
да
е
з
и
краи
н
на
наш
русскии
се
скии
у
украі
шаблон
я
і
љ
њ
џ
ҥ
ְ
ִ
ֵ
ַ
ָ
ֹ
ׁ
ׂ
א
ד
ה
ח
י
ל
ם
מ
נ
ס
ק
ר
ש
ת
ا
امروز
ة
ت
ج
د
ر
روز
س
ع
ـوکـتـوبـر
ل
م
ن
ه
و
واری
ويكيبيديا
ویکی
ویکیپدیا
ي
َ
ُ
ِ
ّ
ْ
ٓ
ٔ
ٕ
پدیا
ی
۶
۹
ं
अ
क
ख
ग
ज
ट
ड
त
द
ध
न
प
भ
म
य
र
ल
व
श
स
ह
ा
ि
ी
ु
े
ो
्
ং
ক
গ
ঘ
চ
ট
ড
ত
দ
ধ
ন
প
ব
ম
য
র
ল
ষ
়
া
ি
ী
ু
ে
্
ં
ખ
ગ
દ
ધ
મ
ર
સ
ા
ી
ો
્
க
ச
ஜ
ட
ந
ன
ப
ய
ர
ற
ழ
வ
ா
ி
ீ
ு
ூ
ை
்
క
డ
ప
య
ల
వ
శ
ష
స
ా
ి
ీ
ు
ే
్
ಂ
ಈ
ದ
ನ
ಲ
ಸ
ಿ
ು
ೆ
್
ೕ
ക
ഞ
ട
ഡ
ത
പ
യ
ല
വ
ി
ീ
ു
െ
േ
്
ං
ක
ද
න
ම
ල
ව
ා
ි
ก
ค
ต
ถ
พ
ม
ย
ว
อ
ั
ิ
ี
ุ
เด
่
้
ກ
ນ
ບ
ພ
ວ
ັ
ິ
ີ
ົ
່
위키백과
일
참세상
ᚠ
ᚠᚩᚱ
ᚠᚩᚱᛗᚪ
ᚠᚱᚪᚾᚳᛚᚪᚾᛞᛖᛋ
ᚠᚱᚪᛗ
ᚠᚱᛖᛖᛞᚩᛗ
ᚦᚩᚾᛖ
ᚦᚪ
ᚦᚪᚱᚪ
ᚦᚫᚱ
ᚦᚫᚱᛖ
ᚦᚫᛋ
ᚦᚫᛏ
ᚦᚫᛗ
ᚦᛁᛋ
ᚦᛖ
ᚩᚠ
ᚩᚾ
ᚪ
ᚪᚠᛏᛖᚱᚱᚪ
ᚪᚾᛞ
ᚫᚠᛏᛖᚱ
ᚫᚠᛏᛖᚱᚱᚪ
ᚫᛏ
ᚱ
ᚱᚢᚾ
ᚱᚫᛞ
ᚳ
ᚳᚣᚾᛁᛝ
ᚳᚫᛋᛖᚱ
ᚷᛇᛚᚪ
ᚷᛖᚳᚹᛠᛚᛞ
ᚷᛖᚹᚱᛁᛏ
ᚷᛖᛋᛈᚱᛖᚳ
ᚹ
ᚹᚩᛞᛖᚾᚻᛖᛚᛗ
ᚹᚫᚱᚩᚾ
ᚹᚫᛋ
ᚹᛠᚱᚦ
ᚻᚪᛚᚷᛖ
ᚻᚫᚠᚦ
ᚻᛁᛖ
ᚻᛁᛖᚱᚪ
ᚻᛖ
ᚻᛚᚩᚦᚹᛁᚷ
ᚾ
ᚾᚢ
ᚾᛁᚹᚢᛗ
ᚾᛁᚹᛚᛁᚳᛖ
ᛁᚾ
ᛁᚾᛏᚩ
ᛁᛋ
ᛇ
ᛈ
ᛋ
ᛋᛁᚾᛞ
ᛋᛇ
ᛋᛖ
ᛏᚩ
ᛏᚻᛖ
ᛒᚢᛏᚩᚾ
ᛒᚣ
ᛗᚪ
ᛗᚪᚾ
ᛗᛁᛞ
ᛝ
ᛞ
ᛞᚪᚷᚪᛋ
ᛞᚫᚷ
ᛟ
ᛠᛞᚹᛠᚱᛞ
᛫
᛬
᛭
ខ
គ
ឌ
ភ
ម
រ
វ
ស
ា
ិ
ី
េ
ែ
្
ᵹ
ᵹe
᾿
​
‌
‍
‎
‏
‒
–
—
―
‘
’
‚
“
”
„
†
‡
•
…
‰
′
″
‹
›
⁊
€
₽
ℙ
™
←
→
↔
↷
∇
−
∞
≡
≤
≥
⊿
③
④
⑦
☆
☉
☾
☿
♀
♂
♃
♄
♆
♇
♠
♣
♥
♦
⚳
⛢
✍
⟨
⟩
⯓
⺀
⺄
⺆
⺈
⺊
⺌
⺕
⺝
⺸
⺼
⿰
⿱
⿲
⿳
⿴
⿵
⿶
⿷
⿸
⿹
⿺
⿻
、
。
〢
あ
い
う
え
お
か
き
け
こ
し
す
た
ち
っ
つ
と
な
に
の
は
ふ
ほ
ま
み
む
も
ゃ
ゅ
ゆ
り
る
ん
゙
゚
ア
ィ
イ
エ
オ
カ
キ
ク
コ
サ
シ
ス
ソ
タ
ッ
テ
ト
ナ
ニ
ノ
ハ
ヒ
フ
ヘ
ミ
ム
メ
ュ
ユ
ラ
リ
ル
レ
ロ
ン
・
ー
㇁
㇂
㇄
㇇
㇈
㇉
㇓
㐁
㐄
㐅
㐌
㐫
㐬
㐭
㐮
㐱
㑒
㒵
㒸
㒼
㓁
㓞
㔾
㕛
㕣
㖾
㘝
㚅
㚇
㚔
㚘
㝉
㝡
㝴
㝵
㞋
㞢
㞷
㠩
㠭
㠯
㡀
㡭
㡿
㢲
㢴
㣇
㣺
㥯
㪅
㫄
㫐
㫒
㫺
㬅
㬎
㬥
㬰
㲋
㳄
㷠
㸒
㸚
㸦
㼌
㼲
㽞
㿟
䀠
䂞
䍃
䏍
䒑
䖍
䖒
䖝
䖵
䙴
䚻
䜌
䝿
䡛
䧹
䪞
一
丁
丂
七
丄
丅
丆
万
丈
三
上
下
丌
不
与
丏
丐
丑
专
且
丕
世
丘
丙
业
东
丞
丢
丣
两
严
並
丨
丩
个
丫
丬
中
丮
丰
丱
串
丵
丶
丷
丸
丹
为
主
丽
丿
乀
乂
乃
久
乆
乇
么
义
之
乌
乍
乎
乏
乐
乑
乔
乖
乗
乘
乙
乚
乛
乜
九
乞
也
习
乡
乳
乾
亀
亅
了
亇
予
争
事
二
亍
于
亏
亐
云
互
亓
五
井
亘
亚
亜
亞
亟
亠
亡
亢
交
亥
亦
产
亨
亩
享
京
亭
亮
亯
亰
亲
亳
亶
亷
人
亻
亼
亾
仁
今
介
仌
从
仐
仑
仒
仓
仕
他
付
仝
代
令
以
任
企
伊
伏
伐
休
会
伯
但
位
体
何
佘
余
作
佥
使
來
侈
侌
侖
侯
侵
便
保
俞
信
修
倉
個
倍
候
倠
備
僉
僕
優
儿
兀
允
兂
元
兄
充
兆
兇
先
光
兊
克
兌
免
兑
兒
兓
兔
党
兜
兟
入
全
兩
兪
八
公
六
兮
兰
共
关
兵
其
具
典
兹
兼
冀
冂
冃
冄
内
冈
冉
冊
冋
册
再
冎
冏
冐
冒
冓
冖
冗
冘
写
军
农
冝
冡
冥
冫
冬
冷
几
凡
凢
凵
凶
凷
凸
凹
出
函
凾
刀
刁
刂
刃
刄
刅
分
切
刍
刑
刕
刖
列
刘
则
初
判
別
利
别
到
制
刺
則
削
剌
前
剡
剽
劉
力
功
加
劦
助
劫
劳
劵
勃
勇
勉
勒
動
務
勞
勤
勹
勺
勻
勾
勿
匀
匂
包
匆
匈
匊
匋
匍
匕
化
北
匚
匝
匡
匪
匱
匸
匹
区
医
匽
匿
區
十
卂
千
卄
卅
卆
升
午
卉
半
卌
华
卑
卒
卓
单
卖
南
卜
卝
卞
占
卡
卢
卣
卤
卦
卩
卪
卬
卯
印
危
即
却
卵
卷
卸
卻
厂
厃
厄
历
厈
厉
厌
厓
厘
厚
原
厤
厥
厨
厭
厲
厶
厷
厸
去
厼
厽
叀
参
參
叅
又
叉
及
友
双
反
収
叐
发
叒
叔
叕
取
受
叚
叜
叟
口
古
句
另
叩
只
召
可
台
叱
史
右
叵
号
司
叹
吂
各
吅
合
吉
吊
吋
同
名
后
吏
向
吕
君
吝
吞
否
含
启
吳
吴
吹
吾
呂
呆
呈
告
员
呙
周
命
咅
和
咎
咠
咢
咨
咸
咼
哀
品
哉
員
哥
哲
唐
商
啇
問
啚
啬
啻
善
喜
喬
單
喿
嗇
噩
嚴
囊
囗
囘
囙
囚
四
回
囟
因
囧
囬
困
囱
囷
固
国
圂
圅
圆
國
圍
圓
土
圡
圣
圥
在
圭
地
圶
圼
坐
坒
坚
坴
垂
垔
垚
埀
埋
埶
執
基
堂
堅
堆
堇
堯
塞
墨
壘
士
壬
壯
声
壳
壴
壹
壺
壽
夂
处
夅
夆
备
夊
夋
夌
复
夏
夒
夕
外
夗
夘
多
夜
夢
大
夨
天
太
夫
夬
夭
央
失
夲
头
夷
夸
夹
夻
夾
奂
奄
奇
奈
奉
奎
奏
奐
契
奓
奔
奚
奞
奠
奢
奥
奭
女
奴
奻
好
如
妄
妙
妟
妥
妻
妾
姑
委
姜
威
娄
婁
婦
婴
嬰
嬴
子
孑
孔
孕
孖
字
存
孚
孛
孝
孟
季
孤
学
孫
孱
學
宀
宁
宂
它
宅
宇
守
安
宋
完
宏
宓
宗
官
定
宛
宜
宝
実
客
宣
室
宮
宰
害
家
容
宾
宿
寄
寅
密
富
寒
察
寧
審
寫
寬
寮
寸
对
寺
寻
寽
対
寿
封
尃
射
将
將
專
尉
尊
尋
尌
對
小
少
尒
尓
尔
尖
尗
尚
尞
尢
尣
尤
尧
尨
尭
就
尸
尹
尺
尻
尼
尽
尾
尿
局
居
屈
屋
屎
屏
屑
展
屖
屚
属
屠
屡
屬
屮
屯
屰
山
屵
屾
岁
岂
岑
岡
岩
岳
岸
峯
島
崇
崑
崔
崖
崙
崩
嵬
嶲
巂
巛
川
州
巟
巠
巢
巤
工
左
巧
巨
巩
巫
差
己
已
巳
巴
巷
巸
巽
巾
巿
帀
市
布
希
帚
帛
帝
带
師
席
帶
常
干
平
年
幵
并
幷
幸
幺
幻
幼
幽
幾
广
広
庄
床
底
店
庚
府
度
庫
庭
庶
康
庸
廉
廌
廛
廣
廩
廴
延
廷
建
廾
廿
开
弁
弃
弄
弇
弋
式
弓
弔
引
弗
弘
弜
弟
张
弥
弦
弱
張
強
强
彊
彌
彎
彐
彑
当
彔
录
彖
彗
彡
形
彥
彦
彧
彩
彭
彳
役
彼
往
待
律
徒
得
徙
從
復
微
徵
心
忄
必
忌
忍
志
忝
忠
忩
快
念
忽
忿
思
怠
急
性
怱
恆
恒
恩
恭
息
悉
患
悤
悲
悶
惠
惡
惢
愁
愈
意
愛
感
慈
慧
慮
憂
憲
應
戀
戈
戉
戊
戋
戌
戍
戎
成
我
戒
戔
或
戚
戠
戢
截
戲
戶
户
戹
戼
戾
房
所
扁
扇
手
扌
才
打
托
执
承
折
护
拉
拜
拳
拿
指
按
掌
推
提
摩
支
攴
攵
收
攸
改
放
政
敄
敏
敕
敖
敗
敝
敞
敢
散
敦
敫
敬
数
敷
數
斂
文
斉
斊
斗
斤
斥
斩
斬
斯
新
方
於
施
斿
旁
旋
族
无
旡
既
旣
日
旦
旧
旨
早
旬
旱
旲
时
旾
昆
昇
昌
昍
明
昏
易
昔
昗
昜
星
春
昬
是
昱
昴
昷
時
晃
晋
晏
普
景
晶
智
暑
暴
曇
曩
曰
曲
曳
更
曷
書
曹
曼
曾
替
最
朁
會
月
有
朋
服
朔
朕
朗
望
朝
木
朩
未
末
本
札
朮
术
朱
朵
朶
朿
杀
杏
村
杜
束
条
来
東
杲
杳
松
析
林
枚
果
枝
枲
枼
某
柔
查
柬
柰
柴
栄
栗
株
格
桀
桑
桼
梁
條
梟
梨
棘
棠
棥
森
楚
楠
業
楽
榮
樂
樊
樫
欠
次
欣
欮
欲
欶
欽
款
歆
歇
歌
歛
止
正
此
步
武
歨
歪
歮
歯
歰
歲
歴
歷
歸
歹
歺
死
殳
段
殷
殸
殹
殺
殻
殿
毋
毌
母
每
毒
比
毕
毚
毛
毳
氏
氐
民
气
氣
水
氵
氶
氷
永
氺
氾
求
汉
汝
汞
江
汪
沃
沓
沙
沝
泉
法
波
泣
泥
泰
洛
津
洪
洲
活
派
流
浏
浦
浪
浮
淑
淘
淡
淮
清
渚
渠
港
湯
滿
漢
漸
澤
火
灬
灭
灰
灵
灷
炅
炎
炏
炗
炙
炭
為
烈
烏
烝
焉
無
焦
焱
然
煞
熊
熏
熱
燕
營
燮
爪
爫
爭
爯
爰
爱
爲
爵
父
爻
爽
爾
爿
片
牙
牚
牛
牜
牟
牢
牧
牪
特
牽
犀
犬
犭
犮
狂
狄
狊
独
狺
猋
猒
猪
献
獻
玄
率
玉
王
玟
玨
现
珊
珎
班
現
琴
瑟
瑩
璠
瓜
瓦
甘
甚
生
産
用
甫
甬
田
由
甲
申
电
甶
男
甸
甹
町
画
甾
畀
界
畏
畐
留
畜
畟
畢
畧
畨
番
畫
異
畱
當
畺
畾
疊
疋
疌
疑
疒
疾
療
癶
癸
癹
発
登
發
白
百
皀
皃
的
皆
皇
皋
皐
皕
皮
皷
皿
盃
盆
盇
盈
益
盍
盎
监
盒
盖
盛
盡
監
盤
盧
目
直
相
盾
省
眇
眉
看
眔
眞
真
眷
眼
眾
着
睘
睪
睿
瞏
瞢
瞿
矍
矛
矞
矢
矣
知
矦
短
石
破
碎
磊
磨
示
礻
礼
社
祟
票
祭
禀
禁
禸
禹
禺
离
禽
禾
禿
秀
秃
秉
秋
科
秝
秦
移
稟
穀
穌
穎
穴
究
穹
空
穿
突
窄
窒
立
竒
竜
竝
竟
章
童
竹
笑
笠
筆
等
答
简
箕
算
箴
節
篤
篭
簡
米
类
粉
粛
粟
粤
粦
粲
糞
糸
糹
系
約
納
素
索
紫
累
細
絜
絫
絲
続
維
綾
綿
緑
縣
繁
繇
纍
纟
维
编
缶
网
罒
罔
罕
罗
罙
罡
罢
罪
署
罷
羅
羊
羌
羍
美
羔
羕
羗
羞
羡
羣
群
義
羲
羸
羽
翁
翏
習
翕
翟
翠
翼
老
耂
考
者
耆
而
耎
耑
耒
耳
耴
耶
耷
聂
聊
聖
聚
聶
聿
肀
肃
肅
肉
肖
肙
肥
肩
肯
育
肴
胃
背
胎
胞
胡
胥
能
脇
脊
脩
膚
臣
臤
臧
自
臬
臭
臯
臱
至
致
臺
臼
臽
臾
臿
舀
舂
舄
與
興
舉
舌
舍
舛
舜
舞
舟
般
艮
良
色
艸
艹
艾
芒
芔
芬
芮
花
芳
芹
芺
芻
苔
苗
苟
若
苦
英
茶
茸
荅
草
荒
荣
荼
莆
莧
莫
莽
菆
菊
菐
華
萬
落
葉
著
葛
董
葵
蒙
蒦
蒼
蓋
蓬
蓺
蔑
蔡
蔣
蕉
蕭
薄
薛
薦
薰
藍
藏
藤
藥
蘭
虍
虎
虐
虒
虔
處
虖
虗
虘
虚
虛
虜
虞
號
虫
虽
蚤
蚩
蜀
蜜
蟲
蠡
血
行
衍
衛
衣
衤
表
衮
衰
袁
袞
被
褭
褱
襄
襾
西
覀
要
覃
見
規
覓
覧
親
覽
见
览
角
解
言
訁
訇
計
記
許
詹
認
語
誩
読
諸
讠
读
谷
豆
豈
豊
豐
豕
豖
豙
象
豦
豩
豪
豸
貇
貝
貞
貟
負
貢
貧
貪
貫
責
貳
貴
買
費
賁
資
賈
賏
賓
賔
賛
賞
賢
賣
質
賴
贊
贝
贡
责
贯
贲
贵
赖
赞
赤
赦
走
越
足
跆
路
蹇
身
躬
車
軍
軎
軟
輦
车
辑
辛
辜
辟
辥
辰
辱
農
辵
辶
边
达
过
近
这
连
迷
追
退
送
逆
逐
通
速
造
逢
連
逮
進
逸
遀
遂
過
道
達
遠
遣
適
遷
遺
邊
邑
邕
那
邦
邪
郎
部
郭
都
鄉
酉
酋
配
酓
酵
釆
采
里
重
野
量
金
釒
銘
錢
録
钅
長
镸
长
門
閃
閉
開
閏
閑
閒
間
閔
閵
閻
闌
關
门
间
闷
阅
阑
阜
阝
阿
降
院
陳
隆
隊
隋
隡
隨
隱
隶
隹
隺
隻
隼
隽
难
雀
雁
集
雈
雋
雍
雐
雔
雙
雚
雜
雝
離
難
雨
雩
雪
雲
零
雷
需
霍
霜
霝
霞
霸
靈
靑
青
非
靡
面
靣
革
韋
韦
韭
韯
韱
音
頁
頃
項
須
頗
頡
頻
顛
页
風
风
飛
飞
食
飠
養
饣
首
香
馬
馮
駦
马
骨
體
高
髟
鬥
鬯
鬲
鬼
魂
魚
魯
鮮
鱼
鲁
鳥
鳳
鸟
鹵
鹿
麃
麗
麥
麦
麻
黃
黄
黍
黎
黑
黒
黨
黹
黽
黾
鼎
鼓
鼠
鼻
齊
齋
齐
齒
齿
龍
龙
龜
龟
龠
龰
龱
龴
龵
龶
龷
龸
龹
ꭹ
ꮃ
ꮳ
者
艹
️
！
＆
（
）
？
～
￼
𐌀
𐌁
𐌂
𐌃
𐌄
𐌅
𐌇
𐌉
𐌊
𐌋
𐌌
𐌲
𐌹
𐌺
𐌿
𐍃
𐍄
🎉
👩
📲
🗓
😝
🚀
🜨
𠀁
𠀃
𠀆
𠀉
𠀎
𠀐
𠁁
𠁣
𠂆
𠂇
𠂈
𠂉
𠂊
𠂋
𠂎
𠂒
𠂔
𠂛
𠂡
𠂢
𠂤
𠂬
𠂭
𠂹
𠃊
𠃋
𠃌
𠃍
𠃎
𠃑
𠃓
𠃔
𠃜
𠄌
𠄎
𠄠
𠄢
𠆢
𠆥
𠇍
𠈌
𠌵
𠓜
𠔉
𠔥
𠔼
𠔽
𠔿
𠕀
𠕁
𠕋
𠘧
𠘨
𠙻
𠙼
𠚏
𠚒
𠚤
𠚪
𠣏
𠤎
𠤕
𠥓
𠦄
𠦑
𠦝
𠧒
𠧗
𠧪
𠩺
𠪚
𠫓
𠫔
𠫤
𠬛
𠬝
𠬞
𠬢
𠬤
𠬶
𠮛
𠮦
𠮷
𠯑
𠱠
𠳮
𠷎
𡈼
𡉀
𡉵
𡌥
𡍮
𡏳
𡕒
𡕩
𡕰
𡖅
𡗗
𡗜
𡘆
𡘤
𡧱
𡨄
𡩧
𡬠
𡭽
𡰣
𡰥
𡰪
𡰯
𡰱
𡷈
𡸁
𡿨
𡿩
𡿪
𡿺
𢀖
𢀛
𢀩
𢁙
𢆉
𢆰
𢆶
𢇁
𢇇
𢉖
𢌬
𢌿
𢏚
𢑑
𢑚
𢖻
𢙣
𢛳
𢦏
𢦒
𢧵
𢼄
𢾕
𣁋
𣄼
𣅀
𣅽
𣍘
𣎳
𣎵
𣏋
𣏼
𣗥
𣥂
𣥖
𣦵
𣦼
𣧄
𣪊
𣪠
𣬉
𣳾
𣶒
𤇾
𤊽
𤐫
𤓰
𤔔
𤕨
𤣩
𤰇
𤰔
𤰞
𤴓
𤴔
𤽄
𥁑
𥁕
𥃦
𥃩
𥃭
𥇡
𥑟
𥘅
𥘈
𥝢
𥫗
𥱡
𦈢
𦉪
𦉬
𦉼
𦍌
𦍒
𦎧
𦐇
𦓔
𦔮
𦘒
𦙃
𦚏
𦣝
𦣞
𦣻
𦥑
𦥔
𦥯
𦨉
𦭝
𦰩
𧆞
𧈧
𧘇
𧰨
𧴪
𧴮
𧵩
𧾷
𨸏
𨾴
𩙿
𩠐
𩫏
𩵋
𪉷
𪜀
𪟽
𪠲
𪩲
𫇦
𫔭
𫜸
𫝀
𫠣
𫠩
𫢉
𫥞
𫩏
𫩠
𫪡
𫲽
𫶧
𬀷
𬐘
𬗌
𬙙
𬛸
𬜯
𬟩
𬯁
𬴘
𬺻
𬼉
𬼖
𭀰
𭁈
𭁨
𭅰
𭑈
𭕄
𭗼
𭤨
𭥫
𭻾
𮅕
𮊿
𮍌
𮍏
𮓗
𮥼
𮧮
廾
𰀁
𰀄
𰀈
𰀉
𰀕
𰀠
𰀡
𰀢
𰀪
𰁜
𰃮
𰆊
𰆘
𰋙
𰕎
𰢴
𰧭
𰯲
0000--
01--
02--
03--
04--
06--
09--
16--
17--
20--
28--
48--
49--
63--
67--
70--
74--
77--
85--
86--
90--
91--
98--
a--
aa--
ab--
aba--
abd--
abe--
abi--
abl--
abor--
abso--
absti--
abu--
aby--
abyr--
ac--
aca--
acc--
accom--
ace--
acen--
ach--
acqui--
acro--
acy--
ad--
add--
ade--
aden--
adi--
adieg--
adil--
adj--
adrec--
adru--
adu--
adv--
ae--
aero--
aeron--
af--
afa--
afe--
affri--
afod--
aford--
ag--
agan--
age--
ah--
ahebb--
ahyr--
ahƿe--
ai--
ail--
air--
aj--
aki--
akm--
al--
ala--
alan--
alco--
ald--
aldor--
ale--
alek--
alend--
alex--
ali--
alibb--
all--
alpi--
alt--
altag--
alve--
am--
ama--
ambu--
ame--
amo--
an--
ana--
anach--
and--
andsƿa--
ang--
angel--
ani--
ann--
anom--
ans--
anstan--
anste--
ante--
antho--
anti--
ap--
apa--
ape--
api--
apin--
apost--
app--
aqui--
ar--
ara--
arau--
arc--
archi--
ard--
are--
ari--
arm--
aro--
arri--
art--
articu--
ary--
aræcc--
as--
ase--
ash--
asp--
aspeli--
asphy--
aspyr--
aspyrgi--
assa--
assy--
ast--
astaff--
astig--
astyr--
asund--
asyst--
at--
ate--
ath--
atie--
atro--
att--
aty--
au--
audi--
aug--
augn--
aure--
aut--
auto--
ave--
avi--
aw--
awe--
ax--
axan--
axi--
axl--
ay--
az--
að--
aþ--
aþe--
aþgebe--
aƿ--
aƿa--
aƿe--
aƿeor--
aƿreði--
aƿur--
b--
ba--
back--
bad--
bag--
bak--
balb--
bam--
ban--
bar--
basi--
bass--
bassianvs--
bat--
bau--
bay--
be--
beadan--
beado--
beadu--
beau--
bec--
becly--
bedæ--
bee--
befæst--
bege--
beginn--
behe--
bein--
beinag--
ben--
benor--
beny--
beo--
beor--
beorg--
beorh--
ber--
bere--
bern--
bese--
bess--
best--
bet--
betæ--
beƿ--
bh--
bi--
bid--
big--
bil--
biliþ--
bin--
bis--
bit--
bla--
ble--
bleoh--
bleph--
blett--
blo--
blow--
blue--
blæ--
blæc--
bo--
boc--
bod--
bodig--
bold--
boll--
bols--
bolscefi--
bon--
bord--
bot--
botn--
bou--
bour--
box--
br--
bra--
brad--
brain--
bran--
bre--
breg--
bretƿe--
bri--
brigh--
brim--
bringu--
bro--
bronchi--
brow--
bru--
brun--
bry--
bræ--
bs--
bu--
bucha--
bug--
bulga--
bunde--
bur--
burg--
burh--
but--
by--
byc--
byr--
byrd--
bæ--
bæc--
bær--
bæz--
c--
ca--
cad--
cal--
cala--
camb--
cambi--
camp--
can--
canci--
candel--
cap--
car--
care--
carib--
carl--
cas--
case--
cast--
castel--
cat--
cau--
cc--
ce--
ceal--
ceamp--
ceap--
ceaster--
cel--
cemp--
cen--
cend--
cent--
ceo--
ceor--
ceph--
cer--
cere--
ces--
cet--
cf--
ch--
cha--
charle--
che--
cheat--
chi--
cho--
chole--
chu--
chy--
ci--
cier--
cild--
cile--
cin--
circ--
circol--
circul--
circum--
cl--
cla--
cle--
cli--
clois--
clom--
clu--
cly--
clæ--
cn--
cna--
cne--
cnie--
cniht--
cno--
cny--
co--
coag--
coc--
cocc--
coch--
cock--
coen--
cog--
col--
colu--
colum--
com--
comme--
comp--
con--
condy--
confu--
const--
contu--
conve--
cor--
cordo--
core--
corn--
cot--
counter--
cour--
cra--
cre--
cri--
crist--
cro--
cru--
cræ--
cræft--
cs--
csie--
cu--
cul--
cule--
cum--
cume--
cung--
cunn--
curd--
curg--
cuð--
cwe--
cwell--
cwi--
cy--
cyber--
cyn--
cyne--
cynn--
cynst--
cyrn--
cyst--
cyto--
cæ--
cænu--
cƿa--
cƿe--
cƿena--
cƿu--
d--
da--
dag--
dai--
dall--
dalread--
dam--
daming--
dan--
dar--
dark--
das--
dau--
daw--
day--
dbot--
dc--
dd--
de--
dec--
decom--
decre--
defen--
defi--
del--
deli--
delic--
dem--
den--
dena--
deor--
depic--
der--
dermato--
des--
desc--
desid--
desta--
det--
deu--
dg--
dge--
dh--
di--
dia--
dian--
dic--
die--
dig--
dige--
dila--
dine--
dioc--
dipen--
dis--
diu--
divi--
dj--
dl--
dli--
dmæ--
do--
doc--
dom--
domin--
don--
dor--
dot--
dou--
down--
dr--
dra--
drag--
dre--
dri--
droht--
dru--
dry--
dryht--
ds--
du--
dub--
duc--
dum--
dun--
dung--
duo--
dwe--
dwo--
dy--
dyrrha--
dys--
dz--
dæg--
dæl--
dƿe--
dƿeolig--
dƿeorg--
dƿo--
dȝe--
e--
ea--
ead--
eaht--
eal--
eald--
ealde--
ealdor--
eall--
eampm--
eampsci--
ear--
eard--
earm--
east--
eb--
ec--
ecg--
ecƿa--
ed--
eds--
edu--
ee--
ef--
efe--
efen--
efencli--
efn--
efne--
eft--
eg--
ega--
ege--
eges--
egg--
eggja--
eh--
ei--
ein--
ejacu--
ek--
el--
ela--
ele--
eli--
ell--
em--
embar--
eme--
emi--
emme--
en--
ency--
end--
ende--
endo--
ene--
enende--
eng--
engle--
enhan--
ennis--
ent--
enȝ--
eo--
eolh--
eor--
eorl--
eormen--
eorð--
eorþ--
eorþmet--
eow--
ep--
epi--
er--
era--
ere--
ersum--
ery--
es--
esam--
esca--
escy--
ese--
est--
estim--
et--
etc--
ete--
etru--
ett--
ety--
eu--
eupat--
euro--
eva--
ever--
ex--
exca--
exclu--
exhi--
expan--
expi--
explo--
extra--
extre--
eyr--
eð--
eþ--
eȝe--
f--
fa--
fabri--
faci--
fair--
fall--
fals--
fan--
fand--
far--
fare--
farm--
fasci--
fau--
fdi--
fe--
fea--
fear--
fed--
fei--
fel--
fela--
feld--
fen--
feo--
feoh--
feoht--
feor--
feorr--
fer--
ferre--
fes--
festn--
fet--
ff--
fi--
fif--
fifel--
film--
fin--
finn--
fir--
fire--
fisc--
fit--
fiðer--
fja--
fjær--
fl--
fla--
fle--
flei--
fli--
flo--
flu--
flus--
fly--
flyht--
flæ--
fn--
fo--
fod--
folc--
fold--
folg--
folgie--
foot--
for--
fore--
forth--
forð--
forþ--
forƿeor--
forƿier--
fox--
fra--
fram--
fre--
free--
fremm--
freo--
fri--
frig--
friþ--
fro--
frog--
frum--
fry--
fræ--
ft--
fte--
fu--
fuent--
ful--
full--
fur--
fv--
fy--
fyr--
fyrd--
fæ--
fæder--
fær--
fæsthafo--
fæt--
fø--
g--
ga--
gader--
gafol--
gagn--
gais--
galic--
gall--
galli--
gamb--
gamen--
gan--
gang--
gar--
garna--
garne--
gas--
gastro--
gav--
gay--
ge--
gea--
gean--
geanlæ--
gear--
geat--
gebe--
geby--
gece--
gecny--
gecwe--
gecwi--
gecy--
gecƿe--
ged--
gede--
gedi--
gedie--
gedri--
gee--
gefa--
gefe--
gefo--
gefu--
gefyr--
gefæg--
gega--
gegæd--
gehe--
gehier--
gei--
gel--
gele--
gelo--
gelum--
gely--
gelæ--
gemy--
gemæ--
gen--
gene--
genf--
geo--
geol--
geond--
ger--
geri--
gerihtrec--
ges--
gesci--
gescier--
gese--
gesele--
gesi--
geso--
gestaþ--
gesti--
gesund--
geswe--
geswu--
get--
geta--
getimb--
gewi--
geæ--
geð--
geþ--
geþa--
geþo--
geþoft--
geƿe--
geƿi--
geƿu--
geƿyr--
gg--
gh--
gi--
giam--
giet--
gif--
gigan--
gild--
ging--
gis--
gl--
gla--
gleawc--
gleaƿ--
gli--
glo--
glu--
gly--
glæs--
gn--
gne--
go--
god--
gold--
goll--
gra--
grand--
gre--
great--
green--
gri--
grim--
gro--
gru--
gruin--
grund--
græ--
gu--
guay--
gue--
gui--
gum--
gun--
gur--
gus--
guy--
guð--
gw--
gy--
gyld--
gylt--
gym--
gæ--
gæd--
gærs--
gð--
gþ--
h--
ha--
hab--
had--
haemo--
hail--
hal--
ham--
han--
hand--
har--
has--
hasce--
hat--
hay--
he--
hea--
head--
heafod--
heaford--
heah--
healf--
heals--
heap--
heart--
hebb--
hei--
heil--
hein--
hel--
help--
hen--
heo--
heofon--
heols--
her--
hercu--
here--
hertf--
herða--
het--
hey--
hi--
hie--
high--
him--
hind--
hinde--
hiro--
his--
hit--
hja--
hla--
hle--
hleow--
hlo--
hlu--
hly--
hlæ--
hne--
ho--
hof--
hol--
holt--
home--
homo--
hon--
hop--
hor--
horo--
hors--
how--
hr--
hra--
hre--
hremm--
hrey--
hri--
hro--
hrosm--
hroð--
hrva--
hry--
hrygg--
hryggja--
hræ--
ht--
hu--
hug--
hugue--
huld--
humo--
hund--
hung--
hunt--
hvirfil--
hwe--
hweor--
hwi--
hwier--
hwæl--
hwæt--
hy--
hyp--
hyper--
hypo--
hæ--
hægð--
hæt--
hƿa--
hƿear--
hƿeor--
hƿæ--
hƿæl--
i--
ia--
ian--
iapan--
ic--
id--
ideo--
ie--
ief--
ieg--
ier--
ierþ--
if--
ig--
ik--
il--
ilio--
illus--
im--
imag--
in--
inaugur--
inc--
incom--
incon--
inconve--
incor--
incu--
indo--
indry--
ine--
infe--
infu--
ing--
inge--
inju--
inn--
innki--
inns--
insul--
inswe--
int--
inter--
intim--
inve--
inver--
io--
ip--
ir--
irac--
ircol--
ire--
irfe--
irmen--
is--
islam--
iso--
it--
ita--
iu--
iugosla--
iulia--
iusti--
iv--
iz--
j--
ja--
jahr--
jan--
jay--
je--
jenn--
jere--
ji--
jig--
jo--
jon--
ju--
junc--
k--
ka--
kai--
kal--
kamp--
kams--
kan--
kar--
karl--
kartv--
kath--
kathe--
ke--
kemm--
kemp--
kern--
kesc--
kh--
ki--
kid--
kilog--
kim--
kiri--
kk--
kla--
kle--
kn--
knar--
ko--
komm--
komne--
kon--
kor--
korea--
kos--
kr--
krabba--
krans--
krist--
kro--
kry--
ku--
kur--
kve--
kven--
kvi--
kvið--
kviðar--
kw--
ky--
kyrn--
l--
la--
lac--
lady--
lag--
lagu--
lah--
lan--
land--
landleged--
lang--
lao--
lar--
las--
lau--
laus--
law--
lb--
lc--
ld--
le--
lea--
lec--
lee--
leg--
leo--
leof--
les--
let--
leu--
leuk--
lew--
ley--
leð--
lf--
lg--
lge--
li--
lia--
libb--
lic--
lid--
lie--
lif--
lifi--
lifrar--
lig--
ligerec--
lim--
lin--
lindis--
list--
lit--
lið--
liȝ--
lk--
ll--
ln--
lo--
loc--
lock--
lod--
lof--
log--
loll--
lomb--
long--
los--
ls--
lski--
ltƿi--
lu--
luft--
lugan--
lum--
lungende--
lux--
lv--
lw--
ly--
lyft--
lymp--
lympho--
lys--
lyt--
læ--
læd--
læden--
lækn--
læt--
m--
ma--
mac--
maga--
magnif--
mahomet--
mai--
main--
maje--
mal--
mamm--
man--
mance--
mandi--
mange--
mani--
manig--
mann--
manu--
map--
mapu--
mar--
marien--
maro--
marx--
mas--
mats--
mawri--
max--
may--
mað--
mb--
mbe--
mc--
md--
me--
mear--
mearc--
mearh--
mec--
med--
medum--
medumwe--
medumƿe--
meer--
meg--
meit--
melti--
melu--
memb--
men--
mer--
merc--
mere--
meri--
merr--
merse--
mes--
mesopot--
met--
meta--
mete--
mexi--
meþo--
mf--
mforesitt--
mg--
mi--
mia--
mic--
micel--
micro--
mid--
middel--
middna--
mierc--
mig--
min--
mir--
mis--
mit--
mix--
miy--
miz--
mið--
mjað--
mjaðmar--
mm--
mo--
mod--
modor--
mol--
mollu--
mon--
mono--
mor--
more--
mot--
ms--
mst--
mt--
mu--
mun--
munic--
munuc--
mur--
mus--
mv--
mw--
my--
myn--
mynd--
myne--
myoc--
mæ--
mæcedo--
mæg--
mægen--
mæl--
mænig--
mæniȝ--
mær--
mæðelc--
n--
na--
nacod--
nak--
nam--
nama--
nan--
narbo--
narc--
nas--
nat--
national--
nav--
naþ--
nbe--
nc--
nd--
ne--
nea--
neah--
neces--
ned--
nef--
nego--
nem--
nen--
neo--
neorxena--
nepal--
neph--
nephro--
ner--
nes--
net--
nett--
nettfrum--
neum--
neur--
new--
neðer--
neƿ--
nfa--
ng--
ngo--
nh--
nhnu--
nhnut--
ni--
nic--
nie--
nig--
niht--
nin--
nir--
niw--
niweoferwic--
niwsæ--
niy--
niðer--
niþer--
niƿ--
nj--
nlæ--
nn--
nnoti--
no--
noc--
nom--
non--
nor--
nord--
norð--
norðe--
norþ--
norþe--
norþman--
not--
nou--
nov--
now--
nsta--
nt--
nu--
num--
nung--
nur--
ny--
nyas--
nz--
næ--
næmis--
o--
ob--
obst--
obtur--
oc--
occi--
occlu--
oct--
octau--
od--
oda--
ode--
odig--
odsc--
oe--
of--
ofen--
ofer--
off--
ofmyrð--
ofod--
ofon--
ofslæ--
oft--
og--
oge--
oh--
oht--
ohttimberele--
ohƿe--
oi--
ok--
okin--
ol--
ola--
olag--
old--
oli--
oln--
ols--
om--
omdur--
on--
oncwe--
oncƿe--
ond--
one--
oneard--
ong--
ongie--
onli--
onse--
onsig--
onsƿe--
onwu--
onƿo--
onƿu--
oo--
op--
open--
openung--
oppon--
or--
ord--
ore--
ored--
ori--
orleg--
orop--
os--
ost--
oste--
osteob--
ot--
ote--
otend--
otos--
ou--
ous--
out--
over--
ow--
ox--
oxan--
oz--
oð--
oþ--
oƿ--
oƿe--
oƿer--
oƿig--
p--
pa--
page--
palm--
pamp--
pan--
pannonæ--
papi--
par--
para--
parie--
pas--
pass--
pat--
pay--
pe--
pecu--
pemb--
pen--
pente--
per--
peri--
perme--
peru--
pes--
pet--
ph--
phar--
pharyn--
phono--
physio--
pi--
pic--
pier--
pig--
pilg--
pin--
pinn--
pit--
pix--
pl--
pla--
ple--
pleg--
ply--
po--
pod--
poiso--
pol--
poland--
poly--
pon--
pop--
por--
pored--
porno--
port--
post--
pot--
pp--
pr--
pra--
prae--
pre--
pri--
pro--
prohi--
pru--
pruss--
ps--
psy--
psycho--
pt--
pu--
puer--
pull--
pupi--
pupp--
pur--
put--
px--
py--
pylos--
pynd--
pæ--
q--
qu--
qua--
quant--
que--
qui--
r--
ra--
rad--
raf--
ragn--
raki--
ram--
ran--
ras--
rat--
rau--
rauð--
ray--
rc--
rcræ--
rd--
re--
rec--
recep--
recog--
recon--
recur--
red--
refu--
regn--
regu--
rei--
rein--
relirƿeccendmolten--
reloc--
ren--
rend--
reno--
res--
resig--
respi--
rf--
rg--
rhy--
ri--
ric--
rich--
rig--
riht--
rin--
risc--
rixi--
riz--
rn--
rna--
ro--
rod--
rodor--
roe--
ron--
row--
roð--
rr--
rs--
rse--
rspring--
rst--
rtte--
ru--
run--
russ--
rusti--
ry--
rz--
ræ--
ræd--
ræs--
ræt--
rð--
rþ--
s--
sa--
saar--
sabb--
sac--
sal--
sam--
samod--
san--
sand--
sang--
sar--
sara--
sas--
say--
sbo--
sc--
sca--
sce--
scean--
sceaw--
scedel--
scedelend--
sch--
sci--
sciep--
scip--
scir--
scmasc--
sco--
scop--
scot--
scre--
scro--
scrobbes--
scu--
sculd--
scutt--
scy--
scypp--
se--
sea--
sealt--
seax--
seba--
sec--
seces--
sed--
see--
segli--
sele--
self--
sem--
sen--
send--
sendmolten--
seo--
seofen--
seolc--
ser--
serbocro--
sern--
set--
sex--
sf--
sg--
sh--
she--
shi--
ship--
sho--
show--
shq--
si--
sibb--
sicil--
side--
sie--
sier--
siex--
siexe--
sig--
sige--
sigis--
sigor--
silv--
simbab--
simu--
sin--
sit--
sitt--
sið--
siþ--
sk--
ska--
skamm--
ski--
skræ--
sky--
sl--
sla--
sle--
sli--
slo--
slova--
sloven--
sm--
sma--
sme--
smed--
smo--
smy--
smæl--
sn--
sne--
snow--
snæ--
so--
soc--
sog--
sol--
son--
song--
sp--
spa--
sparta--
spe--
spear--
spec--
specu--
spi--
spilc--
spon--
spor--
spre--
spy--
sr--
ss--
st--
sta--
star--
staðel--
staðol--
ste--
stede--
stein--
sten--
steor--
steormæ--
stful--
sti--
stick--
stig--
still--
sto--
streng--
stri--
stru--
stræt--
stu--
sty--
styr--
stæf--
stær--
su--
sub--
sul--
sum--
sun--
sund--
sundor--
sup--
super--
sur--
surin--
sus--
suð--
suðe--
suþ--
sv--
svei--
svæf--
swe--
sweot--
sweotol--
swi--
swinc--
swits--
swu--
swuto--
swæ--
sy--
syll--
symp--
synd--
syr--
sz--
sæ--
sæs--
sæt--
sæðar--
sƿe--
sƿeart--
sƿeotol--
sƿi--
sƿimm--
sƿinc--
sƿits--
sƿu--
sƿæ--
t--
ta--
tac--
tacgi--
tam--
tan--
tang--
tann--
tapro--
tar--
tat--
tau--
tauga--
tax--
taƿpo--
tball--
tber--
te--
teg--
tel--
tele--
temp--
ten--
ter--
tes--
teut--
tex--
tf--
tg--
th--
tha--
the--
thu--
thy--
ti--
tic--
tid--
tie--
tig--
tiht--
til--
tim--
timber--
time--
tin--
tinc--
tir--
tiron--
tit--
tiðing--
tla--
tli--
tmo--
tn--
to--
toc--
tom--
ton--
top--
tor--
tou--
tow--
tra--
trac--
trans--
tre--
treow--
tri--
tro--
tru--
ts--
tsce--
tst--
tt--
ttæ--
tu--
tun--
tung--
tur--
tv--
twa--
twe--
twi--
ty--
tymp--
tyrc--
tæ--
tæfl--
tæg--
tæȝ--
tþo--
tƿeorp--
tƿi--
u--
uale--
ualent--
ualentin--
ucrægn--
ue--
uerg--
ufe--
ui--
uinc--
uk--
ul--
um--
un--
una--
unc--
uncon--
under--
une--
ung--
ungar--
unge--
ungewu--
unil--
univer--
unoncyr--
unwiþ--
up--
upa--
uphebb--
upp--
upparms--
ur--
ure--
uri--
us--
usbec--
use--
ut--
utan--
utber--
util--
v--
va--
valde--
vall--
van--
var--
vas--
ve--
vef--
vefja--
vel--
venezu--
vent--
ver--
verte--
vessa--
vexi--
vi--
via--
vic--
vie--
vig--
vil--
vin--
viri--
vis--
visit--
vit--
við--
vo--
vocabu--
vol--
vui--
vul--
w--
wa--
walc--
[...]
