!
"
#
##0
##1
##10
##11
##12
##13
##14
##15
##16
##17
##18
##19
##2
##20
##21
##22
##23
##24
##25
##26
##27
##28
##29
##3
##30
##31
##32
##33
##34
##35
##36
##37
##38
##39
##4
##40
##41
##42
##43
##44
##45
##46
##47
##48
##49
##5
##50
##51
##52
##53
##54
##55
##56
##57
##58
##59
##6
##60
##61
##62
##63
##64
##65
##66
##67
##68
##69
##7
##70
##71
##72
##73
##74
##75
##76
##77
##78
##79
##8
##80
##81
##82
##83
##84
##85
##86
##87
##88
##89
##9
##90
##91
##92
##93
##94
##95
##96
##97
##98
##99
$
%
&
'
(
)
*
+
,
-
.
/
0
00
000
001
002
01
02
03
04
0450
0483
05
06
07
08
09
1
10
100
1000
10000
10001
1001
1002
1004
1009
101
1010
1011
1012
1013
1014
1015
1016
1018
1019
102
1021
1022
1024
1025
1027
1028
1029
103
1030
1031
1034
1035
1036
1037
1038
1039
104
1040
1041
1042
1044
1045
1047
1048
1049
105
1050
1052
1054
1055
1056
1057
1058
1059
106
1060
1061
1063
1065
1066
107
1070
1071
1072
1075
1076
1077
1078
108
1080
1081
1084
1085
1086
1087
1089
109
1090
1091
1093
1094
1095
1098
1099
11
110
1100
11000
1101
1105
1106
1107
1109
111
1111
1112
1114
1115
1118
112
1120
1122
1123
1124
1125
1126
1127
1129
113
1130
1131
1135
1137
1138
1139
114
1140
1141
1142
1143
1146
1147
1148
1149
115
1150
1151
1152
1153
1154
1155
1156
1157
116
1160
1163
1167
1168
117
1170
1171
1173
1177
11774
118
1180
1183
1184
1185
1186
1187
1189
119
1190
1191
1192
1193
1194
1195
1196
1197
1198
1199
12
120
1200
12000
1201
1202
1203
1204
1205
1206
1207
12081
121
1210
1211
12116
1212
12124
1213
1214
1215
1216
1217
1218
1219
122
1220
1221
1222
1223
1224
1225
1226
1227
1228
1229
123
1230
1232
1233
1234
1235
1236
1237
1238
1239
124
1240
1241
1242
1243
1244
1246
1247
1248
1249
125
1250
1251
1252
1253
1254
1255
1256
1257
1258
1259
126
1260
1261
1263
1264
1265
1266
1267
1268
1269
127
1270
1271
1272
1273
1274
1275
1276
1277
1278
1279
128
1280
1281
1282
1283
1284
1285
1286
1287
1288
1289
129
1290
1291
1293
1294
1295
1296
1298
1299
13
130
1300
1301
1302
1304
1305
1306
1307
1308
1309
131
1310
1312
1314
1316
1318
1319
132
1320
1322
1323
1324
1325
1326
1327
1328
1329
133
1330
1331
1332
1333
1337
1338
1339
134
1340
1341
1342
1343
1344
13447
1345
1346
1347
1348
1349
135
1350
1351
1352
1353
1354
1355
1356
1358
1359
136
1360
1361
1363
1364
1365
1368
1369
137
1370
1371
1373
1374
1375
1377
1378
1379
138
1380
1381
1382
1383
1384
1385
1386
1387
1388
1389
139
1390
1391
1392
1393
1394
1395
1397
1398
1399
14
140
1400
1401
1402
1404
1405
1406
1407
1408
1409
141
1410
1411
1412
1413
1414
1415
1416
1417
1418
1419
142
1420
1421
1422
1423
1424
1425
1427
1428
1429
143
1430
1431
1432
1433
1434
1435
1436
1437
1438
1439
144
1440
1441
1442
1443
1444
1445
1446
1447
1448
1449
145
1450
1451
1452
1453
14530
1456
1457
1458
1459
146
1460
1461
1462
1464
1465
1466
1467
1468
1469
147
1470
1471
1473
1474
1475
1476
1477
1478
1479
148
1480
1481
1482
1483
1485
1486
1488
1489
149
1490
1492
1493
1494
1495
1496
1497
1498
1499
15
150
1500
1501
1502
1503
1504
1505
1506
1508
1509
151
1510
1511
1512
1513
1514
1515
1516
1517
1518
1519
152
1520
1521
1522
1523
1524
1525
1526
1527
1528
1529
153
1530
1531
1532
1533
1534
1535
1536
1537
1538
1539
154
1540
1541
1542
1543
1544
1545
1546
1547
1548
155
1550
1551
1552
1553
1554
1555
1556
1557
1558
1559
156
1560
1561
1562
1563
1564
1565
1566
1567
1568
1569
157
1570
1571
1572
1573
1574
1575
1576
1577
1578
1579
158
1580
1581
1582
1583
1584
1585
1586
1587
1588
1589
159
1590
1591
1592
1593
1594
1595
1596
1597
1598
1599
16
160
1600
1601
1602
1603
1604
1605
1606
1607
1608
1609
161
1610
1611
1612
1613
1614
1615
1616
1617
1618
1619
162
1620
1621
1622
1623
1624
1625
1626
1627
1628
1629
163
1630
1631
1632
1633
1634
1635
1636
1637
1638
1639
164
1640
1641
1642
1643
1644
1645
1646
1647
1648
1649
165
1650
1651
1652
1653
1654
1655
1656
1657
1658
1659
166
1660
1661
1662
1663
1664
1665
1666
1667
1668
1669
167
1670
1671
1672
1673
1674
1675
1676
1677
1678
1679
168
1680
1681
1682
1683
1684
1685
1686
1687
1688
1689
169
1690
1691
1692
1693
1694
1695
1696
1697
1698
1699
17
170
1700
1701
1702
1703
1704
1705
1706
1707
1708
1709
171
1710
1711
1712
1713
1714
1715
1716
1717
1718
1719
172
1720
1721
1722
1723
1724
1725
1726
1727
1728
1729
173
1730
1731
1732
1733
1734
1735
1736
1737
1738
1739
174
1740
1741
1742
1743
1744
1745
1746
1747
1748
1749
175
1750
1751
1752
1753
1754
1755
1756
1757
1758
1759
176
1760
1761
1762
1763
1764
1765
1766
1767
1768
1769
177
1770
1771
1772
1773
1774
1775
1776
1777
1778
1779
178
1780
1781
1782
1783
1784
1785
1786
1787
1788
1789
179
1790
1791
1792
1793
1794
1795
1796
1797
1798
1799
18
180
1800
1801
1802
1803
1804
1805
1806
1807
1808
1809
181
1810
1811
1812
1813
1814
1815
1816
1817
1818
1819
182
1820
1821
1822
1823
1824
1825
1826
1827
1828
1829
183
1830
1831
1832
1833
1834
1835
1836
1837
1838
1839
184
1840
1841
1842
1843
1844
1845
1846
1847
1848
1849
185
1850
1851
1852
1853
1854
1855
1856
1857
1858
1859
186
1860
1861
1862
1863
1864
1865
1866
1867
1868
1869
187
1870
1871
1872
1873
1874
1875
1876
1877
1878
1879
188
1880
1881
1882
1883
1884
1885
1886
1887
1888
1889
189
1890
1891
1892
1893
1894
1895
1896
1897
1898
1899
19
190
1900
1901
1902
1903
1904
1905
1906
1907
1908
1909
191
1910
1911
1912
1913
1914
1915
1916
1917
1918
1919
192
1920
1921
1922
1923
1924
1925
1926
1927
1928
1929
193
1930
1931
1932
1933
1934
1935
1936
1937
1938
1939
194
1940
1941
1942
1943
1944
1945
1946
1947
1948
1949
195
1950
1951
1952
1953
1954
1955
1956
1957
1958
1959
196
1960
1961
1962
1963
1964
1965
1966
1967
1968
1969
197
1970
1971
1972
1973
1974
1975
1976
1977
1978
1979
198
1980
1981
1982
1983
1984
1985
1986
1987
1988
1989
199
1990
1991
1992
1993
1994
1995
1996
1997
1998
1999
2
20
200
2000
2001
2002
2003
2004
2005
2006
2007
2008
2009
201
2010
2011
2012
2013
2014
2015
2016
2017
2018
2019
202
2020
2021
2022
2023
2024
203
204
205
206
207
208
209
21
210
211
212
213
214
215
216
217
218
219
22
220
221
222
223
224
225
226
227
228
229
23
230
231
232
233
234
235
236
237
238
239
24
240
241
242
243
244
245
246
247
248
249
25
250
2500
251
252
253
254
255
256
257
258
259
26
260
261
262
263
264
265
266
267
268
269
27
270
271
272
273
274
275
276
277
278
279
28
280
281
282
283
284
285
286
287
288
289
29
290
291
292
293
294
295
296
297
298
299
3
30
300
3000
301
302
303
304
305
306
307
308
309
31
310
311
312
313
314
315
316
3166
317
318
319
32
320
321
322
323
324
325
326
327
328
329
33
330
331
332
333
334
335
336
337
338
339
34
340
341
342
343
344
345
346
347
348
349
35
350
351
352
353
354
355
356
357
358
359
36
360
361
362
363
364
365
366
367
368
369
37
370
371
372
373
374
375
376
377
378
379
38
380
381
382
383
384
385
386
387
388
389
39
390
391
392
393
394
395
396
397
398
399
4
40
400
4000
401
402
403
404
405
406
407
408
409
41
410
411
412
413
414
415
416
417
418
419
42
420
421
422
423
424
425
426
427
428
429
43
430
431
432
433
434
435
436
437
438
439
44
440
441
442
443
444
445
446
447
448
449
45
450
451
452
453
454
455
456
457
458
459
46
460
461
462
463
465
466
467
468
469
47
470
471
472
473
474
475
476
477
478
479
48
480
481
482
483
484
485
486
487
488
49
490
491
492
493
494
495
496
498
499
5
50
500
5000
5001
501
502
503
504
505
506
507
508
509
51
510
511
512
514
515
516
517
518
519
52
520
521
522
523
524
525
526
527
528
529
53
530
531
532
533
534
535
536
537
539
54
540
541
543
545
546
548
549
55
550
551
552
553
554
555
556
557
558
559
56
560
561
562
563
565
566
567
568
569
57
570
571
572
574
575
576
577
578
579
58
580
581
582
584
585
586
587
588
589
59
590
591
592
593
595
596
597
598
6
60
600
6000
6001
601
602
603
604
605
606
609
61
610
611
612
613
615
616
617
618
62
620
625
628
629
63
630
631
632
634
635
639
64
640
641
642
643
645
65
650
652
653
655
66
660
661
662
664
666
668
67
670
671
672
673
675
678
679
68
680
681
684
685
686
69
690
691
695
696
697
7
70
700
7000
7001
701
702
703
704
705
707
709
71
710
711
712
715
716
717
719
72
720
724
725
73
730
731
732
733
737
739
74
740
741
744
747
749
75
750
751
754
755
756
757
758
76
760
764
767
768
77
770
774
775
777
78
780
787
788
79
790
795
797
799
8
80
800
8000
8001
802
803
809
81
810
811
812
814
8141
817
82
820
822
83
830
833
836
839
84
840
842
8427
843
844
845
847
848
849
85
850
85013
854
855
85502
86
860
864
866
867
87
870
871
875
876
877
878
879
88
880
884
885
886
887
888
889
89
890
892
893
896
898
899
9
90
900
9000
9001
902
903
905
907
91
910
911
912
914
915
917
918
919
92
920
923
924
925
927
928
93
930
933
934
935
936
94
940
942
943
944
945
946
947
949
95
950
951
953
954
955
959
96
960
961
962
963
964
965
966
967
968
969
97
970
972
973
975
976
977
978
979
98
980
981
982
983
985
987
989
99
990
991
994
995
996
997
9975
998
999
:
;
<
=
>
?
@
\
^
_
`
a
aa
aachen
aarau
aaron
ab
aba
abandona
abandonarea
abandonat
abandonata
abandonate
abandoneaza
abandoneze
abat
abate
abatele
abau
abba
abbas
abbasid
abbasizilor
abbey
abbott
abc
abd
abdallah
abdicarea
abdicat
abdice
abdomen
abdomenul
abdominale
abdul
abdullah
abe
abel
abhazia
abia
abil
abilita
abilitate
abilitatea
abolirea
abolit
abonat
aborda
abordare
abordarea
abordat
abordate
abordeaza
about
above
abraham
abreviat
abreviere
abrud
abrupt
abrupte
absent
absida
absidei
absolut
absoluta
absolute
absolvent
absolvire
absolvirea
absolvit
absorbit
absorbt
abstract
abstracta
abstracte
absurd
abt
abu
abundent
abundente
abur
aburi
abuz
abuzul
abuzuri
abuzurile
ac
acad
acade
academia
academic
academica
academice
academician
academicianul
academicieni
academie
academiei
academii
academy
acarida
acasa
accelera
accelerat
accent
accente
accentua
accentuat
accentuata
accentuate
accentueaza
accentul
accept
accepta
acceptarea
acceptat
acceptata
acceptate
accepte
acces
accesa
accesat
accesata
accesibil
accesibila
accesibile
accesorii
access
accessed
accesul
accesului
accident
accidenta
accidental
accidentare
accidentat
accidente
accidentul
accidentului
according
account
ace
acea
aceasta
aceea
aceeas
acei
aceia
aceias
acel
acela
acelas
acelasi
acele
acelea
aceleas
acelei
aceleias
acelor
acelora
aceloras
acelui
aceluia
aceluias
acer
aces
acest
acesta
aceste
acestea
acestei
acesteia
acestor
acestora
acestui
acestuia
acetic
achim
achitat
achizit
aci
acid
acide
acidul
acidului
acizi
aclamat
acmu
acolo
acompaniament
acompaniat
acopera
acopere
acoperea
acoperi
acoperind
acoperire
acoperirea
acoperis
acoperit
acoperita
acoperite
acord
acorda
acordarea
acordat
acordata
acordate
acorde
acordul
acordului
acorduri
acordurile
acra
acrobat
acronim
acronimul
across
acru
acs
act
acta
acte
actele
actelor
action
activ
activa
activat
active
activeaza
activi
activis
activist
activista
activita
activitate
activitatea
actor
actori
actorie
actorii
actorilor
actorul
actorului
actress
actrit
actual
actuala
actuale
actualei
actuali
actualita
actualitate
actualitatea
actualiza
actualizare
actualizat
actualizata
actualmente
actualul
actualului
actul
actului
acu
acuarela
acum
acuma
acumula
acumulare
acumularea
acumulat
acumulate
acumuleaza
acuratet
acustica
acut
acuta
acute
acuza
acuzare
acuzat
acuzata
acuzativ
acvatic
acvatice
acvila
ad
ada
adalbert
adam
adams
adaos
adapta
adaptare
adaptarea
adaptat
adaptata
adaptate
adapteze
adar
adauga
adauge
ade
adeca
adecvat
adecvata
adecvate
adei
adela
adelaide
adele
adept
adera
aderare
aderarea
aderat
aderca
aderent
adesea
adeseori
adeva
adevarul
adi
adiacent
adiacente
adica
adil
adina
adineaori
adio
adit
adj
adjectiv
adjective
adjectivele
adjectivul
adjunct
adjunctul
adler
administra
administrare
administrarea
administrat
administrata
administrate
administration
administrativ
administrativa
administrative
administrator
administratorul
administreaza
admira
admirabil
admirat
admis
admisa
admit
admite
admitere
admiterea
adn
adobe
adolescent
adolescenta
adolf
adolphe
adopt
adopta
adoptarea
adoptat
adoptata
adoptate
adopte
adorat
adormi
adormirea
adormit
adresa
adresat
adresata
adresate
adrese
adreseaza
adrian
adriana
adrianopol
adriatica
adrien
adu
aduc
aduca
aduce
aducea
aduceau
aducem
aducerea
aducet
aduci
adult
adulta
adulte
aduna
adunare
adunarea
adunat
adunata
adunate
adunau
adune
adus
adusa
aduse
adusese
advance
advanced
adventis
adventure
adventures
adverb
adverbe
adversar
adversari
adversarii
adversarilor
adversarul
adversarului
adverse
ae
aedes
aer
aerian
aeriana
aeriene
aeronautica
aeronava
aeronave
aeroport
aeroportul
aeroportului
aeroporturi
aerul
aerului
af
afacere
afacerea
afaceri
afacerii
afacerile
afacerilor
afara
afc
afect
afecta
afectat
afectata
afectate
afecteaza
aferent
aferente
affair
affaire
affairs
afganistan
afghanistan
afi
afiliat
afin
afirma
afirmarea
afirmat
afirme
afis
afla
aflarea
aflase
aflat
aflata
aflate
aflau
afle
afli
aflu
afluent
afonso
africa
african
africana
africane
africani
africii
afro
after
afumat
ag
aga
agachi
again
against
agapia
agaricus
agata
agatha
age
agency
agenda
agent
agentul
agentului
agerpres
ages
agitat
aglomerat
agnes
agora
agrara
agrare
agrement
agresiune
agresiv
agresiva
agresive
agricol
agricola
agricole
agricultori
agricultura
agriculturii
agro
agromyza
agromyzidae
agronom
aguilera
aguna
ah
ahaia
ahile
ahmad
ahmed
ahmet
ahul
ahului
ai
aia
aiba
aice
aicea
aici
aida
aide
aievea
aime
ain
air
airbus
aircraft
aires
airlines
airport
airways
ais
aise
aisne
aisprezece
aiud
aiurea
aix
aizeci
aj
ajax
ajun
ajung
ajunga
ajunge
ajungea
ajungeau
ajungem
ajungi
ajuns
ajunsa
ajunse
ajunsera
ajunsese
ajunsesera
ajunul
ajuta
ajutat
ajute
ajutoare
ajutor
ajutorul
ajutorului
ak
aka
akade
akademie
akc
aki
akira
al
ala
alabama
alain
alalta
alam
alama
alan
alarma
alaska
alb
alba
albanez
albaneza
albaneze
albanezi
albania
albaniei
albano
albany
albas
albastra
albastre
albastru
albastrul
albatros
albe
albert
alberta
alberto
albes
albi
albia
albicioasa
albicios
albii
albin
albina
albine
albrecht
albu
albul
album
albume
albumele
albumelor
albums
albumul
albumului
alca
alcool
alcoolice
alde
aldea
aldo
ale
aleaga
alearga
aleasa
alec
alecsandri
alecu
aleea
aleg
alega
alege
alegere
alegerea
alegeri
alegerii
alegerile
alegerilor
alei
alejandro
aleksander
aleksandr
aleksei
alele
alep
alerga
alergat
alerge
alert
alerta
ales
alese
alessandria
alessandro
alex
alexa
alexander
alexandr
alexandra
alexandre
alexandrescu
alexandria
alexandrina
alexandru
alexe
alexei
alexios
alexis
alexiu
alfa
alfabet
alfabetica
alfabetul
alfabetului
alfonso
alfred
alfredo
alge
algebra
algebrica
algebrice
alger
algeria
algoritm
algoritmi
algoritmul
ali
aliaj
aliant
alias
aliat
aliata
aliate
alice
alicia
alien
align
alimenta
alimentar
alimentara
alimentare
alimentarea
alimentat
alimentate
alimente
alimenteaza
alimentele
alimentelor
alin
alina
alineatul
aliniamentul
alipirea
alipite
alison
alive
all
alla
allah
allan
alle
allegro
allen
allgemeine
alliance
allier
allmusic
allocosa
alma
almanahul
almas
alocat
alocate
alocuri
alois
alon
alone
alonso
alopecosa
alpaida
alpes
alpha
alphonse
alpi
alpii
alpin
alpina
alpine
als
alsacia
also
alstroemeria
alt
alta
altai
altar
altare
altarul
altarului
altceva
altcineva
alte
altei
alteia
altele
altenburg
alteori
alter
alternant
alternativ
alternativa
alternative
altfel
altitudine
altitudinea
altitudini
altminteri
alto
altor
altora
altui
altuia
altul
alul
alului
aluminiu
alun
aluneca
alunga
alungat
alunge
alungit
alungita
alungite
alunis
aluzie
alves
always
am
ama
amadeus
amalfi
amalia
aman
amanda
amanita
amant
amanta
amantul
amar
amara
amare
amata
amator
amatori
amazing
amazon
ambarcat
ambasada
ambasadei
ambasador
ambasadori
ambasadorul
ambasadorului
ambele
ambelor
amber
ambiant
ambient
ambii
ambit
ambrose
ambulant
ambuscada
amd
ame
amedeo
amelia
ameliorarea
amenaja
amenajare
amenajarea
amenajat
amenajata
amenajate
amenda
amendament
amenint
ament
amente
amentul
amentului
america
american
americana
americane
americani
americanii
americanilor
americano
americanul
americii
amestec
amesteca
amestecat
amestecata
amestecate
amestecul
amet
amfibieni
amfiteatru
ami
amiaza
amic
amical
amicale
amici
amicul
amid
amin
aminoacizi
aminte
amintea
amintes
amintesc
aminti
amintim
amintind
amintire
amintirea
amintiri
amintirile
amintit
amintita
amintite
amiota
amir
amiral
amiralul
amiralului
among
amoniac
amoniu
amonte
amor
amore
amort
amorul
amos
amour
amphoe
ampla
amplasament
amplasamentul
amplasare
amplasarea
amplasat
amplasata
amplasate
ample
amplifica
amploare
amploarea
amplu
amprenta
ams
amsterdam
amu
amundsen
amurg
amy
amza
an
ana
anal
analele
analis
analitic
analitica
analitice
analiza
analizat
analizate
analize
analizeaza
analizei
analizele
analog
analogie
analysis
anania
anas
anastasia
anastasie
anastasiu
anatol
anatoli
anatolia
anatolie
anatomia
anatomice
anatomie
anatomy
anca
ancheta
anchetat
anchete
anchor
ancient
ancora
and
anda
andaluzia
anders
andersen
anderson
andorra
andra
andre
andrea
andreas
andreea
andreescu
andrei
andrew
andrews
andries
andriescu
andriivka
android
andromeda
andronic
andru
andrzej
andy
anei
anexa
anexarea
anexat
anexata
anexate
anexe
ang
angaja
angajament
angajamentul
angajare
angajarea
angajat
angajata
angajate
angajeaza
angajeze
ange
angel
angela
angeles
angelescu
angelica
angelo
angels
anghel
anghelescu
angiosperme
angkor
angle
anglia
angliei
anglo
angola
angus
anhalt
ani
anica
anii
anilor
animal
animala
animale
animalele
animalelor
animals
animalul
animat
animata
animate
animation
anime
anita
aniversa
aniversare
aniversarea
anjou
ankara
ann
anna
annales
annals
anne
annei
annie
anniversary
anno
annona
annonaceae
annonbase
annual
anolis
anomalii
anonim
anonima
anopheles
another
anotimp
anotimpuri
anpm
ans
ansa
ansamblu
ansamblul
ansamblului
ansambluri
anse
ansele
ant
antagonis
antal
antanta
antantei
antarctica
ante
antena
antene
anterioara
anterioare
anterior
anteriori
anthology
anthomyia
anthomyiidae
anthony
anti
antiaeriana
antiaeriene
antibiotice
antic
antica
antice
antichita
antichitate
antichitatea
antici
anticipat
anticipate
anticomunista
anticomuniste
anticorupt
antier
antierul
antim
antioh
antiohia
antiohiei
antipa
antisemit
antisemite
antitanc
anto
antoaneta
antoine
antoinette
antologia
antologie
antologii
anton
antonescu
antoni
antonia
antonie
antonio
antoniu
antrena
antrenament
antrenat
antrenata
antreneaza
antrenor
antrenori
antrenorul
antrenorului
antreprenor
antropologie
antwerpen
anu
anual
anuala
anuale
anuarul
anul
anula
anularea
anulat
anulata
anulate
anuleaza
anului
anume
anumit
anumita
anumite
anumitor
anunt
anvelope
anvergura
anvers
anxietate
any
ao
aosta
ap
apa
apache
apar
apara
aparat
aparate
aparatele
aparatul
aparatului
aparatura
apare
aparent
aparenta
aparit
apart
apartament
apartamente
apartamentul
aparte
apartenent
apasa
apca
apcar
ape
apei
apel
apela
apelat
apele
apeleaza
apelor
apelul
apeluri
apere
api
aplauze
aplica
aplicare
aplicarea
aplicat
aplicata
aplicate
aplice
apocalipsa
apocalypse
apogeu
apogeul
apoi
apollo
aport
aportul
apostol
apostoli
apostolic
apostolica
apostolilor
apostolul
apple
applications
applied
approach
approx
apr
aprecia
apreciat
apreciata
apreciate
apreciaza
apreciere
aprecierea
aprecieri
april
aprilie
aprinde
aprins
aprinsa
aprinse
aproape
aproba
aprobare
aprobarea
aprobat
aprobata
aprobate
apropia
apropiat
apropiata
apropiate
apropie
apropiere
apropierea
apropierii
apropiindu
aproviziona
aprovizionare
aprovizionarea
aprox
aproximat
aproximativ
aproximativa
apt
apte
aptea
aptelea
aptesprezece
aptezeci
apuca
apucat
apuce
apud
apulia
apus
apuseana
apusene
apuseni
apusul
aquila
aquino
aquitania
ar
ara
arab
araba
arabe
arabi
arabia
arabiei
arabii
arabil
arabilor
arabo
arachnida
arad
aradului
aragon
aragonului
arakan
araldica
araldicacivica
arama
araneae
araneidae
araneus
aranjament
aranjamente
aranjat
aranjate
arat
arata
arate
arbitraj
arbitrar
arbitru
arbitrul
arbore
arborele
arborelui
arbori
arborii
arborilor
arbus
arc
arca
arcade
arcadia
arcas
arce
arch
archaeology
archer
architecture
archive
archived
archives
arctic
arctica
arctiidae
arctosa
arcul
arcului
arcuri
arcus
ard
arda
arde
ardea
ardeal
ardealul
ardealului
ardelean
ardeleana
ardeleni
ardennes
ardere
arderea
are
area
areal
arealul
arealului
arena
arenda
arendas
arest
aresta
arestare
arestarea
arestat
arestata
argentina
argentinei
argentinian
argentinieni
argento
arges
argetoianu
arghezi
argila
argile
argint
argintiu
argintul
argument
argumenta
argumentat
argumente
argumenteaza
argumentele
argumentul
arh
arhaic
arhaica
arhaice
arhangheli
arhanghelul
arheolog
arheologi
arheologia
arheologic
arheologica
arheologice
arheologie
arheologii
arhiduce
arhiducele
arhiducelui
arhiducesa
arhiepiscop
arhiepiscopia
arhiepiscopiei
arhiepiscopul
arhiepiscopului
arhiereu
arhimandrit
arhimandritul
arhimede
arhipelagul
arhitect
arhitectonic
arhitectul
arhitectului
arhitectura
arhitectural
arhitecturala
arhitecturale
arhitecturii
arhiva
arhive
arhivele
arhivelor
ari
aria
ariana
arie
ariei
ariel
aries
arigrad
arii
ariile
ariilor
arilor
arina
aripa
aripi
aripii
aripile
aripilor
arist
arista
ariste
aristide
aristocrat
aristotel
aritmetica
arizona
arkansas
arm
arma
armament
armamentul
armand
armanis
armas
armat
armata
armate
armatei
armatele
armatelor
arme
armean
armeana
armele
armelor
armene
armeneasca
armeni
armenia
armeniei
armenii
armenilor
armistit
armonia
armonie
armor
arms
armstrong
armura
army
arn
arna
arnhem
arno
arnold
arnulf
aro
arogant
aroma
aromatice
aron
arondismentul
around
arpadiana
arpe
arpele
arpelui
arrow
ars
arsa
arse
arsenal
arsenie
arslan
art
arta
artabotrys
arte
artefacte
artei
artele
artelor
artemis
artera
artere
arterei
arterele
arteriala
arteriale
arthur
article
articles
articol
articole
articolele
articolelor
articolul
articolului
articulara
articulare
articulat
artificial
artificiala
artificiale
artileria
artilerie
artileriei
artis
artist
artista
artiste
artistei
artistic
artistica
artistice
artists
artistul
artistului
arts
artur
arturo
aru
arul
arului
arunca
aruncarea
aruncat
aruncata
aruncate
arunce
arza
as
asa
asachi
asalt
asaltul
asamblare
asan
asasin
asasina
asasinarea
asasinat
asca
ascendent
ascensiune
ascensiunea
ascult
asculta
ascultare
ascultarea
ascultat
asculte
ascund
ascunda
ascunde
ascundea
ascuns
ascunsa
ascunse
ascunza
ascut
ase
asea
aseama
aseara
asediat
asediu
asediul
asediului
aselea
asema
asemene
asemenea
asemeni
asfint
ash
ashley
asia
asian
asiatic
asiatica
asiatice
asiatici
asiei
asigura
asigurare
asigurarea
asigurat
asigurata
asigurate
asigurau
asigure
asimilare
asimilarea
asimilat
asimov
asista
asistat
asistent
asistenta
asistentul
askaniana
asociat
asociata
asociate
asociaza
asociere
asocierea
asp
aspect
aspecte
aspectele
aspectul
aspectului
aspira
aspirat
aspra
aspre
aspru
assassin
associated
association
asta
aste
astea
asteraceae
asteroid
asteroidul
asteroidului
asteroizi
asteroizilor
astfel
asti
aston
astounding
astra
astrofizica
astronaut
astronom
astronomi
astronomia
astronomic
astronomica
astronomical
astronomice
astronomie
astronomiei
astronomii
astronomul
astronomy
asturia
asuma
asumat
asupra
at
ata
atac
ataca
atacant
atacarea
atacat
atacata
atacate
atace
atacul
atacului
atacuri
atacurile
atacurilor
atanasie
atare
atari
atas
atat
ate
atei
atelier
ateliere
atelierele
atelierul
atena
atenei
ateneu
ateneul
atent
atenta
atentat
atentatul
ateriza
aterizare
aterizat
atesta
atestare
atestat
atestata
atestate
atherigona
athletic
athos
ati
ating
atinga
atinge
atingere
atingerea
atins
atinsa
atinse
atitudine
atitudinea
atitudini
atitudinii
atjeh
atlanta
atlantic
atlanticului
atlantique
atlantiques
atlantis
atlas
atle
atlet
atleta
atletism
atmosfera
atmosferei
atmosferica
atmosferice
atom
atomi
atomic
atomica
atomice
atomii
atomilor
atomul
atp
atra
atract
atractus
atrag
atraga
atrage
atragerea
atras
atribuie
atribuirea
atribuit
atribuita
atribuite
atribut
atribute
atributul
atrocita
attack
attila
atul
atului
atunce
atuncea
atunci
au
aua
aube
aud
auda
aude
audi
audient
audio
audit
audrey
auf
auflage
aug
augsburg
august
augusta
auguste
augustin
augusto
augustus
aur
aura
aurel
aurelia
aurelian
aureliu
aurica
aurie
aurii
aurit
aurite
auriu
aurora
aurul
aurului
aus
auschwitz
austen
austin
australia
australian
australiana
australiei
australiene
australieni
austria
austriac
austriaca
austriece
austrieci
austriecii
austriei
austro
autentic
autentica
autentice
author
auto
autoare
autoarea
autobiografia
autobiografic
autobiografie
autobuz
autobuze
autobuzele
autobuzul
autohton
autohtona
autohtone
automat
automata
automate
automobil
automobile
automobilul
autonom
autonoma
autonome
autonomia
autonomie
autonomiei
autoportret
autor
autori
autorii
autorilor
autorita
autoritar
autoritate
autoritatea
autorizat
autorizata
autorizzazione
autorul
autorului
autostra
autostrada
autovehicule
autumn
auvergne
aux
auxiliar
auxiliare
auz
auzea
auzi
auzind
auzise
auzit
auzite
auzul
av
ava
available
aval
avalans
avalon
avand
avangarda
avans
avansa
avansarea
avansat
avansata
avansate
avanseaza
avanseze
avant
avantaj
avantaje
avantajele
avantajul
avariat
avariate
avarii
avatar
ave
avea
aveam
aveau
avec
avem
avencu
aventura
aventuri
aventurile
avenue
avere
averea
averescu
averi
averii
averile
averilor
avers
avertisment
avertiza
avertizare
avertizat
avertizeaza
avet
aveyron
avi
aviat
aviation
aviator
avifaunistica
avignon
avioane
avioanele
avioanelor
avion
avionul
avionului
aviv
aviz
avizul
avocat
avocatul
avocatului
avocatura
avraam
avram
avramescu
avril
avu
avusese
avut
avute
award
awards
away
ax
axa
axat
axe
axei
axel
axul
ay
ayutthaya
ayyubizii
ayyubizilor
az
aza
azerbaidjan
azerbaidjanului
azi
azil
azilul
aziz
azot
azov
azteca
azur
azva
azzurro
b
ba
baal
baba
babei
babel
babenberg
babes
babilon
babilonului
baby
babylon
bac
baca
bacalaureat
bacalaureatul
bach
baciu
back
background
backing
bacon
bacovia
bacteriene
bacterii
bacteriile
bactrocera
bad
badea
baden
bafta
bag
baga
bagdad
bage
bagheta
bagratizilor
baha
bahadur
bahia
bahrain
baia
baiazid
baie
bailey
baker
bakr
baku
bal
bala
balaci
balada
balade
balan
balant
balaurul
balcani
balcanic
balcanica
balcanice
balcanilor
balcon
balduin
baldwin
balena
balet
bali
balint
balka
balkan
balkans
ball
balon
balonul
balos
bals
balta
baltag
baltazar
baltic
baltica
baltice
baltimore
balul
balzac
ban
banat
banatul
banatului
banca
bancar
bancare
bancher
bancnota
bancnote
band
banda
bande
bandei
bandit
bang
bangladesh
bani
baniciu
banii
banilor
bank
banks
banska
banu
banul
banului
baptis
baptist
baptista
baptiste
bar
bara
barack
baraj
baraje
barajul
barajului
baranya
barba
barbara
barbare
barbari
barbarossa
barbat
barbera
barbu
barbus
barca
barcelona
bare
bari
baric
bariera
barit
bariton
barker
barnes
baroc
baroca
baron
baronul
baronului
barrett
barry
bart
bartolomeu
barton
barza
bas
basarab
basarabean
basarabeni
basarabia
basarabiei
baschet
base
baseball
based
basel
basic
basidiomycota
basil
basilica
basist
basistul
basm
basme
bass
bastien
bastion
bastionul
bat
bata
batalioane
batalioanele
batalion
batalionul
batalionului
bate
bateria
baterie
baterii
bateriile
bateristul
bates
bath
batista
batjocura
batman
battista
battle
baudelaire
bauer
bava
bavaria
bavariei
baxter
bay
bayer
bayern
baza
bazat
bazata
bazate
baze
bazeaza
bazei
bazele
bazelor
bazeze
bazilica
bazin
bazine
bazinele
bazinul
bazinului
bb
bbc
bc
bce
bcms
bd
bda
bdare
bdarea
be
bea
beach
bean
bear
beasca
beast
beat
beatles
beatrice
beau
beaumont
beautiful
beauty
beaux
bebelus
bec
because
beck
becker
bee
been
beer
beethoven
before
bega
begin
beginning
behind
bei
beijing
being
beirut
beit
beitra
beius
bejan
bel
bela
belarus
belarusa
belarusului
belgia
belgian
belgiana
belgiei
belgiene
belgieni
belgrad
believe
bell
bella
belle
bellini
bellu
bels
belvedere
bem
bemol
ben
bender
bene
benedict
beneficia
beneficiari
beneficiat
beneficiaza
beneficii
beneficiile
beneficiind
beneficiul
benepa
benes
benevento
benfica
bengal
beni
benin
benito
benjamin
bennett
benny
benoit
benz
benzi
benzile
benzina
ber
bere
bereg
beres
berezivka
berg
bergamo
bergen
berger
bergman
berkeley
berlin
berliner
berlinul
berlinului
berna
bernadotte
bernard
bernardo
bernd
bernhard
bernstein
berry
bert
berthelot
berthold
bertrand
bes
besc
best
bestimmen
bet
beta
beth
bethlen
beton
better
betty
between
beverly
bey
beyonce
beyond
bf
bg
bh
bi
bianca
bianco
biata
bibescu
bible
biblia
biblic
biblica
biblice
biblie
bibliei
bibliografia
bibliografic
bibliografice
bibliografie
bibliography
biblioteca
bibliotecar
biblioteci
bibliotecii
bibliotecile
bibliotecilor
bibliothe
bibliotheca
bicaz
bicicleta
biciclete
biciune
biciunea
bien
bienala
biet
bietul
big
bihor
bihorului
bii
biile
bijuterii
biko
bila
bilant
bilaterale
bilbao
bild
bile
bilet
bilete
biletele
biletul
bilingva
bill
billboard
billy
bilopillea
bilt
bin
binar
binara
binare
bine
binecuva
binefa
binei
binele
binelui
bingen
binis
bio
biodiversita
biodiversitate
biodiversitatea
biografia
biografic
biografice
biografie
biografii
biographical
biographie
biography
biolog
biologi
biologia
biologic
biologica
biologice
biologie
biologiei
biology
bipolara
bir
bird
birds
birmania
birmingham
birocrat
birou
biroul
biroului
birouri
birourile
birth
biruint
biruit
bis
bisect
biserica
bisericeasca
biserices
bisericesc
biserici
bisericii
bisericile
bisericilor
bisericut
bishop
bislemn
bismarck
bistra
bistrit
bit
bita
bitcoin
bite
bizant
bizantin
bizantina
bizantine
bizantini
bizantinii
bjo
bl
bla
black
blackwell
blade
blaga
blagoevgrad
blair
blaj
blake
blana
blanc
blanche
blandiana
blank
blasonatura
blazonul
blestem
blestemat
blestemul
bleu
bli
blind
blindat
blindata
blindate
blit
blo
bloc
bloca
blocada
blocarea
blocat
blocata
bloch
blocheaza
block
blockchain
blocul
blocului
blocuri
blocurile
blog
blogul
blois
blond
blonda
blonde
blood
bloom
blu
blue
blues
bluetooth
blv
bmatrix
bmw
bn
bo
boa
boabe
boala
board
bob
bobby
bobri
boc
boca
bocs
body
boeing
boemia
boemiei
boerescu
boga
bogart
bogat
bogata
bogate
bogda
bogdan
bogoiu
bohdanivka
bohr
boi
boia
boian
boier
boiereasca
boieres
boieri
boierii
boierilor
boierul
boierului
boii
bois
boleslav
boletus
bolgrad
boli
bolii
bolile
bolilor
bolintineanu
bolivia
bolna
bolnav
bolnava
bolnavi
bolnavii
bolnavilor
bologa
bologna
bolovani
bols
bolt
bolta
bolton
bolyai
bomb
bomba
bombardament
bombardamente
bombardamentele
bombardamentelor
bombardarea
bombardat
bombardier
bombardiere
bombardierele
bombardierelor
bombe
bombina
bon
bonaparte
bond
bone
bones
bonifaciu
bonn
bonnie
bono
bonus
book
booker
books
boom
boomerang
booth
bor
bora
borcea
bord
bordeaux
bordei
border
bordul
borg
borgia
boris
born
bornu
bors
borsod
borussia
borzes
bos
bosnia
bosniac
bosniaca
bosniaci
bosniei
boss
boston
bot
bota
botanic
botanica
botanice
botanist
botanophila
botez
boteza
botezat
botezata
botezul
both
botos
botswana
bottom
botul
bou
boulenger
boulogne
bourbon
bourne
bovine
bowell
bowie
bowl
box
boxer
boy
boyle
boys
boz
bpd
br
bra
brabant
brabantul
brad
bradbury
bradford
bradley
bradu
braga
brahms
brain
bran
brand
brandenburg
brandon
brandt
brandul
branis
bras
brasil
brasov
brat
bratislava
bratu
braun
braunschweig
brave
bravo
bray
brazi
brazil
brazilia
brazilian
braziliana
braziliei
braziliene
brazilieni
bre
break
breaking
breasla
breaza
bremen
bres
bresadola
brescia
breslau
brest
bretagne
bretania
breton
brett
brevet
bri
brian
briceni
bride
bridge
brie
brief
brien
briga
brigada
bright
brigitte
brill
bristol
brit
britain
britanic
britanica
britanice
britanici
britanicii
britanicilor
britanie
britanii
britannica
british
britney
brno
broadcasting
broadway
broas
broasca
brock
brod
brodi
broken
brons
bronz
bronzului
brooklyn
brooks
bros
brother
brothers
brown
browning
browser
bru
bruce
brukenthal
bruma
brun
bruna
brune
brunei
brunner
bruno
brunswick
brusc
brusca
brut
bruta
brutal
bruxelles
bryan
bt
bu
buc
buca
bucarest
bucata
bucate
bucegi
buch
buchanan
bucharest
buchverlag
bucium
buck
buckingham
buckley
bucla
bucovina
bucovinei
bucovineni
bucs
bucur
bucura
bucurat
bucurau
bucure
bucures
bucuresti
bucuria
bucurie
bucuros
bud
buda
budapest
budapesta
buddha
buddy
budes
budis
budism
budismul
budist
budiste
buenos
buffalo
bufnit
buftea
bug
buganda
bugeac
buget
bugetare
bugetul
bugetului
building
buizii
buizilor
bujor
bula
bulandra
buletin
buletinul
bulevard
bulevardul
bulga
bulgar
bulgara
bulgare
bulgari
bulgaria
bulgariei
bulgarii
bulgarilor
bull
bulletin
bumbac
bun
buna
bunca
bundesliga
bune
bunea
bunei
buni
bunica
bunicii
bunicul
bunicului
bunny
bunul
bunului
bunuri
bunurile
bunurilor
burdujeni
bureau
burebista
buret
burete
buretele
burg
burgas
burgess
burghez
burgheza
burgheze
burghezia
burgheziei
burgundia
buri
burke
burkina
burning
burns
burroughs
bursa
burse
bursei
bursier
burt
burta
burton
buruiana
burundi
bus
bush
business
bussmann
bust
bustul
busuioc
but
butler
butterfly
buza
buzdugan
buze
buzele
buzunar
bv
bwv
by
byron
bystrica
byzantine
bzang
c
ca
cabana
cabaret
cabina
cabinet
cabinetul
cabinetului
cablu
cabluri
cache
cad
cada
cadastrul
cadavre
cadavrele
cadavrul
cade
cadent
cadet
cadou
cadouri
cadre
cadrele
cadrelor
cadru
cadrul
cadrului
caesar
caf
cafe
cafea
cafeaua
cafenea
cafeneaua
cafenele
cage
cahiers
cahul
cai
caiete
caietul
caii
cailor
cain
cairo
cal
cala
calabria
calafat
calais
calca
calcar
calcare
calcaroase
calce
calciu
calcul
calcula
calculat
calculata
calculatoare
calculatoarele
calculatoarelor
calculator
calculatorul
calculatorului
calcule
calculeaza
calculele
calculul
cald
calda
calde
cale
calea
calendar
calendarul
calendarului
calibru
calibrul
calif
califatul
califica
calificare
calificarea
calificat
calificata
calificate
califice
california
caligula
calita
calitate
calitatea
call
called
calliphora
calliphoridae
callisto
calm
calma
calota
calul
calului
calvados
calvin
calvina
cam
cambodgea
cambodgia
cambridge
came
camelia
camenit
cameo
camera
camere
camerei
camerele
camerelor
cameron
camerun
camicas
camil
camille
camioane
camion
camp
campaign
campania
campanie
campaniei
campanii
campaniile
campbell
campiglossa
campioana
campioane
campion
campionat
campionate
campionatele
campionatul
campionatului
campioni
campionilor
campionul
campo
campus
campusul
camus
can
cana
canada
canadei
canadian
canadiana
canadiene
canadieni
canal
canale
canalele
canalelor
canalizare
canalul
canalului
canare
cancelar
cancelaria
cancelarul
cancer
cancerul
cancerului
cand
candela
candida
candidat
candidatul
candidatura
candy
cani
canis
cannes
canoe
canon
canonic
canonica
canonice
canonizat
canonul
canotaj
cantacuzino
cantal
cantata
cantemir
canterbury
cantina
cantita
cantitate
cantitatea
canto
cantoane
canton
cantonul
cantor
canu
cao
cap
capa
capabil
capabila
capabile
capabili
capacita
capacitate
capacitatea
capcana
cape
capela
capelei
capet
capete
capetele
capi
capital
capitala
capitale
capitalei
capitalism
capitalismului
capitaliste
capitalul
capitalului
capitol
capitole
capitolele
capitolul
capitularea
capitulat
capo
capodopera
capra
capre
capreolus
capsula
captain
captivitate
captura
capturarea
capturat
capturata
capturate
captureaza
captureze
capu
capua
capul
capului
car
cara
carabus
caracal
caracter
caractere
caracterele
caracterelor
caracteristic
caracteristica
caracteristice
caracteristici
caracteristicile
caracteristicilor
caracteriza
caracterizat
caracterizata
caracterizate
caracterizeaza
caracterul
caracterului
caragea
caragiale
caragiu
caraibe
caraiman
caraman
caranfil
caransebes
carantina
caras
carbon
carbonat
carcasa
card
cardiac
cardiaca
cardiace
cardiff
cardinal
cardinale
cardinalul
cardinalului
care
carea
career
carei
carele
carey
cargo
cari
caricatura
cariera
cariere
carierei
carii
carile
carintia
caritabile
caritate
cariu
carl
carla
carlo
carlos
carmen
carnaval
carne
carnea
carnegie
carniola
carnivore
carol
carolina
caroline
carolingiana
carolyn
carp
carpat
carpatic
carpatica
carpen
carpenter
carr
carrie
carroll
carson
carta
cartagina
carte
cartea
carter
cartier
cartiere
cartierele
cartierul
cartierului
cartofi
cartografice
carton
cartonas
cartoon
cartus
caru
carul
cas
casa
casablanca
casat
casca
cascada
cascade
case
casei
casele
caselor
cases
caseta
casete
casey
cash
casino
casnic
casnica
casnice
caspica
cassini
cast
casta
castel
castele
castello
castelul
castelului
castiga
castilia
castiliei
castillo
castle
castro
castrul
cat
cata
catalan
catalana
catalina
catalizator
catalog
catalogat
catalogue
catalogul
catalonia
catapeteasma
catargiu
catarina
catastrofa
cate
catedra
catedrala
catedrale
catedralei
catedrei
categoria
categoric
categorie
categoriei
categorii
categoriile
category
catele
caterina
cathedral
catherine
catholic
catifea
catindatul
catolic
catolica
catolice
catolici
catolicii
catolicilor
catolicism
catolicismul
catre
catul
cau
caucaz
caucazului
cauciuc
causa
caussols
caut
cauta
caute
cauza
cauzat
cauzata
cauzate
cauze
cauzeaza
cauzei
cauzele
cauzelor
cavaler
cavaleri
cavaleria
cavalerie
cavaleriei
cavalerii
cavalerilor
cavalerul
cave
cavita
cavitatea
cay
caz
caza
cazaci
cazacii
cazacilor
cazacu
cazan
cazare
cazarma
cazimir
cazul
cazului
cazuri
cazurile
cazurilor
cb
cbs
cc
cca
cd
cdep
cdot
cdots
cdu
ce
cea
ceafa
ceahla
ceai
ceaikovski
ceaiul
ceaiului
ceala
cealalta
ceam
ceanga
ceanka
ceanu
ceapa
ceara
cearta
ceas
ceasca
ceasornic
ceasul
ceasuri
ceasurile
ceat
ceata
ceau
ceaus
cec
cecil
cecilia
ceda
cedarea
cedat
cedeaza
cedeze
cee
ceea
ceh
ceha
cehe
cehi
cehia
cehiei
cehoslovac
cehoslovace
cehoslovacia
cehoslovaciei
cehov
cei
ceia
ceilalt
cel
cela
cele
celebra
celebrata
celebre
celebri
celebrita
celebru
celebrul
celebrului
celei
celeilalte
celelalte
cell
celor
celorlalt
celorlalte
celsius
celt
celtic
celtica
celtice
celui
celuilalt
celula
celular
celulara
celulare
celule
celulei
celulele
celulelor
celuloza
cena
cenaclul
cenaclului
ceni
census
cent
centauri
centenarul
centenarului
center
centimetri
central
centrala
centrale
centralei
centrat
centrata
centre
centrele
centro
centru
centrul
centrului
centura
century
cenus
cenzura
cenzurii
ceo
cer
cera
ceramica
ceramice
cerb
cerbul
cerc
cerca
cercel
cerceta
cercetare
cercetarea
cercetas
cercetat
cerceteaza
cerceteze
cercul
cercului
cercuri
cercurile
cere
cerea
cereale
cerealelor
cereasca
cereau
cerebral
cerebrala
cerebrale
ceremonia
ceremonial
ceremonie
ceremoniei
ceremonii
cerere
cererea
cereri
cererii
cererile
ceres
ceresc
ceri
cerii
cerint
cerkasi
cerna
cernat
cernavoda
cerneala
cerni
cernica
cernihiv
cerodontha
cers
cert
certa
certat
certe
certifica
certificat
certificate
certificatul
certitudine
ceru
cerul
cerului
ceruri
ceruse
cerut
ceruta
cerute
cervantes
cervona
cervoni
ces
cesare
cesc
cestiune
cestiunea
cet
ceta
cetate
cetatea
cete
cetinje
cette
cetto
ceva
cezar
cf
cfr
cgi
ch
cha
chad
challenge
challenger
chalukya
chamber
chamberlain
chambers
champagne
champion
champions
championship
championships
champs
chan
chance
chandler
chandra
chang
change
channel
chao
chaos
chapelle
chaplin
chapman
chapter
charente
charles
charlie
charlotte
chart
chartres
charts
chase
chat
che
cheama
check
checklist
checklists
chef
chei
cheia
cheie
cheii
cheile
chelsea
cheltuiala
cheltuieli
cheltuielile
cheltuielilor
cheltuit
chem
chema
chemare
chemarea
chemat
cheme
chemical
chemistry
chen
cher
cherestea
cherry
ches
chescu
chester
chestia
chestiune
chestiunea
chestiuni
chestiunile
chevrolet
chez
chi
chiajna
chiang
chiar
chicago
chief
chiesa
chii
child
children
chile
chilia
chilii
chiliile
chilor
chimia
chimic
chimica
chimice
chimici
chimie
chimiei
chimis
chimist
chimistul
chin
china
chinei
chinese
chinez
chineza
chineze
chinezes
chinezesc
chinezi
chinezii
chinuit
chinuri
chiop
chios
chip
chipul
chipuri
chipurile
chira
chiriac
chirias
chiril
chirila
chirilic
chirilice
chirit
chirurg
chirurgia
chirurgicala
chirurgicale
chirurgie
chis
chit
chita
chitara
chitare
chitaris
chitarist
chitaristul
chiul
chiului
chivu
cho
choice
chola
chopin
chos
choson
chr
chris
christ
christi
christian
christie
christina
christine
christmas
christoph
christophe
christopher
christos
chromatomyia
chronicle
chronicles
chrysometa
chu
chuck
church
churchill
ci
cia
ciad
cica
cicero
cicindela
ciclis
ciclism
ciclist
ciclu
ciclul
ciclului
cicluri
cie
ciei
cifra
cifre
cifrele
cii
ciki
cile
cilindri
cilindric
cilindrica
cilindrice
cilindru
cilor
cimec
ciment
cimis
cimitir
cimitire
cimitirul
cimitirului
cin
cina
cinat
cincea
cinci
cincilea
cincinat
cincinnati
cincisprezece
cincizeci
cine
cineas
cineastul
cinema
cinemagia
cinematograf
cinematografe
cinematografele
cinematografia
cinematografic
cinematografica
cinematografice
cinematografie
cinematografiei
cinematograful
cinetica
cineva
cini
cinile
cinste
cinstea
cinstit
cinstita
cinta
cio
cioara
cioasa
cioba
cioban
ciobanu
ciobanul
cioc
cioca
ciocan
ciocanul
ciocniri
ciocnit
ciocolata
ciocul
cioculescu
ciora
cioran
cios
ciov
ciprian
cipru
ciprului
circ
circa
circle
circuit
circuite
circuitul
circuitului
circula
circular
circulara
circulare
circulat
circumferint
circumscript
circumstant
circus
cire
cirea
cires
cis
cisna
cit
cita
citadela
citat
citata
citate
cite
citea
citeasca
citeaza
cites
citesc
citi
cities
citind
citire
citirea
citit
citita
citite
cititor
cititori
cititorii
cititorilor
cititorul
cititorului
citroe
citta
city
ciuc
ciuca
ciuda
ciudad
ciudat
ciudata
ciudate
ciula
ciulei
ciuma
ciun
ciune
ciunea
ciuni
ciunii
ciunile
ciunul
ciunului
ciuperca
ciuperci
ciupercile
ciurea
civ
civic
civica
civice
civil
civila
civile
civili
civililor
civilizat
civilization
cix
cj
ck
cken
cl
cla
cladograma
clair
claire
clan
clandestin
clanul
clanului
clape
clar
clara
clare
clarence
clarinet
claritate
clark
clarke
clarkson
clasa
clasament
clasamente
clasamentele
clasamentul
clasamentului
clasare
clasat
clasata
clasate
clase
clasei
clasele
claselor
clasic
clasica
clasice
clasici
clasifica
clasificare
clasificarea
clasificat
clasificata
clasificate
class
classic
classical
classics
classification
claude
claudia
claudio
claudiu
claudius
claus
clauza
claviatura
claviaturi
clay
clayton
cle
clement
cleopatra
cleric
clerici
clermont
clerul
clerului
cles
cleveland
click
client
clientul
clientului
cliff
clifford
clima
climat
climate
climatice
climatul
climei
clinic
clinica
clinical
clinice
clinton
clio
clip
clipa
clipe
clipul
clis
clitocybe
clive
clopot
clopote
clopotele
clopotnit
clopotul
clorhidric
clorura
clos
close
cloud
club
clubiona
clubionidae
clubul
clubului
cluburi
cluburile
cluburilor
cluj
clujeana
clujeni
clujenii
clujul
clujului
cm
cn
cneaz
cneazul
cnn
cnsas
co
coada
coaja
coala
coalei
coalelor
coalit
coama
coana
coanda
coane
coarda
coarde
coarne
coarnele
coasa
coast
coasta
coaste
coastei
coastele
coastelor
coat
coautor
coboara
coboare
cobora
cobori
cobra
coburg
coca
cocea
cocheta
coco
cocoana
cocos
cod
coda
codan
code
codex
codreanu
codri
codrii
codrilor
codru
codrul
codrului
codul
codului
coduri
codurile
cody
coeficient
coeficientul
coenosia
coerent
cognitive
cohen
coincide
coincident
coincis
cojocaru
col
cola
colab
colabora
colaborare
colaborarea
colaborat
colaborator
colaboratori
colaboratorii
colaboreaza
colaboreze
colar
colara
colare
colari
cold
cole
colea
colect
colecta
colectare
colectarea
colectat
colectate
colectiv
colectiva
colective
colectivita
colectivul
coleg
colega
colegi
colegii
colegilor
colegiu
colegiul
colegiului
colegul
coleman
colentina
coli
coliba
colii
colile
colilor
colin
colina
colinda
colinde
coline
coliziune
coll
colle
collected
collection
college
collins
colo
coloana
coloane
coloanei
coloanele
colocvial
colomeea
colonel
colonelul
colonelului
colonia
colonial
coloniala
coloniale
colonie
coloniei
colonii
coloniile
coloniilor
colonis
coloniza
colonizare
colonizarea
colonizat
color
colorado
colorant
colorat
colorata
colorate
colori
colorit
coloritul
colors
colt
colubridae
columb
columbia
columbian
columbus
columna
com
coma
coman
comanda
comandament
comandamentul
comandamentului
comandant
comandantul
comandantului
comandat
comandata
comandate
comandor
comba
combat
combatant
combate
combatere
combaterea
combina
combinarea
combinat
combinata
combinate
combinatul
combustibil
combustibilul
combustibilului
combustie
come
comedia
comedie
comedii
comedy
comemora
comemorarea
comemorativ
comemorativa
comemorative
comenta
comentarii
comentariile
comentariu
comentat
comentator
comenzi
comenzile
comercial
comerciala
comerciale
comercializarea
comercializat
comercializate
comercializeze
comerciant
comert
comes
comestibil
comestibila
comestibile
cometa
comete
comic
comica
comice
comics
coming
comis
comisar
comisarul
comise
comisia
comisie
comisiei
comisii
comitat
comitate
comitatele
comitatelor
comitatul
comitatului
comite
comitet
comitete
comitetul
comitetului
command
commander
comme
commentary
commission
committee
common
commons
commonwealth
communication
communications
community
comnen
comneni
como
comoara
comori
comorile
comp
compa
compact
compacta
compacte
compania
companie
companiei
companii
companiile
companiilor
companion
company
compara
comparabil
comparat
comparata
comparativ
comparative
compartimentul
compatibil
compatibile
compensa
compensat
competent
competente
competit
competitori
compilat
complement
complementare
complementul
complet
completa
completare
completarea
completat
completata
completate
complete
completeaza
complex
complexa
complexe
complexitate
complexitatea
complexul
complexului
complicat
complicata
complicate
complot
complotul
component
componenta
componente
componentele
componentelor
comporta
comportament
comportamente
comportamentul
comportamentului
compozit
compozitoare
compozitor
compozitori
compozitorilor
compozitorul
compozitorului
comprimat
compromis
compton
compun
compuna
compune
compunere
compunerea
compus
compusa
compuse
compusul
computer
computere
computing
coms
comte
comun
comuna
comunal
comunala
comunale
comune
comunei
comunele
comunelor
comuni
comunica
comunicare
comunicarea
comunicat
comunice
comunis
comunism
comunismul
comunismului
comunist
comunista
comuniste
comunita
comunitar
comunitara
comunitare
comunitate
comunitatea
con
conac
conacul
conacului
conan
concediat
concediu
concentra
concentrare
concentrarea
concentrat
concentrata
concentrate
concentreaza
concentreze
concepe
concept
concepte
conceptele
conceptul
conceptului
conceput
conceputa
concepute
concert
concertat
concerte
concertele
concertul
concertului
concesii
concessione
conciliul
concluzia
concluzie
concluzii
concluziile
concluzionat
concomitent
concordant
concordia
concret
concreta
concrete
concretizat
concura
concurat
concureaza
concurent
concurente
concurentul
concureze
concurs
concursul
concursului
concursuri
condamna
condamnare
condamnarea
condamnat
condamnata
condamnate
conde
condit
conduc
conduca
conduce
conducea
conducere
conducerea
conducerii
conducta
conducte
conductor
conduita
condus
condusa
conduse
conecta
conectarea
conectat
conectata
conectate
conecteaza
conexe
conexiune
conexiunea
conexiuni
conf
confect
confederat
confederate
confera
conference
conferent
conferint
conferirea
conferit
confesional
confesionala
confesiune
confesiuni
confessions
confident
configurat
confirma
confirmare
confirmarea
confirmat
confirmata
confirmate
confisca
confiscarea
confiscat
confiscate
conflagrat
conflict
conflicte
conflictele
conflictelor
conflictul
conflictului
confluent
conform
conforma
conformitate
confort
confrat
confrunta
confruntare
confruntarea
confruntat
confrunte
confunda
confundat
confundata
confuzia
confuzie
confuzii
congo
congregat
congres
congrese
congress
congresul
congresului
conica
conifere
conjunct
conjunctiv
connecticut
connor
conotat
conquest
conrad
cons
consacra
consacrat
consacrata
consacrate
conscript
consecint
consecutiv
consecutive
consecvent
consemna
consemnat
consemnata
consemnate
consemneaza
consens
conserva
conservare
conservarea
conservat
conservate
conservation
conservatoare
conservator
conservatori
conservatorii
conservatorul
conservatorului
conserve
consfint
considera
considerabil
considerabila
considerabile
considerare
considerat
considerata
considerate
considerau
considere
considerente
consilier
consilieri
consilierii
consilierul
consilii
consiliile
consiliilor
consiliu
consiliul
consiliului
consimt
consista
consistent
consoana
consoane
consoarta
consola
console
consolida
consolidare
consolidarea
consolidat
consolideze
consort
conspirat
consta
constance
constant
constanta
constante
constantin
constantine
constantinescu
constantiniu
constantinopol
constantinopolul
constantinopolului
constat
constata
constatat
constau
constelat
constitui
constituia
constituiau
constituie
constituind
constituire
constituirea
constituit
constituita
constituite
constitut
constitution
constra
construct
construction
constructive
constructor
constructori
constructorilor
constructorul
construi
construiasca
construies
construiesc
construind
construire
construirea
construirii
construit
construita
construite
consul
consulta
consultant
consultarea
consultat
consultativ
consulte
consulul
consum
consuma
consumat
consumata
consumate
consumatori
consumatorii
consumatorilor
consumul
consumului
cont
conta
contabil
contabilitate
contact
contactat
contacte
contactele
contactul
contactului
conte
conteaza
contele
contelui
contemporan
contemporana
contemporane
contemporani
contemporanii
contemporanul
contemporary
content
contesa
contesta
contestat
contestata
context
contexte
contextul
conti
continent
continental
continentala
continentale
continente
continentul
continentului
contingent
continua
continuare
continuarea
continuat
continuata
continue
continuitate
continuitatea
continuu
continuum
contra
contraatac
contrabanda
contracara
contract
contractat
contracte
contractul
contractului
contradict
contradictorii
contraofensiva
contrar
contrast
contribui
contribuie
contribuind
contribuit
contribut
control
controla
controlat
controlata
controlate
controleaza
controleze
controlul
controlului
controversa
controversat
controversata
controversate
controverse
contul
contur
conturi
conturile
conu
conul
convenit
convent
convention
convergent
conversat
conversia
conversie
convertirea
convertit
convex
convexa
convexe
conviet
convinga
convinge
convingere
convingerea
convingeri
convingerile
convins
convocarea
convocat
convoi
convoiul
convorbiri
conway
cook
cool
cooper
coopera
cooperare
cooperarea
cooperat
cooperativa
cooperative
cooptat
coord
coordona
coordonare
coordonarea
coordonat
coordonata
coordonate
coordonatele
coordonator
coordonatori
coordoneaza
copa
copac
copaci
copacii
copacilor
copacul
copenhaga
copert
coperta
copia
copiat
copiata
copie
copii
copiii
copiilor
copil
copila
copilas
copilul
copilului
coples
coposu
copou
coppa
coproduct
copt
copyright
cor
cora
corabia
corabie
coral
corala
corali
coran
coranul
coranului
corbea
corbin
corbu
corbul
corbului
cord
cordoba
core
corect
corecta
corecte
coreea
coreean
coreeana
coreei
coreene
coreeni
coregrafia
corelat
corespondent
corespund
corespunde
corespunza
coridor
corina
corint
coriolan
corn
cornea
cornel
cornelia
cornelis
corneliu
cornelius
cornell
corner
cornes
cornis
cornul
cornwall
coroana
coroane
coroanei
corona
coronavirus
corp
corporala
corporale
corporat
corporation
corps
corpul
corpului
corpuri
corpurile
corpurilor
corpus
corre
corsica
cort
cortina
cortinarius
cortul
corturi
corul
corului
corupt
coruri
corvin
corzi
cos
cosa
cosimo
cosma
cosmetice
cosmic
cosmica
cosmice
cosmin
cosmonaut
cosmos
cost
costa
costache
costat
costea
costel
costello
costes
costica
costin
costisitoare
costul
costum
costume
costumele
costumul
costuri
costurile
costurilor
cot
cota
cote
cotidian
cotidiana
cotidianul
cotidianului
cotidiene
cotitura
cotroceni
cotul
could
council
count
country
county
coupe
course
court
cov
cova
covaci
covasna
cover
covid
covoare
covor
cowboy
cox
coxeter
cozi
cozia
cozii
cozma
cozmeni
cp
cpt
cr
cra
cracovia
crai
craig
crainic
craiova
craiovei
craiul
craiului
crane
craniu
craniul
craniului
crash
crasna
crater
cratere
craterelor
craterul
crawford
crazy
cre
crea
creada
creanga
creare
crearea
creasca
creasta
creat
creata
create
creation
creativ
creativa
creative
creativitate
creatoare
creator
creatori
creatorii
creatorul
creatura
creaturi
creaza
cred
crede
credea
credeam
credeau
credem
credet
credincioasa
credincios
credint
credit
creditat
credite
creditul
creeaza
creed
creek
creeze
creier
creierul
creierului
creion
cremona
crengi
cres
cresc
cresca
crescuse
crescut
crescuta
crescute
creste
crestinortodox
cret
creta
creuse
crew
crez
creza
crezi
crezul
crezut
cri
crima
crime
crimeea
crimeeana
crimei
crimeii
crimele
crimelor
criminal
criminala
criminale
criminali
crin
cripta
cris
crisis
cristache
cristal
cristale
cristalina
cristaline
cristea
cristescu
cristi
cristian
cristina
cristo
cristofor
cristos
criterii
criteriile
criteriu
criteriul
critic
critica
critical
criticat
criticata
critice
critici
criticii
criticile
criticilor
critics
criticul
criticului
critique
criva
criza
crize
crizei
croat
croata
croate
croaziera
croce
crohma
croitoru
croix
cromatica
cromozomi
cromwell
cronica
cronicar
cronicarul
cronice
cronici
cronicii
cronicile
cronologia
cronologic
cronologica
cronologie
crop
cropped
cross
crow
crowley
crown
cruce
crucea
cruci
cruciada
cruciade
crucial
cruciat
crucii
crucis
crud
cruda
crude
crut
cruz
cruzime
cry
crystal
cs
csa
csaba
csi
csm
css
csu
ct
ctenotus
ctenus
ctitor
ctitori
ctitorii
ctitorita
ctitorul
cu
cuantic
cuantica
cuantice
cuart
cub
cuba
cubi
cucereasca
cuceres
cuceresc
cuceri
cucerind
cucerire
cucerirea
cuceririi
cucerit
cucerita
cucerite
cuceritorul
cucoana
cucoane
cucu
cucuteni
cuget
cugeta
cugetarea
cui
cuib
cuiba
cuibul
cuibului
cuiburi
cuiburile
cuie
cuiva
cul
cula
culca
culcat
culega
culege
culegere
culegerea
culegeri
cules
culese
culex
culianu
culise
culme
culmea
culmi
culmile
culmina
culminant
culminat
culoare
culoarea
culoarul
culori
culorii
culorile
culorilor
cult
culta
culte
cultelor
cultiva
cultivarea
cultivat
cultivata
cultivate
cultul
cultului
cultura
cultural
culturala
culturale
culture
culturi
culturii
culturile
culturilor
cum
cumint
cuminte
cumnatul
cumpa
cumpere
cumplit
cumplita
cumplite
cumsecade
cumva
cuneo
cunoas
cunoasca
cunos
cunosc
cunosca
cunoscuse
cunoscut
cunoscuta
cunoscute
cunoscutul
cununa
cup
cupa
cupe
cupei
cupele
cupelor
cuplu
cuplul
cuplului
cupola
cupole
cuprind
cuprinda
cuprinde
cuprindea
cuprins
cuprinsa
cuprinse
cuprinsul
cuprinza
cupru
cuptor
cura
curaj
curajos
curajul
curat
curata
curate
curator
curba
curbe
curbura
curent
curenta
curente
curentul
curentului
curg
curga
curge
curgea
curgere
curi
curie
curierul
curioasa
curios
curiozitate
curiozitatea
curma
current
curs
cursa
curse
cursei
cursele
cursul
cursului
cursuri
cursurile
cursurilor
curt
curte
curtea
curtis
cus
cusa
cuse
cusera
custa
custodia
cusut
cut
cuta
cutare
cute
cuteza
cutia
cuticula
cutie
cutii
cutremur
cutremura
cutremure
cutremurul
cuv
cuva
cuvi
cuviint
cuvine
cuvinte
cuvintele
cuvintelor
cuvioasa
cuvios
cuza
cv
cvartet
cvartetul
cx
cyril
cyrtodactylus
cyrus
cz
czi
d
da
dabija
dac
daca
daci
dacia
dacian
dacica
dacice
daciei
dacii
dacilor
daciv
daco
daddy
dai
daily
daisy
dakota
dal
dalai
dale
dali
dalla
dallas
dalles
dalmat
dalton
dam
dama
damasc
dame
damian
damon
dan
dana
dance
dancing
dancu
dandu
danemarca
danemarcei
danez
daneza
daneze
danezi
dangerous
dani
dania
danie
daniel
daniela
daniil
danny
dans
dansa
dansatoare
dansator
dansatori
danseaza
dansul
dansului
dansuri
dant
dante
danube
danzig
dar
dara
dare
darea
darie
darius
dark
darkness
darmstadt
darul
daruri
darurile
darwin
das
dasca
dat
data
database
datare
datarea
datat
datata
datate
date
dateaza
datei
datele
datelor
dativ
dator
datora
datorat
datorata
datorate
datoreaza
datores
datoria
datorie
datoriei
datorii
datoriile
datoriilor
datorita
dau
daughter
daula
daune
dave
david
davidson
davies
davila
davis
dawn
dawson
day
days
db
dc
dd
ddr
de
dea
deac
deaca
dead
deal
dealtfel
dealu
dealul
dealului
dealuri
dealurile
dealurilor
dean
deanu
dear
deasa
deasca
deasupra
death
deau
deaza
debarca
debarcare
debarcarea
debarcat
debehogne
debit
debitul
deborah
debut
debuta
debutant
debutat
debuteaza
debutul
dec
deca
decada
decade
decadent
decan
decapitat
decat
decebal
decedat
december
decembrie
decemvrie
decenii
deceniile
deceniu
deceniul
deceniului
decernat
deces
decese
decesul
decesului
deci
decid
decida
decide
decis
decisiv
decisiva
decisive
decizia
decizie
deciziei
decizii
deciziile
deciziilor
declans
declara
declararea
declarat
declarata
declarate
declare
declin
declinul
deco
decolare
decoloreaza
decor
decorarea
decorat
decorata
decorate
decorativ
decorativa
decorative
decorul
decoruri
decret
decretul
decretului
decros
decurs
decursul
deda
dedesubt
dedica
dedicat
dedicata
dedicate
deduce
dee
deep
defa
defect
defecte
defense
defensiv
defensiva
defensive
deficient
deficit
deficitul
defileul
defines
definesc
defini
definirea
definit
definita
definite
definitiv
definitiva
definitive
defris
degeaba
deget
degete
degetele
degetelor
degetul
deghizat
degli
degraba
degradare
degradarea
dei
deie
dej
deja
dejde
dejdea
dejun
del
dela
delacroix
delavrancea
delaware
deleanu
delegat
delhi
delia
deliberat
delicat
delicata
delicate
delimitarea
delimitat
delimitata
dell
della
delle
dello
deloc
delta
deltei
dem
demarat
demarcat
demers
demetrescu
demi
demis
demisia
demisionat
demisioneaza
demisioneze
demiterea
demn
demna
demnita
demnitar
demnitari
demnitate
demnitatea
demo
democracy
democrat
democrata
democrate
democratic
democratica
democratice
demografica
demografice
demografie
demolarea
demolat
demolata
demolate
demon
demoni
demonstra
demonstrat
demonstrata
demonstrativ
demonstreaza
demonstreze
demonul
demult
den
deni
denis
denise
dennis
denota
dens
densa
dense
densita
densitate
densitatea
densus
dentara
dentare
denumes
denumire
denumirea
denumiri
denumirii
denumirile
denumit
denumita
denumite
denunt
denver
deoarece
deocamdata
deodata
deoparte
deopotriva
deosebes
deosebesc
deosebi
deosebire
deosebirea
deosebit
deosebita
deosebite
depa
departajare
departament
departamente
departamentele
departamentul
departamentului
departe
department
depeche
dependent
dependenta
dependente
depind
depinde
depinza
deplasa
deplasare
deplasarea
deplasat
deplaseaza
deplaseze
deplin
deplina
depline
deporta
deportare
deportarea
deportat
depozit
depozitare
depozitarea
depozitate
depozite
depozitele
depozitelor
depozitul
depresia
depresie
depresiune
depresiunea
depresiuni
depresiunii
deprins
depun
depuna
depune
depunerea
depus
depusa
depuse
deputat
deputatul
der
deranjat
derby
dere
derea
derek
deri
derii
deriva
derivat
derivata
derivate
des
desa
desc
desca
descartes
descendent
descendenta
deschid
deschida
deschide
deschidea
deschidere
deschiderea
deschideri
deschiderii
deschis
deschisa
deschise
deschiza
descompune
descompunere
descompunerea
descopera
descopere
descoperi
descoperind
descoperire
descoperirea
descoperiri
descoperirii
descoperirile
descoperit
descoperita
descoperite
descres
descria
described
descrie
descriere
descrierea
descrieri
descriind
description
descriptions
descris
descrisa
descrise
descriu
descrizione
descu
descult
dese
desemna
desemnarea
desemnat
desemnata
desemnate
desemneaza
desen
desenat
desenata
desenate
desenator
desene
desenele
desenul
deseori
desert
deserves
deservit
deservita
desfa
desface
desfiint
desfra
desi
design
designer
designerul
designul
desigur
desinent
desis
desktop
deslus
desmond
despa
despart
desparta
desparte
despica
despot
despre
desprinde
desprins
desta
destin
destinat
destinata
destinate
destinul
destinului
destiny
destituit
destra
destruction
destul
destula
destule
det
details
detaliat
detaliata
detaliate
detalii
detaliile
detaliu
detas
dete
detect
detecta
detectarea
detectat
detectiv
detective
detectivul
detent
deteriora
deteriorarea
deteriorat
determina
determinant
determinare
determinarea
determinat
determinata
determinate
determine
detrimentul
detroit
detronat
deu
deus
deutsch
deutsche
deutschen
deutscher
deutsches
deutschland
deux
deva
devastat
devastatoare
development
devenea
deveneau
deveni
devenind
devenise
devenisera
devenit
devenita
deviat
devil
devin
devina
devine
deviza
devotat
devreme
dex
dexonline
dezama
dezambiguizare
dezastre
dezastru
dezastrul
dezavantaje
dezba
dezbatere
dezbaterea
dezbateri
dezbaterile
dezbra
dezghet
dezintegrare
dezintegrarea
dezla
dezna
deznoda
dezordine
dezva
dezvelit
dezvolta
dezvoltare
dezvoltarea
dezvoltat
dezvoltata
dezvoltate
dezvolte
di
dia
diabet
diablo
diacon
diaconescu
diaconu
diaconul
diagnostic
diagnosticat
diagnosticul
diagonala
diagrama
dialect
dialecte
dialectele
dialectica
dialectul
dialog
dialogul
dialoguri
diamant
diamante
diametru
diametrul
diamond
diana
diane
diary
diaspora
diavolul
diavolului
diaz
dica
dichaetomyia
dick
dickens
dict
dictator
dictatura
dictaturii
dictionary
dictionnaire
did
didactic
didactica
didactice
didier
didina
die
dieceza
diecezei
diego
dies
diesel
dieta
dietei
dieter
dietrich
dieu
difera
diferent
diferit
diferita
diferite
diferitele
diferitelor
different
dificil
dificila
dificile
dificulta
dificultate
dificultatea
difuza
difuzare
difuzarea
difuzat
difuzata
difuzate
difuzeaza
dig
digestiv
digi
digital
digitala
digitale
dilema
dim
dima
dimensional
dimensiune
dimensiunea
dimensiuni
dimensiunii
dimensiunile
dimensiunilor
dimineat
diminet
diminua
diminuarea
diminuat
dimitri
dimitrie
dimitriu
dimpotriva
din
dina
dinafara
dinainte
dinaintea
dinamic
dinamica
dinamice
dinamo
dinar
dinastia
dinastie
dinastiei
dinastii
dinca
dincoace
dincolo
dinescu
dini
dinicu
dinii
dinile
dinit
dino
dinozauri
dinspre
dint
dinta
dinte
dinti
dintr
dintre
dintru
dinu
dio
dioclet
dion
dionis
dionisie
dionysos
dioxid
diploma
diplomat
diplomatic
diplomatica
diplomatice
diplomatul
diplome
diptera
dipterorum
dir
dire
direa
direct
directa
directe
direction
directiva
directive
directoare
director
directori
directorii
directorul
directorului
directory
diri
dirigent
dirii
dirijat
dirijata
dirijor
dirijori
dirijorul
dirile
dirilor
dirk
dirty
dis
disc
disciplina
discipline
discipol
discipolii
disco
discografia
discografic
discografie
discogs
discovery
discret
discreta
discrete
discrimina
discriminare
discriminarea
discul
discului
discuri
discurile
discurs
discursul
discursului
discursuri
discursurile
discut
discuta
discutat
discutate
discute
disease
disegnato
disfunct
disident
disk
dislocat
disney
dispa
dispar
dispara
dispare
disparit
disperare
disperat
disperata
disponibil
disponibila
disponibile
disponibilitatea
dispozit
dispozitiv
dispozitive
dispozitivele
dispozitivelor
dispozitivul
dispozitivului
dispret
disproport
dispun
dispuna
dispune
dispunea
dispuneau
dispunerea
dispus
dispusa
dispuse
disputa
disputat
disputata
disputate
dispute
disputele
distant
distinct
distincta
distincte
distinctiv
distinctive
disting
distinge
distins
distinsa
distract
distribuie
distribuirea
distribuit
distribuita
distribuite
distribut
distribution
district
districte
districtele
districtelor
districtul
districtului
distrug
distruga
distruge
distrugere
distrugerea
distrugeri
distrugerii
distrus
distrusa
distruse
dit
dita
dite
dition
ditions
divan
divanul
divergent
divers
diversa
diverse
diversele
diverselor
diversita
diversitate
diversitatea
divertisment
divin
divina
divine
divinita
divinitate
divisio
division
divizarea
divizat
divizata
divizate
divizia
divizie
diviziei
divizii
diviziile
diviziune
diviziunea
diviziuni
divka
divort
dixon
dizabilita
dizgrat
dizolva
dizolvarea
dizolvat
dj
djokovic
djuvara
dl
dlui
dmi
dmitri
dn
dna
dnipropetrovsk
do
doamna
doamne
doamnei
doamnele
doar
doara
doare
doarma
doarme
doba
dobi
dobora
dobra
dobre
dobrescu
dobrici
dobridor
dobrogea
dobrogei
doc
doctor
doctorat
doctoratul
doctori
doctorul
doctorului
doctrina
doctrine
doctrinei
document
documenta
documentar
documentara
documentare
documentarul
documentary
documentat
documente
documentele
documentelor
documents
documentul
does
dog
doge
dogma
dogs
doi
doilea
doina
doine
doisprezece
dolari
doli
doliu
dolj
dollar
dom
domenico
domenii
domeniile
domeniilor
domeniu
domeniul
domeniului
domestic
domestice
domiciliu
domiciliul
domina
dominant
dominanta
dominante
dominat
dominata
dominate
domine
domingo
dominic
dominica
dominicana
dominique
domn
domnea
domneasca
domnes
domnesc
domni
domnia
domnica
domnie
domniei
domnii
domnilor
domnis
domnit
domnitor
domnitori
domnitorul
domnitorului
domnu
domnul
domnule
domnului
domol
domul
don
dona
donald
donat
donate
donau
donet
dong
donici
donna
donne
doo
doom
door
doors
dor
dora
dordogne
dorea
doreau
dorel
dores
doresc
dori
dorian
dorin
dorina
dorind
dorint
doris
dorit
dorita
dorite
dorm
dormea
dormi
dormit
dorna
dornei
dornic
dorobant
dorohoi
dorothea
dorothy
dorsala
dortmund
doru
dorul
dos
dosar
dosare
dosarele
dosarul
dosoftei
dostoievski
dosul
dot
dota
dotare
dotarea
dotat
dotata
dotate
dots
doua
douard
double
doubleday
doug
douglas
dovada
dovedeasca
dovedes
dovedesc
dovedi
dovedind
dovedit
dovedita
dover
dovezi
dovezile
down
download
doyle
doza
doze
dp
dr
dra
dracu
dracul
dracula
dracului
drag
draga
dragi
dragnea
dragomir
dragomires
dragomirescu
dragon
dragoni
dragons
dragonul
dragonului
dragos
dragoste
dragostea
dragostei
dragu
dragul
drake
drama
dramatic
dramatica
dramatice
dramaturg
dramaturgi
dramaturgie
dramaturgul
drame
drapel
drapelul
drapelului
drappo
drastic
dre
dream
dreams
dreapta
drega
drept
drepta
dreptate
dreptatea
drepte
dreptul
dreptului
dreptunghiular
dreptunghiulara
drepturi
drepturile
drepturilor
dresda
drew
dreyfus
drive
driver
dro
drobeta
droemer
droguri
drosera
drosophila
drosophilidae
drum
drumet
drums
drumul
drumului
drumuri
drumurile
drumurilor
ds
dsm
dt
du
dual
dub
duba
dubai
dubla
dublat
dublata
duble
dublin
dublu
dubno
dubois
duc
duca
ducanu
ducas
ducat
ducatul
ducatului
duce
ducea
duceau
ducele
ducelui
ducem
ducesa
ducese
ducet
duci
duck
duda
dudley
due
duel
duelul
duet
duguetia
duh
duhul
duhului
dui
duia
duies
duiliu
duint
duios
duit
duke
dula
dulap
dulce
dulcea
dulceat
dulci
dulescu
duma
dumas
dumbra
dumbrava
dumineca
duminica
dumitale
dumitrache
dumitras
dumitrescu
dumitriu
dumitru
dumnealui
dumneata
dumneavoastra
dumneza
dumnezeiasca
dumnezeu
dumnezeul
dumnezeule
dumnezeului
duna
duncan
dune
dunga
dungi
duo
dup
dupa
dur
dura
durabila
durabile
durat
durata
durch
dure
durea
dureaza
durere
durerea
dureri
durerii
durerile
dureroasa
dureroase
dureros
durham
duri
durii
durile
durilor
during
durita
durite
dus
dusa
duse
dusera
dust
dut
dutch
duty
duva
duvei
dv
dvd
dwight
dx
dy
dylan
dysdera
dysderidae
dz
dzi
e
ea
eagle
eala
eam
ean
eana
eanu
eanul
eapa
earl
early
earth
easca
east
eastern
eastwood
easy
eau
eaua
eava
eaza
eberhard
ebert
ebola
ebraic
ebraica
ebraice
ec
ecartament
ecaterina
echilibru
echilibrul
echilibrului
echipa
echipaj
echipajele
echipajul
echipajului
echipament
echipamente
echipamentele
echipamentelor
echipamentul
echipamentului
echipat
echipata
echipate
echipe
echipei
echipele
echipelor
echivalent
echivalenta
echivalente
echivalentul
echo
ecleziastice
eclipsa
eclipse
ecliptica
eco
ecologic
ecologica
ecologice
ecologie
economia
economic
economica
economice
economici
economico
economics
economie
economiei
economii
economis
economist
economy
ecou
ecoul
ecouri
ecran
ecrane
ecraniza
ecranizare
ecranizat
ecranul
ecuador
ecuat
ecuator
ecuatoriala
ecul
ecului
ecumenic
ed
eddie
eddy
ede
edea
eden
edere
ederii
edgar
edge
edificii
edificiu
edificiul
edificiului
edinburgh
edinet
edint
edinta
edinte
edintele
edintelui
edison
edit
edita
editare
editarea
editat
editata
editate
edited
edith
editia
edition
editions
editor
editori
editorial
editoriala
editoriale
editorii
editors
editorul
editorului
editura
edituri
editurii
edmond
edmund
edo
eds
edu
eduard
eduardo
educarea
educat
education
educational
edward
edwards
edwin
ee
ef
efa
efect
efecte
efectele
efectelor
efectiv
efectiva
efective
efectivele
efectua
efectuarea
efectuat
efectuata
efectuate
efectueaza
efectueze
efectul
efectului
efes
effect
effects
efferia
efi
eficace
eficacitatea
eficient
eficienta
eficiente
efii
efilor
efort
efortul
efortului
eforturi
eforturile
eforturilor
eftimie
eftimiu
eful
efului
eg
egal
egala
egale
egali
egalita
egalitate
egalitatea
egan
egee
egida
egipt
egiptean
egipteana
egiptene
egipteni
egiptenii
egiptul
egiptului
ego
egon
egor
egovina
egovinei
egy
egypt
ehf
ehir
ei
eica
eiffel
eight
eii
eikon
eilema
ein
eine
einer
eines
einstein
eisenhower
ek
el
ela
elabora
elaborarea
elaborat
elaborata
elaborate
elaboreaza
elan
elastica
elat
elba
ele
eleaga
eleanor
eleapta
eleasa
elector
electoral
electorala
electorale
electori
electrecord
electric
electrica
electrice
electricitate
electro
electrolit
electromagnetic
electromagnetica
electromagnetice
electron
electroni
electronic
electronica
electronice
electronii
electronilor
electrotehnica
electrozi
elefant
eleg
elega
elegant
eleganta
elege
elegea
elegem
elegere
elegerea
elegeri
elegerii
elegerile
elegi
elei
elele
elelor
element
elementar
elementara
elementare
elemente
elementele
elementelor
elements
elementul
elementului
elen
elena
elene
elenei
elenistica
eleonora
elepciune
elepciunea
elepciunii
elept
eleptul
eles
elese
elesul
elev
eleva
elevat
elevi
elevii
elevilor
elevul
eli
eliade
elias
elibera
eliberare
eliberarea
eliberat
eliberata
eliberate
elibereaza
elibereze
elice
elicopter
elicoptere
elie
elile
elimina
eliminare
eliminarea
eliminat
eliminata
eliminate
elimination
eliminatorie
elimine
eliot
eliptica
elisabeta
elisabetei
elisabeth
elita
elite
eliza
elizabeth
ella
elle
ellen
elliot
elliott
ellis
elocvent
elor
elsa
else
elst
elt
elton
elu
elul
elului
elvet
elvira
elvis
em
emancipare
emanciparea
emanoil
emanuel
emblema
emerit
emerson
emery
emi
emigra
emigrant
emigrarea
emigrat
emil
emile
emilia
emilian
emilio
emily
eminent
eminescu
emir
emiratele
emis
emisa
emise
emisfera
emisia
emisie
emisiune
emisiunea
emisiuni
emisiunii
emisiunile
emit
emita
emite
emiterea
emma
emmanuel
emmy
emot
emperor
empire
en
ena
enache
enceladus
enciclopedia
enciclopedic
enciclopedica
enciclopedie
enciclopedii
encyclopaedia
encyclope
encyclopedia
encyclopædia
end
endate
endemica
endemice
endre
ene
enea
eneasca
enemy
energetic
energetica
energetice
energia
energic
energie
energiei
energii
energy
enes
enesc
enescu
eng
engel
engels
engine
engineering
engl
england
englez
engleza
engleze
englezes
englezesc
englezi
englezii
englezilor
english
eni
enia
enie
eniei
enigma
enii
enilor
enko
enorias
enorm
enorma
enorme
enough
enrico
enrique
ent
enterprise
entertainment
entita
entitate
entoloma
entre
entry
entuziasm
entuziasmul
enumera
enumerate
enunt
environment
enzima
enzime
enzo
eo
ep
epa
eparhia
eparhiei
epes
epic
epica
epice
epidemia
epidemie
epidemiei
epidemii
epigrame
epilog
epir
episcop
episcopal
episcopala
episcopi
episcopia
episcopiei
episcopii
episcopilor
episcopul
episcopului
episoade
episoadele
episoadelor
episod
episode
episodul
episodului
epistola
epitetul
epoca
epoci
epocii
eponime
epopeea
epsilon
epuizat
epura
epurare
er
era
erai
eram
erasmus
erau
erba
erbacee
erban
erde
erdo
ere
erectus
ereditar
erei
eremia
erevan
eri
eric
erica
erich
erie
eriful
erii
erik
erilor
ernest
ernesto
ernst
eroare
eroarea
eroi
eroic
eroica
eroice
eroii
eroilor
eroina
eronat
erori
erorile
erorilor
eros
erotic
erotica
erotice
erou
eroul
eroului
eroziune
eroziunea
erpi
ert
erta
ertul
ertului
erudit
erul
erului
erupt
erwin
es
esa
esc
escadra
escadrila
escape
escorta
escu
ese
esei
eseis
eseist
esent
eseu
eseul
eseuri
espan
espe
esperanto
essay
essays
essex
est
esta
estate
este
esteriori
estetic
estetica
estetice
esther
estic
estica
estice
estima
estimare
estimat
estimata
estimate
estimeaza
estoasa
estona
estonia
estoniei
estrada
estul
esul
esut
esutul
esutului
esuturi
esuturile
esuturilor
esztergom
et
eta
etaj
etaje
etajul
etans
etapa
etape
etapei
etapele
etc
ete
etern
eterna
eterne
eternitate
eternitatea
eterogena
ethan
ethiopia
ethnic
etica
etice
eticheta
etimologia
etimologic
etimologie
etiopia
etiopiei
etnic
etnica
etnice
etnici
etnie
etnii
etno
etnografic
etnografica
etnografice
etnografie
eto
eu
euclidian
euge
eugen
eugene
eugenia
eugeniu
eul
euler
eului
eurasia
eure
euri
eurilor
euro
europa
europarlamentari
europe
european
europeana
europei
europene
europeni
europenii
eurovision
eusebiu
ev
eva
evacua
evacuare
evacuarea
evacuat
evadare
evadat
evadeze
evalua
evaluare
evaluarea
evaluat
evaluata
evan
evanghelia
evanghelic
evanghelica
evanghelice
evanghelici
evanghelie
evangheliei
evans
evcenko
eve
evelyn
even
eveniment
evenimente
evenimentele
evenimentelor
evenimentul
evenimentului
evening
event
events
eventual
eventuala
eventuale
ever
everest
everett
every
everybody
everything
evgheni
evi
evic
evica
evice
evici
evicii
evicilor
evidence
evident
evidenta
evidente
evil
evita
evitarea
evitat
evite
evo
evoca
evolua
evoluat
evolueaza
evolut
evolution
evrei
evreiasca
evreica
evreies
evreiesc
evreii
evreilor
evreu
evul
evului
evz
ewald
ex
exact
exacta
exacte
exactitate
exagerat
exagerata
exagerate
examen
examene
examenele
examenul
examina
examinare
examinarea
examinat
examineaza
excavat
excelent
excelenta
excelente
excelsior
excentricitate
except
excepta
exces
excesiv
excesiva
excesive
exchange
excitat
exclude
excluderea
exclus
exclusa
exclusiv
exclusiva
exclusive
exclusivitate
excursie
excursii
execut
executa
executare
executarea
executat
executata
executate
execute
executiv
executiva
executive
exemplar
exemplare
exemplarele
exemple
exemplele
exemplu
exemplul
exercit
exercita
exercitarea
exercitat
exercitata
exercite
exhibition
exigent
exil
exilat
exilul
exilului
exista
existat
existau
existe
existent
existenta
existente
exodul
exotice
expansiune
expansiunea
expansiunii
expatriat
expedit
expedition
experience
experient
experiment
experimental
experimentala
experimentale
experimentat
experimente
experimentele
experimentul
expert
expertiza
expirarea
expirat
explica
explicarea
explicat
explicata
explicativ
explice
explicit
exploata
exploatare
exploatarea
exploatat
exploatate
exploateaza
explodat
explora
explorare
explorarea
explorat
exploration
explorator
exploratori
exploreaza
explorer
explozia
explozie
exploziei
explozii
explozive
exponate
exponent
export
exportul
exporturile
expozit
expres
expresia
expresie
expresiei
expresii
express
exprima
exprimare
exprimarea
exprimat
exprimata
exprimate
exprime
expulzarea
expulzat
expuna
expune
expunere
expunerea
expunerii
expus
expusa
expuse
extended
extensie
exterioara
exterioare
exterior
exteriorul
exterminare
extern
externa
externe
externi
extinct
extind
extinda
extinde
extindere
extinderea
extinderii
extins
extinsa
extinse
extinza
extra
extract
extrage
extragerea
extraordinar
extraordinara
extraordinare
extras
extrasa
extrase
extrateres
extraterestra
extraterestre
extraterestru
extrem
extrema
extremadura
extreme
extremita
extremitatea
eye
eyes
ez
eza
ezare
ezarea
ezat
ezata
ezate
eze
ezi
ezio
ezita
ezra
f
fa
faber
fabian
fabrica
fabricant
fabricare
fabricarea
fabricat
fabricata
fabricate
fabrici
fabricii
fabricile
fabricius
fabule
fac
faca
face
facebook
facem
facerea
faces
facet
faci
facilita
facilitat
faciliteaza
facla
fact
facto
factor
factori
factorii
factorilor
factorul
factory
facts
factura
faculta
facultate
facultatea
facut
fag
fagi
faima
faimoasa
faimoase
faimos
faimosul
fair
fait
faith
fala
falco
falcon
faliment
falkenhayn
fall
falls
fals
falsa
false
falun
fame
familia
familial
familiala
familiale
familiar
familie
familiei
families
familii
familiile
familiilor
family
famous
fan
fanariot
fanfara
fani
fanii
fanilor
fanny
fantastic
fantastica
fantastice
fantasticul
fantasticului
fantasy
fantezia
fantezie
fantoma
fantome
fapt
fapta
fapte
faptele
faptelor
faptul
faptului
far
fara
faracuprins
faraon
faraonul
faraonului
farbfotos
farkas
farmaceutica
farmaceutice
farmacie
farmec
farmecul
farmer
farnese
fars
farsa
farul
fascia
fascinat
fascis
fascism
fascist
fascista
fasciste
fashion
faso
fasole
fast
fat
fata
fatal
fatala
fatale
fate
fath
father
fatimizii
fatimizilor
fauna
faunei
faust
favoarea
favorabil
favorabila
favorabile
favorit
favorita
favorite
favoriza
favorizat
favorizeaza
faza
faze
fazei
fazele
fbi
fc
fcm
fe
fear
feat
feature
features
featuring
feb
febra
februarie
february
fecioara
fecioare
fecioarei
fecior
feciori
feciorii
feciorul
federal
federala
federale
federat
federation
federativa
federer
federico
feedback
feel
fel
feldmares
felice
felicia
felicita
felipe
felix
fellows
felul
feluri
felurite
female
femei
femeia
femeie
femeii
femeile
femeilor
femela
femele
femelele
feminin
feminina
feminine
feminismul
feminista
feministe
femme
femmes
fenomen
fenomene
fenomenele
fenomenelor
fenomenul
fenomenului
feodor
fer
ferata
ferate
ferdinand
fereasca
fereastra
ferenc
feres
ferestre
ferestrele
ferestrelor
ferguson
feri
ferice
fericire
fericirea
fericirii
fericit
fericita
fericite
ferit
ferm
ferma
ferme
fermeca
fermecat
fermele
fermentat
fermier
fermieri
ferna
fernand
fernando
feroe
feroviar
feroviara
feroviare
ferrara
ferrari
ferry
fertile
fertilita
fest
festival
festivalul
festivalului
festivaluri
festivita
fet
fete
fetei
fetele
fetelor
fetit
feudal
feudala
feudale
fever
ff
fi
fia
fiara
fiare
fiat
fibra
fibre
fibrele
ficat
fict
fiction
fictiv
fictiva
fictive
fidel
fidela
fidelitate
fie
fieca
fiecare
fiece
field
fields
fier
fiera
fierbe
fierbere
fierbint
fierbinte
fiert
fierul
fierului
fies
fifa
fifth
fig
figaro
fight
fighter
fighting
figura
figurat
figure
figureaza
figures
figuri
figurile
fii
fiica
fiice
fiicei
fiicele
fiii
fiilor
fiind
fiindca
fiindu
fiint
fiji
fila
filarmonica
filarmonicii
fildes
file
files
filiala
filiale
filialei
filimon
filip
filipescu
filipine
filippo
fillmore
film
filma
filmare
filmarea
filmat
filmata
filmate
filme
filmele
filmelor
filmografie
films
filmul
filmului
filolog
filologi
filologie
filosof
filosofi
filosofia
filosofic
filosofica
filosofice
filosofie
filosofiei
filosoful
filotti
filozof
filozofi
filozofia
filozofic
filozofica
filozofice
filozofie
filozofiei
filozoful
filtru
fim
fin
fina
final
finala
finale
finalei
finalis
finalist
finalista
finaliza
finalizarea
finalizat
finalizata
finalizate
finalul
financial
financiar
financiara
financiare
finant
find
fine
finele
finet
finiste
finit
finita
finite
finlanda
finlandei
finlandez
finlandeza
finlandeze
finlandezi
finn
fiodor
fior
fiori
fir
fire
firea
fireasca
firefox
firele
fires
firesc
firii
firma
firme
firmei
firmele
first
firul
fis
fiscal
fiscala
fiscale
fischer
fish
fisher
fisiune
fit
fitzgerald
fiu
fiul
fiului
five
fix
fixa
fixare
fixarea
fixat
fixata
fixate
fixe
fixeaza
fizic
fizica
fizice
fizician
fizicianul
fizicieni
fizicii
fizico
fiziologice
fiziologie
fk
fl
fla
flaca
flag
flamand
flamanda
flammarion
flancul
flancurile
flandra
flash
flaubert
flaut
flavius
fleming
fletcher
flight
floare
floarea
flondor
floor
flora
florale
florea
florei
florence
florent
florentin
florentina
flores
florescu
floreta
flori
florian
florica
florida
florile
florilor
florin
florina
florini
floristice
flota
flote
flotei
flotila
flowers
floyd
fluctuat
fluent
fluid
fluidelor
fluier
fluiera
flutur
flutura
fluture
fluturi
fluvii
fluviu
fluviul
fluviului
flux
fluxul
fluxului
fly
flying
flynn
fm
fo
foaia
foaie
foame
foamea
foamei
foamete
foametea
foametei
foarte
foc
focar
focare
focs
focul
focului
focuri
focus
foi
foile
foileton
foioase
fois
folclor
folcloric
folclorice
folclorist
folclorul
folclorului
folk
folkemengd
folos
folosea
foloseasca
foloseau
foloses
folosesc
folosi
folosind
folosindu
folosint
folosire
folosirea
folosirii
folosit
folosita
folosite
folositoare
folosul
fond
fonda
fondarea
fondat
fondata
fondate
fondatoare
fondator
fondatori
fondatorii
fondatorul
fondeaza
fondul
fondului
fonduri
fondurile
fondurilor
fonetic
fonetica
fonetice
fonta
fontaine
fontsize
food
foot
football
for
forbes
force
forces
ford
foreign
forest
forestier
forestiera
forestiere
forever
forgotten
form
forma
formal
formala
formale
formare
formarea
format
formata
formate
formatul
formau
forme
formeaza
formei
formele
formelor
former
formeze
formula
formulare
formularea
formularul
formulat
formulata
formulate
formule
formulei
formulele
fort
forta
forte
fortificat
fortificata
fortificate
fortress
fortul
fortului
fortuna
fortune
forul
forum
forumul
fos
fosfat
fosfor
fosile
fost
fosta
foste
fostei
fostele
fostelor
foster
fostu
fostul
fostului
fotbal
fotbalis
fotbalist
fotbalistul
fotbalul
fotbalului
foto
fotograf
fotografi
fotografia
fotografiat
fotografica
fotografice
fotografie
fotografii
fotografiile
fotograful
fotomodel
found
foundation
four
fourier
fourth
fox
fr
fra
frac
fracasso
fract
fractura
frageda
fragila
fragment
fragmente
fragmentele
fram
franc
franca
france
frances
francesca
francesco
francez
franceza
franceze
francezi
francezii
francezilor
francezul
franci
francia
francii
francilor
francis
francisc
franciscan
franciscana
francisco
franciza
franck
franco
franconia
frank
frankenstein
frankfurt
frankivsk
franklin
frant
franz
fraser
frasin
frat
frate
fratele
fratelui
frauda
fraxinus
fraza
fraze
fre
freca
frecvent
frecventa
frecventat
frecvente
frecventeaza
fred
freddie
freddy
frederic
frederick
frederik
free
freedom
freeman
freiburg
french
fresca
fresce
frescele
fresh
freud
frh
fri
frica
friday
friedman
friedrich
friend
friends
fries
frig
frigul
fritz
friuli
friza
from
front
frontal
frontala
frontier
frontiera
frontiere
frontierei
frontierele
frontierelor
frontul
frontului
fronturi
frost
fru
fruct
fructe
fructele
fructelor
fructiferi
fructul
frumoasa
frumoase
frumos
frumosul
frumus
frumuset
frunt
fruntas
frunte
fruntea
frunza
frunze
frunzele
frunzelor
frunzetti
frunzis
fsn
ft
fu
fuchs
fug
fuga
fugari
fuge
fugi
fugind
fugit
fulger
fulgera
fulgerul
full
fuller
fulltext
fum
fuma
fumul
fun
funciare
funct
fund
funda
fundal
fundalul
fundament
fundamental
fundamentala
fundamentale
fundamentul
fundas
fundat
fundul
funerar
funerara
funerare
funghi
fungi
fungorum
funk
fura
furat
furata
furate
furca
fure
furia
furie
furios
furis
furnica
furnici
furniza
furnizarea
furnizat
furnizate
furnizeaza
furnizeze
furnizor
furnizori
furt
furtul
furtuna
furtuni
furtunii
furtunoasa
fury
fus
fuse
fusese
fusesera
fusion
fusul
future
fuzionat
fuziune
fuziunea
g
ga
gabor
gabriel
gabriela
gabrovo
gaeta
gaga
gaius
gal
gala
galactic
galactica
galaction
galat
galata
galatasaray
galaxia
galaxie
galaxiei
galaxii
galaxy
galben
galbena
galbene
galbeni
gale
galeria
galerie
galeriei
galerii
galeriile
galia
galicia
galileea
galilei
galileo
galilor
galit
gallery
gallimard
gama
game
gameplay
games
gamma
gan
gandhi
gane
gang
ganymede
gar
gara
garant
garanta
garantat
garanteaza
garci
garcia
gard
garda
garde
garden
gardianul
gardner
gardul
garduri
gare
garfield
garibaldi
garnizoana
garnizoanei
garonne
garrett
garros
gary
gas
gaston
gat
gata
gate
gates
gaulle
gaura
gavriil
gavril
gavrila
gay
gaz
gaza
gazda
gaze
gazele
gazelor
gazeta
gazette
gazos
gazul
gazului
gb
gdan
ge
gea
geam
geama
geamuri
geamurile
gear
geata
geau
gedichte
gehrels
gekkonidae
gel
gelos
gelozie
gelu
gema
gemene
gemeni
gen
gena
gender
gene
genealogic
genele
genelor
genera
general
generala
generale
generali
generalii
generalita
generalizat
generalizata
generalizate
generalul
generalului
generarea
generat
generata
generate
generation
generatoare
generator
genere
genereaza
generic
generos
genesis
genetic
genetica
genetice
geneva
geneza
genis
genitale
genitiv
geniu
geniul
geniului
genocid
genocidul
genova
gent
gentiana
gentile
gentleman
genul
genului
genunchi
genunchii
genunea
genuri
genurile
genus
geo
geoffrey
geograf
geografia
geografic
geografica
geografice
geografie
geographic
geolog
geologic
geologica
geologice
geologie
geometria
geometric
geometrica
geometrice
geometrie
geometriei
geometry
geopolitica
georg
george
georges
georgescu
georgeta
georgia
georgian
georgiana
georgiei
ger
gerais
gerald
gerard
gerhard
germ
germain
german
germana
germane
germani
germania
germanic
germanica
germanice
germaniei
germanii
germanilor
germano
germany
gers
ges
geschichte
gesellschaft
gest
gestapo
gestiona
gestionare
gestionarea
gestiune
gestul
gesturi
get
geta
geto
gh
ghana
ghazi
ghaznavizii
ghaznavizilor
gheare
ghearele
gheat
gheorghe
gheorgheni
gheorghi
gheorghit
gheorghiu
gherasim
gherea
gherila
gherla
gherman
ghet
ghias
ghica
ghici
ghid
ghidul
ghiftui
ghika
ghirai
ghirardi
ghit
ghizdavet
ghost
ghosts
ghurizii
ghurizilor
gi
gia
giacomo
gian
gianni
giant
gibraltar
gibson
gica
gie
gif
gigant
gigi
gil
gila
gilbert
gilles
gimnasta
gimnastica
gimnaziala
gimnaziale
gimnaziu
gimnaziul
gimnaziului
gina
ginerele
gingas
gion
giorgio
gios
giovanni
gire
girl
girls
gironde
git
gita
giules
giulia
giulio
giurescu
giurgiu
giuseppe
give
given
gj
gje
gla
glaciare
glanda
glande
glandele
glas
glasgow
glass
glasul
glasuri
glen
glenn
gli
glise
gloant
gloata
glob
global
globala
globale
globe
globul
globului
glodariu
glodeni
glont
gloria
glorie
gloriei
glory
glosar
glu
glucoza
gluma
glume
gm
gmbh
gnaphosidae
gne
gnu
go
goala
goale
goana
god
godefroi
gods
goes
goethe
goga
gogh
gogol
gogu
goguryeo
goi
goia
going
gol
gold
goldberg
golden
goldstein
goles
golescu
golf
golful
golfului
golgheter
golgheteri
golul
golului
goluri
golurile
gomez
goncourt
gone
gonfalone
gong
goniothalamus
gonit
gonza
gonzaga
good
goodbye
google
goosse
gopo
gor
gora
gorbaciov
gordon
gore
gorica
gorizia
gorj
gorki
gorun
gos
gospel
gospoda
gostes
gostit
gostita
got
gotha
gothic
gotic
gotica
gotice
gottfried
gottorp
gould
gov
government
goya
gp
gps
gr
gra
graba
grace
grad
gradat
grade
gradele
gradul
gradului
graf
graffiti
grafic
grafica
grafice
grafiche
grafician
graham
grai
graiul
grajd
gram
gramatica
gramatical
gramaticale
gramatici
gramaticile
grame
grammar
grammy
gran
granada
grand
grande
grandet
granit
grant
gras
grasa
grat
gratis
gratuit
gratuita
gratuite
graur
grav
grava
grave
graves
gravitat
gravor
gravura
gravuri
gray
graz
gre
grea
greaca
great
greater
greatest
grec
greceanu
greceasca
greces
grecesc
greci
grecia
greciei
grecii
grecilor
greco
grecu
grecul
greece
greek
green
greene
greenpeace
greenwood
greg
gregor
gregorian
gregory
grei
grele
grenada
grenade
grenoble
greoaie
greoi
gres
gresie
greu
greuta
greutate
greutatea
greva
grevisse
grey
gri
griffin
griffith
griffiths
grig
grigoras
grigore
grigorescu
grigori
grigorie
grigoriu
grija
griji
grila
grimaldi
grimm
grinda
grindina
grinzi
gripa
grivit
gro
groapa
groasa
groase
groaza
groaznic
groeneveld
groenlanda
gropi
gros
grosime
grosimea
gross
grosso
grossu
grosu
grosul
grota
ground
group
groups
grove
groza
grozav
grozava
große
gru
grub
gruia
grup
grupa
grupare
gruparea
grupat
grupate
grupe
grupei
grupele
grupelor
grupul
grupului
grupuri
grupurile
grupurilor
gruzia
gsd
gt
gta
gu
guadalcanal
guard
guardian
guatemala
guatteria
gubernia
guberniei
gubiri
gue
guerra
guerre
guerrero
guest
guez
guglielmo
guide
guido
guild
guillaume
guin
guinea
guinee
guineea
guinness
guise
guitar
gujarat
guler
gulit
gun
gunoi
guns
gura
gurele
guri
gurii
gurile
gurion
gurjara
gurkha
gus
gust
gusta
gustaf
gustav
gustave
gusti
gustul
gustului
gut
guta
gutenberg
guvern
guverna
guvernamental
guvernamentala
guvernamentale
guvernamentali
guvernare
guvernarea
guvernat
guvernator
guvernatori
guvernatorilor
guvernatorul
guvernatorului
guverne
guverneaza
guvernele
guvernelor
guvernoratul
guvernul
guvernului
guy
guyana
gwen
gy
gyi
gyllenhal
gyo
gyula
h
ha
haakon
haas
habitat
habitate
habitatelor
habitatul
habitatului
habsburg
habsburgic
habsburgica
habsburgice
habsburgilor
hachette
had
hades
hadrian
haemaphysalis
haga
hagan
hagi
hahn
hai
haide
haiduci
haifa
haiku
hailivka
haim
haina
hainaut
haine
hainele
haiti
hajdu
hal
hala
halberstadt
hale
haleakala
half
hali
hall
halle
haller
halloween
halta
halucinat
ham
hamburg
hamid
hamilton
hamlet
hammer
hampshire
han
hand
handbal
handbalis
handbalist
handbalista
handbaliste
handbook
handbuch
handicap
hands
hanna
hannah
hannibal
hanoi
hanovra
hans
hansen
hanul
hanului
haos
haosul
happy
har
hara
haralambie
harald
harap
harbor
hard
hardcore
hardware
hardy
hare
haret
harghita
harkov
harnic
harold
harpa
harpactea
harper
harriet
harris
harrison
harry
hart
harta
hartmann
harul
harvard
harvey
has
hasan
hasdeu
hasefer
haskovo
hassan
hastings
hat
hatki
hatman
hatmanul
haut
haute
hautes
hauteville
havana
have
haven
hawaii
hawk
hawkins
hay
haydn
hayes
haz
hbo
hc
hcm
hd
he
head
health
heart
hearts
heat
heath
heather
heaven
heavy
heavyweight
hebrew
hectare
hector
hegel
hei
heidegger
heidelberg
height
heights
heine
heinlein
heinrich
heinz
held
helen
helena
helene
heliade
helin
helina
heliophanus
heliu
hell
hello
helmut
help
helsinki
helvella
hemingway
hen
henderson
hendrik
henri
henric
henrietta
henriette
henrik
henry
henryk
her
hera
herald
heraldica
herbert
hercule
hercules
herdelea
herder
here
heritage
herman
hermann
hermannstadt
hermes
herna
hero
herodot
heroes
herschel
herson
hert
herzog
hessa
hesse
hessen
het
heteropoda
hezbollah
hg
hi
hibrid
hidden
hidraulica
hidraulice
hidrocarburi
hidrogen
hidrogenul
hidrogenului
hidrografic
hidrografica
hidrologie
hidroxid
higgins
high
higher
highway
hill
hills
hilton
him
himalaya
himmler
hindenburg
hindus
hip
hiroshi
hiroshima
hirotonit
his
hist
histoire
historia
historic
historical
historique
history
hit
hitchcock
hitler
hits
hituri
hiv
hl
hler
hli
hm
hmelni
hmelnii
hmelnit
hms
hncke
hnit
ho
hoang
hoarda
hoc
hochei
hodos
hoffman
hoffmann
hogan
hogna
hohenstaufen
hohenzollern
hol
holban
hold
holding
holera
holiday
holland
holly
hollywood
holmes
holocaust
holocaustului
holstein
holt
holul
holy
home
homepage
homer
homme
hommes
homo
homosexual
homosexuale
homosexuali
homosexualitatea
honda
honduras
hong
honor
honore
honoris
hood
hooker
hoover
hop
hope
hopkins
hora
horace
horak
horat
horea
horia
horivka
horizon
horizons
horizontal
hormoni
horn
horodi
horodok
horohiv
horror
horse
horst
hos
hospital
hossu
hosts
hot
hota
hotar
hotare
hotarele
hotarul
hotel
hotelul
hotelului
hoteluri
hotin
hotinului
hotnews
hotspur
houghton
hour
hours
house
houston
houten
how
howard
howe
hoysala
hp
hr
hra
hram
hramul
hrana
hranei
hrer
hri
hrisov
hristos
hrlinge
hrsg
hrus
ht
htm
html
http
https
hu
huang
hubble
hubert
hubner
hudson
hue
hugh
hughes
hugo
hugues
hui
human
humanitas
humbert
humboldt
humor
humorului
humphrey
hundred
hunedoara
hungarian
hungary
hunt
hunter
hus
hussain
hussein
hut
huta
hyde
hydrotaea
hypericum
hyperion
hz
i
ia
iaca
iacob
iacov
iad
iadul
iadului
iakub
ial
iala
iale
ialele
iali
ialomit
ialul
ialului
ian
iana
iancu
ianjen
ianjeni
ianke
ianu
ianuarie
ianul
iapa
iar
iara
iarba
iare
iarna
iarta
ias
iasa
iasca
iasi
iaste
iat
iata
iate
iatic
iatica
iativa
iative
iatorul
iatul
iatului
iau
iavoriv
iaza
ib
iba
iberia
iberica
ibid
ibidem
ibm
ibn
ibra
ibrahim
ibsen
ic
ica
ice
ich
ichim
ici
icoana
icoane
icoanele
icoanelor
icon
iconostas
iconostasul
icut
id
ida
idaho
ide
idea
ideal
ideala
ideale
idealul
idealurile
idee
ideea
idei
ideii
ideile
ideilor
idem
identic
identica
identice
identifica
identificare
identificarea
identificat
identificata
identificate
identification
identifice
identita
identitate
identitatea
identity
ideologia
ideologic
ideologica
ideologice
ideologie
ideologiei
ideologii
idiot
idis
idol
idris
ie
ieee
ieftin
ieftina
ieftine
iehova
iei
ieie
iele
iemilcii
iene
ieni
ienii
ienilor
iepure
iepurele
iepuri
ier
ierarh
ierarhi
ierarhia
ierarhie
ierarhiei
ierburi
iere
ierea
ierele
ierelor
ieremia
ieri
ierii
ierneaza
ierni
iernii
ieronim
iert
ierta
iertare
iertarea
iertat
ierte
ierul
ierusalim
ierusalimul
ierusalimului
ies
iesc
iese
ieste
iestrie
iet
iete
ieu
ieze
iezuit
if
ific
ifica
ifice
ifico
ig
iga
igan
iganca
igani
iganii
iganilor
iganul
igara
igiena
igla
ign
ignat
ignora
ignorant
ignorat
igoiul
igor
ii
iia
iii
iile
iilor
iind
iisus
iit
iitor
ik
il
ila
ilarie
ilarion
ile
ileana
ileanu
ilegal
ilegala
ilegale
ilei
ileni
iles
ilescu
ilfov
ilia
iliada
ilias
ilici
ilie
iliescu
ilina
ilinca
ille
illinois
illustrated
illustrations
ilona
ilor
iluminare
iluminat
ilustra
ilustrat
ilustrata
ilustrate
ilustrator
ilustreaza
iluzia
iluzie
iluzii
im
ima
image
images
imagesize
imagina
imaginar
imaginara
imaginare
imaginat
imagine
imaginea
imagini
imaginii
imaginile
imaginilor
imagistica
imam
imdb
ime
imea
imediat
imediata
imediate
imens
imensa
imense
img
imi
imigrant
imigrat
imii
imile
imilor
iminent
iminenta
imita
imitat
imleu
immanuel
imn
imnul
imnuri
imobil
imobile
imobiliare
imobilul
imp
impact
impactul
impactului
impar
impart
imperativ
imperfect
imperial
imperiala
imperiale
imperiali
imperii
imperiu
imperiul
imperiului
implementa
implementare
implementarea
implementat
implementate
implica
implicare
implicarea
implicat
implicata
implicate
implice
implicit
import
important
importanta
importante
importat
importate
importul
imposibil
imposibila
imposibilitatea
impotriva
impozit
impozite
impozitelor
impresia
impresie
impresii
impresionant
impresionanta
impresionante
impresionat
impreuna
imprima
imprimat
imprimeria
imprimeriile
improvizat
impuls
impulsul
impun
impuna
impune
impunea
impunerea
impus
impusa
impuse
imre
imunita
imunitar
in
ina
inainte
inamic
inamica
inamice
inamici
inamicii
inamicilor
inamicul
inamicului
inari
inat
inata
inaugurarea
inaugurat
inaugurata
inc
inca
incai
incapabil
incapacitatea
incendiat
incendii
incendiilor
incendiu
incendiul
incendiului
inceput
incerta
incertitudine
inch
inchizit
incident
incidente
incidentul
incinta
includ
includa
include
includea
includeau
includerea
includes
including
inclus
inclusa
incluse
inclusiv
incluza
incolor
incompleta
incons
incorect
incredibil
increment
inculpat
incursiuni
ind
independence
independent
independenta
independente
index
india
indian
indiana
indica
indicat
indicata
indicate
indicativ
indicator
indicatori
indice
indicele
indicii
indie
indiei
indiene
indieni
indienii
indiferent
indigene
indiile
indiilor
indirect
indirecta
indirecte
individ
individual
individuala
individuale
individul
individului
indivizi
indivizii
indivizilor
indo
indonezia
indravarman
indre
indrila
indu
induce
induct
indus
industria
industrial
industriala
industriale
industrias
industrie
industriei
industrii
industry
ine
inea
ineanu
ineau
inedit
inedite
ineficient
inegale
inegalita
inel
inele
inelele
inelelor
inelui
inelul
inelului
inem
inere
inerea
inerii
inert
ines
inet
ineu
inevitabil
inevitabila
inf
infanta
infanteria
infanterie
infanteriei
infanteris
infarct
infect
infectat
infectate
inferioara
inferioare
inferior
infern
infiltrat
infinit
infinita
infinite
infinitiv
infinitivul
infinity
inflamat
inflat
influent
influenta
influente
info
informa
informare
informat
informatica
informatice
information
informativ
informator
informeaza
infract
infraros
infrastructura
infrastructurii
infty
ing
inginer
ingineri
ingineria
inginerie
inginerii
inginerul
inginerului
ingrediente
ingrid
inhiba
ini
inii
inile
inilor
inima
inimi
inimii
inimile
init
inject
inn
inna
innsbruck
inocent
inocybe
inos
inovat
inovatoare
ins
insa
inscript
insecta
insecte
insectele
insera
insert
inside
insigna
insista
insistat
insistent
inspect
inspector
inspectoratul
inspectoratului
inspectorul
inspira
inspirat
inspirata
inspirate
instagram
instala
instalare
instalarea
instalat
instalata
instalate
instaleaza
instant
instantaneu
instaurarea
instaurat
instinct
instituire
instituirea
instituit
instituita
institut
institute
institution
institutul
institutului
instruct
instructor
instruire
instruirea
instruit
instrument
instrumental
instrumentala
instrumentale
instrumente
instrumentele
instrumentelor
instrumentis
instrumentul
insuficient
insuficienta
insuficiente
insula
insule
insulei
insulele
insulelor
insulina
insulta
insurect
insurgent
int
inta
intact
inte
integra
integral
integrala
integrale
integranta
integrare
integrarea
integrat
integrata
integrate
integreaza
integrita
integritatea
intel
intelectual
intelectuala
intelectuale
intelectuali
intelectualii
intelectualilor
inteligent
inteligenta
inteligente
intelligence
intens
intensa
intense
intensifica
intensificat
intensita
intensitate
intensitatea
intensiv
intensiva
intent
inter
interact
interactiva
interactive
interbelic
interbelica
interbelice
intercalate
intercontinental
intercontinentala
interdict
interes
interesa
interesant
interesanta
interesante
interesat
interesata
interesate
interese
intereseaza
interesele
intereselor
interesul
interesului
interfat
interferent
interfet
interimar
interioara
interioare
interior
interiori
interiorul
intermediar
intermediara
intermediare
intermediari
intermediul
intern
interna
internat
international
internationale
internazionale
interne
internet
internetul
internetului
interogat
interpret
interpreta
interpretare
interpretarea
interpretat
interpretata
interpretate
interpreteaza
interpretei
interpreteze
interpretul
intersect
intersecteaza
interstelar
interval
intervale
intervalul
interveni
intervenit
intervent
interview
intervina
intervine
interviu
interviuri
interzica
interzice
interzicea
interzicerea
interzis
interzisa
interzise
intim
intima
intime
intitulat
intitulata
intitulate
into
intolerant
intonat
intoxicat
intr
intra
intrara
intrare
intrarea
intrase
intrat
intrau
intre
intri
intriga
intrigi
introduc
introduca
introduce
introducere
introducerea
introducerii
introduction
introductiv
introdus
introdusa
introduse
intru
intuit
inu
inuit
inul
inului
inundat
inuse
inut
inuta
inute
inutil
inutila
inutile
inutul
inutului
inuturi
inuturile
inuyasha
invada
invadarea
invadat
invadeaza
invasion
invazia
invazie
invaziei
invazii
invent
inventar
inventarea
inventarul
inventat
inventata
inventator
inventatori
inventatorul
invers
inversa
investiga
investigarea
investigat
investit
investitori
invisible
invita
invitat
invitata
invizibil
invoca
invocat
io
ioachim
ioan
ioana
ioanei
ioanid
ioanit
ioasa
ioase
ioba
iobagi
iod
iohannis
ion
iona
ional
ionala
ionale
ionalei
ionali
ionalis
ionalism
ionalismul
ionalismului
ionalist
ionalista
ionaliste
ionalita
ionalitate
ionalitatea
ionalizarea
ionalul
ionar
ionara
ionare
ionarea
ionari
ionarii
ionarilor
ionarul
ionarului
ionas
ionat
ionata
ionate
ionau
ioneaza
ionel
ionela
ionescu
ioneze
ioni
ionic
ionica
ionice
ionii
ionis
ionism
ionismul
ionist
ionista
ioniste
ionit
ionut
iorda
iordache
iordan
iordania
iordaniei
iorga
iorgu
iorgulescu
iori
ios
iosefina
iosif
iosua
iowa
ip
ipa
iphone
ipoteza
ipoteze
ipsilanti
ir
ira
irak
irakian
irakului
iran
iranian
iraniana
iraniene
iranul
iranului
irat
ire
irea
ireland
irene
iri
irigat
irii
irile
irilor
irina
iris
irish
iritat
irlanda
irlandei
irlandez
irlandeza
irlandeze
irlandezi
irod
irodalmi
iron
ironic
ironie
irul
iruri
irving
is
isa
isaac
isabel
isabela
isabella
isabelle
isac
isaia
isbn
isca
iscovescu
ise
isera
isfdb
isi
isidor
isidore
isis
isla
islam
islamic
islamica
islamice
islamul
islamului
island
islanda
islandei
islands
isle
ismail
iso
isonzo
ispa
ispita
ispra
isprava
israel
israeli
israelian
israeliana
israeliene
israelieni
israelit
israelul
israelului
issn
issue
issues
ist
ista
istanbul
iste
istet
istoria
istoric
istorica
istorice
istorici
istoricii
istoricilor
istorico
istoricul
istoricului
istorie
istoriei
istorii
istoriografia
istrati
istria
istroroma
istul
istva
isus
it
ita
italia
italian
italiana
italiei
italiene
italieni
italienii
italienilor
italo
italy
ite
itoare
itor
itori
its
itu
itul
itului
itunes
itzhak
iu
iubea
iubeasca
iubes
iubesc
iubi
iubire
iubirea
iubiri
iubirii
iubit
iubita
iubite
iubitoare
iubitor
iubitul
iucn
iucnredlist
iuda
iudaica
iudaice
iudaism
iudaismul
iudaismului
iuga
iugoslav
iugoslava
iugoslave
iugoslavi
iugoslavia
iugoslaviei
iul
iulia
iulian
iuliana
iulie
iuliu
iulius
iului
iun
iune
iunea
iunei
iuni
iunie
iunii
iunile
iunilor
iuri
iurie
ius
iustin
iustinian
iusuf
iut
iute
iv
iva
ivan
ivanivka
ivano
ivanov
ivanovic
ivanovici
iveala
ives
ivi
ivit
ivka
ivo
ix
ixodes
ixodida
ixodidae
iz
iza
izba
izbi
izbucnes
izbucni
izbucnirea
izbucnirii
izbucnit
izbuti
izbutit
izgonit
izola
izolare
izolarea
izolat
izolata
izolate
izotopi
izvoare
izvoarele
izvoarelor
izvor
izvora
izvoru
izvorul
j
ja
jack
jackie
jackson
jacob
jacobs
jacqueline
jacques
jaf
jaffa
jaffna
jafuri
jahre
jaime
jake
jakob
jale
jalea
jam
jamaica
james
jamie
jan
jana
jandarmeriei
jandarmi
jandarmii
jane
janeiro
janet
jang
jankovic
january
janusz
japan
japanese
japonez
japoneza
japoneze
japonezi
japonezii
japonezilor
japonia
japoniei
jar
jason
jasper
java
javier
jay
jaya
jayavarman
jazz
je
jean
jeanne
jedi
jeff
jefferson
jeffrey
jefuit
jena
jenkins
jennifer
jenny
jeno
jens
jensen
jeremy
jericho
jerome
jerry
jersey
jertfa
jertfe
jerusalem
jerzy
jesse
jessica
jesu
jesus
jet
jeune
jewish
jews
jg
ji
jianu
jii
jilava
jill
jim
jimmy
jin
jina
jir
jit
jitoare
jitoarea
jitor
jitorul
jiu
jiul
jiului
jls
jmas
jo
joa
joaca
joace
joachim
joan
joasa
joase
job
joc
jocul
jocului
jocuri
jocurile
jocurilor
joe
joel
joey
johan
johann
johanna
johannes
john
johnny
johns
johnson
johnston
joi
joint
jon
jonas
jonathan
jonct
jones
jong
jordan
jorge
jos
josan
jose
josef
joseon
joseph
josephinische
josh
joshua
josip
jour
journal
journey
jovkva
joy
joyce
jpeg
jpg
jpl
jr
jstor
ju
juan
juca
jucat
jucata
jucate
jucau
jud
jude
judeca
judecat
judecata
judece
judet
judetul
judge
judiciar
judiciara
judiciare
judith
judy
jugul
jul
jules
julia
julian
juliana
julie
julien
julieta
julio
julius
july
juma
jump
jun
june
jung
jungla
jungle
junimea
junioare
junior
juniori
juno
jupa
jupiter
jur
jura
jurat
jure
juridic
juridica
juridice
juris
jurisdict
jurisprudent
jurist
juriu
juriul
juriului
jurnal
jurnale
jurnalele
jurnalis
jurnalism
jurnalist
jurnalista
jurnalistica
jurnalistul
jurnalul
jurnalului
jurul
just
justice
justifica
justificare
justificat
justificata
justin
justinian
justit
juventus
k
ka
kaap
kabaka
kafka
kagome
kai
kaiser
kali
kambujadesa
kameanka
kamil
kamin
kan
kanal
kane
kanem
kansas
kant
kaplan
kara
karate
karel
karen
karin
karl
karlsruhe
karol
kars
kas
kashmir
kasim
kassai
kassel
kat
kata
kate
kateri
katherine
kathleen
kathmandu
katz
kay
kazahstan
kazahstanului
kazan
kazimierz
kb
kc
ke
keep
keith
keller
kelly
kely
kemal
ken
kennedy
kenneth
kenny
kent
kentucky
kenya
kepler
kerman
kernbach
kerr
kesha
kevin
key
keys
kg
kgb
khan
khuzistan
ki
kiado
kick
kid
kids
kiev
kievului
kii
kill
killer
killing
kilograme
kilometri
kilometru
kim
kin
kind
king
kingdom
kings
kingston
kira
kirby
kirche
kirit
kirk
kirovohrad
kis
kiss
kiste
kit
kitt
kiustendil
kiv
kivka
kivt
klajn
klan
klaus
klein
kleine
klet
klux
km
knaur
knaurs
knesset
knight
knights
know
knowledge
knowles
known
knox
knut
ko
kobayashi
kobeleaki
koc
koch
koda
kofi
koga
kolaiiv
kolaiivka
kolozsva
koma
kon
kong
konrad
konstantin
konya
korea
korean
korlevic
korosten
koryo
kos
kosmos
kosovo
kossuth
kov
kova
kove
kovel
kozelet
kra
kramer
kreis
kremlin
kri
kris
kriterion
kro
kryptogamenflora
krzysztof
ku
kubrick
kun
kunst
kurosawa
kurt
kus
kushiro
kuwait
kv
kw
ky
kyle
kylie
kyo
kyoto
l
la
lab
labirint
laboratoare
laborator
laboratorul
laboratorului
laboratory
laburist
lac
laca
lacerta
lacra
lacrima
lacrimi
lacrimile
lactarius
lactate
lactee
lacul
lacului
lacuri
lacurile
lacurilor
lada
ladies
ladislau
lady
laga
laguna
lai
laic
laice
laj
lajos
lake
lalt
lama
lamaison
lambda
lambert
lame
lamele
lamelele
lampa
lan
lancaster
lance
land
landau
landes
landkreis
lands
landul
landulf
landului
lane
lang
langa
lange
langle
language
languages
langue
lanka
lansa
lansare
lansarea
lansat
lansata
lansate
lanseaza
lanseze
lant
laolalta
laos
laosul
lapte
laptele
laptelui
lara
lare
larea
larg
larga
large
largi
largul
larisa
larousse
larry
lars
larvele
las
lasa
lasca
lase
laser
last
lat
lata
late
later
lateral
laterala
laterale
latin
latina
latine
latines
latinescul
latini
latino
latitudine
latura
laturi
laturile
laturilor
lauda
laude
laura
laureat
laureata
lauren
laurence
laurent
lauri
laurian
lausanne
laux
lava
lavinia
law
lawrence
laws
layer
layla
laza
lazar
lazio
lb
lba
lbatic
lbatica
lbatice
lbatici
lbui
lbuie
lc
lca
lcare
lcarea
lcat
lcea
lcescu
lci
lcii
lciu
ld
lda
ldots
ldura
ldurii
le
lea
leac
lead
leader
leafa
leaga
league
learning
leasca
leat
leba
lebedi
leben
leca
lecat
lecca
leccinum
lech
leclerc
lect
lector
lectura
lecture
lecturi
led
lee
leeds
left
lefter
leg
lega
legacy
legal
legala
legale
legarea
legat
legata
legate
legatura
lege
legea
legend
legenda
legendar
legendara
legende
legendei
legendele
legends
legi
legii
legile
legilor
legionar
legionara
legionare
legionari
legionarii
legislat
legislativ
legislativa
legislative
legislatura
legitim
legitima
legitimat
legiunea
legiuni
legiunii
legiunile
legume
lei
leibniz
leicester
leiden
leigh
leipzig
lem
lemberg
lemmon
lemn
lemne
lemnoase
lemnul
lemnului
lena
lenes
leni
lenii
lenin
leningrad
lennon
lent
lenta
lente
lentile
leo
leon
leonard
leonardo
leone
leonid
leonida
leonte
leonului
leopard
leopold
lepa
lepidoptera
lepidoptere
lepiota
lepthyphantes
leptotyphlops
lepus
ler
les
lesc
lescu
leslie
lesnar
lesne
lespezi
lester
let
leti
letona
letonia
letoniei
letopiset
letter
letters
lettres
leu
leucauge
leul
leului
lev
levant
level
levi
levin
levine
levit
levy
lewis
lex
lexical
lexicale
lexicon
lexiconul
lexikon
lexington
lez
leziuni
lfa
lg
lgbt
lhari
li
lia
liana
liao
liban
libanului
liber
libera
liberal
liberala
liberale
liberali
liberalii
liberalilor
libere
liberi
liberia
liberta
libertate
libertatea
liberty
libia
libra
librairie
library
libre
libret
libri
lica
liceale
licee
licent
liceu
liceul
liceului
lichid
lichida
lichidarea
lichide
lichidul
licitat
lider
lideri
liderii
liderilor
liderul
liderului
lidia
lie
liebe
liechtenstein
liei
lies
life
liga
ligamentul
light
lights
ligi
ligii
ligue
lii
liiceanu
liile
like
lil
lile
lili
liliac
liliacul
liliana
lilieci
lille
lily
lim
lima
liman
limanul
limba
limbaj
limbaje
limbajul
limbajului
limbi
limbii
limbile
limbilor
limburg
limes
limita
limitarea
limitat
limitata
limitate
limite
limiteaza
limited
limitele
limiteze
limitrofe
limnophora
limpede
limpezi
lin
lina
lincoln
linda
lindsay
lindsey
line
linear
lines
linescu
linguistics
linguistique
lingus
lingvis
lingvist
lingvistic
lingvistica
lingvistice
lingvisticii
linia
liniar
liniara
liniare
linie
liniei
linii
liniile
liniilor
linis
link
links
linnaeus
lint
linus
linux
linyphiidae
linz
liolaemus
lion
lionel
liov
lipan
lipit
lipite
lipova
lipoveni
lippe
lipsa
lipsea
lipseau
lipsei
lipses
lipsesc
lipsi
lipsit
lipsita
lipsite
lira
lire
liric
lirica
lirice
liriomyza
lis
lisa
lisabona
lispe
lispocephala
list
lista
listate
liste
listei
listele
liszt
lit
lita
lite
litera
literal
literalmente
literar
literara
literare
literari
literary
literat
literatur
literatura
literature
literaturi
literaturii
litere
literele
literelor
liternet
litiu
litoral
litoralul
litoralului
litri
litte
little
lituania
lituanian
lituaniana
lituaniei
lituaniene
lituanieni
liturghia
liturghie
liturgica
liturgice
liu
liudmila
liv
livada
live
liverpool
lives
livezi
livezile
livia
living
liviu
livius
livka
livra
livrare
livrat
livrate
livre
lix
lizards
ljubljana
ll
ller
lloyd
lma
lmi
ln
lna
lneasca
lnes
lnesc
lni
lniceanu
lnim
lnire
lnirea
lniri
lnirii
lnirile
lnit
lnita
lnite
lo
loc
local
locala
locale
locali
localita
localitate
localitatea
localiza
localizare
localizarea
localizat
localizata
localizate
localnici
localnicii
localnicilor
localul
locas
locat
locke
locomotiva
locomotive
locomotivele
locotenent
locotenentul
loct
locui
locuia
locuiasca
locuiau
locuies
locuiesc
locuind
locuint
locuire
locuit
locuita
locuite
locuitor
locuitori
locuitorii
locuitorilor
locul
locului
locuri
locurile
locurilor
locus
locut
lodge
lodi
log
logan
logic
logica
logice
logicii
logistica
logo
logodit
logodna
logodnica
logofa
loial
loiali
loialitate
loialitatea
loir
loire
loiret
loja
lola
london
londra
londrei
lonely
loneos
long
longitudinal
longitudinale
longitudine
longrightarrow
look
looking
looney
lopa
lopez
lor
lord
lordul
lordului
loredana
lorena
lorenzo
los
lost
lot
lothar
lotrului
lotul
lotului
loturi
lotus
lou
louis
louise
louisiana
louvre
love
loveasca
lovers
loves
lovi
lovinescu
lovit
lovita
lovitura
lovituri
loviturii
loviturile
low
lower
loze
lp
lpi
lpii
ls
lt
lta
ltd
lticeni
ltinis
lu
lua
luara
luare
luarea
luase
luat
luata
luate
luau
lublin
luc
luca
lucas
lucca
luce
luceafa
lucerna
luces
luchian
luci
lucia
lucian
luciano
lucien
lucifer
lucilia
lucire
lucirea
lucit
lucita
lucite
lucitoare
lucitor
luciu
lucius
lucky
lucra
lucrare
lucrarea
lucrat
lucrate
lucrau
lucreaza
lucret
lucreze
lucru
lucrul
lucrului
lucruri
lucrurile
lucrurilor
lucy
ludovic
ludwig
luftwaffe
luga
lugoj
luhansk
lui
luie
luigi
luind
luis
luisa
luise
luit
luita
luiza
luka
lukas
luke
luki
lul
lului
lulut
luma
lume
lumea
lumei
lumi
lumie
lumii
lumilor
lumina
luminat
luminata
luminate
lumineaza
lumini
luminii
luminile
luminit
luminoasa
luminoase
luminos
luna
lunar
lunara
lunare
lunca
lund
lundstrom
luneta
lung
lunga
lungi
lungime
lungimea
lungimi
lungimii
lungmetraj
lungu
lungul
luni
lunii
lunile
lup
lupa
lupas
lupescu
lupi
lupii
lupin
lups
lupta
luptat
luptau
lupte
luptei
luptele
luptelor
lupu
lupul
lupului
lupus
lus
luscinia
lusignan
lut
luterana
luterani
luther
lutz
luvru
lux
luxembourg
luxemburg
lva
ly
lycosa
lycosidae
lyi
lymantria
lynch
lynn
lynx
lyon
lzire
lzirea
lzit
m
ma
maas
mac
macarie
macbeth
macdonald
macedonean
macedoneana
macedoneni
macedonia
macedoniei
macedonski
machiavelli
machine
mack
mackenzie
macmillan
macovei
mad
mada
madagascar
madam
madame
made
madeleine
madison
madonna
madonnei
madrid
mae
maes
maestru
maestrul
maestrului
mafia
mafiei
mag
magazin
magazine
magazinele
magazinul
magazinului
magda
magdalena
magdeburg
magellan
maggie
magh
maghiar
maghiara
maghiare
maghiari
maghiarii
maghiarilor
magia
magic
magica
magice
magie
magistrala
magistrat
magna
magnat
magnet
magnetic
magnetica
magnetice
magneziu
magnificul
magnitudine
magnitudinea
magnolia
magnus
magyar
mahala
mahalaua
mahdi
mahler
mahmud
mahomed
mai
maia
maica
maici
maicii
maidan
maiden
mail
maimut
main
maine
mainstream
mainz
maior
maiorescu
maiorul
maiorului
mais
maison
major
majora
majore
majorita
majoritar
majoritara
majoritate
majoritatea
make
making
mal
mala
malaezia
malaysia
malcolm
maldive
male
mali
malik
mall
malla
malloch
mallorca
malta
malul
malului
maluri
malurile
mama
mamaia
mame
mamei
mamelucii
mamifere
mamiferele
mamiferelor
man
mana
management
managementul
managementului
manager
managerul
manastirea
mancha
manche
manchester
manciuriana
mandat
mandate
mandatul
mandatului
mane
manea
manet
manevra
manevre
manfred
manga
mangalia
manhattan
mani
mania
maniera
manifest
manifesta
manifestant
manifestare
manifestarea
manifestat
manifeste
manifestul
manii
manilor
manipula
manipulare
manipularea
maniu
mann
mannheim
manolache
manole
manolescu
mans
mansfield
manson
mansur
manta
mantaua
mantova
manu
manual
manuala
manuale
manualul
manuel
manul
manului
manuscris
manuscrise
manuscrisele
manuscrisul
many
mao
map
maplandia
maps
mar
mara
maram
maramures
maranha
maraton
marburg
marc
marca
marcante
marcat
marcata
marcate
marcatoare
marcator
marcel
marcello
march
marche
marcheaza
marcheze
marchiz
marchizul
marco
marcos
marcu
marcus
mare
marea
mareanivka
marek
marele
marelui
mares
marfa
marga
margaret
margareta
marghiloman
margine
marginea
margini
marginile
margot
margraf
marguerite
mari
maria
mariajul
marian
mariana
marianne
mariano
marie
mariei
marii
marile
marilor
marilyn
marin
marina
marinar
marinari
marinarii
marine
marinei
marinescu
marini
marino
mario
marion
marioneta
marit
maritim
maritima
maritime
maritimes
marius
mark
marker
market
marketing
markgraf
marko
markus
marlborough
marlowe
marmat
marmura
marne
maro
maroc
maroniu
marquez
mars
marseille
marshall
marsilia
mart
marta
marte
martha
marti
martie
martin
martinez
martir
martiri
martor
martori
martorii
marvel
marvin
marx
marxist
mary
maryland
mas
masa
masacru
masacrul
masacrului
masca
mascat
mascul
masculi
masculii
masculin
masculina
masculine
masculul
mase
masei
masele
maselor
masiv
masiva
masive
masivul
masivului
mask
mason
mass
massachusetts
massimo
master
masterat
masters
masud
mat
mata
mataram
matca
match
mate
mateescu
matei
matematic
matematica
matematice
matematici
matematician
matematicianul
matematicieni
matematicii
mater
materia
material
materiala
materiale
materialele
materialelor
materialul
materialului
materie
materiei
materii
matern
materna
math
mathbb
mathbf
mathcal
mathematical
mathematics
mathias
mathieu
mathrm
matia
matilda
mato
matrice
matricea
matrix
matt
matteo
matter
matthew
matthews
matthias
matur
matura
mature
maturitate
maturitatea
maurice
mauritania
maurizio
mausoleul
mavrocordat
max
maxi
maxim
maxima
maxime
maximilian
maximul
maximum
maximus
maxwell
may
maya
mayas
mayenne
mayer
maza
mazilu
mb
mba
mbe
mbes
mbet
mbetul
mbi
mbina
mbind
mbit
mbla
mboga
mbolna
mbovit
mbox
mbra
mbraca
mbu
mbuna
mc
mccarthy
mccartney
mcdonald
mcgraw
mcintyre
mclaren
mcmahon
md
mda
me
mea
mearga
mecanic
mecanica
mecanice
mecanicii
mecanism
mecanisme
mecanismele
mecanismul
mecca
mechanism
meci
meciul
meciului
meciuri
meciurile
meciurilor
mecklenburg
med
medal
medalia
medaliat
medalie
medaliei
medalii
medaliile
medalistica
media
mediafax
medial
mediala
median
mediana
medias
medic
medical
medicala
medicale
medicament
medicamente
medicamentele
medicamentelor
medicat
medici
medicii
medicilor
medicina
medicinale
medicine
medicinei
medico
medicul
medicului
medie
mediei
medieval
medievala
medievale
medii
mediile
medina
meditat
mediterana
mediterane
mediteranean
mediteraneana
mediteraneene
mediteranei
mediu
mediul
mediului
meet
meeting
meg
mega
meglenoroma
mehedint
mehmed
mehmet
mei
meiji
mein
meinhard
meiningen
meir
meissen
mel
melanagromyza
melancolie
melanie
melbourne
mele
meleaguri
melinda
melissa
melodia
melodie
melodiei
melodii
melodiile
melodiilor
member
members
membra
membrana
membranei
membre
membrele
membrelor
membri
membrii
membrilor
membru
membrul
memoirs
memorabile
memoria
memorial
memoriala
memoriale
memorialistica
memorialul
memoriam
memorie
memoriei
memorii
memoriile
memoriu
memory
memphis
men
menirea
menit
menita
menite
ment
mental
mentala
mentale
mentalita
mentenant
mentor
mentorul
mer
mercedes
mercenari
mercur
mercury
mercy
mere
meredith
mereu
merg
merga
merge
mergea
mergeau
mergem
mergi
meridiane
meridionali
meris
merit
merita
merite
meritele
meritul
merlin
merovingiana
merry
mers
merse
mersul
mes
mesa
mesager
mesaj
mesaje
mesajele
mesajul
mesajului
mese
mesei
mesele
meseria
meserias
meserie
meserii
mesia
mesopotamia
message
messier
messina
mesteaca
met
meta
metacritic
metafizica
metafora
metal
metale
metalelor
metalic
metalica
metalice
metallica
metalul
metalului
metan
meteo
meteorit
meteorologice
meteorologie
method
metoda
metode
metodei
metodele
metodelor
metraj
metri
metric
metrica
metro
metropolis
metropolitan
metropolitana
metropolitane
metrou
metroul
metroului
metru
metz
meu
meuse
mexic
mexican
mexicana
mexicane
mexicani
mexico
mexicului
meyer
mez
mezi
mg
mgm
mh
mhnt
mhz
mi
mia
miai
miami
miaza
mic
mica
michael
michaels
michel
michelangelo
michele
michelle
michigan
mici
micii
micile
micilor
mick
mickey
micle
micologul
micoriza
micro
microni
microscopice
microsoft
mics
micu
micul
micului
micut
mid
mida
middle
midi
midnight
midway
mie
miei
miel
miercurea
miercuri
miere
mierea
mieszko
mieu
miez
miezul
mig
might
migrat
migratoare
migreaza
miguel
miha
mihaela
mihai
mihail
mihailovici
mihalache
mihnea
mihu
mii
miile
mijloace
mijloacele
mijloacelor
mijloc
mijlocas
mijlocie
mijlocii
mijlociu
mijlocul
mike
miklo
mil
mila
milan
milano
mile
milenii
mileniu
mileniul
mileniului
miles
milescu
miliard
miliarde
milioane
milion
milit
milita
militant
militar
militara
militare
militari
militarii
militarilor
military
militat
mill
mille
millennium
miller
million
millo
mills
milo
milos
milton
mimi
min
mina
minas
mincinos
minciuna
minciuni
mincu
mind
mine
minei
minele
minelor
mineral
minerala
minerale
minereu
mineri
minerva
ming
minge
mingea
mini
miniatura
minier
miniera
miniere
minim
minima
minime
minimum
minis
miniserial
minister
ministere
ministerul
ministerului
ministru
ministrul
ministrului
ministry
minneapolis
minnesota
minogue
minor
minora
minore
minori
minorita
minoritare
minoritate
minoritatea
minsk
mint
mintala
mintale
minte
mintea
mintele
mintelor
minul
minulescu
minunat
minunata
minunate
minune
minunea
minuni
minunile
minunilor
minus
minut
minute
minutes
minutul
mio
mioara
miorit
mir
mira
miracle
miracol
miranda
mirare
mirat
mircea
mire
mirea
mireasa
mirel
mirela
miresei
mirhorod
miriam
miron
miros
miroslav
mirosul
mirror
mis
mishima
misionar
misionari
misiune
misiunea
misiuni
misiunii
misiunile
misiunilor
miss
mission
mississippi
missouri
mister
mistere
misterele
misterioasa
misterioase
misterios
misterul
mistic
mistica
mistice
mistret
mit
mita
mitchell
mite
mitica
mitologia
mitologic
mitologice
mitologie
mitraliera
mitraliere
mitropolia
mitropoliei
mitropolit
mitropolitana
mitropolitul
mitropolitului
mitsubishi
mitteleuropas
mitul
mituri
miturile
mivka
mix
mixt
mixta
mixte
miz
miza
mizeria
mizerie
mizi
mizil
mk
ml
mla
mlas
mli
mm
mmediu
mn
mnic
mnicu
mnicului
mo
moale
moara
moare
moarta
moarte
moartea
moas
mobil
mobila
mobile
mobilier
mobilierul
mobilitate
mobiliza
mobilizare
mobilizarea
mobilizat
mocanu
mod
moda
modalita
modalitate
modalitatea
mode
modei
model
modelarea
modelat
modele
modelele
modelelor
modelul
modelului
modena
moderat
moderata
moderate
modern
moderna
moderne
moderni
modernism
modernitate
moderniza
modernizare
modernizarea
modernizat
modest
modesta
modeste
modifica
modificare
modificarea
modificat
modificata
modificate
modifice
modul
module
modului
modulul
moduri
modurile
moesia
moga
moghila
moghulilor
mogos
mohamed
mohammad
mohammed
moi
moines
moise
moisescu
mol
moldavia
moldo
moldova
moldovan
moldovean
moldoveanu
moldovei
moldoveneasca
moldovenes
moldovenesc
moldoveni
moldovenii
moldovenilor
molecula
molecular
moleculara
moleculare
molecule
moleculele
moleculelor
molid
molie
molii
molly
molotov
molus
moment
momentan
momente
momentele
momentul
momentului
mon
mona
monaco
monahal
monahala
monahale
monarh
monarhi
monarhia
monarhie
monarhiei
monarhii
monarhul
monarhului
monastery
monasti
monde
mondial
mondiala
mondiale
mondiali
mondo
moneda
monede
monedei
monedele
monedelor
monet
moneta
monetar
monetara
monetare
money
mongol
mongola
mongole
mongoli
mongolia
mongolii
mongolilor
monica
monitor
monitorizare
monitorizarea
monitorul
monografia
monografie
monografii
monopol
monopolul
monroe
mons
monsieur
monster
monsters
monstru
monstrul
mont
montaj
montan
montana
montane
montarea
montat
montata
montate
monte
montferrat
montgomery
montpellier
montre
montreal
monument
monumental
monumentala
monumentale
monumente
monumentele
monumentelor
monuments
monumentul
monumentului
moon
moore
mor
mora
moral
morala
morale
moralul
morar
morariu
moraru
moravia
morbihan
morchella
mordellistena
more
moreau
morel
moreno
morfologia
morfologic
morfologice
morfologie
morgan
mori
moriarty
morii
moritz
morma
mormi
morminte
mormintele
morning
morris
morrison
morse
mort
mortal
mortalita
mortalitatea
mortem
morton
moruzi
mos
moschee
moscheea
moschei
moscova
moscovei
moscow
moselle
moser
moses
moshe
moss
most
mosti
mostra
mostre
mot
mother
motion
motiv
motiva
motivat
motive
motivele
motivul
motoare
motoarele
motoarelor
motociclete
motor
motors
motorul
motorului
motru
motto
mount
mountain
mountains
mouse
mov
movement
movie
movies
movila
movile
mozaic
mozaici
mozambic
mozart
mozilla
mp
mpa
mpace
mpart
mparta
mparte
mpeanu
mperechere
mpi
mpia
mpie
mpiedica
mpiedicat
mpiedice
mpiei
mpii
mpiile
mpina
mpinarea
mpinat
mpinga
mpinge
mpins
mpla
mplare
mplarea
mplase
mplat
mplate
mple
mplineasca
mplines
mplini
mplinirea
mplinirii
mplinit
mpodobit
mpodobita
mpodobite
mpotriva
mpra
mprejur
mprejura
mprejurare
mprejurimi
mprejurimile
mprejurul
mpreuna
mprietenes
mprietenit
mproprieta
mprumut
mprumuta
mprumutat
mprumutate
mprumutul
mprumuturi
mpul
mpului
mpulung
mpuri
mpurile
mpurilor
mpus
mput
mr
mrohaung
mrs
ms
mt
mta
mtoarea
mtsho
mtv
mu
muban
mubarak
mucenic
mucenici
much
muchii
mucoasa
mugur
muhammad
muiere
muizz
mul
muller
mult
multa
multe
multele
multi
multimedia
multinat
multipla
multiplayer
multiple
multiplu
multitudine
multor
multora
muma
mun
munca
muncaci
munceasca
munces
munchen
munci
muncii
muncit
muncitoare
muncitor
muncitores
muncitoresc
muncitori
muncitorii
muncitorilor
mundi
mundo
munhumutapa
municipal
municipala
municipale
municipalita
municipalitate
municipalitatea
municipii
municipiilor
municipiu
municipiul
municipiului
munit
munt
munte
muntean
munteanu
muntele
muntelui
muntenegreana
muntenegru
muntenegrului
munteni
muntenia
munteniei
muntii
muntoasa
muntoase
muntos
mura
murad
murala
murale
murat
murda
murdar
murdara
murdare
murder
mures
muri
murind
murise
murit
murmura
murphy
murray
mus
musa
musca
muscel
muscidae
musculara
musculare
musculus
muse
museo
museum
music
musica
musical
muslim
mussolini
must
musta
mustafa
mustansir
mustat
mustra
musulman
musulmana
musulmane
musulmani
musulmanii
musulmanilor
mut
muta
mutant
mutare
mutarea
mutat
mutata
mutate
mutauakkil
mute
muza
muzeal
muzee
muzeele
muzeelor
muzeu
muzeul
muzeului
muzica
muzical
muzicala
muzicale
muzicali
muzician
muzicianul
muzicieni
muzicii
muzicolog
mw
my
myanmar
mydaea
myers
myospila
myotis
myrmarachne
myspace
mysterio
mystery
myth
n
na
nabla
nac
nach
nacional
nad
nada
nadal
nadia
nadina
nae
nagy
nai
nainta
naintare
naintarea
naintas
naintat
naintata
naintate
nainte
naintea
nainteaza
nainteze
naiv
naiva
nakamura
nal
nala
nale
nalt
nalta
nalte
naltei
naltul
nalul
nam
name
names
namibia
namur
nan
nana
nancy
nansen
nantes
naomi
naos
naosul
naosului
napoca
napoi
napole
napoleon
napoleoniene
napoli
nar
nara
narat
narativ
narative
narator
naratorul
nare
narea
narmat
narmate
naruto
nas
nasa
nasc
nasca
nase
nash
nasir
nasr
nassau
nasul
nat
nata
natal
natala
natale
natalia
natalie
nate
nathan
nathaniel
nation
national
nationala
nationale
nations
nativ
nativa
native
nativi
nato
natul
natura
natural
naturala
naturale
naturali
naturalis
naturalist
naturalizat
nature
naturelle
naturii
nau
naum
nautilus
nava
naval
navala
navale
navarra
nave
navei
navele
navelor
naveta
naviga
navigat
navigator
navy
nazaret
nazi
nazis
nazist
nazista
naziste
nba
nbc
nc
nca
ncadra
ncadrat
ncadrata
ncadrate
ncadreaza
ncalca
ncape
ncarcerat
ncare
ncarea
ncasa
ncasat
ncat
ncata
nce
nceana
nceanu
nceapa
ncearca
ncene
ncep
ncepa
ncepe
ncepea
ncepeau
ncepere
nceperea
nceperii
ncepi
ncepu
ncepura
ncepuse
ncepusera
nceput
nceputa
ncepute
nceputul
nceputului
nceputuri
nceputurile
ncerc
ncerca
ncercare
ncercarea
ncercat
ncercau
ncerce
nces
ncescu
ncet
nceta
ncetare
ncetarea
ncetat
nceteaza
nceteze
ncetul
ncheia
ncheiat
ncheiata
ncheiate
ncheie
ncheiere
ncheierea
ncheind
nchen
nchez
nchid
nchida
nchide
nchidere
nchiderea
nchina
nchinat
nchinata
nchine
nchipui
nchipuit
nchiriat
nchis
nchisa
nchise
nchisoare
nchisoarea
nchisori
nchisorii
nchisorile
nchiza
nci
ncii
ncila
ncile
ncilor
ncime
ncimea
ncimi
ncins
ncles
nclina
nclinare
nclinat
nclinata
ncoace
ncoase
ncolo
nconjoara
nconjura
nconjurat
nconjurata
nconjurate
ncorona
ncoronare
ncoronarea
ncoronat
ncorporat
ncorporata
ncorporate
ncos
ncotro
ncoveanu
ncredere
ncrederea
ncredint
ncrenga
ncret
ncreza
ncrucis
ncu
ncul
nculescu
ncuraja
ncurajarea
ncurajat
ncurajeaza
ncurca
ncurcat
ncus
ncut
ncuviint
nd
nda
ndata
ndatoririle
nde
ndea
ndeajuns
ndeam
ndeamna
ndeaproape
ndeasca
ndelung
ndelungat
ndelungata
ndelungate
ndema
ndemn
ndemna
ndemnat
ndemnul
ndeosebi
ndepa
ndeplineasca
ndeplines
ndeplinesc
ndeplini
ndeplinind
ndeplinire
ndeplinirea
ndeplinit
ndeplinite
nder
ndes
ndesc
ndet
ndez
ndi
ndim
ndind
ndindu
ndire
ndirea
ndirii
ndise
ndit
ndita
ndite
nditor
nditori
ndoi
ndoiala
ndoieli
ndoit
ndor
ndoua
ndra
ndre
ndreapta
ndrepta
ndreptat
ndreptata
ndreptate
ndrepte
ndri
ndria
ndrie
ndru
ndruma
ndrumare
ndrumarea
ndrumat
ndu
nduiala
nduios
nduit
ndul
ndului
ndunica
ndura
ndurat
nduri
ndurile
ndurilor
ndus
ndut
nduta
ndute
ndva
ne
nea
neacs
neaga
neagoe
neagra
neagu
neal
neam
neamt
neamul
neamului
neamuri
neamurile
nean
neanu
neapa
neapole
neapolelui
near
neas
neasa
neasca
neasta
neat
neata
neau
neava
neaza
neba
nebraska
nebula
nebuloasa
nebun
nebuna
nebuni
nebunia
nebunie
nebunul
nec
neca
necat
necaz
necazuri
necazurile
necesar
necesara
necesare
necesari
necesarul
necesita
necesitat
necesitate
necesitatea
neci
necii
necomestibil
necomestibile
necondit
neconstitut
necontenit
necorespunza
necredincios
necreditat
necropola
neculai
neculce
necunoscut
necunoscuta
necunoscute
nedatate
nedelcu
nedrept
nedrepta
nedreptate
need
neerlandez
neerlandeza
neerlandeze
neerlandezi
nefavorabile
nefericire
nefericit
nefericita
nefiind
nega
negat
negativ
negativa
negative
neglijent
negociat
negociere
negocieri
negocierile
negocierilor
negocieze
negoit
negot
negre
negrea
negres
negri
negrii
negru
negrul
negruzzi
negura
negustor
negustori
negustorii
negustorilor
negustorul
negut
neguvernamentale
nehota
nei
neil
neill
nel
nela
nele
nelinis
nella
nelly
nelni
nelor
nelson
nelu
nem
nema
nemanja
nement
nemes
nemi
nemira
nemis
nemt
nemult
nen
nene
nenea
neni
nenorocire
nenorocirea
nenorocit
nenorocita
nenuma
neo
neobis
neoclasic
neoficial
neolitic
neolitica
nepa
nepal
nepenthes
nepla
nepoata
nepomuk
nepot
nepotul
nepotului
nepreva
neptun
neputa
neputincios
neputint
ner
nera
neregulat
neregulata
neregulate
nereus
nero
nerus
nervi
nervii
nervoasa
nervoase
nervos
nervul
nes
nesa
nesc
nescu
nesfa
nesigurant
nesimt
nespus
nespusa
nestor
net
neta
netanyahu
nete
neted
neteda
netede
neterminat
neterminata
netezi
netflix
netherlands
network
neue
neumann
neustadt
neutra
neutralitate
neutralitatea
neutre
neutroni
neutru
neva
nevada
nevasta
neve
never
nevertebrate
neville
nevinova
nevinovat
nevoi
nevoia
nevoie
nevoile
nevoilor
nevoit
nevoita
new
newcastle
newman
news
newton
next
nez
nfa
nfiint
nfiora
nfipt
nfla
nflores
nflorire
nflorit
nfloritoare
nfra
nfricos
nfrumuset
nfrunta
nfruntat
nfrunte
nfuriat
ng
nga
ngaci
ngc
nge
ngea
ngeau
ngele
ngelui
nger
ngera
ngere
ngerea
ngerei
ngeri
ngerii
ngerile
ngerilor
ngeroasa
ngeroase
ngeros
ngerul
nghet
nghit
ngi
ngo
ngra
ngrijire
ngrijirea
ngrijit
ngrijita
ngrijora
ngrijorare
ngrijorarea
ngrijorat
ngropa
ngropat
ngropata
ngropate
ngros
ngrozit
ngrozitoare
ngrozitor
ngust
ngusta
nguste
nguyen
nh
nha
nhumat
ni
nia
nic
nica
nicaragua
niccolo
nice
niceea
niceri
nichel
nichifor
nichita
nicholas
nicholson
nicht
nici
nicidecum
nicio
niciodata
niciun
niciuna
niciunul
nick
nickelodeon
nico
nicoara
nicodim
nicola
nicolae
nicolaescu
nicolai
nicolas
nicolau
nicolaus
nicole
nicolescu
nicoleta
nicu
nicula
niculae
niculescu
nie
niei
niels
nielsen
nien
nietzsche
nig
nigel
niger
nigeria
night
nightmare
nights
nigra
nii
nik
nikita
niko
nikola
nikolai
nikolaus
nikos
nil
nila
nile
nilor
nilului
nima
nime
nimea
nimeni
nimerit
nimic
nimica
nimii
nin
nina
nind
nindu
nine
ninja
nintendo
nio
nipru
nire
nirea
nirii
nis
nisa
nisip
nisipoase
nisipul
nisipuri
nisporeni
nistor
nistrene
nistru
nistrului
nit
nita
nite
nitoare
nitra
niv
nivel
nivele
nivelul
nivelului
niveluri
nivelurile
niven
nivka
nixon
njeni
njuma
njura
nk
nka
nkvd
nl
nla
nlocui
nlocuiasca
nlocuies
nlocuind
nlocuindu
nlocuire
nlocuirea
nlocuit
nlocuita
nlocuite
nlocuitor
nm
nma
nmatriculare
nmorma
nmult
nna
nne
nnoire
nnoit
no
noah
noapte
noaptea
noastra
noastre
nobel
nobil
nobila
nobile
nobili
nobiliara
nobiliare
nobilii
nobililor
nobilime
nobilimea
nobilimii
nobilul
noble
noblet
nocturna
nocturne
nod
nodul
noduri
nodurile
noe
noel
noi
noica
noiembrie
noii
noile
noilor
noir
nokia
nolan
nomazi
nomenclatura
nomenclature
nominal
nominala
nominale
nominaliza
nominalizare
nominalizarea
nominalizat
nominalizata
nominativ
non
nopt
nor
nora
norbert
nord
nordic
nordica
nordice
nordul
nordului
norfolk
nori
norii
norilor
norma
normal
normala
normale
norman
normanda
normandia
normanzi
normative
norme
normele
normelor
noroc
norocul
noroi
norops
norris
norte
north
northern
norton
norul
norvegia
norvegian
norvegiana
norvegiei
norvegiene
norvegieni
nos
nostru
not
nota
notabil
notabila
notabile
notabili
notar
notat
notata
notate
note
noteaza
notele
notes
nothing
notit
notoc
notorietate
notre
nottara
nou
noua
noul
noului
nous
nouta
noutate
nouveau
nouvelle
nouvelles
nov
nova
novac
novak
novara
nove
novel
november
novgorod
novi
novo
novohrad
novomi
novoselivka
novoukraiinka
now
np
nr
nra
nregistra
nregistrare
nregistrarea
nregistrasera
nregistrat
nregistrata
nregistrate
nregistreaza
nregistreze
nrolat
nros
nrudit
nrudita
nrudite
ns
nsa
nsca
nscrie
nscrierea
nscris
nscrisa
nscrise
nse
nseamna
nsele
nsemna
nsemnat
nsemnata
nsemnate
nsemne
nsemneaza
nsemnele
nska
nske
nski
nsot
nspa
nspre
nsta
nster
nstra
nsuflet
nsul
nsumi
nsura
nsurat
nsus
nsut
nt
nta
ntare
ntarea
ntat
ntata
ntate
ntau
nte
ntec
ntece
ntecele
ntecelor
ntecul
ntecului
ntei
nteia
nteie
ntem
ntemeiat
ntemeiata
ntemeiate
ntemeiaza
ntemeierea
ntemeietorul
ntemnit
nteni
nter
ntes
ntet
nther
nti
ntind
ntinde
ntindea
ntindere
ntinderea
ntins
ntinsa
ntinse
ntinza
ntoarca
ntoarce
ntoarcem
ntoarcere
ntoarcerea
ntoarsa
ntoarse
ntocmai
ntocmirea
ntocmit
ntocmita
ntorc
ntorca
ntorcea
ntorceau
ntorci
ntors
ntotdeauna
ntova
ntr
ntra
ntre
ntreaba
ntreaga
ntreb
ntreba
ntrebare
ntrebarea
ntrebat
ntrebe
ntrebi
ntrebuint
ntrece
ntrecut
ntreg
ntregi
ntregii
ntregime
ntregirea
ntregul
ntregului
ntreprinde
ntreprindere
ntreprinderea
ntreprinderi
ntreprinderii
ntreprinderile
ntreprinderilor
ntreprins
ntreprinse
ntreprinza
ntrerupa
ntrerupe
ntrerupere
ntreruperea
ntreruperi
ntrerupse
ntrerupt
ntrerupta
ntrerupte
ntret
ntru
ntruca
ntrunire
ntrunit
ntu
ntuire
ntuirea
ntuirii
ntuit
ntuitorul
ntuitorului
ntul
ntului
ntuneca
ntunecat
ntunecata
ntunecate
ntuneric
ntunericul
ntunericului
nturi
nturile
nturilor
nu
nuant
nuca
nuci
nuclear
nucleara
nucleare
nuclee
nucleu
nucleul
nucleului
nud
nui
nuia
nuiala
nuiau
nuiele
nuies
nuiesc
nuit
nuita
nuite
nul
nula
nului
numa
numai
numaideca
numar
numarul
number
numbers
nume
numea
numeasca
numeau
numele
numelor
numelui
numere
numerele
numerelor
numeric
numerica
numerice
numeroasa
numeroase
numeroasele
numeroaselor
numeros
numerotate
numes
numesc
numi
numim
numind
numindu
numire
numirea
numiri
numismatica
numit
numita
numite
numitele
numitul
nunt
nunta
nunte
nuntul
nur
nuri
nus
nut
nutrient
nutrit
nuvela
nuvele
nuvelei
nuvelele
nv
nva
nvat
nvecinate
nvecineaza
nvelis
nvelit
nvers
nvestit
nvet
nviat
nvie
nvierea
nvierii
nvinga
nvinge
nvins
nvinsa
nvinse
ny
nya
nyelv
nyi
nyve
nz
nza
nzare
nzarea
nze
nzei
nzele
nzestrat
nzi
nziana
nzura
nzurat
o
oaia
oaie
oak
oala
oameni
oamenii
oamenilor
oana
oancea
oara
oarba
oare
oarecare
oarece
oarecele
oareci
oarecum
oarei
oarele
oas
oase
oasele
oaselor
oaspet
oaspete
oaste
oastea
ob
oba
obama
obba
obeliscul
obi
obicei
obiceiul
obiceiuri
obiceiurile
obiceiurilor
obiect
obiecte
obiectele
obiectelor
obiectiv
obiectiva
obiective
obiectivele
obiectivelor
obiectivul
obiectivului
obiectul
obiectului
obis
obituary
obliga
obligat
obligata
obligate
obligatorie
obligatorii
obligatoriu
oboseala
obosit
obra
obrajii
obraz
obrazul
obs
obscura
obsedat
observa
observare
observarea
observat
observata
observate
observations
observator
observatori
observatorul
observatorului
observatory
observe
observer
obstacol
obstacole
obstruct
obt
obyvatel
oc
oca
ocara
ocat
ocazia
ocazie
ocazii
ocazional
ocazionale
occident
occidental
occidentala
occidentale
occidentali
occidentul
occidentului
ocean
oceane
oceanelor
oceania
oceanul
oceanului
och
ochelari
ochi
ochii
ochilor
ochiul
ochiului
ocna
ocnit
ocol
ocolul
ocrotirea
ocru
oct
octav
octave
octavian
octet
october
octombrie
ocular
ocupa
ocupant
ocupare
ocuparea
ocupat
ocupata
ocupate
ocupau
ocupe
od
oda
odaia
odaie
odata
odeon
oder
odesa
odessa
odihna
odihneasca
odihnes
odinioara
odiseea
odiseu
odo
odobescu
odorheiu
odyssey
oedip
of
ofensiva
ofensive
ofensivei
ofer
ofera
ofere
oferea
ofereau
oferi
oferind
oferindu
oferirea
oferit
oferita
oferite
oferta
oferte
oferul
off
offenbach
office
officer
official
oficial
oficiala
oficiale
oficiali
oficialii
oficialita
oficiu
oficiul
oficiului
ofit
ofta
og
oga
ogcodes
oglinda
oglinzi
ograda
oh
ohio
ohti
oi
oil
oile
oilor
oim
oimul
ois
oise
oituz
oiu
oizumi
ok
oklahoma
ol
ola
olaf
olanda
olandei
olandez
olandeza
olandeze
olandezi
olaru
old
oldenburg
ole
oleg
oleksandrivka
olga
oli
olimp
olimpia
olimpiada
olimpic
olimpica
olimpice
olimpici
oliveira
oliver
olivia
olivier
olt
oltchim
olteanu
oltenia
olteniei
oltenit
oltului
olympia
olympic
om
oma
omagiu
omaj
omajului
oman
omar
omega
omeneasca
omenes
omenesc
omenie
omenire
omenirea
omenirii
omer
omnia
omoara
omoare
omonim
omonima
omonime
omor
omora
omori
oms
omu
omul
omule
omului
on
once
one
ones
onesia
onest
ong
oni
online
only
ono
onoare
onoarea
onom
onorat
onorific
onoruri
ont
ontario
onu
op
opa
ope
opel
open
opera
operare
operat
operate
operation
operations
operativ
operator
operatori
operatorii
operatorname
operatorul
opere
opereaza
operei
operele
operelor
opereta
ophiomyia
opinia
opinie
opiniei
opinii
opiniile
oponent
oportunita
oportunitate
oportunitatea
opozant
opozit
oppenheimer
oprea
opreasca
opres
opresc
oprescu
opri
oprindu
oprire
oprirea
opris
oprit
oprita
oprite
opt
opta
optat
opti
optic
optica
optice
optima
optime
optimi
optimile
optsprezece
optulea
optzeci
opun
opuna
opune
opunea
opuneau
opus
opusa
opuse
or
ora
oradea
oral
orala
orale
orange
orania
orar
oras
orasul
orasului
orat
orator
orb
orban
orbi
orbit
orbita
orbital
orbitala
orbitale
orbite
orbiteaza
orbitei
orchestra
orchestrat
orchestre
orchestrei
order
ordin
ordine
ordinea
ordinele
ordinelor
ordinii
ordinul
ordinului
ordona
ordonant
ordonat
ordonata
ordonate
ore
oregon
orei
orele
orelor
orez
orfan
orfani
orfeu
org
orga
organ
organe
organele
organelor
organic
organica
organice
organici
organism
organisme
organismele
organismelor
organismul
organismului
organiza
organizare
organizarea
organizat
organizata
organizate
organization
organizator
organizatorii
organizeaza
organizeze
organul
orhei
ori
orica
oricare
orice
orici
oricine
oricui
oricum
orient
orienta
oriental
orientala
orientale
orientales
orientali
orientalis
orientare
orientarea
orientat
orientata
orientate
orientation
oriente
orientul
orientului
orificiul
origin
original
originala
originale
originalitate
originalitatea
originalul
originalului
originar
originara
originare
originari
origine
originea
origini
originii
originile
origins
orii
orion
oris
oriunde
orizont
orizontal
orizontala
orizontale
orizontul
orizonturi
orlando
orle
orleans
ornamentale
ornamentat
ornamente
ornamenti
orne
oro
ors
orson
ort
orthodox
ortodocs
ortodox
ortodoxa
ortodoxe
ortodoxia
ortodoxiei
ortografia
ortografie
orton
oru
orul
orz
os
osa
osaka
oscar
osce
oscilat
osea
oseaua
osele
oselei
osemintele
osi
osiris
oskar
oslo
osman
osmana
osoasa
osoase
osos
ospa
ostas
ostatici
osteneala
ostenit
ostila
ostile
ostilita
ostrogot
ostrov
osul
osului
oswald
ot
ota
other
others
otilia
otoman
otomana
otomane
otomani
otomanii
otomanilor
otra
otrava
ottawa
otto
ottokar
ottoman
ou
oua
ouest
oul
our
out
ov
ova
oval
ovala
oveni
over
overline
overview
ovia
ovid
ovidiu
oviei
ovrei
ovreii
ovruci
ovul
ovului
owen
owens
own
oxford
oxid
oxidare
oxidarea
oxigen
oxigenul
oxigenului
oz
ozn
p
pa
pablo
pac
pace
pacea
pachet
pachete
pachetul
pacient
pacientul
pacientului
pacific
pacificului
paciurea
pack
packard
pact
pactul
pactului
pada
padova
padre
pag
pagan
page
pages
pagina
pagini
paginii
paginile
paguba
pagube
pahar
pahare
paharul
pai
paideia
paie
pain
painting
paisprezece
pajis
pakistan
pal
pala
palace
palais
palat
palate
palatele
palatin
palatinat
palatul
palatului
palazzo
paleologilor
paleologul
palermo
palestina
palestine
palestinei
palestinian
palestiniana
palestiniene
palestinieni
paleta
palgrave
palid
palida
pallas
pallava
palma
palmares
palme
palmer
palomar
palos
palustris
pamela
pamfil
pampon
pan
pana
panait
panaitescu
panama
panchen
panda
pandemia
pandemiei
pandora
pandulf
pandurii
panglica
panica
pann
panorama
panoramio
panou
panouri
panta
pantaloni
pantazi
pante
pantele
pantelimon
pantera
pantofi
panzer
paolo
papa
papahagi
papal
papala
papale
pape
papei
paper
paperback
papers
papi
papilian
papua
papura
par
para
parabola
parada
parade
paradigma
paradis
paradise
paradisul
paradox
paradoxal
paradoxul
paragraf
paraguay
parai
parale
paralel
paralela
paralele
parametri
parametrii
paramilitare
paramount
parana
paranteze
paras
parascheva
paraschiv
paraschiva
paraschivescu
parazit
parc
parca
parcare
parchetul
parcul
parcului
parcurga
parcurge
parcuri
parcurs
parcursul
pardon
pardosa
pare
parea
pareys
parfum
pari
paris
parisul
parisului
pariuri
parizian
park
parker
parlament
parlamentar
parlamentara
parlamentare
parlamentari
parlamentul
parlamentului
parliament
parma
parodie
paroh
parohia
parohial
parohiala
parohiale
parohie
parohiei
parohii
part
parte
partea
partener
partenera
parteneri
parteneriat
parteneriatul
partenerii
partenerul
parter
parti
partial
participa
participant
participante
participare
participarea
participat
participau
participe
participiul
particula
particular
particulara
particulare
particularita
particularitate
particule
particulele
particulelor
partid
partida
partide
partidei
partidele
partidelor
partidul
partidului
partit
partito
partitura
partizan
partizani
partizanii
partizanilor
party
parus
pas
pasa
pasageri
pasagerii
pasaj
pasaje
pasajul
pascal
pascu
pase
pasionat
pasiune
pasiunea
pasiv
pasiva
pasquale
pass
passage
passion
past
pasta
pastia
pastie
pastor
pastorala
pasul
pat
pata
pate
patent
paterna
path
patima
patimi
patimile
patimilor
patinaj
patologica
patra
patria
patriarh
patriarhal
patriarhala
patriarhia
patriarhiei
patriarhul
patriarhului
patricia
patriciu
patrick
patrie
patriei
patrimoniu
patrimoniul
patrimoniului
patriot
patriotic
patriotica
patriotice
patriotism
patron
patronajul
patronul
patru
patrula
patrulea
patruzeci
patterson
patton
patul
patului
paturi
pau
paul
paula
paulina
pauline
paulo
paulus
pauza
pava
pavare
pavel
pavelescu
pavia
pavilion
pavilionul
pavlivka
pavlovici
pay
payne
pays
paz
paza
paznic
pb
pbs
pc
pci
pcr
pcrm
pcus
pd
pdf
pdl
pdm
pdsr
pe
peace
peak
pearl
pearson
peati
pedagog
pedagogi
pedagogic
pedagogica
pedagogice
pedagogie
pede
pedeapsa
pedepse
pedepsei
pedepsi
pedepsit
pedro
peer
pegomya
peisagistica
peisaj
peisaje
peisajele
peisajul
peisajului
pele
pelerinaj
pelerini
peles
pelicula
pelin
pen
pena
penajul
penal
penala
penale
penalizare
penalty
pene
penele
penguin
peninsula
peninsulei
penis
penisului
penitenciar
penitenciarul
penn
pennsylvania
penny
pensie
pensii
pensionare
pensionat
penticostali
pentr
pentru
pentruca
people
pepelea
per
percepe
percept
perceput
perceputa
percepute
perchezit
percut
percy
pere
perea
pereche
perechea
perechi
perechii
pereira
peremi
peres
peret
perete
peretele
peretelui
perfect
perfecta
perfecte
perfectul
performance
performant
peri
pericol
pericole
pericolul
pericolului
periculoasa
periculoase
periculos
periferia
periferice
perimetru
perimetrul
perioada
perioade
perioadei
perioadele
period
periodic
periodica
periodice
peripet
peris
perkins
perla
perle
permanent
permanenta
permanente
permis
permisa
permise
permisiunea
permit
permita
permite
permitea
permiteau
perna
perpendicular
perry
pers
persan
persana
persane
persecut
persecutat
persia
persic
persida
persiei
persista
persistent
persoana
persoane
persoanei
persoanele
persoanelor
person
personaj
personaje
personajele
personajelor
personajul
personajului
personal
personala
personale
personalita
personalitate
personalitatea
personalul
personalului
perspectiva
perspective
perspectives
perturba
perturbat
peru
pes
pesca
pescar
pescari
pescuit
pescuitul
pesta
peste
pestrit
pet
petale
petcu
pete
petenia
petenie
peteniile
peter
peters
petersburg
peterson
petit
petite
peto
petr
petra
petrache
petras
petre
petrea
petreaca
petrec
petreca
petrece
petrecea
petrecere
petrecerea
petreceri
petrecut
petrecuta
petrecute
petres
petrescu
petri
petrica
petriceicu
petris
petrivka
petro
petrograd
petrol
petroliere
petrolul
petrolului
petros
petrov
petrovic
petrovici
petru
petrus
peugeot
pez
pezii
pezilor
pfalz
pg
ph
phane
phantom
phaonia
phi
phil
philadelphia
philip
philipp
philippe
philippide
philips
phillip
phillips
philodromus
philosophical
philosophie
philosophy
phobos
phoenix
phone
photo
photos
php
phuc
phyllis
phylloscopus
physical
physics
phytoliriomyza
phytomyza
pi
pia
piacenza
pian
pianis
pianist
pianista
piano
pianul
piara
piarda
piasti
piat
piata
piatra
piaui
pib
pic
pica
picard
picasso
picioare
picioarele
picioarelor
picior
piciorul
piciorului
pict
picta
pictat
pictata
pictate
picteaza
picteze
pictor
pictori
pictorii
pictorilor
pictorit
pictorul
pictorului
pictura
picture
pictures
picturi
picturii
picturile
pie
piei
piele
pielea
pielii
piept
pieptul
pieptului
pier
pierce
pierd
pierde
pierdea
pierdere
pierderea
pierderi
pierderii
pierderile
pierderilor
pierduse
pierdut
pierduta
pierdute
piere
pieri
pierit
piero
pierre
pierza
piesa
piese
piesei
piesele
pieselor
piet
pieter
pietre
pietrei
pietrele
pietris
pietro
pietroasa
pietros
pigment
pila
pilda
pillat
pilot
pilotul
pilzatlas
pilzbuch
pilze
pilzfu
pin
ping
pinguicula
pini
pink
pinocchio
pintea
pintilie
pinus
pioneer
pionier
pionieri
pios
piotr
pipa
piper
piramida
piramide
pirat
pirata
pirea
pis
pisa
pisania
pisanie
pisica
pisici
pisicile
pista
piste
pistoale
pistol
pistolul
pit
pita
pitagora
pitan
pitanul
pitanului
pites
pitic
pitica
pitice
pitici
pitoresc
pitt
pittsburgh
pitulicea
piu
pius
pivka
pivnit
pivot
pixeli
piłsudski
pl
pla
plac
placa
place
placebo
places
plagiat
plai
plaiul
plaja
plaje
plan
plana
planck
plane
planet
planeta
planetar
planetare
planete
planetei
planetele
planetelor
planifica
planificare
planificarea
planificat
planificata
planificate
plans
plant
planta
plantagenet
plantat
plante
plantei
plantele
plantelor
plants
planul
planului
planuri
planurile
planurilor
plasa
plasarea
plasat
plasata
plasate
plaseaza
plasma
plastic
plastica
plastice
plastici
plat
plata
plate
platforma
platforme
platformei
platformele
platina
platnick
platon
platou
platoul
platoului
play
playboy
player
players
playstation
plaza
pldm
pleaca
plec
pleca
plecare
plecarea
plecase
plecat
plece
pleci
pledat
plenipotent
ples
plevna
pli
plimba
plimbare
plin
plina
pline
plini
pljevlja
ploaia
ploaie
ploi
ploies
ploile
plop
plopi
plotarea
plotdata
ploua
plovdiv
plug
plumb
plural
plus
pluta
plutes
plutind
plutitoare
pluto
pluton
plymouth
pm
pmatrix
pmid
pneumonie
png
pnl
pnt
po
poala
poalele
poarta
poarte
poata
poate
poc
poca
pocket
pocut
pod
podea
podeaua
podgoria
podgorica
podis
podium
podoaba
podoabe
podu
podul
podului
poduri
podurile
poe
poem
poeme
poemele
poems
poemul
poemului
poenaru
poet
poeta
poetic
poetica
poetice
poetry
poetul
poetului
poezia
poezie
poeziei
poezii
poeziile
pofida
pofta
poftes
poftim
poftit
pogora
pohl
poiana
poieni
poienile
point
points
poirot
poitiers
poke
poker
pokrovske
pol
poland
polar
polara
polare
pole
poleana
polemica
polese
poli
police
policy
poliedre
poliedru
poligoane
poligon
poligonala
polirom
polis
polish
polit
politehnic
politehnica
politet
politic
politica
political
politice
politici
politician
politiciana
politicianul
politicieni
politicienii
politicii
politicile
politicilor
politico
politics
politop
politopuri
polje
pollenia
polo
polon
polona
polone
polonez
poloneza
poloneze
polonezi
polonezii
polonezilor
poloni
polonia
poloniei
polono
polski
poltava
poluare
poluarea
polul
polyalthia
pom
pomana
pomenes
pomeni
pomenire
pomenirea
pomenit
pomerania
pomi
pompa
pompe
pompei
pompieri
pompierii
pompierilor
pompiliu
pomul
pondere
ponderea
pont
ponta
ponte
pontica
pop
popa
popas
pope
popes
popescu
popii
popoare
popoarele
popoarelor
popor
poporul
poporului
popovici
popp
popper
popular
populara
populare
populari
popularita
popularitate
popularitatea
popularizat
populat
populata
populate
population
por
porc
porci
porcii
porcina
porcine
porecla
poreclit
porneasca
pornes
pornesc
porni
pornind
pornira
pornire
pornirea
pornit
porno
porsche
port
porta
portal
portalul
portar
portari
portarul
portavioane
porte
porter
portit
portland
porto
portocalie
portocaliu
portofoliu
portofoliul
portrait
portret
portrete
portretele
portretul
portsmouth
portugal
portugalia
portugaliei
portughez
portugheza
portugheze
portughezi
portul
portului
porturi
porturile
porumb
porumbescu
porunca
porunces
porunci
poruncile
poruncit
pos
poseda
posedat
poseidon
posesia
posesie
posesiuni
posesiunile
posesiv
posibil
posibila
posibile
posibilita
posibilitate
posibilitatea
position
posomora
post
posta
postat
postbelica
postbelice
postelnicul
poster
posterioara
posterioare
posterior
postes
postesc
postfat
posti
postit
postul
postului
postum
postuniversitare
postura
posturi
posturile
posturilor
pot
potabila
potasiu
potcoava
poteca
potent
potop
potrives
potrivesc
potrivi
potrivit
potrivita
potrivite
potsdam
potter
pour
pova
povara
poves
poveste
povestea
povesteasca
povestes
povestesc
povesti
povestire
povestirea
povestiri
povestirii
povestirile
povestit
povet
powell
power
powers
poza
poze
pozit
pozitiv
pozitiva
pozitive
poznan
pp
ppe
pr
pra
practic
practica
practicant
practicarea
practicat
practicata
practicate
practice
practici
practicile
prada
prado
praf
praful
prag
praga
pragul
prahova
prahovei
pratihara
pratt
pre
prea
preah
preajma
prealabil
prealabila
preca
precara
precaut
precedat
precedata
precede
precedent
precedenta
precedente
precinct
precipitat
precis
precisa
precise
preciza
precizat
precizeaza
precizia
precizie
precoce
precum
precursor
preda
predare
predarea
predat
predate
predea
predeal
predecesorii
predecesorul
predescu
predica
predicat
predicativ
predicatul
predict
predilect
predomina
predominant
predominanta
prefa
preface
prefat
prefect
prefectul
prefectului
prefectura
prefecturii
prefera
preferat
preferata
preferate
preferint
prefix
prefixul
prega
prei
preia
preistorice
preistorie
prejudeca
prelat
prelegeri
preliminar
preliminara
preliminare
prelua
preluare
preluarea
preluat
preluata
preluate
prelucra
prelucrare
prelucrarea
prelucrat
prelucrate
preludiu
prelungire
prelungirea
prelungiri
prelungit
prelungita
prelungite
premerga
premiat
premiata
premiate
premier
premiera
premiere
premierei
premierul
premierului
premii
premiile
premiilor
premisa
premiu
premiul
premiului
premysl
prenume
prenumele
preocupa
preocupare
preocuparea
preocupat
preot
preoteasa
preotul
preotului
prepara
preparare
prepararea
preparat
preparate
preponderent
prepozit
pres
presa
prescript
prescurtat
presei
present
presents
president
presimt
presiune
presiunea
presiuni
presiunii
presiunile
presiunilor
press
presse
presses
prestat
preste
prestigioasa
prestigioase
prestigiu
prestigiul
preston
presupun
presupuna
presupune
presupunea
presupunem
presupus
presupusa
presupuse
presus
pret
pretendent
pretent
pretext
pretextul
pretind
pretinde
pretindea
pretins
pretutindeni
preva
prevede
prevedea
prevederi
prevederile
prevederilor
preveni
prevenire
prevenirea
preventiv
previna
prezan
prezent
prezenta
prezentare
prezentarea
prezentat
prezentata
prezentate
prezentatoare
prezentator
prezentau
prezente
prezentul
prezentului
prezice
prezidat
prezident
prezidiului
prezinta
prezinte
preziosi
prezis
pri
price
pricep
pricepe
priceput
pricina
pride
pridvor
pridvorul
pridvorului
priest
priestley
prieten
prietena
prietene
prieteni
prietenia
prietenie
prieteniei
prietenii
prietenilor
prietenos
prietenul
prietenului
prilej
prilejul
prim
prima
primar
primara
primare
primari
primarii
primarul
primarului
prime
primea
primeasca
primeau
primei
primejdia
primejdie
primele
primelor
primera
primes
primesc
primi
primii
primilor
primind
primire
primirea
primise
primit
primita
primite
primitiv
primitiva
primitive
primo
primordial
primul
primului
prin
prince
princeps
princess
princeton
principal
principala
principale
principalele
principalelor
principali
principalii
principalul
principat
principate
principatele
principatelor
principatul
principatului
principe
principele
principelui
principesa
principi
principii
principiile
principiilor
principiu
principiul
principiului
principles
prind
prinda
prinde
prinderea
prins
prinsa
prinse
print
printr
printre
prinza
prioara
priorita
prioritate
prisma
prison
prisos
prispa
privat
privata
private
privatizare
privea
priveasca
priveau
privelis
prives
privesc
privi
privighetoarea
privilegii
privilegiile
privind
privindu
privint
privire
privirea
priviri
privirile
privit
privita
privite
privitoare
privitor
prix
prize
prizonier
prizonieri
prizonierii
prizonierilor
prm
pro
proaspa
proaspete
proasta
proaste
proba
probabil
probabila
probabilita
probabilitate
probabilitatea
probe
probele
problem
problema
problematica
probleme
problemei
problemele
problemelor
problems
proc
proceda
procedat
procedee
procedeu
procedeul
procedura
proceduri
procedurii
procedurile
proceedings
procent
procente
procentul
proces
procesare
procesarea
procese
procesele
proceselor
procesoare
procesor
process
procesul
procesului
proclama
proclamarea
proclamat
proclamata
procura
procuror
procurorii
procurorul
procurorului
prodan
produc
produca
produce
producea
producere
producerea
producerii
product
production
productions
productivitate
produs
produsa
produse
produsele
produselor
produsul
produsului
proeminent
proeminenta
proeminente
prof
profesia
profesie
profesional
profesionala
profesionale
profesionis
profesionist
profesionista
profesioniste
profesoara
profesor
profesori
profesorii
profesorilor
profesorul
profesorului
professional
professor
profet
profetul
profetului
profil
profile
profilul
profit
profita
profitat
profite
profitul
profund
profunda
profunde
profunzime
program
programa
programare
programarea
programat
programata
programate
programe
programele
programelor
programul
programului
progres
progrese
progresele
progresiv
progresiva
progress
progresul
progresului
proiect
proiecta
proiectant
proiectare
proiectarea
proiectat
proiectata
proiectate
proiecte
proiecteaza
proiectele
proiectelor
proiectile
proiectul
proiectului
project
prokofiev
prolific
prolog
promis
promise
promisiunea
promit
promite
promot
promotor
promova
promovare
promovarea
promovat
promovata
promovate
promoveaza
promoveze
promulgat
pronaos
pronaosul
pronaosului
pronume
pronumele
pronunt
proof
propaga
propaganda
propagandei
propagarea
propice
proport
propova
propozit
propria
proprie
propriei
proprieta
proprietar
proprietari
proprietarii
proprietarilor
proprietarul
proprietarului
proprietate
proprietatea
proprii
propriile
propriilor
propriu
propriul
propriului
propulsat
propulsie
propun
propuna
propune
propunea
propunere
propunerea
propuneri
propunerile
propus
propusa
propuse
pros
prosper
prospera
prosperitate
prosport
prost
prostituata
prostitut
protagonis
protagonist
protagonistul
protect
protectedplanet
protection
protectoare
protector
proteina
proteine
proteinele
proteinelor
proteja
protejarea
protejat
protejata
protejate
protejeaza
protejeze
protest
protesta
protestant
protestanta
protestante
protestat
protestatari
protestatarii
proteste
protestele
protestelor
protestul
proto
protocoale
protocol
protocolul
protoni
protopop
protopopiatul
protopopul
prototip
prototipul
proust
provence
provenea
proveneau
proveni
provenient
provenind
provenit
provenita
provenite
provident
provin
province
provincia
provincial
provinciale
provincie
provinciei
provincii
provinciile
provinciilor
provine
provizii
proviziile
provizorie
provizoriu
provoaca
provoace
provoca
provocare
provocarea
provocat
provocata
provocate
proxy
proza
prozator
prozatori
prozei
pru
prudent
pruncul
prusac
prusaca
prusace
prusia
prusiei
prut
prutul
prutului
ps
psalmul
psd
pseudo
pseudonim
pseudonimele
pseudonimul
psi
psihiatrie
psihiatru
psihic
psihica
psihice
psiholog
psihologia
psihologic
psihologica
psihologice
psihologie
psihologiei
psrm
psychology
pt
pta
ptolemeu
ptura
ptus
pu
pub
public
publica
publicare
publicarea
publicat
publicata
publicate
publication
publications
publice
publici
publicis
publicist
publicistica
publicita
publicitare
publicitate
publicitatea
publicul
publicului
published
publisher
publishers
publishing
puccini
puerto
puf
pui
puie
puii
puilor
puiu
puiul
pulbere
pulberea
pulitzer
pulmonar
pulmonara
pulmonare
pumn
pumnii
pumnul
pun
puna
punct
punctaj
puncte
punctele
punctelor
punctul
punctului
pune
punea
puneau
punem
punere
punerea
punet
punga
pungi
punk
puns
punt
punta
punte
puntea
pupa
pur
pura
purces
pure
purificare
purple
purta
purtare
purtarea
purtat
purtata
purtate
purtau
pururea
pus
pusa
puse
pusera
pusese
pustie
pustii
pustiu
pustomi
put
puta
pute
putea
puteai
puteam
puteau
putem
putere
puterea
puteri
puterii
puterile
puterilor
puternic
puternica
puternice
puternici
putet
puti
putila
putin
putint
putna
putu
putut
puy
puzzle
px
pyre
python
q
qatar
qi
qing
qquad
qu
quad
quality
quantum
quarterly
quatre
que
quebec
queen
queens
queensland
quentin
quercus
quest
question
qui
quick
quinn
quo
r
ra
rabin
rabinul
rac
raca
race
rachel
racheta
rachete
rachetei
rachetele
rachetelor
rachiu
raci
racilor
racing
racovit
racul
rad
rada
radar
radi
radial
radiat
radical
radicala
radicale
radicali
radio
radioactiv
radioactive
radiodifuziune
radiofonic
radioul
radu
rae
raf
rafael
rafina
rahman
rai
raid
raidul
raiduri
raidurile
raie
rail
railway
rain
rainbow
rainer
raioane
raioanele
raion
raional
raionul
raionului
raiul
rajah
ral
rale
rally
ralph
raluca
ram
rama
ramaria
rame
rami
ramifica
ramificat
ramo
ramon
ramona
ramos
rampa
ramses
ramura
ramuri
ramurii
ramurile
ran
rana
ranca
rand
randall
randamentul
randolph
random
randy
rang
range
rangers
rangle
rangul
rani
ranii
ranilor
ranul
ranului
rao
raoul
rap
rapid
rapida
rapide
rapoarte
rapoartele
raport
raporta
raportat
raportata
raportate
raporteaza
raportul
raportului
raporturi
raporturile
rapper
rar
rara
rard
rare
rarea
rareori
rares
rari
ras
rasa
rasca
rase
rasei
rasiala
rasiale
rat
rata
ratat
rate
ratei
ratele
ratificat
rating
ration
ratul
ratului
rau
raul
rault
raven
ravenna
raw
ray
raymond
raza
razboi
raze
razele
razelor
rb
rba
rbat
rbatul
rbatului
rbe
rbes
rbesc
rbi
rbii
rbilor
rbos
rbu
rbulescu
rbune
rbunelui
rbuni
rbut
rc
rca
rcare
rcarea
rcat
rcata
rcate
rcea
rceanu
rci
rcii
rcile
rcinat
rcinata
rciuma
rd
rda
rdan
rdg
rdici
rdjali
rdoba
re
rea
reabilitare
reabilitarea
reabilitat
reachea
react
reactor
read
reader
reading
readuce
readus
reagan
real
reala
reale
reales
realism
realismul
realismului
realist
realista
realiste
realita
realitate
realitatea
reality
realiza
realizare
realizarea
realizat
realizata
realizate
realizator
realizeaza
realizeze
rean
reanu
reapa
reasa
reasca
reat
reau
rebecca
rebel
rebele
rebeli
rebelii
rebelilor
rebeliune
rebeliunea
rebeliunii
rebengiuc
rebreanu
rec
reca
rece
recea
recensa
recent
recenta
recente
recenzia
recenzie
recenzii
recept
receptor
receptorilor
rechemat
rechizit
reci
reciproc
reciproca
reciproce
recita
recital
reclama
reclamat
reclame
recolta
recomanda
recomandarea
recomandat
recomandata
recomandate
recompensa
recompensat
recompense
reconstituirea
reconstruct
reconstruit
reconstruita
record
recording
recordings
records
recordul
recorduri
recrut
recruta
recrutare
recrutarea
recrutat
rect
rector
recucerirea
recucerit
recunoas
recunoasca
recunos
recunosc
recunosca
recunoscut
recunoscuta
recunoscute
recupera
recuperare
recuperarea
recuperat
recuperate
recupereze
recurent
recurge
recurs
red
reda
redact
redactarea
redactat
redactata
redactor
redactorul
redarea
redat
redata
redate
redenumit
redenumita
redeschis
redevenit
redirect
redoba
reduc
reduca
reduce
reducere
reducerea
reducerii
redus
redusa
reduse
reed
reeditare
reeditat
reeditata
ref
refa
reface
refacere
refacerea
refera
referea
reference
referendum
referendumul
referendumului
referent
referi
referindu
referint
referire
referiri
referit
referitoare
referitor
reflect
reflecta
reflectat
reflectata
reflexie
reforma
reformat
reformata
reformate
reformator
reforme
reformei
reformele
reformelor
refract
refren
refugiat
refugiaza
refugieze
refugiu
refuz
refuza
refuzat
refuzul
reg
rega
regal
regala
regale
regat
regate
regatele
regatul
regatului
rege
regele
regelui
regensburg
regent
regenta
reggio
reghin
regi
regia
regie
regii
regilor
regim
regiment
regimente
regimentele
regimentul
regimentului
regimul
regimului
regina
reginald
regine
reginei
regio
region
regional
regionala
regionale
regis
registre
registrele
registru
registrul
regiune
regiunea
regiuni
regiunii
regiunile
regiunilor
regizat
regizata
regizate
regizoare
regizor
regizori
regizorul
regizorului
reglarea
reglementa
reglementare
reglementarea
reglementata
reglementeaza
regret
regreta
regula
regulament
regulamentul
regulamentului
regular
regularitate
regulat
regulata
regulate
reguli
regulile
regulilor
rei
reia
reich
reid
reiese
reigns
reims
reinhard
reinhold
reinmuth
reintra
reintrat
rel
relansat
relat
relata
relatare
relatarea
relatat
relateaza
related
relations
relativ
relativa
relative
relativita
relativitatea
rele
release
relele
releva
relevant
relevante
relevat
relief
relieful
reliefului
religia
religie
religiei
religii
religiile
religiilor
religioasa
religioase
religion
religios
religious
relua
reluarea
reluat
reluata
reluate
remake
remarca
remarcabil
remarcabila
remarcabile
remarcat
remarcata
rembrandt
remember
remige
remigele
remix
remiza
remus
ren
rena
renaissance
renala
renania
renas
renascentist
renata
renato
renault
rene
reni
rennes
renoir
renova
renovare
renovarea
renovat
renovata
renume
renumit
renumita
renumite
renumitul
renunt
reorganiza
reorganizare
reorganizarea
reorganizat
repara
repararea
reparat
reparata
repartit
repartizat
repartizate
repaus
repede
reper
repere
repertoriu
repertoriul
repeta
repetarea
repetat
repetata
repetate
repetit
repezi
replica
replici
report
reportaj
reportaje
reporter
reports
represalii
represiune
represiunii
reprezenta
reprezentant
reprezentantul
reprezentare
reprezentarea
reprezentat
reprezentata
reprezentate
reprezentativ
reprezentativa
reprezentative
reprezentau
reprezinta
reprezinte
repriza
reproduca
reproduce
reproducere
reproducerea
reprodus
repros
reptile
reptiles
reptilia
republic
republica
republican
republicana
republicane
republicani
republicata
republici
republicii
reputat
requiem
rer
rere
rerea
reri
rerile
res
resc
rescu
research
reserve
resimt
resolution
resort
resources
respect
respecta
respectarea
respectat
respectata
respectate
respecte
respectiv
respectiva
respective
respectul
resping
respinga
respinge
respingere
respingerea
respins
respinsa
respinse
respira
respirat
respirator
respiratorii
responsabil
responsabila
responsabile
responsabili
responsabilita
responsabilitate
responsabilitatea
rest
restabileasca
restabili
restabilirea
restabilit
restaura
restaurant
restaurante
restaurantul
restaurare
restaurarea
restaurat
restaurata
restra
restrict
restul
restului
resturi
resturile
results
resursa
resurse
resursele
resurselor
ret
retail
rete
retezat
reticent
retipa
retorica
retra
retrag
retraga
retrage
retragere
retragerea
retragerii
retras
retrasa
retrase
retrieved
retrograda
retrogradare
retrogradat
retrospectiva
retur
return
returul
reunes
reunit
reunite
reuniune
reuniunea
reus
reuters
rev
reva
revans
revarsa
revelat
revendica
revendicat
revenea
revenge
reveni
revenind
revenire
revenirea
revenit
revers
review
reviews
revin
revina
revine
revised
revision
revista
reviste
revistei
revistele
revistelor
revizuire
revizuirea
revizuit
revizuita
revolta
revoltat
revolte
revoltei
revoltele
revolut
revolution
revolver
revue
rex
rey
reynolds
rez
reza
rezerva
rezervat
rezervata
rezervate
rezerve
rezervele
rezervelor
rezervoare
rezervor
rezident
rezina
rezista
rezistat
reziste
rezistent
rezistenta
rezistente
rezolut
rezolva
rezolvare
rezolvarea
rezolvat
rezolvata
rezolvate
rezolve
rezonant
rezulta
rezultat
rezultata
rezultate
rezultatele
rezultatelor
rezultatul
rezuma
rezumat
rf
rful
rfului
rfuri
rfurile
rfurilor
rg
rga
rgb
rgele
rgen
rgineanu
rginit
rginita
rgirea
rgit
rgovis
rgu
rgul
rgului
rguri
rgus
rgy
rgya
rgyal
rhein
rhin
rho
rhode
rhodes
rhythm
ri
ria
riaa
ribbentrop
ric
rica
ricardo
riccardo
rice
riceanu
rich
richard
richards
richardson
richmond
richter
rick
rico
ride
rider
ridge
ridica
ridicare
ridicarea
ridicat
ridicata
ridicate
ridicau
ridice
ridicol
rie
riei
rieure
riga
right
rightarrow
rights
rigid
rigida
rigide
riguroasa
riguros
rih
rihanna
rii
riile
riilor
rile
riley
rilor
rim
rime
rimea
rimi
rimii
rin
rind
rindu
ring
rinichi
rint
rinte
rinteasca
rintele
rintelui
rintes
rinului
rio
ripki
rire
rirea
riri
ririi
ris
risc
risca
riscul
riscului
riscuri
riscurile
riscurilor
rise
rising
risipit
rit
rita
ritat
ritata
rite
ritean
riteana
ritene
ritm
ritmica
ritmul
ritmuri
ritoare
ritter
ritual
ritualul
ritualuri
ritualurile
ritul
ritului
ritura
rituri
riv
rival
rivala
rivale
rivali
rivalita
rivalitate
rivalitatea
rivalul
river
rivera
rivers
rivka
rivne
rja
rk
rka
rko
rl
rla
rlad
rlan
rle
rlea
rlia
rlie
rlit
rm
rma
rman
rmana
rmanul
rmn
rmul
rmurile
rn
rna
rnat
rnava
rnberg
rne
rnes
rngen
rni
rnii
rnit
rnova
rnovo
ro
road
roade
roaga
roage
roata
rob
robbie
robbins
robert
roberto
roberts
robertson
robi
robie
robii
robin
robinson
robot
robu
robul
robur
roca
rocar
roche
rochia
rochie
rochii
roci
rocile
rocilor
rock
rocket
rockstar
rocky
rod
rodica
rodnei
rodri
rodrigo
rodriguez
rodul
roewer
rog
roger
rogers
rogoz
roi
roiu
roke
roki
rol
roland
role
rolf
roll
rolling
rollins
rolul
rolului
roluri
rolurile
roly
rom
roma
romain
roman
romana
romance
romancier
romancieri
romane
romaneasca
romanele
romanelor
romanesc
romani
romania
romanian
romaniansoccer
romanic
romanica
romanice
romaniei
romanii
romanilor
romano
romanov
romant
romantic
romantica
romantice
romantism
romantismul
romantismului
romanul
romanului
rome
romei
romeo
romero
romi
romilor
rommel
romni
romulus
ron
ronald
ronaldo
room
roosevelt
roots
ror
rora
ros
rosa
rose
rosen
rosenberg
rosenthal
roses
rosetti
rosi
ross
rossi
rosso
rost
rosti
rostit
rostov
rostul
rot
rotaru
rotat
rotes
roth
rothschild
rotten
rotterdam
rotund
rotunda
rotunde
rotunjite
roua
roubaix
rouen
rouge
roumain
roumaine
roumains
roumanie
round
rousseau
route
routledge
rover
row
rowling
roxana
roy
royal
royale
roz
roza
rozdilna
roze
rpa
rpg
rs
rsa
rsare
rsarea
rsat
rse
rsei
rsr
rss
rssm
rsssf
rsta
rste
rstei
rstele
rt
rta
rtare
rtarea
rtat
rtata
rtate
rte
rteaza
rtej
rterbuch
rtes
rteze
rti
rtia
rtie
rtiei
rtii
rtit
rton
rtos
rttemberg
rturar
rturari
rturia
rturie
rturii
rturiile
rturises
rturisesc
rturisirea
rturisit
ru
ruben
rubens
rubin
ruble
rubrica
ruby
ruca
ruda
rude
rudele
rudenie
rudi
rudolf
rudolph
rue
rufus
rug
ruga
rugat
rugby
rugina
ruginoasa
rui
ruia
ruies
ruina
ruinat
ruine
ruinele
ruint
ruit
ruita
ruiz
rukn
rul
rula
rulant
rulare
rulat
rule
ruleaza
rules
rului
ruma
rumble
run
runcu
runda
runde
running
runt
runte
rup
rupa
rupe
ruperea
rupert
rupt
rupta
rupte
ruptura
rural
rurala
rurale
ruri
rurile
rus
rusa
rusca
ruse
ruseasca
ruses
rusesc
rush
rusia
rusiei
ruso
russell
russia
russian
russo
russu
russula
rustica
rusu
rut
ruta
rutare
rutat
rute
rutele
ruteni
ruth
rutherford
rutier
rutiera
rutiere
rutina
ruxandra
rva
rvan
rvu
rvulescu
rwanda
ry
ryan
ryder
ryu
rz
rza
rzburg
rzi
rzia
rziat
rzie
rziere
rzierea
rzii
rzile
rzilor
rziu
rzula
s
sa
saba
sabbah
sabia
sabie
sabin
sabina
sabine
sac
sachsen
saci
sacra
sacre
sacred
sacrifica
sacrificat
sacrifice
sacrificii
sacrificiu
sacrificiul
sacru
sacul
sad
saddam
sadoveanu
saeculum
safavida
safta
saga
sage
sahara
sai
said
saif
sailor
saint
sainte
saints
saitul
sala
saladin
salah
salamandra
salariat
salarii
salariile
salariu
salariul
salata
salca
salcia
salcie
sale
salem
salerno
sales
salina
salisbury
salix
sally
saloane
saloanele
salon
salonic
salonul
salonului
salt
salticidae
salut
saluta
salutat
salva
salvador
salvare
salvarea
salvat
salvata
salvator
salvatore
salveaza
salveze
salzburg
sam
sama
samantha
sambir
samdech
same
sami
samoa
samson
samsung
samuel
samuil
samurai
san
sanaa
sanatoriu
sancho
sanct
sanctuar
sanctuarul
sand
sanda
sanders
sandra
sandu
sandy
sang
sanguine
sanie
sanitar
sanitara
sanitare
sankt
sans
sanscrita
sant
santa
santana
santiago
santo
santos
sao
sapa
sapiens
sar
sara
sarah
sarajevo
sarcina
sarcini
sarcinii
sarcinile
sarcinilor
sardinia
sardiniei
sare
sarea
sari
sarmat
sarmizegetusa
sars
sarthe
sartre
sas
sase
sasha
sasu
sat
sata
satan
satana
sate
satele
satelit
satelitul
satelitului
satellite
satelor
satira
satiric
satirice
satisfa
satisface
satisfacerea
satisfact
sato
satu
satul
satului
saturat
saturday
saturn
saturnia
sau
saudit
saudita
saudite
saul
saunders
sava
savage
savant
savantul
save
savoia
savoie
savu
sawyer
saxa
saxofon
saxon
saxona
saxone
saxonia
saxoniei
say
says
sb
sboiu
sc
sca
scad
scada
scade
scafandri
scala
scalar
scalemajor
scandal
scandalul
scandinavia
scap
scapa
scape
scara
scarlat
scatiu
scaun
scaune
scaunele
scaunul
scaunului
scena
scenarii
scenaris
scenarist
scenaristul
scenariu
scenariul
scenariului
scene
scenei
scenele
scenelor
scenica
scenografia
scha
schelet
scheletul
schema
scheme
schenk
schi
schiffermuller
schiller
schimb
schimba
schimbare
schimbarea
schimbat
schimbata
schimbate
schimbe
schimbul
schimbului
schimburi
schimburile
schisma
schit
schitul
schitului
schiurile
schleswig
schloss
schmidt
schmitt
schneider
scho
school
schro
schu
schubert
schumacher
schumann
schuster
schwartz
schwarz
schwerin
sci
science
sciences
scientific
scincidae
scit
sclav
sclavi
sclavia
sclavie
sclaviei
sclavii
sclavilor
scm
scoala
scoale
scoalei
scoart
scoasa
scoase
scoata
scoate
scoaterea
scoici
scooby
scop
scopoli
scopul
scopuri
scopurile
scor
scort
scorul
scos
scot
scotea
scotland
scott
scottish
scra
screen
scria
scriban
scrie
scriere
scrierea
scrieri
scrierii
scrierile
scrierilor
scriind
scriitoare
scriitoarea
scriitoarei
scriitor
scriitori
scriitorii
scriitorilor
scriitorul
scriitorului
scrima
scrimer
scrimera
scrimeri
script
scriptstyle
scriptura
scripturi
scris
scrisa
scrise
scrisese
scrisoare
scrisoarea
scrisori
scrisorile
scrisul
scrisului
scriu
scrutin
scu
scufunda
scufundare
scufundarea
scufundat
scufundate
scuipa
scula
sculat
sculptat
sculptata
sculptate
sculptor
sculptori
sculptorul
sculptorului
sculptura
sculpturi
sculpturii
sculpturile
scump
scumpa
scumpe
scurge
scurgere
scurgerea
scurt
scurta
scurte
scurtmetraj
scurtu
scut
scuta
scute
scutit
scutul
scutura
scuturi
scuza
scuze
sd
se
sea
seaca
seama
sean
seara
search
searchbuttonlabel
seasca
season
seat
seattle
seau
sebastia
sebastian
sebes
sec
seca
secara
secera
seceta
secol
secole
secolele
secolelor
secolul
secolului
second
secret
secreta
secretar
secretara
secretari
secretariatul
secretarul
secretarului
secrete
secretele
secrets
secretul
sect
secta
section
sectoare
sectoarele
sector
sectorul
sectorului
secui
secuies
secuiesc
secuii
secuilor
secular
seculare
secund
secunda
secundar
secundara
secundare
secunde
securita
securitate
securitatea
security
secvent
sedan
sedii
sediile
sedimentare
sediu
sediul
sediului
seds
see
sega
segment
segmente
segmentul
sei
sein
seine
seki
select
selecta
selectat
selectata
selectate
selected
selectiv
selectiva
self
selgiucizii
selgiucizilor
selim
selo
sem
sema
semantica
semenivka
semi
semiaxa
semifinala
semifinale
semifinalele
semiluna
seminar
seminarul
seminarului
semint
semn
semna
semnal
semnalat
semnalate
semnale
semnalele
semnalelor
semnalizare
semnalul
semnalului
semnarea
semnat
semnata
semnatar
semnate
semne
semneaza
semnele
semnelor
semneze
semnifica
semnificat
semnificativ
semnificativa
semnificative
semnul
sen
sena
senat
senator
senatori
senatorul
senatul
senatului
senegal
senin
senina
senior
seniori
sens
sense
sensibil
sensibila
sensibile
sensibilita
sensibilitate
sensibilitatea
sensul
sensului
sensuri
sentiment
sentimental
sentimentala
sentimentale
sentimente
sentimentele
sentimentelor
sentimentul
sentint
sentralbyra
senzat
senzori
sep
separa
separare
separarea
separat
separata
separate
separatis
separatiste
sept
september
septembrie
ser
sera
serafim
serba
serbia
serbiei
serena
serge
sergei
sergent
sergentul
serghei
sergio
sergiu
seri
seria
serial
seriale
serialul
serialului
serie
seriei
series
serii
seriile
seriilor
serile
serioasa
serioase
serios
servea
serveasca
server
servere
serverul
serves
servesc
servi
service
services
servicii
serviciile
serviciilor
serviciu
serviciul
serviciului
servind
servit
servitoarea
servitor
servitori
ses
sesc
sescu
sese
sesera
sesiune
sesiunea
sesiuni
set
seta
sete
setea
seth
seti
setul
seturi
seu
seuil
seul
seven
seventh
sever
severa
severe
severin
severinului
severus
sevilla
sex
sexe
sexual
sexuala
sexuale
sexul
sexului
sexy
seymour
sez
sezoane
sezoanele
sezon
sezonul
sezonului
sf
sfa
sfantul
sfat
sfatul
sfatului
sfaturi
sfaturile
sfera
sfere
sferei
sferica
sferice
sfert
sferturi
sferturile
sfes
sfi
sfiala
sfint
sfinte
sfintei
sfintele
sfintii
sfinx
sfoara
sfort
sforza
sfra
sg
shackleton
shadow
shadows
shah
shakespeare
shakira
shane
shanghai
shannon
sharon
shaw
shawn
she
sheamus
sheffield
shell
shelley
shepard
sheridan
sheriff
sherlock
sherman
shi
shield
shift
shin
ship
shirley
sho
shoemaker
shop
shopping
shore
short
shot
should
show
shu
si
sia
siberia
siberiei
sibiene
sibiu
sibiului
sic
sica
sicilia
siciliei
sicilii
sicriu
sicriul
sid
sida
side
sidi
siding
sidney
sie
siebenbu
siegfried
siemens
siena
sierra
sighet
sighetu
sighis
sigiliul
sigismund
sigla
sigma
sigmaringen
sigmund
sign
sigur
sigura
sigurant
sigure
siguri
siha
sii
sila
silaba
silabe
silakala
silence
silent
silezia
sili
siliciu
silint
silis
silistra
silit
silla
silnica
silueta
silva
silvan
silvaniei
silver
silverberg
silvestru
silvia
silvic
silvica
silvice
silvicultura
silviu
sim
sima
simbol
simbolic
simbolica
simbolice
simboliza
simbolizeaza
simbolul
simboluri
simbolurile
sime
simeon
simetria
simetric
simetrice
simetrie
simferopol
simfonia
simfonic
simfonica
simfonice
simfonie
simfonii
simi
similar
similara
similare
simina
simion
simionescu
simmons
simon
simona
simone
simpatia
simpatic
simpatie
simpatizant
simpla
simple
simpli
simplifica
simplificata
simplu
simpson
simptome
simptomele
simptomelor
sims
simt
simta
simte
simula
simulare
simultan
simultana
sin
sina
sinagoga
sinai
sinaia
sinan
since
sincer
sincera
sinceritate
sinclair
sind
sindicatelor
sindicatului
sindrom
sindromul
sindu
sine
sing
singapore
singer
singh
single
singles
singular
singur
singura
singuratic
singure
singurele
singuri
singurii
singurul
sinistra
sinod
sinodul
sinonim
sinonime
sinopsis
sint
sintagma
sintaxa
sintetic
sintetica
sintetice
sintetizator
sinteza
sinucida
sinucide
sinucidere
sinuciderea
sinucigas
sinucis
sio
sion
sionist
sioniste
sioux
sir
sira
sire
sirea
sirena
siret
siretului
siria
sirian
siriana
siriei
siriene
sirieni
sirius
sise
sistem
sistematic
sistematica
sistematice
sistematizare
sisteme
sistemele
sistemelor
sistemul
sistemului
sister
sit
sita
site
situa
situat
situata
situate
situeaza
situl
sitului
situri
siturile
siturilor
six
size
sj
sk
ska
ski
skin
skopje
sky
sl
sla
slab
slaba
slabe
slabi
slam
slaru
slatina
slav
slava
slave
slavi
slavici
slavii
slavilor
slavona
sleep
sliniu
sloane
slobidka
sloboda
slobozia
sloganul
slovac
slovaca
slovace
slovaci
slovacia
slovaciei
sloven
slovena
sloveni
slovenia
sloveniei
sluga
slugi
slugile
slujba
slujbe
slujbele
slujeasca
slujes
sluji
slujit
slujitor
slujitori
slujitorii
sm
sma
smackdown
small
smaranda
smart
smartphone
smile
smith
smithsonian
smolean
sms
smulga
smulge
smuls
snagov
snake
snakes
snooker
snow
so
soacra
soara
soare
soarele
soarelui
soarta
soartei
soba
sobor
sobre
soc
soccer
soccerway
socec
social
sociala
sociale
sociali
socialis
socialism
socialismul
socialismului
socialist
socialista
socialiste
socializare
socie
societa
societate
societatea
society
socio
sociolog
sociologia
sociologie
soclu
soclul
socorro
socoteala
socotes
socotesc
socoti
socotind
socotit
socrate
socrul
sodiu
sofia
sofiivka
sofronie
soft
software
soi
soiul
soiuri
sok
sokal
sol
solar
solara
solare
solaris
solca
soldat
soldatul
soldatului
soldier
sole
soleil
solemn
solemna
soli
solicita
solicitarea
solicitat
solid
solida
solidaritate
solidaritatea
solide
soliman
solis
solist
solista
solistei
solistul
solitar
solo
solomon
solone
solstit
solul
solului
soluri
solurile
solut
solvent
solzi
somalia
some
somerset
somes
something
somme
somn
somnul
somnului
somogy
son
sonata
sonda
sondaj
sondaje
sonde
sonete
song
songs
sonia
sonic
sonny
sonor
sonora
sonore
sons
sont
sony
sophia
sophie
soprana
sopron
sor
sora
sorbona
sorescu
sorin
soroca
sort
sos
soseasca
soses
sosesc
sosi
sosind
sosire
sosirea
sosirii
sosit
sot
soul
sound
soundtrack
source
sources
sous
south
southampton
southern
soviet
sovietic
sovietica
sovietice
sovietici
sovieticii
sovieticilor
sovieto
sovietul
sovietului
sp
spa
space
spacewatch
spada
spade
spaima
spain
spala
spania
spaniei
spaniol
spaniola
spaniole
spanioli
spaniolii
spanish
sparga
sparge
sparks
spart
sparta
spartak
spat
spate
spatele
spd
spears
specia
special
speciala
speciale
specialis
specialist
specialita
specialitate
specialitatea
specializa
specializare
specializarea
specializat
specializata
specializate
specie
speciei
species
specific
specifica
specificat
specificate
specifice
specificul
specii
speciile
speciilor
spectacol
spectacole
spectacolele
spectacolelor
spectacolul
spectacolului
spectaculoase
spectator
spectatori
spectatorii
spectatorilor
spectru
spectrul
speculat
speed
spele
spencer
sper
spera
sperant
sperat
speriat
speriata
sperie
spet
sphaerodactylus
sphenomorphus
spi
spice
spidcat
spider
spiders
spiegel
spielberg
spike
spilogona
spilosoma
spin
spina
spinare
spinarea
spini
spion
spionaj
spioni
spirala
spirale
spiridon
spirit
spirite
spiritele
spiritual
spirituala
spirituale
spiritualitate
spiritul
spiritului
spiru
spit
spital
spitale
spitalele
spitalelor
spitalul
spitalului
spla
splata
split
spoleto
sponsorizat
spontan
spontana
spontane
spor
sporadic
spores
spori
sporirea
sporit
sporita
sport
sporting
sportiv
sportiva
sportive
sportivi
sportivii
sports
sportul
sportului
sporturi
sporturilor
spra
spre
sprezece
sprezecea
sprijin
sprijina
sprijine
sprijini
sprijinirea
sprijinit
sprijinita
sprijinite
sprijinul
sprijinului
spring
springer
springfield
springs
spui
spuie
spuma
spun
spuna
spund
spunda
spunde
spundea
spundere
spunderea
spune
spunea
spuneam
spuneau
spunem
spunet
spuns
spunse
spunsul
spunsuri
spunsurile
spunza
spus
spuse
spusele
spusese
spy
sqrt
squamata
square
sr
sri
srl
srpska
ss
sseldorf
ssp
st
sta
stabil
stabila
stabile
stabilea
stabileasca
stabiles
stabilesc
stabili
stabilind
stabilindu
stabilirea
stabilit
stabilita
stabilitate
stabilitatea
stabilite
stacan
stade
stadii
stadioane
stadion
stadionul
stadionului
stadiu
stadiul
stadium
stadt
staff
stage
stages
stagiu
stagiunea
stahl
stai
stalin
stalingrad
stamp
stan
stana
stanca
stanciu
stancu
stand
standard
standarde
standardele
standardelor
standardizare
standardul
stanford
stanga
stanislav
stanisław
stanley
star
stara
stare
starea
staret
stari
stark
stars
start
startul
stase
stat
statala
statale
state
statele
statelor
states
static
statica
statice
station
statistic
statistica
statistice
statistici
statisticile
statistics
statistisk
statornica
stats
statui
statuia
statuie
statuii
statuile
statul
statului
statura
status
statut
statutul
statutului
stau
ste
stea
steag
steagul
steagului
steaguri
steagurile
steaua
steel
stefan
stefani
stefano
stein
steiner
steinhardt
stejar
stejari
stejarul
stela
stelar
stelara
stelare
stele
stelei
stelele
stelelor
stelian
stella
stelut
stem
stema
stemei
stemma
step
stepa
stepan
stephan
stephanie
stephen
stephens
stere
steriadi
sterian
sterile
sterline
sterling
stern
sterreich
steve
steven
stevens
stevenson
stevie
stewart
sti
sticla
sticle
sticlei
stih
stil
stilistica
stilistice
still
stilul
stilului
stiluri
stilurile
stima
stimp
stimula
stimularea
stimulat
stimuleaza
sting
stinga
stinge
stingerea
stins
stinse
stire
stirea
stires
stiri
stiria
stirii
stirile
stirilor
stirling
sto
stoca
stocare
stocarea
stocate
stock
stockholm
stoenescu
stoian
stoica
stoicescu
stomac
stone
stones
stop
stor
storck
store
stori
storia
stories
storit
storm
storojinet
story
str
stra
strada
straja
strana
strand
strange
stranie
stranii
straniu
strare
strarea
stras
strasbourg
strat
strata
strate
strategia
strategic
strategica
strategice
strategie
strategiei
strategii
stratul
stratului
straturi
straturile
strauss
streaming
streaza
strecura
street
stres
stret
streze
stri
strica
stricat
strice
strict
stricta
stricte
striga
strigat
strige
stroe
strofa
strong
structura
structural
structurala
structurale
structure
structuri
structurii
structurile
structurilor
struggle
struguri
sts
stu
stuart
student
studenta
studentul
studia
studiat
studiata
studiate
studiaza
studien
studierea
studies
studieze
studii
studiile
studiilor
studiind
studio
studios
studioul
studioului
studiouri
studiourile
studiu
studiul
studiului
study
stuf
sturdza
sturm
sturna
sturnarea
sturnat
sturza
stuttgart
style
styles
stylidium
su
sua
suabia
sub
subacvatica
subacvatice
subcarpat
subdistricte
subdivizat
subdivizate
subdiviziuni
subfamilia
subi
subiect
subiecte
subiectele
subiectiva
subiectul
subiectului
subject
sublinia
subliniat
subliniaza
subliniind
sublocotenent
submarin
submarine
submarinul
submult
subofit
subordine
subordinea
subordinul
subordonat
subordonata
subordonate
subsecretar
subsol
subsolul
subspecia
subspecie
subspecii
substant
substantiv
substantive
substantivul
substitut
substrat
subt
subteran
subterana
subterane
subunita
suburbane
suburbia
suburbie
suburbii
suburbiile
suburbiilor
subvent
suc
succedat
succes
succese
succesele
succesiune
succesiunea
succesiunii
succesiv
succesive
succesor
succesorii
succesorul
succesul
succesului
suceava
sucevei
such
suciu
sud
sudan
sudic
sudica
sudice
sudul
sudului
sue
suedez
suedeza
suedeze
suedezi
suedia
suediei
suez
suf
sufera
sufere
suferea
suferi
suferind
suferint
suferit
suferita
suferite
suficient
suficienta
suficiente
sufix
sufixe
sufixul
sufla
suflare
suflarea
suflat
suflet
suflete
sufleteasca
sufletele
sufletelor
sufletes
sufletu
sufletul
sufletului
sugar
sugera
sugerat
sugereaza
sugestia
sui
suie
suillus
suis
suisse
suit
suita
suite
sul
suleiman
sulf
sulfat
sulfuric
sulina
sulit
sulla
sullivan
sultan
sultana
sultanul
sultanului
sum
suma
sumar
sumatra
sume
sumei
sumele
sumi
summary
summer
summerslam
summit
sumner
sun
suna
sunat
sunday
sune
sunet
sunete
sunetele
sunetelor
sunetul
sunetului
sunset
sunt
suntem
suntet
supa
supe
super
supercupa
superficial
superficiala
superficiale
superioara
superioare
superior
superiori
superioritate
superioritatea
superliga
superman
supernova
superstit
supleant
supliment
suplimentar
suplimentara
suplimentare
suport
suporta
suportat
suporteri
suporterii
suportul
support
supra
suprafat
suprafet
suprai
supranaturale
supranumit
suprapune
suprapuse
supraveghea
supravegheat
supraveghere
supravegherea
supraviet
suprem
suprema
supremat
supreme
suprima
suprimarea
supt
supun
supuna
supune
supunere
supunerea
supus
supusa
supuse
sur
sura
surare
surarea
surat
surata
surate
surd
surda
suri
surile
surilor
surinam
surori
surorii
surorile
surprinde
surprindere
surprins
surprinsa
surprinza
surpriza
sursa
surse
sursele
surselor
survey
survival
survivor
sus
susan
suspect
suspectat
suspenda
suspendare
suspendarea
suspendat
suspendata
suspendate
suspensie
suspin
suspina
sussex
sust
sut
suta
sute
sutherland
suveran
suverana
suverane
suveranita
suveranitatea
suveranul
suveranului
suvorov
suzanne
suzeranitatea
suzuki
sv
sva
sven
svetlana
svg
swan
sweden
sweet
swift
swiss
switch
sword
sydney
sylvester
sylvia
symphony
synonymic
synopsis
system
systema
systems
sz
sza
szabo
szabolcs
szatma
sze
szende
szi
szila
szlo
szo
szynski
t
ta
tab
taba
tabel
tabele
tabelul
tabere
taberei
taberele
tabla
table
tablou
tabloul
tabloului
tablouri
tablourile
tac
taca
tace
tache
taci
tactic
tactica
tactice
tactici
tadeusz
tafeta
tag
tai
taia
taie
taina
taine
tainele
tainic
tait
taiwan
take
takes
tal
tala
tale
talent
talentat
talente
talentul
talentului
tales
talia
talie
talk
tallinn
talpa
talusului
tam
tama
tamara
tambon
tampon
tan
tana
tanaka
tanc
tancul
tancului
tancuri
tancurile
tancurilor
tandem
tang
tangent
tango
tania
tant
tanzania
tao
tar
tara
tarasivka
tarca
tare
tarea
tari
tarii
tarilor
tarn
taru
tarul
tarzan
tas
tase
task
tastatura
taste
tat
tata
tate
tatea
tatiana
tatra
tattarescu
tatu
tau
taur
tavan
tavanul
taxa
taxe
taxele
taxelor
taxi
taxoni
taxonomic
taxonomie
taydo
taylor
tazla
tbilisi
tc
te
tea
teaca
team
teama
tean
teana
teanu
teapta
tearsa
teasa
teasca
teatral
teatrala
teatrale
teatre
teatrele
teatrelor
teatro
teatru
teatrul
teatrului
teau
teborg
tech
technical
technologies
technology
tectonice
tectricele
tecuci
ted
teddy
teen
tef
tefa
tefan
tefania
teheran
tehnic
tehnica
tehnice
tehnici
tehnicii
tehnicile
tehnicilor
tehnico
tehnologia
tehnologic
tehnologica
tehnologice
tehnologie
tehnologiei
tehnologii
tehnologiile
tehnologiilor
tei
teil
teiul
teius
tel
tele
telecom
telecomunicat
telefoane
telefon
telefonic
telefonica
telefonice
telefonie
telefonul
telegraf
telegrama
telegraph
teleki
telenes
telenovela
teleorman
telescop
telescopul
telescopului
telespectatori
television
televizate
televiziune
televiziunea
televiziuni
televiziunii
televizor
tell
telor
telui
tem
tema
tematica
tematice
teme
temea
temeau
temei
temeiul
temele
temelia
temelie
temelii
temnit
temperament
temperat
temperata
temperate
temperatura
temperaturi
temperaturii
temperaturile
temple
templele
templu
templul
templului
tempo
temporal
temporala
temporale
temporar
temporara
temporare
temps
temut
ten
tencuiala
tendent
tendint
tene
tenerife
teni
tenii
tenilor
tenire
tenirea
tenirii
tenis
tenit
tenite
tenitoare
tenitor
tenitori
tenitorul
tennessee
tennis
tenor
tensiune
tensiunea
tensiuni
tensiunii
tensiunile
tensiunilor
tenta
tentat
tentativa
tentative
teo
teoctist
teodata
teodor
teodora
teodoreanu
teodorescu
teodosie
teodosiu
teofil
teolog
teologi
teologia
teologic
teologica
teologice
teologie
teora
teorema
teoremei
teoretic
teoretica
teoretice
teoretician
teoria
teorie
teoriei
teorii
teoriile
teoriilor
tephritidae
tept
tepta
teptam
teptare
teptarea
teptat
teptata
teptate
teptau
tepte
ter
tera
teracota
terapeutice
terapia
terapie
terasa
terase
terasele
tere
terea
teren
terence
terenul
terenului
terenuri
terenurile
terenurilor
teres
teresa
terestra
terestre
terestru
tereza
terezia
terge
teri
teribil
teribila
terii
terile
terilor
teritorial
teritoriala
teritoriale
teritorii
teritoriile
teritoriilor
teritoriu
teritoriul
teritoriului
termen
termeni
termenii
termenilor
termenul
termenului
termic
termica
termice
termina
terminal
terminale
terminalul
terminarea
terminat
terminata
terminate
termine
terminologia
terminologie
terminus
termodinamica
ternopil
ternut
teroare
teroarea
terorii
teroris
terorism
terorismului
terorist
teroriste
terra
terre
territory
terror
terry
ters
terse
tert
terul
tes
tesc
tescu
tesei
tesla
test
testa
testament
testamentul
testare
testarea
testat
teste
testele
testelor
testul
tet
tetragnatha
tetragnathidae
tetul
teutoni
teutonic
teva
texas
text
textcolor
texte
textele
textelor
textier
textila
textile
textul
textului
textura
teza
tezaur
tezaurul
tezaurului
teze
tezei
tfrac
tg
th
tha
thai
thailanda
thakuri
than
that
the
theater
theatre
theft
their
them
then
theo
theodor
theodore
theodorescu
theory
there
theresa
theridion
these
theta
they
thierry
thing
things
think
third
this
thomas
thompson
thomson
thor
thorell
thornton
thory
those
thought
thousand
threatened
three
thriller
through
thu
thumb
thunder
ti
tia
tiam
tianu
tiat
tiate
tiau
tiberiu
tiberius
tibet
tibor
tic
tica
ticie
ticks
tico
tie
tienne
tient
tienta
tiente
tifos
tig
tiga
tigarea
tigase
tigat
tigata
tigate
tige
tiger
tighina
tigr
tigru
tigrul
tiguri
tii
tiind
tiint
tile
till
tilor
tim
timas
timberlake
timbre
timbru
time
timeaxis
times
timid
timis
timisoara
timotei
timothy
timp
timpi
timpul
timpului
timpuri
timpurie
timpurii
timpurile
timpurilor
timpuriu
timur
timurizii
timurizilor
tin
tina
tinas
tinca
tincut
tind
tinda
tinde
tindu
tine
tinere
tinerei
tineret
tineretul
tineretului
tineri
tinerii
tinerilor
tinerimea
tinerimii
tini
tinii
tinilor
tinism
tinismul
tinismului
tint
tioara
tip
tipa
tipar
tiparul
tiparului
tipic
tipica
tipice
tipografia
tipografie
tipomur
tipul
tipului
tipuri
tipurile
tique
tir
tiraj
tirana
tiraspol
tirbei
tire
tirea
tiri
tirii
tirile
tirilor
tirol
tis
tisa
tisei
tisma
tismana
tit
tita
titan
titanic
tite
title
titlu
titlul
titlului
titluri
titlurile
titlurilor
tito
titoare
titre
titu
titular
titulari
titulatura
titulescu
titus
tiu
tiul
tiului
tiut
tjampa
tko
tm
tma
tna
tne
to
toaca
toader
toaleta
toamna
toamnei
toare
toarea
toarei
toarele
toarelor
toasa
toase
toata
toate
toba
tobe
tobos
toc
tocilescu
tocmai
today
todd
together
togo
tokio
tokugaua
tokugawa
tokyo
toledo
tolerant
tolkien
tolstoi
tom
toma
tomas
tomatoes
tomb
tome
tomescu
tomi
tomii
tomis
tommy
tomorrow
toms
tomul
ton
tone
tong
toni
tonight
tonitza
tonul
tonuri
tony
too
top
topi
topica
topire
topirea
topit
toplit
topografica
topografice
topologic
toponime
topor
topul
topuri
topurile
tor
tora
torea
toreasca
torent
tores
toresc
tori
toria
torie
toriei
torii
toriile
toriilor
torile
torilor
torind
torino
torirea
torit
torita
torite
toro
toronto
torre
torres
tort
tortura
torturat
torul
torului
torva
tos
toscana
tot
total
totala
totale
totalitate
totalitatea
totalul
totdauna
totdeauna
toti
toto
totodata
tottenham
totul
totus
touch
toulouse
toungoo
tour
tournament
tours
tous
tout
tova
tovara
tower
town
township
toxic
toxice
toyota
tr
tra
tracia
track
tract
tracy
trad
trade
tradit
tradition
traduca
traduce
traducere
traducerea
traduceri
traducerile
tradus
tradusa
traduse
trafic
traficul
traficului
trag
traga
trage
tragedia
tragedie
tragere
tragerea
tragic
tragica
tragice
trai
traian
traiana
traiectoria
trail
trailer
train
training
traista
traiul
tramvai
tramvaie
tramvaiele
tramvaiul
tran
trandafir
trandafiri
trandafirul
trans
transcarpatia
transcript
transfer
transfera
transferat
transferata
transferate
transfere
transfermarkt
transferul
transferuri
transforma
transformare
transformarea
transformat
transformata
transformate
transforme
transilva
transilvania
transilvaniei
translat
translated
translation
translations
transliterat
transmis
transmisa
transmise
transmisia
transmisie
transmit
transmita
transmite
transmitere
transmiterea
transnistria
transnistriei
transparent
transport
transporta
transportat
transportata
transportate
transporte
transportul
transportului
transporturi
transporturile
transporturilor
transversal
transversala
transversale
transylvania
tranzact
tranzit
trap
trapezunt
tras
trasa
trase
trasee
traseu
traseul
traseului
trat
trata
tratament
tratamente
tratamentul
tratamentului
tratare
tratarea
tratat
tratata
tratate
tratatele
tratatelor
tratatul
tratatului
trate
trateaza
trateze
tratul
travel
traversa
traversarea
traversat
traversata
traverseaza
traverseze
travis
tre
treaba
treaca
treapta
treasure
treatment
trebue
trebui
trebuia
trebuiau
trebuie
trebuiesc
trebuind
trebuint
trebuit
treburile
trec
treca
trece
trecea
treceau
trecem
trecere
trecerea
trecerii
treci
trecu
trecura
trecuse
trecusera
trecut
trecuta
trecute
trecutul
trecutului
tree
trei
treia
treilea
treime
treimi
treisprezece
treizeci
trek
tremura
tren
trent
trentino
trento
trenul
trenului
trenuri
trenurile
trenurilor
treptat
treptata
trepte
treptele
tres
tresa
trestie
trevor
trezes
trezi
trezit
tri
trial
trianon
trib
tribale
tribul
tribului
tribuna
tribunal
tribunalul
tribunalului
tribune
triburi
triburile
triburilor
tribut
tribute
tricholoma
trick
tricolor
tricolorul
tricou
tricoul
tridimensional
trier
trieste
trii
trilogia
trilogie
trilogiei
trilogy
trilor
trimestru
trimis
trimisa
trimise
trimit
trimita
trimite
trimitere
trimiterea
trinh
trinidad
trinity
trio
tripla
triple
triplu
tripoli
tris
trist
trista
tristan
triste
tristet
triton
tritonic
triumf
triumfa
triumful
triunghi
triunghiul
triunghiular
triunghiulara
triunghiulare
triunghiului
triunghiuri
trivia
trivka
tro
trofee
trofeu
trofeul
trofeului
troglohyphantes
troia
troian
trois
troit
troleibuz
troleibuze
trompeta
tron
tronsonul
tronul
tronului
tropical
tropicala
tropicale
trosteanet
trot
trotus
trouble
troy
tru
truda
true
truman
trump
trunchi
trunchiul
trund
trunda
trunde
trunderea
truns
trunza
trup
trupa
trupe
trupei
trupele
trupelor
trupul
trupului
trupurile
trust
truth
ts
tt
tter
tterpilze
ttingen
tu
tub
tuberculoza
tubul
tuburi
tucker
tude
tudes
tudor
tufa
tufis
tui
tuies
tuiesc
tuind
tuire
tuirea
tuit
tuita
tuite
tul
tulbura
tulburare
tulburarea
tulburat
tulbure
tulburi
tulcea
tulpina
tulpini
tului
tumori
tun
tune
tunel
tunele
tunelul
tunelului
tuneluri
tunes
tunica
tunisia
tunul
tunuri
tunurile
tunurilor
tur
tura
turarea
turat
turata
turate
turba
turbat
turbine
turbo
turbura
turc
turca
turce
turceasca
turces
turcesc
turci
turcia
turcice
turciei
turcii
turcilor
turco
turcu
turda
ture
turea
turi
turii
turile
turilor
turing
turingia
turis
turism
turismul
turismului
turistic
turistica
turistice
turkey
turkish
turkmenistan
turla
turma
turme
turmele
turn
turna
turnat
turnate
turnee
turneele
turner
turneu
turneul
turneului
turnu
turnul
turnului
turnuri
turnurile
turul
turului
tururi
turzii
tus
tuse
tut
tuta
tute
tutela
tutu
tutun
tuturor
tuturora
tv
tva
tvr
twain
twentieth
twenty
twilight
twin
twitter
two
ty
tyler
type
typhlops
tyson
tz
u
ua
uat
uata
ub
ubisoft
uc
uca
ucenic
ucenici
ucenicii
ucenicul
uci
ucid
ucida
ucide
uciderea
uciga
ucigas
ucis
ucisa
ucise
ucr
ucraina
ucrainean
ucraineana
ucrainei
ucrainene
ucraineni
ucrainenii
ud
uda
udat
udmr
udrea
ue
ueaza
uefa
uesac
uetz
ufa
ufc
ug
uga
uganda
ugarea
ugari
ugat
ugata
ugate
ugita
ugo
ugul
uguri
ui
uia
uiasca
uica
uie
uies
uiesc
uimire
uimit
uimitoare
uire
uirea
uit
uita
uitare
uitase
uitat
uitata
uitate
uite
uitoare
uitor
uitori
uitorii
uk
ukraine
ukrainian
ul
ula
ule
ulei
uleiul
uleiuri
ulescu
ulet
ulise
ulit
ulm
ulrich
ulterioara
ulterioare
ulterior
ultim
ultima
ultimate
ultimatum
ultimei
ultimele
ultimelor
ultimii
ultimul
ultimului
ultra
ului
um
uma
uman
umana
umane
umani
umanist
umaniste
umanita
umanitare
umanitatea
umar
umberto
umbla
umblat
umble
umbra
umbre
umbrela
umbrele
umbrelor
umed
umeda
umede
umeri
umerii
umes
umesc
umezeala
umfla
umi
umiditate
umilint
umilit
umire
umirea
umiri
umit
umita
umor
umorul
umple
umplea
umplu
umplut
umplute
un
una
unanim
unanimitate
unat
unchi
unchiul
unchiului
und
unda
unde
undele
undelor
under
underground
understanding
undertaker
undeva
une
unealta
uneasca
unei
uneia
unele
unelte
uneltele
uneori
unes
unesc
unesco
unescu
ungar
ungara
ungare
ungaria
ungariei
ungheni
unghi
unghiul
unghiului
unghiuri
unghiurile
ungur
ungureanu
ungureasca
ungureni
ungures
unguresc
unguri
ungurii
ungurilor
uni
unic
unica
unice
unicul
unifica
unificare
unificarea
unificat
uniform
uniforma
uniforme
unii
unile
union
unire
unirea
uniri
unirii
unit
unita
unitar
unitara
unitariana
unitate
unitatea
unite
united
uniter
uniune
uniunea
uniuni
uniunii
univ
univers
universal
universala
universale
universe
universidad
universita
universitar
universitara
universitare
universitari
universitate
universitatea
universite
university
universul
universului
unix
unknown
uno
unor
unora
uns
unsprezece
unsprezecea
unt
unter
until
untru
untrul
unu
unui
unuia
unul
up
update
uploaded
upon
upper
uppsala
upright
ur
ura
ural
uraniu
uranus
urare
urarea
urat
urata
urate
urau
urban
urbana
urbane
urca
urcanu
urcarea
urcat
urce
ureche
urechea
urechi
urechia
urechile
urgent
urgenta
uri
urias
urii
urile
urilor
urina
urint
url
urla
urma
urmare
urmarea
urmas
urmat
urmata
urmate
urmau
urme
urmeaza
urmele
urmelor
urmeze
urna
urne
uros
urs
ursa
urss
ursu
ursul
ursula
ursului
ursus
uruguay
urziceni
us
usa
usb
usca
uscat
uscata
uscate
usd
use
used
user
usher
using
usl
usman
usr
uss
usturoi
ut
uta
utah
utare
utarea
utari
utarii
utat
utate
utau
utc
ute
util
utila
utilaje
utile
utilita
utilitate
utilitatea
utiliza
utilizare
utilizarea
utilizat
utilizata
utilizate
utilizator
utilizatori
utilizatorii
utilizatorilor
utilizatorul
utilizatorului
utilizeaza
utilizeze
utis
utrecht
utricularia
utu
utura
uturi
uv
uvaria
uz
uza
uzate
uzbekistan
uzes
uzi
uzia
uzina
uzinei
uzinele
uzual
uzul
uzului
uzura
uzurpator
v
va
vaca
vacant
vaccin
vaccinul
vaci
vad
vada
vadim
vadu
vadul
vadului
vag
vaga
vagabond
vagi
vagoane
vagoanele
vagon
vai
vaida
val
vala
valabil
valabila
valabile
valahia
valahiei
valdemar
vale
valea
valencia
valent
valentin
valentina
valentine
valer
valeria
valerian
valeriu
vali
valiza
valle
valley
valoare
valoarea
valois
valonia
valori
valorifica
valorificare
valorificarea
valorii
valorile
valorilor
valoroasa
valoroase
valoros
vals
value
valul
valuri
valurile
valurilor
valve
vama
vamal
vamale
vampir
vampire
vampiri
van
vance
vancouver
vanessa
vapor
vapori
vaporul
var
vara
varese
varga
vargas
varia
variabil
variabila
variabile
varianta
variante
variantele
variat
variata
variate
variaza
varieta
varietate
varietatea
variety
variind
variola
varlaam
varna
varphi
vars
varsa
varza
vas
vasa
vasal
vascular
vasculare
vase
vasele
vaselor
vasi
vasile
vasilescu
vasili
vasilica
vasilie
vasiliu
vaslui
vast
vasta
vaste
vasul
vasului
vatican
vaticanului
vatra
vaucluse
vaughn
vaza
vb
ve
veac
veaceslav
veacul
veacului
veacuri
veasca
vec
veche
vechea
vechi
vechii
vechile
vechilor
vechime
vechimea
vechiul
vechiului
veci
vecin
vecina
vecine
vecini
vecinii
vecinilor
vecinul
vector
vectori
vectorial
vectoriale
vectorul
vede
vedea
vedeam
vedeau
vedem
vedere
vederea
vederi
vederii
vedet
vedeta
vedete
vega
vegas
vegetal
vegetala
vegetale
vegetat
veghe
vehement
vehicul
vehicule
vehiculele
vehiculelor
vehiculul
vehiculului
vei
vel
vela
veli
veliko
vena
venceslau
vende
vene
venea
veneau
venele
venera
venerat
venet
veneto
venezia
venezuela
venezuelei
veni
veniamin
venice
venim
venind
venira
venirea
venise
venit
venita
venite
venitul
venituri
veniturile
veniturilor
venizelos
ventilat
ventura
venus
ver
vera
verb
verbal
verbala
verbale
verbe
verbele
verbelor
verbul
verbului
verde
verdeat
verdi
verdun
vere
veri
verifica
verificare
verificarea
verificat
verii
verile
veris
verlag
verlagsgesellschaft
vermont
verne
vernon
vero
verona
veronica
vers
versailles
versant
versantul
verse
version
versiune
versiunea
versiuni
versiunii
versiunile
verstappen
versul
versuri
versurile
versurilor
versus
vertebrala
vertebrate
vertebratelor
vertical
verticala
verticale
very
verzi
verzui
verzuie
ves
vesel
vesela
vesele
veseli
veselie
vest
vesta
veste
vestea
vestic
vestica
vestice
vestigii
vestire
vestit
vestita
vestitul
vestul
vestului
veszpre
vet
veta
veteran
veterani
veteranilor
veterinar
veterinara
veverit
vezi
vf
vh
vi
via
vianu
viat
viata
vibrat
vic
vicar
vice
vicecampioana
vicecampion
vicente
vicepres
viceprim
vicerege
vichy
vicles
victima
victime
victimei
victimele
victimelor
victor
victoria
victorie
victoriei
victorii
victoriile
victorios
victory
vid
vida
video
videoclip
videoclipul
videoclipului
videoclipuri
videoclipurile
vidin
vidra
vie
vieat
viena
vienei
vienez
vienna
vienne
vierme
viermi
vieru
viet
vietnam
vietnamul
vietnamului
viette
view
vigoare
vii
viii
viile
viis
viitoare
viitoarea
viitoarei
viitoarele
viitor
viitorul
viitorului
vijayanagar
vijnit
viking
viktor
vila
vilaine
vile
vili
villa
village
ville
villeneuve
villon
vilne
vilneansk
vilnius
vin
vina
vince
vincent
vincenzo
vinci
vinde
vindeca
vindecare
vindecarea
vindecat
vine
vinea
vinerea
vineri
vinil
vinit
vinnit
vino
vinova
vinovat
vinovata
vintila
vinul
vinului
vinuri
vioara
viola
violence
violent
violenta
violente
violet
violeta
violetta
violoncel
violonist
viorel
viorica
vip
vipera
virale
vire
virea
virgil
virgin
virginia
virgula
viridis
virtual
virtuala
virtuale
virtut
virtute
virtutea
virus
virusul
virusului
vis
visa
visarion
visat
visconti
vise
viseaza
visele
vision
vista
visual
visul
visului
visuri
vit
vita
vital
vitala
vitale
vitalie
vitamina
vite
viteaz
viteazu
viteazul
viteji
vitejia
vitejie
vitele
vitelor
viteza
viteze
vitezei
viticol
viticultura
vito
vitoare
vitor
vitreg
vitrega
vittorio
viu
viva
viza
vizat
vizavi
vizeaza
vizibil
vizibila
vizibile
vizigot
vizionat
vizir
vizita
vizitat
vizitata
vizitate
vizitatori
vizitatorii
vizite
viziteaza
vizitei
viziteze
viziune
viziunea
viziuni
vizual
vizuala
vizuale
vizualiza
vl
vla
vlad
vladimir
vladimirescu
vladislav
vlahi
vlahut
vlaicu
vlas
vna
vo
voastra
voastre
vocabular
vocabularul
vocal
vocala
vocale
vocalele
vocalist
vocals
vocat
voce
vocea
voci
vocii
vocile
voda
voevod
vogt
vogue
voi
voia
voiam
voiau
voice
voices
voicu
voiculescu
voie
voies
voiesc
voievod
voievodatul
voievodul
voievodului
voievozi
voind
voinea
voines
voinescu
voinic
voinici
voint
voios
voit
voiu
voivodina
vol
vola
volei
volga
voli
volkswagen
volodi
voltaire
volum
volume
volumele
volumelor
volumul
volumului
voluntar
voluntara
voluntare
voluntari
voluntarii
voluntarilor
volution
vom
von
vopsea
vor
vorba
vorbe
vorbea
vorbeasca
vorbeau
vorbele
vorbes
vorbesc
vorbi
vorbim
vorbind
vorbire
vorbirea
vorbirii
vorbit
vorbita
vorbite
vorbitoare
vorbitor
vorbitori
vorbitorii
vornic
vornicul
voronet
voronin
vos
vostru
vot
vota
votare
votat
votata
voteaza
voteze
votul
votului
voturi
voturile
voturilor
voua
vous
voyage
voyager
vp
vr
vra
vraja
vrancea
vrancei
vre
vrea
vreau
vrednic
vrei
vrem
vreme
vremea
vremi
vremii
vremuri
vremurile
vremurilor
vreo
vreodata
vres
vret
vreun
vreunei
vreunui
vreunul
vrh
vro
vru
vrun
vrut
vs
vu
vuia
vulca
vulcan
vulcani
vulcanica
vulcanice
vulcanul
vulcanului
vulgare
vulgaris
vulnerabila
vulnerabile
vulpe
vulpea
vulpes
vultur
vulturul
vy
w
wa
wade
wadi
wagner
wajda
wake
walckenaeria
wales
walk
walker
walking
wall
wallace
walsh
walt
walter
walther
wan
wanda
wang
wanna
want
war
ward
warner
warren
warrior
warriors
wars
warszawa
was
washington
watanabe
watch
water
waterloo
waters
watson
wave
way
wayne
we
weaver
web
webb
weber
website
webster
wedding
week
weekend
weekly
wehrmacht
wei
weimar
weird
weiss
welcome
well
welles
wellington
wells
welt
wendy
were
werner
wes
wesley
wessex
west
western
westfalia
westminster
wettin
what
wheeler
when
where
which
while
white
whitney
who
why
wi
wide
width
wie
wien
wiener
wiesbaden
wife
wii
wiki
wikimapia
wikimedia
wikipedia
wikisky
wild
wilde
wilder
wiley
wilhelm
will
willem
willi
william
williams
williamson
willie
willis
willy
wilson
wimbledon
win
wind
windows
windsor
wing
wings
winner
winners
winston
winter
wireless
wisconsin
wise
witch
with
within
without
wittelsbach
wizard
wlm
wo
wojciech
wolf
wolfe
wolff
wolfgang
wolfram
woman
women
won
wonder
wood
wooden
woods
woody
word
wordpress
words
work
working
works
workshop
world
worlds
would
wrestlemania
wrestler
wrestleri
wrestling
wright
writer
writers
writing
writings
written
wrocław
wta
wu
wwe
wwf
www
wyatt
wyoming
władysław
x
xang
xavier
xbox
xenopol
xi
xia
xico
xii
xiii
xiv
xix
xml
xv
xvi
xvii
xviii
xx
xxi
xxii
xxiii
xxiv
xxv
xxvi
xxvii
xxx
xylopia
y
ya
yahoo
yale
yamamoto
yang
ye
year
years
yehuda
yellow
yemen
yes
yeung
yi
yin
yo
yoga
yong
yonne
york
yorkshire
yos
you
young
your
youth
youtube
yu
yuan
yuri
yves
yvonne
yyyy
z
za
zac
zace
zack
zadar
zadarnic
zagora
zagreb
zaha
zaharia
zahir
zala
zalis
zambia
zamfir
zamfira
zamfirescu
zane
zaporijjea
zaragoza
zare
zarea
zba
zbate
zbigniew
zboaie
zboaiele
zboaielor
zboara
zboare
zboi
zboieni
zboinic
zboinici
zboiu
zboiul
zboiului
zbor
zboriv
zborul
zborului
zboruri
zborurile
zbuna
zbunare
zbunarea
zbune
zbura
zburat
zdra
zdrent
zdrobit
zduh
zdui
zduies
zduit
zduita
zduite
ze
zealand
zeasca
zece
zecea
zecelea
zeci
zeelanda
zef
zei
zeii
zeilor
zeit
zeita
zeitlmayr
zeitschrift
zeitung
zel
zeleni
zeller
zelotes
zemple
zen
zenit
zeno
zeppelin
zero
zes
zestre
zestrea
zeta
zeu
zeul
zeului
zeus
zf
zga
zgomot
zgomotos
zgomotul
zguduit
zgura
zhang
zhou
zhu
zi
ziar
ziare
ziarele
ziarelor
ziaris
ziarist
ziarul
ziarului
zic
zica
zice
zicea
ziceau
zicem
zici
zid
zida
zidirea
zidit
zidita
zidul
zidului
ziduri
zidurile
zidurilor
ziggler
zii
zile
zilei
zilele
zilelor
zilnic
zilnica
zilnice
zilor
zimbabwe
zimbru
zimmer
zimt
zinc
zinkiv
zis
zisa
zise
zisei
zit
zita
ziua
zlet
zmeu
zmeul
zneala
zneat
znet
zni
znit
zo
zoe
zola
zolociv
zolta
zoltan
zombi
zombie
zona
zone
zonei
zonele
zonelor
zoo
zool
zoologia
zoologica
zoologie
zor
zori
zorii
zorile
zorilor
zorro
zquez
zs
zsa
zsef
zsigmond
zsolt
zu
zugra
zugrav
zugravul
zui
zum
zur
zura
zuse
zut
zuta
zute
zva
zvan
zvi
zvonuri
zvonurile
zvra
{
|
}
~



¡
¢
£
§
¨
©
ª
«
¬
­
®
°
±
²
³
´
µ
·
¹
º
»
½
¿
×
ß
æ
ð
÷
ø
ı
ł
ło
ƒ
ȣ
ɑ
ɔ
ə
ɛ
ɴ
ʁ
ʃ
ʌ
ʒ
ʰ
ʲ
ʹ
ʻ
ʼ
ʽ
ʾ
ʿ
ˈ
ː
˝
̀
́
̂
̃
̄
̆
̇
̈
̉
̊
̋
̌
̏
̑
̓
̔
̛
̣
̦
̧
̨
̭
̮
̯
̱
̸
͂
͡
α
β
γ
δ
ε
ζ
η
θ
ι
κ
λ
μ
ν
ξ
ο
π
ρ
ς
σ
τ
υ
φ
χ
ψ
ω
а
б
в
г
д
е
з
за
и
к
л
м
москва
н
на
не
о
от
п
по
р
россии
с
ссср
т
у
украі
ф
х
ч
ш
ъ
э
ю
я
є
і
ՙ
ְ
ִ
ֵ
ֶ
ַ
ָ
ֹ
ּ
ֿ
ׁ
א
ב
ד
ה
ו
ח
י
ל
מ
נ
ע
פ
ר
ש
ת
ا
ت
م
ن
و
ي
َ
ُ
ِ
ّ
ْ
ٓ
ٔ
ٕ
٭
न
र
ा
ि
ी
्
া
்
౾
ั
ิ
ี
ุ
่
้
์
་
῾
​
‎
‏
‐
‑
‒
–
—
―
‘
’
‚
“
”
„
‟
†
‡
•
…
‬
‭
‰
′
″
‿
⁠
€
№
™
←
↑
→
↔
↷
⇄
⇆
∂
∈
−
∞
∨
≈
≡
≤
≥
⊃
③
④
⑦
─
│
└
├
■
▪
●
◫
◷
☉
♀
♂
♠
♣
♦
♭
❦
⦁
⺀
⺄
⺆
⺈
⺊
⺌
⺕
⺝
⺸
⺼
⿰
⿱
⿲
⿳
⿴
⿵
⿶
⿷
⿸
⿹
⿺
⿻
、
。
『
』
〢
あ
い
う
か
き
く
け
し
た
ち
っ
つ
て
と
な
に
の
は
ひ
ら
り
る
ん
゙
゚
ア
ィ
イ
ウ
カ
キ
ク
コ
サ
シ
ス
タ
ッ
テ
ト
ニ
ハ
ヒ
フ
ホ
マ
メ
ャ
ユ
ラ
リ
ル
レ
ロ
ン
・
ー
㇁
㇂
㇄
㇇
㇈
㇉
㇓
㐁
㐄
㐅
㐌
㐫
㐬
㐭
㐮
㐱
㑒
㒵
㒸
㒼
㓁
㓞
㔾
㕛
㕣
㖾
㘝
㚅
㚇
㚔
㚘
㝉
㝡
㝴
㝵
㞋
㞢
㞷
㠩
㠭
㠯
㡀
㡭
㡿
㢲
㢴
㣇
㣺
㥯
㪅
㫄
㫐
㫒
㫺
㬅
㬎
㬥
㬰
㲋
㳄
㷠
㸒
㸚
㸦
㼌
㼲
㽞
㿟
䀠
䂞
䍃
䏍
䒑
䖍
䖒
䖝
䖵
䙴
䚻
䜌
䝿
䡛
䧹
䪞
一
丁
丂
七
丄
丅
丆
万
丈
三
上
下
丌
不
与
丏
丐
丑
专
且
丕
世
丘
丙
业
东
丞
丢
丣
两
严
並
丨
丩
个
丫
丬
中
丮
丰
丱
串
丵
丶
丷
丸
丹
为
主
丽
丿
乀
乂
乃
久
乆
乇
么
义
之
乌
乍
乎
乏
乐
乑
乔
乖
乗
乘
乙
乚
乛
乜
九
乞
也
习
乡
乳
乾
亀
亅
了
亇
予
争
事
二
亍
于
亏
亐
云
互
亓
五
井
亘
亚
亜
亞
亟
亠
亡
亢
交
亥
亦
产
亨
亩
享
京
亭
亮
亯
亰
亲
亳
亶
亷
人
亻
亼
亾
仁
今
介
仌
从
仐
仑
仒
仓
仕
他
付
仝
代
令
以
任
企
伊
伏
伐
休
会
伯
但
位
何
佘
余
作
佥
使
來
侈
侌
侖
侯
侵
便
保
俞
信
修
倉
倍
候
倠
備
僉
僕
儿
兀
允
兂
元
兄
充
兆
兇
先
光
兊
克
兌
免
兑
兒
兓
兔
党
兜
兟
入
全
兩
兪
八
公
六
兮
兰
共
关
兵
其
具
典
兹
兼
冀
冂
冃
冄
内
冈
冉
冊
冋
册
再
冎
冏
冐
冒
冓
冖
冗
冘
军
农
冝
冡
冥
冫
冬
冷
几
凡
凢
凵
凶
凷
凸
凹
出
函
凾
刀
刁
刂
刃
刄
刅
分
切
刍
刑
刕
刖
列
刘
则
初
別
利
别
到
制
刺
則
削
剌
前
剡
剽
劉
力
功
加
劦
助
劫
劳
劵
勃
勇
勉
勒
動
務
勞
勤
勹
勺
勻
勾
勿
匀
匂
包
匆
匈
匊
匋
匍
匕
化
北
匚
匝
匡
匪
匱
匸
匹
区
医
匽
匿
區
十
卂
千
卄
卅
卆
升
午
卉
半
卌
华
卑
卒
卓
单
卖
南
卜
卝
卞
占
卡
卢
卣
卤
卦
卩
卪
卬
卯
印
危
即
却
卵
卷
卸
卻
厂
厃
厄
历
厈
厉
厌
厓
厘
厚
原
厤
厥
厨
厭
厲
厶
厷
厸
去
厼
厽
叀
参
參
叅
又
叉
及
友
双
反
叐
发
叒
叔
叕
取
受
叚
叜
叟
口
古
句
另
叩
只
召
可
台
叱
史
右
叵
号
司
叹
吂
各
吅
合
吉
吊
吋
同
名
后
吏
向
吕
君
吝
吞
否
含
启
吳
吴
吹
吾
呂
呆
呈
告
员
呙
周
命
咅
和
咎
咠
咢
咨
咸
咼
哀
品
哉
員
哥
哲
唐
商
啇
問
啚
啬
啻
善
喜
喬
單
喿
嗇
噩
嚴
囊
囗
囘
[...]
