!
"
#
##0
##1
##10
##11
##12
##13
##14
##15
##16
##17
##18
##19
##2
##20
##21
##22
##23
##24
##25
##26
##27
##28
##29
##3
##30
##31
##32
##33
##34
##35
##36
##37
##38
##39
##4
##40
##41
##42
##43
##44
##45
##46
##47
##48
##49
##5
##50
##51
##52
##53
##54
##55
##56
##57
##58
##59
##6
##60
##61
##62
##63
##64
##65
##66
##67
##68
##69
##7
##70
##71
##72
##73
##74
##75
##76
##77
##78
##79
##8
##80
##81
##82
##83
##84
##85
##86
##87
##88
##89
##9
##90
##91
##92
##93
##94
##95
##96
##97
##98
##99
$
%
&
'
(
)
*
+
,
-
.
/
0
00
000
0004
001
002
003
00312
004
005
007
008
009
01
010
013
014
01515020
02
03
0362
0396
04
0450
0483
05
06
07
08
09
1
10
100
1000
10000
10001
1001
1002
1004
1006
1007
1009
101
1010
1011
1012
1013
1014
1015
1016
1017
1018
1019
102
1020
1021
1023
1024
1025
1027
1028
1029
103
1030
1031
1034
1035
1037
1038
1039
104
1040
1041
1042
1044
1045
1046
1047
1048
1049
105
1050
1051
1052
1054
1055
1056
1057
1058
1059
106
1060
1061
1063
1065
1066
107
1070
1071
1072
1073
1076
1077
1078
108
1080
1081
1084
1085
1086
1087
1088
1089
109
1090
1091
1093
1094
1095
1096
1097
1098
1099
11
110
1100
11000
11001
1101
1103
1104
1105
1106
1107
1109
111
1111
1112
1114
1115
1118
112
1120
1122
1123
1124
1125
1126
1127
1128
113
1130
1131
1134
1135
1136
1137
1138
1139
114
1140
1141
1142
1143
1146
1148
115
1150
1151
1152
1154
1155
1156
11568
1157
116
1160
1162
1163
1167
1168
117
1170
1173
1176
1177
11774
118
1180
1183
1184
1185
1186
1189
119
1190
1191
1192
1194
1195
1196
1197
1198
1199
12
120
1200
12000
12001
1201
1202
1203
1204
1205
1206
1207
12081
121
1210
1211
12116
1212
12124
1213
1214
1215
1216
1217
1218
1219
122
1220
1221
1222
1223
1225
1227
1228
1229
123
1230
1232
1234
1235
1237
1238
124
1240
1241
1242
1243
1244
1246
1247
1248
1249
125
1250
1251
1252
1253
1254
1255
1256
1257
1258
126
1260
1261
1263
1264
1265
1266
1267
1268
127
1270
1271
1272
1273
1274
1275
1276
1277
1278
1279
128
1280
1281
1282
1284
1285
1286
1288
1289
129
1290
1291
1293
1294
1295
1296
1298
1299
13
130
1300
13000
1301
1302
1304
1305
1306
1307
1308
1309
131
1310
1312
1314
1316
1318
1319
132
1320
1322
1323
1324
1325
1326
1327
1328
1329
133
1330
1331
1332
1333
1337
1339
134
1340
1341
1342
1343
13447
1345
1346
1347
1348
1349
135
1350
1351
1352
1353
1354
1355
1356
1359
136
1360
1361
1363
1364
1365
1368
1369
137
1370
1371
1373
1375
1377
1378
1379
138
1380
1381
1382
1383
1384
1385
1386
1387
1388
1389
139
1390
1391
1392
1393
1394
1395
1397
1398
1399
14
140
1400
1401
1402
1404
1405
1406
1407
141
1410
1411
1412
1413
1414
1415
1416
1417
1418
1419
142
1420
1421
1422
1423
1424
1425
1427
1428
1429
143
1430
1431
1432
1433
1434
1435
1436
1437
1438
1439
144
1440
1441
1442
1443
1444
1445
1446
1447
1448
145
1450
1451
1452
1453
14530
1454
1456
1457
1458
1459
146
1460
1461
1462
1464
1465
1466
1467
1468
1469
147
1470
1471
1473
1474
1475
1476
1477
1478
1479
148
1480
1481
1482
1483
1485
1486
1488
1489
149
1490
1492
1493
1494
1495
1496
1497
1498
1499
15
150
1500
1501
1502
1503
1504
1505
1506
1508
1509
151
1510
1511
1512
1513
1514
1515
1516
1517
1519
152
1520
1521
1522
1523
1524
1525
1526
1527
1528
1529
153
1530
1531
1532
1533
1534
1535
1536
1537
1538
1539
154
1540
1541
1542
1543
1544
1545
1546
1547
1548
155
1550
1551
1552
1553
1554
1555
1556
1557
1558
1559
156
1560
1561
1563
1564
1565
1566
1567
1568
1569
157
1570
1571
1572
1573
1574
1575
1576
1577
1578
1579
158
1580
1581
1582
1583
1584
1585
1586
1587
1588
1589
159
1590
1591
1592
15924
1593
1594
1595
1596
1597
1598
1599
16
160
1600
1601
1602
1603
1604
1605
1606
1607
1608
1609
161
1610
1611
1612
1613
1614
1615
1616
1617
1618
1619
162
1620
1621
1622
1623
1624
1625
1626
1627
1628
1629
163
1630
1631
1632
1633
1634
1635
1636
1637
1638
1639
164
1640
1641
1642
1643
1644
1645
1646
1647
1648
1649
165
1650
1651
1652
1653
1654
1655
1656
1657
1658
1659
166
1660
1661
1662
1663
1664
1665
1666
1667
1668
1669
167
1670
1671
1672
1673
1674
1675
1676
1677
1678
1679
168
1680
1681
1682
1683
1684
1685
1686
1687
1688
1689
169
1690
1691
1692
1693
1694
1695
1696
1697
1698
1699
17
170
1700
1701
1702
1703
1704
1705
1706
1707
1708
1709
171
1710
1711
1712
1713
1714
1715
1716
1717
1718
1719
172
1720
1721
1722
1723
1724
1725
1726
1727
1728
1729
173
1730
1731
1732
1733
1734
1735
1736
1737
1738
1739
174
1740
1741
1742
1743
1744
1745
1746
1747
1748
1749
175
1750
1751
1752
1753
1754
1755
1756
1757
1758
1759
176
1760
1761
1762
1763
1764
1765
1766
1767
1768
1769
177
1770
1771
1772
1773
1774
1775
1776
1777
1778
1779
178
1780
1781
1782
1783
1784
1785
1786
1787
1788
1789
179
1790
1791
1792
1793
1794
1795
1796
1797
1798
1799
18
180
1800
1801
1802
1803
1804
1805
1806
1807
1808
1809
181
1810
1811
1812
1813
1814
1815
1816
1817
1818
1819
182
1820
1821
1822
1823
1824
1825
1826
1827
1828
1829
183
1830
1831
1832
1833
1834
1835
1836
1837
1838
1839
184
1840
1841
1842
1843
1844
1845
1846
1847
1848
1849
185
1850
1851
1852
1853
1854
1855
1856
1857
1858
1859
186
1860
1861
1862
1863
1864
1865
1866
1867
1868
1869
187
1870
1871
1872
1873
1874
1875
1876
1877
1878
1879
188
1880
1881
1882
1883
1884
1885
1886
1887
1888
1889
189
1890
1891
1892
1893
1894
1895
1896
1897
1898
1899
19
190
1900
1901
1902
1903
1904
1905
1906
1907
1908
1909
191
1910
1911
1912
1913
1914
1915
1916
1917
1918
1919
192
1920
1921
1922
1923
1924
1925
1926
1927
1928
1929
193
1930
1931
1932
1933
1934
1935
1936
1937
1938
1939
194
1940
1941
1942
1943
1944
1945
1946
1947
1948
1949
195
1950
1951
1952
1953
1954
1955
1956
1957
1958
1959
196
1960
1961
1962
1963
1964
1965
1966
1967
1968
1969
197
1970
1971
1972
1973
1974
1975
1976
1977
1978
1979
198
1980
1981
1982
1983
1984
1985
1986
1987
1988
1989
199
1990
1991
1992
1993
1994
1995
1996
1997
1998
1999
2
20
200
2000
2001
2002
2003
2004
2005
2006
2007
2008
2009
201
2010
2011
2012
2013
2014
2015
2016
2017
2018
2019
202
2020
2021
2022
2023
2024
203
204
205
206
207
208
209
21
210
211
212
213
214
215
216
217
218
219
22
220
22000
221
222
223
224
225
226
227
228
229
23
230
2307
231
232
233
234
235
236
237
238
239
24
240
241
242
243
244
245
246
247
248
249
25
250
2500
251
252
253
254
255
256
257
258
259
26
260
261
262
263
264
265
266
267
268
269
27
270
271
272
273
274
275
276
277
278
279
28
280
281
282
283
284
285
286
287
288
289
29
290
291
292
293
294
295
296
297
298
299
3
30
300
3000
301
302
303
304
305
306
307
308
309
31
310
311
312
313
314
315
316
3166
317
318
319
32
320
321
322
323
324
325
326
327
328
329
33
330
331
332
333
334
335
336
337
338
339
34
340
341
342
343
344
345
346
347
348
349
35
350
351
352
353
354
355
356
357
358
359
36
360
361
362
363
364
365
366
367
368
369
37
370
371
372
373
374
375
376
377
378
379
38
380
381
382
383
384
385
386
387
388
389
39
390
391
392
393
394
395
396
397
398
399
4
40
400
4000
401
402
403
404
405
406
407
408
409
41
410
411
412
413
414
415
416
417
418
419
42
420
421
422
423
424
425
426
427
428
429
43
430
431
432
433
4331
434
435
436
437
438
439
44
440
441
442
443
444
445
446
447
448
449
45
450
451
452
453
454
455
456
457
458
459
46
460
461
462
463
464
465
466
467
468
469
47
470
471
472
473
474
475
476
477
478
479
48
480
481
482
483
484
485
486
487
488
489
49
490
491
492
493
494
495
496
497
498
499
5
50
500
5000
5001
501
502
503
504
505
506
507
508
509
51
510
511
512
513
514
515
516
517
518
519
52
520
521
522
523
524
525
526
527
528
529
53
530
531
532
533
534
535
536
537
538
539
54
540
541
542
543
544
545
546
547
548
549
55
550
551
552
553
554
555
556
557
558
559
56
560
561
562
563
565
566
567
568
569
57
570
571
572
573
574
575
576
577
578
579
58
580
581
582
583
584
585
586
587
588
589
59
590
591
592
593
595
596
597
598
6
60
600
6000
6001
601
602
603
604
605
606
607
608
609
61
610
611
612
613
614
615
616
617
618
619
62
620
621
623
624
625
626
627
628
629
63
630
631
632
633
634
635
636
637
638
639
64
640
641
642
643
645
646
649
65
650
651
652
653
655
656
657
66
660
661
662
663
664
665
666
667
668
669
67
670
671
672
673
674
675
676
677
678
679
68
680
681
683
684
685
686
687
688
689
69
690
691
693
694
695
696
697
7
70
700
7000
7001
701
702
703
704
705
706
707
709
71
710
711
712
713
715
716
717
718
719
72
720
721
724
725
726
727
73
730
731
732
733
737
739
74
740
741
744
745
747
748
749
75
750
751
754
755
756
757
758
76
760
762
764
767
768
77
770
774
775
777
78
780
786
787
788
789
79
790
795
797
799
8
80
800
8000
8001
8018
802
803
81
810
811
812
814
8141
817
82
820
822
828
8289
829
83
830
835
8354
836
839
84
840
842
8427
843
844
84433
848
8489488
849
85
850
85013
852
854
855
85502
86
860
863
864
866
867
87
870
871
875
876
8764176
877
878
879
88
880
882
884
885
886
887
888
889
89
890
892
893
894
895
896
898
899
9
90
900
9000
9001
902
905
906
907
91
910
911
912
914
915
917
918
919
92
920
923
924
925
927
928
93
930
933
934
935
936
937
939
94
940
942
943
945
946
947
949
95
950
951
953
954
955
959
96
960
961
962
963
964
965
966
967
968
969
97
970
971
972
973
975
976
977
978
979
98
980
981
982
983
985
987
988
989
99
990
991
994
995
996
997
9975
998
999
:
;
<
=
>
?
@
[
\
]
^
_
`
a
aa
aachen
aarau
aarc
aaron
ab
aba
abandona
abandonat
abandonata
abandonate
abandoneze
abat
abate
abau
abba
abbas
abbasid
abbasizilor
abbey
abbott
abc
abd
abdallah
abdicarea
abdomen
abdomenul
abdul
abdullah
abe
abel
abhazia
abia
abil
abilita
abilitate
abilitatea
abolirea
abolit
abonat
aborda
abordare
abordarea
abordat
abordate
abordeaza
about
above
abraham
abrams
abreviat
abreviere
abrevierea
abrud
abrupt
abrupte
abruzzo
absent
absida
absolut
absoluta
absolute
absolvent
absolvire
absolvirea
absolvit
absorbit
absorbt
abstract
abstracta
abstracte
absurd
abt
abu
abucay
abundent
abundente
abur
aburi
abuz
abuzul
abuzuri
abuzurile
ac
acad
acade
academia
academic
academica
academice
academician
academicianul
academie
academiei
academy
acarida
acasa
accademiadellescienze
accelera
accelerat
accent
accente
accentua
accentuat
accentuata
accentul
accept
accepta
acceptarea
acceptat
acceptata
acceptate
accepte
acces
accesa
accesat
accesata
accesibil
accesibila
accesibile
accesorii
access
accessed
accesul
accesului
accident
accidenta
accidental
accidentat
accidente
accidentul
accidentului
according
account
ace
acea
aceasta
aceea
aceeas
acei
aceia
aceias
acel
acela
acelas
acelasi
acele
acelea
aceleas
acelei
aceleias
acelor
acelora
aceloras
acelui
aceluia
aceluias
acer
aces
acest
acesta
aceste
acestea
acestei
acesteia
acestor
acestora
acestui
acestuia
acharts
achim
achitat
achizit
aci
acid
acidul
acidului
acizi
acmu
acolo
acompaniament
acompaniat
acopera
acopere
acoperea
acoperi
acoperind
acoperire
acoperirea
acoperis
acoperit
acoperita
acoperite
acord
acorda
acordarea
acordat
acordata
acordate
acorde
acordul
acordului
acorduri
acordurile
acra
acrobat
acronim
acronimul
acronym
across
acru
acs
act
acta
acte
actele
actelor
acting
action
activ
activa
activat
active
activeaza
activi
activis
activist
activista
activita
activitate
activitatea
activity
actor
actori
actorie
actorii
actorilor
actors
actorul
actorului
actress
actrit
actual
actuala
actuale
actualei
actuali
actualita
actualitate
actualitatea
actualiza
actualizare
actualizat
actualizata
actualmente
actualul
actualului
actul
actului
acu
acuarela
acum
acuma
acumula
acumulare
acumularea
acumulat
acumulate
acuratet
acustica
acut
acuta
acute
acuza
acuzare
acuzat
acuzata
acuzativ
acvatic
acvatice
acvila
ad
ada
adalbert
adam
adams
adaos
adapta
adaptare
adaptarea
adaptat
adaptata
adaptate
adar
adauga
adauge
add
addison
address
ade
adeca
adecvat
adecvata
adecvate
adei
adela
adelaide
adele
adept
adera
aderare
aderarea
aderat
aderca
aderent
adesea
adeseori
adeva
adevarul
adi
adiacent
adiacente
adica
adige
adil
adina
adio
adit
adj
adjectiv
adjective
adjectivul
adjunct
adjusted
adler
administra
administrare
administrarea
administrat
administrata
administrate
administration
administrativ
administrativa
administrative
administrator
administratorul
administreaza
admira
admirabil
admirat
admis
admisa
admit
admite
admitere
admiterea
adn
adobe
adolescent
adolescenta
adolf
adolphe
adopt
adopta
adoptarea
adoptat
adoptata
adoptate
adopte
adormi
adormirea
adormit
adresa
adresat
adresata
adresate
adrese
adreseaza
adrian
adriana
adriatica
adrien
adu
aduc
aduca
aduce
aducea
aduceau
aducem
aducerea
aducet
aduci
adult
adulta
adulte
aduna
adunare
adunarea
adunat
adunate
adune
adus
adusa
aduse
adusese
adv
advance
advanced
adventis
adventure
adventures
adverbial
adversar
adversari
adversarii
adversarul
adversarului
adverse
ae
aec
aedes
aer
aerian
aeriana
aeriene
aero
aeronautica
aeronava
aeronave
aeroport
aeroportul
aeroportului
aeroporturi
aerul
aerului
af
afa
afacere
afacerea
afaceri
afacerii
afacerile
afacerilor
afara
afc
afect
afecta
afectat
afectata
afectate
afecteaza
aferente
affair
affairs
afganistan
afghanistan
afi
afiliat
afin
afirma
afirmarea
afirmat
afirme
afis
afla
aflase
aflat
aflata
aflate
aflau
afle
afli
aflu
afluent
afonso
africa
african
africana
africane
africani
africii
afrikaans
afrique
afro
after
afumat
ag
aga
agachi
again
against
agapia
agaricus
agatha
age
agency
agenda
agent
agentul
agerpres
ages
agita
agitat
aglomerat
agnes
ago
agora
agrara
agrare
agreement
agrement
agresiv
agresiva
agricol
agricola
agricole
agricultura
agriculture
agriculturii
agro
agromyza
agromyzidae
agronom
aguilera
aguna
ah
ahaia
ahead
ahile
ahmad
ahmed
ahului
ai
aia
aiba
aice
aicea
aici
aid
aida
aide
aievea
aime
ain
air
airbus
aircraft
aires
airlines
airplay
airport
airways
ais
aise
aisne
aisprezece
aiud
aiurea
aix
aizeci
aj
ajax
ajun
ajung
ajunga
ajunge
ajungea
ajungeau
ajungem
ajungi
ajuns
ajunsa
ajunse
ajunsera
ajunsese
ajunul
ajuta
ajutat
ajute
ajutoare
ajutor
ajutorul
ak
aka
akade
akademie
akc
akira
al
ala
alabama
alain
alalta
alama
alan
alapi
alarma
alaska
alb
alba
albanez
albaneza
albaneze
albanezi
albania
albanian
albaniei
albany
albas
albastra
albastre
albastru
albastrul
albatros
albe
albert
alberta
alberto
albes
albi
albia
albicioasa
albicioase
albicios
albin
albina
albine
albrecht
albu
albul
album
albume
albumele
albumelor
albums
albumul
albumului
alca
alcool
alcoolice
alde
aldea
aldo
ale
aleaga
alearga
aleasa
alec
alecsandri
alecu
aleea
aleg
alega
alege
alegere
alegerea
alegeri
alegerii
alegerile
alegerilor
alei
alejandro
aleksandar
aleksander
aleksandr
aleksei
alep
alerga
alergat
alerge
alert
alerta
ales
alese
alessandria
alessandro
alex
alexa
alexander
alexandr
alexandra
alexandre
alexandrescu
alexandria
alexandrina
alexandru
alexe
alexei
alexios
alexis
alexiu
alfa
alfabet
alfabetica
alfabetul
alfabetului
alfonso
alfred
alfredo
alge
algebra
algebrica
algebrice
alger
algeria
algoritm
algoritmi
algoritmul
ali
aliaj
aliant
alias
aliat
aliata
aliate
alice
alicia
alien
aliens
aligned
aliment
alimenta
alimentar
alimentara
alimentare
alimentarea
alimentat
alimente
alimenteaza
alimentele
alimentelor
alin
alina
alineatul
alipirea
alipite
alison
alive
all
alla
allah
allan
alle
allegro
allen
allgemeine
alliance
allier
allison
allmovie
allmusic
allocine
allocosa
allrovi
ally
alma
almanahul
almas
almost
alocat
alocate
alocuri
alois
alon
alone
along
alonso
alopecosa
alpaida
alpes
alpha
alphonse
alpi
alpii
alpin
alpina
alpine
alr
alrrm
als
alsacia
also
alstroemeria
alt
alta
altai
altar
altarul
altarului
altceva
altcineva
alte
altei
altele
altenburg
alteori
alter
alternant
alternativ
alternativa
alternative
altfel
altitudine
altitudinea
altitudini
altminteri
alto
altor
altora
altui
altuia
altul
aluat
alul
alului
aluminiu
alun
aluneca
alunga
alungat
alunge
alungit
alungita
alungite
alunis
aluzie
alves
alvin
always
am
ama
amadeus
amalfi
amalia
aman
amanda
amanita
amant
amanta
amar
amara
amare
amata
amator
amatori
amazing
amazon
ambarcat
ambasada
ambasadei
ambasador
ambasadorul
ambele
ambelor
amber
ambiant
ambient
ambii
ambit
ambrose
ambulant
ambuscada
amd
ame
amedeo
amelia
ameliorarea
amenaja
amenajare
amenajarea
amenajat
amenajata
amenajate
amenda
amendament
amenint
ament
amentul
america
american
americana
americane
americani
americanii
americanilor
americano
americans
americanul
americii
amestec
amesteca
amestecat
amestecata
amestecate
amestecul
amet
amfibieni
amfiteatru
ami
amiaza
amic
amical
amici
amicul
amid
amin
aminte
amintea
amintes
amintesc
aminti
amintim
amintind
amintire
amintirea
amintiri
amintirile
amintit
amintita
amintite
amiota
amir
amiral
amiralul
amiralului
amnesty
among
amoniac
amonte
amor
amore
amort
amorul
amos
amounts
amour
amp
amphoe
ampla
amplasament
amplasarea
amplasat
amplasata
amplasate
ample
amploare
amploarea
amplu
amprenta
ams
amsterdam
amt
amu
amurg
amy
amza
an
ana
anal
analele
analis
analitica
analitice
analiza
analizat
analizate
analize
analizeaza
analizei
analog
analogie
analysis
anania
anas
anastasia
anastasie
anat
anatol
anatoli
anatolia
anatolie
anatomia
anatomie
anatomy
anca
ancheta
anchetat
anchete
ancient
ancora
and
anda
andaluzia
anders
andersen
anderson
andorra
andra
andre
andrea
andreas
andreea
andreescu
andrei
andrew
andrews
andries
andriescu
android
andromeda
andronic
andru
andrzej
andy
anei
anenii
anexa
anexarea
anexat
anexata
anexate
anexe
ang
angaja
angajament
angajamentul
angajat
angajata
angajate
angajeaza
angajeze
ange
angel
angela
angeles
angelescu
angelica
angelo
angels
anghel
anghelescu
angiosperme
angkor
angle
anglia
angliei
anglo
angola
angry
angus
anhalt
ani
anica
anii
anilor
anima
animal
animala
animale
animalele
animalelor
animals
animalul
animat
animata
animate
animated
animation
anime
anita
aniversa
aniversare
aniversarea
anjou
ankara
ann
anna
annales
annals
anne
annei
annie
anniversary
anno
annona
annonaceae
annonbase
annotated
announced
announces
annual
anolis
anonim
anonima
anopheles
another
anotimp
anotimpuri
anpm
ans
ansa
ansamblu
ansamblul
ansamblului
anse
ansele
ant
antal
antantei
antarctic
antarctica
ante
antena
anterioara
anterioare
anterior
anthology
anthomyia
anthomyiidae
anthony
anti
antibiotic
antibiotice
antic
antica
antice
antichita
antichitate
antichitatea
antici
anticipat
anticipate
anticomunista
anticomuniste
anticorupt
antier
antierul
antigua
antim
antioh
antiohia
antiohiei
antipa
antisemite
antitanc
anto
antoaneta
antoine
antoinette
antologia
antologie
antologii
anton
antonescu
antoni
antonia
antonie
antonio
antoniu
antony
antrena
antrenament
antrenat
antrenata
antreneaza
antrenor
antrenori
antrenorul
antrenorului
antreprenor
antropologie
ants
antwerpen
anu
anual
anuala
anuale
anuarul
anul
anula
anularea
anulat
anulata
anulate
anului
anume
anumit
anumita
anumite
anumitor
anunt
anvergura
anvers
anxietate
any
ao
ap
apa
apache
apar
apara
aparat
aparate
aparatele
aparatul
aparatului
aparatura
apare
aparent
aparenta
aparit
apart
apartament
apartamente
apartamentul
aparte
apartenent
apasa
ape
apei
apel
apela
apelat
apele
apeleaza
apelor
apelul
apeluri
apere
api
apj
aplauze
apleca
aplecat
aplica
aplicare
aplicarea
aplicat
aplicata
aplicate
aplice
apocalipsa
apocalypse
apogeul
apoi
apollo
aport
aportul
apostol
apostoli
apostolic
apostolilor
apostolul
app
apper
apple
application
applications
applied
approach
approx
apr
apre
aprecia
apreciat
apreciata
apreciate
apreciaza
apreciere
aprecierea
aprecieri
april
aprilie
aprinde
aprins
aprinsa
aprinse
aproape
aproba
aprobare
aprobarea
aprobat
aprobata
aprobate
apropia
apropiat
apropiata
apropiate
apropie
apropiere
apropierea
apropiindu
aproviziona
aprovizionare
aprovizionarea
aprox
aproximat
aproximativ
aproximativa
aps
apt
apte
aptea
aptelea
aptesprezece
aptezeci
apuca
apucat
apuce
apud
apulia
apus
apuseana
apusene
apuseni
apusul
aq
aquila
aquitania
ar
ara
arab
araba
arabe
arabi
arabia
arabic
arabiei
arabii
arabil
arabilor
arachnida
arad
aradului
aragon
aragonului
arakan
arama
araneae
araneidae
araneus
aranja
aranjament
aranjamente
aranjat
aranjate
arat
arata
arate
arbitraj
arbitrar
arbitru
arbitrul
arbore
arborele
arbori
arborii
arborilor
arbus
arbust
arc
arca
arcade
arcadia
arcanum
arcas
arce
arch
archaeological
archaeology
arche
archer
archibald
architecture
archiv
archive
archived
archives
archivio
arctic
arctiidae
arctosa
arcul
arcului
arcuri
ard
arda
arde
ardea
ardeal
ardealul
ardealului
ardei
ardelean
ardeleana
ardeleni
ardennes
ardere
arderea
are
area
areal
arealul
arealului
areas
arena
arenda
arendas
arest
aresta
arestare
arestarea
arestat
arestata
argentina
argentinei
argentinian
argentino
arges
argetoianu
arghezi
argila
argint
argintiu
argintul
argou
argument
argumenta
argumentat
argumente
argumentele
argumentul
arh
arhaic
arhaica
arhaice
arhangheli
arheolog
arheologia
arheologic
arheologica
arheologice
arheologie
arheologii
arhiduce
arhiducele
arhiducesa
arhiepiscop
arhiepiscopia
arhiepiscopiei
arhiepiscopul
arhiepiscopului
arhiereu
arhimandrit
arhimandritul
arhimede
arhipelagul
arhitect
arhitectonic
arhitectul
arhitectului
arhitectura
arhitectural
arhitecturale
arhitecturii
arhiva
arhivat
arhive
arhivele
arhivelor
ari
aria
ariana
arie
ariei
ariel
aries
arigrad
arii
ariile
ariilor
arilor
arina
aripa
aripi
aripii
aripile
aripilor
arist
arista
ariste
aristide
aristocrat
aristotel
aritmetica
arizona
ark
arkansas
arm
arma
armament
armamentul
armand
armanis
armas
armat
armata
armate
armatei
armatele
armatelor
arme
armean
armeana
armed
armele
armelor
armene
armeni
armenia
armenian
armeniei
armenii
armenilor
armin
armistit
armonia
armonie
armonios
armor
arms
armstrong
armura
army
arn
arna
arno
arnold
arnulf
aro
arogant
aroma
aron
arondismentul
around
arpadiana
arpe
arpele
arpelui
arrow
ars
arsa
arse
arsenal
arsenie
arslan
art
arta
arte
artefacte
artei
artele
artelor
artemis
arten
artera
artere
arterei
arterele
arteriala
arthur
article
articles
articol
articole
articolele
articolelor
articolul
articolului
articulare
articulat
artificial
artificiala
artificiale
artileria
artilerie
artileriei
artis
artist
artista
artistei
artistic
artistica
artistice
artists
artistul
artistului
arts
artur
arturo
aru
arul
arului
arunca
aruncarea
aruncat
aruncata
aruncate
arunce
arxiv
arza
as
asa
asachi
asalt
asaltul
asan
asasin
asasina
asasinarea
asasinat
asca
ascendent
ascensiune
ascensiunea
ascult
asculta
ascultare
ascultarea
ascultat
asculte
ascund
ascunda
ascunde
ascundea
ascuns
ascunsa
ascunse
ascunza
ascut
ase
asea
aseama
aseara
asediat
asediu
asediul
asediului
aselea
asema
asemene
asemenea
asemeni
asfint
ash
ashley
asia
asian
asiatic
asiatica
asiatice
asiei
asigura
asigurare
asigurarea
asigurat
asigurata
asigurate
asigure
asimilat
asimov
asin
asista
asistat
asistent
asistenta
asistentul
ask
askaniana
aslan
asociat
asociata
asociate
asociaza
asociere
asocierea
asp
aspect
aspecte
aspectele
aspects
aspectul
aspectului
aspira
aspirat
aspra
aspre
aspru
aspx
assassin
assembly
assessment
associated
association
associations
ast
asta
astana
astazi
aste
astea
asterales
asteroid
asteroidul
asteroidului
asteroizi
astfel
asti
aston
astra
astro
astrofizica
astronaut
astronom
astronomi
astronomia
astronomic
astronomica
astronomical
astronomice
astronomie
astronomiei
astronomii
astronomul
astronomy
astrophysical
astrophysics
asturia
asuma
asumat
asupra
at
ata
atac
ataca
atacant
atacat
atacata
atacate
atace
atacul
atacului
atacuri
atacurile
atacurilor
atanasie
atare
atari
atas
atc
ate
atei
atelier
ateliere
atelierele
atelierul
atena
atenei
ateneu
ateneul
atent
atenta
atentat
atentatul
aterizare
aterizat
atesta
atestare
atestat
atestata
athens
atherigona
athletes
athletic
athletics
athos
ati
ating
atinga
atinge
atingere
atingerea
atins
atinsa
atinse
ation
atitudine
atitudinea
atitudini
atitudinii
atkinson
atlanta
atlantic
atlanticului
atlantique
atlantiques
atlantis
atlas
atlasul
atle
atlet
atleta
atletism
atmosfera
atmosferei
atmosferica
atmosferice
atom
atomi
atomic
atomica
atomice
atomii
atp
atra
atract
atractus
atrag
atraga
atrage
atras
atribuie
atribuirea
atribuit
atribuita
atribuite
atribut
atribute
atrocita
attack
attacks
attila
atul
atunce
atuncea
atunci
au
aua
aube
aud
auda
aude
audi
audient
audio
audiofis
audit
audrey
auf
auflage
aug
augsburg
august
augusta
auguste
augustin
augusto
augustus
aur
aura
aurel
aurelia
aurelian
aurica
aurie
aurii
aurit
auriu
aurora
aurul
aurului
aus
auschwitz
ausgewa
austen
austin
australia
australian
australiana
australiei
australiene
austria
austriac
austriaca
austrian
austriece
austrieci
austriecii
austriei
austro
autentic
autentica
autentice
author
authorities
authority
authors
auto
autoare
autoarea
autobiografia
autobiografie
autobiography
autobuz
autobuze
autobuzul
autohton
autohtona
autohtone
automat
automata
automate
automobil
automobile
autonom
autonoma
autonome
autonomia
autonomie
autonomiei
autoportret
autor
autori
autorii
autorilor
autorita
autoritate
autoritatea
autorizat
autorizata
autorul
autorului
autostra
autostrada
autovehicule
autumn
auvergne
aux
auxiliar
auxiliare
auz
auzea
auzi
auzind
auzise
auzit
auzul
av
ava
available
aval
avalon
avangarda
avans
avansa
avansarea
avansat
avansata
avansate
avanseaza
avant
avantaj
avantaje
avantajele
avantajul
avariat
avariate
avatar
ave
avea
aveam
aveau
avec
avem
avencu
avengers
aventura
aventuri
aventurile
avenue
avere
averea
averescu
averi
averii
averile
avertisment
avertiza
avertizat
avertizeaza
avet
aveyron
avi
aviat
aviation
aviator
avifaunistica
avignon
avioane
avioanele
avioanelor
avion
avionul
avionului
aviv
aviz
avizul
avocat
avocatul
avocatului
avocatura
avraam
avram
avril
avu
avusese
avut
aw
award
awards
away
ax
axa
axat
axe
axei
axel
axul
ay
ayutthaya
ayyubizii
ayyubizilor
az
aza
azera
azerbaidjan
azerbaidjanului
azerbaijan
azi
azil
azilul
aziz
azot
azov
azteca
azur
azva
b
ba
baal
baba
babei
babel
babelio
babenberg
babes
babilon
babilonului
baby
babylon
bac
baca
bacalaureat
bacalaureatul
bach
baciu
back
background
bacon
bacovia
bacteriene
bacterii
bacteriile
bactrocera
bad
badea
baden
bafta
bag
baga
bagdad
bage
bagheta
bagratizilor
baha
bahamas
bahasa
bahia
bahrain
baia
baiazid
baie
bailey
baillargeon
bailly
baker
bakr
baku
bal
bala
balaban
balaci
balada
balade
balan
balance
balant
balas
balcani
balcanic
balcanica
balcanice
balcon
balduin
baldwin
balena
balet
balint
balkan
balkans
ball
balon
balonul
bals
balta
baltazar
baltic
baltica
baltice
baltimore
balzac
ban
banat
banatul
banatului
banca
bancar
bancare
bancher
bancnota
bancnote
band
banda
bande
bandei
bandit
bang
bangkok
bangladesh
bani
banii
banilor
bank
banks
banska
banu
banul
banului
baptis
baptist
baptista
baptiste
bar
bara
barack
baraj
barajul
barajului
baranya
barba
barbar
barbara
barbare
barbarossa
barbera
barbu
barca
barcelona
bare
bari
baric
bariera
barit
bariton
barker
barna
barnes
baroc
baroca
baron
baronul
baronului
barrett
barry
bart
bartolomeu
barton
barza
bas
basarab
basarabean
basarabeni
basarabia
basarabiei
baschet
base
baseball
based
basel
basic
basidiomycota
basil
basilica
basis
basist
basistul
basketball
basm
basme
bass
bastien
bastion
bastionul
bat
bata
batalioane
batalion
batalionul
batalionului
bate
baterie
baterii
bates
bath
batista
batjocura
batman
battista
battle
battles
bauer
bavaria
bavariei
baxter
bay
bayer
bayern
baza
bazat
bazata
bazate
baze
bazeaza
bazei
bazele
bazelor
bazilica
bazin
bazine
bazinul
bazinului
bb
bbc
bc
bce
bd
bda
bdare
bdarea
be
bea
beach
bean
bear
bears
beasca
beast
beat
beatles
beatrice
beau
beaumont
beautiful
beauty
beaux
bebelus
bec
becali
became
because
beck
becker
become
becomes
bedford
bee
been
beer
beethoven
befolkning
before
bega
begin
beginning
begins
behavior
behind
bei
beijing
being
beirut
beitra
beius
bejan
bel
bela
belarus
belarusa
belfast
belgia
belgian
belgiana
belgiei
belgiene
belgium
belgrad
believe
bell
bella
belle
bellu
bels
bem
bemol
ben
bender
bene
benedict
beneficia
beneficiat
beneficiaza
beneficii
beneficiile
beneficiind
beneficiul
benevento
benezit
benfica
bengal
beni
benin
benito
benjamin
bennett
benny
benson
bentley
benton
benz
benzi
benzile
benzina
ber
bere
bereg
beres
berezivka
berg
bergamo
bergen
berger
bergman
berindei
berkeley
berlin
berliner
berlinul
berlinului
berna
bernard
bernardo
bernd
bernhard
bernstein
berry
bert
berthold
bertrand
bes
besc
best
bestimmen
bestimmungsbuch
bet
beta
beth
bethlen
beton
better
betty
between
beverly
bevo
bevoelkerung
bevoelkgebiet
bey
beyonce
beyond
bf
bfi
bg
bh
bhutan
bi
bianca
biata
bibcode
bibescu
bible
biblia
biblic
biblica
biblical
biblice
biblie
bibliei
bibliografia
bibliografic
bibliografie
bibliography
biblioteca
bibliotecar
biblioteci
bibliotecii
bibliotecile
bibliothe
bibliotheca
bicaz
bici
bicicleta
biciclete
biciune
biciunea
biden
bidu
bien
bienala
biet
bietul
big
biggest
bih
bihar
bihor
bihorului
bii
biile
bijuterii
bil
bila
bilant
bilbao
bile
bilet
bilete
biletele
biletul
bilingva
bill
billboard
billie
billion
billy
bilt
bin
binar
binara
binare
bine
binecuva
binefa
binei
binele
binelui
bingen
binis
binomial
bio
biodiversita
biodiversitatea
biografia
biografic
biografice
biografie
biografii
biographical
biographie
biographisches
biography
biol
biolog
biologia
biologic
biologica
biological
biologice
biologie
biologiei
biology
bir
bird
birdlife
birds
birmania
birmingham
birocrat
birou
biroul
biroului
birouri
birourile
birth
birthday
birui
biruint
biruit
bis
bisby
bisect
biserica
bisericeasca
biserices
bisericesc
biserici
bisericii
bisericile
bisericilor
bisericut
bishop
bismarck
bissau
bistra
bistrit
bit
bita
bitcoin
bite
biz
bizant
bizantin
bizantina
bizantine
bizantini
bizantinii
bjo
bk
bl
bla
blabbermouth
black
blackwell
blade
blaga
blagoevgrad
blair
blaj
blake
blana
blanc
blanche
blanco
blank
blestem
blestemat
blestemul
bli
blind
blindat
blindate
blit
blizzard
blko
blo
bloc
bloca
blocada
blocarea
blocat
bloch
block
blockchain
blocul
blocului
blocuri
blog
blogspot
blogul
blois
blond
blonda
blonde
blood
bloody
bloom
bloomberg
bloomsbury
blu
blue
blues
bluetooth
blunt
blv
bmatrix
bmw
bn
bnf
bnr
bo
boabe
boala
board
bob
bobby
boc
boca
bocs
bodies
body
boeing
boemia
boemiei
boerescu
boga
bogart
bogat
bogata
bogate
bogda
bogdan
bohr
boi
boia
boian
boier
boiereasca
boieres
boieri
boierii
boierilor
boierul
boierului
boii
bois
bokma
bold
boleslav
boletus
bolgrad
boli
bolii
bolile
bolilor
bolintineanu
bolivia
bolna
bolnav
bolnava
bolnavi
bolnavii
bolnavilor
bologa
bologna
bolovani
bols
bolt
bolta
bolton
bolyai
bomb
bomba
bombardament
bombardamentele
bombardat
bombardier
bombardiere
bombardierele
bombe
bombina
bon
bonaparte
bond
bone
bones
bonifaciu
bonn
bonnie
bonus
book
booker
books
boom
boomerang
booth
bor
bora
borcea
bord
bordeaux
bordei
border
bordul
borg
borgia
boris
borisov
born
bornu
bors
borsod
borussia
borzes
bos
bosanski
bosch
bosnia
bosniac
bosniaca
bosniaci
bosniei
boss
boston
bot
bota
botanic
botanica
botanice
botanist
botanophila
botez
boteza
botezat
botezul
both
botos
botswana
botul
bou
boul
boulenger
boulogne
bourbon
bourgoin
bourne
bovine
bow
bowell
bowie
bowl
box
boxer
boxofficemojo
boy
boyd
boyle
boys
boz
bp
br
bra
brabant
brad
bradbury
bradford
bradley
brady
braga
brahms
brain
bran
branch
brand
brandenburg
brandon
brandt
brandul
branis
bras
brasil
brasov
brat
bratislava
bratu
braun
braunschweig
brave
bravo
brazda
brazi
brazil
brazilia
brazilian
braziliana
braziliei
bre
break
breaking
breasla
breaza
bremen
brennan
brenner
brent
bres
bresadola
brescia
breslau
brest
bretagne
bretania
brett
brevet
brezhoneg
bri
brian
briceni
bride
bridge
bridges
brief
brien
briga
brigada
bright
brigitte
brill
bring
brinkhoff
bristol
brit
britain
britanic
britanica
britanice
britanici
britanicii
britanicilor
britanie
britanii
britannica
british
britney
brno
broadcast
broadcasting
broadway
broas
broasca
brock
brockhaus
broja
broken
brons
bronz
bronze
bronzului
brooke
brooklyn
brooks
bros
brother
brothers
brown
browning
browser
bru
bruce
brukenthal
bruma
brun
bruna
brune
brunei
bruno
brunswick
brusc
brusca
brussels
brut
bruta
brutal
bruxelles
bryan
bryant
bs
bt
bu
buc
buca
bucata
bucate
bucegi
buch
buchanan
bucharest
buchverlag
bucium
buck
buckingham
buckley
bucla
bucovina
bucovinei
bucovineni
bucs
bucur
bucura
bucurat
bucure
bucures
bucuresti
bucuria
bucurie
bucuros
bud
buda
budapest
budapesta
buddha
buddy
budes
budget
budis
budismul
budiste
buenos
buffalo
bufnit
buftea
bug
buganda
bugeac
buget
bugetare
bugetul
bugetului
building
buizii
buizilor
bujor
bula
bulandra
buletin
buletinul
bulevard
bulevardul
bulga
bulgar
bulgara
bulgare
bulgari
bulgaria
bulgarian
bulgariei
bulgarii
bulgarilor
bull
bulletin
bumbac
bun
buna
bundesamt
bundesliga
bundestag
bune
bunea
bunei
buni
bunic
bunica
bunicii
bunicul
bunicului
bunny
bunul
bunului
bunuri
bunurile
bunurilor
burdujeni
bureau
burebista
buret
burete
buretele
burg
burgas
burgess
burghez
burgheza
burgheze
burgheziei
burgundia
burke
burkina
burn
burning
burns
burroughs
bursa
burse
bursier
burt
burta
burton
buruiana
burundi
bus
bush
business
bussmann
bust
bustul
busuioc
but
butler
butterfly
buza
buze
buzele
buzunar
bv
bwv
by
byron
bystrica
byzantine
byzantium
bz
bzang
bə
c
ca
cabana
cabina
cabinet
cabinetul
cabinetului
cable
cablu
cabluri
cacao
cache
cad
cada
cadastrul
cadavre
cadavrele
cadavrul
cade
cadent
cadet
cadou
cadre
cadrele
cadrelor
cadru
cadrul
cadrului
caesar
caf
cafe
cafea
cafeaua
cafenea
cafeneaua
cafenele
cage
cahiers
cahul
cai
caiet
caiete
caii
cailor
cain
cairo
cal
cala
calabria
calafat
calais
calca
calcar
calcare
calcaroase
calcaros
calce
calciu
calcul
calcula
calculat
calculata
calculatoare
calculatoarele
calculatoarelor
calculator
calculatorul
calculatorului
calcule
calculeaza
calculul
cald
calda
calde
caldwell
cale
calea
calendar
calendarul
calendarului
calibru
calibrul
calif
califatul
califica
calificare
calificarea
calificat
calificata
calificate
california
calita
calitate
calitatea
call
called
calliphora
calliphoridae
calls
calm
calma
calota
calul
calului
calvados
calvin
calvina
cam
cambodgea
cambodgia
cambridge
came
camelia
camenit
cameo
camera
camere
camerei
camerele
camerelor
cameron
camerun
camicas
camil
camille
camioane
camion
camp
campaign
campania
campanie
campaniei
campanii
campaniile
campbell
campiglossa
campioana
campion
campionat
campionate
campionatele
campionatul
campionatului
campioni
campionilor
campionul
campo
campus
campusul
camus
can
cana
canada
canadei
canadian
canadiana
canadiene
canal
canale
canalele
canalelor
canalizare
canalul
canalului
canare
cancelar
cancelaria
cancelarul
cancer
cancerul
cancerului
cand
candela
candida
candidat
candidate
candidatul
candidatura
candrea
candy
cani
canis
cannes
canoe
canon
canonic
canonica
canonice
canonul
canotaj
cantacuzino
cantal
cantemir
canterbury
cantita
cantitate
cantitatea
canto
canton
cantonul
cantonului
cantor
canu
cao
cap
capa
capabil
capabila
capabile
capabili
capac
capacita
capacitate
capacitatea
capcana
cape
capela
capelei
capet
capete
capetele
capital
capitala
capitale
capitalei
capitalism
capitalismului
capitalul
capitalului
capitol
capitole
capitolele
capitolul
capitularea
capitulat
capo
capodopera
capra
capre
capsula
captain
captivitate
captura
capturarea
capturat
capturata
capturate
captureze
capu
capua
capul
capului
car
cara
carabus
caracal
caracter
caractere
caracterele
caracterelor
caracteristic
caracteristica
caracteristice
caracteristici
caracteristicile
caracteristicilor
caracteriza
caracterizat
caracterizata
caracterizate
caracterizeaza
caracterul
caracterului
caragea
caragiale
caragiu
caraibe
caraman
caranfil
caransebes
caras
carbon
carbonat
card
cardiac
cardiaca
cardiace
cardiff
cardinal
cardinale
cardinalul
cardinalului
care
carea
career
carei
carele
carey
cargo
cari
caricatura
cariera
cariere
carierei
carii
carile
carintia
caritabile
caritate
cariu
carl
carla
carlo
carlos
carlton
carmen
carne
carnea
carnegie
carniola
carnivore
caro
carol
carolina
caroline
carolingiana
carolyn
carp
carpat
carpatic
carpatica
carpen
carpenter
carr
carrie
carroll
cars
carson
carta
cartagina
carte
cartea
carter
cartier
cartiere
cartierele
cartierul
cartierului
cartofi
cartografice
cartografie
carton
cartonas
cartoon
cartus
carul
cas
casa
casat
casca
cascada
cascade
case
casei
casele
caselor
cases
caseta
casete
casey
cash
casino
casnic
casnica
casnice
caspica
cassini
cast
casta
castel
castele
castelul
castelului
castilia
castiliei
castillo
castle
castor
castro
castrul
cat
cata
catala
catalan
catalana
catalans
catalog
catalogat
catalogue
catalogul
catalonia
catapeteasma
catargiu
catarina
catastrofa
cate
catedra
catedrala
catedralei
catedrei
categoria
categoric
categorie
categoriei
categorii
categoriile
category
catele
caterina
catherine
catholic
catifea
catolic
catolica
catolice
catolici
catolicii
catolicilor
catolicism
catre
catul
cau
caucaz
cauciuc
causa
cause
causes
caut
cauta
caute
cauza
cauzat
cauzata
cauzate
cauze
cauzeaza
cauzei
cauzele
cavaler
cavaleri
cavaleria
cavalerie
cavaleriei
cavalerii
cavalerilor
cavalerul
cave
cavita
cavitatea
caz
caza
cazaci
cazacii
cazacilor
cazacu
cazan
cazare
cazarma
cazimir
cazul
cazului
cazuri
cazurile
cazurilor
cb
cbc
cbs
cc
cca
cd
cdc
cdep
cdot
cdots
ce
cea
ceafa
ceahla
ceai
ceaikovski
ceaiul
ceala
cealalta
ceam
ceanga
ceanu
ceapa
ceara
cearta
ceas
ceasca
ceasornic
ceasul
ceasuri
ceasurile
ceat
ceata
ceau
ceaus
cec
cecil
cecilia
ceda
cedarea
cedat
cedeaza
cedeze
cedo
cee
ceea
ceh
ceha
cehe
cehi
cehia
cehiei
cehoslovac
cehoslovacia
cehoslovaciei
cehov
cei
ceia
ceilalt
cel
cela
cele
celebra
celebre
celebri
celebrita
celebrity
celebru
celebrul
celebrului
celei
celeilalte
celelalte
cell
celor
celorlalt
celorlalte
celsius
celt
celtic
celtica
celui
celuilalt
celula
celular
celulara
celulare
celule
celulei
celulele
celulelor
celuloza
cena
cenaclul
cenaclului
ceni
census
cent
centauri
centenarul
center
centimetri
central
centrala
centralbyra
centrale
centralei
centrat
centre
centrele
centrelor
centro
centru
centrul
centrului
centura
centuries
century
cenus
cenzura
ceo
cer
cera
ceramica
ceramice
cerb
cerbul
cerc
cerca
cercel
cerceta
cercetare
cercetarea
cercetas
cercetat
cerceteaza
cerceteze
cercul
cercului
cercuri
cercurile
cere
cerea
cereale
cerealelor
cereasca
cereau
cerebral
cerebrala
cerebrale
ceremonia
ceremonie
ceremoniei
ceremonii
cerere
cererea
cereri
cererii
cererile
ceres
ceresc
ceri
cerii
cerint
cerkasi
cerna
cernat
cernavoda
cerneala
cerni
cernica
cernihiv
cernovodeanu
cerodontha
cers
cert
certa
certain
certat
certe
certificat
certificate
certifications
certificatul
certitudine
ceru
cerul
cerului
ceruri
cerut
ceruta
cerute
cervantes
ces
cesare
cesc
cestiune
cestiunea
cet
ceta
cetate
cetatea
cete
cette
cetto
ceva
cezar
cf
cfilm
cfr
cg
cgi
ch
cha
chad
chain
challenge
challenger
chalukya
chamber
chamberlain
chambers
champagne
champion
champions
championship
championships
chan
chance
chandler
chandra
chang
change
changed
changes
changing
channel
chao
chaos
chapelle
chaplin
chapman
chapter
character
characteristics
characters
charente
charge
charleroi
charles
charleston
charlie
charlotte
charon
chart
charter
charts
chase
chat
che
cheama
chebi
check
checklist
checklists
cheek
chef
chei
cheia
cheie
cheii
cheile
chelsea
cheltuiala
cheltuieli
cheltuielile
cheltuielilor
cheltuit
chem
chema
chemare
chemarea
chemat
chembl
cheme
chemical
chemistry
chemspider
chen
cher
cherestea
cherry
cheryl
chescu
chess
chester
chestia
chestiune
chestiunea
chestiuni
chestiunile
chevalier
chez
chi
chiajna
chiar
chicago
chief
chiesa
chii
child
children
chile
chilia
chilii
chilor
chim
chimia
chimic
chimica
chimice
chimie
chimiei
chimist
chimistul
chin
china
chinei
chinese
chinez
chineza
chineze
chinezes
chinezesc
chinezi
chinezii
chinuit
chinuri
chioar
chioarului
chiop
chios
chip
chipul
chipuri
chipurile
chira
chiriac
chirias
chiril
chirila
chirilic
chirilice
chirit
chirurg
chirurgicala
chirurgicale
chirurgie
chis
chit
chita
chitara
chitarist
chitaristul
chiul
chiului
chivu
chloe
cho
choice
chola
chopin
choson
chr
chris
christ
christian
christianity
christie
christina
christine
christmas
christoph
christophe
christopher
christos
chronicle
chronicles
chronology
chrysometa
chu
chuck
church
churchill
ci
cia
ciad
ciara
cica
cicero
cicindela
ciclism
ciclist
ciclu
ciclul
ciclului
cicluri
ciconia
cie
ciei
cifra
cifre
cifrele
cihac
cii
cile
cilindri
cilindric
cilindrica
cilindrice
cilindru
cilor
cimec
ciment
cimis
cimitir
cimitirul
cimitirului
cimpoi
cin
cina
cinat
cincea
cinci
cincilea
cincinnati
cincisprezece
cincizeci
cind
cine
cineas
cinema
cinemagia
cinematograf
cinematografe
cinematografele
cinematografia
cinematografic
cinematografica
cinematografice
cinematografie
cinematografiei
cinematograful
cinetica
cineva
cini
cinile
cinste
cinstea
cinstit
cinstita
cinta
cio
cioara
cioasa
cioba
cioban
ciobanu
ciobanul
cioc
cioca
ciocan
ciocanul
ciocniri
ciocolata
ciocul
cioculescu
ciolos
ciora
cioran
ciorba
cios
ciot
ciov
ciprian
cipru
ciprului
circ
circa
circle
circuit
circuite
circuitul
circuitului
circula
circular
circulara
circulare
circulat
circumferint
circumscript
circumstant
circus
cire
cirea
cires
cis
cisna
cit
cita
citadela
citare
citat
citata
citate
cite
citea
citeasca
citeaza
cites
citesc
citi
cities
citind
citire
citirea
citit
citita
citite
cititor
cititori
cititorii
cititorilor
cititorul
cititorului
citizen
citta
city
citypopulation
ciuc
ciuca
ciuda
ciudad
ciudat
ciudata
ciudate
ciula
ciuma
ciun
ciune
ciunea
ciuni
ciunii
ciunile
ciunul
ciunului
ciuperca
ciuperci
ciupercile
ciurea
civ
civic
civica
civice
civil
civila
civile
civili
civililor
civilizat
civilization
cix
cj
ck
cken
cl
cla
cladograma
claim
claims
clair
claire
clan
clandestin
clanul
clanului
clape
clar
clara
clare
clarence
clarendon
clarinet
clark
clarke
clarkson
clasa
clasament
clasamente
clasamentele
clasamentul
clasamentului
clasare
clasat
clasata
clasate
clase
clasei
clasele
claselor
clash
clasic
clasica
clasice
clasici
clasifica
clasificare
clasificarea
clasificat
clasificata
clasificate
class
classic
classical
classics
classification
claude
claudia
claudio
claudiu
claudius
claus
clauza
clav
claviaturi
clay
clayton
cle
clear
clemens
clement
cleopatra
cleric
clerici
clermont
clerul
clerului
cles
cleveland
click
client
clientul
cliff
clifford
clima
climat
climate
climatice
climatul
climei
clinic
clinica
clinical
clinice
clinton
clio
clip
clipa
clipe
clis
clive
clock
clopot
clopote
clopotele
clopotnit
clopotul
clorura
clos
close
cloud
club
clubiona
clubionidae
clubul
clubului
cluburi
cluburile
cluburilor
cluj
clujeana
clujenii
clujul
clujului
cluster
cm
cn
cneaz
cneazul
cnet
cnn
cnrtl
cnsas
co
coach
coada
coaja
coala
coalei
coalelor
coalit
coama
coana
coanda
coarda
coarde
coarne
coarnele
coasa
coast
coasta
coaste
coastei
coastele
coastelor
coautor
cobiss
coboara
coboare
cobora
cobori
cobra
coburg
coca
cocea
cocheta
cochrane
coco
cocoana
cocos
cod
code
codes
codex
codreanu
codri
codrii
codrilor
codru
codrul
codrului
codul
codului
coduri
codurile
cody
coe
coeficient
coeficientul
coenosia
coerent
cognitive
cohen
coincide
coincident
cojocaru
col
cola
colab
colabora
colaborare
colaborarea
colaborat
colaborator
colaboratori
colaboratorii
colaboreaza
colaboreze
colar
colara
colare
colari
cold
cole
colea
colect
colecta
colectare
colectarea
colectate
colectiv
colectiva
colective
colectivita
colectivul
coleg
colega
colegi
colegii
colegilor
colegiu
colegiul
colegiului
colegul
coleman
colentina
coli
coliba
colii
colile
colilor
colin
colina
colinda
colinde
coll
colle
collected
collectifs
collection
collections
collective
college
collins
colo
coloana
coloane
coloanei
coloanele
colocvial
colon
colonel
colonelul
colonelului
colonia
colonial
coloniala
coloniale
colonie
coloniei
colonii
coloniile
coloniilor
colonis
coloniza
colonizare
colonizarea
colonizat
color
colorado
colorant
colorat
colorata
colorate
colorit
coloritul
colt
colubridae
columb
columbia
columbian
columbus
columna
com
coma
coman
comanda
comandament
comandamentul
comandamentului
comandant
comandantul
comandantului
comandat
comandata
comandate
comandor
comba
combat
combatant
combate
combatere
combaterea
combina
combinarea
combinat
combinata
combinate
combinatul
combustibil
come
comedia
comedie
comedii
comedy
comemora
comemorarea
comemorativa
comenta
comentarii
comentariile
comentariu
comentat
comentator
comenzi
comenzii
comenzile
comercial
comerciala
comerciale
comercializarea
comercializat
comercializate
comerciant
comert
comes
comestibil
comestibila
comestibile
comet
cometa
comete
cometei
comic
comica
comice
comics
coming
comingsoon
comis
comisar
comisarul
comise
comisia
comisie
comisiei
comisii
comitat
comitate
comitatele
comitatul
comitatului
comite
comitet
comitetul
comitetului
command
commander
comme
comment
commentary
commerce
commercial
commission
committee
common
commons
commonwealth
commune
communes
communication
communications
communist
communities
community
comnen
como
comoara
comore
comori
comp
compa
compact
compacta
compacte
compania
companie
companiei
companii
companiile
companiilor
companion
company
compara
comparat
comparata
comparativ
comparative
comparison
compartimentul
compatibile
compensat
competent
competente
competit
competition
compilat
complement
complet
completa
completarea
completat
completata
complete
completeaza
complex
complexa
complexe
complexitate
complexitatea
complexul
complexului
complicat
complicata
complicate
complot
component
componenta
componente
componentele
componentelor
comporta
comportament
comportamente
comportamentul
comportamentului
composition
compozit
compozitoare
compozitor
compozitori
compozitorilor
compozitorul
compozitorului
comprehensive
comprimat
compromis
compton
compun
compuna
compune
compunere
compunerea
compus
compusa
compuse
compusul
computer
computere
computing
coms
comte
comun
comuna
comunal
comunala
comunale
comune
comunei
comunele
comunelor
comuni
comunica
comunicare
comunicarea
comunicat
comunice
comunis
comunism
comunismul
comunismului
comunist
comunista
comuniste
comunita
comunitar
comunitara
comunitare
comunitate
comunitatea
con
conac
conacul
conacului
conan
concediat
concediu
concentra
concentrare
concentrarea
concentrat
concentrata
concentrate
concentreaza
concentreze
concepe
concept
concepte
conceptele
concepts
conceptual
conceptul
conceptului
conceput
conceputa
concepute
concert
concertat
concerte
concertele
concertul
concertului
conciliul
concise
concluzia
concluzie
concluzii
concluziile
concluzionat
concomitent
concordant
concordia
concr
concret
concreta
concrete
concura
concurat
concureaza
concurent
concurente
concureze
concurs
concursul
concursului
concursuri
condamna
condamnare
condamnarea
condamnat
condamnata
conde
condit
conduc
conduca
conduce
conducea
conducere
conducerea
conducerii
conducta
conducte
conductor
conduita
condus
condusa
conduse
conecta
conectat
conectate
conecteaza
conexe
conexiune
conexiuni
conf
confect
confederat
confederate
confer
confera
conference
conferent
conferint
conferirea
conferit
confesional
confesionala
confesiune
confesiuni
confident
configurat
confirma
confirmarea
confirmat
confirmata
confirmate
confirmed
confirms
confiscarea
confiscat
confiscate
conflagrat
conflict
conflicte
conflictele
conflictelor
conflictul
conflictului
confluent
conform
conforma
conformitate
confort
confrat
confrunta
confruntare
confruntarea
confruntat
confunda
confundat
confundata
confuzia
confuzie
congo
congregat
congres
congreso
congress
congresul
congresului
conica
conifere
conjunct
conjunctiv
connecticut
connection
connor
conotat
conquest
conrad
cons
consacra
consacrat
consacrata
consacrate
conscript
consecint
consecutiv
consecutive
consecvent
consemna
consemnat
consemnata
consemnate
consemneaza
consens
conserva
conservare
conservarea
conservat
conservate
conservation
conservative
conservatoare
conservator
conservatori
conservatorii
conservatorul
conservatorului
conserve
consfint
considera
considerabil
considerabila
considerabile
considerare
considerat
considerata
considerate
considerau
considere
consilier
consilieri
consilierii
consilierul
consilii
consiliile
consiliu
consiliul
consiliului
consimt
consista
consistent
consoana
consoane
consoarta
consola
console
consolida
consolidare
consolidarea
consolidat
consort
conspiracy
conspirat
consta
constance
constant
constanta
constante
constantin
constantine
constantinescu
constantiniu
constantinople
constantinopol
constantinopolul
constantinopolului
constat
constata
constatat
constau
constelat
constitui
constituia
constituiau
constituie
constituind
constituire
constituirea
constituit
constituita
constituite
constitut
constitution
constra
construct
construction
constructor
constructori
constructorilor
constructorul
construi
construiasca
construies
construiesc
construire
construirea
construirii
construit
construita
construite
consul
consulta
consultant
consultarea
consultat
consultativ
consulul
consum
consuma
consumat
consumata
consumate
consumatori
consumatorilor
consumul
consumului
cont
conta
contabil
contabilitate
contact
contactat
contacte
contactul
contactului
conte
conteaza
contele
contelui
contemporan
contemporana
contemporane
contemporani
contemporanii
contemporanul
contemporary
content
contesa
contest
contesta
contestat
contestata
context
contextul
continent
continental
continentala
continentale
continente
continentul
continentului
contingent
continua
continuare
continuarea
continuat
continuata
continue
continuitate
continuitatea
continuu
continuum
contra
contraatac
contract
contracte
contractul
contractului
contradict
contradictorii
contrar
contrast
contre
contribui
contribuie
contribuind
contribuit
contribut
contribution
contributions
control
controla
controlat
controlata
controlate
controleaza
controleze
controlul
controlului
controversa
controversat
controversata
controversate
controverse
contul
contur
conturi
conu
convenit
convent
convention
convergent
conversat
convertirea
convertit
convex
convexa
convexe
conviet
convinga
convinge
convingere
convingerea
convingeri
convingerile
convins
convocat
convorbiri
conway
cook
cool
cooper
coopera
cooperare
cooperarea
cooperativa
cooperative
cooptat
coord
coordona
coordonare
coordonarea
coordonat
coordonata
coordonate
coordonatele
coordonator
coordoneaza
cop
copa
copac
copaci
copacii
copacilor
copacul
cope
copenhaga
coperta
copia
copiat
copie
copii
copiii
copiilor
copil
copila
copilas
copile
copilul
copilului
coples
copou
coproduct
copt
copy
copyright
cor
cora
corabia
corabie
coral
corala
coran
coranul
corb
corbu
corbul
corbului
cord
cordoba
core
corect
corecta
corecte
coreea
coreean
coreeana
coreei
coreene
coregrafia
corelat
corespondent
corespund
corespunde
corespunza
corey
coridor
corina
corint
coriolan
corn
cornea
cornel
cornelia
cornelis
corneliu
cornelius
cornell
corner
cornes
cornis
cornul
cornwall
coroana
coroane
coroanei
coroiu
corona
coronavirus
corp
corporala
corporat
corporate
corporation
corps
corpul
corpului
corpuri
corpurile
corpurilor
corpus
corre
corsica
cort
cortina
cortinarius
cortul
corul
corului
corupt
coruri
corvin
cos
cosa
cosimo
cosma
cosmetice
cosmic
cosmica
cosmice
cosmicflows
cosmin
cosmos
cost
costa
costache
costandin
costat
costea
costel
costello
costes
costica
costin
costisitoare
costul
costum
costume
costumele
costumul
costuri
costurile
costurilor
cot
cota
cote
cotidian
cotidiana
cotidianul
cotidiene
cotitura
cotroceni
cotul
could
council
count
counties
countries
country
county
coup
coupe
course
court
courtney
cov
cova
covaci
covasna
cover
covid
covoare
covor
cowboy
cox
coxeter
cozi
cozia
cozii
cozma
cp
cpt
cr
cra
cracovia
crai
craig
crainic
craiova
craiovei
craiul
craiului
crane
craniu
craniul
craniului
crash
crasna
crater
cratere
craterelor
craterul
crawford
crazy
crc
cre
crea
creada
creanga
creare
crearea
creasca
creasta
creat
creata
create
creation
creativ
creativa
creative
creatoare
creator
creatorii
creatorul
creatura
creaturi
creaza
cred
crede
credea
credeam
credeau
credem
credet
credincioasa
credincios
credint
credit
creditat
credite
credits
creditul
creeaza
creed
creek
creeze
creier
creierul
creierului
creion
cremona
crengi
cres
cresc
cresca
crescuse
crescut
crescuta
crescute
creste
crestinortodox
cret
creta
creuse
crew
crez
creza
crezi
crezut
cri
crima
crime
crimeea
crimeeana
crimei
crimeii
crimele
crimelor
crimes
criminal
criminale
criminali
crin
cripta
cris
crisis
cristache
cristal
cristale
cristalina
cristaline
cristea
cristescu
cristi
cristian
cristiano
cristina
cristo
cristofor
cristos
criterii
criteriile
criteriu
criteriul
critic
critica
critical
criticat
criticata
critice
critici
criticii
criticile
criticilor
criticism
critics
criticul
criticului
critique
criuleni
criva
criza
crize
crizei
croat
croata
croate
croatia
croatian
croaziera
crohma
croix
cromatica
cromwell
cronica
cronicar
cronicarul
cronice
cronici
cronicii
cronicile
cronologia
cronologic
cronologica
cronologie
cross
crow
crown
cruce
crucea
cruci
cruciada
crucial
cruciat
crucii
crucis
crud
cruda
crude
cruise
crut
cruz
cruzime
cry
crystal
cs
csa
csaba
csi
csm
css
csu
ct
ctenotus
ctenus
ctitor
ctitorii
ctitorita
ctitorul
cu
cuantic
cuantica
cuantice
cuart
cub
cuba
cubi
cucereasca
cuceres
cuceri
cucerind
cucerire
cucerirea
cuceririi
cucerit
cucerita
cucerite
cuceritorul
cucoana
cucoane
cucu
cucului
cucuteni
cuget
cugeta
cugetarea
cugetul
cui
cuib
cuiba
cuibul
cuibului
cuiburi
cuie
cuiva
cul
culca
culcat
culega
culege
culegere
culegerea
culegeri
cules
culese
culex
culham
culme
culmea
culmi
culmile
culmina
culminant
culminat
culoare
culoarea
culori
culorii
culorile
culorilor
cult
culta
culte
cultelor
cultiva
cultivarea
cultivat
cultivata
cultivate
cultul
cultului
cultura
cultural
culturala
culturale
culture
cultures
culturi
culturii
culturile
culturilor
cum
cumca
cumint
cuminte
cumnat
cumnata
cumnatul
cumpa
cumpere
cumplit
cumplita
cumplite
cumsecade
cumulative
cumva
cuneo
cunoas
cunoasca
cunos
cunosc
cunosca
cunoscut
cunoscuta
cunoscute
cunoscutul
cununa
cup
cupa
cupe
cupei
cupelor
cuplu
cuplul
cuplului
cupola
cuprind
cuprinda
cuprinde
cuprindea
cuprins
cuprinsa
cuprinse
cuprinsul
cuprinza
cupru
cuptor
cura
curaj
curajos
curajul
curat
curata
curate
curba
curbe
curbura
curcan
cure
curea
curent
curenta
curente
curentul
curentului
curg
curga
curge
curgea
curi
curie
curierul
curioasa
curios
curiozitate
curiozitatea
curlie
curma
curmezis
current
curriculum
curs
cursa
curse
cursei
cursele
cursul
cursului
cursuri
cursurile
cursurilor
curt
curte
curtea
curtis
cus
cusa
cuse
cusera
custa
custodia
custodie
cusut
cut
cuta
cutare
cute
cuteza
cutia
cuticula
cutie
cutii
cutremur
cutremura
cutremure
cutremurul
cuv
cuva
cuvi
cuviint
cuvine
cuvinte
cuvintele
cuvintelor
cuvioasa
cuvios
cuza
cv
cvartet
cx
cycle
cymraeg
cynthia
cyril
cyrtodactylus
cyrus
cz
czech
czi
d
da
dabija
dac
daca
daci
dacia
dacian
dacica
dacice
daciei
dacii
dacilor
daco
daddy
dahl
dai
daily
daisy
dakota
dal
dalai
dale
dali
dallas
dalles
dalmat
dalriada
dalton
dam
dama
damasc
dame
damian
damon
dan
dana
dance
dancing
dancu
danemarca
danemarcei
danez
daneza
daneze
dangerous
dani
dania
danie
daniel
daniela
danielle
daniels
daniil
danish
danny
dans
dansa
dansatoare
dansator
danseaza
dansk
dansul
dansului
dansuri
dant
dante
danube
dar
dara
dare
darea
darie
darius
dark
darkness
darmstadt
darul
daruri
darurile
darwin
das
dasca
dat
data
databa
database
datare
datarea
dataset
datat
datata
datate
date
dateaza
datei
datele
datelor
dates
dativ
dato
dator
datora
datorat
datorata
datorate
datoreaza
datores
datoria
datorie
datoriei
datorii
datoriile
datoriilor
datorita
datos
dau
daughter
daula
daune
dave
david
davidson
davies
davila
davis
dawn
dawson
day
days
db
dc
dd
ddr
de
dea
deac
deaca
dead
deadline
deadly
deal
dealtfel
dealu
dealul
dealului
dealuri
dealurile
dealurilor
dean
deanu
dear
deasa
deasupra
death
deau
deaza
debarca
debarcare
debarcarea
debarcat
debate
debit
debitul
deborah
debut
debuta
debutat
debuteaza
debutul
dec
deca
decada
decade
decan
decapitat
decat
decebal
decedat
december
decembrie
decemvrie
decenii
deceniile
deceniu
deceniul
deceniului
decept
decernat
deces
decese
decesul
decesului
deci
decid
decida
decide
decis
decision
decisiv
decisiva
decisive
decizia
decizie
deciziei
decizii
deciziile
deciziilor
declans
declara
declararea
declarat
declarata
declarate
declare
declin
decline
declinul
deco
decock
decoloreaza
decor
decorarea
decorat
decorata
decorate
decorativ
decorativa
decorative
decorul
decoruri
decret
decretul
decros
decurs
decursul
deda
dedesubt
dedica
dedicat
dedicata
dedicate
deduce
dee
deep
def
defa
defect
defecte
defence
defense
defensiv
defensiva
defensive
deficient
deficit
defileul
defines
definesc
defini
definirea
definit
definita
definite
definition
definitiv
definitiva
definitive
defris
degeaba
deget
degete
degetele
degetelor
degetul
deghizat
degli
degraba
degradare
degradarea
dei
deie
dej
deja
dejde
dejdea
dejun
del
dela
delavrancea
delaware
deleanu
delegat
delfin
delhi
delia
deliberat
delicat
delicata
delicate
delimita
delimitarea
delimitat
delimitata
dell
della
delle
deloc
delta
deltei
deluxe
dem
demarat
demarcat
demetrius
demi
deming
demis
demisia
demisionat
demisioneaza
demisioneze
demiterea
demn
demna
demnita
demnitar
demnitari
demnitate
demnitatea
demo
democracy
democrat
democrata
democrate
democratic
democratica
democratice
demografica
demografice
demolarea
demolat
demolata
demolate
demon
demoni
demonstra
demonstrat
demonstreaza
demonstreze
demult
den
deni
denis
denise
denmark
dennis
denota
dens
densa
dense
densita
densitate
densitatea
densus
dentara
dentare
denumes
denumire
denumirea
denumiri
denumirii
denumirile
denumit
denumita
denumite
denunt
denver
deoarece
deocamdata
deodata
deoparte
deopotriva
deosebes
deosebesc
deosebi
deosebire
deosebirea
deosebit
deosebita
deosebite
depa
departajare
departament
departamente
departamentele
departamentul
departamentului
departe
department
depeche
dependent
dependenta
dependente
depind
depinde
depinza
deplasa
deplasare
deplasarea
deplasat
deplaseaza
deplaseze
deplin
deplina
depline
deporta
deportarea
deportat
depozit
depozitare
depozitarea
depozite
depozitele
depozitul
depre
depresie
depresiune
depresiunea
depresiunii
depression
deprins
depun
depuna
depune
depunerea
depus
depusa
depuse
deputat
deputatul
der
derby
dere
derea
derek
deri
derii
deriva
derivat
derivata
derivate
des
desa
desc
desca
descartes
descendent
descendenta
deschid
deschida
deschide
deschidea
deschidere
deschiderea
deschideri
deschis
deschisa
deschise
deschiza
descompune
descompunere
descompunerea
descopera
descopere
descoperi
descoperind
descoperire
descoperirea
descoperiri
descoperirii
descoperirile
descoperit
descoperita
descoperite
descria
described
descrie
descriere
descrierea
descrieri
descriind
description
descriptions
descris
descrisa
descrise
descriu
descu
descult
dese
desemna
desemnarea
desemnat
desemnata
desemnate
desemneaza
desen
desenat
desenate
desenator
desene
desenele
desenul
deseori
desert
deserves
deservita
desfa
desface
desfiint
desfra
design
designer
designerul
designul
desigur
desinent
desis
desktop
deslus
desmond
despa
despart
desparta
desparte
despica
despot
despre
desprinde
desprins
desta
destin
destinat
destinata
destinate
destinul
destinului
destiny
destituit
destra
destruction
destul
destula
destule
det
detail
detailed
details
detaliat
detaliata
detaliate
detalii
detaliile
detaliu
detas
dete
detecta
detectarea
detectat
detectiv
detective
detectivul
detent
deteriora
deteriorat
determina
determinant
determinare
determinarea
determinat
determinata
determinate
determine
detrimentul
detroit
detronat
deus
deutsch
deutsche
deutschen
deutscher
deutsches
deutschland
deux
deva
devastat
development
devenea
deveni
devenind
devenise
devenit
devenita
deviat
devil
devin
devina
devine
deviza
devotat
devreme
dex
dexonline
dexter
dezama
dezambiguizare
dezastru
dezastrul
dezba
dezbatere
dezbaterea
dezbateri
dezbaterile
dezbra
dezghet
dezla
dezna
deznoda
dezordine
dezva
dezvelit
dezvolta
dezvoltare
dezvoltarea
dezvoltat
dezvoltata
dezvoltate
dezvolte
df
dhabi
di
dia
diabet
diablo
diac
diacon
diaconescu
diaconu
diaconul
diagnosis
diagnostic
diagnosticat
diagnosticul
diagonala
diagrama
dial
dialect
dialecte
dialectele
dialectul
dialog
dialogul
dialoguri
diamant
diamante
diametru
diametrul
diamond
diana
diane
diaries
diary
diaspora
diavolul
diavolului
diaz
dica
dicembre
dichaetomyia
diciona
dick
dickens
dickinson
dict
dictator
dictatura
dictaturii
dictionary
dictionnaire
did
didactic
didactica
didactice
didier
didz
die
dieceza
diecezei
died
diego
dies
diesel
dieta
dieter
dietrich
dieu
diez
difera
diferent
diferit
diferita
diferite
diferitele
diferitelor
different
dificil
dificila
dificile
dificulta
dificultate
dificultatea
difuza
difuzare
difuzarea
difuzat
difuzata
difuzate
difuzeaza
dig
digestiv
digi
digisport
digital
digitala
digitale
dilema
dim
dima
dimensional
dimensiune
dimensiunea
dimensiuni
dimensiunile
dimensiunilor
dimineat
diminet
diminuarea
diminuat
diminutiv
dimitri
dimitrie
dimitriu
dimpotriva
din
dina
dinafara
dinainte
dinaintea
dinamic
dinamica
dinamice
dinamo
dinar
dinastia
dinastie
dinastiei
dinastii
dinca
dincoace
dincolo
dine
dinescu
dini
dinicu
dinii
dinile
dinit
dino
dinosaur
dinozauri
dinspre
dint
dinta
dinte
dinti
dintr
dintre
dintru
dinu
dio
dioclet
dion
dionisie
dionysos
dioxid
diploma
diplomat
diplomatic
diplomatica
diplomatice
diplome
diptera
dipterorum
dir
dire
direa
direct
directa
directe
direction
directiva
directive
directoare
director
directori
directors
directorul
directorului
directory
diri
dirii
dirijat
dirijata
dirijor
dirijorul
dirile
dirilor
dirk
dirty
dis
disc
disciplina
discipline
discipol
disco
discografia
discografic
discografie
discography
discogs
discovered
discovery
discret
discrete
discrimina
discriminare
discriminarea
discul
discului
discuri
discurile
discurs
discursul
discursului
discursuri
discussion
discut
discuta
discutat
discute
disease
diseases
disfunct
disident
disk
disney
disorder
disorders
dispa
dispar
dispara
dispare
disparit
disperare
disperat
disperata
dispersion
display
displaystyle
disponibil
disponibila
disponibile
disponibilitatea
dispozit
dispozitiv
dispozitive
dispozitivele
dispozitivelor
dispozitivul
dispret
dispun
dispuna
dispune
dispunea
dispus
dispusa
dispuse
disputa
disputat
disputata
dispute
distant
distinct
distincta
distincte
distinctiv
disting
distinge
distins
distinsa
distract
distribuie
distribuirea
distribuit
distribuita
distribuite
distribut
distribution
district
districte
districtele
districtul
districtului
distrug
distruga
distruge
distrugere
distrugerea
distrugeri
distrugerii
distrus
distrusa
distruse
dit
dita
dite
dition
ditions
diva
divan
divergent
divers
diversa
diverse
diversele
diverselor
diversita
diversitate
diversitatea
diversity
divertisment
divide
divin
divina
divine
divinita
divinitate
divisio
division
divizarea
divizat
divizata
divizia
divizie
diviziei
divizii
diviziile
diviziune
diviziunea
diviziuni
divort
dixon
dizabilita
dizionario
dizolva
dizolvarea
dizolvat
dj
djibouti
djokovic
djuvara
dk
dl
dlrm
dlui
dm
dmitri
dn
dna
dnipropetrovsk
do
doamna
doamne
doamnei
doamnele
doar
doara
doare
doarma
doarme
doba
dobi
dobora
dobra
dobre
dobrescu
dobridor
dobrogea
dobrogei
doc
doctor
doctorat
doctoratul
doctorul
doctorului
doctrina
doctrine
doctrinei
document
documenta
documentar
documentara
documentare
documentarul
documentary
documentat
documente
documentele
documentelor
documents
documentul
documentului
dodon
does
dog
doge
dogs
doi
doilea
doina
doisprezece
dolari
doli
doliu
dolj
dollar
dom
domenico
domenii
domeniile
domeniilor
domeniu
domeniul
domeniului
domestic
domestice
domiciliu
domiciliul
domina
dominant
dominanta
dominante
dominat
dominata
dominate
domine
domingo
dominic
dominica
dominicana
dominique
domn
domnea
domneasca
domnes
domnesc
domni
domnia
domnica
domnie
domniei
domnii
domnilor
domnis
domnit
domnitor
domnitorul
domnitorului
domnu
domnul
domnule
domnului
domol
domul
don
dona
donald
donat
donate
done
donet
dong
donici
donna
donne
doo
doom
door
dor
dora
dordogne
dorea
doreau
dorel
dores
doresc
dori
dorian
dorin
dorina
dorind
dorint
doris
dorit
dorita
dorm
dormea
dormi
dormit
dornei
dornic
dorobant
dorohoi
dorothea
dorothy
dorsala
dortmund
doru
dorul
dos
dosar
dosare
dosarele
dosarul
dostoievski
dosul
dot
dota
dotare
dotarea
dotat
dotata
dotate
dots
doua
douard
double
doubleday
doug
douglas
dovada
dovedeasca
dovedes
dovedesc
dovedi
dovedit
dovedita
dover
dovezi
dovezile
down
download
doyle
doza
doze
dp
dq
dr
dra
dracu
dracul
dracula
dracului
drag
draga
dragi
dragnea
dragomir
dragomires
dragon
dragoni
dragons
dragonul
dragos
dragoste
dragostea
dragostei
dragul
drake
drama
dramatic
dramatica
dramatice
dramaturg
drame
drapel
drapelul
drapelului
drastic
draw
dre
dream
dreams
dreapta
drega
drept
drepta
dreptate
dreptatea
drepte
dreptul
dreptului
dreptunghiular
dreptunghiulara
drepturi
drepturile
drepturilor
dresda
drew
dreyfus
drive
driver
dro
drobeta
drochia
droemer
droguri
drop
drosera
drosophila
drosophilidae
drug
drugbank
drugs
drum
drumet
drumul
drumului
drumuri
drumurile
drumurilor
ds
dsm
dt
dte
du
dual
duba
dubai
dubla
dublat
dublata
duble
dublin
dublu
dubois
duc
duca
ducanu
ducas
ducat
ducatul
ducatului
duce
ducea
duceau
ducele
ducelui
ducem
ducesa
ducet
duci
duck
duda
dudley
due
duel
duet
duguetia
duh
duhul
duhului
dui
duia
duies
duiliu
duint
duios
duit
duke
dul
dula
dulap
dulce
dulcea
dulceat
dulci
dulescu
duma
dumas
dumbra
dumbrava
dumineca
duminica
dumitale
dumitrache
dumitras
dumitrescu
dumitriu
dumitru
dumnealui
dumneata
dumneavoastra
dumneza
dumnezeiasca
dumnezeu
dumnezeul
dumnezeule
dumnezeului
dumps
duna
duncan
dune
dunga
dungi
dunn
duo
dup
dupa
dupe
dur
dura
durabila
durabile
durat
durata
durch
dure
durea
dureaza
durere
durerea
dureri
durerii
durerile
dureroasa
dureroase
dureros
durham
duri
durii
durile
durilor
during
durita
durite
dus
dusa
duse
dusera
dust
dut
dutch
duty
duva
duvei
dv
dvd
dw
dwarf
dwds
dwight
dx
dy
dylan
dynamics
dysdera
dysderidae
dz
dzi
də
e
ea
each
eagle
eala
eam
ean
eana
eanu
eanul
eapa
earl
early
earth
earthquake
easca
east
eastern
eastwood
easy
eat
eau
eaua
eava
eaza
eb
eberhard
ebert
ebola
ebraic
ebraica
ebraice
ebu
ec
ecartament
ecaterina
echilibru
echilibrul
echilibrului
echipa
echipaj
echipajul
echipajului
echipament
echipamente
echipamentele
echipamentelor
echipamentul
echipat
echipata
echipate
echipe
echipei
echipele
echipelor
echivalent
echivalenta
echivalente
echivalentul
echo
eclipsa
eclipse
ecliptica
eco
ecologic
ecologica
ecologice
ecologie
ecology
economia
economic
economica
economice
economici
economico
economics
economie
economiei
economii
economis
economist
economy
ecou
ecran
ecrane
ecranizare
ecranul
ecuador
ecuat
ecuator
ecuatoriala
ecul
ecumenic
ed
eddie
eddy
ede
edea
eden
edere
ederii
edgar
edge
edificii
edificiu
edificiul
edificiului
edinburgh
edinet
edint
edinta
edinte
edintele
edintelui
edison
edit
edita
editare
editarea
editat
editata
editate
edited
edith
editia
edition
editions
editor
editori
editorial
editoriala
editoriale
editorilor
editors
editorul
editura
edituri
editurii
edmond
edmund
edo
eds
edu
eduard
eduardo
educarea
educat
education
educational
edward
edwards
edwin
ee
eea
eerdmans
eesti
ef
efa
efect
efecte
efectele
efectelor
efectiv
efectiva
efective
efectivele
efectua
efectuarea
efectuat
efectuata
efectuate
efectueaza
efectueze
efectul
efectului
effect
effects
efferia
efi
eficace
eficacitatea
eficient
eficienta
eficiente
efii
efilor
efort
efortul
eforturi
eforturile
eforturilor
eftimie
eful
efului
eg
egal
egala
egale
egali
egalita
egalitate
egalitatea
egan
egee
egida
egipt
egiptean
egipteana
egiptene
egipteni
egiptenii
egiptul
egiptului
ego
egovina
egovinei
egy
egypt
egyptian
ehf
ehir
ei
eica
eiffel
eight
eii
eikon
eilema
ein
eine
einer
eines
einstein
eisenhower
ek
el
ela
elabora
elaborarea
elaborat
elaborata
elaborate
elaboreaza
elan
elastica
elat
elba
ele
eleaga
eleanor
eleasa
election
elections
elector
electoral
electorala
electorale
electrecord
electric
electrica
electrice
electricitate
electro
electromagnetic
electromagnetica
electromagnetice
electron
electroni
electronic
electronica
electronice
electronii
electrotehnica
elefant
eleg
elega
elegant
eleganta
elege
elegea
elegem
elegere
elegerea
elegeri
elegerii
elegi
elegie
elei
elele
elelor
element
elementar
elementara
elementare
elemente
elementele
elementelor
elements
elementul
elementului
elen
elena
elene
elenei
eleonora
elepciune
elepciunea
elepciunii
elept
eles
elese
elesul
elev
eleva
elevi
elevii
elevilor
elevul
eli
eliade
elias
elibera
eliberare
eliberarea
eliberat
eliberata
eliberate
elibereaza
elibereze
elice
elicopter
elicoptere
elie
elile
elimina
eliminare
eliminarea
eliminat
eliminata
eliminate
elimine
elina
eliot
elisabeta
elisabetei
elisabeth
elita
elite
eliza
elizabeth
ella
elle
ellen
elliot
elliott
ellis
elor
elsa
else
elsevier
elst
elt
elu
elul
elului
elvet
elvira
elvis
em
emanciparea
emanoil
emanuel
emblema
emergency
emerit
emerson
emery
emi
emigra
emigrant
emigrat
emil
emile
emilia
emilian
emilio
emily
eminent
eminescu
emir
emiratele
emis
emisa
emise
emisfera
emisia
emisie
emisiune
emisiunea
emisiuni
emisiunii
emisiunile
emit
emita
emite
emiterea
emma
emmanuel
emmy
emo
emot
emperor
empire
en
ena
enache
enceladus
enciclope
enciclopedia
enciclopedic
enciclopedica
enciclopedie
enciklopedija
encyclopaedia
encyclope
encyclopedia
encyclopædia
end
endemica
ending
endre
ends
ene
enea
eneasca
enemy
energetic
energetica
energetice
energia
energic
energie
energiei
energy
enes
enesc
enescu
eng
engel
engels
engine
engineering
engl
england
englez
engleza
engleze
englezes
englezesc
englezi
englezii
english
eni
enia
enie
eniei
enigma
enii
eniko
enilor
enko
enorias
enorm
enorma
enorme
enough
enrico
enrique
ent
enter
enterprise
enterprises
entertainment
entita
entitate
entoloma
entom
entre
entry
entuziasm
entuziasmul
enumera
enumerate
enunt
environment
environmental
enzima
enzo
enzyklopa
eo
ep
epa
eparhia
eparhiei
epes
epic
epica
epice
epidemie
epidemii
epir
episcop
episcopal
episcopala
episcopi
episcopia
episcopiei
episcopii
episcopilor
episcopul
episcopului
episoade
episoadele
episoadelor
episod
episode
episodes
episodul
episodului
epistola
epitetul
epoca
epoci
epocii
epopeea
epsilon
epuizat
epura
er
era
erai
eram
erasmus
erau
erba
erbacee
erban
erde
erdo
ere
erectus
ereditar
eredme
erei
eremia
erevan
eri
eric
erica
erich
erickson
erii
erik
erika
erilor
ernest
ernesto
ernst
eroare
eroi
eroic
eroica
eroice
eroii
eroilor
eroina
eronat
erori
eros
erotic
erotica
erotice
erou
eroul
eroului
eroziune
erpi
ert
erta
ertul
ertului
erudit
erul
erupt
erwin
es
esa
esc
escadrila
escape
escorta
escu
ese
esei
eseist
esent
eseu
eseul
eseuri
esko
espan
espe
esperanto
espn
essay
essays
essential
essex
est
esta
estadio
estate
este
estetic
estetica
estetice
esther
estic
estica
estice
estima
estimare
estimat
estimata
estimate
estimates
estimeaza
esto
estoasa
estona
estonia
estonian
estoniei
estrada
estudis
estul
esut
esutul
esutului
esuturi
esuturile
esuturilor
esztergom
et
eta
etaj
etaje
etajul
etans
etapa
etape
etapele
etc
ete
etern
eterna
eterne
eternitate
eterogena
ethan
ethics
ethiopia
ethnic
ethnologica
etica
etice
eticheta
etichete
etimologia
etimologic
etimologie
etiopia
etnic
etnica
etnice
etnici
etnie
etnii
etno
etnografic
etnografice
etnografie
eu
euclid
euclidian
euge
eugen
eugene
eugenia
eugeniu
eul
euler
eului
eunis
eur
eurasia
eure
euri
eurilor
euro
eurogamer
eurohandball
europa
europarl
europe
european
europeana
europei
europene
europeni
eurosport
eurovision
eusebiu
euskara
ev
eva
evacuare
evacuarea
evacuat
evadare
evadat
evalua
evaluare
evaluarea
evaluat
evaluation
evan
evanghelia
evanghelic
evanghelica
evanghelice
evanghelici
evanghelie
evans
eve
evelyn
even
eveniment
evenimente
evenimentele
evenimentelor
evenimentul
evenimentului
evening
event
events
eventual
eventuala
ever
everest
everett
every
everybody
everything
evgheni
evi
evic
evica
evice
evici
evicii
evicilor
evidence
evident
evidenta
evidente
evil
evita
evitarea
evitat
evite
evo
evoca
evolua
evoluat
evolueaza
evolut
evolution
evolutionary
evrei
evreiasca
evreies
evreiesc
evreii
evreilor
evreu
evul
evului
evz
ew
ewald
ex
exact
exacta
exacte
exactitate
exagerat
exagerata
examen
examenul
examina
examinare
examinarea
examinat
examineaza
example
excel
excelent
excelenta
excelente
excelsior
excentricitate
except
excepta
exces
excesiv
excesiva
excesive
exchange
excitat
exclamat
exclude
excluderea
exclus
exclusa
exclusiv
exclusiva
exclusive
exclusivitate
excursie
excursii
execut
executa
executare
executarea
executat
executata
executate
execute
executiv
executiva
executive
exemplar
exemplare
exemple
exemplele
exemplu
exemplul
exercit
exercita
exercitarea
exercitat
exercitata
exercite
exhibition
exigent
exil
exilat
exile
exilul
exilului
exista
existat
existau
existe
existent
existenta
existente
exit
exotice
exp
expansion
expansiune
expansiunea
expansiunii
expedit
expedition
experience
experient
experiment
experimental
experimentala
experimentale
experimentat
experimente
experimentele
experimentul
expert
expertiza
expirat
explica
explicarea
explicat
explicativ
explice
explicit
explicita
exploata
exploatare
exploatarea
exploatat
explodat
explora
explorare
explorarea
explorat
exploration
explorator
explore
exploreaza
explorer
explozia
explozie
explozii
exponate
exponent
export
exportul
expozit
expres
expresia
expresie
expresiei
expresii
express
exprima
exprimare
exprimarea
exprimat
exprimata
exprimate
exprime
expulzarea
expulzat
expuna
expune
expunere
expunerea
expus
expusa
expuse
ext
extended
extensie
exterioara
exterioare
exterior
exteriorul
exterminare
extern
externa
externe
externi
extinct
extinda
extinde
extindere
extinderea
extinderii
extins
extinsa
extinse
extinza
extra
extract
extrage
extragerea
extraordinar
extraordinara
extraordinare
extras
extrasa
extrase
extrateres
extraterestra
extraterestre
extraterestru
extrem
extrema
extremadura
extreme
extremita
extremitatea
eye
eyes
ez
eza
ezare
ezarea
ezat
ezata
ezate
eze
ezi
ezita
ezra
f
fa
faber
fabian
fabrica
fabricant
fabricarea
fabricat
fabricata
fabricate
fabrici
fabricii
fabricile
fabricius
fabule
fac
faca
face
facebook
facem
facerea
faces
facet
faci
facilita
faciliteaza
facla
fact
factbook
facto
factor
factori
factorii
factorilor
factorul
factory
facts
factura
faculta
facultate
facultatea
facut
fag
fagi
faima
faimoasa
faimoase
faimos
faimosul
fair
faire
fait
faith
fala
falco
falcon
faliment
falimentul
fall
fallen
falls
fals
falsa
false
falun
fam
fame
familia
familiala
familiale
familiar
familie
familiei
families
familii
familiile
familiilor
family
famous
fan
fanariot
fanfara
fani
fanii
fanilor
fanny
fans
fantastic
fantastica
fantastice
fantasticului
fantasy
fantezie
fantoma
fantome
fapt
fapta
fapte
faptele
faptelor
faptul
faptului
faq
far
fara
faraon
faraonului
farbfotos
farkas
farm
farmaceutica
farmaceutice
farmacie
farmec
farmecul
farmer
farsa
farul
fascinat
fascism
fascist
fascista
fasciste
fashion
faso
fasole
fast
fat
fata
fatal
fatala
fatale
fate
father
fatimizii
fatimizilor
fauna
faunei
faust
favoarea
favorabil
favorabila
favorabile
favorit
favorita
favorite
favoriza
favorizat
favorizeaza
faza
faze
fazele
fbi
fbref
fc
fcm
fcsb
fda
fe
fear
feat
feature
features
featuring
feb
febra
februarie
february
fecioara
fecioare
fecioarei
fecior
feciori
feciorii
feciorul
federal
federala
federale
federat
federation
federativa
federer
federico
feed
feedback
feel
feet
feje
fel
feldmares
feleacului
felicia
felicita
felipe
felix
fellows
felul
feluri
felurite
female
femei
femeia
femeie
femeii
femeile
femeilor
femela
femele
femelele
feminin
feminina
feminine
feminist
feminista
feministe
femme
femmes
feng
fenomen
fenomene
fenomenele
fenomenelor
fenomenul
fenomenului
feodor
fer
fera
ferata
ferate
ferdinand
fereasca
fereastra
ferenc
feres
ferestre
ferestrele
ferestrelor
ferguson
feri
ferice
fericire
fericirea
fericirii
fericit
fericita
fericite
ferit
ferm
ferma
ferme
fermeca
fermecat
fermentat
fermier
fermieri
ferna
fernand
fernandez
fernando
feroe
feroviar
feroviara
feroviare
ferrara
ferrari
ferreira
ferry
fes
fest
festival
festivalul
festivalului
festivaluri
festivita
fet
fete
fetei
fetele
fetelor
fetit
feudal
feudala
feudale
fever
few
ff
fi
fia
fiara
fiare
fiat
fiba
fibra
fibre
fibrele
ficat
fichefilm
fict
fiction
fictiv
fictiva
fictive
fide
fidel
fidelitate
fie
fieca
fiecare
fiece
field
fields
fier
fiera
fierbe
fierbere
fierbint
fierbinte
fiert
fierul
fierului
fies
fifa
fifth
fig
figaro
fight
fighter
fighters
fighting
figura
figurat
figure
figureaza
figures
figuri
figurile
fii
fiica
fiice
fiicei
fiicele
fiii
fiilor
fiind
fiindca
fiindu
fiint
fiji
fila
filarmonica
filarmonicii
fildes
file
files
filiala
filiale
filialei
filimon
filip
filipescu
filipine
filippo
fillmore
film
filma
filmaffinity
filmare
filmat
filmate
filme
filmele
filmelor
filmova
filmportal
films
filmul
filmului
filolog
filologie
filosof
filosofia
filosofic
filosofica
filosofice
filosofie
filosofiei
filosoful
filozof
filozofia
filozofic
filozofica
filozofice
filozofie
filozofiei
filozoful
filtru
fim
fin
fina
final
finala
finale
finalist
finalista
finaliza
finalizarea
finalizat
finalizata
finalizate
finals
finalul
finance
financial
financiar
financiara
financiare
finant
find
finder
finds
fine
finele
finet
finiste
finit
finite
finland
finlanda
finlandei
finlandez
finlandeza
finlandeze
finn
finnish
fiodor
fior
fiori
fir
fire
firea
fireasca
firefox
firele
fires
firesc
firii
firma
firme
firmei
firmele
first
firul
fis
fiscal
fiscala
fiscale
fischer
fish
fishbase
fisher
fit
fitzgerald
fiu
fiul
fiului
five
fix
fixa
fixarea
fixat
fixata
fixate
fixe
fixeaza
fiz
fizic
fizica
fizice
fizician
fizicianul
fizicii
fizico
fiziologice
fiziologie
fk
fl
fla
flaca
flag
flamand
flammarion
flancul
flandra
flash
flaut
flavius
fleet
fleming
fletcher
flight
flo
floare
floarea
flondor
floor
flora
florale
florea
florei
florence
florent
florentin
florentina
flores
florescu
floreta
flori
florian
florica
florida
florile
florilor
florin
florina
florini
flota
flote
flotei
flowers
floyd
flu
fluctuat
fluent
fluid
fluidelor
fluier
fluiera
flutura
fluture
fluturi
fluviu
fluviul
fluviului
flux
fluxul
fluxului
fly
flying
flynn
fm
fmi
fo
foaia
foaie
foame
foamea
foamei
foamete
foametea
foametei
foarte
foc
focar
focs
focul
focului
focuri
focus
foi
foile
foileton
foioase
fois
folclor
folcloric
folclorice
folclorist
folclorul
folclorului
folk
folkemengd
folklore
following
folos
folosea
foloseasca
foloseau
foloses
folosesc
folosi
folosind
folosindu
folosint
folosire
folosirea
folosirii
folosit
folosita
folosite
folositoare
folosul
fond
fonda
fondarea
fondat
fondata
fondatoare
fondator
fondatori
fondatorii
fondatorul
fondeaza
fondul
fondului
fonduri
fondurile
fondurilor
fonetic
fonetica
fonetice
font
fonta
fontaine
food
foot
football
for
forbes
force
forces
ford
foreign
forel
forest
forestier
forestiera
forestiere
forever
forgotten
form
forma
formal
formala
formale
formare
formarea
format
formata
formate
formation
formatul
formau
forme
formeaza
formei
formele
formelor
former
formeze
formica
formicidae
forms
formula
formulare
formularea
formularul
formulat
formulata
formulate
formule
forster
fort
forta
forte
fortificat
fortificata
fortificate
fortress
fortul
fortuna
fortune
forul
forum
forumul
forward
fos
fosfat
fosfor
fosile
fossil
fost
fosta
foste
fostei
fostele
foster
fostu
fostul
fostului
fotbal
fotbalis
fotbalist
fotbalistul
fotbalul
fotbalului
fotea
foto
fotograf
fotografia
fotografiat
fotografica
fotografice
fotografie
fotografii
fotografiile
fotograful
fotomodel
found
foundation
foundations
four
fourier
fourth
fox
fr
fra
frac
fract
frageda
fragment
fragmente
franc
franca
france
frances
francesca
francesco
francez
franceza
franceze
francezi
francezii
francezilor
francezul
franci
francia
francii
francilor
francis
francisc
franciscan
francisco
franciza
franck
franco
franconia
frank
frankenstein
frankfurt
frankivsk
franklin
frant
frantis
franz
fraser
frasin
frat
frate
fratele
fratelui
frauda
fraza
fraze
fre
freama
freca
frecvent
frecventa
frecventat
frecvente
frecventeaza
fred
freddie
frederic
frederick
frederik
free
freebase
freedom
freeman
freiburg
freiherr
freimut
french
fresca
fresce
fresh
freud
frf
frh
fri
frica
friday
friedman
friedrich
friend
friends
fries
frig
fritz
friuli
from
front
frontal
frontala
frontier
frontiera
frontiere
frontierei
frontierele
frontierelor
frontul
frontului
frost
frozen
fru
fruct
fructe
fructele
fructelor
fructiferi
fructul
frumoasa
frumoase
frumos
frumosul
frumus
frumuset
frunt
fruntas
frunte
fruntea
frunza
frunze
frunzele
frunzelor
frunzetti
frunzis
frysk
fsn
ft
fu
fuchs
fug
fuga
fugari
fuge
fugi
fugind
fugit
fulger
fulgera
fulgerul
full
fullcredits
fuller
fum
fuma
fumul
fun
funciar
funct
function
fund
funda
fundal
fundalul
fundamental
fundamentala
fundamentale
fundas
fundat
fundul
funeral
funerar
funerara
funerare
funghi
fungi
fungorum
funk
fur
fura
furat
furata
furate
furca
fure
furia
furie
furios
furis
furnica
furnici
furniza
furnizarea
furnizat
furnizate
furnizeaza
furnizor
furnizori
furt
further
furtul
furtuna
furtuni
fury
fus
fusese
fusesera
fusion
future
fuzionat
fuziune
fuziunea
føroyskt
g
ga
gabi
gabon
gabor
gabriel
gabriela
gabriele
gabrielle
gabrovo
gaeilge
gaeta
gaga
gaia
gaius
gal
gala
galactic
galactica
galat
galata
galatasaray
galaxia
galaxie
galaxiei
galaxies
galaxii
galaxy
galben
galbena
galbene
galbeni
galbraith
gale
galego
galeria
galerie
galeriei
galerii
galeriile
galia
galicia
galilei
galileo
galilor
galit
gallery
gallimard
gama
gambia
game
gamer
games
gamespot
gaming
gamma
gan
gandhi
gane
gang
ganymede
gar
gara
garant
garanta
garantat
garanteaza
garci
garcia
gard
garda
garde
garden
gardens
gardianul
gardner
gardul
garduri
gare
garfield
garibaldi
garland
garnizoana
garnizoanei
garonne
garrett
garros
garry
gary
gas
gaston
gat
gata
gate
gates
gateway
gaulle
gaura
gavin
gavriil
gavril
gavrila
gay
gaz
gaza
gazda
gazde
gazdele
gaze
gazele
gazelor
gazeta
gazette
gazetteer
gazos
gazul
gazului
gb
gdan
ge
gea
geam
geama
geamuri
gear
geata
geau
gedichte
gehrels
gekkonidae
gel
gelos
gelozie
gelu
gema
geme
gemeinden
gemeinsame
gemeni
gen
gena
gender
gene
genealogia
genealogic
genealogics
genealogy
geneastar
genele
gener
genera
general
generala
generale
generali
generalii
generalizata
generalul
generalului
generarea
generat
generata
generate
generation
generatoare
generator
genere
genereaza
generic
generos
genesis
genetic
genetica
genetice
genetics
geneva
geneza
geni
genitale
genitiv
geniu
geniul
geniului
genius
genocid
genocide
genova
genre
gent
gentiana
gentleman
genul
genului
genunchi
genunchii
genuri
genurile
genus
geo
geoffrey
geogr
geografia
geografic
geografica
geografice
geografie
geographic
geographical
geography
geolog
geologic
geologica
geological
geologice
geologie
geometria
geometric
geometrica
geometrice
geometrie
geometriei
geometry
geonames
georg
george
georges
georgescu
georgeta
georgia
georgian
georgiana
georgiei
geospatial
geq
ger
gerais
gerald
gerard
gerd
gerhard
germ
germain
german
germana
germane
germani
germania
germanic
germanica
germanice
germaniei
germanii
germanilor
germano
germany
gers
gerunziu
ges
geschichte
gesellschaft
gest
gestiona
gestionare
gestionarea
gestul
gesturi
get
geta
geto
gets
getting
gh
ghana
ghazi
ghaznavizilor
gheare
ghearele
gheat
gheorghe
gheorghi
gheorghit
gheorghiu
gherasim
gherila
gherla
gherman
ghet
ghias
ghica
ghici
ghid
ghidul
ghika
ghinea
ghirai
ghit
ghost
ghurizii
ghurizilor
gi
gia
giacomo
gian
gianni
giant
gibbs
gibraltar
gibson
gica
gie
gigant
gigi
gil
gila
gilbert
gill
gilles
gimnasta
gimnastica
gimnaziala
gimnaziale
gimnaziu
gimnaziul
gimnaziului
gina
ginere
ginerele
gingas
gion
giorgio
gios
giovanni
gire
girl
girls
gironde
gis
git
gita
giules
giulia
giulio
giurescu
giurgiu
giuseppe
give
given
gives
gj
gl
gla
glaciare
glanda
glande
glandele
glas
glasgow
glass
glasul
glasuri
glen
glenn
gli
glise
gloant
gloata
glob
global
globala
globale
globe
globul
globului
glodariu
glodeni
glont
gloria
glorie
gloriei
glory
glosar
glu
glucoza
gluma
glume
glumet
gm
gmbh
gnaphosidae
gne
gnu
go
goal
goala
goale
goals
goana
gob
god
godefroi
gods
godzilla
goes
goethe
goga
gogh
gogol
gogu
goi
goia
going
gol
golaveraj
gold
goldberg
golden
goldman
goldstein
goles
golescu
golf
golful
golfului
golul
goluri
golurile
gomez
goncourt
gone
gong
goniothalamus
gonit
gonza
gonzaga
good
goodbye
goodman
google
goosse
gopo
gora
gorbaciov
gordon
gore
gorizia
gorj
gorki
gorun
gos
gospel
gospoda
gostes
gostit
gostita
got
gotha
gothic
gotic
gotica
gotice
gottfried
gottlieb
gottorp
gould
gov
government
goya
gp
gps
gr
gra
graba
grace
grad
grade
gradele
gradul
gradului
graf
grafic
grafica
grafice
grafiche
grafician
graham
grai
graiul
grajd
gram
gramatica
gramatical
gramaticale
grame
grammar
grammy
gran
granada
grand
grande
grandet
granit
grant
gras
grasa
grass
grat
gratis
gratuit
gratuita
gratuite
graur
grav
grava
grave
graves
gravitat
gravity
gravor
gravura
gray
graz
gre
grea
greaca
great
greater
greatest
grec
greceanu
greceasca
greces
grecesc
greci
grecia
greciei
grecii
grecilor
greco
grecu
grecul
greece
greek
green
greene
greenwood
greg
gregor
gregorian
gregory
grei
grele
grenada
grenade
grenoble
greoaie
greoi
gres
gresie
greu
greuta
greutate
greutatea
greva
grevisse
grey
gri
grid
griffin
griffith
griffiths
grigoras
grigore
grigorescu
grigori
grigorie
grigoriu
grija
griji
grila
grimaldi
grimm
grinda
grinzi
gripa
grivit
gro
groapa
groasa
groase
groaza
groaznic
groeneveld
groenlanda
gropi
gros
grosime
grosimea
gross
grosso
grossu
grosu
grota
ground
group
groups
grove
growing
growth
groza
grozav
grozava
große
gru
gruia
grup
grupa
grupare
gruparea
grupat
grupate
grupe
grupei
grupele
grupelor
grupul
grupului
grupuri
grupurile
grupurilor
gruyter
gruzia
gs
gsd
gsi
gsp
gt
gta
gu
guadalcanal
guaimar
guard
guardian
guatemala
guatteria
gubernia
gubiri
gue
guerra
guerre
guerrero
guess
guest
guez
guglielmo
guide
guides
guido
guild
guillaume
guillermo
guin
guinea
guinee
guineea
guinness
guitar
guler
gulf
gun
gunoi
guns
gura
gurele
guri
gurii
gurile
gurion
gurkha
gus
gust
gusta
gustaf
gustav
gustave
gusti
gustul
gut
guta
gutenberg
guvern
guverna
guvernamental
guvernamentala
guvernamentale
guvernare
guvernarea
guvernat
guvernator
guvernatorilor
guvernatorul
guvernatorului
guverne
guverneaza
guvernele
guvernelor
guvernoratul
guvernul
guvernului
guy
guyana
gwen
gy
gyi
gyo
gyula
gə
h
ha
haakon
haaretz
haas
habitat
habitate
habitatelor
habitatul
habsburg
habsburgic
habsburgice
hachette
had
hadrian
haemaphysalis
haga
hagi
hahn
hai
haide
haiduc
haiduci
haifa
haiku
hailivka
haim
haina
hainaut
haine
hainele
haiti
hajdu
hal
hala
halberstadt
hale
half
hall
halle
haller
halloween
halo
halta
halucinat
ham
hamas
hamburg
hamid
hamilton
hamlet
hammer
hammond
hampshire
han
hand
handbal
handbalista
handball
handbalmania
handbalvolei
handbook
handbuch
handicap
hands
hanna
hannah
hannibal
hanovra
hans
hansen
hanul
hanului
haos
haosul
happened
happy
har
hara
haralambie
harald
harbor
hard
hardcore
hardware
hardy
hare
haret
harghita
harkov
harnic
harold
harpa
harpactea
harper
harpercollins
harriet
harris
harrison
harry
hart
harta
hartmann
harul
harvard
harvey
has
hasan
hasdeu
hasefer
hassan
hastings
hat
hate
hatmanul
haut
haute
hautes
hauteville
havana
have
haven
hawaii
hawk
hawkins
hay
haydn
hayes
haz
hbo
hbw
hc
hcm
hd
he
head
health
heard
heart
hearts
heat
heath
heather
heaven
heavy
heavyweight
hebrew
hectare
hector
hegel
hei
heidelberg
heidi
heights
heine
heinlein
heinrich
heinz
held
helen
helena
helene
heliade
helina
heliophanus
heliu
hell
heller
hello
helm
helmut
help
helsinki
helyse
hemingway
hen
henderson
hendrik
henri
henric
henriette
henrik
henry
henryk
her
hera
herald
heraldica
herbert
hercule
hercules
herdelea
here
heritage
herman
hermann
hermannstadt
hermes
herna
hero
herodot
heroes
herschel
herson
hert
herzog
hessa
hesse
hessen
het
heteropoda
heves
hewitt
hezbollah
hg
hi
hibrid
hidden
hidrocarburi
hidrogen
hidrogenul
hidrogenului
hidrografic
hidrologie
hidroxid
hierarchy
higgins
high
higher
highway
hilary
hill
hills
hilton
him
himalaya
himmler
himself
hindi
hindus
hip
hiroshi
hiroshima
hirotonit
his
hist
histo
histoire
historia
historic
historical
historique
history
hit
hitchcock
hitler
hits
hituri
hiv
hk
hl
hler
hlten
hm
hmelni
hmelnit
hms
hncke
hnit
ho
hoarda
hoc
hochei
hodos
hoffman
hoffmann
hogan
hogna
hohenstaufen
hohenzollern
holban
hold
holden
holding
hole
holera
holiday
holland
holly
hollywood
holmes
holocaust
holocaustului
holstein
holt
holy
home
homepage
homer
homme
hommes
homo
homosexual
homosexuali
honda
honduras
hong
honor
honore
honoris
hood
hooker
hoover
hop
hope
hopkins
hora
horace
horak
horat
horea
horia
horizon
horizons
horn
horror
horse
horst
hospital
hossu
host
hosts
hot
hota
hotar
hotare
hotarele
hotarul
hotel
hotelul
hotelului
hoteluri
hotin
hotinului
hotnews
houghton
hour
hours
house
houston
houten
how
howard
howe
hoysala
hp
hr
hra
hram
hramul
hrana
hranei
hrer
hri
hrisov
hristos
hrlinge
hrsg
hrus
hrvatska
hrvatski
hs
ht
htm
html
http
https
hu
huang
hubble
hubert
hubner
hudson
hue
huffington
hugh
hughes
hugo
hugues
hui
hull
human
humanitas
humans
humboldt
humor
humorului
humphrey
hundred
hunedoara
hung
hungarian
hungary
hunt
hunter
hur
hus
hussain
hussein
hut
huta
huxley
hyde
hydrogen
hydrotaea
hymenoptera
hypericum
hyperion
hz
i
ia
iaaf
iaca
iacob
iacov
iad
iadul
iadului
iakub
ial
iala
iale
ialele
iali
ialomit
ialoveni
ialul
ialului
iam
ian
iana
iancu
ianjen
ianjeni
ianke
ianu
ianuarie
ianul
iapa
iar
iara
iarba
iare
iarna
iarta
ias
iasa
iasca
iasi
iaste
iat
iata
iate
iatic
iatica
iativa
iative
iatorul
iatu
iatul
iatului
iau
iaza
ib
iba
iberia
iberica
ibid
ibidem
ibis
ibm
ibn
ibra
ibrahim
ic
ica
icar
icarus
ice
ich
ici
icoana
icoane
icoanele
icoanelor
icon
iconographia
iconostas
iconostasul
icpa
icut
id
ida
idaho
ide
idea
ideal
ideala
ideale
idealul
idealurile
ideas
idee
ideea
idei
ideii
ideile
ideilor
idem
identic
identica
identice
identifica
identificare
identificarea
identificat
identificata
identificate
identification
identifice
identita
identitate
identitatea
identity
ideologia
ideologic
ideologica
ideologice
ideologie
ideologiei
idescat
idhlig
idiot
idis
ido
idol
idris
ie
iea
ieee
ieftin
ieftina
ieftine
iehova
iei
ieie
iele
iene
ieni
ienii
ienilor
iepure
iepurele
iepuri
ier
ierarh
ierarhi
ierarhia
ierarhie
ierarhiei
ierburi
iere
ierea
ierele
ieremia
ieri
ierii
ierneaza
ierni
iernii
ieronim
iert
ierta
iertare
iertarea
iertat
ierte
ierul
ierului
ierusalim
ierusalimul
ierusalimului
ies
iesbe
iesc
iese
ieste
iestrie
iet
iete
ieu
ieud
ieze
iezuit
if
ific
ifica
ifice
ifico
ifpi
ig
iga
igan
iganca
igani
iganii
iganilor
iganul
igara
igiena
igla
ign
ignat
ignora
ignorant
ignorat
igoi
igor
ihf
ii
iia
iii
iile
iilor
iind
iisus
iit
iitor
ik
il
ila
ilarie
ilarion
ile
ileana
ileanu
ilegal
ilegala
ilegale
ilei
iles
ilescu
ilfov
ili
ilia
ilias
ilie
iliescu
ilina
ilinca
ille
illinois
illustrated
illustrations
ilona
ilor
iluminat
ilustra
ilustrat
ilustrata
ilustrate
ilustrator
ilustreaza
iluzia
iluzie
iluzii
im
ima
image
images
imagina
imaginar
imaginara
imaginare
imaginat
imagine
imaginea
imagini
imaginii
imaginile
imaginilor
imagistica
imam
imdb
ime
imea
imedia
imediat
imediata
imediate
imens
imensa
imense
imi
imigrant
imigrat
imii
imile
imilor
imita
imitat
imleu
imn
imnul
imobil
imobile
imobiliare
impact
impactul
impactului
imperativ
imperfect
imperial
imperiala
imperiale
imperii
imperiu
imperiul
imperiului
implementa
implementare
implementarea
implementat
implica
implicare
implicarea
implicat
implicata
implicate
implications
implice
implicit
import
importance
important
importanta
importante
importate
imposibil
imposibila
imposibilitatea
impossible
impotriva
impozit
impozite
impozitelor
impresia
impresie
impresii
impresionant
impresionanta
impresionante
impresionat
impreuna
imprima
imprimat
imprimeria
imprimeriile
impropriu
improvizat
impuls
impulsul
impun
impuna
impune
impunea
impunerea
impus
impusa
impuse
imre
in
ina
inainte
inamic
inamice
inamici
inamicii
inamicul
inamicului
inari
inat
inata
inaugurarea
inaugurat
inaugurata
inc
inca
incai
incapabil
incapacitatea
incendiat
incendii
incendiilor
incendiu
incendiul
inceput
incerta
inch
incident
incidente
incidentul
incinta
includ
includa
include
includea
includeau
includerea
includes
including
inclus
inclusa
incluse
inclusiv
incluza
incolor
incompleta
incons
incorect
inculpat
incursiuni
ind
inde
independence
independent
independenta
independente
index
india
indian
indiana
indica
indicat
indicata
indicate
indicativ
indicator
indice
indicele
indicii
indie
indiei
indiene
indieni
indienii
indiferent
indigene
indiile
indirect
indirecta
individ
individual
individuala
individuale
individul
individului
indivizi
indivizii
indivizilor
indo
indonesia
indonezia
indre
indrila
indu
induce
induct
indus
industria
industrial
industriala
industriale
industrias
industrie
industriei
industries
industrii
industry
ine
inea
ineanu
ineau
inedit
inedite
inel
inele
inelelor
inelui
inelul
inelului
inem
inere
inerea
inerii
inert
ines
inet
ineu
inevitabil
infanta
infanteria
infanterie
infanteriei
infanteris
infarct
infect
infectat
infectate
inferioara
inferioare
inferior
infern
infiltrat
infinit
infinita
infinite
infinitiv
infinity
inflamat
inflat
inflorescent
influence
influent
influenta
influente
info
informa
informare
informat
informatica
informatice
information
informativ
informator
informeaza
infract
infraros
infrastructura
infrastructurii
infty
ing
inge
inginer
ingineri
ingineria
inginerie
inginerii
inginerul
inginerului
ingrediente
ingrid
ini
inii
inile
inilor
inima
inimi
inimii
inimile
init
initial
inject
inn
inna
inner
innova
innovation
innsbruck
inocent
inocybe
inos
inovat
inovatoare
ins
insa
inscript
insecta
insecte
insectele
insera
insert
inside
insider
insigna
insista
insistat
insistent
inspect
inspector
inspectoratul
inspectoratului
inspectorul
inspira
inspirat
inspirata
inspirate
inst
instagram
instala
instalare
instalarea
instalat
instalata
instalate
instaleaza
instant
instantaneu
instaurarea
instinct
instituire
instituirea
instituit
institut
institute
institutes
institution
instituto
institutul
institutului
instruct
instructor
instruire
instruirea
instruit
instrument
instrumental
instrumentala
instrumente
instrumentele
instrumentelor
instrumentul
insuficient
insuficiente
insula
insule
insulei
insulele
insulelor
insulina
insulta
insurect
insurgent
int
inta
intact
inte
integra
integral
integrala
integrale
integranta
integrare
integrarea
integrat
integrata
integrate
integrated
integritatea
intel
intelectual
intelectuala
intelectuale
intelectuali
intelectualii
intelectualilor
inteligent
inteligenta
inteligente
intelligence
intens
intensa
intense
intensifica
intensificat
intensita
intensitate
intensitatea
intensiva
intent
inter
interact
interactiva
interactive
interbelic
interbelica
interbelice
intercalate
intercontinental
interdict
interes
interesa
interesant
interesanta
interesante
interesat
interesata
interesate
interese
intereseaza
interesele
intereselor
interesul
interesului
interfat
interferent
interfet
interimar
interioara
interioare
interior
interiorul
interlingua
intermediar
intermediara
intermediare
intermediul
intern
interna
internal
internat
international
internationale
internazionale
interne
internet
internetul
internetului
interpret
interpreta
interpretare
interpretarea
interpretat
interpretata
interpretate
interpreteaza
interpretei
interpreteze
interpretul
intersect
intersecteaza
interval
intervale
intervalul
interveni
intervenit
intervent
interview
interviews
intervina
intervine
interviu
interviuri
interzica
interzice
interzicerea
interzis
interzisa
interzise
intim
intima
intime
intitulat
intitulata
intitulate
into
intonat
intoxicat
intr
intra
intranz
intrara
intrare
intrarea
intrase
intrat
intrau
intre
intri
intriga
intrigi
introduca
introduce
introducere
introducerea
introducerii
introduction
introductiv
introdus
introdusa
introduse
intru
intuit
inu
inuit
inul
inundat
inuse
inut
inuta
inute
inutil
inutila
inutile
inutul
inutului
inuturi
inuturile
inuyasha
invada
invadarea
invadat
invadeaza
invalid
invalida
invariabil
invasion
invazia
invazie
invaziei
invazii
invent
inventar
inventarea
inventarul
inventat
inventata
inventator
inventatorul
invers
inversa
investiga
investigat
investigation
investigheaza
investit
investitori
invisible
invita
invitat
invitata
invizibil
invoca
invocat
io
ioachim
ioan
ioana
ioanit
ioara
ioasa
ioase
ioba
iobagi
ioc
iod
iohannis
ion
iona
ional
ionala
ionale
ionalei
ionali
ionalis
ionalism
ionalismul
ionalismului
ionalist
ionalista
ionaliste
ionalita
ionalitate
ionalitatea
ionalizarea
ionalul
ionar
ionara
ionare
ionarea
ionari
ionarii
ionarilor
ionarul
ionarului
ionas
ionat
ionata
ionate
ionau
ioneaza
ionel
ionela
ionescu
ioneze
ioni
ionica
ionice
ionis
ionist
ionista
ioniste
ionit
ionut
iorda
iordache
iordan
iordania
iordaniei
iorga
iorgu
iori
ios
iosefina
iosif
iosua
iowa
ip
ipa
ipac
iphone
iplea
ipoteza
ipoteze
ipsilanti
ir
ira
irak
irakului
iran
iranian
iraniene
iranul
iranului
iraq
irat
ire
irea
ireland
irene
iret
iri
irigat
irii
irile
irilor
irina
iris
irish
iritat
irlanda
irlandei
irlandez
irlandeza
irlandeze
irlandezi
irma
irod
iroda
irodalmi
iron
ironic
ironie
irul
iruri
irurilor
irving
irwin
is
isa
isaac
isabel
isabela
isabella
isabelle
isac
isaia
isbn
isca
ise
isera
isfdb
isi
isidor
isidore
isis
islam
islamic
islamica
islamice
islamul
islamului
island
islanda
islandei
islandeza
islands
isle
ismail
iso
ispa
ispita
ispra
isprava
israel
israeli
israelian
israeliana
israeliene
israelieni
israelit
israelul
israelului
issn
issue
issues
ist
ista
istanbul
istat
iste
istet
istituto
istoria
istoric
istorica
istorice
istorici
istoricii
istoricilor
istorico
istoricul
istoricului
istorie
istoriei
istorii
istoriografia
istrate
istrati
istria
istul
istva
isus
it
ita
italia
italian
italiana
italiane
italiani
italiano
italiei
italiene
italieni
italienii
italo
italy
ite
item
itf
itis
itoare
itor
itori
its
itu
itul
itului
itunes
itura
iu
iubea
iubeasca
iubes
iubesc
iubi
iubire
iubirea
iubiri
iubirii
iubit
iubita
iubite
iubitor
iubitul
iucn
iucnredlist
iuda
iudaica
iudaice
iudaism
iuga
iugoslav
iugoslava
iugoslave
iugoslavia
iugoslaviei
iul
iulia
iulian
iuliana
iulie
iuliei
iulis
iuliu
iulius
iului
iun
iune
iunea
iunei
iuni
iunie
iunii
iunile
iunilor
iupac
iuri
iurie
ius
iustin
iustinian
iusuf
iut
iute
iv
iva
ivan
ivanivka
ivano
ivanov
ivanovici
iveala
ives
ivi
ivit
ivka
ivo
ix
ixodes
ixodida
ixodidae
iz
iza
izba
izbi
izbucnes
izbucni
izbucnirea
izbucnit
izbuti
izbutit
izei
izgonit
izola
izolare
izolarea
izolat
izolata
izolate
izvoare
izvoarele
izvoarelor
izvor
izvora
izvoru
izvorul
j
ja
jack
jackie
jackson
jacob
jacobs
jacqueline
jacques
jaf
jaffa
jaffna
jaguar
jahre
jaime
jake
jakob
jale
jalea
jam
jamaica
james
jamie
jan
jana
jandarmeriei
jandarmi
jane
janeiro
janet
january
janusz
japan
japanese
japonez
japoneza
japoneze
japonezi
japonezii
japonia
japoniei
jar
jared
jason
jasper
java
javier
jay
jazeera
jazz
je
jean
jeanne
jedi
jeff
jefferson
jeffrey
jefuit
jena
jenkins
jennifer
jenny
jeno
jens
jensen
jeremy
jericho
jerome
jerry
jersey
jertfa
jertfe
jerusalem
jerzy
jesse
jessica
jesu
jesus
jet
jeune
jewish
jews
jg
ji
jianu
jilava
jill
jim
jimmy
jin
jina
jir
jit
jita
jitoare
jitoarea
jitor
jitorul
jiu
jiul
jiului
jls
jmas
jo
joa
joaca
joace
joachim
joan
joanna
joanne
joasa
joase
job
jobs
joc
jocul
jocului
jocuri
jocurile
jocurilor
joe
joel
joey
johan
johann
johanna
johannes
john
johnny
johns
johnson
johnston
joi
join
joins
joint
jon
jonas
jonathan
jonct
jones
jong
jordan
jorge
jos
josan
jose
josef
joseph
josh
joshua
josip
jour
journal
journey
joy
joyce
jp
jpg
jpl
jr
json
jstor
ju
juan
juca
jucat
jucata
jucate
jucau
jud
jude
judeca
judecat
judecata
judece
judet
judetul
judge
judiciar
judiciara
judiciare
judith
judo
judy
jug
jugul
juin
jul
jules
julia
julian
juliana
julie
julien
julieta
julio
julius
july
juma
jump
jun
juna
juncus
june
jung
jungla
jungle
junimea
junioare
junior
juniori
jupa
jupiter
jur
jura
jurassic
jurat
jure
juridic
juridica
juridice
juris
jurisdict
jurisprudent
jurist
juriu
juriul
juriului
jurnal
jurnale
jurnalis
jurnalism
jurnalist
jurnalista
jurnalistul
jurnalul
jurnalului
jurul
just
justice
justifica
justin
justinian
justit
juventus
k
ka
kaap
kabaka
kafka
kahn
kai
kaiser
kal
kali
kambujadesa
kamil
kan
kanal
kane
kanem
kansas
kant
kaplan
kar
kara
karate
karel
karen
karin
karl
karlsruhe
karol
kas
kashmir
kassai
kassel
kat
katalog
kate
katherine
kathleen
kathryn
katie
katz
kaufman
kautsky
kay
kazahstan
kazakhstan
kazan
kazimierz
kb
kc
ke
keep
keith
keller
kelly
kelvin
kely
kemal
ken
kennedy
kenneth
kenny
kent
kentucky
kenya
kepler
kerman
kernbach
kerr
kevin
key
keys
kg
kgb
khan
ki
kia
kiado
kicker
kid
kids
kiev
kievului
kill
killed
killer
killing
kilograme
kilometri
kilometru
kim
kin
kind
kindred
king
kingdom
kings
kingston
kira
kirby
kirit
kirk
kirovohrad
kis
kiskun
kiss
kiste
kit
kitty
kivka
kla
klan
klaus
klein
kleine
kli
klux
km
knaur
knaurs
knesset
knight
knights
knjiga
knopf
know
knowledge
knowles
known
knox
knut
ko
kobayashi
koc
koch
koga
kolaiiv
kolaiivka
kolozsva
koma
kon
kong
kongo
konrad
konstantin
korea
korean
koryo
kos
kosmos
kosovo
kossuth
kov
kova
kove
kr
kra
kramer
kreis
kremlin
kri
kris
kriterion
kro
kru
kryptogamenflora
krzysztof
ks
ksh
ku
kubrick
kul
kultur
kultura
kumar
kun
kung
kunst
kunze
kurdi
kurosawa
kurt
kus
kuwait
kuweit
kv
kw
ky
kyle
kylie
kyo
kyoto
kə
l
la
lab
label
labor
laboratoare
laborator
laboratorul
laboratory
laburist
lac
laca
lacom
lacra
lacrima
lacrimi
lacrimile
lactarius
lactate
lactee
lacul
lacului
lacuri
lacurile
lacurilor
lada
ladies
ladislau
lady
laga
laguna
lahovari
lai
laic
laj
lajos
lake
lalt
lam
lama
lamaison
lamb
lambda
lambert
lame
lamele
lamelele
lampa
lan
lana
lancaster
lance
land
landau
landes
landkreis
lands
landul
landulf
landului
lane
lang
langa
lange
language
languages
langue
lanham
lanka
lansa
lansare
lansarea
lansat
lansata
lansate
lanseaza
lanseze
lant
laolalta
laos
lapte
laptele
laptelui
lar
lara
lare
larg
larga
large
largest
largi
largul
larisa
larousse
larry
lars
larvele
las
lasa
lasca
lase
laser
last
laszta
lat
lata
late
later
lateral
laterala
laterale
latest
latex
latin
latina
latine
latines
latinescul
latini
latino
latitudine
latura
laturi
laturile
laturilor
latvies
lauda
laude
launch
launches
laura
laureat
laureata
laureates
lauren
laurence
laurent
lauri
laurie
lausanne
laux
lava
lavigne
lavinia
law
lawrence
laws
laza
lazar
lazio
lb
lba
lbatic
lbatica
lbatice
lbatici
lbui
lbuie
lc
lca
lcare
lcarea
lcat
lccn
lcea
lcescu
lci
lcii
ld
lda
ldots
ldura
ldurii
le
lea
leac
lead
leader
leaders
leadership
leading
leafa
leaga
league
learning
leasca
least
leat
leave
leaves
leba
leben
leca
lecat
lecca
lech
lect
lector
lectura
lecture
lectures
lecturi
led
lee
leeds
left
lefter
leg
lega
legacy
legal
legala
legale
legarea
legat
legata
legate
legatura
lege
legea
legend
legenda
legendar
legende
legendei
legendele
legends
legi
legii
legile
legilor
legion
legionar
legionara
legionare
legionari
legislat
legislativ
legislativa
legislative
legislatura
legitim
legitima
legiunea
legiunii
legume
lei
leibniz
leicester
leiden
leigh
leipzig
lek
leksikon
lem
lemn
lemne
lemnul
lemnului
lena
lenes
lenghel
leni
lenii
lenin
leningrad
lennon
lens
lent
lenta
lente
lentile
leo
leon
leona
leonard
leonardo
leone
leonid
leonida
leonte
leontin
leonului
leopard
leopold
lepa
lepidoptera
lepidoptere
lepiota
lepthyphantes
leptotyphlops
lepus
leq
ler
leroy
les
lesc
lescu
leslie
lesne
lesotho
lespezi
less
lester
let
leti
letona
letonia
letopiset
letter
letters
lettres
leu
leucauge
leul
leului
leurs
lev
levant
level
levi
levin
levine
levit
levy
lewis
lex
lexical
lexicon
lexiconul
lexikon
lexington
lez
leziuni
lfa
lg
lgbt
lha
lhari
li
lia
liam
liana
liao
liban
liber
libera
liberal
liberala
liberale
liberali
liberalii
liberalilor
liberation
libere
liberi
liberia
liberta
libertate
libertatea
liberty
libia
libra
librairie
library
libre
libret
libris
lica
liceale
licee
license
licent
liceu
liceul
liceului
lichid
lichida
lichide
lichidul
licitat
lider
lideri
liderii
liderilor
liderul
liderului
lidia
lie
liebe
liechtenstein
liei
lies
lietuviu
life
liga
light
lights
ligi
ligii
ligne
ligue
lii
liile
like
lil
lile
lili
liliac
liliacul
liliana
lilieci
lille
lily
lim
lima
liman
limba
limbaj
limbaje
limbajul
limbajului
limbi
limbii
limbile
limbilor
limburg
limes
limita
limitarea
limitat
limitata
limitate
limite
limiteaza
limited
limitele
limits
limnophora
limpede
limpezi
lin
lina
lincoln
linda
lindsay
line
linear
lines
linescu
lingua
linguistics
linguistique
lingus
lingv
lingvis
lingvist
lingvistic
lingvistica
lingvistice
lingvisticii
linia
liniar
liniara
liniare
linie
liniei
linii
liniile
liniilor
linis
link
links
linnaeus
lint
linus
linux
linyphiidae
linz
liolaemus
lion
lionel
liov
lipit
lipite
lipova
lippe
lipsa
lipsea
lipsei
lipses
lipsesc
lipsi
lipsit
lipsita
lipsite
lira
lire
liric
lirica
lirice
liriomyza
lis
lisa
lisabona
lisboa
lispe
lispocephala
list
lista
listate
liste
listei
listele
listen
listing
lists
liszt
lit
lita
lite
litera
literal
literalmente
literar
literara
literare
literari
literary
literat
literatur
literatura
literature
literaturi
literaturii
litere
literei
literele
literelor
liternet
lithuania
litiu
litoral
litoralul
litri
litte
little
littlefield
lituania
lituanian
lituaniana
lituaniei
lituaniene
liturghia
liturghie
liu
liudmila
liv
livada
live
liverpool
lives
livezi
livezile
livia
living
liviu
livka
livr
livra
livrate
livre
lix
liz
lizards
ljubljana
ll
llc
ller
lloyd
lma
lmi
ln
lna
lneasca
lnes
lnesc
lng
lni
lniceanu
lnim
lnire
lnirea
lniri
lnirii
lnirile
lnit
lnita
lnite
lo
loc
local
locala
locale
locali
localita
localitate
localitatea
localiza
localizare
localizarea
localizat
localizata
localizate
localnici
localnicii
localnicilor
localul
locas
locat
locke
locomotiva
locomotive
locotenent
locotenentul
loct
locui
locuia
locuiasca
locuiau
locuies
locuiesc
locuind
locuint
locuire
locuit
locuita
locuite
locuitoare
locuitor
locuitori
locuitorii
locuitorilor
locul
locului
locuri
locurile
locurilor
locus
locut
lodge
log
logan
logic
logica
logice
logistica
logo
logodit
logodna
logodnica
logofa
loi
loial
loialitate
loialitatea
loir
loire
loiret
lois
loja
lola
lombardia
london
londra
londrei
lonely
long
longitudinal
longitudine
longman
look
looking
lopa
lopez
lor
lord
lordul
lordului
loredana
lorena
lorenz
lorenzo
lori
lorraine
los
loss
lost
lot
lothar
lotrului
lotul
lotus
lou
louis
louise
louisiana
love
loveasca
lovers
loves
lovi
lovinescu
lovit
lovita
lovitura
lovituri
loviturii
loviturile
low
lowe
lower
loze
lp
lpa
lpi
lpii
ls
lt
lta
ltd
lticeni
lu
lua
luara
luare
luarea
luase
luat
luata
luate
luau
lublin
luc
luca
lucas
luce
luceafa
lucerna
luces
luchian
luci
lucia
lucian
luciano
lucien
lucifer
lucilia
lucire
lucirea
lucit
lucita
lucite
lucitoare
lucitor
luciu
lucius
lucky
lucra
lucrare
lucrarea
lucrat
lucrate
lucrau
lucreaza
lucret
lucreze
lucru
lucrul
lucrului
lucruri
lucrurile
lucrurilor
lucy
ludovic
ludwig
luftwaffe
luga
lugoj
luhansk
lui
luie
luigi
luis
luisa
luise
luit
luita
luiza
luka
lukas
luke
lul
lului
luma
lume
lumea
lumei
lumi
lumie
lumii
lumina
luminat
luminata
luminate
lumineaza
lumini
luminii
luminile
luminit
luminoasa
luminoase
luminos
luna
lunar
lunara
lunare
lunca
lund
lung
lunga
lungi
lungime
lungimea
lungimi
lungimii
lungmetraj
lungu
lungul
luni
lunii
lunile
lup
lupa
lupas
lupi
lupii
lupin
lups
lupta
luptat
luptau
lupte
luptei
luptele
luptelor
lupu
lupul
lupului
lupus
lus
lusignan
lut
luterana
luterani
luther
lutz
luvru
lux
luxembourg
luxemburg
luz
lv
lva
ly
lycosa
lycosidae
lyi
lymantria
lynch
lynn
lynx
lyon
lzire
lzirea
lzit
lə
m
ma
maas
mac
macar
macarie
macbeth
macdonald
macedonean
macedoneana
macedonia
macedoniei
macedonski
machiavelli
machine
mack
mackenzie
macmillan
macovei
mactutor
mad
mada
madagascar
madam
madame
made
madeleine
madison
madonna
madonnei
madrid
mae
maes
maestru
maestrul
maestrului
mafia
mafiei
maftei
mag
magazin
magazine
magazinele
magazinul
magda
magdalena
magellan
maggie
magh
maghiar
maghiara
maghiare
maghiari
maghiarii
maghiarilor
magia
magic
magica
magice
magie
magistrala
magistrat
magna
magnat
magnet
magnetic
magnetica
magnetice
magneziu
magnificul
magnitudine
magnitudinea
magnolia
magnum
magnus
magyar
mahala
mahalaua
mahler
mahmud
mahomed
mai
maia
maica
maici
maicii
maidan
maier
mail
maimut
main
maine
mainstream
mainz
maior
maiorescu
maiorul
mais
maison
major
majora
majore
majorita
majoritar
majoritara
majoritate
majoritatea
make
maker
makes
making
mal
mala
malaezia
malawi
malaysia
malcolm
maldive
male
mali
malik
mall
malla
malloch
mallorca
malta
malti
malul
maluri
malurile
mama
mamaia
mame
mamei
mamelucii
mamifer
mamifere
mammal
mammals
man
mana
management
managementul
managementului
manager
managerul
manastirea
mancha
manche
manchester
mandat
mandate
mandatul
mandatului
mane
manea
manet
manevra
manevre
manfred
manga
mangalia
mangan
manhattan
mani
mania
maniera
manifest
manifesta
manifestare
manifestarea
manifestat
manifestata
manifeste
manifestul
manii
manilor
manipula
manipularea
maniu
mann
mannheim
manolache
manole
manolescu
mans
manson
mansur
manta
mantaua
mantova
manu
manual
manuala
manuale
manualul
manuel
manul
manului
manuscris
manuscrise
manuscrisele
manuscrisul
many
mao
map
maplandia
mapping
maps
mar
mara
maram
maramures
maranha
maraton
marburg
marc
marca
marcat
marcata
marcate
marcator
marcel
marcello
march
marche
marcheaza
marchiz
marchizul
marco
marcos
marcu
marcus
mare
marea
marek
marele
marelui
mares
marfa
marga
margaret
margareta
margarita
margine
marginea
margini
marginile
margot
margraf
marguerite
mari
maria
mariajul
marian
mariana
marianne
mariano
marie
mariei
marii
marile
marilor
marilyn
marin
marina
marinar
marinari
marinarii
marine
marinei
marinescu
marini
marinizilor
marino
mario
marion
marioneta
marit
maritim
maritima
maritime
maritimes
marius
mark
market
marketing
markgraf
marko
marks
markus
marlborough
marmat
marmura
marne
maro
maroc
maroniu
marriage
married
mars
marseille
marsh
marshall
marsilia
mart
marta
marte
martes
martha
marti
martie
martin
martinez
martir
martiri
martor
martori
martorii
marty
marvel
marvin
marx
marxist
mary
maryland
mas
masa
masacrul
masca
mascat
mascul
masculi
masculii
masculin
masculina
masculine
masculul
mase
masei
masele
maselor
masera
masiv
masiva
masive
masivul
masivului
mask
mason
mass
massachusetts
massacre
massimo
master
masterat
masters
masud
mat
mata
mataram
matca
match
matches
mate
mateescu
matei
matematic
matematica
matematice
matematici
matematician
matematicianul
matematicienilor
matematicii
mater
materia
material
materiala
materiale
materialele
materialelor
materials
materialul
materialului
materie
materiei
materii
matern
materna
math
mathbb
mathbf
mathcal
mathematical
mathematics
mathias
mathieu
mathrm
mathworld
matia
matilda
mato
matrice
matricea
matrix
matt
matteo
matter
matthew
matthews
matthias
matur
matura
maturitate
maurice
mauritania
mauritius
maurizio
mauro
mausoleul
mavrocordat
max
maxi
maxim
maxima
maxime
maximilian
maximum
maximus
maxwell
may
maya
mayas
mayenne
mayer
mayo
mayor
maza
mazilu
mb
mba
mbe
mbes
mbet
mbetul
mbi
mbina
mbind
mbit
mbla
mboga
mbolna
mbovit
mbox
mbra
mbraca
mbu
mbuna
mc
mccarthy
mccartney
mcdonald
mcfarland
mcgraw
mclaren
mcmahon
md
mda
me
mea
mean
meaning
means
mearga
mecanic
mecanica
mecanice
mecanicii
mecanism
mecanisme
mecanismele
mecanismul
mecca
mechanics
mechanism
meci
meciul
meciului
meciuri
meciurile
meciurilor
mecklenburg
med
medal
medalia
medaliat
medalie
medaliei
medalii
media
mediafax
medial
mediala
mediana
medias
medic
medical
medicala
medicale
medicament
medicamente
medicamentele
medicamentelor
medicamentului
medici
medicii
medicilor
medicina
medicinale
medicine
medicinei
medicines
medico
medicul
medicului
medie
mediei
medien
medieval
medievala
medievale
medii
mediile
medina
meditat
mediterana
mediterane
mediteraneana
mediteraneene
mediteranei
mediterranean
mediu
mediul
mediului
medium
meet
meeting
meg
mega
megan
meglenoroma
mehedint
mehmed
mehmet
mei
mein
meinhard
meiningen
meir
mel
melanagromyza
melancolie
melanie
melbourne
mele
meleaguri
melinda
melissa
melodia
melodie
melodiei
melodii
melodiile
melody
member
members
membra
membrana
membre
membrele
membrelor
membri
membrii
membrilor
membru
membrul
memoirs
memoria
memorial
memoriala
memoriale
memorialul
memoriam
memorie
memoriei
memories
memorii
memoriile
memoriu
memory
memphis
men
mendes
menirea
menit
menita
menite
ment
mental
mentala
mentale
mentenant
mentor
meps
mer
mercedes
mercenari
mercia
mercur
mercury
mercy
mere
meredith
mereu
merg
merga
merge
mergea
mergeau
mergem
merget
mergi
meridiane
meridionali
meris
merit
merita
merite
meritele
meritul
merkmalen
merlin
meronia
merovingiana
merriam
mers
merse
mersul
mes
mesa
mesaj
mesaje
mesajele
mesajul
mesajului
mese
mesei
mesele
meseria
meserias
meserie
meserii
mesia
mesopotamia
message
messier
messina
mesteaca
mesteca
met
meta
metacritic
metafizica
metafora
metal
metale
metalelor
metalic
metalica
metalice
metallica
metalul
metan
metcalf
meteo
meteor
meteorit
meteorologice
meteorologie
method
methods
metoda
metode
metodei
metodele
metodelor
metraj
metri
metric
metrica
metro
metropolis
metropolitan
metropolitana
metropolitane
metrou
metroul
metroului
metru
metz
meu
meuse
mexic
mexican
mexicana
mexicane
mexico
mexicului
meyer
meyers
mez
mezo
mg
mgm
mhz
mi
mia
miai
miami
miaza
mic
mica
michael
michaels
michel
michelangelo
michele
michelle
michigan
mici
micii
micile
mick
mickey
micologul
micro
microni
microscopice
microsoft
mics
micu
micul
micului
micut
mid
mida
middle
midi
midnight
midway
mie
miei
miel
miercurea
miercuri
miere
mierea
mierla
mieszko
mieu
miez
miezul
mifflin
mig
might
migrat
migration
migratoare
migreaza
miguel
miha
mihaela
mihai
mihail
mihailovici
mihalache
mihnea
mihu
mii
miile
mijloace
mijloacele
mijloacelor
mijloc
mijlocas
mijlocie
mijlocii
mijlociu
mijlocul
mike
mikhail
miklo
mil
mila
milan
milano
mile
milenii
mileniu
mileniul
mileniului
miles
milescu
miliard
miliarde
milioane
milion
milit
milita
militant
militar
militara
militare
militari
militarii
militarilor
military
mill
mille
millennium
miller
million
millo
mills
milo
milos
milton
mimi
min
mina
minas
minaur
mincinos
minciuna
minciuni
mincu
mind
mine
minele
minelor
mineral
minerala
minerale
minereu
minerva
ming
minge
mingea
mini
miniatura
miniera
miniere
minim
minima
minime
minimum
minis
minister
ministerul
ministerului
ministru
ministrul
ministrului
ministry
minneapolis
minnesota
minogue
minor
minora
minore
minori
minorilor
minorita
minoritate
minoritatea
minorului
minsk
mint
mintala
mintale
minte
mintea
mintele
mintelor
minul
minunat
minunata
minunate
minune
minunea
minuni
minunile
minus
minut
minute
minutes
minutul
mio
mioara
miorit
mioveni
mir
mira
miracle
miracol
miranda
mirare
mirat
mircea
mire
mirea
mireasa
mirel
mirela
miresei
miriam
miron
miros
miroslav
mirosul
mirror
mis
misionar
misiune
misiunea
misiuni
misiunii
misiunile
misiunilor
miss
missing
mission
mississippi
missouri
mister
misterele
misterioasa
misterioase
misterios
misterul
mistic
mistica
mistice
mistret
mit
mita
mitch
mitchell
mite
mitica
mitologia
mitologic
mitologice
mitologie
mitraliera
mitraliere
mitropolia
mitropoliei
mitropolit
mitropolitana
mitropolitul
mitropolitului
mitsubishi
mitteleuropas
mitul
mituri
miturile
mix
mixt
mixta
mixte
miz
miza
mizeria
mizerie
mizi
mizil
mj
mk
ml
mla
mlas
mm
mmediu
mn
mnicu
mnicului
mo
moale
moara
moare
moarta
moarte
moartea
moas
mobil
mobila
mobile
mobilier
mobilitate
mobiliza
mobilizare
mobilizarea
mobilizat
mocanu
mod
moda
modalita
modalitate
mode
model
modelarea
modelat
modele
modelele
modelelor
models
modelul
modelului
modena
moderat
moderata
moderate
modern
moderna
moderne
moderni
moderniza
modernizare
modernizarea
modernizat
modest
modesta
modeste
modifica
modificare
modificarea
modificat
modificata
modificate
modifice
modul
module
modului
modulul
moduri
moga
moghila
mogos
mohamed
mohammad
mohammed
moi
moines
moise
moisei
moisescu
moisil
mojo
mol
moldo
moldova
moldovan
moldovean
moldoveanu
moldovei
moldoveneasca
moldovenes
moldovenesc
moldoveni
moldovenii
moldovenilor
molecula
molecular
moleculara
moleculare
molecule
moleculele
molid
molie
molii
molly
molotov
molus
moma
moment
momentan
momente
momentele
momentul
momentului
mon
mona
monaco
monahal
monarch
monarh
monarhia
monarhie
monarhiei
monarhii
monarhul
monarhului
monday
monde
mondial
mondiala
mondiale
mondo
moneda
monede
monedei
monedele
monedelor
monet
moneta
monetar
monetara
monetare
money
mongol
mongola
mongole
mongolia
mongolii
monica
monitor
monitorizare
monitorizarea
monitorul
monitoruljuridic
monografia
monografie
monografii
monopolul
monroe
mons
monsieur
monster
monsters
monstru
monstrul
mont
montaj
montan
montana
montane
montat
montata
montate
monte
montenegro
montferrat
montgomery
month
monthly
montpellier
montre
montreal
montreux
monument
monumental
monumentala
monumentale
monumente
monumentele
monumentelor
monuments
monumentul
monumentului
moon
moons
moore
mor
mora
moral
morala
morale
moralul
morar
morariu
moraru
moravia
morbihan
morchella
mordellistena
more
moreau
morel
moreno
morgan
mori
moriarty
morii
moritz
morma
mormi
morminte
mormintele
morning
morris
morrison
morse
mort
mortal
mortalita
mortem
morton
moruzi
mos
moschee
moscheea
moschei
moscova
moscovei
moscow
moser
moses
moshe
moson
moss
most
mot
mother
motion
motiv
motiva
motivat
motive
motivele
motivul
motoare
motoarele
motoarelor
motor
motors
motorul
motorului
motru
motto
mount
mountain
mountains
mouse
move
movement
movie
movies
movila
movile
moving
mozaic
mozaici
mozambic
mozart
mozilla
mp
mpa
mpart
mparta
mparte
mpeanu
mperechere
mpi
mpia
mpie
mpiedica
mpiedicat
mpiedice
mpiei
mpii
mpiile
mpina
mpinarea
mpinat
mpinga
mpinge
mpins
mpla
mplare
mplarea
mplase
mplat
mple
mplineasca
mplines
mplini
mplinirea
mplinirii
mplinit
mpodobit
mpodobita
mpodobite
mpotriva
mpra
mprejur
mprejura
mprejurare
mprejurimi
mprejurimile
mprejurul
mpreuna
mprietenit
mproprieta
mprumut
mprumuta
mprumutat
mprumutate
mprumuturi
mpul
mpului
mpulung
mpuri
mpurile
mpurilor
mpus
mput
mr
mrs
ms
mt
mta
mtoarea
mtsho
mtv
mu
muban
mucenic
mucenici
much
muchii
mugur
muhammad
muiere
mul
muller
mult
multa
multe
multele
multi
multimedia
multinat
multipla
multiplayer
multiple
multiplu
multitudine
multor
multora
muma
mun
munca
munceasca
munces
munchen
munci
muncii
muncit
muncitoare
muncitor
muncitores
muncitoresc
muncitori
muncitorii
muncitorilor
mundi
mundo
munhumutapa
munich
municipal
municipala
municipale
municipalita
municipalitate
municipalitatea
municipality
municipii
municipiilor
municipiu
municipiul
municipiului
munit
munt
munte
muntean
munteanu
muntele
muntelui
muntenegreana
muntenegru
muntenegrului
munteni
muntenia
munteniei
muntii
muntoasa
muntoase
muntos
munzinger
mur
mura
murad
murala
murale
murat
murda
murdar
murdare
murder
mures
muri
murind
murise
murit
murmura
murphy
murray
mus
musa
musca
muscel
muscidae
musculara
musculare
musculus
muse
museo
museum
music
musica
musical
musik
musique
muslim
mussolini
must
musta
mustafa
mustat
mustra
musulman
musulmana
musulmane
musulmani
musulmanii
musulmanilor
mut
muta
mutant
mutare
mutarea
mutat
mutata
mutate
mute
muz
muza
muzeal
muzee
muzeelor
muzeu
muzeul
muzeului
muzica
muzical
muzicala
muzicale
muzician
muzicianul
muzicieni
muzicii
muzicolog
mvp
mw
mx
my
myanmar
mycobank
mycologica
mydaea
myers
myrmarachne
myspace
mysterious
mystery
myth
mə
n
na
nabla
nac
nach
nacional
nacionalna
nad
nada
nadal
nadia
nae
nages
nagy
nai
nainta
naintare
naintarea
naintas
naintat
naintata
naintate
nainte
naintea
nainteaza
nainteze
naiv
naiva
nakamura
naked
nal
nala
nalt
nalta
nalte
naltei
naltul
nam
name
named
names
namibia
namur
nan
nana
nancy
nansen
nantes
naomi
naos
naosul
naosului
napoca
napoi
napole
napoleon
napoleoniene
napoli
nar
nara
narat
narativ
narator
naratorul
narcis
nare
narea
narmat
narmate
naruto
nas
nasa
nasc
nasca
nase
naseljima
nash
nasir
nasr
nassau
nasul
nat
nata
natal
natala
natale
natalia
natalie
nate
nathan
nathaniel
nation
national
nationala
nationale
nationalism
nations
nativ
nativa
native
nativi
nato
natul
natur
natura
natural
naturala
naturale
naturali
naturalist
nature
naturelle
naturii
nau
naum
nautilus
nava
naval
navala
navale
navarra
navarrei
nave
navei
navele
navelor
naveta
naviga
navigat
navigator
navy
nazaret
nazi
nazionale
nazis
nazist
nazista
naziste
nb
nba
nbc
nc
nca
ncadra
ncadrat
ncadrata
ncadreaza
ncalca
ncape
ncarca
ncarcerat
ncare
ncarea
ncasa
ncasat
ncat
ncata
nce
nceana
nceanu
nceapa
ncearca
ncene
ncep
ncepa
ncepe
ncepea
ncepeau
ncepere
nceperea
ncepi
ncepu
ncepura
ncepuse
ncepusera
nceput
nceputa
ncepute
nceputul
nceputului
nceputuri
nceputurile
ncerc
ncerca
ncercare
ncercarea
ncercat
ncercau
ncerce
nces
ncescu
ncet
nceta
ncetare
ncetarea
ncetat
nceteaza
nceteze
ncetul
ncheia
ncheiat
ncheiata
ncheiate
ncheie
ncheierea
nchen
nchez
nchid
nchida
nchide
nchidere
nchiderea
nchina
nchinat
nchinata
nchine
nchipui
nchipuit
nchiriat
nchis
nchisa
nchise
nchisoare
nchisoarea
nchisori
nchisorii
nchiza
nci
ncii
ncila
ncile
ncilor
ncime
ncimea
ncimi
ncins
ncit
ncles
nclina
nclinare
nclinat
nclinata
ncoace
ncoase
ncolo
ncolt
nconjoara
nconjura
nconjurat
nconjurata
ncorona
ncoronarea
ncoronat
ncorporat
ncorporata
ncorporate
ncorporeaza
ncos
ncotro
ncoveanu
ncredere
ncrederea
ncredint
ncremenit
ncrenga
ncret
ncreza
ncrucis
ncu
ncul
nculescu
ncuraja
ncurajarea
ncurajat
ncurajeaza
ncurca
ncurcat
ncus
ncut
ncuviint
nd
nda
ndata
ndatoririle
nde
ndea
ndeajuns
ndeam
ndeamna
ndeaproape
ndeasca
ndelung
ndelungat
ndelungata
ndelungate
ndema
ndemn
ndemna
ndemnat
ndemnul
ndeosebi
ndepa
ndeplineasca
ndeplines
ndeplinesc
ndeplini
ndeplinind
ndeplinire
ndeplinirea
ndeplinit
ndeplinite
nder
ndes
ndesc
ndet
ndez
ndi
ndigen
ndim
ndind
ndindu
ndire
ndirea
ndirii
ndise
ndit
ndita
ndite
nditor
ndoi
ndoiala
ndoit
ndor
ndoua
ndra
ndre
ndreapta
ndrepta
ndreptat
ndreptata
ndreptate
ndrepte
ndri
ndria
ndrie
ndru
ndruma
ndrumare
ndrumarea
ndrumat
ndu
nduiala
nduios
nduit
ndul
ndului
ndunica
ndura
ndurat
nduri
ndurile
ndurilor
ndus
ndut
nduta
ndute
ndva
ne
nea
neacs
neadeva
neag
neaga
neagoe
neagra
neagu
neagul
neal
neam
neamt
neamul
neamului
neamuri
neamurile
nean
neanu
neapa
neapole
neapolelui
near
nearticulat
neas
neasa
neasca
neasta
neata
neau
neava
neaza
neba
nebraska
nebula
nebuloasa
nebun
nebuna
nebuni
nebunia
nebunie
nebunul
nec
neca
necat
necaz
necazuri
necazurile
necesar
necesara
necesare
necesari
necesita
necesitat
necesitate
necesitatea
neci
necii
neclintit
necomestibil
necomparabil
necondit
necontenit
necorespunza
necredincios
necreditat
necropola
neculai
neculce
necunoscut
necunoscuta
necunoscute
ned
nedelcu
nederland
nederlands
nedrept
nedrepta
nedreptate
need
neerlandez
neerlandeza
neerlandeze
nefavorabile
nefericire
nefericit
nefericita
nefiind
nefunct
nega
negat
negativ
negativa
negative
neglijent
negociat
negocieri
negocierile
negocierilor
negocieze
negoit
negot
negre
negrea
negres
negri
negro
negru
negrul
negruzzi
negura
negustor
negustori
negustorii
negustorilor
negustorul
negut
nehota
nei
neil
neill
nel
nela
nele
nelinis
nelly
nelor
nelson
nelu
nem
nema
nemanja
nement
nemes
nemira
nemis
nemt
nemult
nen
nene
nenea
neni
nenorocire
nenorocirea
nenorocit
nenorocita
nenuma
neo
neobis
neoficial
neogreaca
neolitic
neolitica
nepa
nepal
nepenthes
nepla
nepoata
nepomuk
nepot
nepotul
nepotului
nepreva
neptun
neputa
neputincios
neputint
ner
nera
nerecunoscuta
neregulat
neregulata
neregulate
nereus
nero
nerus
nervi
nervoasa
nervoase
nervos
nervul
nes
nesa
nesc
nescu
nesfa
nesigurant
nesimt
nespus
nespusa
nestor
net
neta
nete
neted
neteda
netede
netezi
netflix
netherlands
network
networks
neu
neue
neuer
neumann
neustadt
neutra
neutralitate
neutre
neutroni
neutru
neva
nevada
nevasta
never
nevertebrate
neville
nevinova
nevinovat
nevoi
nevoia
nevoie
nevoile
nevoilor
nevoit
nevoita
new
newcastle
newman
news
newsletter
newspaper
newsweek
newton
next
nez
nfa
nfiint
nfiora
nfipt
nfl
nfla
nflores
nflorire
nflorit
nfra
nfricos
nfrumuset
nfrunta
nfruntat
nfrunte
nfuriat
ng
nga
ngaci
ngc
nge
ngea
ngeau
ngele
ngelui
nger
ngera
ngere
ngerea
ngerei
ngeri
ngerii
ngerile
ngerilor
ngeroasa
ngeroase
ngerul
nghet
nghit
ngi
ngo
ngra
ngriji
ngrijire
ngrijirea
ngrijit
ngrijita
ngrijora
ngrijorare
ngrijorat
ngropa
ngropat
ngropata
ngropate
ngros
ngrozit
ngrozitoare
ngrozitor
ngua
ngust
ngusta
nguste
nguyen
nh
nha
nhumat
ni
nia
nic
nica
nicaragua
niccolo
nice
niceea
niceri
nichel
nichifor
nichita
nicholas
nichols
nicholson
nicht
nici
nicidecum
nicio
niciodata
niciun
niciuna
niciunul
nick
nickelodeon
nico
nicoara
nicodim
nicola
nicolae
nicolaescu
nicolai
nicolas
nicolau
nicolaus
nicole
nicolescu
nicoleta
nicolson
nicu
nicula
niculae
niculescu
nie
niei
niels
nielsen
nien
nietzsche
nig
nigel
niger
nigeria
night
nightmare
nights
nigra
nii
nik
nikita
nikki
nikola
nikolai
nikolaus
nil
nila
nile
nilor
nilului
nima
nime
nimea
nimeni
nimerit
nimic
nimica
nimii
nin
nina
nind
nindu
nine
nineteenth
ninja
nino
nintendo
nio
nios
nire
nirea
nirii
nirvana
nis
nisa
nisip
nisipul
nisipuri
nism
nisporeni
nist
nistor
nistrene
nistru
nistrului
nit
nita
nite
nitoare
nitra
niv
nivel
nivele
nivelul
nivelului
niveluri
nivelurile
nivka
nixon
nj
njeni
njuma
njura
nk
nka
nkvd
nl
nla
nlocui
nlocuiasca
nlocuies
nlocuind
nlocuindu
nlocuire
nlocuirea
nlocuit
nlocuita
nlocuite
nlocuitor
nm
nma
nme
nmorma
nmult
nna
nnoit
no
noah
noapte
noaptea
noastra
noastre
nobel
nobelprize
nobil
nobila
nobile
nobili
nobiliara
nobiliare
nobilii
nobililor
nobilimea
nobilimii
noble
noblet
nocturna
nocturne
nod
nodul
noduri
nodurile
noe
noel
noi
noica
noiembrie
noii
noile
noilor
noir
noire
noiu
nokia
nolan
nom
nomenclatura
nomenclature
nominal
nominala
nominaliza
nominalizare
nominalizat
nominalizata
nominations
nominativ
nominees
non
nopt
nor
nora
norbert
nord
nordic
nordica
nordice
nordul
nordului
norfolk
norge
nori
norii
norilor
norma
normal
normala
normale
norman
normand
normanda
normandia
normative
normdatei
norme
normele
normelor
noroc
norocul
noroi
norops
norris
norsk
norte
north
northern
norton
norul
norvegia
norvegian
norvegiana
norvegiei
norvegiene
norway
norwegian
nos
nostalgia
nostru
not
nota
notabil
notabila
notabile
notabili
notable
notar
notat
notata
notate
note
noteaza
notele
notes
nothing
notices
notit
notre
nottara
nottingham
nou
noua
noul
noului
nous
nouta
noutate
nouveau
nouvelle
nouvelles
nov
nova
novac
novak
nove
novel
november
novembre
novgorod
novi
novo
now
np
npr
nr
nra
nregistra
nregistrare
nregistrarea
nregistrasera
nregistrat
nregistrata
nregistrate
nregistreaza
nregistreze
nrolat
nros
nrudit
nrudita
nrudite
ns
nsa
nsca
nscrie
nscris
nscrisa
nscrise
nse
nseamna
nsele
nsemna
nsemnat
nsemnata
nsemnate
nsemne
nsemneaza
nski
nsot
nspa
nspre
nsta
nster
nstra
nsuflet
nsul
nsumi
nsura
nsurat
nsus
nsut
nt
nta
ntare
ntarea
ntat
ntata
ntate
ntau
nte
ntec
ntece
ntecele
ntecelor
ntecul
ntecului
ntei
nteia
nteie
ntem
ntemeiat
ntemeiata
ntemeiate
ntemeiaza
ntemeierea
ntemeietorul
ntemnit
nteni
nter
ntes
ntet
nther
nti
ntind
ntinde
ntindea
ntindere
ntinderea
ntins
ntinsa
ntinse
ntinza
ntoarca
ntoarce
ntoarcem
ntoarcere
ntoarcerea
ntoarsa
ntoarse
ntocmai
ntocmirea
ntocmit
ntocmita
ntorc
ntorca
ntorcea
ntorceau
ntorci
ntors
ntotdeauna
ntova
ntr
ntra
ntre
ntreaba
ntreaga
ntreb
ntreba
ntrebare
ntrebarea
ntrebat
ntrebe
ntrebi
ntrebuint
ntrece
ntrecut
ntreg
ntregi
ntregii
ntregime
ntregirea
ntregul
ntregului
ntreprinde
ntreprindere
ntreprinderea
ntreprinderi
ntreprinderii
ntreprinderile
ntreprinderilor
ntreprins
ntreprinse
ntreprinza
ntrerupa
ntrerupe
ntrerupere
ntreruperea
ntreruperi
ntrerupt
ntrerupta
ntrerupte
ntret
ntrista
ntru
ntruca
ntruna
ntrunire
ntrunit
ntu
ntui
ntuire
ntuirea
ntuirii
ntuit
ntuitorul
ntuitorului
ntul
ntului
ntuneca
ntunecat
ntunecata
ntunecate
ntuneric
ntunericul
ntunericului
nturi
nturile
nturilor
nu
nuant
nuca
nuci
nuclear
nucleara
nucleare
nuclee
nucleu
nucleul
nucleului
nui
nuia
nuiala
nuiele
nuies
nuiesc
nuit
nuita
nuite
nul
nului
numa
numai
numaideca
numar
numarul
number
numbers
nume
numea
numeasca
numeau
numele
numelor
numelui
numere
numerele
numerelor
numeric
numerica
numerice
numeroasa
numeroase
numeroasele
numeroaselor
numeros
numerotate
numes
numesc
numi
numim
numind
numindu
numire
numirea
numiri
numismatica
numit
numita
numite
numitele
numitul
nun
nunt
nunta
nunte
nuntul
nur
nuri
nus
nut
nutrient
nutrit
nuvela
nuvele
nuvelei
nv
nva
nvat
nvechit
nvecina
nvecinate
nvecineaza
nvelis
nvelit
nvers
nvestit
nvet
nvi
nviat
nvie
nvierea
nvierii
nvinga
nvinge
nvins
nvinsa
nw
ny
nya
nye
nyei
nyelv
nyi
nytimes
nyve
nz
nza
nzare
nzarea
nze
nzei
nzele
nzestrat
nzestrata
nzi
nzura
nzurat
nə
o
oa
oaia
oaie
oak
oala
oameni
oamenii
oamenilor
oana
oancea
oapte
oara
oarba
oare
oarecare
oarece
oarecele
oareci
oarecum
oarei
oarele
oas
oasa
oase
oasele
oaselor
oaspet
oaspete
oaste
oastea
ob
oba
obama
obba
obi
obicei
obiceiul
obiceiuri
obiceiurile
obiceiurilor
obiect
obiecte
obiectele
obiectelor
obiectiv
obiectiva
obiective
obiectivele
obiectivelor
obiectivul
obiectul
obiectului
obis
obituary
object
objects
obliga
obligat
obligata
obligate
obligatorie
obligatorii
obligatoriu
oboseala
obosit
obra
obrajii
obraz
obrazul
obs
obscura
observa
observare
observarea
observat
observata
observate
observations
observator
observatori
observatorul
observatorului
observatory
observe
observer
obstacol
obstacole
obstruct
obt
obyvatel
oc
oca
ocara
ocat
ocazia
ocazie
ocazii
ocazional
occident
occidental
occidentala
occidentale
occidentali
occidentului
occitan
occitana
occupation
ocean
oceanelor
oceania
oceanic
oceanul
oceanului
och
ochelari
ochi
ochii
ochilor
ochiul
ochiului
oclc
ocna
ocnit
ocol
ocolul
ocrotirea
ocru
oct
octav
octave
octavian
october
octombrie
ocular
ocupa
ocupant
ocuparea
ocupat
ocupata
ocupate
ocupau
ocupe
od
oda
odaia
odaie
odata
odeon
oder
odesa
odessa
odihna
odihneasca
odihnes
odinioara
odiseea
odiseu
odo
odobescu
odyssey
oeis
of
ofensiva
ofensive
ofensivei
ofer
ofera
ofere
oferea
oferi
oferind
oferindu
oferit
oferita
oferite
oferta
oferte
oferul
off
office
officer
official
officiel
oficial
oficiala
oficiale
oficiali
oficialii
oficialita
oficiu
oficiul
oficiului
ofit
ofta
og
oga
ogcodes
oglinda
oglinzi
ograda
ographique
oh
ohio
oi
oil
oile
oilor
oim
oimul
ois
oise
oituz
oiu
ok
oklahoma
oktobar
ol
ola
olaf
olanda
olandei
olandez
olandeza
olandeze
olandezi
olaru
old
olda
oldenburg
ole
oleg
oleksandrivka
olga
oli
olimp
olimpia
olimpiada
olimpic
olimpica
olimpice
oliveira
oliver
olivia
olivier
olsen
olt
oltchim
oltean
olteanu
oltenia
olteniei
oltenit
oltului
olympedia
olympia
olympic
olympics
om
oma
omagiu
omajului
oman
omar
omega
omeneasca
omenes
omenesc
omenie
omenire
omenirea
omenirii
omer
omnia
omoara
omoare
omonim
omonima
omonime
omor
omora
omori
oms
omul
omule
omului
on
once
one
ones
onesia
onest
ong
online
only
onoare
onoarea
onom
onorat
onore
onorific
onoruri
ons
ont
ontario
ontology
onu
op
opa
opel
open
opening
opens
opera
operare
operat
operate
operation
operations
operator
operatori
operatorii
operatorname
operatorul
opere
opereaza
operei
operele
operelor
opereta
ophiomyia
opinia
opinie
opiniei
opinii
opiniile
opinion
oponent
oportunita
oportunitate
opozant
opozit
oppenheimer
oprea
opreasca
opres
opresc
oprescu
opri
oprindu
oprire
oprirea
opris
oprit
oprita
oprite
ops
opt
opta
opti
optic
optica
optice
optima
optimi
optsprezece
optulea
optzeci
opun
opuna
opune
opus
opusa
opuse
or
ora
oradea
oral
orala
orale
orange
orania
orar
oras
orasul
orasului
orat
orator
orb
orba
orban
orbi
orbit
orbita
orbital
orbitala
orbitale
orbite
orbiteaza
orbitei
orchestra
orchestrat
orchestre
orchestrei
order
orders
ordin
ordinaires
ordine
ordinea
ordinele
ordinelor
ordinii
ordinul
ordinului
ordona
ordonant
ordonat
ordonata
ordonate
ordre
ore
oregon
orei
orele
orelor
orez
orfan
orfeu
org
orga
organ
organe
organele
organelor
organic
organica
organice
organici
organisation
organism
organisme
organismele
organismelor
organismul
organismului
organiza
organizare
organizarea
organizat
organizata
organizate
organization
organizator
organizatorii
organizeaza
organizeze
organul
orhei
ori
orica
oricare
orice
orici
oricine
oricui
oricum
orient
orienta
oriental
orientala
orientale
orientales
orientali
orientalis
orientare
orientarea
orientat
orientata
orientate
orientul
orientului
origin
original
originala
originale
originalitate
originals
originalul
originalului
originar
originara
originare
originari
origine
originea
origini
originii
originile
origins
orii
orion
oris
oriunde
orizont
orizontal
orizontala
orizontale
orizontul
orizonturi
orlando
orle
orleans
ornament
ornamentale
ornamentat
ornamente
orne
ornit
oro
orrell
ors
orson
orsza
ort
orthodox
ortodocs
ortodox
ortodoxa
ortodoxe
ortodoxiei
ortografia
ortografie
orton
oru
orul
orz
os
osa
osaka
osborne
oscar
oscars
osce
oscilat
osea
oseaua
osele
oselei
osi
osiris
oskar
oslo
osman
osmana
osoasa
osoase
osos
ospa
osprey
ostas
ostatici
osteneala
ostenit
ostile
ostilita
ostrogot
ostrov
osul
osului
oswald
ot
ota
other
others
otilia
otoman
otomana
otomane
otomani
otomanii
otomanilor
otopeni
otra
otrava
ottawa
otto
ottobre
ottokar
ottoman
ou
oua
ouest
oul
our
out
outer
outside
ouvrard
ov
ova
oval
ovan
over
overview
ovia
ovid
ovidiu
oviei
ovul
ovului
owen
owens
own
oxford
oxid
oxidare
oxigen
oxigenul
oxigenului
oyo
oz
ozn
p
pa
pablo
pac
pace
pacea
pachet
pachete
pachetele
pachetul
pacient
pacientul
pacientului
pacific
pacificului
paciurea
pack
package
packard
pact
pactul
pactului
pada
padova
padre
pag
pagan
page
pagename
pages
pagina
pagini
paginii
paginile
paginilor
paglinawan
paguba
pagube
pahar
paharul
pai
paie
pain
painting
pais
paisprezece
pajis
pakistan
pal
pala
palace
palais
palat
palate
palatele
palatin
palatinat
palatul
palatului
palazzo
pale
paleologilor
paleologul
palermo
palestina
palestine
palestinei
palestinian
palestiniana
palestiniene
palestinieni
paleta
palgrave
palid
palida
pallas
palm
palma
palmares
palmaresul
palme
palmer
palomar
palos
pamela
pamfil
pan
pana
panait
panaitescu
panama
panchen
panda
pandemia
pandemiei
pandora
pandulf
pandurii
panglica
panica
pann
panorama
panou
panouri
panta
pantaloni
pantazi
pante
pantele
pantelimon
pantera
panther
pantofi
panzer
paolo
papa
papahagi
papal
papala
papale
pape
papei
paper
paperback
papers
papi
papilian
papua
papura
par
para
parabola
parada
parade
paradigma
paradis
paradise
paradisul
paradox
paradoxul
paragraf
paraguay
parai
parale
paralel
paralela
paralele
parametri
parametrii
parametru
parametrul
paramount
parana
paranteze
paras
parascheva
paraschiv
paraschiva
parazit
parc
parca
parcare
parchetul
parcul
parcului
parcurge
parcuri
parcurs
parcursul
pardosa
pare
parea
parental
pareys
parfum
pari
parintele
paris
parisul
parisului
pariuri
park
parker
parkinson
parks
parlament
parlamentar
parlamentara
parlamentare
parlamentari
parlamentul
parlamentului
parliament
parma
parodie
paroh
parohia
parohiala
parohiale
parohie
parohiei
parohii
part
parte
partea
partener
partenera
parteneri
parteneriat
partenerii
partenerul
parter
parti
partial
participa
participant
participante
participare
participarea
participat
participe
participiu
particula
particular
particulara
particulare
particularita
particule
particulele
particulelor
partid
partida
partide
partidei
partidele
partidelor
partidul
partidului
parties
partit
partition
partizan
partizani
partizanii
partizanilor
partner
partners
parts
party
pas
pasa
pasageri
pasagerii
pasaj
pasaje
pasajul
pascal
pascu
pase
pasionat
pasiune
pasiunea
pasiv
pasiva
pass
passage
passion
past
pasta
paste
pastia
pastie
pastor
pastorala
pasul
pat
pata
pate
patent
paterna
path
patients
patima
patimi
patimile
patinaj
patologica
patra
patria
patriarh
patriarhal
patriarhala
patriarhia
patriarhiei
patriarhul
patriarhului
patricia
patriciu
patrick
patrie
patriei
patrimoniu
patrimoniul
patrimoniului
patriot
patriotic
patriotica
patriotice
patriotism
patron
patronajul
patronul
patru
patrula
patrulea
patruzeci
patterns
patterson
patton
patul
patului
paturi
pau
paul
paula
paulina
pauline
paulo
paulus
pauza
pava
pavare
pavel
pavelescu
pavia
pavilion
pavilionul
pay
payne
pays
paz
paza
paznic
pb
pbs
pc
pcr
pcrm
pcus
pd
pdf
pdl
pdm
pdsr
pe
pea
peace
peak
peaks
peanu
pearl
pearson
pec
pedagog
pedagogic
pedagogica
pedagogice
pedagogie
pede
pedeapsa
pedepse
pedepsei
pedepsi
pedepsit
pedro
peer
peerage
pegomya
peisagistica
peisaj
peisaje
peisajele
peisajul
peisajului
pele
pelerinaj
peles
pelicula
pelin
pen
penajul
penal
penala
penale
penalty
pene
penele
penguin
peninsula
peninsulei
penis
penisului
penitenciarul
penn
pennsylvania
penny
pensie
pensii
pensionare
pensionat
penticostali
pentr
pentru
pentruca
people
peoples
pepelea
per
percepe
percept
perceput
perceputa
perchezit
percut
percy
perdea
pere
pereche
perechea
perechi
pereira
peret
perete
peretele
peretelui
perez
perfect
perfecta
perfecte
performance
performant
peri
periclitate
pericol
pericolul
periculoasa
periculoase
periculos
periferia
periferice
perimetrul
perioada
perioade
perioadei
perioadele
period
periodic
periodica
periodice
peripet
peris
perkins
perla
perle
permanent
permanenta
permanente
permis
permisa
permise
permisiunea
permit
permita
permite
permitea
perna
perpendicular
perry
pers
persan
persana
persane
persecut
persecutat
persia
persic
persida
persista
persistent
persoana
persoane
persoanei
persoanele
persoanelor
person
personaj
personaje
personajele
personajelor
personajul
personajului
personal
personala
personale
personalita
personalitate
personalitatea
personality
personalul
personalului
personen
perspectiva
perspective
perspectives
pertoire
perturba
perturbat
peru
pes
pesca
pescar
pescari
pescuit
pescuitul
pesta
peste
pestrit
pet
petale
petcu
pete
petenia
petenie
peteniile
peter
peters
petersburg
peterson
petit
petite
peto
petr
petra
petrache
petras
petre
petrea
petreaca
petrec
petreca
petrece
petrecea
petrecere
petrecerea
petreceri
petrecut
petrecuta
petrecute
petres
petrescu
petri
petrica
petriceicu
petris
petrograd
petrol
petroliere
petrolul
petrolului
petros
petrov
petrovic
petrovici
petru
petrus
pez
pezii
pfalz
pg
pgc
ph
phane
phantom
phaonia
pharmacists
phase
phi
phil
philadelphia
philip
philipp
philippe
philippide
philips
phillip
phillips
philodromus
philosophical
philosophie
philosophy
phobos
phoenix
phone
photo
photos
php
phyllis
phylloscopus
phylogeny
phys
physical
physics
physiology
phytoliriomyza
phytomyza
pi
pia
piacenza
pian
pianist
pianista
piano
pianul
piara
piarda
piasti
piat
piata
piatra
piazza
pib
pic
pica
picard
picasso
picioare
picioarele
picioarelor
picior
piciorul
piciorului
pick
pict
picta
pictat
pictata
pictate
picteaza
picteze
pictor
pictori
pictorii
pictorilor
pictorit
pictorul
pictorului
pictura
picture
pictures
picturi
picturii
picturile
pie
piei
piele
pielea
pielii
piemont
piept
piepta
pieptul
pieptului
pier
pierce
pierd
pierde
pierdea
pierdere
pierderea
pierderi
pierderii
pierderile
pierderilor
pierduse
pierdut
pierduta
pierdute
piere
pieri
pierit
piero
pierre
piersic
pierza
piesa
piese
piesei
piesele
pieselor
piet
pieter
pietre
pietrei
pietrele
pietris
pietro
pietroasa
pietros
pigment
pila
pilda
pilot
pilotul
pilzatlas
pilzbuch
pilze
pilzfu
pin
ping
pini
pink
pinocchio
pintea
pintilie
pinus
pinyin
pio
pioneer
pionier
pios
piotr
pipa
piper
piramida
piramide
pirat
pirata
pirea
pis
pisa
pisania
pisanie
pisica
pisici
pista
piste
pistoale
pistol
pistolul
pit
pita
pitan
pitanul
pitanului
pites
pitic
pitica
pitice
pitoresc
pitt
pittsburgh
pitulicea
piu
pius
pivnit
pixeli
pizma
pizza
piłsudski
pl
pla
plac
placa
place
placebo
places
plagiat
plai
plain
plaiul
plaja
plaje
plan
plana
planck
plane
planet
planeta
planetar
planetary
planete
planetei
planetele
planetelor
planets
planifica
planificare
planificarea
planificat
planificata
planificate
planning
plans
plant
planta
plantagenet
plantarum
plantat
plante
plantei
plantele
plantelor
plants
planul
planului
planuri
planurile
planurilor
plasa
plasarea
plasat
plasata
plasate
plaseaza
plasma
plastic
plastica
plastice
plastici
plat
plata
plate
platform
platforma
platforme
platformei
platformele
platina
platinum
platnick
platon
platou
platoul
play
playboy
played
player
players
playing
plays
playstation
plaza
pldm
pleaca
plec
pleca
plecare
plecarea
plecase
plecat
plece
pleci
plenipotent
ples
plevna
pli
plimba
plimbare
plin
plina
pline
plini
ploaia
ploaie
ploi
ploies
ploile
plop
plopi
plos
ploua
plovdiv
plug
plumb
plural
plus
pluta
plutes
plutind
plutitoare
pluto
pluton
plymouth
pm
pmatrix
pmc
pmid
pnas
pnl
pnt
po
poala
poalele
poarta
poarte
poata
poate
poc
poca
pocket
pod
podaci
podcast
podea
podeaua
podgorica
podis
podium
podoaba
podoabe
podu
podul
podului
poduri
podurile
poe
poem
poeme
poemele
poems
poemul
poemului
poenaru
poet
poeta
poetic
poetica
poetice
poetry
poetul
poetului
poezia
poezie
poeziei
poezii
poeziile
pofida
pofta
poftes
poftim
poftit
pogora
pohl
poiana
poieni
point
points
poirot
poke
poker
pol
poland
polar
polara
polare
pole
polemica
polese
poli
police
policy
poliedre
poliedru
poligon
poligonala
polirom
polis
polish
polit
politehnic
politehnica
politet
politic
politica
political
politice
politici
politician
politiciana
politicianul
politicieni
politicienii
politicii
politicile
politicilor
politico
politics
politique
politisch
politop
polje
pollenia
polo
polon
polona
polone
polonez
poloneza
poloneze
polonezi
polonezii
polonezilor
poloni
polonia
poloniei
polono
polska
polski
poltava
poluare
poluarea
polul
polyalthia
polyhedra
polytopes
pom
pomana
pomenes
pomeni
pomenire
pomenirea
pomenit
pomerania
pomi
pompa
pompei
pompieri
pompierilor
pompiliu
pomul
pondere
ponderea
pont
ponta
ponte
pool
pop
popa
popas
pope
popes
popescu
popii
popoare
popoarele
popoarelor
popolazione
popor
poporul
poporului
popovici
popp
popper
popular
populara
populare
populari
popularita
popularitate
popularitatea
populat
populata
populate
population
por
porc
porci
porcii
porecla
poreclit
porneasca
pornes
pornesc
porni
pornind
pornira
pornire
pornit
porno
porsche
port
porta
portal
portalul
portant
portar
portarul
porte
porter
portit
portland
porto
portocalie
portocaliu
portofoliu
portofoliul
portrait
portret
portrete
portretele
portretul
portugal
portugalia
portugaliei
portughez
portugheza
portugheze
portughezi
portugue
portuguesa
portuguese
portul
portului
porturi
porturile
porumb
porumbel
porumbescu
porunca
porunces
porunci
poruncile
poruncit
pos
poseda
posedat
poseidon
posesia
posesiunile
posibil
posibila
posibile
posibilita
posibilitate
posibilitatea
position
positive
posomora
possible
post
posta
postal
postat
postav
postbelica
postbelice
postelnicul
posterioara
posterioare
posterior
postes
postfat
postit
postolache
postul
postului
postum
postuniversitare
postura
posturi
posturile
posturilor
pot
potabila
potasiu
potcoava
poteca
potent
potential
potoli
potop
potrives
potrivi
potrivit
potrivita
potrivite
potsdam
potter
pour
pova
povara
poves
poveste
povestea
povestes
povestesc
povesti
povestire
povestirea
povestiri
povestirii
povestirile
povestit
powell
power
powers
poz
poza
poze
pozit
pozitiv
pozitiva
pozitive
poznan
pp
pr
pra
practic
practica
practical
practicant
practicarea
practicat
practicata
practicate
practice
practici
practicile
prada
praf
praful
prag
praga
prague
pragul
prahova
prahovei
pratt
pravda
pre
prea
preah
preajma
prealabil
preca
precara
precaut
precedat
precedata
precede
precedent
precedenta
precedente
precinct
precipitat
precis
precisa
precise
preciza
precizat
precizeaza
precizia
precizie
precum
precursor
preda
predare
predarea
predat
predate
predea
predeal
predecesorul
predescu
predica
predicat
predicatul
predict
predilect
predomina
predominant
prefa
preface
prefat
prefect
prefectul
prefectului
prefectura
prefecturii
prefera
preferat
preferata
preferate
preferint
prefixul
prega
pregled
prei
preia
preistorice
prejudeca
prelegeri
preliminar
preliminara
preliminare
preliminary
prelua
preluare
preluarea
preluat
preluata
preluate
prelucra
prelucrare
prelucrarea
prelucrat
prelungire
prelungirea
prelungiri
prelungit
prelungita
prelungite
premerga
premiat
premiata
premier
premiera
premiere
premierei
premierul
premierului
premii
premiile
premiilor
premio
premisa
premiu
premiul
premiului
premysl
prentice
prenume
prenumele
preocupa
preocupare
preocuparea
preocupat
preot
preoteasa
preotul
preotului
prepara
prepararea
preparat
preparata
preparate
preponderent
prepozit
pres
presa
prescript
prescurtare
prescurtat
presei
present
presents
preservation
president
presidential
presimt
presiune
presiunea
presiuni
presiunii
presiunilor
press
presse
presses
prestat
preste
prestigioasa
prestigioase
prestigiu
prestigiul
preston
presupun
presupuna
presupune
presupunea
presupunem
presupus
presupusa
presus
pret
pretendent
pretent
pretext
pretextul
pretind
pretinde
pretins
pretty
pretutindeni
preva
prevede
prevedea
prevederi
prevederile
prevederilor
preveni
prevenire
prevenirea
prevention
preview
prezent
prezenta
prezentare
prezentarea
prezentat
prezentata
prezentate
prezentatoare
prezentator
prezente
prezentul
prezentului
prezice
prezidat
prezident
prezidiului
prezinta
prezinte
prezis
pri
price
pricep
pricepe
pricepere
priceput
pricina
pride
pridvor
pridvorul
pridvorului
priest
priestley
prieten
prietena
prietene
prieteni
prietenia
prietenie
prieteniei
prietenii
prietenilor
prietenos
prietenul
prietenului
prilej
prilejul
prim
prima
primar
primara
primare
primari
primarilor
primarul
primarului
primary
prime
primea
primeasca
primeau
primei
primejdia
primejdie
primele
primelor
primera
primes
primesc
primi
primii
primilor
primind
primire
primirea
primise
primit
primita
primite
primitiv
primitiva
primitive
primordial
primul
primului
prin
prince
princeps
princess
princeton
principal
principala
principale
principalele
principalelor
principali
principalii
principalul
principat
principate
principatele
principatelor
principatul
principatului
principe
principele
principelui
principesa
principii
principiile
principiilor
principiu
principiul
principiului
principles
prind
prinda
prinde
prinderea
prins
prinsa
prinse
print
printing
printr
printre
prinza
prioara
priorita
prioritate
pripa
pripadnost
pris
prisma
prison
prisos
prispa
privat
privata
private
privatizare
privea
priveasca
priveau
privelis
prives
privesc
privi
privighetoarea
privilegii
privilegiile
privind
privindu
privint
privire
privirea
priviri
privirile
privit
privita
privite
privitoare
privitor
prix
prize
prizes
prizonier
prizonieri
prizonierii
prizonierilor
prm
pro
proaspa
proaspete
proasta
proaste
proba
probabil
probabila
probabilita
probabilitate
probabilitatea
probe
probele
problem
problema
problematica
probleme
problemei
problemele
problemelor
problems
proc
proceda
procedat
procedee
procedeu
procedeul
procedura
proceduri
procedurii
procedurile
proceedings
procent
procente
procentul
proces
procesare
procese
procesele
proceselor
procesoare
procesor
process
procesul
procesului
proclama
proclamarea
proclamat
proclamata
procura
procuror
procurorii
procurorul
prodan
produc
produca
produce
producea
producer
producere
producerea
producerii
product
production
productions
products
produs
produsa
produse
produsele
produselor
produsul
produsului
proeminent
proeminenta
proeminente
prof
profesia
profesie
profesional
profesionala
profesionale
profesionis
profesionist
profesionista
profesioniste
profesoara
profesor
profesori
profesorii
profesorilor
profesorul
profesorului
professional
professionals
professor
profet
profetul
profetului
profil
profile
profiles
profilul
profit
profita
profitat
profitul
profund
profunda
profunde
profunzime
program
programa
programare
programarea
programat
programata
programate
programe
programele
programelor
programme
programming
programs
programul
programului
progres
progrese
progresiv
progresiva
progress
progresul
progresului
proiect
proiecta
proiectant
proiectare
proiectarea
proiectat
proiectata
proiectate
proiecte
proiectele
proiectelor
proiectile
proiectul
proiectului
project
projects
prolific
prometheus
promis
promise
promisiunea
promit
promite
promot
promotor
promova
promovare
promovarea
promovat
promovata
promovate
promoveaza
promoveze
pronaos
pronaosul
pronaosului
pronume
pronumele
pronunt
proof
propaga
propaganda
propagandei
properties
property
propice
proport
propova
propozit
propria
proprie
propriei
proprieta
proprietar
proprietari
proprietarii
proprietarilor
proprietarul
proprietarului
proprietate
proprietatea
proprii
propriile
propriilor
propriu
propriul
propriului
propulsie
propulsion
propun
propuna
propune
propunea
propunere
propunerea
propuneri
propunerile
propus
propusa
propuse
pros
prosper
prospera
prosperitate
prosport
prost
prostie
prostituata
prostitut
protagonis
protagonist
protagonistul
protect
protectedplanet
protection
protectoare
protector
proteina
proteine
proteinelor
proteja
protejarea
protejat
protejata
protejate
protejeaza
protejeze
protest
protesta
protestant
protestanta
protestante
protestat
protestatari
proteste
protestele
protestelor
proto
protocol
protocolul
protoni
protopop
protopopiatul
prototip
prototipul
protv
proust
provence
provenea
proveneau
proveni
provenient
provenind
provenit
provenita
provenite
provident
provin
province
provinces
provincia
provincial
provinciale
provincie
provinciei
provincii
provinciile
provinciilor
provine
provizii
provizorie
provizoriu
provoaca
provoace
provoca
provocare
provocat
provocata
provocate
proza
prozator
prozei
pru
prudent
pruncul
prusac
prusaca
prusia
prusiei
prut
prutul
prutului
ps
psd
pseudo
pseudonim
pseudonimul
psi
psihiatrie
psihiatru
psihic
psihica
psihice
psiholog
psihologia
psihologic
psihologica
psihologice
psihologie
psihologiei
psychiatric
psychiatry
psycho
psychological
psychology
pt
pta
ptolemeu
ptura
ptus
pu
pub
pubchem
public
publica
publicare
publicarea
publicat
publicata
publicate
publication
publications
publice
publici
publicist
publicistica
publicita
publicitate
publicul
publicului
publique
published
publisher
publishers
publishing
puccini
puerto
puf
pui
puie
puii
puilor
puiu
puiul
pulbere
pulberea
pulitzer
pulmonar
pulmonara
pulmonare
puma
pumn
pumnii
pumnul
pun
puna
punct
puncte
punctele
punctelor
punctul
punctului
pune
punea
puneau
punem
punere
punerea
punet
punga
pungi
punk
puns
punt
punte
puntea
pupa
pur
pura
purces
pure
purple
purpura
purta
purtare
purtarea
purtat
purtata
purtate
purtau
pururea
pus
pusa
puse
pusera
pusese
pustie
pustii
pustiu
put
puta
pute
putea
puteai
puteam
puteau
putem
putere
puterea
puteri
puterii
puterile
puterilor
puternic
puternica
puternice
puternici
putet
putin
putint
putna
putnam
putu
putut
puy
puzzle
pyeongchang
pyre
python
pə
q
qatar
qi
qing
qquad
qu
quad
qualifying
quality
quantum
quartal
quarterly
quatre
que
quebec
queen
queens
queensland
quelques
quentin
quercus
quest
question
questions
qui
quick
quickstats
quinn
quo
r
ra
rabbit
rabil
rabin
rabinul
rac
raca
race
rachel
racheta
rachete
rachetelor
rachiu
raci
racilor
racing
racovit
racul
rad
rada
radar
radial
radiat
radical
radicala
radicale
radicali
radio
radioactiv
radioactive
radiodifuziune
radiofonic
radu
raf
rafael
rafina
rage
rahman
rai
raid
raiduri
raie
rail
railway
rain
rainbow
rainer
raioane
raioanele
raion
raional
raionul
raionului
raiul
ral
rale
rally
ralph
raluca
ram
rama
ramaria
rame
rami
ramifica
ramificat
ramo
ramon
ramona
ramos
rampa
ramses
ramura
ramuri
ramurile
ran
rana
ranca
rand
randall
randolph
random
randy
rang
range
rangers
rangle
rangul
rani
ranii
ranilor
ranking
rankings
ranul
ranului
rao
raoul
rap
raphael
rapid
rapida
rapide
rapoarte
rapoartele
raport
raporta
raportat
raportata
raportate
raporteaza
raportul
raportului
raporturi
raporturile
rapper
rar
rara
rard
rare
rarea
rareori
rares
rari
ras
rasa
rasca
rase
rasei
rasiala
rasiale
rasmussen
rat
rata
ratat
rate
ratei
ratele
ratificat
rating
ratings
ration
ratul
ratului
rau
raul
rault
raven
ravenna
raw
ray
raymond
raza
razboi
raze
razele
razelor
rb
rba
rbat
rbatul
rbatului
rbe
rbes
rbesc
rbi
rbii
rbilor
rbo
rbocroata
rbos
rbu
rbulescu
rbune
rbunelui
rbuni
rc
rca
rcare
rcarea
rcat
rcata
rcate
rcea
rceanu
rci
rcii
rcile
rcina
rcinat
rcinata
rciuma
rculet
rd
rda
rdg
rdjali
rdoba
re
rea
reabilitare
reabilitarea
reach
react
reaction
reactor
read
reader
reading
readuce
readus
ready
reagan
real
reala
reale
reales
realism
realismul
realismului
realist
realista
realiste
realita
realitate
realitatea
reality
realiza
realizare
realizarea
realizat
realizata
realizate
realizator
realizeaza
realizeze
really
rean
reanu
reapa
reasa
reasca
reason
reasons
reat
reau
rebecca
rebel
rebeli
rebelii
rebelilor
rebeliune
rebeliunea
rebeliunii
rebreanu
rec
reca
rece
recea
recensa
recensement
recent
recenta
recente
recenzia
recenzie
recenzii
recept
receptor
rechemat
rechizit
reci
recipient
recipients
reciproc
reciproca
reciproce
recital
reclama
reclamat
reclame
recognition
recolta
recomanda
recomandarea
recomandat
recomandata
recompensa
recompensat
recompense
reconstruct
reconstruction
reconstruit
reconstruita
record
recorded
recording
recordings
records
recordul
recorduri
recrut
recrutare
recrutat
rector
recunoas
recunoasca
recunos
recunosc
recunosca
recunoscut
recunoscuta
recunoscute
recupera
recuperare
recuperarea
recuperat
recuperate
recupereze
recurge
recurs
red
reda
redact
redactarea
redactat
redactata
redactor
redactorul
redarea
redat
redate
redenumit
redenumita
redeschis
redevenit
redoba
reduc
reduca
reduce
reducere
reducerea
redus
redusa
reduse
reed
reeditare
reeditat
reeditata
ref
refa
reface
refacere
refacerea
refera
referea
reference
references
referendum
referendumul
referendumului
referi
referindu
referint
referire
referiri
referit
referitoare
referitor
refl
reflect
reflecta
reflectat
reflections
reflexie
reform
reforma
reformat
reformata
reformate
reforme
reformei
reformele
reformelor
refract
refren
refugiat
refugiaza
refugieze
refugiu
refuz
refuza
refuzat
refuzul
reg
rega
regal
regala
regale
regat
regate
regatul
regatului
rege
regele
regelui
regensburg
regent
regenta
reggio
reghin
regi
regia
regie
regii
regilor
regim
regiment
regimente
regimentele
regimentul
regimentului
regimul
regimului
regina
reginald
regine
reginei
region
regional
regionala
regionale
regioni
regions
regis
register
registration
registre
registrele
registru
registrul
registry
regiune
regiunea
regiuni
regiunii
regiunile
regiunilor
regizat
regizata
regizate
regizor
regizori
regizorul
regizorului
reglementa
reglementare
reglementarea
reglementeaza
regresiv
regret
regreta
regruparea
regula
regulament
regulamentul
regulamentului
regular
regulat
regulata
regulate
reguli
regulile
regulilor
rei
reia
reich
reid
reiese
reign
reigns
reilly
reims
reinhard
reinhold
reintra
reintrat
rel
relansat
relat
relata
relatare
relatarea
relatat
relateaza
related
relations
relationship
relationships
relativ
relativa
relative
relativita
rele
release
released
releases
relele
releva
relevant
relevante
relevat
relief
relieful
reliefului
religia
religie
religiei
religii
religiile
religiilor
religioasa
religioase
religion
religions
religios
religious
relua
reluarea
reluat
reluata
reluate
remake
remarca
remarcabil
remarcabila
remarcabile
remarcat
remarcata
remember
remix
remiza
remus
ren
rena
renaissance
renala
renania
renas
renascentist
renato
renault
rene
reni
rennes
renova
renovare
renovarea
renovat
renovata
renume
renumit
renumita
renumite
renumitul
renunt
reorganiza
reorganizare
reorganizarea
reorganizat
repara
repararea
reparat
reparata
repartit
repartizat
repaus
repede
reper
repere
repertoriu
repertoriul
repeta
repetarea
repetat
repetata
repetate
repetit
repezi
replica
replici
report
reportaj
reportaje
reporter
reports
represalii
representatives
represiune
reprezenta
reprezentant
reprezentantul
reprezentare
reprezentarea
reprezentat
reprezentata
reprezentate
reprezentativ
reprezentativa
reprezentative
reprezentau
reprezinta
reprezinte
reprint
reproduca
reproduce
reproducere
reproducerea
reprodus
repros
reptile
reptiles
reptilia
repubblica
republic
republica
republican
republicana
republicane
republicani
republicata
republici
republicii
reputat
requiem
rer
rere
rerea
reri
rerile
res
resc
rescu
research
reserve
resident
residente
resimt
resistance
resolution
resort
resource
resources
respect
respecta
respectarea
respectat
respecte
respectiv
respectiva
respective
respectul
resping
respinga
respinge
respingerea
respins
respinsa
respinse
respira
respirat
respirator
respiratorii
responsabil
responsabila
responsabile
responsabili
responsabilita
responsabilitate
responsabilitatea
response
responsible
rest
restabili
restabilirea
restabilit
restaura
restaurant
restaurante
restaurantul
restaurare
restaurarea
restaurat
restaurata
restra
restrict
restul
resturi
resturile
result
results
resurse
resursele
resurselor
ret
retail
rete
retezat
reticent
retipa
retorica
retra
retrag
retraga
retrage
retragere
retragerea
retragerii
retras
retrasa
retrase
retrieved
retro
retrograda
retrogradare
retrogradat
retrogradata
retrospectiva
retur
return
returns
reunes
reunit
reunite
reuniune
reuniunea
reus
reuters
rev
reva
revans
revarsa
revealed
reveals
revedere
revelat
revendica
revendicat
revenge
reveni
revenind
revenire
revenirea
revenit
revers
review
reviews
revin
revina
revine
revised
revision
revisited
revista
reviste
revistei
revistele
revistelor
revizuire
revizuirea
revizuit
revizuita
revolta
revoltat
revolte
revoltei
revolut
revolution
revolver
revue
rex
rey
reynolds
rez
rezerva
rezervat
rezervata
rezervate
rezerve
rezervele
rezervor
rezident
rezina
rezista
rezistat
reziste
rezistent
rezistenta
rezistente
rezolut
rezolva
rezolvare
rezolvarea
rezolvat
rezolvata
rezolvate
rezolve
rezonant
rezulta
rezultat
rezultata
rezultate
rezultatele
rezultatelor
rezultatul
rezuma
rezumat
rezumatul
rf
rfg
rfi
rful
rfului
rfuri
rfurile
rfurilor
rg
rga
rgele
rgen
rger
rgineanu
rginit
rginita
rgit
rgovis
rgu
rgul
rgului
rguri
rgus
rgy
rgya
rh
rhein
rhin
rho
rhode
rhodes
rhythm
ri
ria
riaa
ribbentrop
ric
rica
ricardo
riccardo
rice
riceanu
rich
richard
richards
richardson
richie
richmond
richter
rick
rico
ricordi
ride
rider
ridge
ridica
ridicare
ridicarea
ridicat
ridicata
ridicate
ridicau
ridice
ridicol
rie
riei
rien
rienne
riga
right
rightarrow
rights
rigid
rigida
riguros
rihanna
rii
riile
riilor
rile
riley
rilor
rim
rime
rimea
rimi
rimii
rin
rind
rindu
ring
rings
rinichi
rint
rinte
rinteasca
rintele
rintelui
rintes
rinului
rio
rire
rirea
riri
ririi
ris
risc
risca
riscul
riscului
riscuri
riscurile
rise
rising
risipit
risk
rit
rita
ritat
ritata
rite
ritean
riteana
ritene
ritm
ritmica
ritmul
ritoare
ritter
ritual
ritualul
ritualuri
ritul
ritului
ritura
rituri
rival
rivala
rivale
rivalul
river
rivera
rivers
rivka
rivne
rj
rja
rk
rka
rkc
rkdartists
rl
rla
rlad
rlan
rle
rlea
rli
rlia
rlie
rlig
rlit
rm
rma
rman
rmana
rmanul
rmn
rmul
rn
rna
rnat
rnava
rnberg
rne
rnes
rngen
rni
rnii
rnit
rnoasa
rnova
rnovo
ro
road
roade
roaga
roage
roata
rob
robbie
robbins
robert
roberto
roberts
robertson
robi
robie
robii
robin
robinson
robot
robu
robul
roca
roche
rochia
rochie
rochii
roci
rocile
rocilor
rock
rocket
rocks
rocky
rod
rodica
rodnei
rodri
rodrigo
rodriguez
rodul
roewer
rog
roger
rogers
rogoz
roi
roiu
rol
roland
role
rolf
roll
rolling
rollins
rolul
rolului
roluri
rolurile
roly
rom
roma
romagna
romain
roman
romana
romance
romancier
romane
romaneasca
romanele
romanelor
romanesc
romani
romania
romanian
romaniansoccer
romanic
romanica
romanice
romaniei
romanii
romanilor
romano
romanov
romant
romantic
romantica
romantice
romanul
romanului
rome
romei
romeo
romero
romi
romilor
rommel
romtelecom
romulus
ron
ronald
ronaldo
ronnie
room
roosevelt
roots
ror
rora
ros
rosa
rose
rosen
rosenberg
rosenthal
roses
rosetti
rosi
roskov
ross
rossi
rost
roster
rosti
rostit
rostov
rostul
rot
rotaru
rotat
rotes
roth
rothschild
rotten
rotterdam
rotund
rotunda
rotunde
rotunjite
roua
roubaix
rouen
rouge
rough
roumaine
roumanie
round
rousseau
route
routledge
rover
rovi
row
rowling
rowman
roxana
roy
royal
royale
roz
roza
roze
rozelor
rp
rpa
rpg
rpm
rr
rs
rsa
rsare
rsarea
rsat
rse
rsei
rsfs
rskd
rsr
rss
rssm
rsssf
rsta
rste
rstei
rt
rta
rtare
rtarea
rtat
rtata
rtate
rte
rteaza
rtej
rterbuch
rtes
rteze
rti
rtia
rtie
rtiei
rtii
rtit
rton
rtos
rttemberg
rturar
rturari
rturia
rturie
rturii
rturiile
rturises
rturisesc
rturisi
rturisirea
rturisit
ru
ruben
rubin
ruble
rubrica
ruby
ruca
ruda
rude
rudele
rudenie
rudolf
rudolph
rudy
rue
rufus
rug
ruga
rugat
rugby
rugina
rui
ruia
ruies
ruina
ruinat
ruine
ruinele
ruint
ruit
ruiz
rul
rula
rulare
rulat
rule
ruleaza
rules
rului
ruma
rumble
run
runda
runde
runner
running
runt
runte
rup
rupa
rupe
ruperea
rupert
rupt
rupta
rupte
ruptura
rur
rural
rurala
rurale
ruri
rurile
rus
rusa
rusca
ruse
ruseasca
ruses
rusesc
rush
rusia
rusiei
ruso
russ
russell
russia
russian
russo
russu
russula
rustica
rusu
rut
ruta
rutare
rutat
rute
rutele
ruteni
ruth
rutherford
rutier
rutiera
rutiere
rutina
ruxandra
rva
rvan
rvu
rvulescu
rwanda
ry
ryan
ryu
rz
rza
rzia
rziat
rzie
rziere
rzii
rzile
rzilor
rziu
rə
rəm
rəʦ
s
sa
saba
sabia
sabie
sabin
sabina
sabine
sabrina
sac
sachsen
saci
sacra
sacre
sacred
sacrifica
sacrificat
sacrifice
sacrificii
sacrificiu
sacrificiul
sacru
sacul
sad
sadoveanu
saeculum
safety
safta
saga
sagan
sage
sahara
sai
said
saif
sailor
saint
sainte
saints
saitul
sal
sala
saladin
salah
salariat
salariu
salariul
salata
salca
salcia
salcie
sale
salem
salerno
sales
salina
salisbury
salix
sally
saloanele
salon
salonic
salonul
salonului
salt
salticidae
salut
saluta
salutat
salva
salvador
salvare
salvarea
salvat
salvata
salvator
salvatore
salveaza
salveze
salzburg
sam
sama
samantha
same
sami
sammeln
samoa
sample
samson
samsung
samuel
samuil
samurai
san
sanatoriu
sanchez
sancho
sanct
sanctuarul
sand
sanda
sanders
sandra
sandu
sandy
sang
sanie
sanitar
sanitara
sanitare
sankt
sans
sanscrita
sant
santa
santana
santiago
santo
santos
sao
sapa
sapiens
sar
sara
sarah
sarajevo
sarcina
sarcini
sarcinii
sarcinile
sarcinilor
sardinia
sardiniei
sare
sarea
sari
sarmat
sars
sarthe
sas
sase
sasha
sasu
sat
sata
satan
satana
sate
satele
satelit
satelitul
satelitului
satellite
satellites
satelor
satira
satiric
satisfa
satisface
satisfacerea
satisfact
sato
satu
satul
satului
saturat
saturday
saturn
saturnia
sau
saudi
saudita
saul
saunders
sava
savage
savant
savantul
save
savoia
savoie
savu
saw
sawyer
saxa
saxon
saxona
saxonia
saxoniei
say
says
sb
sboiu
sbs
sc
sca
scada
scade
scafandri
scala
scalar
scale
scandal
scandalul
scandinavia
scap
scapa
scape
scara
scarecrow
scarlat
scatiu
scaun
scaune
scaunele
scaunul
scaunului
scena
scenarii
scenarist
scenaristul
scenariu
scenariul
scenariului
scene
scenei
scenele
scenografia
scha
schedule
schelet
scheletul
schema
scheme
schenk
schi
schiffermuller
schiller
schimb
schimba
schimbare
schimbarea
schimbat
schimbata
schimbate
schimbe
schimbul
schimburi
schimburile
schit
schitul
schitului
schleswig
schmidt
schmitt
schneider
scho
scholars
school
schools
schro
schu
schubert
schultz
schumacher
schumann
schuster
schwartz
schwarz
schwerin
sci
science
sciences
scientific
scientist
scientists
scincidae
scit
sclav
sclavi
sclavia
sclavie
sclaviei
sclavii
sclavilor
scm
scoala
scoale
scoalei
scoart
scoasa
scoase
scoata
scoate
scoaterea
scooby
scop
scopul
scopuri
scopurile
scor
score
scores
scort
scorul
scos
scot
scotea
scotland
scots
scott
scottish
scra
screen
scria
scriban
scribner
scrie
scriere
scrierea
scrieri
scrierii
scrierile
scrierilor
scriind
scriitoare
scriitoarea
scriitoarei
scriitor
scriitori
scriitorii
scriitorilor
scriitorul
scriitorului
scrima
scrimer
scrimera
script
scriptstyle
scriptura
scris
scrisa
scrise
scrisoare
scrisoarea
scrisori
scrisorile
scrisul
scrisului
scriu
scrutin
scu
scufunda
scufundare
scufundarea
scufundat
scufundate
scuipa
scula
sculat
sculptat
sculptata
sculptate
sculptor
sculptori
sculptorul
sculptorului
sculptura
sculpturi
scump
scumpa
scumpe
scurge
scurgere
scurgerea
scurt
scurta
scurte
scurtmetraj
scurtu
scut
scuta
scute
scutit
scutul
scutura
scuturi
scuza
scuze
sd
se
sea
seaca
seama
sean
seara
search
seasca
season
seat
seattle
seau
sebastia
sebastian
sebes
sec
seca
secara
secera
seceta
secol
secole
secolele
secolelor
secolul
secolului
second
secret
secreta
secretar
secretara
secretariatul
secretarul
secretarului
secretary
secrete
secretele
secrets
secretul
sect
secta
section
sectoare
sectoarele
sector
sectorul
sectorului
secui
secuiesc
secular
seculare
secund
secunda
secundar
secundara
secundare
secunde
secure
securita
securitate
securitatea
security
secvent
sedan
sedimentare
sediu
sediul
seds
see
seen
sega
segment
segmente
segmentul
sei
sein
seine
selbsta
select
selectat
selectate
selected
selection
selena
self
selgiucizii
selgiucizilor
seligman
selim
selling
selo
selon
sem
sema
semantica
semet
semi
semiaxa
semifinala
semifinale
semifinalele
semiluna
seminar
seminarul
seminarului
semint
semn
semna
semnal
semnalat
semnalate
semnale
semnalele
semnalelor
semnalizare
semnalul
semnalului
semnarea
semnat
semnata
semnate
semne
semneaza
semnele
semneze
semnifica
semnificat
semnificativ
semnificativa
semnificative
semnul
sen
sena
senat
senate
senator
senatori
senatorul
senatul
senatului
senegal
senin
senina
senior
seniori
sens
sense
sensibil
sensibila
sensibile
sensibilitate
sensibilitatea
sensul
sensuri
sentiment
sentimental
sentimentala
sentimentale
sentimente
sentimentele
sentimentelor
sentimentul
sentint
sentralbyra
senzat
sep
separa
separare
separarea
separat
separata
separate
sept
septembar
september
septembrie
sequel
ser
sera
serafim
serba
serbia
serbian
serbiei
serena
serge
sergei
sergent
sergentul
serghei
sergio
sergiu
seri
seria
serial
seriale
serialul
serialului
serie
seriei
series
serii
seriile
serile
serioasa
serioase
serios
servea
serveasca
server
servere
serves
servesc
servi
service
services
servicii
serviciile
serviciilor
serviciu
serviciul
serviciului
servind
servit
servitoarea
servitor
ses
sesc
sescu
sese
sesera
sesiune
sesiunea
sesiuni
session
set
seta
sete
setea
seth
seti
setimes
sets
setul
seturi
seu
seuil
seul
seven
seventh
sever
severa
several
severe
severin
sevilla
sex
sexe
sexual
sexuala
sexuale
sexul
sexului
sexy
seymour
sez
sezoane
sezoanele
sezon
sezonul
sezonului
seʃ
sf
sfa
sfantul
sfat
sfatul
sfatului
sfaturi
sfaturile
sfera
sfere
sferei
sferica
sferice
sfert
sferturi
sferturile
sfes
sfi
sfiala
sfint
sfinte
sfintei
sfintele
sfoara
sfora
sfort
sfra
sg
sh
shadow
shadows
shah
shakespeare
shakira
shane
shanghai
shannon
sharon
sharpe
shaw
shawn
she
sheet
sheffield
shell
shelley
shepard
sheppard
sheridan
sheriff
sherlock
sherman
shi
shield
shin
ship
shirley
sho
shoemaker
shooting
shop
shopping
short
shot
should
show
showbuzz
showbuzzdaily
showing
shows
shqip
shu
si
sia
siberia
siberiei
sibiene
sibiu
sibiului
sic
sica
sich
sicilia
siciliei
sicilii
sicriu
sid
sida
side
sidence
sidente
sidi
sidney
sie
siebenbu
siegfried
siemens
siena
sierra
sighet
sighetu
sighis
sigismund
sigla
sigma
sigmaringen
sigmund
sign
signal
signs
sigur
sigura
sigurant
sigure
siguri
siha
sii
sila
silaba
silabe
silakala
silence
silent
silezia
sili
siliciu
silicon
silint
silis
silistra
silit
silla
silnica
silueta
silva
silvan
silvaniei
silver
silvestru
silvia
silvic
silvica
silvice
silvicultura
silviu
sim
sima
simbad
simbol
simbolic
simbolica
simbolice
simboliza
simbolizeaza
simbolul
simboluri
simbolurile
sime
simeon
simetria
simetric
simetrie
simfonia
simfonic
simfonica
simfonice
simi
similar
similara
similare
simina
simion
simionescu
simmons
simon
simona
simone
simpatia
simpatic
simpatie
simpatizant
simpla
simple
simpli
simplifica
simplificata
simplu
simpson
simptome
simptomele
simptomelor
sims
simt
simta
simte
simula
simulator
simultan
sin
sina
sinagoga
sinai
sinaia
sinan
since
sincer
sincera
sinceritate
sinclair
sind
sindicatelor
sindicatului
sindrom
sindromul
sindu
sine
sing
singapore
singer
singh
single
singles
singular
singur
singura
singuratic
singure
singurele
singuri
singurii
singurul
sinod
sinodul
sinonim
sinonime
sint
sintagma
sintaxa
sintetic
sintetica
sintetice
sintetizator
sinteza
sinucide
sinucidere
sinuciderea
sinucis
sio
sion
sioniste
sioux
sir
sira
sire
sirea
sirena
siret
siretului
siria
sirian
siriana
siriei
siriene
sirius
sis
sise
sistem
sistematic
sistematica
sistematice
sisteme
sistemele
sistemelor
sistemul
sistemului
sister
sit
sita
site
sites
situa
situat
situata
situate
situation
situeaza
situl
sitului
situri
siturile
siturilor
six
sixth
size
sj
sk
ska
ske
ski
skin
skopje
sky
sl
sla
slab
slaba
slabe
slabi
slam
slaru
slatina
slav
slava
slave
slavery
slavi
slavici
slavii
slavilor
slavona
sleep
slenska
sliniu
sloane
sloboda
slobozia
sloganul
slovac
slovaca
slovaci
slovacia
slovaciei
sloven
slovena
slovenc
slovenia
sloveniei
slovens
slovenska
sluga
slugi
slugile
slujba
slujbe
slujbele
slujeasca
slujes
sluji
slujit
slujitor
slujitori
slujitorii
sm
sma
smackdown
small
smalt
smaranda
smart
smartphone
smerit
smith
smithsonian
smoke
smulge
smuls
sn
snac
snagov
snake
snakes
snooker
snow
snyder
so
soacra
soara
soare
soarele
soarelui
soarta
soartei
soba
sobor
sobre
soc
soccer
soccerbase
soccerway
socec
socecu
social
sociala
sociale
socialis
socialism
socialismul
socialismului
socialist
socialista
socialiste
socializare
socie
societa
societate
societatea
society
socio
sociolog
sociologia
sociologie
soclu
socorro
socoteala
socotes
socotesc
socoti
socotind
socotit
socrate
socrul
sodiu
sofia
sofronie
soft
software
soi
soiul
soiuri
sok
sol
solar
solara
solare
solaris
sold
solda
soldat
soldatul
soldatului
soldier
soldiers
sole
soleil
solemn
solemna
soli
solicita
solicitarea
solicitat
solid
solida
solidaritate
solidaritatea
solide
soliman
solis
solist
solista
solistei
solistul
solitar
solo
solomon
solstit
solul
solului
soluri
solurile
solut
solution
solvent
solzi
somalia
some
somerset
somes
something
somme
somn
somnul
somnului
somogy
son
sonata
sonda
sondaj
sonde
sonete
song
songs
sonia
sonic
sonny
sonor
sonora
sonore
sons
sont
sonu
sony
soon
sophia
sophie
soprana
sopron
sor
sora
sorbona
sorescu
sorin
soroca
sort
sos
soses
sosesc
sosi
sosind
sosire
sosirea
sosit
sot
soul
sound
soundtrack
source
sources
sous
south
southampton
southern
soviet
sovietic
sovietica
sovietice
sovietici
sovieticii
sovieticilor
sovietul
sovietului
sp
spa
space
spada
spade
spaima
spain
spala
span
spania
spaniei
spaniol
spaniola
spaniole
spanioli
spanish
sparga
sparge
sparks
spart
sparta
spartacus
spat
spate
spatele
spd
spe
speak
spears
spec
specia
special
speciala
speciale
specialis
specialist
specialista
specialita
specialitate
specialitatea
specializa
specializare
specializarea
specializat
specializata
specializate
specie
speciei
species
specific
specifica
specificat
specificate
specifice
specificul
specii
speciile
speciilor
spectacol
spectacole
spectacolele
spectacolul
spectacolului
spectaculoase
spectator
spectatori
spectral
spectru
spectrul
spectrum
speculat
speculative
speech
speed
spele
spencer
sper
spera
sperant
sperat
speriat
speriata
sperie
spet
sphaerodactylus
sphenomorphus
sphingidae
spi
spice
spidcat
spider
spiders
spiegel
spielberg
spike
spilogona
spilosoma
spin
spina
spinare
spinarea
spini
spinnen
spion
spionaj
spioni
spirala
spiridon
spirit
spirite
spiritele
spiritual
spirituala
spirituale
spiritualitate
spiritul
spiritului
spiru
spit
spital
spitale
spitalele
spitalul
spitalului
spla
splata
split
spo
spoleto
sponsorizat
spontan
spontana
spontane
spor
sporadic
spori
sporirea
sporit
sporita
sport
sporting
sportiv
sportiva
sportive
sportivi
sportivii
sports
sportul
sportului
sporturi
sporturilor
spot
spra
spre
sprezece
sprezecea
sprijin
sprijina
sprijine
sprijini
sprijinirea
sprijinit
sprijinita
sprijinite
sprijinul
sprijinului
spring
springer
springfield
springs
sprint
spui
spuie
spuma
spun
spuna
spund
spunda
spunde
spundea
spundere
spunderea
spune
spunea
spuneam
spuneau
spunem
spunet
spuns
spunse
spunsul
spunsuri
spunsurile
spunza
spus
spuse
spusele
spusese
spy
sqrt
squad
squamata
square
sr
srb
sri
srl
srpska
srpski
srt
ss
ssd
sseldorf
st
sta
stab
stabil
stabila
stabile
stabileasca
stabiles
stabilesc
stabili
stabilind
stabilindu
stabilirea
stabilit
stabilita
stabilitate
stabilitatea
stabilite
stade
stadio
stadion
stadionul
stadionului
stadiu
stadiul
stadium
stadt
staff
stage
stages
stagiu
stahl
stai
stalin
stalingrad
stan
stana
stanca
stanciu
stancu
stand
standard
standarde
standardele
standardelor
standards
standardul
stanford
stanislav
stanisław
stanley
stanovnika
stanovnis
stanton
star
stara
starcraft
stare
starea
staret
stargate
stari
stark
starost
stars
start
startrek
startul
stase
stat
statala
statale
state
statele
statelor
statement
states
static
statica
station
statistic
statistica
statistical
statistice
statistici
statisticile
statistics
statistik
statistika
statistiku
statistisches
statistisk
statline
stats
statui
statuia
statuie
statuii
statuile
statul
statului
statura
status
statut
statutul
statutului
stau
stay
ste
stea
steag
steagul
steagului
steaguri
steagurile
steam
steaua
steel
stefan
stefani
stefano
stein
steiner
stejar
stejari
stejarul
stela
stelar
stelara
stelare
stele
stelei
stelele
stelelor
stelian
stella
stelut
stem
stema
step
stepa
stephan
stephanie
stephen
stephens
stephenson
stere
sterian
sterile
sterline
sterling
stern
sterreich
steve
steven
stevens
stevenson
stewart
sti
stica
sticla
sticle
stiftung
stih
stil
stilistica
stilistice
still
stilul
stilului
stiluri
stilurile
stima
stimp
stimula
stimularea
stimuleaza
sting
stinga
stinge
stingerea
stins
stinse
stire
stirea
stires
stiri
stiria
stirii
stirile
stirilor
stirling
sto
stocare
stocarea
stocate
stock
stockholm
stoenescu
stofa
stoian
stoica
stoicescu
stomac
stone
stones
stop
stopklatka
stor
storck
store
stori
storia
storico
stories
storit
storm
storojinet
story
str
stra
strada
straight
straja
strana
strand
strange
stranger
stranie
straniu
strare
strarea
stras
strasbourg
strat
strata
strate
strategia
strategic
strategica
strategice
strategie
strategiei
strategii
strategy
stratul
stratului
straturi
straturile
strauss
stream
streaming
streaza
strecura
street
stres
stret
streze
stri
strica
stricat
strice
strict
stricta
stricte
striga
strigat
strige
strike
stroe
strofa
strong
structura
structural
structurala
structurale
structure
structuri
structurii
structurile
structurilor
struggle
struguri
strut
stu
stuart
student
studenta
students
studentul
studia
studiat
studiata
studiate
studiaza
studien
studierea
studies
studieze
studii
studiile
studiilor
studiind
studio
studios
studioul
studioului
studiourile
studiu
studiul
studiului
study
stuf
sturdza
sturna
sturnarea
sturnat
sturza
stuttgart
style
styles
stylidium
su
sua
suabia
sub
subacvatice
subcarpat
subdistricte
subdivizat
subdivizate
subdiviziune
subdiviziuni
subfamilia
subi
subiect
subiecte
subiectele
subiectul
subiectului
subject
subjonctiv
sublinia
subliniat
subliniaza
subliniind
sublocotenent
submarin
submarine
submult
subofit
subordinea
subordonat
subordonata
subordonate
subsecretar
subsol
subsolul
subspecia
subspecie
subspecii
substant
substantiv
substantivat
substantive
substantivul
substitut
substrat
subt
subteran
subterana
subterane
subunita
suburb
suburbie
suburbiilor
subvent
suc
succedat
succes
succese
succesele
succesiune
succesiunea
succesiunii
succesiv
succesive
succesor
succesorul
success
succesul
succesului
suceava
sucevei
such
suciu
sud
sudan
sudic
sudica
sudice
sudul
sudului
sue
suedez
suedeza
suedeze
suedezi
suedia
suediei
suez
suf
sufera
sufere
suferea
suferi
suferind
suferint
suferit
suferite
suficient
suficienta
suficiente
sufix
sufixul
sufla
suflare
suflarea
suflat
suflet
suflete
sufleteasca
sufletele
sufletelor
sufletes
sufletu
sufletul
sufletului
sugar
sugera
sugerat
sugereaza
sugestia
sui
suicide
suie
suillus
suis
suisse
suit
suita
suite
sul
suleiman
sulf
sulfat
sulfuric
sulina
sulit
sullivan
sultan
sultana
sultanul
sultanului
sum
suma
sumar
sumatra
sume
sumei
sumele
sumi
summary
summer
summit
sumner
sun
suna
sunat
suncart
sunday
sune
sunet
sunete
sunetele
sunetelor
sunetul
sunetului
sung
sunt
suntem
suntet
suomi
sup
supa
supe
super
supercupa
superficial
superficiala
superficiale
superficie
superioara
superioare
superior
superiori
superioritate
superioritatea
superliga
superman
supernatural
supernova
superstit
supleant
supliment
suplimentar
suplimentara
suplimentare
suport
suporta
suporterii
suportul
suppl
supplement
support
supra
suprafat
suprafet
suprai
supranaturale
supranumit
suprapune
suprapuse
supraveghea
supravegheat
supraveghere
supravegherea
supraviet
suprem
suprema
supremat
supreme
suprima
suprimarea
supt
supuna
supune
supunere
supunerea
supus
supusa
supuse
sur
sura
surare
surarea
surat
surata
surate
surd
surda
surface
surgery
suri
surile
surilor
surori
surorii
surorile
surprinde
surprindere
surprins
surprinsa
surprinza
surpriza
sursa
surse
sursele
surselor
survey
survival
survivor
sus
susan
suspect
suspectat
suspenda
suspendare
suspendarea
suspendat
suspendata
suspendate
suspensie
suspin
suspina
sussex
sust
sut
suta
sute
sutherland
sutton
suveran
suverane
suveranita
suveranitatea
suveranul
suveranului
suvorov
suzanne
suzeranitatea
suzuki
sv
sva
sven
svenska
svetlana
swan
sweden
swedish
sweet
swift
swiss
switch
switzerland
sword
sy
sydney
sylvester
sylvia
symphony
symposium
syndrome
synonymic
synopsis
synthesis
syria
syrian
system
systema
systematic
systems
sz
sza
szabo
szabolcs
szatma
sze
szi
szila
szlo
szo
szolnok
szynski
sə
t
ta
tab
taba
tabel
tabele
tabelul
tabere
taberei
tabla
table
tables
tablou
tabloul
tabloului
tablouri
tablourile
tac
taca
tace
tache
taci
tactic
tactica
tactice
tactici
tadeusz
tafeta
tag
tai
taia
taie
taina
taine
tainele
tainic
tait
taiwan
take
taken
takes
taking
tal
tala
tale
talent
talentat
talente
talentul
talentului
tales
talia
talie
talk
talking
talks
tallinn
talpa
tam
tama
tamara
tambon
tampon
tan
tana
tanaka
tanc
tancul
tancuri
tancurile
tancurilor
tandem
tang
tango
tania
tank
tant
tanzania
tao
tar
tara
tarca
tare
tarea
target
targulcartii
tari
tarii
tarilor
tarn
taru
tarul
tas
tase
task
tastatura
taste
tat
tata
tate
tatea
tatiana
tattarescu
tatu
tau
taur
tavan
tavanul
taxa
taxe
taxele
taxelor
taxi
taxonomic
taxonomy
taylor
tazla
tb
tbilisi
tbol
tc
tcm
td
te
tea
teaca
team
teama
teams
tean
teana
teanu
teapta
teasa
teasca
teatral
teatrala
teatrale
teatre
teatrele
teatrelor
teatro
teatru
teatrul
teatrului
teau
teborg
tech
technical
technologies
technology
tectonice
tecuci
ted
teen
teenage
tef
tefa
tefan
tefania
teheran
tehn
tehnic
tehnica
tehnice
tehnici
tehnicii
tehnicile
tehnico
tehnologia
tehnologic
tehnologica
tehnologice
tehnologie
tehnologiei
tehnologii
tehnologiile
tehnologiilor
tei
teil
teius
tek
tel
tele
telecom
telecomunicat
telefoane
telefon
telefonic
telefonica
telefonice
telefonie
telefonul
telegraf
telegrama
telegraph
teleki
telenes
telenovela
teleorman
telepu
telescop
telescope
telescopul
telespectatori
television
televizate
televiziune
televiziunea
televiziunii
televizor
tell
telor
telui
tem
tema
tematica
tematice
teme
temea
temei
temeiul
temele
temelia
temelie
temelii
temnit
temperament
temperat
temperate
temperatura
temperaturi
temperaturii
temperaturile
temple
templele
templu
templul
templului
tempo
temporal
temporala
temporale
temporar
temporara
temporare
temps
temptation
temut
ten
tencuiala
tendint
tene
teni
tenii
tenilor
tenire
tenirea
tenirii
tenis
tenit
tenite
tenitoare
tenitor
tenitori
tenitorul
tennessee
tennis
tenor
tensiune
tensiunea
tensiuni
tensiunii
tensiunile
tenta
tentat
tentativa
tentative
teo
teoctist
teodata
teodor
teodora
teodoreanu
teodorescu
teodosie
teodosiu
teofil
teolog
teologia
teologic
teologica
teologice
teologie
teora
teorema
teoretic
teoretica
teoretice
teoretician
teoria
teorie
teoriei
teorii
teoriile
teoriilor
tephritidae
tept
tepta
teptam
teptare
teptarea
teptat
teptata
teptate
teptau
tepte
ter
tera
terapeutice
terapia
terapie
terasa
terase
tere
terea
teren
terence
terenul
terenului
terenuri
terenurile
terenurilor
teresa
terestra
terestre
terestru
tereza
terezia
terge
teri
teribil
teribila
terii
terile
terilor
teritorial
teritoriala
teritoriale
teritorii
teritoriile
teritoriilor
teritoriu
teritoriul
teritoriului
term
termen
termeni
termenii
termenilor
termenul
termenului
termic
termica
termice
termina
terminal
terminale
terminarea
terminat
terminata
terminate
termine
terminologia
terminus
termodinamica
terms
ternopil
ternut
teroare
teroarea
terorii
teroris
terorism
terorismului
terorist
teroriste
terra
terre
territory
terror
terry
ters
terse
tert
terul
tes
tesc
tescu
tesei
tesla
test
testa
testament
testamentul
testare
testarea
testat
teste
testele
testul
tet
tetragnatha
tetragnathidae
tettsteders
tetul
teutoni
teutonic
teva
tex
texas
text
texte
textele
textelor
textier
textila
textile
texts
textul
textului
teza
tezaur
tezaurul
tezaurului
teze
tfrac
tg
th
tha
thai
thailanda
thailandeza
thakuri
thames
than
that
the
theater
theatre
theft
theguardian
their
them
theme
then
theo
theodor
theodore
theodorescu
theology
theory
therapy
there
theresa
theridion
these
theta
they
thierry
thing
things
think
third
this
thomas
thompson
thomson
thor
thorell
thory
those
thought
thousand
threat
threatened
three
thriller
thrones
through
thu
thunder
thursday
ti
tia
tiam
tianu
tiat
tiate
tiau
tiberiu
tiberius
tibet
tibor
tic
tica
ticie
ticks
tico
tie
tienne
tient
tienta
tig
tiga
tigarea
tigat
tigata
tigate
tige
tiger
tighina
tigr
tigru
tii
tiind
tiint
tik
til
tile
till
tilor
tim
timas
timberlake
timbru
time
timeline
times
timid
timis
timisoara
timotei
timothy
timp
timpi
timpul
timpului
timpuri
timpurie
timpurii
timpurile
timpurilor
timpuriu
timur
tin
tina
tinas
tinca
tincut
tind
tinda
tinde
tindu
tine
tinere
tinerei
tineret
tineretul
tineretului
tineri
tinerii
tinerilor
tinerimea
tini
tinii
tinilor
tinism
tinismul
tinismului
tint
tioara
tip
tipa
tipar
tiparul
tiparului
tipic
tipica
tipice
tipografia
tipografie
tipomur
tipul
tipului
tipuri
tipurile
tique
tir
tiraj
tirana
tiraspol
tirbei
tire
tirea
tiri
tirii
tirile
tirilor
tirol
tis
tisa
tisei
tisma
tismana
tit
tita
titan
titanic
tite
titel
title
titlelink
titlu
titlul
titlului
titluri
titlurile
tito
titoare
titre
titu
titular
titulatura
titulescu
titus
tiu
tiul
tiului
tiut
tiv
tjampa
tl
tm
tma
tna
tnt
to
toaca
toader
toaleta
toamna
toamnei
toare
toarea
toarei
toarele
toarelor
toasa
toase
toata
toate
toba
tobe
tobias
tobos
toby
toc
tocilescu
tocmai
today
todd
together
togo
tokio
tokugawa
tokyo
told
toledo
tolerant
tolkien
tolna
tolstoi
tom
toma
tomas
tomatoes
tomb
tome
tomescu
tomi
tomis
tommy
tomorrow
toms
tomul
ton
tone
tong
tonga
toni
tonight
tonk
tonul
tonuri
tony
too
tools
top
topi
topic
topire
topit
toplit
topografice
topor
tops
topul
topuri
topurile
tor
tora
toreasca
torent
tores
toresc
tori
toria
torie
toriei
torii
toriile
toriilor
torile
torilor
torind
torino
torit
torita
torite
toriu
toro
toronto
torre
torres
tort
tortura
torturat
torul
torului
torva
tos
toscana
tot
total
totala
totale
totalitate
totalitatea
totalul
totdauna
totdeauna
toti
toto
totodata
tottenham
totul
totus
touch
toulouse
tour
tourism
tournament
tours
tous
tout
toutes
tova
tovara
towards
tower
town
towns
township
toxic
toxice
toy
toyota
tr
tra
tracia
track
tracks
tract
tracy
trad
trade
tradit
tradition
traditional
traduca
traduce
traducere
traducerea
traduceri
traducerile
tradus
tradusa
traduse
traffic
trafic
traficul
traficului
trag
traga
trage
tragedia
tragedie
tragedy
tragere
tragerea
tragic
tragica
trai
traian
traiana
trail
trailer
train
training
traista
traiul
tramvai
tramvaie
tramvaiul
tran
trandafir
trandafiri
trandafirul
trans
transactions
transcarpatia
transcript
transfer
transfera
transferat
transferata
transferate
transfermarkt
transferul
transferuri
transforma
transformare
transformarea
transformat
transformata
transformate
transforme
transilv
transilva
transilvania
transilvaniei
transition
translat
translated
translation
transliterat
transmis
transmisa
transmise
transmisie
transmit
transmita
transmite
transmitere
transmiterea
transnistria
transnistriei
transparent
transport
transporta
transportat
transportate
transportul
transportului
transporturi
transporturilor
transversal
transversala
transversale
transylvania
tranz
tranzact
tranzit
trap
tras
trasa
trasca
trase
trasee
traseu
traseul
traseului
trat
trata
tratament
tratamente
tratamentul
tratamentului
tratare
tratarea
tratat
tratata
tratate
tratatele
tratatelor
tratatul
tratatului
trate
trateaza
tratul
travel
traversa
traversarea
traversat
traversata
traverseaza
traverseze
traviata
travis
tre
treaba
treaca
treapta
treasure
treatment
treaty
trebue
trebui
trebuia
trebuiau
trebuie
trebuiesc
trebuind
trebuint
trebuit
treburile
trec
treca
treccani
trece
trecea
treceau
trecem
trecere
trecerea
trecerii
treci
trecu
trecura
trecuse
trecut
trecuta
trecute
trecutul
trecutului
tree
trei
treia
treilea
treime
treimi
treisprezece
treizeci
trek
tremura
tren
trenc
trends
trent
trentino
trento
trenul
trenului
trenuri
trenurile
trenurilor
treptat
treptata
trepte
treptele
tres
tresa
trestie
trevor
trezes
trezi
trezit
tri
trial
trianon
trib
tribul
tribului
tribuna
tribunal
tribunalul
tribunalului
tribune
triburi
triburile
triburilor
tribut
tribute
tricholoma
trick
tricolor
tricoul
tridimensional
trier
trieste
trii
trilogia
trilogie
trilogy
trilor
trimes
trimis
trimisa
trimise
trimit
trimita
trimite
trimitere
trimiterea
trinh
trinidad
trinity
trio
trip
tripla
triple
triplu
tripoli
tris
trist
trista
tristan
triste
tristet
triton
tritonic
triumf
triumfa
triumful
triumph
triunghi
triunghiul
triunghiular
triunghiulara
triunghiulare
triunghiului
triunghiuri
trnava
tro
trofee
trofeu
trofeul
troglohyphantes
troia
troian
trois
troit
trompeta
tron
tronsonul
tronul
tronului
tropical
tropicala
tropicale
trot
trotus
trouble
troy
tru
truda
true
truman
trump
trunchi
trunchiul
trund
trunda
trunde
trunderea
truns
trunza
trup
trupa
trupe
trupei
trupele
trupelor
trupul
trupului
trupurile
trust
truth
ts
tt
tter
tterpilze
ttingen
tu
tub
tuberculoza
tubul
tuburi
tucker
tude
tudes
tudor
tufa
tufis
tui
tuies
tuiesc
tuire
tuirea
tuit
tuita
tuite
tul
tulbura
tulburare
tulburarea
tulburat
tulbure
tulcea
tulpina
tulpini
tulsa
tului
tun
tuna
tune
tunel
tunele
tunelul
tunelului
tuneluri
tunes
tunica
tunisia
tunul
tunuri
tunurile
tunurilor
tur
tura
turarea
turat
turata
turate
turba
turbat
turbina
turbine
turbo
turbura
turc
turca
turce
turceasca
turces
turcesc
turci
turcia
turciei
turcii
turcilor
turco
turcu
turda
ture
turea
turi
turii
turile
turilor
turing
turingia
turis
turism
turismul
turismului
turistic
turistica
turistice
turkey
turkish
turkmenistan
turla
turma
turme
turmele
turn
turna
turnat
turnee
turneele
turner
turneu
turneul
turneului
turnu
turnul
turnului
turnuri
turnurile
turtit
turul
turului
tururi
turzii
tus
tuse
tut
tuta
tute
tutela
tutun
tuturor
tuturora
tv
tva
tvo
tvr
tw
twain
twentieth
twenty
twilight
twin
twitter
two
txt
ty
tyler
type
types
typhlops
tyson
tz
tə
u
ua
uat
ub
ubisoft
uc
uca
ucenic
ucenici
ucenicii
ucenicul
uci
ucid
ucida
ucide
uciderea
uciga
ucigas
ucis
ucisa
ucise
ucr
ucraina
ucrainean
ucraineana
ucrainei
ucrainene
ucraineni
ud
uda
udat
udmr
udrea
ue
ueaza
uefa
uetz
ufa
ufo
ug
uga
uganda
ugarea
ugat
ugata
ugate
ugita
ugo
ugul
ui
uia
uiasca
uica
uie
uiera
uies
uiesc
uimire
uimit
uimitoare
uire
uirea
uit
uita
uitare
uitat
uitata
uitate
uite
uitoare
uitor
uitori
uitorii
uk
ukraine
ukrainian
ul
ula
ule
ulei
uleiul
uleiuri
ulescu
ulet
ulise
ulit
ullmann
ulm
ulrich
ulterioara
ulterioare
ulterior
ultim
ultima
ultimate
ultimei
ultimele
ultimelor
ultimii
ultimul
ultimului
ultra
ultratop
ului
um
uma
uman
umana
umane
umani
umanist
umaniste
umanita
umanitare
umar
umberto
umbla
umblat
umble
umbra
umbre
umbrela
umbrele
umbrelor
umed
umeda
umede
umeri
umerii
umes
umesc
umezeala
umfla
umi
umiditate
umilint
umilit
umire
umirea
umiri
umit
umita
umor
umorul
umple
umplea
umplu
umplut
umplute
un
una
unanim
unanimitate
unat
unchi
unchiul
unchiului
uncle
und
unda
unde
undele
undelor
under
underground
understanding
undertaker
underwood
undeva
une
unealta
uneasca
unei
uneia
unele
unelte
uneltele
uneori
unes
unesc
unesco
unescu
ungar
ungara
ungare
ungaria
ungariei
ungheni
unghi
unghiul
unghiuri
unghiurile
ungur
ungureanu
ungureasca
ungureni
ungures
unguresc
unguri
ungurii
ungurilor
uni
unic
unica
unice
unicode
unicul
unifica
unificarea
unificat
uniform
uniforma
uniforme
unii
unimedia
union
unique
unire
unirea
uniri
unirii
unit
unita
unitar
unitara
unitariana
unitate
unitatea
unite
united
uniter
units
unity
uniune
uniunea
uniuni
uniunii
univ
univers
universal
universala
universale
universe
universidad
universita
universitar
universitara
universitare
universitate
universitatea
universite
university
universul
universului
unix
unknown
unor
unora
uns
unsprezece
unt
unter
until
untru
untrul
unu
unui
unuia
unul
up
update
updated
upon
uporedni
upper
uppsala
ur
ura
ural
uraniu
uranus
urare
urarea
urat
urata
urate
urau
urban
urbana
urbane
urca
urcanu
urcarea
urcat
urce
ureche
urechea
urechi
urechia
urechile
urgent
urgenta
uri
urias
urii
urile
urilor
urina
urint
url
urla
urma
urmare
urmarea
urmas
urmat
urmata
urmate
urmau
urme
urmeaza
urmele
urmelor
urmeze
urna
urne
uros
urs
urss
ursu
ursul
ursula
ursului
ursus
uruguay
urzeala
urziceni
us
usa
usage
usb
usca
uscat
uscata
uscate
usd
use
used
user
uses
usgs
usher
using
usl
usman
usr
uss
usturoi
ut
uta
utah
utare
utarea
utari
utarii
utat
utate
utau
utc
ute
util
utila
utilaje
utile
utilita
utilitate
utilitatea
utiliza
utilizare
utilizarea
utilizat
utilizata
utilizate
utilizator
utilizatori
utilizatorii
utilizatorilor
utilizatorul
utilizatorului
utilizeaza
utilizeze
utis
utrecht
utricularia
utu
utura
uturi
uv
uvaria
uz
uza
uzate
uzbekistan
uzes
uzi
uzia
uzina
uzinele
uzual
uzul
uzului
uzura
uzurpator
v
va
vaca
vacant
vaccin
vaci
vad
vada
vadim
vadu
vadul
vadului
vag
vaga
vagabond
vagoane
vagon
vai
vaida
val
vala
valabil
valabila
valabile
valahia
valahiei
valdemar
vale
valea
valencia
valent
valentin
valentina
valentine
valer
valeria
valerian
valeriu
vali
valid
valle
valley
valoare
valoarea
valois
valona
valonia
valori
valorifica
valorificarea
valorii
valorile
valorilor
valoroasa
valoroase
valoros
vals
value
valul
valuri
valurile
valurilor
valve
vama
vamal
vamale
vampir
vampire
van
vance
vancouver
vanessa
vapor
vapori
vaporul
var
vara
varga
vargas
varia
variabil
variabila
variabile
varianta
variante
variantele
variat
variata
variate
variaza
varieta
varietate
varietatea
variety
variind
various
varlaam
varna
varphi
vars
varsa
varza
vas
vasa
vasal
vascular
vase
vasele
vaselor
vasi
vasile
vasilescu
vasili
vasilica
vasilie
vasiliu
vaslui
vast
vasta
vaste
vasul
vasului
vatican
vaticanului
vatra
vaucluse
vaughn
vaza
vb
ve
veac
veaceslav
veacul
veacului
veacuri
veasca
vec
veche
vechea
vechi
vechii
vechile
vechilor
vechime
vechimea
vechiul
vechiului
veci
vecin
vecina
vecine
vecini
vecinic
vecinii
vecinilor
vecinul
vector
vectori
vectorial
vectorul
vede
vedea
vedeam
vedeau
vedem
vedere
vederea
vederi
vederii
vedet
vedeta
vedete
vega
vegas
vegetal
vegetala
vegetale
vegetat
veghe
vehement
vehicul
vehicule
vehiculele
vehiculelor
vehiculul
vehiculului
vei
vel
vela
veli
veliko
velvet
vena
venceslau
vende
vene
venea
veneau
venele
venerat
venet
veneto
venezia
venezuela
veni
veniamin
venice
venim
venind
venira
venirea
venise
venit
venita
venite
venitul
venituri
veniturile
veniturilor
ventura
venus
ver
vera
verb
verbal
verbala
verbale
verbe
verbul
verbului
verde
verdeat
verdi
verdun
veri
verifica
verificare
verificarea
verificat
verii
veris
verlag
verlagsgesellschaft
vermont
verne
vernon
vero
verona
veronica
vers
versailles
versant
versantul
verse
version
versiune
versiunea
versiuni
versiunii
versiunile
verso
versul
versuri
versurile
versurilor
versus
vertebrate
vertebratelor
vertical
verticala
verticale
very
verzi
verzui
verzuie
ves
vesel
vesela
vesele
veseli
veselie
vest
vesta
veste
vestea
vestic
vestica
vestice
vestigii
vestire
vestit
vestita
vestitul
vestul
vestului
veszpre
vet
veteran
veterani
veterinar
veterinara
veverit
vezi
vf
vh
vi
via
vianu
viat
viata
vibrat
vic
vicar
vice
vicente
vicepres
viceprim
vichy
viclean
vicles
victima
victime
victimei
victimele
victimelor
victims
victor
victoria
victorie
victoriei
victorii
victoriile
victorios
victory
vid
vida
vidal
video
videoclip
videoclipul
videoclipului
videoclipuri
videos
vidin
vidra
vie
vieat
viena
vienei
vienna
vienne
vierme
viermi
vieru
viet
vietnam
viette
view
vigoare
vii
viii
viile
viis
viitoare
viitoarea
viitoarei
viitoarele
viitor
viitorul
viitorului
viking
viktor
vila
vilaine
vile
vili
villa
village
villages
ville
villeneuve
villes
villon
vilnius
vin
vina
vince
vincent
vincenzo
vinci
vinde
vindeca
vindecare
vindecarea
vindecat
vine
vinea
vinerea
vineri
vinil
vinit
vinnit
vino
vinova
vinovat
vintage
vintila
vinul
vinului
vinuri
vioara
viola
violence
violent
violenta
violente
violet
violeta
violetta
violoncel
violonist
viorel
viorica
vip
vipera
vire
virea
virgil
virgin
virginia
virgula
virtual
virtuala
virtuale
virtut
virtute
virtutea
virus
virusul
virusului
vis
visa
visarion
visat
visconti
vise
viseaza
visele
vision
visions
visit
vista
visual
visul
visuri
vit
vita
vitae
vital
vitala
vitale
vitalie
vitamina
vite
viteaz
viteazul
viteji
vitejia
vitejie
vitele
vitelor
viteza
viteze
vitezei
vito
vitoare
vitor
vitreg
vitrega
vittorio
viu
viva
viza
vizat
vizavi
vizeaza
vizibil
vizibila
vizibile
vizier
vizigot
vizionat
vizir
vizita
vizitat
vizitata
vizitate
vizitatori
vizitatorii
vizite
viziteaza
vizitei
viziteze
viziune
viziunea
viziuni
vizual
vizuala
vizuale
vizualiza
vl
vla
vlad
vladimir
vladimirescu
vladislav
vlahi
vlahut
vlaicu
vlas
vn
vna
vo
voastra
voastre
vocal
vocala
vocale
vocalist
vocat
voce
vocea
voci
vocii
vocile
voda
voevod
vogt
vogue
voi
voia
voiam
voiau
voice
voices
voicu
voiculescu
voie
voies
voiesc
voievod
voievodatul
voievodul
voievodului
voievozi
voind
voinea
voines
voinescu
voinic
voinici
voint
voios
voit
voiu
voivodina
vol
vola
volei
volga
voli
volkswagen
volodi
volt
volta
voltaire
volum
volume
volumele
volumelor
volumes
volumul
volumului
voluntar
voluntara
voluntari
voluntarii
voluntarilor
volution
vom
von
vopsea
vor
vorba
vorbe
vorbea
vorbeasca
vorbeau
vorbele
vorbes
vorbesc
vorbi
vorbim
vorbind
vorbire
vorbirea
vorbirii
vorbit
vorbita
vorbite
vorbitoare
vorbitor
vorbitori
vorbitorii
vornic
vornicul
voronin
vos
vostru
vot
vota
votare
votat
votata
vote
voteaza
voteze
votul
votului
voturi
voturile
voturilor
voua
vous
vox
voyage
voyager
vr
vra
vrabie
vraja
vrancea
vrancei
vre
vrea
vreau
vrednic
vrei
vrem
vreme
vremea
vremi
vremii
vremuri
vremurile
vremurilor
vreo
vreodata
vres
vret
vreun
vreunei
vreunui
vreunul
vrh
vri
vro
vru
vrun
vrut
vs
vu
vuia
vulca
vulcan
vulcanica
vulcanice
vulcanului
vulgar
vulgaris
vulnerabila
vulnerabile
vulpe
vulpea
vulpes
vultur
vulturul
vy
və
w
wa
wade
wadi
wagner
wajda
wake
walckenaeria
wales
walk
walker
walking
wall
wallace
wallis
walsh
walt
walter
walther
walton
wan
wanda
wang
wanna
want
wanted
wants
war
ward
warfare
warner
warren
warrior
warriors
wars
warsaw
warszawa
warwick
was
washington
watanabe
watch
water
waterloo
waters
watson
watt
watts
wave
way
wayback
wayne
ways
wc
we
weapons
weather
weaver
web
webb
weber
website
webster
wedding
week
weekend
weekly
weeks
weg
wehrmacht
wei
weimar
weird
weiss
weisstein
welch
welcome
well
welle
welles
wellington
wells
welsh
welt
wendy
were
werner
wes
wesley
wessex
west
western
westfalia
westminster
westport
wettin
wever
wg
what
wheeler
when
where
which
while
white
whitney
who
whole
why
wi
wide
wie
wien
wiener
wiesbaden
wife
wii
wikciona
wikcionario
wiki
wikicitat
wikidata
wikimapia
wikimedia
wikipedia
wikisky
wikispecies
wikisursa
wikizionario
wikt
wiktionary
wiktionnaire
wilaya
wild
wilde
wilder
wildlife
wiley
wilhelm
wilkins
wilkinson
will
willem
willi
william
williams
williamson
willis
willy
wilson
wimbledon
win
winchester
wind
window
windows
windsor
winehouse
wing
wings
winner
winners
winning
wins
winston
winter
wire
wired
wireless
wisconsin
wise
witch
with
within
without
wittelsbach
wizard
wm
wo
wojciech
wolf
wolfe
wolff
wolfgang
wolfram
woman
women
won
wonder
wong
woo
wood
woods
woody
word
wordpress
words
work
working
works
workshop
world
worldcat
worlds
worldtimezones
worldwide
worst
worth
would
wp
wrestlemania
wrestler
wrestling
wright
writer
writers
writing
writings
written
wrocław
wrong
wta
wu
wuerttemberg
wwe
wwf
www
wyatt
wyoming
władysław
x
xavier
xbox
xe
xenopol
xi
xico
xii
xiii
xiv
xix
xl
xls
xlsx
xml
xp
xu
xv
xvi
xvii
xviii
xx
xxi
xxii
xxiii
xxiv
xxv
xxvi
xxvii
xxx
xylopia
y
ya
yahoo
yale
yan
yang
ye
year
years
yehuda
yellow
yemen
yes
yet
yi
yin
yo
yoga
yong
yonne
york
yorker
yorkshire
you
young
your
yourself
youth
youtube
yu
yuan
yugoslavia
yuri
yves
yvonne
z
za
zac
zace
zack
zadar
zadarnic
zagora
zagreb
zaha
zaharia
zahir
zala
zambia
zamfir
zamfira
zamfirescu
zaporijjea
zar
zaragoza
zare
zarea
zat
zavod
zba
zbate
zbigniew
zboaie
zboaiele
zboaielor
zboara
zboare
zboi
zboinic
zboinici
zboiu
zboiul
zboiului
zbor
zborul
zborului
zboruri
zbuna
zbunare
zbunarea
zbune
zbura
zburat
zdra
zdrava
zdrent
zdrobit
zduh
zdui
zduies
zduit
zduita
ze
zealand
zeasca
zebra
zece
zecea
zecelea
zeci
zeelanda
zef
zei
zeii
zeilor
zeit
zeita
zeitlmayr
zeitschrift
zeitung
zel
zeller
zelotes
zemple
zen
zeno
zero
zes
zestre
zestrea
zeta
zeu
zeul
zeului
zeus
zf
zga
zgomot
zgomotos
zgomotul
zguduit
zgura
zhang
zhou
zhu
zi
ziar
ziare
ziarele
ziarelor
ziaris
ziarist
ziarul
ziarului
zic
zica
zice
zicea
ziceau
zicem
zici
zid
zida
zidirea
zidit
zidita
zidul
zidului
ziduri
zidurile
zidurilor
zii
zile
zilei
zilele
zilelor
zilnic
zilnica
zilnice
zilor
zimbabwe
zimbru
zimmer
zimt
zinc
zis
zisa
zise
zisei
zit
zita
ziua
zlet
zmeu
zmeul
zneala
zneat
znet
zni
znit
zo
zoe
zola
zolta
zoltan
zombi
zombie
zona
zone
zonei
zonele
zonelor
zoo
zool
zoologia
zoologica
zoologie
zoology
zor
zori
zorii
zorile
zorilor
zorro
zquez
zs
zsa
zsef
zsigmond
zsolt
zstan
zu
zugra
zugrav
zugravul
zui
zum
zur
zura
zuse
zut
zuta
zute
zva
zvan
zvi
zvonuri
zvra
zə
{
|
}
~






¡
£
§
¨
©
ª
«
¬
­
®
¯
°
±
²
³
´
µ
·
¹
º
»
½
¿
×
ß
æ
ð
ø
ı
ł
ło
ŋ
ƒ
ɐ
ɑ
ɔ
ə
ɛ
ɨ
ɨm
ɨn
ɪ
ɹ
ɾ
ʁ
ʃ
ʃi
ʒ
ʒu
ʤe
ʤi
ʦi
ʦə
ʧe
ʧi
ʰ
ʲ
ʷ
ʹ
ʻ
ʼ
ʾ
ʿ
ˈ
ˌ
ː
˙
˝
̀
́
̂
̃
̄
̆
̇
̈
̉
̊
̋
̌
̑
̓
̔
̛
̞
̣
̥
̦
̧
̨
̩
̪
̮
̯
̱
̸
͂
ͅ
͡
΄
α
β
βικιλεξικο
γ
δ
ε
ελληνικα
ζ
η
θ
ι
κ
και
λ
μ
ν
να
ξ
ο
ου
π
ρ
ς
σ
τ
της
το
του
υ
φ
χ
ψ
ω
ϕ
ϵ
а
б
беларуская
български
в
вка
вои
г
года
д
державнии
е
ж
з
за
и
из
история
к
киі
комітет
л
м
македонски
москва
н
на
населення
наявного
не
ни
нська
о
он
от
п
по
р
раи
року
россии
русскии
с
саи
скои
српски
ссср
статистики
січня
т
та
у
украі
ф
х
ч
чисельність
ъ
ь
э
ю
я
є
і
ՙ
հայերեն
ְ
ֲ
ִ
ֵ
ֶ
ַ
ָ
ֹ
ּ
־
ֿ
ׁ
א
ב
ג
ד
ה
ו
ח
י
כ
ל
ם
מ
ן
נ
ע
עברית
פ
ק
ר
ש
ת
،
ا
العربية
ب
ة
د
ر
س
فارسی
ل
م
ن
و
ي
َ
ُ
ِ
ّ
ْ
ٓ
ٔ
ٕ
٭
ހ
ނ
ބ
އ
ވ
ދ
ސ
ަ
ާ
ި
ު
ެ
ް
ं
क
ग
च
ज
ट
ठ
ड
त
द
न
प
ब
म
य
र
ल
व
श
स
ह
़
ा
ि
ी
ु
ू
ृ
े
ो
्
ং
ক
ন
ব
য
র
ল
়
া
ি
ু
ে
্
ਜ
ਪ
ਬ
ਾ
ੀ
ੰ
ગ
ત
ા
ી
ુ
્
ଆ
଼
ା
ି
େ
୍
க
ட
த
ன
ப
ய
ர
ழ
ா
ி
ு
ெ
ே
்
ం
గ
త
ర
ల
ా
ి
ు
ె
్
౾
ಾ
ಿ
ೆ
್
ം
ക
ള
ാ
ി
്
ං
ස
්
ා
ි
ก
ง
ท
น
บ
ม
ย
ร
ว
ส
อ
ั
ิ
ี
ื
ุ
ู
ไทย
่
้
์
་
།
ཁ
ག
ང
ད
ན
བ
ཡ
ར
ལ
ི
ུ
ེ
ོ
င
န
ဘ
မ
သ
ာ
ိ
ီ
ု
ေ
ံ
း
်
ြ
ქართული
한국어
ខ
ភ
ម
រ
ស
ា
ី
ែ
្
​
‌
‎
‏
‐
‑
‒
–
—
―
‖
‘
’
‚
“
”
„
‟
†
‡
•
…
‧
‬
‭
‰
′
″
›
‿
⁄
⁠
⁡
₂
€
ℏ
ℓ
№
™
←
↑
→
↓
↔
↦
↷
⇄
⇆
⇒
⇔
∀
∂
∅
∇
∈
∏
∑
−
∖
∗
∘
√
∞
∠
∣
∧
∨
∩
∪
∫
≈
≡
≤
≥
⊂
⊃
⊆
⋅
⋮
⋯
③
④
⑦
─
│
└
├
■
▪
△
►
▼
◄
●
☉
☎
♀
♂
♠
♦
♭
♯
❦
⟨
⟩
⟶
⦁
⺀
⺄
⺆
⺈
⺊
⺌
⺕
⺝
⺸
⺼
⿰
⿱
⿲
⿳
⿴
⿵
⿶
⿷
⿸
⿹
⿺
⿻
、
。
《
》
「
」
『
』
〢
あ
い
う
え
お
か
き
く
け
こ
さ
し
す
そ
た
ち
っ
つ
て
と
な
に
の
は
ひ
ふ
へ
ほ
ま
み
め
も
ゃ
や
よ
ら
り
る
れ
ろ
わ
を
ん
゙
゚
ァ
ア
ィ
イ
ウ
ェ
エ
オ
カ
キ
ク
ケ
コ
サ
シ
ス
セ
ソ
タ
チ
ッ
ツ
テ
ト
ナ
ニ
ネ
ノ
ハ
ヒ
フ
ヘ
ホ
マ
ミ
ム
メ
モ
ャ
ュ
ユ
ョ
ラ
リ
ル
レ
ロ
ン
・
ー
㇁
㇂
㇄
㇇
㇈
㇉
㇓
㐁
㐄
㐅
㐌
㐫
㐬
㐭
㐮
㐱
㑒
㒵
㒸
㒼
㓁
㓞
㔾
㕛
㕣
㖾
㘝
㚅
㚇
㚔
㚘
㝉
㝡
㝴
㝵
㞋
㞢
㞷
㠩
㠭
㠯
㡀
㡭
㡿
㢲
㢴
㣇
㣺
㥯
㪅
㫄
㫐
㫒
㫺
㬅
㬎
㬥
㬰
㲋
㳄
㷠
㸒
㸚
㸦
㼌
㼲
㽞
㿟
䀠
䂞
䍃
䏍
䒑
䖍
䖒
䖝
䖵
䙴
䚻
䜌
䝿
䡛
䧹
䪞
一
丁
丂
七
丄
丅
丆
万
丈
三
上
下
丌
不
与
丏
丐
丑
专
且
丕
世
丘
丙
业
东
丞
丢
丣
两
严
並
丨
丩
个
丫
丬
中
丮
丰
丱
串
丵
丶
丷
丸
丹
为
主
丽
丿
乀
乂
乃
久
乆
乇
么
义
之
乌
乍
乎
乏
乐
乑
乔
乖
乗
乘
乙
乚
乛
乜
九
乞
也
习
乡
乳
乾
亀
亅
了
亇
予
争
事
二
亍
于
亏
亐
云
互
亓
五
井
亘
亚
亜
亞
亟
亠
亡
亢
交
亥
亦
产
亨
亩
享
京
亭
亮
亯
亰
亲
亳
亶
亷
人
亻
亼
亾
仁
今
介
仌
从
仐
仑
仒
仓
仕
他
付
仝
代
令
以
任
企
伊
伏
伐
休
会
伝
伯
但
位
体
何
佘
余
作
佥
使
來
侈
侌
侖
侯
侵
便
保
俞
信
修
倉
倍
候
倠
備
僉
僕
儿
兀
允
兂
元
兄
充
兆
兇
先
光
兊
克
兌
免
兑
兒
兓
兔
党
兜
兟
入
全
兩
兪
八
公
六
兮
兰
共
关
兵
其
具
典
兹
兼
冀
冂
冃
冄
内
冈
冉
冊
冋
册
再
冎
冏
冐
冒
冓
冖
冗
冘
军
农
冝
冡
冥
冫
冬
冷
几
凡
凢
凵
凶
凷
凸
凹
出
函
凾
刀
刁
刂
刃
刄
刅
分
切
刍
刑
刕
刖
列
刘
则
初
別
利
别
到
制
刺
則
削
剌
前
剡
剽
劉
力
功
加
劦
助
劫
劳
劵
勃
勇
勉
勒
動
務
勞
勤
勹
勺
勻
勾
勿
匀
匂
包
匆
匈
匊
匋
匍
匕
化
北
匚
匝
匡
匪
匱
匸
匹
区
医
匽
匿
區
十
卂
千
卄
卅
卆
升
午
卉
半
卌
华
卑
卒
卓
单
卖
南
卜
卝
卞
占
卡
卢
卣
卤
卦
卩
卪
卬
卯
印
危
即
却
卵
卷
卸
卻
厂
厃
厄
历
厈
厉
厌
厓
厘
厚
原
厤
厥
厨
厭
厲
厶
厷
厸
去
厼
厽
叀
参
參
叅
又
叉
及
友
双
反
叐
发
叒
叔
叕
取
受
叚
叜
叟
口
古
句
另
叩
只
召
可
台
叱
史
右
叵
号
司
叹
吂
各
吅
合
吉
吊
吋
同
名
后
吏
向
吕
君
吝
吞
否
含
启
吳
吴
吹
吾
呂
呆
呈
告
员
呙
周
命
咅
和
咎
咠
咢
咨
咸
咼
哀
品
哉
員
哥
哲
唐
商
啇
問
啚
啬
啻
善
喜
喬
單
喿
嗇
噩
嚴
囊
囗
囘
囙
囚
四
回
囟
因
囧
囬
困
囱
囷
固
国
圂
圅
國
圍
圓
土
圡
圣
圥
在
圭
地
圶
圼
坐
坒
坚
坴
垂
垔
垚
埀
埋
城
埶
執
基
堂
堅
堆
堇
堯
報
場
塞
墨
壘
士
壬
壯
声
壳
壴
壹
壺
壽
夂
处
夅
夆
备
夊
夋
夌
复
夏
夒
夕
外
夗
夘
多
夜
夢
大
夨
天
太
夫
夬
夭
央
失
夲
头
夷
夸
夹
夻
夾
奂
奄
奇
奈
奉
奎
奏
奐
契
奓
奔
奚
奞
奠
奢
奥
奭
女
奴
奻
好
如
妄
妙
妟
妥
妻
妾
姑
委
姜
威
娄
婁
婴
嬰
嬴
子
孑
孔
孕
孖
字
存
孚
孛
孝
孟
季
孤
学
孫
孱
學
宀
宁
宂
它
宅
宇
守
安
宋
完
宏
宓
宗
官
定
宛
宜
宝
客
宣
室
宮
宰
害
家
容
宾
宿
寄
寅
密
富
寒
察
寧
審
寫
寬
寮
寸
对
寺
寻
寽
対
寿
封
尃
射
将
將
專
尉
尊
尋
尌
對
小
少
尒
尓
尔
尖
尗
尚
尞
尢
尣
尤
尧
尨
尭
就
尸
尹
尺
尻
尼
尽
尾
尿
局
居
屈
屋
屎
屏
屑
展
屖
屚
属
屠
屡
屬
屮
屯
屰
山
屵
屾
岁
岂
岑
岡
岩
岳
岸
峯
島
崇
崑
崔
崖
崙
崩
嵬
嶲
巂
巛
川
州
巟
巠
巢
巤
工
左
巧
巨
巩
巫
差
己
已
巳
巴
巷
巸
巽
巾
巿
帀
市
布
希
帚
帛
帝
带
師
席
帶
常
干
平
年
幵
并
幷
幸
幺
幻
幼
幽
幾
广
広
庄
床
底
店
庚
府
度
庫
庭
庶
康
庸
廉
廌
廛
廣
廩
廴
延
廷
建
廾
廿
开
弁
弃
弄
弇
弋
式
弓
弔
引
弗
弘
弜
弟
弥
弦
弱
張
強
强
彊
彌
彎
彐
彑
当
彔
录
彖
彗
彡
形
彥
彦
彧
彭
彳
役
彼
往
待
律
後
徒
得
徙
從
復
微
徵
心
忄
必
忌
忍
志
忝
忠
忩
快
念
忽
忿
思
怠
急
怱
恆
恋
恒
恩
恭
息
悉
患
悤
悲
悶
情
惠
惡
惢
愁
愈
意
愛
感
慈
慧
慮
憂
憲
應
戀
戈
戉
戊
戋
戌
戍
戎
成
我
戒
戔
或
戚
戠
戢
戦
截
戲
戶
户
戹
戼
戾
房
所
扁
扇
手
扌
才
打
托
执
承
折
拉
拜
拿
掌
推
提
摩
支
攴
攵
收
攸
改
放
政
敄
敏
敕
敖
敗
敝
敞
敢
散
敦
敫
敬
数
敷
數
斂
文
斉
斊
斗
斤
斥
斩
斬
斯
新
方
於
施
斿
旁
旋
族
无
旡
既
旣
日
旦
旧
旨
早
旬
旱
旲
时
旾
昆
昇
昌
昍
明
昏
易
昔
昗
昜
星
映
春
昬
是
昱
昴
昷
時
晃
晋
晏
普
景
晶
智
暑
暴
曇
曩
曰
曲
曳
更
曷
書
曹
曼
曾
替
最
朁
會
月
有
朋
服
朔
朕
朗
望
朝
木
朩
未
末
本
札
朮
术
朱
朵
朶
朿
杀
李
杏
村
杜
束
条
来
東
杲
杳
松
析
林
枚
果
枝
枲
枼
某
柔
查
柬
柰
柴
栗
株
桀
桑
桼
梁
條
梟
梨
棘
棠
棥
森
楚
業
楽
榮
樂
樊
欠
次
欣
欮
欲
欶
欽
款
歆
歇
[...]
