!
"
#
##0
##1
##10
##11
##12
##13
##14
##15
##16
##17
##18
##19
##2
##20
##21
##22
##23
##24
##25
##26
##27
##28
##29
##3
##30
##31
##32
##33
##34
##35
##36
##37
##38
##39
##4
##40
##41
##42
##43
##44
##45
##46
##47
##48
##49
##5
##50
##51
##52
##53
##54
##55
##56
##57
##58
##59
##6
##60
##61
##62
##63
##64
##65
##66
##67
##68
##69
##7
##70
##71
##72
##73
##74
##75
##76
##77
##78
##79
##8
##80
##81
##82
##83
##84
##85
##86
##87
##88
##89
##9
##90
##91
##92
##93
##94
##95
##96
##97
##98
##99
$
%
&
'
(
)
*
+
,
-
.
/
0
00
000
001
002
007
01
010
02
03
04
05
06
07
08
09
1
10
100
1000
10000
1001
101
102
103
104
105
106
107
108
1080
109
11
110
1100
111
112
113
1130
114
115
1150
116
117
118
1180
119
12
120
1200
1204
121
12148
122
1220
123
1230
124
1240
125
1250
126
1260
127
1270
128
1280
129
13
130
1300
131
132
133
134
135
1350
136
1360
137
138
1380
139
14
140
1400
14001
141
1415
142
1420
143
1430
144
1440
145
1450
1453
146
1460
147
1470
1475
1477
148
1480
1483
1485
149
1490
1492
1495
1498
15
150
1500
15000
1503
1504
1505
1508
151
1510
1512
1513
1515
1516
1517
1519
152
1520
1521
1522
1523
1524
1525
1526
1527
1528
1529
153
1530
1532
1533
1534
1535
1536
1537
1538
1539
154
1540
1541
1542
1543
1544
1545
1546
1547
1548
1549
155
1550
1551
1552
1553
1554
1555
1556
1557
1558
1559
156
1560
1561
1562
1563
1564
1565
1566
1567
1568
1569
157
1570
1571
1572
1573
1574
1575
1576
1577
1578
1579
158
1580
1581
1582
1583
1584
1585
1586
1587
1588
1589
159
1590
1591
1592
1593
1594
1595
1596
1597
1598
1599
16
160
1600
1601
1602
1603
1604
1605
1606
1607
1608
1609
161
1610
1611
1612
1613
1614
1615
1616
1617
1618
1619
162
1620
1621
1622
1623
1624
1625
1626
1627
1628
1629
163
1630
1631
1632
1633
1634
1635
1636
1637
1638
1639
164
1640
1641
1642
1643
1644
1645
1646
1647
1648
1649
165
1650
1651
1652
1653
1654
1655
1656
1657
1658
1659
166
1660
1661
1662
1663
1664
1665
1666
1667
1668
1669
167
1670
1671
1672
1673
1674
1675
1676
1677
1678
1679
168
1680
1681
1682
1683
1684
1685
1686
1687
1688
1689
169
1690
1691
1692
1693
1694
1695
1696
1697
1698
1699
17
170
1700
1701
1702
1703
1704
1705
1706
1707
1708
1709
171
1710
1711
1712
1713
1714
1715
1716
1717
1718
1719
172
1720
1721
1722
1723
1724
1725
1726
1727
1728
1729
173
1730
1731
1732
1733
1734
1735
1736
1737
1738
1739
174
1740
1741
1742
1743
1744
1745
1746
1747
1748
1749
175
1750
1751
1752
1753
1754
1755
1756
1757
1758
1759
176
1760
1761
1762
1763
1764
1765
1766
1767
1768
1769
177
1770
1771
1772
1773
1774
1775
1776
1777
1778
1779
178
1780
1781
1782
1783
1784
1785
1786
1787
1788
1789
179
1790
1791
1792
1793
1794
1795
1796
1797
1798
1799
18
180
1800
1801
1802
1803
1804
1805
1806
1807
1808
1809
181
1810
1811
1812
1813
1814
1815
1816
1817
1818
1819
182
1820
1821
1822
1823
1824
1825
1826
1827
1828
1829
183
1830
1831
1832
1833
1834
1835
1836
1837
1838
1839
184
1840
1841
1842
1843
1844
1845
1846
1847
1848
1849
185
1850
1851
1852
1853
1854
1855
1856
1857
1858
1859
186
1860
1861
1862
1863
1864
1865
1866
1867
1868
1869
187
1870
1871
1872
1873
1874
1875
1876
1877
1878
1879
188
1880
1881
1882
1883
1884
1885
1886
1887
1888
1889
189
1890
1891
1892
1893
1894
1895
1896
1897
1898
1899
19
190
1900
1901
1902
1903
1904
1905
1906
1907
1908
1909
191
1910
1911
1912
1913
1914
1915
1916
1917
1918
1919
192
1920
1921
1922
1923
1924
1925
1926
1927
1928
1929
193
1930
1931
1932
1933
1934
1935
1936
1937
1938
1939
194
1940
1941
1942
1943
1944
1945
1946
1947
1948
1949
195
1950
1951
1952
1953
1954
1955
1956
1957
1958
1959
196
1960
1961
1962
1963
1964
1965
1966
1967
1968
1969
197
1970
1971
1972
1973
1974
1975
1976
1977
1978
1979
198
1980
1981
1982
1983
1984
1985
1986
1987
1988
1989
199
1990
1991
1992
1993
1994
1995
1996
1997
1998
1999
2
20
200
2000
2001
2002
2003
2004
2005
2006
2007
2008
2009
201
2010
2011
2012
2013
2014
2015
2016
2017
2018
2019
202
2020
2021
2022
2023
2024
2025
2027
203
2030
204
205
206
207
208
209
21
210
211
212
213
214
215
216
217
218
219
22
220
221
222
223
224
225
226
227
228
229
23
230
231
232
233
234
235
236
237
238
239
24
240
241
242
243
244
245
246
247
248
249
25
250
2500
251
252
253
254
255
256
257
258
259
26
260
261
262
263
264
265
266
267
268
269
27
270
271
272
273
274
275
276
277
278
279
28
280
281
282
283
284
285
286
287
288
289
29
290
291
292
293
294
295
296
297
298
299
3
30
300
3000
301
302
303
304
305
306
307
308
309
31
310
311
312
313
314
315
316
317
318
319
32
320
321
322
323
324
325
326
327
328
329
33
330
331
332
333
334
335
336
337
338
34
340
341
342
343
344
345
348
35
350
351
352
353
354
355
356
357
36
360
361
363
365
366
367
368
37
370
373
375
38
380
383
384
385
39
390
395
4
40
400
4000
401
402
403
404
405
406
407
41
410
411
412
415
416
42
420
421
425
43
430
432
44
440
45
450
451
458
46
460
466
47
470
48
480
49
5
50
500
5000
501
51
510
512
52
520
53
530
54
540
55
550
56
560
57
58
59
6
60
600
6000
61
62
63
64
640
65
650
66
666
667
67
68
69
7
70
700
7000
71
72
720
73
737
74
747
75
750
76
77
78
79
8
80
800
8000
81
82
83
84
85
850
86
87
88
89
9
90
900
91
911
92
93
94
95
950
96
97
978
98
99
999
:
;
<
=
>
?
@
\
^
_
`
a
aa
aaa
aaron
ab
abaisse
abandon
abandonnant
abandonne
abandonnent
abandonner
abat
abattage
abattre
abattu
abattus
abbas
abbatiale
abbaye
abbayes
abbe
abbesse
abbeville
abbey
abbott
abby
abc
abd
abdallah
abdel
abdelaziz
abdication
abdomen
abdul
abe
abeille
abeilles
abel
aberdeen
abi
abidjan
abilite
abitibi
abkhazie
able
ables
aboli
abolition
abondamment
abondance
abondant
abondante
abondantes
abonne
abonnement
abord
aborde
aborder
abords
aborige
abou
about
abouti
aboutir
aboutissant
aboutissement
aboutissent
aboutit
abraham
abre
abri
abris
abritait
abritant
abrite
abritent
abriter
abroge
absence
absent
absente
absents
abside
absolu
absolue
absolument
absorbe
absorber
absorption
abstention
abstraction
abstrait
absurde
abteilung
abu
abus
abuse
ac
acacias
acade
academia
academic
academy
acadie
acadiens
acce
accent
accents
accentue
accepta
acceptable
acceptant
acceptation
accepte
acceptent
accepter
access
accessed
accessibilite
accessible
accessibles
accession
accessoire
accessoirement
accessoires
accident
accidente
accidentelle
accidentellement
accidents
acclame
accole
accompagnant
accompagne
accompagnement
accompagnent
accompagner
accompli
accomplir
accomplissement
accomplit
accord
accorda
accordant
accorde
accordent
accorder
accords
accouchement
accre
accroche
accroi
accroissement
accru
accrue
accueil
accueillait
accueillant
accueille
accueillent
accueilli
accueillie
accueillir
accueillis
accumulation
accumule
accusant
accusation
accusations
accuse
accusent
accuser
ace
acharne
achat
achats
ache
achemine
acheta
achete
acheter
acheteur
acheteurs
acheve
achever
achille
acid
acide
acides
acier
acoustique
acoustiques
acque
acquie
acquiert
acquis
acquise
acquises
acquisition
acquisitions
acquit
acquitte
acquitter
acre
acrobatique
acronyme
act
acta
acte
actes
acteur
acteurs
actif
actifs
action
actionnaire
actionnaires
actions
activation
active
activement
activer
actives
activiste
activistes
activite
actors
actrice
actrices
actu
actualise
actualite
actualites
actuel
actuelle
actuellement
actuelles
actuels
ad
ada
adam
adams
adaptation
adaptations
adapte
adapter
addacat
addition
additionnel
additionnelle
additionnelles
additionnels
ade
adepte
adeptes
ades
adhe
adieu
adieux
adj
adjectif
adjectifs
adjoint
adjointe
adjoints
adjonction
adjudant
adjuge
adler
admet
admettre
admin
administrateur
administrateurs
administratif
administratifs
administration
administrations
administrative
administrativement
administratives
administre
administrer
admins
admiral
admiration
admire
admirer
admis
admise
admissibilite
admissible
admissibles
admission
adn
adolescence
adolescent
adolescente
adolescents
adolf
adolphe
adoptant
adopte
adoptent
adopter
adoptif
adoption
adoration
adore
adosse
adour
adq
adresse
adresser
adresses
adrian
adriatique
adrien
adrienne
adulte
adultes
advance
advanced
adventure
adventures
adversaire
adversaires
adverse
adverses
ae
af
afc
affaibli
affaiblissement
affair
affaire
affaires
affairs
affaissement
affe
affectant
affectation
affecte
affectent
affecter
affection
affichage
affichant
affiche
affichent
afficher
affiches
affile
affiliation
affilie
affine
affinite
affirmait
affirmant
affirmation
affirmations
affirme
affirment
affirmer
affluence
affluent
affluents
afflux
affre
affronte
affrontement
affrontements
affrontent
affronter
affu
afghanistan
afin
afp
africa
africain
africaine
africaines
africains
african
afrique
afro
after
ag
again
against
agatha
agathe
agde
age
agen
agenais
agence
agences
agency
agenda
agent
agents
ages
agglome
aggrave
agi
agir
agirait
agissait
agissant
agisse
agissements
agissent
agit
agitation
agite
agne
agneau
agnes
agora
agostino
agraire
agrandi
agrandie
agrandir
agrandissement
agrandit
agre
agresse
agressif
agression
agressions
agressive
agressivite
agricole
agricoles
agriculteur
agriculteurs
agriculture
agriculturel
agrippa
agro
agroalimentaire
ah
ahmad
ahmed
ai
aida
aidant
aide
aident
aider
aides
aie
aient
aigle
aigles
aignan
aigu
aigue
aigues
aiguille
aiguilles
ail
aile
ailes
ailier
ailles
ailleurs
aimable
aimait
aimant
aime
aiment
aimer
aimerai
aimerais
ain
aine
ainsi
air
airbus
aircraft
aire
airelle
aires
airlines
airport
airs
airways
ais
aise
aises
aisne
ait
aix
aj
ajaccio
ajax
ajout
ajouta
ajoutant
ajoute
ajoutent
ajouter
ajouts
ajuste
ajustement
ak
aka
ake
akira
al
ala
alabama
alable
alablement
alain
alais
alan
alarme
alaska
alba
alban
albanais
albanie
albany
albe
albert
alberta
alberto
albertville
albi
albin
albion
albrecht
albret
album
albums
alchemica
alchimie
alcide
alcool
alcoolique
alcoolisme
aldo
ale
alec
alejandro
aleksandr
alenc
alentour
alentours
alep
alerte
ales
alessandro
alex
alexander
alexandra
alexandre
alexandrie
alexei
alexis
alfa
alfonso
alfred
alfredo
alge
alger
algorithme
algorithmes
algues
ali
alias
alicante
alice
alicia
alie
alien
align
alignbars
aligne
alignement
aligner
aliment
alimentaire
alimentaires
alimentation
alimente
alimenter
aliments
aline
alisa
alisant
alisateur
alisateurs
alisation
alisations
alisatrice
alise
alisent
aliser
alisme
alison
aliste
alistes
alite
alive
alix
all
alla
allah
allaient
allais
allait
allan
allant
allard
alle
allegro
allemagne
allemand
allemande
allemandes
allemands
allen
aller
allez
alliage
alliance
alliances
allie
allier
allison
allmusic
allo
allocation
allocine
allonge
allongement
allons
alloue
allumage
allume
allure
allusion
alluvions
alma
almanach
almeida
alogie
alogique
alone
alonso
alors
alpes
alpha
alphabe
alphabet
alphabeta
alphonse
alpin
alpine
alpinisme
alpiniste
alpins
als
alsace
alsacien
alsacienne
alsaciens
also
alstom
alt
alta
alte
alter
alternance
alternant
alternatif
alternatifs
alternative
alternativement
alternatives
alterne
altesse
altitude
altitudes
alto
aluminium
alvaro
alve
alves
alvin
always
alzheimer
am
amadeus
amadou
amalgame
amand
amanda
amant
amants
amar
amas
amateur
amateurs
amaury
amazing
amazon
amazone
amazonie
ambassade
ambassades
ambassadeur
ambassadeurs
ambassadrice
amber
ambiance
ambiante
ambigu
ambigui
ambitieux
ambition
ambitions
amboise
ambre
ambroise
ambulance
ambulatoire
ambule
ame
amelia
amena
amenant
amende
amendement
amendements
amene
amener
amer
america
american
americans
amha
ami
amical
amicale
amicalement
amicaux
amie
amiens
amies
amiga
amine
amir
amiral
amiraute
amis
amitie
amne
amnesty
amnistie
amon
among
amont
amor
amorce
amore
amos
amour
amoureuse
amoureux
amours
amphibiens
amphithe
ampleur
amplifie
amplitude
ampute
amsterdam
amusant
amuse
amy
an
ana
anaheim
anai
analogie
analogique
analogue
analogues
analyse
analyser
analyses
analysis
analyste
analytique
anarchie
anarchisme
anarchiste
anarchistes
anastasia
anatole
anatolie
anatomie
anatomy
anc
ance
ances
anchor
ancien
ancienne
anciennement
anciennes
anciennete
anciens
ancient
anciers
anco
ancrage
ancre
and
andalousie
anderlecht
anders
andersen
anderson
andersson
andes
andorre
andre
andrea
andreas
andrei
andres
andrew
andrews
android
andrzej
andy
ane
anecdote
anecdotes
anecdotique
anesthe
ang
ange
angel
angela
angeles
angelo
angels
angers
anges
angiospermes
anglais
anglaise
anglaises
angle
angles
angleterre
anglicane
anglo
anglophone
anglophones
angoisse
angoisses
angola
angoule
angulaire
angus
anhalt
ani
anie
animal
animale
animales
animals
animateur
animateurs
animation
animations
animatrice
animaux
anime
animer
anique
anita
anjou
ankara
anmoins
ann
anna
annales
annals
anne
anneau
anneaux
annecy
annette
annexe
annexes
annexion
annick
annie
anniversaire
anniversaires
anniversary
anno
annonc
annonce
annoncent
annoncer
annonces
annonciation
annote
annuaire
annual
annuel
annuelle
annuellement
annuelles
annuels
annulation
annule
annuler
anobli
anomalie
anomalies
anonymat
anonyme
anonymes
another
anoure
ans
anse
anselme
ant
antagoniste
antarctique
ante
antenne
antennes
antes
anthologie
anthologies
anthony
anthropologie
anthropologue
anti
antiae
antibes
anticipation
anticipe
anticle
anticorps
antige
antigone
antilles
antioche
antiquaires
antique
antiques
antiquite
antise
anto
antoine
antoinette
anton
antoni
antonia
antonin
antonio
antony
ants
anvers
anxie
any
anzin
ao
aoc
aoste
aou
aout
ap
apache
apaiser
apartheid
ape
aperc
apercevoir
apex
aphrodite
api
apo
apocalypse
apoge
apollinaire
apollo
apollon
apologie
apostolique
apostrophe
appalaches
apparai
apparaissant
apparaissent
apparait
apparaitre
appareil
appareille
appareils
apparemment
apparence
apparences
apparent
apparente
apparition
apparitions
appartement
appartements
appartenaient
appartenait
appartenance
appartenant
appartenir
appartenu
appartiennent
appartient
apparu
apparue
apparues
apparus
apparut
appe
appel
appela
appelait
appelant
appele
appeler
appelez
appellation
appellations
appelle
appellent
appels
apple
applicable
applicables
application
applications
appliquant
applique
appliquent
appliquer
apport
apporta
apportant
apporte
apportent
apporter
apports
appose
appre
apprenant
apprend
apprendre
apprennent
apprenti
apprentis
apprentissage
appris
apprit
approbation
approchant
approche
approcher
approches
approfondie
approfondir
appropriation
approprie
approuve
approvisionnement
approximation
approximative
approximativement
appui
appuie
appuient
appuis
appuyant
appuye
appuyer
apre
april
apt
apte
aptitude
aptitudes
aquarelle
aquarelles
aquarium
aquatique
aquatiques
aqueduc
aquila
aquin
aquitaine
ar
ara
arab
arabe
arabes
arabie
arables
arabo
arachnida
arago
aragon
araigne
arame
arane
araneae
arbitrage
arbitrages
arbitraire
arbitre
arbitres
arbore
arbre
arbres
arbustes
arbustive
arc
arcade
arcades
arch
archai
archange
arche
archer
archers
arches
archeve
archibald
archidioce
archiduc
archie
archime
archipel
architecte
architectes
architectural
architecturale
architecturales
architecturaux
architecture
architectures
archive
archives
archiviste
arcs
arctique
arcyon
ard
arde
ardenne
ardennes
ardent
ardoise
are
area
arena
ares
areva
argent
argente
argenteuil
argentin
argentina
argentine
argentins
argile
argiles
argileux
argonne
argos
arguant
argument
argumentation
argumente
arguments
ari
aria
ariane
aride
arie
ariel
aristide
aristocrate
aristocrates
aristocratie
aristocratique
aristote
arithme
arizona
ark
arkanosis
arkansas
arles
arlette
arlhs
arm
armada
armagnac
armand
armando
armateur
arme
armement
armements
armes
armistice
armoiries
armor
armorial
arms
armstrong
armure
army
arn
arnais
arnaud
arnaudus
arno
arnold
aro
aron
around
arr
arrache
arracher
arrange
arrangement
arrangements
arrangeur
arras
array
arre
arrestation
arrestations
arrie
arriva
arrivait
arrivant
arrive
arrivent
arriver
arrivera
arrondi
arrondie
arrondissement
arrondissements
arrose
arrow
ars
arse
arsenal
arsenic
art
arte
artefacts
arthur
article
articles
articulation
articule
artifice
artificialise
artificiel
artificielle
artificiels
artillerie
artisan
artisanale
artisanat
artisans
artist
artiste
artistes
artistique
artistiques
artists
artois
arts
arturo
as
asce
ascendance
ascendant
ascenseur
ascension
ascq
ash
ashley
asia
asian
asiatique
asiatiques
asie
asile
asm
asnie
asp
aspect
aspects
aspirant
aspirations
aspire
aspx
asram
assad
assaillants
assainissement
assassin
assassinat
assassinats
assassine
assassiner
assassins
assaut
assauts
asse
assemblage
assemble
asseoir
assez
assie
assiette
assigne
assimilation
assimile
assis
assise
assises
assistance
assistant
assistante
assistants
assiste
assistent
assister
associant
associated
associatif
association
associations
associative
associe
associent
associer
assomption
assume
assumer
assurait
assurance
assurances
assurant
assure
assurent
assurer
astana
aste
asteroid
astes
aston
astre
astrid
astro
astrologie
astronaute
astronautes
astronome
astronomes
astronomie
astronomique
astronomiques
astrophysique
astros
asturies
asyme
at
atari
ate
atelier
ateliers
ateur
ateurs
ath
athe
athle
athletic
athletics
atif
atification
ation
ations
atique
ative
ativite
atlanta
atlantic
atlantique
atlantiques
atlantis
atlas
atle
atmosphe
atoire
atoires
atoll
atome
atomes
atomique
atomiques
atout
atp
atrice
ats
attache
attachement
attacher
attack
attaqua
attaquant
attaquants
attaque
attaquent
attaquer
attaques
atte
atteignait
atteignant
atteignent
atteignit
atteindre
atteint
atteinte
atteintes
atteints
attend
attendait
attendant
attendent
attendre
attends
attendu
attendue
attendus
attentat
attentats
attente
attentes
attention
atterrissage
atteste
attestent
attila
attique
attirant
attire
attirent
attirer
attitude
attitudes
attraction
attractions
attrait
attrape
attraper
attribuant
attribue
attribuent
attribuer
attribut
attribution
attributions
attributs
ature
atures
atypique
au
aube
auberge
aubert
aubervilliers
aubin
aubline
aubrac
aubry
auch
auckland
aucun
aucune
audace
aude
audi
audience
audiences
audio
audiovisuel
audiovisuelle
audit
auditeur
auditeurs
audition
auditions
auditorium
audrey
auf
auge
augmentant
augmentation
augmente
augmentent
augmenter
augsbourg
august
augusta
auguste
augustin
augustine
augustins
augusto
augustus
aujourd
aulnay
aumo
aunis
auparavant
aupre
auquel
aura
aurai
auraient
aurais
aurait
aure
auriez
aurillac
auront
aurora
aurore
aus
auschwitz
aussi
aussito
auste
austen
austerlitz
austin
austral
australe
australia
australian
australie
australien
australienne
australiennes
australiens
austro
autant
autel
autels
auteuil
auteur
auteure
auteurs
authenticite
authentique
authentiques
authority
autisme
autistes
auto
autobiographie
autobiographique
autobus
autocar
autocars
autochtone
autochtones
autode
autodidacte
automate
automates
automatique
automatiquement
automatiques
automatise
automne
automobile
automobiles
autonome
autonomes
autonomie
autoportrait
autopsie
autorisant
autorisation
autorise
autoriser
autoritaire
autorite
autoroute
autoroutes
autour
autre
autrefois
autrement
autres
autrice
autriche
autrichien
autrichienne
autrichiennes
autrichiens
autrui
autun
auvergne
aux
auxerre
auxiliaire
auxiliaires
auxquelles
auxquels
av
ava
avaient
avais
avait
aval
avalanche
avanc
avance
avancement
avancent
avancer
avant
avantage
avantages
avatar
ave
avec
avengers
avenir
aventure
aventures
aventurier
aventuriers
avenue
averti
avertir
avertissement
avertissements
avery
aveu
aveugle
aveugles
aveux
aveyron
avez
aviateur
aviateurs
aviation
avignon
avion
avions
aviron
avis
aviv
avn
avocat
avocate
avocats
avoir
avoisinantes
avons
avorte
avortement
avoue
avouer
avr
avranches
avril
award
awards
away
ax
axe
axel
axes
ay
ayant
az
aze
azerbai
aziz
azote
azte
azur
azurfrog
b
ba
bab
baba
babel
baby
babylone
bac
baccalaure
bach
bachelor
back
backgroundcolors
bacon
bacte
bad
bade
baden
badge
badminton
bafta
bagad
bagages
bagarre
bagdad
bagne
bague
baguette
bah
bahamas
bahia
bahn
bahrei
bai
baie
baies
baignade
baigne
bail
bailey
bailli
bailliage
bailly
bain
bains
baiser
baisse
baisser
baker
bakou
bal
balai
balance
balcon
baldwin
bale
baleine
baleines
bali
balise
balises
balkans
ball
ballade
ballard
balle
balles
ballet
ballets
ballon
ballons
ballottage
balne
baltes
balthazar
baltimore
baltique
balzac
bamako
bambou
ban
banane
banc
bancaire
bancaires
bancs
band
bande
bandeau
bandeaux
bandes
bandit
bandits
bang
bangkok
bangladesh
bank
banks
banlieue
banlieues
banni
bannie
bannissement
banque
banques
banquet
banquier
bapte
baptise
baptismaux
baptiste
bar
barack
barbade
barbara
barbare
barbares
barbarie
barbe
barbie
barbier
barbu
barc
barcelona
barcelone
barclay
bardata
bare
bari
barker
barnes
barney
baron
baronne
baronnet
baronnie
barons
baroque
barque
barquement
barquent
barquer
barr
barra
barrage
barrages
barrasse
barrasser
barre
barreau
barres
barrett
barrie
barrois
barry
bars
bart
barthe
bartolomeo
barton
baryton
bas
basant
bascule
base
baseball
based
bases
basic
basil
basile
basilique
basique
basket
basketball
basketteur
basque
basques
bass
basse
basses
bassin
bassins
bassiste
basson
bastia
bastide
bastien
bastille
bastion
bastions
bastogne
bastopol
bat
bataille
batailles
bataillon
bataillons
bateau
bateaux
bates
bath
batman
bats
battant
battent
batterie
batteries
batteur
battista
battle
battre
battu
battue
battus
bauche
bauches
baudelaire
baudouin
bauer
baume
baux
bavarois
bavie
baxter
bay
bayard
bayer
bayern
bayeux
bayonne
bayrou
bazar
bb
bbc
bc
bd
be
beach
bean
bear
bears
beast
beat
beatles
beatrice
beau
beauce
beaucoup
beaufort
beaujolais
beaulieu
beaumont
beaune
beaupre
beauregard
beaute
beautiful
beauty
beauvais
beauvoir
beaux
bec
beck
becker
beckett
bedford
bee
been
beer
beethoven
beffroi
before
begin
behind
bei
beijing
being
bel
belfast
belfort
belge
belges
belgique
belgium
belgrade
believe
belin
belize
bell
bella
belle
bellegarde
belles
belleville
bellevue
bellion
belmont
belve
ben
bene
benedetto
benfica
bengale
beni
benito
benjamin
bennett
benny
benoi
benoist
benoit
benson
bentley
benz
ber
berbe
berceau
bercy
berg
bergame
berge
bergement
bergen
berger
bergerac
bergers
berges
bergman
berkeley
berlin
berlinale
berline
berliner
berlioz
bermudes
bern
bernadette
bernard
bernardino
bernardo
berne
bernhard
bernie
bernier
bernstein
berry
bert
berthe
berthier
bertin
bertrand
bes
besanc
besoin
besoins
besse
besson
best
beta
beth
better
betty
between
beurre
beverly
bey
beyond
beyrouth
bf
bfm
bhoutan
bi
biais
bianca
bianchi
biarritz
biathle
biathlon
bibi
bible
bibliographie
bibliographique
bibliographiques
bibliothe
biblique
bibliques
bice
bicyclette
bie
bien
bienfaisance
bienheureux
biennale
bienne
biens
biento
bienvenu
bienvenue
big
bigorre
bigot
bijoux
bilan
bilate
bilbao
bilingue
bill
billancourt
billard
billboard
bille
billes
billet
billets
billie
billy
bin
binabik
binaire
bing
bingen
bino
bio
biodiversite
biographe
biographie
biographies
biographique
biographiques
biography
biological
biologie
biologique
biologiques
biologiste
biology
biomasse
biome
biophysique
biosphe
biotope
bip
bir
bird
birds
birmanie
birmingham
bis
biscite
bishop
bismarck
bissau
bistro
bistrot
bit
bitche
bits
bizarre
bjo
bk
bl
bla
blabla
black
blackburn
blackhawks
blackwell
blade
blague
blair
blaise
blake
blanc
blanchard
blanche
blanches
blanchiment
blanco
blancs
blason
blasons
ble
bles
blesse
blessure
blessures
bleu
bleue
bleues
bleus
blind
blindage
blinde
bloc
blocage
blocages
bloch
block
blocs
blocus
blog
blogs
blois
blond
blonde
blood
bloody
bloom
bloque
bloquer
blu
blue
blues
blum
bm
bmw
bmx
bnf
bo
board
boat
bob
bobby
boca
bocage
body
boe
boeing
boers
bof
bogota
bohe
boi
boire
bois
boise
boiseries
boisson
boissons
boit
boite
bol
boli
bolivie
bologne
bolton
bombarde
bombardement
bombardements
bombardier
bombardiers
bombay
bombe
bombes
bon
bonaparte
bonaventure
bond
bone
bones
bonheur
bonhomme
boniface
bonjour
bonn
bonnard
bonne
bonnes
bonnet
bonnie
bono
bons
bonsoir
bonte
bonus
book
books
boom
boot
booth
bor
bord
bordant
borde
bordeaux
bordelais
bordement
border
bords
bordure
bore
borgia
borgo
boris
born
borne
bornes
borough
borussia
bos
bosch
bosco
bosnie
bosnien
boss
bosse
boston
bot
botanique
botaniques
botaniste
bots
botswana
bottas
botte
bottes
bottom
bou
bouc
bouchard
bouche
boucher
boucherie
bouches
bouchon
boucle
boucles
bouclier
boucliers
bouddha
bouddhique
bouddhisme
bouddhiste
bouddhistes
boue
boues
bouge
bouger
bouillon
boulanger
boulangerie
boule
boules
boulet
boulevard
boulevards
bouleverse
boulogne
boulonnais
boulot
bouquet
bouquins
bourbon
bourbonnais
bourbons
bourdon
bourg
bourgeois
bourgeoise
bourgeoisie
bourges
bourget
bourgmestre
bourgogne
bourgoin
bourgs
bourguignon
bourguignons
bourreau
bourse
bourses
boursier
bousquet
bout
bouteille
bouteilles
boutique
boutiques
bouton
boutons
bouvier
bovin
bovins
bowie
bowl
box
boxe
boxeur
boxing
boy
boycott
boyd
boyer
boyle
boys
bp
bpt
br
bra
brabant
brad
bradford
bradipus
bradley
brady
braga
brahms
brai
brain
bral
brale
branch
branche
branches
brand
brandebourg
brandon
brandt
branle
brant
braque
bras
brasil
brasse
brassens
brasserie
bration
brations
bratislava
braun
brave
braves
bravo
bravoure
bray
brazil
brazzaville
bre
break
breaking
brebis
brecht
bref
breizh
brenda
brendan
brent
brer
bres
brescia
breslau
bresse
brest
bretagne
breton
bretonne
bretonnes
bretons
brett
breu
breuil
breux
brevet
brevete
brevets
brgm
brian
brianc
briand
brice
bride
bridge
bridges
brie
brien
brienne
brieuc
brigade
brigades
brigadier
brigands
bright
brighton
brigitte
brill
brillant
brillante
brillantes
brille
brin
brion
brique
briques
bris
brisbane
brise
briser
bristol
britain
britannica
britannique
britanniques
brite
british
brive
brno
bro
broadcasting
broadway
broche
brochure
brock
brode
broglie
broken
bron
broncos
bronx
bronze
brook
brooke
brooklyn
brooks
bros
brosse
brother
brothers
brouillard
brouille
brouillon
broussaillement
brousse
brown
browne
browning
bru
bruce
bruges
bruins
bruit
bruits
brumaire
brume
brun
brune
brunes
brunet
bruno
bruns
brunswick
brusquement
brussels
brut
brutal
brutale
brutalement
brute
brutus
bruxelles
bruxellois
bruxelloise
bruye
bryan
bryant
bs
bt
bts
bu
bucarest
buck
buckingham
bucks
bud
budapest
buddy
budge
budget
budgets
buenos
buffalo
buffet
buffy
bug
bugatti
bugey
bugs
building
buis
buisson
buleuse
bulgare
bulgares
bulgarie
bull
bulldogs
bulle
bulles
bullet
bulletin
bulletins
bulls
bun
bundesliga
bundestag
bunker
bunny
bureau
bureaucrates
bureaux
burger
burgos
burke
burkina
burn
burning
burns
burt
burton
burundi
bury
bus
bush
business
buste
bustes
but
buta
butant
butants
bute
butent
buter
buteur
buteurs
buthidae
butin
butler
buts
butte
butterfly
button
buzz
bwv
by
bye
byrne
byron
byzance
byzantin
byzantine
byzantines
byzantins
bzh
bœuf
bœufs
c
ca
cab
cabale
cabane
cabanes
cabaret
cabine
cabines
cabinet
cabinets
cable
cabriolet
cacao
cache
cachent
cacher
cachet
cactus
cadastre
cadavre
cadavres
cadeau
cadeaux
cadence
cadet
cadets
cadette
cadillac
cadix
cadran
cadre
cadres
caen
caf
cafe
cage
cages
cagliari
cahier
cahiers
cahors
cai
caille
cailles
cain
caine
caire
caires
cairn
caisse
caisses
caius
cal
calabre
calage
calais
calandre
calcaire
calcaires
calcio
calcium
calcul
calcule
calculer
calculs
calcutta
calder
cale
calendrier
calgary
cali
calibre
calice
califat
calife
california
californie
call
calle
calligraphie
calmann
calme
calmer
calque
calvados
calvaire
calvi
calvin
cam
camarade
camarades
camargue
cambodge
cambrai
cambre
cambridge
came
camera
cameron
cameroun
camerounais
camerounaise
camille
camillo
camino
camion
camions
camp
campagne
campagnes
campanie
campanile
campbell
campe
campement
camping
campo
campos
camps
campus
camus
can
canada
canadian
canadien
canadienne
canadiennes
canadiens
canal
canalisation
canard
canards
canaries
canaux
canberra
cance
cancer
cancers
candidat
candidate
candidates
candidats
candidature
candidatures
candy
cane
canicien
canicule
canique
caniques
canise
canisme
canismes
cannabis
canne
cannes
cannon
canoe
canon
canonique
canonnie
canons
canot
cantal
cantate
canterbury
canton
cantonal
cantonale
cantonales
cantonne
cantons
canucks
canular
canvas
canyon
cao
caoutchouc
cap
capable
capables
capacite
cape
capitaine
capitaines
capital
capitale
capitales
capitalisme
capitaliste
capitals
capitaux
capite
capitol
capitole
capitulation
capitule
caporal
capot
cappella
caprice
capsule
captain
capte
capteur
capteurs
captifs
captivite
capture
capturer
capucins
car
cara
carabine
caracas
caracte
carai
caravane
carbonate
carbone
carburant
carcassonne
card
cardiaque
cardiff
cardinal
cardinals
cardinaux
care
carey
cargaison
cargo
caricature
caricatures
carillon
carl
carla
carlo
carlos
carme
carmel
carmen
carmes
carnaval
carne
carnegie
carnet
carnets
carnivores
carnot
caro
carol
carole
carolina
caroline
carolingienne
caron
carpates
carpenter
carpentier
carpentras
carr
carre
carreaux
carrefour
carrie
carrier
carroll
carrosserie
cars
carson
cart
carte
cartel
cartement
carter
cartes
carthage
carthaginois
cartier
cartographie
carton
cartons
cartoon
cartouche
cartouches
carts
cartulaire
cas
casa
casablanca
casanova
cascade
cascades
case
caserne
casernes
cases
casey
cash
casimir
casino
casque
casques
cass
cassation
casse
cassel
casser
cassette
cassidy
cassini
cassius
caste
castel
castello
castelnau
casterman
castillan
castille
castillo
casting
castle
castor
castres
castro
castrum
cat
catalan
catalane
catalans
catalina
catalogne
catalogue
catalogues
catane
catarina
catastrophe
catastrophes
catastrophique
catch
catcheur
catcheurs
cate
category
cathe
catherine
catholic
catholicisme
catholique
catholiques
cathy
cats
caucase
cauchemar
causa
causant
cause
causer
causes
causse
causses
caution
cautions
caux
cavalerie
cavalier
cavaliers
cave
caveau
cavendish
caverne
caves
cavite
cayenne
cb
cbc
cbs
cc
cd
cdlt
cdot
cdots
cdt
cdu
ce
cea
ceci
cecil
cecilia
cee
cei
ceinture
ceintures
cela
celette
cell
celle
celles
cellulaire
cellulaires
cellule
cellules
celte
celtes
celtic
celtics
celtique
celtiques
celui
cembre
cemetery
cemment
cena
cendre
cendres
cendrillon
cennie
cennies
cense
censure
census
cent
centaine
centaines
cente
centenaire
center
centes
centie
centime
centimes
centrafricaine
central
centrale
centrales
centralisateur
centralisation
centralise
centraux
centre
centres
centriste
centro
cents
century
cependant
cepteur
cepteurs
ception
ceptions
cercle
cercles
cercueil
cerf
cerfs
cergy
cerne
cerner
cerro
certain
certaine
certainement
certaines
certains
certes
certificat
certification
certifications
certificats
certifie
certitude
cerveau
ces
cesare
cessa
cessaire
cessairement
cessaires
cesse
cessent
cesser
cesseur
cesseurs
cessez
cession
cessitant
cessite
cessitent
cest
cet
cette
ceux
ceylan
cf
cfa
cg
cgt
ch
cha
chabot
chabrol
chacun
chacune
chad
chage
chagrin
chah
chai
chaillot
chain
chaine
chair
chaire
chaise
chaises
chal
chalet
chaleur
challenge
challenger
challenges
chalon
cham
chambe
chambellan
chamber
chamberlain
chambers
chambon
chambre
chambres
chamois
chamonix
champ
champagne
champe
champignon
champignons
champion
championnat
championnats
championne
champions
championship
champlain
champs
chan
chance
chancelier
chancellerie
chances
chandler
chandres
chanel
chang
change
changea
changeant
changement
changements
changent
changer
changes
changeur
channel
chanoine
chanoines
chanson
chansons
chant
chantal
chantant
chante
chantent
chanter
chanteur
chanteurs
chanteuse
chantier
chantiers
chantillon
chantillons
chantilly
chants
chanvre
chao
chaoborus
chaos
chap
chapeau
chapeaux
chapel
chapelain
chapelle
chapelles
chapiteau
chapiteaux
chapitre
chapitres
chaplin
chapman
chappe
chappement
chappent
chapper
chapter
chaque
char
charbon
charente
charentes
charge
chargement
charger
charges
chariot
charite
charlemagne
charleroi
charles
charleston
charleville
charlie
charlotte
charly
charme
charmes
charnie
charpente
charpentier
chars
chart
charte
chartes
chartres
chartreuse
chartreux
charts
chase
chasse
chasser
chasses
chasseur
chasseurs
chastel
chat
chateau
chateaubriand
chats
chaud
chaude
chaudes
chaudie
chauds
chauffage
chauffe
chauffement
chauffer
chauffeur
chaumont
chausse
chaussures
chauve
chauves
chaux
che
chec
checs
chef
cheffe
chefs
cheikh
chelem
chelle
chelles
chelon
chelons
chelsea
chement
chemical
chemin
chemine
chemins
chemise
chemistry
chen
chenal
cheng
chenille
chenilles
chent
cheptel
cher
cherbourg
cherchait
cherchant
cherche
cherchent
chercher
chercheur
chercheurs
chercheuse
cheresse
cherry
chers
ches
chess
chester
chet
chets
cheur
cheurs
cheval
chevalerie
chevalier
chevaliers
chevauche
chevaux
chevelure
chevet
cheveux
cheville
chevin
chevrolet
chez
chi
chic
chicago
chico
chicoutimi
chie
chief
chiefs
chien
chiens
chiesa
chiffre
chiffrement
chiffres
chiites
child
children
chile
chili
chilien
chilienne
chime
chimie
chimique
chimiques
chimiste
chin
china
chine
chinese
chinois
chinoise
chinoises
chinon
chiquier
chir
chirac
chire
chirurgicale
chirurgie
chirurgien
chis
chisme
chit
chloe
chlore
chlorure
cho
choc
chocolat
chocs
choi
choice
choir
choire
choiseul
choisi
choisie
choisies
choisir
choisis
choisissant
choisissent
choisit
choisy
choix
chole
cholet
chopin
choque
choral
chorale
chore
chos
chose
choses
chou
chouans
choue
chouent
chouer
chouette
choux
chre
chris
christ
christian
christiane
christianisme
christie
christina
christine
christmas
christoph
christophe
christopher
chrome
chromosome
chronicle
chronicles
chronique
chroniques
chroniqueur
chroniqueurs
chrono
chronologie
chronologique
chronome
chrysler
chu
chuck
chung
church
churchill
chute
chuter
chutes
chypre
chœur
chœurs
ci
cia
cial
ciale
cialement
ciales
cialisation
cialise
cialiste
cialistes
cialite
ciation
ciaux
cible
cibles
cice
cid
cida
cide
cident
cider
cideurs
cidive
cie
ciel
cier
cieuse
cieuses
cieux
cif
cifications
cificite
cifie
cifique
cifiquement
cifiques
cifs
cigarette
cigarettes
cile
cime
cimen
cimens
ciment
cimetie
cincinnati
cindy
cine
cinema
cinq
cinquantaine
cinquante
cinquie
cintre
cio
cipiendaire
cipitations
cipite
ciproque
circ
circle
circonscription
circonscriptions
circonstance
circonstances
circuit
circuits
circulaire
circulaires
circulant
circulation
circule
circulent
circuler
circus
cire
cirque
cis
cisant
cise
ciser
cises
cisif
cision
cisions
cisive
cisives
cistercienne
cit
citadelle
citant
citation
citations
cite
citer
citerne
cities
citons
citoyen
citoyenne
citoyennete
citoyens
citroe
citron
cits
citta
city
ciudad
civil
civile
civiles
civilisation
civilisations
civils
civique
civiques
ck
cl
cla
clair
clairage
claire
clairement
clairer
claires
claireurs
clairie
clairs
clamant
clamations
clame
clament
clamer
clan
clandestin
clandestine
clandestinement
clandestinite
clandestins
clans
clara
clarant
claration
clarations
clare
clarence
clarent
clarer
clarifier
clarinette
clark
clarke
clarte
clash
class
classant
classe
classement
classements
classer
classes
classic
classical
classicisme
classics
classification
classique
classiques
clat
clate
clatement
clatent
clats
claude
claudel
claudia
claudine
claudio
claudius
claus
clause
clauses
clavecin
clavie
clavier
claviers
clay
clayton
clc
cle
clectique
clef
clefs
clem
clemenceau
clenche
clenchement
clencher
clerc
clercs
clerge
clermont
cles
cleveland
clic
cliche
clichy
client
cliente
clients
cliff
clifford
climat
climate
climatique
climatiques
climatisation
climats
clin
clinaison
cline
clinique
cliniques
clint
clinton
clio
clip
clips
clipse
cliptique
clique
cliquer
clive
clo
cloche
clocher
clochers
cloches
cloi
clone
clones
clore
clos
close
closion
clotilde
cloud
clous
clovis
clown
club
clube
clubs
cluj
cluny
cluse
cluses
clusion
clyde
cm
cn
cnn
cnrs
co
coach
coalition
coast
coat
cobalt
cobourg
cobra
coca
cocai
coce
coche
cocher
cochon
cochons
cockpit
cocktail
coco
cocteau
codage
code
codes
codex
codifie
cody
coe
coefficient
coefficients
coeur
coffre
coffret
cofondateur
cognac
cognitive
cognitives
cohabitation
cohe
cohen
cohn
coi
coiffe
coiffure
coin
coince
coins
cois
coise
coises
col
cola
colbert
cold
cole
coleman
coles
colette
coligny
colin
coll
collaborateur
collaborateurs
collaboratif
collaboration
collaborations
collaborative
collabore
collaborer
collage
collate
colle
collecte
collecter
collecteur
collectif
collectifs
collection
collectionneur
collectionneurs
collections
collective
collectivement
collectives
collectivite
collector
college
coller
collet
collier
collin
colline
collines
collins
collision
colloque
colloques
colmar
colo
cologie
cologique
cologiques
cologiste
cologistes
cologne
colomb
colombe
colombes
colombia
colombie
colombien
colombienne
colombier
colombo
colon
colonel
colonial
coloniale
coloniales
coloniaux
colonie
colonies
colonisation
colonise
colonna
colonne
colonnes
colonnettes
colons
color
colorado
coloration
colore
colors
cols
colt
colte
colter
coltes
columbia
columbus
com
coma
comarque
combat
combats
combattant
combattants
combattent
combattre
combattu
combe
combes
combien
combinaison
combinaisons
combinant
combine
combiner
comble
combler
combles
combustible
combustibles
combustion
come
comedy
comes
comic
comics
coming
comique
comiques
comitat
comite
command
commandait
commandant
commandants
commande
commandement
commandements
commander
commanderie
commandes
commandeur
commanditaire
commando
commandos
comme
commenc
commence
commencement
commencent
commencer
comment
commentaire
commentaires
commentateur
commentateurs
commente
commenter
commerc
commerce
commerces
commercial
commerciale
commerciales
commercialisation
commercialise
commerciaux
commet
commettre
comminges
commis
commises
commissaire
commissaires
commissariat
commission
commissions
committee
commode
commodore
common
commons
commonwealth
commun
communal
communale
communales
communautaire
communautaires
communaute
communaux
commune
communes
communication
communications
communion
communique
communiquer
communisme
communiste
communistes
community
communs
comores
compact
compacte
compagne
compagnie
compagnies
compagnon
compagnons
company
comparable
comparables
comparaison
comparaisons
comparant
comparative
comparativement
compare
comparer
compartiment
compartiments
compassion
compatibilite
compatible
compatibles
compatriote
compatriotes
compe
compensant
compensation
compense
compenser
compenses
compie
compilation
compilations
compile
comple
complet
complete
complets
complex
complexe
complexes
complexite
complications
complice
complices
complicite
complique
complot
comportait
comportant
comporte
comportement
comportements
comportent
comporter
composait
composant
composante
composantes
composants
compose
composent
composer
composite
compositeur
compositeurs
composition
compositions
compositrice
compostelle
compre
comprenaient
comprenait
comprenant
comprend
comprendre
comprends
comprennent
compresseur
compression
comprime
compris
comprise
comprises
compromis
comptabilise
comptabilite
comptable
comptables
comptait
comptant
compte
comptent
compter
comptes
compteur
comptoir
compton
computer
comte
comtes
comtesse
comtois
con
conan
conc
concacaf
conce
concentration
concentrations
concentre
concentrent
concentrer
concept
concepteur
concepteurs
conception
conceptions
concepts
concernait
concernant
concerne
concernent
concert
concertation
concerte
concerto
concertos
concerts
concession
concessions
concevoir
concierge
concile
conciliation
concilier
conclu
concluant
conclue
concluent
conclure
conclusion
conclusions
conclut
concordat
concorde
concordia
concourir
concours
concre
concret
concurrence
concurrent
concurrentes
concurrents
condamnation
condamnations
condamne
condamner
conde
condite
condition
conditionne
conditionnement
conditions
condor
condorcet
conducteur
conducteurs
conduire
conduisant
conduisent
conduisit
conduit
conduite
conduites
conduits
confe
confection
conference
confession
confessions
confia
confiance
confiant
confie
confier
configuration
configurations
confine
confinement
confins
confirmant
confirmation
confirme
confirment
confirmer
confisque
conflans
conflit
conflits
conflue
confluence
confluent
confond
confondre
confondu
confondue
confondues
confondus
conforme
conformer
conformes
conformite
confort
confortable
conforte
confre
confrontation
confrontations
confronte
confusion
conge
congo
congolais
congolaise
congre
congress
conife
conique
conise
conjecture
conjoint
conjointe
conjointement
conjonction
conjugue
connai
connais
connaissait
connaissance
connaissances
connaissant
connaissent
connaissons
connait
connaitre
conne
connecte
connecter
connecticut
connection
connexe
connexes
connexion
connexions
connie
connor
connotation
connu
connue
connues
connus
connut
conomie
conomies
conomique
conomiquement
conomiques
conomiste
conomistes
conque
conquis
conquise
conrad
consacra
consacre
consacrer
conscience
conscient
conscription
conse
conseil
conseille
conseiller
conseillers
conseils
consensus
consentement
conserva
conservant
conservateur
conservateurs
conservation
conservatoire
conservatrice
conserve
conservent
conserver
conside
consigne
consignes
consistait
consistant
consiste
consistent
consistoire
console
consoles
consolidation
consolide
consolider
consommateur
consommateurs
consommation
consomme
consommer
consonne
consonnes
consort
consortium
conspiration
constamment
constance
constant
constante
constantes
constantin
constantine
constantinople
constat
constatant
constate
constater
constellation
constituaient
constituait
constituant
constituante
constitue
constituent
constituer
constitution
constitutionnel
constitutionnelle
constitutionnelles
constitutions
constructeur
constructeurs
construction
constructions
constructive
construire
construisent
construisit
construit
construite
construites
construits
consul
consulaire
consulat
consuls
consultable
consultables
consultant
consultatif
consultation
consultations
consultative
consulte
consulter
contact
contacte
contacter
contacts
contamination
contamine
conte
contemporain
contemporaine
contemporaines
contemporains
contemporary
contenait
contenant
conteneurs
contenir
content
contente
contentement
contenter
contentieux
contents
contenu
contenue
contenues
contenus
contes
contestation
contestations
conteste
contester
contexte
contextes
conti
contiennent
contient
continent
continental
continentale
continentales
continentalesles
continentaux
continents
contingent
continu
continua
continuant
continuation
continue
continuellement
continuent
continuer
continuera
continues
continuite
contour
contourne
contournement
contourner
contours
contra
contracte
contraction
contradiction
contradictions
contradictoires
contraint
contrainte
contraintes
contraints
contraire
contrairement
contraires
contrarie
contrario
contraste
contrat
contrats
contre
contrebande
contrebas
contrebasse
contrefac
contreforts
contrepartie
contrer
contribs
contribua
contribuant
contribue
contribuent
contribuer
contributeur
contributeurs
contribution
contributions
contro
control
controverse
controverses
convainc
convaincre
convaincu
convalescence
convention
conventionnel
conventionnelle
conventions
convenu
convergence
conversation
conversations
conversion
converti
convertie
convertir
convertis
convertit
convexe
conviction
convictions
convient
convocation
convoi
convois
convoite
convoque
conway
cook
cooke
cool
coop
coope
cooper
coordinates
coordinateur
coordination
coordonne
coordonner
cop
copa
copains
cope
copenhague
copie
copier
copies
copilote
coppa
coppola
coppolano
copre
coproduction
coproprie
copte
copyright
copyvio
coq
coque
coquillages
coquille
coquilles
cor
corail
coran
corateur
coratif
coratifs
coration
corations
coraux
corbeau
corbeaux
corbeil
corbie
corbusier
corce
corde
cordeliers
cordes
cordialement
cordier
cordille
cordon
cordoue
core
corey
corine
corinne
corinthe
cork
cormier
corne
corneille
cornelis
cornelius
cornell
corner
cornes
cornet
corniche
cornouaille
cornouailles
corogne
corona
coronavirus
corp
corporation
corporations
corporelle
corps
corpus
corre
correct
correcte
correctement
correction
corrections
correspond
correspondait
correspondance
correspondances
correspondant
correspondante
correspondants
correspondent
correspondre
corrida
corridor
corrige
corriger
corruption
cors
corsaire
corsaires
corse
corses
corte
cortes
cortex
corve
corvette
cos
cosaques
coslovaque
coslovaquie
cosme
cosmique
cosmologique
cosmos
cossais
cossaise
cosse
costa
coste
costume
costumes
cosyste
cot
cote
coteau
coteaux
cotentin
cotisation
cotisations
coton
cotton
cou
couche
coucher
couches
coucou
coude
coulant
could
coule
coulement
coulent
couler
couleur
couleurs
coulisses
couloir
couloirs
council
count
country
county
coup
coupable
coupables
coupage
coupant
coupe
couper
coupes
couplage
couple
couples
coupole
coups
coupure
cour
courage
courageux
couramment
courant
courante
courantes
courants
courbe
courbes
courbet
courbure
courcelles
coureur
coureurs
coureuse
courir
couronne
couronnela
couronnement
couronnes
courriel
courrier
courriers
cours
course
courses
court
courte
courtenay
courtes
courtney
courtois
courtoisie
courtrai
courts
couru
cousin
cousine
cousins
coute
couteau
couteaux
couter
coutume
coutumes
coutumier
couture
couturier
couvent
couvents
couvercle
couvert
couverte
couvertes
couverts
couverture
couvertures
couvrait
couvrant
couvre
couvrent
couvreur
couvrir
couvrit
cov
coventry
cover
covid
cow
cowboy
cowboys
cox
coyote
cp
cqui
cr
cra
crabe
cracovie
craie
craig
craignant
craignent
craindre
crains
craint
crainte
craintes
cran
crane
crans
crase
craser
crash
crate
cration
crawford
crayon
crazy
cre
creative
creed
creek
creil
cret
crets
creuse
creuser
creux
crew
cri
cricket
crie
crime
crimes
criminalite
criminel
criminelle
criminelles
criminels
crimson
crira
crire
cris
crise
crises
crisis
cristal
cristaux
cristina
cristo
crit
crite
crites
critical
critics
critique
critiquer
critiques
crits
criture
critures
crivain
crivaine
crivains
crivait
crivant
crivent
crivit
croate
croates
croatie
croche
crocher
crochet
crochets
crocodile
croi
croient
croire
crois
croisade
croisades
croise
croisement
croisements
croisent
croiser
croiseur
croiseurs
croisie
croisillon
croissance
croissant
croissante
croissants
croit
croix
crologie
cromwell
cropole
cropped
croquis
cros
crosby
cross
crosse
crossing
crossover
croton
crou
crow
crown
croyait
croyance
croyances
croyant
croyants
cru
cruaute
crucial
crucifix
crucifixion
crue
cruel
crues
cruise
crus
crustace
cruz
cry
crypte
crystal
cs
csa
csi
cska
csp
csps
css
ct
ctor
cu
cuba
cubain
cubaine
cube
cubes
cubs
cue
cuir
cuirasse
cuirassiers
cuire
cuisine
cuisines
cuisinier
cuisse
cuisson
cuit
cuite
cuivre
cuivres
cul
culaire
culaires
culation
cule
cules
culinaire
culminant
culmine
culpabilite
cult
culte
cultes
cultive
cultiver
cultura
cultural
culture
culturel
culturelle
culturelles
culturels
cultures
cum
cumberland
cumul
cumule
cunningham
cup
cupe
cure
cureuil
curie
curies
curieusement
curieux
curiosite
curise
curiser
curite
current
currente
currents
curry
curseur
curseurs
cursus
curtis
cus
cusson
cut
cutane
cute
cuter
cutif
cutifs
cution
cutions
cutive
cutivement
cutives
cuve
cuyer
cv
cvuc
cy
cyber
cyclable
cycle
cycles
cycling
cyclisme
cycliste
cyclistes
cyclo
cyclone
cygne
cylindre
cylindres
cylindrique
cymbella
cynthia
cyprien
cyr
cyril
cyrille
cyrillique
cyrus
cz
cœur
cœurs
d
da
dacteur
dacteurs
daction
dactrice
daddy
daehan
dagogie
dagogique
dagogiques
dagogue
dai
daient
daille
dailles
daillon
daillons
daily
daimyo
daisy
dait
dakar
dakota
dal
dalai
dale
dales
dali
dallas
dalle
dalles
dalton
dam
damas
dame
dames
damian
damien
damon
dampierre
dan
dana
dance
dancing
danemark
danger
dangereuse
dangereuses
dangereux
dangerous
dangers
danie
daniel
daniela
daniele
danielle
daniels
danny
danois
danoise
dans
danse
danser
danses
danseur
danseurs
danseuse
dant
dante
danube
dany
daphne
dar
darcy
dard
dargaud
dario
darius
dark
darkgrey
darkness
darkoneko
darling
darmstadt
darren
darwin
das
dassault
data
database
datant
datation
date
dateformat
datent
dater
dates
dateur
dateurs
dation
daughter
dauphin
dauphine
dauphins
davantage
dave
david
davidson
davies
davis
davos
davy
dawn
dawson
dax
day
days
db
dc
dd
de
dea
dead
deal
dean
dear
death
deauville
deborah
debout
debre
debussy
dec
decca
december
decin
decine
decins
dedans
dee
deep
def
default
defense
degli
degre
dehors
dei
del
dela
delacroix
delaware
delcourt
delhi
dell
della
delle
delmas
delphine
delta
deluxe
dem
demain
demanda
demandait
demandant
demande
demandent
demander
demandes
demandeur
demandez
demeura
demeurant
demeure
demeurent
demeurer
demeures
demi
demie
demment
demoiselle
demoiselles
demption
den
deniers
denis
denise
dennis
denoe
denre
dense
denses
densite
dent
dentaire
dentaires
dente
dentes
dentiste
dents
denver
denys
department
deportivo
depuis
der
dera
derby
dereckson
derek
dernie
dernier
derniers
derrick
derrie
des
descartes
descend
descendance
descendant
descendante
descendants
descendent
descendre
descente
deschamps
descriptif
description
descriptions
descriptive
desert
design
designated
designer
desjardins
desmond
desquelles
desquels
desse
dessein
dessert
desserte
desservant
desservent
desservi
desservie
desservies
desservir
dessin
dessinateur
dessinateurs
dessine
dessiner
dessins
dessous
dessus
destal
destin
destination
destinations
destine
destiny
destitue
destitution
destre
destroyer
destroyers
destruction
destructions
det
detail
details
detective
detroit
dette
dettes
deuil
deus
deutsch
deutsche
deutschen
deutscher
deutschland
deux
deuxie
devaient
devait
devanc
devance
devant
development
devenait
devenant
devenir
devenu
devenue
devenues
devenus
devez
deviendra
deviendront
devienne
deviennent
devient
devil
deville
devils
devine
devinrent
devint
devise
devises
devoir
devoirs
devon
devons
devra
devraient
devrais
devrait
devront
dexter
dey
df
dg
dh
di
dia
diabe
diable
diables
diaboliquepapote
diacre
diagnostic
diagnostique
diagonale
diagramme
diaire
diaires
dialecte
dialectes
dialectique
diallo
dialogue
dialogues
diamant
diamants
diame
diamond
dian
diana
diane
dias
diaspora
diat
diate
diatement
diateur
diathe
diation
diatique
diatiques
diatise
diaz
dibilite
dible
dicace
dical
dicale
dicales
dicament
dicaments
dicateur
dication
dicaux
dicinales
dicis
dick
dickens
dico
dictateur
dictature
dicte
dictin
dictine
dictins
diction
dictionary
dictionnaire
dictionnaires
dictions
did
didactique
diderot
didier
didot
die
diego
dien
dienne
diens
dients
dieppe
dier
dies
diesel
dieter
dietrich
dieu
dieudonne
dieux
diff
diffamation
diffe
difficile
difficilement
difficiles
difficulte
diffs
diffus
diffusant
diffuse
diffuser
diffuseur
diffusion
diffusions
dification
difice
difices
difie
difier
dige
diger
digestif
digital
digitale
digne
dignitaires
dignite
digue
digues
dijon
dilection
dillon
dimanche
dimanches
dimbourg
dime
dimension
dimensions
dimentaires
diments
diminue
diminuer
diminutif
diminution
dimitri
din
dina
dinamo
dinan
dine
ding
dingo
dino
dinosaure
dinosaures
dio
dioce
diocle
diocre
dion
diop
dioxyde
diplo
diplomate
diplomates
diplomatie
diplomatique
diplomatiques
dique
diques
dir
dira
dirais
dirait
dire
direct
directe
directement
directes
directeur
directeurs
direction
directions
directive
directives
directoire
director
directrice
directs
dires
dirige
dirigea
dirigeait
dirigeant
dirigeante
dirigeants
dirigent
diriger
dirk
dirty
dis
disais
disait
disant
disc
disciple
disciples
discipline
disciplines
disco
discographie
discogs
discothe
discours
discovery
discre
discret
discrimination
discriminations
discu
discussion
discussions
discut
discute
discuter
disease
disent
disgra
disney
disneyland
disons
disparai
disparaissent
disparait
disparition
disparu
disparue
disparues
disparus
disparut
dispense
disperse
dispersion
disponibilite
disponible
disponibles
disposaient
disposait
disposant
dispose
disposent
disposer
dispositif
dispositifs
disposition
dispositions
disputant
dispute
disputent
disputer
disqualification
disqualifie
disque
disques
disse
dissertation
dissidents
dissimule
dissimuler
dissolution
dissoudre
dissous
dissout
dissoute
distance
distances
distant
distante
distillerie
distinct
distincte
distinctes
distinction
distinctions
distincts
distingue
distinguent
distinguer
distribue
distribuer
distributeur
distributeurs
distribution
distributions
district
districts
dit
ditaire
ditation
dite
diter
diterrane
dites
diteur
diteurs
dith
dition
ditionnaire
ditions
ditorial
ditoriale
ditrice
dits
dium
div
diva
divergence
divergences
divers
diverses
diversification
diversifie
diversite
divertissement
divin
divine
divinite
divise
diviser
divisio
division
divisionnaire
divisions
divorce
dix
dixie
dixon
dizaine
dizaines
dj
djan
djibouti
djihadistes
djokovic
dl
dmitri
do
doc
docteur
docteurcosmos
docteurs
doctor
doctorat
doctrine
doctrines
document
documentaire
documentaires
documentation
documente
documents
dodd
dodge
dodgers
dog
doge
dogme
dogs
doha
doi
doigt
doigts
doine
dois
doise
doit
doivent
dol
dolby
dole
dollar
dollars
dolmen
dolores
dom
domaine
domaines
dome
domenico
domestique
domestiques
domicile
domicilie
dominance
dominant
dominante
dominants
domination
domine
dominent
dominer
domingo
domingue
dominic
dominicain
dominicaine
dominicains
dominion
dominique
domino
dommage
dommages
don
donald
donateurs
donation
donations
donc
donetsk
dong
donie
donien
donienne
doniens
donjon
donna
donnait
donnant
donne
donnent
donner
donnera
donnerait
donovan
dons
dont
doo
doom
door
dopage
dora
dordogne
dore
doria
doris
dormant
dormir
dorothe
dorothy
dorsale
dort
dortmund
dos
dose
doses
dossier
dossiers
dostoi
dot
dotation
dote
doter
dots
douai
douala
douane
douanes
douard
douarnenez
doublage
double
doubleau
doubleaux
doublement
doubler
doubles
doublon
doublure
doubs
douce
doucement
douces
douceur
doue
doug
douglas
douleur
douleurs
doute
douter
doutes
douteuse
douteux
douves
doux
douzaine
douze
douzie
down
doyen
doyenne
doyle
dp
dr
drac
dracula
draft
drafte
drag
dragon
dragons
drainage
draine
drake
drale
drales
drama
dramatique
dramatiques
dramaturge
drame
drancy
drapeau
drapeaux
dre
dreal
dream
dreams
dres
dresde
dressage
dresse
dresser
dreux
drew
dreyfus
dric
dring
drive
driver
dro
drogue
drogues
droit
droite
droites
droitier
droits
drone
drones
dronne
drop
drouot
droz
drp
drums
ds
dsc
dt
du
dual
dub
dubai
dublin
dubois
duc
ducal
ducale
ducateur
ducatif
ducatifs
ducation
ducative
ducatives
duche
duchesse
duck
ducks
ducs
ducteur
duction
ductions
dudit
dudley
due
duel
dues
dufour
duhamel
duire
duisant
duisent
duit
duite
duites
duits
duke
dumas
dumont
dun
duncan
dundee
dune
dunes
dunkerque
dunn
dunod
duo
duos
dupont
dupre
dupuis
dupuy
duque
duquel
dur
dura
durable
durablement
durables
duran
durance
durand
durant
duras
dure
durement
durent
durer
durera
dures
durete
durham
during
durs
dus
duse
dut
dutch
duty
duval
dvd
dvg
dwight
dx
dy
dylan
dynamique
dynamiques
dynamisme
dynamite
dynamo
dynastie
dynasties
dynastique
dz
e
ea
eagle
eagles
earl
early
earth
east
eastern
eastwood
easy
eau
eaux
eb
eberhard
ec
eccle
echl
echo
eco
ecole
ecology
economic
economics
economie
ed
eddie
eddy
eden
edf
edgar
edge
edinburgh
edison
edit
edith
edition
editions
editor
editorial
edme
edmond
edmonton
edmund
edo
edouard
eds
edu
eduard
eduardo
education
edward
edwards
edwin
ee
een
ef
efface
effacement
effacer
effect
effectif
effectifs
effective
effectivement
effects
effectua
effectuant
effectue
effectuent
effectuer
effet
effets
efficace
efficacement
efficaces
efficacite
effigie
effondre
effondrement
effondrements
efforce
effort
efforts
effraye
eg
eglise
ego
egypt
egypte
eh
ei
eiffel
eight
ein
eindhoven
eine
einer
einstein
eisenhower
eisner
ek
el
elaine
elbe
ele
eleanor
election
elections
electric
electro
electronic
elegans
elena
elfes
elfix
eli
elias
elie
eliot
elisa
elisabeth
elise
elite
elitserien
elizabeth
ella
elle
ellement
ellen
elles
elliot
elliott
elliptique
ellis
els
elsa
elton
elvis
em
emanuel
emballage
embarcations
embarque
embarquement
embarquer
embauche
emble
embouchure
embranchement
embrasse
embrasser
embryon
embuscade
eme
emerson
emi
emil
emile
emilia
emilio
emily
emma
emmanuel
emmanuelle
emme
emmene
emmener
emmy
empare
emparent
emparer
empe
empereur
empereurs
empire
empires
empirique
emplacement
emplacements
emploi
emploie
emploient
emplois
employant
employe
employer
employeur
employeurs
empoisonne
empoisonnement
emportant
emporte
emportent
emporter
empreinte
empreintes
emprise
emprisonne
emprisonnement
emprunt
empruntant
emprunte
emprunter
emprunts
en
ena
encadre
encadrement
encaisse
ence
enceinte
enceintes
encercle
enchai
enchante
enche
enclave
enclos
encombre
encontre
encore
encourage
encouragement
encourager
encre
encyclope
encyclopedia
encyclopædia
end
ende
endettement
endommage
endroit
endroits
ends
enduit
endurance
enemy
energy
enfance
enfant
enfants
enfer
enferme
enfers
enfin
enflamme
enfonce
enfuir
enfuit
engage
engagea
engageant
engagement
engagements
engagent
engager
engel
engendre
engendrer
enghien
engin
engine
engineering
engins
england
english
englobe
engouement
engrais
enjeu
enjeux
enle
enleve
enlever
enne
ennemi
ennemie
ennemies
ennemis
ennes
ennuis
enque
enregistre
enregistrement
enregistrements
enregistrent
enregistrer
enrevseluj
enrichi
enrichir
enrichissement
enrichit
enrico
enrique
enro
enroule
ens
enseignant
enseignante
enseignants
enseigne
enseignement
enseignements
enseigner
enseignes
ensemble
ensembles
ensoleille
ensoleillement
ensuit
ensuite
ent
entame
entament
entamer
ente
entend
entendent
entendre
entends
entendu
entendue
entente
enterprise
enterre
enterrement
entertainment
enthousiasme
enthousiaste
entie
entier
entiers
entite
entomologiste
entourage
entourant
entoure
entourent
entra
entrai
entraine
entrainement
entraineur
entrant
entrave
entre
entrecoupe
entrent
entrepo
entreprend
entreprendre
entrepreneur
entrepreneurs
entrepris
entreprise
entreprises
entreprit
entrer
entretemps
entretenir
entretenu
entretien
entretiennent
entretiens
entretient
entrevue
envahi
envahir
envahissent
envahisseurs
envahit
enveloppe
envergure
envers
envie
environ
environment
environmental
environnantes
environnants
environnement
environnemental
environnementale
environnementales
environnementaux
environnements
environs
envisage
envisageable
envisager
envoi
envoie
envoient
envol
envole
envoya
envoyant
envoye
envoyer
enzo
enzyme
enzymes
eo
ep
epci
epic
episode
eps
epsilon
epstein
equipe
er
era
erevan
eric
erica
erich
erik
erika
erin
erlandais
erlandaise
erlandaises
ermitage
ermite
ernest
ernesto
ernst
errance
erreur
erreurs
errone
ers
erwin
es
esa
escadre
escadrille
escadron
escadrons
escalade
escale
escalier
escaliers
escape
escarpe
escaut
esclavage
esclave
esclaves
escompte
escorte
escrime
escrimeur
espace
espaces
espagne
espagnol
espagnole
espagnoles
espagnols
espan
espe
espion
espionnage
espions
esplanade
espn
espoir
espoirs
esprit
esprits
esquisse
esquisses
essai
essaie
essaient
essais
essayant
essaye
essayer
essayiste
essays
esse
essen
essence
essences
essentiel
essentielle
essentiellement
essentielles
essentiels
essex
essieu
essieux
essonne
essor
est
estaing
estampe
estampes
este
esteban
estelle
esthe
esther
estienne
estimait
estimant
estimation
estimations
estime
estiment
estimer
estivale
estomac
estonie
estonien
estre
estuaire
et
eta
etat
etats
etc
ete
ethan
ethnie
ethnies
ethnique
ethniques
ethnologie
ethnologue
etienne
etre
etudes
eu
eudes
euge
eugen
eugene
eugenio
euh
euler
eure
eurent
euro
euroligue
europa
europe
european
euros
eurosport
eurovision
euse
eustache
eut
eux
ev
eva
evan
evans
eve
evelyn
even
evening
event
ever
everett
everton
every
everything
evic
evidence
evil
evitch
evo
evolution
evski
ex
exact
exacte
exactement
exactes
exactions
exactitude
exage
examen
examens
examine
examiner
example
exce
excellence
excellent
excellente
excellentes
excellents
excelsior
excentricite
excepte
exception
exceptionnel
exceptionnelle
exceptionnellement
exceptionnelles
exceptionnels
exceptions
excessif
excessive
exchange
excite
exclu
exclue
exclure
exclus
exclusif
exclusion
exclusive
exclusivement
exclusivite
exclut
excre
excuse
excuses
exe
executive
exemplaire
exemplaires
exemple
exemples
exempte
exerc
exerce
exercent
exercer
exercice
exercices
exeter
exhaustive
exhibition
exige
exigeant
exigence
exigences
exigent
exiger
exil
exile
exiler
existaient
existait
existant
existante
existantes
existants
existe
existence
existent
exister
exode
exone
exoplane
exotiques
exp
expansion
expatrie
expe
experience
expert
expertise
experts
expiration
explication
explications
explicite
explicitement
expliquant
explique
expliquent
expliquer
exploit
exploitant
exploitants
exploitation
exploitations
exploite
exploiter
exploits
explorateur
explorateurs
exploration
explorations
explore
explorer
explose
exploser
explosif
explosifs
explosion
explosions
expo
export
exportation
exportations
exporte
exposant
expose
exposer
exposition
expositions
express
expresse
expression
expressions
exprimant
exprime
expriment
exprimer
expulse
expulser
expulsion
exte
extended
extension
extensions
extermination
externe
externes
extinction
extra
extraction
extraire
extrait
extraite
extraits
extraliga
extraordinaire
extraordinaires
extraterrestre
extraterrestres
extre
extreme
exupe
eye
eyes
ez
f
fa
faber
fabian
fabien
fabienne
fabio
fabius
fable
fables
fabre
fabricant
fabricants
fabrication
fabrice
fabrique
fabriquer
fac
face
facebook
faces
facile
facilement
faciles
facilite
faciliter
facteur
facteurs
faction
factions
facto
factor
factory
facts
facture
facultatif
faculte
fai
faible
faiblement
faibles
faiblesse
faiblesses
faillance
faille
failles
failli
faillite
faim
fair
faire
fairy
fais
faisaient
faisait
faisant
faisceau
faisceaux
faisons
fait
faite
faites
faith
faits
falaise
falaises
falco
falcon
falcons
fall
fallait
falloir
falls
fallu
fallut
false
fame
fameuse
fameux
familial
familiale
familiales
familiaux
familie
familier
famille
familles
family
famine
fan
fanchb
fanfare
fanfwah
fanny
fans
fantaisie
fantassins
fantastique
fantastiques
fantasy
fanto
fao
far
farine
farm
farmer
farrell
fascicule
fascine
fascisme
fasciste
fascistes
fashion
faso
fasse
fassent
fast
faste
fastes
fat
fatal
fatale
fate
father
fatigue
fatima
faubourg
faubourgs
faucon
faudra
faudrait
faune
faunistique
faure
fausse
fausses
faust
faut
faute
fautes
fauteuil
fauts
fauve
faux
faveur
faveurs
favorable
favorablement
favorables
favori
favoris
favorisant
favorise
favorisent
favoriser
favorite
favorites
favre
fay
fayard
faye
fayette
fb
fbi
fc
fd
fe
fear
feat
feature
featuring
february
fection
fectoral
fecture
fectures
federal
federation
federer
federico
feel
felice
felipe
felix
fellow
female
femelle
femelles
femme
femmes
fend
fendant
fendent
fendre
fendu
fendue
fene
fense
fenses
fenseur
fenseurs
fensif
fensive
fer
fera
ferai
ferait
ferdinand
ferguson
ferme
fermement
fermentation
fermer
fermes
fermeture
fermier
fermiers
ferna
fernand
fernandez
fernando
feront
ferrand
ferrare
ferrari
ferre
ferreira
ferrer
ferrie
ferries
ferroviaire
ferroviaires
ferry
ferte
fertile
fertiles
fertilite
fervent
fest
festin
festival
festivals
festivite
fet
fets
feu
feuillade
feuillage
feuille
feuilles
feuilleton
feux
fever
feydeau
ff
fff
ffi
fg
fi
fia
fiabilite
fiable
fiables
fianc
fiance
fiant
fiants
fiat
fibre
fibres
fice
fices
fiche
fiches
fichier
fichiers
ficiaire
ficiaires
ficiant
ficie
ficient
ficier
ficit
fictif
fiction
fictions
fictive
fide
fides
fidji
fie
fief
fiefs
field
fielding
fields
fier
fierte
fifa
fig
figaro
fige
fight
fighter
fighting
figurait
figurant
figuration
figure
figurent
figurer
figures
figurines
fil
filature
file
filer
files
filet
filets
filiale
filiales
filiation
filie
filippo
fille
filles
fillette
fillon
film
filme
filmographie
films
fils
filtre
filtres
fin
final
finale
finalement
finales
finalise
finaliste
finalistes
finalite
finance
financement
financements
financer
finances
financial
financie
financier
financiers
find
fine
finement
fines
finesse
fini
finie
finies
finiment
finir
finira
finis
finissant
finissent
finiste
finit
finitif
finition
finitions
finitive
finitivement
finlandais
finlandaise
finlande
finn
finnois
fins
fiona
fique
fiques
fire
firefox
firent
firme
firmin
first
fis
fiscal
fiscale
fiscales
fiscalite
fiscaux
fiscauxun
fischer
fish
fisher
fissures
fit
fitzgerald
five
fixant
fixation
fixe
fixer
fixes
fjord
fk
fl
flag
flamand
flamande
flamands
flamboyant
flamenco
flames
flammarion
flamme
flammes
flanc
flancs
flandre
flandres
flanque
flappiefh
flash
flaubert
flavius
fle
fleet
fleming
fletcher
fleur
fleuret
fleuris
fleurs
fleury
fleuve
fleuves
flexe
flexion
flexions
flic
flickr
flight
fln
flnks
flo
floflo
flora
floraison
flore
florence
florent
florentin
flores
florian
florida
floride
floristique
flot
flots
flottant
flotte
flottes
flottille
flou
flow
flower
flowers
floyd
flu
fluctuations
fluide
fluides
fluvial
fluviale
flux
fly
flyers
flying
flynn
fm
fmi
fn
fo
focalise
foch
focus
foi
foie
foin
foire
foires
fois
foix
fol
folie
folies
folio
folk
folklore
folklorique
folle
folles
follow
fonce
foncie
foncier
fonction
fonctionnaire
fonctionnaires
fonctionnalite
fonctionnant
fonctionne
fonctionnel
fonctionnelle
fonctionnement
fonctionnent
fonctionner
fonctions
fond
fonda
fondamental
fondamentale
fondamentalement
fondamentales
fondamentaux
fondant
fondateur
fondateurs
fondation
fondations
fondatrice
fonde
fondement
fondements
fondent
fonder
fonderie
fondeur
fondre
fonds
fondu
fondue
font
fontaine
fontainebleau
fontaines
fontana
fonte
fontenay
fonts
fontsize
food
foot
football
footballeur
footballeurs
footballeuse
for
forage
forall
forbes
forc
force
forcer
forces
ford
fore
foreign
forest
forestation
forestie
forestier
forestiers
forever
forez
forfait
forfaits
forge
forges
forget
forma
formaient
formait
formant
format
formateur
formateurs
formation
formations
formats
forme
formel
formelle
formellement
forment
former
formes
formidable
formula
formulaire
formulation
formule
formuler
formules
forrest
forster
fort
fortdans
forte
fortement
forteresse
forteresses
fortes
fortification
fortifications
fortifie
fortin
forts
fortune
forum
forums
fosse
fosses
fossile
fossiles
foster
fou
foucault
foudre
fouet
fouge
fouille
fouilles
foule
foules
found
foundation
fouquet
four
fourier
fourmis
fourneau
fourneaux
fourni
fournie
fournier
fournies
fournir
fournis
fournissant
fournissent
fournisseur
fournisseurs
fournit
fourniture
fournitures
fourrage
fourre
fourrure
fourrures
fours
fous
fox
foy
foyer
foyers
fr
fra
frac
fractaires
fraction
fractions
fracture
fragile
fragiles
fragilite
fragment
fragmentation
fragments
frai
frais
frakir
franc
francais
france
frances
francesca
francesco
francfort
franche
franchement
franchi
franchir
franchise
franchises
franchissant
franchissement
franchit
francine
francis
franciscain
franciscains
francisco
franck
franco
francois
francophone
francophones
francophonie
francs
frange
frank
frankenstein
frankfurt
frankie
franklin
frans
frantz
franz
frappant
frappe
frapper
frappes
fraser
fraternite
fratrie
fraude
fre
fred
freddie
freddy
frederic
frederick
frederik
free
freedom
freeman
frein
freinage
freins
french
fresque
fresques
fret
freud
fribourg
friche
friday
friedman
friedrich
friend
friends
frige
frioul
frise
fritz
fro
froid
froide
froides
froids
from
fromage
fromages
fronde
front
frontal
frontale
frontalie
frontie
frontier
fronton
fronts
frost
fruit
fruits
fry
fs
ft
fu
fugace
fugie
fugier
fugitron
fugue
fui
fuient
fuir
fuit
fuite
fuites
fuji
fujiwara
fukushima
full
fuller
fume
fumer
fun
fund
fune
funiculaire
funk
funt
fur
furent
fureur
furieux
fury
fuse
fuselage
fusil
fusiliers
fusillade
fusille
fusils
fusion
fusionne
fusionnent
fusionner
fusions
fussent
fut
fute
futsal
futuna
futur
future
futures
futurs
fuucx
fuyant
fœtus
g
ga
gaas
gabarit
gabe
gable
gabon
gabriel
gabriele
gabrielle
gadget
gae
gaetano
gaga
gage
gager
gages
gagna
gagnant
gagnante
gagnants
gagne
gagnent
gagner
gagnon
gai
gail
gaillard
gaillarde
gain
gains
gainsbourg
gal
gala
galactique
galais
galaise
galant
galaxie
galaxies
galaxy
gale
galement
galerie
galeries
gales
galets
galice
galicie
galile
galisation
galise
galite
galithiques
gall
gallagher
galle
gallery
galles
gallica
gallimard
gallo
gallois
galloise
gambetta
gambie
game
gameplay
games
gamma
gamme
gan
gance
gand
gandhi
gang
gangster
gant
gante
gants
gao
gap
garage
garanti
garantie
garanties
garantir
garantit
garc
garci
garcia
gard
gardant
garde
garden
gardens
gardent
garder
gardes
gardien
gardienne
gardiens
gardner
gare
garenne
gares
garfield
garibaldi
garnier
garnison
garnisons
garonne
garou
garrett
garros
gars
gary
gas
gascogne
gascon
gaspard
gaspe
gasque
gaste
gaston
gastronomie
gat
gate
gates
gatif
gatifs
gatineau
gation
gations
gative
gatives
gauche
gaucher
gaule
gaules
gaulle
gaulois
gauloise
gaumont
gauthier
gautier
gaux
gave
gavin
gay
gaz
gaza
gazette
gazon
gb
gc
gdgourou
ge
geance
geant
gear
gede
gel
gele
gemini
gemme
gen
gence
gendaire
gendaires
gendarme
gendarmerie
gendarmes
gende
gendes
gendre
gene
genera
general
generation
genesis
genevie
genevois
genou
genoux
genre
genres
gens
gent
gente
gentil
gentile
gentilhomme
gentleman
genus
geo
geoff
geoffrey
geoffroy
geographic
geois
geometry
geoportal
georg
george
georges
georgia
ger
gerais
gerald
gerard
gerhard
germain
germaine
german
germanie
germanique
germaniques
germano
germanophone
germany
germinal
gerry
gers
gertrude
gervais
ges
geschichte
gesellschaft
gestapo
geste
gestes
gestion
gestionnaire
get
gfdl
ghana
ghane
ghetto
ghost
gi
gia
giacomo
giale
gian
gianni
giant
giants
gibbs
gibier
gibraltar
gibson
gide
gie
gien
gienne
giens
gier
gies
gif
gifrance
gigantesque
gil
gilbert
giles
gill
gilles
gime
giment
giments
gimes
gina
gine
gino
gion
gional
gionale
gionales
gionaux
gions
giorgio
giovanni
gique
giques
girard
giraud
girl
girls
giro
girolamo
gironde
girondins
gis
giscard
gise
gisement
gisements
gislateur
gislatif
gislation
gislative
gislatives
gislature
gitime
gitimes
gitimite
giuliano
giulio
giuseppe
give
gl
glace
glaces
glaciaire
glacier
glaciers
glacis
glage
glandes
glasgow
glass
gle
glec
glement
glementaire
glementaires
glementation
glementations
glemente
glements
glen
glenn
gler
gles
gli
glige
gligeable
glise
glises
glisse
glissement
glissements
glisser
global
globale
globalement
globe
globes
gloire
gloria
glorieux
glory
glossaire
gloucester
glu
glucose
gm
gmbh
gmina
gminy
gna
gnant
gne
gner
gnes
gnier
gnu
go
goa
goal
goce
gociant
gociants
gociation
gociations
gocie
gocier
god
godard
godefroy
godin
gods
goe
goes
goethe
gogh
goi
going
goire
goku
gold
goldberg
golden
goldman
goldstein
goldwyn
gole
golf
golfe
gomes
gomez
gomme
gon
goncourt
gone
gonfle
gonflement
gong
gonza
gonzague
gonzalez
gonzalo
good
goodbye
goodman
google
gordon
gore
gorge
gorges
gorie
gorien
gories
gorille
gorique
gorisation
gorise
gory
gospel
got
gotha
gotham
gothique
gothiques
goths
gottfried
gou
gouffre
gould
gourou
gout
gouts
goutte
gouttes
gouv
gouvernance
gouvernante
gouverne
gouvernement
gouvernemental
gouvernementale
gouvernementales
gouvernementaux
gouvernements
gouverner
gouverneur
gouverneurs
gouvernorat
gov
government
govine
goya
gp
gpl
gps
gr
gra
grace
gracie
gradation
grade
grades
gradient
gradins
graf
graffiti
graham
grain
graine
graines
grains
graisse
gral
grale
gralement
gralite
grammaire
gramme
grammes
grammy
gran
grand
grande
grandement
grandes
grandeur
grandi
grandir
grandissant
grandissante
grandit
grands
grange
granges
granit
granite
grant
grante
granville
graphe
graphes
graphie
graphies
graphique
graphiques
graphisme
graphismes
graphiste
grappes
gras
grasse
grasset
gration
gratte
gratuit
gratuite
gratuitement
gratuites
gratuits
gratus
grave
gravement
graves
graveur
graveurs
gravite
gravure
gravures
gray
grayson
graz
gre
great
greatest
grec
greco
grecque
grecques
grecs
greek
green
greene
greenwich
greenwood
greffe
greffier
greg
gregor
gregorio
gregory
grenade
grenades
grenadier
grenadiers
grenelle
grenier
grenoble
grenouille
grenouilles
grent
grer
gression
greta
grey
gribeco
gridcolor
grie
griffes
griffin
griffith
grille
grilles
grimaldi
grimlock
grimm
grimpe
grimpeur
grippe
gris
grise
grite
gro
groenland
groningue
gros
grosjean
gross
grosse
grosses
grossesse
grossie
grosso
grotte
grottes
ground
group
groupe
groupement
groupements
groupes
grove
gru
grue
gs
gt
gu
gua
guadalajara
guadeloupe
guard
guardian
guatemala
gue
guer
guerra
guerre
guerrero
guerres
guerrie
guerrier
guerriers
gues
guest
guet
gueule
gueules
guez
guggenheim
gui
guichard
guichet
guichets
guidage
guide
guider
guides
guido
guier
guil
guild
guilde
guillaume
guillemets
guillermo
guillom
guillotine
guin
guine
guingamp
guise
guitar
guitare
guitares
guitariste
guitry
gularite
gulateur
gulation
gule
guler
gulie
gulier
guliers
gumes
gun
gundam
guns
gur
gus
gustation
gustav
gustave
gustavo
gutie
guy
guyana
guyane
guyenne
guyot
gwen
gymnase
gymnaste
gymnastique
gyne
gyo
gypte
gyptien
gyptienne
gyptiennes
gyptiens
h
ha
haas
hab
habertix
habib
habile
habilete
habilitation
habilite
habille
habillement
habit
habitait
habitant
habitants
habitat
habitation
habitations
habitats
habite
habitent
habiter
habits
habitude
habitudes
habitue
habituel
habituelle
habituellement
habituelles
habituels
habsbourg
hache
hachette
hacker
had
hadrien
haendel
hagen
haguenau
hahn
hai
haie
haies
hainaut
haine
hal
hale
half
halifax
hall
halle
halles
halloween
hallyday
halo
halte
ham
hamas
hambourg
hamburg
hameau
hameaux
hamel
hamelin
hamilton
hamlet
hammer
hammond
hamon
hampshire
hampton
han
hancock
hand
handball
handballeur
handbook
handicap
handicape
handisport
hands
hangar
hank
hanna
hannah
hannibal
hanoi
hanovre
hans
hansen
hante
happy
hara
harald
haras
harbor
harbour
harce
harcourt
hard
hardcore
hardi
hardy
hare
haricots
harlem
harley
harmattan
harmonia
harmonica
harmonie
harmonique
harold
harpe
harper
harriet
harris
harrison
harry
hart
hartford
hartmann
harvard
harvey
has
hasard
hassan
hasselt
hastings
hat
hausse
haut
hautbois
haute
hautement
hautes
hauteur
hauteurs
hauts
havane
have
haven
havre
hawai
hawaii
hawk
hawkins
hawks
hay
haydn
haye
hayes
hb
hbo
hc
hd
he
head
health
heart
hearts
heat
heath
heather
heaven
heavy
heavyweight
hebdo
hebdomadaire
hebdomadaires
hectare
hectares
hector
hegel
heidegger
heidelberg
heidi
height
heights
hein
heinrich
heinz
helen
helena
hell
helle
hello
helmut
help
helsinki
helve
hender
henderson
hendrik
hendrix
henri
henridavel
henriette
henrik
henry
hensible
hension
her
herald
herbace
herbe
herbert
herbes
herbier
hercule
here
herge
heritage
herman
hermann
herme
hermine
herna
hernandez
hero
heroes
herrera
herschel
herve
herze
herzog
hesse
het
heure
heures
heureuse
heureusement
heureux
heurte
hewitt
hexagone
hexasoft
hey
hezbollah
hi
hibou
hicule
hicules
hidalgo
hie
hier
higgins
high
highway
hilaire
hill
hillary
hills
hilton
him
himalaya
himmler
hindi
hindouisme
hip
hippodrome
hippolyte
hiroshi
hiroshima
hirsch
his
hispanique
hispano
hisse
hist
histo
histoire
histoires
historia
historic
historical
historien
historienne
historiens
historiographie
historique
historiquement
historiques
history
hit
hitchcock
hitler
hits
hiver
hivernale
hivers
hk
hl
hlm
hm
hms
ho
hoc
hockey
hockeyeur
hoffman
hoffmann
hogan
hohenzollern
hokkaido
hold
holden
holding
hole
holiday
holland
hollandais
hollandaise
hollande
holly
hollywood
holmes
holocauste
holotype
holstein
holt
holy
home
homer
homicide
hommage
hommages
homme
hommes
homo
homoge
homologue
homologues
homonyme
homonymie
homosexualite
homosexuel
homosexuels
hon
honda
honduras
honey
hong
hongkongais
hongrie
hongrois
hongroise
honne
honneur
honneurs
honor
honorable
honoraire
honore
honorer
honorifique
honoris
honte
hood
hook
hop
hope
hopkins
hopper
horace
horaire
horaires
horde
horizon
horizons
horizontal
horizontale
horizontales
horloge
horlogerie
horloges
hormis
hormones
horn
horreur
horrible
horror
hors
horse
horst
horticulture
horus
hospice
hospital
hospitalie
hospitalier
hospitaliers
hospitalisation
hospitalise
hostile
hostiles
hostilite
hot
hotel
hou
houille
houlette
hour
hours
house
houston
houten
hovah
how
howard
howe
hozza
hp
hr
hrer
hrsg
hs
htm
html
http
https
hu
hua
huang
hubble
huber
hubert
hudson
hue
hugh
hughes
hugo
huguenots
hugues
hui
huile
huiles
huis
huit
huitie
hulk
hull
hum
humain
humaine
humaines
humains
human
humanisme
humaniste
humanitaire
humanitaires
humanite
humanoi
humbert
humble
humboldt
hume
humeur
humide
humides
humidite
humoriste
humoristique
humour
humphrey
hunt
hunter
huppe
hurricanes
hussards
hussein
huy
hyacinthe
hybride
hybrides
hyde
hydraulique
hydrauliques
hydravion
hydro
hydrocarbures
hydroe
hydroge
hydrographie
hydrographique
hydrologie
hydrologique
hye
hygie
hyme
hymne
hymnes
hyper
hypothe
hyste
i
ia
iaaf
iade
ian
ibe
ibid
ibm
ibn
ibrahim
ic
ice
ich
ichi
ichiro
ici
ico
iconographie
id
ida
idaho
ide
idem
identifiant
identification
identifie
identifier
identique
identiques
identitaire
identite
identity
ides
idiot
idol
idole
idoles
ie
ieee
ier
if
ign
ignace
ignacio
ignorance
ignorant
ignore
ignorer
igor
igp
ii
iie
iii
iiie
ik
ikko
il
ile
iles
ill
ille
illimite
illinois
illumine
illusion
illusions
illustrant
illustrated
illustrateur
illustration
illustrations
illustre
illustrent
illustrer
illustres
ils
iluvalar
im
image
imagerie
images
imagesize
imaginaire
imaginaires
imagination
imagine
imaginer
imam
imdb
img
imitation
imite
imiter
immacule
immate
immatriculation
immatricule
imme
immense
immenses
immerge
immersion
immeuble
immeubles
immigrants
immigration
immigre
imminente
immobilie
immobilier
immobiliers
immortalite
immunitaire
immunite
impact
impacts
impair
impasse
impe
imperial
implantation
implantations
implante
implanter
imple
implication
implications
implicite
implicitement
impliquant
implique
impliquent
impliquer
impo
importance
important
importante
importantes
importants
importation
importations
importe
importer
imposant
imposante
impose
imposent
imposer
imposition
impossibilite
impossible
impr
impre
impression
impressionnant
impressionnante
impressionne
impressions
imprime
imprimer
imprimerie
imprimeur
improbable
improvisation
improvise
impulsion
in
ina
inacceptable
inacheve
inactifs
inactifsles
inadapte
inaperc
inapproprie
inattendu
inattendue
inaugural
inaugurale
inauguration
inaugure
inc
inca
incapable
incapables
incapacite
incarce
incarnation
incarne
incarner
incendie
incendies
incertain
incertaine
incertitude
inchange
incidence
incident
incidents
incine
incitation
incite
inciter
inclinaison
incline
inclinent
incliner
incluant
incluent
inclure
inclus
incluse
incluses
inclusion
inclut
incohe
incompatible
incompe
incomple
incomplet
incompre
inconnu
inconnue
inconnues
inconnus
inconscient
incontournable
incontro
inconve
incorporation
incorpore
incre
increment
incroyable
inculpe
incursions
inde
indef
indemnisation
indemnite
independent
indes
index
india
indian
indiana
indianapolis
indians
indicateur
indicateurs
indicatif
indication
indications
indice
indices
indien
indienne
indiennes
indiens
indiffe
indige
indignation
indigne
indiquait
indiquant
indique
indiquent
indiquer
indirect
indirecte
indirectement
indispensable
indispensables
individu
individualise
individuel
individuelle
individuellement
individuelles
individuels
individus
indo
indochine
indone
indre
induction
induit
induite
industrial
industrialisation
industrie
industriel
industrielle
industrielles
industriels
industries
industry
ine
ineko
inertie
ines
inf
infante
infanterie
infantile
infantry
infe
infecte
infection
infections
infide
infiltration
infiltre
infini
infinie
infiniment
infinite
infirmie
infirmier
infirmiers
inflammation
inflation
inflige
influence
influencer
influences
influent
influents
info
infobox
information
informations
informatique
informatiques
informe
informer
infos
infra
infraction
infractions
infrared
infrarouge
infrastructure
infrastructures
infty
inge
ingestion
ingre
ingrid
inhabite
inhabituel
inhabituelle
inhe
inhumation
inhume
initial
initiale
initialement
initiales
initiateur
initiation
initiative
initiatives
initie
injecte
injection
injuste
injustice
inn
innocence
innocent
innocents
innombrables
innovation
innovations
innsbruck
inondables
inondation
inondations
inonde
inpn
inquie
inquiet
inquisition
inra
inscription
inscriptions
inscrire
inscrit
inscrite
inscrites
inscrits
inscrivant
inscrivent
inse
insecte
insectes
insee
inseeselon
insertion
inside
insigne
insignes
insistance
insiste
inspecteur
inspecteurs
inspection
inspirant
inspiration
inspire
inspirent
inspirer
instabilite
instable
instagram
installa
installation
installations
installe
installent
installer
instance
instances
instant
instantane
instants
instar
instauration
instaure
instaurer
instigation
instinct
institue
institut
institute
instituteur
instituteurs
institution
institutionnel
institutionnelle
institutions
instituto
institutrice
instituts
instructeur
instruction
instructions
instrument
instrumental
instrumentale
instrumentation
instruments
insu
insuffisance
insuffisant
insuffisante
insulaire
insulte
insultes
insurge
insurrection
int
inte
intel
intellectuel
intellectuelle
intellectuelles
intellectuels
intelligence
intelligent
intelligente
intempe
intendance
intendant
intense
intenses
intensifie
intensite
intensive
intente
intention
intentions
inter
interaction
interactions
interactive
intercepte
interception
interceptions
intercommunal
intercommunale
intercommunalite
intercommunaux
interconnexion
intercontinental
interde
interdiction
interdire
interdisant
interdit
interdite
interdites
interdits
interface
interfaces
interfe
interlocuteur
interme
interministe
intermodalite
internat
international
internationale
internationales
internationaux
internautes
interne
internement
internes
internet
interpelle
interpre
interrogation
interrogations
interrogatoire
interroge
interroger
interrompre
interrompt
interrompu
interrompue
interruption
intersaison
intersection
interstate
intervalle
intervalles
intervenant
intervenants
intervenir
intervention
interventions
intervenu
interviennent
intervient
interview
interviewe
interviews
interwiki
interwikis
intime
intimes
intimite
intitule
into
intole
intra
intrigue
intrigues
intrinse
intro
introduction
introduire
introduisant
introduit
introduite
introduites
introduits
intronise
intrusion
intuition
inutile
inutiles
inutilise
inv
invalide
invalides
invasion
invasions
inventaire
invente
inventer
inventeur
invention
inventions
inverse
inversement
inversion
inverte
investi
investigation
investigations
investir
investissement
investissements
investisseurs
investit
investiture
invincible
invisible
invisibles
invitant
invitation
invite
inviter
invoque
io
iode
ion
ionique
ionisants
ions
ios
iouri
iowa
ip
iphone
ips
ique
ir
ira
irak
irakien
irakienne
iran
iranien
iranienne
iraniens
irc
ire
ireland
irene
irina
iris
irish
irlandais
irlandaise
irlande
irma
iron
ironie
ironique
irre
irrigation
irving
is
isa
isaac
isabel
isabella
isabelle
isbn
ise
isidore
isis
islam
islamique
islamiques
islamiste
islamistes
island
islandais
islande
islanders
islands
isle
ismae
isme
ismes
iso
isolation
isole
isolement
isoler
isome
isotopes
israe
israel
issance
issn
issu
issue
issues
issus
issy
ist
istanbul
iste
istoce
istrie
it
italia
italian
italiana
italiano
italie
italien
italienne
italiennes
italiens
italique
italo
italy
ite
item
itine
ito
its
itunes
iv
iva
ivan
ive
iveco
ivoire
ivoirien
ivoirienne
ivre
ivry
iw
ix
ixe
ixelles
izumi
j
ja
jack
jackie
jackson
jacky
jacob
jacobins
jacobs
jacopo
jacqueline
jacques
jade
jadis
jae
jaguar
jai
jaime
jakarta
jake
jakob
jalousie
jaloux
jam
jamai
jamais
jambe
jambes
james
jamie
jan
jane
janeiro
janet
janine
janse
jantes
january
janvier
japan
japanese
japon
japonais
japonaise
japonaises
jardin
jardinage
jardinier
jardins
jared
jargon
jason
jasper
jauge
jauna
jaune
jaunes
jaure
java
javascript
javelot
javier
jay
jays
jazz
jc
je
jean
jeanne
jedi
jef
jeff
jefferson
jeffrey
jehan
jenkins
jennifer
jennings
jenny
jens
jensen
jeremy
jerome
jerry
jersey
jerusalem
jerzy
jesse
jessica
jessie
jesu
jesus
jet
jetant
jete
jeter
jets
jette
jettent
jeu
jeudi
jeune
jeuner
jeunes
jeunesse
jeunesses
jeux
jeuxvideo
jewish
jg
ji
jiang
jill
jim
jime
jimmy
jin
jlm
jn
jo
joa
joachim
joan
joanna
joanne
joaqui
joaquim
job
jockey
joconde
joe
joel
joey
johan
johann
johanna
johannes
johansson
john
johnnewton
johnny
johns
johnson
johnston
joie
joindre
joint
joints
joinville
joker
joli
jolie
joly
jon
jonas
jonathan
jonction
jones
jong
jordan
jordanie
jordi
jorf
jorge
jos
jose
josef
josep
joseph
josh
joshua
jospin
josse
joua
jouable
jouait
jouant
joubert
joue
jouent
jouer
jouera
jouet
jouets
joueur
joueurs
joueuse
joueuses
jouir
jouit
jour
jourdain
jourdan
journal
journalisme
journaliste
journalistes
journaux
journe
journey
jours
jouy
joy
joyce
joyeuse
joyeux
jp
jpeg
jpg
jr
js
ju
juan
jubile
juda
judai
judas
jude
judet
judge
judice
judiciaire
judiciaires
judicieux
judith
judo
judy
juge
jugeant
jugement
jugements
jugent
juger
juges
juif
juifs
juillet
juin
juive
juives
jul
jules
julia
julian
julie
julien
julienne
juliette
julio
julius
julliard
july
jumeau
jumeaux
jumelage
jumelages
jumele
jumelles
jument
jump
jun
june
jung
jungle
junior
juniors
junte
jupiter
jura
jurassic
jurassique
jure
juridiction
juridictions
juridique
juridiquement
juridiques
jurisprudence
juriste
juristes
jury
jus
jusqu
jusque
just
juste
justement
justes
justesse
justice
justifiant
justification
justifie
justifier
justify
justin
justine
justinien
juve
juventus
k
ka
kaboul
kabyle
kabylie
kadhafi
kahn
kai
kaiser
kamen
kan
kane
kang
kansas
kant
kaplan
kara
karate
karel
karen
karim
karin
karine
karl
karlsruhe
karma
karthala
kate
katherine
kathleen
kathy
katie
kaufman
kay
kayak
kazakhstan
kazan
ke
keep
kei
keirin
keith
keller
kelly
ken
kennedy
kenneth
kenny
kent
kentucky
kenya
kepler
kerr
kerry
kevin
key
keys
kg
kgb
kha
khaled
khan
khe
khl
ki
kick
kid
kids
kiel
kiev
kill
kille
killer
killing
kilome
kilos
kim
kimdime
kimi
kin
kind
kine
king
kingdom
kings
kingston
kinshasa
kiosque
kirby
kirghizistan
kirk
kirtap
kirtapme
kiss
kistan
kit
kitty
klaus
kle
klein
km
knicks
knight
knights
know
knowledge
knox
ko
kobayashi
kobe
koch
kon
kong
konrad
korea
korrigan
kos
kosovo
kova
kovski
kowei
kr
kra
kramer
kremlin
kris
kropotkine
ku
kung
kunst
kurde
kurdes
kurdistan
kurt
kv
kw
kyle
kyo
kyoto
kyro
kyu
l
la
lab
labe
label
labellise
labels
labor
laboration
laboratoire
laboratoires
laboratory
labore
laborer
labour
labrador
labre
labyrinthe
lac
lacan
lachaise
lacombe
lacoste
lacroix
lacs
lacte
lacunes
ladies
ladite
lady
lae
lafayette
laffont
lagarde
lage
lagos
lagrange
lagribouille
laguna
lagune
lah
lai
laine
lais
laissa
laissait
laissant
laisse
laissent
laisser
laissez
lait
laitie
lake
lakers
lam
lama
lamartine
lambda
lambert
lame
lames
lamine
lamothe
lampe
lampes
lamy
lan
lana
lanc
lancaster
lancastre
lance
lancelot
lancement
lancent
lancer
lancers
lanceur
lanceurs
lancia
lancolie
land
landais
landaise
landau
lande
landes
landmark
landry
landtag
lane
lang
langage
langages
lange
langer
langes
langevin
langfr
langle
langlois
langres
language
languages
langue
languedoc
langues
lanie
lanka
lans
lant
lanterne
lao
laon
laos
lapin
lapins
lapointe
laporte
laquelle
lara
lard
large
largement
larges
largeur
largi
largie
largir
largissement
largit
largue
larmes
laroche
larousse
larry
lars
larsen
larve
larves
las
laser
lasse
last
lastique
lat
late
latin
latine
latines
latino
latins
lation
lations
latitude
latium
latour
latte
lau
launay
laura
lauragais
laure
laurel
lauren
laurence
laurens
laurent
laurentides
laurie
laurier
lausanne
lautrec
lavage
laval
lave
laver
lavoir
law
lawrence
lawson
lay
laye
layer
lazare
lc
ld
le
lea
lead
leader
leaders
leadership
leafs
league
learning
leave
leben
leblanc
lebob
lebrouillard
lebrun
lec
lech
leclerc
leconte
lecteur
lecteurs
lectif
lection
lectionne
lectionner
lectionneur
lections
lective
lectoral
lectorale
lectorales
lectorat
lectoraux
lectricite
lectrification
lectrifie
lectrique
lectriques
lectro
lectromagne
lectrome
lectron
lectronique
lectroniques
lectrons
lecture
lectures
led
ledit
leduc
lee
leeds
lefe
lefebvre
lefigaro
lefranc
left
legacy
legend
legends
legifrance
legion
lego
legrand
legs
lei
leibniz
leicester
leigh
leinster
leipzig
lejeune
lemaire
lement
lemoine
lemonde
lemy
len
lena
lenchon
lendemain
leningrad
lennon
lenoir
lens
lent
lente
lentement
lentille
lentilles
leo
leon
leonard
leonardo
leone
leopold
lepage
lequel
lequipe
ler
lerin
lerinage
lerins
leroux
leroy
les
lesbienne
lesbiennes
lescope
leslie
lesquelles
lesquels
lestat
leste
lester
lestes
lestin
lestins
let
lette
letter
letters
letton
lettonie
lettre
lettres
leu
leur
leurs
lev
leva
levage
levages
levait
levallois
levant
leve
level
lever
leveurs
levi
levier
levis
levy
lewis
lex
lexikon
lexique
leyde
lez
lgbt
lgd
lgv
lhassa
lhjmq
lho
lhou
li
lia
liaison
liaisons
liam
lian
liane
liang
liant
liard
liban
libanais
libanaise
libataire
libataires
libe
libelle
liber
liberation
liberia
libertadores
libertaire
liberte
liberty
libraire
libraires
librairie
library
libre
librement
libres
libye
licat
licate
lice
licence
licences
licencie
licenciement
lices
licien
licitations
licite
licopte
licorne
lie
liebe
liechtenstein
lieder
liege
lien
lienne
liennes
liens
lier
lies
lieu
lieues
lieutenant
lieutenants
lieux
life
liga
light
lightgrey
lighthouse
lighthouses
lightning
lights
ligibilite
ligible
lignage
ligne
lignes
ligue
ligues
lih
liiga
like
lil
lilas
lili
liliane
lille
lily
lim
lima
limbourg
liminaire
liminaires
liminant
limination
liminatoire
liminatoires
limine
liminer
limitant
limitation
limitations
limite
limited
limitent
limiter
limites
limitrophe
limitrophes
limoge
limoges
limousin
lin
lina
lincoln
linda
lindsay
line
linear
lines
ling
linge
linguiste
linguistique
linguistiques
link
linnaeus
linne
linteau
linux
linz
lio
lion
lionel
lions
liorant
lioration
liorations
liore
liorer
lique
liques
liquidation
liquide
liquides
lire
lis
lisa
lisabeth
lisant
lisation
lisbonne
lise
lisent
liser
lisible
lisie
lisieux
lisle
lisme
lisque
lisse
lisses
list
liste
lister
listes
liszt
lit
lite
literature
lites
lithium
lithographe
lithographie
litige
litlok
litre
litres
lits
litt
litte
little
littoral
littorale
lituanie
lituanien
liturgie
liturgique
liturgiques
liu
lium
liv
live
liverpool
lives
living
livourne
livraison
livraisons
livrance
livrant
livre
livrent
livrer
livres
livret
lix
liz
ljubljana
ll
lle
ller
lloyd
lmp
ln
lna
lnb
lnh
lo
lobbying
lobe
loc
local
locale
localement
locales
localisation
localise
localiser
localite
locataires
location
locaux
loch
lock
locke
lockheed
locomotive
locomotives
locus
locuteurs
lode
lodge
lodie
lodies
lodrome
loeb
log
logan
loge
logement
logements
loger
loges
logiciel
logiciels
logique
logiquement
logiques
logis
logistique
logo
logos
logotype
loi
loigne
loignement
loigner
loin
loing
lointain
lointaine
loir
loire
loiret
lois
loisir
loisirs
lokomotiv
lola
lombard
lombardie
lombards
lome
lomita
lon
london
londonien
londres
lone
lonely
long
longe
longeant
longitude
longs
longtemps
longue
longuement
longues
longueur
longueurs
lons
look
looking
lope
lopez
loponne
lord
lords
lorenzo
lorette
lorient
lorrain
lorraine
lors
lorsqu
lorsque
lorusse
lorussie
los
losc
lost
lot
lotissement
lots
lotto
lotus
lou
loue
louer
louis
louisa
louise
louisiane
louisville
loup
loupe
loups
lourd
lourde
lourdement
lourdes
lourds
loutre
louvain
louvre
love
low
lowe
lowell
lower
loyal
loyalistes
loyaute
loyer
loze
lp
lplt
lr
lrem
ls
lt
ltd
lu
lubin
lublin
lubusz
luc
luca
lucas
luce
lucerne
luchon
lucia
luciano
lucie
lucien
lucius
lucky
lucratif
lucre
lucy
lude
ludo
ludovic
ludwig
lue
lues
luftwaffe
lugano
luge
lui
luigi
luis
luisa
luka
luke
lulu
lumie
lumineuse
lumineux
luminosite
luna
lunaire
lund
lundi
lune
lunette
lunettes
lupin
lure
lus
lusignan
luthe
luther
lutte
lutter
luttes
lutteur
lutz
lux
luxe
luxembourg
luxembourgeois
luxembourgeoise
luz
lv
lvarez
lvaro
lviv
ly
lyce
lydia
lynch
lynn
lynx
lyon
lyonnais
lyonnaise
lyre
lyrique
lys
lyse
m
ma
maastricht
mac
macao
macbeth
macdonald
mace
machin
machine
machines
mack
mackenzie
macmillan
macron
mad
madagascar
madame
made
madeleine
mademoiselle
madison
madone
madonna
madrid
mae
maestro
mafia
mag
magasin
magasins
magazine
magazines
magdalena
magdebourg
mage
magellan
mages
maggie
maghre
maghreb
magic
magicien
magie
magique
magiques
magistrat
magistrats
magistrature
magna
magne
magnifique
magnitude
magnum
magnus
magny
mahmoud
mahomet
mai
maigre
maigret
mail
maillard
maille
maillot
maillots
main
maine
mains
maintenance
maintenant
maintenir
maintenu
maintenue
maintes
maintien
maintiennent
maintient
maire
maires
mairie
mais
maison
maisonneuve
maisons
maitre
maitrise
maitron
majeste
majeur
majeure
majeures
majeurs
major
majoritaire
majoritairement
majoritaires
majorite
majorque
majors
majuscule
majuscules
make
making
mal
malade
malades
maladie
maladies
malaga
malais
malaise
malaisie
malawi
malcolm
maldives
male
malgache
malgre
malherbe
malheur
malheureusement
malheureux
malheurs
mali
malien
malik
malin
malines
malle
mallet
malmaison
malmo
malo
malone
malraux
maltais
malte
mama
maman
mammife
man
management
manager
manant
manche
manches
manchester
manchot
mancipation
mandarin
mandat
mandate
mandats
mande
mandela
mane
manet
manfred
manga
mangas
mange
manger
manhattan
manie
manifestants
manifestation
manifestations
manifeste
manifestement
manifestent
manifester
manille
manipulation
manipulations
manipule
manipuler
manitoba
mann
mannequin
mannheim
manning
manoir
manon
manquait
manquant
manque
manquent
manquer
mans
mante
manteau
mantele
mantes
mantique
mantoue
manu
manuel
manuelle
manuellement
manuels
manufacture
manufactures
manuscrit
manuscrite
manuscrits
many
manœuvre
manœuvres
mao
map
maple
maps
maquette
maquettes
maquillage
maquis
mar
mara
marai
marais
marathon
marbre
marc
marceau
marcel
marcelle
marcellin
marcello
marcelo
march
marchal
marchand
marchande
marchandes
marchandise
marchandises
marchands
marchant
marche
marchent
marcher
marches
marco
marcos
marcus
mardi
mare
mares
margaret
marge
marges
marginale
margot
margrave
marguerite
mari
maria
mariage
mariages
marian
mariana
marianne
mariano
marie
marient
marier
marigny
marilyn
marin
marina
marine
mariners
marines
marino
marins
mario
marion
marionnette
marionnettes
maris
maritime
maritimes
marius
marjorie
mark
marker
market
marketing
markov
marks
markus
marle
marly
marne
maroc
marocain
marocaine
marocains
marqua
marquage
marquant
marquante
marquants
marque
marquent
marquer
marques
marqueur
marqueurs
marquis
marquisat
marquise
marrage
marraine
marrakech
marre
marrer
marron
mars
marsan
marseillais
marseillaise
marseille
marsh
marshall
marta
marteau
martel
martha
marthe
marti
martial
martiale
martiaux
martin
martina
martine
martinet
martinez
martini
martinique
martino
martins
marty
martyr
martyre
martyrs
marvel
marvin
marx
marxisme
marxiste
mary
maryland
maryse
mas
mascotte
masculin
masculine
masculines
masculins
mask
mason
masque
masquer
masques
mass
massa
massachusetts
massacre
massacres
masse
masses
massif
massifs
massimo
massive
massivement
massives
masson
massy
master
masters
mat
mata
matador
match
matches
matchs
mate
mater
maternel
maternelle
maternelles
maternite
math
mathbb
mathbf
mathcal
mathe
mathematical
mathematics
mathias
mathieu
mathilde
mathis
mathrm
mathurin
maticien
maticiens
matie
matin
matinale
matine
matique
matiquement
matiques
matisse
matographique
matographiques
matpib
matrice
matrices
matricule
matrix
matt
matteo
matter
matthew
matthews
matthias
matthieu
mature
maturite
maubeuge
maud
maudit
maule
maupassant
maur
maure
maures
maurice
maurienne
mauritanie
maurizio
mauro
maurras
maury
mausole
mauvais
mauvaise
mauvaises
maux
max
maxi
maxim
maximal
maximale
maxime
maximilien
maximum
maximus
maxwell
may
maya
mayence
mayenne
mayer
mayo
mayor
mayotte
mazarin
mazovie
mazurie
mb
mba
mc
mccarthy
mccartney
mcdonald
mcgill
mclaren
mcmahon
md
me
meaux
mecklembourg
mecque
med
medal
media
mediapart
mediawiki
medical
medicine
medieval
medina
medium
meet
meeting
mega
megan
mehdi
mei
meiji
meilleur
meilleure
meilleures
meilleurs
mein
mel
melanie
melbourne
melchior
melissa
mello
melo
melody
melon
melun
melville
membrane
membre
membres
meme
mement
memorial
memory
memphis
men
mena
menac
menace
menacent
menacer
menaces
menait
menant
mence
mende
mendes
mendoza
mene
mener
meneur
menhir
mensonge
mensonges
mensuel
mensuelle
mensuelles
ment
mentaire
mentaires
mental
mentale
mentalite
mentation
mentaux
mente
menti
mentine
mention
mentionnant
mentionne
mentionnent
mentionner
mentions
menton
mentor
ments
menu
mer
meraude
mercato
mercedes
mercenaires
merci
mercier
mercredi
mercure
mercury
mercy
meredith
merge
mergence
mergent
merger
merle
merlin
merry
mers
merveille
merveilles
merveilleux
mes
mesa
mesnil
message
messager
messagerie
messages
messe
messes
messi
messieurs
messine
messire
mesurant
mesure
mesurent
mesurer
mesures
met
meta
metacritic
metal
metro
metropolitan
mets
mettait
mettant
mette
mettent
metteur
metteurs
mettra
mettre
metz
meuble
meubles
meudon
meunier
meurent
meurs
meurt
meurthe
meurtre
meurtres
meurtrie
meurtrier
meuse
meute
meutes
mexicain
mexicaine
mexicains
mexico
mexique
meyer
mez
mezzo
mg
mgm
mgr
mguf
mh
mha
mhnt
mhz
mi
mia
miami
mica
mices
michae
michael
michaels
michaud
miche
michel
michele
michelet
michelin
michelle
michigan
micien
mick
mickae
mickey
micro
microne
microre
microscope
microsoft
mid
middle
midi
midnight
mie
miel
mien
mies
mieux
mig
mighty
mignon
migrants
migrateurs
migration
migrations
migratoire
migre
migrer
miguel
mika
mike
mikhai
mil
milan
milano
mile
milena
miles
milice
milices
miliciens
milie
milieu
milieux
militaire
militairement
militaires
militant
militante
militantisme
militants
military
milite
milk
mill
millau
mille
miller
milles
millet
milliard
milliardaire
milliards
millie
millier
milliers
millime
million
millions
mills
milo
milos
milton
milwaukee
mime
mimi
min
mina
minaire
minaires
minas
mince
minces
mind
mine
minence
minent
minents
minerai
minerais
mines
mineur
mineure
mineures
mineurs
ming
minh
mini
miniature
miniatures
minie
minier
minima
minimal
minimale
minimes
minimiser
minimum
minin
minine
minines
minins
minisme
ministe
ministes
ministre
ministres
minneapolis
minnesota
minor
minoritaire
minoritaires
minorite
minsk
minuit
minuscule
minuscules
minute
minutes
mio
mioce
miologie
mique
miques
mir
mira
mirabeau
miracle
miracles
mirage
miranda
mirats
mireille
mirent
miriam
miro
miroir
miroirs
mirror
mis
miscamingue
mise
mises
misme
misphe
miss
missaire
missile
missiles
missing
mission
missionnaire
missionnaires
missionne
missionner
missions
mississippi
missouri
mister
mistral
mit
mitch
mitchell
mite
mites
mitige
mitisme
mitrailleuse
mitrailleuses
mitsubishi
mitterrand
mix
mixage
mixe
mixtape
mixte
mixtes
mk
ml
mlb
mls
mm
mme
mn
mo
mobile
mobiles
mobilier
mobilisation
mobilise
mobiliser
mobilite
mocrate
mocrates
mocratie
mocratique
mocratiques
mod
modalite
mode
model
modele
modem
modern
moderne
modernes
modernisation
modernise
moderniser
moderniste
modernite
modes
modeste
modestes
modif
modifiant
modification
modifications
modifie
modifier
modifs
modillons
modo
modulation
module
modules
moe
moelle
moellons
moez
mogador
mographie
mographique
mographiques
mohamed
mohammad
mohammed
moi
moignage
moignages
moigne
moignent
moigner
moin
moindre
moindres
moine
moines
moins
moire
moires
mois
moitie
mol
moldave
moldavie
mole
moli
molie
molina
molition
mollusques
molly
moment
momentane
moments
momie
mon
mona
monaco
monarchie
monarque
monaste
monastique
moncton
mond
monde
mondes
mondial
mondiale
mondiales
mondialisation
mondiaux
mondo
mone
monet
money
mongenet
mongol
mongole
mongolie
mongols
monica
monie
monies
monique
moniteur
monk
monkey
monnaie
monnaies
monnier
mono
monobook
monod
monographie
monographies
monoplace
monoplaces
monopole
monroe
mons
monseigneur
monsieur
monster
monsters
monstration
monstrations
monstre
monstres
mont
montage
montagne
montagnes
montagneuse
montagneux
montaigne
montaigu
montana
montant
montants
montargis
montauban
montbe
monte
montent
monter
montesquieu
monteur
montevideo
montfort
montgomery
monthly
montigny
montluc
montmartre
montmorency
montparnasse
montpellier
montra
montrait
montrant
montre
montreal
montrent
montrer
montres
montreuil
montreux
montrouge
monts
monture
monument
monumental
monumentale
monumentales
monuments
monza
moon
moore
moque
mora
moral
morale
morales
moralite
morand
morant
moratif
moration
morative
moraux
moravie
morbihan
morburre
morceau
morceaux
more
moreau
morel
moreno
morer
morgan
mori
morial
morin
moritz
morlaix
morning
moro
morphologie
morris
morrison
morse
mort
mortalite
morte
mortel
mortelle
mortellement
mortels
mortes
mortier
mortiers
mortimer
morton
morts
morvan
mos
mosai
moscou
moselle
moses
mosque
moss
most
mostra
mot
moteur
moteurs
mother
motif
motifs
motion
motions
motivation
motivations
motive
moto
motor
motorisation
motorise
motors
motos
motrice
motrices
mots
motte
mou
mouche
mouches
mouille
moulay
moule
moules
moulin
moulineaux
moulins
moulure
mount
mountain
mountains
mourant
mourir
mourut
mouse
mousquetaires
moussa
mousse
mousson
mouton
moutons
mouvance
mouvement
mouvemente
mouvements
move
movement
movie
movies
moyen
moyennant
moyenne
moyennes
moyens
moyg
mozambique
mozart
mozilla
mp
mr
mrc
mrs
ms
mt
mtv
mu
much
mue
muet
muhammad
mulation
mulhouse
muller
multi
multijoueur
multime
multiple
multiples
multiplication
multiplie
multiplient
multiplier
multitude
mun
mundi
mundo
mune
muni
munich
municipal
municipale
municipales
municipalite
municipaux
munie
munis
munition
munitions
munster
mur
muraille
murailles
murale
murales
murat
murcie
murder
mure
muret
muriel
muros
murphy
murray
murs
mus
muscle
muscles
musculaire
muse
museau
museo
museum
music
musica
musical
musicale
musicales
musicaux
musicien
musicienne
musiciens
musicologue
musik
musique
musiques
musset
mussolini
must
mustafa
mustang
mustapha
musulman
musulmane
musulmanes
musulmans
mutant
mutants
mutation
mutations
mute
mutile
mutuel
mutuelle
mutuellement
mv
mvp
mw
my
myce
myers
myle
myriam
myste
mystery
mystique
mythe
mythes
mythique
mythologie
mythologique
mythologiques
mœurs
n
na
nac
nach
nacional
nad
nadal
nade
nadia
nadine
nagano
nagasaki
nage
nagement
nagements
nagent
nager
nagers
nages
nageur
nageuse
naggobot
nagoya
nai
nain
naine
nains
naire
naires
nairobi
naissance
naissances
naissent
nait
nakamura
nal
nale
nales
nalise
nalite
nam
name
names
namibie
namur
nan
nana
nancy
nanie
nankin
nant
nantais
nanterre
nantes
naomi
naples
napole
napoli
nappe
nappes
naquit
nara
narbonne
narcisse
nard
nario
narios
narise
nariste
naristes
narrateur
narratif
narration
narrative
naruto
nas
nasa
nash
nashville
nassau
nasser
nat
natacha
natal
natale
natalia
natalie
natalite
natasha
natation
nate
nateur
nateurs
nathalie
nathan
nathaniel
natif
nation
national
nationale
nationales
nationalisation
nationalise
nationalisme
nationaliste
nationalistes
nationalite
nationaux
nations
native
nativite
natoriales
natrice
natura
natural
naturalise
naturaliste
nature
naturel
naturelle
naturellement
naturelles
naturels
natures
naufrage
nauru
nautique
nautiques
naval
navale
navales
navals
navant
navarre
navarro
navette
navigable
navigateur
navigateurs
navigation
navigue
naviguer
navire
navires
navy
naxos
nazaire
nazareth
nazi
nazie
nazionale
nazis
nazisme
nb
nba
nbc
nc
ncaa
nchen
nchez
ncide
ncident
ncis
nd
nde
nder
ndez
ne
neal
near
neau
neaux
nebraska
nec
ned
need
nef
nefs
negro
neige
neiges
neil
neill
nel
nell
nella
nelly
nelson
nement
nements
nemo
nemours
nen
nent
neo
neptune
ner
nera
nerf
nerfs
nerge
nergie
nergies
nergique
nero
nerve
nerveux
nervures
nes
neste
nestor
net
netflix
nets
nette
nettement
nettoyage
nettoyer
network
neucha
neue
neuf
neufcha
neufs
neuilly
neumann
neur
neurones
neurs
neutralise
neutraliser
neutralite
neutre
neutres
neutrons
neuve
neuvie
neuville
nevada
never
nevers
neveu
neveux
neville
new
newcastle
newman
newport
news
newton
next
nez
nf
nfl
ng
ngc
ngel
nguyen
nh
ni
nia
niagara
nible
nic
nica
nicaragua
niccolo
nice
niche
niches
nicholas
nichols
nicholson
nick
nickel
nicky
nico
nicola
nicolas
nicole
nid
nids
nie
niels
nielsen
nien
nienne
niens
nient
nients
nier
nierie
nies
nietzsche
nieur
nieurs
nig
nige
nigel
niger
nigeria
night
nightmare
nights
nigme
nigsberg
nike
nikita
nikki
nikola
nikolai
nil
nile
niles
nils
nin
nina
nine
ningrad
ninja
nino
ninsule
nintendo
nio
niort
nippon
nique
niques
nis
nisme
nissan
niste
nistique
nite
nitentiaire
nitents
nith
nitien
nitienne
nitiens
nium
niveau
niveaux
nivele
nix
nixon
nk
nl
nm
no
noa
noah
noailles
nobel
noble
nobles
noblesse
noces
nocide
nocturne
nocturnes
noe
noel
nogent
nographie
noi
noir
noire
noires
noirs
nois
noise
noisy
noix
nolan
nologie
nom
nomade
nomades
nombre
nombres
nombreuse
nombreuses
nombreux
nome
nomenclature
nominale
nomination
nominations
nomine
nomma
nommait
nommant
nomme
nomment
nommer
noms
non
nonc
nonce
noncent
noncer
nonciation
none
nor
nora
norbert
nord
nordique
nordiques
norfolk
norma
normal
normale
normalement
normales
normalisation
normalise
norman
normand
normande
normandes
normandie
normands
norme
normes
norris
norte
north
northern
northumberland
norton
norve
norwegian
norwich
nos
nostalgie
not
nota
notable
notablement
notables
notaire
notamment
notant
notation
note
noter
notera
notes
nothing
notice
notices
notification
notifie
notion
notions
notoc
notoire
notons
notorie
notre
nottingham
nou
noue
nouill
noume
nourrir
nourrissent
nourrit
nourriture
nous
nouveau
nouveaute
nouveaux
nouvel
nouvelle
nouvellement
nouvelles
nouvelliste
nov
nova
novak
novation
nove
novel
november
novembre
novgorod
novi
novo
now
noyau
noyaux
noye
noyer
noyon
np
nr
nrj
ns
nsdap
nster
nt
nther
nu
nuage
nuages
nuance
nuances
nucle
nuclear
nue
nues
nueva
nuevo
nuire
nuit
nuits
nul
nulle
nullement
nuls
num
number
nume
numismatique
nuremberg
nurie
nus
nutriments
nutrition
nwa
nxt
ny
nymphe
nœud
nœuds
o
oak
oakland
oasis
oav
obama
obe
oberliga
objectif
objectifs
objection
objective
objet
objets
oblast
obligation
obligations
obligatoire
obligatoirement
obligatoires
oblige
obligeant
obligent
obliger
oblique
obs
obscur
obscure
obscurite
obse
observant
observateur
observateurs
observation
observations
observatoire
observe
observer
obsession
obsole
obstacle
obstacles
obtenant
obtenir
obtention
obtenu
obtenue
obtenues
obtenus
obtiendra
obtiennent
obtient
obtint
obus
oc
occasion
occasionne
occasionnellement
occasionnels
occasions
occident
occidental
occidentale
occidentales
occidentaux
occitan
occitane
occitanie
occulte
occupa
occupaient
occupait
occupant
occupants
occupation
occupations
occupe
occupent
occuper
occupera
occurrence
ocde
oce
ocean
och
oclassique
ocre
oct
octave
octets
october
octobre
octogonale
octroi
octroie
octroye
odal
odale
ode
oder
odessa
odette
odeur
odile
odore
odysse
oeil
oeuvre
oeuvres
of
off
offenbach
offensif
offensive
offensives
offert
offerte
offertes
offerts
office
officer
offices
official
officialise
officie
officiel
officielle
officiellement
officielles
officiels
officier
officiers
offrait
offrande
offrandes
offrant
offre
offrent
offres
offrir
offrit
offs
offshore
og
ogc
oge
ogive
ogives
ogm
ogothique
ographe
ographie
ographique
ographiquement
ographiques
oh
ohio
oi
oie
oignons
oil
oilers
ois
oise
oiseau
oiseaux
oit
oivent
ok
okinawa
oklahoma
ol
ola
olaf
old
oldenbourg
oldid
ole
oleg
oles
olga
olien
olienne
oliennes
olithique
oliv
olive
oliveira
oliver
olivia
olivier
oliviers
olocalisation
ologie
ologien
ologiens
ologique
ologiques
ologue
ologues
olonne
oloron
olsen
olympe
olympia
olympic
olympics
olympique
olympiques
om
oman
omar
ombre
ombres
ome
omega
omer
omnibus
omnipre
omnisports
omnium
omorphes
oms
on
onard
once
oncle
onde
ondes
ondule
one
ong
onglet
onien
oniennes
online
only
onne
onnerie
onnique
onore
ons
ont
ontario
ontologie
ontologue
onu
onze
onzie
op
opa
opard
ope
opel
open
opera
operation
operations
operatorname
ophile
opiliones
opinion
opinions
opium
opold
opole
opolitique
oportail
oppidum
opportunite
opposa
opposant
opposants
oppose
opposent
opposer
opposition
oppositions
oppression
ops
opte
optimale
optimisation
optimiser
option
optionnel
options
optique
optiques
opus
or
ora
oracle
orage
orages
oral
orale
oran
orange
orangerie
orateur
oratoire
oratorio
orbitale
orbitales
orbite
orchestra
orchestration
orchestre
orchestres
orchide
order
ordinaire
ordinaires
ordinateur
ordinateurs
ordination
ordonna
ordonnance
ordonnances
ordonne
ordonner
ordre
ordres
ordures
ore
oregon
oreille
oreilles
ores
orfe
org
organe
organes
organique
organiques
organisa
organisant
organisateur
organisateurs
organisation
organisations
organise
organisent
organiser
organisme
organismes
organiste
organization
orge
orgie
orgien
orgienne
orgue
orgueil
orgues
oricien
oricon
orie
orient
oriental
orientale
orientales
orientaliste
orientation
orientations
orientaux
oriente
orienter
ories
origin
originaire
originaires
original
originale
originales
originalite
originaux
origine
originel
originelle
originellement
origines
origins
orion
orique
oriquement
oriques
orlando
orle
orleans
orlodrim
orly
orne
ornement
ornementation
ornements
ornithologique
oro
orologie
orologique
orologiques
orphe
orphelin
orphelinat
orpheline
orphelins
orsay
orson
orstom
ortega
ortf
orthez
orthodoxe
orthodoxes
orthodoxie
orthodromiques
orthographe
orthographie
ortiz
orton
os
osaka
oscar
oscars
ose
osiris
oskar
oslo
osse
ossements
osseuse
ost
oste
ostende
oswald
ot
otage
otages
otan
otechnique
other
othon
otis
ottawa
otto
ottoman
ottomane
ottomans
otton
otype
otypes
ou
oubli
oublie
oublier
oued
ouen
ouest
ouestd
ouganda
oui
oul
our
ouragan
oural
ours
out
outaouais
outil
outils
outre
ouvert
ouverte
ouvertement
ouvertes
ouverts
ouverture
ouvertures
ouvrage
ouvrages
ouvrant
ouvre
ouvrent
ouvrie
ouvrier
ouvriers
ouvrir
ouvrit
ouzbe
ov
ovale
over
overrightarrow
ovide
owen
owens
own
oxford
oxydation
oxyde
oxyge
oz
ozone
p
pa
pablo
pac
pace
pacha
pacific
pacifique
pacifiste
pack
paco
pacte
padoue
page
pages
pai
paie
paiement
paiements
paille
pain
pains
painting
pair
paire
paires
pairie
pairs
pais
paisible
paisse
paisseur
paix
pakistan
pakistanais
pal
palace
palais
palatin
palatinat
palazzo
pale
palerme
pales
palestine
palestinien
palestinienne
palestiniens
palette
palettes
palier
palissy
pallas
pallier
palm
palma
palmare
palme
palmer
palmes
palmier
palmiers
palomar
pam
pamela
pamiers
pampelune
pamphlet
pan
panam
panama
paname
pand
panda
pande
pandre
pandu
pandue
panel
pang
panier
panique
panne
panneau
panneaux
panorama
panoramio
panoramique
pans
pantalon
panthe
panther
panthers
pantin
panzer
paola
paolo
papa
papaute
pape
paper
papers
papes
papier
papiers
papillon
papillons
papouasie
papyrus
paquebot
paquet
paquets
par
para
parachute
parachutiste
parachutistes
parade
paradigme
paradis
paradise
paradoxalement
paradoxe
paragraphe
paragraphes
paraguay
parai
paraissent
parait
paralle
paralympique
paralympiques
paralyse
parame
paramount
parana
paranoi
parant
parasite
parasites
parateur
paratifs
paration
parations
paratistes
parative
paratoire
paratoires
paratype
parc
parce
parcelle
parcelles
parcourant
parcourir
parcours
parcourt
parcouru
parcourue
parcs
pardon
pardonne
pare
pareil
parent
parente
parenthe
parents
parer
parfait
parfaite
parfaitement
parfois
parfum
parfums
pargne
pari
parie
paris
parisien
parisienne
parisiennes
parisiens
parite
park
parker
parking
parks
parlait
parlant
parle
parlement
parlementaire
parlementaires
parlements
parlent
parler
parles
parlez
parliament
parloir
parlons
parme
parmi
parodie
paroi
parois
paroisse
paroisses
paroissial
paroissiale
paroissiens
parole
paroles
parolier
parque
parquet
parrain
parrainage
parraine
pars
parseme
parsons
part
partage
partageant
partagent
partager
partant
partement
partemental
partementale
partementales
partementaux
partements
partenaire
partenaires
partenariat
partenariats
partent
parthe
parti
partial
participa
participant
participantes
participants
participatif
participation
participationre
participations
participe
participent
participer
participera
particularite
particule
particules
particulie
particulier
particuliers
partie
partiel
partielle
partiellement
partielles
parties
partir
partis
partisan
partisans
partissent
partit
partition
partitions
partners
partout
parts
party
paru
parue
parus
parut
parution
parvenant
parvenir
parvenu
parvenus
parviennent
parvient
parvint
parvis
pas
pascal
pascale
pass
passa
passage
passager
passagers
passages
passaient
passait
passant
passe
passement
passent
passeport
passer
passera
passerelle
passes
passeur
passif
passion
passionne
passions
passive
passy
past
pastel
pasteur
pasteurs
pastoral
pastorale
pat
patagonie
patentes
paternel
paternelle
paternite
pathe
pathoge
pathologie
pathologies
patience
patient
patients
patinage
patineur
patineuse
patinoire
patois
patriarcat
patriarche
patrice
patricia
patrick
patrie
patrimoine
patrimoines
patrimonial
patriote
patriotes
patriotique
patriots
patron
patronage
patronne
patrons
patronyme
patronymes
patrouille
patrouilles
patrouilleur
patrouilleurs
patte
patterson
pattes
patton
pau
paul
paula
paule
paules
paulette
paulin
pauline
paulo
paume
pause
pauvre
pauvres
pauvrete
pave
pavel
pavie
pavillon
pavillons
pay
payant
paye
payer
payne
payot
pays
paysage
paysages
paysagiste
paysan
paysanne
paysans
paz
pb
pc
pcf
pd
pdd
pdf
pdg
pe
peace
peak
pearl
pearson
peau
peaux
pedro
peggy
peindre
peine
peines
peint
peinte
peintes
peintre
peintres
peints
peinture
peintures
pele
pelle
pelletier
pellicule
peloton
pelouse
pelouses
pen
penalty
penche
pencher
pend
pendaison
pendait
pendamment
pendance
pendances
pendant
pendante
pendantes
pendantiste
pendantistes
pendants
pendent
pendre
pendu
pendule
penguin
penguins
penn
pennsylvania
pennsylvanie
penny
pens
pensaient
pensais
pensait
pensant
pense
pensent
penser
penses
penseur
penseurs
pensez
pension
pensionnaire
pensionnat
pensions
pente
penteco
pentes
people
pepper
per
perc
perce
percement
perception
percer
percevoir
perche
percussion
percussions
percute
percy
perd
perdant
perdent
perdit
perdre
perdu
perdue
perdues
perdure
perdus
pereira
perez
perfect
perfection
perfectionne
perfectionnement
performance
performances
performant
period
perkins
perle
perles
permanence
permanent
permanente
permanentes
permanents
permet
permets
permettaient
permettait
permettant
permette
permettent
permettra
permettrait
permettre
permettront
permirent
permis
permission
permit
pero
peron
perpe
perpendiculaire
perpignan
perrault
perret
perrier
perrin
perron
perrot
perry
persan
perse
perses
persistance
persiste
perso
person
personal
personnage
personnages
personnalise
personnalite
personne
personnel
personnelle
personnellement
personnelles
personnels
personnes
perspective
perspectives
persuade
perte
pertes
perth
pertinence
pertinent
pertinente
pertinentes
pertinents
pertoire
pertorie
perturbation
perturbations
perturbe
perturber
peru
pes
pesant
peser
peste
pesticides
pet
pete
peter
peters
peterson
petit
petite
petites
petits
petra
peu
peugeot
peuple
peuplement
peuples
peur
peut
peuvent
peux
pez
pf
pg
ph
phale
phane
phanie
phant
phantom
phants
pharaon
phare
phares
pharmaceutique
pharmaceutiques
pharmacie
pharmacien
phase
phases
phe
phi
phil
philadelphia
philadelphie
philanthrope
philate
philharmonique
philibert
philip
philipp
philippe
philippine
philippines
philips
phillip
phillips
philologie
philologue
philosophe
philosophes
philosophie
philosophique
philosophiques
philosophy
phine
phoenix
phone
phones
phonie
phonique
phoniques
phosphate
phosphore
photo
photographe
photographes
photographie
photographies
photographique
photographiques
photos
photovoltai
php
phrase
phrases
phre
phyllis
phyloge
physicien
physics
physiologie
physique
physiquement
physiques
pi
pia
pianiste
piano
pianos
piazza
pib
pic
picard
picardie
picasso
piccolo
pice
picerie
pices
pick
pics
picture
pictures
pide
pidopte
pie
piece
pied
pieds
pier
pierce
piero
pierre
pierres
pierrette
pierrot
pieta
pieter
pietro
pieux
pigeon
pigeonnier
pigments
pignon
pignons
pilastres
pile
piles
pilier
piliers
pillage
pillages
pille
pilot
pilotage
pilote
pilotes
pin
pinal
pinay
pince
pinceau
pine
pines
ping
pingle
pinie
pink
pino
pinot
pins
pinto
pinyin
pion
pionnie
pionnier
pionniers
piotr
pipe
piper
pique
pirate
piraterie
pirates
pire
pires
pis
piscine
piscopal
piscopale
piscopat
pise
pisode
pisodes
pistage
piste
pistes
pistolet
piston
pistons
pit
pital
pitaphe
pitaux
pithe
pitie
pitt
pittoresque
pittsburgh
pivot
pixels
pixeltoo
pizza
pj
pk
pl
pla
plac
place
placement
placements
placent
placer
places
plafond
plage
plages
plagiat
plai
plaide
plain
plaindre
plaine
plaines
plaint
plainte
plaintes
plaire
plaisance
plaisir
plaisirs
plait
plan
planche
plancher
planches
planck
plane
planet
planeur
planification
planifie
planning
plans
plant
plantation
plantations
plante
planter
plantes
plants
plaque
plaques
plaquette
plasma
plasticien
plastique
plastiques
plat
plata
plate
plateau
plateaux
plateforme
plateformes
plates
platine
platnick
platon
plats
play
playboy
player
players
playoffs
playstation
plaza
ple
please
plein
pleine
pleinement
pleines
pleins
plessis
pleure
pleurer
pli
plie
pline
plique
pliques
plis
plm
ploie
ploiement
plomb
plon
plonge
plongeon
plonger
plore
plotarea
plotdata
ploye
ployer
plu
pluie
pluies
plumage
plume
plumes
plupart
pluriel
plus
plusieurs
plutarque
pluto
pluton
pluviome
plymouth
pm
pmatrix
pme
pndp
pneumatique
pneumatiques
pneumonie
pneus
png
po
poche
poches
pochette
pocket
podium
podiums
poe
poems
poetry
poids
poigne
poil
poils
poincare
poing
point
pointant
pointe
pointer
pointes
pointeur
points
poire
poirier
poirot
pois
poison
poisson
poissons
poissy
poitevin
poitiers
poitou
poitrine
poivre
poke
poker
pol
polaire
polaires
polar
polarisation
pole
poli
police
polices
policie
policier
policiers
policy
polis
political
politicien
politiciens
politico
politics
politique
politiquement
politiques
politologue
pollen
polluants
pollue
pollution
polmars
polo
pologne
polonais
polonaise
polonaises
poly
polychrome
polydor
polye
polyme
polyne
polyno
polytechnique
polyvalent
polyvalente
pome
pomme
pommes
pommier
pompage
pompe
pompes
pompidou
pompier
pompiers
ponce
ponctue
ponctuellement
pond
pondant
ponde
pondent
pondit
pondre
pondu
poney
ponge
pons
ponse
ponses
pont
ponte
pontevedra
pontifical
pontificale
pontificaux
pontoise
ponts
ponyme
pool
pop
pope
popo
populaire
populaires
popular
popularise
popularite
population
populations
poque
poques
por
porc
porcelaine
porche
porcs
porno
pornographie
pornographique
pornographiques
porsche
port
porta
portable
portables
portage
portaient
portail
portails
portait
portal
portant
portation
porte
portefeuille
portent
porter
portera
portes
porteur
porteurs
porteuse
portier
portion
portions
portique
portland
porto
portrait
portraitiste
portraits
ports
portsmouth
portuaire
portuaires
portugais
portugaise
portugal
pos
posa
posant
pose
posent
poser
positif
positifs
position
positionne
positionnement
positions
positive
positivement
positives
posse
possession
possessions
possibilite
possible
possiblement
possibles
post
postal
postale
postales
poste
poster
posteriori
postes
postface
posthume
postule
posture
pot
potable
potassium
poteau
poteaux
potentialite
potentiel
potentielle
potentiellement
potentielles
potentiels
poterie
poteries
potier
pots
potsdam
potter
potuit
pouce
pouces
pouchkine
poudre
pouille
pouilles
poulain
poule
poules
poulet
poulpy
poumon
poumons
poupe
pour
pourcentage
pourparlers
pourpre
pourquoi
pourra
pourraient
pourrais
pourrait
pourriez
pourront
poursuit
poursuite
poursuites
poursuivant
poursuivent
poursuivi
poursuivie
poursuivis
poursuivit
poursuivre
pourtant
pourtour
pourvoir
pourvu
pourvue
pourvues
pourvus
pousa
pouse
pouser
pouses
poussant
pousse
poussent
pousser
poussie
poussin
poutine
poutre
poutres
pouvaient
pouvait
pouvant
pouvez
pouvoir
pouvoirs
pouvons
poux
pov
powell
power
powers
powiat
poznan
pp
ppen
pr
pra
practice
pradesh
prado
pragmatique
prague
praguedistances
prairie
prairies
prat
pratiquant
pratiquants
pratique
pratiquement
pratiquent
pratiquer
pratiques
pratt
pre
premie
premier
premiere
premiers
premio
prenait
prenant
prend
prendra
prendre
prends
prenez
prenne
prennent
pres
presbyte
prescription
prescriptions
prescrit
present
presents
president
presley
presqu
presque
press
presse
presses
pression
pressions
prestation
prestations
prestige
prestigieuse
prestigieuses
prestigieux
preston
pretoria
pretty
preuve
preuves
preux
pri
price
pride
prie
prier
priest
prieur
prieure
prima
primaire
primaires
prime
primer
primes
primetime
primitif
primitifs
primitive
primitives
primo
primordial
prince
princes
princess
princesse
princesses
princeton
princie
principal
principale
principalement
principales
principaute
principaux
principe
principes
print
printemps
priori
prioritaire
prioritaires
priorite
prirent
pris
prise
prises
prison
prisonnie
prisonnier
prisonniers
prisons
prit
privat
private
privatisation
prive
privile
prix
prize
pro
probabilite
probable
probablement
proble
problem
proce
proceedings
process
processeur
processeurs
procession
processus
prochain
prochaine
prochainement
prochaines
prochains
proche
prochepar
proches
proclamation
proclame
procure
procurer
procureur
prod
producteur
producteurs
production
productions
productivite
productrice
produire
produisait
produisant
produisent
produisit
produit
produite
produites
produits
prof
profane
professeur
professeure
professeurs
profession
professional
professionnel
professionnelle
professionnelles
professionnels
professions
professor
profil
profile
profils
profit
profitant
profite
profitent
profiter
profits
profond
profonde
profondes
profondeur
profondeurs
profonds
program
programmation
programme
programmes
progre
progress
progresse
progresser
progressif
progression
progressiste
progressistes
progressive
progressivement
proie
proies
project
projectiles
projection
projections
projet
projete
projets
projette
prole
prolife
prolifique
prologue
prolongation
prolongations
prolonge
prolongement
prolonger
prome
promenade
promenades
promesse
promesses
promet
prometteur
promeut
promis
promise
promo
promontoire
promoteur
promoteurs
promotion
promotionnel
promotionnelle
promotions
promouvoir
promu
promue
promulgation
promulgue
promus
pronom
pronoms
prononc
prononce
prononcer
prononciation
propagande
propagation
propage
properties
prophe
propice
proportion
proportionnel
proportionnelle
proportions
propos
proposa
proposait
proposant
propose
proposent
proposer
proposition
propositions
proposons
propre
proprement
propres
proprie
propulse
propulsion
prose
prospe
prospective
prosper
prost
prostitue
prostitution
protagoniste
protagonistes
prote
protecteur
protection
protections
protectorat
protectrice
protestant
protestante
protestantes
protestantisme
protestants
protestation
protestations
proteste
protester
prothe
proto
protocole
protocoles
prototype
prototypes
proue
proust
prouvant
prouve
prouvent
prouver
provenance
provenant
provenc
provence
provenir
providence
proviennent
provient
province
provinces
provincial
provinciale
provinciales
provinciaux
provins
provisions
provisoire
provisoirement
provocation
provoqua
provoquant
provoque
provoquent
provoquer
proximite
proxy
prud
prudence
prudent
prusse
prussien
prussienne
prussiens
ps
psa
psaume
psaumes
pseudo
pseudonyme
pseudonymes
pseudoscorpions
psg
psi
psoe
psychanalyse
psychanalyste
psychanalytique
psyche
psychiatre
psychiatrie
psychiatrique
psychique
psycho
psychologie
psychologique
psychologiques
psychologue
psychothe
pt
pte
ptole
pts
pu
pub
publia
publiant
public
publicain
publicaine
publicaines
publicains
publication
publications
publicitaire
publicitaires
publicite
publics
publie
publient
publier
publique
publiquement
publiques
published
publishers
publishing
puce
puces
puerto
puf
puget
puis
puise
puisement
puisqu
puisque
puissance
puissances
puissant
puissante
puissantes
puissants
puisse
puissent
puits
pulcre
pulmonaire
pulture
pultures
pulve
puma
puni
punique
punir
punition
punk
punta
pur
puration
pure
purement
purent
purete
purge
purple
puscule
pushing
put
putation
pute
puy
puzzle
pwet
px
py
pyb
pylo
pyramide
pyramides
pyre
python
q
qai
qatar
qc
qi
qin
qing
qix
qu
quad
quadrangle
quadruple
quai
quais
qualifiant
qualificatif
qualification
qualifications
qualificative
qualifie
qualifient
qualifier
qualitative
qualite
quand
quant
quantique
quantitative
quantite
quantum
quarantaine
quarante
quart
quarterback
quartet
quartier
quartiers
quarts
quartz
quasi
quasiment
quat
quate
quaternaire
quateur
quation
quations
quatoriale
quatorze
quatorzie
quatre
quatrie
quatuor
que
quebec
queen
queens
queensland
quel
quelconque
quelle
quelles
quelqu
quelque
quelquefois
quelques
quels
quemment
quence
quences
quent
quentation
quente
quenter
quentes
quentin
quents
quercy
querelle
querelles
ques
quest
question
questions
questre
questres
queue
qui
quichotte
quick
quiconque
quid
quie
quilibre
quille
quimper
quincy
quinn
quint
quintette
quinzaine
quinze
quinzie
quipage
quipages
quipe
quipement
quipements
quiper
quipes
quipier
quipiers
quisitionne
quitable
quitation
quite
quitta
quittant
quitte
quittent
quitter
quittera
quivalence
quivalent
quivalente
quivalents
quivaut
quo
quoi
quoiqu
quoique
quotas
quotidien
quotidienne
quotidiennement
quotidiennes
quotidiens
quotient
r
ra
rabat
rabbi
rabbin
rabbit
rabelais
rabilite
rable
rablement
rables
rac
racconish
raccordement
raccourci
race
races
rachat
rache
rachel
rachete
racheter
rachid
raciale
racine
racines
racing
racisme
raciste
racistes
racle
racontant
raconte
racontent
raconter
radar
radars
rade
radiation
radical
radicale
radicalement
radicaux
radio
radioactif
radioactifs
radioactivite
radiodiffusion
radiophonique
radios
radon
rae
raf
rafael
rafale
raffine
raffinerie
rafle
rafrai
rage
rahman
rai
raid
raiders
raids
raie
raient
raies
rail
railles
railroad
rails
railway
rain
rainbow
rainer
raire
raires
rais
raisin
raisins
raison
raisonnable
raisonne
raisonnement
raisons
rait
raja
rajoute
rajouter
ral
rald
raldique
rale
ralement
ralenti
ralentir
ralentissement
rales
ralisation
ralise
ralisme
raliste
ralistes
ralite
rallie
ralliement
rallier
rally
rallye
rallyes
ralph
ram
rama
ramadan
rambouillet
rame
rameau
rameaux
ramene
ramener
rament
rames
rameur
rami
ramique
ramiques
ramo
ramon
ramos
rampe
ramsar
ramsay
ran
ranc
rance
rances
ranch
rand
randall
randolph
random
randonne
randy
rang
range
ranger
rangers
rangle
rangs
ranie
rans
rant
rante
ranto
rants
raoul
rap
rapaces
rapatrie
rapeute
rapeutique
rapeutiques
raphae
raphael
rapid
rapide
rapidement
rapides
rapidite
rapids
rapie
rappel
rappelant
rappele
rappeler
rappelle
rappellent
rappeur
rapport
rapportant
rapporte
rapportent
rapporter
rapporteur
rapports
rapproche
rapprochement
rapprochent
rapprocher
rarchie
rarchique
rard
rare
rarement
rares
rarete
ras
rase
rassemblant
rassemble
rassemblement
rassemblements
rassemblent
rassembler
rassure
rat
rate
rateur
rateurs
ratif
ratification
ratifie
ratio
ration
rationnel
rationnelle
rationnelles
rationnels
rations
ratios
ratisbonne
rative
ratives
ratoire
ratp
ratrice
rats
rattache
rattachement
rattachements
rattrape
rattraper
rature
ratures
rau
raud
rault
raux
ravage
ravages
ravel
raven
ravenne
ravi
ravin
ravitaillement
raw
ray
raye
raymond
rayon
rayonnement
rayonnements
rayons
rays
rb
rc
rca
rcu
rd
rda
rdc
rdoba
re
read
reading
ready
reagan
real
reality
reba
rebaptise
rebecca
rebelle
rebelles
rebonds
rec
rece
recense
recensement
recensements
recette
recettes
recevable
recevait
recevant
receveur
recevoir
recevra
recharge
recherche
rechercher
recherches
recommandation
recommandations
recommande
recommence
recommencer
reconduit
reconnai
reconnaissable
reconnaissance
reconnaissant
reconnaissent
reconnait
reconnu
reconnue
reconnues
reconnus
reconque
reconstitue
reconstituer
reconstitution
reconstruction
reconstruire
reconstruit
reconstruite
reconversion
reconverti
recopie
record
recording
recordings
records
recourir
recours
recouvert
recouverte
recouvertes
recouverts
recouvre
recre
recrue
recrues
recrute
recrutement
recruter
rectangle
rectangulaire
rectangulaires
recteur
rectiligne
rection
recueil
recueille
recueilli
recueillies
recueillir
recueillis
recueils
recul
recule
reculer
recyclage
red
reddition
rede
redevient
redirect
redirection
redirections
redirige
redon
redonner
redoutable
redoute
redresse
redressement
reds
reed
reeves
ref
refaire
refait
reference
refle
reflet
reflets
refonte
reforme
refrain
refroidissement
refuge
refus
refusa
refusant
refuse
refusent
refuser
reg
regagne
regagner
regain
regard
regardant
regarde
regarder
regards
reggae
reggio
regia
regiment
regina
reginald
region
regional
register
registre
registres
regret
regrette
regroupait
regroupant
regroupe
regroupement
regroupent
regrouper
rehausse
rei
reich
reichstag
reid
reilly
reims
rein
reine
reines
reinhard
rejet
rejete
rejeter
rejets
rejette
rejoignant
rejoignent
rejoignit
rejoindre
rejoint
rejoints
rela
relais
relance
relancer
relatant
relate
relatif
relatifs
relation
relations
relative
relativement
relatives
relativite
relaye
rele
release
relecture
relevait
relevant
releve
relever
reliait
reliant
relie
relief
reliefs
relient
relier
religieuse
religieuses
religieux
religion
religions
reliquaire
relique
reliques
relire
relues
remake
remanie
remaniement
remarie
remarquable
remarquables
remarque
remarquer
remarques
remboursement
rembourser
rembrandt
reme
remember
rement
remercie
remercier
remet
remettent
remettre
remi
remiremont
remis
remise
remises
remix
remixe
remixes
remment
remo
remontant
remonte
remontent
remonter
remorque
rempart
remparts
remplac
remplace
remplacement
remplacent
remplacer
rempli
remplie
remplir
remplis
remplissage
remplit
remporta
remportant
remporte
remportent
remporter
remy
ren
renai
renaissance
renan
renard
renato
renaud
renault
rence
rences
renciation
rencie
rencier
rencontra
rencontre
rencontrent
rencontrer
rencontres
rend
rendait
rendant
rendement
rendements
rendent
rendez
rendit
rendra
rendre
rends
rendu
rendue
rendues
rendum
rendus
rene
renferme
renforc
renforce
renforcement
renforcer
renfort
renforts
renger
rennais
renne
rennes
reno
renoir
renom
renommage
renomme
renommer
renonc
renonce
renoncer
renoue
renouveau
renouvelable
renouvelables
renouvele
renouveler
renouvelle
renouvellement
renseigne
renseignement
renseignements
renseigner
rent
rentabilite
rentable
rente
rentes
rentiel
rentielle
rentiels
rentrant
rentre
rentrent
rentrer
rents
renverse
renversement
renverser
renvoi
renvoie
renvoyant
renvoye
renvoyer
repart
repartir
repas
repe
replace
repli
replie
replier
report
reportage
reportages
reporte
reporter
reports
repos
reposant
repose
reposent
reposer
repousse
repousser
repre
reprenant
reprend
reprendra
reprendre
reprennent
repris
reprise
reprises
reprit
reproche
reprocher
reproches
reproduction
reproduire
reproduit
reptiles
republic
reque
requiem
requiert
requin
requins
required
requis
requise
rer
rera
res
rescape
research
reserve
resort
resources
respect
respectant
respecte
respectent
respecter
respectifs
respectivement
respectives
respiration
respiratoire
respiratoires
responsabilite
responsable
responsables
ressant
ressante
ressantes
ressants
resse
ressemblance
ressemblant
ressemble
ressemblent
ressembler
ressent
ressenti
ressentir
resser
ressort
ressortir
ressortissants
ressorts
ressource
ressources
ressuscite
resta
restaient
restait
restant
restantes
restants
restaurant
restaurants
restauration
restaurations
restaure
restaurer
reste
restent
rester
restera
resteront
restes
restitue
restituer
restitution
restreint
restreinte
restriction
restrictions
restructuration
results
ret
retable
retard
retarde
retards
rete
retenir
retenu
retenue
retenues
retenus
retiens
retient
retira
retire
retirent
retirer
retombe
retouche
retour
retourna
retourne
retournement
retournent
retourner
retours
retrac
retrace
retrait
retraite
retraites
retraits
retranche
retrieved
retrouva
retrouvant
retrouve
retrouvent
retrouver
retrouvera
rette
return
retz
reur
reuse
reuters
reux
rev
revanche
reve
revel
revenant
revendication
revendications
revendique
revendiquer
revenge
revenir
revenu
revenue
revenus
revers
reverse
revert
reverte
reverts
reviendra
reviennent
reviens
revient
review
revint
revision
revista
revivre
revoir
revolution
revolver
revu
revue
revues
rex
rey
reyes
reynaud
reynolds
rez
reza
rf
rfa
rfc
rfi
rg
rga
rgb
rgen
rhe
rhin
rhinoce
rho
rhode
rhodes
rhum
rhythm
ri
ria
rial
riale
riales
rialise
rialisme
rian
riau
riaux
ribe
ric
rica
ricain
ricaine
ricaines
ricains
ricano
ricard
ricardo
riccardo
ricci
ricciardo
rice
rich
richard
richards
richardson
riche
richelieu
richement
riches
richesse
richesses
richie
richmond
richter
rick
ricky
rico
ricorde
ricourt
rida
ride
rideau
rider
rides
ridge
ridicule
ridien
ridional
ridionale
ridley
rie
riel
rielle
rielles
riels
rien
rience
riences
rienne
riennes
riens
rier
ries
rieur
rieure
rieurement
rieures
rieurs
rieuse
rieusement
rieuses
rieux
rif
rifiable
rificateur
rification
rifie
rifier
riga
rigaud
rige
riger
right
rightarrow
rights
rigide
rignac
rigord
rigoureuse
rigoureux
rigueur
rigueux
rihe
rik
ril
rile
riley
rilla
rim
rimaire
rimbaud
rime
rimental
rimentale
rimentales
rimentation
rimentations
rimente
rimouski
rin
rinaire
rindien
rindienne
rindiennes
rindiens
rine
ring
ringo
rink
rinpoche
rio
riode
riodes
riodique
riodiquement
riodiques
rioja
riom
riore
riorite
riot
ripe
riphe
riple
riposte
rique
riques
rir
rire
ris
risant
risation
rise
risent
riser
rising
risk
risme
rison
risque
risquent
risques
riste
ristique
ristiques
rit
rita
ritable
ritablement
ritables
ritage
rite
ritent
riter
rites
ritie
ritier
ritiers
ritter
rituel
rituels
rium
rivage
rivages
rival
rivale
rivaliser
rivalite
rivation
rivaux
rive
river
rivera
riverains
rivers
rives
rivie
riviera
rix
riz
rk
rm
rmc
rmn
rn
ro
road
roanne
rob
robbie
robbins
robe
robert
roberto
roberts
robertson
robes
robespierre
robin
robinson
robot
robots
robuste
roc
rocade
rocca
rocco
roce
roch
roche
rochefort
rochefoucauld
rochelle
rocher
rochers
roches
rochester
rocheuse
rocheuses
rocheux
rock
rocket
rockets
rocky
rod
rode
rodez
rodgers
rodin
rodney
rodolphe
rodote
rodri
rodrigo
rodrigues
rodriguez
rodrome
rodynamique
roe
roewer
rogatives
roge
rogel
roger
rogers
rogue
roh
rohan
roi
rois
rol
roland
role
rolf
roll
rolland
roller
rollin
rolling
rollins
rolls
rom
roma
romagne
romain
romaine
romaines
romains
roman
romance
romancie
romancier
romande
romane
romanes
romanesque
romano
romans
romantique
romantiques
romantisme
rome
romeo
romero
rompre
rompt
rompu
roms
ron
ronald
ronaldo
ronan
ronautique
rond
ronde
rondes
ronds
rone
ronef
ronefs
rongeurs
ronique
ronne
ronnie
rons
rookie
room
roosevelt
rophile
rophilie
ropodes
roport
roporte
roports
roque
roquettes
rory
ros
rosa
rosace
rosaire
rosalie
rosario
rosberg
rose
rosen
rosenberg
roses
rosette
rosie
rosier
rosion
rosite
ross
rossi
rossignol
rossini
rosso
rostov
rot
rotation
rote
roth
rothschild
rotique
rotiques
rotonde
rotor
rotten
rotterdam
rou
roubaix
roue
rouen
rouergue
roues
rouge
rouges
rouille
roula
roulant
roule
rouleau
rouleaux
roulement
roulent
rouler
roumain
roumaine
roumains
roumanie
round
rouse
rousse
rousseau
roussel
roussillon
route
routes
routie
routier
routiers
routledge
roux
rover
rovers
row
roy
royal
royale
royales
royaliste
royalistes
royals
royan
royaume
royaumes
royaute
royaux
royce
royer
rozier
rp
rpr
rr
rrez
rs
rsfs
rss
rsssf
rt
rtbf
rtl
rts
ru
ruban
rube
ruben
rubens
rubin
rubrique
rubriques
ruby
rude
rudit
rudits
rudolf
rudolph
rudy
rue
ruelle
rues
rufus
rugby
ruine
ruines
ruisseau
ruisseaux
ruiz
rule
rules
rum
rumble
rumeur
rumeurs
run
running
rupert
ruption
ruptions
rupture
rural
rurale
rurales
ruraleselon
ruralite
ruraux
rus
rusalem
ruse
rush
russe
russell
russes
russia
russian
russie
russo
rustique
ruth
ruvien
ruvienne
rv
rvi
rwanda
rwk
ry
ryan
ryder
ryo
rythme
rythmes
rythmique
rythre
ryu
s
sa
sabatier
sabine
sable
sables
sabotage
sabre
sabres
sabrina
sac
saccage
saccord
saccords
sacha
sachant
sache
sachs
sacramento
sacre
sacrement
sacrifice
sacrifices
sacrifie
sacrifier
sacristie
sacs
sactive
sad
sade
sae
safari
safety
saffecte
safran
saga
sagan
sage
sages
sagesse
sagre
saguenay
sahara
sahel
sai
said
saillant
sailles
saillie
sailor
sain
saine
sains
saint
sainte
saintes
saintete
saintonge
saints
saire
sais
saisi
saisie
saisir
saisis
saisit
saison
saisonnie
saisons
sait
sakura
sala
salah
salaire
salaires
salamanque
salarie
salazar
sale
salem
sales
salins
salisbury
salix
salle
salles
sally
salmon
salome
salomon
salon
salonique
salons
salt
salue
salut
salvador
salvatore
salve
salzbourg
sam
samantha
samba
sambre
same
samedi
samedis
sami
sammy
sammyday
samoa
samourai
samson
samsung
samuel
san
sanchez
sancti
sanction
sanctionne
sanctionner
sanctions
sanctuaire
sanctuaires
sand
sanders
sandra
sandre
sandrine
sandro
sandwich
sandy
sang
sanglante
sanglier
sanguin
sanguine
sanitaire
sanitaires
sankt
sans
sanskrit
sant
santa
santana
santander
sante
santi
santiago
santo
santos
sao
saoudite
sapeurs
sapin
sar
sara
saragosse
sarah
sarajevo
sarcophage
sardaigne
sarde
sardur
sare
sarkozy
sarlat
sarme
sarre
sarrebruck
sars
sarthe
sartre
sas
sasha
saskatchewan
sastre
sat
satan
satellite
satellites
satire
satirique
satisfaction
satisfaire
satisfaisant
satisfaisante
satisfait
sato
saturation
saturday
sature
saturn
saturne
saturnin
sau
sauce
sauf
saul
sault
saumon
saumur
saunders
saunier
saura
saurait
saurien
sauriens
saut
saute
sauter
sauteur
sauts
sauvage
sauvages
sauve
sauvegarde
sauvegarder
sauver
sauvetage
sauveur
savage
savais
savait
savane
savant
savante
savantes
savants
save
savent
saveur
savez
savigny
savoie
savoir
savoirs
savon
savons
savoyard
sawyer
saxe
saxon
saxonne
saxons
saxophone
saxophoniste
say
sb
sc
scala
scalemajor
scaleminor
scandale
scandales
scandinave
scandinaves
scandinavie
scar
sce
sceau
sceaux
scelle
scene
sceptique
scha
schaerbeek
sche
schisme
schiste
schistes
schizophre
schleswig
schlum
schmidt
schmitt
schneider
scho
school
schro
schu
schubert
schumacher
schumann
schwartz
schwarz
sci
scie
science
sciences
scientific
scientifique
scientifiques
scinde
scipion
scission
scle
sco
scolaire
scolaires
scolarise
scolarite
scooby
score
scores
scorpion
scorpions
scot
scotland
scott
scottish
scout
scouts
scratch
scream
screen
scribe
script
scripts
scrutin
scuderia
sculpte
sculpteur
sculpteurs
sculpture
sculptures
sd
sdage
se
sea
sean
search
season
seattle
seau
seaux
sebastia
sebastian
sec
second
secondaire
secondaires
seconde
secondes
seconds
secoue
secourir
secours
secre
secret
secrets
secs
secte
sectes
secteur
secteurs
section
sections
security
sedan
see
sega
seghers
segment
segments
sei
seigneur
seigneurial
seigneuriale
seigneurie
seigneuries
seigneurs
sein
seine
seins
seiyu
seize
seizie
sel
self
seligman
selle
selon
sels
semaine
semaines
semblable
semblables
semblait
semblant
semble
semblent
semblerait
seme
semences
semestre
semi
sen
sence
senior
seniors
senlis
senna
sens
sensation
sensations
sense
senseiac
sensibilisation
sensibiliser
sensibilite
sensible
sensiblement
sensibles
sent
senta
sentaient
sentait
sentant
sentante
sentants
sentateur
sentatif
sentation
sentations
sentative
sentatrice
sente
sentence
sentent
senter
sentera
sentes
sentier
sentiers
sentiment
sentiments
sentir
sents
sep
sept
september
septembre
septentrional
septentrionale
septie
ser
sera
serai
seraient
serais
serait
serbe
serbes
serbie
serein
serena
serge
serged
sergent
sergio
serguei
serie
series
serment
sermon
seront
serpent
serpents
serra
serre
serres
sert
serte
servaient
servait
servant
servante
servation
serve
servent
server
serves
serveur
serveurs
serveuse
servi
service
services
servir
servira
servit
serviteur
serviteurs
servoir
servoirs
ses
sespe
sespoir
session
sessions
set
seth
sets
seuil
seuils
seul
seule
seulement
seules
seuls
seven
sex
sexe
sexes
sexualite
sexuel
sexuelle
sexuelles
sexuels
sexy
seychelles
seymour
sf
sfio
sfondo
sfr
sg
sh
sha
shadow
shadows
shah
shakespeare
shane
shanghai
shannon
sharks
sharon
sharp
shaw
shawn
she
sheffield
sheila
sheldon
shell
shelley
shepard
sherbrooke
sheridan
sherlock
sherman
shi
shield
shift
shin
ship
ships
shirley
sho
shoah
shoot
shop
shore
short
shot
should
show
shows
shu
si
sia
siam
siastique
siastiques
sibe
sic
sica
sichuan
sicile
siciles
sid
sida
sidait
sidant
side
sidence
sidences
sident
sidente
sidentiel
sidentielle
sidentielles
sidentiels
sidents
sider
sidi
sidney
sidus
sie
siegfried
siemens
sien
sienne
siennes
siens
sierra
sies
sieur
sig
sigismond
sigle
sigma
sigmund
sign
signa
signait
signal
signale
signalement
signaler
signalisation
signant
signataires
signation
signature
signatures
signaux
signe
signent
signer
signes
signifiait
signifiant
significatif
significatifs
signification
significations
significative
significativement
significatives
signifie
signifier
sil
sile
silence
silencieux
silent
silex
silhouette
silicium
silien
silienne
siliens
silla
sillage
sillon
silly
silva
silver
silvia
silvio
sim
sima
sime
simenon
similaire
similaires
simile
similitude
similitudes
simmons
simo
simon
simone
simple
simplement
simples
simplicite
simplification
simplifie
simplifier
simpson
sims
simulation
simule
simultane
sin
sinai
since
sinclair
sine
sing
singapour
singe
singer
singes
singh
single
singles
singularite
singulie
singulier
sinistre
sino
sinon
sint
sinte
sion
sioniste
sions
sioux
sippe
sique
sir
sirables
sirant
sire
siren
sireux
sirs
sis
sise
sismicite
sismique
sistance
sistances
sistant
sistante
sistants
siste
sistent
sister
sisters
sitation
sitcom
site
sites
sitez
situ
situait
situant
situation
situations
situe
situent
situer
sium
six
sixie
size
sk
ska
sketch
sketches
ski
skieur
skieuse
skiff
skin
skipper
skopje
sky
sl
slalom
slam
slave
slaves
sleep
slim
slogan
slovaque
slovaquie
slove
sm
smackdown
small
smart
smartphone
smash
sme
smith
smithsonian
sms
sn
snake
sncb
sncf
snooker
snow
snyder
so
sobe
sobre
soc
soccer
sochaux
social
sociale
socialement
sociales
socialisme
socialiste
socialistes
sociaux
socie
sociedad
society
socio
sociologie
sociologique
sociologue
socle
socorro
socrate
sodium
sofia
soft
software
soi
soie
soient
soif
soigne
soigner
soigneusement
soin
soins
soir
soire
soirs
sois
soissons
soit
soixantaine
soixante
soja
sol
solaire
solaires
solar
soldat
soldats
solde
soldier
sole
soleil
solennelle
solidaire
solidarite
solide
solides
soliste
solistes
solitaire
solitude
sollicite
solliciter
solo
sologne
solomon
sols
solu
solument
solution
solutions
solvant
somalie
sombre
sombres
some
somerset
something
sommaire
somme
sommeil
sommes
sommet
sommets
son
sonance
sonate
sonates
sondage
sondages
sonde
sondes
song
songe
songs
sonia
sonic
sonne
sonny
sonore
sonores
sonorite
sons
sont
sony
soo
sophia
sophie
sophistique
sopotamie
soprano
sor
sorbonne
sorcellerie
sorcie
sorcier
sorciers
sordre
sorel
sorier
sormais
sors
sort
sortant
sortante
sortants
sorte
sortent
sortes
sorti
sortie
sorties
sortile
sortir
sortira
sortis
sortit
sos
sotchi
sote
sou
souabe
soubassement
souche
souches
souci
soucieux
soucis
soudain
soudaine
soudainement
soudan
soude
soudre
souffert
souffle
souffrance
souffrances
souffrant
souffre
souffrent
souffrir
soufre
souhait
souhaitable
souhaitait
souhaitant
souhaite
souhaitent
souhaiterais
souhaitez
soul
soule
souleve
soulever
soulignant
souligne
soulignent
souligner
soumet
soumettre
soumis
soumise
soumises
soumission
sound
soupapes
soupc
soupe
souple
souplesse
sourc
source
sourcer
sources
sourd
sourde
sourds
sourire
souris
sous
souscription
sout
soute
soutenant
soutenir
soutenu
soutenue
soutenues
soutenus
souterrain
souterraine
souterraines
souterrains
south
southampton
southern
soutien
soutiennent
soutiens
soutient
souvenir
souvenirs
souvent
souverain
souveraine
souverainete
souverains
souviens
souvient
sovie
soviet
sox
soyez
soyouz
sp
spa
space
spain
spam
spanish
sparta
spartak
sparte
spatial
spatiale
spatiales
spatiaux
spd
spe
speak
spears
special
species
spectacle
spectacles
spectaculaire
spectaculaires
spectateur
spectateurs
spectral
spectre
spectrome
speculos
speed
spencer
sphe
sphinx
spider
spiders
spiegel
spielberg
spike
spin
spirale
spirit
spiritualite
spirituel
spirituelle
spirituelles
spirituels
spirou
split
sponsor
sponsors
spontane
sport
sportif
sportifs
sporting
sportive
sportives
sports
spot
spring
springer
springfield
springs
sprint
spurs
spy
sqrt
squad
squadron
square
squash
squelette
squelettes
sr
sri
ss
sse
sseldorf
ssis
st
sta
stab
stabilisation
stabilise
stabiliser
stabilite
stable
stables
stade
stades
stadium
staff
stafford
stage
stages
stagiaire
stagiaires
stakes
staline
stalingrad
stalles
stan
stand
standard
standardise
standards
standing
stands
stanford
stanislas
stanley
stanton
star
stargate
stark
starr
stars
start
state
states
station
stationne
stationnement
stations
statique
statistics
statistique
statistiques
stats
statue
statues
statuette
status
statut
statuts
stay
ste
steam
steel
steele
stefan
stefano
stein
steiner
stella
stellaire
step
stephan
stephanie
stephen
sterling
stern
stes
steve
steven
stevens
stevenson
stevie
stewart
sti
still
stimulation
stimule
sting
stipule
stirling
sto
stock
stockage
stocke
stocker
stockholm
stocks
stoi
stone
stones
stop
stoppe
stopper
store
storia
stories
storm
story
strange
stranger
strasbourg
strate
strates
strauss
stream
streaming
street
stress
strict
stricte
strictement
strictes
strike
string
strip
stroke
strong
structure
structures
sts
stu
stuart
studi
studies
studio
studios
study
stupe
stuttgart
style
styles
stylise
su
sua
sub
subdivise
subdivision
subdivisions
subi
subie
subies
subir
subissent
subit
subitement
sublime
submerge
submersion
subordonne
subsaharienne
subsistance
subsiste
subsistent
subsp
substance
substances
substitue
substituer
substitut
substitution
substrat
subvenir
subvention
subventions
succe
successeur
successeurs
successifs
succession
successivement
successives
succombe
succursale
sucre
sud
sue
suez
suffisamment
suffisant
suffisante
suffisantes
suffisent
suffit
suffixe
suffolk
suffrage
suffrages
sugar
sugge
suggested
suggestion
suggestions
sui
suicide
suicider
suis
suisse
suisses
suit
suite
suites
suivait
suivant
suivante
suivantes
suivants
suivent
suivi
suivie
suivies
suivirent
suivis
suivit
suivre
suivront
sujet
sujets
sujette
sul
sullivan
sully
sulpice
sultan
sultanat
sultant
sultat
sultats
sulte
sultent
sum
sumatra
sume
sumer
summer
sun
sundance
sunday
sung
suns
sunset
sunshine
supe
super
superbe
supercoupe
superficie
superficielle
superficielles
superjuju
superliga
superman
supermarche
supernova
superpose
superstar
supervise
superviser
supervision
supplante
supple
support
supportant
supporte
supportent
supporter
supporters
supports
suppose
supposer
suppression
suppressions
supprimant
supprime
supprimer
supra
supre
sur
surcharge
surcroi
sure
surement
suresnes
surf
surface
surfaces
suriname
surmonte
surmonter
surnom
surnomme
surplombant
surplombe
surplus
surprenant
surprend
surprendre
surpris
surprise
surre
surrection
surrey
sursis
surtout
surve
surveillance
surveille
surveiller
survenu
survenue
survenues
survenus
survey
survie
survient
survit
survivant
survivants
survivor
survivre
survol
sus
susan
susceptible
susceptibles
suscite
susciter
suspect
suspecte
suspects
suspend
suspendre
suspendu
suspendue
suspendus
suspense
suspension
suspicion
sussex
sutherland
sutton
suzanne
suzuki
sv
sven
svg
svp
swan
sweet
swift
swing
swiss
switch
sword
sy
sydney
syllabe
syllabes
sylvain
sylvestre
sylvia
sylviculture
sylvie
symbol
symbole
symboles
symbolique
symboliquement
symboliques
symbolisant
symbolise
symbolisme
syme
sympa
sympathie
sympathique
sympathisants
symphonie
symphonies
symphonique
symphony
symphorien
symposium
sympto
synagogue
synchronisation
synchronise
syndic
syndical
syndicale
syndicales
syndicalisme
syndicaliste
syndicat
syndicats
syndrome
synode
synonyme
synonymes
synonymie
synopsis
syntaxe
synthe
syracuse
syriaque
syrie
syrien
syrienne
syriens
sysop
syste
system
systems
szlo
sœur
sœurs
t
ta
tabac
tabernacle
table
tableau
tableaux
tables
tablette
tablettes
tabli
tablie
tablier
tablies
tablir
tablis
tablissant
tablissement
tablissements
tablissementsl
tablissent
tablit
tabolisme
tabs
tac
tace
tache
tachement
taches
tachete
tacite
tactique
tactiques
tadjikistan
tag
tage
tages
tahiti
tai
taient
tail
taille
tailles
tailleur
tailloirs
tails
tain
taine
tains
taipei
taire
taires
tais
tait
taiwan
takashi
take
takes
tal
talbot
tale
talent
talents
talentueux
tales
talibans
talk
talking
tallandier
talleyrand
tallinn
tallique
talliques
tallurgie
talmud
talon
talons
talus
tam
tamara
tambour
tambours
tamines
tamise
tamorphose
tamorphoses
tampa
tampere
tampes
tampon
tan
tanaka
tanche
tandem
tandis
tang
tanger
tango
tangs
tanguy
tank
tanner
tanque
tant
tante
tanto
tanzanie
tao
taoi
tape
taper
tapes
taphore
taphysique
tapis
tapisserie
tapisseries
tara
tarbes
tard
tarde
tardif
tardive
tardivement
tardives
tarente
target
tariat
tarif
tarification
tarifs
tarn
taro
tarte
tarzan
tas
task
tasmanie
tasse
tassements
tat
tate
tatiana
tation
tations
tats
tau
taureau
taureaux
taux
tavernier
taxe
taxes
taxi
taxinomie
taxinomiques
taxis
taxon
taxonomie
taxons
taye
tayer
taylor
tb
tbilissi
tc
tch
tchad
tchai
tche
tchekhov
td
te
tea
team
tears
teatro
teau
teaubriant
teauneuf
teauroux
teaux
teborg
tech
technicien
techniciens
technico
technicolor
technique
techniquement
techniques
techno
technologie
technologies
technologique
technologiques
technology
tecte
tecter
tecteur
tection
tective
ted
teddy
teen
teil
teindre
teint
teinte
teintes
tel
telain
telecom
telegraph
telenovela
telet
television
tell
telle
tellement
tellenie
tellerie
telles
tellier
tels
tement
tements
tempe
temple
temples
templiers
tempo
temporaire
temporairement
temporaires
temporel
temporelle
temps
ten
tenaient
tenait
tenant
tenants
tence
tences
tend
tendait
tendance
tendances
tendant
tendants
tendard
tendent
tendit
tendre
tendres
tendu
tendue
tendues
tendus
tenerife
teneur
tenir
tennessee
tennis
tension
tensions
tent
tenta
tentant
tentation
tentative
tentatives
tente
tentent
tenter
tentes
tenteur
tention
tentions
tents
tenu
tenue
tenues
tenus
teofilo
ter
tera
terence
teresa
terme
termes
termina
terminaison
terminal
terminale
terminant
termination
terminaux
termine
terminent
terminer
terminera
terminologie
terminus
ternel
ternelle
ternite
terra
terrain
terrains
terrasse
terrasses
terre
terres
terrestre
terrestres
terreur
terrible
terribles
terriens
terrier
terril
territoire
territoires
territorial
territoriale
territoriales
territoriaux
terroir
terror
terrorisme
terroriste
terroristes
terry
tersbourg
tertiaire
tes
tesla
tesse
tessin
test
testament
teste
tester
tests
tete
teur
teurs
teuse
teux
tex
texas
text
textcolor
textdata
texte
textes
textile
textiles
texture
tez
tf
tg
tgv
th
tha
thai
thames
than
thane
thanol
that
thatcher
the
theater
theatre
their
them
theme
then
theo
theodor
theodore
theoliane
theory
ther
there
thermale
thermes
thermique
thermiques
thermodynamique
these
thessalonique
theta
they
thib
thibault
thibaut
thie
thierry
thiers
thing
things
think
thionville
thiopie
thiopien
thiopienne
thique
third
this
thode
thodes
thodique
thodologie
thomas
thompson
thomson
thon
thonon
thor
thornton
thorpe
thouars
thrace
three
thriller
through
thumb
thunder
thune
thuringe
thyle
thyroi
ti
tibe
tibet
tibetan
tic
tica
ticences
ticket
tico
tie
tien
tiendra
tienne
tiennent
tiennes
tiens
tient
tiente
tier
tierce
tiers
ties
tif
tiffany
tige
tiger
tigers
tiges
tigh
tigherve
tigre
tigres
till
tillon
tim
timbre
timbres
time
timeaxis
timent
timents
times
timide
timor
timothy
tin
tina
tinais
tine
tint
tintin
tion
tions
tique
tiquement
tiques
tiquette
tir
tirage
tirages
tirailleurs
tirant
tire
tirent
tirer
tireur
tireurs
tirs
tis
tisation
tise
tiser
tiseur
tisme
tissage
tisse
tisserie
tissu
tissus
tiste
tit
titan
titanic
titans
tite
tition
titions
titivite
title
tito
titre
titres
titulaire
titulaires
titularise
titus
tizi
tlemcen
tna
tnt
to
tobago
tobias
toby
toc
today
todd
toff
toffe
together
togo
toi
toie
toile
toiles
toilette
toilettes
toison
toit
toits
toiture
toitures
tokugawa
tokyo
tole
toledo
tolkien
tolstoi
tom
toma
tomas
tomate
tomatoes
tomba
tombale
tombant
tombe
tombeau
tombeaux
tombent
tomber
tombes
tome
tomes
tommaso
tommy
tomorrow
ton
tonalite
tone
tong
tonga
toni
tonight
tonkin
tonnage
tonnant
tonne
tonneaux
tonnerre
tonnes
tonnier
tons
tony
too
top
topic
topographie
topographique
topologie
toponyme
toponymes
toponymie
tor
torah
tore
torino
torique
tornade
toro
toronto
torpille
torpilles
torpilleur
torpilleurs
torre
torrent
torres
torse
tort
tortue
tortues
torture
toscane
tot
total
totale
totalement
totalisant
totalise
totalite
toto
totodu
tottenham
tou
touch
touchant
touchdown
touchdowns
touche
touchent
toucher
touches
touffe
toujours
toul
toulon
toulousain
toulouse
touquet
tour
touraine
tourbie
tourcoing
toure
tourelle
tourelles
tourisme
touriste
touristes
touristique
touristiques
tourmente
tourna
tournage
tournai
tournament
tournant
tournante
tourne
tournement
tournent
tourner
tournesol
tournoi
tournois
tours
tous
toussaint
tout
toute
toutefois
toutes
tower
town
township
toxicite
toxique
toxiques
toy
toyota
tp
tr
tra
trac
trace
tracer
traces
track
tracte
tracteur
tracteurs
traction
tracts
tracy
trad
trade
tradition
traditionnel
traditionnelle
traditionnellement
traditionnelles
traditionnels
traditions
traducteur
traducteurs
traduction
traductions
traductrice
traduire
traduisant
traduit
traduite
traduites
traduits
trafic
trage
trages
tragique
trahi
trahison
trai
trail
train
training
trains
trait
traitant
traite
traitement
traitements
traitent
traiter
traits
trajan
trajectoire
trajet
trajets
tral
trale
trales
tram
trame
tramway
tramways
tranche
trancher
tranches
trange
tranger
trangers
tranges
tranquille
trans
transaction
transactions
transat
transatlantique
transcription
transcrit
transdev
transept
transfe
transfert
transferts
transformant
transformation
transformations
transforme
transforment
transformer
transformers
transilien
transit
transition
transitoire
translation
translitte
transmet
transmettre
transmis
transmise
transmises
transmission
transmissions
transparence
transparent
transport
transportant
transporte
transporter
transports
transpose
transvaal
transversale
transylvanie
traore
trap
trape
trappe
traque
traroth
tration
traumatisme
travail
travailla
travaillaient
travaillait
travaillant
travaille
travaillent
travailler
travailleur
travailleurs
travailliste
travaux
trave
travel
travers
traversant
traverse
traversent
traverser
travis
tre
tree
treize
treizie
trek
tremblay
tremblement
trempe
tremplin
trent
trentaine
trente
trentin
trer
tres
tresse
tresses
trevor
tri
trial
triangle
triangles
triangulaire
trianon
trias
triathle
triathlon
tribu
tribunal
tribunaux
tribune
tribunes
tribus
tribut
tribute
trichomanes
tricolore
trie
trier
trieste
trilogie
triment
trimestre
trinite
trinity
trio
triomphe
trios
trip
triple
tripoli
triptyque
trique
triques
trise
triser
tristan
triste
tristesse
triton
trizek
tro
trofeo
trograde
troie
trois
troisie
troit
troite
troitement
troites
troits
trole
trolie
trolier
troliers
troll
trolleybus
trolls
trombone
trompe
tromper
trompette
tronc
trondheim
tronque
tront
trop
tropez
trophe
trophy
tropical
tropicale
tropicales
tropicaux
tropole
tropolitain
tropolitaine
trospective
trou
trouble
troubles
troupe
troupeau
troupeaux
troupes
trous
trouva
trouvaient
trouvait
trouvant
trouve
trouvent
trouver
trouvera
trouvez
troy
troyes
truc
trucs
true
truire
truisant
truisent
truit
truite
truites
truits
truman
trump
trusque
trusques
trust
truth
ts
tsar
tse
tsunami
tt
ttingen
tu
tua
tuant
tube
tuberculose
tubes
tucker
tude
tudes
tudia
tudiant
tudiante
tudiantes
tudiants
tudie
tudier
tudor
tue
tuel
tuelle
tuent
tuer
tueur
tueurs
tuileries
tuiles
tuite
tulle
tumeur
tumeurs
tumulus
tunique
tunis
tunisie
tunisien
tunisienne
tunisiens
tunnel
tunnels
turage
turages
turb
turbine
turbines
turbo
turc
turcs
ture
turenne
tures
turin
turkme
turku
turn
turner
turque
turques
turquie
tus
tutelle
tuteur
tuyau
tuyaux
tv
tva
twilight
twin
twins
twist
twitter
two
ty
tyler
tymologie
tymologique
tympan
type
types
typique
typiquement
typiques
typo
typographie
typographique
typographiques
typologie
tyran
tyrol
tyson
tz
u
ua
uc
uci
ud
udf
udi
ue
uefa
ues
ufc
ugo
ui
uicn
uk
ukraine
ukrainien
ukrainienne
ukrainiens
ul
ulm
ulrich
ulster
ulte
ultimate
ultimatum
ultime
ultra
ulysse
um
umberto
ump
un
una
unanime
unanimite
und
under
underground
une
unef
unes
unesco
uni
unicode
unie
unies
unification
unifie
unifier
uniforme
uniformes
unilate
uninominal
union
unions
unique
uniquement
uniques
unir
unis
unissant
unissent
unit
unitaire
unite
united
univ
univers
universal
universalis
universe
universel
universelle
universidad
universita
universitaire
universitaires
universite
university
unix
uno
uns
up
updated
upload
upon
upper
uppsala
upright
ur
uranium
urbain
urbaine
urbaines
urbains
urban
urbanisation
urbanise
urbanisme
ure
urent
urgence
urgences
urgent
urine
url
urne
urnes
urss
ursula
uruguay
uruguayen
us
usa
usage
usagers
usages
usb
usd
use
user
usine
usines
usm
uss
ussi
ussie
ussir
ussissent
ussit
ussite
usure
usurpation
ut
utah
utc
ute
utile
utiles
utilisa
utilisable
utilisables
utilisaient
utilisait
utilisant
utilisateur
utilisateurs
utilisation
utilisations
utilise
utilisent
utiliser
utilisera
utilitaire
utilite
utopie
utrecht
uv
uze
v
va
vaast
vacances
vacant
vacants
vaccin
vaccination
vaccins
vache
vaches
vacuation
vacue
vacuer
vade
vader
vague
vagues
vaillant
vain
vaincre
vaincu
vaincus
vainqueur
vainqueurs
vais
vaisseau
vaisseaux
vaisselle
val
valable
valables
valais
valait
vale
valence
valencia
valencien
valencienne
valenciennes
valent
valentin
valentine
valery
vales
valet
valette
valeur
valeurs
validation
valide
valider
valides
validite
valise
valladolid
valle
valley
vallon
vallonne
vallons
valls
valoir
valois
valorisation
valorise
valoriser
valse
valu
valuation
valuations
value
valuer
valut
vampire
vampires
van
vancouver
vandale
vandales
vandalise
vandaliser
vandalisme
vandalismes
vanessa
vange
vangile
vangiles
vanite
vannes
vanuatu
vapeur
var
vare
varennes
varepsilon
vargas
variabilite
variable
variables
variant
variante
variantes
variation
variations
varie
varient
varier
varmie
varphi
varsovie
vas
vasco
vasculaire
vase
vases
vasion
vassal
vassaux
vassili
vaste
vastes
vatican
vation
vauban
vaucluse
vaud
vaudeville
vaudois
vaudra
vaughan
vaut
vaux
vc
ve
veau
vec
vecteur
vecteurs
vectoriel
vedette
vedettes
vega
vegas
veil
veille
veiller
veine
veines
vel
vela
velay
veloppa
veloppant
veloppe
veloppement
veloppements
veloppent
velopper
veloppeur
veloppeurs
velours
velvet
vement
vements
venaient
venait
venant
vend
vendanges
vendant
vende
vendent
vendeur
vendeurs
vendit
vendo
vendre
vendredi
vendu
vendue
vendues
vendus
venez
venezuela
vengeance
venger
venice
venin
venir
venise
vennes
vent
ventail
vente
ventes
ventilation
vention
ventive
ventoux
ventre
vents
ventuel
ventuelle
ventuellement
ventuelles
ventuels
ventura
venu
venue
venues
venus
ver
vera
verbal
verbaux
verbe
verbes
vercors
verde
verdi
verdict
verdier
verdon
verdun
verge
verger
vergers
verlag
verlaine
vermont
vernaculaire
vernaculaires
verne
vernet
verneuil
vernon
veronica
verra
verre
verrerie
verres
verrie
verrier
vers
versa
versailles
versant
versants
verse
versement
verser
verset
versets
versible
version
versions
verso
verstappen
versus
vert
verte
vertes
vertical
verticale
verticalement
verticales
verticaux
verts
vertu
vertus
verviers
very
ves
vesoul
vesque
veste
vestiaires
vestibule
vestige
vestiges
veto
vettel
veuf
veulent
veut
veuve
veuves
veux
vevey
vexin
vez
vf
vhs
vi
via
viaduc
viamichelin
vian
viande
viandes
viation
viations
vibrations
vic
vicaire
vice
vicente
vices
vichy
vickers
vicomte
victime
victimes
victoire
victoires
victor
victoria
victorieuse
victorieux
victory
vida
vidal
vide
videmment
vidence
vident
vidente
video
vides
vie
vieil
vieillard
vieille
vieilles
vieillesse
vieillissement
viendra
viendrait
vienne
viennent
viennois
viens
vient
vier
vierge
vierges
vies
vietnam
vietnamien
vietnamienne
vietnamiens
vieux
view
vif
vigilance
vigne
vigneron
vignerons
vignes
vignette
vignoble
vignobles
vigo
vigueur
vih
vii
viie
viii
viiie
viking
vikings
viktor
vila
vilain
vilaine
villa
village
villageois
villages
villard
villars
villas
ville
villefranche
villeneuve
villers
villes
villette
villeurbanne
villiers
vilnius
vin
vinaigre
vince
vincennes
vincent
vincenzo
vinci
vingt
vingtaine
vingtie
vingts
vinification
vinrent
vins
vint
vinyle
viol
viola
violation
violations
viole
violemment
violence
violences
violent
violente
violentes
violents
violet
violette
violon
violoncelle
violoncelliste
violoniste
violons
viols
virage
virale
vire
virent
virer
virgile
virgin
virginia
virginie
virgule
virtual
virtuel
virtuelle
virus
vis
visa
visage
visages
visait
visant
visconti
vise
visent
viser
viseur
visibilite
visible
visiblement
visibles
vision
visions
visitation
visite
visiter
visites
visiteur
visiteurs
visitez
vista
vistes
visual
visualisation
visualiser
visuel
visuelle
visuelles
visuels
vit
vita
vitable
vital
vitale
vitamine
vitant
vite
viter
vitesse
vitesses
viticole
viticulture
vito
vitrail
vitraux
vitre
vitres
vitrine
vitry
vittorio
viva
vivace
vivaient
vivait
vivant
vivante
vivantes
vivants
vive
vivement
vivent
vives
vivien
vivier
vivre
vivres
vizir
vladimir
vo
vocable
vocabulaire
vocal
vocale
vocales
vocation
vocations
vodie
vogel
vogue
voi
voice
voices
voici
voie
voient
voies
voila
voile
voiles
voilier
voiliers
voir
voire
voirie
vois
voisin
voisinage
voisine
voisines
voisins
voit
voiture
voitures
voix
vol
volailles
volant
volants
volcan
volcanique
volcaniques
volcans
vole
voler
voles
volet
volets
voleur
voleurs
volga
volkswagen
volley
volontaire
volontairement
volontaires
volonte
volontiers
vols
volta
voltaire
volte
voltes
voluait
voluant
volue
voluent
voluer
volume
volumes
volumique
volution
volutionnaire
volutionnaires
volutions
volvo
vom
von
vont
voor
voquant
voque
voquent
voquer
vore
vos
vosges
vost
votants
vote
votent
voter
votes
votion
votre
vou
voudrais
voudrait
voue
vouement
voulaient
voulais
voulait
voulant
voulez
vouloir
voulu
voulue
voulut
vous
voux
vox
voyage
voyager
voyages
voyageur
voyageurs
voyaient
voyait
voyant
voyelle
voyelles
voyez
voyons
vq
vr
vrai
vraie
vraies
vraiment
vrais
vraisemblable
vraisemblablement
vre
vrerie
vres
vreux
vrier
vrin
vry
vs
vtt
vu
vue
vuelta
vues
vulgaire
vulgarisation
vulne
vus
vy
vœu
vœux
w
wa
wade
wagner
wagon
wagons
wake
wales
walk
walker
walking
wall
wallace
wallis
wallon
wallonie
wallonne
walsh
walt
walter
walters
walther
walton
wan
wanda
wanderers
wang
want
war
ward
warner
warp
warren
warrior
warriors
wars
warwick
was
washington
watch
water
waterloo
waters
watkins
watson
watts
wave
way
wayne
we
web
webb
webber
weber
website
webster
wedding
week
weekend
weekly
wehrmacht
wei
weil
weimar
weir
weiss
welcome
well
wellington
wells
welt
wen
wendy
were
werner
wes
wesley
west
western
westminster
westphalie
what
wheeler
when
where
which
whisky
white
whitney
who
why
wi
wide
width
wie
wien
wiener
wiesbaden
wife
wii
wiki
wikidata
wikigraphistes
wikime
wikimedia
wikinews
wikipe
wikipedia
wikis
wikisource
wiktionnaire
wilaya
wild
wilde
wilder
wildlife
wiley
wilfried
wilhelm
wilkinson
will
willem
william
williams
williamson
willie
willis
willy
wilson
wimbledon
win
winchester
wind
windows
windsor
wing
wings
winnipeg
winston
winter
wisconsin
wise
wisigoths
with
within
without
wmf
wnba
wo
wolf
wolfe
wolff
wolfgang
wolves
woman
women
won
wonder
wong
woo
wood
woods
woody
worcester
word
words
work
working
works
world
worlds
worms
worth
would
wp
wrc
wrestlemania
wrestling
wright
writers
wrocław
wta
wu
wurtemberg
wurtzbourg
wwe
wwf
www
wyatt
wyoming
x
xavier
xbox
xe
xi
xia
xian
xico
xie
xii
xiie
xiii
xiiie
xinjiang
xiv
xive
xix
xixe
xl
xml
xofc
xp
xu
xv
xve
xvi
xvie
xvii
xviie
xviii
xviiie
xx
xxe
xxi
xxie
xxii
xxiii
xxx
y
ya
yacht
yahoo
yahweh
yale
yamaha
yamamoto
yan
yang
yankees
yann
yannick
yaounde
yard
yards
yates
ye
year
years
yellow
yes
yeux
yi
yiddish
yin
yo
yoga
yoko
yokohama
yolande
yon
yong
yonne
york
yorkais
yorkshire
you
yougoslave
yougoslavie
young
your
youssef
youth
youtube
ypres
yu
yuan
yukon
yunnan
yvan
yvelines
yves
yvette
yvon
yvonne
yyyy
z
za
zac
zach
zack
zagreb
zai
zambie
zamora
zanne
zard
ze
zealand
zeit
zeitung
zelda
zen
zeppelin
zero
zeta
zeus
zhang
zhao
zhou
zhu
zi
zie
ziers
zimbabwe
zimmer
zinc
zit
znieff
zo
zodiaque
zoe
zola
zombie
zombies
zonage
zone
zones
zoo
zoologie
zoologique
zoologiste
zoology
zoom
zootaxa
zorro
zps
zquez
zsc
zu
zue
zum
zur
zurich
{
|
}
~
¡
¢
£
¤
§
©
ª
«
¬
­
®
°
±
²
³
´
µ
·
¹
º
»
½
¿
×
ß
æ
æquo
ð
ø
ı
ł
ło
œ
œcume
œil
œuf
œufs
œuvre
œuvres
ə
ɛ
ʁ
ʉ
ʰ
ʻ
ʼ
ʾ
ʿ
ˁ
ˈ
ː
̀
́
̂
̃
̄
̆
̇
̈
̉
̊
̋
̌
̓
̔
̛
̣
̦
̧
̨
̮
̯
̱
̲
̸
͂
͡
α
β
γ
δ
ε
ζ
η
θ
ι
κ
λ
μ
ν
ξ
ο
π
ρ
ς
σ
τ
υ
φ
χ
ψ
ω
а
в
г
д
е
и
к
л
м
н
на
о
п
с
т
у
ь
я
і
ְ
ִ
ַ
ָ
ּ
א
ד
ا
َ
ِ
ّ
ْ
ٔ
ٕ
ं
क
करन
ढक
त
थ
न
ब
म
र
ल
स
ा
ि
ी
ु
े
्
া
্
்
ก
น
อ
ั
ิ
ี
ื
ุ
ู
่
้
๊
์
๏
་
ᄋ
ᚫ
្
᠀
‌
‎
‐
‑
–
—
―
‘
’
“
”
„
†
‡
•
…
‰
′
″
‹
›
‾
⁬
€
₮
ℂ
ℓ
№
ℚ
ℝ
™
ℤ
ℵ
ℹ
←
↑
→
↔
↗
↝
↵
↷
⇒
⇨
⇪
∆
∇
∈
−
∞
∪
∫
∵
≈
≡
≤
≥
≽
⋅
③
④
⑦
─
│
└
├
▪
►
◦
◯
★
☆
☎
☮
☸
☺
☼
♂
♕
♙
♠
♡
♥
♦
♪
♫
♬
♭
✉
✍
✎
✒
✝
⟶
ⴰ
ⵉ
⺀
⺄
⺆
⺈
⺊
⺌
⺕
⺝
⺸
⺼
⿰
⿱
⿲
⿳
⿴
⿵
⿶
⿷
⿸
⿹
⿺
⿻
、
。
《
》
「
」
『
』
〜
〢
あ
い
う
お
か
き
く
け
こ
さ
し
す
そ
た
ち
っ
つ
て
と
な
に
の
は
ま
み
も
ゃ
よ
ら
り
る
れ
を
ん
゙
゚
ア
ィ
イ
ウ
エ
オ
カ
キ
ク
コ
サ
シ
ス
タ
チ
ッ
ツ
テ
ト
ナ
ニ
ハ
ヒ
フ
ヘ
ホ
マ
ム
ャ
ュ
ユ
ラ
リ
ル
レ
ロ
ン
・
ー
㇁
㇂
㇄
㇇
㇈
㇉
㇓
㐁
㐄
㐅
㐌
㐫
㐬
㐭
㐮
㐱
㑒
㒵
㒸
㒼
㓁
㓞
㔾
㕛
㕣
㖾
㘝
㚅
㚇
㚔
㚘
㝉
㝡
㝴
㝵
㞋
㞢
㞷
㠩
㠭
㠯
㡀
㡭
㡿
㢲
㢴
㣇
㣺
㥯
㪅
㫄
㫐
㫒
㫺
㬅
㬎
㬥
㬰
㲋
㳄
㷠
㸒
㸚
㸦
㼌
㼲
㽞
㿟
䀠
䂞
䍃
䏍
䒑
䖍
䖒
䖝
䖵
䙴
䚻
䜌
䝿
䡛
䧹
䪞
一
丁
丂
七
丄
丅
丆
万
丈
三
上
下
丌
不
与
丏
丐
丑
专
且
丕
世
丘
丙
业
东
丞
丢
丣
两
严
並
丨
丩
个
丫
丬
中
丮
丰
丱
串
丵
丶
丷
丸
丹
为
主
丽
丿
乀
乂
乃
久
乆
乇
么
义
之
乌
乍
乎
乏
乐
乑
乔
乖
乗
乘
乙
乚
乛
乜
九
乞
也
习
乡
乳
乾
亀
亅
了
亇
予
争
事
二
亍
于
亏
亐
云
互
亓
五
井
亘
亚
亜
亞
亟
亠
亡
亢
交
亥
亦
产
亨
亩
享
京
亭
亮
亯
亰
亲
亳
亶
亷
人
亻
亼
亾
仁
今
介
仌
从
仐
仑
仒
仓
仕
他
付
仝
代
令
以
任
企
伊
伏
伐
休
会
伯
但
位
何
佘
余
作
佥
使
來
侈
侌
侖
侯
侵
便
保
俞
信
修
倉
倍
候
倠
備
僉
僕
儿
兀
允
兂
元
兄
充
兆
兇
先
光
兊
克
兌
免
兑
兒
兓
兔
党
兜
兟
入
全
兩
兪
八
公
六
兮
兰
共
关
兵
其
具
典
兹
兼
冀
冂
冃
冄
内
冈
冉
冊
冋
册
再
冎
冏
冐
冒
冓
冖
冗
冘
军
农
冝
冡
冥
冫
冬
冷
几
凡
凢
凵
凶
凷
凸
凹
出
函
凾
刀
刁
刂
刃
刄
刅
分
切
刍
刑
刕
刖
列
刘
则
初
別
利
别
到
制
刺
則
削
剌
前
剡
剽
劉
力
功
加
劦
助
劫
劳
劵
勃
勇
勉
勒
動
務
勞
勤
勹
勺
勻
勾
勿
匀
匂
包
匆
匈
匊
匋
匍
匕
化
北
匚
匝
匡
匪
匱
匸
匹
区
医
匽
匿
區
十
卂
千
卄
卅
卆
升
午
卉
半
卌
华
卑
卒
卓
单
卖
南
卜
卝
卞
占
卡
卢
卣
卤
卦
卩
卪
卬
卯
印
危
即
却
卵
卷
卸
卻
厂
厃
厄
历
厈
厉
厌
厓
厘
厚
原
厤
厥
厨
厭
厲
厶
厷
厸
去
厼
厽
县
叀
参
參
叅
又
叉
及
友
双
反
叐
发
叒
叔
叕
取
受
叚
叜
叟
口
古
句
另
叩
只
召
可
台
叱
史
右
叵
号
司
叹
吂
各
吅
合
吉
吊
吋
同
名
后
吏
向
吕
君
吝
吞
否
含
启
吳
吴
吹
吾
呂
呆
呈
告
员
呙
周
命
咅
和
咎
咠
咢
咨
咸
咼
哀
品
哉
員
哥
哲
唐
商
啇
問
啚
啬
啻
善
喜
喬
單
喿
嗇
噩
嚴
囊
囗
囘
囙
囚
四
回
囟
因
囧
囬
困
囱
囷
固
国
圂
圅
國
圍
圓
土
圡
圣
圥
在
圭
地
圶
圼
坐
坒
坚
坴
垂
垔
垚
埀
埋
城
埶
執
基
堂
堅
堆
堇
堯
塞
墨
壘
士
壬
壯
声
壳
壴
壹
壺
壽
夂
处
夅
夆
备
夊
夋
夌
复
夏
夒
夕
外
夗
夘
多
夜
夢
大
夨
天
太
夫
夬
夭
央
失
夲
头
夷
夸
夹
夻
夾
奂
奄
奇
奈
奉
奎
奏
奐
契
奓
奔
奚
奞
奠
奢
奥
奭
女
奴
奻
好
如
妄
妙
妟
妥
妻
妾
姑
委
姜
威
娄
婁
婴
嬰
嬴
子
孑
孔
孕
孖
字
存
孚
孛
孝
孟
季
孤
学
孫
孱
學
宀
宁
宂
它
宅
宇
守
安
宋
完
宏
宓
宗
官
定
宛
宜
宝
客
宣
室
宮
宰
害
家
容
宾
宿
寄
寅
密
富
寒
察
寧
審
寫
寬
寮
寸
对
寺
寻
寽
対
寿
封
尃
射
将
將
專
尉
尊
尋
尌
對
小
少
尒
尓
尔
尖
尗
尚
尞
尢
尣
尤
尧
尨
尭
就
尸
尹
尺
尻
尼
尽
尾
尿
局
居
屈
屋
屎
屏
屑
展
屖
屚
属
屠
屡
屬
屮
屯
屰
山
屵
屾
岁
岂
岑
岡
岩
岳
岸
峯
島
崇
崑
崔
崖
崙
崩
嵬
嶲
巂
巛
川
州
巟
巠
巢
巤
工
左
巧
巨
巩
巫
差
己
已
巳
巴
巷
巸
巽
巾
巿
帀
市
布
希
帚
帛
帝
带
師
席
帶
常
干
平
年
幵
并
幷
幸
幺
幻
幼
幽
幾
广
広
庄
床
底
店
庚
府
度
庫
庭
庶
康
庸
廉
廌
廛
廣
廩
廴
延
廷
建
廾
廿
开
弁
弃
弄
弇
弋
式
弓
弔
引
弗
弘
弜
弟
弥
弦
弱
張
強
强
彊
彌
彎
彐
彑
当
彔
录
彖
彗
彡
形
彥
彦
彧
彭
彳
役
彼
往
待
律
徒
得
徙
從
復
微
徵
心
忄
必
忌
忍
志
忝
忠
忩
快
念
忽
忿
思
怠
急
怱
恆
恒
恩
恭
息
悉
患
悤
悲
悶
惠
惡
惢
愁
愈
意
愛
感
慈
慧
慮
憂
憲
應
戀
戈
戉
戊
戋
戌
戍
戎
成
我
戒
戔
或
戚
戠
戢
截
戲
戶
户
戹
戼
戾
房
所
扁
扇
手
扌
才
打
托
执
承
折
拉
拜
拿
掌
推
提
摩
支
攴
攵
收
攸
改
放
政
敄
敏
敕
敖
敗
敝
敞
敢
散
敦
敫
敬
数
敷
數
斂
文
斉
斊
斗
斤
斥
斩
斬
斯
新
方
於
施
斿
旁
旋
族
无
旡
既
旣
日
旦
旧
旨
早
旬
旱
旲
时
旾
昆
昇
昌
昍
明
昏
易
昔
昗
昜
星
春
昬
是
昱
昴
昷
時
晃
晋
晏
普
景
晶
智
暑
暴
曇
曩
曰
曲
曳
更
曷
書
曹
曼
曾
替
最
朁
會
月
有
朋
服
朔
朕
朗
望
朝
木
朩
未
末
本
札
朮
术
朱
朵
朶
朿
杀
李
杏
村
杜
束
条
来
東
杲
杳
松
析
林
枚
果
枝
枲
枼
某
柔
查
柬
柰
柴
栗
桀
桑
桼
梁
條
梟
梨
棘
棠
棥
森
楚
業
楽
榮
樂
樊
欠
次
欣
欮
欲
欶
欽
款
歆
歇
歛
止
正
此
步
武
歨
歪
歮
歯
歰
歲
歴
歷
歸
歹
歺
死
殳
段
殷
殸
殹
殺
殻
殿
毋
毌
母
每
毒
比
毕
毚
毛
毳
氏
氐
民
气
氣
水
氵
氶
氷
永
氺
氾
求
汝
汞
江
沃
沓
沙
沝
河
泉
法
波
泣
泥
泰
洛
洞
洪
活
派
流
浦
浪
浮
海
淡
淮
清
渚
渠
湯
滿
漸
火
灬
灭
灰
灵
灷
炅
炎
炏
炗
炙
炭
為
烈
烏
烝
焉
無
焦
焱
然
煞
熊
熏
燕
營
燮
爪
爫
爭
爯
爰
爱
爲
爵
父
爻
爽
爾
爿
片
牙
牚
牛
牜
牟
牢
牧
物
牪
牽
犀
犬
犭
犮
狂
狄
狊
独
狺
猋
猒
猪
猫
献
獻
玄
率
玉
王
玟
玨
珎
班
琴
瑟
瑩
瓜
瓦
甘
甚
生
産
用
甫
甬
田
由
甲
申
电
甶
男
甸
甹
画
甾
畀
界
畏
畐
留
畜
畟
畢
畧
畨
番
畫
異
畱
當
畺
畾
疊
疋
疌
疑
疒
疾
癶
癸
癹
登
發
白
百
皀
皃
的
皆
皇
皋
皐
皕
皮
皷
皿
盃
盆
盇
盈
益
盍
盎
监
盒
盖
盛
盡
監
盤
盧
目
直
相
盾
省
眇
眉
看
眔
眞
真
眷
眼
眾
着
睘
睪
睿
瞏
瞢
瞿
矍
矛
矞
矢
矣
知
矦
短
石
破
碎
磊
磨
示
礻
礼
社
神
祟
票
祭
禀
禁
禸
禹
禺
离
禽
禾
禿
秀
秃
秉
秋
科
秝
秦
移
稟
穀
穌
穴
究
穹
空
穿
突
窄
窒
立
竒
竜
竝
竟
章
童
竹
笑
笠
筆
等
答
箕
算
箴
節
篤
篭
米
粉
粛
粟
粤
粦
粲
糞
糸
糹
系
約
納
素
索
紫
累
細
絜
絫
絲
維
綿
縣
繇
纍
纟
缶
网
罒
罔
罕
罗
罙
罡
罢
罪
署
罷
羅
羊
羌
羍
美
羔
羕
羗
羞
羡
羣
群
義
羲
羸
羽
翁
翏
習
翕
翟
翠
翼
老
耂
考
者
耆
而
耎
耑
耒
耳
耴
耶
耷
聂
聊
聖
聚
聶
聿
肀
肃
肅
肉
肖
肙
肥
肩
肯
育
肴
胃
背
胡
胥
能
脊
脩
膚
臣
臤
臧
自
臬
臭
臯
臱
至
致
臺
臼
臽
臾
臿
舀
舂
舄
與
興
舉
舌
舍
舛
舜
舞
舟
般
艮
良
色
艸
艹
艾
芒
芔
芬
芮
花
芳
芺
芻
苔
苗
苟
若
苦
英
茶
茸
荅
草
荒
荣
荼
莆
莧
莫
莽
菆
菊
菐
華
萬
落
葉
著
葛
董
葵
蒙
蒦
蒼
蓋
蓬
蓺
蔑
蔡
蕉
蕭
薄
薛
薦
薰
藍
藏
藥
蘭
虍
虎
虐
虒
虔
處
虖
虗
虘
虚
虛
虜
虞
虫
虽
蚤
蚩
蜀
蜜
蟲
蠡
血
行
衍
衛
衣
衤
表
衮
衰
袁
袞
褭
褱
襄
襾
西
覀
要
覃
見
規
覓
覧
親
覽
见
角
解
言
訁
訇
計
記
話
詹
語
誩
諸
讠
谷
豆
豈
豊
豐
豕
豖
豙
象
豦
豩
豪
豸
貇
貝
貞
貟
負
貢
貧
貪
貫
責
貳
貴
買
費
賁
資
賈
賏
賓
賔
賛
賞
賢
賣
質
賴
贊
贝
贡
责
贯
贲
贵
赖
赞
赤
赦
走
越
足
路
蹇
身
躬
車
軍
軎
軟
輦
车
辛
辜
辟
辥
辰
辱
農
辵
辶
边
达
过
近
连
迷
追
退
送
逆
逐
通
速
造
逢
連
逮
進
遀
遂
過
道
達
遣
適
遷
遺
邊
邑
邕
那
邦
邪
郎
部
郭
都
鄉
酉
酋
配
酓
釆
采
里
重
野
量
金
釒
錢
钅
長
镸
长
門
閃
閉
開
閏
閑
閒
間
閔
閵
閻
闌
门
间
闷
阑
阜
阝
阿
降
陳
隆
隊
隋
隡
隨
隱
隶
隹
隺
隻
隼
隽
难
雀
雁
集
雈
雋
雍
雐
雔
雙
雚
雜
雝
離
難
雨
雩
雪
雲
零
雷
需
霍
霜
霝
霞
霸
靈
靑
青
非
靡
面
靣
革
韋
韦
韭
韯
韱
音
頁
頃
項
須
頗
頡
頻
顛
页
風
风
飛
飞
食
飠
養
饣
首
香
馬
馮
駦
马
骨
高
髟
鬥
鬯
鬲
鬼
魚
魯
鮮
鱼
鲁
鳥
鳳
鸟
鹵
鹿
麃
麗
麥
麦
麻
黃
黄
黍
黎
黑
黒
黨
黹
黽
黾
鼎
鼓
鼠
鼻
齊
齋
齐
齒
齿
龍
龙
龜
龟
龠
龰
龱
龴
龵
龶
龷
龸
龹
者
艹
ﬁ
！
（
）
，
：
？
～
🌍
💬
𠀁
𠀃
𠀆
𠀉
𠀎
𠀐
𠁁
𠁣
𠂆
𠂇
𠂈
𠂉
𠂊
𠂋
𠂎
𠂒
𠂔
𠂛
𠂡
𠂢
𠂤
𠂬
𠂭
𠂹
𠃊
𠃋
𠃌
𠃍
𠃎
𠃑
𠃓
𠃔
𠃜
𠄌
𠄎
𠄠
𠄢
𠆢
𠆥
𠇍
𠈌
𠌵
𠓜
𠔉
𠔥
𠔼
𠔽
𠔿
𠕀
𠕁
𠕋
𠘧
𠘨
𠙻
𠙼
𠚏
𠚒
𠚤
𠚪
𠣏
𠤎
𠤕
𠥓
𠦄
𠦑
𠦝
𠧒
𠧗
𠧪
𠩺
𠪚
𠫓
𠫔
𠫤
𠬛
𠬝
𠬞
𠬢
𠬤
𠬶
𠮛
𠮦
𠮷
𠯑
𠱠
𠳮
𠷎
𡈼
𡉀
𡉵
𡌥
𡍮
𡏳
𡕒
𡕩
𡕰
𡖅
𡗗
𡗜
𡘆
𡘤
𡧱
𡨄
𡩧
𡬠
𡭽
𡰣
𡰥
𡰪
𡰯
𡰱
𡷈
𡸁
𡿨
𡿩
𡿪
𡿺
𢀖
𢀛
𢀩
𢁙
𢆉
𢆰
𢆶
𢇁
𢇇
𢉖
𢌬
𢌿
𢏚
𢑑
𢑚
𢖻
𢙣
𢛳
𢦏
𢦒
𢧵
𢼄
𢾕
𣁋
𣄼
𣅀
𣅽
𣍘
𣎳
𣎵
𣏋
𣏼
𣗥
𣥂
𣥖
𣦵
𣦼
𣧄
𣪊
𣪠
𣬉
𣳾
𣶒
𤇾
𤊽
𤐫
𤓰
𤔔
𤕨
𤣩
𤰇
𤰔
𤰞
𤴓
𤴔
𤽄
𥁑
𥁕
𥃦
𥃩
𥃭
𥇡
𥑟
𥘅
𥘈
𥝢
𥫗
𥱡
𦈢
𦉪
𦉬
𦉼
𦍌
𦍒
𦎧
𦐇
𦓔
𦔮
𦘒
𦙃
𦚏
𦣝
𦣞
𦣻
𦥑
𦥔
𦥯
𦨉
𦭝
𦰩
𧆞
𧈧
𧘇
𧰨
𧴪
𧴮
𧵩
𧾷
𨸏
𨾴
𩙿
𩠐
𩫏
𩵋
𪉷
𪜀
𪟽
𪠲
𪩲
𫇦
𫔭
𫜸
𫝀
𫠣
𫠩
𫢉
𫥞
𫩏
𫩠
𫪡
𫲽
𫶧
𬀷
𬐘
𬗌
𬙙
𬛸
𬜯
𬟩
𬯁
𬴘
𬺻
𬼉
𬼖
𭀰
𭁈
𭁨
𭅰
𭑈
𭕄
𭗼
𭤨
𭥫
𭻾
𮅕
𮊿
𮍌
𮍏
𮓗
𮥼
𮧮
廾
𰀁
𰀄
𰀈
𰀉
𰀕
𰀠
𰀡
𰀢
𰀪
𰁜
𰃮
𰆊
𰆘
𰋙
𰕎
𰢴
𰧭
𰯲
00--
01--
02--
03--
04--
05--
06--
07--
08--
09--
37--
38--
39--
41--
42--
43--
44--
45--
46--
47--
48--
49--
50--
51--
52--
53--
54--
55--
56--
57--
58--
59--
60--
61--
62--
63--
64--
65--
66--
67--
68--
69--
70--
71--
72--
73--
74--
75--
76--
77--
78--
79--
80--
81--
82--
83--
84--
85--
86--
87--
88--
89--
90--
91--
92--
93--
94--
95--
96--
97--
98--
99--
a--
aa--
ab--
abat--
abd--
abdom--
aberr--
abi--
abru--
absti--
aby--
ac--
acca--
accompa--
accroch--
accus--
acro--
act--
activ--
actu--
ad--
adapt--
ade--
adi--
adj--
admira--
adria--
advent--
ae--
aeros--
af--
affi--
afg--
ag--
aggra--
agi--
agro--
agronom--
ah--
ai--
ail--
air--
ais--
aj--
ak--
aka--
ake--
al--
ala--
albi--
ale--
alek--
ales--
ali--
all--
allge--
allo--
alou--
alt--
alter--
aly--
am--
amar--
ambi--
ambu--
ame--
ami--
amor--
amph--
amphi--
amplifi--
an--
ana--
anatom--
anc--
ances--
and--
ander--
ang--
angli--
ani--
anna--
anne--
anno--
annul--
ano--
anor--
ans--
ant--
antho--
anthrop--
anti--
antibio--
any--
ao--
ap--
api--
apo--
appla--
appli--
appro--
aq--
aqu--
aqui--
ar--
ara--
arach--
arachno--
arbor--
arc--
arcac--
ard--
are--
argy--
ari--
ark--
arm--
arn--
arna--
aro--
arr--
arrog--
ars--
art--
arti--
articul--
as--
ash--
asp--
asper--
aspira--
astra--
astro--
astu--
at--
ath--
atte--
attir--
au--
aubus--
auda--
auf--
aus--
auto--
autonom--
auver--
aux--
av--
ava--
ave--
avia--
avois--
ax--
ay--
az--
b--
ba--
bab--
bac--
bach--
back--
bad--
bag--
bah--
bai--
bail--
bak--
bal--
balay--
balkan--
ball--
balus--
ban--
bapt--
bar--
barbe--
bas--
bat--
bau--
baud--
baum--
baut--
bay--
bc--
bd--
be--
beau--
bec--
bee--
bei--
bel--
bell--
belle--
ben--
ber--
berg--
bern--
bert--
bes--
bett--
beuv--
bey--
bi--
bibl--
biblio--
bie--
bien--
bifur--
big--
bil--
bin--
bino--
bio--
bip--
bir--
birth--
bis--
bit--
bl--
bla--
black--
blan--
blanc--
ble--
bles--
blo--
block--
blu--
blue--
bo--
bob--
bocc--
bog--
boi--
bois--
bol--
bon--
bonn--
bonne--
bor--
bos--
bot--
bou--
bouc--
bour--
bourb--
bourd--
bourr--
bouss--
bout--
bouy--
bow--
box--
boy--
br--
bra--
brace--
brad--
braqu--
bras--
bre--
bren--
bri--
brico--
brig--
brign--
brio--
brit--
bro--
broad--
brouss--
bru--
bruck--
brus--
bry--
bs--
bu--
bucc--
buch--
bug--
bul--
bun--
bundes--
bur--
burg--
burles--
bus--
but--
by--
c--
ca--
cab--
cad--
cadas--
caf--
cai--
caill--
caiss--
cal--
calcul--
calom--
cam--
cambrio--
camou--
can--
canni--
canta--
cap--
capit--
capitul--
car--
cara--
carbu--
cardio--
caricatur--
carit--
carl--
carni--
carr--
cart--
cas--
casa--
case--
cass--
casti--
cat--
catha--
cauc--
caud--
caum--
cava--
cay--
cc--
cd--
ce--
cele--
cent--
ceris--
cerv--
cervi--
ces--
cessi--
cf--
cg--
ch--
cha--
chal--
cham--
champ--
chan--
chao--
chap--
char--
chass--
chauff--
che--
check--
cher--
chevr--
chi--
chiff--
chis--
chlo--
cho--
chou--
christ--
chroma--
chry--
chu--
chy--
ci--
cia--
cicat--
cigo--
cio--
cipit--
circon--
cis--
cit--
citi--
ck--
cl--
cla--
cle--
cli--
clo--
cloi--
clus--
cm--
cn--
co--
coch--
coe--
coexi--
cog--
cogni--
col--
coll--
com--
combin--
commu--
compe--
compi--
compli--
compt--
con--
conc--
concent--
concor--
condam--
condens--
condu--
confis--
conju--
conom--
consol--
consomm--
consp--
constru--
contra--
contre--
convena--
cop--
cor--
cos--
cosmo--
cot--
cou--
cour--
coutu--
cov--
cow--
cp--
cr--
cra--
cre--
cri--
criti--
cro--
croch--
cron--
crou--
cru--
crypt--
cs--
ct--
cu--
cubi--
cue--
cul--
cultiva--
cum--
cup--
cur--
curr--
cus--
cut--
cy--
cyan--
cyber--
cyclo--
cz--
d--
da--
dag--
dai--
dal--
dam--
dan--
dar--
dark--
das--
dau--
daw--
day--
dc--
dd--
de--
dea--
dead--
dec--
def--
dei--
del--
dela--
dem--
democ--
den--
der--
des--
det--
df--
dg--
dh--
di--
dia--
diat--
dict--
did--
die--
dig--
digi--
dile--
dili--
dill--
dilu--
diment--
din--
dio--
dir--
dis--
discip--
disco--
dissi--
distill--
dit--
div--
diver--
divin--
divul--
dj--
dji--
dl--
do--
doc--
dog--
dol--
dom--
don--
dor--
dorm--
dos--
dot--
dou--
doua--
doulour--
dour--
douv--
down--
dr--
dras--
dre--
dro--
dru--
drum--
du--
dub--
duc--
ducti--
dun--
dupli--
dur--
dus--
dut--
dy--
dysfonction--
dz--
e--
ea--
eau--
eb--
ec--
eco--
ed--
edi--
ee--
ef--
eg--
eh--
ei--
eich--
ein--
ek--
el--
ele--
elek--
eli--
elli--
ely--
em--
eme--
emi--
emiss--
emme--
emplo--
en--
encom--
ency--
end--
endoc--
endor--
ener--
engl--
englo--
engre--
enlu--
enlumin--
enregist--
ens--
ensei--
ensui--
ent--
entom--
entre--
entro--
eo--
ep--
equ--
er--
era--
ers--
es--
escar--
esclava--
esco--
escou--
escroque--
espe--
esqui--
essay--
est--
estim--
et--
eth--
ethi--
ethno--
eu--
eucl--
euph--
euro--
eury--
ev--
ever--
ex--
exami--
exca--
excent--
excurs--
exemp--
exor--
exp--
expe--
expli--
explo--
expo--
extra--
ey--
ez--
f--
fa--
fabr--
fabri--
fabu--
fac--
facilit--
fai--
fair--
fais--
fal--
fals--
familia--
fan--
fantais--
far--
farou--
fasci--
fau--
fauc--
fc--
fe--
fect--
feld--
feli--
fen--
fer--
feu--
ff--
fi--
fia--
fie--
fig--
figue--
figur--
fil--
file--
film--
fin--
fio--
fire--
fis--
fit--
fitz--
fl--
flag--
flam--
flav--
fle--
flexi--
flo--
floris--
flot--
flu--
fn--
fo--
fol--
font--
for--
forma--
fou--
foul--
four--
fow--
fr--
fra--
frac--
fran--
france--
franco--
fre--
free--
frey--
fri--
fric--
frie--
fris--
fro--
frott--
fruc--
frus--
fs--
fu--
fugi--
ful--
fun--
funct--
fur--
fut--
g--
ga--
gage--
gai--
gal--
galit--
gamb--
game--
gan--
gar--
gard--
garn--
garnit--
garr--
garri--
gas--
gastronom--
gat--
gau--
gaud--
gaul--
gay--
gaz--
gb--
ge--
gel--
gen--
gene--
geo--
ger--
ges--
get--
gha--
ghe--
ghi--
ghis--
gho--
gi--
gia--
gian--
gibb--
gif--
gil--
gion--
gior--
giov--
gis--
gitim--
giul--
gl--
glacia--
gladia--
glau--
glen--
gli--
gliss--
glo--
globu--
glu--
gly--
gm--
go--
gocia--
god--
goe--
gol--
gold--
gon--
good--
gor--
got--
gou--
gourm--
gover--
gr--
gra--
gradu--
gramm--
grammatic--
gran--
grand--
gravita--
gre--
green--
greno--
gri--
grill--
grim--
grin--
grizz--
gro--
groen--
gros--
gru--
gs--
gu--
gua--
guang--
gue--
guer--
gui--
guil--
gula--
gun--
gur--
gus--
guy--
guz--
gy--
gymn--
gypt--
h--
ha--
hab--
habit--
had--
hagi--
hai--
hal--
halluci--
ham--
han--
har--
hard--
harm--
harmon--
harmonisa--
harp--
harr--
has--
hat--
hau--
hauss--
haute--
haw--
hay--
he--
head--
hel--
hell--
hen--
hend--
henne--
her--
herbi--
het--
hex--
hey--
hi--
hier--
high--
hil--
him--
hip--
hippo--
his--
historio--
hit--
hl--
hm--
ho--
hoc--
hodg--
hohe--
hol--
holl--
holo--
holoc--
home--
homo--
hon--
hop--
horm--
hort--
hot--
hou--
hr--
hs--
hu--
hua--
hubb--
hugue--
hum--
humil--
humilia--
hur--
huss--
hy--
hydr--
hydro--
hyp--
hyper--
hypo--
hyu--
i--
ia--
ibe--
ic--
ice--
ico--
icono--
id--
identifia--
ie--
if--
ign--
ii--
ik--
il--
ill--
illumina--
illus--
illy--
im--
imagi--
imit--
immun--
impo--
import--
imprim--
in--
ina--
inaccessi--
inact--
inc--
inces--
incis--
incit--
inclu--
incom--
incon--
incor--
incu--
incur--
inde--
indi--
indo--
indul--
ine--
inex--
inexi--
inf--
infir--
inflo--
info--
inform--
infructue--
inhi--
initia--
inn--
innov--
inqui--
insol--
insp--
inst--
insti--
instru--
insu--
int--
inter--
intermit--
intim--
intimida--
intra--
intransi--
intro--
inv--
invas--
invo--
invoc--
involont--
io--
ion--
ip--
ir--
iro--
irri--
is--
isa--
ishi--
iso--
ist--
it--
iv--
iw--
iz--
iza--
j--
ja--
jac--
jacque--
jag--
jahrhu--
jai--
jam--
jan--
je--
jean--
ject--
jen--
jet--
ji--
jin--
jo--
joa--
joign--
jon--
jos--
jou--
joui--
jouiss--
jouv--
joux--
joy--
js--
ju--
judi--
jul--
jun--
juris--
jus--
juxta--
jy--
k--
ka--
kai--
kal--
kamp--
kan--
kars--
kat--
katha--
kawa--
kay--
kaza--
ke--
kei--
ken--
ker--
kerm--
kers--
key--
kha--
khe--
khm--
kho--
ki--
kid--
kil--
kilog--
kim--
kin--
kir--
kirk--
kirs--
kit--
kla--
kle--
kna--
kno--
ko--
kol--
komm--
kon--
kos--
kou--
kour--
kr--
kra--
kriegs--
kris--
kru--
kry--
ku--
kunst--
kv--
kw--
ky--
l--
la--
lab--
lac--
lacus--
ladis--
lae--
lag--
lah--
lai--
lam--
lament--
lan--
land--
lang--
lar--
larc--
larm--
larr--
las--
lat--
lau--
law--
lay--
laza--
lc--
ld--
le--
lea--
lec--
lectro--
led--
leg--
lehm--
lei--
len--
lenticul--
leo--
lept--
ler--
les--
let--
leu--
lev--
lex--
lexic--
ley--
li--
lia--
lichten--
life--
lig--
liga--
lil--
lim--
limit--
lin--
line--
linqu--
lio--
lis--
lit--
liv--
liz--
ll--
lle--
lo--
loc--
lock--
locut--
log--
loi--
lon--
long--
longitudi--
los--
lot--
lou--
low--
ls--
lt--
lu--
luc--
lud--
lug--
lus--
lutt--
lv--
ly--
lys--
m--
ma--
mac--
machi--
mad--
mae--
mag--
magni--
mai--
mail--
main--
mak--
mal--
malad--
mali--
malveil--
mamm--
man--
mandc--
manif--
manipul--
mans--
manu--
map--
mar--
mara--
marc--
marga--
margina--
mari--
marl--
mas--
mat--
matur--
mau--
max--
may--
maz--
maza--
mazo--
mb--
mc--
me--
med--
mei--
mek--
mel--
memb--
men--
mer--
mes--
mesur--
met--
meta--
mexi--
mey--
mh--
mi--
mia--
michel--
micro--
mid--
mig--
mik--
mil--
milit--
min--
mina--
mini--
mio--
mir--
mira--
mis--
mit--
mitrail--
mix--
miya--
ml--
mm--
mn--
mo--
mobi--
mocra--
mod--
modul--
mog--
moi--
mois--
mol--
mon--
monarc--
mond--
monde--
monia--
mono--
mons--
mont--
montag--
monte--
moo--
moon--
mor--
morc--
mord--
mori--
morm--
morp--
morpho--
morr--
mors--
mort--
mos--
mot--
moto--
mou--
moy--
mp--
mr--
ms--
mt--
mu--
multi--
mun--
mur--
mus--
music--
mutua--
mw--
my--
mysti--
n--
na--
nac--
nai--
naiss--
naka--
nal--
nam--
nan--
narr--
nas--
nat--
natur--
navi--
nb--
nc--
nd--
ne--
nec--
neder--
neo--
ner--
nes--
net--
neu--
neur--
neus--
neut--
new--
news--
ney--
ng--
nh--
ni--
nia--
nic--
nidific--
nie--
nieder--
nig--
nik--
nin--
nis--
nivel--
niver--
nk--
no--
nobilia--
nom--
non--
nor--
nord--
north--
nos--
not--
nou--
nourr--
nourris--
nova--
np--
ns--
nt--
nu--
nuisi--
nul--
num--
ny--
o--
obe--
ober--
obje--
objectiv--
obl--
obs--
observ--
obt--
oc--
occult--
och--
oct--
ocul--
odo--
odony--
of--
off--
og--
oh--
oi--
oig--
ois--
ok--
ol--
ola--
old--
oli--
olim--
olog--
oly--
om--
on--
one--
ong--
ont--
op--
opa--
open--
ophy--
opport--
optim--
or--
ora--
ore--
org--
ori--
orif--
orio--
ornith--
oro--
orth--
orthop--
os--
osci--
oscill--
ost--
ot--
ou--
oues--
oui--
oul--
our--
out--
outre--
ov--
over--
ox--
oxy--
oz--
p--
pa--
pac--
pag--
paill--
pal--
palis--
palla--
pam--
pan--
papi--
par--
para--
parachu--
pare--
pari--
paris--
paro--
part--
pas--
pasqu--
pat--
patho--
pau--
pav--
pay--
pc--
pd--
pe--
peign--
pemb--
pen--
per--
perfor--
perru--
pes--
pessim--
pet--
petro--
peu--
pey--
pf--
ph--
pharmac--
phe--
phi--
phil--
pho--
phon--
photo--
phry--
phy--
physi--
phyto--
pi--
pia--
pic--
pictu--
pie--
pier--
pil--
pill--
pin--
pipe--
pis--
pisci--
pisto--
pit--
pl--
pla--
plai--
plan--
plausi--
play--
ple--
pleas--
pleur--
pli--
plo--
plou--
plu--
pluridiscip--
po--
poe--
pog--
poign--
pol--
poli--
pollinisa--
pollu--
poly--
pomp--
pont--
pop--
popul--
por--
port--
porto--
pos--
post--
pot--
pou--
poud--
poul--
pour--
pouv--
poz--
pp--
pr--
pra--
prati--
pre--
preda--
pres--
pri--
pris--
pro--
procu--
prohi--
prosc--
proto--
provo--
prud--
pry--
ps--
pseudo--
psy--
psycho--
pt--
pu--
pub--
puls--
pur--
purific--
put--
puy--
px--
py--
pygm--
q--
qi--
qu--
quad--
quali--
quat--
que--
qui--
quin--
quisi--
quo--
r--
ra--
rac--
rad--
radio--
raf--
rag--
rai--
ral--
ralog--
ram--
ran--
rap--
rappro--
ras--
rat--
ration--
rau--
ravi--
raw--
ray--
raz--
rb--
rc--
rd--
re--
rec--
recher--
recom--
recon--
recou--
rectific--
recy--
red--
rede--
redif--
redou--
ref--
refer--
refon--
refor--
reg--
rei--
rein--
rejo--
relati--
reli--
remb--
remp--
ren--
rend--
repre--
repro--
rept--
res--
resist--
restaur--
restre--
restruc--
ret--
retentis--
retrans--
retrava--
rev--
reve--
revendi--
revis--
rey--
rg--
rha--
rhe--
rho--
ri--
ria--
rial--
ric--
rica--
rie--
rif--
rig--
rigi--
rigo--
ril--
rim--
rin--
rio--
ris--
rit--
rk--
rm--
rn--
ro--
rob--
roc--
roche--
rock--
rod--
roe--
roh--
rom--
ron--
roque--
ros--
rose--
rot--
rou--
rovin--
row--
rox--
rp--
rr--
rs--
rt--
ru--
rug--
ruis--
rum--
run--
rupes--
rurg--
rus--
ruy--
ry--
s--
sa--
sabb--
sabl--
sac--
sacer--
sad--
saha--
sai--
sal--
sala--
salut--
salv--
sam--
san--
sand--
sang--
sao--
sapp--
sar--
sarre--
sas--
sat--
saty--
sau--
sauve--
sava--
say--
sb--
sc--
scand--
scar--
scept--
sch--
schi--
schl--
schm--
scho--
schr--
schwe--
sci--
sco--
scy--
sd--
se--
sea--
sec--
see--
sei--
sel--
selec--
semp--
sen--
sens--
sep--
sept--
ser--
serru--
sert--
ses--
set--
sex--
sey--
sf--
sg--
sh--
sha--
she--
sher--
shi--
sho--
show--
shu--
si--
sia--
siby--
sic--
sidue--
sie--
siff--
sig--
sik--
sil--
sim--
simul--
sin--
sir--
sis--
six--
sk--
ska--
ski--
sky--
sl--
slo--
sm--
smy--
sn--
sno--
snow--
so--
socio--
soi--
sol--
solli--
some--
somm--
somp--
son--
soph--
sor--
sos--
sou--
souff--
soul--
sound--
sous--
sp--
spa--
spe--
spect--
spit--
splen--
spo--
spora--
squ--
sr--
ss--
st--
sta--
stall--
stan--
star--
ste--
sti--
stimu--
stipu--
sto--
story--
stra--
strat--
strati--
stre--
stro--
stru--
structur--
stu--
sty--
stylist--
su--
sua--
sub--
subject--
subti--
succ--
sud--
suff--
suffi--
suffra--
sui--
sul--
sulfur--
sum--
sun--
super--
supp--
suppos--
sur--
sus--
suze--
sv--
svet--
swa--
swe--
swi--
sy--
sylv--
symb--
sync--
synt--
syntax--
sz--
sza--
szcz--
sze--
t--
ta--
tac--
tag--
tai--
tail--
taka--
tal--
tallurg--
tam--
tan--
tang--
tar--
tarent--
tart--
tas--
tat--
tatou--
tau--
tax--
tay--
tch--
te--
tea--
teau--
tech--
tecton--
tek--
tel--
temp--
ten--
tend--
ter--
tes--
test--
teuton--
tex--
tf--
th--
tha--
the--
ther--
tho--
thou--
thur--
thy--
ti--
tian--
tic--
tig--
til--
tim--
tin--
tir--
tis--
tit--
to--
toc--
toi--
tol--
tom--
ton--
top--
topony--
tor--
tot--
tou--
tour--
toxico--
tr--
tra--
trac--
tradui--
trafi--
tran--
tranc--
trang--
trans--
traum--
traumat--
tre--
treas--
treat--
tremb--
tres--
tri--
trimes--
triomp--
tro--
trop--
trou--
tru--
trud--
ts--
tsu--
tt--
tu--
tur--
turbo--
turbul--
tus--
tv--
twe--
twi--
ty--
tz--
u--
uc--
ud--
ue--
ui--
uk--
ul--
ultra--
um--
un--
under--
uni--
unis--
unter--
up--
ur--
ursul--
us--
usten--
usue--
usur--
ut--
v--
va--
val--
van--
vapor--
var--
vas--
vau--
vauc--
ve--
vec--
veil--
vel--
ven--
vend--
veng--
vent--
ver--
ves--
veui--
vey--
vi--
via--
vic--
vie--
vig--
vil--
villa--
ville--
vin--
virtu--
vis--
visit--
vit--
viva--
vla--
vo--
voi--
vol--
volat--
volum--
volut--
vos--
vou--
vous--
vr--
vre--
vs--
vu--
vul--
vulga--
vy--
w--
wa--
wal--
wald--
wan--
war--
was--
water--
watt--
way--
we--
web--
wei--
wel--
wen--
wes--
west--
wey--
whe--
whi--
whis--
whit--
white--
wi--
wick--
wie--
wig--
wiki--
wil--
wild--
win--
wissens--
wit--
witt--
wo--
wolv--
wood--
wu--
wy--
x--
xe--
xi--
xl--
xu--
xx--
xxx--
y--
ya--
yan--
yasu--
ye--
yi--
yo--
yoshi--
you--
your--
yu--
z--
za--
zach--
ze--
zemm--
zen--
zhe--
zi--
zie--
zig--
zo--
zoo--
zoua--
zu--
zwi--
zy--
æ--
đ--
ł--
œ--
œdi--
α--
κ--
τ--
п--
с--
--0
--00
--01
--1
--2
--3
--4
--5
--6
--7
--8
--9
--a
--aa
--aan
--aar
--ab
--aba
--abe
--able
--ables
--ac
--aca
--acci
--aceae
--ach
--acio
--ack
--aco
--ad
--ada
--ade
--adi
--adie
--ado
--ador
--ady
--ae
--ael
--aen
--af
--ag
--aga
--agawa
--age
--ager
--ages
--agh
--ago
--ah
--ai
--aient
--aign
--ain
--air
--aire
--aires
--ais
--aise
--ait
--ak
--aki
--al
--ala
--ald
--aldi
--ale
--ales
--ali
--alis
--aliste
--alite
--all
--alog
--als
--am
--ama
--ame
--amus
--an
--ana
--ance
--and
--ane
--ani
--ank
--ano
--anos
--ans
--ant
--ante
--ants
--anum
--anus
--anza
--ao
--ap
--ar
--ara
--ard
--ards
--are
--ari
--aris
--arite
--aro
--art
--article
--aru
--arum
--ary
--as
--asa
--ase
--ast
--at
--ata
--ate
--ateur
--ati
--atic
--ation
--ato
--ator
--att
--atus
--atz
--au
--aud
--ault
--aut
--aux
--av
--ave
--avi
--avia
--aw
--awa
--ax
--ay
--aya
--aye
--ayo
--az
--b
--ba
--bach
--back
--backs
--ball
--bas
--baud
--bault
--baum
--be
--bel
--berg
--bet
--bi
--bia
--bian
--bie
--ble
--bles
--bo
--boa
--bole
--borg
--bot
--bourg
--box
--boy
--bs
--bu
--buch
--bur
--burg
--bus
--by
--c
--ca
--cade
--cal
--car
--cat
--cchio
--cco
--ce
--ceae
--cef
--cel
--cence
--cer
--ces
--cey
--cf
--ch
--cha
--che
--chi
--chon
--cht
--chy
--ci
--cia
--cie
--cien
--ciens
--cin
--cini
--cio
--cir
--ck
--cke
--cker
--cki
--cks
--ckx
--cky
--co
--col
--com
--cot
--cott
--cq
--craft
--cratie
--cs
--ct
--cta
--cte
--cter
--cteur
--cteurs
--ctif
--ction
--ctions
--ctive
--cts
--ctus
--cu
--cular
--cus
--cy
--cz
--d
--da
--dad
--dae
--dage
--dah
--dal
--dale
--dan
--dans
--dat
--day
--de
--den
--der
--des
--deur
--dge
--di
--dia
--dice
--dict
--die
--dieu
--din
--disciplinaire
--dit
--dl
--dle
--dler
--dm
--do
--dome
--don
--dor
--dorf
--dos
--dou
--doyer
--dra
--dral
--dre
--dry
--ds
--dt
--du
--dy
--e
--ea
--eae
--eau
--eaux
--eb
--ec
--eca
--ech
--eck
--ect
--ed
--eda
--ee
--eer
--ef
--eg
--ei
--eis
--ek
--eke
--el
--ela
--eld
--elet
--ell
--ella
--elle
--elli
--ello
--elo
--em
--ema
--eman
--ement
--ements
--en
--enburg
--enc
--ence
--ene
--eng
--enne
--ens
--ensis
--ent
--enton
--eo
--eois
--eon
--ep
--er
--era
--ere
--eren
--erg
--eri
--erie
--eries
--erly
--ern
--erne
--ero
--eron
--erre
--ers
--ert
--ery
--es
--ese
--ess
--est
--et
--ete
--ets
--ett
--etta
--ette
--etti
--etz
--eu
--euil
--eul
--eur
--eurs
--eus
--euse
--euses
--euve
--eux
--ev
--ew
--ex
--ey
--ez
--f
--fa
--fe
--feld
--fen
--fer
--ff
--ffe
--ffen
--ffer
--ffon
--fi
--fication
--fiche
--fie
--field
--fo
--fon
--ford
--form
--fort
--fp
--fs
--ft
--fu
--ful
--fy
--g
--ga
--gado
--gar
--gate
--gau
--ge
--gem
--gen
--ger
--ges
--gg
--ggio
--ggy
--gh
--ghini
--ghlin
--ght
--gi
--gic
--gie
--gin
--gio
--gir
--git
--gn
--gna
--gnac
--gne
--gny
--go
--gon
--gos
--graphy
--gs
--gt
--gton
--gu
--gua
--gue
--gues
--gy
--h
--ha
--hac
--hai
--hal
--ham
--han
--hant
--har
--haud
--haus
--hausen
--he
--head
--heim
--heimer
--hel
--hem
--hen
--her
--hes
--hi
--hia
--hic
--hie
--hin
--hine
--hing
--hip
--hir
--hire
--hiro
--hl
--hlon
--hm
--hme
--hn
--hna
--ho
--hod
--hoe
--hof
--hoff
--hol
--hon
--hood
--hop
--hos
--hout
--hr
--hra
--hs
--ht
--http
--https
--hu
--hus
--hy
--i
--ia
--iable
--iac
--iae
--iah
--iaire
--iait
--ial
--iale
--ials
--ian
--iana
--iano
--ians
--iant
--iard
--ias
--iat
--iau
--iaux
--ib
--ible
--ic
--ica
--ical
--ice
--ich
--iche
--ici
--icie
--icien
--iciens
--icio
--icite
--ick
--ico
--ics
--icule
--icules
--icum
--icus
--id
--ida
--idae
--ide
--idge
--ido
--ie
--iel
--ielle
--ielles
--ien
--ienne
--iennes
--iens
--ient
--iente
--ier
--iers
--ies
--ieu
--ieuse
--ieux
--iez
--if
--ifa
--ife
--ifer
--ifie
--iformes
--ifs
--ig
--iga
--igan
--ige
--iges
--igh
--ight
--ignac
--ignant
--igne
--igny
--igo
--igue
--ii
--iidae
--ija
--ik
--ika
--iki
--iko
--il
--ila
--ile
--ili
--ilia
--ilie
--ilien
--ilienne
--illa
--illac
--illant
--ille
--illes
--illo
--illon
--illy
--ilo
--ils
--im
--ima
--ime
--imer
--imo
--in
--ina
--inae
--inda
--ine
--inelle
--iner
--ines
--ing
--ings
--ington
--inho
--ini
--ino
--inot
--ins
--inson
--int
--inum
--inus
--io
--iol
--iola
--iole
--ion
--ions
--ior
--ios
--iot
--iou
--ious
--ip
--ipe
--ique
--iques
--ir
--ira
--ire
--irent
--ires
--iri
--iro
--is
--isant
--isation
--isch
--ische
--ise
--iser
--ish
--ism
--isme
--iss
--isse
--ist
--ista
--iste
--istes
--istique
--ists
--isław
--it
--ita
--itas
--ite
--ites
--ith
--iti
--itia
--ities
--ition
--ito
--itte
--ity
--itz
--iu
--ium
--ius
--iv
--iva
--ive
--ives
--ivite
--ivo
--ivy
--ix
--iya
--iz
--ization
--ize
--ized
--izio
--j
--ja
--je
--jean
--ji
--jk
--jo
--ju
--k
--ka
--kar
--kas
--kawa
--ke
--kel
--ken
--ker
--kers
--kes
--ket
--kh
--ki
--kie
--kis
--ko
--kor
--kov
--ks
--kt
--ku
--ky
--l
--la
--lac
--lade
--lag
--lage
--lah
--lain
--lan
--land
--lant
--lar
--las
--lat
--lav
--lay
--ld
--lde
--ldi
--ldre
--le
--lem
--len
--ler
--les
--less
--let
--lett
--leux
--ley
--lf
--lh
--li
--lia
--lic
--lica
--lich
--lidae
--lie
--lier
--lifa
--lik
--lin
--line
--ling
--link
--lio
--lis
--lise
--liste
--lite
--lius
--lk
--ll
--lla
--llan
--lle
--lles
--llet
--lli
--lling
--llis
--llo
--llon
--llou
--lloux
--lls
--lly
--lm
--lma
--lo
--logical
--logie
--logue
--logy
--lois
--lon
--lor
--lore
--lot
--lou
--lov
--ls
--lse
--lt
--lte
--lton
--ltz
--lu
--lum
--lus
--ly
--lyn
--lyse
--lz
--m
--ma
--mal
--mam
--man
--mania
--mann
--mant
--map
--mat
--mb
--mbe
--mbert
--mbra
--me
--men
--ment
--ments
--mer
--mes
--mi
--mic
--mie
--min
--mire
--mis
--mium
--mler
--mm
--mment
--mne
--mo
--mon
--mont
--more
--mp
--mpf
--mps
--mpt
--ms
--mu
--mus
--muse
--muth
--my
--n
--na
--nable
--nac
--nae
--nage
--nah
--naient
--naire
--naires
--nais
--naise
--nait
--nal
--nalisation
--nalisme
--nalite
--nant
--nante
--nar
--nas
--nat
--nau
--naud
--nault
--naux
--nay
--nberg
--nbourg
--nburg
--nc
--nca
--nce
--nces
--nch
--nche
--ncia
--nco
--ncourt
--ncy
--nd
--nda
--nde
--ndes
--ndi
--ndin
--ndo
--ndon
--ndra
--ndre
--nds
--ndu
--ne
--neau
--nel
--nelle
--nellement
--nelles
--nels
--nem
--nement
--nen
--nent
--ner
--nerie
--nes
--ness
--net
--nette
--neur
--neux
--news
--ney
--nez
--ng
--nga
--nge
--ngen
--nger
--ngle
--ngo
--nheim
--ni
--nia
--nic
--nie
--nier
--niers
--nik
--nin
--ning
--nir
--nis
--nisme
--niste
--nistes
--nius
--nk
--nka
--nko
--nn
--nna
--nnais
--nne
--nnes
--nny
--no
--nod
--nois
--non
--nons
--not
--nov
--nox
--noy
--ns
--nse
--nsif
--nsis
--nson
--nstein
--nt
--nta
--nte
--ntes
--nti
--ntie
--ntin
--ntino
--ntir
--ntis
--nto
--ntre
--nts
--nty
--nu
--nure
--nus
--nx
--ny
--nyme
--nz
--nza
--nze
--nzo
--o
--oa
--ob
--obu
--oc
--ock
--oco
--od
--oda
--ody
--oe
--of
--off
--oft
--og
--ogie
--ogne
--ogue
--ogy
--oi
--oin
--oir
--oire
--oires
--oirs
--ois
--oise
--ok
--oka
--oke
--oko
--ol
--ola
--ole
--olfo
--oli
--olin
--olini
--olle
--olles
--olo
--ology
--ols
--olt
--om
--oma
--ome
--omie
--on
--ona
--ond
--one
--oni
--onia
--oniaux
--onie
--ono
--ons
--ont
--ony
--oo
--oon
--op
--ope
--or
--ora
--ord
--ore
--orf
--ori
--oria
--orial
--oriaux
--orium
--orme
--ors
--ort
--orum
--ory
--os
--osa
--ose
--oshi
--osi
--oso
--ot
--ota
--ote
--oth
--othe
--oto
--ots
--otte
--otti
--ou
--oua
--oud
--oue
--ouf
--ouille
--ouin
--ouk
--oul
--oun
--our
--ourent
--ourt
--ous
--out
--oux
--ov
--ova
--ove
--ovic
--ovitch
--ovo
--ovsk
--ow
--ows
--owski
--ox
--oy
--oya
--oz
--p
--pa
--page
--pe
--pel
--per
--pers
--pes
--ph
--phe
--phobie
--phy
--pi
--pie
--pin
--po
--pol
--port
--pot
--pour
--pp
--ppa
--ppe
--pre
--ps
--pse
--pt
--pta
--ption
--pus
--py
--q
--qua
--que
--ques
--quet
--r
--ra
--rad
--rada
--rai
--raient
--rait
--ral
--ram
--ran
--rand
--rara
--rary
--ras
--rat
--ray
--raz
--rbe
--rc
--rch
--rche
--rck
--rd
--rde
--rdi
--rdon
--rds
--re
--rea
--reau
--red
--rel
--rell
--ren
--rent
--rer
--res
--ret
--reuil
--rey
--rez
--rf
--rg
--rge
--rgue
--ri
--ria
--ric
--rice
--rie
--ries
--rin
--rina
--rini
--rio
--ris
--rium
--rius
--rix
--rk
--rke
--rl
--rle
--rm
--rma
--rman
--rme
--rn
--rna
--rnal
--rne
--rnes
--rno
--ro
--ron
--rons
--ront
--rop
--ror
--ros
--rov
--row
--roy
--rr
--rra
--rre
--rri
--rro
--rry
--rs
--rson
--rt
--rta
--rte
--rth
--rton
--ru
--rue
--rum
--rus
--rva
--rve
--rville
--ry
--ryn
--rz
--s
--sa
--sac
--saient
--sait
--san
--sant
--sard
--sat
--sation
--sberg
--sburg
--sby
--sca
--scape
--scence
--sch
--schrift
--sco
--se
--sea
--selon
--sen
--sent
--ser
--ses
--set
--seur
--seurs
--sey
--sez
--sh
--shed
--shire
--si
--sia
--side
--sie
--sier
--sin
--sio
--sis
--sit
--site
--sius
--sive
--sk
--ska
--ski
--sky
--slav
--sler
--sm
--sman
--sme
--smes
--sne
--sner
--snes
--so
--sol
--som
--son
--sot
--sov
--ss
--ssa
--ssac
--ssaient
--ssait
--ssant
--ssante
--sse
--ssent
--sser
--sses
--sseur
--sseurs
--ssi
--ssie
--ssin
--sso
--sson
--ssus
--ssy
--st
--sta
--stadt
--ste
--ster
--stes
--sti
--stin
--stion
--stique
--ston
--stone
--straße
--stre
--stro
--sty
--su
--suke
--sy
--sz
--t
--ta
--table
--tad
--tador
--tadt
--tage
--taine
--tait
--tal
--tan
--tant
--tar
--tas
--tat
--te
--teca
--ted
--tein
--tel
--ten
--tent
--ter
--terie
--ters
--tes
--tet
--teur
--th
--thal
--the
--thus
--ti
--tia
--tian
--tiano
--tic
--tice
--tics
--tidae
--tie
--tier
--ties
--tif
--tifs
--tik
--til
--tile
--tin
--ting
--tio
--tion
--tis
--tisme
--tit
--tium
--tius
--tive
--tives
--tivite
--tl
--tle
--to
--tock
--toir
--toli
--ton
--tone
--tor
--tos
--tou
--town
--tr
--tra
--tre
--tream
--trice
--trices
--tro
--tros
--trum
--try
--ts
--tsch
--tsu
--tt
--tta
--tte
--tter
--ttes
--tti
--ttiste
--tto
--tton
--ttre
--tu
--tuis
--tule
--tum
--tur
--tura
--tus
--tv
--ty
--tyle
--tz
--tzer
--u
--ua
--ual
--uant
--uard
--ub
--uc
--uca
--ucci
--uch
--uche
--uchi
--uck
--uctif
--uctive
--ud
--uda
--ude
--ue
--uel
--uelle
--uels
--uen
--uer
--ues
--uet
--ueur
--ueuse
--ueux
--uf
--ug
--uge
--ugh
--ui
--uiba
--uil
--uin
--uira
--uire
--uis
--uit
--uite
--uk
--uka
--uke
--uki
--ul
--ula
--ular
--ule
--ules
--uli
--ulo
--ult
--ulus
--ulx
--um
--uma
--ume
--umi
--un
--una
--une
--ung
--uo
--up
--upe
--uple
--ur
--ura
--ure
--ures
--urg
--uri
--urie
--uro
--urs
--urt
--urus
--ury
--us
--use
--usement
--uses
--ut
--uta
--ute
--uto
--uts
--uvre
--uw
--uwer
--ux
--uy
--uya
--uz
--v
--va
--vage
--vaient
--vait
--val
--van
--vance
--vant
--vat
--vaux
--vd
--ve
--vel
--ven
--ver
--ves
--vet
--veur
--vi
--via
--vic
--vigny
--vik
--viks
--ville
--villy
--vin
--vio
--vir
--vitch
--vo
--voir
--vons
--vra
--vron
--vski
--vsky
--vy
--w
--wa
--wald
--way
--we
--well
--wer
--wers
--west
--wick
--win
--wn
--wo
--wood
--ws
--wy
--wyn
--x
--xa
--xe
--xi
--xication
--xit
--xo
--xy
--xyde
--y
--ya
--yar
--yd
--ye
--yen
--yer
--yi
--yk
--yl
--yle
--yllum
--ym
--yme
--yn
--yne
--yo
--ype
--yr
--yre
--ys
--yt
--yte
--yu
--yx
--z
--za
--zan
--zano
--zar
--ze
--zeau
--zel
--zer
--zers
--zes
--zet
--zi
--zia
--zig
--zilla
--zin
--zine
--zio
--zione
--zno
--zo
--zon
--zot
--zu
--zy
--zyn
--zz
--zza
--zzi
--zzo
--ß
--ße
--æ
--ł
--œur
--α
--ι
--ς
--υ
--а
--и
--я
