!
"
#
##a
##aa
##ab
##ac
##ad
##ae
##af
##ag
##ah
##ai
##aj
##ak
##al
##am
##an
##ao
##ap
##aq
##ar
##as
##at
##au
##av
##aw
##ax
##ay
##az
##b
##ba
##bb
##bc
##bd
##be
##bf
##bg
##bh
##bi
##bj
##bk
##bl
##bm
##bn
##bo
##bp
##bq
##br
##bs
##bt
##bu
##bv
##bw
##bx
##by
##bz
##c
##ca
##cb
##cc
##cd
##ce
##cf
##cg
##ch
##ci
##cj
##ck
##cl
##cm
##cn
##co
##cp
##cq
##cr
##cs
##ct
##cu
##cv
##cw
##cx
##cy
##cz
##d
##da
##db
##dc
##dd
##de
##df
##dg
##dh
##di
##dj
##dk
##dl
##dm
##dn
##do
##dp
##dq
##dr
##ds
##dt
##du
##dv
##dw
##dx
##dy
##dz
##e
##ea
##eb
##ec
##ed
##ee
##ef
##eg
##eh
##ei
##ej
##ek
##el
##em
##en
##eo
##ep
##eq
##er
##es
##et
##eu
##ev
##ew
##ex
##ey
##ez
##f
##fa
##fb
##fc
##fd
##fe
##ff
##fg
##fh
##fi
##fj
##fk
##fl
##fm
##fn
##fo
##fp
##fq
##fr
##fs
##ft
##fu
##fv
##fw
##fx
##fy
##fz
##g
##ga
##gb
##gc
##gd
##ge
##gf
##gg
##gh
##gi
##gj
##gk
##gl
##gm
##gn
##go
##gp
##gq
##gr
##gs
##gt
##gu
##gv
##gw
##gx
##gy
##gz
##h
##ha
##hb
##hc
##hd
##he
##hf
##hg
##hh
##hi
##hj
##hk
##hl
##hm
##hn
##ho
##hp
##hq
##hr
##hs
##ht
##hu
##hv
##hw
##hx
##hy
##hz
##i
##ia
##ib
##ic
##id
##ie
##if
##ig
##ih
##ii
##ij
##ik
##il
##im
##in
##io
##ip
##iq
##ir
##is
##it
##iu
##iv
##iw
##ix
##iy
##iz
##j
##ja
##jb
##jc
##jd
##je
##jf
##jg
##jh
##ji
##jj
##jk
##jl
##jm
##jn
##jo
##jp
##jq
##jr
##js
##jt
##ju
##jv
##jw
##jx
##jy
##jz
##k
##ka
##kb
##kc
##kd
##ke
##kf
##kg
##kh
##ki
##kj
##kk
##kl
##km
##kn
##ko
##kp
##kq
##kr
##ks
##kt
##ku
##kv
##kw
##kx
##ky
##kz
##l
##la
##lb
##lc
##ld
##le
##lf
##lg
##lh
##li
##lj
##lk
##ll
##lm
##ln
##lo
##lp
##lq
##lr
##ls
##lt
##lu
##lv
##lw
##lx
##ly
##lz
##m
##ma
##mb
##mc
##md
##me
##mf
##mg
##mh
##mi
##mj
##mk
##ml
##mm
##mn
##mo
##mp
##mq
##mr
##ms
##mt
##mu
##mv
##mw
##mx
##my
##mz
##n
##na
##nb
##nc
##nd
##ne
##nf
##ng
##nh
##ni
##nj
##nk
##nl
##nm
##nn
##no
##np
##nq
##nr
##ns
##nt
##nu
##nv
##nw
##nx
##ny
##nz
##o
##oa
##ob
##oc
##od
##oe
##of
##og
##oh
##oi
##oj
##ok
##ol
##om
##on
##oo
##op
##oq
##or
##os
##ot
##ou
##ov
##ow
##ox
##oy
##oz
##p
##pa
##pb
##pc
##pd
##pe
##pf
##pg
##ph
##pi
##pj
##pk
##pl
##pm
##pn
##po
##pp
##pq
##pr
##ps
##pt
##pu
##pv
##pw
##px
##py
##pz
##q
##qa
##qb
##qc
##qd
##qe
##qf
##qg
##qh
##qi
##qj
##qk
##ql
##qm
##qn
##qo
##qp
##qq
##qr
##qs
##qt
##qu
##qv
##qw
##qx
##qy
##qz
##r
##ra
##rb
##rc
##rd
##re
##rf
##rg
##rh
##ri
##rj
##rk
##rl
##rm
##rn
##ro
##rp
##rq
##rr
##rs
##rt
##ru
##rv
##rw
##rx
##ry
##rz
##s
##sa
##sb
##sc
##sd
##se
##sf
##sg
##sh
##si
##sj
##sk
##sl
##sm
##sn
##so
##sp
##sq
##sr
##ss
##st
##su
##sv
##sw
##sx
##sy
##sz
##t
##ta
##tb
##tc
##td
##te
##tf
##tg
##th
##ti
##tj
##tk
##tl
##tm
##tn
##to
##tp
##tq
##tr
##ts
##tt
##tu
##tv
##tw
##tx
##ty
##tz
##u
##ua
##ub
##uc
##ud
##ue
##uf
##ug
##uh
##ui
##uj
##uk
##ul
##um
##un
##uo
##up
##uq
##ur
##us
##ut
##uu
##uv
##uw
##ux
##uy
##uz
##v
##va
##vb
##vc
##vd
##ve
##vf
##vg
##vh
##vi
##vj
##vk
##vl
##vm
##vn
##vo
##vp
##vq
##vr
##vs
##vt
##vu
##vv
##vw
##vx
##vy
##vz
##w
##wa
##wb
##wc
##wd
##we
##wf
##wg
##wh
##wi
##wj
##wk
##wl
##wm
##wn
##wo
##wp
##wq
##wr
##ws
##wt
##wu
##wv
##ww
##wx
##wy
##wz
##x
##xa
##xb
##xc
##xd
##xe
##xf
##xg
##xh
##xi
##xj
##xk
##xl
##xm
##xn
##xo
##xp
##xq
##xr
##xs
##xt
##xu
##xv
##xw
##xx
##xy
##xz
##y
##ya
##yb
##yc
##yd
##ye
##yf
##yg
##yh
##yi
##yj
##yk
##yl
##ym
##yn
##yo
##yp
##yq
##yr
##ys
##yt
##yu
##yv
##yw
##yx
##yy
##yz
##z
##za
##zb
##zc
##zd
##ze
##zf
##zg
##zh
##zi
##zj
##zk
##zl
##zm
##zn
##zo
##zp
##zq
##zr
##zs
##zt
##zu
##zv
##zw
##zx
##zy
##zz
$
%
&
'
(
)
*
+
,
-
.
/
0
00
000
0000
0004
001
003
01
010
02
020
03
030
04
05
050
06
07
08
09
0a
0b
0c
0d
0e
0f
0g
0h
0i
0j
0k
0l
0m
0n
0o
0p
0q
0r
0s
0t
0u
0v
0w
0x
0y
0z
1
10
100
1000
1001
1002
1007
101
1016
102
103
1038
104
105
106
107
108
1080
1086
1088
109
1093
11
110
1100
111
1111
112
1126
113
114
115
116
117
118
119
12
120
1200
121
12148
122
123
124
125
1250
126
1266
127
128
129
13
130
1300
131
132
133
134
135
136
137
138
139
14
140
1400
141
142
143
144
145
1450
146
147
148
1480
149
1492
15
150
1500
151
1515
152
1520
1525
153
1530
1535
1536
154
1540
1545
155
1550
1552
1553
1555
1559
156
1560
1562
1563
1568
157
1570
1572
1573
1575
1578
158
1580
1585
1587
1588
1589
159
1590
1592
1594
1595
1598
16
160
1600
1601
1603
1604
1605
1606
1607
1608
1609
161
1610
1611
1612
1613
1614
1615
1616
1617
1618
1619
162
1620
1621
1622
1623
1624
1625
1626
1627
1628
1629
163
1630
1631
1632
1633
1634
1635
1636
1637
1638
1639
164
1640
1641
1642
1643
1644
1645
1646
1647
1648
1649
165
1650
1651
1652
1653
1654
1655
1656
1657
1658
1659
166
1660
1661
1662
1663
1664
1665
1666
1667
1668
1669
167
1670
1671
1672
1673
1674
1675
1676
1677
1678
1679
168
1680
1681
1682
1683
1684
1685
1686
1687
1688
1689
169
1690
1691
1692
1693
1694
1695
1696
1697
1698
1699
17
170
1700
1701
1702
1703
1704
1705
1706
1707
1708
1709
171
1710
1711
1712
1713
1714
1715
1716
1717
1718
1719
172
1720
1721
1722
1723
1724
1725
1726
1727
1728
1729
173
1730
1731
1732
1733
1734
1735
1736
1737
1738
1739
174
1740
1741
1742
1743
1744
1745
1746
1747
1748
1749
175
1750
1751
1752
1753
1754
1755
1756
1757
1758
1759
176
1760
1761
1762
1763
1764
1765
1766
1767
1768
1769
177
1770
1771
1772
1773
1774
1775
1776
1777
1778
1779
178
1780
1781
1782
1783
1784
1785
1786
1787
1788
1789
179
1790
1791
1792
1793
1794
1795
1796
1797
1798
1799
18
180
1800
1801
1802
1803
1804
1805
1806
1807
1808
1809
181
1810
1811
1812
1813
1814
1815
1816
1817
1818
1819
182
1820
1821
1822
1823
1824
1825
1826
1827
1828
1829
183
1830
1831
1832
1833
1834
1835
1836
1837
1838
1839
184
1840
1841
1842
1843
1844
1845
1846
1847
1848
1849
185
1850
1851
1852
1853
1854
1855
1856
1857
1858
1859
186
1860
1861
1862
1863
1864
1865
1866
1867
1868
1869
187
1870
1871
1872
1873
1874
1875
1876
1877
1878
1879
188
1880
1881
1882
1883
1884
1885
1886
1887
1888
1889
189
1890
1891
1892
1893
1894
1895
1896
1897
1898
1899
19
190
1900
1901
1902
1903
1904
1905
1906
1907
1908
1909
191
1910
1911
1912
1913
1914
1915
1916
1917
1918
1919
192
1920
1921
1922
1923
1924
1925
1926
1927
1928
1929
193
1930
1931
1932
1933
1934
1935
1936
1937
1938
1939
194
1940
1941
1942
1943
1944
1945
1946
1947
1948
1949
195
1950
1951
1952
1953
1954
1955
1956
1957
1958
1959
196
1960
1961
1962
1963
1964
1965
1966
1967
1968
1969
197
1970
1971
1972
1973
1974
1975
1976
1977
1978
1979
198
1980
1981
1982
1983
1984
1985
1986
1987
1988
1989
199
1990
1991
1992
1993
1994
1995
1996
1997
1998
1999
1a
1b
1c
1d
1e
1f
1g
1h
1i
1j
1k
1l
1m
1n
1o
1p
1q
1r
1s
1t
1u
1v
1w
1x
1y
1z
2
20
200
2000
2001
2002
2003
2004
2005
2006
2007
2008
2009
201
2010
2011
2012
2013
2014
2015
2016
2017
2018
2019
202
2020
2021
2022
2023
2024
203
204
205
206
207
208
209
21
210
211
212
213
214
215
216
217
218
219
22
220
221
222
223
224
225
226
227
228
229
23
230
231
23155
232
233
234
235
236
237
238
239
24
240
241
242
243
244
245
246
247
248
249
25
250
251
252
253
254
255
256
257
258
259
26
260
261
262
263
264
265
266
267
268
269
27
270
271
272
273
274
275
276
277
278
279
28
280
281
282
283
284
285
286
287
288
289
29
290
291
292
293
294
295
296
297
298
299
2a
2b
2c
2d
2e
2f
2g
2h
2i
2j
2k
2l
2m
2n
2o
2p
2q
2r
2s
2t
2u
2v
2w
2x
2y
2z
3
30
300
3000
301
302
303
304
305
306
307
308
309
31
310
311
312
313
314
315
316
317
318
319
32
320
321
322
323
324
325
326
327
328
329
33
330
331
332
333
334
335
336
337
338
339
34
340
3406
341
342
343
344
345
346
347
348
349
35
350
351
352
353
354
355
356
357
358
359
36
360
361
362
363
364
365
366
367
368
369
37
370
371
372
373
374
375
376
377
378
379
38
380
381
382
383
384
385
386
387
388
389
39
390
391
392
393
394
395
396
397
398
399
3a
3b
3c
3d
3e
3f
3g
3h
3i
3j
3k
3l
3m
3n
3o
3p
3q
3r
3s
3t
3u
3v
3w
3x
3y
3z
4
40
400
4000
401
402
403
404
405
406
407
408
409
41
410
411
412
413
414
415
416
417
418
419
42
420
421
422
423
424
425
426
427
428
429
43
430
431
432
433
434
435
436
437
438
439
44
440
441
442
443
444
445
446
447
448
449
45
450
451
452
453
454
455
456
457
458
459
46
460
461
462
463
464
465
466
467
468
469
47
470
471
472
473
474
475
476
477
478
479
48
480
481
482
484
485
486
487
488
49
490
491
493
495
496
499
4a
4b
4c
4d
4e
4f
4g
4h
4i
4j
4k
4l
4m
4n
4o
4p
4q
4r
4s
4t
4u
4v
4w
4x
4y
4z
5
50
500
5000
501
502
503
504
505
506
5066
507
508
509
51
510
511
512
515
517
52
520
521
525
527
528
53
530
533
534
535
54
540
544
55
550
555
56
560
57
570
575
58
580
59
5a
5b
5c
5d
5e
5f
5g
5h
5i
5j
5k
5l
5m
5n
5o
5p
5q
5r
5s
5t
5u
5v
5w
5x
5y
5z
6
60
600
603
61
610
62
620
63
630
637
639
64
640
65
650
66
660
666
67
68
680
69
6a
6b
6c
6d
6e
6f
6g
6h
6i
6j
6k
6l
6m
6n
6o
6p
6q
6r
6s
6t
6u
6v
6w
6x
6y
6z
7
70
700
71
72
720
73
737
74
741
75
750
76
77
78
79
7a
7b
7c
7d
7e
7f
7g
7h
7i
7j
7k
7l
7m
7n
7o
7p
7q
7r
7s
7t
7u
7v
7w
7x
7y
7z
8
80
800
81
82
83
84
85
850
86
87
88
89
8a
8b
8c
8d
8e
8f
8g
8h
8i
8j
8k
8l
8m
8n
8o
8p
8q
8r
8s
8t
8u
8v
8w
8x
8y
8z
9
90
900
91
911
92
93
94
95
950
96
97
978
979
98
99
9a
9b
9c
9d
9e
9f
9g
9h
9i
9j
9k
9l
9m
9n
9o
9p
9q
9r
9s
9t
9u
9v
9w
9x
9y
9z
:
;
<
=
>
?
@
[
[CLS]
[MASK]
[PAD]
[SEP]
[UNK]
\
]
^
_
`
a
a0
a1
a2
a3
a4
a5
a6
a7
a8
a9
aa
aaron
ab
abaisse
abaissement
abaisser
abandon
abandonna
abandonnait
abandonnant
abandonne
abandonnee
abandonnees
abandonnent
abandonner
abandonnes
abat
abattre
abattu
abattus
abbas
abbatiale
abbaye
abbayes
abbe
abbes
abbesse
abbeville
abbey
abbott
abc
abcd
abd
abdallah
abdication
abdomen
abdul
abe
abeille
abeilles
abel
abidjan
abime
abimes
ablatif
aboli
abolir
abolition
abominable
abondamment
abondance
abondant
abondante
abondantes
abondent
abonnes
abord
aborde
aborder
abords
abou
about
abouti
aboutir
aboutissent
aboutit
abraham
abrege
abregee
abreviation
abreviations
abri
abris
abritait
abritant
abrite
abriter
absence
absent
absente
absents
abside
absolu
absolue
absolument
absorbe
absorbee
absorber
absorption
abstenir
abstention
abstraction
abstrait
abstraite
absurde
absurdes
absurdite
abu
abus
abuse
abuser
ac
acacia
acad
academia
academic
academicien
academie
academies
academique
academiques
academy
acadie
accable
accede
acceder
acceleration
accelere
accelerer
accent
accents
accentue
accentuee
accepta
acceptant
acceptation
accepte
acceptee
acceptent
accepter
acception
acces
access
accessible
accessibles
accession
accessoire
accessoires
accidens
accident
accidentellement
accidents
acclamations
accommoder
accompagna
accompagnait
accompagnant
accompagne
accompagnee
accompagnees
accompagnement
accompagnent
accompagner
accompagnes
accompli
accomplie
accomplir
accomplis
accomplissement
accomplit
accord
accorda
accordait
accordant
accorde
accordee
accordees
accordent
accordeon
accorder
accordes
accords
accouchement
accoutume
accoutumee
accroche
accroissement
accroit
accroitre
accru
accrue
accueil
accueillant
accueille
accueillent
accueilli
accueillie
accueillir
accueillis
accueillit
accumulation
accumule
accusait
accusant
accusatif
accusation
accusations
accuse
accusee
accusent
accuser
accuses
ace
acharne
acharnement
achat
achats
acheta
achete
achetee
acheter
achetes
acheteur
acheteurs
acheva
achevait
acheve
achevee
achevement
achever
achille
acid
acide
acides
acier
acoustique
acquerir
acquiert
acquis
acquise
acquises
acquisition
acquisitions
acquit
acquitte
acquitter
acre
acres
acronyme
act
acta
acte
actes
acteur
acteurs
actif
actifs
action
actionnaire
actionnaires
actions
active
activement
actives
activite
activites
actrice
actrices
actu
actualise
actualiser
actualite
actualites
actuel
actuelle
actuellement
actuelles
actuels
ad
ada
adam
adams
adaptation
adaptations
adapte
adaptee
adaptees
adapter
adaptes
add
addition
additionnelles
additions
adelaide
adele
adeptes
adhere
adherents
adhesion
adieu
adieux
adj
adjectif
adjectifs
adjoint
adjointe
adjoints
adjudant
adjuge
adjusted
adler
admet
admettant
admettre
administrateur
administrateurs
administratif
administratifs
administration
administrations
administrative
administrativement
administratives
administre
administrer
admirable
admirablement
admirables
admirait
admirateurs
admiration
admire
admirer
admis
admise
admissibilite
admissible
admission
adn
adolescence
adolescent
adolescente
adolescents
adolf
adolphe
adopte
adoptee
adoptees
adoptent
adopter
adoption
adorable
adoration
adore
adorer
adoucir
adour
adressa
adressait
adressant
adresse
adressee
adressees
adressent
adresser
adresses
adrian
adriatique
adrien
adrienne
adroit
adroitement
adulte
adultere
adultes
adv
advanced
adventure
adventures
adverbe
adversaire
adversaires
adverse
ae
aerien
aerienne
aeriennes
aeriens
aero
aerodrome
aeronautique
aeroport
aeroports
af
afc
affaibli
affaiblir
affaiblissement
affaire
affaires
affairs
affectant
affectation
affecte
affectee
affectees
affectent
affecter
affectes
affection
affections
affectueux
affichage
affiche
affichent
afficher
affiches
affilie
affinite
affirma
affirmait
affirmant
affirmation
affirmations
affirme
affirment
affirmer
affliction
afflige
affluence
affluent
affluents
affranchi
affranchir
affranchis
affranchissement
affreuse
affreux
affront
affronte
affrontement
affrontements
affrontent
affronter
afghanistan
afin
afp
africa
africain
africaine
africaines
africains
african
afrikaans
afrique
afro
after
ag
again
against
agatha
agathe
age
agee
agees
agen
agence
agences
agency
agenda
agens
agent
agents
ages
agglomeration
agglomerations
agi
agile
agir
agirait
agissait
agissant
agisse
agissent
agit
agitait
agitation
agitations
agite
agitee
agitent
agiter
agneau
agnes
agonie
agorha
agostini
agrandi
agrandie
agrandir
agrandissement
agrandit
agreable
agreablement
agreables
agree
agregation
agrege
agrement
agression
agreste
agricole
agricoles
agriculteur
agriculteurs
agriculture
agrippa
agronomie
ah
ahmad
ahmed
ai
aida
aidant
aide
aident
aider
aides
aie
aient
aieul
aieux
aigle
aigles
aignan
aigre
aigu
aigue
aigues
aiguille
aiguilles
aiguillon
aigus
ail
aile
ailes
ailier
aille
ailleurs
aima
aimable
aimables
aimaient
aimais
aimait
aimant
aime
aimee
aiment
aimer
aimerais
aimerait
aimes
aimez
aimons
ain
aine
ainee
aines
ainsi
ainſi
air
airain
airbus
aircraft
aire
aires
airlines
airport
airs
airways
aisance
aise
aisee
aisement
aises
aisne
ait
aix
aj
ajaccio
ajax
ajout
ajouta
ajoutait
ajoutant
ajoute
ajoutee
ajoutees
ajoutent
ajouter
ajoutes
ajoutez
ajoutons
ak
akademie
akademio
akira
al
ala
alabama
alain
alan
alarme
alarmes
alaska
alba
alban
albanais
albanie
albany
albedo
albedos
albert
alberta
albertine
alberto
albi
albin
album
albums
alcan
alcool
aldo
ale
aleatoire
alejandro
alembert
alencon
alentour
alentours
alep
alerte
alessandro
alex
alexander
alexandra
alexandre
alexandrie
alexis
alfa
alfonso
alfred
alfredo
algebre
algebrique
alger
algerie
algerien
algerienne
algeriens
algorithme
algorithmes
algues
ali
alias
alice
alicia
alien
aligne
aligned
alignement
aliment
alimentaire
alimentaires
alimentation
alimente
alimenter
aliments
aline
alinea
alison
alive
alix
all
alla
allah
allai
allaient
allais
allait
allan
allant
alle
allee
allees
allegorie
allegresse
allegro
allemagne
allemand
allemande
allemandes
allemands
allen
aller
allerent
alles
allez
alliage
alliance
alliances
allie
alliee
alliees
allier
allies
allions
allison
allmovie
allmusic
allocine
alloit
allonge
allongee
allons
allume
allumer
allure
allures
allusion
allusions
alma
almanach
alone
alonso
alors
alouette
alpes
alpha
alphabet
alphabetique
alphonse
alpin
alpine
als
alsace
alsacien
alsacienne
also
alt
alteration
altere
alteree
alterer
alternance
alternatif
alternative
alternativement
alternatives
altesse
altitude
altitudes
alto
aluminium
alvarez
alvaro
am
amand
amanda
amans
amant
amante
amants
amas
amateur
amateurs
amaury
amazon
amazone
ambassade
ambassadeur
ambassadeurs
ambiance
ambitieux
ambition
ambitions
amboise
ambre
ambroise
ambulance
ame
amedee
amelia
amelie
ameliorant
amelioration
ameliorations
ameliore
amelioree
ameliorer
ameliorez
amena
amenage
amenagee
amenagement
amenagements
amenait
amenant
amende
amendement
amene
amenee
amenent
amener
amenes
amer
amere
amerement
ameres
america
americain
americaine
americaines
americains
american
americano
amerindiens
amerique
ameriques
amertume
ames
ami
amical
amicale
amie
amiens
amies
amiral
amiraute
amis
amitie
amities
amnistie
among
amont
amor
amorce
amore
amos
amour
amoureuse
amoureuses
amoureux
amours
amphibian
amphibiaweb
amphibiens
amphitheatre
ample
ampleur
amplitude
amsterdam
amusait
amusant
amuse
amusement
amuser
amy
an
ana
analogie
analogue
analogues
analyse
analyser
analyses
analysis
analytique
anarchie
anarchisme
anarchiste
anarchistes
anatole
anatolie
anatomie
anatomy
anc
ancetre
ancetres
ancien
ancienne
anciennement
anciennes
anciennete
anciens
ancient
ancre
and
andalousie
anders
andersen
anderson
andes
andorre
andre
andrea
andreas
andree
andrei
andres
andrew
andrews
android
andy
ane
aneanti
aneantir
aneantissement
anecdote
anecdotes
anes
ang
ange
angel
angela
angele
angeles
angelique
angelo
angels
angers
anges
anglais
anglaise
anglaises
angle
angles
angleterre
anglo
anglois
anglophone
anglophones
angoisse
angoisses
angola
angouleme
angulaire
anhalt
anima
animal
animale
animales
animateur
animation
animations
animatrice
animaux
anime
animee
animees
animer
animes
anita
anjou
ann
anna
annales
annals
anne
anneau
anneaux
annecy
annee
annees
annette
annexe
annexes
annexion
annibal
annie
anniversaire
anniversary
anno
annonca
annoncait
annoncant
annonce
annoncee
annoncent
annoncer
annonces
annonciation
announces
annuaire
annual
annuel
annuelle
annuellement
annuelles
annuels
annulation
annule
annulee
annuler
anomalie
anomalies
anonyme
anonymes
another
ans
anse
anselme
ant
antarctique
ante
antenne
antennes
anterieur
anterieure
anterieurement
anterieures
anterieurs
anthologie
anthony
anthropologie
anti
antichambre
antigone
antilles
antioche
antique
antiques
antiquite
antiquites
antisemitisme
antoine
antoinette
anton
antonia
antonin
antonio
antony
antre
anvers
anxiete
any
ao
aoc
aoriste
aoste
aout
ap
apache
apaise
apaiser
apercevait
apercevant
apercevoir
apercois
apercoit
apercu
apercue
apercus
apercut
api
aplomb
apocalypse
apogee
apollo
apollon
apologie
apostolique
apotre
apotres
app
apparaissait
apparaissant
apparaissent
apparait
apparaitre
appareil
appareils
apparemment
apparence
apparences
apparent
apparente
apparentes
apparition
apparitions
appartement
appartements
appartenaient
appartenait
appartenance
appartenant
appartenir
appartenu
appartiennent
appartient
apparu
apparue
apparut
appel
appela
appelaient
appelait
appelant
appele
appelee
appelees
appeler
appeles
appelez
appellation
appellations
appelle
appellent
appelons
appels
appendice
appetit
applaudir
applaudissements
apple
applicable
applicables
application
applications
appliquant
applique
appliquee
appliquees
appliquent
appliquer
appliques
apport
apporta
apportait
apportant
apporte
apportee
apportees
apportent
apporter
apportes
apports
appreciation
apprecie
appreciee
apprecier
apprehension
apprenait
apprenant
apprend
apprendra
apprendre
apprends
apprennent
apprenti
apprentissage
apprete
appris
apprit
approbation
approcha
approchait
approchant
approche
approchent
approcher
approches
approfondie
approfondir
approfondissant
approprie
appropriee
approprier
approuve
approuvee
approuver
approvisionnement
approximation
approximativement
appui
appuie
appuient
appuya
appuyait
appuyant
appuye
appuyee
appuyer
apr
apre
apres
april
apte
aptitude
aptitudes
aq
aquarelle
aquarium
aquatique
aquatiques
aqueduc
aquitaine
ar
ara
arab
arabe
arabes
arabie
arables
arachnida
arachnologie
arago
aragon
araignee
araignees
araneae
araneomorphes
arbitrage
arbitraire
arbitrairement
arbitraires
arbitre
arbitres
arbre
arbres
arbustes
arbustive
arc
arcade
arcades
arch
archaeology
archaique
archaisme
archange
arche
archeologie
archeologique
archeologiques
archeologue
archeologues
archer
archers
arches
archeveche
archeveque
archeveques
archibald
archidiocese
archiduc
archipel
architecte
architectes
architectural
architecturale
architecture
archiv
archive
archivee
archives
arcs
arctique
ardeche
ardemment
ardenne
ardennes
ardent
ardente
ardentes
ardents
ardeur
ardoise
are
area
areas
arena
arene
arenes
arete
aretes
argent
argentin
argentina
argentine
argentino
argile
argiles
argot
argument
argumentaire
arguments
aria
ariane
aride
arides
ariege
ariel
aristide
aristocrate
aristocratie
aristocratique
aristote
arithmetique
arizona
ark
arkansas
arlequin
arles
arm
armagnac
armand
arme
armee
armees
armement
armenie
armenien
armenienne
armeniens
armer
armes
armistice
armoire
armoiries
armor
armorial
arms
armstrong
armure
army
arn
arnaud
arnold
around
arpents
arr
arracha
arrache
arracher
arrange
arrangement
arrangements
arranger
arras
array
arrestation
arrestations
arret
arreta
arretait
arretant
arrete
arretee
arretees
arretent
arreter
arreterent
arretes
arretez
arrets
arriere
arriva
arrivai
arrivaient
arrivait
arrivames
arrivant
arrive
arrivee
arrivees
arrivent
arriver
arrivera
arriverait
arriverent
arrives
arrivons
arrondi
arrondissement
arrondissements
arrose
ars
arsenal
arsene
art
artagnan
arte
artere
arteres
arthur
article
articles
articulation
articule
articulee
artifice
artifices
artificiel
artificielle
artificielles
artificiels
artillerie
artisan
artisanat
artisans
artist
artiste
artistes
artistique
artistiques
artists
artois
arts
arturo
arxiv
as
ascendance
ascendant
ascenseur
ascension
aseæ
ashley
asia
asian
asiatique
asiatiques
asie
asile
asin
asp
aspect
aspects
aspirant
aspiration
aspirations
aspire
aspx
assaillants
assainissement
assassin
assassinat
assassine
assassiner
assassins
assaut
assauts
assemblage
assemble
assemblee
assemblees
assembler
assembles
assentiment
asseoir
assertion
assez
assiege
assiegee
assiette
assigne
assigner
assimilation
assimile
assis
assise
assises
assistance
assistant
assistante
assistants
assiste
assistent
assister
assit
associant
associated
association
associations
associe
associee
associees
associer
associes
assomption
assume
assumer
assura
assurait
assurance
assurances
assurant
assure
assuree
assurement
assurent
assurer
assures
asterix
asteroid
asteroide
asteroides
asteroids
aston
astre
astres
astrologie
astronautique
astronome
astronomes
astronomical
astronomie
astronomique
astronomiques
astronomy
astrophysical
astrophysics
asturies
at
atari
atelier
ateliers
athanase
athee
atheisme
athenee
athenes
atheniens
athlete
athletes
athletic
athletics
athletisme
athos
atlanta
atlantic
atlantique
atlantiques
atlas
atletico
atmosphere
atmospherique
atome
atomes
atomic
atomique
atout
atp
atque
atroce
attacha
attachait
attachant
attache
attachee
attachees
attachement
attachent
attacher
attaches
attack
attaqua
attaquant
attaque
attaquee
attaquent
attaquer
attaques
atteignait
atteignant
atteignent
atteignit
atteindre
atteint
atteinte
atteintes
atteints
attelage
attend
attendaient
attendais
attendait
attendant
attendent
attendez
attendit
attendons
attendre
attends
attendu
attendue
attendues
attentat
attentats
attente
attentes
attentif
attention
attentions
attentive
attentivement
attenuer
atterrissage
atteste
attestee
attestent
attila
attique
attira
attirait
attirant
attire
attirent
attirer
attires
attitude
attitudes
attraction
attractions
attrait
attraits
attrape
attraper
attribuait
attribue
attribuee
attribuees
attribuent
attribuer
attribues
attribut
attribution
attributions
attributs
au
aube
auberge
aubergiste
aubert
aubin
aubry
auch
auckland
aucun
aucune
aucunement
aucuns
audace
audacieux
aude
audi
audience
audiences
audio
audiovisuel
audiovisuelle
audit
auditeur
auditeurs
audition
auditoire
audrey
auec
auf
auffray
aug
auge
augmenta
augmentait
augmentant
augmentation
augmente
augmentee
augmentent
augmenter
augsbourg
augure
august
augusta
auguste
augustin
augustins
aujourd
aumone
aumonier
auoir
auparavant
aupres
auquel
aura
aurai
auraient
aurais
aurait
auras
aurele
aurelie
aurelien
aureole
aurez
auriez
aurions
auroient
aurois
auroit
aurons
auront
aurore
aus
auschwitz
auspices
aussi
aussitot
austen
austere
austerlitz
austin
australia
australian
australie
australien
australienne
australiens
austria
austro
aut
autant
autel
autels
auteuil
auteur
auteure
auteurs
authenticite
authentique
authentiques
authority
autisme
auto
autobiographie
autobiographique
autobus
autochtone
autochtones
automatique
automatiquement
automne
automobile
automobiles
autonome
autonomes
autonomie
autoportrait
autorisant
autorisation
autorise
autorisee
autorisees
autoriser
autorises
autoritaire
autorite
autorites
autoroute
autoroutes
autour
autre
autrefois
autrement
autres
autrices
autriche
autrichien
autrichienne
autrichiens
autrui
autun
auvergne
aux
auxerre
auxiliaire
auxiliaires
auxquelles
auxquels
auſſi
av
avaient
avais
avait
aval
avalanche
avaler
avanca
avancait
avancant
avance
avancee
avancees
avancement
avancent
avancer
avances
avant
avantage
avantages
avantageuse
avantageux
avare
avarice
ave
avec
avenement
avenir
aventure
aventures
aventurier
aventuriers
avenue
avenues
avere
aversion
averti
avertir
avertis
avertissement
avertit
aveu
aveugle
aveuglement
aveugles
aveux
aveyron
avez
aviation
avibase
avide
avides
avidite
aviez
avignon
avion
avions
aviron
avis
avise
aviv
avocat
avocate
avocats
avoient
avoine
avoir
avois
avoit
avons
avortement
avoua
avoue
avouer
avr
avril
aw
award
awards
away
ax
axe
axel
axes
axiome
ay
ayant
ayez
ayons
az
azerbaidjan
azote
azur
aʁ
aʊ
b
b0
b1
b2
b3
b4
b5
b6
b7
b8
b9
ba
bab
baba
babel
baby
babylone
bac
baccalaureat
bacchus
bach
bachelier
back
bacon
bacteries
bad
bade
baden
badminton
bagage
bagages
bagarre
bagdad
bagne
bague
baguette
bah
bahia
baidu
baie
baies
baigne
bail
bailey
bailli
bailliage
bailly
bain
bains
baisa
baise
baiser
baisers
baissa
baissant
baisse
baisser
baker
bakou
bakounine
bal
balance
balbutia
balcon
baldwin
bale
baleine
balkans
ball
ballade
balle
balles
ballet
ballon
ballons
balneaire
bals
balthazar
baltimore
baltique
balzac
bambou
ban
banal
banc
bancaire
bancs
band
bande
bandeau
bandes
bandit
bandits
bang
bangkok
bangladesh
bank
banks
banlieue
banni
banniere
banque
banques
banquet
banquier
banquiers
bapteme
baptise
baptisee
baptiste
bar
barbara
barbare
barbares
barbarie
barbe
barbier
barcelona
barcelone
bareme
bari
barker
barnes
baron
baronne
baronnet
baronnie
barons
baroque
barque
barques
barrage
barrages
barre
barreau
barreaux
barres
barrett
barricades
barriere
barrieres
barry
bars
bart
barthelemy
barton
baryton
bas
bascule
base
baseball
based
basee
basees
bases
basic
basile
basilique
basket
basketball
basque
basques
bass
basse
basses
bassesse
bassin
bassins
bassiste
bassompierre
bastia
bastide
bastien
bastille
bastion
bat
bataille
batailles
bataillon
bataillons
batard
bateau
bateaux
bates
bath
bati
batie
baties
batimens
batiment
batiments
batir
batit
batman
baton
batons
battait
battant
battent
batterie
batteries
batteur
battista
battit
battle
battre
battu
battue
battus
baudelaire
baudouin
bauer
baume
baux
bavarois
baviere
bay
bayard
bayern
bayeux
bayle
bayonne
bazar
bazin
bb
bbc
bc
bd
be
beach
bear
bearn
beat
beatles
beatrice
beatrix
beau
beauce
beaucoup
beaufort
beaulieu
beaumarchais
beaumont
beaune
beauregard
beaute
beautes
beautiful
beauty
beauvais
beaux
bebe
bec
beck
becker
bee
been
beethoven
before
begin
begonia
behind
bei
beier
beijing
being
bel
bela
belfast
belfort
belge
belges
belgique
belgrade
belier
belin
bell
bella
belle
bellefon
bellegarde
belles
belleville
belt
belvedere
bemol
ben
bene
benedict
benedictins
benediction
benefice
benefices
beneficiant
beneficie
beneficient
beneficier
benevoles
benezit
bengale
beni
benin
benir
benit
benjamin
bennett
benoist
benoit
benson
benth
benz
beranger
berbere
berberes
berceau
bercy
berenger
berg
berge
bergen
berger
bergerac
bergere
bergers
berges
berkeley
berlin
berline
berlioz
bernadette
bernard
bernardo
berne
bernhard
bernier
berry
bert
berthe
berthier
bertin
bertram
bertrand
besancon
besogne
besoin
besoins
besson
best
bestiaux
beta
betail
bete
betes
beth
bethune
betise
beton
better
betty
between
beurre
beuve
beverly
bey
beyond
beyrouth
beziers
beæ
bf
bg
bh
bi
biais
bianca
biarritz
biathlon
bibcode
bible
bibliographie
bibliographique
bibliophiles
bibliothecaire
bibliotheque
bibliotheques
biblique
bibliques
bicyclette
bielorusse
bielorussie
bien
bienfaisance
bienfaisante
bienfait
bienfaiteur
bienfaits
bienheureuse
bienheureux
biennale
biens
bientot
bienveillance
bienveillant
bienvenue
biere
big
bigorre
bigot
bijou
bijoux
bilan
bilancio
bilbao
bilingue
bill
billancourt
billard
billboard
billet
billets
billy
bin
binaire
bing
binomes
bio
biochimie
biodiversite
biodiversity
biografico
biographe
biographical
biographie
biographies
biographique
biographiques
biography
biolib
biological
biologie
biologique
biologiques
biology
biophysique
biosphere
bird
birds
birmanie
birmingham
bis
bishop
bismarck
bit
bits
bizarre
bizarres
bj
bk
bl
black
blackwell
blade
blair
blaise
blake
blame
blamer
blanc
blanchard
blanche
blanches
blancheur
blanco
blancs
blas
blason
blaspheme
ble
bles
blesse
blessee
blesser
blesses
blessure
blessures
bleu
bleue
bleues
bleus
blind
blindee
blindes
bloc
bloch
block
blocs
blocus
blog
blogspot
blois
blond
blonde
blonds
blood
bloque
blu
blue
blues
blum
bm
bmw
bn
bnf
bo
board
boat
bob
bobby
bocage
body
boeing
bogota
boheme
boileau
boire
bois
boisson
boissons
boit
boite
boites
boiteux
bol
bolivar
bolivie
bologne
bombardement
bombardements
bombardier
bombardiers
bombay
bombe
bombes
bon
bonaparte
bond
bondit
bone
bonheur
bonhomme
boniface
bonjour
bonn
bonne
bonnes
bonnet
bonnie
bons
bonsoir
bonte
bontes
bonus
book
bookcorrespondance
bookl
bookla
bookle
bookles
books
boom
bord
borde
bordeaux
bordee
border
bordes
bords
bordure
borel
boris
born
borne
bornee
borneo
borner
bornes
borough
bosch
bosnie
bosnien
bosquet
boss
bosse
bossu
bossuet
boston
bot
botanic
botanica
botanical
botanique
botaniste
botte
bottes
bou
bouc
bouchard
bouche
boucher
boucherie
bouches
bouchon
boucle
boucles
bouclier
boucliers
bouddha
bouddhisme
bouddhiste
bouddhistes
boue
bouge
bouger
bougie
bougies
bouillet
bouillir
bouillon
boulanger
boule
boulenger
boules
boulet
boulets
boulevard
boulevards
bouleverse
boulogne
bouquet
bouquets
bouquins
bourbon
bourbonnais
bourbons
bourdon
bourg
bourgade
bourgeois
bourgeoise
bourgeoisie
bourges
bourget
bourgmestre
bourgogne
bourgs
bourguignons
bourloton
bourreau
bourreaux
bourse
bourses
bout
bouteille
bouteilles
boutique
boutiques
bouton
boutons
bouts
bouvier
bowie
bowl
box
boxe
boxeur
boy
boyd
boyer
boys
bp
bpt
bq
br
brabant
brad
bradley
brady
brain
branche
branches
brand
brandebourg
brandon
bras
brasil
brasserie
braun
brave
bravement
braver
braves
bravo
bravoure
bray
brazil
break
breaking
brebis
breche
bref
breme
brescia
bresil
bresilien
bresilienne
bresse
brest
bretagne
bretigny
breton
bretonne
bretons
brett
breve
breves
brevet
brevets
brgm
brian
briand
brice
brick
bride
bridge
brie
brief
brien
brieuc
brievement
brigade
brigades
brigadier
brigand
brigands
bright
brigitte
brill
brillaient
brillait
brillant
brillante
brillantes
brillants
brille
briller
brin
brique
briques
brise
brisee
brisees
briser
brises
bristol
britain
britannica
britannique
britanniques
british
brive
broadcasting
broadway
broche
brochure
brochures
brockhaus
broglie
broken
bronze
brooke
brooklyn
brooks
bros
brossard
brosse
brother
brothers
brouillard
brouille
broussailles
brousse
brown
browning
bruce
bruckner
bruges
bruit
bruits
brulait
brulant
brulante
brule
brulee
bruler
brules
brumaire
brume
brun
brune
brunes
brunet
bruno
bruns
brunswick
brusque
brusquement
brut
brutal
brutale
brutalement
brutalite
brute
brutes
brutus
bruxelles
bruyante
bruyere
bruyeres
bryan
bryant
brysbaert
bs
bt
bu
bucarest
bucher
buck
buckingham
bud
budapest
budget
budgets
buenos
buffalo
buffet
buffon
buffy
bugey
building
buis
buisson
buissons
bulgare
bulgares
bulgarie
bull
bulle
bulles
bulletin
bulletins
bundesliga
bureau
bureaux
burgos
burke
burkina
burkinabe
burlesque
burns
burton
burundi
bus
bush
business
bussy
buste
but
buteur
butin
butler
buts
butte
button
bv
bw
bx
by
byrne
byron
byzance
byzantin
byzantine
byzantins
bz
bœuf
bœufs
bɑ
bɔ
bə
bɛ
c
c0
c1
c2
c3
c4
c5
c6
c7
c8
c9
ca
cabane
cabanes
cabaret
cabine
cabinet
cabinets
cable
cables
cacha
cachait
cachant
cache
cachee
cachees
cachent
cacher
caches
cachet
cachette
cachot
cadastre
cadavre
cadavres
cadeau
cadeaux
cadence
cadet
cadets
cadette
cadix
cadran
cadre
cadres
caen
caf
cafe
cafes
cage
cahier
cahiers
cahors
caille
caillou
cailloux
cain
caire
cairn
caisse
caisses
caius
cal
calabre
calais
calcaire
calcaires
calcium
calcul
calcule
calculee
calculees
calculer
calculs
calcutta
cale
caledonie
calendrier
calgary
calibre
calice
calife
california
californie
call
calmann
calme
calmer
calmes
calomnie
calomnies
calvados
calvaire
calvin
cam
camarade
camarades
cambodge
cambrai
cambresier
cambridge
came
camera
cameras
cameron
cameroun
camerounaise
camille
camion
camions
camp
campagne
campagnes
campaign
campanie
campbell
campement
camping
campo
camps
campus
camus
can
canada
canadian
canadien
canadienne
canadiennes
canadiens
canaille
canal
canape
canard
canards
canaries
canaux
cancer
candeur
candidat
candidate
candidats
candidature
candidatures
candide
cangjie
canne
cannes
canoe
canon
canonique
canons
canot
canots
cantal
cantalausa
cantique
cantiques
canton
cantonais
cantonal
cantonales
cantons
canyon
cao
caoutchouc
cap
capable
capables
capacite
capacites
cape
capitaine
capitaines
capital
capitale
capitales
capitalisme
capitaliste
capitalistes
capitaux
capitole
capitulation
caporal
caprice
caprices
capsule
captain
capteurs
captif
captifs
captive
captivite
capture
capturer
captures
capucins
car
carabine
caractere
caracteres
caracterisant
caracterise
caracterisee
caracterisent
caracteriser
caracterises
caracteristique
caracteristiques
caraibes
caravane
carbone
carburant
carcassonne
card
cardiaque
cardiff
cardinal
cardinaux
cardot
care
career
careme
caresse
caresses
carex
carey
cargaison
cargo
caricature
carl
carla
carlo
carlos
carmel
carmen
carmes
carnage
carnaval
carnegie
carnet
carnets
carnot
carol
carole
carolina
caroline
caron
carpenter
carr
carre
carreau
carreaux
carree
carrees
carrefour
carres
carrie
carrier
carriere
carrieres
carroll
carrosse
carrosserie
cars
carson
carte
cartel
carter
cartes
carthage
carthaginois
cartier
cartographie
carton
cartons
cartoon
cartouche
cartouches
cartulaire
cas
casa
casablanca
casanova
cascade
cascades
case
caserne
cases
casey
cash
casimir
casino
casque
casquette
cass
cassation
casse
cassel
casser
cassette
cassini
cassius
cast
caste
castel
castelnau
casterman
castes
castille
castillo
casting
castle
castor
castres
castro
cat
catalan
catalana
catalane
catalans
catalog
catalogne
catalogue
catalogues
catastrophe
catastrophes
catch
catechisme
categorie
categories
categorisee
cathedrale
cathedrales
catherine
catholic
catholicisme
catholique
catholiques
caton
caucase
cauchemar
causa
causait
causalite
causant
cause
causee
causent
causer
causes
caution
cavailhes
cavalerie
cavalier
cavaliers
cave
caveau
caverne
cavernes
caves
cavite
cavites
cb
cbs
cc
cd
cdot
cdots
ce
ceci
cecil
cecile
cecilia
ceda
cedant
cede
ceder
cedre
cedric
ceinture
cela
celebration
celebre
celebree
celebrer
celebres
celebrite
celebrites
celeste
celestes
celestin
celibataire
celine
cell
celle
celles
cellulaire
cellule
cellules
celtes
celtic
celtique
celtiques
celui
celuy
cendre
cendres
cens
cense
censure
census
cent
centaine
centaines
centenaire
center
centimes
centimetres
central
centrale
centrales
centralisation
centre
centree
centres
centro
cents
century
cependant
ceramique
ceramiques
cercle
cercles
cercueil
cereales
cerebral
cerebrale
ceremonie
ceremonies
ceres
cerf
cerfs
certain
certaine
certainement
certaines
certains
certes
certificat
certification
certifie
certitude
cervantes
cerveau
cervelle
ces
cesar
cesare
cesars
cesky
cessa
cessait
cesse
cessent
cesser
cessez
cession
cest
ceste
cet
cette
ceux
cevennes
ceylan
cf
cfa
cg
cgt
ch
cha
chabot
chacun
chacune
chagrin
chagrins
chaine
chaines
chair
chaire
chairs
chaise
chaises
chalet
chaleur
chaleurs
challenge
challenger
challenges
chalon
chalons
chaloupe
cham
chambellan
chamberlin
chambery
chambre
chambres
chameau
chameaux
champ
champagne
champetre
champignon
champignons
champion
championnat
championnats
championne
champions
championship
championships
champlain
champs
chan
chance
chancelier
chancellerie
chances
chandelle
chandler
chang
change
changea
changeant
changee
changemens
changement
changements
changent
changer
changes
channel
chanoine
chanoines
chanson
chansons
chant
chantaient
chantait
chantal
chantant
chante
chantee
chantent
chanter
chanteur
chanteurs
chanteuse
chantier
chantiers
chantilly
chantre
chants
chanvre
chao
chaos
chap
chapeau
chapeaux
chapelain
chapelet
chapelle
chapelles
chapiteau
chapiteaux
chapitre
chapitres
chapman
chapter
chaque
char
charbon
charente
charentes
charge
chargea
chargee
chargees
chargement
charger
charges
chariot
chariots
charitable
charite
charlemagne
charleroi
charles
charlie
charlot
charlotte
charlton
charmant
charmante
charmantes
charmants
charme
charmes
charpente
charpentier
charrette
charrue
chars
chart
charte
chartes
chartres
chartreuse
chartreux
charts
chase
chasse
chasser
chasses
chasseur
chasseurs
chassis
chaste
chastel
chastete
chat
chateau
chateaubriand
chateauneuf
chateauroux
chateaux
chatel
chatelain
chatelet
chatillon
chatiment
chats
chaud
chaude
chaudes
chaudiere
chauds
chauffage
chauffe
chauffer
chauffeur
chaume
chaumiere
chaumont
chaussee
chaussees
chaussure
chaussures
chauve
chaux
che
checklist
chef
chefs
cheikh
chelem
chelsea
chem
chemical
chemin
cheminee
cheminees
chemins
chemise
chemises
chemistry
chen
chenal
chene
chenes
cheng
chenier
chenille
cher
cherbourg
chercha
cherchaient
cherchait
cherchant
cherche
cherchent
chercher
chercheur
chercheurs
cherchez
cherchons
chere
cheres
cheri
cherie
chers
chess
chester
cheval
chevaleresque
chevalerie
chevalier
chevaliers
chevaux
chevelure
chevet
cheveux
cheville
chevre
chevres
chevrolet
chez
chi
chic
chicago
chief
chien
chiens
chiffre
chiffres
child
children
chile
chili
chilien
chimere
chimeres
chimie
chimique
chimiques
chimiste
china
chine
chinese
chinois
chinoise
chinoises
chirac
chirurgicale
chirurgie
chirurgien
chloe
chlorure
cho
choc
chocolat
chocs
choice
choiseul
choisi
choisie
choisies
choisir
choisis
choisissent
choisit
choix
cholera
cholet
chomage
chomeurs
chopin
choque
chorale
choregraphe
choregraphie
chose
choses
chou
chouette
choux
choſe
choſes
chretien
chretienne
chretiennes
chretiens
chretiente
chris
christ
christian
christiane
christianisme
christie
christina
christine
christmas
christoph
christophe
christopher
chronicle
chronique
chroniques
chroniqueur
chronologie
chronologies
chronologique
chrysler
chu
chuck
church
churchill
chute
chutes
chypre
chœur
chœurs
ci
cia
cible
cibles
ciceron
cid
cie
ciel
cieux
cigare
cigarette
cigarettes
cil
cils
cime
ciment
cimes
cimetiere
cimetieres
cincinnati
cine
cineaste
cinema
cinematheque
cinematographique
cinematographiques
cinetique
cinii
cinq
cinquantaine
cinquante
cinquieme
cintre
cio
cirad
circ
circle
circonference
circonscription
circonscriptions
circonstance
circonstances
circuit
circuits
circulaire
circulaires
circulant
circulation
circule
circulent
circuler
circus
cire
cirque
ciseaux
cit
citadelle
citant
citation
citations
cite
citee
citees
citer
cites
cities
citons
citoyen
citoyenne
citoyennete
citoyens
citroen
citron
citta
city
ciudad
civil
civile
civiles
civilisation
civilisations
civilise
civilises
civils
civique
civiques
cj
ck
cl
clair
claire
clairement
claires
clairs
clameurs
clan
clans
clara
clare
clarence
clarendon
clarinette
clarisse
clark
clarke
clarte
class
classe
classee
classees
classement
classements
classer
classes
classic
classical
classics
classification
classique
classiques
claude
claudia
claudine
claudio
claudius
clause
clauses
clavecin
clavier
claviers
clay
clayton
clc
cle
clef
clefs
clemence
clemenceau
clement
clementine
cleopatre
clerc
clercs
clerge
clermont
cles
cleveland
cliches
clichy
client
clientele
clients
cliff
clifford
climat
climate
climatique
climatiques
climatologique
climats
clin
clinical
clinique
cliniques
clinton
clio
clip
clips
cliquant
cliquer
cliquez
clive
cloche
clocher
clochers
cloches
cloitre
clos
close
closes
clotilde
cloture
clou
cloud
clous
clovis
clown
club
clubs
cluny
clyde
cm
cn
cnn
cnrs
co
coach
coalition
coast
cobra
cocher
cochon
cochons
coco
codage
code
codes
codex
coecrit
coefficient
coefficients
coequipier
coequipiers
coeur
coffre
coffres
coffret
cofondateur
cognac
cohen
coherence
coherentes
cohesion
coiffe
coiffure
coin
coincide
coincidence
coins
col
cola
colbert
cold
cole
coleman
coleopteres
colere
coleres
colette
colin
coll
collaborateur
collaborateurs
collaboration
collabore
colle
collecte
collectif
collectifs
collection
collectionneur
collections
collective
collectives
collectivite
collectivites
college
colleges
collegiale
collegue
collegues
collet
collier
collin
colline
collines
collins
collision
colloque
colmar
cologne
colomb
colombe
colombes
colombia
colombie
colombien
colombier
colon
colonel
colonial
coloniale
coloniales
colonie
colonies
colonisation
colonne
colonnes
colonnettes
colons
color
colorado
coloration
colore
coloris
cols
columbia
columbus
com
coma
combat
combats
combattant
combattants
combattent
combattit
combattre
combattu
combe
combes
combien
combinaison
combinaisons
combine
combinee
combiner
combines
comble
combler
combles
combustible
combustion
come
comedie
comedien
comedienne
comediens
comedies
comedy
comes
comete
cometes
comic
comics
coming
comique
comiques
comitat
comitatif
comite
comites
command
commanda
commandait
commandant
commandants
commande
commandee
commandees
commandement
commandements
commander
commanderie
commandes
commandeur
commando
comme
commemoration
commemorative
commenca
commencaient
commencait
commencant
commence
commencee
commencement
commencent
commencer
commencerent
comment
commentaire
commentaires
commentateur
commentateurs
commente
commercant
commercants
commerce
commerces
commercial
commerciale
commerciales
commercialisation
commercialise
commerciaux
commet
commettre
comminges
commis
commise
commises
commissaire
commissaires
commissariat
commission
commissions
committee
commode
commodite
commodore
common
commons
commonwealth
commun
communal
communale
communales
communautaire
communautaires
communaute
communautes
communaux
commune
communement
communes
communication
communications
communion
communique
communiquer
communisme
communiste
communistes
community
communs
como
comores
compact
compacte
compagne
compagnes
compagnie
compagnies
compagnon
compagnons
companion
company
comparable
comparaison
comparaisons
comparant
comparatif
comparative
compare
comparee
comparer
compartiment
compas
compassion
compatible
compatriote
compatriotes
compensation
compenser
compere
competence
competences
competition
competitions
compiegne
compilation
complaisance
complement
complementaire
complementaires
complet
complete
completee
completement
completent
completer
completes
complets
complex
complexe
complexes
complexite
complications
complice
complices
complicite
compliment
compliments
complique
compliquee
complot
comportait
comportant
comporte
comportement
comportements
comportent
comporter
composa
composaient
composait
composant
composante
composantes
composants
compose
composee
composees
composent
composer
composes
compositeur
compositeurs
composition
compositions
compositrice
compostelle
comprehension
comprenaient
comprenait
comprenant
comprend
comprendra
comprendre
comprends
comprenez
comprennent
compression
comprime
compris
comprise
comprises
comprit
compromettre
compromis
comptabilite
comptable
comptaient
comptait
comptant
compte
comptent
compter
comptes
comptez
comptoir
computer
comte
comtes
comtesse
con
conan
conard
concede
concentration
concentre
concentree
concentrer
concept
concepteur
conception
conceptions
concepts
concernant
concerne
concernee
concernees
concernent
concernes
concert
concerto
concerts
concession
concessions
concevoir
concierge
concile
conciles
conciliation
concilier
concitoyens
conclu
conclue
conclure
conclusion
conclusions
conclut
concoit
concordat
concorde
concourir
concours
concrete
concu
concue
concues
concurrence
concurrent
concurrents
concus
concut
condamnation
condamne
condamnee
condamner
condamnes
conde
condition
conditionnel
conditions
condorcet
conducteur
conducteurs
conduire
conduisait
conduisant
conduisent
conduisit
conduit
conduite
conduites
conduits
cone
confection
confederation
confederes
confere
conference
conferences
conferer
confesse
confesser
confesseur
confession
confessions
confia
confiance
confiant
confidence
confidences
confident
confie
confiee
confier
confies
configuration
confinement
confins
confirmation
confirme
confirmee
confirmees
confirment
confirmer
conflit
conflits
confluence
confluent
confond
confondent
confondre
confondu
confondues
confondus
conforme
conformement
conformer
conformes
conformite
confort
confortable
confrere
confreres
confrerie
confrontation
confrontations
confronte
confus
confuse
confusion
conge
congo
congolais
congregation
congregations
congres
congress
conique
conjecture
conjectures
conjointement
conjugaison
conjugale
conjugue
conjure
connais
connaissaient
connaissais
connaissait
connaissance
connaissances
connaissant
connaisse
connaissent
connaissez
connaissons
connait
connaitra
connaitre
connecticut
connetable
connexe
connexes
connexion
connexions
connoissance
connoitre
connor
connu
connue
connues
connus
connut
conquerant
conquerir
conquete
conquetes
conquis
conquise
conrad
consacra
consacre
consacree
consacrees
consacrer
consacres
conscience
consciences
conscient
consecration
consecutifs
consecutive
consecutives
conseil
conseille
conseiller
conseillere
conseillers
conseils
consensus
consent
consentement
consenti
consentir
consentit
consequemment
consequence
consequences
consequent
conserva
conservait
conservant
conservateur
conservateurs
conservation
conservatoire
conservatrice
conserve
conservee
conservees
conservent
conserver
conserves
considerable
considerablement
considerables
considerait
considerant
consideration
considerations
considere
consideree
considerees
considerent
considerer
consideres
considerons
consigne
consistait
consistance
consistant
consiste
consistent
consistoire
consolation
consolations
console
consoler
consoles
consolider
consommateur
consommateurs
consommation
consomme
consommee
consommer
consonne
consonnes
consortium
conspiration
constamment
constance
constant
constante
constantes
constantin
constantine
constantinople
constate
constater
constates
constellation
constituaient
constituait
constituant
constituante
constitue
constituee
constituees
constituent
constituer
constitues
constitution
constitutionnel
constitutionnelle
constitutions
constructeur
constructeurs
construction
constructions
construire
construisit
construit
construite
construites
construits
consuelo
consul
consulaire
consulat
consuls
consultable
consultant
consultatif
consultation
consulte
consultee
consulter
consultes
consultez
consume
contact
contacte
contacts
contagion
contamination
conte
contemplation
contemple
contempler
contemporain
contemporaine
contemporaines
contemporains
contemporary
contenait
contenance
contenant
contenir
content
contenta
contente
contentement
contenter
contents
contenu
contenue
contenues
contenus
conter
contes
contestation
conteste
contestee
contester
contexte
conti
contiennent
contient
continent
continental
continentale
continentales
continentaux
continents
contingent
continu
continua
continuaient
continuait
continuant
continuation
continue
continuel
continuelle
continuellement
continuelles
continuent
continuer
continuera
continuerent
continues
continuite
contour
contours
contra
contract
contracte
contracter
contraction
contradiction
contradictions
contradictoire
contradictoires
contraindre
contraint
contrainte
contraintes
contraints
contraire
contrairement
contraires
contrarie
contraste
contrastes
contrat
contrats
contre
contrebande
contrebasse
contredire
contredit
contree
contrees
contreforts
contrepartie
contrer
contribua
contribue
contribuent
contribuer
contribution
contributions
control
controle
controlee
controler
controles
controleur
controverse
controversee
controverses
convainc
convaincre
convaincu
convaincue
convaincus
convenable
convenablement
convenables
convenait
convenance
convenances
convenir
convention
conventionnel
conventions
convenu
convergence
conversation
conversations
conversion
converti
convertir
convertis
convertit
convexe
conviction
convictions
conviennent
conviens
convient
convives
convocation
convoi
convois
convoque
convulsions
conway
cook
cool
cooper
cooperation
cooperative
cooperatives
coordination
coordonne
coordonnees
cop
copa
cope
copenhague
copie
copier
copies
coq
coque
coquette
coquetterie
coquillages
coquille
coquilles
coquin
cor
corail
coran
corbeau
corbeaux
corbeille
corde
cordes
cordier
cordon
cordonnier
cordoue
core
coree
coreen
coreenne
coreens
corine
corinne
corinthe
cork
corne
corneille
cornelis
cornelius
cornell
corner
cornes
cornet
corniche
corona
coronavirus
corporation
corporations
corporelle
corps
corpus
correct
correcte
correctement
correction
corrections
correlation
correspond
correspondance
correspondances
correspondant
correspondante
correspondants
correspondent
correspondre
correze
corridor
corrige
corrigee
corriger
corrompre
corrompu
corruption
cors
corsaire
corse
corset
cortege
cortes
corvette
cos
cosaques
cosmos
costa
coste
costemalle
costume
costumes
cote
coteau
coteaux
cotentin
cotes
cotiere
cotieres
coton
cou
coucha
couchant
couche
couchee
coucher
couches
coude
coudes
cougny
coulait
coulant
could
coule
couler
couleur
couleurs
coulisses
couloir
couloirs
council
country
county
coup
coupa
coupable
coupables
coupant
coupe
coupee
coupees
couper
coupes
couple
couples
couplet
couplets
coupole
coups
coupure
cour
courage
courageuse
courageux
couraient
courait
couramment
courant
courante
courantes
courants
courbe
courbes
courbure
courcelles
courent
coureur
coureurs
courir
couronne
couronnee
couronnement
couronner
couronnes
courriel
courrier
courroux
cours
course
courses
court
courte
courtes
courtisan
courtisane
courtisans
courtois
courtoisie
courts
couru
courut
cousin
cousine
cousins
coussins
cout
coute
couteau
couteaux
couter
couteux
couts
coutume
coutumes
couture
couvent
couvents
couvercle
couvert
couverte
couvertes
couverts
couverture
couvertures
couvraient
couvrait
couvrant
couvre
couvrent
couvrir
couvrit
cover
covid
cox
cp
cq
cr
cracovie
craie
craig
craignait
craignant
craignent
craignez
craindre
crains
craint
crainte
craintes
crane
crash
cratere
crateres
cravate
crawford
crayon
crazy
crea
creance
creanciers
creant
createur
createurs
creation
creations
creative
creatrice
creature
creatures
creche
credit
credite
creditee
credits
cree
creee
creees
creek
creent
creer
crees
creez
creme
creole
crepuscule
cretace
crete
cretes
creuse
creuser
creuses
creux
creve
cri
cria
criait
criant
cricket
crie
crier
crime
crimee
crimes
criminel
criminelle
criminelles
criminels
criminologie
cris
crise
crises
crisis
cristal
cristaux
cristina
cristo
critere
criteres
criterium
critical
critics
critique
critiquer
critiques
croate
croates
croatie
crochet
crochets
crocodile
croient
croirait
croire
crois
croisade
croisades
croise
croisee
croisees
croisement
croisent
croises
croiseur
croiseurs
croisiere
croissance
croissant
croissante
croit
croitre
croix
cromwell
croquis
cross
crosse
croton
croupe
croute
crown
croyaient
croyais
croyait
croyance
croyances
croyant
croyants
croyez
croyons
cru
cruaute
crucifix
crue
cruel
cruelle
cruellement
cruelles
cruels
crues
crurent
crus
crustaces
crut
cruz
cry
crypte
crystal
cs
ct
ctome
ctv
cu
cuba
cubain
cube
cubes
cueillir
cuir
cuirasse
cuirasses
cuire
cuisine
cuisines
cuisinier
cuisiniere
cuisse
cuisses
cuisson
cuit
cuite
cuivre
cul
culminant
culmine
culotte
culpabilite
culte
cultes
cultivateur
cultivateurs
cultive
cultivee
cultivees
cultiver
cultives
cultura
cultural
culture
culturel
culturelle
culturelles
culturels
cultures
cum
cumule
cup
cupidite
cure
cures
curie
curieuse
curieusement
curieuses
curieux
curiosite
curiosites
current
cursus
curtis
cut
cutri
cuve
cuvier
cv
cw
cx
cy
cybergeo
cycle
cycles
cycling
cyclingnews
cyclisme
cycliste
cyclistes
cyclo
cyclone
cygne
cylindre
cylindres
cylindrique
cynthia
cypres
cyprien
cyr
cyrano
cyril
cyrille
cyrillique
cyrus
cz
cœur
cœurs
d
d0
d1
d2
d3
d4
d5
d6
d7
d8
d9
da
dae
dai
daigne
dailey
daily
daisy
dakar
dakota
dal
dalai
dale
dallas
dalle
dalles
dalton
dam
damas
dame
dames
damien
damon
dan
dana
dance
dancing
danemark
danger
dangereuse
dangereuses
dangereux
dangers
daniel
daniele
danielle
danny
danois
danoise
dans
danse
danser
danses
danseur
danseurs
danseuse
dante
danton
danube
daphne
dar
darcy
darius
dark
darwin
das
dat
data
database
datant
dataride
datation
date
datee
datent
dater
dates
datif
datos
daudet
dauphin
dauphine
davantage
dave
david
davidson
davies
davis
davy
dawn
dawson
dax
day
days
db
dc
dd
de
dea
dead
deadline
deal
dean
death
debarque
debarquement
debarquer
debarrasse
debarrasser
debat
debats
debauche
debaun
debit
debiteur
deborah
deborde
debouche
debout
debris
debut
debuta
debutant
debute
debutent
debuts
dec
deca
decadence
decalage
decede
decedee
december
decembre
decennie
decennies
decentralisation
deception
decerne
deces
decharge
decheance
dechets
dechire
dechirer
dechu
decida
decide
decidee
decidement
decident
decider
deciderent
decideurs
decisif
decision
decisions
decisive
decisives
declara
declarait
declarant
declaration
declarations
declare
declaree
declarent
declarer
declares
declenche
declenchement
declin
declinaison
decline
decollage
decompose
decomposition
decor
decorateur
decoratifs
decoration
decorations
decore
decoree
decores
decors
decoule
decoupage
decoupe
decourage
decouragement
decouvert
decouverte
decouvertes
decouverts
decouvrant
decouvre
decouvrent
decouvrez
decouvrir
decouvrit
decret
decrete
decrets
decrire
decrit
decrite
decrites
decrits
decrivant
decrivent
decroche
decu
dedaigne
dedaigneux
dedain
dedans
dedicace
dedie
dediee
dedies
deduction
deduire
deduit
dee
deep
deesse
def
defaillance
defaire
defait
defaite
defaites
defaut
defauts
defavorable
defend
defendait
defendant
defendent
defendit
defendre
defendu
defendue
defense
defenses
defenseur
defenseurs
defensif
defensive
deference
defi
defiance
deficit
defie
defier
defile
defini
definie
definies
definir
definis
definit
definitif
definition
definitions
definitive
definitivement
defis
deformation
defunt
degage
degagee
degager
degats
degli
degout
degradation
degrade
degre
degres
deguise
dehors
dei
deja
dejeuner
del
dela
delacroix
delai
delais
delaisse
delaware
delcourt
delegation
delegue
deleguee
delegues
delhi
deliberation
deliberations
delibere
delicat
delicate
delicates
delicatesse
delicats
delices
delicieuse
delicieux
delimitation
delimite
delire
delit
delits
delivrance
delivre
delivree
delivrer
delivres
dell
della
delle
delphine
dels
delta
deluge
dem
demain
demanda
demandai
demandaient
demandais
demandait
demandant
demande
demandee
demandent
demander
demandera
demanderent
demandes
demandez
demandons
demarche
demarches
demarrage
demarre
demeler
demenage
demence
dementi
demeura
demeurait
demeurant
demeure
demeurent
demeurer
demeures
demi
demie
demission
demissionne
demissionner
demo
democrate
democrates
democratie
democratique
democratiques
demografico
demographie
demographique
demographiques
demoiselle
demoiselles
demoli
demolie
demolition
demon
demons
demonstration
demonstrations
demontre
demontree
demontrer
den
denier
deniers
denis
denise
dennis
denoel
denombre
denomination
denominations
denomme
denommee
denonce
denoncer
denonciation
denouement
denrees
dense
denses
densite
dent
dentelle
dentelles
dents
dentu
denver
denys
depart
departemens
departement
departemental
departementale
departementales
departementaux
departements
department
departs
depassait
depassant
depasse
depassent
depasser
depeche
depeches
depeint
depend
dependait
dependance
dependances
dependant
dependante
dependent
dependre
depens
depense
depenser
depenses
depit
deplace
deplacee
deplacement
deplacements
deplacer
deplaire
deploie
deploiement
deplorable
deplore
deploye
deployer
deportation
deporte
deportes
deposa
depose
deposee
deposees
deposer
deposes
deposition
depot
depots
depouille
depouiller
depouilles
depourvu
depourvue
depression
depuis
deputation
depute
deputee
deputes
der
derange
deranger
derby
derek
derivation
derive
derivee
derivees
derives
dernier
derniere
dernierement
dernieres
derniers
derobe
derober
deroulant
deroule
deroulee
deroulement
deroulent
derouler
deroute
derriere
des
desaccord
desagreable
desarme
desastre
desastres
descartes
descend
descendait
descendance
descendant
descendante
descendants
descendent
descendit
descendre
descendu
descente
deschamps
description
descriptions
descriptive
desert
deserte
deserts
desespere
desesperee
desespoir
design
designait
designant
designation
designe
designee
designent
designer
designes
desinteresse
desinteressement
desir
desirable
desirait
desirant
desire
desiree
desirent
desirer
desireux
desirez
desirs
desjardins
desolation
desole
desolee
desordre
desordres
desormais
despotisme
desquelles
desquels
dessein
desseins
dessert
desserte
desservant
desservi
desservie
dessin
dessinateur
dessinateurs
dessine
dessinee
dessinees
dessiner
dessins
dessous
dessus
destin
destination
destinations
destine
destinee
destinees
destines
destins
destroyer
destroyers
destruction
destructions
desuet
det
detache
detachee
detachement
detacher
detail
detailed
detaille
detaillee
detailles
details
detecter
detection
detective
detente
detenteur
detention
detenu
detenue
detenus
determinant
determination
determine
determinee
determinees
determinent
determiner
determines
detestable
deteste
detient
detour
detourna
detourne
detourner
detours
detresse
detriment
detroit
detruire
detruisant
detruisent
detruit
detruite
detruites
detruits
dette
dettes
deuil
deus
deutsch
deutsche
deutschen
deutscher
deutschland
deux
deuxieme
deuxiemes
devaient
devais
devait
devance
devant
development
developpa
developpant
developpe
developpee
developpees
developpement
developpements
developpent
developper
developpes
developpeurs
devenaient
devenait
devenant
devenir
devenu
devenue
devenues
devenus
devez
deviation
deviendra
deviendrait
deviendront
devienne
deviennent
devient
devil
devin
devine
deviner
devinrent
devint
devions
devise
devoile
devoir
devoirs
devoit
devon
devons
devore
devorer
devotion
devoue
devouee
devouement
devoues
devra
devraient
devrais
devrait
devront
df
dfrac
dg
dh
di
dia
diable
diables
diabolique
diacre
diagnostic
diagramme
dialecte
dialectes
dialectique
dialogue
dialogues
diamant
diamants
diameters
diametre
diamond
diana
diane
diaspora
diaz
diccionari
diccionario
dick
dickens
dico
dict
dictateur
dictature
dicte
dictionary
dictionarydictionnaire
dictionaryl
dictionnaire
dictionnaires
did
didactique
diderot
didier
didot
die
diego
dieppe
dies
diesel
diete
dietrich
dieu
dieux
differe
differemment
difference
differences
differend
differends
differens
different
differente
differentes
differentielle
differents
differer
difficile
difficilement
difficiles
difficulte
difficultes
diffuse
diffusee
diffusees
diffuser
diffuses
diffuseur
diffusion
digestion
digital
digne
dignement
dignes
dignitaires
dignite
dignites
digue
dijon
diligence
dillon
dim
dimanche
dimanches
dime
dimension
dimensions
diminue
diminuer
diminutif
diminution
dimitri
din
dine
diner
dino
dinosaures
diocese
dioceses
diogene
dion
dioxyde
diplomate
diplomates
diplomatie
diplomatique
diplomatiques
diplome
diplomee
diplomes
dir
dira
dirai
dirais
dirait
dire
direct
directe
directement
directes
directeur
directeurs
direction
directions
directive
directives
directoire
director
directory
directrice
directs
dirent
direz
dirige
dirigea
dirigeait
dirigeant
dirigeants
dirigee
dirigees
dirigent
diriger
diriges
dirk
dirons
diront
dirty
dis
disaient
disais
disait
disant
disc
discernement
discerner
disciple
disciples
discipline
disciplines
disco
discographie
discogs
discorde
discours
discovery
discret
discrete
discretement
discretion
discrimination
discussion
discussions
discute
discuter
discutez
dise
disease
disent
disette
disgrace
disney
disoit
disons
disparaissent
disparait
disparaitre
disparition
disparu
disparue
disparus
disparut
dispense
dispenser
disperse
disperses
dispersion
displaystyle
disponibilite
disponible
disponibles
disposait
disposant
dispose
disposee
disposees
disposent
disposer
disposes
disposez
dispositif
dispositifs
disposition
dispositions
dispute
disputee
disputent
disputer
disputes
disqualification
disque
disques
dissertation
dissimule
dissimuler
dissipe
dissiper
dissolution
dissoudre
dissous
dissout
dissoute
dist
distance
distances
distant
distillation
distinct
distincte
distinctement
distinctes
distinction
distinctions
distincts
distingua
distinguait
distingue
distinguee
distinguent
distinguer
distingues
distraction
distractions
distraire
distrait
distribue
distribuer
distribues
distributeur
distribution
distributions
district
districts
dit
dite
dites
dits
div
divan
divergences
divers
diverses
diversion
diversite
diversity
divertir
divertissement
divin
divine
divines
divinite
divinites
divins
divise
divisee
divisees
divisent
diviser
divises
division
divisions
divorce
dix
dixieme
dixon
dizaine
dizaines
dizionario
dj
dja
djihadistes
djvu
djvudictionnaire
djvudiderot
djvurevue
djvuvoltaire
dk
dl
dm
dmitri
dn
dna
do
doc
docile
docteur
docteurs
doctor
doctorat
doctrine
doctrines
documens
document
documentaire
documentaires
documentation
documents
dodge
does
dog
dogmatique
dogme
dogmes
doi
doigt
doigts
dois
doit
doive
doivent
dol
dolby
dole
dollar
dollars
dolmen
dolores
dom
domaine
domaines
dome
domenico
domestique
domestiques
domicile
dominait
dominant
dominante
domination
domine
dominee
dominent
dominer
domingo
domingue
dominic
dominicain
dominicaine
dominicains
dominique
domino
dommage
dommages
don
dona
donald
donation
donc
dong
donjon
donna
donnaient
donnait
donnant
donne
donnee
donnees
donneespubliques
donnent
donner
donnera
donnerai
donnerait
donnerent
donneront
donnes
donnez
donnoit
donnons
dons
dont
door
dopage
dora
dordogne
dore
doree
dorees
dorenavant
dores
doris
dormait
dormant
dorment
dormi
dormir
dorothee
dorothy
dors
dorsale
dort
dos
dose
doses
dossier
dossiers
dot
dotation
dote
dotee
doter
dotes
dots
dou
douai
douane
douanes
doublage
double
doublee
doublement
doubler
doubles
doubs
douce
doucement
douces
douceur
douceurs
doue
douee
doues
doug
douglas
douleur
douleurs
douloureuse
douloureux
doutait
doute
douter
doutes
douteuse
douteux
doux
douzaine
douze
douzieme
down
download
doyen
doyenne
doyle
dp
dq
dr
dracula
draft
dragon
dragons
drainee
drake
drama
dramatique
dramatiques
dramaturge
drame
drames
drap
drapeau
drapeaux
draps
dream
dreams
dresde
dressa
dressait
dresse
dressee
dressent
dresser
dreux
drew
dreyfus
drive
driver
drogue
drogues
droit
droite
droites
droits
droiture
drole
droles
drome
drop
droz
ds
dt
du
dubai
dublin
dubois
duc
duche
duchesse
duck
ducs
dudit
dudley
due
duel
dues
dufour
duhamel
duke
dumas
dumont
duncan
dune
dunes
dunkerque
dunn
dunod
duo
dupe
dupin
dupont
dupuis
dupuy
duquel
dur
dura
durable
durables
durand
durant
dure
duree
durement
durent
durer
durera
dures
durete
durham
during
durs
dus
dusseldorf
dut
dutch
duval
dv
dvd
dw
dx
dy
dylan
dynamique
dynamiques
dynamite
dynamo
dynastie
dynasties
dz
dɑ
dɔ
də
dɛ
e
e0
e1
e2
e3
e4
e5
e6
e7
e8
e9
ea
eagle
earl
early
earth
east
eastern
eau
eaux
eb
ebauche
ebranle
ebranler
ec
ecailles
ecarlate
ecart
ecartant
ecarte
ecarter
ecarts
ecclesiastique
ecclesiastiques
echafaud
echange
echanger
echanges
echangeur
echantillon
echantillons
echappa
echappait
echappe
echappee
echappent
echapper
echarpe
echeance
echeant
echec
echecs
echelle
echelles
echelon
echiquier
echo
echos
echoue
echouer
eclair
eclairage
eclairait
eclaircir
eclaire
eclairee
eclairer
eclaires
eclairs
eclat
eclata
eclatant
eclatante
eclate
eclatent
eclater
eclats
eclipse
ecliptique
ecluse
eco
ecole
ecoles
ecolier
ecoliers
ecologie
ecologique
ecologiques
ecology
economic
economics
economie
economies
economique
economiques
economiste
economistes
ecorce
ecossais
ecossaise
ecosse
ecosystemes
ecoule
ecoulement
ecouler
ecoules
ecouta
ecoutait
ecoutant
ecoute
ecouter
ecoutes
ecoutez
ecran
ecrans
ecrase
ecraser
ecria
ecriai
ecriait
ecrie
ecrire
ecris
ecrit
ecrite
ecrites
ecrits
ecriture
ecritures
ecrivain
ecrivaine
ecrivains
ecrivait
ecrivant
ecrivent
ecrivit
ecu
ecume
ecurie
ecuries
ecus
ecuyer
ed
eddie
eddy
eden
edf
edgar
edge
edification
edifice
edifices
edifie
edifiee
edifier
edimbourg
edinburgh
edit
edite
editee
editeur
editeurs
edith
edition
editionjesuites
editions
editor
editore
editorial
editrice
edits
edmond
edmonton
edmund
edo
edouard
eds
edu
eduard
eduardo
educatif
education
edward
edwards
edwin
ee
een
eer
ef
efface
effacer
effect
effectif
effectifs
effective
effectivement
effects
effectuant
effectue
effectuee
effectuees
effectuent
effectuer
effectues
effet
effets
efficace
efficacement
efficaces
efficacite
effigie
effondre
effondrement
efforcait
efforce
effort
efforts
effrayant
effrayante
effraye
effrayee
effrayer
effroi
effroyable
effusion
eft
eg
egal
egale
egalement
egales
egalite
egard
egards
egare
egarer
egaux
egide
eglise
eglises
ego
egoisme
egoiste
egypt
egypte
egyptien
egyptienne
egyptiens
eh
ehess
ei
eier
eiffel
ein
eine
einer
einstein
eisenhardt
ej
ek
el
elaboration
elabore
elaborer
elan
elanca
elance
elancer
elans
elargi
elargir
elargissement
elargit
elastique
elbe
ele
eleanor
electeur
electeurs
election
elections
electoral
electorale
electorales
electoraux
electric
electricite
electrique
electriques
electro
electron
electronic
electronique
electroniques
electrons
elegance
elegans
elegant
elegante
elegantes
elemens
element
elementaire
elementaires
elements
elena
eleonore
elephant
elephants
eleva
elevage
elevaient
elevait
elevant
elevation
eleve
elevee
elevees
elevent
elever
eleves
eleveurs
eli
eliane
elias
elie
elimination
eliminatoires
elimine
eliminee
eliminer
elimines
elire
elisa
elisabeth
elise
elite
eliteprospects
elites
elizabeth
ella
elle
ellen
elles
elliot
elliott
ellipse
ellis
eloge
eloges
eloi
eloigna
eloignant
eloigne
eloignee
eloignees
eloignement
eloignent
eloigner
eloignes
eloquence
eloquent
elsa
elsbury
else
elsevier
elu
elue
elus
elvis
elysee
elysees
em
email
emancipation
embarcation
embarcations
embarque
embarquer
embarras
embarrasse
embauche
emblee
emblematique
embleme
embouchure
embranchement
embrassa
embrassant
embrasse
embrasser
embuscade
eme
emeraude
emerge
emergence
emerite
emet
emetteur
emettre
emeute
emeutes
emi
emigration
emigre
emigres
emil
emile
emilie
emilio
emily
eminemment
eminence
eminent
eminents
emir
emirats
emis
emises
emissaire
emission
emissions
emma
emmanuel
emmanuelle
emmena
emmene
emmener
emmy
emoi
emotion
emotions
emouvoir
emp
empara
empare
emparent
emparer
empecha
empechait
empechant
empeche
empechent
empecher
empereur
empereurs
empire
empires
empirique
emplacement
emploi
emploie
emploient
emplois
employa
employait
employant
employe
employee
employees
employer
employes
employeur
empoisonne
emporta
emportait
emportant
emporte
emportee
emportent
emporter
emportes
empreinte
empreintes
empressa
empresse
empressement
emprise
emprisonne
emprisonnement
emprunt
emprunte
empruntee
emprunter
empruntes
emprunts
emu
emue
emulation
en
encadre
encadrement
enceinte
enceintes
encens
enchaine
enchainement
enchante
enchantee
enchantement
enchanteur
encheres
enciclopedia
enciklopedija
enclos
encombre
encontre
encor
encore
encourage
encouragement
encourager
encre
encyclopaedia
encyclopedia
encyclopedie
encyclopedies
encyclopedique
encyclopediques
encyclopædia
end
endemique
endemiques
endommage
endormi
endormie
endormir
endormis
endroit
endroits
endurance
energetique
energie
energies
energique
energiquement
energiques
energy
enfance
enfans
enfant
enfantine
enfants
enfer
enferme
enfermee
enfermer
enfermes
enfers
enfin
enflamme
enfonce
enfoncer
enfuir
enfuit
engage
engagea
engageait
engageant
engagee
engagees
engagemens
engagement
engagements
engagent
engager
engages
engendre
enghien
engin
engine
engineering
engins
engl
england
english
englobe
engouement
engrais
enigme
enivre
enjeu
enjeux
enleva
enleve
enlevee
enlevement
enlever
enleves
ennemi
ennemie
ennemies
ennemis
ennui
ennuie
ennuis
ennuyeux
enonce
enorme
enormement
enormes
enquete
enqueter
enquetes
enrage
enregistre
enregistree
enregistrees
enregistrement
enregistrements
enregistrer
enregistres
enrichi
enrichir
enrichit
enrico
enrique
ens
enseigna
enseignant
enseignante
enseignants
enseigne
enseignement
enseignements
enseigner
enseignes
ensemble
ensembles
enseveli
ensuit
ensuite
entame
entamer
entend
entendaient
entendais
entendait
entendant
entendement
entendent
entendez
entendis
entendit
entendons
entendre
entends
entendu
entendue
entendus
entente
enterprise
enterre
enterree
enterrement
enterrer
enterres
entertainment
enthousiasme
enthousiaste
entier
entiere
entierement
entieres
entiers
entite
entites
entomologie
entourage
entouraient
entourait
entourant
entoure
entouree
entourees
entourent
entourer
entoures
entr
entra
entraient
entrailles
entrain
entraina
entrainait
entrainant
entraine
entrainee
entrainement
entrainent
entrainer
entraines
entraineur
entraineurs
entrait
entrant
entrave
entraves
entre
entree
entrees
entrent
entrepot
entreprend
entreprendre
entrepreneur
entrepreneurs
entrepris
entreprise
entreprises
entreprit
entrer
entrerent
entres
entretenait
entretenir
entretenu
entretien
entretiennent
entretiens
entretient
entrevoir
entrevue
entrez
enumeration
envahi
envahir
envahit
enveloppe
enveloppee
enveloppes
envergure
envers
envie
environ
environment
environmental
environnantes
environne
environnement
environnementale
environnementales
environs
envisage
envisagee
envisager
envoi
envoie
envoient
envole
envoya
envoyait
envoyant
envoye
envoyee
envoyees
envoyer
envoyes
enzo
enzyklopadie
eo
ep
epais
epaisse
epaisses
epaisseur
epargne
epargner
epars
eparses
epaule
epaules
epave
epci
epee
epees
eperon
ephemere
ephese
epi
epic
epices
epicure
epidemie
epidemies
epinal
epine
epines
epingle
epique
epis
episcopal
episcopale
episcopat
episode
episodes
epitaphe
epithete
epitre
eponge
eponyme
epopee
epoque
epoques
epousa
epouse
epouser
epouses
epouvantable
epouvante
epoux
epreuve
epreuves
epris
eprouva
eprouvait
eprouve
eprouvent
eprouver
epsilon
epuise
epuisee
epuisement
epuiser
epuration
eq
equateur
equation
equations
equatoriale
equestre
equilibre
equipage
equipages
equipe
equipee
equipees
equipement
equipements
equipes
equitable
equitation
equite
equivalent
equivalente
equivaut
equivoque
er
era
erasme
ere
erection
eric
erich
erige
erigee
eriger
erik
ermitage
ermite
ernest
ernst
eros
erosion
erotique
errant
erre
errer
erreur
erreurs
erudit
erudition
erudits
eruption
erwin
es
escadre
escadrille
escadron
escadrons
escalade
escale
escalier
escaliers
escape
escaut
esclavage
esclave
esclaves
escompte
escorte
escrime
espace
espaces
espagne
espagnol
espagnole
espagnoles
espagnols
espana
espanola
espece
especes
esperait
esperance
esperances
esperant
esperanto
espere
esperer
esperons
espion
espionnage
espions
esplanade
espn
espnscrum
espoir
espoirs
esprit
esprits
esquisse
esquisses
essai
essaie
essais
essaya
essayait
essayant
essaye
essayer
essayiste
essays
esse
essence
essences
essentiel
essentielle
essentiellement
essentielles
essentiels
essex
essif
essonne
essor
essuyer
est
estaing
estampe
estampes
estant
estat
este
estelle
esther
esthetique
esthetiques
estimait
estimant
estimation
estimations
estime
estimee
estimees
estiment
estimer
estimes
estivale
estoient
estoit
estomac
estonie
estonien
estrade
estre
estuaire
et
eta
etable
etabli
etablie
etablies
etablir
etablirent
etablis
etablissant
etablissemens
etablissement
etablissements
etablissent
etablit
etage
etages
etaient
etain
etais
etait
etale
etalon
etang
etangs
etant
etape
etapes
etat
etats
etc
ete
eteignit
eteindre
eteint
eteinte
etend
etendait
etendant
etendard
etendent
etendit
etendre
etendu
etendue
etendues
etendus
eternel
eternelle
eternellement
eternelles
eternels
eternite
etes
ethan
ether
ethiopie
ethique
ethnique
ethniques
ethnologue
etiam
etienne
etiez
etincelle
etincelles
etions
etiquette
etoffe
etoffes
etoient
etoile
etoiles
etois
etoit
etonnait
etonnant
etonnante
etonne
etonnee
etonnement
etonner
etonnes
etouffe
etouffer
etourdi
etrange
etrangement
etranger
etrangere
etrangeres
etrangers
etranges
etre
etreinte
etres
etroit
etroite
etroitement
etroites
etroits
etrusques
etude
etudes
etudia
etudiant
etudiante
etudiants
etudie
etudiee
etudier
etudies
etymologie
etymologique
eu
eudes
eue
eugene
eugenie
eumes
eumhun
euphorbia
euphrate
eur
eure
eurent
euro
eurobasket
europa
europaea
europe
european
europeen
europeenne
europeennes
europeens
euros
eurosport
eurovision
eus
eusebe
eusebio
eusse
eussent
eussiez
eust
eustache
eut
eux
ev
eva
evacuation
evacuer
evader
evaluation
evalue
evaluee
evaluer
evan
evangelique
evangeliste
evangile
evangiles
evanouir
evanouit
evans
evasion
eve
eveche
eveil
eveille
eveiller
evelyn
evelyne
even
evenemens
evenement
evenements
event
eventail
events
eventuel
eventuelle
eventuellement
eventuels
eveque
eveques
ever
every
everything
evidemment
evidence
evident
evidente
evil
evitant
evite
eviter
evocation
evoluait
evoluant
evolue
evoluent
evoluer
evolution
evolutions
evoquant
evoque
evoquent
evoquer
evreux
ew
ex
exact
exacte
exactement
exactes
exactitude
exageration
exagere
exaltation
exalte
examen
examens
examina
examinant
examine
examiner
excellence
excellent
excellente
excellentes
excellents
excentricite
excepte
exception
exceptionnel
exceptionnelle
exceptionnellement
exceptionnelles
exceptions
exces
excessif
excessive
excessivement
exchange
excitation
excite
exciter
exclamation
exclu
excluant
exclure
exclus
exclusif
exclusion
exclusive
exclusivement
exclut
excursion
excursions
excuse
excuser
excuses
execute
executee
executees
executer
executes
executif
execution
executions
executive
exemplaire
exemplaires
exemple
exemples
exempt
exempte
exerca
exercait
exercant
exerce
exercee
exercent
exercer
exercice
exercices
exhaustif
exhaustive
exhibition
exige
exigeait
exigeant
exigence
exigences
exigent
exiger
exil
exile
exiles
existaient
existait
existant
existantes
existants
existe
existence
existent
exister
exode
exotiques
exp
expansion
expedie
expedient
expedition
expeditions
experience
experiences
experimental
experimentale
experimentation
experimente
expert
expertise
experts
expiation
expire
explication
explications
explicite
explicitement
expliqua
expliquait
expliquant
explique
expliquent
expliquer
exploit
exploitant
exploitation
exploitations
exploite
exploitee
exploitees
exploiter
exploits
explorateur
explorateurs
exploration
explore
explorer
explose
explosifs
explosion
explosions
expo
exportation
exportations
exposant
expose
exposee
exposees
exposer
exposes
exposition
expositions
expres
express
expressement
expression
expressions
exprima
exprimait
exprimant
exprime
exprimee
expriment
exprimer
exprimes
expulse
expulsion
exquis
exquise
ext
extase
extension
extensions
exterieur
exterieure
exterieures
exterieurs
extermination
externe
externes
extinction
extra
extraction
extragalactic
extraire
extrait
extraite
extraits
extraordinaire
extraordinaires
extrapolation
extreme
extremement
extremes
extremite
extremites
ey
eye
eyes
ez
eæ
eſprit
eſt
eſtoit
eſtre
f
f0
f1
f2
f3
f4
f5
f6
f7
f8
f9
fa
fabian
fabien
fabio
fable
fables
fabre
fabricant
fabricants
fabrication
fabrice
fabricius
fabrique
fabriquee
fabriquer
fabriques
fabuleux
fac
facade
facades
face
facebook
faces
fache
fachee
facheuse
facheux
facile
facilement
faciles
facilite
faciliter
facilites
facon
facons
facteur
facteurs
factfinder
factice
faction
factions
facto
factory
facts
facture
faculte
facultes
faible
faiblement
faibles
faiblesse
faiblesses
faict
faience
faille
failli
faillit
faillite
faim
fair
faire
fais
faisaient
faisais
faisait
faisant
faisceau
faisceaux
faisoient
faisoit
faisons
fait
faite
faites
faith
faits
falaise
falaises
falcon
fall
fallait
fallingrain
falloit
falls
fallu
fallut
fame
fameuse
fameux
familial
familiale
familiales
familiarite
familier
familiere
familierement
familieres
familiers
families
famille
familles
family
famine
fan
fanatique
fanatiques
fanatisme
fanfare
fanny
fans
fantaisie
fantaisies
fantassins
fantastique
fantastiques
fantasy
fantome
fantomes
fao
far
farce
fardeau
farine
farm
farouche
fascisme
fasciste
fashion
faso
fasquelle
fasse
fassent
fast
faste
fat
fatal
fatale
fatalement
fatalite
father
fatigue
fatiguee
fatigues
faubourg
faubourgs
faucon
faudra
faudrait
fauna
faune
faunistique
faure
fausse
fausses
faussete
faust
faut
faute
fautes
fauteuil
fauteuils
fauve
fauves
faux
faveur
faveurs
favorable
favorablement
favorables
favori
favoris
favorisant
favorise
favoriser
favorite
favre
fay
fayard
faye
fayette
fb
fbi
fbref
fc
fd
fe
fear
feat
featuring
february
fecond
feconde
fecondite
federal
federale
federales
federation
federations
federaux
federer
federes
federico
fee
feel
fees
felibrige
felicite
feliciter
felipe
felix
female
femelle
femelles
feminin
feminine
feminines
feminins
feminisme
feministe
feministes
femme
femmes
fenelon
fenetre
fenetres
fente
feodal
feodale
feodalite
fer
fera
ferai
feraient
ferais
ferait
feras
ferdinand
ferez
ferguson
feriez
ferma
fermant
ferme
fermee
fermees
fermement
ferment
fermentation
fermer
fermes
fermete
fermeture
fermier
fermiers
fernand
fernandez
fernando
feroce
feroces
ferocite
feroit
ferons
feront
ferrand
ferrare
ferrari
ferre
ferree
ferrees
ferrer
ferroviaire
ferroviaires
ferry
fers
ferte
fertile
fertiles
fertilite
fervent
ferveur
fes
fesses
festin
festival
festivals
fet
fetcey
fete
feter
fetes
feu
feuillage
feuillages
feuille
feuilles
feuillet
feuilleton
feuillets
feux
fev
fevrier
ff
fff
fg
fh
fi
fia
fiabilite
fiable
fiacre
fiancailles
fiance
fiancee
fiat
fiba
fibre
fibres
fiche
fiches
fichier
fichiers
fictif
fiction
fictions
fidele
fidelement
fideles
fidelite
fides
fidji
fief
fiefs
field
fields
fier
fiere
fierement
fiers
fierte
fievre
fievres
fifa
fig
figaro
fight
fighter
fighting
figurait
figurant
figure
figurent
figurer
figures
fil
file
filer
files
filet
filets
filiale
filiales
filiation
filiere
filippo
fille
filles
fillette
fillon
film
filme
filmographiques
filmportal
films
fils
filtre
fimes
fin
final
finale
finalement
finales
finaliste
finalistes
finance
financement
financer
finances
financial
financier
financiere
financieres
financiers
find
fine
finement
fines
finesse
fini
finie
finir
finira
finis
finissait
finissant
finissent
finistere
finit
finition
finlandais
finlandaise
finlande
finn
finnois
fins
fire
firent
firmament
firme
firmin
first
fis
fiscal
fiscale
fiscalite
fiscaux
fischer
fish
fishbase
fisher
fist
fit
fitzgerald
five
fixa
fixant
fixation
fixe
fixee
fixees
fixement
fixer
fixes
fj
fk
fl
flacon
flag
flamand
flamande
flamands
flambeau
flambeaux
flammarion
flamme
flammes
flanc
flancs
flandre
flandres
flanque
flash
flat
flatte
flatter
flatteur
flaubert
fleau
fleche
fleches
flechir
fleet
fleming
fletcher
fleur
fleuri
fleuris
fleurs
fleury
fleuve
fleuves
flic
flight
flora
floraison
flore
florence
florent
florentin
flores
florian
florida
floride
florins
floristique
flot
flots
flottant
flottante
flotte
flotter
flottes
flottille
floyd
fluide
fluides
flute
flutes
flux
fly
flying
fm
fn
fo
focus
foi
foible
foie
foin
foire
foires
fois
foix
fol
folie
folies
folio
folk
folklore
folle
folles
fon
fonce
foncier
fonciere
fonction
fonctionnaire
fonctionnaires
fonctionnalites
fonctionnant
fonctionne
fonctionnelle
fonctionnement
fonctionnent
fonctionner
fonctions
fond
fonda
fondamental
fondamentale
fondamentales
fondamentaux
fondant
fondateur
fondateurs
fondation
fondations
fondatrice
fonde
fondee
fondees
fondement
fondements
fondent
fonder
fonderie
fondes
fondre
fonds
fondu
fondue
font
fontaine
fontainebleau
fontaines
fonte
fontenay
fonts
food
foot
football
footballdatabase
footballeur
for
forall
forbes
forca
forcant
force
forcee
forcement
forcer
forces
ford
foreign
forest
forestier
forestiere
forestieres
forestiers
foret
forets
forever
forez
forfait
forge
forgeron
forges
form
forma
formaient
formait
formalites
formant
format
formates
formation
formations
formats
forme
formee
formees
formel
formelle
formellement
forment
former
formerent
formes
formidable
formidables
formula
formule
formuler
formules
forster
fort
forte
fortement
forteresse
forteresses
fortes
fortification
fortifications
fortifie
fortifiee
fortifier
fortin
forts
fortune
fortunes
forum
fosse
fosses
fossile
fossiles
foster
fou
foucault
foudre
fouet
fougeres
fouille
fouiller
fouilles
foule
foulee
foules
found
foundation
fouquet
four
fourche
fourier
fourmis
fourneau
fourneaux
fourni
fournie
fournier
fournies
fournir
fournis
fournissait
fournissant
fournissent
fournisseur
fournisseurs
fournit
fourre
fourrure
fourrures
fours
fous
foutre
fox
foy
foyer
foyers
fp
fq
fr
fra
frac
fracas
fraction
fractions
fracture
fragile
fragmens
fragment
fragments
fraiche
fraichement
fraiches
fraicheur
frais
franc
francais
francaise
francaises
france
frances
francesca
francesco
franceterme
francetvinfo
francfort
franche
franchement
franchi
franchir
franchise
franchises
franchit
francine
francis
francisco
franck
franco
francois
francoise
francophone
francophones
francophonie
francs
frank
franklin
frans
frantz
franz
frappa
frappait
frappant
frappante
frappe
frappee
frappent
frapper
frappes
fraser
fraternite
fraude
frayeur
fred
freddy
frederic
frederick
frederique
free
freedom
freeman
fregate
fregates
frein
freins
frele
fremir
french
frequemment
frequence
frequences
frequent
frequentation
frequente
frequenter
frequentes
frequents
frere
freres
fresque
fresques
fret
freud
fribourg
friday
friedrich
friend
friends
frise
frison
frisson
fritz
frivole
froid
froide
froidement
froides
froideur
froids
froissart
from
fromage
fromages
froment
fronde
front
frontiere
frontieres
fronton
fronts
frottement
fruit
fruits
fs
ft
fu
fugitif
fugitifs
fugue
fui
fuir
fuit
fuite
full
fume
fumee
fumees
fumer
fumes
fumier
fun
function
fund
funebre
funebres
funerailles
funeraire
funeraires
funeste
funestes
funk
fur
furent
fureur
fureurs
furie
furieuse
furieux
fury
fus
fusee
fusees
fusil
fusillade
fusille
fusilles
fusils
fusion
fusionne
fusse
fussent
fust
fut
futbol
futur
future
futures
futurs
fuyant
fv
fw
fx
fy
fz
fɔ
fɔʁ
fɛ
g
g0
g1
g2
g3
g4
g5
g6
g7
g8
g9
ga
gabon
gabriel
gabrielle
gael
gaelique
gaetan
gaffiot
gaga
gage
gages
gagna
gagnait
gagnant
gagne
gagnee
gagnent
gagner
gagnon
gai
gaia
gaie
gaiement
gaiete
gaillard
gain
gains
gaite
gal
gala
galant
galanterie
galaxie
galaxies
galaxy
gale
galere
galeres
galerie
galeries
galice
galicien
galilee
gall
gallery
galles
gallica
gallimard
gallo
gallois
galop
gambetta
game
games
gamespot
gamin
gamma
gamme
gand
gang
gant
gants
gao
gaon
gap
garage
garantie
garanties
garantir
garantit
garcia
garcon
garcons
gard
garda
gardait
gardant
garde
gardee
garden
gardens
gardent
garder
gardes
gardez
gardien
gardiens
gardiner
gardner
gare
gares
garibaldi
garni
garnie
garnier
garnison
garonne
garros
gars
gary
gas
gascogne
gascon
gaspard
gaston
gastronomie
gate
gateau
gateaux
gates
gauche
gaucher
gaule
gaules
gaulle
gaulois
gauloise
gauthier
gautier
gave
gay
gaz
gaza
gazette
gazon
gb
gbif
gc
gd
ge
geant
geante
geants
gel
gele
gelee
gemeinsame
gemir
gemissements
gemit
gen
gendarme
gendarmerie
gendarmes
gender
gendre
gene
genealogie
genealogique
genealogy
geneanet
gener
genera
general
generale
generalement
generales
generalisation
generalise
generaliste
generalistes
generalite
generateur
generation
generations
generaux
genere
generer
genereuse
genereux
generique
generiques
generosite
genes
genese
genesis
genetique
genetiques
geneve
genevieve
genevois
genie
genies
genitif
genocide
genois
genome
genou
genoux
genre
genres
gens
gent
gentil
gentile
gentilhomme
gentille
gentils
gentilshommes
gentleman
genus
geo
geoffrey
geoffroy
geog
geographe
geographic
geographie
geographique
geographiquement
geographiques
geography
geolocalisation
geological
geologie
geologique
geologiques
geologue
geometrie
geometrique
geometriques
geopolitique
geoportail
georg
george
georges
georgia
georgie
georgien
gerald
gerant
gerard
gere
geree
gerer
gerhard
germain
germaine
germains
german
germanie
germanique
germaniques
germano
germany
germe
germes
germinal
gerondif
gers
gertrude
gervais
geschichte
gesellschaft
gest
gestapo
geste
gestes
gestion
gestionnaire
get
gets
gf
gg
gh
ghana
ghetto
ghost
gi
giacomo
gianni
giant
giants
gibier
gibraltar
gibson
gide
gigantesque
gigantesques
gil
gilbert
giles
gilet
gilets
gill
gilles
gina
giorgio
giovanni
girard
girardin
giraud
girl
girls
gironde
girondins
gisement
gisements
git
gite
giulio
giuseppe
give
gj
gk
gl
glace
glacee
glaces
glaciaire
glacier
glaciers
glaive
glandes
glasgow
glass
glen
glenat
glenn
gli
glissa
glissant
glisse
glisser
global
globale
globalement
globe
globes
gloire
gloria
glorieuse
glorieux
glory
glossaire
gm
gmbh
gmina
gn
gnu
go
god
godard
godefroy
goelette
goes
goethe
going
gold
goldberg
golden
goldman
golf
golfe
gomez
gomillion
gomme
goncourt
gone
gonfle
gong
gonzague
gonzalez
good
google
gora
gordon
gorge
gorges
gosselin
got
gotha
gothique
gothiques
goths
gottingen
gouffre
gould
gout
goute
gouter
gouts
goutte
gouttes
gouv
gouvernail
gouvernance
gouvernante
gouverne
gouvernemens
gouvernement
gouvernemental
gouvernementale
gouvernementales
gouvernements
gouverner
gouverneur
gouverneurs
gov
government
goya
gp
gq
gr
grace
graces
gracieuse
gracieux
grade
grades
graduellement
graham
grain
graine
graines
grains
graisse
grammaire
grammes
grammy
gran
grand
grande
grandement
grandes
grandeur
grandeurs
grandi
grandiose
grandir
grandit
grands
grange
granges
granit
granite
grant
granville
graphe
graphie
graphique
graphiques
grappes
gras
grasse
grasset
gratitude
gratte
gratuit
gratuite
gratuitement
grav
grave
gravee
gravees
gravement
graver
graves
graveur
graveurs
gravir
gravite
gravure
gravures
gray
gre
great
greatest
grec
grece
greco
grecque
grecques
grecs
greek
green
greene
greenwood
greffe
greffier
greg
gregoire
gregorien
gregory
grele
grenade
grenades
grenadiers
grenier
grenoble
grenouille
grenouilles
gres
greve
greves
grey
griefs
grievement
griffes
griffin
griffith
grille
grilles
grimace
grimm
grimper
grin
grippe
gris
grise
grises
groenland
gronde
groot
gros
grosse
grosses
grossesse
grosseur
grossier
grossiere
grossierement
grossieres
grossiers
grotesque
grotte
grottes
ground
group
groupe
groupement
groupements
groupes
groups
grove
gs
gt
gu
guadeloupe
guard
guardian
guatemala
gue
guere
gueri
guerilla
guerin
guerir
guerison
guerit
guerra
guerre
guerres
guerrier
guerriere
guerriers
guest
guet
gueule
gueules
gueux
gui
guichet
guide
guider
guides
guido
guild
guillaume
guillemets
guillotine
guinee
guise
guitar
guitare
guitares
guitariste
guizot
gun
gunter
gunther
gus
gustav
gustave
guy
guyane
guyenne
guyot
gv
gw
gx
gy
gymnase
gymnastique
gz
h
h0
h1
h2
h3
h4
h5
h6
h7
h8
h9
ha
haas
hab
habile
habilement
habiles
habilete
habille
habillement
habiller
habit
habitaient
habitait
habitans
habitant
habitante
habitants
habitat
habitation
habitations
habitats
habite
habitee
habitent
habiter
habits
habitude
habitudes
habitue
habituel
habituelle
habituellement
habituelles
habituels
habitues
habsbourg
haby
hache
haches
hachette
had
hai
haie
haies
hainaut
haine
haines
hair
hais
haiti
hal
hale
haleine
half
halifax
hall
halle
halles
halloween
hallyday
halo
halte
ham
hambourg
hameau
hameaux
hamilton
hamlet
hammer
hammond
hampshire
han
hanches
hand
handball
handbook
handicap
hangar
hangeul
hank
hanna
hannah
hannibal
hanoi
hanovre
hans
hansen
hante
hanyu
happy
hara
harald
haras
harbor
harcelement
harcourt
hard
hardcore
hardi
hardie
hardiesse
hardiment
hardis
hardy
haricots
harlem
harmattan
harmonie
harmonieux
harmonique
harold
harpe
harper
harriet
harris
harrison
harry
hart
hartmann
harvard
harvey
has
hasard
hasards
hassan
hastings
hat
hata
hate
hater
hausse
haut
hautbois
haute
hautement
hautes
hauteur
hauteurs
hauts
havane
have
haven
havre
hawai
hawaii
hawkins
hay
haye
hayes
hb
hbo
hc
hd
he
head
health
heart
hearts
heat
heather
heaven
heavy
heavyweight
hebdo
hebdomadaire
hebdomadaires
heberge
hebergement
hebert
hebraique
hebreu
hebreux
hectare
hectares
hector
hegel
heidegger
heidelberg
hein
heine
heinrich
heinz
helas
helen
helena
helene
helice
helicoptere
helicopteres
hell
hellenique
hello
helmut
heloise
help
helsinki
hemisphere
henderson
henri
henriette
henry
her
herald
heraldique
herault
herbacee
herbe
herbert
herbes
hercule
here
hereditaire
hereditaires
heredite
heresie
heretiques
heritage
herite
heritier
heritiere
heritiers
herman
hermann
hermes
hermine
hernandez
hero
herode
herodote
heroes
heroine
heroique
heroiques
heroisme
heron
heros
herpetologie
herve
herzegovine
hesita
hesitait
hesitation
hesite
hesiter
hesitez
hesse
het
heterogenes
hetzel
heure
heures
heureuse
heureusement
heureuses
heureux
heurte
heurter
hf
hg
hh
hi
hidalgo
hideux
hier
hierarchie
hierarchy
higgins
high
highway
hilaire
hilal
hill
hills
him
himalaya
hindi
hindous
hip
hippocrate
hippodrome
hippolyte
hirondelle
his
hist
histogramme
histoire
histoires
historia
historic
historical
historien
historienne
historiens
historiographie
historique
historiquement
historiques
history
hit
hitchcock
hitler
hitparade
hits
hiver
hivers
hj
hk
hl
hm
hms
hn
ho
hoc
hockey
hoffman
hoffmann
hold
holding
holiday
holland
hollandais
hollandaise
hollande
holly
hollywood
holmes
holocauste
holotype
holstein
holt
holy
home
homer
homere
homicide
hommage
hommages
homme
hommes
homo
homogene
homologue
homonyme
homonymes
homonymie
homophone
homosexualite
homosexuel
homosexuels
hon
honda
honduras
hong
hongrie
hongrois
hongroise
honnete
honnetes
honnetete
honneur
honneurs
honor
honorable
honorables
honoraire
honore
honorer
honorifique
honoris
honte
honteuse
honteux
hood
hook
hop
hope
hopital
hopitaux
hopkins
horace
horaire
horaires
horde
horizon
horizons
horizontal
horizontale
horloge
hormis
horn
horreur
horreurs
horrible
horriblement
horribles
horror
hors
horse
hortense
horticulture
hospice
hospital
hospitalier
hospitaliers
hospitalite
host
hostile
hostiles
hostilite
hostilites
hot
hote
hotel
hotellerie
hotels
hotes
hotesse
hou
houille
hour
house
housing
houston
how
howard
howe
hp
hq
hr
hrvatska
hs
ht
htm
html
http
https
hu
huang
hubble
huber
hubert
hudson
hue
hugh
hughes
hugo
huguenots
hugues
hui
huile
huiles
huis
huissier
huit
huitieme
huitiemes
huitres
hull
hum
humain
humaine
humaines
humains
human
humanisme
humaniste
humanitaire
humanite
humbert
humble
humblement
humbles
humboldt
hume
humeur
humeurs
humide
humides
humidite
humiliation
humilie
humilite
humoriste
humoristique
humour
hung
hunt
hunter
hurricane
hussards
hussein
hutte
huy
hv
hw
hx
hy
hyacinthe
hybride
hybrides
hyde
hydraulique
hydro
hydroelectrique
hydrogene
hydrographique
hygiene
hymen
hymne
hymnes
hyper
hypocrisie
hypocrite
hypothese
hypotheses
hz
i
i0
i1
i2
i3
i4
i5
i6
i7
i8
i9
ia
iaaf
ian
ib
iberique
ibid
ibm
ibn
ibrahim
ic
ice
ich
ichtyologie
ici
icone
iconographie
icy
id
ida
ideal
ideale
idealisme
idee
idees
idem
identifiant
identification
identifie
identifiee
identifier
identifies
identique
identiques
identite
identity
ideologie
ideologique
idiot
ido
idolatrie
idole
idoles
ie
ieee
ien
iena
ier
if
ig
ign
ignace
ignoble
ignorait
ignorance
ignorant
ignorants
ignore
ignorent
ignorer
igor
ih
ii
iie
iihf
iii
iiie
ij
ijneæ
ik
il
ile
iles
iliade
ill
illatif
ille
illegal
illegale
illinois
illumine
illusion
illusions
illustrated
illustrateur
illustration
illustrations
illustre
illustree
illustrees
illustrer
illustres
ilot
ilots
ils
ilustrita
ilz
im
image
imagerie
images
imagina
imaginaire
imaginaires
imagination
imaginations
imagine
imaginer
imaginez
imam
imbecile
imbeciles
imdb
imitant
imitation
imite
imiter
immaculee
immateriel
immediat
immediate
immediatement
immense
immenses
immensite
immersion
immeuble
immeubles
immigrants
immigration
immigres
imminente
immobile
immobiles
immobilier
immobilite
immortalite
immortel
immortelle
immortels
immuable
immunite
imp
impact
impacts
impair
imparfait
impartialite
impasse
impassible
impatience
impatient
impatiente
impenetrable
imperatif
imperatrice
imperfectif
imperial
imperiale
imperiales
imperiaux
imperieux
impetueux
impie
impiete
impitoyable
implacable
implantation
implante
implantee
implantees
implantes
implication
implications
impliquant
implique
impliques
importait
importance
importans
important
importante
importantes
importants
importation
importations
importe
imposait
imposant
imposante
impose
imposee
imposees
imposent
imposer
imposes
imposition
impossibilite
impossible
impossibles
impot
impots
impr
impression
impressionne
impressions
imprevu
imprime
imprimee
imprimees
imprimer
imprimerie
imprimes
imprimeur
imprimeurs
improvisation
improviste
imprudence
imprudent
impuissance
impuissant
impuissante
impulsion
impunement
in
ina
inaccessible
inacheve
inactifs
inaction
inanime
inattendu
inattendue
inauguration
inaugure
inauguree
inc
incapable
incapables
incapacite
incarnation
incarne
incendie
incendies
incertain
incertaine
incertitude
incertitudes
incessamment
incidence
incident
incidents
incite
inclina
inclinaison
inclinant
inclination
incline
incliner
incluant
include
incluent
inclure
inclus
incluse
inclut
incomparable
incompatible
incomplete
incomprehensible
inconnu
inconnue
inconnues
inconnus
inconscient
incontestable
incontestablement
inconveniens
inconvenient
inconvenients
incorpore
incorporee
incredulite
incroyable
incursions
inde
indecis
indefini
indefiniment
indemnite
indenombrable
independamment
independance
independant
independante
independantes
independants
independent
indes
indeterminee
index
india
indian
indiana
indianapolis
indians
indicateur
indicateurs
indicatif
indication
indications
indice
indices
indien
indienne
indiennes
indiens
indifferemment
indifference
indifferent
indifferente
indigene
indigenes
indignation
indigne
indignes
indiquait
indiquant
indique
indiquee
indiquees
indiquent
indiquer
indiques
indirect
indirecte
indirectement
indispensable
indispensables
individu
individual
individualite
individuel
individuelle
individuellement
individuelles
individuels
individus
indo
indochine
indonesie
indonesien
indra
indre
induction
induit
indulgence
industrial
industrie
industriel
industrielle
industrielles
industriels
industries
industry
inebranlable
inedit
inedite
inedites
inedits
inegale
inegalite
inegalites
inepuisable
inerte
inertie
ines
inevitable
inexplicable
infaillible
infailliblement
infame
infamie
infanterie
infatigable
infection
infections
inferieur
inferieure
inferieures
inferieurs
inferiorite
infernal
infernale
infidele
infideles
infini
infinie
infinies
infiniment
infinite
infinitif
infirmiere
inflammation
inflation
inflexible
inflige
influence
influencer
influences
influent
info
infobox
infoclimat
information
informations
informatique
informatiques
informatise
informe
informer
informes
infortune
infortunes
infos
infra
infraction
infrared
infrarouge
infrastructure
infrastructures
infty
ingenierie
ingenieur
ingenieurs
ingenieuse
ingenieux
ingrat
ingratitude
ingredients
ingres
ingrid
inhume
iniquite
initial
initiale
initialement
initiales
initiateur
initiation
initiative
initiatives
initie
inities
injection
injure
injures
injuste
injustement
injustes
injustice
injustices
innocence
innocent
innocente
innocents
innombrables
innovation
innovations
inondation
inondations
inonde
inpn
inquiet
inquiete
inquieter
inquiets
inquietude
inquietudes
inquisition
inscription
inscriptions
inscrire
inscrit
inscrite
inscrites
inscrits
inscrivant
insecte
insectes
insee
insense
insensible
insensiblement
insere
inserer
insertion
inside
insigne
insignes
insista
insistance
insiste
insister
insolence
insolent
insouciance
inspecteur
inspecteurs
inspection
inspira
inspirait
inspirant
inspiration
inspirations
inspire
inspiree
inspirees
inspirent
inspirer
inspires
instabilite
instable
installa
installation
installations
installe
installee
installees
installent
installer
installes
instance
instances
instans
instant
instants
instar
instauration
instaure
instinct
instincts
institue
institut
institute
instituteur
instituteurs
institution
institutionnel
institutions
instituto
institutrice
instituts
instruction
instructions
instruire
instruit
instruits
instrumens
instrument
instrumental
instrumentale
instruments
insu
insuffisamment
insuffisance
insuffisant
insuffisante
insuffisantes
insulaire
insulte
insultes
insupportable
insurges
insurrection
int
intact
intacte
integral
integrale
integralement
integralite
integrant
integrante
integrated
integration
integre
integree
integrer
integres
integrite
intel
intellectuel
intellectuelle
intellectuelles
intellectuels
intelligence
intelligences
intelligent
intelligente
intelligents
intelligible
intendant
intense
intensite
intention
intentions
inter
interaction
interactions
interactive
intercommunal
intercommunale
intercommunalite
intercommunalites
interdiction
interdire
interdisant
interdit
interdite
interdites
interdits
interessait
interessant
interessante
interessantes
interessants
interesse
interessee
interessent
interesser
interesses
interet
interets
interface
interieur
interieure
interieurement
interieures
interieurs
interim
interlocuteur
intermediaire
intermediaires
intermediate
interministeriel
international
internationale
internationales
internationaux
interne
internes
internet
interpolation
interpretation
interpretations
interprete
interpretee
interpreter
interpretes
interrogation
interrogatoire
interroge
interrogea
interroger
interrompant
interrompit
interrompre
interrompt
interrompu
interrompue
interruption
intersection
intervalle
intervalles
intervenir
intervention
interventions
interviennent
intervient
interview
interviews
intime
intimement
intimes
intimite
intitule
intitulee
into
intolerable
intra
intransitif
intrepide
intrigue
intrigues
introduction
introduire
introduisit
introduit
introduite
introduites
introduits
intuition
inutile
inutilement
inutiles
invalides
invariable
invasion
invasions
inventaire
invente
inventee
inventer
inventeur
invention
inventions
inverse
inversement
investi
investigation
investigations
investir
investissement
investissements
investisseurs
investit
investiture
invincible
invisible
invisibles
invita
invitation
invite
invitee
inviter
invites
invocation
involontaire
involontairement
invoque
invoquer
io
ion
ions
iowa
ip
ipac
ipni
iq
ir
ira
irai
irait
irak
iran
iranien
iranienne
iras
ire
ireland
irene
iris
irish
irlandais
irlandaise
irlande
iron
ironie
ironique
irons
iront
iroquois
irregulier
irreguliere
irreprochable
irresistible
irrigation
irritation
irrite
irruption
irving
is
isaac
isabel
isabelle
isaie
isbn
isere
isidore
isis
islam
islamique
island
islandais
islande
islands
isle
ismael
iso
isole
isolee
isolees
isolement
isoler
isoles
israel
israelien
israelienne
israeliens
israelite
israelites
issn
issu
issue
issues
issus
ist
istanbul
istat
isthme
it
ita
italia
italian
italiana
italiani
italiano
italie
italien
italienne
italiennes
italiens
italique
italo
italy
item
itineraire
itineraires
itis
its
itunes
iu
iv
ivan
ive
ivoire
ivre
ivresse
ivrogne
ivry
iw
ix
ixe
iy
iz
j
j0
j1
j2
j3
j4
j5
j6
j7
j8
j9
ja
jack
jackie
jackson
jacky
jacob
jacobins
jacobs
jacqueline
jacques
jade
jadis
jaguar
jaillir
jaillit
jaime
jake
jakob
jalouse
jalousie
jaloux
jam
jamaique
jamais
jambe
jambes
jambon
james
jamie
jan
jane
janeiro
janet
janine
january
janv
janvier
japan
japanese
japon
japonais
japonaise
japonaises
jardin
jardinage
jardinier
jardins
jargon
jasmin
jason
jaucourt
jaunatre
jaune
jaunes
jaures
java
javier
jaweon
jay
jazyk
jazz
jb
jc
jd
je
jean
jeanne
jeannette
jeff
jefferson
jeffrey
jehan
jenkins
jennifer
jenny
jensen
jeremie
jeremy
jerome
jerry
jersey
jerusalem
jesse
jessica
jesuite
jesuites
jesus
jet
jeta
jetaient
jetait
jetant
jete
jetee
jeter
jeterent
jetes
jets
jette
jettent
jeu
jeudi
jeune
jeunes
jeunesse
jeux
jeuxvideo
jewish
jf
jg
jh
ji
jill
jim
jimmy
jin
jj
jk
jl
jm
jn
jo
joachim
joan
joao
joaquin
job
jocelyn
joconde
joe
joel
joey
johan
johann
johannes
john
johnny
johns
johnson
johnston
joie
joies
joignant
joignent
joignit
joindre
joins
joint
jointe
jointes
joints
joinville
joli
jolie
jolies
jolis
jolly
joly
jon
jonas
jonathan
jonction
jones
jong
jordan
jordanie
jorf
jorge
jos
jose
josef
joseph
josephe
josephine
josh
joshua
josiane
josue
joua
jouaient
jouait
jouant
joubert
joue
jouee
jouees
jouent
jouer
jouera
joues
jouet
jouets
joueur
joueurs
joueuse
joueuses
joug
joui
jouir
jouissait
jouissance
jouissances
jouissent
jouit
jour
jourdain
jourdan
journal
journalisme
journaliste
journalistes
journalrevue
journaux
journee
journees
journey
jours
joy
joyaux
joyce
joyeuse
joyeusement
joyeux
jp
jpg
jpl
jq
jr
js
jstor
jt
ju
juan
juda
judaisme
judas
judee
judet
judiciaire
judiciaires
judith
judo
judy
juge
jugea
jugeait
jugeant
jugee
jugees
jugemens
jugement
jugements
jugent
juger
juges
jugez
juif
juifs
juillet
juin
juive
juives
jules
julia
julian
julie
julien
julienne
juliette
julio
julius
july
jumeau
jumeaux
jumelles
jument
jump
jun
june
jung
jungle
junior
juniors
junte
jupe
jupes
jupiter
jura
jure
jurer
jures
jurgen
juridiction
juridictions
juridique
juridiquement
juridiques
jurisprudence
juriste
jury
jus
jusqu
jusque
jusques
just
juste
justement
justes
justesse
justice
justification
justifie
justifier
justin
justine
justinien
juvenile
juventus
jv
jw
jx
jy
jyutping
jz
jɔ
jə
jɛ
k
k0
k1
k2
k3
k4
k5
k6
k7
k8
k9
ka
kabylie
kahn
kai
kaiser
kal
kan
kane
kang
kangxi
kansas
kant
kara
karate
karel
karen
karim
karine
karl
karthala
kas
kate
katherine
kathleen
katie
kay
kayak
kazakh
kazakhstan
kazan
kaʁ
kb
kbk
kc
kd
ke
keep
keith
keller
kelly
ken
kennedy
kenneth
kenny
kent
kentucky
kenya
kepler
keuleers
kevin
kew
key
kf
kg
kh
khan
ki
kid
kids
kiel
kiev
kil
kill
killer
killing
kilogrammes
kilometre
kilometres
kilometrique
kilos
kim
king
kingdom
kings
kingston
kinshasa
kirby
kirk
kiss
kit
kitty
kj
kk
kl
klaus
klein
km
kn
knight
know
knowledge
ko
koch
kon
kong
konrad
korea
korean
kosovo
kotapedia
kotava
koweit
kp
kq
kr
kramer
ks
kt
ku
kun
kunst
kurde
kurdes
kurt
kv
kw
kx
ky
kyle
kyoto
kz
kɑ
kɔ
kə
kɛ
kʁa
kʁi
l
l0
l1
l2
l3
l4
l5
l6
l7
l8
l9
la
lab
label
labeur
labor
laboratoire
laboratoires
laboratory
laborieuse
laborieux
labour
laboureur
labrador
labyrinthe
lac
lachaise
lache
lacher
laches
lachete
lacoste
lacroix
lacs
lactee
lacunes
ladepeche
ladies
ladite
lady
lafayette
laffont
lagrange
lai
laicite
laics
laid
laide
laideur
laine
laique
laiques
laissa
laissaient
laissait
laissant
laisse
laissee
laissees
laissent
laisser
laissera
laisserait
laisserent
laisses
laissez
laissons
lait
lake
lam
lama
lamartine
lambda
lambeaux
lambert
lame
lamentable
lames
lampe
lampes
lamy
lan
lanca
lancant
lance
lancee
lancees
lancelot
lancement
lancent
lancer
lances
lanceur
lanceurs
land
landau
lande
landes
landry
lane
lang
langage
langages
lange
langlois
langres
language
languages
langue
languedoc
langues
langueur
lanka
lanterne
lanternes
lao
laon
laos
lapin
lapins
laplace
laquais
laquelle
lara
lard
large
largement
larges
largeur
larme
larmes
larousse
larry
lars
larves
las
laser
lasse
lassitude
last
lat
late
lateral
laterale
laterales
lateraux
latin
latine
latines
latino
latins
latitude
latium
latour
lattes
launch
laura
laure
laureat
laureate
laureats
lauren
laurence
laurens
laurent
laurie
laurier
lauriers
lausanne
laval
lave
laver
lavoir
law
lawrence
laye
lazare
lb
lbrace
lc
lccn
ld
ldh
ldots
le
lea
lead
leader
leaders
leadership
league
learning
leballonrond
leben
leblanc
lebrun
leclerc
lecon
lecons
leconte
lecteur
lecteurs
lecture
lectures
led
leda
ledit
lee
leeds
lefebvre
lefevre
lefigaro
left
legacy
legal
legale
legalement
legales
legalite
legat
legend
legendaire
legendaires
legende
legendes
legends
leger
legere
legerement
legeres
legerete
legers
legifrance
legion
legions
legislateur
legislateurs
legislatif
legislation
legislative
legislatives
legislature
legitime
legitimes
legitimite
legrand
legs
legue
legumes
leibniz
leicester
leigh
leipzig
leksikon
lemaire
lemaitre
leman
lemerre
lemoine
lemonde
lena
lendemain
lengadocians
lenine
leningrad
lennon
lenoir
lens
lent
lente
lentement
lenteur
lents
leo
leon
leonard
leonardo
leonce
leone
leonore
leopard
leopold
lepage
leparisien
lepidopteres
leq
lequel
lequipe
leroux
leroy
les
lesions
leslie
lesquelles
lesquels
lessports
lester
let
letter
letters
letton
lettonie
lettre
lettres
leu
leur
leurs
leva
levait
levant
leve
levee
levees
level
levent
lever
leves
levesque
levi
levier
levine
levis
levre
levres
levy
lewis
lex
lexicon
lexikon
lexique
lexpress
leyde
lez
lezard
lf
lfp
lg
lgbt
lh
li
lia
liaison
liaisons
liant
lib
liban
libanais
liber
liberal
liberale
liberales
liberalisme
liberation
liberaux
libere
liberee
liberer
liberes
libertaire
liberte
libertes
liberty
libraire
libraires
librairie
libraries
library
libre
librement
libres
libye
lice
licence
licences
licencie
liddell
lie
liechtenstein
liee
liees
liege
liegeois
lien
liens
lier
lierre
lies
lieu
lieue
lieues
lieutenant
lieutenants
lieux
lievre
life
liga
light
lights
ligne
lignee
lignes
ligue
ligues
like
lil
lilas
lille
lily
lim
lima
limbourg
limitation
limitations
limite
limited
limitee
limitees
limiter
limites
limitrophe
limitrophes
limits
limoges
limousin
limpide
lin
lincoln
linda
lindsay
line
lineaire
lineaires
linear
lines
ling
linge
lingua
linguiste
linguistics
linguistique
linguistiques
link
linnaeus
linne
linux
lion
lionel
lions
liqueur
liqueurs
liquidation
liquide
liquides
lire
lis
lisa
lisait
lisant
lisbonne
lise
lisette
lisez
lisiere
lisieux
lisle
lisse
lisses
list
lista
liste
listes
liszt
lit
literature
litre
litres
lits
litt
litteraire
litteraires
litteralement
litterature
litteratures
little
littoral
littre
lituanie
lituanien
liturgie
liturgique
liu
liv
live
liverpool
lives
living
livra
livraison
livrait
livrant
livre
livree
livrees
livrent
livrer
livres
livret
liz
lj
lk
ll
lloyd
lm
ln
lnh
lo
loc
local
locale
localement
locales
localisation
localise
localisee
localite
localites
locataires
locatif
location
locaux
locke
locomotive
locomotives
locuteurs
locution
log
logan
loge
logement
logements
loger
loges
logic
logiciel
logiciels
logique
logiquement
logiques
logis
logistique
logo
loi
loic
loin
loing
lointain
lointaine
lointaines
lointains
loir
loire
loiret
lois
loisir
loisirs
loix
lola
lombard
lombardie
lombards
lon
london
londres
long
longe
longeant
longitude
longs
longtemps
longue
longuement
longues
longueur
longueurs
longueville
look
lopez
lor
lord
lords
lorenzo
lorient
lorrain
lorraine
lors
lorsqu
lorsque
los
lost
lot
lots
lotus
lou
louange
louanges
loue
louer
louis
louise
louisiane
loup
loups
lourd
lourde
lourdement
lourdes
lourds
louvain
louvre
love
low
lowe
lower
loyal
loyaute
loyer
lozere
lp
lq
lr
ls
lt
ltd
lu
lublin
luc
luca
lucas
luce
lucia
luciano
lucie
lucien
lucienne
lucifer
lucile
lucius
lucky
lucratif
lucrece
lucy
ludovic
ludwig
lue
lueur
lueurs
luftwaffe
lugubre
lui
luigi
luis
luke
lumiere
lumieres
lumineuse
lumineuses
lumineux
luminosite
luna
lunaire
lunar
lundi
lune
lunette
lunettes
luo
lupin
lus
lustre
lut
luth
luther
lutte
lutter
luttes
lux
luxe
luxembourg
luxembourgeois
luy
luz
lv
lw
lx
ly
lycee
lycees
lydia
lynch
lynn
lynx
lyon
lyonnais
lyonnaise
lyre
lyrique
lyriques
lys
lz
lɑ
lɔ
lə
lɛ
m
m0
m1
m2
m3
m4
m5
m6
m7
m8
m9
ma
maastricht
mac
macao
macdonald
macedoine
macedonien
machiavel
machinalement
machine
machines
machoire
mack
mackenzie
macmillan
macon
maconnerie
maconnique
macons
macron
mad
madagascar
madame
made
madeleine
mademoiselle
madison
madone
madonna
madrid
mafia
mag
magasin
magasins
magazine
magazines
magdalena
mages
maggie
maghreb
magic
magicien
magie
magique
magiques
magistrat
magistrats
magistrature
magnetique
magnetiques
magnificence
magnifique
magnifiques
magnitude
magnus
mahmoud
mahomet
mai
maigre
maigres
maigret
mail
maille
mailles
maillot
maillots
main
maine
mains
maint
maintenance
maintenant
maintenir
maintenon
maintenu
maintenue
maintes
maintien
maintiennent
maintient
mainzer
maire
maires
mairie
mais
maison
maisonneuve
maisons
maistre
maitre
maitres
maitresse
maitresses
maitrise
maitriser
maitron
majeste
majestueux
majeur
majeure
majeures
majeurs
major
majoritaire
majoritairement
majorite
majorque
majuscule
make
makes
making
mal
malade
malades
maladie
maladies
malaga
malais
malaise
malaisie
malawi
malcolm
maldives
male
malediction
males
malgache
malgre
malherbe
malheur
malheureuse
malheureusement
malheureuses
malheureux
malheurs
mali
malice
malik
malin
malines
mallarme
malle
mallet
malo
malte
mama
maman
mammiferes
man
management
manager
managers
manche
manches
manchester
mandarin
mandat
mandats
mande
mandera
manege
manfred
manga
mange
mangeait
mangent
manger
manhattan
manie
manier
maniere
manieres
manifestants
manifestation
manifestations
manifeste
manifestement
manifestent
manifester
manipulation
manitoba
mann
mannequin
manning
manoir
manon
manqua
manquaient
manquait
manquant
manquante
manquantes
manque
manquent
manquer
mans
manteau
manteaux
mantoue
manu
manuel
manuels
manufacture
manufactures
manuscrit
manuscrits
many
manœuvre
manœuvres
mao
map
maps
maquette
maquis
mar
marais
marat
marathon
marbre
marbres
marc
marcel
marcelle
marcellin
marcello
march
marcha
marchaient
marchait
marchand
marchande
marchandise
marchandises
marchands
marchant
marche
marchent
marcher
marches
marco
marcos
marcus
mardi
mare
marechal
marechaux
maree
marees
margaret
marge
marges
margot
marguerite
mari
maria
mariage
mariages
marianne
mariano
marie
mariee
mariees
marier
maries
mariette
marigny
marilyn
marin
marina
marine
marines
marino
marins
mario
marion
marionnettes
maris
maritime
maritimes
marius
mark
market
marketing
marks
marly
marmite
marne
maroc
marocain
marocaine
marocains
marqua
marquant
marque
marquee
marquees
marquent
marquer
marques
marquis
marquise
marraine
marrakech
marron
mars
marsan
marseillais
marseillaise
marseille
marshall
marta
marteau
martel
martha
marthe
martial
martiaux
martin
martine
martinez
martinique
marty
martyr
martyre
martyrs
marvel
marvin
marx
marxiste
mary
maryland
mas
masculin
masculine
masculins
mashke
masiero
mason
masque
masques
mass
massa
massachusetts
massacre
massacres
masse
masses
massif
massifs
massimo
massive
masson
master
masters
mat
match
matches
matchs
matelas
matelot
matelots
mater
materialisme
materiau
materiaux
materiel
materielle
materielles
materiels
maternel
maternelle
maternite
math
mathbb
mathbf
mathcal
mathematical
mathematicien
mathematiciens
mathematics
mathematique
mathematiques
mathias
mathieu
mathilde
mathrm
matiere
matieres
matin
matinee
matins
matrice
matricule
matrix
mats
matt
matteo
matter
matthew
matthias
matthieu
maturite
maud
maudit
maudite
maupassant
maur
maure
maures
maurice
maurienne
maurin
mauritanie
mauro
maury
mausolee
mauvais
mauvaise
mauvaises
maux
max
maxi
maximal
maximale
maxime
maximes
maximilien
maximum
maxwell
may
maya
mayence
mayenne
mayer
mayo
mayor
mayotte
mazarin
mazovie
maʁ
mb
mc
mccarthy
mccartney
mccune
mcdonald
mcgill
mclaren
mcmillan
md
me
meaux
mecanicien
mecanique
mecaniques
mecanisme
mecanismes
mecene
mechancete
mechant
mechante
mechants
meche
mecklembourg
meconnaitre
meconnu
mecontent
mecontentement
mecque
med
medaille
medaillee
medailles
medaillon
medal
medecin
medecine
medecins
media
mediane
mediapart
medias
mediateur
mediatheque
mediation
mediatique
medical
medicale
medicales
medicament
medicaments
medicaux
medicine
medicis
medico
medien
medieval
medievale
medievales
medina
mediocre
mediocrement
mediocres
mediocrite
meditation
meditations
medite
mediterranee
mediterraneen
mediterraneenne
medium
meet
meeting
mefiance
mega
mei
meilleur
meilleure
meilleures
meilleurs
mein
mel
melait
melancolie
melancolique
melange
melanges
melanie
melant
melbourne
melchior
mele
melee
melees
melent
meler
meles
melissa
mello
melodie
melodies
melon
melun
mem
members
membrane
membre
membres
meme
memes
memoire
memoires
memorable
memorial
memory
memphis
men
mena
menacait
menacant
menacante
menace
menacee
menacees
menacent
menacer
menaces
menage
menager
menages
menait
menant
menard
mendes
mendiant
mendiants
mendoza
mene
menee
menees
menent
mener
menes
meneur
menhir
mens
mensonge
mensonges
mensuel
mensuelle
ment
mental
mentale
menteur
menti
mention
mentionne
mentionnee
mentionnees
mentionner
mentionnes
mentions
mentir
menton
mentor
menu
menus
mepris
meprise
mepriser
mer
mercato
mercedes
mercenaires
merci
mercier
mercredi
mercure
mercury
mercy
mere
meres
meridien
meridional
meridionale
meridionales
merimee
meritait
merite
meritent
meriter
merites
merle
merlin
mers
merveille
merveilles
merveilleuse
merveilleusement
merveilleuses
merveilleux
mes
mesdames
mesme
mesmes
mesnil
mesopotamie
message
messager
messages
messe
messes
messie
messieurs
messine
messire
mesurant
mesure
mesuree
mesurent
mesurer
mesures
met
meta
metacritic
metadonnees
metal
metallique
metalliques
metallurgie
metamorphose
metamorphoses
metaphore
metaphysique
metaux
meteo
meteofrance
meteorologie
meteorologique
meteorologiques
methode
methodes
methodique
metier
metiers
metis
metrage
metrages
metre
metres
metrique
metro
metrologie
metropole
metropolitain
metropolitaine
metropolitan
mets
mettaient
mettait
mettant
mette
mettent
metteur
mettez
mettons
mettra
mettrait
mettre
metz
meuble
meubles
meudon
meunier
meure
meurent
meurs
meurt
meurthe
meurtre
meurtres
meurtrier
meurtriere
meurtriers
meuse
meut
mexicain
mexicaine
mexicains
mexico
mexique
meyer
mezieres
meſme
mf
mg
mgr
mh
mhz
mi
mia
miami
michael
michaud
michel
michele
michelet
michelin
michelle
michigan
mick
mickey
micro
microscope
microsoft
mid
middle
midi
midnight
mie
miel
mien
mienne
miens
mieux
mignon
mignonne
migrants
migration
migrations
miguel
mike
mikhail
mil
milady
milan
milano
mile
miles
milice
milices
milieu
milieux
militaire
militaires
militant
militante
militants
military
milite
mill
mille
millenaire
miller
milles
millesimee
millet
milliard
milliards
millier
milliers
millimetres
million
millions
mills
milord
milton
milwaukee
mimi
min
mina
minas
mince
minces
mind
mine
minerai
mineral
minerales
mineralogie
mineraux
minerve
mines
mineur
mineure
mineures
mineurs
ming
minh
mini
miniature
miniatures
minier
miniere
minieres
minimale
minimum
minister
ministere
ministeres
ministeriel
ministerielle
ministre
ministres
ministry
minnesota
minor
minorite
minorites
minsk
minuit
minuscule
minute
minutes
mir
mirabeau
miracle
miracles
miraculeuse
mirage
miranda
mireille
mirent
miroir
miroirs
mirror
mis
mise
miserable
miserables
misere
miseres
misericorde
mises
miss
missile
missiles
mission
missionnaire
missionnaires
missions
mississippi
missouri
mister
mistral
mistress
mit
mitchell
mitrailleuses
mitterrand
mix
mixte
mixtes
mj
mk
ml
mlb
mlle
mm
mme
mn
mo
mobile
mobiles
mobilier
mobilisation
mobilise
mobilite
mod
modalites
mode
model
modele
modeles
modelisation
modene
moderation
modere
moderee
moderes
modern
moderne
modernes
modernisation
modernite
modes
modeste
modestes
modestie
modifiant
modification
modifications
modifie
modifiee
modifiees
modifier
modifies
module
modules
moelle
mohamed
mohammad
mohammed
moi
moindre
moindres
moine
moines
moins
mois
moise
moisson
moissons
moitie
mojo
mol
molaire
moldavie
mole
moleculaire
molecular
molecule
molecules
moliere
molle
mollesse
mollusques
molly
momens
moment
momentanement
moments
mon
mona
monachisme
monaco
monarchie
monarchique
monarque
monastere
monasteres
monastique
monceau
mondaine
monday
monde
mondefootball
mondes
mondial
mondiale
mondiales
mondiaux
monetaire
money
mongol
mongolie
mongols
monica
monique
moniteur
monk
monnaie
monnaies
monnier
mono
monographie
monoplace
monopole
monotone
monotonie
monroe
mons
monseigneur
monsieur
monster
monstre
monstres
monstrueuse
monstrueux
mont
monta
montage
montagnards
montagne
montagnes
montagneux
montaient
montaigne
montait
montana
montant
montauban
montbeliard
monte
montee
montees
montenegro
montent
monter
montes
montesquieu
montevideo
montfort
montgomery
monthly
montigny
montmartre
montmorency
montparnasse
montpellier
montra
montraient
montrait
montrant
montre
montreal
montree
montrent
montrer
montrerent
montres
montreuil
monts
monture
monumens
monument
monumental
monumentale
monuments
moon
moore
moque
moquer
moral
morale
moralement
morales
moralite
moraux
morbihan
morceau
morceaux
mordre
more
moreau
morel
moreno
morgan
mori
morin
moritz
morlaix
morne
morning
morobashi
morphologie
morris
morrison
mors
mort
mortalite
morte
mortel
mortelle
mortellement
mortels
mortes
mortier
mortimer
morton
morts
morvan
mosaique
mosaiques
moscou
moselle
mosquee
mosquees
moss
most
mot
moteur
moteurs
mother
motif
motifs
motion
motivation
motive
moto
motor
motorsport
motrice
motrices
mots
motte
mou
mouche
mouches
mouchoir
mouille
moule
moules
moulin
moulins
moult
mount
mountain
mourait
mourant
mourir
mourra
mourut
mouse
mousquetaires
moussa
mousse
moustache
moustaches
mouton
moutons
mouvemens
mouvement
mouvements
mouvoir
move
movement
movie
movies
moy
moyen
moyennant
moyenne
moyennes
moyens
mozambique
mozart
mp
mpc
mq
mr
mrc
mrs
ms
mt
mtv
mu
much
muet
muets
muette
muhammad
mul
mule
mulhouse
muller
multi
multimedia
multiple
multiples
multiplication
multiplicite
multiplie
multiplient
multiplier
multitude
munchen
mundi
mundo
muni
munich
municipal
municipale
municipales
municipalite
municipalites
municipaux
munie
munis
munitions
munster
munzinger
mur
muraille
murailles
murales
murat
murder
mure
muriel
murmura
murmure
murmures
murphy
murray
murs
mus
muscle
muscles
musculaire
muse
museau
musee
musees
museo
muses
museum
music
musica
musical
musicale
musicales
musicaux
musicbrainz
musicien
musiciens
musique
musiques
musset
mussolini
must
musulman
musulmane
musulmanes
musulmans
mutation
mutations
mutualart
mutuel
mutuelle
mutuellement
muziekweb
mv
mvp
mw
mx
my
myers
myriam
mystere
mysteres
mysterieuse
mysterieuses
mysterieux
mystery
mysticisme
mystique
mystiques
mythe
mythes
mythique
mythologie
mz
mœurs
mɑ
mɔ
mə
mɛ
n
n0
n1
n2
n3
n4
n5
n6
n7
n8
n9
na
nach
nacional
nad
nadal
nadia
nadine
nage
nager
nageur
naguere
naif
nain
nains
naissance
naissances
naissant
naissante
naissent
nait
naitre
naive
naivement
naivete
nam
name
named
names
namibie
namur
nan
nana
nancy
nanterre
nantes
naomi
naples
napoleon
nappe
naquit
narbonne
narcisse
narines
narrateur
narration
nas
nasa
nash
nashville
nassau
nat
natacha
natal
natale
natalia
natalie
natation
nathalie
nathan
natif
nation
nationaal
national
nationale
nationalencyklopedin
nationales
nationalisme
nationaliste
nationalistes
nationalite
nationalites
nationaux
nations
native
nativite
natura
natural
naturaliste
naturalistes
nature
naturel
naturelle
naturellement
naturelles
naturels
natures
naufrage
naufrages
nautiques
naval
navale
navales
navarre
navarro
navette
navigateur
navigateurs
navigation
navire
navires
navy
nazaire
nazareth
nazi
nazie
nazis
nazisme
nb
nba
nbc
nc
ncaa
ncbi
nd
ne
neal
neanmoins
neant
near
nebraska
nec
necessaire
necessairement
necessaires
necessitant
necessite
necessitent
necessites
necker
necropole
ned
nederlanders
nederlandse
nee
need
neerlandais
neerlandaise
neerlandaises
nees
nef
nefs
negatif
negatifs
negation
negative
negatives
neglige
negligeable
negligence
negliger
negoce
negociant
negociants
negociation
negociations
negocie
negocier
negre
negres
negro
neige
neiges
neil
neill
nel
nellie
nelly
nelson
nemours
neo
neolithique
neowise
nepal
neptune
nerf
nerfs
neron
nerveuse
nerveux
nes
nestor
net
netflix
nets
nette
nettement
nettete
nettoyage
nettoyer
network
neuchatel
neue
neuf
neufs
neuilly
neutralite
neutre
neutres
neuve
neuves
neuvieme
neuville
nevada
never
nevers
neveu
neveux
new
newcastle
newman
newport
news
newton
next
nez
nf
nfl
ng
ngc
nguyen
nh
nhl
ni
nicaragua
nice
niche
niches
nicholas
nicht
nick
nickel
nico
nicola
nicolas
nicole
nicot
nid
nids
nie
niece
nielsen
nier
nietzsche
nievre
nigel
niger
nigeria
night
nikolai
nil
nimes
nina
nine
ninja
nino
nintendo
niort
niveau
niveaux
nixon
nj
nk
nl
nm
nn
no
noah
noailles
nobel
noble
nobles
noblesse
noce
noces
nocturne
nocturnes
noe
noel
nogent
noir
noire
noires
noirs
noix
nom
nomades
nombre
nombres
nombreuse
nombreuses
nombreux
nomenclature
nominale
nominatif
nomination
nominations
nomine
nomma
nommait
nomme
nommee
nommees
nomment
nommer
nommes
noms
non
noosfere
nor
nora
norbert
nord
nordique
norfolk
normal
normale
normalement
normales
normalisee
norman
normand
normande
normandie
normands
normdatei
norme
normes
norske
north
northern
norton
norvege
norvegien
norvegienne
nos
nostalgie
nostre
not
nota
notable
notables
notaire
notaires
notamment
notation
note
notee
noter
notes
notez
nothing
notice
notices
notion
notions
notons
notoriete
notre
notres
noue
noumea
nourri
nourrice
nourrir
nourris
nourrissent
nourrit
nourriture
nous
nouv
nouveau
nouveaute
nouveautes
nouveaux
nouvel
nouvelle
nouvellement
nouvelles
nov
nova
novel
november
novembre
novi
novice
novo
now
noyau
noyaux
noye
noyer
np
nq
nr
nrj
ns
nt
nu
nuage
nuages
nuance
nuances
nucleaire
nucleaires
nuclear
nudite
nue
nuee
nuees
nues
nuevo
nuire
nuisible
nuisibles
nuit
nuits
nul
nulle
nullement
nuls
number
numbers
numeral
numerique
numeriques
numerise
numero
numeros
numerotation
numismatique
nuque
nuremberg
nus
nutrition
nv
nw
nwa
nx
nxt
ny
nymphe
nymphes
nz
nœud
nœuds
nɑ
nɔ
nə
nɛ
o
o0
o1
o2
o3
o4
o5
o6
o7
o8
o9
oa
oakland
oasis
ob
obama
obei
obeir
obeissance
obeissant
obeit
object
objectif
objectifs
objection
objections
objective
objet
objets
oblast
obligation
obligations
obligatoire
obligatoirement
obligatoires
oblige
obligea
obligeant
obligee
obligent
obliger
obliges
oblique
obs
obscur
obscure
obscures
obscurite
obscurs
obseques
observa
observait
observant
observateur
observateurs
observation
observations
observatoire
observe
observee
observees
observer
observes
obsession
obstacle
obstacles
obstination
obstine
obstinement
obtenant
obtenir
obtention
obtenu
obtenue
obtenues
obtenus
obtiennent
obtient
obtint
obus
oc
occasion
occasionnellement
occasions
occident
occidental
occidentale
occidentales
occidentaux
occitan
occitanie
occupa
occupaient
occupait
occupant
occupants
occupation
occupations
occupe
occupee
occupees
occupent
occuper
occupes
occurrence
ocean
oceanie
oceanique
oceaniques
oceans
oclc
oct
octave
october
octobre
octroi
od
ode
odeon
oder
odes
odessa
odette
odeur
odeurs
odieuse
odieux
odile
odyssee
oe
oeuvre
oeuvres
of
ofdb
off
offense
offenser
offensif
offensive
offert
offerte
offertes
offerts
office
offices
official
officialise
officiel
officielle
officiellement
officielles
officiels
officier
officiers
offraient
offrait
offrande
offrandes
offrant
offre
offrent
offres
offrir
offrit
og
ogives
oh
ohio
oi
oie
oies
oignons
oil
oise
oiseau
oiseaux
oisivete
oj
ok
oklahoma
ol
old
olga
olive
oliver
olivia
olivier
oliviers
ollendorff
ollivier
olympe
olympedia
olympia
olympic
olympics
olympique
olympiques
om
oman
omar
ombrage
ombre
ombres
omega
omer
omis
omnibus
omnisports
oms
on
once
onces
oncle
onde
onderzoek
ondes
one
ong
ongles
online
only
ont
ontario
onu
onze
onzieme
oo
op
open
openstreetmap
opera
operant
operas
operateur
operateurs
operation
operationnel
operationnelle
operations
operatorname
opere
operer
operette
opiniatre
opinion
opinions
opium
opportunite
opposa
opposait
opposant
opposants
oppose
opposee
opposees
opposent
opposer
opposes
opposition
oppositions
oppression
option
options
optique
optiques
opulence
opus
oq
or
oracle
oracles
orage
orages
oraison
oral
orale
oran
orange
orateur
orateurs
oratoire
orbite
orchestra
orchestre
order
ordinaire
ordinairement
ordinaires
ordinateur
ordinateurs
ordonna
ordonnance
ordonnances
ordonne
ordonnee
ordonner
ordre
ordres
ordures
oregon
oreille
oreiller
oreilles
org
organe
organes
organique
organiques
organisa
organisateur
organisateurs
organisation
organisations
organise
organisee
organisees
organisent
organiser
organises
organisme
organismes
organiste
organization
orge
orgue
orgueil
orgueilleuse
orgueilleux
orgues
oricon
orient
oriental
orientale
orientales
orientation
orientaux
oriente
orientee
orienter
origin
originaire
originaires
original
originale
originales
originalite
originaux
origine
originel
originelle
originellement
origines
origins
orion
orlando
orleans
orne
ornee
ornees
ornemens
ornement
ornements
orner
ornes
ornithologie
ornithologique
oro
orphee
orphelin
orpheline
orphelins
orsay
orstom
orthodoxe
orthodoxes
orthodoxie
orthodromie
orthodromiques
orthographe
orthographie
orthographique
os
osa
osait
osaka
oscar
oscars
ose
osent
oser
oserait
oslo
ossements
ost
oswald
ot
ota
otage
otages
otan
ote
oter
other
othon
ottawa
otto
ottoman
ottomane
ottomans
ou
oubli
oublia
oubliait
oubliant
oublie
oubliee
oubliees
oublier
oublies
oubliez
oublions
oued
ouen
ouest
ouganda
oui
ouie
our
ouragan
ours
out
outil
outils
outrage
outrages
outrance
outre
ouvert
ouverte
ouvertement
ouvertes
ouverts
ouverture
ouvertures
ouvrage
ouvrages
ouvrait
ouvrant
ouvre
ouvrent
ouvrez
ouvrier
ouvriere
ouvrieres
ouvriers
ouvrir
ouvrirent
ouvrit
ouzbekistan
ov
ovale
over
overline
overrightarrow
overview
ovide
ow
owen
own
ox
oxford
oxyde
oxygene
oy
oz
ozap
p
p0
p1
p2
p3
p4
p5
p6
p7
p8
p9
pa
pablo
pacha
pacific
pacifique
pacifiques
pack
pacte
padoue
pag
paganisme
page
pages
paie
paiement
paien
paiens
paille
pain
pains
pair
paire
paires
pairie
pairs
pais
paisible
paisiblement
paisibles
paix
pakistan
pal
palace
palais
palatin
palatinat
palazzo
pale
paleobiology
paleontologie
palerme
pales
palestine
palestinien
palestiniens
palette
paleur
palier
palissy
pallas
palm
palma
palmares
palme
palmer
palmes
palmier
palmiers
pamela
pamphlet
pan
panama
pandemie
panier
paniers
panique
panne
panneau
panneaux
panorama
pans
pantalon
pantheon
panthere
paolo
papa
papaute
pape
paper
papers
papes
papier
papiers
papillon
papillons
papouasie
papyrus
paquebot
paques
paquet
paquets
par
para
parabole
parachever
parade
paradis
paradise
paradoxe
parages
paragraphe
paragraphes
paraguay
paraissaient
paraissait
paraissant
paraissent
parait
paraitra
paraitre
parallele
parallelement
paralleles
paralympiques
parametre
parametres
paramount
parasite
parasites
parbleu
parc
parce
parcelle
parcelles
parchemin
parcimonie
parcourant
parcourir
parcours
parcourt
parcouru
parcourue
parcs
pardon
pardonne
pardonner
pardonnez
pare
pareil
pareille
pareillement
pareilles
pareils
parens
parent
parente
parentheses
parents
parer
paresse
paresseux
parfait
parfaite
parfaitement
parfaits
parfois
parfum
parfums
pari
paris
parisc
parisctome
parisien
parisienne
parisiennes
parisiens
parisv
parisvtome
park
parker
parking
parks
parla
parlaient
parlais
parlait
parlant
parlars
parle
parlee
parlement
parlementaire
parlementaires
parlent
parler
parlerai
parles
parlez
parliament
parlons
parme
parmi
parnasse
parodie
paroi
parois
paroisse
paroisses
paroissiale
paroit
paroitre
parole
paroles
parquet
parrain
pars
part
partage
partageait
partageant
partagee
partagent
partager
partages
partait
partant
parte
partenaire
partenaires
partenariat
partent
parterre
partez
parti
partial
participa
participant
participants
participation
participations
participe
participent
participer
particularite
particularites
particule
particules
particulier
particuliere
particulierement
particulieres
particuliers
partie
partiel
partielle
partiellement
partielles
parties
partir
partirent
partis
partisan
partisans
partit
partition
partitions
partons
partout
parts
party
paru
parue
parure
parurent
parus
parut
parution
parvenir
parvenu
parvenue
parvenus
parviennent
parvient
parvint
parvis
pas
pascal
pascale
pasquier
pass
passa
passage
passager
passagere
passagers
passages
passaient
passait
passant
passants
passe
passee
passees
passent
passeport
passer
passera
passerelle
passerent
passes
passez
passif
passion
passionne
passionnee
passionnement
passionnes
passions
passive
passons
passy
past
pasteur
pasteurs
pastorale
pat
pate
patentes
paternel
paternelle
paternite
pates
path
pathe
pathetique
pathologie
patiemment
patience
patient
patiente
patients
patinage
patois
patriarche
patrice
patricia
patrick
patrie
patrimoine
patriote
patriotes
patriotique
patriotisme
patron
patronage
patronne
patrons
patronyme
patrouille
patte
patterson
pattes
paturages
pature
pau
paul
paula
paule
paulin
pauline
paulo
paume
paupieres
pause
pauvre
pauvres
pauvrete
pave
pavel
paves
pavie
pavillon
pavillons
paweł
payait
payant
paye
payee
payer
payes
payne
payot
pays
paysage
paysages
paysan
paysanne
paysans
paz
paʁ
pb
pc
pcf
pd
pdf
pdg
pe
peace
peage
pearl
pearson
peau
peaux
peche
pecher
peches
pecheur
pecheurs
pedagogie
pedagogique
pedagogiques
pedagogue
pedro
peel
pegaz
peigne
peindre
peine
peines
peint
peinte
peintes
peintre
peintres
peints
peinture
peintures
pekin
pele
pelerin
pelerinage
pelerins
pelle
pelletier
peloponnese
peloton
pelouse
pelouses
pen
penal
penale
penalite
penalty
pencha
penchant
penche
penchee
pencher
pendant
pendre
pendu
pendule
penelope
penetra
penetrant
penetration
penetre
penetrent
penetrer
penguin
penible
peniblement
penibles
peninsule
penitence
penkyamp
penn
pennsylvania
pennsylvanie
penny
pensa
pensai
pensaient
pensais
pensait
pensant
pense
pensee
pensees
pensent
penser
penses
penseur
penseurs
pensez
pensif
pension
pensionnaire
pensionnaires
pensions
pensons
pente
pentes
penurie
people
pepe
pepin
per
perce
percee
perception
perceptions
percer
percevoir
perche
percoit
percu
percussion
percussions
percy
perd
perdait
perdant
perdent
perdit
perdre
perdrix
perds
perdu
perdue
perdues
perdus
pere
peres
perez
perfect
perfection
perfectionne
perfectionnement
perfectionner
perfide
perfidie
performance
performances
peri
perier
perigord
perigueux
perihelie
peril
perilleux
perils
perimetre
period
periode
periodes
periodique
periodiques
peripeties
peripherie
peripherique
peripheriques
perir
perit
perle
perles
permanence
permanent
permanente
permanentes
permanents
permet
permettaient
permettait
permettant
permette
permettent
permettez
permettra
permettrait
permettre
permirent
permis
permission
permit
perou
perouse
perpendiculaire
perpetuel
perpetuelle
perpetuellement
perpetuer
perpetuite
perpignan
perrault
perret
perrier
perrin
perron
perroquet
perrot
perruque
perry
persan
perse
persecution
persecutions
persee
perses
perseverance
persistance
persiste
person
personal
personnage
personnages
personnalite
personnalites
personne
personnel
personnelle
personnellement
personnelles
personnels
personnes
perspective
perspectives
persuade
persuader
persuasion
perte
pertes
pertinence
perturbations
peru
pervers
pesait
pesant
pesanteur
pese
peser
peste
pet
petain
petales
pete
peter
peters
petersbourg
peterson
petit
petite
petites
petition
petits
petra
petrole
petrolier
peu
peugeot
peuple
peuplee
peuplement
peuples
peur
peut
peuvent
peux
pf
pg
ph
pharaon
phare
phares
pharmacie
pharmacien
phase
phases
phedre
phenix
phenomene
phenomenes
phi
phil
philadelphia
philadelphie
philharmonique
philibert
philip
philipp
philippe
philippine
philippines
philips
phillips
philologie
philosophe
philosophes
philosophie
philosophique
philosophiques
philosophy
phoenix
phonetique
photo
photographe
photographes
photographie
photographies
photographique
photographiques
photos
php
phrase
phrases
phylogenetique
physical
physicien
physiciens
physics
physiologie
physiologique
physionomie
physique
physiquement
physiques
pi
pianiste
piano
piastres
piazza
pib
pic
picard
picardie
picasso
pick
pics
picture
pictures
pie
piece
pieces
pied
piedestal
pieds
piege
pieges
piemont
pier
pierce
piero
pierre
pierreries
pierres
pierrot
pies
piete
pieter
pietons
pietro
pieuse
pieux
pigeon
pigeons
pignon
pilastres
pile
piles
pilier
piliers
pillage
pille
piller
pilot
pilotage
pilote
pilotes
pin
pince
pinceau
pink
pins
pinyin
pion
pionnier
pionniers
piotr
pipe
piper
piquant
pique
pirate
pirates
pire
pires
pis
piscine
pise
piste
pistes
pistolet
pistolets
piston
pitie
pitt
pittoresque
pittoresques
pittsburgh
piv
pivot
pj
pk
pl
pla
placa
placait
placant
place
placee
placees
placement
placent
placer
places
plafond
plage
plages
plaide
plaider
plaidoyer
plaie
plaies
plaignait
plain
plaindre
plaine
plaines
plains
plaint
plainte
plaintes
plaira
plaire
plaisait
plaisance
plaisant
plaisante
plaisanterie
plaisanteries
plaise
plaisent
plaisir
plaisirs
plait
plan
planche
plancher
planches
plancy
plane
planet
planetaire
planetary
planete
planetes
planification
planning
plans
plant
plantation
plantations
plante
planter
plantes
plants
plaque
plaques
plasma
plastique
plastiques
plat
plata
plate
plateau
plateaux
plateforme
plateformes
plates
platine
platnick
platon
platre
plats
play
player
players
playoffs
playstation
plaza
pleiade
plein
pleine
pleinement
pleines
pleins
plena
plenitude
plessis
pleura
pleurait
pleurant
pleure
pleurer
pleurs
pleut
pli
plie
plier
pline
plis
plomb
plon
plonge
plongee
plonger
plu
pluie
pluies
plumage
plume
plumes
plupart
pluriel
plus
plusieurs
plut
plutarque
plutot
pluviometres
pluviometrie
plymouth
pm
pmatrix
pmcid
pmid
pn
pneus
po
poche
poches
pochette
pocket
poczta
podium
podiums
poe
poele
poeme
poemes
poesie
poesies
poete
poetes
poetesse
poetique
poetiques
poetry
poids
poignard
poignee
poignet
poil
poils
poincare
poing
poings
point
pointe
pointes
points
pointu
poire
poirier
pois
poison
poisson
poissons
poitevin
poitiers
poitou
poitrine
poivre
pokemon
poker
pol
polaire
polar
pole
polemique
polemiques
poles
poli
police
policier
policiere
policieres
policiers
policy
polie
politesse
political
politicien
politiciens
politico
politics
politique
politiquement
politiques
pollution
polo
pologne
polonais
polonaise
polska
polynesie
polytechnique
pomeranie
pomme
pommes
pompe
pompee
pompes
pompidou
pompiers
pons
pont
ponte
pontife
pontifical
pontificale
pontoise
ponts
pop
pope
popolazione
populace
populaire
populaires
popular
popularite
population
populations
por
porc
porcelaine
porche
porcs
porsche
port
porta
portable
portaient
portail
portait
portal
portant
porte
portee
portees
portefeuille
portent
porter
portera
porterent
portes
porteur
porteurs
portez
portier
portiere
portion
portions
portique
portland
porto
portrait
portraits
ports
portugais
portugaise
portugal
posa
posait
posant
pose
posee
posees
posent
poser
poses
positif
positifs
position
positions
positive
positivement
positives
possedaient
possedait
possedant
possede
possedent
posseder
possesseur
possessif
possession
possessions
possessive
possibilite
possibilites
possible
possibles
post
postal
postale
postales
postaux
poste
posterieur
posterieure
posterieures
posterieurs
posterite
postes
posthume
posture
pot
potable
potassium
poteau
poteaux
potentiel
potentielle
potentiellement
potentiels
poterie
potier
pots
potsdam
potter
pou
pouce
pouces
poudre
poulain
poule
poules
poulet
pouls
poumon
poumons
poupee
poupees
pour
pourcentage
pourparlers
pourpre
pourquoi
pourra
pourrai
pourraient
pourrais
pourrait
pourrez
pourriez
pourrions
pourroit
pourrons
pourront
poursuit
poursuite
poursuites
poursuivait
poursuivant
poursuivent
poursuivi
poursuivie
poursuivis
poursuivit
poursuivre
pourtant
pourvoir
pourvu
pourvus
poussa
poussait
poussant
pousse
poussee
poussent
pousser
pousses
poussiere
poussin
poutine
poutre
poutres
pouvaient
pouvais
pouvait
pouvant
pouvez
pouvions
pouvoient
pouvoir
pouvoirs
pouvoit
pouvons
powell
power
powiat
poznan
pp
pq
pr
practice
prado
prague
prairie
prairies
prat
pratiquant
pratique
pratiquee
pratiquement
pratiquent
pratiquer
pratiques
pratt
pre
prealable
prealablement
preambule
precaire
precaution
precautions
precedant
precede
precedee
precedemment
precedent
precedente
precedentes
precedents
precedes
precepte
preceptes
precepteur
preche
precher
precieuse
precieuses
precieux
precipita
precipitamment
precipitation
precipitations
precipite
precipiter
precis
precise
precisement
preciser
precises
precision
precoce
preconise
precurseur
precurseurs
predateurs
predecesseur
predecesseurs
predicateur
predication
prediction
predilection
predit
pref
preface
prefectoral
prefecture
preferable
preferait
preferant
prefere
preferee
preference
preferences
preferent
preferer
preferes
prefet
prefets
prefixe
prehistoire
prehistorique
prehistoriques
prejudice
prejuge
prejuges
prelat
prelats
preliminaire
preliminaires
preliminary
prelude
prematuree
premier
premiere
premierement
premieres
premiers
premiership
premio
prenaient
prenait
prenant
prend
prendra
prendrait
prendre
prends
prenez
prenne
prennent
prenom
prenoms
prenons
preoccupation
preoccupations
preoccupe
preoccuper
preparait
preparatifs
preparation
preparations
preparatoire
preparatoires
prepare
preparee
preparent
preparer
prepares
preponderant
prerogatives
pres
presage
presbytere
prescription
prescriptions
prescrit
presence
presens
present
presenta
presentaient
presentait
presentant
presentateur
presentation
presente
presentee
presentees
presentement
presentent
presenter
presentes
presents
preserva
preservation
preserve
preserver
preside
presidee
presidence
president
presidente
presidentiel
presidentielle
presidentielles
presidents
presider
presomption
presqu
presque
press
pressa
pressait
pressant
presse
pressee
pressent
pressentiment
presser
presses
pression
pressions
prestation
prestations
prestige
prestigieux
preston
presume
pret
pretait
prete
pretend
pretendait
pretendant
pretendent
pretendre
pretends
pretendu
pretendue
pretendus
pretent
pretention
pretentions
preter
preterit
pretes
preteur
pretexte
pretre
pretres
prets
pretty
preuve
preuves
prevaloir
prevenir
prevention
prevenu
prevenus
prevision
previsions
prevoir
prevoit
prevost
prevot
prevoyait
prevoyance
prevoyant
prevu
prevue
prevues
prevus
pria
priait
priant
price
pride
prie
prier
priere
prieres
priest
prieur
prieure
prima
primaire
primaires
prime
primes
primitif
primitifs
primitive
primitivement
primitives
primo
prince
princes
princess
princesse
princesses
princeton
principal
principale
principalement
principales
principaute
principautes
principaux
principe
principes
print
printemps
printf
priori
priorite
prirent
pris
prise
prises
prison
prisonnier
prisonniere
prisonniers
prisons
prit
privat
private
privation
privations
prive
privee
privees
priver
prives
privilege
privileges
privilegie
privilegiee
privilegies
prix
prize
pro
probabilite
probabilites
probable
probablement
proballers
probite
problem
problematique
probleme
problemes
procede
proceder
procedes
procedure
procedures
proceedings
proces
process
processeur
procession
processus
prochain
prochaine
prochainement
prochaines
proche
proches
proclamation
proclame
proclamee
proclamer
procure
procurer
procureur
procyclingstats
prod
prodige
prodiges
prodigieuse
prodigieux
prodigue
producteur
producteurs
production
productions
productivite
productrice
produire
produisait
produisant
produisent
produisit
produit
produite
produites
produits
prof
profane
profanes
professe
professeur
professeure
professeurs
profession
professional
professionnel
professionnelle
professionnelles
professionnels
professions
professor
profil
profile
profils
profit
profita
profitant
profite
profitent
profiter
profits
profond
profonde
profondement
profondes
profondeur
profondeurs
profonds
profusion
program
programmation
programme
programmes
progres
progress
progresse
progresser
progressif
progression
progressiste
progressive
progressivement
proie
proies
project
projectiles
projection
projections
projet
projete
projets
projette
proletariat
prologue
prolongation
prolonge
prolongee
prolongement
prolonger
promenade
promenades
promenait
promenant
promene
promener
promesse
promesses
promet
promethee
prometheus
promets
promettait
promettant
promettre
promis
promise
promit
promontoire
promoteur
promotion
promouvoir
prompt
prompte
promptement
promptitude
promu
prone
pronom
pronominal
prononca
prononcait
prononcant
prononce
prononcee
prononcees
prononcer
prononces
prononciation
propagande
propagation
propage
propager
prophete
prophetes
prophetie
propice
proportion
proportionnel
proportionnelle
proportions
propos
proposa
proposait
proposant
propose
proposee
proposees
proposent
proposer
proposes
proposition
propositions
propre
proprement
propres
proprete
proprietaire
proprietaires
propriete
proprietes
propulsion
proscrit
prose
prosper
prospere
prosperite
prostituee
prostitution
protagoniste
protagonistes
protecteur
protecteurs
protection
protectorat
protectrice
protege
protegee
protegees
proteger
proteges
proteine
proteines
protestant
protestante
protestantisme
protestants
protestation
protestations
proteste
protester
proto
protocole
prototype
prototypes
proudhon
proue
proust
prouve
prouvent
prouver
provenance
provenant
provencal
provence
proverbe
proverbes
providence
proviennent
provient
province
provinces
provincial
provinciale
provinciales
provinciaux
provision
provisions
provisoire
provisoirement
provoqua
provoquant
provoque
provoquee
provoquent
provoquer
proximite
prud
prudence
prudent
prudente
prudhomme
prusse
prussien
prussienne
prussiens
ps
psaume
psaumes
pseudo
pseudonyme
pseudoscorpions
psg
psi
psychanalyse
psyche
psychiatre
psychiatrie
psychiatrique
psychique
psychologie
psychologique
psychologiques
psychologue
psychology
pt
ptolemee
pts
pu
pub
publia
publiant
public
publication
publications
publicitaire
publicitaires
publicite
publicites
publics
publie
publiee
publiees
publient
publier
publies
publique
publiquement
publiques
published
publishers
publishing
puce
pucelle
puces
pudeur
puerto
puf
puis
puise
puiser
puisqu
puisque
puissamment
puissance
puissances
puissans
puissant
puissante
puissantes
puissants
puisse
puissent
puissiez
puissions
puits
pulmonaire
punch
puni
punir
punis
punition
punk
pur
pure
purement
purent
pures
purete
purs
pus
pussent
put
puy
pv
pw
px
py
pyramide
pyramides
pyrenees
pythagore
python
pz
pɑ
pɔ
pə
pɛ
pɛʁ
pʁe
pʁɔ
q
q0
q1
q2
q3
q4
q5
q6
q7
q8
q9
qa
qatar
qb
qc
qd
qe
qf
qg
qh
qi
qing
qj
qk
ql
qm
qmul
qn
qo
qp
qq
qquad
qr
qs
qt
qu
qua
quad
quadruple
quae
quai
quais
qualificatif
qualification
qualifications
qualifie
qualifiee
qualifiees
qualifient
qualifier
qualifies
qualite
qualites
quam
quand
quant
quantique
quantite
quantites
quantum
quarantaine
quarante
quarre
quart
quarterly
quartier
quartiers
quarts
quartz
quasi
quasiment
quatorze
quatorzieme
quatre
quatrieme
quatuor
que
quebec
quebecois
quebecoise
queen
queens
queensland
quel
quelconque
quelconques
quelle
quelles
quelqu
quelque
quelquefois
quelques
quels
quentin
quercus
quercy
querelle
querelles
query
quest
question
questions
quete
queue
qui
quichotte
quick
quiconque
quid
quille
quimper
quinn
quint
quinzaine
quinze
quinzieme
quitta
quittait
quittant
quitte
quittent
quitter
quitterent
quittes
quo
quod
quoi
quoiqu
quoique
quotidien
quotidienne
quotidiennement
quotidiennes
quotidiens
quotient
quoy
quy
quæ
qv
qw
qx
qy
qz
r
r0
r1
r2
r3
r4
r5
r6
r7
r8
r9
ra
rabat
rabbin
rabelais
race
races
rachat
rachel
rachete
rachetee
racheter
rachid
racine
racines
racing
racisme
raconta
racontait
racontant
raconte
racontee
racontent
raconter
radar
rade
radiale
radiation
radical
radicale
radicalement
radicaux
radieux
radio
radiodiffusion
radios
raf
rafael
rage
rai
raid
raide
raids
raie
raies
rail
raillerie
railroad
rails
railway
rain
rainbow
raion
raisin
raisins
raison
raisonnable
raisonnables
raisonne
raisonnement
raisonnements
raisonner
raisons
raja
ralentir
rallie
ralliement
rallier
rallye
rallyes
ralph
ram
rama
ramasse
ramasser
rame
rameau
rameaux
ramena
ramene
ramener
rames
ramirez
ramon
ramos
rampe
ran
ranch
rancon
rancune
randall
random
randonnee
randy
rang
range
rangee
rangees
rangement
ranger
rangers
ranges
rangle
rangs
ranking
raoul
rap
raphael
rapide
rapidement
rapides
rapidite
rappel
rappela
rappelait
rappelant
rappele
rappeler
rappelez
rappelle
rappellent
rappelons
rappeur
rapport
rapporta
rapportant
rapporte
rapportee
rapportent
rapporter
rapportes
rapporteur
rapports
rapprochant
rapproche
rapprochee
rapprochement
rapprochent
rapprocher
rapproches
rare
rarement
rares
rarete
ras
rase
rassemblant
rassemble
rassemblement
rassemblent
rassembler
rassembles
rassure
rassurer
rat
rate
ratings
ratio
rationnel
rationnelle
ratp
rats
rattache
rattachee
rattachement
rattachent
rattacher
raul
ravage
ravages
ravel
raven
ravenne
ravi
ravie
ravin
ravir
ravitaillement
raw
ray
raye
raymond
raynouard
rayon
rayonnement
rayons
rb
rbrace
rc
rca
rd
rda
rdc
re
reacteur
reacteurs
reaction
reactions
read
reading
ready
reagir
reagit
real
realgm
realisa
realisant
realisateur
realisateurs
realisation
realisations
realisatrice
realise
realisee
realisees
realisent
realiser
realises
realisme
realiste
realite
realites
rebaptise
rebaptisee
rebecca
rebelle
rebelles
rebellion
rebonds
rebours
recemment
recense
recensement
recensements
recenses
recent
recente
recentes
recents
recepteur
recepteurs
reception
recette
recettes
recevaient
recevait
recevant
receveur
recevoir
recevra
rechauffement
recherche
recherchee
rechercher
recherches
recifs
reciproque
reciproquement
reciproques
recit
reciter
recits
reclamait
reclamant
reclamations
reclame
reclament
reclamer
recois
recoit
recoivent
recolte
recoltes
recommandation
recommandations
recommande
recommandee
recommander
recommence
recommencer
recompense
recompenser
recompenses
reconciliation
reconcilier
reconduit
reconnais
reconnaissait
reconnaissance
reconnaissant
reconnaissent
reconnait
reconnaitre
reconnu
reconnue
reconnues
reconnus
reconnut
reconquerir
reconstitue
reconstituer
reconstitution
reconstruction
reconstruire
reconstruit
reconstruite
record
recording
recordings
records
recourir
recours
recouvert
recouverte
recouverts
recouvre
recouvrer
recreation
recrue
recrues
recrute
recrutement
recruter
rectangle
rectangulaire
recteur
recu
recue
recueil
recueille
recueilli
recueillie
recueillies
recueillir
recueillis
recueils
recues
recul
recula
recule
reculer
recuperation
recupere
recuperer
recurent
recurrent
recus
recut
recycler
red
redacteur
redacteurs
redaction
reddition
redecoupage
redemption
redevient
redige
redigee
rediger
rediges
redingote
redire
redoutable
redoutables
redoute
redouter
redshift
reduction
reduire
reduisant
reduisent
reduit
reduite
reduites
reduits
reed
reedite
reedition
reel
reelection
reelle
reellement
reelles
reels
reelu
ref
refaire
refait
refere
reference
references
referendum
referentiel
referer
reflechi
reflechie
reflechir
reflechit
reflet
reflete
reflets
reflexion
reflexions
reformateur
reformation
reforme
reformee
reformer
reformes
refrain
refroidissement
refuge
refugie
refugier
refugies
refus
refusa
refusait
refusant
refuse
refusee
refusent
refuser
reg
regagne
regagner
regard
regarda
regardaient
regardais
regardait
regardant
regarde
regardee
regardent
regarder
regarderent
regardez
regards
regence
regeneration
regent
reggae
regie
regime
regiment
regiments
regimes
regina
reginald
region
regional
regionale
regionales
regionalises
regionaux
regions
regis
register
registre
registres
regle
reglee
reglement
reglementaire
reglementaires
reglementation
reglements
regler
regles
regna
regnait
regne
regnent
regner
regnes
regnier
regression
regret
regrets
regrette
regretter
regroupant
regroupe
regroupees
regroupement
regroupent
regrouper
regroupes
regularite
regulation
regulier
reguliere
regulierement
regulieres
reguliers
rehabilitation
rei
reich
reid
reilly
reimpr
reims
rein
reine
reines
reinhold
reins
reischauer
rejet
rejete
rejetee
rejeter
rejette
rejoignant
rejoignent
rejoignit
rejoindre
rejoint
rejoints
rejouir
rejouit
relache
relais
relance
relancer
relate
relatif
relatifs
relation
relations
relative
relativement
relatives
relativite
release
relegation
relegue
relegues
releva
relevait
relevant
releve
relevee
relevent
relever
releves
reliant
relie
reliee
reliees
relief
reliefs
relier
relies
religieuse
religieuses
religieux
religion
religions
reliques
remacle
remake
remanie
remaniee
remaniement
remarie
remarqua
remarquable
remarquables
remarque
remarquee
remarquer
remarques
remarquez
remboursement
rembourser
rembrandt
remede
remedes
remedier
remercie
remercier
remet
remettant
remettre
remi
remis
remise
remises
remit
remix
remonta
remontant
remonte
remontee
remontent
remonter
remonterletemps
remords
remorque
rempart
remparts
remplacant
remplace
remplacee
remplacees
remplacement
remplacent
remplacer
remplaces
rempli
remplie
remplies
remplir
remplis
remplissait
remplissent
remplit
remporta
remportant
remporte
remportee
remportent
remporter
remue
remuer
remuneration
remy
ren
renaissance
renaitre
renan
renard
renart
renaud
renault
rencontra
rencontrait
rencontre
rencontree
rencontrees
rencontrent
rencontrer
rencontrerent
rencontres
rend
rendaient
rendait
rendant
rende
rendement
rendent
rendez
rendirent
rendit
rendra
rendrait
rendre
rends
rendu
rendue
rendues
rendus
rene
renee
renes
renfermait
renferme
renferment
renfermer
renforce
renforcee
renforcement
renforcer
renfort
renforts
renier
rennais
rennes
renoir
renom
renomme
renommee
renommes
renonce
renoncer
renouveau
renouvelables
renouvele
renouvelee
renouveler
renouvelle
renouvellement
renovation
renove
renseigne
renseignemens
renseignement
renseignements
rente
rentes
rentra
rentrait
rentrant
rentre
rentree
rentrent
rentrer
renverse
renversee
renversement
renverser
renvoi
renvoie
renvoye
renvoyer
reorganisation
repand
repandent
repandit
repandre
repandu
repandue
repandues
repandus
reparaitre
reparation
reparations
repare
reparer
repart
reparti
repartie
reparties
repartir
repartis
repartit
repartition
reparut
repas
repasser
repechage
repentir
repere
reperes
repertoire
repertorie
repertories
repeta
repetait
repetant
repete
repetee
repetees
repeter
repetes
repetition
repetitions
replier
repliqua
replique
repond
repondait
repondant
repondent
repondez
repondirent
repondis
repondit
repondre
reponds
repondu
reponse
reponses
report
reportage
reportages
reporte
reporter
reports
repos
reposait
reposant
repose
reposent
reposer
repoussa
repoussant
repousse
repoussee
repousser
repousses
reprenait
reprenant
reprend
reprendre
reprennent
represailles
representaient
representait
representans
representant
representants
representatif
representation
representations
representative
represente
representee
representees
representent
representer
representes
repression
reprimer
reprirent
repris
reprise
reprises
reprit
reprochait
reproche
reprocher
reproches
reproduction
reproduire
reproduit
reptarium
reptile
reptiles
republic
republicain
republicaine
republicaines
republicains
republique
republiques
repugnance
reputation
repute
reputee
reputes
requete
requetes
requiem
requiert
requin
requis
rer
res
research
reseau
reseaux
reserve
reservee
reservees
reserver
reserves
reservoir
reservoirs
residant
reside
residence
residences
resident
residente
residents
residus
resignation
resigne
resigner
resine
resistance
resistances
resistant
resistante
resistants
resiste
resister
resolu
resolue
resolument
resolus
resolut
resolution
resolutions
resonance
resoudre
resource
resources
resout
respect
respectable
respectant
respecte
respectee
respecter
respectifs
respectivement
respectives
respectueuse
respectueux
respiration
respire
respirer
responsabilite
responsabilites
responsable
responsables
ressemblait
ressemblance
ressemblant
ressemble
ressemblent
ressembler
ressent
ressenti
ressentiment
ressentir
resserre
ressort
ressortir
ressorts
ressource
ressources
ressuscite
resta
restai
restaient
restait
restant
restants
restaurant
restaurants
restauration
restaure
restauree
restaurer
reste
restee
restees
restent
rester
restera
resterait
resterent
resteront
restes
restez
restituee
restituer
restitution
restreindre
restreint
restreinte
restriction
restrictions
restructuration
resultant
resultat
resultaten
resultats
resulte
resultent
resulter
results
resume
resumer
resurrection
reta
retable
retabli
retablie
retablir
retablissement
retablit
retard
retarde
retarder
retenait
retenir
retentir
retentissement
retentit
retenu
retenue
retenus
retient
retint
retira
retirant
retire
retiree
retirent
retirer
retirerent
retires
retombe
retomber
retour
retourna
retournait
retournant
retourne
retournent
retourner
retours
retrace
retrait
retraite
retraites
retranche
retrieved
retro
retrograde
retrospective
retrouva
retrouvait
retrouvant
retrouve
retrouvee
retrouvees
retrouvent
retrouver
retrouvera
retrouves
return
retz
reuni
reunie
reunies
reunion
reunions
reunir
reunis
reunissait
reunissant
reunissent
reunit
reussi
reussie
reussir
reussissent
reussit
reussite
reuters
rev
revait
revanche
reve
reveil
reveilla
reveille
reveiller
revela
revelation
revelations
revele
revelee
revelent
reveler
revenaient
revenait
revenant
revendication
revendications
revendique
revendiquer
revenir
revenons
revenu
revenue
revenus
rever
reverence
reverend
reverie
reveries
revers
reves
revet
revetement
revetir
revetu
reveur
reviendra
reviendrai
reviennent
reviens
revient
review
reviews
revinrent
revint
revised
revisee
revision
revista
revivre
revoir
revolte
revoltes
revolution
revolutionnaire
revolutionnaires
revolutions
revolver
revu
revue
revues
rex
rey
reynolds
rez
rf
rfi
rg
rh
rhenanie
rhetorique
rhin
rho
rhodes
rhone
rhum
ri
ria
riait
riant
rica
ricard
ricardo
rice
rich
richard
richards
richardson
riche
richelieu
richement
riches
richesse
richesses
richmond
richter
rick
rico
ride
rideau
rideaux
rider
rides
ridge
ridicule
ridicules
rien
riga
rigaud
right
rightarrow
rights
rigide
rigoureuse
rigoureusement
rigoureux
rigueur
rigueurs
riley
rimbaud
rime
rimes
ring
rio
rire
rires
ris
rise
rising
risk
risque
risquer
risques
rit
rita
rite
rites
rituel
rituels
rivage
rivages
rival
rivale
rivales
rivalite
rivalites
rivaux
rive
river
rivera
rivers
rives
riviere
rivieres
riz
rj
rk
rkdartists
rl
rm
rn
ro
road
roanne
rob
robe
robert
roberto
roberts
robertson
robes
robespierre
robin
robinson
robot
robots
robuste
robustes
roc
roch
roche
rochefort
rochefoucauld
rochelle
rocher
rochers
roches
rochester
rocheuses
rocheux
rock
rocky
rod
rodez
rodin
rodolphe
rodrigo
rodriguez
roewer
roger
rogers
roh
rohan
roi
rois
roland
role
roles
rolf
roll
rolland
roller
rollin
rolling
rom
roma
romagne
romain
romaine
romaines
romains
roman
romance
romancier
romanciere
romanciers
romande
romane
romanes
romanesque
romanisation
romano
romans
romantique
romantiques
romantisme
rome
romeo
romero
rompre
rompt
rompu
ron
ronald
rond
ronde
rondes
ronds
ronge
ronsard
rookie
room
roosevelt
roque
rosa
rosalie
rosario
rose
roseau
roseaux
rosee
rosenberg
roses
rosette
rosier
ross
rossi
rossignol
rossini
rotation
roth
rothschild
rotten
rotterdam
roubaix
roubles
roue
rouen
rouergue
roues
rouge
rougeatre
rouges
rougeur
rougir
rougit
rouille
roulait
roulant
roule
rouleau
rouleaux
roulement
rouler
rouletabille
roumain
roumaine
roumains
roumanie
round
rousse
rousseau
roussel
roussillon
route
routes
routier
routiere
routiers
routine
routledge
roux
roy
royal
royale
royales
royaliste
royalistes
royaume
royaumes
royaute
royaux
royer
rp
rq
rr
rs
rsssf
rt
rtbf
rtl
rts
ru
ruban
rubans
ruben
rubens
rubis
rubrique
ruby
ruche
rude
rudement
rudes
rudolf
rue
ruelle
rues
rugby
ruine
ruiner
ruines
ruisseau
ruisseaux
ruiz
rule
rules
rumeur
rumeurs
run
running
rupert
rupture
rural
rurale
rurales
ruralite
ruralites
ruraux
ruse
ruses
rush
russe
russell
russes
russia
russian
russie
russo
rustique
rustiques
ruth
rv
rw
rwanda
rx
ry
ryan
rythme
rythmes
rythmique
rz
s
s0
s1
s2
s3
s4
s5
s6
s7
s8
s9
sa
sabbat
sabine
sable
sables
sabots
sabre
sabres
sac
sacerdoce
sacha
sachant
sache
sachez
sacre
sacree
sacrees
sacrement
sacrements
sacres
sacrifice
sacrifices
sacrifie
sacrifier
sacrilege
sacristie
sacs
sad
sade
safety
saga
sagacite
sage
sagement
sages
sagesse
saguenay
sahara
sahel
sai
said
saillant
saillie
sain
saine
sains
saint
sainte
saintes
saintete
saintonge
saints
sais
saisi
saisie
saisir
saisis
saisissant
saisit
saison
saisons
sait
salade
salaire
salaires
salarie
salaries
sale
salee
salem
sales
salisbury
salle
salles
sally
salmon
salome
salomon
salon
salons
salt
salua
salue
saluer
salut
salutaire
salvador
salvatore
salzbourg
sam
samantha
sambre
same
samedi
samoa
samson
samuel
san
sanchez
sancho
sanction
sanctions
sanctuaire
sanctuaires
sand
sanders
sandra
sandre
sandrine
sandy
sang
sanglant
sanglante
sanglantes
sanglier
sanglots
sanguin
sanitaire
sanitaires
sans
sanskrit
sant
santa
sante
santiago
santo
santos
sao
saone
saoudite
sapin
sapins
sara
saragosse
sarah
sarajevo
sardaigne
sarkozy
sarrasins
sarre
sarthe
sartre
sas
saskatchewan
sat
satan
satellite
satellites
satin
satire
satirique
satisfaction
satisfaire
satisfaisante
satisfait
satisfaite
satisfaits
saturday
saturn
saturne
sau
sauce
sauf
saul
saule
saules
saumon
saumur
saura
saurai
sauraient
saurais
saurait
saut
sauta
sautant
saute
sauter
sauts
sauva
sauvage
sauvages
sauve
sauvee
sauvegarde
sauvegarder
sauver
sauves
sauvetage
sauveur
savage
savaient
savais
savait
savans
savant
savante
savantes
savants
save
savent
saveur
savez
saviez
savoie
savoir
savoirs
savon
savons
savoyard
saxe
saxon
saxonne
saxons
saxophone
say
says
sb
sc
scala
scandale
scandinave
scandinaves
scavoir
sceau
sceaux
scelerat
scenario
scenarios
scenariste
scene
scenes
scepticisme
sceptique
sceptre
schema
scheme
schiller
schisme
schleswig
schmidt
schmitt
schneider
scholar
school
schubert
schumacher
schumann
schwartz
sci
scie
science
sciences
scientific
scientifique
scientifiques
scipion
scission
scolaire
scolaires
scolarite
score
scores
scorpion
scorpions
scot
scotland
scott
scottish
screen
scribe
scribes
script
scriptstyle
scrupule
scrupules
scrutin
sculpte
sculptee
sculptes
sculpteur
sculpteurs
sculpture
sculptures
sd
se
sea
sean
seance
seances
search
season
seattle
sebastian
sebastien
sec
secession
seche
secher
secheresse
seches
second
secondaire
secondaires
seconde
secondes
seconds
secoua
secouant
secoue
secouer
secourir
secours
secousse
secousses
secret
secretaire
secretaires
secretariat
secrete
secretement
secretes
secrets
secs
secte
sectes
secteur
secteurs
section
sections
securite
security
sed
sedan
sediments
seduction
seduire
seduit
see
sega
segment
segments
seguin
segur
seigneur
seigneurie
seigneuries
seigneurs
sein
seine
seins
seisme
seize
seizieme
sejour
sejourne
sejours
sel
selected
selection
selectionne
selectionnee
selectionner
selectionnes
selectionneur
selections
self
seligman
selle
selon
sels
semaine
semaines
semantique
sembla
semblable
semblables
semblaient
semblait
semblant
semble
semblent
sembler
semblerait
seme
semence
semences
semer
semestre
semi
seminaire
seminaires
semis
sen
senat
senateur
senateurs
senatoriales
senechal
senegal
senegalais
seneque
senior
senlis
sens
sensation
sensations
sense
sensibilite
sensible
sensiblement
sensibles
sent
sentaient
sentais
sentait
sentant
sentence
sentences
sentent
senti
sentier
sentiers
sentimens
sentiment
sentimental
sentimentale
sentiments
sentinelle
sentinelles
sentir
sentis
sentit
seoul
separait
separant
separation
separative
separe
separee
separees
separement
separent
separer
separes
sept
september
septembre
septentrion
septentrional
septentrionale
septieme
sepulcre
sepulture
sepultures
sequence
sequences
ser
sera
serai
seraient
serais
serait
seras
serbe
serbes
serbie
serein
sereine
serenite
serez
serfs
serge
sergent
sergio
serguei
serie
series
serieuse
serieusement
serieuses
serieux
seriez
serions
serment
serments
sermon
sermons
seroient
seroit
serons
seront
serpent
serpente
serpents
serra
serrait
serrant
serre
serree
serrees
serrer
serres
serrure
sert
servaient
servait
servant
servante
servantes
serve
servent
serveur
serveurs
servi
service
services
servie
serviette
servir
servira
servis
servit
serviteur
serviteurs
servitude
ses
session
sessions
set
sete
seth
sets
settlements
seuil
seul
seule
seulement
seules
seuls
seve
seven
severe
severement
severes
severin
severite
sevigne
seville
sevres
sex
sexe
sexes
sexualite
sexuel
sexuelle
sexuelles
sexuels
seymour
sf
sg
sh
shadow
shah
shakespeare
shakspeare
shane
shanghai
shannon
sharon
sharp
shaw
shawinigan
shawn
she
sheffield
shell
shelley
sherbrooke
sherif
sherlock
sherman
shi
shin
ship
ships
shirley
shoah
shop
short
shot
should
show
shows
shu
si
siam
siberie
sic
sicile
sicilien
sid
sida
side
sidi
sidney
sie
siecle
siecles
siege
siegeant
sieger
sieges
siegfried
sien
sienne
siennes
siens
sierra
sieur
sigismond
sigle
sigma
sign
signa
signal
signale
signalee
signaler
signales
signalisation
signant
signataires
signature
signatures
signaux
signe
signee
signent
signer
signes
signifiait
signifiant
significatif
signification
significations
significative
signifie
signifient
signifier
signs
sik
sil
silence
silencieuse
silencieusement
silencieux
silent
silesie
silex
silhouette
sillage
sillon
sillons
silva
silver
silvia
sim
simbad
simeon
simeq
similaire
similaires
simile
similitude
simon
simone
simple
simplement
simples
simplicite
simplifie
simplifier
simpson
simulation
simultanement
sin
since
sincere
sincerement
sinceres
sincerite
sinclair
sine
sing
singapour
singe
singer
singes
singh
single
singles
singularite
singulier
singuliere
singulierement
singulieres
singuliers
sinistre
sinistres
sino
sinon
sinus
sion
sir
sire
siren
sirene
sirop
sis
sismicite
sister
sit
site
sites
sitot
situation
situations
situe
situee
situees
situent
situes
six
sixieme
size
sj
sja
sje
sjɔ
sk
ski
skrutskie
sky
sl
slalom
slate
slave
slaves
slogan
slovaque
slovaquie
slovene
slovenie
sm
smackdown
small
smart
smith
smithsonian
sms
sn
sncf
snep
snooker
snow
so
sobre
soc
soccer
soccerbase
soccerway
social
sociale
sociales
socialisme
socialiste
socialistes
sociaux
societe
societes
society
socio
sociologie
sociologue
socle
socorro
socrate
sodium
sofia
software
soi
soie
soient
soif
soigne
soigner
soigneusement
soin
soins
soir
soiree
soirees
soirs
sois
soissons
soit
soixantaine
soixante
sol
solaire
solaires
solange
solar
soldat
soldats
solde
sole
soleil
soleils
solennel
solennelle
solennellement
solennite
solidaire
solidarite
solide
solidement
solides
solidite
soliste
solitaire
solitaires
solitude
sollicite
solliciter
sollicitude
solo
solomon
sols
solution
solutions
somalie
sombre
sombres
some
somerset
something
sommaire
somme
sommeil
sommes
sommet
sommets
somptueux
son
sonate
sonates
sondage
sondages
sonde
song
songe
songea
songeait
songeant
songer
songes
songez
songkick
songs
sonia
sonic
sonna
sonne
sonner
sonnet
sonnets
sonnette
sonore
sonores
sons
sont
sony
sophia
sophie
soprano
sorbonne
sorcellerie
sorcier
sorciere
sorcieres
sorciers
sorel
sors
sort
sortaient
sortait
sortant
sorte
sortent
sortes
sorti
sortie
sorties
sortir
sortira
sortirent
sortis
sortit
sos
sot
sots
sotte
sottise
sottises
sou
souche
souches
souci
soucie
soucieux
soucis
soudain
soudaine
soudainement
soudan
soude
souffert
souffle
souffler
soufflet
souffrait
souffrance
souffrances
souffrant
souffre
souffrent
souffrir
soufre
souhait
souhaitable
souhaitait
souhaitant
souhaite
souhaitee
souhaitent
souhaiter
souhaits
souille
soul
soulagement
soulager
souleva
souleve
soulevement
soulever
souliers
souligne
souligner
soumet
soumettre
soumis
soumise
soumises
soumission
sound
soupcon
soupconne
soupconner
soupcons
soupe
souper
soupir
soupira
soupirs
souple
souplesse
source
sources
sourcils
sourd
sourde
sourds
souriait
souriant
sourire
sourires
souris
sourit
sous
souscription
soustraire
soutenait
soutenant
soutenir
soutenu
soutenue
soutenues
soutenus
souterrain
souterraine
souterraines
souterrains
south
southern
soutien
soutiennent
soutiens
soutient
soutint
souvenez
souvenir
souvenirs
souvent
souverain
souveraine
souverainete
souverains
souviens
souvient
soviet
sovietique
sovietiques
sox
soy
soyez
soyons
sp
spa
space
spahr
spain
spanish
sparte
spatial
spatiale
spatiales
spd
special
speciale
specialement
speciales
specialisation
specialise
specialisee
specialisees
specialises
specialiste
specialistes
specialite
specialites
speciaux
species
specifique
specifiquement
specifiques
specimen
specimens
spectacle
spectacles
spectaculaire
spectateur
spectateurs
spectre
spectres
speculation
speculations
speculative
speed
spencer
sphere
spheres
spherique
sphinx
spider
spiders
spiegel
spin
spinoza
spirale
spirit
spiritualite
spirituel
spirituelle
spirituelles
spirituels
spirou
spispna
splendeur
splendeurs
splendide
split
spontanee
spontanement
sport
sportif
sportifs
sporting
sportive
sportives
sports
spot
spring
springer
springs
sprint
spy
sq
sqrt
squad
squadron
square
squash
squelette
sr
sri
ss
ssd
st
sta
stabilite
stable
stade
stades
stadium
stael
staff
stage
stages
stagiaires
staline
stan
stand
standard
standards
stanford
stanislas
stanley
star
staren
starr
stars
start
stat
state
states
station
stationnement
stations
statique
statistical
statistics
statistique
statistiques
stats
statsf
statuaire
statue
statues
status
statut
statuts
ste
steel
stefan
stefano
stein
steiner
stele
stella
stendhal
step
stephan
stephane
stephanie
stephen
steppes
stereo
sterile
steriles
sterling
stern
steve
steven
stevens
stevenson
stewart
sti
still
stipule
stock
stockage
stockholm
stone
stones
stop
store
storia
stories
storm
story
strabon
strange
strasbourg
strategie
strategies
strategique
strategiques
strauss
streaming
street
stress
strict
stricte
strictement
strike
string
strip
strong
strophe
strophes
structure
structurees
structures
stuart
studies
studio
studios
study
stupefait
stupeur
stupide
stuttgart
style
styles
su
suarez
sub
subdivision
subdivisions
subi
subir
subissent
subit
subite
subitement
subjonctif
sublime
sublimes
subordonne
subordonnee
subsista
subsistait
subsistance
subsiste
subsistent
subsister
subsp
substance
substances
substantif
substitue
substituer
substitution
subtil
subtile
subvenir
subvention
subventions
suc
succeda
succedant
succede
succedent
succeder
succes
successeur
successeurs
successifs
succession
successivement
successives
succombe
succomber
sucre
sud
sudoc
sue
suede
suedois
suedoise
sueur
suez
suffi
suffira
suffirait
suffire
suffisait
suffisamment
suffisant
suffisante
suffisantes
suffisent
suffit
suffixe
suffrage
suffrages
suggere
suggerent
suggestion
sui
suicide
suis
suisse
suisses
suit
suite
suites
suiv
suivaient
suivait
suivant
suivante
suivantes
suivants
suivent
suivez
suivi
suivie
suivies
suivirent
suivis
suivit
suivra
suivre
sujet
sujets
sujette
sul
sullivan
sully
sulpice
sultan
sum
sumatra
summary
summer
sun
sunday
sunt
suo
super
superbe
superbes
supercoupe
superficie
superficielle
superficies
superflu
superieur
superieure
superieures
superieurs
superiorite
superlatif
superman
superstition
superstitions
supervise
supervision
suppleant
suppleer
supplement
supplementaire
supplementaires
suppliant
supplice
supplices
supplie
support
supporte
supportent
supporter
supporters
supports
supposant
suppose
supposee
supposer
supposition
supposons
suppression
supprimant
supprime
supprimee
supprimer
supprimes
supra
suprematie
supreme
sur
surcroit
sure
surement
surete
surf
surface
surfaces
surgir
surgit
surligner
surmonte
surmontee
surmonter
surnaturel
surnom
surnomme
surnommee
surpasse
surplus
surprenant
surprenante
surprend
surprendre
surpris
surprise
surprises
surprit
surs
sursaut
sursis
surtout
survecu
surveillance
surveillant
surveille
surveiller
survenu
survenue
survenus
survey
survie
survient
survit
survivant
survivants
survivre
sus
susan
susceptible
susceptibles
suscite
susciter
suspect
suspecte
suspects
suspend
suspendre
suspendu
suspendue
suspendues
suspendus
suspension
sussex
sut
sutton
suzanne
suzuki
sv
sw
swedish
sweet
swift
swing
swiss
switch
sx
sy
sycomore
sydney
sylla
syllabe
syllabes
sylvain
sylvestre
sylvia
sylvie
symbole
symboles
symbolique
symbolise
symbolisme
symetrie
symetrique
sympathie
sympathies
sympathique
symphonie
symphonies
symphonique
symphony
symptome
symptomes
syn
synagogue
syndicale
syndicalisme
syndicaliste
syndicat
syndicats
syndrome
synode
synonyme
synonymes
synopsis
syntaxe
synthese
synthetique
synthetiques
syracuse
syrie
syrien
syrienne
syriens
system
systematique
systematiquement
systeme
systemes
systems
syʁ
sz
sœur
sœurs
sɑ
sɔ
sə
sɛ
sɛʁ
t
t0
t1
t2
t3
t4
t5
t6
t7
t8
t9
ta
taal
tab
tabac
tabernacle
table
tableau
tableaux
tables
tablette
tablettes
tablier
tache
tacher
taches
tacite
tact
tactique
tag
tahiti
tai
taille
taillee
tailler
tailles
tailleur
taillis
taine
taire
tais
tait
taiwan
take
takes
tal
talbot
tale
talens
talent
talents
tales
talk
tallandier
talleyrand
tallinn
talon
talons
talus
tam
tambour
tambours
tamise
tampa
tan
tandis
tang
tanger
tango
tank
tant
tante
tantot
tanzanie
tao
tapage
tape
tapis
tapisserie
tapisseries
tara
tarbes
tard
tarda
tarde
tarder
tardif
tardive
tardivement
tarif
tarifs
tarn
tartares
tas
tasse
tat
tate
tatiana
tau
taureau
taureaux
taux
taverne
taxe
taxes
taxi
taxon
taxonomic
taxonomy
taxons
taylor
tb
tc
tch
tchad
tchang
tchecoslovaque
tchecoslovaquie
tcheou
tcheque
tchequie
td
te
team
teams
teatro
tech
technical
technicien
techniciens
technico
technique
techniques
technologie
technologies
technologique
technologiques
technology
ted
teddy
teen
teheran
teint
teinte
teintes
teinture
tel
tela
tele
telechargement
telecharger
telecom
telecommunications
telefilm
telegramme
telegraph
telegraphe
telephone
telephonique
telephoniques
telerama
telescope
telespectateurs
televise
televisee
televisees
television
televisions
tell
telle
tellement
telles
tellier
tels
temeraire
temerite
temoignage
temoignages
temoigne
temoignent
temoigner
temoin
temoins
temperament
temperature
temperatures
tempere
tempes
tempete
tempetes
temple
temples
templiers
tempo
temporaire
temporairement
temporaires
temporel
temporelle
temps
tems
ten
tenaient
tenait
tenant
tend
tendait
tendance
tendances
tendant
tendent
tendit
tendre
tendrement
tendres
tendresse
tendu
tendue
tendus
tenebres
teneur
tenez
tenir
tennessee
tennis
tenoit
tenons
tenor
tension
tensions
tenta
tentant
tentation
tentative
tentatives
tente
tentent
tenter
tentes
tenu
tenue
tenues
tenus
ter
terence
teresa
terme
termes
termina
terminaison
terminait
terminal
terminale
terminant
termine
terminee
terminees
terminent
terminer
termines
terminologie
terminus
terra
terrain
terrains
terrasse
terrasses
terre
terres
terrestre
terrestres
terreur
terreurs
terrible
terriblement
terribles
terrier
territoire
territoires
territorial
territoriale
territoriales
terroir
terror
terrorisme
terroriste
terroristes
terry
tertiaire
tertiaires
tertre
teryt
tes
test
testament
teste
tester
tests
tete
tetes
texas
text
texte
textes
textile
textiles
tf
tfrac
tg
tgv
th
thai
thailande
than
that
the
theater
theatrale
theatre
theatres
thebes
their
them
thematique
thematiques
theme
themes
then
theo
theodor
theodore
theodose
theologie
theologien
theologiens
theologique
theologiques
theophile
theoreme
theoricien
theorie
theories
theorique
theoriquement
theoriques
theory
theplantlist
therapeutique
therapie
there
therese
thermes
thermidor
thermique
thesaurus
these
theses
thessalonique
theta
they
thibault
thibaut
thierry
thiers
thing
things
think
third
this
tholen
thomas
thompson
thomson
thor
thorpe
thrace
three
thresor
thriller
through
thunder
thuringe
ti
tibere
tibet
tibetain
tibetains
tic
ticket
tiede
tien
tiendra
tienne
tiennent
tiens
tient
tierce
tiers
tige
tiger
tigers
tiges
tigre
tigres
tik
tim
timbre
timbres
time
times
timide
timides
timidite
timothy
tin
tina
tint
tintin
tir
tira
tirage
tirailleurs
tirait
tirant
tire
tiree
tirees
tirent
tirer
tires
tireur
tiroir
tirs
tissu
tissus
tit
titan
titanic
titans
tite
title
titre
titres
titulaire
titulaires
titus
tj
tk
tl
tlfi
tm
tn
tnt
to
today
todd
together
togo
toi
toile
toiles
toilette
toilettes
toises
toison
toit
toits
toiture
toitures
tokyo
tolede
tolerance
tolkien
tolstoi
tom
tomas
tomatoes
tomba
tombaient
tombait
tombant
tombe
tombeau
tombeaux
tombee
tombees
tombent
tomber
tomberent
tombes
tome
tomes
tommy
tomorrow
ton
tong
tonga
toni
tonne
tonneau
tonneaux
tonnerre
tonnes
tons
tony
too
top
topographie
topographique
toponyme
toponymes
toponymie
torche
torches
toro
toronto
torpille
torpilles
torre
torrent
torrents
torres
torse
tort
torts
tortue
tortues
torture
tortures
toscane
tost
tot
total
totale
totalement
totalise
totalite
toto
touch
toucha
touchait
touchant
touchante
touche
touchee
touchent
toucher
touches
toujours
toul
toulon
toulousain
toulouse
tour
touraine
tourbillon
tourelle
tourelles
tourisme
touristes
touristique
touristiques
tourment
tourmente
tourmenter
tourments
tourna
tournage
tournai
tournait
tournament
tournant
tourne
tournee
tournees
tournent
tourner
tournes
tournoi
tournois
tournure
tours
tous
tousjours
toussaint
tout
toute
toutefois
toutelatele
toutes
tower
town
township
toxique
toxiques
toy
toyota
tp
tq
tr
tra
trace
tracee
tracer
traces
track
traction
tracy
trad
trade
tradition
traditionnel
traditionnelle
traditionnellement
traditionnelles
traditionnels
traditions
traducteur
traduction
traductions
traduire
traduit
traduite
traduits
trafic
tragedie
tragedies
tragique
tragiques
trahi
trahir
trahison
trahit
trail
train
trainant
traine
trainee
trainer
training
trains
trait
traitait
traitant
traite
traitee
traitees
traitement
traitements
traitent
traiter
traites
traitre
traitres
traits
trajan
trajectoire
trajet
tram
trame
tramway
tramways
tranchant
tranche
tranchee
tranchees
trancher
tranches
tranquille
tranquillement
tranquilles
tranquillite
trans
transaction
transactions
transcription
transept
transfere
transferee
transferer
transferes
transfermarkt
transfert
transferts
transformait
transformation
transformations
transforme
transformee
transforment
transformer
transformes
transit
transitif
transition
translation
transmet
transmettre
transmis
transmise
transmission
transparence
transparent
transparente
transport
transportant
transporte
transportee
transporter
transportes
transports
transylvanie
trappe
traque
travail
travailla
travaillaient
travaillait
travaillant
travaille
travaillent
travailler
travailleur
travailleurs
travailliste
travaux
travee
travees
travel
travers
traversa
traversait
traversant
traverse
traversee
traversees
traversent
traverser
traverses
travis
tre
treatment
treccani
tree
trefle
treize
treizieme
trek
tremblait
tremblant
tremblante
tremblay
tremble
tremblement
trembler
trempe
trentaine
trente
trepas
tres
tresor
tresorier
tresors
tressaillit
treve
treves
trevor
trevoux
tri
trial
triangle
triangles
triangulaire
triathlon
tribu
tribun
tribunal
tribunaux
tribune
tribunes
tribus
tribut
tricolore
trieste
trilogie
trimestre
trinite
trinity
trio
triomphant
triomphe
triompher
triomphes
trip
triple
tripoli
tristan
triste
tristement
tristes
tristesse
troie
trois
troisieme
trompait
trompe
trompee
tromper
trompes
trompette
trompettes
trompez
tronc
troncon
troncons
troncs
trone
trop
trophee
trophees
trophy
tropical
tropicale
tropicales
tropicos
trot
trottoir
trou
troubadours
trouble
troublee
troubler
troubles
troupe
troupeau
troupeaux
troupes
trous
trouva
trouvai
trouvaient
trouvais
trouvait
trouvant
trouve
trouvee
trouvees
trouvent
trouver
trouvera
trouverait
trouverent
trouverez
trouveront
trouves
trouvez
trouvoit
trouvons
troy
troyes
true
trump
trust
truth
ts
tsar
tse
tt
tu
tua
tuant
tube
tuberculose
tubes
tucker
tue
tuee
tuent
tuer
tues
tueur
tuileries
tuiles
tumeur
tumulte
tumulus
tunique
tunis
tunisie
tunisien
tunisienne
tunnel
tunnels
turbine
turbo
turc
turcs
turenne
turin
turn
turner
turque
turques
turquie
tut
tutelle
tuteur
tuyau
tuyaux
tv
tva
tvbythenumbers
tw
twin
twitter
two
tx
ty
tyler
type
types
typique
typiquement
typiques
typographie
typographique
typologie
tyr
tyran
tyrannie
tyrans
tyrol
tz
tɑ
tɔ
tə
tɛ
tɛʁ
tʁa
tʁi
tʁɑ
tʁɔ
tʁə
tʁɛ
u
u0
u1
u2
u3
u4
u5
u6
u7
u8
u9
ua
ub
uber
ubio
uc
uci
ud
ue
uefa
uf
ufc
ug
uh
ui
uicn
uj
uk
ukraine
ukrainien
ukrainienne
ul
ulm
ulrich
ulster
ulterieure
ulterieurement
ulterieures
ultimate
ultime
ultra
ultratop
ulysse
um
ump
un
una
unanime
unanimite
und
under
underground
underline
une
unes
unesco
ung
uni
unicode
unie
unies
unification
unifie
uniforme
uniformes
uniformite
unifrance
union
unions
unique
uniquement
uniques
unir
unis
unissent
unit
unitaire
unite
united
unites
univ
univers
universal
universalis
universe
universel
universelle
universellement
universitaire
universitaires
universite
universites
university
uns
uo
up
update
updated
uploads
upon
upper
uq
ur
uranium
urbain
urbaine
urbaines
urbains
urban
urbanisation
urbanisees
urbanisme
urgence
urine
url
urne
urss
ursule
uruguay
us
usa
usage
usagers
usages
use
usees
user
usgs
usine
usines
using
uss
ustav
ustensiles
usure
ut
utah
utc
utile
utiles
utilisait
utilisant
utilisateur
utilisateurs
utilisation
utilisations
utilise
utilisee
utilisees
utilisent
utiliser
utilises
utilite
utopie
utrecht
uu
uv
uw
ux
uy
uz
v
v0
v1
v2
v3
v4
v5
v6
v7
v8
v9
va
vacances
vacant
vaccin
vaccination
vache
vaches
vagabond
vague
vaguement
vagues
vaillant
vain
vaincre
vaincu
vaincue
vaincus
vaine
vainement
vaines
vainqueur
vainqueurs
vains
vais
vaisseau
vaisseaux
vaisselle
val
valable
valais
valait
valdotain
valence
valencia
valencien
valenciennes
valent
valentin
valentine
valere
valerie
valery
valet
valets
valette
valeur
valeurs
valide
validee
validite
valise
valladolid
valle
vallee
vallees
valley
vallon
vallons
valoir
valois
valorisation
valse
valu
value
valut
vampire
vampires
van
vancouver
vanessa
vanier
vanite
vannes
vante
vanter
vapeur
vapeurs
var
varennes
varepsilon
variable
variables
variant
variante
variantes
variation
variations
varie
variee
variees
varient
varier
varies
variete
varietes
variety
varphi
varsovie
vas
vase
vases
vassal
vassaux
vassili
vaste
vastes
vatican
vaticane
vauban
vaucluse
vaud
vaudeville
vaudois
vaudrait
vaut
vaux
vb
vc
vd
ve
veau
vec
vecteur
vecteurs
vectoriel
vecu
vecut
ved
vedette
vega
vegas
vegetal
vegetale
vegetales
vegetation
vegetaux
vehicule
vehicules
veille
veiller
veine
veines
vel
velay
velo
velos
velours
venaient
venais
venait
venant
vend
vendee
vendemiaire
vendent
vendeur
vendit
vendome
vendre
vendredi
vendu
vendue
vendues
vendus
venerable
veneration
venere
venetie
venez
venezuela
venge
vengeance
venger
venin
venir
venise
venitien
venitiens
venoit
venons
vent
vente
ventes
ventre
vents
venu
venue
venues
venus
ver
vera
verbal
verbale
verbaux
verbe
verbes
verdi
verdict
verdier
verdun
verdure
verge
verger
vergers
verges
verifiabilite
verifiables
verification
verifie
verifiee
verifier
veritable
veritablement
veritables
verite
verites
verlag
verlaine
vermeil
vermont
vernaculaire
verne
vernet
verneuil
vernis
vernon
verone
veronica
veronique
verra
verrai
verrait
verras
verre
verres
verrez
verrier
verrieres
verrons
verront
vers
versa
versailles
versant
versants
verse
verser
verset
versets
version
versions
verso
vert
verte
vertebres
vertes
vertical
verticale
vertige
verts
vertu
vertueuse
vertueux
vertus
verve
very
vesoul
veste
vestibule
vestige
vestiges
vetemens
vetement
vetements
veteran
veterans
veterinaire
vettel
vetu
vetue
vetus
veu
veuf
veuille
veuillez
veulent
veut
veuve
veuves
veux
vexin
vf
vfb
vg
vh
vi
via
viaduc
viamichelin
viande
viandes
vianney
vibrations
vic
vicaire
vice
vicente
vices
vichy
vicieux
vicissitudes
vicomte
victime
victimes
victoire
victoires
victor
victoria
victorieuse
victorieux
victory
vida
vidal
vide
video
videos
vider
vides
vie
vieil
vieillard
vieillards
vieille
vieilles
vieillesse
vieilli
viendra
viendrait
viendront
vienne
viennent
viens
vient
vierge
vierges
vies
viet
vietnam
vietnamese
vietnamien
vieux
view
vieweg
vif
vifs
vigilance
vigne
vignes
vignette
vignoble
vignobles
vigny
vigoureuse
vigoureusement
vigoureux
vigueur
vii
viie
viii
viiie
viking
vikings
viktor
vil
vila
vilain
vilaine
villa
village
villageois
villages
villars
villas
ville
villefranche
villeneuve
villers
villes
villette
villiers
vimes
vin
vinaigre
vince
vincennes
vincent
vincenzo
vinci
vingt
vingtaine
vingtieme
vingts
vinrent
vins
vint
vinyle
viol
viola
violation
viole
violemment
violence
violences
violent
violente
violentes
violents
violer
violet
violette
violettes
violon
violoncelle
violoniste
violons
virage
vire
virent
virgile
virgin
virginia
virginie
virtual
virtuel
virtuelle
virus
vis
visa
visage
visages
visait
visant
visconti
vise
visee
visent
visibilite
visible
visiblement
visibles
vision
visions
visita
visite
visiter
visites
visiteur
visiteurs
vista
visual
visualisation
visuel
visuelle
visuels
vit
vita
vital
vitale
vitalite
vite
vitesse
vitesses
viticulture
vitrail
vitraux
vitre
vitres
vitry
vittorio
viva
vivace
vivacite
vivaient
vivait
vivans
vivant
vivante
vivantes
vivants
vive
vivement
vivent
vives
vivons
vivre
vivres
vizir
vj
vk
vl
vladimir
vlamingen
vm
vn
vne
vo
vocable
vocabulaire
vocal
vocale
vocatif
vocation
vogel
vogue
voice
voici
void
voie
voient
voies
voila
voile
voiles
voilier
voir
voire
voirie
vois
voisin
voisinage
voisine
voisines
voisins
voit
voiture
voitures
voivodie
voix
vol
volailles
volant
volcan
volcanique
volcaniques
volcans
vole
volee
volent
voler
voles
volet
volets
voleur
voleurs
volga
volley
volontaire
volontairement
volontaires
volonte
volontes
volontiers
vols
volta
voltaire
volume
volumes
volupte
vom
von
vont
voor
vortaro
vos
vosges
vostre
votants
vote
votee
voter
votes
votre
votres
voudra
voudraient
voudrais
voudrait
voudras
voudrez
voudriez
voue
voulaient
voulais
voulait
voulant
voulez
vouliez
vouloir
vouloit
voulons
voulu
voulue
voulurent
voulus
voulut
vous
voute
voutes
voy
voyage
voyager
voyages
voyageur
voyageurs
voyaient
voyais
voyait
voyant
voyelle
voyelles
voyez
voyoit
voyons
vp
vq
vr
vrai
vraie
vraies
vraiment
vrais
vraisemblable
vraisemblablement
vraisemblance
vray
vs
vt
vtome
vtt
vu
vue
vues
vulgaire
vulgaires
vulnerable
vus
vv
vw
vx
vy
vz
vœu
vœux
vɑ
vɔ
və
vɛ
vɛʁ
w
w0
w1
w2
w3
w4
w5
w6
w7
w8
w9
wa
wade
wagner
wagon
wagons
wake
wales
walk
walker
walking
wall
wallace
wallis
wallon
wallonie
wallonne
walon
walsh
walt
walter
wan
wang
want
war
ward
warner
warnod
warren
warriors
wars
warwick
was
washington
watch
water
waterloo
waters
watkins
watson
watts
wave
wavresky
way
wayne
wb
wc
wcsp
wd
we
weather
web
webb
weber
website
webster
week
weekly
wehrmacht
wei
weights
weil
weimar
weiss
welcome
well
wellington
wells
wendy
were
werner
wesley
west
western
westminster
westphalie
wf
wg
wh
what
wheeler
when
where
which
while
white
whitney
who
why
wi
wide
wien
wiener
wife
wii
wiki
wikibooks
wikidata
wikification
wikifier
wikimedia
wikinews
wikipedia
wikiquote
wikisource
wikispecies
wikiwix
wiktionnaire
wilaya
wild
wilde
wildlife
wiley
wilhelm
wilkins
will
willem
william
williams
willie
willis
willy
wilson
wimbledon
win
winchester
wind
windows
windsor
wing
wings
winners
winnipeg
wins
winston
winter
wisconsin
wise
with
within
without
wj
wk
wl
wm
wn
wnba
wo
wolf
wolff
wolfgang
woman
women
won
wonder
wong
wood
woods
woordenkennis
word
words
work
working
works
world
worldcat
worms
worterbuch
worth
would
wp
wq
wr
wrestling
wright
ws
wsc
wt
wta
wu
wurtemberg
wv
ww
wwe
wwf
www
wx
wy
wz
x
x0
x1
x2
x3
x4
x5
x6
x7
x8
x9
xa
xavier
xb
xbox
xc
xd
xe
xenophon
xf
xg
xh
xi
xian
xie
xii
xiie
xiii
xiiie
xiv
xive
xix
xixe
xj
xk
xl
xls
xm
xn
xo
xp
xq
xr
xs
xt
xu
xv
xve
xvi
xvie
xvii
xviie
xviii
xviiie
xw
xx
xxe
xxi
xxie
xxii
xxiii
xxiv
xxix
xxv
xxvi
xxvii
xxviii
xxx
xxxi
xxxii
xy
xz
y
y0
y1
y2
y3
y4
y5
y6
y7
y8
y9
ya
yacht
yahoo
yahweh
yale
yan
yang
yann
yannick
yaounde
yards
yb
yc
yd
ye
year
years
yellow
yemen
yen
yes
yeux
yf
yg
yh
yi
yin
yj
yk
yl
ym
yn
yo
yoga
yomi
yon
yong
yonne
york
yorkshire
you
yougoslave
yougoslavie
young
your
youth
youtube
yp
yq
yr
ys
yt
yu
yuan
yukon
yv
yvan
yvelines
yves
yvette
yvon
yvonne
yw
yx
yy
yz
z
z0
z1
z2
z3
z4
z5
z6
z7
z8
z9
za
zagreb
zam
zambie
zas
zat
zb
zc
zd
ze
zealand
zeit
zeitung
zelandais
zelande
zele
zen
zenith
zenon
zero
zeta
zeus
zf
zg
zh
zhang
zhao
zhou
zhu
zi
zidian
zimbabwe
zinc
zj
zje
zjɔ
zk
zl
zm
zn
znieff
zo
zoe
zola
zonage
zone
zones
zoo
zoologie
zoology
zoom
zoonomen
zootaxa
zp
zq
zr
zs
zt
zu
zum
zur
zurich
zv
zw
zx
zy
zz
zɑ
zɔ
zə
zɛ
zɛʁ
{
|
}
~
¡
£
¤
§
¨
©
ª
«
¬
®
¯
°
±
²
³
´
µ
¶
·
¹
º
»
½
¿
×
ß
æ
ð
ø
þ
đ
ħ
ı
ł
łodz
ŋ
œ
œdipe
œil
œuf
œufs
œuvre
œuvres
ŧ
ſ
ſa
ſans
ſe
ſes
ſi
ſoit
ſon
ſont
ſuis
ſur
ƒ
ǀ
ǁ
ǝ
ȝ
ɇ
ɐ
ɑ
ɒ
ɓ
ɔ
ɕ
ɖ
ɗ
ə
ɚ
ɛ
ɛs
ɜ
ɟ
ɡ
ɡa
ɡe
ɡi
ɡo
ɡu
ɡɔ
ɡə
ɡʁa
ɣ
ɤ
ɥ
ɦ
ɨ
ɩ
ɪ
ɫ
ɬ
ɯ
ɲ
ɴ
ɵ
ɹ
ɾ
ʀ
ʁ
ʁa
ʁe
ʁi
ʁje
ʁjɔ
ʁo
ʁɑ
ʁɔ
ʁə
ʁɛ
ʂ
ʃ
ʃa
ʃe
ʃi
ʃɑ
ʃə
ʈ
ʉ
ʊ
ʋ
ʌ
ʎ
ʏ
ʐ
ʑ
ʒ
ʒa
ʒe
ʒi
ʒɑ
ʒə
ʔ
ʕ
ʦ
ʧ
ʨ
ʰ
ʲ
ʷ
ʹ
ʻ
ʼ
ʾ
ʿ
ˀ
ˁ
ˇ
ˈ
ˊ
ˋ
ˌ
ː
ˑ
˙
˜
˥
˦
˧
˨
˩
α
β
γ
δ
ε
ζ
η
θ
ι
κ
και
λ
μ
ν
ξ
ο
π
ρ
ς
σ
τ
υ
φ
χ
ψ
ω
ϐ
ϕ
ϖ
ϛ
ϰ
ϵ
а
б
в
г
д
е
ж
з
и
к
л
м
н
на
о
п
по
р
с
т
у
ф
х
ц
ч
ш
щ
ъ
ы
ь
э
ю
я
є
і
ј
љ
њ
ћ
ѣ
ѧ
ғ
қ
ң
ү
ұ
ӕ
ә
ө
ա
բ
գ
դ
ե
թ
ի
լ
կ
հ
ղ
մ
յ
ն
ո
պ
ս
վ
տ
ր
ց
ւ
ք
־
׃
א
ב
ג
ד
ה
ו
ז
ח
ט
י
ך
כ
ל
ם
מ
ן
נ
ס
ע
ף
פ
ץ
צ
ק
ר
ש
ת
ء
ا
ب
ة
ت
ث
ج
ح
خ
د
ذ
ر
ز
س
ش
ص
ض
ط
ظ
ع
غ
ـ
ف
ق
ك
ل
م
ن
ه
و
ى
ي
پ
ک
گ
ی
ܐ
ܒ
ܘ
ܝ
ܟ
ܠ
ܡ
ܢ
ܣ
ܪ
ܬ
अ
क
ग
च
ज
ट
त
द
न
प
ब
भ
म
य
र
ल
व
श
ष
स
ह
ন
ব
র
ল
க
ட
த
ப
ம
ர
ก
ค
ง
จ
ช
ด
ต
ท
น
บ
ป
พ
ม
ย
ร
ล
ว
ศ
ส
ห
อ
ะ
า
เ
แ
โ
ไ
་
ག
ང
ད
ན
པ
བ
མ
འ
ར
ལ
ས
ა
ბ
გ
დ
ე
ვ
თ
ი
კ
ლ
მ
ნ
ო
რ
ს
ტ
უ
ქ
შ
ხ
ᄀ
ᄁ
ᄂ
ᄃ
ᄄ
ᄅ
ᄆ
ᄇ
ᄉ
ᄊ
ᄋ
이
ᄌ
ᄎ
ᄏ
ᄐ
ᄑ
ᄒ
ᅡ
ᅢ
ᅣ
ᅥ
ᅦ
ᅧ
ᅨ
ᅩ
ᅪ
ᅬ
ᅭ
ᅮ
ᅯ
ᅱ
ᅲ
ᅳ
ᅴ
ᅵ
ᆨ
ᆫ
ᆯ
ᆷ
ᆸ
ᆺ
ᆻ
ᆼ
ᐃ
ᐅ
ᐊ
ᑎ
ᑐ
ᑕ
ᑦ
ᒃ
ᒪ
ᓂ
ᖅ
ᠠ
ᠢ
ᠤ
ᠨ
ᠭ
ᵑ
‐
‑
‒
–
—
―
‖
‘
’
“
”
„
†
•
…
‰
′
″
‴
‹
›
‿
⁂
⁄
ⁱ
⁴
⁵
⁶
ⁿ
₂
€
ℏ
ℓ
№
ℝ
™
ℤ
←
↑
→
↔
↦
↷
⇒
⇔
∀
∂
∃
∅
∇
∈
∏
∑
−
∗
∘
∙
√
∞
∣
∧
∨
∩
∪
∫
∴
∼
≃
≈
≡
≤
≥
≻
⊂
⊕
⊗
⊥
⋅
⋆
⋮
⋯
③
④
⑦
─
│
└
├
═
■
►
◄
◌
★
☆
☞
♀
♁
♂
♕
♙
♣
♦
♭
♯
✝
⟨
⟩
⟶
⩽
⩾
ⴰ
ⴱ
ⴶ
ⴷ
ⴹ
ⴼ
ⴾ
ⵂ
ⵉ
ⵍ
ⵎ
ⵏ
ⵓ
ⵔ
ⵗ
ⵙ
ⵜ
ⵣ
ⵥ
⺀
⺄
⺆
⺈
⺊
⺌
⺕
⺝
⺸
⺼
⿰
⿱
⿲
⿳
⿴
⿵
⿶
⿷
⿸
⿹
⿺
⿻
、
。
《
》
「
」
『
』
【
】
〜
〢
あ
い
う
え
お
か
き
く
け
こ
さ
し
す
せ
そ
た
ち
っ
つ
て
と
な
に
ね
の
は
ひ
ふ
へ
ほ
ま
み
む
め
も
ゃ
や
ゅ
ゆ
ょ
よ
ら
り
る
れ
ろ
わ
を
ん
ァ
ア
ィ
イ
ウ
ェ
エ
ォ
オ
カ
キ
ク
ケ
コ
サ
シ
ス
セ
ソ
タ
チ
ッ
ツ
テ
ト
ナ
ニ
ネ
ノ
ハ
ヒ
フ
ヘ
ホ
マ
ミ
ム
メ
モ
ャ
ヤ
ュ
ユ
ョ
ラ
リ
ル
レ
ロ
ワ
ン
・
ー
ㄢ
ㄧ
ㄨ
㇁
㇂
㇄
㇇
㇈
㇉
㇓
㐁
㐄
㐅
㐌
㐫
㐬
㐭
㐮
㐱
㑒
㒵
㒸
㒼
㓁
㓞
㔾
㕛
㕣
㖾
㘝
㚅
㚇
㚔
㚘
㝉
㝡
㝴
㝵
㞋
㞢
㞷
㠩
㠭
㠯
㡀
㡭
㡿
㢲
㢴
㣇
㣺
㥯
㪅
㫄
㫐
㫒
㫺
㬅
㬎
㬥
㬰
㲋
㳄
㷠
㸒
㸚
㸦
㼌
㼲
㽞
㿟
䀠
䂞
䍃
䏍
䒑
䖍
䖒
䖝
䖵
䙴
䚻
䜌
䝿
䡛
䧹
䪞
一
丁
丂
七
丄
丅
丆
万
丈
三
上
下
丌
不
与
丏
丐
丑
专
且
丕
世
丘
丙
业
东
丞
丢
丣
两
严
並
丨
丩
个
丫
丬
中
丮
丰
丱
串
丵
丶
丷
丸
丹
为
主
丽
丿
乀
乂
乃
久
乆
乇
么
义
之
乌
乍
乎
乏
乐
乑
乔
乖
乗
乘
乙
乚
乛
乜
九
乞
也
习
乡
乳
乾
亀
亅
了
亇
予
争
事
二
亍
于
亏
亐
云
互
亓
五
井
亘
亚
亜
亞
亟
亠
亡
亢
交
亥
亦
产
亨
亩
享
京
亭
亮
亯
亰
亲
亳
亶
亷
人
亻
亼
亾
仁
今
介
仌
从
仐
仑
仒
仓
仕
他
付
仝
代
令
以
任
企
伊
伏
伐
休
会
伝
伯
但
位
佐
体
何
佘
余
作
佥
使
來
侈
侌
侖
侯
侵
便
保
俞
信
修
倉
倍
候
倠
備
僉
僕
儿
兀
允
兂
元
兄
充
兆
兇
先
光
兊
克
兌
免
兑
兒
兓
兔
党
兜
兟
入
全
兩
兪
八
公
六
兮
兰
共
关
兵
其
具
典
兹
兼
冀
冂
冃
冄
内
冈
冉
冊
冋
册
再
冎
冏
冐
冒
冓
冖
冗
冘
军
农
冝
冡
冥
冫
冬
冷
几
凡
凢
凵
凶
凷
凸
凹
出
函
凾
刀
刁
刂
刃
刄
刅
分
切
刍
刑
刕
刖
列
刘
则
初
別
利
别
到
制
刺
則
削
剌
前
剡
剽
劉
力
功
加
劦
助
劫
劳
劵
勃
勇
勉
勒
動
務
勝
勞
勤
勹
勺
勻
勾
勿
匀
匂
包
匆
匈
匊
匋
匍
匕
化
北
匚
匝
匡
匪
匱
匸
匹
区
医
匽
匿
區
十
卂
千
卄
卅
卆
升
午
卉
半
卌
华
卑
卒
卓
单
卖
南
博
卜
卝
卞
占
卡
卢
卣
卤
卦
卩
卪
卬
卯
印
危
即
却
卵
卷
卸
卻
厂
厃
厄
历
厈
厉
厌
厓
厘
厚
原
厤
厥
厨
厭
厲
厶
厷
厸
去
厼
厽
县
叀
参
參
叅
又
叉
及
友
双
反
叐
发
叒
叔
叕
取
受
叚
叜
叟
口
古
句
另
叩
只
召
可
台
叱
史
右
叵
号
司
叹
吂
各
吅
合
吉
吊
吋
同
名
后
吏
向
吕
君
吝
吞
否
含
启
吳
吴
吹
吾
呂
呆
呈
告
员
呙
周
命
咅
和
咎
咠
咢
咨
咸
咼
哀
品
哉
員
哥
哲
唐
商
啇
問
啚
啬
啻
善
喜
喬
單
喿
嗇
噩
嚴
囊
囗
囘
囙
囚
四
回
囟
因
囧
囬
困
囱
囷
固
国
圂
圅
國
圍
園
圓
土
圡
圣
圥
在
圭
地
圶
圼
坐
坒
坚
坴
垂
垔
垚
埀
埋
城
埶
執
基
堂
堅
堆
堇
堯
報
場
塞
墨
壘
士
壬
壯
声
壳
壴
壹
壺
壽
夂
处
夅
夆
备
夊
夋
夌
复
夏
夒
夕
外
夗
夘
多
夜
夢
大
夨
天
太
夫
夬
夭
央
失
夲
头
夷
夸
夹
夻
夾
奂
奄
奇
奈
奉
奎
奏
奐
契
奓
奔
奚
奞
奠
奢
奥
奭
女
奴
奻
好
如
妄
妙
妟
妥
妻
妾
姑
委
姜
威
娄
婁
婴
嬰
嬴
子
孑
孔
孕
孖
字
存
孚
孛
孝
孟
季
孤
学
孫
孱
學
宀
宁
宂
它
宅
宇
守
安
宋
完
宏
宓
宗
官
定
宛
宜
宝
客
宣
室
宮
宰
害
家
容
宾
宿
寄
寅
密
富
寒
察
寧
審
寫
寬
寮
寸
对
寺
寻
寽
対
寿
封
尃
射
将
將
專
尉
尊
尋
尌
對
小
少
尒
尓
尔
尖
尗
尚
尞
尢
尣
尤
尧
尨
尭
就
尸
尹
尺
尻
尼
尽
尾
尿
局
居
屈
屋
屎
屏
屑
展
屖
屚
属
屠
屡
屬
屮
屯
屰
山
屵
屾
岁
岂
岑
岡
岩
岳
岸
峯
島
崇
崎
崑
崔
崖
崙
崩
嵬
嶲
巂
巛
川
州
巟
巠
巢
巤
工
左
巧
巨
巩
巫
差
己
已
巳
巴
巷
巸
巻
巽
巾
巿
帀
市
布
希
帚
帛
帝
带
師
席
帶
常
干
平
年
幵
并
幷
幸
幺
幻
幼
幽
幾
广
広
庄
床
底
店
庚
府
度
座
庫
庭
庶
康
庸
廉
廌
廛
廣
廩
廴
延
廷
建
廾
廿
开
弁
弃
弄
弇
弋
式
弓
弔
引
弗
弘
弜
弟
弥
弦
弱
張
強
强
彊
彌
彎
彐
彑
当
彔
录
彖
彗
彡
形
彥
彦
彧
彭
彳
役
彼
往
待
律
後
徒
得
徙
從
復
微
徵
心
忄
必
忌
忍
志
忝
忠
忩
快
念
忽
忿
思
怠
急
性
怱
恆
恋
恒
恩
恭
息
悉
患
悤
悲
悶
情
惠
惡
惢
愁
愈
意
愛
感
慈
慧
慮
憂
憲
應
戀
戈
戉
戊
戋
戌
戍
戎
成
我
戒
戔
或
戚
戠
戢
戦
截
戲
戶
户
戹
戼
戾
房
所
扁
扇
手
扌
才
打
托
执
承
折
拉
拜
拿
掌
推
提
摩
支
攴
攵
收
攸
改
放
政
敄
敏
敕
敖
敗
教
敝
敞
敢
散
敦
敫
敬
数
敷
數
斂
文
斉
斊
斗
斤
斥
斩
斬
斯
新
方
於
施
斿
旁
旋
族
无
旡
既
旣
日
旦
旧
旨
早
旬
旱
旲
时
旾
昆
昇
昌
昍
明
昏
易
昔
昗
昜
星
映
春
昬
是
昱
昴
昷
時
晃
晋
晏
普
景
晶
智
暑
暴
曇
曩
曰
曲
曳
更
曷
書
曹
曼
曾
替
最
朁
會
月
有
朋
服
朔
朕
朗
望
朝
期
木
朩
未
末
本
札
朮
术
朱
朵
朶
朿
杀
李
杏
村
杜
束
条
来
東
杲
杳
松
析
林
枚
果
枝
枲
枼
某
柔
查
柬
柰
柴
栗
校
桀
桑
桼
梁
條
梟
梨
棘
棠
棥
森
楚
業
楽
榮
樂
樊
橋
機
欠
次
欣
欮
欲
欶
欽
款
歆
歇
歌
歛
止
正
此
步
武
歨
歪
歮
歯
歰
歲
歴
歷
歸
歹
歺
死
殳
段
殷
殸
殹
殺
殻
殿
毋
毌
母
每
毒
比
毕
毚
毛
毳
氏
氐
民
气
気
氣
水
氵
氶
氷
永
氺
氾
求
汝
汞
江
決
沃
沓
沙
沝
河
治
泉
法
波
泣
泥
泰
洛
洪
活
派
流
浦
浪
浮
海
淡
淮
清
渚
渠
湯
滿
漸
火
灬
灭
灰
灵
灷
炅
炎
炏
炗
炙
炭
為
烈
烏
烝
焉
無
焦
焱
然
煞
熊
熏
燕
營
燮
爪
爫
爭
爯
爰
爱
爲
爵
父
爻
爽
爾
爿
片
版
牙
牚
牛
牜
牟
牢
牧
物
牪
特
牽
犀
犬
犭
犮
狂
狄
狊
独
狺
猋
猒
猪
献
獻
玄
率
玉
王
玟
玨
珎
班
現
理
琴
瑟
瑩
瓜
瓦
甘
甚
生
産
用
甫
甬
田
由
甲
申
电
甶
男
甸
甹
町
画
甾
畀
界
畏
畐
留
畜
畟
畢
畧
畨
番
畫
異
畱
當
畺
畾
疊
疋
疌
疑
疒
疾
癶
癸
癹
発
登
發
白
百
皀
皃
的
皆
皇
皋
皐
皕
皮
皷
皿
盃
盆
盇
盈
益
盍
盎
监
盒
盖
盛
盡
監
盤
盧
目
直
相
盾
省
眇
眉
看
県
眔
眞
真
眷
眼
眾
着
睘
睪
睿
瞏
瞢
瞿
矍
矛
矞
矢
矣
知
矦
短
石
研
破
碎
磊
磨
示
礻
礼
社
神
祟
票
祭
禀
禁
福
禸
禹
禺
离
禽
禾
禿
秀
秃
秉
秋
科
秝
秦
移
稟
穀
穌
穴
究
穹
空
穿
突
窄
窒
立
竒
竜
竝
竟
章
童
竹
笑
笠
第
筆
等
答
箕
算
箴
節
篤
篭
米
粉
粛
粟
粤
粦
粲
糞
糸
糹
系
約
納
素
索
紫
累
細
結
絜
絫
絲
維
綿
線
編
縣
繇
纍
纟
缶
网
罒
罔
罕
罗
罙
罡
罢
罪
署
罷
羅
羊
羌
羍
美
羔
羕
羗
羞
羡
羣
群
義
羲
羸
羽
翁
翏
習
翕
翟
翠
翼
老
耂
考
者
耆
而
耎
耑
耒
耳
耴
耶
耷
聂
聊
聖
聚
聶
聿
肀
肃
肅
肉
肖
肙
肥
肩
肯
育
肴
胃
背
胡
胥
能
脊
脩
膚
臣
臤
臧
自
臬
臭
臯
臱
至
致
臺
臼
臽
臾
臿
舀
舂
舄
與
興
舉
舌
舍
舛
舜
舞
舟
般
艮
良
色
艸
艹
艾
芒
芔
芬
芮
花
芳
芺
芻
苔
苗
苟
若
苦
英
茶
茸
荅
草
荒
荣
荼
莆
莧
莫
莽
菆
菊
菐
華
萬
落
葉
著
葛
董
葵
蒙
蒦
蒼
蓋
蓬
蓺
蔑
蔡
蕉
蕭
薄
薛
薦
薰
藍
藏
藤
藥
蘭
虍
虎
虐
虒
虔
處
虖
虗
虘
虚
虛
虜
虞
虫
虽
蚤
蚩
蜀
蜜
蟲
蠡
血
行
衍
術
衛
衣
衤
表
衮
衰
袁
袞
褭
褱
襄
襾
西
覀
要
覃
見
規
覓
覧
親
覽
见
角
解
言
訁
訇
計
記
話
詹
語
誩
諸
讠
语
谷
豆
豈
豊
豐
豕
豖
豙
象
豦
豩
豪
豸
貇
貝
貞
貟
負
貢
貧
貪
貫
責
貳
貴
買
費
賁
資
賈
賏
賓
賔
賛
賞
賢
賣
質
賴
贊
贝
贡
责
贯
贲
贵
赖
赞
赤
赦
走
越
足
路
蹇
身
躬
車
軍
軎
軟
輦
车
辛
辜
辟
辥
辰
辱
農
辵
辶
边
达
过
近
连
迷
追
退
送
逆
逐
通
速
造
逢
連
逮
進
遀
遂
過
道
達
遣
適
遷
選
遺
邊
邑
邕
那
邦
邪
郎
部
郭
都
鄉
酉
酋
配
酓
釆
采
里
重
野
量
金
釒
鉄
錢
钅
長
镸
长
門
閃
閉
開
閏
閑
閒
間
閔
閵
閻
闌
门
间
闷
阑
阜
阝
阿
降
院
陳
陽
隆
隊
隋
隡
隨
隱
隶
隹
隺
隻
隼
隽
难
雀
雁
雄
集
雈
雋
雍
雐
雔
雙
雚
雜
雝
離
難
雨
雩
雪
雲
零
雷
電
需
霍
霜
霝
霞
霸
靈
靑
青
非
靡
面
靣
革
韋
韦
韭
韯
韱
音
頁
頃
項
須
頗
頡
頻
顛
页
風
风
飛
飞
食
飠
養
館
饣
首
香
馬
馮
駅
駦
马
骨
高
髟
鬥
鬯
鬲
鬼
魔
魚
魯
鮮
鱼
鲁
鳥
鳳
鸟
鹵
鹿
麃
麗
麥
麦
麻
黃
黄
黍
黎
黑
黒
黨
黹
黽
黾
鼎
鼓
鼠
鼻
齊
齋
齐
齒
齿
龍
龙
龜
龟
龠
龰
龱
龴
龵
龶
龷
龸
龹
者
艹
ﬅ
？
�
𐌰
𐌹
𐍃
𠀁
𠀃
𠀆
𠀉
𠀎
𠀐
𠁁
𠁣
𠂆
𠂇
𠂈
𠂉
𠂊
𠂋
𠂎
𠂒
𠂔
𠂛
𠂡
𠂢
𠂤
𠂬
𠂭
𠂹
𠃊
𠃋
𠃌
𠃍
𠃎
𠃑
𠃓
𠃔
𠃜
𠄌
𠄎
𠄠
𠄢
𠆢
𠆥
𠇍
𠈌
𠌵
𠓜
𠔉
𠔥
𠔼
𠔽
𠔿
𠕀
𠕁
𠕋
𠘧
𠘨
𠙻
𠙼
𠚏
𠚒
𠚤
𠚪
𠣏
𠤎
𠤕
𠥓
𠦄
𠦑
𠦝
𠧒
𠧗
𠧪
𠩺
𠪚
𠫓
𠫔
𠫤
𠬛
𠬝
𠬞
𠬢
𠬤
𠬶
𠮛
𠮦
𠮷
𠯑
𠱠
𠳮
𠷎
𡈼
𡉀
𡉵
𡌥
𡍮
𡏳
𡕒
𡕩
𡕰
𡖅
𡗗
𡗜
𡘆
𡘤
𡧱
𡨄
𡩧
𡬠
𡭽
𡰣
𡰥
𡰪
𡰯
𡰱
𡷈
𡸁
𡿨
𡿩
𡿪
𡿺
𢀖
𢀛
𢀩
𢁙
𢆉
𢆰
𢆶
𢇁
𢇇
𢉖
𢌬
𢌿
𢏚
𢑑
𢑚
𢖻
𢙣
𢛳
𢦏
𢦒
𢧵
𢼄
𢾕
𣁋
𣄼
𣅀
𣅽
𣍘
𣎳
𣎵
𣏋
𣏼
𣗥
𣥂
𣥖
𣦵
𣦼
𣧄
𣪊
𣪠
𣬉
𣳾
𣶒
𤇾
𤊽
𤐫
𤓰
𤔔
𤕨
𤣩
𤰇
𤰔
𤰞
𤴓
𤴔
𤽄
𥁑
𥁕
𥃦
𥃩
𥃭
𥇡
𥑟
𥘅
𥘈
𥝢
𥫗
𥱡
𦈢
𦉪
𦉬
𦉼
𦍌
𦍒
𦎧
𦐇
𦓔
𦔮
𦘒
𦙃
𦚏
𦣝
𦣞
𦣻
𦥑
𦥔
𦥯
𦨉
𦭝
𦰩
𧆞
𧈧
𧘇
𧰨
𧴪
𧴮
𧵩
𧾷
𨸏
𨾴
𩙿
𩠐
𩫏
𩵋
𪉷
𪜀
𪟽
𪠲
𪩲
𫇦
𫔭
𫜸
𫝀
𫠣
𫠩
𫢉
𫥞
𫩏
𫩠
𫪡
𫲽
𫶧
𬀷
𬐘
𬗌
𬙙
𬛸
𬜯
𬟩
𬯁
𬴘
𬺻
𬼉
𬼖
𭀰
𭁈
𭁨
𭅰
𭑈
𭕄
𭗼
𭤨
𭥫
𭻾
𮅕
𮊿
𮍌
𮍏
𮓗
𮥼
𮧮
廾
𰀁
𰀄
𰀈
𰀉
𰀕
𰀠
𰀡
𰀢
𰀪
𰁜
𰃮
𰆊
𰆘
𰋙
𰕎
𰢴
𰧭
𰯲
0--
00--
000--
001--
01--
02--
03--
04--
05--
06--
07--
08--
09--
1--
2--
3--
4--
49--
5--
51--
52--
53--
54--
55--
56--
57--
58--
59--
6--
60--
61--
62--
63--
64--
65--
66--
67--
68--
69--
7--
70--
71--
72--
73--
74--
75--
76--
77--
78--
79--
8--
80--
81--
82--
83--
84--
85--
86--
87--
88--
89--
9--
90--
91--
92--
93--
94--
95--
96--
97--
978--
98--
99--
a--
aa--
ab--
abd--
abe--
aberd--
abom--
abonne--
abor--
abre--
abro--
abru--
absorb--
abst--
abys--
ac--
accabl--
accap--
accele--
accl--
accom--
accr--
accu--
accusat--
ace--
ache--
acqui--
acro--
act--
activ--
activat--
ad--
add--
adj--
admir--
admirat--
adon--
adop--
ador--
ados--
adou--
adouciss--
adv--
adver--
ae--
aero--
af--
affect--
affectue--
affer--
affi--
afgh--
afri--
ag--
aggl--
agi--
agri--
agro--
ah--
ai--
air--
aj--
ajus--
ajuste--
ak--
al--
ala--
albe--
albr--
alci--
ale--
aleks--
algo--
ali--
all--
allge--
allocat--
allum--
alluv--
als--
alt--
alter--
am--
amal--
ambi--
ambitie--
ambu--
ame--
amer--
ameuble--
ami--
amphi--
amplifi--
an--
ana--
anc--
and--
ane--
ang--
angli--
anim--
anna--
anon--
anor--
ans--
ant--
antagon--
ante--
anti--
any--
ao--
ap--
aper--
aperce--
aperco--
aphr--
api--
apoc--
apol--
apollin--
apop--
apost--
apothe--
app--
applaudis--
appli--
appoint--
appre--
appri--
appro--
approxi--
aq--
aqua--
aqui--
ar--
ara--
arbo--
arbris--
arc--
are--
argo--
argu--
ark--
arm--
armat--
arn--
arom--
arr--
arrog--
ars--
art--
arte--
artif--
as--
asp--
asse--
asso--
assou--
astr--
astra--
astron--
astu--
at--
athe--
athl--
atte--
atteign--
atti--
attra--
au--
audacie--
auf--
aug--
aure--
auri--
aus--
aut--
autho--
auto--
av--
ave--
avia--
avr--
aw--
ax--
ay--
az--
aſ--
b--
ba--
bab--
bac--
back--
bad--
bah--
bail--
baion--
bal--
balus--
bamb--
ban--
bapt--
baptis--
bar--
bas--
bat--
batte--
baud--
baum--
bay--
bd--
be--
beau--
bec--
beff--
bei--
bel--
belle--
ben--
bene--
berc--
beren--
berk--
berl--
berm--
bern--
berr--
bert--
bess--
bett--
bey--
bf--
bh--
bi--
bibl--
biblio--
bien--
bifur--
big--
bin--
bio--
bis--
bit--
bj--
bl--
black--
blan--
ble--
bles--
bloo--
blu--
blue--
bm--
bo--
bob--
bocc--
bohe--
bois--
bol--
bomb--
bombar--
bon--
bondis--
book--
borg--
borr--
bot--
botsw--
bou--
bouill--
bourb--
bourd--
bourr--
bours--
boy--
br--
brab--
brac--
brace--
brad--
brag--
brah--
bran--
bras--
brat--
brei--
bren--
bres--
breu--
brig--
bris--
brit--
broa--
broc--
brom--
bron--
brou--
brug--
brul--
bruxel--
bruy--
bu--
bucc--
buch--
buff--
bund--
burg--
bus--
but--
by--
ca--
cabr--
cabrio--
cadi--
caf--
cais--
cal--
cam--
camar--
can--
canna--
canni--
cap--
cape--
capri--
car--
carto--
cas--
cass--
cat--
catas--
cau--
cauc--
caud--
cava--
cc--
cd--
ce--
cele--
celebr--
cend--
centraf--
cerc--
cere--
ceris--
cerv--
ces--
cet--
cf--
ch--
cha--
cham--
chap--
char--
chass--
chauf--
che--
chevauc--
chevr--
chi--
cho--
chou--
chry--
chu--
ci--
cicat--
cil--
cine--
cing--
circon--
cisterc--
cit--
cl--
clair--
clan--
clap--
clar--
clav--
cle--
clign--
cloi--
clus--
cm--
cn--
co--
coch--
cock--
cogn--
cognit--
col--
colos--
com--
commu--
compi--
compli--
compo--
con--
concern--
concor--
condu--
confe--
confirm--
confis--
conju--
connois--
conside--
consp--
construis--
contre--
contu--
cop--
cor--
cordill--
corni--
cornoua--
cos--
cosmi--
cosmo--
cotisat--
cott--
cou--
cour--
cp--
cr--
crac--
cram--
cran--
crap--
cras--
cred--
credu--
crem--
cren--
cres--
creus--
cri--
croc--
croi--
crou--
croy--
cru--
cryptog--
cs--
ct--
cu--
cubi--
cuei--
cuis--
cul--
culti--
cum--
cup--
curr--
cust--
cut--
cv--
cx--
cy--
cycl--
cyni--
cz--
cœ--
d--
da--
dago--
dai--
dal--
dam--
dan--
dar--
das--
dat--
daug--
day--
dd--
de--
debar--
debr--
dec--
deca--
dechi--
decol--
decom--
decon--
decou--
decrois--
def--
defec--
defor--
degus--
dei--
del--
dela--
delib--
delin--
dem--
demar--
demas--
demet--
den--
denom--
denon--
denou--
dent--
depe--
deploy--
deposit--
depre--
der--
derai--
deris--
derou--
des--
desen--
det--
detac--
deten--
deter--
deterio--
detonat--
devan--
devas--
devo--
devr--
dext--
deſ--
dg--
dh--
di--
dia--
diagn--
die--
dieu--
diff--
digi--
din--
dioces--
dios--
dipl--
dipt--
dis--
dist--
diver--
divis--
diſ--
dj--
dja--
djib--
djvu--
dn--
do--
doc--
dog--
dol--
dom--
domin--
don--
dona--
dorm--
dos--
dou--
douan--
dr--
drag--
drain--
drum--
du--
dubr--
duc--
duck--
dupli--
dur--
dus--
dut--
dv--
dw--
dy--
dz--
ea--
east--
eau--
eb--
eben--
eber--
ec--
echa--
echauf--
eche--
echi--
ecle--
eco--
ecras--
ecri--
ecu--
ed--
edu--
ee--
ef--
effi--
eg--
eh--
ei--
ein--
eisen--
ej--
ek--
el--
elas--
ele--
elect--
electro--
eli--
eligi--
elli--
elu--
em--
embar--
embellis--
embr--
eme--
emi--
emou--
emp--
en--
encl--
encombr--
end--
endor--
ener--
enig--
enlu--
ens--
ensui--
entomolog--
entre--
enum--
enzy--
eo--
ep--
epan--
epanouiss--
epar--
eper--
ephe--
epi--
eq--
equato--
equi--
er--
era--
ere--
eryt--
erythr--
es--
escar--
espe--
esper--
esqui--
essu--
est--
et--
eta--
ete--
ethn--
etinc--
etouff--
etru--
eu--
euph--
eur--
euro--
eus--
ev--
eva--
evan--
eve--
ever--
ew--
ex--
exasp--
exca--
exce--
excit--
excu--
execu--
exer--
exot--
exp--
expli--
expo--
expro--
ext--
exter--
extra--
ey--
ez--
eſ--
eſt--
f--
fa--
fabr--
fabu--
fac--
facil--
facul--
fair--
fals--
familia--
fan--
far--
fasci--
fatig--
fauc--
faud--
fc--
fe--
febr--
feign--
feld--
feli--
feod--
fer--
ferri--
fes--
festi--
fet--
feu--
ff--
fi--
fict--
fig--
figurat--
fil--
fin--
fire--
fis--
fit--
fj--
fl--
flag--
flam--
flamboy--
flat--
flav--
flec--
flex--
flor--
floris--
flot--
fluc--
fluo--
fluv--
fn--
fo--
fol--
fon--
font--
for--
fou--
four--
fr--
fra--
france--
fred--
free--
frei--
fremis--
fren--
fres--
frey--
fric--
frie--
froi--
frot--
fruc--
frus--
fu--
fugit--
fuji--
fuku--
fun--
fur--
fus--
fut--
fœ--
ga--
gai--
gal--
gamb--
game--
gang--
garg--
garn--
garr--
gas--
gaud--
gaul--
gaz--
gb--
ge--
gel--
gen--
geo--
gerb--
germ--
get--
gh--
ghis--
gi--
giac--
gian--
gil--
ging--
gior--
giov--
giro--
git--
giul--
gl--
glac--
glad--
glau--
glob--
glor--
glorif--
glou--
gluc--
glyc--
gm--
gn--
go--
god--
gold--
gond--
gont--
good--
got--
goua--
goud--
goul--
gour--
gouver--
gover--
gr--
grac--
grad--
graf--
gram--
grand--
grap--
grat--
gre--
green--
grif--
grim--
grimp--
grom--
gron--
gros--
grou--
grum--
gruy--
gu--
gue--
gui--
guill--
guirl--
gun--
gus--
guti--
guy--
gw--
gy--
gymn--
gœ--
h--
ha--
hab--
had--
hai--
hais--
hal--
hale--
halluci--
ham--
han--
hand--
happ--
harb--
harc--
harm--
harp--
harr--
hart--
has--
hat--
hauss--
haut--
haute--
hay--
he--
head--
hege--
heli--
helm--
helv--
hemi--
hend--
henn--
her--
herac--
heris--
het--
heur--
hexa--
hi--
hier--
high--
hild--
him--
hind--
hip--
hippo--
hiro--
his--
hit--
hl--
hm--
ho--
hoc--
hohe--
holl--
home--
hon--
hop--
horm--
horr--
hort--
hot--
hou--
hr--
hs--
htɑ--
hu--
huff--
hum--
humil--
hund--
hurl--
hw--
hy--
hydr--
hydro--
hyper--
hypn--
hypo--
hypot--
hypothe--
ia--
ib--
ic--
ice--
id--
iden--
ideo--
idio--
ido--
ie--
if--
ig--
ign--
ih--
ii--
ij--
ik--
il--
ill--
illum--
illus--
im--
immi--
immuno--
imp--
imper--
imperfect--
imperie--
imple--
impli--
in--
ina--
inc--
inces--
incid--
incis--
inclu--
incoh--
incom--
incon--
incont--
incor--
incru--
incul--
inde--
indi--
indo--
indomp--
indu--
inef--
infe--
infi--
infil--
infirm--
infl--
info--
inhibit--
inim--
injuri--
inqui--
insc--
inse--
inso--
insp--
inst--
insti--
instruct--
int--
integ--
inter--
intim--
introdui--
invo--
io--
ion--
ip--
ir--
irre--
is--
ishi--
iso--
ist--
it--
itin--
iu--
iv--
ivoi--
iw--
ix--
iz--
j--
ja--
jacq--
jacque--
jahr--
jaillis--
jam--
jamai--
jan--
je--
jean--
jenn--
ji--
jo--
joign--
joli--
jon--
jos--
ju--
judi--
jull--
juris--
jus--
juſ--
k--
ka--
kai--
kal--
kamp--
kan--
kas--
kata--
kath--
kauf--
ke--
ken--
kerg--
kerm--
kers--
kew--
key--
kh--
ki--
kid--
kil--
kim--
kios--
kit--
kl--
kn--
ko--
kon--
kour--
kr--
krem--
krist--
ks--
ku--
kun--
kv--
kw--
ky--
l--
la--
lab--
lac--
lacedemon--
laff--
lai--
lam--
lan--
land--
lapi--
larr--
las--
lat--
laug--
law--
le--
lea--
lect--
legi--
legitim--
legu--
lent--
les--
let--
leu--
levr--
lexic--
lh--
li--
lia--
lib--
lie--
life--
liga--
light--
lign--
lil--
lim--
lin--
lis--
lit--
litho--
liv--
ll--
lo--
loc--
locat--
lon--
long--
lor--
los--
lot--
lou--
louis--
lu--
luc--
lune--
lus--
lut--
lv--
lx--
ly--
lymp--
lys--
m--
ma--
mac--
machi--
mad--
mag--
magno--
mai--
mail--
main--
majestue--
mal--
male--
mali--
malve--
mamm--
man--
mandc--
mania--
manif--
map--
maquill--
mar--
marai--
mare--
marga--
mari--
mas--
mat--
materia--
matri--
maub--
maxi--
may--
mb--
mc--
me--
med--
medie--
mega--
mei--
mel--
melod--
mem--
men--
mer--
merid--
mes--
mesur--
met--
meta--
metho--
mexi--
mi--
micro--
mid--
mil--
min--
mini--
minutie--
mir--
mis--
mise--
mit--
mix--
miya--
ml--
mn--
mo--
mobi--
mod--
modulat--
moi--
mol--
mon--
mono--
mont--
monte--
morb--
mord--
morf--
morp--
morpho--
mosc--
mot--
moto--
mou--
mousque--
mp--
mr--
ms--
mu--
mul--
multi--
mur--
mus--
muti--
mutua--
my--
mythol--
n--
na--
nais--
naka--
nan--
narr--
narrat--
nas--
nat--
naut--
navi--
naviga--
nc--
nd--
ne--
nebu--
nec--
necro--
neder--
nego--
negr--
neo--
nerv--
nes--
net--
neuf--
neum--
neur--
neuros--
neut--
neutra--
nevr--
new--
news--
ng--
nh--
ni--
nie--
niko--
nj--
nk--
no--
nobilia--
noe--
nois--
nom--
non--
nor--
nord--
nos--
not--
novgo--
ns--
nt--
nu--
nul--
numer--
ny--
o--
oa--
ob--
ober--
obs--
obsol--
oc--
oct--
ocul--
od--
oe--
of--
off--
offen--
og--
oh--
oi--
oj--
ok--
ol--
old--
olig--
olym--
om--
omni--
on--
onct--
ondu--
one--
ong--
oo--
op--
open--
opil--
opport--
optim--
or--
orat--
orbit--
orchi--
orfev--
orif--
oro--
orth--
orto--
os--
oscil--
osse--
ost--
ot--
ou--
our--
out--
ov--
over--
ow--
ox--
oy--
oz--
p--
pa--
paci--
pag--
pal--
palis--
palpi--
pamp--
pan--
panor--
papi--
par--
para--
parisc--
parisv--
part--
pas--
past--
pat--
patin--
patis--
patri--
patur--
pau--
pavl--
paya--
paſ--
pc--
pdf--
pe--
peck--
pedes--
pedi--
pedia--
peign--
pejo--
peli--
pell--
pen--
penitenti--
per--
pere--
peri--
perni--
persis--
perturbat--
peru--
pesc--
pess--
pesti--
pet--
petro--
peu--
peyr--
pf--
ph--
pharis--
pharm--
phen--
phi--
phil--
phon--
phos--
photo--
phyl--
phylog--
phys--
physio--
pi--
pic--
pie--
pier--
pill--
pin--
piro--
pis--
pl--
pla--
play--
plea--
plen--
plenipotentia--
pleu--
pli--
plou--
plu--
plura--
pluri--
pm--
pn--
pneu--
po--
poe--
poign--
pol--
poli--
pollu--
polyg--
polym--
polyp--
polyv--
pomm--
pomp--
ponc--
pond--
pont--
pop--
popul--
por--
porno--
poss--
post--
pot--
pou--
pour--
pp--
pr--
prad--
prae--
prag--
pre--
preci--
predi--
preleve--
pres--
princ--
pro--
procu--
produi--
prohi--
prolet--
prolifi--
proto--
prouv--
provo--
præ--
ps--
pseudo--
psyc--
psycho--
pt--
pu--
pub--
puer--
puiſ--
pulv--
pupi--
pur--
purga--
purif--
purificat--
pus--
put--
puy--
py--
qa--
qi--
qu--
qua--
quad--
quadri--
quali--
que--
qui--
quo--
qw--
r--
ra--
racc--
raccor--
raci--
radio--
raf--
rai--
rail--
ralentis--
rall--
ram--
ran--
rap--
ras--
rat--
ratificat--
ratis--
ratta--
ravi--
raviss--
ray--
rc--
re--
rece--
reci--
recipiend--
recl--
reco--
recom--
recon--
rect--
rectificat--
rectil--
red--
redem--
redes--
redev--
redif--
redou--
redres--
redui--
reen--
ref--
refer--
refor--
refract--
refutat--
reg--
regen--
regulat--
rei--
rein--
rejo--
reli--
remar--
remb--
remp--
remu--
remune--
ren--
renon--
renou--
repen--
repli--
repro--
repu--
repugn--
rer--
res--
reser--
respi--
resplendis--
retentiss--
retro--
rev--
revocat--
revol--
[...]
