!
"
#
##0
##1
##10
##11
##12
##13
##14
##15
##16
##17
##18
##19
##2
##20
##21
##22
##23
##24
##25
##26
##27
##28
##29
##3
##30
##31
##32
##33
##34
##35
##36
##37
##38
##39
##4
##40
##41
##42
##43
##44
##45
##46
##47
##48
##49
##5
##50
##51
##52
##53
##54
##55
##56
##57
##58
##59
##6
##60
##61
##62
##63
##64
##65
##66
##67
##68
##69
##7
##70
##71
##72
##73
##74
##75
##76
##77
##78
##79
##8
##80
##81
##82
##83
##84
##85
##86
##87
##88
##89
##9
##90
##91
##92
##93
##94
##95
##96
##97
##98
##99
$
%
&
'
(
)
*
+
,
-
.
/
0
00
000
0000
0004
001
003
007
01
010
02
020
03
030
0362
04
040
05
050
06
07
070
08
09
1
10
100
1000
1001
1002
1007
101
1016
102
1021
103
1038
104
105
106
107
108
1080
1086
1088
109
1093
11
110
1100
111
1111
112
1126
113
114
115
116
117
118
119
12
120
1200
121
12148
122
123
124
125
1250
126
1266
127
128
129
13
130
1300
131
132
133
134
135
1350
136
1365
137
1371
138
139
14
140
1400
141
142
1423
143
144
145
1450
146
147
148
1480
149
1492
15
150
1500
151
1510
1513
1515
1516
152
1520
1521
1525
153
1530
1534
1535
1536
1538
154
1540
1543
1545
1547
155
1550
1552
1553
1555
1556
1557
1558
1559
156
1560
1561
1562
1563
1565
1566
1567
1568
1569
157
1570
1572
1573
1574
1575
1576
1577
1578
158
1580
1582
1584
1585
1586
1587
1588
1589
159
1590
1591
1592
1594
1595
1596
1597
1598
1599
16
160
1600
1601
1602
1603
1604
1605
1606
1607
1608
1609
161
1610
1611
1612
1613
1614
1615
1616
1617
1618
1619
162
1620
1621
1622
1623
1624
1625
1626
1627
1628
1629
163
1630
1631
1632
1633
1634
1635
1636
1637
1638
1639
164
1640
1641
1642
1643
1644
1645
1646
1647
1648
1649
165
1650
1651
1652
1653
1654
1655
1656
1657
1658
1659
166
1660
1661
1662
1663
1664
1665
1666
1667
1668
1669
167
1670
1671
1672
1673
1674
1675
1676
1677
1678
1679
168
1680
1681
1682
1683
1684
1685
1686
1687
1688
1689
169
1690
1691
1692
1693
1694
1695
1696
1697
1698
1699
17
170
1700
1701
1702
1703
1704
1705
1706
1707
1708
1709
171
1710
1711
1712
1713
1714
1715
1716
1717
1718
1719
172
1720
1721
1722
1723
1724
1725
1726
1727
1728
1729
173
1730
1731
1732
1733
1734
1735
1736
1737
1738
1739
174
1740
1741
1742
1743
1744
1745
1746
1747
1748
1749
175
1750
1751
1752
1753
1754
1755
1756
1757
1758
1759
176
1760
1761
1762
1763
1764
1765
1766
1767
1768
1769
177
1770
1771
1772
1773
1774
1775
1776
1777
1778
1779
178
1780
1781
1782
1783
1784
1785
1786
1787
1788
1789
179
1790
1791
1792
1793
1794
1795
1796
1797
1798
1799
18
180
1800
1801
1802
1803
1804
1805
1806
1807
1808
1809
181
1810
1811
1812
1813
1814
1815
1816
1817
1818
1819
182
1820
1821
1822
1823
1824
1825
1826
1827
1828
1829
183
1830
1831
1832
1833
1834
1835
1836
1837
1838
1839
184
1840
1841
1842
1843
1844
1845
1846
1847
1848
1849
185
1850
1851
1852
1853
1854
1855
1856
1857
1858
1859
186
1860
1861
1862
1863
1864
1865
1866
1867
1868
1869
187
1870
1871
1872
1873
1874
1875
1876
1877
1878
1879
188
1880
1881
1882
1883
1884
1885
1886
1887
1888
1889
189
1890
1891
1892
1893
1894
1895
1896
1897
1898
1899
19
190
1900
1901
1902
1903
1904
1905
1906
1907
1908
1909
191
1910
1911
1912
1913
1914
1915
1916
1917
1918
1919
192
1920
1921
1922
1923
1924
1925
1926
1927
1928
1929
193
1930
1931
1932
1933
1934
1935
1936
1937
1938
1939
194
1940
1941
1942
1943
1944
1945
1946
1947
1948
1949
195
1950
1951
1952
1953
1954
1955
1956
1957
1958
1959
196
1960
1961
1962
1963
1964
1965
1966
1967
1968
1969
197
1970
1971
1972
1973
1974
1975
1976
1977
1978
1979
198
1980
1981
1982
1983
1984
1985
1986
1987
1988
1989
199
1990
1991
1992
1993
1994
1995
1996
1997
1998
1999
2
20
200
2000
2001
2002
2003
2004
2005
2006
2007
2008
2009
201
2010
2011
2012
2013
2014
2015
2016
2017
2018
2019
202
2020
2021
2022
2023
2024
2025
203
204
205
206
207
208
209
21
210
211
212
213
214
215
216
217
218
219
22
220
221
222
223
224
225
226
227
228
229
23
230
231
23155
232
233
234
235
236
237
238
239
24
240
241
242
243
244
245
246
247
248
249
25
250
251
252
253
254
255
256
257
258
259
26
260
261
262
263
264
265
266
267
268
269
27
270
271
272
273
274
275
276
277
278
279
28
280
281
282
283
284
285
286
287
288
289
29
290
291
292
293
294
295
296
297
298
299
3
30
300
3000
301
302
303
304
305
306
307
308
309
31
310
311
312
313
314
315
316
317
318
319
32
320
321
322
323
324
325
326
327
328
329
33
330
331
332
333
334
335
336
337
338
339
34
340
3406
341
342
343
344
345
346
347
348
349
35
350
351
352
353
354
355
356
357
358
359
36
360
361
362
363
364
365
366
367
368
369
37
370
371
372
373
374
375
376
377
378
379
38
380
381
382
383
384
385
386
387
388
389
39
390
391
3917
392
393
394
395
396
397
398
399
4
40
400
4000
401
402
403
404
405
406
407
408
409
41
410
411
412
413
414
415
416
417
418
419
42
420
421
422
423
424
425
426
427
428
429
43
430
431
432
433
4331
434
435
436
437
438
439
44
440
441
442
443
444
445
446
447
448
449
45
450
451
452
453
454
455
456
457
458
459
46
460
461
462
463
464
465
466
467
468
469
47
470
471
472
473
474
475
476
477
478
479
48
480
481
482
483
484
485
486
487
488
489
49
490
491
492
493
494
495
496
497
498
499
5
50
500
5000
501
502
503
504
505
506
5066
507
508
509
51
510
511
512
513
514
515
516
517
518
519
52
520
521
522
523
524
525
526
527
528
529
53
530
531
532
533
534
535
536
538
54
540
541
543
544
545
55
550
551
552
553
555
557
56
560
565
57
570
575
576
58
580
585
59
590
6
60
600
601
603
61
610
616
62
620
625
63
630
637
639
64
640
65
650
66
660
666
67
670
674
68
680
69
690
691
7
70
700
71
72
720
73
737
74
741
747
75
750
76
77
78
780
79
8
80
800
81
82
83
84
85
850
86
87
88
880
89
9
90
900
91
911
92
93
94
95
950
951
96
960
97
978
979
98
99
999
:
;
<
=
>
?
@
[
\
]
^
_
`
a
aa
aaron
ab
aba
abaisse
abaissement
abaisser
abandon
abandonna
abandonnait
abandonnant
abandonne
abandonnent
abandonner
abat
abattre
abattu
abattue
abattus
abbas
abbatiale
abbaye
abbayes
abbe
abbesse
abbeville
abbey
abbott
abc
abcd
abd
abdallah
abdication
abdomen
abdul
abe
abeille
abeilles
abel
abi
abidjan
abitibi
ablatif
able
ablement
ables
abne
aboli
abolir
abolition
abominable
abondamment
abondance
abondant
abondante
abondantes
abonde
abondent
abonne
abonnement
abord
aborde
aborder
abords
aborige
abou
about
abouti
aboutir
aboutissant
aboutissent
aboutit
abraham
abre
abri
abris
abritait
abritant
abrite
abritent
abriter
abroge
absence
absent
absente
absents
abside
absolu
absolue
absolument
absorbe
absorber
absorption
abstenir
abstention
abstraction
abstrait
abstraite
abstraites
absurde
absurdes
absurdite
abu
abus
abuse
abuser
ac
acacia
acad
acade
academia
academic
academy
acadie
acadiens
accable
acce
accent
accents
accentue
accepta
acceptable
acceptait
acceptant
acceptation
accepte
acceptent
accepter
acception
access
accessed
accessible
accessibles
accession
accessoire
accessoires
accidens
accident
accidente
accidentellement
accidents
acclamations
acclame
accole
accommode
accommoder
accompagna
accompagnait
accompagnant
accompagne
accompagnement
accompagnent
accompagner
accompli
accomplie
accomplir
accomplis
accomplissement
accomplit
accord
accorda
accordait
accordant
accorde
accordent
accorder
accords
accouche
accouchement
accoutume
accre
accroche
accroi
accroissement
accru
accrue
accueil
accueillant
accueille
accueillent
accueilli
accueillie
accueillir
accueillis
accueillit
accumulation
accumule
accusait
accusant
accusatif
accusation
accusations
accuse
accusent
accuser
ace
acharne
acharnement
achat
achats
ache
achemine
acheta
achete
acheter
acheteur
acheteurs
acheva
achevait
acheve
achever
achille
acid
acide
acides
acier
acoustique
acque
acquie
acquiert
acquis
acquise
acquises
acquisition
acquisitions
acquit
acquitte
acquitter
acre
acres
acronyme
act
acta
acte
actes
acteur
acteurs
actif
actifs
action
actionnaire
actionnaires
actions
activation
active
activement
actives
activite
actrice
actrices
actu
actualise
actualiser
actualite
actuel
actuelle
actuellement
actuelles
actuels
ad
ada
adam
adams
adaptation
adaptations
adapte
adapter
add
addition
additionnelles
additions
ade
adeptes
ades
adhe
adieu
adieux
adj
adjectif
adjectifs
adjoint
adjointe
adjoints
adjudant
adjuge
adjusted
adler
admet
admettait
admettant
admettent
admettre
administrateur
administrateurs
administratif
administratifs
administration
administrations
administrative
administrativement
administratives
administre
administrer
admirable
admirablement
admirables
admirait
admirateurs
admiration
admire
admirer
admis
admise
admissibilite
admissible
admission
adn
adolescence
adolescent
adolescente
adolescents
adolf
adolphe
adonne
adopta
adoptant
adopte
adoptent
adopter
adoptif
adoption
adorable
adoration
adore
adorer
adosse
adoucir
adoucissement
adour
adressa
adressait
adressant
adresse
adressent
adresser
adresses
adrian
adriatique
adrien
adrienne
adroit
adroitement
adult
adulte
adultes
adv
advanced
adventure
adventures
adverbe
adversaire
adversaires
adverse
ae
af
afc
affaibli
affaiblie
affaiblir
affaiblissement
affaire
affaires
affairs
affaissement
affame
affectant
affectation
affecte
affectent
affecter
affection
affections
affectueux
affichage
affiche
affichent
afficher
affiches
affile
affilie
affine
affinite
affirma
affirmait
affirmant
affirmation
affirmations
affirme
affirment
affirmer
affliction
afflige
affluence
affluent
affluents
affole
affranchi
affranchir
affranchis
affranchissement
affreuse
affreux
affront
affronte
affrontement
affrontements
affrontent
affronter
affu
afghanistan
afin
afp
africa
africain
africaine
africaines
africains
african
africultures
afrikaans
afrique
afro
after
ag
again
against
agatha
agathe
age
agen
agence
agences
agency
agenda
agenouille
agens
agent
agents
ages
agglome
aggrave
agi
agile
agilite
agir
agirait
agissait
agissant
agisse
agissent
agit
agitait
agitant
agitation
agitations
agite
agitent
agiter
agne
agneau
agonie
agorha
agostini
agraire
agrandi
agrandie
agrandir
agrandissement
agrandit
agre
agression
agressions
agreste
agricole
agricoles
agriculteur
agriculteurs
agriculture
agrippa
agro
agronomie
ah
ahmad
ahmed
ai
aida
aidant
aide
aident
aider
aides
aie
aient
aigle
aigles
aignan
aigre
aigu
aigue
aiguille
aiguilles
aiguillon
aigus
ail
aile
ailes
ailier
aille
ailles
ailleurs
aima
aimable
aimables
aimaient
aimais
aimait
aimant
aime
aiment
aimer
aimerais
aimerait
aimes
aimez
aimons
ain
aine
ainsi
ainſi
air
airain
airbus
aircraft
aire
aires
airlines
airport
airs
airways
ais
aisance
aise
aises
aisne
ait
aix
aj
ajaccio
ajax
ajout
ajouta
ajoutait
ajoutant
ajoute
ajoutent
ajouter
ajoutez
ajoutons
ajuste
ak
akademie
akademio
akira
al
ala
alabama
alable
alablement
alain
alan
alarme
alarmes
alaska
alba
alban
albanais
albanie
albany
albe
albedos
albert
alberta
albertine
alberto
albi
albin
albrecht
album
albums
alcan
alcibiade
alcool
alcoolique
aldo
ale
alejandro
alembert
alenc
alentour
alentours
alep
alerte
ales
alessandro
alex
alexander
alexandra
alexandre
alexandrie
alexei
alexis
alfa
alfonso
alfred
alfredo
alge
alger
algorithme
algorithmes
algues
ali
alias
alice
alicia
alie
alien
aligne
aligned
alignement
alimens
aliment
alimentaire
alimentaires
alimentation
alimente
alimenter
aliments
aline
alisa
alisant
alisateur
alisateurs
alisation
alisations
alisatrice
alise
alisent
aliser
alisme
alison
aliste
alistes
alite
alive
alix
all
alla
allah
allai
allaient
allais
allait
allan
allant
alle
allegro
allemagne
allemand
allemande
allemandes
allemands
allen
aller
allez
alliage
alliance
alliances
allie
allier
allions
allison
allmovie
allmusic
allocation
allocine
alloit
allonge
allons
alloue
alluma
allume
allumer
allure
allures
allusion
allusions
alma
almanach
alogie
alogique
alone
alonso
alors
alouette
alpes
alpha
alphabe
alphabet
alphonse
alpin
alpine
als
alsace
alsacien
alsacienne
also
alt
alte
alter
alternance
alternatif
alternative
alternativement
alternatives
alterne
altesse
altitude
altitudes
alto
aluminium
alve
always
am
ama
amalgame
amand
amanda
amans
amant
amante
amants
amarre
amas
amasse
amateur
amateurs
amaury
amazon
amazone
ambassade
ambassadeur
ambassadeurs
amber
ambiance
ambigu
ambigui
ambitieux
ambition
ambitions
amboise
ambre
ambroise
ambulance
ambule
ame
amen
amena
amenait
amenant
amende
amendement
amene
amener
amer
america
american
amertume
ames
ameublement
ami
amical
amicale
amie
amiens
amies
amine
amiral
amiraute
amis
amitie
amnesty
amnistie
among
amont
amor
amorce
amore
amos
amour
amoureuse
amoureuses
amoureux
amours
ampe
amphibian
amphibiaweb
amphibiens
amphithe
ample
amplement
ampleur
amplitude
amsterdam
amusait
amusant
amuse
amusement
amuser
amy
an
ana
anagrammes
anai
analogie
analogue
analogues
analyse
analyser
analyses
analysis
analytique
anarchie
anarchisme
anarchiste
anarchistes
anathe
anatole
anatolie
anatomie
anatomy
anc
ance
ances
ancien
ancienne
anciennement
anciennes
anciennete
anciens
ancient
ancier
anciers
ancre
and
andalousie
anderlecht
anders
andersen
anderson
andes
andorre
andre
andrea
andreas
andrei
andres
andrew
andrews
android
andy
ane
anecdote
anecdotes
anesthe
ang
ange
angel
angela
angeles
angelo
angels
angers
anges
anglais
anglaise
anglaises
angle
angles
angleterre
anglicisme
anglo
anglois
anglophone
anglophones
angoisse
angoisses
angola
angoule
angulaire
angus
anhalt
ani
anie
anima
animait
animal
animale
animales
animals
animateur
animation
animations
animatrice
animaux
anime
animer
anique
aniques
anita
anjou
anmoins
ann
anna
annales
annals
anne
anneau
anneaux
annecy
annette
annexe
annexes
annexion
annibal
annie
anniversaire
anniversary
anno
annonc
annonce
annoncent
annoncer
annonces
annonciation
annote
announced
announces
annuaire
annual
annuel
annuelle
annuellement
annuelles
annuels
annulation
annule
annuler
anomalie
anomalies
anonyme
anonymes
another
ans
anse
anselme
ant
antagonisme
antarctique
ante
antenne
antennes
antes
anthologie
anthony
anthropologie
anti
antibes
antichambre
anticipation
anticipe
antigone
antilles
antioche
antiquaires
antique
antiques
antiquite
antir
antise
antissement
anto
antoine
antoinette
anton
antoni
antonia
antonin
antonio
antony
antre
ants
anvers
anxie
any
ao
aoc
aoriste
aoste
aou
aout
ap
apache
apaise
apaiser
apanage
ape
aperc
apercevait
apercevant
apercevoir
apg
api
aplomb
apo
apocalypse
apoge
apollinaire
apollo
apollon
apologie
apostolique
apothe
app
appa
apparai
apparaissait
apparaissant
apparaissent
apparait
appareil
appareils
apparemment
apparence
apparences
apparent
apparente
apparition
apparitions
appartement
appartements
appartenaient
appartenait
appartenance
appartenant
appartenir
appartenu
appartiennent
appartient
apparu
apparue
apparus
apparut
appe
appel
appela
appelaient
appelait
appelant
appele
appeler
appelez
appellation
appellations
appelle
appellent
appelons
appels
appendice
apperc
applaudir
applaudissements
apple
applicable
applicables
application
applications
applied
appliqua
appliquait
appliquant
applique
appliquent
appliquer
apport
apporta
apportait
apportant
apporte
apportent
apporter
apports
appose
appre
apprenait
apprenant
apprend
apprendra
apprendre
apprends
apprenez
apprennent
apprenti
apprentis
apprentissage
appris
apprit
approbation
approcha
approchait
approchant
approche
approchent
approcher
approches
approfondie
approfondir
approfondissant
approprie
approprier
approuve
approuver
approvisionnement
approximation
approximativement
appui
appuie
appuient
appuya
appuyait
appuyant
appuye
appuyer
apr
apre
apres
april
apt
apte
aptitude
aptitudes
apud
aquarelle
aquarium
aquatique
aquatiques
aqueduc
aquin
aquitaine
ar
ara
arab
arabe
arabes
arabie
arables
arachnida
arachnologie
arago
aragon
araigne
arane
araneae
arbitrage
arbitraire
arbitrairement
arbitraires
arbitre
arbitres
arbore
arbre
arbres
arbustes
arbustive
arc
arcade
arcades
arch
archaeology
archai
archange
arche
archer
archers
arches
archeve
archibald
archidioce
archiduc
archie
archipel
architecte
architectes
architectural
architecturale
architecture
archiv
archive
archives
archiviste
arcs
arctique
ard
arde
ardemment
ardenne
ardennes
ardent
ardente
ardentes
ardents
ardeur
ardoise
are
area
areas
arena
ares
arg
argent
argente
argentin
argentina
argentine
argentino
argile
argiles
argileux
argos
argot
argumens
argument
argumentaire
argumentation
arguments
argus
ari
aria
ariane
aride
arides
arie
ariel
aristide
aristocrate
aristocrates
aristocratie
aristocratique
aristote
arithme
arizona
ark
arkansas
arlequin
arles
arm
armagnac
armand
arme
armement
armer
armes
armistice
armoire
armoiries
armor
armorial
arms
armstrong
armure
army
arn
arnaud
arno
arnold
aro
around
arpents
arr
arracha
arrache
arracher
arrange
arrangement
arrangements
arranger
arras
array
arre
arrestation
arrestations
arrie
arriva
arrivai
arrivaient
arrivait
arrivant
arrive
arrivent
arriver
arrivera
arriverait
arrivons
arrondi
arrondie
arrondissement
arrondissements
arrose
arrow
ars
arse
arsenal
art
artagnan
arte
arthur
article
articles
articulation
articule
artifice
artifices
artificiel
artificielle
artificielles
artificiels
artillerie
artisan
artisanat
artisans
artist
artiste
artistes
artistique
artistiques
artists
artois
arts
arturo
arxiv
as
asce
ascendance
ascendant
ascenseur
ascension
aseæ
ash
ashley
asia
asian
asiatique
asiatiques
asie
asile
asin
asp
aspect
aspects
aspirant
aspiration
aspirations
aspire
aspirer
aspx
assaillants
assainissement
assassin
assassinat
assassine
assassiner
assassins
assaut
assauts
asse
assemblage
assemble
assemblee
assembler
assembly
assentiment
asseoir
assertion
assez
assidu
assie
assiette
assiettes
assigne
assigner
assimilation
assimile
assimiler
assis
assise
assises
assista
assistance
assistant
assistante
assistants
assiste
assistent
assister
assit
associant
associated
association
associations
associe
associer
assomption
assume
assumer
assura
assurait
assurance
assurances
assurant
assure
assurent
assurer
aste
asteroid
asteroids
astier
aston
astre
astres
astrologie
astronautique
astronome
astronomes
astronomical
astronomie
astronomique
astronomiques
astronomy
astrophysical
astrophysics
asturies
asyme
at
atari
ate
atelier
ateliers
ateur
ateurs
athanase
athe
athle
athletic
athletics
athos
ation
ations
atlanta
atlantic
atlantique
atlantiques
atlas
atle
atmosphe
atoire
atome
atomes
atomic
atomique
atout
atp
atque
atre
atrice
atrix
atroce
atrocite
ats
attacha
attachait
attachant
attache
attachement
attachent
attacher
attack
attaqua
attaquant
attaque
attaquent
attaquer
attaques
attarde
atte
atteignait
atteignant
atteignent
atteignit
atteindre
atteint
atteinte
atteintes
atteints
attelage
attele
attend
attendaient
attendais
attendait
attendant
attendent
attendez
attendit
attendons
attendre
attendrissement
attends
attendu
attendue
attendues
attentat
attentats
attente
attentes
attentif
attention
attentions
attentive
attentivement
atterrissage
atteste
attestent
attila
attique
attira
attirait
attirant
attire
attirent
attirer
attitude
attitudes
attraction
attractions
attrait
attraits
attrape
attraper
attribuait
attribuant
attribue
attribuent
attribuer
attribut
attribution
attributions
attributs
attriste
ature
atures
au
aube
auberge
aubergiste
aubert
aubin
aubry
auch
auckland
aucun
aucune
aucunement
aucuns
audace
audacieuse
audacieux
aude
audi
audience
audiences
audio
audiovisuel
audiovisuelle
audit
auditeur
auditeurs
audition
auditoire
audrey
auec
auf
auffray
aug
auge
augmenta
augmentait
augmentant
augmentation
augmente
augmentent
augmenter
augsbourg
augure
august
augusta
auguste
augustin
augustine
augustins
augusto
aujourd
aumo
auoir
auoit
auparavant
aupre
auquel
aura
aurai
auraient
aurais
aurait
auras
aure
aurez
auriez
aurions
auroient
aurois
auroit
aurons
auront
aurora
aurore
aus
auschwitz
auspices
aussi
aussito
auste
austen
austerlitz
austin
australia
australian
australie
australien
australienne
australiens
austria
austro
aut
autant
autel
autels
auteuil
auteur
auteure
auteurs
authenticite
authentique
authentiques
author
authority
autisme
auto
autobiographie
autobiographique
autobus
autochtone
autochtones
autode
automatique
automatiquement
automatiques
automne
automobile
automobiles
autonome
autonomes
autonomie
autoportrait
autorisant
autorisation
autorise
autoriser
autoritaire
autorite
autoroute
autoroutes
autour
autre
autrefois
autrement
autres
autrices
autriche
autrichien
autrichienne
autrichiens
autrui
autun
auvergne
aux
auxerre
auxiliaire
auxiliaires
auxquelles
auxquels
auſſi
av
ava
avaient
avais
avait
aval
avalanche
avale
avaler
avanc
avance
avancement
avancent
avancer
avances
avant
avantage
avantages
avantageuse
avantageux
avare
avarice
ave
avec
avengers
avenir
aventure
aventures
aventurier
aventuriers
avenue
avenues
aversion
averti
avertir
avertis
avertissement
avertit
aveu
aveugle
aveuglement
aveugles
aveux
aveyron
avez
aviateur
aviation
avibase
avide
avides
avidite
aviez
avignon
avion
avions
aviron
avis
avise
aviv
avocat
avocate
avocats
avoient
avoine
avoir
avois
avoit
avons
avortement
avoua
avoue
avouer
avr
avril
award
awards
away
ax
axe
axel
axes
axiome
ay
ayant
ayez
ayme
ayons
az
aze
azerbai
azote
azur
aſſez
aɪ
aɾ
aʁ
aʊ
b
ba
bab
baba
babel
baby
babylone
bac
baccalaure
bacchus
bach
bachelier
bachelor
back
bacon
bacte
bad
bade
baden
badminton
bagage
bagages
bagarre
bagdad
bagne
bague
baguette
bah
bahamas
bahia
bahrei
bai
baidu
baie
baies
baigne
bail
bailey
bailli
bailliage
baillie
bailly
bain
bains
baisa
baise
baiser
baisers
baissa
baissant
baisse
baisser
baker
bakou
bakounine
bal
balai
balanc
balance
balancer
balaye
balbutia
balcon
baldwin
bale
baleine
balise
balkans
ball
ballade
ballades
balle
balles
ballet
ballets
ballon
ballons
balne
bals
balthazar
baltimore
baltique
balzac
bambou
ban
banal
banale
banc
bancaire
bancs
band
bande
bandeau
bandes
bandit
bandits
bang
bangkok
bangladesh
bank
banks
banlieue
banni
bannie
banque
banques
banquet
banquier
banquiers
bapte
baptise
baptiste
bar
barbara
barbare
barbares
barbarie
barbe
barbier
barcelona
barcelone
barde
bare
bari
barker
barnes
barome
baron
baronne
baronnet
baronnie
barons
baroque
barque
barquement
barquer
barques
barrage
barrages
barrasse
barrasser
barre
barreau
barreaux
barres
barrett
barricade
barricades
barrie
barry
bars
bart
barthe
barton
baryton
bas
bascule
base
baseball
based
bases
basic
basile
basilique
basket
basketball
basketteur
basque
basques
bass
basse
basses
bassesse
bassin
bassins
bassiste
bassompierre
bastia
bastide
bastien
bastille
bastion
bat
bataille
batailles
bataillon
bataillons
bateau
bateaux
bates
bath
batman
bats
battaient
battait
battant
battement
battent
batterie
batteries
batteur
battista
battit
battle
battre
battu
battue
battus
bauche
bauches
baudelaire
baudouin
bauer
baume
baux
bavarois
bavie
bay
bayard
bayern
bayeux
bayle
bayonne
bazar
bazin
bb
bbc
bc
bd
be
beach
bear
beast
beat
beatles
beau
beauce
beaucoup
beaufort
beaulieu
beaumarchais
beaumont
beaune
beaupre
beauregard
beaute
beautiful
beauty
beauvais
beaux
bec
beck
becker
bedford
been
beethoven
beffroi
before
begin
begonia
behind
bei
beier
beijing
being
bel
belfast
belfort
belge
belges
belgique
belgium
belgrade
belin
bell
bella
belle
bellefon
bellegarde
belles
belleville
bellevue
bellion
belmont
belt
belve
ben
bene
bengale
beni
benjamin
bennett
benny
benoi
benoist
benoit
benson
benth
benz
ber
berbe
berce
berceau
bercy
berg
berge
bergement
bergen
berger
bergerac
bergers
berges
berkeley
berlin
berline
berliner
berlioz
bernadette
bernard
bernardin
bernardo
berne
bernhard
bernie
bernier
bernstein
berry
bert
berthe
berthelot
berthier
bertin
bertram
bertrand
bes
besanc
besogne
besoin
besoins
besson
best
bestiaux
bet
beta
beth
better
betty
between
beurre
beuve
beverly
bey
beyond
beyrouth
beæ
bf
bfmtv
bg
bi
biais
bianca
biarritz
biathlon
bibcode
bible
bibliographie
bibliographique
bibliophiles
bibliothe
biblique
bibliques
bice
bicyclette
bie
bien
bienfaisance
bienfaisante
bienfait
bienfaiteur
bienfaits
bienheureuse
bienheureux
biennale
biens
biento
bienveillance
bienveillant
bienvenue
big
bigorre
bigot
bijou
bijoux
bilan
bilancio
bilate
bilbao
bile
bilingue
bill
billancourt
billard
billboard
bille
billet
billets
billie
billot
billy
bin
binaire
bing
bingen
bino
bio
biochimie
biodiversite
biodiversity
biografico
biographe
biographical
biographie
biographies
biographique
biographiques
biography
biolib
biological
biologie
biologique
biologiques
biologiste
biology
biophysique
bir
bird
birds
birmanie
birmingham
birth
bis
bishop
bismarck
bit
bite
biteur
bits
bizarre
bizarres
bjo
bl
bla
black
blacks
blackwell
blade
blair
blaise
blake
blanc
blancha
blanchard
blanche
blanches
blancheur
blanco
blancs
blas
blason
blasphe
ble
bles
blesse
blesser
blessure
blessures
bleu
bleua
bleue
bleues
bleus
blind
blinde
bloc
blocage
bloch
block
blocs
blocus
blog
blogspot
blois
blond
blonde
blondel
blonds
blood
bloque
bloquer
blouse
blu
blue
blues
blum
bm
bmw
bn
bnf
bo
board
boat
bob
bobby
bocage
body
boe
boeck
boeing
bogota
bohe
boi
boileau
boire
bois
boise
boisson
boissons
boit
boite
boiteux
bol
bolivie
bologne
bombarde
bombardement
bombardements
bombardier
bombardiers
bombay
bombe
bombes
bon
bonaparte
bonaventure
bond
bondit
bone
bonheur
bonhomie
bonhomme
boniface
bonjour
bonn
bonne
bonnes
bonnet
bonnie
bons
bonsoir
bonte
bonus
book
bookcorrespondance
bookl
bookla
bookle
bookles
books
boom
boot
bor
bord
bordant
borde
bordeaux
bordement
bordent
border
bords
bordure
bore
borel
borgia
boris
born
borne
borner
bornes
borough
bos
bosch
bosnie
bosnien
bosquet
boss
bosse
bossu
bossuet
boston
bot
botanic
botanica
botanical
botanique
botaniste
botswana
botte
bottes
bou
bouc
bouchard
bouche
boucher
boucherie
bouches
bouchon
boucle
boucles
bouclier
boucliers
bouddha
bouddhisme
bouddhiste
bouddhistes
boue
bouffe
bouffon
bouge
bouger
bougie
bougies
bouillante
bouillet
bouillir
bouillon
boulanger
boulangerie
boule
boulenger
boules
boulet
boulets
boulevard
boulevards
bouleverse
boulogne
bouquet
bouquets
bouquins
bourbon
bourbonnais
bourbons
bourdon
bourg
bourgade
bourgeois
bourgeoise
bourgeoises
bourgeoisie
bourges
bourget
bourgmestre
bourgogne
bourgs
bourguignon
bourguignons
bourloton
bourre
bourreau
bourreaux
bourse
bourses
bout
bouteille
bouteilles
boutique
boutiques
bouton
boutons
bouts
bouvier
bovins
bowie
bowl
box
boxe
boxeur
boy
boyd
boyer
boyle
boys
bp
bpt
br
bra
brabant
brad
bradford
bradley
brady
brai
brain
bral
brale
branche
branches
brand
brandebourg
brandon
brandt
branlable
branle
branler
brant
braque
bras
brasil
brasse
brasserie
bration
braun
brave
bravement
braver
braves
bravo
bravoure
bray
brazil
brazzaville
bre
break
breaking
brebis
bref
brent
brer
bres
brescia
bresse
brest
bretagne
breton
bretonne
bretons
brett
breu
breuil
breux
brevet
brevets
brgm
brian
brianc
briand
brice
brick
bride
bridge
brie
brief
brien
brienne
brieuc
brigade
brigades
brigadier
brigand
brigands
bright
brighton
brigitte
brill
brillaient
brillait
brillant
brillante
brillantes
brillants
brille
brillent
briller
brin
brique
briques
bris
brisa
brise
briser
brisson
bristol
britain
britannica
britannique
britanniques
brite
british
brive
bro
broadcasting
broadway
broche
brochure
brochures
brockhaus
brode
broglie
broken
bronze
brooke
brooklyn
brooks
bros
brossard
brosse
brother
brothers
brouillard
brouille
brouiller
broussailles
brousse
brown
browning
broye
bru
bruce
bruges
bruit
bruits
brumaire
brume
brumes
brun
brune
brunes
brunet
bruno
bruns
brunswick
brusque
brusquement
brut
brutal
brutale
brutalement
brutalite
brute
brutes
brutus
bruxelles
bruxellois
bruyante
bruye
bryan
bryant
brysbaert
bs
bt
bu
bucarest
buck
buckingham
bud
budapest
buddy
budge
budget
budgets
bue
buenos
buffalo
buffet
buffon
buffy
bugey
building
buis
buisson
buissons
buleuse
bulgare
bulgares
bulgarie
bull
bulle
bulles
bulletin
bulletins
bundesliga
bureau
bureaux
burgos
burke
burkina
burkinabe
burlesque
burns
burton
burundi
bus
bush
business
bussy
buste
but
buta
butant
bute
butent
buter
buteur
butin
butler
buts
butte
button
buvait
by
bye
byrne
byron
byzance
byzantin
byzantine
byzantins
bœuf
bœufs
bɑ
bɔ
bə
bɛ
bʁi
c
ca
cabane
cabanes
cabaret
cabine
cabines
cabinet
cabinets
cable
cabriolet
cacha
cachait
cachant
cache
cachent
cacher
cachet
cachette
cachot
cactus
cadastre
cadavre
cadavres
cade
cadeau
cadeaux
cadence
cadet
cadets
cadette
cadix
cadran
cadre
cadres
caen
caf
cafe
cage
cages
cahier
cahiers
cahors
cai
caille
cailles
caillou
cailloux
cain
caire
caires
cairn
caisse
caisses
caius
cal
calabre
calage
calais
calamite
calcaire
calcaires
calcium
calcul
calcule
calculer
calculs
calcutta
cale
calendrier
calgary
calibre
calice
calife
california
californie
call
calle
called
calmann
calme
calmer
calmes
calomnie
calomnies
calotte
calque
calvados
calvaire
calvin
cam
camarade
camarades
cambodge
cambrai
cambre
cambresier
cambridge
came
camera
cameron
cameroun
camerounais
camerounaise
camille
camion
camions
camp
campagne
campagnes
campaign
campanie
campbell
campe
campement
camping
campo
camps
campus
camus
can
canada
canadian
canadien
canadienne
canadiennes
canadiens
canaille
canal
canape
canard
canards
canaries
canaux
cance
cancer
candeur
candidat
candidate
candidats
candidature
candidatures
candide
cane
cangjie
canicien
canicule
canique
caniques
canisme
canismes
cannabis
canne
cannes
canoe
canon
canonique
canons
canot
canots
cantal
cantalausa
cantate
canterbury
cantique
cantiques
canton
cantonais
cantonal
cantonale
cantonales
cantonne
cantons
canyon
cao
caoutchouc
cap
capable
capables
capacite
cape
capitaine
capitaines
capital
capitale
capitales
capitalisme
capitaliste
capitalistes
capitaux
capite
capitole
capitulation
caporal
caprice
caprices
capsule
captain
capteurs
captif
captifs
captive
captivite
capture
capturer
capucins
car
carabine
caracte
carai
caravane
carbonate
carbone
carburant
carcassonne
card
cardiaque
cardiff
cardinal
cardinaux
cardot
care
career
caresse
caresses
carex
carey
cargaison
cargo
caricature
carl
carla
carlate
carlo
carlos
carme
carmel
carmen
carmes
carnage
carnaval
carne
carnegie
carnet
carnets
carnot
caro
carol
carole
carolina
caroline
caron
carpenter
carr
carre
carreau
carreaux
carrefour
carrie
carrier
carroll
carrosse
carrosserie
cars
carson
cart
carta
cartant
carte
cartel
cartement
carter
cartes
carthage
carthaginois
cartier
cartographie
carton
cartons
cartoon
cartouche
cartouches
carts
cartulaire
cas
casa
casablanca
casanova
cascade
cascades
case
caserne
casernes
cases
casey
cash
casimir
casino
casque
casques
casquette
cass
cassation
casse
cassel
casser
cassette
cassini
cassius
cast
caste
castel
castello
castelnau
casterman
castes
castille
castillo
casting
castle
castor
castres
castro
castrum
cat
catalan
catalana
catalane
catalans
catalog
catalogne
catalogue
catalogues
catastrophe
catastrophes
catch
cate
cathe
catherine
catholic
catholicisme
catholique
catholiques
cations
caton
caucase
cauchemar
causa
causaient
causait
causalite
causant
cause
causent
causer
causes
caution
cautions
caux
cavailhes
cavalerie
cavalier
cavaliers
cave
caveau
caverne
cavernes
caves
cavite
cayenne
cb
cbc
cbs
cc
cd
cdot
cdots
ce
ceci
cecil
ceinture
cela
cell
celle
celles
cellulaire
cellule
cellules
celte
celtes
celtic
celtics
celtique
celtiques
celui
celuy
cembre
cemment
cence
cendre
cendres
cennie
cennies
cens
cense
censure
census
cent
centaine
centaines
cente
centenaire
center
centes
centie
centime
centimes
central
centrale
centrales
centralisation
centralise
centraux
centre
centres
centro
cents
century
cependant
cepte
ceptes
cepteur
cepteurs
ception
ceptions
cercle
cercles
cercueil
cerf
cerfs
cerises
cerne
cerner
certain
certaine
certainement
certaines
certains
certes
certificat
certification
certifie
certitude
cerveau
cervelle
ces
cesare
cessa
cessaire
cessairement
cessaires
cessait
cessation
cesse
cessent
cesser
cesseras
cesseur
cesseurs
cessez
cession
cessitant
cessite
cessitent
cest
ceste
cet
cette
ceux
ceylan
cf
cfa
cg
cgt
ch
cha
chabot
chacun
chacune
chad
chafaud
chage
chagrin
chagrins
chai
chaient
chaine
chair
chaire
chairs
chaise
chaises
chait
chal
chalde
chalet
chaleur
chaleurs
challenge
challenger
challenges
chalon
chaloupe
cham
chambe
chambellan
chamberlin
chambers
chambre
chambres
chameau
chameaux
chamonix
champ
champagne
champe
champignon
champignons
champion
championnat
championnats
championne
champions
championship
championships
champlain
champs
chan
chance
chancelier
chancellerie
chances
chancete
chandelle
chandler
chang
change
changea
changeait
changeant
changemens
changement
changements
changent
changer
changes
changeur
channel
chanoine
chanoines
chanson
chansons
chant
chanta
chantaient
chantait
chantal
chantant
chante
chantent
chanter
chanteur
chanteurs
chanteuse
chantier
chantiers
chantillon
chantillons
chantilly
chantre
chants
chanvre
chao
chaos
chap
chapeau
chapeaux
chapelain
chapelet
chapelle
chapelles
chapiteau
chapiteaux
chapitre
chapitres
chapman
chappa
chappait
chappe
chappement
chappent
chapper
chapter
chaque
char
character
charbon
charbons
charente
charentes
charge
chargea
chargement
chargent
charger
charges
chariot
chariots
charitable
charite
charlemagne
charleroi
charles
charleville
charlie
charlot
charlotte
charlton
charmant
charmante
charmantes
charmants
charme
charmes
charpe
charpente
charpentier
charrette
charrue
chars
chart
charte
chartes
chartres
chartreuse
chartreux
charts
chase
chasse
chasser
chasses
chasseur
chasseurs
chaste
chastel
chastete
chat
chateaubriand
chats
chaud
chaude
chaudes
chaudie
chauds
chauffage
chauffe
chauffement
chauffer
chauffeur
chaume
chaumie
chaumont
chausse
chaussure
chaussures
chauve
chauves
chaux
che
chec
checklist
checs
chef
chefs
cheikh
chelem
chelle
chelles
chelon
chelsea
chem
chement
chemical
chemin
chemine
chemins
chemise
chemises
chemistry
chen
chenal
cheng
chenille
chent
cheptel
cher
chera
cherbourg
chercha
cherchaient
cherchait
cherchant
cherche
cherchent
chercher
chercheur
chercheurs
cherchez
cherchons
cheresse
cherry
chers
ches
chess
chester
chet
chete
chets
cheur
cheurs
cheuse
cheux
cheval
chevaleresque
chevalerie
chevalier
chevaliers
chevauche
chevaux
chevelure
chevet
cheveux
cheville
chevin
chevrolet
chez
chi
chic
chicago
chie
chief
chien
chiens
chiffre
chiffrer
chiffres
child
children
chile
chili
chilien
chime
chimie
chimique
chimiques
chimiste
chin
china
chine
chinese
chinois
chinoise
chinoises
chiquier
chir
chirac
chire
chirer
chirurgicale
chirurgie
chirurgien
chirurgiens
chis
chisme
chissant
chit
chloe
chlorure
cho
choc
chocolat
chocs
choi
choice
choir
choire
choires
choiseul
choisi
choisie
choisies
choisir
choisis
choisissant
choisissent
choisit
choix
chole
cholet
chopin
choque
chorale
chore
chos
chose
choses
chou
chouans
choue
chouer
chouette
choux
choſe
choſes
chre
chris
christ
christian
christiane
christianisme
christie
christina
christine
christmas
christoph
christophe
christopher
chrome
chronicle
chronique
chroniques
chroniqueur
chronologie
chronologies
chronologique
chrysler
chu
chuck
church
churchill
chut
chute
chutes
chypre
chœur
chœurs
ci
cia
cial
ciale
cialement
ciales
cialisation
cialise
cialiste
cialistes
cialite
ciation
ciaux
cible
cibles
cice
cid
cida
cide
cident
cider
cideurs
cidre
cie
ciel
cier
cierges
cieuse
cieuses
cieux
cificite
cifie
cifique
cifiquement
cifiques
cifs
cigare
cigarette
cigarettes
cil
cile
ciles
cils
cime
cimen
cimens
ciment
cimes
cimetie
cincinnati
cine
cinema
cinii
cinq
cinquantaine
cinquante
cinquie
cintre
cio
cipiendaire
cipita
cipitamment
cipitation
cipitations
cipite
cipiter
ciproque
ciproquement
ciproques
cirad
circ
circle
circonfe
circonscription
circonscriptions
circonstance
circonstances
circuit
circuits
circulaire
circulaires
circulant
circulation
circule
circulent
circuler
circus
cire
cirque
cis
cisant
cise
ciseaux
ciser
cises
cisif
cision
cisions
cisive
cisives
cit
citadelle
citant
citation
citations
cite
citer
cites
cities
citons
citoyen
citoyenne
citoyennete
citoyens
citroe
citron
cits
citta
city
ciudad
civil
civile
civiles
civilisation
civilisations
civilise
civils
civique
civiques
ck
cl
cla
clair
clairage
clairait
claircir
claire
clairement
clairer
claires
clairie
clairs
clamait
clamant
clamation
clamations
clame
clament
clamer
clameurs
clan
clandestin
clandestine
clans
clara
clarait
clarant
claration
clarations
clare
clarence
clarendon
clarent
clarer
clarinette
clarisse
clark
clarke
clarte
class
classe
classement
classements
classer
classes
classic
classical
classics
classification
classique
classiques
clat
clata
clatant
clatante
clatantes
clate
clatent
clater
clats
claude
claudel
claudia
claudine
claudio
claudius
clause
clauses
clavecin
clavier
claviers
clay
clayton
clc
cle
clef
clefs
clemenceau
clenche
clenchement
clerc
clercs
clerge
clermont
cles
cleveland
cliche
clichy
client
cliente
clients
cliff
clifford
climat
climate
climatique
climatiques
climatologique
climats
clin
clinaison
cline
clinical
clinique
cliniques
clinton
clio
clip
clips
clipse
cliptique
cliquant
cliquer
cliquez
clive
clo
cloche
clocher
clochers
cloches
cloi
cloison
clone
clore
clos
close
closes
clotilde
clou
cloud
cloue
clous
clovis
clown
club
clubs
cluny
cluse
cluses
clyde
cm
cn
cnn
cnrs
co
coach
coalition
coast
cobra
coca
coce
coche
cocher
cochon
cochons
coco
codage
code
codes
codex
coe
coefficient
coefficients
coeur
coffre
coffres
coffret
cofondateur
cognac
cohe
cohen
coi
coiffe
coiffure
coin
coins
cois
coise
col
cola
colbert
cold
cole
coleman
coles
colette
colier
coliers
colin
coll
collaborateur
collaborateurs
collaboration
collabore
collaborer
collage
collate
colle
collecte
collectif
collectifs
collection
collectionneur
collections
collective
collectives
collectivite
college
coller
collet
collier
collin
colline
collines
collins
collision
colloque
colmar
colo
cologie
cologique
cologiques
cologiste
cologne
colomb
colombe
colombes
colombia
colombie
colombien
colombienne
colombier
colon
colonel
colonial
coloniale
coloniales
colonie
colonies
colonisation
colonise
colonna
colonne
colonnes
colonnettes
colons
color
colorado
coloration
colore
coloris
cols
colte
colter
coltes
columbia
columbus
com
coma
combat
combats
combattant
combattants
combattent
combattit
combattre
combattu
combe
combes
combien
combinaison
combinaisons
combinant
combine
combiner
comble
combler
combres
combustible
combustion
come
comedy
comes
comic
comics
coming
comique
comiques
comitat
comitatif
comite
command
commanda
commandait
commandant
commandants
commande
commandement
commandements
commander
commanderie
commandes
commandeur
commando
comme
commenc
commence
commencement
commencent
commencer
comment
commentaire
commentaires
commentateur
commentateurs
commente
commerc
commerce
commerces
commercial
commerciale
commerciales
commercialisation
commercialise
commerciaux
commet
commettre
comminges
commis
commise
commises
commissaire
commissaires
commissariat
commission
commissions
committee
commode
commodite
commodore
common
commons
commonwealth
commun
communal
communale
communales
communautaire
communautaires
communaute
communaux
commune
communes
communication
communications
communion
communique
communiquer
communisme
communiste
communistes
community
communs
como
comores
compact
compacte
compagne
compagnes
compagnie
compagnies
compagnon
compagnons
companion
company
comparable
comparables
comparai
comparaison
comparaisons
comparant
comparatif
comparative
compare
comparer
compartiment
compas
compassion
compatible
compatriote
compatriotes
compe
compensation
compense
compenser
compenses
competition
compie
compilation
compile
complaisance
comple
complet
complete
complets
complex
complexe
complexes
complexite
complications
complice
complices
complicite
compliment
compliments
complique
complot
comportait
comportant
comporte
comportement
comportements
comportent
comporter
composa
composaient
composait
composant
composante
composantes
composants
compose
composent
composer
compositeur
compositeurs
composition
compositions
compositrice
compostelle
compre
comprenaient
comprenait
comprenant
comprend
comprendra
comprendre
comprends
comprenez
comprennent
compression
comprime
compris
comprise
comprises
comprit
compromettre
compromis
compromise
comptabilite
comptable
comptaient
comptait
comptant
compte
comptent
compter
comptes
compteur
comptez
comptoir
computer
comte
comtes
comtesse
con
conan
conard
conc
conce
concentration
concentre
concentrer
concept
concepteur
conception
conceptions
concepts
concernait
concernant
concerne
concernent
concert
concerte
concerto
concerts
concession
concessions
concevoir
concierge
concile
conciles
conciliation
concilie
concilier
concitoyens
conclu
conclue
conclure
conclus
conclusion
conclusions
conclut
concordat
concorde
concourir
concours
concre
concurrence
concurrent
concurrents
cond
condamnation
condamnations
condamne
condamner
conde
condense
condite
condition
conditionne
conditionnel
conditions
condorcet
conducteur
conducteurs
conduira
conduire
conduisait
conduisant
conduisent
conduisit
conduit
conduite
conduites
conduits
confe
confection
conference
confesse
confesser
confesseur
confession
confessions
confia
confiance
confiant
confidence
confidences
confident
confie
confier
configuration
confine
confinement
confins
confirma
confirmation
confirme
confirment
confirmer
confiscation
confisque
conflit
conflits
confluence
confluent
confond
confondent
confondre
confondu
confondue
confondues
confondus
conforme
conformer
conformes
conformite
confort
confortable
conforte
confre
confrontation
confrontations
confronte
confucius
confus
confuse
confuses
confusion
conge
congo
congolais
congre
congress
conique
conise
conjecture
conjectures
conjoint
conjointement
conjonction
conjugaison
conjugale
conjugue
conjure
connai
connais
connaissaient
connaissais
connaissait
connaissance
connaissances
connaissant
connaisse
connaissent
connaissez
connaissons
connait
connaitre
conne
connecte
connecticut
connexe
connexes
connexion
connexions
connoi
connoissance
connor
connu
connue
connues
connus
connut
conome
conomie
conomies
conomique
conomiques
conomiste
conomistes
conque
conquis
conquise
conrad
consacra
consacre
consacrer
conscience
consciences
conscient
consciente
conse
conseil
conseille
conseiller
conseillers
conseils
consensus
consent
consentement
consenti
consentir
consentit
conserva
conservait
conservant
conservateur
conservateurs
conservation
conservatoire
conservatrice
conserve
conservent
conserver
conside
consigne
consistait
consistance
consistant
consiste
consistent
consistoire
consolation
consolations
console
consoler
consoles
consolide
consolider
consommateur
consommateurs
consommation
consomme
consommer
consonne
consonnes
consortium
conspiration
constamment
constance
constant
constante
constantes
constantin
constantine
constantinople
constatant
constate
constater
constellation
consterne
constituaient
constituait
constituant
constituante
constitue
constituent
constituer
constitution
constitutionnel
constitutionnelle
constitutionnelles
constitutions
constructeur
constructeurs
construction
constructions
construire
construisent
construisit
construit
construite
construites
construits
consuelo
consul
consulaire
consulat
consuls
consultable
consultant
consultatif
consultation
consulte
consulter
consultez
consume
consumer
contact
contacte
contacts
contagion
contamination
contamine
conte
contemplation
contemple
contempler
contemporain
contemporaine
contemporaines
contemporains
contemporary
contenaient
contenait
contenance
contenant
contenir
content
contenta
contente
contentement
contenter
contents
contenu
contenue
contenues
contenus
conter
contes
contestation
conteste
contester
conteur
contexte
conti
contiennent
contient
continent
continental
continentale
continentales
continentaux
continents
contingent
continu
continua
continuaient
continuait
continuant
continuation
continue
continuel
continuelle
continuellement
continuelles
continuent
continuer
continuera
continues
continuez
continuite
contour
contourne
contours
contra
contract
contracte
contracter
contraction
contradiction
contradictions
contradictoire
contradictoires
contraindre
contraint
contrainte
contraintes
contraints
contraire
contrairement
contraires
contrarie
contraste
contrastes
contrat
contrats
contre
contrebande
contrebasse
contredire
contredit
contreforts
contrepartie
contrer
contribua
contribue
contribuent
contribuer
contributeurs
contribution
contributions
contro
control
controverse
controverses
convainc
convaincre
convaincu
convaincue
convaincus
convalescence
convenable
convenablement
convenables
convenait
convenance
convenances
convenir
convention
conventionnel
conventionnelle
conventions
convenu
convergence
conversation
conversations
conversion
converti
convertir
convertis
convertit
convexe
conviction
convictions
convie
conviennent
conviens
convient
convives
convocation
convoi
convois
convoite
convoque
convulsions
conway
cook
cool
coope
cooper
coordination
coordonne
coordonner
cop
copa
cope
copenhague
copie
copier
copies
coproduction
coq
coqs
coque
coquette
coquetterie
coquillages
coquille
coquilles
coquin
cor
cora
corail
coran
corateur
coratifs
coration
corations
corbeau
corbeaux
corbeil
corbeille
corbie
corce
corde
cordeliers
cordes
cordier
cordille
cordon
cordonnier
cordoue
core
corer
corine
corinne
corinthe
cork
corne
corneille
cornelis
cornelius
cornell
corner
cornes
cornet
corniche
cornouailles
corona
coronavirus
corporation
corporations
corporelle
corps
corpus
corre
correct
correcte
correctement
correction
corrections
correspond
correspondance
correspondances
correspondant
correspondante
correspondants
correspondent
correspondre
corridor
corrige
corriger
corrompre
corrompu
corruption
cors
corsage
corsaire
corsaires
corse
corset
corte
cortex
corve
corvette
cos
cosaques
coslovaque
coslovaquie
cosme
cosmos
cossais
cossaise
cosse
costa
coste
costemalle
costume
costumes
cosyste
cote
coteau
coteaux
cotentin
coton
cotton
cou
coucha
couchant
couche
coucher
couches
coude
coudes
coudre
cougny
coula
coulait
coulant
could
coule
coulement
coulent
couler
couleur
couleurs
coulisses
couloir
couloirs
council
country
county
coup
coupa
coupable
coupables
coupage
coupant
coupe
coupent
couper
coupes
couple
couples
couplet
couplets
coupole
coups
coupure
cour
courage
couragement
courager
courageuse
courageux
couraient
courait
couramment
courant
courante
courantes
courants
courbe
courbes
courbure
courcelles
courent
coureur
coureurs
courir
couronne
couronnement
couronner
couronnes
courriel
courrier
courriers
courroux
cours
course
courses
court
courte
courtes
courtisan
courtisane
courtisans
courtney
courtois
courtoisie
courts
couru
courut
cousin
cousine
cousins
coussins
couta
coutait
coutant
coute
couteau
couteaux
couter
coutez
coutume
coutumes
couture
couturier
couve
couvent
couvents
couvercle
couvert
couverte
couvertes
couverts
couverture
couvertures
couvraient
couvrait
couvrant
couvre
couvrent
couvrez
couvrir
couvrit
cover
covid
cox
cp
cr
cra
cracovie
craie
craig
craignait
craignant
craignent
craignez
craindre
crains
craint
crainte
craintes
cran
crans
crapaud
crase
craser
crash
crate
cration
cravate
crawford
crayon
crazy
cre
creative
creek
cret
crets
creuse
creuser
creux
crever
crew
cri
cria
criai
criaient
criait
criant
crible
cricket
crie
crient
crier
crime
crimes
criminel
criminelle
criminelles
criminels
criminologie
crin
crira
crire
cris
crise
crises
crisis
cristal
cristaux
cristina
cristo
crit
crite
crites
critic
critical
critics
critique
critiquer
critiques
crits
criture
critures
crivain
crivaine
crivains
crivait
crivant
crivent
crivez
crivit
croate
croates
croatie
croche
crocher
crochet
crochets
crocodile
croi
croient
croirait
croire
crois
croisade
croisades
croise
croisement
croisent
croiser
croiseur
croiseurs
croisie
croissance
croissant
croissante
croissent
croit
croix
cromwell
cropole
croquis
cros
cross
crosse
croton
crou
croule
croupe
crown
croy
croyaient
croyais
croyait
croyance
croyances
croyant
croyants
croyez
croyons
cru
cruaute
cruche
crucifie
crucifix
crue
cruel
cruelle
cruellement
cruelles
cruels
crues
crurent
crus
crustace
crut
cruz
cry
crypte
crystal
cs
csa
csi
ct
ctome
ctor
ctv
cu
cuba
cubain
cube
cubes
cue
cueillir
cuille
cuir
cuirasse
cuire
cuisine
cuisines
cuisinie
cuisinier
cuisse
cuisses
cuisson
cuit
cuite
cuivre
cul
culaire
culaires
culation
culations
cule
cules
culminant
culmine
culotte
culpabilite
culte
cultes
cultivateur
cultivateurs
cultive
cultiver
cultura
cultural
culture
culturel
culturelle
culturelles
culturels
cultures
cum
cume
cumule
cunningham
cup
cupe
cupidite
cure
curie
curies
curieuse
curieusement
curieuses
curieux
curiosite
curise
curite
current
curseur
curseurs
cursus
curtis
cus
cusson
cut
cuta
cutane
cute
cuter
cuteur
cutif
cutifs
cution
cutions
cutive
cutives
cutri
cuve
cuvier
cuyer
cv
cw
cy
cyberge
cybergeo
cycle
cycles
cycling
cyclingnews
cyclisme
cycliste
cyclistes
cyclo
cyclone
cygne
cylindre
cylindres
cylindrique
cynique
cynthia
cypre
cyprien
cyr
cyrano
cyril
cyrille
cyrillique
cyrus
cz
cœur
cœurs
d
da
dacteur
dacteurs
daction
dad
dae
dagogie
dagogique
dagogiques
dagogue
dai
daient
daigne
daigner
daigneux
dailey
daille
dailles
daillon
daily
dain
dais
daisy
dait
dakar
dakota
dal
dalai
dale
dallas
dalle
dalles
dalton
dam
damas
dame
dames
damien
damne
damon
dampierre
dan
dana
dance
dancing
danemark
danger
dangereuse
dangereuses
dangereux
dangers
danie
daniel
danielle
daniels
danny
danois
danoise
dans
danse
danser
danses
danseur
danseurs
danseuse
dant
dante
danton
danube
dany
daphne
dar
darcy
dard
dare
darius
dark
darmstadt
darwin
das
dat
data
database
datant
dataride
datation
date
datent
dater
dates
dateurs
datif
datos
daudet
daughter
dauphin
dauphine
davantage
dave
david
davidson
davies
davis
davy
dawn
dawson
dax
day
days
db
dc
dd
de
dea
dead
deadline
deal
dean
death
deauville
debaun
deborah
debout
debut
dec
december
decin
decine
decins
dedans
dee
deep
def
defence
defense
degli
degre
dehors
dei
del
dela
delacroix
delarge
delaware
delcourt
delhi
dell
della
delle
delmas
delorme
delphine
dels
delta
dem
demain
demanda
demandai
demandaient
demandais
demandait
demandant
demande
demandent
demander
demandera
demandes
demandez
demandons
demeura
demeuraient
demeurait
demeurant
demeure
demeurent
demeurer
demeures
demi
demie
demment
democracy
demografico
demoiselle
demoiselles
demption
den
deniers
denis
denise
dennis
denoe
denre
dens
dense
denses
densite
dent
dentaire
dentaires
dente
dentelle
dentelles
dentes
dents
dentu
denver
denys
department
deportivo
depuis
der
dera
derby
derek
dernie
dernier
derniere
derniers
derrie
des
descartes
descend
descendait
descendance
descendant
descendante
descendants
descendent
descendirent
descendit
descendre
descendu
descente
deschamps
description
descriptions
descriptive
desert
design
designated
designer
desire
desjardins
despotisme
desquelles
desquels
desse
dessein
desseins
dessert
desserte
desservant
desservi
desservie
desservir
dessin
dessinateur
dessinateurs
dessine
dessiner
dessins
dessous
dessus
destal
destin
destination
destinations
destine
destins
destitue
destroyer
destroyers
destruction
destructions
det
detailed
details
detective
detroit
dette
dettes
deu
deuil
deus
deutsch
deutsche
deutschen
deutscher
deutschland
deux
deuxie
devaient
devais
devait
devanc
devance
devant
development
developpement
devenaient
devenait
devenant
devenir
devenu
devenue
devenues
devenus
devez
deviendra
deviendrait
deviendront
devienne
deviennent
devient
devil
deville
devin
devinait
devine
deviner
devinrent
devint
devions
devise
devoir
devoirs
devoit
devon
devons
devra
devraient
devrais
devrait
devriez
devront
dez
df
dfrac
dh
di
dia
diabe
diable
diables
diabolique
diacre
diade
diagnostic
diagnostique
diagonale
diagramme
diaire
diaires
dialecte
dialectes
dialectique
dialogue
dialogues
diamant
diamants
diame
diameters
diamond
dian
diana
diane
dias
diaspora
diat
diate
diatement
diateur
diathe
diation
diatique
diats
diaz
dicace
dical
dicale
dicales
dicament
dicaments
dicateur
dication
dicaux
diccionari
diccionario
dicis
dick
dickens
dico
dict
dictateur
dictature
dicte
dictin
dictins
diction
dictionary
dictionarydictionnaire
dictionaryl
dictionnaire
dictionnaires
dictions
did
didactique
diderot
didier
didot
die
diego
dien
dienne
diens
dient
dients
dieppe
dier
dies
diesel
dieter
dietrich
dieu
dieudonne
dieux
diffe
different
difficile
difficilement
difficiles
difficulte
diffuse
diffuser
diffuseur
diffusion
dification
difice
difices
difie
difier
dige
diger
digestion
digital
digitale
digne
dignement
dignes
dignitaires
dignite
digue
digues
dijon
dilection
diligence
dillon
dim
dimanche
dimanches
dimbourg
dimension
dimensions
diments
diminuant
diminue
diminuer
diminutif
diminution
dimitri
din
dina
dine
dino
dinosaures
dio
dioce
diocle
diocre
diocrement
diocres
diocrite
diodore
dioge
dion
dioxyde
diplo
diplomate
diplomates
diplomatie
diplomatique
diplomatiques
dique
diques
dir
dira
dirai
dirais
dirait
diras
dire
direct
directe
directement
directes
directeur
directeurs
direction
directions
directive
directives
directoire
director
directory
directrice
directs
directvelo
dirent
direz
dirige
dirigea
dirigeait
dirigeant
dirigeants
dirigent
diriger
dirk
dirons
diront
dirty
dis
disaient
disais
disait
disant
disc
discernement
discerner
disciple
disciples
discipline
disciplines
disco
discographie
discography
discogs
discorde
discours
discovery
discre
discret
discrimination
discussion
discussions
discute
discuter
discutez
dise
disease
disent
disette
disgra
disiez
disney
disneyland
disoit
disons
disparai
disparaissent
disparition
disparu
disparue
disparurent
disparus
disparut
dispense
dispenser
disperse
dispersion
displaystyle
disponibilite
disponible
disponibles
disposait
disposant
dispose
disposent
disposer
disposez
dispositif
dispositifs
disposition
dispositions
dispute
disputent
disputer
disputes
disqualification
disque
disques
disse
dissertation
dissimule
dissimuler
dissipe
dissiper
dissolution
dissoudre
dissous
dissout
dissoute
dist
distance
distances
distant
distillation
distinct
distincte
distinctement
distinctes
distinction
distinctions
distincts
distingua
distinguait
distingue
distinguent
distinguer
distraction
distractions
distraire
distrait
distribue
distribuer
distributeur
distribution
distributions
district
districts
dit
ditaire
ditaires
ditation
ditations
dite
diter
diterrane
dites
diteur
diteurs
dith
dition
ditionje
ditionnaire
ditions
ditorial
dits
dium
div
divan
divergences
divers
diverses
diversifie
diversion
diversite
diversity
divertir
divertissement
divin
divination
divine
divines
divinite
divins
divise
divisent
diviser
division
divisions
divorce
dix
dixie
dixon
dizaine
dizaines
dizionario
dj
dja
djan
dje
djihadistes
djvu
djvudictionnaire
djvudiderot
djvurevue
djvuvoltaire
dk
dl
dm
dmitri
dn
dna
do
doc
docile
docteur
docteurs
doctor
doctorat
doctrine
doctrines
documens
document
documentaire
documentaires
documentation
documente
documents
dodge
does
dog
doge
dogmatique
dogme
dogmes
doha
doi
doigt
doigts
doine
dois
doise
doit
doive
doivent
dol
dolby
dole
dollar
dollars
dolly
dolmen
dom
domaine
domaines
domenico
domestique
domestiques
domicile
dominait
dominance
dominant
dominante
domination
domine
dominent
dominer
domingo
domingue
dominic
dominicain
dominicaine
dominicains
dominique
domino
dommage
dommages
dompte
don
dona
donald
donation
donc
done
dong
donie
donien
doniens
donjon
donna
donnaient
donnait
donnant
donne
donneespubliques
donnent
donner
donnera
donnerai
donnerait
donneront
donnez
donnoit
donnons
dons
dont
door
dopage
dor
dora
dordogne
dore
doris
dormait
dormant
dorment
dormi
dormir
dorothe
dorothy
dors
dorsale
dort
dos
dose
doses
dossier
dossiers
dostoi
dot
dotation
dote
doter
dots
dou
douai
douairie
douane
douanes
douard
doublage
double
doublement
doubler
doubles
doubs
douce
doucement
douces
douceur
douceurs
doue
doug
douglas
douleur
douleurs
douloureuse
douloureuses
douloureux
doutait
doute
douter
doutes
douteuse
douteux
doux
douzaine
douze
douzie
down
download
doyen
doyenne
doyle
dr
dracula
draft
drag
dragon
dragons
draine
drake
drale
drales
drama
dramatique
dramatiques
dramaturge
drame
drames
drap
drape
drapeau
drapeaux
draps
dre
dreal
dream
dreams
dres
dresde
dressa
dressait
dresse
dressent
dresser
dreux
drew
dreyfus
dric
drive
driver
dro
drogue
drogues
droit
droite
droites
droits
droiture
drop
droz
drug
ds
dt
du
dubai
dublin
dubois
duc
ducatif
ducation
duche
duchesne
duchesse
duck
duckduckgo
duclos
ducs
ducteur
duction
ductions
dudit
dudley
due
duel
dues
dufour
duhamel
duire
duisant
duisent
duit
duite
duites
duits
duke
dule
dules
dulite
dumas
dume
dumont
duncan
dune
dunes
dunkerque
dunn
dunod
duo
dupe
dupin
dupleix
dupont
dupre
dupuis
dupuy
duque
duquel
dur
dura
durable
durables
durand
durant
duras
dure
durement
durent
durer
durera
dures
durete
durham
during
durs
dus
duse
dut
dutch
duval
dvd
dx
dy
dylan
dynamique
dynamiques
dynamite
dynamo
dynastie
dynasties
dz
dɑ
dɔ
də
dɛ
dʊ
e
ea
eagle
eagles
ean
earl
early
earth
east
eastern
easy
eau
eaux
eb
ec
eccle
echo
echos
eco
ecole
ecologie
ecology
economic
economics
ed
eddie
eddy
eden
edf
edgar
edge
edinburgh
edit
edith
edition
editions
editor
editore
editorial
edme
edmond
edmonton
edmund
edo
edouard
eds
edu
eduard
eduardo
education
edward
edwards
edwin
ee
een
ef
efeo
effac
efface
effacer
effare
effe
effect
effectif
effectifs
effective
effectivement
effects
effectuant
effectue
effectuent
effectuer
effet
effets
efficace
efficacement
efficaces
efficacite
effigie
effondre
effondrement
efforc
efforce
effort
efforts
effrayant
effrayante
effraye
effrayer
effre
effroi
effronte
effroyable
effusion
eft
eglise
ego
egypt
egypte
eh
ehess
ei
eiffel
eight
ein
eine
einer
einstein
eisenhardt
ek
el
elbe
ele
eleanor
election
elections
electric
electronic
elegans
elements
elena
eli
elias
elie
eliot
elisa
elisabeth
elise
elite
eliteprospects
elizabeth
ella
elle
ellement
ellen
elles
elliot
elliott
ellipse
ellis
els
elsa
elsbury
else
elsevier
elvis
em
embarcation
embarcations
embarque
embarquement
embarquer
embarras
embarrasse
embauche
embaume
embellir
emble
embouchure
embranchement
embrase
embrassa
embrassant
embrasse
embrasser
embryon
embuscade
eme
emi
emil
emile
emilie
emilio
emily
emma
emmanuel
emmanuelle
emme
emmena
emmene
emmener
emmy
emp
empara
empare
emparent
emparer
empe
empereur
empereurs
empie
empire
empires
empirique
emplacement
emploi
emploie
emploient
emplois
employa
employait
employant
employe
employer
employeur
empoisonne
emporta
emportait
emportant
emporte
emportement
emportent
emporter
empreinte
empreintes
empressa
empresse
empressement
emprise
emprisonne
emprisonnement
emprunt
emprunte
emprunter
emprunts
en
encadre
encadrement
encaisse
ence
enceinte
enceintes
encens
enchai
enchante
enchantement
enchanteur
enche
enciclope
enciclopedia
enciklopedija
enclave
enclos
encombre
encontre
encor
encore
encourage
encouragement
encourager
encre
encyclopaedia
encyclope
encyclopedia
encyclopedie
encyclopædia
end
ende
endommage
endormi
endormie
endormir
endormis
endort
endroit
endroits
ends
enduit
endurance
energy
enfance
enfans
enfant
enfante
enfantine
enfants
enfer
enferme
enfermer
enfers
enfin
enflamme
enfle
enfonc
enfonce
enfoncer
enfuir
enfuit
engage
engagea
engageait
engageant
engagemens
engagement
engagements
engagent
engager
engendre
engendrer
enghien
engin
engine
engineering
engins
engl
england
english
englobe
engouement
engrais
enim
enivre
enjeu
enjeux
enle
enleva
enleve
enlever
enne
ennemi
ennemie
ennemies
ennemis
ennes
ennui
ennuie
ennuis
ennuye
ennuyer
ennuyeux
enque
enrage
enregistre
enregistrement
enregistrements
enregistrer
enrichi
enrichir
enrichissement
enrichit
enrico
enrique
enro
enroule
ens
ensanglante
enseigna
enseignait
enseignant
enseignante
enseignants
enseigne
enseignement
enseignements
enseigner
enseignes
ensemble
ensembles
enseveli
ensoleille
ensuit
ensuite
ent
entame
entamer
entasse
ente
entend
entendaient
entendais
entendait
entendant
entendement
entendent
entendez
entendis
entendit
entendons
entendre
entends
entendu
entendue
entendus
entente
enterprise
enterre
enterrement
enterrer
entertainment
enthousiasme
enthousiaste
entie
entier
entiers
entite
entomologie
entour
entourage
entouraient
entourait
entourant
entoure
entourent
entourer
entr
entra
entrai
entraient
entrailles
entrain
entraine
entrainement
entraineur
entrait
entrant
entrave
entraves
entre
entrecoupe
entreme
entremise
entrent
entrepo
entreprend
entreprendre
entrepreneur
entrepreneurs
entrepris
entreprise
entreprises
entreprit
entrer
entretenait
entretenir
entretenu
entretien
entretiennent
entretiens
entretient
entrevoir
entrevue
entrez
envahi
envahie
envahir
envahisseurs
envahit
enveloppe
envelopper
envergure
envers
envie
environ
environment
environmental
environnantes
environne
environnement
environnemental
environnementale
environnementales
environnementaux
environs
envisage
envisager
envoi
envoie
envoient
envole
envoya
envoyait
envoyant
envoye
envoyer
enzo
enzyklopa
enzyme
eo
eol
ep
epci
epic
episode
epsilon
er
era
ere
eric
erich
erie
erik
erlandais
erlandaise
erlandaises
ermitage
ermite
ernest
ernesto
ernst
errance
errant
erre
errer
erreur
erreurs
errone
erwin
es
esa
escadre
escadrille
escadron
escadrons
escalade
escale
escalier
escaliers
escape
escarpe
escaut
esclavage
esclave
esclaves
escompte
escorte
escrime
esky
espace
espaces
espagne
espagnol
espagnole
espagnoles
espagnols
espan
espe
espece
especes
esperanto
espion
espionnage
espions
esplanade
espn
espnscrum
espoir
espoirs
esprit
esprits
esquisse
esquisses
essai
essaie
essais
essaya
essayait
essayant
essaye
essayer
essayiste
essays
esse
essence
essences
essentiel
essentielle
essentiellement
essentielles
essentiels
esses
essex
essif
essonne
essor
essuye
essuyer
est
estaing
estampe
estampes
estant
estat
este
estelle
esthe
esther
estienne
estimait
estimant
estimation
estimations
estime
estiment
estimer
estivale
estoient
estoit
estomac
estonie
estonien
estrade
estre
estuaire
et
eta
etat
etats
etc
ethan
ethnique
ethniques
ethnologue
etiam
etienne
etudes
eu
eucharistie
eudes
eue
euge
eugene
eul
eumhun
euphorbia
euphrate
eur
eure
eurent
euripide
euro
eurobasket
euroligue
europa
europaea
europe
european
euros
eurosport
eurovision
eus
euse
eusebio
eusse
eussent
eussiez
eussions
eust
eustache
eut
eux
ev
eva
evan
evans
eve
evelyn
even
evening
event
events
ever
every
everything
evidence
evil
evo
evolution
evski
ex
exact
exacte
exactement
exactes
exactions
exactitude
exage
exaltation
exalte
examen
examens
examina
examinant
examine
examiner
exaspe
exce
excellence
excellent
excellente
excellentes
excellents
excentricite
excepte
exception
exceptionnel
exceptionnelle
exceptionnellement
exceptionnelles
exceptionnels
exceptions
excessif
excessive
excessivement
exchange
excitation
excite
exciter
exclamation
exclu
excluant
exclure
exclus
exclusif
exclusion
exclusive
exclusivement
exclut
excre
excursion
excursions
excuse
excuser
excuses
exe
executive
exemplaire
exemplaires
exemple
exemples
exempt
exempte
exerc
exerce
exercent
exercer
exercice
exercices
exhale
exhaustif
exhaustive
exhibition
exige
exigeait
exigeant
exigence
exigences
exigent
exiger
exil
exile
existaient
existait
existant
existante
existantes
existants
existe
existence
existences
existent
exister
exode
exotiques
exp
expansion
expe
experience
expert
expertise
experts
expiation
expiration
expire
explication
explications
explicite
explicitement
expliqua
expliquait
expliquant
explique
expliquent
expliquer
exploit
exploitant
exploitation
exploitations
exploite
exploiter
exploits
explorateur
explorateurs
exploration
explore
explorer
explose
exploser
explosifs
explosion
explosions
expo
exportation
exportations
exporte
exposant
expose
exposer
exposition
expositions
expre
express
expresse
expression
expressions
exprima
exprimait
exprimant
exprime
expriment
exprimer
expulse
expulsion
exquis
exquise
ext
extase
exte
extension
extensions
extermination
externe
externes
extinction
extra
extraction
extragalactic
extraire
extrait
extraite
extraits
extraordinaire
extraordinaires
extrapolation
extre
extreme
eye
eyes
ez
eæ
eſprit
eſt
eſtoit
eſtre
f
fa
faber
fabian
fabien
fabienne
fabio
fabius
fable
fables
fabre
fabricant
fabricants
fabrication
fabrice
fabricius
fabrique
fabriquer
fabriques
fabuleux
fac
face
facebook
faces
facile
facilement
faciles
facilite
faciliter
facteur
facteurs
factfinder
factice
faction
factions
facto
factor
factory
facts
facture
faculte
fai
faible
faiblement
faibles
faiblesse
faiblesses
faict
faillance
faille
failli
faillit
faillite
faim
faine
fair
faire
fais
faisaient
faisais
faisait
faisant
faisceau
faisceaux
faisoient
faisoit
faisons
fait
faite
faites
faith
faits
falaise
falaises
falcon
fall
fallait
fallingrain
falloit
falls
fallu
fallut
false
fame
fameuse
fameux
familial
familiale
familiales
familiarite
familiaux
familie
familier
familiers
families
famille
familles
family
famine
fan
fanatique
fanatiques
fanatisme
fane
fanfare
fanny
fans
fantaisie
fantaisies
fantassins
fantastique
fantastiques
fantasy
fanto
fao
far
farce
fardeau
farine
farm
farmer
farouche
farouches
fascicule
fascination
fascine
fascisme
fasciste
fashion
faso
fasquelle
fasse
fassent
fast
faste
fastes
fat
fatal
fatale
fatalement
fatalite
fate
father
fatigue
fatigues
faubourg
faubourgs
fauche
faucon
faudra
faudrait
faudroit
fauna
faune
faunistique
faure
fausse
fausses
faussete
faust
faut
faute
fautes
fauteuil
fauteuils
fauts
fauve
fauves
faux
faveur
faveurs
favorable
favorablement
favorables
favori
favoris
favorisant
favorise
favoriser
favorite
favre
fay
fayard
faye
fayette
fbi
fbref
fc
fe
fear
feat
featuring
february
fection
fectoral
fecture
federal
federation
federico
feel
fei
feinte
felipe
felix
female
femelle
femelles
femme
femmes
fend
fendait
fendant
fendent
fendit
fendre
fendu
fendue
fene
fense
fenses
fenseur
fenseurs
fensif
fensive
fente
fer
fera
ferai
feraient
ferais
ferait
feras
ferdinand
ferez
ferguson
feriez
ferma
fermait
fermant
ferme
fermement
ferment
fermentation
fermer
fermes
fermete
fermeture
fermier
fermiers
ferna
fernand
fernandez
fernando
feroit
ferons
feront
ferrand
ferrare
ferrari
ferre
ferrer
ferrie
ferroviaire
ferroviaires
ferry
fers
ferte
fertile
fertiles
fertilite
fervent
ferveur
fesses
fest
festin
festival
festivals
festivite
fet
fetcey
fets
feu
feuillage
feuillages
feuille
feuilles
feuillet
feuilleton
feuillets
feutre
feux
ff
fff
fi
fia
fiabilite
fiable
fiacre
fianc
fiance
fiant
fiat
fiba
fibre
fibres
fice
fices
fiche
fiches
fichier
fichiers
ficiant
ficie
ficient
ficier
ficit
fico
fictif
fiction
fictions
fictive
fide
fides
fidji
fie
fief
fiefs
fiel
field
fields
fier
fiers
fierte
fifa
fig
figaro
fige
fight
fighter
fighting
figurait
figurant
figure
figurent
figurer
figures
figurines
fil
filature
file
filer
files
filet
filets
filiale
filiales
filiation
filie
filippo
fille
filles
fillette
fillon
film
filme
filmographiques
filmportal
films
fils
filtre
fin
final
finale
finalement
finales
finaliste
finalistes
finalite
finals
finance
financement
financer
finances
financial
financie
financier
financiers
find
fine
finement
fines
finesse
fini
finie
finies
finiment
finir
finira
finirent
finis
finissait
finissant
finissent
finiste
finit
finitif
finition
finitions
finitive
finitivement
finlandais
finlandaise
finlande
finn
finnois
fins
fique
fire
firent
firmament
firme
firmin
first
fis
fiscal
fiscale
fiscales
fiscalite
fiscaux
fischer
fish
fishbase
fisher
fist
fit
fitzgerald
five
fixa
fixant
fixation
fixe
fixement
fixer
fixes
fk
fl
fla
flacon
flag
flamand
flamande
flamands
flambeau
flambeaux
flammarion
flamme
flammes
flanc
flancs
flandre
flandres
flanque
flash
flat
flatte
flatter
flatteur
flaubert
fle
fleet
fleming
fletcher
fleur
fleuri
fleuris
fleurs
fleury
fleuve
fleuves
flexible
flexion
flexions
flic
flight
flora
floraison
flore
florence
florent
florentin
flores
florian
florida
floride
florins
floristique
flot
flots
flottant
flottante
flotte
flotter
flottes
flottille
floyd
flu
fluctuations
fluide
fluides
flux
fly
flying
fm
fn
fo
focus
foi
foible
foie
foin
foire
foires
fois
foix
fol
folie
folies
folio
folk
folklore
folle
follement
folles
fon
fonce
foncie
foncier
fonction
fonctionnaire
fonctionnaires
fonctionnalite
fonctionnant
fonctionne
fonctionnelle
fonctionnement
fonctionnent
fonctionner
fonctions
fond
fonda
fondamental
fondamentale
fondamentales
fondamentaux
fondant
fondateur
fondateurs
fondation
fondations
fondatrice
fonde
fondement
fondements
fondent
fonder
fonderie
fondre
fonds
fondu
fondue
font
fontaine
fontainebleau
fontaines
fontana
fonte
fontenay
fontenelle
fonts
food
foot
football
footballdatabase
footballeur
for
forall
forbes
forc
force
forcer
forces
ford
fore
foreign
forest
forestie
forestier
forestiers
forever
forez
forfait
forfaits
forge
forgeron
forges
form
forma
formaient
formait
formalite
formant
format
formate
formateur
formateurs
formation
formations
formats
forme
formel
formelle
formellement
forment
former
formes
formidable
formidables
formula
formule
formuler
formules
fors
forster
fort
forte
fortement
forteresse
forteresses
fortes
fortification
fortifications
fortifie
fortifier
fortin
forts
fortune
fortunes
forum
fosse
fosses
fossile
fossiles
foster
fou
foucault
foudre
fouet
fouette
fouge
fouille
fouiller
fouilles
foule
foules
found
foundation
fouquet
four
fourche
fourchette
fourier
fourmis
fourneau
fourneaux
fourni
fournie
fournier
fournies
fournir
fournis
fournissait
fournissant
fournissent
fournisseur
fournisseurs
fournit
fourrage
fourre
fourreau
fourrure
fourrures
fours
fous
foutre
fox
foy
foyer
foyers
fr
fra
frac
fracas
fraction
fractions
fracture
fragile
fragiles
fragilite
fragmens
fragment
fragments
frai
frais
franc
france
franceinfo
frances
francesca
francesco
franceterme
francetvinfo
francfort
franche
franchement
franchi
franchir
franchise
franchises
franchit
francine
francis
francisco
franck
franco
francois
francophone
francophones
francophonie
francs
frange
frank
frankfurt
frankie
franklin
frans
frantz
franz
frappa
frappait
frappant
frappante
frappe
frappent
frapper
fraser
fraternite
fraude
frayeur
fre
fred
freddy
frederick
free
freedom
freeman
frein
freins
french
frere
fresque
fresques
fret
freud
fribourg
friche
friday
friedrich
friend
friends
frise
frison
frisson
fritz
frivole
fro
froid
froide
froidement
froides
froideur
froids
froissart
froisse
from
fromage
fromages
froment
fronde
front
frontalie
frontie
fronton
fronts
frost
frotte
frottement
fruit
fruits
fs
ft
fu
fugie
fugier
fugitif
fugitifs
fugue
fui
fuient
fuir
fuit
fuite
full
fume
fumer
fumier
fun
function
fund
fune
funeste
funestes
funk
funt
fur
furent
fureur
fureurs
furie
furieuse
furieux
fury
fus
fuse
fuselage
fusil
fusiliers
fusillade
fusille
fusils
fusion
fusionne
fusionner
fusse
fussent
fust
fut
futbol
fute
futer
futsal
futur
future
futures
futurs
fuyant
fx
fy
fœtus
fɔ
fɔʁ
fɛ
fɛɐ
g
ga
gabon
gabriel
gabriele
gabrielle
gae
gaffiot
gaga
gage
gager
gages
gagna
gagnait
gagnant
gagne
gagnent
gagner
gagnon
gai
gaie
gaiement
gaiete
gaillard
gain
gains
gais
gal
gala
galais
galant
galanterie
galaxie
galaxies
galaxy
gale
galement
galer
galerie
galeries
gales
galets
galice
galicien
galien
galile
galite
gall
gallery
galles
gallia
gallica
gallimard
gallo
gallois
galop
gambetta
game
games
gamespot
gamin
gaming
gamma
gamme
gan
gance
gand
gang
gange
gant
gante
gantes
gants
gao
gaon
gap
garage
garant
garantie
garanties
garantir
garantit
garc
garci
garcia
gard
garda
gardaient
gardait
gardant
garde
garden
gardens
gardent
garder
gardera
gardes
gardez
gardien
gardiens
gardiner
gardner
gards
gare
garenne
garer
gares
garibaldi
garni
garnie
garnier
garnies
garnis
garnison
garnisons
garonne
garros
gars
gary
gas
gascogne
gascon
gaspard
gaspe
gaston
gastronomie
gat
gate
gates
gatif
gatifs
gation
gations
gative
gatives
gauche
gaucher
gaule
gaules
gaulle
gaulois
gauloise
gauthier
gautier
gaux
gave
gay
gaz
gaza
gaze
gazette
gazetteer
gazon
gb
gbif
gc
ge
gea
geait
geant
gel
gele
gemeinsame
gen
gence
gendaire
gendaires
gendarme
gendarmerie
gendarmes
gende
gender
gendes
gendre
gene
genealogy
geneanet
genera
general
generation
genesis
genevie
genevois
genou
genoux
genre
genres
gens
gent
gente
gentil
gentile
gentilhomme
gentille
gentils
gentilshommes
gentleman
gentlemen
genus
geo
geoffrey
geoffroy
geographic
geography
geois
geological
georg
george
georges
georgia
georisques
ger
gerald
gerard
gerhard
germain
germaine
germains
german
germanie
germanique
germaniques
germano
germany
germe
germer
germes
germinal
germplasm
gers
gertrude
gervais
ges
geschichte
gesellschaft
gest
gestapo
geste
gestes
gestion
gestionnaire
get
gets
ghana
ghetto
ghost
gi
gia
giacomo
giale
gianni
giant
giants
gibier
gibraltar
gibson
gide
gie
gien
gienne
giens
gier
gies
gifrance
gigantesque
gigantesques
gil
gilbert
giles
gilet
gilets
gill
gilles
gime
giment
giments
gimes
gin
gina
gine
gion
gional
gionale
gionales
gionalise
gionaux
gions
giorgio
giovanni
gique
giques
girard
girardin
giraud
girl
girls
giro
gironde
girondins
gis
gise
gisement
gisements
gislateur
gislateurs
gislatif
gislation
gislative
gislatives
gislature
git
gitime
gitimes
gitimite
giulio
giuseppe
give
gl
glac
glace
glaces
glaciaire
glacial
glacier
glaciers
glaive
glandes
glasgow
glass
gle
glemens
glement
glementaire
glementaires
glementation
glemente
glements
glen
glenn
gler
gles
gli
glige
gligeable
gligence
gliger
glise
glises
glissa
glissant
glisse
glissement
glisser
global
globale
globalement
globe
globes
gloire
gloria
glorieuse
glorieuses
glorieux
glorifie
glory
glossaire
glu
gm
gmbh
gmina
gn
gna
gnait
gnant
gne
gnent
gner
gnes
gnier
gnu
go
goce
gociant
gociants
gociation
gociations
gocie
gocier
god
godard
godefroy
godfrey
goe
goes
goethe
goi
going
goire
gold
goldberg
golden
goldman
golf
golfe
gomez
gomillion
gomme
gon
goncourt
gone
gonfle
gonflement
gong
gonza
gonzague
gonzalez
good
goodman
google
gordon
gore
gorge
gorger
gorges
gorie
gorien
gories
gorique
gorise
gory
gosier
gosselin
got
gotha
gothique
gothiques
goths
gottfried
gou
gouffre
gould
gout
goutte
gouttes
gouv
gouvernail
gouvernance
gouvernante
gouverne
gouvernemens
gouvernement
gouvernemental
gouvernementale
gouvernementales
gouvernements
gouverner
gouverneur
gouverneurs
gov
government
govine
goya
gp
gr
gra
grace
gracieuse
gracieusement
gracieux
gradation
grade
grades
gradins
graduellement
graf
graham
grain
graine
graines
grains
graisse
gral
grale
gralement
gralite
gramatical
grammaire
gramme
grammes
grammy
gran
grand
grande
grandement
grandes
grandeur
grandeurs
grandi
grandiose
grandir
grandissant
grandit
grands
grange
granges
granit
granite
grant
grante
granville
graphe
graphes
graphic
graphie
graphique
graphiques
grappes
gras
grasse
grasset
gration
gratitude
gratte
gratuit
gratuite
gratuitement
grav
grave
gravement
graver
graves
graveur
graveurs
gravier
gravir
gravitation
gravite
gravure
gravures
gray
gre
great
greatest
grec
grecque
grecques
grecs
greek
green
greene
greenwood
greffe
greffier
greg
gregory
grenade
grenades
grenadier
grenadiers
grenelle
grenier
grenoble
grenouille
grenouilles
grent
grer
gres
gresse
gression
grey
grie
griefs
griffe
griffes
griffin
griffith
grille
grilles
grimace
grimaldi
grimm
grimpe
grimper
grin
grippe
gris
grisa
grise
grises
grite
gro
groenland
gronde
groot
gros
grosjean
gross
grosse
grosses
grossesse
grosseur
grossie
grossier
grossiers
grossir
grotesque
grotte
grottes
ground
group
groupe
groupement
groupements
groupes
groups
grove
growth
gru
grue
gt
gu
gua
guadeloupe
guard
guardian
guatemala
gue
guer
guerra
guerre
guerres
guerrie
guerrier
guerriers
gues
guest
guet
gueule
gueules
gueux
guez
gui
guichet
guide
guider
guides
guido
guier
guild
guillaume
guillemets
guillermo
guillotine
guin
guine
guirlandes
guise
guisement
guitar
guitare
guitares
guitariste
guizot
gularite
gulation
gulf
gulie
gulier
guliers
gumes
gun
gur
gus
gustav
gustave
gut
guy
guyane
guyenne
guyot
gymnase
gymnastique
gyne
gyo
gypte
gyptien
gyptienne
gyptiens
gœthe
h
ha
haas
hab
habib
habile
habilement
habiles
habilete
habilitation
habilite
habille
habillement
habiller
habit
habitaient
habitait
habitans
habitant
habitante
habitants
habitat
habitation
habitations
habitats
habite
habitent
habiter
habits
habitude
habitudes
habitue
habituel
habituelle
habituellement
habituelles
habituels
habsbourg
haby
hache
hachette
had
hai
haie
haies
haillons
hainaut
haine
haines
hais
hal
hale
haleine
half
halifax
hall
halle
halles
halloween
hallyday
halo
halte
ham
hambourg
hamburg
hameau
hameaux
hamilton
hamlet
hammer
hammond
hamon
hampshire
han
hanche
hanches
hand
handball
handbook
handicap
handicape
hands
hangar
hangeul
hank
hanna
hannah
hannibal
hanoi
hanovre
hans
hansard
hansen
hante
hanyu
happy
hara
harald
haras
harbor
harce
harcourt
hard
hardcore
hardi
hardie
hardiesse
hardiment
hardis
hardy
harem
haricots
harlem
harley
harmattan
harmonie
harmonies
harmonieuse
harmonieux
harmonique
harold
harpe
harper
harriet
harris
harrison
harry
hart
hartmann
harvard
harvey
has
hasard
hasards
hassan
hastings
hat
haussa
hausse
haut
hautbois
haute
hautement
hautes
hauteur
hauteurs
hauts
havane
have
haven
havre
hawai
hawaii
hawk
hawkins
hawks
hay
haydn
haye
hayes
hbo
hc
hd
he
head
health
heart
hearts
heat
heather
heaven
heavy
heavyweight
hebdo
hebdomadaire
hebdomadaires
hectare
hectares
hector
hegel
heidegger
heidelberg
hein
heine
heinrich
heinz
helen
helena
hell
helle
hello
helmut
help
helsinki
helve
hen
hender
henderson
henri
henriette
henry
hensible
hension
her
herald
herbace
herbe
herbert
herbes
herbier
hercule
here
herge
heritage
herman
hermann
herme
hermes
hermine
herna
hero
heroes
herpe
herschel
herve
herze
hesse
het
hetzel
heure
heures
heureuse
heureusement
heureuses
heureux
heurte
heurter
hi
hicule
hicules
hidalgo
hideux
hie
hier
hierarchy
higgins
high
highway
hilaire
hilal
hill
hills
him
himalaya
hindi
hindous
hip
hippocrate
hippodrome
hippolyte
hirondelle
hiroshima
his
hispano
hisse
hist
histo
histogramme
histoire
histoires
historia
historic
historical
historien
historienne
historiens
historiographie
historique
historiquement
historiques
history
hit
hitchcock
hitler
hitparade
hits
hiver
hivers
hk
hl
hm
hms
ho
hoc
hockey
hoffman
hoffmann
hohenzollern
hold
holding
holiday
holland
hollandais
hollandaise
hollande
holly
hollywood
holmes
holocaust
holocauste
holotype
holstein
holt
holy
home
homer
homicide
hommage
hommages
homme
hommes
homo
homoge
homologue
homonyme
homonymes
homonymie
homophone
homosexualite
homosexuel
homosexuels
hon
honda
honduras
hong
hongrie
hongrois
hongroise
honne
honneur
honneurs
honor
honorable
honorables
honoraire
honore
honorer
honorifique
honoris
honte
honteuse
honteux
hood
hook
hop
hope
hopkins
horace
horaire
horaires
horde
horizon
horizons
horizontal
horizontale
horloge
horlogerie
hormis
horn
horreur
horreurs
horrible
horriblement
horribles
horror
hors
horse
horst
hortense
horticulture
hospice
hospital
hospitalie
hospitalier
hospitaliers
hospitalise
hospitalite
host
hostile
hostiles
hostilite
hot
hotel
hou
houille
hour
hours
house
housing
houston
how
howard
howe
hp
hr
hrer
hrsg
hrvatska
ht
htm
html
http
https
hu
hua
huang
hubble
huber
hubert
hudson
hue
huet
huffington
hugh
hughes
hugo
huguenots
hugues
hui
huile
huiles
huis
huissier
huit
huitie
hull
hum
humain
humaine
humaines
humains
human
humanisme
humaniste
humanitaire
humanite
humbert
humble
humblement
humbles
humboldt
hume
humeur
humeurs
humide
humides
humidite
humiliation
humilie
humilier
humilite
humoriste
humoristique
humour
hung
hunt
hunter
hurricane
hussards
hussein
hutte
huy
hy
hyacinthe
hybride
hybrides
hyde
hydraulique
hydrauliques
hydro
hydrocarbures
hydroe
hydroge
hydrographique
hye
hygie
hymen
hymne
hymnes
hyper
hypocrisie
hypocrite
hypothe
hyste
i
ia
iaaf
iade
ian
ib
ibe
ibid
ibm
ibn
ibrahim
ic
ice
ich
ichi
ichtyologie
ici
ico
iconographie
icy
id
ida
ide
idem
identifiant
identification
identifie
identifier
identique
identiques
identite
identity
ides
idf
idiome
idiot
ido
idola
idole
idoles
idylle
ie
ieee
ien
ier
if
ig
ign
ignace
ignacio
ignoble
ignorait
ignorance
ignorant
ignorants
ignore
ignorent
ignorer
igor
ii
iie
iihf
iii
iiie
ij
ijneæ
ik
il
ile
iles
iliade
ill
illatif
ille
illimite
illinois
illumine
illusion
illusions
illustrated
illustrateur
illustration
illustrations
illustre
illustrer
illustres
ils
ilustrita
ilz
im
image
imagerie
images
imagina
imaginaire
imaginaires
imagination
imaginations
imagine
imaginer
imaginez
imbe
imdb
imitant
imitation
imite
imiter
immacule
immate
imme
immense
immenses
immensite
immersion
immeuble
immeubles
immigrants
immigration
immigre
imminente
immobile
immobiles
immobilie
immobilier
immobilite
immole
immortalite
immortel
immortelle
immortels
immuable
immunite
imp
impact
impacts
impair
imparfait
imparfaite
impartialite
impasse
impassible
impatience
impatient
impatiente
impe
imperfectif
imperial
impie
impies
impitoyable
implacable
implantation
implante
imple
implication
implications
impliquant
implique
implore
impo
importait
importance
importans
important
importante
importantes
importants
importation
importations
importe
imposa
imposait
imposant
imposante
impose
imposent
imposer
imposition
impossibilite
impossible
impossibles
impr
impre
impression
impressionne
impressions
imprime
imprimer
imprimerie
imprimeur
imprimeurs
improvisation
improvise
improviste
imprudence
imprudent
impuissance
impuissant
impuissante
impulsion
impune
impute
in
ina
inaccessible
inacheve
inactifs
inaction
inanime
inaperc
inattendu
inattendue
inauguration
inaugure
inc
incapable
incapables
incapacite
incarce
incarnation
incarne
incarner
incendie
incendies
incertain
incertaine
incertitude
incertitudes
incessamment
incidence
incidens
incident
incidents
incine
incite
inclina
inclinaison
inclinant
inclination
incline
inclinent
incliner
incluant
include
incluent
inclure
inclus
incluse
inclut
incohe
incommode
incomparable
incompatible
incomple
incomplet
incompre
inconnu
inconnue
inconnues
inconnus
inconscient
inconse
incontestable
incontestablement
incontinent
inconve
incorpore
incre
incroyable
incruste
inculpe
incursions
inde
indemnite
independent
indes
index
india
indian
indiana
indianapolis
indians
indicateur
indicateurs
indicatif
indication
indications
indice
indices
indien
indienne
indiennes
indiens
indiffe
indige
indigence
indignation
indigne
indignes
indigo
indiquait
indiquant
indique
indiquent
indiquer
indirect
indirecte
indirectement
indiscre
indispensable
indispensables
individu
individual
individualite
individuel
individuelle
individuellement
individuelles
individuels
individus
indo
indochine
indone
indra
indre
induction
induit
indulgence
industrial
industrie
industriel
industrielle
industrielles
industriels
industries
industry
ine
inerte
inertie
ines
inexpe
inexplicable
inexprimable
infa
infaillible
infailliblement
infamie
infante
infanterie
infantry
infatigable
infe
infecte
infection
infections
infernal
infernale
infide
infiltre
infini
infinie
infinies
infiniment
infinite
infinitif
infirme
infirmie
infirmite
inflammation
inflation
inflexible
inflige
infliger
influence
influencer
influences
influent
info
infobox
infoclimat
information
informations
informatique
informatiques
informatise
informe
informer
infortune
infos
infoterre
infra
infraction
infrared
infrarouge
infrastructure
infrastructures
infty
ing
inge
ingrat
ingrate
ingratitude
ingre
ingres
ingrid
inhabite
inhe
inhume
inimitie
iniquite
initial
initiale
initialement
initiales
initiateur
initiation
initiative
initiatives
initie
injection
injure
injures
injuste
injustement
injustes
injustice
injustices
inn
inne
innocence
innocent
innocente
innocents
innombrables
innovation
innovations
inondation
inondations
inonde
inoui
inpn
inquie
inquiet
inquiets
inquisition
ins
inscription
inscriptions
inscrire
inscrit
inscrite
inscrites
inscrits
inscrivant
inse
insecte
insectes
insee
insense
insensible
insensiblement
insertion
inside
insigne
insignes
insista
insistance
insiste
insister
insolence
insolent
insolite
insouciance
inspecteur
inspecteurs
inspection
inspira
inspirait
inspirant
inspiration
inspirations
inspire
inspirent
inspirer
instabilite
instable
instagram
installa
installation
installations
installe
installent
installer
instance
instances
instans
instant
instantane
instants
instar
instauration
instaure
instinct
instincts
institue
institut
institute
instituteur
instituteurs
institution
institutionnel
institutions
instituto
institutrice
instituts
instructeur
instruction
instructions
instruire
instruit
instruite
instruits
instrumens
instrument
instrumental
instrumentale
instruments
insu
insuffisamment
insuffisance
insuffisant
insuffisante
insuffisantes
insulaire
insulte
insulter
insultes
insupportable
insurge
insurrection
int
intact
intacte
inte
integrated
intel
intellectuel
intellectuelle
intellectuelles
intellectuels
intelligence
intelligences
intelligent
intelligente
intelligents
intelligible
intempe
intendant
intense
intenses
intensite
intention
intentions
inter
interaction
interactions
interactive
intercepte
intercommunal
intercommunale
intercommunalite
interdiction
interdire
interdisant
interdit
interdite
interdites
interdits
interface
interfe
interieur
interlocuteur
interme
intermediate
interministe
international
internationale
internationales
internationaux
interne
internes
internet
interpelle
interpolation
interpre
interrogation
interrogatoire
interroge
interrogea
interroger
interrompant
interrompit
interrompre
interrompt
interrompu
interrompue
interruption
intersection
intervalle
intervalles
intervenir
intervention
interventions
interviennent
intervient
interview
interviews
intime
intimement
intimes
intimite
intitule
into
intole
intra
intransitif
intre
intrigue
intrigues
intrinse
introduction
introduire
introduisant
introduisit
introduit
introduite
introduites
introduits
intuition
inutile
inutilement
inutiles
invalide
invalides
invariable
invariablement
invasion
invasions
inventaire
invente
inventer
inventeur
invention
inventions
inverse
inversement
inversion
investi
investigation
investigations
investir
investissement
investissements
investisseurs
investit
investiture
invincible
invisible
invisibles
invita
invitation
invite
inviter
invocation
involontaire
involontairement
invoque
invoquer
invraisemblable
io
ion
ions
ios
iowa
ip
ipac
ipni
ique
ir
ira
irai
irait
irak
iran
iranien
iranienne
iras
ire
ireland
irene
iris
irish
irlandais
irlandaise
irlande
iron
ironie
ironique
irons
iront
iroquois
irre
irrigation
irritation
irrite
irriter
irruption
irving
is
isa
isaac
isabel
isabella
isabelle
isai
isbn
ise
iser
isidore
isis
islam
islamic
islamique
island
islandais
islande
islands
isle
ismae
isme
iso
isole
isolement
isoler
isome
israe
israel
issance
issant
issent
issn
issu
issue
issues
issus
issy
ist
istanbul
istat
iste
isthme
it
ita
italia
italian
italiana
italiani
italiano
italie
italien
italienne
italiennes
italiens
italique
italo
italy
ite
item
itine
itis
its
itunes
iu
iv
iva
ivan
ivanovitch
ive
ivoire
ivre
ivresse
ivrogne
ivry
ix
ixe
iz
j
ja
jack
jackie
jackson
jacky
jacob
jacobins
jacobs
jacqueline
jacques
jade
jadis
jaguar
jai
jaillir
jaillit
jaime
jake
jakob
jalouse
jalousie
jaloux
jam
jamai
jamais
jambe
jambes
jambon
james
jamie
jan
jane
janeiro
janet
janine
janse
january
janv
janvier
japan
japanese
japon
japonais
japonaise
japonaises
jardin
jardinage
jardinier
jardins
jargon
jas
jasmin
jason
jasper
jaucourt
jauna
jaune
jaunes
jaure
java
javier
jaweon
jay
jazyk
jazz
jc
je
jean
jeanne
jeannette
jedi
jeff
jefferson
jeffrey
jehan
jenkins
jennifer
jenny
jensen
jeremy
jerome
jerry
jersey
jerusalem
jesse
jessica
jessie
jesu
jesus
jet
jeta
jetaient
jetait
jetant
jete
jeter
jets
jette
jettent
jeu
jeudi
jeune
jeuner
jeunes
jeunesse
jeux
jeuxvideo
jewish
jg
ji
jia
jill
jim
jimmy
jin
jn
jo
joa
joachim
joan
joanna
joanne
job
jocelyn
jockey
joconde
joe
joel
joey
johan
johann
johanna
johannes
john
johnny
johns
johnson
johnston
joie
joies
joignant
joignent
joignit
join
joindre
joins
joint
jointe
jointes
joints
joinville
joker
joli
jolie
jolies
jolis
jolly
joly
jon
jonas
jonathan
jonction
jones
jong
joratif
jordan
jordanie
jorf
jorge
jos
jose
josef
joseph
josh
joshua
josiane
josue
jou
joua
jouaient
jouait
jouant
joubert
joue
jouent
jouer
jouera
joues
jouet
jouets
joueur
joueurs
joueuse
joueuses
joug
joui
jouir
jouis
jouissait
jouissance
jouissances
jouissant
jouissent
jouit
jour
jourdain
jourdan
journal
journalie
journalisme
journaliste
journalistes
journalrevue
journaux
journe
journey
jours
joy
joyaux
joyce
joyeuse
joyeusement
joyeuses
joyeux
jp
jpg
jpl
jr
js
jstor
ju
juan
jubile
juda
judai
judas
jude
judet
judge
judice
judiciaire
judiciaires
judith
judo
judy
juge
jugea
jugeait
jugeant
jugemens
jugement
jugements
jugent
juger
juges
jugez
juif
juifs
juillet
juin
juive
juives
jules
julia
julian
julie
julien
julienne
juliette
julio
julius
july
jumeau
jumeaux
jumele
jumelles
jument
jump
jun
june
jung
jungle
junior
juniors
junon
junte
jupe
jupes
jupiter
jura
jure
jurer
juridiction
juridictions
juridique
juridiquement
juridiques
jurisprudence
juriste
jury
jus
jusqu
jusque
jusques
just
juste
justement
justes
justesse
justice
justification
justifie
justifier
justin
justine
justinien
juve
juventus
juz
jyutping
jɔ
jə
jɛ
k
ka
kabylie
kahn
kai
kaiser
kal
kan
kane
kang
kangxi
kansas
kant
kaplan
kara
karate
karel
karen
karim
karine
karl
karthala
kas
kate
katherine
kathleen
katie
kay
kayak
kazakh
kazakhstan
kazan
kaʁ
kbk
ke
keep
kei
keith
keller
kelly
ken
kennedy
kenneth
kenny
kent
kentucky
kenya
kepler
ker
kerry
keuleers
kevin
kew
kewgarden
key
kg
kh
kha
khan
khe
ki
kick
kid
kids
kiel
kiev
kil
kill
killed
killer
killing
kilogrammes
kilome
kilos
kim
kin
kind
kine
king
kingdom
kings
kingston
kinshasa
kiosque
kirby
kirk
kiss
kistan
kit
kitty
kk
kla
klaus
kle
klein
km
knight
know
knowledge
ko
koch
kon
kong
konrad
korea
korean
kos
kosovo
kotapedia
kotava
kowei
kr
kra
kramer
kremlin
kru
ks
ku
kun
kunst
kurde
kurdes
kurt
kv
kw
ky
kyle
kyo
kyoto
kyu
kɑ
kɔ
kɔʁ
kə
kɛ
kʁa
kʁi
l
la
lab
label
labellise
labels
labeur
labor
laboration
laboratoire
laboratoires
laboratory
labore
laborer
laborieuse
laborieux
labour
laboureur
laboureurs
labrador
labre
labyrinthe
lac
lace
lachaise
lacombe
lacoste
lacroix
lacs
lacte
lacune
lacunes
ladepeche
ladies
ladite
lady
lae
lafayette
laffitte
laffont
lagarde
lage
lagrange
lai
laid
laide
laideur
laient
laine
lais
laissa
laissaient
laissait
laissant
laisse
laissent
laisser
laissera
laisserait
laissez
laissons
lait
laitie
lake
lam
lama
lamartine
lambda
lambeaux
lambert
lame
lamentable
lamentations
lames
lampe
lampes
lamy
lan
lanc
lance
lancelot
lancement
lancent
lancer
lances
lanceur
lanceurs
lancolie
lancolique
land
landais
landaise
landau
lande
landes
landry
lands
lane
lang
langage
langages
lange
langer
langes
langle
langlois
langres
language
languages
langue
languedoc
langues
langueur
lanie
lanka
lans
lant
lante
lanterne
lanternes
lao
laon
laos
lapin
lapins
laplace
laporte
laquais
laquelle
lara
lard
large
largement
larges
largeur
largi
largie
largir
largissement
largit
larme
larmes
larousse
larry
lars
larves
las
laser
lasse
lasser
lassitude
last
lasticite
lastique
lat
late
latin
latine
latines
latino
latins
lation
lations
latitude
latium
latour
lats
latte
lau
launay
launch
laura
laure
lauren
laurence
laurens
laurent
laurie
laurier
lauriers
lausanne
laval
lave
laver
lavoir
law
lawrence
lay
laye
lazare
lb
lbrace
lc
lccn
lci
ld
ldh
ldots
le
lea
lead
leader
leaders
leadership
league
learning
leballonrond
leben
leblanc
lebrun
lec
leclerc
leconte
lecteur
lecteurs
lection
lectionne
lectionner
lectionneur
lections
lectoral
lectorale
lectorales
lectorat
lectoraux
lectricite
lectrique
lectriques
lectro
lectromagne
lectron
lectronique
lectroniques
lectrons
lecture
lectures
led
leda
ledit
lee
leeds
lefe
lefebvre
lefigaro
left
legacy
legal
legend
legends
legifrance
lego
legrand
legs
lei
leibniz
leicester
leigh
leipzig
leksikon
lemai
lemaire
lement
lemerre
lemoine
lemonde
lemy
len
lena
lendemain
lengadocians
lennon
lenoir
lens
lent
lente
lentement
lenteur
lentille
lents
leo
leon
leonard
leonardo
leone
leopold
lepage
leparisien
lepoint
leq
lequel
lequipe
ler
lera
lerin
lerinage
lerins
leroux
leroy
les
lescharts
lescope
lesechos
leslie
lesquelles
lesquels
lessports
leste
lester
lestes
lestin
let
lette
letter
letters
letton
lettonie
lettre
lettres
leu
leur
leurs
leva
levage
levaient
levait
levant
leve
level
lever
leveurs
levez
levi
levier
levy
lewis
lex
lexicon
lexikon
lexique
lexpress
leyde
lez
lfp
lgbt
lh
li
lia
liaison
liaisons
liam
liane
liant
liard
lias
lib
liban
libanais
libataire
libe
liber
liberation
libertaire
liberte
libertin
liberty
libraire
libraires
librairie
libraries
library
libre
librement
libres
libri
librige
libye
licat
licate
licates
licatesse
licats
lice
licence
licences
licencie
lices
licien
licieuse
licieux
licitations
licite
liciter
licopte
licorne
liddell
lie
liechtenstein
lien
lienne
liens
lier
lierre
lies
lietuviu
lieu
lieue
lieues
lieutenant
lieutenants
lieux
life
liga
light
lightning
lights
lignage
ligne
lignes
ligue
ligues
like
lil
lilas
lille
lily
lim
lima
limbourg
lime
liminaire
liminaires
limination
liminatoires
limine
liminer
limitant
limitation
limitations
limite
limited
limiter
limites
limitrophe
limitrophes
limits
limoges
limousin
limpide
lin
lina
linceul
lincoln
linda
lindsay
line
linear
lines
ling
linge
lingua
linguiste
linguistics
linguistique
linguistiques
link
linnaeus
linne
linux
lio
lion
lionel
lions
liorant
lioration
liorations
liore
liorer
liorez
lique
liques
liqueur
liqueurs
liquidation
liquide
liquides
lire
lis
lisa
lisabeth
lisait
lisant
lisation
lisbonne
lise
lisent
liser
lisette
lisez
lisie
lisieux
lisle
lisme
lisse
lisses
list
lista
liste
listes
liszt
lit
lite
literary
literature
lites
lithographie
litie
litre
litres
lits
litt
litte
little
littoral
littre
lituanie
lituanien
liturgie
liturgique
liu
lium
lius
liv
live
liverpool
lives
livide
living
livra
livraison
livraisons
livrait
livrance
livrant
livre
livrent
livrer
livres
livret
lix
liz
ll
lle
ller
lloyd
ln
lnh
lo
loc
local
locale
localement
locales
localisation
localise
localiser
localite
locataire
locataires
locatif
location
locaux
locke
locomotive
locomotives
locuteurs
locution
lodie
lodies
log
logan
loge
logement
logements
loger
loges
logic
logiciel
logiciels
logique
logiquement
logiques
logis
logistique
logo
loi
loigna
loignait
loignant
loigne
loignement
loignent
loigner
loin
loing
lointain
lointaine
lointaines
lointains
loir
loire
loiret
lois
loisir
loisirs
loix
lola
lombard
lombardie
lombards
lon
london
londres
long
longe
longeant
longitude
longs
longtemps
longue
longuement
longues
longueur
longueurs
longueville
lons
look
lope
lopez
loponne
loquence
loquent
lor
lord
lords
lorenzo
lorient
lorrain
lorraine
lors
lorsqu
lorsque
lorusse
lorussie
los
lost
lot
lots
lotus
lou
louable
louange
louanges
loue
louer
louis
louise
louisiane
loup
loups
lourd
lourde
lourdement
lourdes
lourds
louvain
louvre
love
low
lowe
lower
loy
loyal
loyale
loyaute
loyer
loze
lp
lr
ls
lt
ltd
lu
lublin
luc
luca
lucas
luce
lucerne
lucia
luciano
lucide
lucie
lucien
lucienne
lucifer
lucile
lucius
lucky
lucratif
lucre
lucy
lude
ludovic
ludwig
lue
lues
lueur
lueurs
luftwaffe
luge
lugubre
lui
luigi
luis
luka
luke
lumie
lumiere
lumineuse
lumineuses
lumineux
luminosite
luna
lunaire
lunar
lundi
lune
lunette
lunettes
luo
lupin
lure
lus
lusignan
lustre
lut
luth
luthe
luther
lutte
lutter
luttes
lutteur
lux
luxe
luxembourg
luxembourgeois
luy
luz
lv
ly
lyce
lydia
lynch
lynn
lynx
lyon
lyonnais
lyonnaise
lyre
lyrique
lyriques
lys
lyse
lɑ
lɔ
lə
lɛ
m
ma
maastricht
mabel
mac
macao
macbeth
macdonald
mace
machiavel
machinalement
machine
machines
mack
mackenzie
macmillan
macron
mad
madagascar
madame
made
madeleine
mademoiselle
madison
madone
madonna
madras
madrid
mae
maestro
mafia
mag
magasin
magasins
magazine
magazines
magdalena
mage
magellan
mages
maggie
maghreb
magic
magicien
magie
magique
magiques
magistrat
magistrats
magistrature
magne
magnificence
magnifique
magnifiquement
magnifiques
magnitude
magnolia
magnus
maha
mahmoud
mahome
mahomet
mahon
mai
maigre
maigres
maigret
mail
maillard
maille
mailles
maillot
maillots
main
maine
mains
maint
mainte
maintenance
maintenant
maintenir
maintenon
maintenu
maintenue
maintes
maintien
maintiennent
maintient
mainzer
maire
maires
mairie
mais
maison
maisonneuve
maisons
maistre
maitre
maitron
majeste
majestueux
majeur
majeure
majeures
majeurs
major
majoritaire
majoritairement
majorite
majorque
majuscule
make
makes
making
mal
malade
malades
maladie
maladies
maladresse
maladroit
malais
malaise
malaisie
malawi
malcolm
maldives
male
malgache
malgre
malherbe
malheur
malheureuse
malheureusement
malheureuses
malheureux
malheurs
mali
malice
malik
malin
malines
mallarme
malle
mallet
malo
malone
malte
maltraite
mama
maman
mammal
mammife
man
management
manager
managers
manant
manche
manches
manchester
mancipation
mandarin
mandat
mandats
mande
mandera
mane
manfred
manga
mange
mangeait
mangeant
mangent
manger
manhattan
mania
manie
manier
maniere
manifestants
manifestation
manifestations
manifeste
manifestement
manifestent
manifester
manille
manipulation
manipule
manipuler
manitoba
mann
mannequin
manning
manoir
manon
manqua
manquaient
manquait
manquant
manquante
manquantes
manque
manquent
manquer
manquera
mans
mante
manteau
manteaux
mantele
mantes
mantique
mantoue
manu
manual
manuel
manuelle
manuels
manufacture
manufactures
manuscrit
manuscrits
many
manœuvre
manœuvres
mao
map
maps
maquette
maquillage
maquis
mar
mara
marai
marais
marat
marathon
marbre
marbres
marc
marceau
marcel
marcelle
marcellin
marcello
march
marcha
marchaient
marchait
marchand
marchande
marchandise
marchandises
marchands
marchant
marche
marchent
marcher
marches
marco
marcos
marcus
mardi
mare
margaret
marge
marges
margot
marguerite
mari
maria
mariage
mariages
marianne
mariano
marie
marient
marier
mariette
marigny
marilyn
marin
marina
marine
marines
marino
marins
mario
marion
marionnettes
maris
maritime
maritimes
marius
mark
market
marketing
marks
markus
marly
marmite
marne
maroc
marocain
marocaine
marocains
marqua
marquait
marquant
marque
marquent
marquer
marques
marqueur
marquis
marquise
marrage
marraine
marrakech
marre
marron
mars
marsan
marseillais
marseillaise
marseille
marsh
marshall
marta
marteau
martel
martha
marthe
marti
martial
martiaux
martin
martine
martinez
martini
martinique
martino
marty
martyr
martyre
martyrs
marvel
marvin
marx
marxisme
marxiste
mary
maryland
mas
masculin
masculine
masculins
mashke
masiero
mason
masque
masquer
masques
mass
massa
massachusetts
massacre
massacres
masse
masses
massif
massifs
massimo
massive
massives
masson
master
masters
mat
match
matches
matchs
mate
matelas
matelot
matelots
mater
materials
maternel
maternelle
maternite
math
mathbb
mathbf
mathcal
mathe
mathematical
mathematics
mathfrak
mathias
mathieu
mathilde
mathrm
mathurin
maticien
maticiens
matie
matiere
matin
matinale
matine
matins
matique
matiquement
matiques
matographique
matographiques
matrice
matrices
matricule
matrix
matt
matteo
matter
matthew
matthews
matthias
matthieu
mature
maturite
maud
maudit
maudite
maudits
maupassant
maur
maure
maures
maurice
maurienne
maurin
mauritanie
mauro
maury
mausole
mauvais
mauvaise
mauvaises
maux
max
maxi
maximal
maximale
maxime
maximes
maximilien
maximum
maxwell
may
maya
mayence
mayenne
mayer
mayo
mayor
mayotte
mazarin
mazovie
maʁ
mb
mc
mccarthy
mccartney
mccune
mcdonald
mcgill
mclaren
mcmillan
md
me
meaux
mecklembourg
mecque
med
medal
media
mediapart
medical
medicine
medien
medieval
meet
meeting
mega
megan
mei
meilleur
meilleure
meilleures
meilleurs
mein
mel
melbourne
melchior
melissa
mello
melon
melun
members
membrane
membre
membres
mement
memoire
memorial
memory
memphis
men
mena
menac
menace
menacent
menacer
menaces
menait
menant
mence
mende
mendiant
mendiants
mendoza
mene
mener
meneur
menhir
mens
mensonge
mensonges
mensuel
mensuelle
ment
mentaire
mentaires
mental
mentale
mentalite
mente
menteur
menti
mentine
mention
mentionne
mentionner
mentions
mentir
menton
mentor
ments
menu
menus
mer
meraude
mercato
mercedes
mercenaires
merci
mercier
mercredi
mercure
mercury
mercy
mere
meredith
merge
mergence
merle
merlin
mers
merveille
merveilles
merveilleuse
merveilleusement
merveilleuses
merveilleux
mes
mesdames
mesme
mesmes
mesnil
message
messager
messagers
messages
messe
messes
messie
messieurs
messine
messire
mesurant
mesure
mesurent
mesurer
mesures
met
meta
metacritic
metal
meteofrance
method
metro
metropolitan
mets
mettaient
mettait
mettant
mette
mettent
metteur
mettez
mettons
mettra
mettrait
mettre
metz
meuble
meubles
meudon
meule
meunier
meure
meurent
meurs
meurt
meurthe
meurtre
meurtres
meurtrie
meurtrier
meurtriers
meuse
meut
meute
meutes
mexicain
mexicaine
mexicains
mexico
mexique
meyer
mez
meſme
mf
mg
mgr
mh
mhz
mi
mia
miaire
miami
michae
michael
michaud
miche
michel
michele
michelet
michelin
michelle
michigan
micien
mick
mickey
micro
microscope
microsoft
mid
middle
midi
midnight
mie
miel
mien
mienne
miennes
miens
mies
mieux
mignon
mignonne
migrants
migration
migrations
migre
migrer
miguel
mike
mikhai
mil
milady
milan
milano
mile
miles
milice
milices
milie
milieu
milieux
militaire
militaires
militant
militante
militants
military
milite
mill
mille
miller
milles
millet
milliard
milliards
millie
millier
milliers
millime
million
millions
mills
milord
milton
milwaukee
mime
mimi
min
mina
minaire
minaires
minas
mince
minces
mind
mine
minemment
minence
minent
minents
minerai
minerve
mines
mineur
mineure
mineures
mineurs
ming
minh
mini
miniature
miniatures
minie
minier
minima
minimal
minimale
minime
minimes
minimum
minin
minine
minines
minins
minisme
ministe
minister
ministes
ministre
ministres
ministry
minnesota
minor
minorite
minsk
minuit
minuscule
minuscules
minute
minutes
minutieux
mio
mique
miques
mir
mira
mirabeau
miracle
miracles
miraculeuse
mirage
miranda
mirats
mire
mireille
mirent
miroir
miroirs
mirror
mis
mise
mises
misphe
miss
missaire
missant
missement
missements
missile
missiles
mission
missionnaire
missionnaires
missionne
missionner
missions
mississippi
missouri
mister
mistral
mistress
mit
mitchell
mite
mites
mitige
mitisme
mitrailleuses
mitterrand
mix
mixage
mixte
mixtes
mk
ml
mlb
mlle
mm
mme
mn
mo
mobile
mobiles
mobilier
mobilisation
mobilise
mobilite
mocrate
mocrates
mocratie
mocratique
mocratiques
mod
modalite
mode
model
modele
models
modern
moderne
modernes
modernisation
modernise
modernite
modes
modeste
modestes
modestie
modifiant
modification
modifications
modifie
modifier
modo
module
modules
moe
moelle
mographie
mographique
mographiques
mohamed
mohammad
mohammed
moi
moigna
moignage
moignages
moigne
moignent
moigner
moin
moindre
moindres
moine
moines
moins
moire
moires
mois
moisson
moissons
moitie
mojo
mol
molaire
moldavie
mole
molecular
moli
molie
molina
molir
molition
molle
molles
mollesse
mollusques
molly
momens
moment
momentane
moments
mon
mona
monachisme
monaco
monarchie
monarchique
monarque
monarques
monaste
monastique
monceau
mond
mondaine
monday
monde
mondefootball
mondes
mondial
mondiale
mondiales
mondialisation
mondiaux
mone
monet
money
mongol
mongolie
mongols
monial
monica
monie
monies
monique
moniteur
monk
monnaie
monnaies
monnier
mono
monographie
monoplace
monopole
monotone
monotonie
monroe
mons
monseigneur
monsieur
monster
monstration
monstrations
monstre
monstres
monstrueuse
monstrueux
mont
monta
montage
montagnards
montagne
montagnes
montagneux
montaient
montaigne
montais
montait
montana
montant
montauban
montbe
monte
montent
monter
montesquieu
montevideo
montfort
montgomery
monthly
montigny
montluc
montmartre
montmorency
montparnasse
montpellier
montra
montraient
montrait
montrant
montre
montreal
montrent
montrer
montres
montreuil
montrez
monts
monture
monumens
monument
monumental
monumentale
monuments
moon
moore
moque
moquer
moqueur
mora
morable
moral
morale
moralement
morales
moralite
moration
morative
moraux
moravie
morbihan
morceau
morceaux
mordre
more
moreau
morel
moreno
morfologic
morgan
mori
morial
morin
moritz
morlaix
morne
morning
morobashi
morphologie
morris
morrison
mors
morse
mort
mortalite
morte
mortel
mortelle
mortellement
mortelles
mortels
mortes
mortier
mortimer
morton
morts
morvan
mos
mosai
moscou
moselle
moses
mosque
moss
most
mostra
mot
moteur
moteurs
mother
motif
motifs
motion
motions
motivation
motive
moto
motor
motorise
motors
motorsport
motrice
motrices
mots
motte
mou
mouche
mouches
mouchoir
mouillage
mouille
moule
moules
moulin
moulins
moult
mount
mountain
mourait
mourant
mourir
mourra
mourut
mouse
mousquetaires
moussa
mousse
mousses
moustache
moustaches
mouton
moutons
mouvant
mouvante
mouvemens
mouvement
mouvements
mouvoir
move
movement
movie
movies
moy
moyen
moyennant
moyenne
moyennes
moyens
mozambique
mozart
mp
mpc
mr
mrc
mrs
ms
mt
mtv
mu
much
mue
muet
muets
muette
muhammad
mul
mula
mulation
mule
mules
mulet
mulhouse
muller
multi
multime
multiple
multiples
multipliant
multiplication
multiplicite
multiplie
multiplient
multiplier
multitude
mun
mundi
mundo
mune
muni
munich
municipal
municipale
municipales
municipalite
municipaux
munie
munis
munitions
munster
munzinger
mur
muraille
murailles
murales
murat
murder
mure
muriel
murmura
murmurait
murmure
murmures
murphy
murray
murs
mus
muscle
muscles
musculaire
muse
museau
museo
muses
museum
music
musica
musical
musicale
musicales
musicaux
musicbrainz
musicien
musiciens
musique
musiques
musset
mussolini
must
mustapha
musulman
musulmane
musulmanes
musulmans
mutation
mutations
mute
mutile
mutualart
mutuel
mutuelle
mutuellement
muziekweb
muʃ
mvp
mw
mx
my
myers
myle
mylord
myriam
myste
mystery
mysticisme
mystique
mystiques
mythe
mythes
mythique
mythologie
mœurs
mɑ
mɔ
mə
mɛ
mʊs
n
na
nac
nach
nacional
nacre
nad
nadal
nadia
nadine
nage
nagement
nagements
nagent
nager
nages
nageur
nague
nai
naient
nain
naine
nains
naire
naires
naissance
naissances
naissant
naissante
naissent
nait
nal
nale
nales
nalite
nam
name
named
names
namibie
namur
nan
nana
nancy
nanie
nant
nanterre
nantes
naomi
naples
napole
napoli
nappe
nappes
naquit
narbonne
narcisse
nard
narines
nario
narios
nariste
naristes
narrateur
narration
narrative
nas
nasa
nash
nashville
nassau
nat
natacha
natal
natale
natalia
natalie
natation
nateur
nateurs
nathalie
nathan
natif
nation
nationaal
national
nationale
nationalencyklopedin
nationales
nationalisme
nationaliste
nationalistes
nationalite
nationaux
nations
native
nativite
natoriales
natura
natural
naturalise
naturaliste
naturalistes
nature
naturel
naturelle
naturellement
naturelles
naturels
natures
naufrage
nause
nautique
nautiques
naval
navale
navales
navant
navarre
navarro
navette
navigateur
navigateurs
navigation
navigue
naviguer
navire
navires
navy
nazaire
nazareth
nazi
nazie
nazionale
nazis
nazisme
nb
nba
nbc
nc
ncaa
ncbi
nchen
nchez
ncia
ncide
ncidence
ncis
nd
nde
nder
ndez
ne
neal
near
neau
neaux
nebraska
nec
necker
ned
nederlanders
nederlandse
need
nef
nefs
negro
neige
neiges
neil
neill
nel
nell
nella
nellie
nelly
nelon
nelson
nemens
nement
nements
nemours
nen
nent
neo
neowise
neptune
ner
nera
nerait
nerf
nerfs
nerge
nergie
nergies
nergique
nergiquement
nergiques
nerve
nerveuse
nerveux
nes
nestor
net
netflix
nets
nette
nettement
nettete
nettoyage
nettoyer
network
networks
neucha
neue
neuf
neufcha
neufs
neuilly
neumann
neur
neurones
neurs
neutralite
neutre
neutres
neutrons
neuve
neuves
neuvie
neuville
nevada
never
nevers
neveu
neveux
neville
new
newcastle
newman
newport
news
newton
next
nez
nf
nfl
ng
nga
ngc
ngel
nh
nhl
ni
nia
nible
niblement
nibles
nic
nica
nicaragua
nice
niche
niches
nicholas
nichols
nicht
nick
nickel
nico
nicola
nicolas
nicole
nicot
nid
nids
nie
nielsen
nien
nienne
niens
nient
nients
nier
nierie
nies
nietzsche
nieur
nieurs
nieuse
nieux
nige
nigel
niger
nigeria
night
nigme
nigmes
nik
nikolai
nil
nile
nin
nina
nine
ninja
nino
ninsule
nintendo
nio
niort
nippon
nique
niques
nir
nis
nisme
nissan
nisse
niste
nistes
nit
nite
nitence
nitentiaire
nith
nitien
nitiens
nitif
nitude
niveau
niveaux
nivele
nix
nixon
nl
nm
nn
no
noah
noailles
nobel
nobiliaire
noble
noblement
nobles
noblesse
noce
noces
nocide
nocturne
nocturnes
noe
noel
nogent
nohant
noi
noir
noira
noire
noires
noirs
nois
noise
noix
nolan
nom
nomade
nomades
nombrable
nombre
nombres
nombreuse
nombreuses
nombreux
nome
nomenclature
nominal
nominale
nominatif
nomination
nominations
nomine
nominis
nomma
nommait
nomme
nomment
nommer
noms
non
nonc
nonce
noncer
nonciation
nonobstant
noosfere
nophon
nor
nora
norbert
nord
nordique
norfolk
normal
normale
normalement
normales
normalise
norman
normand
normande
normandie
normands
normdatei
norme
normes
norris
norske
north
northern
norton
norve
nos
nostalgie
nostre
not
nota
notable
notables
notaire
notaires
notamment
notation
note
noter
notes
notez
nothing
notice
notices
notion
notions
notons
notorie
notre
nou
noue
nouement
nouer
noume
nourri
nourrice
nourrir
nourris
nourrissent
nourrit
nourriture
nous
nouv
nouveau
nouveaute
nouveaux
nouvel
nouvelle
nouvellement
nouvelles
nouvelliste
nov
nova
novation
nove
novel
november
novembre
novgorod
novi
novice
novo
now
noyau
noyaux
noye
noyer
np
nr
nrj
ns
nster
nt
nther
nu
nuage
nuages
nuance
nuances
nucle
nuclear
nudite
nue
nuer
nues
nueva
nuevo
nuire
nuisible
nuisibles
nuit
nuits
nul
nulle
nullement
nuls
num
number
numbers
nume
numismatique
nuovo
nuque
nuremberg
nurie
nus
nutrition
nwa
nxt
ny
nymphe
nymphes
nz
nœud
nœuds
nɑ
nɔ
nə
nɛ
o
oa
oaci
oakland
oasis
ob
obama
obe
object
objectif
objectifs
objection
objections
objective
objet
objets
oblast
obligation
obligations
obligatoire
obligatoirement
obligatoires
oblige
obligea
obligeant
obligent
obliger
oblique
obs
obsce
obscur
obscure
obscures
obscurite
obscurs
obse
observa
observait
observant
observateur
observateurs
observation
observations
observatoire
observe
observent
observer
obsession
obsole
obstacle
obstacles
obstination
obstine
obtenant
obtenir
obtention
obtenu
obtenue
obtenues
obtenus
obtiendra
obtiennent
obtient
obtint
obus
oc
occasion
occasionne
occasionnellement
occasions
occident
occidental
occidentale
occidentales
occidentaux
occitan
occitanie
occulte
occupa
occupaient
occupait
occupant
occupants
occupation
occupations
occupe
occupent
occuper
occurrence
oce
ocean
och
oclc
oct
octave
october
octobre
octroi
octroye
od
odal
odale
odalite
ode
oder
odes
odessa
odette
odeur
odeurs
odieuse
odieux
odile
odore
odose
odysse
oeuvre
oeuvres
of
ofdb
off
offense
offenser
offensif
offensive
offert
offerte
offertes
offerts
office
officer
offices
official
officialise
officie
officiel
officielle
officiellement
officielles
officiels
officier
officiers
offraient
offrait
offrande
offrandes
offrant
offre
offrent
offres
offrir
offrit
og
ogives
ographe
ographie
ographique
ographiquement
ographiques
oh
ohio
oi
oie
oies
oignon
oignons
oil
ois
oise
oiseau
oiseaux
oisivete
oit
oive
oivent
oj
ok
oklahoma
ol
ola
old
ole
oles
olga
olithique
olive
oliveira
oliver
olivia
olivier
oliviers
ollendorff
ollivier
olocalisation
ologie
ologien
ologiens
ologique
ologiques
ologue
ologues
olympe
olympedia
olympia
olympic
olympics
olympique
olympiques
om
oman
omar
ombrage
ombre
ombres
ome
omega
omer
omis
omnia
omnibus
omnisports
omnium
omorphes
oms
on
onard
once
onces
oncle
oncles
onde
onderzoek
ondes
one
ong
ongles
online
only
onne
onner
onnerie
onnette
onnique
onore
ons
ont
ontario
ontologie
onu
onze
onzie
op
opa
opard
ope
open
openstreetmap
opera
operation
operations
operatorname
ophile
opinia
opinion
opinions
opium
opold
opolitique
oportail
opportunite
opposa
opposait
opposant
opposants
oppose
opposent
opposer
opposition
oppositions
oppression
opprime
opte
option
options
optique
optiques
opulence
opus
or
ora
oracle
oracles
orage
orages
oraison
oral
orale
oran
orange
orateur
orateurs
oratoire
orbite
orchestra
orchestre
orchestres
orchide
order
ordinaire
ordinairement
ordinaires
ordinateur
ordinateurs
ordonna
ordonnance
ordonnances
ordonne
ordonner
ordre
ordres
ordures
ore
oregon
oreille
oreiller
oreilles
ores
oreste
orfe
org
organe
organes
organique
organiques
organisa
organisant
organisateur
organisateurs
organisation
organisations
organise
organisent
organiser
organisme
organismes
organiste
organization
orge
orgie
orgien
orgue
orgueil
orgueilleuse
orgueilleux
orgues
oricien
oricon
orie
orient
oriental
orientale
orientales
orientation
orientations
orientaux
oriente
orienter
ories
orifice
origin
originaire
originaires
original
originale
originales
originalite
originaux
origine
originel
originelle
originellement
origines
origins
orion
orique
oriquement
oriques
orisques
orlando
orle
orleans
orme
orne
ornemens
ornement
ornements
orner
ornithologie
ornithologique
oro
orologie
orologique
orologiques
orphe
orphelin
orpheline
orphelins
orsay
orstom
orthodoxe
orthodoxes
orthodoxie
orthodromie
orthodromiques
orthographe
orthographie
orthographique
ortografic
os
osa
osait
osaka
osant
oscar
oscars
oscillations
ose
osent
oser
oserait
osiris
oslo
osse
ossements
ost
oste
oswald
ot
otage
otages
otan
other
othon
ottawa
otto
ottoman
ottomane
ottomans
ou
oubli
oublia
oubliait
oubliant
oublie
oublier
oubliez
oublions
oued
ouen
ouest
ouganda
oui
oul
our
ouragan
ours
out
outil
outils
outrage
outrages
outrance
outre
ouvert
ouverte
ouvertement
ouvertes
ouverts
ouverture
ouvertures
ouvrage
ouvrages
ouvraient
ouvrait
ouvrant
ouvre
ouvrent
ouvrez
ouvrie
ouvrier
ouvriers
ouvrir
ouvrirent
ouvrit
ouzbe
ov
ovale
over
overline
overrightarrow
overview
ovide
owen
own
oxford
oxydation
oxyde
oxyge
oz
ozap
oɑ
p
pa
pablo
pac
pace
pacha
pacific
pacifique
pacifiques
pack
pacte
padoue
pag
paganisme
page
pages
pai
paie
paiement
paille
pain
pains
pair
paire
paires
pairie
pairs
pais
paisible
paisiblement
paisibles
paisse
paisses
paisseur
paix
pakistan
pal
palace
palais
palatin
palatinat
palazzo
pale
paleobiology
palerme
palestine
palestinien
palestiniens
palette
palier
palissy
pallas
pallier
palm
palma
palmare
palme
palmer
palmes
palmier
palmiers
pamela
pamphlet
pan
panache
panama
paname
pand
pandait
pande
pandent
pandit
pandre
pandu
pandue
pandues
pandus
pane
panier
paniers
panique
panne
panneau
panneaux
panorama
panouissement
pans
pantalon
panthe
panzer
paolo
paon
papa
papaute
pape
paper
papers
papes
papier
papiers
papillon
papillons
papouasie
papyrus
paquebot
paquet
paquets
par
para
parable
parables
parabole
parachever
parachute
parade
paradis
paradise
paradoxe
parages
paragraphe
paragraphes
paraguay
parai
paraient
paraissaient
paraissait
paraissant
paraisse
paraissent
parait
paralle
paralympiques
paralyse
paralysie
parame
paramount
parant
parasite
parasites
paratifs
paration
parations
parative
paratoire
paratoires
parbleu
parc
parce
parcelle
parcelles
parchemin
parcimonie
parcourant
parcourir
parcours
parcourt
parcouru
parcourue
parcourut
parcs
pardon
pardonne
pardonner
pardonnez
pare
pareil
pareille
pareillement
pareilles
pareils
parens
parent
parente
parenthe
parents
parer
paresse
paresseux
parfait
parfaite
parfaitement
parfaits
parfois
parfum
parfume
parfums
pargne
pargner
pari
parie
paris
parisc
parisctome
parisien
parisienne
parisiennes
parisiens
parisv
parisvtome
parite
park
parker
parking
parks
parla
parlaient
parlais
parlait
parlant
parlars
parle
parlement
parlementaire
parlementaires
parlements
parlent
parler
parlera
parlerai
parlerons
parles
parlez
parliament
parlons
parme
parmi
parnasse
parodie
paroi
parois
paroisse
paroisses
paroissiale
paroissiens
parole
paroles
parque
parquet
parrain
pars
parseme
parses
part
partage
partageait
partageant
partagent
partager
partait
partant
parte
partemens
partement
partemental
partementale
partementales
partementaux
partements
partenaire
partenaires
partenariat
partent
parterre
partez
parthe
parti
partial
participa
participant
participants
participation
participations
participe
participent
participer
particularite
particule
particules
particulie
particulier
particuliers
partie
partiel
partielle
partiellement
partielles
parties
partir
partirent
partis
partisan
partisans
partit
partition
partitions
partners
partons
partout
parts
party
paru
parue
parure
parurent
parus
parut
parution
parvenait
parvenir
parvenu
parvenue
parvenus
parviennent
parvient
parvinrent
parvint
parvis
pas
pascal
pascale
pasquier
pass
passa
passage
passager
passagers
passages
passai
passaient
passait
passant
passants
passe
passent
passeport
passer
passera
passerait
passerelle
passes
passeur
passez
passif
passion
passionne
passions
passive
passons
passy
past
pastel
pasteur
pasteurs
pastorale
pat
patentes
pater
paternel
paternelle
paternite
path
pathe
pathoge
pathologie
patiemment
patience
patient
patiente
patients
patinage
patois
patriarche
patrice
patricia
patrick
patrie
patrimoine
patrimoniaux
patriote
patriotes
patriotique
patriotisme
patron
patronage
patronne
patrons
patronyme
patrouille
patte
patterson
pattes
pau
paul
paula
paule
paules
paulette
paulin
pauline
paulo
paume
paupie
pausanias
pause
pauvre
pauvres
pauvrete
pave
pavel
pavie
pavillon
pavillons
paweł
pay
paya
payait
payant
paye
payer
payne
payot
pays
paysage
paysages
paysagiste
paysan
paysanne
paysans
paz
paʁ
pb
pc
pcf
pdf
pdg
pe
peace
peak
pearl
pearson
peau
peaux
pedro
peel
peggy
peigne
peindre
peine
peines
peint
peinte
peintes
peintre
peintres
peints
peinture
peintures
pele
pelle
pelletier
peloton
pelouse
pelouses
pen
pencha
penchant
penche
pencher
pend
pendaient
pendait
pendamment
pendance
pendances
pendant
pendante
pendantes
pendants
pendent
pendre
pendu
pendule
penguin
penguins
penkyamp
penn
pennsylvania
pennsylvanie
penny
pens
pensa
pensai
pensaient
pensais
pensait
pensant
pense
pensent
penser
penses
penseur
penseurs
pensez
pensif
pension
pensionnaire
pensionnaires
pensionnat
pensions
pensons
pente
penteco
pentes
people
per
perc
perce
perception
perceptions
percer
percevoir
perche
percussion
percussions
percute
percy
perd
perdait
perdant
perdent
perdirent
perdit
perdre
perdrix
perds
perdu
perdue
perdues
perdus
pere
pereira
perez
perfect
perfection
perfectionne
perfectionnement
perfectionner
perfide
perfidie
performance
performances
period
perkins
perle
perles
permanence
permanent
permanente
permanentes
permanents
permet
permettaient
permettait
permettant
permette
permettent
permettez
permettra
permettrait
permettre
permirent
permis
permission
permit
peron
perpe
perpendiculaire
perpignan
perrault
perret
perrier
perrin
perron
perroquet
perrot
perruque
perry
persan
perse
perses
persistance
persiste
person
personal
personnage
personnages
personnalite
personne
personnel
personnelle
personnellement
personnelles
personnels
personnes
perspective
perspectives
persuade
persuader
persuasion
perte
pertes
perth
pertinence
pertoire
pertorie
perturbation
perturbations
perturbe
peru
pervers
pes
pesait
pesant
pesanteur
pese
peser
peste
pesticides
pet
pete
peter
peters
peterson
petit
petite
petites
petits
petra
peu
peugeot
peuplades
peuple
peuplement
peuples
peupliers
peur
peut
peuvent
peux
pez
pg
ph
pha
phalange
phale
phane
phanie
phant
phants
pharaon
phare
phares
pharmacie
pharmacien
phase
phases
phe
phi
phil
philadelphia
philadelphie
phile
philharmonique
philibert
philip
philipp
philippe
philippine
philippines
philips
phillip
phillips
philologie
philosophe
philosophes
philosophie
philosophique
philosophiques
philosophy
phine
phoenix
phone
phones
phonie
phonique
phoniques
phosphate
phosphore
photo
photographe
photographes
photographie
photographies
photographique
photographiques
photos
php
phrase
phrases
phyloge
phylogeny
physical
physicien
physiciens
physics
physiologie
physiologique
physionomie
physique
physiquement
physiques
pi
pia
pianiste
piano
piastres
piazza
pib
pic
picard
picardie
picasso
pice
pices
pick
pics
picture
pictures
picure
pide
pidopte
pie
piece
pieces
pied
pieds
pier
pierce
piero
pierre
pierreries
pierres
pierrot
pieter
pietro
pieuse
pieuses
pieux
pigeon
pigeons
pignon
pilastres
pile
piles
pilier
piliers
pillage
pille
piller
pilot
pilotage
pilote
pilotes
pin
pinal
pince
pinceau
pine
pines
ping
pingle
pinie
pink
pins
pinto
pinyin
pioche
pion
pionnie
pionnier
pionniers
piotr
pipe
piper
piqu
piquant
pique
piquer
piques
piquet
pirate
pirates
pire
pires
pis
piscine
piscopal
piscopale
piscopat
pise
pisode
pisodes
piste
pistes
pistolet
pistolets
piston
pistons
pit
pital
pitaphe
pitaux
pithe
pitie
pitre
pitt
pittoresque
pittoresques
pittsburgh
piu
piv
pivot
pk
pl
pla
plac
place
placement
placements
placent
placer
places
plafond
plage
plages
plai
plaide
plaider
plaidoyer
plaie
plaies
plaignait
plain
plaindre
plaine
plaines
plains
plaint
plainte
plaintes
plaira
plaire
plaisait
plaisance
plaisant
plaisante
plaisanterie
plaisanteries
plaise
plaisent
plaisir
plaisirs
plan
planche
plancher
planches
plancy
plane
planet
planetary
planification
planifie
planning
plans
plant
plantation
plantations
plante
planter
plantes
plants
plaque
plaques
plasma
plastique
plastiques
plat
plata
plate
plateau
plateaux
plateforme
plateformes
plates
platine
platinum
platnick
platon
plats
play
player
players
playoffs
playstation
plaza
ple
plein
pleine
pleinement
pleines
pleins
plena
plessis
pleura
pleurait
pleurant
pleure
pleurer
pleurs
pleut
pli
plie
plier
pline
pliqua
plique
plis
ploie
ploiement
plomb
plon
plonge
plonger
plorable
plore
ploye
ployer
plu
pluie
pluies
plumage
plume
plumes
plupart
pluriel
plus
plusieurs
plut
plutarque
pluto
pluviome
pluſieurs
plymouth
pm
pmatrix
pmc
pmcid
pmid
pneus
po
poche
poches
pochette
pocket
poczta
podium
podiums
poe
poetry
poids
poignard
poigne
poignet
poil
poils
poinc
poincare
poing
poings
point
pointe
pointes
points
pointu
poire
poirier
pois
poison
poisson
poissons
poitevin
poitiers
poitou
poitrine
poivre
poke
poker
pol
polaire
polaires
polar
pole
poli
police
policie
policier
policiers
policy
polie
polignac
polis
politesse
political
politicien
politiciens
politico
politics
politique
politiquement
politiques
pollution
polo
pologne
polonais
polonaise
polonaises
polska
polyme
polyne
polyno
polytechnique
pome
pomme
pommes
pommier
pompadour
pompe
pompes
pompidou
pompiers
ponce
ponctue
pond
pondait
pondant
ponde
pondent
pondez
pondirent
pondis
pondit
pondre
ponds
pondu
ponge
pons
ponse
ponses
pont
ponte
pontife
pontifical
pontificale
pontoise
ponts
ponyme
pool
pop
pope
popolazione
populace
populaire
populaires
popular
popularise
popularite
population
populations
poque
poques
por
porc
porcelaine
porche
porcs
pores
porphyre
porsche
port
porta
portable
portage
portaient
portail
portait
portal
portant
portation
porte
portefeuille
portent
porter
portera
portes
porteur
porteurs
portez
portie
portier
portion
portions
portique
portland
porto
portoit
portrait
portraits
ports
portsmouth
portuaire
portugais
portugaise
portugal
posa
posait
posant
pose
posent
poser
positif
positifs
position
positionne
positions
positive
positivement
positives
posse
possesseur
possessif
possession
possessions
possessive
possibilite
possible
possibles
post
postal
postale
postales
postaux
poste
postes
posthume
posture
pot
potable
potage
potassium
poteau
poteaux
potentiel
potentielle
potentiellement
potentiels
poterie
poteries
potier
pots
potsdam
potter
pou
pouce
pouces
poudre
pouille
pouiller
pouilles
poulain
poule
poules
poulet
pouls
poumon
poumons
poupe
pour
pourcentage
pourparlers
pourpre
pourquoi
pourra
pourrai
pourraient
pourrais
pourrait
pourras
pourrez
pourriez
pourrions
pourroit
pourrons
pourront
poursuit
poursuite
poursuites
poursuivait
poursuivant
poursuivent
poursuivi
poursuivie
poursuivis
poursuivit
poursuivre
pourtant
pourvoir
pourvu
pourvue
pourvues
pourvus
pousa
pouse
pouser
pouses
poussa
poussaient
poussait
poussant
pousse
poussent
pousser
poussie
poussin
poutine
poutre
poutres
pouvaient
pouvais
pouvait
pouvant
pouvantable
pouvante
pouvez
pouvions
pouvoient
pouvoir
pouvoirs
pouvoit
pouvons
poux
powell
power
powers
powiat
poznan
pp
pr
pra
practice
prado
prague
prairie
prairies
prat
pratiquant
pratique
pratiquement
pratiquent
pratiquer
pratiques
pratt
pre
preliminary
premie
premier
premiere
premiers
premiership
premio
prenaient
prenait
prenant
prend
prendra
prendrai
prendrait
prendre
prends
prenez
prenne
prennent
prenons
pres
presbyte
prescription
prescriptions
prescrit
present
president
presqu
presque
press
pressa
pressait
pressant
presse
pressent
pressentiment
presser
presses
pression
pressions
prestation
prestations
prestige
prestigieuse
prestigieux
preston
pretty
preuve
preuves
preux
pri
pria
priait
priant
price
pride
prie
prier
priest
prieur
prieure
priez
prima
primaire
primaires
prime
primer
primes
primitif
primitifs
primitive
primitivement
primitives
primo
prince
princes
princess
princesse
princesses
princeton
principal
principale
principalement
principales
principaute
principaux
principe
principes
print
printemps
printf
priori
priorite
prirent
pris
prise
priser
prises
prisme
prison
prisonnie
prisonnier
prisonniers
prisons
prit
privat
private
privation
privations
prive
priver
privile
prix
prize
pro
probabilite
probable
probablement
proballers
probite
proble
problem
proce
proceedings
process
processeur
procession
processus
prochable
prochain
prochaine
prochainement
prochaines
proche
proches
proclamation
proclame
proclamer
procure
procurer
procureur
procyclingstats
prod
prodige
prodiges
prodigieuse
prodigieux
prodigue
producteur
producteurs
production
productions
productivite
productrice
produira
produire
produisait
produisant
produisent
produisit
produit
produite
produites
produits
prof
profane
profanes
profe
professe
professeur
professeure
professeurs
profession
professional
professionnel
professionnelle
professionnelles
professionnels
professions
professor
profil
profile
profils
profit
profita
profitant
profite
profitent
profiter
profits
profond
profonde
profondes
profondeur
profondeurs
profonds
profusion
profweb
program
programmation
programme
programmes
progre
progress
progresse
progresser
progressif
progression
progressiste
progressive
progressivement
proie
proies
project
projectiles
projection
projections
projet
projete
projets
projette
prole
proleksis
prolife
prolifique
prologue
prolongation
prolonge
prolongement
prolonger
prome
promenade
promenades
promenait
promenant
promener
promesse
promesses
promet
prometheus
promets
promettait
promettant
promettre
promis
promise
promit
promontoire
promoteur
promotion
promouvoir
prompt
prompte
promptement
promptitude
promu
promulgue
promus
pronom
pronominal
prononc
prononce
prononcer
prononciation
propagande
propagation
propage
propager
properties
prophe
propice
proportion
proportionne
proportionnel
proportionnelle
proportions
propos
proposa
proposait
proposant
propose
proposent
proposer
proposition
propositions
propre
proprement
propres
proprete
proprie
propulse
propulsion
proscrit
prose
prospe
prosper
prosterne
prostitue
prostitution
protagoniste
protagonistes
prote
protecteur
protecteurs
protection
protectorat
protectrice
protestans
protestant
protestante
protestantes
protestantisme
protestants
protestation
protestations
proteste
protester
proto
protocole
protocoles
prototype
prototypes
proudhon
proue
proust
prouva
prouvait
prouvant
prouve
prouvent
prouver
provenance
provenant
provenc
provence
provenir
proverbe
proverbes
providence
proviennent
provient
province
provinces
provincial
provinciale
provinciales
provinciaux
provision
provisions
provisoire
provisoirement
provocation
provoqua
provoquant
provoque
provoquent
provoquer
proximite
prud
prudemment
prudence
prudent
prudente
prudhomme
prunelles
prusse
prussien
prussienne
prussiens
ps
psa
psaume
psaumes
pseudo
pseudonyme
pseudoscorpions
psg
psi
psychanalyse
psyche
psychiatre
psychiatrie
psychiatrique
psychique
psychologie
psychologique
psychologiques
psychologue
psychology
pt
ptole
pts
pu
pub
publia
publiant
public
publicain
publicaine
publicaines
publicains
publication
publications
publicitaire
publicitaires
publicite
publics
publie
publient
publier
publique
publiquement
publiques
published
publishers
publishing
puce
pucelle
puces
pudeur
pue
puerto
puf
pugnance
puis
puisable
puise
puisement
puiser
puisqu
puisque
puissamment
puissance
puissances
puissans
puissant
puissante
puissantes
puissants
puisse
puissent
puissiez
puissions
puits
pulcre
pulmonaire
pulsion
pulture
pultures
pulve
punch
puni
punir
punis
punit
punition
punk
pupille
pur
puration
pure
purement
purent
pures
purete
purgatoire
purge
purification
purifie
purs
pus
puscule
pussent
put
putation
pute
puy
py
pyramide
pyramides
pyre
pythagore
python
pɑ
pɔ
pə
pɛ
pɛʁ
pʁe
pʁɔ
q
qatar
qc
qe
qi
qing
qmul
qquad
qu
qua
quad
quadruple
quae
quai
quais
qualifiant
qualificatif
qualification
qualifications
qualifie
qualifient
qualifier
qualite
quam
quand
quant
quantique
quantite
quantum
quarantaine
quarante
quarre
quart
quarterly
quartet
quartier
quartiers
quarts
quartz
quasi
quasiment
quateur
quation
quations
quatoriale
quatorze
quatorzie
quatre
quatrie
quatuor
que
queen
queens
queensland
quel
quelconque
quelconques
quelle
quelles
quelqu
quelque
quelquefois
quelques
quels
quemment
quence
quences
quent
quentation
quente
quenter
quentes
quentin
quents
quercus
quercy
querelle
querelles
query
ques
quest
question
questions
questre
queue
queues
qui
quia
quichotte
quick
quiconque
quid
quie
quilibre
quille
quimper
quinn
quint
quinzaine
quinze
quinzie
quipage
quipages
quipe
quipement
quipements
quiper
quipes
quipier
quipiers
quitable
quitation
quite
quitta
quittait
quittant
quitte
quittent
quitter
quivalence
quivalent
quivalente
quivalents
quivaut
quivoque
quo
quod
quoi
quoiqu
quoique
quotidien
quotidienne
quotidiennement
quotidiennes
quotidiens
quotient
quoy
quy
quæ
qwant
r
ra
rabat
rabbi
rabbin
rabelais
rabilite
rable
rablement
rables
rac
raccourci
race
races
rachat
rache
rachel
rachete
racheter
rachid
racine
racines
racing
racisme
racle
raconta
racontait
racontant
raconte
racontent
raconter
radar
rade
radeau
radiation
radical
radicale
radicalement
radicaux
radieux
radio
radiodiffusion
radiophonique
radios
radium
radon
raf
rafael
rafale
raffine
rafrai
rage
rai
raid
raide
raids
raie
raient
raies
rail
raille
raillerie
railles
railroad
rails
railway
rain
rainbow
rainer
raire
raires
rais
raisin
raisins
raison
raisonnable
raisonnables
raisonne
raisonnement
raisonnements
raisonner
raisons
rait
raja
rajoute
ral
rald
raldique
rale
ralement
ralentir
rales
ralisation
ralise
raliser
ralisme
raliste
ralistes
ralite
rallie
ralliement
rallier
rallye
rallyes
ralogie
ralph
ram
rama
ramasse
ramasser
rambouillet
rame
rameau
rameaux
ramena
ramene
ramener
rament
rames
rami
ramique
ramiques
ramo
ramon
ramos
rampe
ramsay
ran
ranc
rance
rances
ranch
rancune
rand
randall
random
randonne
randy
rang
range
rangement
ranger
rangers
rangle
rangs
ranie
ranime
ranimer
ranking
rans
rant
rante
rantes
ranto
rants
raoul
rap
rapeutique
raphae
rapide
rapidement
rapides
rapidite
rapie
rappel
rappela
rappelait
rappelant
rappele
rappeler
rappelez
rappelle
rappellent
rappelons
rappeur
rapport
rapporta
rapportait
rapportant
rapporte
rapportent
rapporter
rapporteur
rapports
rapprochant
rapproche
rapprochement
rapprochent
rapprocher
rarchie
rard
rare
rarement
rares
rarete
ras
rase
rassemblant
rassemble
rassemblement
rassemblent
rassembler
rassure
rassurer
rat
rate
rateur
rateurs
ratif
ratification
ratifie
ratings
ratio
ration
rationnel
rationnelle
rationnelles
rationnels
rations
rative
ratives
ratp
ratrice
rats
rattache
rattachement
rattachent
rattacher
rattrape
rattraper
rature
ratures
rau
raud
rault
raux
ravage
ravages
ravel
raven
ravenne
ravi
ravie
ravin
ravir
ravitaillement
raw
ray
raye
raymond
raynouard
rayon
rayonnement
rayons
rb
rbrace
rc
rca
rd
rda
rdc
re
read
reading
ready
real
realgm
reba
rebaptise
rebecca
rebelle
rebelles
rebonds
rebours
rec
rece
recense
recensement
recensements
recette
recettes
recevaient
recevait
recevant
receveur
recevoir
recevra
recherche
rechercher
recherches
reclus
recommandation
recommandations
recommande
recommander
recommenc
recommence
recommencer
reconduit
reconnai
reconnais
reconnaissable
reconnaissait
reconnaissance
reconnaissant
reconnaissent
reconnait
reconnoi
reconnu
reconnue
reconnues
reconnus
reconnut
reconque
reconstitue
reconstituer
reconstitution
reconstruction
reconstruire
reconstruit
reconstruite
record
recording
recordings
records
recourbe
recourir
recours
recouvert
recouverte
recouvertes
recouverts
recouvre
recouvrer
recre
recrue
recrues
recrute
recrutement
recruter
rectangle
rectangulaire
recteur
rectifie
rection
recueil
recueille
recueillement
recueilli
recueillie
recueillies
recueillir
recueillis
recueils
recul
recula
recule
reculer
recycle
recycler
red
reddition
rede
redevient
redingote
redire
redouble
redoutable
redoutables
redoutait
redoute
redouter
redresse
redressement
redresser
reed
ref
refaire
refait
reference
referme
refle
reflet
reflets
reforme
refoule
refrain
refroidir
refroidissement
refuge
refus
refusa
refusait
refusant
refuse
refusent
refuser
reg
regagne
regagner
regard
regarda
regardaient
regardais
regardait
regardant
regarde
regardent
regarder
regardez
regards
reggae
regiment
regina
reginald
region
regional
regions
register
registre
registres
regne
regret
regrets
regrette
regretter
regroupant
regroupe
regroupement
regroupent
regrouper
rehausse
rei
reich
reichstag
reid
reilly
reims
rein
reine
reines
reinhard
reinhold
reins
reis
reischauer
rejet
rejete
rejeter
rejette
rejoignant
rejoignent
rejoignit
rejoindre
rejoint
rejoints
rela
relais
relance
relancer
relate
related
relatif
relatifs
relation
relations
relative
relativement
relatives
relativite
rele
release
releva
relevait
relevant
releve
relever
reliant
relie
relief
reliefs
relier
religieuse
religieuses
religieux
religion
religions
relique
reliques
rem
remacle
remake
remanie
remaniement
remarie
remarqua
remarquable
remarquables
remarque
remarquer
remarques
remarquez
remboursement
rembourser
rembrandt
reme
rement
remercia
remercie
remercier
remet
remettant
remettre
remis
remise
remises
remit
remix
remment
remonta
remontant
remonte
remontent
remonter
remonterletemps
remontrances
remords
remorque
rempart
remparts
remplac
remplace
remplacement
remplacent
remplacer
rempli
remplie
remplies
remplir
remplis
remplissait
remplissent
remplit
remporta
remportant
remporte
remportent
remporter
remue
remuer
remy
ren
renai
renaissance
renan
renard
renart
renaud
renault
rence
rences
rencie
rencier
rencontra
rencontrait
rencontrant
rencontre
rencontrent
rencontrer
rencontres
rend
rendaient
rendait
rendant
rende
rendement
rendent
rendez
rendirent
rendit
rendra
rendrait
rendre
rends
rendu
rendue
rendues
rendum
rendus
rene
renfermait
renfermant
renferme
renferment
renfermer
renforce
renforcement
renforcer
renfort
renforts
rennais
renne
rennes
renoir
renom
renomme
renonc
renonce
renoncer
renouveau
renouvelables
renouvele
renouveler
renouvelle
renouvellement
rens
renseigne
renseignemens
renseignement
renseignements
renseigner
rent
rente
rentes
rentiel
rentielle
rentiels
rentra
rentrait
rentrant
rentre
rentrent
rentrer
rents
renverse
renversement
renverser
renvoi
renvoie
renvoya
renvoye
renvoyer
repaire
reparai
repart
repartir
repartit
reparut
repas
repasser
repe
repentir
replace
repli
replie
replier
report
reportage
reportages
reporte
reporter
reports
repos
reposait
reposant
repose
reposent
reposer
repoussa
repoussant
repousse
repousser
repre
reprenait
reprenant
reprend
reprendra
reprendre
reprennent
reprirent
repris
reprise
reprises
reprit
reprochait
reproche
reprocher
reproches
reproduction
reproduire
reproduit
reproduite
reptarium
reptile
reptiles
repubblica
republic
reque
requiem
requiert
requin
requins
requis
rer
rera
rerait
res
rescape
research
reserve
residente
resistance
resource
resources
respect
respectable
respectant
respecte
respecter
respectifs
respectivement
respectives
respectueuse
respectueusement
respectueux
respiration
respiratoire
respire
respirer
responsabilite
responsable
responsables
response
ressait
ressant
ressante
ressantes
ressants
resse
ressemblaient
ressemblait
ressemblance
ressemblant
ressemble
ressemblent
ressembler
ressement
ressent
ressenti
ressentiment
ressentir
resser
resserre
ressort
ressortir
ressorts
ressource
ressources
ressuscite
ressusciter
resta
restai
restaient
restait
restant
restants
restaurant
restaurants
restauration
restaure
restaurer
reste
restent
rester
restera
resterait
resteront
restes
restez
restitue
restituer
restitution
restreindre
restreint
restreinte
restriction
restrictions
restructuration
resultaten
resultats
results
ret
reta
retable
retard
retarde
retarder
rete
retenait
retenant
retenir
retentir
retentissement
retentit
retenu
retenue
retenues
retenus
retient
retint
retira
retirant
retire
retirent
retirer
retomba
retombe
retomber
retour
retourna
retournait
retournant
retourne
retournent
retourner
retours
retrace
retrait
retraite
retraites
retranche
retrancher
retrieved
retrouva
retrouvait
retrouvant
retrouve
retrouvent
retrouver
retrouvera
retrouvons
rette
return
returns
retz
reur
reuse
reusement
reuses
reuters
reux
rev
revanche
reve
reveals
revenaient
revenait
revenant
revendication
revendications
revendique
revendiquer
revenge
revenir
revenons
revenu
revenue
revenus
revers
reviendra
reviendrai
reviennent
reviens
revient
review
reviews
revinrent
revint
revised
revision
revista
revit
revivre
revoir
revolution
revolver
revu
revue
revues
rex
rey
reyes
reynaud
reynolds
rez
rfc
rfi
rg
rgen
rhe
rhin
rho
rhode
rhodes
rhum
rhythm
ri
ria
riait
rial
riale
riales
rialise
rialisme
rialiste
rian
riant
riau
riaux
ric
rica
ricain
ricaine
ricaines
ricains
ricano
ricard
ricardo
rice
rich
richard
richards
richardson
riche
richelieu
richement
riches
richesse
richesses
richmond
richter
rick
ricky
rico
ricorde
rida
ride
rideau
rideaux
rider
rides
ridge
ridicule
ridicules
ridien
ridional
ridionale
ridionales
rie
riel
rielle
rielles
riels
rien
rience
riences
rienne
riennes
riens
rier
ries
rieur
rieure
rieurement
rieures
rieurs
rieuse
rieusement
rieuses
rieux
riez
rif
rifiabilite
rifiables
rification
rifie
rifier
riga
rigaud
rige
riger
right
rightarrow
rights
rigide
rigord
rigoureuse
rigoureusement
rigoureux
rigueur
rigueurs
rigueux
rihe
ril
rile
riles
riley
rilite
rilla
rilleuse
rilleux
rils
rim
rimbaud
rime
rimental
rimentale
rimentation
rimente
rimes
rin
rinaire
rindiens
rine
ring
rio
riode
riodes
riodique
riodiques
riorite
riot
ripe
riphe
riposte
rique
riques
rir
rire
rires
ris
risant
risation
rise
risent
riser
rising
rision
risk
risme
rison
risque
risquer
risques
risse
rissent
riste
ristique
ristiques
rit
rita
ritable
ritablement
ritables
ritage
ritait
rite
ritent
riter
rites
ritie
ritier
ritiers
ritter
rituel
rituels
rium
rivage
rivages
rival
rivale
rivales
rivalite
rivation
rivaux
rive
river
rivera
rivers
rives
rivie
riviere
rix
riz
rk
rkdartists
rm
rn
ro
road
roanne
rob
robbie
robe
rober
robert
roberto
roberts
robertson
robes
robespierre
robin
robinet
robinson
robot
robots
robuste
robustes
roc
roce
roces
roch
roche
rochefort
rochefoucauld
rochelle
rocher
rochers
roches
rochester
rocheuses
rocheux
rocite
rock
rocket
rocky
rod
rode
rodez
rodin
rodolphe
rodote
rodri
rodrigo
rodrigues
rodriguez
rodrome
roe
roewer
rogatives
roge
roger
rogers
roh
rohan
roi
rois
rol
roland
role
rolf
roll
rolland
roller
rollin
rolling
rom
roma
romagne
romain
romaine
romaines
romains
roman
romance
romancie
romancier
romanciers
romande
romane
romanes
romanesque
romanisation
romano
romans
romantique
romantiques
romantisme
rome
romeo
romero
rompre
rompt
rompu
ron
ronald
ronautique
rond
ronde
rondes
rondif
ronds
rone
ronge
rongeurs
ronique
ronne
ronnie
rons
ronsard
rookie
room
roosevelt
roport
roports
roque
ros
rosa
rosaire
rosalie
rosario
rose
roseau
roseaux
rosen
rosenberg
roses
rosette
rosie
rosier
rosiers
rosion
rosite
ross
rossi
rossignol
rossini
rot
rotation
rote
roth
rothschild
rotique
rotten
rotterdam
rou
roubaix
roubles
roue
rouen
rouergue
roues
rouge
rougea
rouges
rougeur
rougir
rougit
rouille
roula
roulaient
roulait
roulant
roule
rouleau
rouleaux
roulement
roulent
rouler
rouletabille
roumain
roumaine
roumains
roumanie
round
rouse
rousse
rousseau
roussel
roussillon
route
routes
routie
routier
routiers
routine
routledge
roux
rover
row
rowac
roy
royal
royale
royales
royaliste
royalistes
royaume
royaumes
royaute
royaux
royer
rpr
rr
rs
rsssf
rt
rtbf
rte
rterbuch
rtl
rts
ru
ruban
rubans
rubens
rubin
rubis
rubrique
ruby
ruche
rude
rudement
rudes
rudit
rudition
rudits
rudolf
rudy
rue
ruelle
rues
rugby
rugbyrama
ruine
ruiner
ruines
ruisseau
ruisseaux
ruiz
rule
rules
rum
rumeur
rumeurs
run
running
rupert
ruption
rupture
rural
rurale
rurales
ruralite
ruraux
rus
rusalem
ruse
ruses
rush
russe
russell
russes
russia
russian
russie
russo
rustique
rustiques
ruth
rv
rwanda
ry
ryan
ryo
rythme
rythmes
rythmique
rythre
ryu
s
sa
sabbat
sabine
sable
sables
sabots
sabre
sabres
sabrina
sac
saccage
saccord
sacerdoce
sacha
sachant
sache
sachez
sacre
sacrement
sacrements
sacrifice
sacrifices
sacrifie
sacrifier
sacrile
sacristie
sacs
sad
sade
sae
safety
saffecte
safran
saga
sagacite
sage
sagement
sages
sagesse
sagre
saguenay
sahara
sahel
sai
said
saigne
saillant
sailles
saillie
sain
saine
saines
sains
saint
sainte
saintes
saintete
saintonge
saints
sais
saisi
saisie
saisir
saisis
saisissant
saisit
saison
saisons
sait
sal
sala
salade
saladin
salah
salaire
salaires
salarie
sale
salem
sales
salins
salisbury
salle
salles
sally
salmon
salome
salomon
salon
salons
salpe
salt
salua
saluant
salue
saluer
salut
salutaire
salvador
salvatore
salzbourg
sam
samantha
sambre
same
samedi
samoa
samourai
samson
samuel
san
sanchez
sancho
sanction
sanctionne
sanctions
sanctuaire
sanctuaires
sand
sanders
sandra
sandre
sandrine
sandwich
sandy
sang
sanglant
sanglante
sanglantes
sanglier
sanglots
sanguin
sanguine
sanitaire
sanitaires
sans
sanskrit
sant
santa
sante
santiago
santo
santos
sao
saoudite
sapin
sapins
sar
sara
saragosse
sarah
sarajevo
sarcophage
sardaigne
sare
sarkozy
sarme
sarrasins
sarre
sars
sarthe
sartre
sas
saskatchewan
sastre
sastres
sat
satan
satellite
satellites
satin
satire
satirique
satisfaction
satisfaire
satisfaisant
satisfaisante
satisfait
satisfaite
satisfaits
saturday
sature
saturn
saturne
sau
sauce
sauf
saul
saule
saules
sault
saumon
saumur
saunders
saura
saurai
sauraient
saurais
saurait
saurez
sauroit
saurus
saut
sauta
sautant
saute
sauter
sauts
sauva
sauvage
sauvages
sauve
sauvegarde
sauvegarder
sauver
sauvetage
sauveur
savage
savaient
savais
savait
savans
savant
savante
savantes
savants
savary
save
savent
saveur
savez
saviez
savoie
savoir
savoirs
savon
savons
savoyard
saxe
saxon
saxonne
saxons
saxophone
say
says
sb
sc
scala
scandale
scandales
scandinave
scandinaves
sce
sceau
sceaux
scelle
scene
scepticisme
sceptique
sceptre
scha
sche
schiller
schisme
schleswig
schmidt
schmitt
schneider
scho
scholar
school
schopenhauer
schu
schubert
schumacher
schumann
schwartz
schweizer
sci
scie
science
sciences
scientific
scientifique
scientifiques
scipion
scission
scolaire
scolaires
scolarite
scolastique
score
scores
scorpion
scorpions
scot
scotland
scott
scottish
screen
scribe
scribes
script
scriptstyle
scrupule
scrupules
scrutin
sculpte
sculpteur
sculpteurs
sculpture
sculptures
sd
se
sea
sean
search
season
seattle
seau
seaux
sebastian
sec
second
secondaire
secondaires
seconde
secondes
seconds
secoua
secouant
secoue
secouer
secourir
secours
secousse
secousses
secre
secret
secrets
secs
secte
sectes
secteur
secteurs
section
sections
security
sed
sedan
seds
see
sega
segment
segments
segon
segond
sei
seigle
seigneur
seigneurie
seigneuries
seigneurs
sein
seine
seins
seize
seizie
sel
select
selected
self
seligman
selle
selon
sels
semaine
semaines
sembla
semblable
semblables
semblaient
semblait
semblant
semble
semblent
sembler
semblerait
seme
semence
semences
semer
semestre
semi
semis
sen
sence
senior
senlis
sens
sensation
sensations
sense
sensibilite
sensible
sensiblement
sensibles
sent
senta
sentaient
sentais
sentait
sentans
sentant
sentants
sentateur
sentatif
sentation
sentations
sentative
sente
sentement
sentence
sentences
sentent
senter
sentera
sentes
sentez
senti
sentier
sentiers
sentimens
sentiment
sentimental
sentimentale
sentiments
sentinelle
sentinelles
sentir
sentis
sentit
sentons
sents
sept
september
septembre
septentrion
septentrional
septentrionale
septie
ser
sera
serai
seraient
serais
serait
seras
serbe
serbes
serbie
serein
sereine
serena
serez
serfs
serge
sergent
sergio
serguei
serie
series
seriez
serions
serment
serments
sermon
sermons
seroient
seroit
serons
seront
serpent
serpente
serpents
serra
serrait
serrant
serre
serrer
serres
serrure
sert
serte
serts
serva
servaient
servait
servant
servante
servantes
servation
serve
servent
server
serves
serveur
serveurs
servez
servi
service
services
servie
serviette
servile
servir
servira
servirait
servirent
servis
servit
serviteur
serviteurs
servitude
servoir
servoirs
ses
sespe
sespoir
session
sessions
set
seth
sets
settlements
seu
seuil
seul
seule
seulement
seules
seuls
seven
sex
sexe
sexes
sexual
sexualite
sexuel
sexuelle
sexuelles
sexuels
seymour
sf
sg
sh
sha
shadow
shah
shakespeare
shakspeare
shane
shanghai
shannon
sharon
sharp
shaw
shawinigan
shawn
she
sheffield
sheila
shell
shelley
sherbrooke
sheridan
sherlock
sherman
shi
shield
shin
ship
ships
shirley
sho
shoah
shonneur
shonore
shoot
shop
shore
short
shot
should
show
shows
shu
si
sia
siam
siastique
siastiques
sibe
sic
sica
sich
sicile
sicilien
sid
sida
sidait
sidant
side
sidence
sidences
sident
sidente
sidentiel
sidentielle
sidentielles
sidents
sider
sidi
sidney
sidus
sie
siecle
siegfried
sien
sienne
siennes
siens
sierra
sies
sieur
sifflet
sig
sigismond
sigle
sigma
sign
signa
signait
signal
signale
signaler
signalisation
signant
signataires
signation
signature
signatures
signaux
signe
signent
signer
signes
signifiait
signifiant
significatif
significatifs
signification
significations
significative
signifie
signifient
signifier
signs
sik
sil
silas
sile
silence
silencieuse
silencieusement
silencieux
silent
silex
silhouette
silien
silienne
sillage
sillon
sillonne
sillons
silva
silver
silvia
silvio
sim
simbad
sime
simeq
similaire
similaires
simile
similitude
similitudes
simmons
simon
simone
simple
simplement
simples
simplicite
simplifie
simplifier
simpson
simulation
simule
simultane
sin
sinai
since
sinclair
sine
sing
singapour
singe
singer
singes
singh
single
singles
singularite
singulie
singulier
singuliers
sinistre
sinistres
sino
sinon
sint
sinte
sinus
sion
sions
sique
sir
sirable
sirait
sirant
sire
siren
sirent
sirer
sires
sireux
sirez
sirop
sirs
sis
sismicite
sismique
sistance
sistances
sistant
sistante
sistants
siste
sistent
sister
sisters
sistible
sit
sita
sitait
sitant
sitation
sitations
site
siter
sites
sitez
sito
situation
situations
situe
situent
sium
six
sixie
sixte
size
sj
sja
sje
sjo
sjɔ
sk
ska
sketch
ski
skrutskie
sky
sl
slalom
slam
slate
slave
slaves
slogan
slovaque
slovaquie
slove
sm
smackdown
small
smart
sme
smith
smithsonian
sms
sn
sncb
sncf
snep
snooker
snow
so
sobe
sobre
sobrie
soc
soccer
soccerbase
soccerway
social
sociale
sociales
socialisme
socialiste
socialistes
sociaux
socie
societe
society
socio
sociologie
sociologue
socle
socorro
socrate
sodium
sofia
software
soi
soie
soient
soif
soigne
soigner
soigneusement
soin
soins
soir
soire
soirs
sois
soissons
soit
soixantaine
soixante
sol
solaire
solaires
solange
solar
solation
soldat
soldats
solde
sole
soleil
soleils
solennel
solennelle
solennellement
solennite
solidaire
solidarite
solide
solidement
solides
solidite
soliste
solitaire
solitaires
solitude
solitudes
sollicite
solliciter
sollicitude
solo
solomon
sols
solu
solue
solument
solus
solut
solution
solutions
somalie
sombre
sombres
some
somerset
something
sommaire
somme
sommeil
sommes
sommet
sommets
somption
somptueux
son
sonance
sonate
sonates
sondage
sondages
sonde
sonder
song
songe
songea
songeait
songeant
songer
songes
songez
songkick
songs
sonia
sonic
sonna
sonnait
sonne
sonner
sonnet
sonnets
sonnette
sonore
sonores
sonorite
sons
sont
sony
sophia
sophie
sophistique
sophocle
sopotamie
soprano
sor
sorbonne
sorcellerie
sorcie
sorcier
sorciers
sordonne
sordre
sordres
sorel
sorier
sormais
sors
sort
sortaient
sortait
sortant
sorte
sortent
sortes
sorti
sortie
sorties
sortile
sortir
sortira
sortirent
sortis
sortit
sos
sot
sote
sots
sotte
sottise
sottises
sou
souabe
souche
souches
souci
soucie
soucieux
soucis
soudain
soudaine
soudainement
soudan
soude
soudre
souffert
soufflait
souffle
souffler
soufflet
souffrait
souffrance
souffrances
souffrant
souffre
souffrent
souffrir
soufre
souhait
souhaitable
souhaitait
souhaitant
souhaite
souhaitent
souhaiter
souhaits
souille
soul
soulage
soulagement
soulager
soule
souleva
souleve
soulever
soulier
souliers
souligne
souligner
soumet
soumettre
soumis
soumise
soumises
soumission
sound
soundtrack
soupc
soupe
souper
soupir
soupira
soupirant
soupirs
souple
souples
souplesse
source
sources
sourcils
sourd
sourde
sourds
souriait
souriant
souriante
sourire
sourires
souris
sourit
sous
souscription
soustraire
sout
soutenait
soutenant
soutenir
soutenu
soutenue
soutenues
soutenus
souterrain
souterraine
souterraines
souterrains
south
southern
soutien
soutiennent
soutiens
soutient
soutint
souvenez
souvenir
souvenirs
souvent
souverain
souveraine
souverainete
souverains
souviens
souvient
sovie
soviet
sox
soy
soyez
soyons
sp
spa
space
spahr
spain
spanish
sparte
spatial
spatiale
spatiales
spd
spe
special
species
spectacle
spectacles
spectaculaire
spectateur
spectateurs
spectre
spectres
speculative
speed
spencer
sphe
sphinx
spider
spiders
spiegel
spike
spin
spinoza
spirale
spirit
spiritualite
spirituel
spirituelle
spirituelles
spirituels
spirou
spispna
splendeur
splendeurs
splendide
split
spontane
sport
sportif
sportifs
sporting
sportive
sportives
sports
spot
spring
springer
springs
sprint
spy
sq
sqrt
squad
squadron
square
squash
squelette
sr
sri
ss
ssa
ssd
sse
sseldorf
ssis
st
sta
stabilise
stabilite
stable
stables
stade
stades
stadium
stae
staff
stage
stages
stagiaires
staline
stan
stand
standard
standards
stanford
stanislas
stanley
star
staren
stark
starr
stars
start
stat
state
states
station
stationne
stationnement
stations
statique
statistical
statistics
statistique
statistiques
stats
statsf
statuaire
statue
statues
status
statut
statuts
stav
ste
steel
stefan
stefano
stein
steiner
steinicke
stella
stendhal
step
stephan
stephanie
stephen
steppes
sterling
stern
stes
steve
steven
stevens
stevenson
stewart
sti
still
stimule
stipule
sto
stock
stockage
stocke
stocker
stockholm
stocks
stoi
stone
stones
stop
stoppe
store
storia
stories
storm
story
strabon
strand
strange
strasbourg
stratage
strate
strauss
stream
streaming
street
stress
strict
stricte
strictement
strike
string
strip
strong
strophe
strophes
structurae
structure
structures
stu
stuart
studies
studio
studios
study
stupe
stupeur
stupide
stuttgart
style
styles
su
sua
suave
sub
subdivise
subdivision
subdivisions
subi
subies
subir
subissent
subit
subite
subitement
subjonctif
sublime
sublimes
submarine
submerge
subordonne
subsista
subsistait
subsistance
subsiste
subsistent
subsister
subsp
substance
substances
substantif
substitue
substituer
substitut
substitution
substrat
subtil
subtile
subtilite
subvenir
subvention
subventions
suc
succe
successeur
successeurs
successifs
succession
successivement
successives
succombe
succomber
sucre
sud
sudoc
sue
suet
sueur
suez
suffi
suffira
suffirait
suffire
suffisait
suffisamment
suffisant
suffisante
suffisantes
suffisent
suffit
suffixe
suffrage
suffrages
sugar
sugge
suggestion
sui
suicide
suis
suisse
suisses
suit
suite
suites
suiv
suivaient
suivait
suivant
suivante
suivantes
suivants
suivent
suivez
suivi
suivie
suivies
suivirent
suivis
suivit
suivra
suivre
sujet
sujets
sujette
sul
sulfate
sullivan
sully
sulpice
sultan
sultant
sultat
sultats
sulte
sultent
sulter
sum
sumatra
sume
sumer
summary
summer
sun
sunday
sung
sunt
suo
supe
super
superbe
superbes
supercoupe
superficie
superficielle
superficies
superflu
superlatif
superman
supermarche
superpose
superstition
superstitions
supervise
supervision
supple
supplement
suppliant
supplice
supplices
supplie
support
supportant
supporte
supportent
supporter
supporters
supports
supposait
supposant
suppose
supposer
supposez
supposition
supposons
suppression
supprimant
supprime
supprimer
supra
supre
sur
surcharge
surcroi
sure
surf
surface
surfaces
surgir
surgit
surintendant
surligner
surmonte
surmonter
surnaturel
surnaturelle
surnom
surnomme
surpasse
surplus
surprenant
surprenante
surprend
surprendre
surpris
surprise
surprises
surprit
surre
surrection
sursaut
sursis
surtout
surve
surveillance
surveillant
surveille
surveiller
survenu
survenue
survenues
survenus
survey
survie
survient
survit
survivant
survivants
survivre
sus
susan
susceptible
susceptibles
suscite
susciter
suspect
suspecte
suspects
suspend
suspendre
suspendu
suspendue
suspendues
suspendus
suspension
sussex
sut
sutherland
sutton
suzanne
suzuki
sv
sw
swann
swedish
sweet
swift
swing
swiss
switch
sword
sy
sycomore
sydney
sylla
syllabe
syllabes
sylvain
sylvestre
sylvia
sylvie
symbole
symboles
symbolique
symboliques
symbolise
symbolisme
syme
sympathie
sympathies
sympathique
symphonie
symphonies
symphonique
symphony
symposium
sympto
syn
synagogue
syndic
syndicale
syndicalisme
syndicaliste
syndicat
syndicats
syndrome
synode
synonyme
synonymes
synopsis
syntaxe
synthe
syracuse
syrie
syrien
syrienne
syriens
syst
syste
system
systems
syʁ
sœur
sœurs
sɑ
sɔ
sə
sɛ
sɛʁ
t
ta
taal
tab
tabac
tabernacle
table
tableau
tableaux
tables
tablette
tablettes
tabli
tablie
tablier
tablies
tablir
tablirent
tablis
tablissant
tablissemens
tablissement
tablissements
tablissent
tablit
tac
tace
tache
tachement
tacher
taches
tachete
tacite
tact
tactique
tactiques
tadonne
tag
tage
tages
tahiti
tai
taient
tail
taille
tailler
tailles
tailleur
taillis
tails
tain
taine
tains
taipei
taire
taires
tais
tait
taiwan
take
takes
tal
talbot
tale
talens
talent
talents
taler
tales
talk
talks
tallandier
talleyrand
tallinn
tallique
talliques
tallurgie
talmud
talon
talons
talus
tam
tambour
tambours
tamines
tamise
tamorphose
tamorphoses
tampa
tampon
tan
tanaka
tanche
tandem
tandis
tang
tanger
tango
tangs
tank
tant
tante
tantes
tanto
tanzanie
tao
tapage
tape
tapes
taphore
taphysique
taphysiques
tapis
tapisserie
tapisseries
tar
tara
tarbes
tard
tarda
tarde
tarder
tardif
tardive
tardivement
tards
tariat
tarif
tarifs
tarn
tartares
tas
tasse
tat
tate
tatiana
tation
tations
tats
tau
taureau
taureaux
taux
taverne
taxe
taxes
taxi
taxon
taxonomic
taxonomy
taxons
taylor
tb
tc
tch
tchad
tchang
tche
td
te
tea
team
teams
teatro
teau
teauneuf
teauroux
teaux
tech
technical
technicien
techniciens
technico
technique
techniques
technologie
technologies
technologique
technologiques
technology
tecte
tecter
tection
tective
ted
teddy
teen
teignit
teil
teindre
teint
teinte
teintes
teints
teinture
tel
tela
telain
telegraph
telet
television
telier
tell
telle
tellement
tellerie
telles
tellier
tels
temens
tement
tements
tempe
tempes
temple
temples
templiers
tempo
temporaire
temporairement
temporaires
temporel
temporelle
temps
tems
ten
tenace
tenaient
tenais
tenait
tenant
tence
tences
tend
tendaient
tendait
tendance
tendances
tendant
tendard
tende
tendent
tendit
tendre
tendrement
tendres
tendresse
tends
tendu
tendue
tendues
tendus
teneur
tenez
tenir
tennessee
tennis
tenoit
tenons
tension
tensions
tent
tenta
tentant
tentation
tentations
tentative
tentatives
tente
tentent
tenter
tentes
tenteur
tention
tentions
tenu
tenue
tenues
tenus
ter
tera
terai
terait
teresa
terme
termes
termina
terminaison
terminait
terminal
terminale
terminant
termination
termine
terminent
terminer
terminologie
terminus
terne
ternel
ternelle
ternellement
ternelles
ternels
ternite
terra
terrain
terrains
terrasse
terrasses
terre
terres
terrestre
terrestres
terreur
terreurs
terrible
terriblement
terribles
terrier
territoire
territoires
territorial
territoriale
territoriales
terroir
terror
terrorisme
terroriste
terroristes
terry
tersbourg
tertiaire
tertiaires
tertre
teryt
tes
tesse
test
testable
testament
teste
tester
tests
tete
teur
teurs
teuse
teux
texas
text
texte
textes
textile
textiles
tez
tf
tfrac
tgv
th
tha
thai
than
thane
that
the
theater
theatre
their
them
then
theo
theodor
theodore
theory
theplantlist
ther
there
thermes
thermidor
thermique
thermiques
thermodynamique
thermome
these
thessalonique
theta
they
thibault
thibaut
thie
thierry
thiers
thing
things
think
thionville
thiopie
thique
third
this
tho
thode
thodes
thodique
tholen
thomas
thompson
thomson
thon
thor
thorpe
thrace
three
thresor
thriller
through
thu
thunder
thune
thuringe
thyle
ti
tibe
tibet
tibetan
tic
tica
ticket
tico
tie
tien
tiendra
tienne
tiennent
tiennes
tiens
tient
tiente
tier
tierce
tiers
ties
tiez
tif
tige
tiger
tigers
tiges
tigny
tigre
tigres
tik
til
till
tille
tillon
tim
timbre
timbres
time
timens
timent
timents
times
timide
timidement
timides
timidite
timothe
timothy
tin
tina
tincelle
tincelles
tine
tinrent
tint
tintin
tion
tions
tique
tiquement
tiques
tiquette
tir
tira
tirage
tirailleurs
tirait
tirant
tire
tirent
tirer
tireur
tireurs
tiroir
tirs
tis
tise
tiser
tisme
tissage
tisse
tisserie
tisseur
tissier
tissu
tissus
tit
titan
titanic
titans
tite
titien
tition
titions
title
tito
titre
titres
tits
titulaire
titulaires
titus
tius
tive
tl
tlfi
tm
tn
tna
tnt
to
tobago
tobie
today
todd
toffe
toffes
together
togo
toi
toient
toile
toiles
toilette
toilettes
tois
toises
toison
toit
toits
toiture
toitures
tokyo
tole
tolkien
tologie
tolstoi
tom
toma
tomatoes
tomba
tombaient
tombait
tombant
tombe
tombeau
tombeaux
tombent
tomber
tombes
tome
tomes
tommy
tomorrow
ton
tonalite
tone
tong
tonga
toni
tonkin
tonna
tonnait
tonnant
tonnante
tonne
tonneau
tonneaux
tonnement
tonner
tonnerre
tonnes
tons
tony
too
top
topographie
topographique
toponyme
toponymes
toponymie
tor
torche
torches
torino
torique
toro
toronto
torpille
torpilles
torre
torrent
torrents
torres
torse
tort
torts
tortue
tortues
torture
tortures
toscane
tost
tot
total
totale
totalement
totalise
totalite
toto
tou
touch
toucha
touchait
touchant
touchante
touche
touchent
toucher
touches
touffe
touffer
toujours
toul
toulon
toulousain
toulouse
tour
touraine
tourbe
tourbie
tourbillon
tourbillons
tourdi
tourelle
tourelles
tourisme
touristes
touristique
touristiques
tourment
tourmente
tourmenter
tourments
tourna
tournage
tournai
tournait
tournament
tournant
tourne
tournent
tourner
tournoi
tournois
tournure
tours
tous
tousjours
toussaint
tout
toute
toutefois
toutelatele
toutes
toux
tower
town
township
toxique
toxiques
toy
toyota
tp
tr
tra
trable
trabucaire
trac
trace
tracer
traces
track
tracks
tracteurs
traction
tracy
trad
trade
tradition
traditionnel
traditionnelle
traditionnellement
traditionnelles
traditionnels
traditions
traducteur
traduction
traductions
traduire
traduit
traduite
traduites
traduits
trafic
trage
trages
tragique
tragiques
trahi
trahir
trahison
trahit
trai
traient
trail
train
training
trains
trait
traita
traitait
traitant
traite
traitement
traitements
traitent
traiter
traits
trajan
trajectoire
trajet
tral
trale
trales
tram
trame
tramway
tramways
tranchant
tranche
trancher
tranches
trange
trangement
tranger
trangers
tranges
trangle
tranquille
tranquillement
tranquilles
tranquillite
trans
transaction
transactions
transcription
transcrit
transept
transfe
transfermarkt
transfert
transferts
transformait
transformant
transformation
transformations
transforme
transforment
transformer
transit
transitif
transition
translation
transmet
transmettre
transmis
transmise
transmission
transparence
transparent
transparente
transport
transportant
transporte
transporter
transports
transylvanie
trant
trape
trappe
traque
trarque
tras
tration
travail
travailla
travaillaient
travaillait
travaillant
travaille
travaillent
travailler
travailleur
travailleurs
travailliste
travaux
trave
travel
travers
traversa
traversait
traversant
traverse
traversent
traverser
travis
tre
treatment
treccani
tree
treinte
treize
treizie
trek
tremblait
tremblant
tremblante
tremblay
tremble
tremblement
trembler
trempe
tremplin
trent
trentaine
trente
trer
tres
tresor
tressaillit
tresse
tresses
trevor
tri
trial
triangle
triangles
triangulaire
triathlon
tribu
tribun
tribunal
tribunaux
tribune
tribunes
tribus
tribut
tricolore
trie
trier
tries
trieste
trilogie
triment
trimestre
trinite
trinity
trio
triomphant
triomphante
triomphe
triompher
triomphes
trip
triple
tripoli
triptyque
trique
triques
trise
triser
tristan
triste
tristement
tristes
tristesse
tro
trograde
troie
trois
troisie
troisieme
troit
troite
troitement
troites
troits
trole
trolie
trolier
trologie
trompait
trompe
trompent
tromper
trompette
trompettes
trompez
tronc
troncs
tronque
tront
trop
trophe
trophy
tropical
tropicale
tropicales
tropicos
tropole
tropolitain
tropolitaine
trospective
trot
trottoir
trou
troubadours
trouble
troubler
troubles
troue
troupe
troupeau
troupeaux
troupes
trous
trouva
trouvai
trouvaient
trouvais
trouvait
trouvant
trouve
trouvent
trouver
trouvera
trouverait
trouverez
trouveront
trouvez
trouvoit
trouvons
troy
troyes
true
truire
truisant
truisent
truit
truite
truites
truits
trump
trusque
trusques
trust
truth
ts
tsar
tse
tt
ttingen
tu
tua
tuant
tube
tubercules
tuberculose
tubes
tucker
tude
tudes
tudia
tudiant
tudiante
tudiants
tudie
tudier
tue
tuel
tuelle
tuellement
tuent
tuer
tues
tueur
tueux
tui
tuileries
tuiles
tuite
tulle
tumeur
tumulte
tumulus
tunique
tunis
tunisie
tunisien
tunisienne
tunnel
tunnels
turage
turages
turbine
turbo
turc
turcs
ture
turenne
turin
turkme
turn
turner
turque
turques
turquie
tus
tut
tutelle
tuteur
tuyau
tuyaux
tv
tva
tvbythenumbers
tvi
twin
twitter
two
tx
ty
tyler
tymologie
tymologique
tympan
type
types
typique
typiquement
typiques
typographie
typographique
typologie
tyr
tyran
tyrannie
tyrans
tyrol
tz
tœʁ
tɑ
tɔ
tə
tɛ
tɛʁ
tʁa
tʁe
tʁi
tʁɑ
tʁɔ
tʁə
tʁɛ
tʃi
u
ua
ubaud
ubio
uc
uci
ud
ue
uefa
ues
ufc
ui
uicn
uk
ukraine
ukrainien
ukrainienne
ukrainiens
ul
ulce
ulm
ulrich
ulster
ulte
ultimate
ultime
ultra
ultratop
ulysse
um
umberto
ump
un
una
unanime
unanimite
und
under
underground
underline
une
unes
unesco
ung
uni
unicode
unie
unies
unification
unifie
uniforme
uniformes
uniformite
unifrance
union
unions
unique
uniquement
uniques
unir
unirent
unis
unissaient
unissait
unissant
unissent
unit
unitaire
unite
united
univ
univers
universal
universalis
universalite
universe
universel
universelle
universellement
universidad
universita
universitaire
universitaires
universite
university
uno
uns
up
update
updated
uploads
upon
upper
ur
uranium
urbain
urbaine
urbaines
urbains
urban
urbanisation
urbanise
urbanisme
ure
urent
urgence
urgences
urgent
urine
url
urne
urss
ursula
ursule
uruguay
us
usa
usage
usagers
usages
usd
use
user
usgs
usine
usines
using
usite
uss
ussi
ussie
ussir
ussissent
ussit
ussite
ustensiles
usure
ut
utah
utc
ute
utile
utilement
utiles
utilisaient
utilisait
utilisant
utilisateur
utilisateurs
utilisation
utilisations
utilise
utilisent
utiliser
utilite
utopie
utrecht
uv
uz
v
va
vacances
vacant
vacarme
vaccin
vaccination
vache
vaches
vacuation
vacue
vacuer
vade
vader
vagabond
vague
vaguement
vagues
vaillance
vaillant
vain
vaincre
vaincu
vaincue
vaincus
vaine
vainement
vaines
vainqueur
vainqueurs
vains
vais
vaisseau
vaisseaux
vaisselle
vait
val
valable
valais
valait
valant
valdo
vale
valence
valencia
valencien
valencienne
valenciennes
valent
valentin
valentine
vales
valet
valets
valette
valeur
valeurs
valide
validite
valise
valladolid
valle
valley
vallie
vallon
vallons
valoir
valois
valorisation
valse
valu
valuation
value
valuer
valuez
valut
vampire
vampires
van
vancouver
vanessa
vange
vangile
vangiles
vanier
vanite
vannes
vanouir
vanouit
vant
vante
vanter
vapeur
vapeurs
vaporation
var
varennes
varepsilon
vargas
variable
variables
variant
variante
variantes
variation
variations
varie
varient
varier
variety
varphi
varsovie
vas
vase
vases
vasion
vassal
vassaux
vassili
vaste
vastes
vatican
vaticane
vation
vauban
vaucluse
vaud
vaudeville
vaudois
vaudra
vaudrait
vaughan
vaut
vautour
vaux
ve
veau
vec
vecteur
vecteurs
vectoriel
vedette
vedettes
vega
vegas
veil
veilla
veillait
veillant
veille
veillent
veiller
veine
veines
vel
velay
velle
veloppa
veloppant
veloppe
veloppement
veloppements
veloppent
velopper
veloppeurs
velours
vement
vements
ven
venaient
venais
venait
venant
vend
vende
vendent
vendeur
vendeurs
vendit
vendo
vendre
vendredi
vendu
vendue
vendues
vendus
venez
venezuela
venge
vengeance
venger
vengeur
venin
venir
venise
vennes
venoit
venons
vent
ventail
vente
ventes
vention
ventre
vents
ventualite
ventuel
ventuelle
ventuellement
ventuelles
ventuels
venu
venue
venues
venus
ver
vera
verbal
verbale
verbaux
verbe
verbes
vercors
verda
verde
verdi
verdict
verdier
verdun
verdure
verge
verger
vergers
verges
verie
veries
verlag
verlaine
vermeil
vermont
vernaculaire
verne
vernet
verneuil
vernis
vernon
vero
veronica
verra
verrai
verrait
verras
verre
verrerie
verres
verrez
verrie
verrier
verrons
verront
vers
versa
versailles
versant
versants
verse
versement
verser
verset
versets
version
versions
verso
versus
vert
verte
vertes
vertical
verticale
verticales
vertige
verts
vertu
vertueuse
vertueux
vertus
verve
very
ves
vesoul
vesque
veste
vestibule
vestige
vestiges
vete
vettel
veu
veuf
veuille
veuillez
veulent
veur
veut
veuve
veuves
veux
vexin
vez
vf
vfb
vi
via
viaduc
viamichelin
vian
viande
viandes
vianney
viation
viations
vibration
vibrations
vic
vicaire
vice
vicente
vices
vichy
vicieux
vicissitudes
vicomte
victime
victimes
victoire
victoires
victor
victoria
victorieuse
victorieux
victory
vida
vidal
vide
videmment
vidence
vident
vidente
video
vider
vides
vie
vieil
vieillard
vieillards
vieille
vieilles
vieillesse
vieilli
viendra
viendrait
viendront
vienne
viennent
viens
vient
vier
vierge
vierges
vies
vietnam
vietnamese
vietnamien
vieux
view
vieweg
vif
vifs
vigilance
vigne
vignes
vignoble
vignobles
vigny
vigoureuse
vigoureusement
vigoureux
vigueur
vii
viie
viii
viiie
vikidia
viking
vikings
viktor
vil
vila
vilain
vilaine
vile
villa
village
villageois
villages
villard
villars
villas
ville
villefranche
villeneuve
villers
villes
villette
villiers
villon
vin
vinaigre
vince
vincennes
vincent
vincenzo
vinci
vine
vingt
vingtaine
vingtie
vingts
vinrent
vins
vint
vinyle
viol
viola
violation
viole
violemment
violence
violences
violent
violente
violentes
violents
violer
violet
violette
violettes
violon
violoncelle
violoniste
violons
vipe
vir
virage
vire
virent
virgile
virgin
virginia
virginie
virginite
virgule
virtual
virtuel
virtuelle
virus
vis
visa
visage
visages
visait
visant
visconti
vise
visent
viser
visibilite
visible
visiblement
visibles
vision
visions
visita
visite
visiter
visites
visiteur
visiteurs
vista
visual
visualisation
visuel
visuelle
visuels
visuotine
vit
vita
vitable
vitablement
vitables
vital
vitale
vitalite
vitant
vitch
vite
viter
vitesse
vitesses
viticole
viticulture
vito
vitrail
vitraux
vitre
vitres
vitry
vittorio
viva
vivace
vivacite
vivaient
vivait
vivans
vivant
vivante
vivantes
vivants
vive
vivement
vivent
vives
vivons
vivra
vivre
vivres
vizir
vladimir
vlamingen
vn
vne
vo
vocable
vocabulaire
vocal
vocale
vocatif
vocation
vodie
vogel
vogue
voi
voice
voici
void
voie
voient
voies
voila
voile
voiler
voiles
voilier
voir
voire
voirie
vois
voisin
voisinage
voisine
voisines
voisins
voit
voiture
voitures
voix
vol
volaille
volailles
volant
volcan
volcanique
volcaniques
volcans
vole
volent
voler
voles
volet
volets
voleur
voleurs
volga
volkswagen
volley
volontaire
volontairement
volontaires
volonte
volontiers
vols
volta
voltaire
volte
voltes
voluait
voluant
volue
voluent
voluer
volume
volumes
volupte
volution
volutionnaire
volutionnaires
volutions
vom
von
vont
voor
voquant
voque
voquent
voquer
vor
vore
vorer
vortaro
vos
vosges
vost
vostre
vot
votants
vote
voter
votes
votion
votre
vou
voudra
voudraient
voudrais
voudrait
voudras
voudrez
voudriez
voudront
voue
vouement
vouer
voulaient
voulais
voulait
voulant
voulez
vouliez
vouloir
vouloit
voulons
voulu
voulue
voulurent
voulus
voulut
vous
voux
vox
voy
voyage
voyager
voyages
voyageur
voyageurs
voyaient
voyais
voyait
voyance
voyant
voyelle
voyelles
voyez
voyoit
voyons
vq
vr
vrai
vraie
vraies
vraiment
vrais
vraisemblable
vraisemblablement
vraisemblance
vray
vre
vres
vreux
vrier
vrin
vs
vt
vtome
vtt
vu
vue
vuelta
vues
vulgaire
vulgaires
vulne
vuo
vus
vv
vy
vœu
vœux
vɑ
vɔ
və
vɛ
vɛʁ
w
wa
wade
wagner
wagon
wagons
wake
wales
walk
walker
walking
wall
wallace
wallis
wallon
wallonie
wallonne
walon
walsh
walt
walter
walther
wan
wang
want
war
ward
warner
warnod
warren
warrior
warriors
wars
warwick
was
washington
watch
water
waterloo
waters
watkins
watson
watts
wave
wavresky
way
wayne
wcsp
wd
we
weather
web
webb
weber
website
webster
week
weekend
weekly
wehrmacht
wei
weights
weil
weimar
weiss
welcome
well
wellington
wells
welsh
welt
wen
wendy
were
werner
wesley
west
western
westminster
weston
westphalie
what
wheeler
when
where
which
while
white
whitney
who
why
wi
wide
wie
wien
wiener
wife
wii
wiki
wikibooks
wikidata
wikification
wikifier
wikime
wikimedia
wikinews
wikipe
wikipedia
wikiquote
wikisource
wikispecies
wikiwix
wiktionnaire
wilaya
wild
wilde
wildlife
wiley
wilhelm
wilkins
wilkinson
will
willem
william
williams
williamson
willie
willis
willy
wilson
wimbledon
win
winchester
wind
windows
windsor
wing
wings
winners
winnipeg
wins
winston
winter
wisconsin
wise
with
within
without
wnba
wo
wolf
wolff
wolfgang
woman
women
won
wonder
wong
wood
woods
woody
woordenkennis
word
wordpress
words
work
working
works
world
worldcat
worlds
worms
worth
would
wp
wr
wrestling
wright
writers
writing
wsc
wta
wu
wurtemberg
wwe
wwf
www
x
xa
xavier
xbox
xe
xi
xia
xian
xico
xie
xii
xiie
xiii
xiiie
xiv
xive
xix
xixe
xl
xls
xml
xu
xv
xve
xvi
xvie
xvii
xviie
xviii
xviiie
xx
xxe
xxi
xxie
xxii
xxiii
xxiv
xxix
xxv
xxvi
xxvii
xxviii
xxx
xxxi
xxxii
xxxiii
y
ya
yacht
yahoo
yahweh
yale
yan
yandex
yang
yankees
yann
yannick
yaounde
yards
ye
year
years
yellow
yen
yes
yeux
yi
yin
yo
yoga
yokohama
yomi
yon
yong
yonne
york
yorkshire
you
yougoslave
yougoslavie
young
your
youth
youtube
yu
yuan
yukon
yvan
yvelines
yves
yvette
yvon
yvonne
z
za
zac
zagreb
zai
zam
zambie
zap
zard
zas
zat
ze
zealand
zeit
zeitschrift
zeitung
zelda
zen
zero
zeta
zeus
zh
zhang
zhao
zhou
zhu
zi
zidian
zie
ziers
zimbabwe
zinc
zit
zje
zjɔ
znieff
zo
zodiaque
zoe
zola
zonage
zone
zones
zoo
zoologie
zoologique
zoologiste
zoology
zoom
zoonomen
zootaxa
zquez
zu
zue
zum
zur
zurich
zuru
zy
zɑ
zɔ
zə
zɛ
zɛʁ
{
|
}
~
¡
£
¤
§
¨
©
ª
«
¬
­
®
¯
°
±
²
³
´
µ
¶
·
¹
º
»
¼
½
¿
×
ß
æ
æquo
ð
ø
đa
ı
ł
ło
ŋ
œ
œcume
œdipe
œil
œuf
œufs
œuvre
œuvres
ſ
ſa
ſans
ſe
ſes
ſi
ſoit
ſon
ſont
ſous
ſuis
ſur
ɐ
ɑ
ɑjdeæ
ɔ
ɕ
ɗ
ə
ɛ
ɛs
ɟ
ɡ
ɡa
ɡe
ɡi
ɡo
ɡu
ɡuo
ɡɔ
ɡə
ɡʁa
ɪ
ɬ
ɲ
ɹ
ɾ
ɾa
ɾi
ɾɐ
ʁ
ʁa
ʁe
ʁi
ʁje
ʁjɔ
ʁo
ʁu
ʁɑ
ʁɔ
ʁə
ʁɛ
ʂ
ʃ
ʃa
ʃe
ʃi
ʃɑ
ʃɔ
ʃə
ʈ
ʊ
ʎ
ʒ
ʒa
ʒe
ʒi
ʒɑ
ʒə
ʰ
ʲ
ʷ
ʹ
ʻ
ʼ
ʾ
ʿ
ˀ
ˁ
ˇ
ˈ
ˊ
ˋ
ˌ
ː
ˑ
˙
˜
ˠ
˥
˦
˧
˨
˩
̀
́
̂
̃
̄
̆
̇
̈
̉
̊
̋
̌
̍
̑
̓
̔
̛
̞
̠
̣
̤
̥
̦
̧
̨
̩
̪
̮
̯
̱
̸
̺
͂
ͅ
͡
α
β
γ
δ
δε
ε
ει
ζ
η
θ
ι
κ
και
λ
μ
με
ν
ξ
ο
ου
π
ρ
ς
σ
τ
τα
τη
της
το
του
τω
υ
φ
χ
ψ
ω
ϕ
ϖ
ϛ
ϰ
ϵ
а
б
в
г
д
е
з
за
и
к
л
м
н
на
о
п
по
р
с
т
у
х
чнии
ъ
ю
я
і
ְ
ֲ
ִ
ֵ
ֶ
ַ
ָ
ֹ
ּ
־
ׁ
ׂ
׃
א
ב
ג
ד
ה
ו
ז
ח
י
ך
כ
ל
ם
מ
ן
נ
ס
ע
פ
צ
ק
ר
ש
ת
،
ا
ب
ة
ت
ث
ج
ح
خ
د
ر
ز
س
ش
ص
ط
ع
ف
ق
ك
ل
م
ن
ه
و
ى
ي
ٌ
َ
ُ
ِ
ّ
ْ
ٓ
ٔ
ٕ
ं
क
ग
ज
त
द
न
प
ब
म
य
र
ल
व
स
ा
ि
ी
ु
े
ो
्
র
া
ি
ে
্
க
ப
ா
ி
ு
்
്
น
ั
ิ
ี
ื
ุ
ู
่
้
์
་
ག
ན
པ
ར
ལ
ས
ི
ུ
ེ
ོ
ྱ
်
ា
្
ᵑ
​
‌
‍
‎
‐
‑
‒
–
—
―
‖
‘
’
“
”
„
†
•
…
‰
′
″
‴
‹
›
‿
⁂
⁄
⁡
ⁱ
⁴
⁶
ⁿ
₂
€
ℏ
ℓ
№
ℝ
™
ℤ
←
↑
→
↔
↦
↷
⇒
⇔
∀
∂
∃
∅
∇
∈
∏
∑
−
∖
∗
∘
∙
√
∞
∣
∧
∨
∩
∪
∫
∭
∴
∼
≃
≈
≡
≤
≥
≻
⊂
⊕
⊗
⊥
⋅
⋆
⋮
⋯
③
④
⑦
─
│
└
├
═
■
►
◄
◌
★
☆
☉
☞
♀
♁
♂
♕
♙
♣
♦
♭
♯
✝
✽
⟨
⟩
⟶
⩽
⩾
ⲛ
ⴰ
ⴱ
ⴳ
ⴶ
ⴷ
ⴹ
ⴼ
ⴾ
ⵂ
ⵉ
ⵍ
ⵎ
ⵏ
ⵓ
ⵔ
ⵗ
ⵙ
ⵜ
ⵣ
ⵥ
⵿
⺀
⺄
⺆
⺈
⺊
⺌
⺕
⺝
⺸
⺼
⿰
⿱
⿲
⿳
⿴
⿵
⿶
⿷
⿸
⿹
⿺
⿻
、
。
《
》
「
」
『
』
【
】
〜
〢
あ
い
う
え
お
か
き
く
け
こ
さ
し
す
せ
そ
た
ち
っ
つ
て
と
な
に
ね
の
は
ひ
ふ
へ
ほ
ま
み
む
め
も
ゃ
や
ゅ
ゆ
ょ
よ
ら
り
る
れ
ろ
わ
を
ん
゙
゚
ァ
ア
ィ
イ
ウ
ェ
エ
ォ
オ
カ
キ
ク
ケ
コ
サ
シ
ス
セ
ソ
タ
チ
ッ
ツ
テ
ト
ナ
ニ
ネ
ノ
ハ
ヒ
フ
ヘ
ホ
マ
ミ
ム
メ
モ
ャ
ヤ
ュ
ユ
ョ
ラ
リ
ル
レ
ロ
ワ
ン
・
ー
ㄢ
ㄧ
ㄨ
㇁
㇂
㇄
㇇
㇈
㇉
㇓
㐁
㐄
㐅
㐌
㐫
㐬
㐭
㐮
㐱
㑒
㒵
㒸
㒼
㓁
㓞
㔾
㕛
㕣
㖾
㘝
㚅
㚇
㚔
㚘
㝉
㝡
㝴
㝵
㞋
㞢
㞷
㠩
㠭
㠯
㡀
㡭
㡿
㢲
㢴
㣇
㣺
㥯
㪅
㫄
㫐
㫒
㫺
㬅
㬎
㬥
㬰
㲋
㳄
㷠
㸒
㸚
㸦
㼌
㼲
㽞
㿟
䀠
䂞
䍃
䏍
䒑
䖍
䖒
䖝
䖵
䙴
䚻
䜌
䝿
䡛
䧹
䪞
一
丁
丂
七
丄
丅
丆
万
丈
三
上
下
丌
不
与
丏
丐
丑
专
且
丕
世
丘
丙
业
东
丞
丢
丣
两
严
並
丨
丩
个
丫
丬
中
丮
丰
丱
串
丵
丶
丷
丸
丹
为
主
丽
丿
乀
乂
乃
久
乆
乇
么
义
之
乌
乍
乎
乏
乐
乑
乔
乖
乗
乘
乙
乚
乛
乜
九
乞
也
习
乡
乳
乾
亀
亅
了
亇
予
争
事
二
亍
于
亏
亐
云
互
亓
五
井
亘
亚
亜
亞
亟
亠
亡
亢
交
亥
亦
产
亨
亩
享
京
亭
亮
亯
亰
亲
亳
亶
亷
人
亻
亼
亾
仁
今
介
仌
从
仐
仑
仒
仓
仕
他
付
仝
代
令
以
任
企
伊
伏
伐
休
会
伝
伯
但
位
佐
体
何
佘
余
作
佥
使
來
侈
侌
侖
侯
侵
便
保
俞
信
修
倉
倍
候
倠
備
僉
僕
優
儿
兀
允
兂
元
兄
充
兆
兇
先
光
兊
克
兌
免
兑
兒
兓
兔
党
兜
兟
入
全
兩
兪
八
公
六
兮
兰
共
关
兵
其
具
典
兹
兼
冀
冂
冃
冄
内
冈
冉
冊
冋
册
再
冎
冏
冐
冒
冓
冖
冗
冘
军
农
冝
冡
冥
冫
冬
冷
几
凡
凢
凵
凶
凷
凸
凹
出
函
凾
刀
刁
刂
刃
刄
刅
分
切
刍
刑
刕
刖
列
刘
则
初
別
利
别
到
制
刺
則
削
剌
前
剡
剽
劉
力
功
加
劦
助
劫
劳
劵
勃
勇
勉
勒
動
務
勝
勞
勤
勹
勺
勻
勾
勿
匀
匂
包
匆
匈
匊
匋
匍
匕
化
北
匚
匝
匡
匪
匱
匸
匹
区
医
匽
匿
區
十
卂
千
卄
卅
卆
升
午
卉
半
卌
华
卑
卒
卓
单
卖
南
博
卜
卝
卞
占
卡
卢
卣
卤
卦
卩
卪
卬
卯
印
危
即
却
卵
卷
卸
卻
厂
厃
厄
历
厈
厉
厌
厓
厘
厚
原
厤
厥
厨
厭
厲
厶
厷
厸
去
厼
厽
县
叀
参
參
叅
又
叉
及
友
双
反
叐
发
叒
叔
叕
取
受
叚
叜
叟
口
古
句
另
叩
只
召
可
台
叱
史
右
叵
号
司
叹
吂
各
吅
合
吉
吊
吋
同
名
后
吏
向
吕
君
吝
吞
否
含
启
吳
吴
吹
吾
呂
呆
呈
告
员
呙
周
命
咅
和
咎
咠
咢
咨
咸
咼
哀
品
哉
員
哥
哲
唐
商
啇
問
啚
啬
啻
善
喜
喬
單
喿
嗇
器
噩
嚴
囊
囗
囘
囙
囚
四
回
囟
因
囧
囬
困
囱
囷
固
国
圂
圅
國
圍
園
圓
土
圡
圣
圥
在
圭
地
圶
圼
坐
坒
坚
坴
垂
垔
垚
埀
埋
城
埶
執
基
堂
堅
堆
堇
堯
報
場
塞
墨
壘
士
壬
壯
声
売
壳
壴
壹
壺
壽
夂
处
夅
夆
备
夊
夋
夌
复
夏
夒
夕
外
夗
夘
多
夜
夢
大
夨
天
太
夫
夬
夭
央
失
夲
头
夷
夸
夹
夻
夾
奂
奄
奇
奈
奉
奎
奏
奐
契
奓
奔
奚
奞
奠
奢
奥
奭
女
奴
奻
好
如
妄
妙
妟
妥
妻
妾
姑
委
姜
威
娄
婁
婴
嬰
嬴
子
孑
孔
孕
孖
字
存
孚
孛
孝
孟
季
孤
学
孫
孱
學
宀
宁
宂
它
宅
宇
守
安
宋
完
宏
宓
宗
官
定
宛
宜
宝
実
客
宣
室
宮
宰
害
家
容
宾
宿
寄
寅
密
富
寒
察
寧
審
寫
寬
寮
寸
对
寺
寻
寽
対
寿
封
尃
射
将
將
專
尉
尊
尋
尌
對
小
少
尒
尓
尔
尖
尗
尚
尞
尢
尣
尤
尧
尨
尭
就
尸
尹
尺
尻
尼
尽
尾
尿
局
居
屈
屋
屎
屏
屑
展
屖
屚
属
屠
屡
屬
屮
屯
屰
山
屵
屾
岁
岂
岑
岡
岩
岳
岸
峯
島
崇
崎
崑
崔
崖
崙
崩
嵬
嶲
巂
巛
川
州
巟
巠
巢
巤
工
左
巧
巨
巩
巫
差
己
已
巳
巴
巷
巸
巻
巽
巾
巿
帀
市
布
希
帚
帛
帝
带
師
席
帶
常
干
平
年
幵
并
幷
幸
幺
幻
幼
幽
幾
广
広
庄
床
底
店
庚
府
度
座
庫
庭
庶
康
庸
廉
廌
廛
廣
廩
廴
延
廷
建
廾
廿
开
弁
弃
弄
弇
弋
式
弓
弔
引
弗
弘
弜
弟
弥
弦
弱
張
強
强
彊
彌
彎
彐
彑
当
彔
录
彖
彗
彡
形
彥
彦
彧
彭
影
彳
役
彼
往
待
律
後
徒
得
徙
從
復
微
徵
德
心
忄
必
忌
忍
志
忝
忠
忩
快
念
忽
忿
思
怠
急
性
怱
恆
恋
恒
恩
恭
息
悉
患
悤
悲
悶
情
惠
惡
惢
愁
愈
意
愛
感
慈
慧
慮
憂
憲
應
戀
戈
戉
戊
戋
戌
戍
戎
成
我
戒
戔
或
戚
戠
戢
戦
截
戲
戶
户
戸
戹
戼
戾
房
所
扁
扇
手
扌
才
打
托
执
承
折
拉
拜
拿
掌
推
提
摩
支
攴
攵
收
攸
改
放
政
敄
敏
敕
敖
敗
教
敝
敞
敢
散
敦
敫
敬
数
敷
數
斂
文
斉
斊
斗
斤
斥
斩
斬
斯
新
方
於
施
斿
旁
旋
族
无
旡
既
旣
日
旦
旧
旨
早
旬
旱
旲
时
旾
昆
昇
昌
昍
明
昏
易
昔
昗
昜
星
映
春
昬
是
昱
昴
昷
時
晃
晋
晏
普
景
晶
智
暑
暴
曇
曩
曰
曲
曳
更
曷
書
曹
曼
曾
替
最
朁
會
月
有
朋
服
朔
朕
朗
望
朝
期
木
朩
未
末
本
札
朮
术
朱
朵
朶
朿
杀
李
杏
村
杜
束
条
来
東
杲
杳
松
析
林
枚
果
枝
枲
枼
某
柔
查
柬
柰
柴
栗
校
株
桀
桑
桼
梁
條
梟
梨
棘
棠
棥
森
楚
業
楽
榮
樂
樊
橋
機
欠
次
欣
欮
欲
欶
欽
款
歆
歇
歌
歛
止
正
此
步
武
歨
歪
歮
歯
歰
歲
歴
歷
歸
歹
歺
死
殳
段
殷
殸
殹
殺
殻
殿
毋
毌
母
每
毒
比
毕
毚
毛
毳
氏
氐
民
气
気
氣
水
氵
氶
氷
永
氺
氾
求
汝
汞
江
決
沃
沓
沙
沝
河
治
泉
法
波
泣
泥
泰
洛
津
洪
活
派
流
浦
浪
浮
海
淡
淮
清
渚
渠
港
湯
滿
演
漸
火
灬
灭
灰
灵
灷
炅
炎
炏
炗
炙
炭
為
烈
烏
烝
焉
無
焦
焱
然
煞
熊
熏
燕
營
燮
爪
爫
爭
爯
爰
爱
爲
爵
父
爻
爽
爾
爿
片
版
牙
牚
牛
牜
牟
牢
牧
物
牪
特
牽
犀
犬
犭
犮
狂
狄
狊
独
狺
猋
猒
猪
献
獻
玄
率
玉
王
玟
玨
珎
班
現
球
理
琴
瑟
瑩
瓜
瓦
甘
甚
生
産
用
甫
甬
田
由
甲
申
电
甶
男
甸
甹
町
画
甾
畀
界
畏
畐
留
畜
畟
畢
畧
畨
番
畫
異
畱
當
畺
畾
疊
疋
疌
疑
疒
疾
癶
癸
癹
発
登
發
白
百
皀
皃
的
皆
皇
皋
皐
皕
皮
皷
皿
盃
盆
盇
盈
益
盍
盎
监
盒
盖
盛
盡
監
盤
盧
目
直
相
盾
省
眇
眉
看
県
眔
眞
真
眷
眼
眾
着
睘
睪
睿
瞏
瞢
瞿
矍
矛
矞
矢
矣
知
矦
短
石
研
破
碎
磊
磨
示
礻
礼
社
神
祟
票
祭
禀
禁
福
禸
禹
禺
离
禽
禾
禿
秀
秃
秉
秋
科
秝
秦
移
稟
穀
穌
穴
究
穹
空
穿
突
窄
窒
立
竒
竜
竝
竟
章
童
竹
笑
笠
第
筆
等
答
箕
算
箴
節
篇
篤
篭
米
粉
粛
粟
粤
粦
粲
糞
糸
糹
系
約
納
素
索
紫
累
細
結
絜
絫
絲
維
綿
線
編
縣
繇
纍
纟
缶
网
罒
罔
罕
罗
罙
罡
罢
罪
署
罷
羅
羊
羌
羍
美
羔
羕
羗
羞
羡
羣
群
義
羲
羸
羽
翁
翏
習
翕
翟
翠
翼
老
耂
考
者
耆
而
耎
耑
耒
耳
耴
耶
耷
聂
聊
聖
聚
聶
聿
肀
肃
肅
肉
肖
肙
肥
肩
肯
育
肴
胃
背
胡
胥
能
脊
脩
膚
臣
臤
臧
自
臬
臭
臯
臱
至
致
臺
臼
臽
臾
臿
舀
舂
舄
與
興
舉
舌
舍
舛
舜
舞
舟
般
艮
良
色
艸
艹
艾
芒
芔
芬
芮
花
芳
芺
芻
苔
苗
苟
若
苦
英
茶
茸
荅
草
荒
荣
荼
莆
莧
莫
莽
菆
菊
菐
華
萬
落
葉
著
葛
董
葵
蒙
蒦
蒼
蓋
蓬
蓺
蔑
蔡
蕉
蕭
薄
薛
薦
薰
藍
藏
藤
藥
蘭
虍
虎
虐
虒
虔
處
虖
虗
虘
虚
虛
虜
虞
虫
虽
蚤
蚩
蜀
蜜
蟲
蠡
血
行
衍
術
衛
衣
衤
表
衮
衰
袁
袞
褭
褱
襄
襾
西
覀
要
覃
見
規
覓
覧
親
覽
见
角
解
言
訁
訇
計
記
話
詹
語
誩
諸
讠
语
谷
豆
豈
豊
豐
豕
豖
豙
象
豦
豩
豪
豸
貇
貝
貞
貟
負
貢
貧
貪
貫
責
貳
貴
買
費
賁
資
賈
賏
賓
賔
賛
賞
賢
賣
質
賴
贊
贝
贡
责
贯
贲
贵
赖
赞
赤
赦
走
越
足
路
蹇
身
躬
車
軍
軎
軟
輦
车
辛
辜
辟
辥
辰
辱
農
辵
辶
边
达
过
近
连
迷
追
退
送
逆
逐
通
速
造
逢
連
逮
進
遀
遂
過
道
達
遣
適
遷
選
遺
邊
邑
邕
那
邦
邪
郎
部
郭
都
鄉
酉
酋
配
酓
釆
采
里
重
野
量
金
釒
鉄
錢
钅
長
镸
长
門
閃
閉
開
閏
閑
閒
間
閔
関
閵
閻
闌
门
间
闷
阑
阜
阝
阿
降
院
陳
陽
隆
隊
隋
隡
隨
隱
隶
隹
隺
隻
隼
隽
难
雀
雁
雄
集
雈
雋
雍
雐
雔
雙
雚
雜
雝
離
難
雨
雩
雪
雲
零
雷
電
需
霍
霜
霝
霞
霸
靈
靑
青
非
靡
面
靣
革
韋
韦
韭
韯
韱
音
頁
頃
項
須
頗
頡
頭
頻
顛
页
風
风
飛
飞
食
飠
養
館
饣
首
香
馬
馮
駅
駦
马
骨
高
髟
鬥
鬯
鬲
鬼
魔
魚
魯
鮮
鱼
鲁
鳥
鳳
鸟
鹵
鹿
麃
麗
麥
麦
麻
黃
黄
黍
黎
黑
黒
黨
黹
黽
黾
鼎
鼓
鼠
鼻
齊
齋
齐
齒
齿
龍
龙
龜
龟
龠
龰
龱
龴
龵
龶
龷
龸
龹
者
艹
ﬅ
﻿
！
（
）
，
／
１
２
：
？
ａ
ｅ
ｏ
｜
～
�
𐌰
𐌹
𐌽
𐍃
𠀁
𠀃
𠀆
𠀉
𠀎
𠀐
𠁁
𠁣
𠂆
𠂇
𠂈
𠂉
𠂊
𠂋
𠂎
𠂒
𠂔
𠂛
𠂡
𠂢
𠂤
𠂬
𠂭
𠂹
𠃊
𠃋
𠃌
𠃍
𠃎
𠃑
𠃓
𠃔
𠃜
𠄌
𠄎
𠄠
𠄢
𠆢
𠆥
𠇍
𠈌
𠌵
𠓜
𠔉
𠔥
𠔼
𠔽
𠔿
𠕀
𠕁
𠕋
𠘧
𠘨
𠙻
𠙼
𠚏
𠚒
𠚤
𠚪
𠣏
𠤎
𠤕
𠥓
𠦄
𠦑
𠦝
𠧒
𠧗
𠧪
𠩺
𠪚
𠫓
𠫔
𠫤
𠬛
𠬝
𠬞
𠬢
𠬤
𠬶
𠮛
𠮦
𠮷
𠯑
𠱠
𠳮
𠷎
𡈼
𡉀
𡉵
𡌥
𡍮
𡏳
𡕒
𡕩
𡕰
𡖅
𡗗
𡗜
𡘆
𡘤
𡧱
𡨄
𡩧
𡬠
𡭽
𡰣
𡰥
𡰪
𡰯
𡰱
𡷈
𡸁
𡿨
𡿩
𡿪
𡿺
𢀖
𢀛
𢀩
𢁙
𢆉
𢆰
𢆶
𢇁
𢇇
𢉖
𢌬
𢌿
𢏚
𢑑
𢑚
𢖻
𢙣
𢛳
𢦏
𢦒
𢧵
𢼄
𢾕
𣁋
𣄼
𣅀
𣅽
𣍘
𣎳
𣎵
𣏋
𣏼
𣗥
𣥂
𣥖
𣦵
𣦼
𣧄
𣪊
𣪠
𣬉
𣳾
𣶒
𤇾
𤊽
𤐫
𤓰
𤔔
𤕨
𤣩
𤰇
𤰔
𤰞
𤴓
𤴔
𤽄
𥁑
𥁕
𥃦
𥃩
𥃭
𥇡
𥑟
𥘅
𥘈
𥝢
𥫗
𥱡
𦈢
𦉪
𦉬
𦉼
𦍌
𦍒
𦎧
𦐇
𦓔
𦔮
𦘒
𦙃
𦚏
𦣝
𦣞
𦣻
𦥑
𦥔
𦥯
𦨉
𦭝
𦰩
𧆞
𧈧
𧘇
𧰨
𧴪
𧴮
𧵩
𧾷
𨸏
𨾴
𩙿
𩠐
𩫏
𩵋
𪉷
𪜀
𪟽
𪠲
𪩲
𫇦
𫔭
𫜸
𫝀
𫠣
𫠩
𫢉
𫥞
𫩏
𫩠
𫪡
𫲽
𫶧
𬀷
𬐘
𬗌
𬙙
𬛸
𬜯
𬟩
𬯁
𬴘
𬺻
𬼉
𬼖
𭀰
𭁈
𭁨
𭅰
𭑈
𭕄
𭗼
𭤨
𭥫
𭻾
𮅕
𮊿
𮍌
𮍏
𮓗
𮥼
𮧮
廾
𰀁
𰀄
𰀈
𰀉
𰀕
𰀠
𰀡
𰀢
𰀪
𰁜
𰃮
𰆊
𰆘
𰋙
𰕎
𰢴
𰧭
𰯲
00--
001--
01--
02--
03--
04--
05--
06--
07--
08--
09--
54--
55--
56--
57--
58--
59--
60--
61--
62--
63--
64--
65--
66--
67--
68--
69--
70--
71--
72--
73--
74--
75--
76--
77--
78--
79--
80--
81--
82--
83--
84--
85--
86--
87--
88--
89--
90--
91--
92--
93--
94--
95--
96--
97--
978--
98--
99--
a--
aa--
ab--
aba--
abat--
abd--
abe--
aberd--
aberr--
abi--
abru--
absor--
abst--
absti--
aby--
abyss--
ac--
acca--
accap--
accroch--
accumul--
accus--
ace--
acro--
act--
activ--
ad--
adapt--
add--
addic--
ade--
adj--
admira--
adou--
adv--
adver--
ae--
aeros--
af--
affect--
affectue--
affer--
affi--
afg--
ag--
agi--
agit--
agon--
agro--
ah--
ai--
air--
ais--
aj--
ajour--
ak--
al--
ala--
alarm--
albi--
ale--
aleks--
algon--
ali--
all--
allge--
alluv--
als--
alt--
alter--
aly--
am--
ama--
ambi--
ambitie--
ambu--
ame--
ami--
amoind--
amor--
amphi--
ampli--
amplifi--
an--
ana--
anatom--
anc--
and--
ander--
ane--
anecdot--
ang--
angli--
angui--
ani--
anna--
anne--
anno--
annul--
anony--
anor--
ans--
ant--
antagon--
antho--
anthrop--
anti--
any--
ao--
ap--
apat--
ape--
aphrod--
api--
apo--
apothic--
app--
appe--
applau--
appoint--
appri--
appro--
appropria--
approxi--
aqua--
aqui--
ar--
ara--
arach--
arbor--
arbris--
arc--
ard--
are--
arg--
ari--
ark--
arm--
arn--
aro--
arque--
arr--
arrog--
ars--
art--
artif--
artifici--
as--
ash--
asp--
asper--
assess--
associa--
assou--
astra--
astro--
astrona--
astu--
at--
atte--
attra--
aty--
au--
auf--
aug--
aus--
aut--
auto--
auver--
aux--
av--
ava--
ave--
avia--
avr--
ax--
ay--
az--
b--
ba--
bab--
bac--
bach--
back--
bad--
bag--
bah--
bai--
bail--
bal--
balist--
ball--
balus--
bamb--
ban--
bapt--
baptis--
bar--
bara--
barbou--
bas--
bat--
bau--
baud--
baum--
bax--
bay--
bd--
be--
beat--
beau--
bec--
beha--
bei--
bel--
bell--
belle--
ben--
bene--
ber--
berg--
bermu--
bert--
bes--
bet--
bey--
bi--
bibl--
biblio--
bie--
bien--
bifur--
big--
bin--
bio--
bir--
bis--
bit--
bl--
bla--
black--
blan--
blanc--
ble--
bles--
blo--
bloom--
bloui--
blu--
blue--
bm--
bn--
bo--
bob--
bocc--
bog--
boi--
bois--
bol--
bomb--
bon--
bond--
bonn--
bonne--
book--
bor--
bos--
bot--
bou--
bouc--
bouddhi--
bouff--
boule--
bour--
bourb--
bourd--
bourr--
bours--
bouss--
bout--
bow--
box--
boy--
br--
bra--
brace--
brahm--
branc--
branl--
bras--
bre--
brig--
brit--
bro--
broad--
brouss--
bru--
bry--
bu--
bucc--
bul--
bun--
bunde--
bur--
burg--
burn--
bus--
but--
by--
c--
ca--
cadi--
caf--
cagli--
caill--
caiss--
cal--
cam--
cambrio--
camou--
campag--
can--
canni--
cantat--
cap--
capitul--
car--
carac--
carap--
carbon--
card--
carl--
carni--
carpen--
cart--
cas--
case--
cass--
cast--
cat--
cataly--
cate--
catha--
cau--
cauc--
caud--
caum--
caus--
cava--
caval--
cay--
cc--
cd--
ce--
cele--
cent--
centraf--
cerc--
ceris--
cerv--
ces--
ceſ--
cf--
ch--
cha--
chal--
cham--
chan--
chap--
char--
chauff--
che--
cher--
chevr--
chi--
chiff--
chir--
chis--
chlor--
cho--
chou--
chroma--
chromos--
chron--
chry--
chrysos--
chu--
chy--
ci--
cia--
cicat--
cid--
cie--
cil--
circon--
circons--
cis--
cit--
ck--
cl--
cla--
clair--
cle--
clect--
clign--
clin--
clo--
clus--
cm--
cn--
co--
coch--
cock--
coct--
coe--
coexi--
cogn--
cognit--
coho--
coi--
col--
cole--
coll--
com--
combat--
come--
commu--
compi--
compli--
compo--
compt--
comptabi--
con--
conc--
concor--
cond--
condam--
condens--
condui--
conju--
conjura--
consc--
conse--
consol--
consolida--
consp--
conspira--
constat--
constru--
contra--
contre--
cop--
copy--
cor--
cora--
cordia--
cornou--
corol--
cory--
cos--
cosmo--
cosmolog--
cotis--
cott--
cou--
count--
cour--
coutu--
cow--
cp--
cr--
cra--
cramp--
cre--
cri--
crimina--
cro--
croc--
croch--
croi--
crot--
crou--
cru--
crypt--
cs--
ct--
cu--
cubi--
cue--
cuir--
cul--
culat--
culti--
cum--
cup--
cur--
curr--
cus--
cut--
cv--
cy--
cyber--
cycl--
cycla--
cymb--
cz--
cæ--
cœ--
d--
da--
dago--
dai--
dal--
dam--
dan--
dans--
dar--
das--
dat--
data--
dau--
day--
dc--
dd--
de--
dea--
dec--
decis--
def--
definit--
dei--
del--
dela--
dem--
democ--
den--
dent--
der--
des--
destruc--
det--
deu--
devr--
dex--
deſ--
dh--
di--
dia--
dialec--
dici--
did--
die--
diff--
diffama--
digi--
dilat--
dim--
diment--
din--
dio--
dir--
dis--
discip--
dissi--
dist--
dit--
div--
diver--
divul--
diſ--
dj--
dja--
dje--
djib--
djvu--
dl--
dn--
do--
doc--
doctri--
dog--
dol--
dom--
domin--
domit--
don--
dona--
dor--
dos--
dot--
dou--
down--
dr--
drain--
dre--
dro--
drui--
drum--
du--
duc--
ducat--
ducti--
dupli--
dur--
dus--
dut--
dy--
dynam--
dynas--
dz--
e--
ea--
east--
eau--
eb--
eber--
ec--
eco--
ecrit--
ed--
edici--
ediz--
ee--
ef--
efferves--
eg--
eh--
ei--
eich--
ein--
eisen--
ek--
el--
ele--
elect--
elek--
eli--
ellipt--
els--
ely--
em--
embar--
eme--
emi--
emp--
emplis--
empoi--
en--
encom--
end--
endur--
ener--
engel--
engre--
eniv--
enlu--
ens--
ensui--
ent--
entomolog--
enton--
entre--
eo--
ep--
epis--
er--
era--
ere--
es--
escal--
escar--
escou--
espe--
esqui--
est--
estab--
estim--
et--
eter--
eth--
ethi--
ethno--
ety--
eu--
euph--
eur--
euro--
eus--
ev--
ex--
exami--
exca--
excent--
excit--
excus--
exe--
exhal--
exhi--
exho--
exhort--
exop--
exor--
exot--
exp--
expe--
expli--
expo--
ext--
extra--
extrava--
ey--
ez--
eſ--
eſt--
f--
fa--
fabr--
fabri--
fac--
facil--
facul--
fai--
faill--
fair--
fais--
fal--
fals--
familia--
fan--
fantais--
far--
fasci--
fat--
fatig--
fau--
fc--
fe--
fect--
fei--
feld--
feli--
fend--
fer--
feu--
fey--
ff--
fi--
ficia--
fie--
fig--
figur--
fil--
film--
fin--
finis--
fire--
fis--
fit--
fitz--
fjo--
fl--
fla--
flag--
flamb--
flambo--
flat--
fle--
flo--
floc--
flor--
flot--
flu--
fn--
fo--
focal--
fol--
folklor--
fon--
font--
foot--
for--
form--
forma--
fou--
four--
fow--
fr--
fra--
frac--
fran--
france--
franco--
fre--
fred--
free--
frey--
fric--
frie--
frip--
fro--
frott--
fru--
fruc--
frus--
fu--
fugit--
fuji--
fuku--
ful--
fun--
fund--
fur--
fus--
fut--
g--
ga--
gae--
gage--
gai--
gains--
gal--
gamb--
game--
gan--
gar--
gare--
garg--
garn--
garr--
gas--
gastronom--
gat--
gau--
gaud--
gaul--
gauv--
gay--
gaz--
gb--
ge--
gea--
gel--
gen--
gene--
geo--
ger--
ges--
get--
gha--
ghe--
ghi--
ghis--
gi--
gia--
gil--
gin--
gion--
gior--
giov--
gis--
git--
gitim--
giul--
gl--
glad--
gladia--
glau--
gle--
gli--
glob--
glou--
glu--
gly--
gm--
gn--
gna--
go--
gocia--
god--
goe--
gold--
gon--
good--
gor--
got--
gou--
gourm--
gouver--
gover--
gr--
gra--
gradu--
gramm--
grammatic--
gran--
grand--
gre--
green--
grif--
grill--
grim--
grimp--
grin--
gro--
grond--
gros--
gru--
gu--
gua--
gue--
guer--
guet--
gui--
guill--
gula--
gun--
gur--
gus--
gut--
guy--
guz--
gy--
gymn--
gypt--
h--
ha--
hab--
had--
hai--
hal--
hale--
halluci--
ham--
han--
handis--
happ--
har--
harb--
harm--
harmon--
harn--
hart--
has--
hat--
hau--
haut--
haute--
haw--
hay--
he--
head--
hed--
hel--
hen--
henne--
her--
herbi--
heur--
hexa--
hey--
hi--
high--
hila--
him--
hindoui--
hip--
hippo--
his--
hit--
hk--
hl--
hm--
ho--
hoc--
hoch--
hol--
holl--
home--
homo--
hon--
hop--
horm--
hot--
hou--
hp--
hr--
ht--
htɑ--
hu--
hugue--
hum--
humil--
humph--
hund--
hur--
hutch--
hy--
hydr--
hydro--
hyp--
hyper--
hypnot--
hypo--
i--
ia--
ib--
ic--
ice--
ico--
icono--
id--
ident--
ie--
if--
ig--
ign--
ii--
ij--
ik--
il--
ill--
illum--
illumina--
illus--
illy--
im--
imita--
imp--
imper--
impers--
import--
impratic--
imprim--
improb--
impud--
imput--
in--
ina--
inau--
inc--
inces--
incis--
inclu--
incog--
incom--
incon--
incons--
incont--
incor--
incu--
incul--
incur--
inde--
indi--
indiscut--
indo--
indomp--
indul--
ine--
ineff--
inex--
inexi--
infil--
inflamm--
info--
infructue--
ing--
inhi--
inhum--
inju--
inn--
innov--
inop--
inqui--
ins--
insaisis--
insou--
insti--
instruc--
insu--
int--
inte--
inter--
intermit--
intim--
introdui--
intui--
invec--
invo--
io--
ion--
ip--
ir--
is--
isa--
ishi--
iso--
ist--
it--
ita--
iu--
iv--
ivoi--
ix--
iz--
j--
ja--
jac--
jacque--
jam--
jan--
jas--
jau--
je--
jean--
jenn--
jet--
ji--
jin--
jo--
joa--
joign--
joli--
jon--
jos--
jou--
ju--
judi--
jull--
jumel--
jun--
juris--
jus--
juxta--
juſ--
k--
ka--
kai--
kal--
kan--
kar--
kars--
kas--
katha--
kau--
kay--
ke--
kei--
ken--
ker--
key--
kh--
kha--
ki--
kid--
kil--
kim--
kin--
kit--
kla--
kle--
kno--
ko--
kobay--
kon--
kos--
kou--
kour--
kr--
kra--
krist--
kru--
kry--
ks--
ku--
kun--
kunst--
kv--
kw--
ky--
l--
la--
lab--
lac--
ladis--
lae--
lai--
lam--
lan--
lanc--
land--
lang--
larc--
larr--
las--
lat--
lau--
law--
lay--
ld--
le--
lea--
lec--
lectro--
led--
left--
leg--
lei--
len--
leo--
lept--
ler--
les--
let--
leu--
levr--
lex--
lexic--
ley--
lh--
li--
lia--
lib--
lie--
life--
liga--
light--
ligi--
lil--
lim--
lin--
lio--
lis--
lit--
litho--
liv--
liz--
ll--
lo--
loc--
lod--
log--
lon--
long--
lor--
los--
lot--
lotis--
lou--
louis--
love--
loy--
ls--
lt--
lu--
luc--
luis--
lus--
lut--
lux--
lv--
ly--
lys--
m--
ma--
mac--
machi--
mad--
mae--
mag--
mah--
mai--
main--
majestu--
mal--
malac--
malad--
malay--
male--
mali--
mamm--
man--
mandc--
manif--
mans--
manu--
manufactu--
map--
mar--
mara--
marc--
mare--
marga--
mari--
marjo--
mas--
mat--
mau--
mauss--
max--
maxi--
may--
maz--
mb--
mc--
mcfar--
me--
med--
mei--
mel--
men--
ment--
menu--
mer--
merce--
mes--
mesur--
met--
meteo--
mexi--
mey--
mh--
mi--
mia--
micro--
mid--
mig--
migra--
mil--
milita--
min--
mina--
mini--
minutie--
mio--
mir--
mira--
mis--
mit--
mix--
miya--
ml--
mm--
mn--
mo--
mobi--
mod--
modul--
moi--
mol--
mon--
mono--
mont--
monte--
moon--
mor--
morb--
morc--
mord--
mori--
morph--
morr--
mort--
mos--
mosco--
mot--
moto--
mou--
mousque--
mp--
mr--
ms--
mt--
mu--
mue--
mul--
multi--
mun--
muni--
mur--
mus--
music--
mutua--
mw--
my--
mytho--
n--
na--
nac--
nad--
nai--
naka--
nal--
nam--
nan--
narr--
nas--
nat--
natur--
navi--
naviga--
nb--
nc--
nd--
ne--
nec--
neces--
neder--
neo--
ner--
nes--
net--
neu--
neur--
neus--
neut--
new--
news--
ng--
ngu--
nh--
ni--
nia--
nic--
nie--
nig--
nigmat--
nik--
nil--
nin--
nio--
nipot--
nir--
nis--
nit--
niver--
nm--
nn--
no--
nom--
non--
nor--
nord--
north--
norwe--
nos--
not--
nou--
nova--
ns--
nt--
nu--
nul--
num--
nume--
ny--
nz--
o--
oa--
ob--
obe--
ober--
obs--
oc--
occul--
och--
oct--
ocul--
od--
of--
off--
offen--
og--
oh--
oi--
ois--
oj--
ok--
ol--
old--
olig--
olog--
oly--
om--
ome--
omni--
on--
ondu--
one--
ong--
ont--
op--
opa--
open--
ophy--
opil--
opport--
optim--
optimisa--
opul--
opus--
or--
ora--
orbit--
ore--
org--
oro--
ortho--
os--
osa--
oscil--
ost--
ot--
oty--
ou--
oul--
our--
out--
ov--
over--
oxy--
oz--
p--
pa--
pac--
pacif--
pag--
paill--
pal--
palis--
palla--
palpit--
pamp--
pan--
panora--
papi--
par--
para--
pare--
parisc--
parisv--
part--
pas--
past--
pat--
path--
pau--
pav--
pay--
paye--
paſ--
pc--
pdf--
pe--
peck--
peign--
pell--
pen--
per--
perd--
pes--
pessim--
pet--
petro--
peu--
pey--
ph--
pha--
pharmac--
pharmaceut--
phe--
phi--
phil--
pho--
phon--
photo--
phry--
phy--
phyto--
pi--
pia--
pic--
pictu--
pie--
pier--
pigm--
pill--
pin--
piro--
pis--
pit--
pitoya--
piz--
pl--
pla--
plai--
plan--
play--
ple--
pleas--
pli--
plo--
plou--
plu--
pm--
pneum--
pneumat--
po--
poe--
poign--
poit--
pol--
poli--
pollu--
poly--
pomp--
pond--
pont--
pop--
popul--
por--
porno--
port--
portu--
positiv--
post--
pot--
pou--
pour--
poz--
pp--
pr--
pra--
pragmat--
prati--
pre--
pres--
pri--
pris--
pro--
procu--
produc--
prohi--
prome--
proto--
provo--
prune--
præ--
ps--
pseudo--
psy--
psychanaly--
psycho--
pt--
pu--
pub--
pue--
puiſ--
pulc--
puls--
pur--
pus--
put--
puy--
puzz--
py--
pygm--
q--
qi--
qu--
qua--
quad--
qualifi--
quater--
que--
qui--
quin--
quo--
r--
ra--
rac--
radio--
raf--
rai--
rajeu--
ral--
ralog--
ram--
ran--
rap--
rapat--
rappro--
rarchi--
ras--
rat--
ration--
ratis--
rau--
ravi--
ravisse--
raw--
ray--
raz--
rb--
rc--
rd--
re--
rec--
rece--
recher--
recom--
recomman--
recon--
rectific--
recy--
red--
rede--
redif--
redou--
ref--
refor--
reg--
regul--
rei--
rejoign--
reli--
rem--
remar--
ren--
rend--
renou--
renouvel--
rent--
repre--
repro--
rer--
res--
respi--
restaur--
resur--
ret--
retent--
retou--
retrans--
rev--
reve--
revis--
rey--
reſ--
rg--
rhe--
rho--
ri--
ria--
ric--
rica--
rie--
rif--
rigi--
rigo--
ril--
rim--
rin--
rio--
rir--
ris--
rit--
rk--
rm--
rn--
ro--
rob--
roc--
roche--
rock--
rod--
roe--
roh--
roi--
rom--
ron--
ros--
rose--
rot--
rou--
rougis--
rovin--
row--
roy--
rr--
rs--
rt--
ru--
rudiment--
rug--
rugis--
ruis--
ruissel--
rum--
run--
rus--
rv--
ry--
s--
sa--
sabl--
sabot--
sac--
sacer--
sacrific--
sad--
sai--
sal--
sala--
salu--
salva--
sam--
samari--
san--
sand--
sans--
saoud--
sapp--
sar--
sas--
sat--
satis--
saty--
sau--
sava--
savi--
savou--
saw--
sb--
sc--
scand--
scar--
sce--
sch--
sche--
schi--
schl--
scho--
schr--
scht--
schwe--
sci--
sco--
scola--
scor--
scru--
scy--
sd--
se--
sea--
sec--
see--
sei--
sel--
semb--
semi--
semp--
sen--
sens--
sensua--
sept--
ser--
sert--
ses--
set--
seu--
sex--
sey--
sf--
sg--
sh--
sha--
she--
shi--
sho--
show--
shu--
si--
sia--
siby--
sic--
sie--
siff--
sig--
sik--
sil--
sim--
simplifi--
simul--
sin--
sion--
sir--
sis--
sit--
sk--
ska--
ski--
sky--
sl--
slat--
sm--
smart--
smy--
sn--
snow--
so--
socio--
soi--
sol--
solli--
some--
somm--
somn--
somptue--
son--
sophi--
sor--
sos--
sot--
sou--
souff--
sourn--
sous--
souten--
soy--
sp--
spa--
spe--
spect--
spie--
sponsor--
sq--
squa--
sr--
ss--
st--
sta--
stabi--
stall--
stan--
star--
ste--
sti--
stipu--
sto--
stra--
strat--
structur--
stu--
sty--
su--
sua--
sub--
subject--
subju--
suc--
succurs--
sud--
suffo--
sui--
sul--
sulfur--
sum--
sun--
suo--
super--
supp--
sur--
surex--
surgis--
survi--
sus--
sut--
suze--
sv--
sw--
swim--
sy--
sylv--
symb--
symbol--
syn--
synch--
syria--
sz--
sza--
sze--
t--
ta--
tab--
tabol--
tac--
tag--
tai--
tail--
taka--
tal--
talis--
tallurg--
tam--
tan--
tang--
tar--
tas--
tat--
tatou--
tau--
taver--
tch--
te--
tea--
teau--
teign--
tel--
temp--
ten--
tend--
tenta--
ter--
tes--
test--
text--
th--
tha--
the--
theo--
ther--
tho--
thu--
thurs--
thy--
ti--
tic--
tif--
til--
tim--
tin--
tir--
tis--
tit--
titul--
tl--
to--
toi--
toku--
tom--
ton--
top--
topony--
tor--
tot--
tou--
touff--
tour--
toxi--
tr--
tra--
trac--
tradui--
trafi--
tran--
trans--
traumat--
tre--
treas--
tremb--
tres--
tri--
trimes--
triomp--
tro--
tromb--
tromp--
trop--
trot--
trou--
tru--
trui--
ts--
tsu--
tt--
tu--
tue--
tumul--
tur--
turbul--
tus--
tut--
tv--
twe--
twi--
ty--
tyr--
tyran--
tz--
u--
uc--
ud--
ue--
ui--
uj--
uk--
ul--
ultra--
um--
un--
under--
uni--
uns--
unter--
up--
ur--
us--
usur--
usurpat--
ut--
util--
utilisa--
utilita--
uv--
uz--
v--
va--
vacil--
val--
valida--
valor--
van--
vapor--
var--
variabi--
vas--
vau--
vauc--
ve--
vec--
vehi--
vel--
ven--
vend--
vent--
ventil--
ver--
verdo--
ves--
vesti--
vey--
vi--
via--
vic--
vie--
viend--
vienn--
vigil--
vil--
villa--
ville--
vin--
vir--
virtu--
virul--
vis--
vit--
vita--
vla--
vo--
voi--
vol--
volat--
volks--
volum--
volup--
vor--
vos--
vot--
vou--
voy--
vr--
vre--
vs--
vu--
vul--
vulc--
vulga--
vuo--
vy--
w--
wa--
wald--
wan--
war--
was--
watt--
way--
we--
web--
wedd--
wei--
wen--
west--
wey--
whe--
whit--
wi--
wie--
wig--
wiki--
wil--
wild--
win--
wissens--
witt--
wo--
wood--
wr--
wu--
wy--
x--
xa--
xe--
xi--
xl--
xu--
xxx--
y--
ya--
yama--
ye--
yi--
yo--
you--
yu--
z--
za--
zacha--
zam--
zap--
ze--
zen--
zepp--
zh--
zhu--
zi--
zie--
zo--
zoo--
zu--
zwi--
zy--
æ--
ð--
đ--
ł--
œ--
œil--
ſ--
ſa--
ſe--
ſi--
ſor--
ſou--
ſui--
ɐ--
ɑ--
ɔ--
ɕ--
ə--
ɛ--
ɡ--
ɪ--
ɲ--
ɾ--
ʁ--
ʃ--
ʒ--
α--
β--
γ--
δ--
ε--
ζ--
θ--
κ--
κα--
λ--
μ--
ν--
ο--
π--
πο--
ρ--
σ--
τ--
φ--
χ--
а--
б--
в--
г--
д--
и--
к--
ка--
ко--
л--
м--
ма--
мо--
н--
но--
о--
п--
р--
рос--
с--
ск--
ст--
т--
א--
ה--
י--
ا--
ال--
ب--
--0
--00
--01
--02
--03
--04
--05
--06
--07
--08
--09
--1
--10
--11
--12
--13
--14
--15
--16
--17
--18
--19
--2
--20
--21
--22
--23
--24
--25
--26
--27
--28
--29
--3
--30
--31
--32
--33
--34
--35
--36
--37
--38
--39
--4
--40
--41
--42
--43
--44
--45
--46
--47
--49
--5
--50
--51
--52
--53
--54
--55
--56
--58
--59
--6
--60
--61
--62
--63
--64
--65
--67
--68
--69
--7
--70
--71
--72
--73
--74
--75
--76
--77
--78
--79
--8
--80
--81
--82
--83
--84
--85
--86
--87
--88
--89
--9
--90
--91
--92
--93
--94
--95
--96
--97
--98
--99
--a
--aa
--aan
--aar
--ab
--able
--ables
--ac
--aca
--ach
--acio
--ack
--ad
--ada
--ade
--adi
--adie
--ado
--ador
--ados
--ae
--af
--afa
--ag
--aga
--age
--ages
--agh
--agna
--ago
--ah
--ai
--aient
--ain
--ains
--aire
--aires
--ais
--aise
--aison
--ait
--aj
--aja
--ak
--aka
--ake
--aker
--aki
--al
--ala
--ald
--ale
--aled
--ales
--ali
--alis
--all
--am
--ama
--ame
--amo
--ampton
--amus
--an
--ana
--ance
--and
--ane
--anes
--ang
--ani
--ano
--anon
--ans
--ant
--ante
--antes
--ants
--anum
--anus
--anza
--ao
--ap
--apy
--ar
--ara
--ard
--ards
--are
--ari
--aris
--aro
--art
--aru
--arum
--ary
--as
--asa
--asco
--ase
--ast
--at
--ata
--ate
--ateur
--ath
--ati
--atic
--atie
--atif
--atio
--ation
--ative
--ato
--ator
--ats
--atum
--atus
--au
--aud
--auld
--ault
--aut
--aux
--av
--ave
--avia
--aw
--awa
--ax
--ay
--aya
--aye
--ayo
--az
--b
--ba
--back
--ban
--bane
--bas
--base
--baud
--bault
--be
--bel
--berg
--bes
--bi
--bia
--bian
--bie
--bilite
--ble
--blement
--bles
--blo
--blot
--bo
--bon
--bourg
--box
--boy
--bs
--bu
--buch
--burg
--burn
--bury
--bus
--by
--c
--ca
--car
--ce
--cea
--ceae
--ceau
--cef
--cel
--cen
--cer
--ces
--cey
--ch
--cha
--charts
--che
--chez
--chi
--cht
--chy
--ci
--cia
--cie
--cien
--cienne
--cin
--cini
--cio
--cipe
--cir
--cit
--ck
--cke
--cker
--cki
--cks
--cle
--co
--cock
--cot
--cott
--cotte
--cq
--craft
--cratie
--cre
--cs
--ct
--cta
--cte
--cted
--ctes
--cti
--ctif
--ction
--ctions
--ctive
--cton
--ctor
--cts
--cture
--ctus
--cu
--cus
--cy
--cz
--d
--da
--dad
--dae
--dage
--dale
--dan
--day
--ddin
--de
--den
--der
--des
--dge
--dha
--di
--dia
--die
--din
--dis
--dit
--dl
--dle
--dler
--do
--dome
--don
--dor
--dorf
--dos
--dou
--dov
--dra
--dre
--drons
--dront
--dry
--ds
--dt
--du
--dum
--dun
--dy
--e
--ea
--eae
--eau
--eaux
--ec
--ece
--ech
--eck
--ed
--ee
--eer
--ef
--eg
--ego
--ei
--ek
--el
--ela
--eld
--elet
--ell
--elle
--elli
--ello
--elot
--els
--ely
--em
--ema
--ement
--en
--ena
--enac
--enburg
--enc
--ence
--end
--ene
--enez
--enne
--ens
--ensis
--enstein
--ent
--enza
--eo
--eois
--eon
--eons
--ep
--er
--era
--ere
--erg
--erge
--eri
--erie
--ern
--erne
--ero
--eron
--ers
--ert
--ery
--es
--ese
--ess
--esse
--est
--et
--ete
--eto
--ets
--ett
--etta
--ette
--etti
--eu
--euil
--eur
--eurs
--euse
--eux
--ev
--eva
--ew
--ex
--ey
--ez
--eæ
--f
--fa
--fac
--fe
--feld
--fer
--ff
--ffe
--ffen
--ffer
--fi
--fie
--field
--fle
--fo
--ford
--fort
--fr
--fs
--ft
--fu
--ful
--g
--ga
--gado
--gamp
--gar
--gara
--gate
--gau
--gaud
--ge
--gen
--ger
--ges
--gg
--ggio
--ggs
--gh
--ght
--ghton
--gi
--gia
--gic
--gio
--gn
--gna
--gne
--gnit
--gnol
--gnon
--gny
--go
--gon
--gos
--gr
--gs
--gt
--gton
--gu
--gue
--gul
--gy
--h
--ha
--hac
--hai
--hal
--ham
--han
--hane
--hant
--har
--haud
--haus
--hausen
--he
--head
--hed
--heid
--heim
--hel
--hem
--hen
--her
--hes
--hi
--hia
--hic
--hie
--hin
--hine
--hing
--hip
--hips
--hique
--hir
--hire
--hium
--hl
--hlon
--hm
--hma
--hn
--hna
--ho
--hoe
--hol
--hon
--hood
--hop
--hos
--hra
--hre
--hs
--ht
--hta
--hts
--hu
--hus
--hy
--i
--ia
--iac
--iae
--iah
--iaire
--iaires
--iait
--ial
--iale
--iam
--ian
--iana
--iano
--ians
--iant
--iar
--iard
--ias
--iat
--iau
--iaux
--ib
--ibilite
--ible
--ibles
--ibus
--ic
--ica
--ical
--icaux
--ice
--ich
--iche
--icien
--iciens
--ick
--ico
--ics
--icule
--icules
--icum
--icus
--id
--ida
--idae
--idda
--ide
--ides
--idge
--ie
--ied
--iel
--ielle
--ielles
--ien
--ienne
--iennes
--iens
--ient
--ier
--iers
--ies
--iet
--ieu
--ieuse
--ieuses
--ieux
--iez
--if
--ife
--ifia
--ifiant
--ifie
--ifier
--ifolia
--ifs
--ig
--iga
--igan
--ige
--iger
--ignac
--ignant
--igne
--igny
--igo
--igu
--ih
--ii
--iidae
--iidda
--iis
--ija
--ik
--ika
--iki
--iko
--il
--ila
--ile
--ili
--ilia
--ilien
--ilis
--ility
--illa
--illac
--ille
--illes
--illo
--illon
--ilo
--im
--ima
--iman
--ime
--imer
--imes
--imo
--ims
--in
--ina
--inda
--ine
--iner
--ines
--ing
--ings
--ington
--ingue
--ini
--inie
--ino
--ins
--inson
--int
--inus
--io
--iol
--iole
--ion
--ionne
--ions
--ior
--ios
--iot
--iou
--ious
--ip
--ipe
--iq
--iqua
--ique
--iques
--ir
--ira
--ire
--irent
--ires
--iri
--iro
--irs
--is
--isa
--isant
--isateur
--isation
--isch
--ische
--ise
--isent
--iser
--ises
--ish
--isible
--isier
--isio
--ism
--isme
--ismo
--iss
--issa
--isse
--ist
--ista
--iste
--istes
--istique
--ists
--it
--ita
--itaire
--itaires
--ite
--ites
--ith
--iti
--itia
--ities
--itif
--ition
--ito
--itor
--itus
--ity
--itz
--iu
--ium
--ius
--iv
--ive
--ivement
--ives
--ivite
--ivity
--ivo
--ix
--iya
--iz
--izar
--ization
--ize
--ized
--izh
--j
--ja
--jar
--jd
--je
--jean
--ji
--jk
--jn
--jo
--joc
--ju
--k
--ka
--kar
--ke
--kel
--ken
--ker
--kes
--ket
--kh
--khov
--ki
--kie
--kis
--ko
--kov
--ks
--kt
--ku
--ky
--l
--la
--lade
--lag
--lage
--lah
--lais
--lait
--lan
--land
--lant
--lar
--las
--lat
--lau
--lav
--lava
--lay
--lbert
--ld
--lde
--ldi
--le
--lem
--len
--ler
--les
--less
--let
--lets
--ley
--lf
--li
--lia
--lic
--lica
--lich
--lie
--lier
--lik
--lin
--line
--ling
--lio
--lir
--lis
--lise
--lk
--ll
--lla
--llan
--lle
--llement
--lles
--lli
--llie
--llis
--llo
--llois
--llon
--llot
--lls
--llus
--lly
--lm
--lma
--lo
--logie
--logue
--logy
--loit
--lon
--lor
--los
--lot
--louis
--lov
--ls
--lt
--lte
--lter
--lton
--ltz
--lu
--lum
--lus
--lx
--ly
--lyn
--lz
--m
--ma
--mal
--man
--mann
--mare
--matic
--mba
--mbe
--mber
--mberg
--mbla
--me
--men
--mens
--ment
--ments
--mer
--mes
--mi
--mia
--mic
--mie
--min
--mire
--mis
--mium
--mler
--mm
--mma
--mmar
--mment
--mo
--mon
--mont
--more
--mp
--mpa
--mps
--ms
--mson
--mu
--mum
--mund
--mus
--my
--n
--na
--nabe
--nable
--nac
--nage
--nah
--nai
--naient
--naire
--naires
--nais
--naise
--nait
--nal
--nalise
--naliser
--nalite
--nant
--nante
--nants
--nar
--nas
--nat
--nau
--naud
--nault
--naux
--nay
--nberg
--nburg
--nc
--nca
--nce
--nces
--nch
--nche
--ncie
--nco
--ncourt
--ncy
--nd
--nda
--nde
--nded
--nder
--ndes
--ndi
--ndix
--ndo
--ndra
--ndre
--nds
--ndum
--ne
--neau
--nel
--nelle
--nelles
--nels
--nem
--nement
--nen
--nent
--ner
--nerie
--nes
--ness
--net
--nette
--neur
--neuse
--neux
--news
--ney
--nez
--ng
--nge
--ngen
--nger
--nges
--ngo
--ngue
--nheim
--ni
--nia
--nic
--nie
--nier
--niers
--nin
--ning
--nio
--nions
--nir
--nis
--niser
--nisme
--niste
--nistes
--nium
--nius
--nk
--nka
--nko
--nn
--nna
--nnais
--nne
--nner
--nnes
--no
--nod
--nois
--noit
--nol
--non
--nons
--not
--nova
--noy
--ns
--nsa
--nse
--nsis
--nsive
--nson
--nstein
--nt
--nta
--nte
--nter
--ntes
--nti
--ntie
--ntin
--ntino
--ntis
--ntit
--nto
--nton
--ntre
--nts
--nu
--num
--nus
--nx
--ny
--nyme
--nz
--nza
--nze
--nzo
--o
--oa
--oc
--oce
--ock
--od
--oda
--ody
--oe
--of
--off
--oft
--og
--oge
--ogie
--ogne
--ogue
--ogy
--oi
--oient
--oin
--oint
--oir
--oire
--oires
--oirs
--ois
--oise
--oit
--oj
--ok
--oka
--ol
--ola
--ole
--oli
--olk
--olle
--olles
--olo
--ological
--ology
--ols
--om
--oma
--ombe
--ome
--omie
--ompe
--on
--ona
--ond
--one
--oni
--onia
--onial
--onie
--ono
--ons
--ont
--ony
--oo
--oon
--op
--ops
--or
--ora
--ord
--ore
--orf
--ori
--oria
--oriaux
--orio
--orium
--ors
--ort
--orum
--ory
--os
--osa
--ose
--osi
--oso
--ot
--ota
--ote
--oter
--otes
--oth
--othe
--oto
--ots
--otte
--otti
--ou
--oua
--oud
--oue
--ouer
--ouin
--ouk
--oun
--our
--ourent
--ourt
--ous
--out
--oux
--ouz
--ov
--ova
--ovan
--ove
--ovic
--ovitch
--ovo
--ow
--owac
--ows
--ox
--oy
--oye
--oyer
--oz
--p
--pa
--pait
--pas
--pe
--pel
--per
--pf
--ph
--phe
--phy
--pi
--pie
--pin
--pis
--po
--pon
--pos
--pose
--post
--pp
--ppe
--pper
--pre
--ps
--pse
--psie
--pt
--pta
--pte
--pton
--pu
--pus
--py
--q
--que
--ques
--quin
--r
--ra
--rad
--rada
--rai
--raient
--rais
--rait
--ral
--ram
--ran
--rand
--rar
--ras
--rat
--ray
--raz
--rbe
--rc
--rcat
--rck
--rd
--rde
--rdi
--rdin
--rdo
--rds
--re
--rea
--reau
--red
--rel
--rell
--ren
--rent
--rer
--res
--ress
--ret
--reuil
--rey
--rez
--rf
--rg
--rge
--ri
--ria
--ric
--rice
--rie
--ries
--riez
--rii
--rik
--rin
--rina
--rini
--rio
--rions
--rir
--ris
--rit
--rium
--rius
--rk
--rks
--rl
--rle
--rm
--rma
--rman
--rme
--rn
--rna
--rne
--rnes
--rno
--rns
--rny
--ro
--roient
--roit
--ron
--rons
--ront
--ros
--rov
--roy
--rp
--rque
--rr
--rra
--rre
--rri
--rry
--rs
--rse
--rson
--rt
--rta
--rte
--rth
--ru
--rum
--rus
--ry
--ryn
--rz
--s
--sa
--sac
--sage
--saient
--sait
--san
--sant
--sard
--sberg
--sburg
--sby
--sca
--scence
--sch
--sco
--se
--sen
--sent
--ser
--ses
--set
--seur
--sey
--sez
--sh
--shi
--shire
--si
--sia
--sie
--sier
--siez
--sif
--sin
--sio
--sis
--sius
--sive
--sk
--ski
--sky
--sler
--sm
--sman
--sme
--smes
--sne
--snes
--so
--soit
--sol
--son
--sons
--sot
--sque
--squet
--sruhe
--ss
--ssa
--ssaient
--ssait
--ssant
--ssante
--sse
--ssement
--ssent
--sses
--sseur
--sseurs
--ssi
--ssiez
--ssif
--ssin
--ssive
--sso
--sson
--ssons
--ssus
--st
--sta
--stait
--star
--ste
--ster
--sti
--stion
--ston
--stone
--stra
--stre
--stro
--sts
--sty
--su
--sy
--sz
--t
--ta
--table
--tad
--tadt
--taine
--tait
--tal
--tan
--tance
--tans
--tant
--tar
--tas
--tat
--te
--ted
--tein
--tel
--ten
--tent
--ter
--terie
--teries
--ters
--tes
--tet
--teur
--teurs
--tez
--th
--the
--ti
--tia
[...]
