!
"
#
##0
##1
##10
##11
##12
##13
##14
##15
##16
##17
##18
##19
##2
##20
##21
##22
##23
##24
##25
##26
##27
##28
##29
##3
##30
##31
##32
##33
##34
##35
##36
##37
##38
##39
##4
##40
##41
##42
##43
##44
##45
##46
##47
##48
##49
##5
##50
##51
##52
##53
##54
##55
##56
##57
##58
##59
##6
##60
##61
##62
##63
##64
##65
##66
##67
##68
##69
##7
##70
##71
##72
##73
##74
##75
##76
##77
##78
##79
##8
##80
##81
##82
##83
##84
##85
##86
##87
##88
##89
##9
##90
##91
##92
##93
##94
##95
##96
##97
##98
##99
$
%
&
'
(
)
*
+
,
-
.
/
0
00
000
0000
0001
0002
0003
0004
0006
001
002
0028
003
0036
004
005
006
007
008
009
01
010
011
012
013
014
0140
015
016
017
018
019
02
020
021
022
023
024
025
02571
026
0261
027
028
029
03
030
031
032
033
034
035
0362
037
038
039
04
040
041
042
043
044
045
047
048
049
05
050
051
051312
054
055
056
057
058
059
06
060
061
062
063
064
065
066
067
068
069
07
070
072
073
074
075
076
077
078
079
08
080
081
082
083
085
086
087
088
09
090
091
092
093
094
095
096
097
098
099
1
10
100
1000
1001
1002
1003
1004
1005
1006
1007
1008
1009
101
1010
1011
1012
1013
1014
1015
1016
1017
1018
1019
102
1020
1021
1022
1023
1024
1025
1026
1027
1028
1029
103
1030
1031
1032
1033
1034
1035
1036
1037
1038
1039
104
1040
1041
1042
1043
1044
1045
1046
1047
1048
1049
105
1050
1051
1052
1053
1054
1055
1056
1057
1058
1059
106
1060
1061
1062
1063
1064
1065
1066
1067
1068
1069
107
1070
1071
1072
1073
1074
1075
1076
1077
1078
1079
108
1080
1081
1082
1083
1084
1085
1086
1087
1088
1089
109
1090
1091
1092
1093
1094
1095
1096
1097
1098
1099
11
110
1100
1101
1102
1103
1104
1105
1106
1107
1108
1109
111
1110
1111
1112
1113
1114
1115
1116
1117
1118
1119
112
1120
1121
1122
1123
1124
1125
1126
1127
1128
1129
113
1130
1131
1132
1133
1134
1135
1136
1137
1138
1139
114
1140
1141
1142
1143
1144
1145
1146
1147
1148
1149
115
1150
1151
1152
1153
1154
1155
1156
1157
1158
1159
116
1160
1161
1162
1163
1164
1165
1166
1167
1168
1169
117
1170
1172
1174
1175
1176
1177
1178
1179
118
1180
1181
1182
1183
1184
1185
1186
1187
1188
1189
119
1190
1191
1192
1193
1194
1195
1196
1197
1198
1199
12
120
1200
1201
1202
1203
1204
1205
1206
1207
1208
1209
121
1210
1211
1212
1213
1214
1215
1216
1217
1218
1219
122
1220
1221
1222
1223
1224
1225
12259
1226
1227
1228
1229
123
1230
1231
1232
1233
1234
1235
1236
1237
1238
1239
124
1240
1241
1242
1243
1244
1245
1246
1247
1248
1249
125
1250
1251
1252
1253
1254
1255
1256
1257
1258
1259
126
1260
1261
1262
1263
1264
1265
1266
1267
1268
1269
127
1270
1271
1272
1273
1274
1275
1276
1277
1278
1279
128
1280
1281
1282
1283
1284
1285
1286
1287
1288
1289
129
1290
1291
1292
1293
1294
1295
1296
1297
1298
1299
13
130
1300
1301
1302
1303
1304
1305
1306
1307
1308
1309
131
1310
1311
1312
1313
1314
1315
1316
1317
1318
1319
132
1320
1321
1322
1323
1324
1325
1326
1327
1328
1329
133
1330
1331
1332
1333
1334
1335
1336
1337
1338
1339
134
1340
1341
1342
1343
1344
1345
1346
1347
1348
1349
135
1350
1351
1352
1353
1354
1355
1356
1357
1358
1359
136
1360
1361
1362
1363
1364
1365
1366
1367
1368
1369
137
1370
1371
1372
1373
1374
1375
1376
1377
1378
1379
138
1380
1381
1382
1383
1384
1385
1386
1387
1388
1389
139
1390
1391
1392
1393
1394
1395
1396
1397
1398
1399
14
140
1400
1401
1402
1403
1404
1405
1406
1407
1408
1409
141
1410
1411
1412
1413
1414
1415
1416
1417
1418
1419
142
1420
1421
1422
1423
1424
1425
1426
1427
1428
1429
143
1430
1431
1432
1433
1434
1435
1436
1437
1438
1439
144
1440
1441
1442
1443
1444
1445
1446
1447
1448
1449
145
1450
1451
1452
1453
1454
1455
1456
1457
1458
1459
146
1460
1461
1462
1463
1464
1465
14651858
1466
1467
1468
1469
147
1470
1471
1472
1473
1474
1475
1476
1477
1478
1479
148
1480
1481
1482
1483
1484
1485
1486
1487
1488
1489
149
1490
1491
1492
1493
1494
1495
1496
1497
1498
1499
15
150
1500
1501
1502
1503
1504
1505
1506
1507
1508
1509
151
1510
1511
1512
1513
1514
1515
1516
1517
1518
1519
152
1520
1521
1522
1523
1524
1525
1526
1527
1528
1529
153
1530
1531
1532
1533
1534
1535
1536
1537
1538
1539
154
1540
1541
1542
1543
1544
1545
1546
1547
1548
1549
155
1550
1551
1552
1553
1554
1555
1556
1557
1558
1559
156
1560
1561
1562
1563
1564
1565
1566
1567
1568
1569
157
1570
1571
1572
1573
1574
1575
1576
1577
1578
1579
158
1580
1581
1582
1583
1584
1585
1586
1587
1588
1589
159
1590
1591
1592
1593
1594
1595
1596
1597
1598
1599
16
160
1600
1601
1602
1603
1604
1605
1606
1607
1608
1609
161
1610
1611
1612
1613
1614
1615
1616
1617
1618
1619
162
1620
1621
1622
1623
1624
1625
1626
1627
1628
1629
163
1630
1631
1632
1633
1634
1635
1636
1637
1638
1639
164
1640
1641
1642
1643
1644
1645
1646
1647
1648
1649
165
1650
1651
1652
1653
1654
1655
1656
1657
1658
1659
166
1660
1661
1662
1663
1664
1665
1666
1667
1668
1669
167
1670
1671
1672
1673
1674
1675
1676
1677
1678
1679
168
1680
1681
1682
1683
1684
1685
1686
1687
1688
1689
169
1690
1691
1692
1693
1694
1695
1696
1697
1698
1699
17
170
1700
1701
1702
1703
1704
1705
1706
1707
1708
1709
171
1710
1711
1712
1713
1714
1715
1716
1717
1718
1719
172
1720
1721
1722
1723
1724
1725
1726
1727
1728
1729
173
1730
1731
1732
1733
1734
1735
1736
1737
1738
1739
174
1740
1741
1742
1743
1744
1745
1746
1747
1748
1749
175
1750
1751
1752
1753
1754
1755
1756
1757
1758
1759
176
1760
1761
1762
1763
1764
1765
1766
1767
1768
1769
177
1770
1771
1772
1773
1774
1775
1776
1777
1778
1779
178
1780
1781
1782
1783
1784
1785
1786
1787
1788
1789
179
1790
1791
1792
1793
1794
1795
1796
1797
1798
1799
18
180
1800
1801
1802
1803
1804
1805
1806
1807
1808
1809
181
1810
1811
1812
1813
1814
1815
1816
1817
1818
1819
182
1820
1821
1822
1823
1824
1825
1826
1827
1828
1829
183
1830
1831
1832
1833
1834
1835
1836
1837
1838
1839
184
1840
1840340
1841
1842
1843
1844
1845
1846
1847
1848
1849
185
1850
1851
1852
1853
1854
1855
1856
1857
1858
1859
186
1860
1861
1862
1863
1864
1865
1866
1867
1868
1869
187
1870
1871
1872
1873
1874
1875
1876
1877
1878
1879
188
1880
1881
1882
1883
1884
1885
1886
1887
1888
1889
189
1890
1891
1892
1893
1894
1895
1896
1897
1898
1899
19
190
1900
1901
1902
1903
1904
1905
1906
1907
1908
1909
191
1910
1911
1912
1913
1914
1915
1916
1917
1918
1919
192
1920
1921
1922
1923
1924
1925
1926
1927
1928
1929
193
1930
1931
1932
1933
1934
1935
1936
1937
1938
1939
194
1940
1941
1942
1943
1944
1945
1946
1947
1948
1949
195
1950
1951
1952
1953
1954
1955
1956
1957
1958
1959
196
1960
1961
1962
1963
1964
1965
1966
1967
1968
1969
197
1970
1971
1972
1973
1974
1975
1976
1977
1978
1979
198
1980
1981
1982
1983
1984
1985
1986
1987
1988
1989
199
1990
1991
1992
1993
1994
1995
1996
1997
1998
1999
2
20
200
2000
2001
2002
2003
2004
2005
2006
2007
2008
2009
201
2010
2011
2012
2013
2014
2015
20150923204417
2016
2017
2018
2019
202
2020
202012
2021
2022
2023
2024
2025
2026
2028
203
2030
20331901
204
2040
2041
205
2050
206
2060
207
2070
208
2080
209
2090
2092
2095
21
210
2100
211
212
213
214
215
216
217
218
219
22
220
2200
221
222
223
224
225
226
227
228
229
23
230
2300
2307
231
232
233
2331
234
235
236
237
238
239
24
240
2400
241
242
243
244
245
246
247
248
249
25
250
2500
251
2510
252
253
254
255
256
257
258
259
26
260
261
262
263
264
265
266
267
268
269
27
270
2700
271
272
273
274
275
276
277
278
279
28
280
281
282
283
284
285
286
287
288
289
29
290
291
292
293
294
295
296
297
298
299
3
30
300
3000
301
302
303
304
305
306
307
3077
308
309
31
310
311
312
313
314
315
316
3166
317
318
319
32
320
3200
321
322
323
324
325
326
327
328
329
33
330
331
332
333
334
335
336
337
338
339
3390
34
340
341
342
343
344
345
346
347
348
349
35
350
3500
351
35110
352
3520
353
354
355
356
357
358
359
36
360
361
362
363
364
365
366
36672705
367
368
369
37
370
371
372
373
374
375
376
377
378
379
38
380
381
382
383
384
385
386
387
388
389
39
390
391
392
393
394
395
396
397
398
399
4
40
400
4000
401
402
403
404
405
4051
406
407
408
409
41
410
411
412
413
414
415
416
417
418
419
42
420
421
422
423
424
425
426
427
428
429
43
430
431
432
433
4331
434
435
436
437
438
439
44
440
441
442
4422
443
444
445
446
447
448
449
45
450
4500
451
452
453
454
455
456
457
458
459
46
460
461
462
463
464
465
466
467
468
469
47
470
471
472
473
474
475
476
477
478
479
48
480
481
482
483
484
485
486
487
488
489
49
490
491
492
493
494
495
496
497
498
499
5
50
500
5000
501
502
503
504
505
506
507
508
509
51
510
511
512
513
514
515
516
517
518
519
52
520
521
522
523
524
525
526
527
528
529
53
530
531
532
533
534
535
536
537
538
539
54
540
541
542
543
544
545
546
547
548
549
55
550
551
552
553
554
555
556
557
558
559
56
560
561
562
563
56350
564
565
566
567
568
569
57
570
571
572
573
574
575
576
57659
577
578
579
58
580
581
582
583
584
585
586
587
588
589
59
590
591
592
593
594
595
596
597
598
599
6
60
600
6000
601
602
603
604
605
606
607
608
609
61
610
611
612
613
614
615
616
617
618
619
62
620
621
622
623
624
625
626
627
628
629
63
630
631
632
633
634
635
636
637
638
639
64
640
641
642
643
644
645
646
647
648
649
65
650
651
652
653
654
655
656
657
658
659
66
660
661
662
663
66350
664
665
666
667
668
669
67
670
671
672
673
6736
674
675
676
677
678
679
68
680
681
682
683
684
685
686
687
688
689
69
690
691
692
693
694
695
696
697
698
699
7
70
700
7000
701
702
703
704
705
706
707
708
709
71
710
711
712
713
714
715
716
7167
717
718
719
7190
72
720
721
7210
722
723
724
725
726
727
728
729
73
730
731
732
733
734
7346
735
736
737
738
739
74
740
741
742
743
7432
744
745
746
747
748
749
75
750
7509
751
752
753
754
7546
755
756
757
758
759
76
760
761
762
763
764
765
766
767
768
769
77
770
771
772
773
774
775
776
777
778
779
78
780
781
7817
782
783
784
785
786
787
788
789
79
790
791
7914
792
793
794
795
796
797
798
799
8
80
800
8000
8006
801
8010
8014
8018
802
8028
803
804
8047
805
8050
806
807
808
809
8091
81
810
8108
811
812
8122
813
8133
814
8146
815
8153
816
817
818
819
82
820
821
822
823
824
825
826
8264
827
828
829
83
830
8308
831
832
833
834
835
836
837
838
839
84
840
841
84162
842
843
844
845
846
847
848
849
85
850
851
85115
852
853
854
855
856
857
858
859
86
860
86012
861
862
863
864
865
866
867
868
869
86914
87
870
871
872
873
874
875
876
877
87779
878
879
88
880
881
88141
882
8820972107
883
884
885
886
887
888
889
89
890
891
892
893
894
895
89555
896
897
897025
898
89870
899
9
90
900
9000
901
902
903
904
905
906
907
9070
908
909
91
910
911
912
913
914
915
916
917
918
919
92
920
921
922
923
924
925
926
927
928
929
93
930
931
932
933
934
935
936
937
938
939
94
940
941
942
943
944
945
946
947
948
949
95
950
951
952
953
954
955
956
957
958
959
96
960
961
962
963
964
965
966
967
968
969
97
970
971
972
973
974
975
976
977
978
979
98
980
981
982
983
984
985
986
987
988
989
99
990
991
992
993
994
995
996
9966
997
9976
998
9987
999
:
;
<
=
>
?
@
[
\
]
^
_
`
a
aa
aache
aaliyah
aan
aanze
aarhus
aaron
aas
ab
aba
ababa
abacha
abaki
abasia
abate
abati
abay
abba
abbas
abbe
abbey
abbot
abbott
abby
abc
abd
abdalla
abdallah
abdel
abdelaziz
abderrahmane
abdi
abdu
abdul
abdulaziz
abdulla
abdullah
abdullahi
abdulwahid
abe
abebe
abeid
abel
abelson
abengourou
abeokuta
aberdare
aberdeen
abesi
abeti
abi
abia
abidjan
abigail
abim
abingdon
abiria
abitazioni
abitina
abitinae
able
abo
aboisso
aboke
abolition
aboriginal
aboud
about
above
abraham
abrahams
abrahamu
abrams
abramson
abroad
abruzzo
abs
absolute
abstract
abu
abubakar
abuja
abuse
abushiri
abyei
abyssinia
abyssinian
ac
acacia
acad
acade
academia
academic
academy
acanthurus
acc
accepted
access
accessdate
accessed
accident
accipiter
according
account
accounting
accounts
accra
accreditations
accurate
accused
ace
acetate
acevedo
acha
achebe
achieng
achievement
achilles
achukue
acid
acids
acm
acomys
acoustic
acquired
acquisition
acref
acres
acrocephalus
across
acs
act
acta
actes
acth
acting
action
actions
active
activism
activist
activists
activities
activity
acton
actor
actors
actress
acts
actual
actualite
actually
acute
ad
ada
adabu
adal
adam
adama
adamawa
adams
adamson
adamu
adan
adana
adaptation
adaukto
adc
add
added
adder
addiction
addis
addison
addition
additional
addo
address
adds
ade
adebayor
adel
adelaide
adele
aden
adeola
adhabu
adhd
adhimisho
adhuhuri
adi
adichie
adige
adili
adimu
adisq
adjective
adjumani
adler
admin
administration
administrative
adn
adnan
adobe
adolesc
adolescent
adolescents
adolf
adolfo
adopted
adowa
adria
adrian
adriano
adrien
ads
adu
adua
adui
adult
adults
adur
advance
advanced
advances
advent
adventist
adventure
adventures
adverse
adversus
advice
advisory
advocate
advocates
adzope
ae
aegean
aelred
aende
aendelee
aero
aerodramus
aeronautical
aesthetics
aevi
af
afadhali
afanasieff
afande
afanye
afar
afariki
afc
afcon
afdb
afe
afer
affair
affairs
affect
affinis
afghan
afghanistan
afisa
afisi
afp
afr
africa
africaine
africaines
african
africana
africanism
africans
africanus
afrika
afrikaans
afrima
afrique
afro
afrobasket
afropop
afrotyphlops
after
aftermath
afya
afyonkarahisar
afyuni
ag
aga
agago
again
against
agama
agano
agape
agapornis
agata
agatha
agatho
agba
agboville
age
aged
agence
agencies
agency
agenda
agent
agents
ages
aggrey
aghalabu
aging
agiografia
agizo
agne
agnes
ago
agoos
agosti
agostino
agrawal
agree
agreement
agricultural
agriculture
agrigento
agu
agui
aguilera
agulhas
agyemang
ah
ahadi
ahead
ahera
ahl
ahlul
ahly
ahmad
ahmadiyya
ahmadu
ahmed
ahmedabad
ahram
ai
aibu
aid
aida
aidan
aidha
aids
aiesec
aiken
aim
aime
aims
ain
aina
air
airbus
aircraft
aires
airline
airlines
airplay
airport
airtel
airways
ais
aise
aisha
aishi
aishwarya
ait
aitwae
aitwaye
aix
aj
ajabu
ajali
ajax
ajayi
aje
ajenda
ajenti
ajentina
ajili
ajira
ajiunge
ajp
ajue
ak
aka
akaacha
akaamua
akaamuru
akaandika
akaanza
akaanzisha
akabaki
akabatizwa
akachaguliwa
akacheza
akachukua
akademi
akademia
akademie
akaelekea
akaenda
akaendelea
akafa
akafanya
akafariki
akafaulu
akafika
akafikia
akafuata
akafuatwa
akafundisha
akafunga
akafungwa
akagundua
akahamia
akahitimu
akaingia
akaishi
akaitwa
akaja
akajaribu
akajenga
akajibu
akajiunga
akajiuzulu
akakaa
akakamatwa
akakataa
akakubali
akakubaliwa
akakutana
akamaliza
akamchukua
akamjibu
akampa
akamtangaza
akamuomba
akamwambia
akan
akaomba
akaona
akaondoka
akaonekana
akaongeza
akaongoza
akapanda
akapata
akapelekwa
akapewa
akapokea
akarabu
akarudi
akarudishwa
akasafiri
akasema
akashika
akashinda
akashindwa
akashiriki
akasoma
akatangaza
akatangazwa
akateuliwa
akatoa
akatuma
akatumia
akatumwa
akatunga
akauawa
akaunda
akaunti
akawa
akawaambia
akawapa
akaweka
akaweza
akazaa
akazidi
akazikwa
akbar
ake
akhenaten
akhmim
aki
akiacha
akiagiza
akiamini
akiandika
akianza
akianzisha
akiba
akicheza
akichezea
akichukua
akida
akidai
akielekea
akieleza
akielezea
akienda
akiendelea
akiendesha
akifanya
akifuata
akifuatwa
akifundisha
akifunga
akihudumu
akiichezea
akiigiza
akiimba
akiingia
akiishi
akiitwa
akija
akijaribu
akijitahidi
akijua
akijulikana
akikataa
akila
akilenga
akili
akilini
akim
akimaanisha
akimaliza
akimshirikisha
akin
akina
akiolojia
akiona
akionekana
akiongea
akiongoza
akiongozwa
akionyesha
akipata
akipenda
akipewa
akipiga
akipinga
akipokea
akira
akirudi
akisafiri
akisaidia
akisaidiwa
akisema
akishika
akishinda
akishiriki
akishirikiana
akishirikishwa
akisisitiza
akisoma
akisomea
akitafuta
akitaka
akitangaza
akitawala
akitembea
akitetea
akitoa
akitoka
akitokea
akitumia
akiwa
akiwakilisha
akiweka
akiwemo
akizungumza
ako
akon
akothee
aksaray
aksum
aktiki
akubali
akwa
akwino
akwitania
akzoni
al
ala
alabama
alade
alain
alama
alan
aland
alarm
alasiri
alaska
alba
albamu
alban
albania
albanian
albano
albany
albatrosi
albatross
albert
alberta
alberto
albino
albion
albizia
albrecht
albright
album
albums
albuquerque
alcindor
alcohol
alcoholic
alcoholism
alcuin
aldabra
aldershot
aldo
aldrin
ale
alec
alejandro
aleksanda
aleksander
aleksandria
alele
aleli
aleppo
alert
alessandro
alex
alexa
alexander
alexanderpalace
alexandra
alexandre
alexandria
alexis
alfa
alfabeti
alfajiri
alfonso
alfred
alfredo
algae
alge
algebra
alger
algeria
algerian
algiers
algorithm
algorithms
alhaji
alhamisi
ali
alia
aliacha
aliachana
aliachia
aliachiliwa
aliaga
aliagiza
aliahidi
aliajiriwa
alialikwa
aliambiwa
aliamini
aliamua
aliamuru
aliandaa
aliandika
alianza
alianzisha
aliapishwa
alias
aliathiriwa
alibadili
alibadilisha
alibadilishwa
alibainisha
alibaki
alibatizwa
aliboresha
alibuni
alice
alichagua
alichaguliwa
alichangia
alichapisha
alicheza
alichezea
alichomwa
alichora
alichukua
alichukuliwa
alichunguza
alicia
alidai
alidhani
alidumu
alielekea
alielekeza
alielewa
alieleza
alielezea
alien
alienda
aliendelea
aliendeleza
aliendesha
alieneza
alifafanua
alifahamika
alifanikiwa
alifanya
alifanywa
alifariki
alifaulu
alifia
alifika
alifikia
alifikiri
alifuata
alifuatwa
alifukuzwa
alifundisha
alifundishwa
alifunga
alifungua
alifungwa
alifurahia
alifuta
alifuzu
alighieri
align
aligombea
aligundua
aligunduliwa
alihama
alihamia
alihamisha
alihamishiwa
alihamishwa
aliheshimiwa
alihimiza
alihisi
alihitaji
alihitimisha
alihitimu
alihudhuria
alihudumia
alihudumu
alihukumiwa
alihusika
aliibuka
aliichezea
aliigiza
aliimarisha
aliimba
aliingia
aliingiza
aliingizwa
aliisaidia
aliishi
aliita
aliitisha
aliitwa
aliiwakilisha
alijaliwa
alijaribu
alijenga
alijeruhiwa
alijiandikisha
alijibu
alijifunza
alijihusisha
alijiita
alijikuta
alijipatia
alijishughulisha
alijisikia
alijitahidi
alijitangaza
alijitenga
alijitoa
alijitokeza
alijitolea
alijitosa
alijiua
alijiunga
alijiuzulu
alijua
alijulikana
alijumuishwa
alikaa
alikabidhiwa
alikamatwa
alikamilisha
alikanusha
alikaribishwa
alikata
alikataa
alikataliwa
alikataza
alikatwa
alikimbia
alikimbilia
alikiri
aliko
alikoholi
alikopwa
alikosa
alikozaliwa
alikua
alikubali
alikubaliwa
alikufa
alikuja
alikulia
alikumbuka
alikusanya
alikuta
alikutana
alikuwa
alikuwepo
alikuza
alikwenda
alilazimika
alilazimishwa
alilelewa
alilenga
alileta
alimaliza
alimchagua
alimchukua
alimfanya
alimfuata
alimfundisha
alimpa
alimpeleka
alimpenda
alimpiga
alimsaidia
alimshauri
alimshinda
alimshirikisha
alimsifu
alimtaja
alimtambulisha
alimtangaza
alimteua
alimtokea
alimtuma
alimuandikia
alimuita
alimuoa
alimuomba
alimwambia
alimwita
alimwoa
alimwomba
alimzaa
aling
alinunua
alinusurika
alinyongwa
alioa
aliogopa
aliokuwa
aliolewa
aliomba
aliombwa
aliona
alionao
aliondoka
aliondolewa
alionekana
aliongeza
aliongokea
aliongoza
aliongozana
aliongozwa
alionyesha
alionyeshwa
aliorodheshwa
alipambana
alipanda
alipandishwa
alipanga
alipanua
alipaswa
alipata
alipatikana
alipatwa
alipelekwa
alipenda
alipendekeza
alipendelea
alipendezwa
alipewa
alipiga
alipigana
alipigania
alipigwa
alipinduliwa
alipinga
alipingwa
alipita
alipitia
alipo
alipoaga
alipoamua
alipoanza
alipoanzisha
alipochaguliwa
alipochukua
alipoendelea
alipofanya
alipofariki
alipofika
alipofikia
alipogundua
alipohamia
alipohitimu
alipoingia
alipoishi
alipojaribu
alipojiunga
alipojiuzulu
alipokaa
alipokamatwa
alipokataa
alipokea
alipokewa
alipokua
alipokufa
alipokuja
alipokutana
alipokuwa
alipokwenda
alipomaliza
alipoona
alipoondoka
alipopata
alipopewa
aliporudi
aliposikia
aliposoma
alipostaafu
alipotangazwa
alipotembelea
alipoteuliwa
alipoteza
alipotoa
alipotoka
alipouawa
alipoulizwa
alipozaliwa
alirejea
alirekebisha
alirekodi
aliripoti
aliripotiwa
alirithi
alirudi
alirudia
alirudisha
alirudishwa
aliruhusiwa
aliruhusu
alisababisha
alisafiri
alisaidia
alisaini
alisainiwa
alisajiliwa
alisema
alishambulia
alishambuliwa
alishawahi
alishika
alishikilia
alishinda
alishindana
alishindwa
alishiriki
alishirikiana
alishirikishwa
alishtakiwa
alishughulikia
alishuhudia
alisifiwa
alisikia
alisikiliza
alisimama
alisimamia
alisimulia
alisisitiza
alisoma
alisomea
alison
alistaafu
alitabiri
alitafsiri
alitafuta
alitaja
alitajwa
alitaka
alitakiwa
alitamani
alitambua
alitambulishwa
alitambuliwa
alitamka
alitangaza
alitangazwa
alitawala
alitawazwa
alitayarisha
aliteka
alitekwa
alitembelea
alitengeneza
aliteswa
alitetea
aliteua
aliteuliwa
alithibitisha
alitia
alitiwa
alitoa
alitoka
alitokea
alitolewa
alitoroka
alituma
alitumbuiza
alitumia
alitumikia
alitumwa
alitunga
alitunukiwa
alitupwa
alituzwa
alitwaa
aliuawa
aliugua
aliuliza
aliumba
aliunda
aliunga
aliungana
aliunganisha
aliuza
aliuzwa
alivaa
alivamia
alive
alivuka
alivumbua
alivunja
alivutiwa
alivyo
alivyoandika
alivyofanya
alivyokuwa
alivyosema
alivyotaka
aliwaambia
aliwaandikia
aliwahi
aliwaita
aliwakaribishwa
aliwakilisha
aliwapa
aliwashinda
aliwasili
aliwasiliana
aliwasilisha
aliwaunganisha
aliweka
aliwekwa
aliweza
aliye
aliyeambukizwa
aliyeandika
aliyeanzisha
aliyebobea
aliyebuni
aliyechaguliwa
aliyecheza
aliyeendelea
aliyefanikiwa
aliyefanya
aliyefariki
aliyefaulu
aliyefia
aliyefika
aliyefuata
aliyehamia
aliyehusika
aliyeishi
aliyeitwa
aliyejaribu
aliyejenga
aliyejiunga
aliyejulikana
aliyekaa
aliyekomaa
aliyekua
aliyekufa
aliyekuja
aliyekuwa
aliyemfuata
aliyeolewa
aliyeongoza
aliyepata
aliyepewa
aliyepigwa
aliyepinga
aliyepita
aliyepokea
aliyeshika
aliyeshinda
aliyeshiriki
aliyestaafu
aliyetaka
aliyetawala
aliyeteuliwa
aliyetoa
aliyetoka
aliyetumia
aliyetumwa
aliyeuawa
aliyewahi
aliyeweza
aliyezaliwa
aliyofanya
aliyoianzisha
aliyoigiza
aliyoipata
aliyokuwa
aliyonayo
aliyopata
aliyopewa
aliyoyapata
aliyu
alizaa
alizaliwa
alizeti
alizidi
alizikwa
alizindua
alizocheza
alizokuwa
alizowahi
alizunguka
alizungumza
aljazeera
aljeria
alkali
all
alla
allafrica
allah
allan
alle
allen
allergy
allgemeine
alliance
allianz
allied
allison
allmovie
allmusic
ally
alma
almaarufu
almagest
almagesti
almanac
almanacco
almas
almasi
almeida
almere
almost
aloe
aloi
alois
alone
along
alonso
alonzo
alopeshia
aloysius
alpes
alpha
alphabet
alphabetical
alphonse
alpi
alpine
alps
already
alright
als
alsace
also
alt
alta
altai
altar
altare
alter
alternative
although
althusser
altman
alto
alton
alumini
alumni
alvares
alvarez
alves
alvin
always
aly
alzeima
alzheimer
am
ama
amaa
amadeus
amadou
aman
amana
amanda
amani
amanpour
amapiano
amar
amarna
amasya
amateur
amato
amazing
amazon
amazonas
amba
ambacho
ambae
ambako
ambalo
ambamo
ambao
ambapo
ambassador
ambassadors
ambavyo
ambaye
ambayo
ambazo
ambedkar
amber
ambo
ambon
amboseli
ambrose
ambrosi
ambukizo
ambuya
ame
ameacha
ameandika
ameanza
ameanzisha
amechaguliwa
amechangia
amechapisha
amecheza
amechezea
amechukua
amechunguza
ameendelea
amefanikiwa
amefanya
amefariki
amefundisha
amefungwa
amehitimu
amehudumu
amehusika
ameichezea
ameigiza
ameimba
ameir
ameishi
amejiunga
amejulikana
amekaa
amekamata
ameketi
amekua
amekufa
amekuja
amekuwa
amekwisha
amelala
amelia
amemaliza
amemuoa
amemwoa
amen
ameoa
ameolewa
ameonekana
ameongoza
ameonyesha
amepata
amepewa
amepokea
amerekodi
america
american
americana
americancatholic
americans
americanus
americas
amerigo
amerika
amerudi
ames
amesainiwa
amesajiliwa
amesema
ameshika
ameshikilia
ameshinda
ameshiriki
ameshirikiana
ameshirikishwa
amesimama
amesoma
ametajwa
ametambuliwa
ametangaza
ametayarisha
ameteuliwa
ametoa
ametoka
ametokea
ametumia
ametunga
ameunda
ameuza
amevaa
amewahi
amewakilisha
ameweka
ameweza
amezaliwa
amfetamine
amfetamini
amfibia
amhara
amherst
ami
amid
amiens
amietophrynus
amiloidi
amin
amina
amini
amino
amir
amiri
amistad
ammad
amman
ammophila
amnesty
amon
among
amoni
amonia
amor
amore
amos
amosi
amour
amp
ampe
ampelius
amphetamine
amprofon
amr
amri
amsterdam
amu
amua
amun
amur
amuria
amuru
amuzi
amvca
amy
amyloid
an
ana
anaamini
anaamua
anaandika
anaanza
anabaki
anacheza
anachezea
anachotaka
anachukua
anachukuliwa
anadai
anaelekea
anaeleza
anaelezea
anaenda
anaendelea
anaendesha
anafaa
anafahamika
anafanya
anafika
anafikia
anafuata
anafundisha
anagundua
anahesabiwa
anaheshimiwa
anahisi
anahitaji
anahudumu
anahusika
anahusishwa
anaichezea
anaimba
anaingia
anaishi
anaitwa
anajaribu
anajifunza
anajikuta
anajua
anajulikana
anakaa
anakataa
anakkale
anakubali
anakuja
anakula
anakumbuka
anakumbukwa
anakutana
anakuwa
analecta
analog
analojia
analysis
analytical
anam
anamalundi
anambra
anamiliki
anampa
anampenda
anamwambia
anania
anaomba
anaona
anaondoka
anaonekana
anaongea
anaongoza
anaonyesha
anapaswa
anapata
anapenda
anapendelea
anapewa
anaphylaxis
anapiga
anapokea
anapokuwa
anarudi
anas
anasa
anasema
anasemekana
anashika
anashikilia
anashindwa
anashiriki
anasifika
anasifiwa
anasimulia
anasisitiza
anasoma
anastahili
anastasi
anastasia
anastasio
anastasius
anatafuta
anataja
anatajwa
anataka
anatakiwa
anatambulika
anatawala
anatazamwa
anatembea
anatoa
anatoka
anatokea
anatolia
anatomia
anatomy
anatumia
anauawa
anavutiwa
anawakilisha
anaweka
anaweza
anaye
anayecheza
anayechezea
anayefahamika
anayefanya
anayeheshimiwa
anayehudumu
anayehusika
anayeichezea
anayeishi
anayeitwa
anayejulikana
anayekumbukwa
anayeongoza
anayependa
anayesimamia
anayetajwa
anayetaka
anayetoa
anayetumia
anayewakilisha
anayeweza
anayo
anayopewa
anazidi
anazungumza
anazungumzia
anc
ancestors
ancestry
anchieta
anchor
ancien
ancienne
ancient
ancona
and
anda
andalus
andalusia
andaman
andean
anders
andersen
anderson
andes
andhra
andika
andiko
andishi
ando
andorra
andrade
andre
andrea
andreas
andrei
andrew
andrews
andrey
android
androjeni
andromeda
andy
anemia
ang
anga
angahewa
angakaskazi
angakusi
angalau
angalia
angani
angavu
ange
angekuwa
angel
angela
angeles
angelico
angelina
angelo
angels
angelus
anger
angers
angeweza
angkor
angle
anglican
anglikana
anglo
angola
angolan
angolensis
angry
anguko
angus
anhalt
anhinga
ani
ania
anima
animal
animals
animated
animation
anime
aniston
anita
anjela
anjouan
ankara
anko
ankole
ankırı
anlıurfa
ann
anna
annales
annals
annan
anne
anni
annie
anniversary
anno
annotated
announce
announced
announcement
announces
annu
annual
annuario
annurev
ano
anofelesi
anonymous
anopheles
another
ans
ansd
anselm
anser
answer
answers
ant
anta
antakitiki
antaktika
antaktiki
antalya
antananarivo
antarctic
ante
antelope
antena
anthem
anthology
anthony
anthropological
anthropology
anthropolojia
anthus
anti
antibiotic
antibiotics
antibiotiki
antibodi
antidepressant
antidepressants
antigua
antijeni
antili
antinoe
antinoo
antioch
antiokia
antioko
antipapa
antique
antiquities
antiquity
antiretroviral
anto
antoine
antoinette
anton
antoni
antonia
antonino
antonio
antonius
antony
anullinus
anuwai
anwani
anwar
anxiety
any
anya
anyi
anyiro
anything
anytime
anywa
anza
ao
aol
aondoke
aone
aosta
aota
ap
apa
apac
apalis
apart
apartheid
apate
ape
apenini
apewe
aphrodite
api
apis
aplonis
apo
apocalypse
apocrypha
apollinaris
apollo
apolo
apoloni
apophthegmata
apostle
apostles
apostolic
app
apparitions
appeal
appear
appeared
appears
appendix
appiah
appietus
apple
appleton
application
applications
applied
applying
appointed
appointment
appoints
approach
approaches
appropriate
approved
apps
apr
apre
april
aprili
aps
apus
aq
aquila
aquileia
aquinas
aquino
aquitaine
ar
ara
arab
arabe
arabi
arabia
arabian
arabic
arabs
arabu
arafat
aragon
aral
arap
arbor
arc
arcadia
arch
archaea
archaeological
archaeology
archaic
archbishop
archdiocese
arche
archeology
archer
archibald
archidioecesis
archimedes
archipelago
architects
architectural
architecture
archiv
archive
archived
archives
archuleta
arctic
ard
ardea
ardhi
ardhini
are
area
areas
arena
ares
aretha
argentina
argentine
argo
argument
argus
ari
aria
ariana
ariel
aries
ario
aristoteli
aristotle
arithmetic
arithropodi
arius
arizona
ark
arkansas
arles
arlington
arm
armadillo
armadilo
armand
arme
armed
armenia
armenian
arms
armstrong
army
arne
arno
arnold
aro
arobaini
aron
around
arpanet
arrangements
arranger
arras
arrest
arrested
arrive
arrow
ars
arse
arsenal
art
arte
arthroleptis
arthur
article
articles
artificial
artist
artiste
artistes
artists
arts
artvin
arua
aruba
arubaini
arudi
arun
arusha
arusi
as
asa
asadi
asali
asante
asasi
ascap
ascension
asd
ash
asha
ashanti
ashe
asher
ashes
ashgate
ashiki
ashinde
ashley
ashton
ashuru
ashy
asia
asian
asiatic
asiatiki
asidi
asie
asije
asili
asilia
asilimia
asimov
asin
asiwe
asiweze
asiye
asiyejulikana
asiyekuwa
asizi
ask
askari
asked
askofu
aslay
asm
asmara
asp
aspects
aspx
ass
assad
assam
assault
assemblies
assembly
assengaonline
assessing
assessment
assets
assia
assisi
assistance
assistant
assn
assoc
associated
associates
association
associations
assosa
assumption
assyria
assyrian
ast
astashahada
asteroidi
asthma
aston
astronomia
astronomical
astronomy
astrophysical
astrophysics
asubuhi
aswan
asylum
at
ata
atacama
atafanya
ataishi
atakayekuwa
atakuwa
atalanta
atanasi
atapata
atarudi
atatu
ataweza
atbarah
aten
ateri
athanasius
athari
athena
athene
athenian
athens
athi
athira
athlete
athletes
athletic
athletics
athroskopia
athumani
ati
atieno
atiria
atiya
atkins
atkinson
atlanta
atlantic
atlantiki
atlantique
atlantis
atlas
atlasi
atle
atletico
atmospheric
atoe
atolli
atomi
atomia
atomic
atomu
atp
atractaspis
atta
attack
attacks
attention
atti
attila
attitudes
attobrou
attorney
attractions
attributed
attwater
au
aubin
aubrey
auckland
auctoritate
audi
audience
audio
audrey
auf
aug
augsburg
august
augusta
auguste
augustin
augustine
augustini
augustino
augusto
augustus
auley
auplopus
aura
aurea
aureli
aurelius
aureus
aurora
aus
auschwitz
austen
austin
australasian
australia
australian
australis
austria
austrian
authentic
author
authorities
authority
authors
autism
auto
autobiography
automatically
automatisering
autonomous
autres
autumn
autun
auvergne
aux
auxerre
av
available
avalanche
avant
avatar
ave
avec
avengers
aventure
avenue
average
avery
aviation
avignon
avila
aviv
avon
avril
aw
awa
awach
awad
awali
awamu
award
awarded
awards
awareness
awash
away
awe
aweze
awori
axel
axis
axum
ay
aya
ayalandi
ayat
ayatollah
aydın
ayman
ayo
ayoni
ayubu
az
azad
azam
azania
azerbaijan
azhar
azikiwe
azimio
aziz
azizi
azma
azori
azteki
azur
azure
b
ba
baa
baada
baadae
baadaye
baadhi
baali
bab
baba
babake
babar
babati
babbler
babeli
babu
babuloni
baby
babyface
babylon
babylonian
bach
bachchan
bachelor
bacillus
back
backed
background
backstreet
bacon
bacteria
bacterial
bad
bada
badae
badala
baden
badger
badilifu
badiliko
bado
baekje
baez
bafana
baffin
bafing
bafta
bafu
bag
bagamoyo
baghdad
bagirmi
bagnoregio
bagoue
bags
bah
baha
bahamas
bahari
baharia
baharini
bahasha
bahati
bahi
bahia
bahn
bahr
bahrain
bahri
baht
bai
baikal
bailey
baina
bainifu
baiolojia
baisikeli
baiskeli
baja
bajeti
bak
baka
bakari
baker
bakhita
bakita
bakr
bakteria
bakuli
bal
bala
balaa
balabala
balance
balbu
baldwin
bale
balfour
bali
balkan
balkani
balkans
ball
ballad
ballantine
ballet
ballon
balotelli
balozi
baltic
baltiki
baltimore
balıkesir
bam
bamako
bamba
bamberg
bambi
bamboo
bamburi
ban
bana
banana
banca
banco
band
banda
bandari
bandarini
banded
bandia
bang
banga
bangalore
bangi
bangili
bangkok
bangla
bangladesh
bango
bangolo
bangui
bani
banj
banjul
bank
banka
banking
banks
banque
bantam
bantu
bantustan
banu
bao
baobab
baobonye
bapa
baptism
baptist
baptista
baptiste
bar
bara
barabara
barabarani
barack
barafu
barafuto
baragumu
baraka
barakoa
barani
baraza
barbados
barbara
barbarian
barber
barbera
barbet
barbra
barbuda
barcelona
barclay
barclays
bare
bargash
barghash
bari
bariadi
baridi
baringo
barka
barker
barlow
barn
barnaba
barnabas
barnard
barnes
barnett
baro
baroda
barolong
baron
barr
barra
barraba
barre
barred
barrett
barrier
barrow
barry
bart
barth
bartholomew
bartlett
bartolome
bartolomeo
barton
barua
baruch
baruku
barukudk
baruti
bas
basata
base
baseball
based
basel
bashir
basi
basic
basil
basile
basili
basilica
basilika
basimba
basin
basis
basket
basketball
basque
basra
bass
bassam
basse
bassey
bastard
bastian
bastida
bastola
basu
bat
bata
bates
bath
bathynomus
bati
batis
batista
batman
battista
battle
battles
batto
battuta
bau
bauer
bauhaus
baumann
bavaria
bawa
bawaba
baxter
bay
baya
bayan
bayana
bayar
baye
bayelsa
bayer
bayern
bayt
bazili
bb
bbc
bc
bce
bd
be
bea
beach
beacon
beads
beaked
beaming
bean
bear
beard
bearded
beast
beat
beata
beati
beatification
beatles
beato
beatrice
beats
beatz
beaufort
beautiful
beauty
beauveria
bebe
bec
became
because
beck
becker
beckham
becky
become
becomes
becoming
bed
beda
bede
bedford
bee
beeman
been
beer
bees
beethoven
before
beg
bega
began
begin
beginners
beginning
beginnings
begins
behalf
behavior
behavioral
behaviour
behind
bei
beijing
being
beira
beirut
beit
beitra
beki
bel
bela
belarus
belarusi
belfast
belgian
belgium
belgrade
belief
beliefs
believe
believed
belinda
belize
belknap
bell
bella
bellanaija
belle
bellied
bello
bells
belmont
belo
belong
beloved
below
belt
ben
benchi
bend
bendera
bendi
bene
benedict
benedictine
benedikto
benefits
benetti
benevento
benfica
bengal
bengali
benghazi
bengue
benguela
beni
benignus
benin
benito
benjamin
benki
bennet
bennett
benny
benoni
benson
bent
bentley
benton
benue
benyamini
benz
benzodiazepini
beowulf
ber
berardo
berber
berbera
berectina
berenike
beres
berg
bergamo
bergen
berger
bergman
beri
bering
berita
berkeley
berlin
berlioz
bermuda
bern
bernadette
bernard
bernardino
bernardo
bernd
bernhard
bernie
bernstein
berry
bersetzt
bertha
bertram
bertrand
bes
besanc
beseni
besi
besiboli
bessie
best
bet
beta
beteri
beth
bethlehem
bethlehemu
beti
betri
better
bettie
betty
between
beukes
beverley
beverly
beyonce
beyond
bf
bg
bh
bhopal
bhoti
bhrt
bhutan
bi
bia
biafra
bianca
bianchi
biankouma
biashara
bibcode
bibi
bibiarusi
bible
biblia
biblical
bibliography
biblioteca
bibliothe
bibliotheca
bichi
bicolor
bid
biden
bidhaa
bidii
bie
bieber
bien
biennale
big
bigger
biggest
biharamulo
bikira
biko
bila
bilbao
bilecik
bilingual
bilioni
bill
billboard
billboardurlbyname
billed
billie
billings
billion
bills
billy
bima
bimbo
bin
binadamu
binafsi
binamu
bing
bingen
bingo
bingwa
bint
binti
bio
bioanuwai
biochemistry
biodiversity
biografia
biographical
biographie
biographies
biographisch
biography
bioidentical
biokemia
biol
biological
biologie
biology
biolojia
biomasi
biomedical
bios
biosphere
bipolar
bir
bird
birdlife
birdman
birds
birisi
birmingham
birth
birthday
bis
bisau
biscuits
bishop
bishops
biskuti
bismarck
bison
bissau
bissou
bit
bitch
biti
bitinia
bitis
bitlis
bitstream
bitter
bittern
biya
biz
bizanti
bj
bjo
bk
bl
black
blackburn
blacks
blackwell
blade
blair
blaise
blake
blame
blanc
blanche
blanchett
blanco
blandina
blantyre
ble
bleach
bleckmann
bless
blessed
blessing
bleu
blige
blind
blixen
bloch
block
blockbuster
blockers
bloemfontein
blog
blogs
blogspot
blogu
blole
blood
bloom
bloomberg
bloomington
bloomsbury
blow
blu
blue
blues
bluu
bly
bm
bmg
bmi
bmj
bmr
bn
bnf
bo
boa
boakye
board
boas
boat
boateng
bob
bobby
bobo
boca
bocage
bocanda
bochum
boda
bodi
bodies
body
boeing
boer
boethius
bogota
bohemia
bohr
boi
bois
bokassa
boko
bold
bole
boli
bolivar
bolivia
boll
bollywood
bologna
bolt
bolton
bolu
boma
bomb
bomba
bombay
bombo
bombomu
bomet
bomu
bon
bonaire
bonaparte
bonaventura
bonaventure
bond
bonde
bondeni
bondia
bondo
bondoukou
bone
bones
boney
bonge
bongo
bongocinema
bongouanou
bonhoeffer
boni
boniface
bonifacio
bonifacius
bonifas
bonifasi
bonn
bonnie
bonny
bono
bonus
boo
book
booker
booklet
books
booksources
boom
boone
boosie
boot
booth
bop
bor
bora
bordeaux
border
borders
borealis
borg
borges
boris
boriti
borja
born
borneo
borno
borromeo
borrow
borussia
bos
bosch
bosco
bosi
bosnia
boss
bossa
boston
bot
botania
botanical
botany
both
botha
boti
botro
botswana
bottle
bottom
bou
bouafle
bouake
boubou
boue
boulaye
boulder
boumerdassi
boumerde
bouna
bound
boundaries
boundary
boundiali
bounkani
bourges
bourgogne
bourne
boushaki
bovidae
bow
bowl
bowman
box
boxing
boy
boyd
boydell
boyer
boyfriend
boyle
boys
boyz
boz
bozzoli
bp
bpd
bpi
br
bra
brabant
brace
brachystegia
brackish
brad
bradford
bradha
bradley
bradshaw
bradt
brady
braga
bragg
brahe
brahim
brain
bran
branch
brand
brandenburg
brandi
brando
brandon
brandt
brandy
branham
brashi
brasil
brat
bratislava
braun
brave
bravo
braxton
brazil
brazili
brazilian
brazza
brazzaville
bre
bread
break
breakfast
breaking
breaks
breast
breasted
breathe
breki
bremen
brenda
brendan
brennan
brenner
brent
brepols
brescia
bretagne
breton
brett
breviarium
breviary
brew
brewer
breweries
brewing
brewster
brian
brick
bride
bridge
bridges
bridget
brie
brief
brien
briggs
bright
brighton
brigitte
brill
bring
bringing
brings
brink
brisbane
bristol
brit
britain
britania
britannica
briteni
british
britney
britt
brittany
britten
broad
broadcast
broadcasting
broadway
brock
broke
broken
bromwich
bronson
bronx
bronze
bronzi
brook
brooke
brooklyn
brooks
bros
brosnan
brother
brotherhood
brothers
brought
browed
brown
browne
browns
browser
bru
bruce
brunei
bruno
brunswick
brush
brussels
bruxelles
bryan
bryant
brynner
bs
bsc
bss
bt
bu
buabua
bubanza
bubo
bubu
buchanan
buchner
buck
buckley
bud
budapest
buddha
buddhism
buddhist
buddy
budget
budi
bududa
buenos
buff
buffalo
buffy
buganda
bugiri
bugomola
bugs
buhari
buhigwe
buhweju
bui
buibui
buikwe
build
building
buildings
built
bujumbura
bukavu
bukedea
bukhari
bukini
bukoba
bukombe
buku
bulambuli
bulawayo
bulbul
bulgaria
bulgarian
buliisa
bull
bullard
bullet
bulletin
bullock
bulls
buluu
bumbuli
bunda
bundesliga
bundestag
bundi
bundibugyo
bundo
bunduki
bunge
bungeni
bungo
bungoma
bungu
buni
bunifu
bunilizi
bunny
bunson
bunting
bunyan
bunyoro
bunzi
bura
burchell
burden
burdur
bure
bureau
burger
burgess
burgos
burgundy
burial
buried
burj
burke
burkina
burkinafaso
burlington
burma
burmese
burn
burna
burner
burning
burnley
burns
burrowing
burrows
bursa
burton
buru
burudani
burundi
bururi
bury
bus
busara
busby
busega
bush
bushenyi
busia
business
bust
busta
bustani
bustard
but
butaleja
buteo
buti
butiama
butler
butterfly
buttonquail
butu
buu
buvuma
buy
buzz
buzzard
buzzfeed
bv
bw
bwana
bwawa
bweha
bweni
bwiru
by
byanyima
byrne
byron
byzacena
byzantine
byzantium
c
ca
cabinda
cabinet
cable
cabo
cabot
cabral
cabrini
caecilia
caecilian
caecilianus
caesar
caesarea
caesariensis
caesarius
caf
cafe
cage
cagliari
cahiers
cain
caine
cairo
cal
calabar
calabria
calais
calculator
calcutta
calendar
calgary
cali
calidris
calif
california
call
called
calling
callixtus
calls
calvin
cam
camara
cambodia
cambridge
came
camel
camelopardalis
camera
camerapix
cameron
cameroon
cameroun
camille
camp
campaign
campania
campbell
camping
campion
campo
camponotus
camps
campus
can
canaan
canada
canadian
canal
canaria
canary
cancer
cancik
candidate
candidates
candy
cangjie
canis
cankuzo
cannabis
cannes
cannon
cannot
canon
canonization
canons
canonum
canopus
canter
canterbury
canton
canyon
cao
cap
capacity
cape
capella
capensis
capillas
capital
capitalism
capitol
capo
capone
capped
cappella
caprimulgus
caprivi
captain
capua
car
caracara
caraffa
carbon
card
cardiff
cardinal
cardinalfish
cardinals
cardiology
cardiovascular
cards
care
career
carey
cargo
cari
caribbean
carina
carl
carla
carling
carlo
carlos
carlson
carlsson
carlton
carmel
carmelite
carmen
carnegie
carol
carole
carolina
caroline
carolyn
carpenter
carpet
carpodacus
carr
carrie
carrillo
carroll
carry
carrying
cars
carson
cartagena
carter
carthage
cartier
cartoon
carvalho
cary
casa
casablanca
casale
casas
casbah
cascades
case
cases
casey
cash
casino
casper
caspian
cass
cassian
cassianus
cassidy
cassini
cast
castello
castillo
castle
castor
castro
casts
cat
catalina
catalog
catalogue
catalonia
catania
catch
cate
catechism
category
caterina
catfish
cathedral
cathen
catherine
catholic
catholicae
catholicism
catholics
catholicsaints
cato
cats
cattle
cause
caused
causes
cava
cavally
cave
cavendish
caxton
cayman
cb
cbc
cbd
cbe
cbn
cbold
cbs
cc
cce
ccel
ccm
cd
cdc
cdm
cdo
cds
cdu
ce
ceb
cebuano
cecafa
cecil
cecilia
cef
celano
celebrate
celebrated
celebrates
celebrating
celebration
celebrities
celebrity
celeste
celestial
celestine
celestino
celia
celina
celine
cell
cells
cellular
celta
celtic
cembre
cemetery
cena
cengage
censimenti
census
cent
centauri
centenario
centenary
center
centers
central
centrale
centre
centro
centropus
centuries
century
ceo
cephalophus
cercopithecus
ceremony
ceres
cerf
cerro
certain
certificate
certification
certifications
certified
cervantes
ceuta
ceylon
cf
cfm
cfr
cg
cgi
ch
cha
chaa
chaabi
chabad
chacha
chachage
chache
chachu
chad
chadema
chadi
chadwick
chaetura
chafu
chafya
chaguo
chaguzi
chai
chain
chair
chairman
chaji
chaka
chake
chako
chakula
chale
chalinze
challenge
challenges
chama
chamayai
chamber
chamberlain
chambers
champagne
champaign
champion
champions
championship
championships
chamwino
chan
chance
chancellor
chances
chandra
chaneli
chang
changa
changamani
changamano
changamoto
changarawe
change
changed
changes
changing
changu
changula
chanjo
channel
chansela
chansella
chanson
chant
chantal
chante
chanya
chanzo
chao
chaos
chapa
chapati
chapel
chapeli
chapisho
chaplin
chapman
chapter
chapters
char
character
characteristics
characters
charadrius
charge
charged
charges
chari
charismatic
charity
charlemagne
charles
charleston
charley
charlie
charlotte
charlton
charrie
chart
charter
chartered
chartres
charts
chase
chasez
chastain
chat
chata
chatham
chati
chatimwamba
chato
chatu
chavua
chawa
che
cheche
chechele
check
cheeked
cheese
cheikh
chekechea
chekoslovakia
chekundu
chelsea
chelyabinsk
chem
chemba
chembamba
chembe
chembechembe
chembeuzi
chemchemi
chemical
chemistry
chen
chenene
cheng
chennai
chenye
chenyewe
cheo
cherang
cherangany
cherero
cherry
chess
chest
chested
chester
chestnut
cheti
chetu
cheupe
cheusi
chez
chi
chiang
chiapas
chiarini
chiba
chibu
chicago
chichester
chicken
chico
chief
chiefs
chiesa
chifu
chihuahua
child
childhood
children
chile
chimbuko
chimpanzee
chimurenga
chin
china
chinese
chini
chinichini
chinua
chioma
chios
chipmunks
chips
chipsi
chipukizi
chiriku
chisholm
chloe
cho
chochea
chochote
chocolate
choe
choi
choice
choir
chokaa
chokoleti
chokowe
chole
cholera
choma
chombo
chong
chonga
chonge
chongqing
choo
chopin
chopra
choral
chororo
chosen
chotara
chote
chozi
chr
chre
chris
christ
christendom
christi
christiaan
christian
christiana
christianae
christiane
christianity
christianorum
christians
christie
christina
christine
christmas
christology
christoph
christophe
christopher
chrome
chromosome
chronic
chronicle
chronicles
chronicon
chronological
chronology
chrysostom
chu
chuchu
chuchunge
chuck
chui
chujio
chuki
chukua
chuma
chumba
chumbani
chumvi
chun
chung
chungu
chunguzi
chungwa
chunusi
chunya
chuo
chuoni
chupa
chura
church
churches
churchill
ci
cia
ciara
cibitoke
cid
cie
cigarette
cincinnati
cinderella
cindy
cine
cinema
cinematic
cinerea
cinnamon
cinnyris
cio
circa
circle
circuit
circulation
circumcision
circus
cistercian
cisticola
citation
cite
citeaux
cited
cites
citibank
cities
citing
citizen
citizens
citizenship
citrus
citta
city
citypopulation
ciudad
civic
civil
civile
civilisation
civilization
civilizations
cj
ck
cl
claim
claims
claire
clairvaux
clan
clara
clare
claremont
clarence
clarendon
clark
clarke
clash
class
classes
classic
classical
classics
classification
claude
claudia
claudio
claudius
claus
clautus
claver
clawed
clay
clayton
cle
clean
clear
cleef
clegg
clement
cleopatra
clergy
clerk
clermont
cleveland
click
cliff
clifford
cliffs
climate
climbing
clin
clinic
clinical
clinics
clint
clinton
clio
clip
clipe
clitherow
clive
clock
close
closed
closer
closet
closing
cloth
clothes
clothing
cloud
clouds
club
clubs
cluny
clyde
cm
cmaj
cmn
cmr
cms
cn
cnbc
cndd
cnewa
cnn
cnrs
co
coach
coal
coalition
coast
coastal
coat
cobb
cobra
coca
cocaine
cochrane
coco
coconut
cocos
code
codes
codex
coetzee
coffee
coffin
cognitive
cogo
cohen
cohort
coimbra
coke
col
cola
colby
cold
cole
coleman
coleoptera
coli
colima
colin
coll
collaboration
collaborative
collaborators
collapse
collared
collected
collection
collections
collective
collectivite
colleen
college
colleges
collegeville
collins
colloquial
colo
colobus
cologne
colombia
colombo
colonel
colonia
colonial
colonialism
colonies
colonnade
colony
color
colorado
colors
colossians
colour
coloured
columba
columbia
columbus
column
com
combat
combination
combined
combs
combustion
come
comedian
comedy
comes
comesa
comfort
comic
comics
coming
command
commander
comment
commentaries
commentary
comments
commerce
commercial
commission
commissioner
committee
common
commons
commonwealth
commune
communes
communication
communications
communion
communism
communist
communities
community
como
comoe
comoro
comoros
companies
companion
companions
company
comparative
compare
comparison
compass
compendium
competition
compilation
compiled
complete
completed
completely
complex
composed
composer
composers
composition
compostela
compound
comprehensive
comptia
compton
computational
computer
computing
comte
con
conakry
concept
conception
concepts
concerning
concerns
concert
concerto
concilii
concise
concord
concordia
concrete
conde
condition
conditions
confederation
confederations
conference
conferences
confession
confessions
confessor
confirmed
confirms
conflict
confucius
confusion
congar
congo
congolese
congregation
congress
congressional
conn
connect
connecticut
connection
connections
connor
conquest
conrad
conscience
consciousness
conseil
consensus
consequences
conservation
conservative
considerations
considered
consortium
conspiracy
constable
constance
constant
constantine
constantinople
constantius
constellation
constellations
constituency
constitution
constitutional
construction
consultation
consulte
consulting
consumer
consumption
contact
containing
contains
conte
contemporary
content
contents
contenus
contest
context
contexts
continent
continental
continents
continue
continues
continuum
contra
contraception
contraceptive
contraceptives
contract
contre
contribution
contributions
contributors
control
controlled
controversy
convent
convention
conversation
conversations
conversion
conway
conwy
cook
cooke
cooking
cool
coolio
cooper
cooperation
cooperative
coordinates
coordination
coot
cop
copa
copd
cope
copenhagen
copernicus
copies
coppa
copper
cops
copte
coptic
copy
copyright
cor
coracina
coral
cordero
cordoba
core
corey
corinne
corinthians
cork
corleone
cormega
cormorant
corn
cornelius
cornell
corner
cornish
cornwall
corona
coronavirus
corp
corporate
corporation
corps
corpus
corpussco
corrales
correspondence
correspondent
corruption
corsica
corte
cortes
cortez
cortona
corvus
cosafa
cosmas
cosmic
cosmology
cosmopolitan
cosmos
cost
costa
costs
cote
cotonou
cotton
coua
coucal
cough
could
council
councils
count
counter
countries
country
county
countytrak
coup
coupe
couple
couples
courage
courier
course
court
courtney
courts
cousteau
covenant
cover
coverage
covering
covers
covid
cow
coward
cowboy
cox
cp
cr
crab
cradle
craft
craig
crake
crane
cranes
cranmer
crash
crater
craven
crawford
crazy
crc
cre
cream
create
created
creating
creation
creative
creator
credit
credits
creed
creek
cremona
creole
crescent
crested
crestwood
crete
crew
cri
cria
crick
cricket
crime
crimea
crimean
crimes
criminal
crimson
crioulo
crisis
cristal
cristiano
cristina
cristo
cristobal
crit
criteria
crithagra
critic
critical
criticism
critics
critique
croatia
crocidura
crocodile
crocodylus
croix
croods
croome
crosby
cross
crossing
crow
crowe
crown
crowned
crowther
cruel
cruise
crusade
cruz
cry
crystal
cs
css
ct
cte
ctu
cu
cuando
cuanza
cuba
cuban
cube
cuckoo
cuckooshrike
cue
cuf
cuisine
cullen
cult
culto
cults
cultura
cultural
culture
cultures
cum
cummings
cunha
cunningham
cup
cura
curac
curator
cure
curie
curious
curr
current
currey
curriculum
curry
curse
curtis
cushing
custom
customs
cut
cuthbert
cutting
cv
cw
cx
cy
cycle
cygnus
cylinder
cymbopogon
cynthia
cyornis
cypress
cyprian
cyprus
cyril
cyrus
czar
czech
cœur
d
da
daa
dabakala
dabo
dabou
dac
dacb
dacianus
dad
dada
dadake
daddy
dae
daftari
dafu
dag
dagaa
dagoretti
dahomey
dai
daigo
daily
dailynews
daima
daimler
daisy
dajaja
dakar
dakika
dakota
daktari
dal
dalai
dale
daleu
dalili
dallas
dalle
dallet
dalmatia
daloa
dalton
daly
dam
dama
damage
damara
damas
damascus
damasko
damaso
damasus
damba
dame
dameski
damian
damiani
damiano
damien
damietta
damilola
damon
damu
dan
dana
danane
dance
dancehall
dancing
dandora
dane
dang
danger
dangerous
dangote
daniel
daniela
daniele
danieli
danielle
daniels
danish
danki
danny
dans
dansi
dante
danube
danubi
danzig
daoud
daoukro
dar
daraja
darasa
darasani
daressalaam
darfur
dari
dario
darius
dark
darkness
darkovibes
darling
darmstadt
daro
darren
darubini
darwin
darya
das
dash
dashiki
dat
data
database
date
dated
dates
dating
dativa
dativo
dativus
dato
dau
daudi
daughter
daughters
dave
david
davido
davidson
davies
davis
dawa
dawamfadhaiko
dawati
dawn
dawson
day
dayosisi
days
dayton
daz
db
dc
dcma
dd
ddc
ddt
de
deacon
dead
deadline
deadly
deal
dean
dear
death
deaths
debate
debbie
debe
deborah
debre
debt
debut
dec
decade
decades
december
decision
decisions
decius
declaration
declared
decline
decree
decreto
dedicated
dee
deeds
deep
deepak
deer
def
defao
default
defeat
defence
defense
deficiency
deficit
defined
defining
definition
definitions
definitive
degli
degree
degrees
dei
deitsch
del
delaney
delaware
delgado
delhi
delivered
dell
della
delle
delphinus
delta
dem
demand
dementia
demetrius
demi
demo
democracy
democratic
demografia
demographic
demokrasia
demons
demosthenes
den
dendera
deng
dengi
dengue
deni
denis
denise
denizli
denmark
dennis
densi
densiti
density
dent
dental
denver
deo
deogratias
deon
department
departments
dependence
depo
depression
dept
depth
deputy
der
derby
derek
dereva
derg
derived
dermatol
dermatology
derrick
des
descartes
descent
described
description
descriptive
desemba
desert
desh
design
designer
designs
desire
desk
desmond
desperate
despite
destination
destiny
destruction
desturi
det
detail
detailed
details
detection
detective
determination
detroit
dettaglio
deus
deuterokanoni
deuteronomy
deutsch
deutsche
deutschen
deutscher
deutsches
deutschland
deux
dev
developed
developing
development
developmental
developments
devi
devil
devils
devon
devoted
devotion
dewey
dey
df
dfb
dh
dhabi
dhabihu
dhabiti
dhahabu
dhahania
dhahiri
dhaifu
dhamana
dhambi
dhamira
dhamiri
dhana
dharau
dharma
dharura
dhati
dhehebu
dhidi
dhiki
dhima
dhoruba
dhuluma
dhumuni
di
dia
diab
diabetes
diagnosis
diagnostic
dialect
diallo
dialogue
diamond
diamonds
diana
diane
diario
diarra
diary
dias
diaspora
diaz
dibaji
dice
dick
dickinson
dicrurus
dictionaries
dictionary
dictionnaire
did
diddy
didie
didier
didn
die
died
diego
dies
diet
dieter
dietrich
dieu
difference
differences
different
differential
difficult
digest
digidigi
digital
digitized
digo
digrii
dijitali
dijiti
dijon
dik
dikteta
dil
dili
dillon
dimbokro
dimbwi
dimenshia
dimension
dimensions
dimitri
din
dina
dinger
dinh
dini
dinner
dinosauri
dio
dioce
diocese
diocesi
diocletian
diocletianus
dioecesis
dioklesyano
diokletian
dioksidi
dion
dionisi
dionisia
dionysius
dioskoro
diospyros
diploma
diplomacy
diplomasia
diplomatic
diptera
dir
dira
dire
direct
directed
direction
directions
director
directors
directory
dirisha
dirk
dirty
dis
disabilities
disability
disaster
disc
disciple
discipline
disco
discography
discogs
discourse
discourses
discover
discovered
discoveries
discovering
discovery
discusses
discussion
disease
diseases
diseli
disemba
diski
diskografia
disney
disord
disorder
disorders
display
displaystyle
dispute
dissertation
distance
distinguished
distributed
distribution
district
districts
dit
dite
dition
ditions
diva
divai
diverse
diversity
divide
divided
divina
divine
diving
divisheni
division
divisions
divo
divorce
diwani
dixon
diyarbakır
diz
dizasta
dizeli
dizionario
dizzy
dj
dje
djebar
djiboua
djibouti
djs
djuablin
dk
dknob
dkt
dl
dlamini
dm
dn
dna
do
doa
doan
dobrik
doc
docs
doctor
doctoral
doctors
doctrine
doctrines
document
documenta
documentary
documentation
documents
dodd
dodoma
doe
does
doesn
dog
dogg
doggy
dogma
dogmatic
dogmatics
dogo
dogs
doha
doherty
doi
doing
dokta
dola
dolar
dole
dollar
dollars
dolly
dolphin
dom
domain
dome
domenico
domestic
domingo
domini
dominic
dominica
dominican
dominico
dominika
dominikana
dominiko
dominique
domino
domo
domofupi
don
dona
donald
donaldson
donati
donatistas
donato
dondoo
done
dong
donge
donna
donnell
donovan
dont
doo
door
doors
dopamine
dopamini
dope
doppler
dora
dorado
dordrecht
doreen
doria
doris
dormouse
dorothy
dortmund
dos
dosari
dose
dot
douala
double
doubleday
doubt
doug
douglas
dougou
douo
dove
dover
down
downers
downey
download
downloads
downtown
doyle
dozi
dp
dq
dr
draft
dragon
drake
drakensberg
drama
dramatic
draw
drawings
drawn
drc
dre
dream
dreaming
dreams
dreamworks
dresden
dress
drew
drewes
dreyer
drift
drink
drinking
driscoll
drive
driver
dro
drongo
drop
drops
drug
drugs
drum
drums
dry
ds
dsm
dstv
du
dua
dual
duara
duaradufu
dub
dubai
dube
dublin
dubu
dubwana
duchesne
duchess
duck
dudley
dudu
dudumizi
due
duffy
duiker
duka
dukani
duke
dully
duma
dumas
dumbarton
dume
dumuzi
dunant
dunbar
duncan
dundee
dunford
dung
duni
dunia
duniani
dunn
duns
dunstan
duo
dupri
durban
durham
during
duru
dusky
dust
dutch
dutchcharts
dutton
dutu
duty
dvd
dvor
dvt
dw
dwarf
dwellings
dwight
dx
dying
dylan
dynamic
dynamics
dynamite
dynasty
dysfunction
dz
e
ea
eabl
eac
each
eagle
eagles
eala
eames
ear
eared
earl
earlier
earliest
early
earth
east
easter
eastern
eastleigh
easton
eastwood
easy
eat
eater
eating
eatv
eazi
eazy
eb
ebay
ebchecked
eberhard
ebert
ebola
ebony
ebook
ec
eccle
eccles
ecclesiae
ecclesiarum
ecclesias
ecclesiastes
ecclesiastica
ecclesiastical
echo
eck
eclipse
ecmo
eco
ecobank
ecole
ecological
ecology
economic
economics
economist
economy
ecosystem
ecowas
ecuador
ecumenical
ed
eda
eddie
eddy
edem
eden
edeni
edessa
edgar
edge
ediciones
edinburgh
edirne
edison
edit
edited
edith
edition
editions
editor
editore
editorial
editors
editrice
edizione
edizioni
edm
edmond
edmonds
edmonton
edmund
edn
edna
edo
edoardo
eds
edu
eduard
eduardo
education
educational
educazione
edvard
edward
edwards
edwin
ee
een
eerdmans
ef
efeso
effect
effective
effectiveness
effects
efficacy
effort
efforts
efya
eg
egan
egerton
egg
egidi
ego
egoli
egypt
egyptian
eh
ehir
ehr
ehrlich
ehrman
ei
eid
eight
eighteenth
eighth
eileen
ein
eine
einer
einige
einstein
eire
eisenbrauns
eisenhower
ej
ek
ekari
ekaristi
ekliptiki
eko
ekolojia
ekonomou
eksirei
ekuador
ekumeni
ekwador
el
ela
elaine
eland
elbe
eldama
elder
elderly
eldoret
ele
eleanor
elected
election
elections
electoral
electric
electrical
electricity
electronic
electronics
elegans
elegant
elekeo
elektroni
elektroniki
element
elementary
elementi
elements
elena
elephant
elephants
elevation
eleven
eleventh
elezo
elf
elfu
elgar
elgeyo
elgon
eli
elia
elias
elie
elijah
elimu
eliot
elisabeth
elisabeti
elise
elisha
elite
eliya
elizabeth
elizabeti
elki
ella
elle
ellen
elles
elliot
elliott
ellis
elmina
elsa
else
elsevier
elsie
elton
elvis
em
ema
email
emanuel
embakasi
embassy
embe
emberiza
embu
emedicine
emerald
emergence
emergency
emerging
emeritus
emerson
emi
emil
emile
emilia
emiliani
emiliano
emilio
emily
emin
eminem
emir
emirates
emirati
emma
emmanuel
emmy
emory
emotional
emotions
emperor
empire
empires
employment
empowerment
empress
empty
en
encarta
enciclopedia
encore
encounter
encounters
encyclical
encyclopaedia
encyclopedia
encyclopædia
end
enda
endangered
endapo
ende
endelevu
ending
endo
endocrinology
ends
enemy
eneo
energy
eng
engagement
engare
engels
engine
engineer
engineering
engineers
engl
england
englewood
english
enhanced
enlightenment
eno
enoch
enough
enrico
enrique
ensemble
entebbe
enter
enterprise
enterprises
entertainment
entire
entomology
entre
entrepreneur
entrepreneurs
entrepreneurship
entries
entry
enugu
environment
environmental
enya
enyaji
enye
enyi
enyo
enzi
enzo
eo
ep
epa
ephesus
ephraem
ephrem
epic
epicurus
epidemic
epidemiol
epidemiological
epidemiology
epifania
epilepsy
epiphanius
episcopal
episcopi
episcopo
episcoporum
episode
epistemology
epistle
epistles
eplf
eprdf
epsilon
equal
equality
equatorial
equipment
equity
equus
er
era
erasmus
eratosthenes
eredivisie
eremitae
eric
erica
erich
erick
eridanus
erie
erik
erin
eritrea
ernest
ernesto
ernst
eropleni
eros
error
ers
erwin
erzincan
erzurum
es
esa
esc
escape
escherichia
escriva
esd
eskis
espace
espan
especially
espn
esposito
essai
essay
essays
esse
essen
essence
essential
essentials
essex
est
esta
established
establishment
estado
estate
estates
ester
esther
estimate
estimated
estimates
estonia
estonian
estrojeni
eswatini
et
eta
etc
etchmiadzin
eternal
ethanoli
ethereal
ethical
ethics
ethiopia
ethiopian
ethiopic
ethnic
ethnicity
ethnologue
eti
etienne
etimolojia
etrange
etrangeres
ets
etymology
eu
eucharist
euclid
euge
eugene
eugenia
eugenio
eujeni
eukaryota
euler
eulogi
eulogius
eunice
euphonia
euphrase
eur
eurasia
eurasian
euro
europa
europe
european
eurovision
eusebi
eusebius
eustatius
eva
evaluation
evan
evangelical
evangelist
evans
eve
evelyn
even
evening
event
events
ever
everest
everett
everton
every
everybody
everyday
everyone
everything
evidence
evil
evolution
evolutionary
evra
ew
ewaso
ewe
ewtn
ex
examination
example
examples
excavations
excellence
excellent
except
excerpt
excerpts
exchange
exclusive
execution
executive
exercise
exeter
exhibition
exile
exist
existence
exists
exit
exodus
exp
expand
expanded
expanding
expansion
expedition
experience
experiences
experimental
experiments
expert
experts
explained
explaining
explains
explanation
exploration
explorations
explore
explorer
exploring
export
exposition
exposure
express
expression
extended
extension
extensive
external
extra
extraordinary
extreme
eye
eyed
eyes
eyez
eyre
ez
ezana
eze
ezekiel
ezekieli
ezra
ezzidio
f
fa
fabaceae
faber
fabian
fabolous
fabriano
face
facebook
faced
faces
facing
facsimile
fact
factbook
factor
factors
factory
facts
faculty
fadak
fadhila
fadhili
fahali
fahamu
faharasa
fahari
fahrenheit
faida
faila
failed
faili
failure
fainali
faini
fair
fairfield
fairy
faisal
fait
faith
faithful
fake
fal
falaki
falciparum
falco
falcon
falcons
falkland
fall
fallen
falling
fallingrain
falls
fally
falme
falsafa
false
fam
fame
familia
families
family
famine
famous
fan
fanani
fani
fanny
fans
fanta
fantastic
fantasy
fanya
fao
faq
far
faragha
farah
faraja
farakano
farao
farasi
farewell
farid
farida
farisi
farm
farmer
farmers
farnham
faroe
farrar
farrell
farsy
faru
fasaha
fashion
fasihi
faso
fast
fastes
fat
fatal
fate
fateh
father
fathers
fathi
fathy
fatima
fatimah
fatma
fatty
fatuma
fauci
fauna
faustina
fausto
faustus
favorite
faye
faz
fb
fbi
fc
fd
fda
fdd
fe
fear
fears
feast
feasts
feat
feature
featured
features
featuring
feb
febre
februari
february
fecture
fede
federal
federation
federico
fedha
feed
feel
feeling
feet
feldman
feleji
felice
felicity
felipe
felis
felisi
felix
fell
fellow
fellows
fellowship
female
femi
femina
feminine
feminism
feminist
femme
femmes
feng
feni
fer
ferdinand
ferdinando
ferguson
feri
ferkesse
fermi
ferna
fernandez
fernando
ferrand
ferrara
ferrari
ferreira
ferrer
ferry
fertility
fest
festival
festivals
fetal
fets
fever
few
ff
fgm
fi
fib
fiba
ficedula
fiche
fiction
ficus
fid
fide
fidel
fidelis
fidia
fidla
field
fields
fierce
fiesta
fifa
fifth
fifty
fig
fight
fighter
fighting
figo
figure
figures
fiji
fika
fikira
fikra
fil
filamu
filan
file
filemoni
files
filimbi
filioque
filipino
filipo
filippo
fill
film
filmfare
filming
films
filter
fimbi
fimbo
fin
final
finali
finalists
finally
finals
finance
financial
finch
find
finding
findings
finds
fine
finger
fingers
finisia
finland
finn
finnish
finyu
fiona
fiore
fira
fire
fired
firefox
firenze
firigogo
firm
first
fischer
fish
fishburne
fisher
fishing
fisi
fistful
fit
fitina
fitzgerald
fitzpatrick
five
fix
fizikia
fiziolojia
fk
fl
fla
flag
flags
flame
flames
flamingo
flamsteed
flanders
flandria
flash
flat
flathead
flava
flavius
flavour
fleet
fleming
flesh
fletcher
flies
flight
flo
flood
floor
flops
flora
florence
flores
florida
flow
flower
flowers
floyd
flu
flute
fly
flycatcher
flying
flynn
fm
fnl
fo
focus
fog
foley
foligno
folio
folk
folklore
follow
followed
following
follows
folon
fomati
fomu
fomula
fonda
fondation
fonimu
fontana
fontes
food
foods
fool
fools
foot
football
footed
for
fora
forbes
force
forced
forces
ford
fordham
forecast
forecasts
foreign
forest
forests
forever
foreword
forget
forgotten
form
format
formation
former
forms
formula
forodha
forodhani
fort
forth
fortress
fortunati
fortunatus
fortune
fortuner
forty
forum
forums
forward
fossil
foster
fosyo
found
foundation
foundations
founded
founder
founding
fountain
four
fourth
fowler
fox
fr
fra
frac
fragments
frame
framework
franc
france
frances
francesca
francesco
franchise
francia
francis
franciscan
franciscans
francisco
franck
franco
francois
francolin
francophone
frank
frankfurt
frankie
franklin
franks
frans
fransiska
fransisko
franz
fraser
frati
fratrum
fraud
frauen
fre
fred
freddie
frederic
frederick
frederik
fredrick
fredrik
free
freed
freedom
freeman
freestyle
freetown
freeze
freiburg
freinademetz
frelimo
fremu
french
frequency
frequently
fresco
fresh
freud
friars
frida
friday
fridays
fried
friedman
friedrich
friend
friends
friendship
frigia
fritz
friuli
frog
from
front
fronted
frontie
frontier
frontiers
frontline
frost
frozen
fru
fruit
frumensyo
fry
fs
ft
fu
fuck
fuego
fuel
fueli
fufu
fugees
fujo
fukara
fuko
fukuoka
fukwe
fula
fulani
fulanifulani
fulbright
fulham
full
fuller
fulltext
fully
fulvetta
fumbatio
fumbo
fumbwe
fumo
fun
function
functional
functions
fund
fundamental
fundamentalism
fundamentals
fundanus
fundi
fundisho
fundo
funeral
funga
fungi
fungo
fungu
fungua
fungunyota
funguo
funguvisiwa
funk
fununu
fupanyonga
fupi
fur
furaha
furious
furred
fursa
further
furukombe
fury
fusion
fuso
futa
futi
future
futures
fuvu
fuwele
fy
g
ga
gaba
gabi
gabon
gaboni
gaborone
gabriel
gabriele
gabrieli
gabriella
gabrielle
gaddafi
gadi
gado
gae
gaetano
gaga
gagarin
gagnoa
gaia
gaidi
gail
gain
gaines
gainesville
gairo
gaius
gal
gala
galago
galaksi
galana
galantuomo
galatia
galatians
galaxy
gale
galia
galilaya
galilee
galilei
galileo
gall
gallagher
galleries
gallery
gallia
gallica
gallimard
gallirallus
gallo
gallus
galoni
galva
galway
gama
gamal
gamba
gambia
gambian
game
games
gamma
gams
gan
ganda
gandhi
gandunia
gang
gangsta
gangster
gani
gantt
ganzi
gao
gap
garang
garci
garcia
garden
gardens
gardiner
gardner
gareth
garfield
gari
garimoshi
garissa
garland
garner
garrett
garry
garth
garvey
gary
gas
gaston
gastroenteritis
gastroenterology
gatanga
gatare
gate
gates
gateway
gatherers
gatundu
gauge
gaul
gaule
gaulle
gauni
gauteng
gavana
gave
gavin
gay
gayaza
gaza
gazelle
gazeteer
gazeti
gazette
gazetteer
gaziantep
gb
gbagbo
gbe
gbo
gc
gcatholic
gd
gdp
ge
gebre
gecko
gedi
gee
gegedu
gegereka
gehenna
geita
geji
gel
gellersen
gem
gemini
gemma
gen
gender
gene
genealogy
general
generally
generation
generations
genes
genesis
genet
genetic
genetics
genetta
geneva
genge
genghis
geni
genital
genitive
genius
genji
genk
genoa
genocide
genome
genomics
genova
genre
genres
genseriki
gentile
gentium
gentleman
genus
geo
geoff
geoffrey
geographic
geographical
geography
geohive
geokichla
geological
geology
geometry
geonames
geonet
geophysical
geordavie
georg
george
georges
georgetown
georgia
georgian
geoview
ger
gerald
gerard
gereza
gerezani
gerhard
germain
german
germania
germaniae
germanic
germany
gerry
gertrude
geschichte
gesellschaft
gesi
gesijoto
gesta
get
getamap
geti
gets
getting
getty
gfc
ggplot
gh
ghafi
ghafla
ghala
ghali
ghana
ghanahomepage
ghanaian
ghanaweb
ghandi
ghanzi
gharama
gharika
ghasia
ghat
ghazal
ghazi
ghetto
ghorofa
ghost
ghosts
ghuba
ghulam
ghurabu
gi
gia
giacomo
gian
gianfranco
gianni
giant
giants
gibb
gibbons
gibbs
gibe
gibraltar
gibson
gideon
gif
gift
gifted
giga
giganteus
gikuyu
gil
gilbert
gilberto
giles
gilgamesh
gilgil
giligili
gill
gilles
gillespie
gimba
gina
gion
giorgio
giotto
giovanni
gir
giraffa
giresun
girl
girlfriend
girls
girolamo
gis
gisenyi
gish
gishu
gisumo
gita
gitaa
gitega
githinji
githongo
giulia
giulio
giuseppe
givalius
give
given
gives
giving
giza
gizani
gj
gk
gl
glacier
gladys
glamour
glance
glasgow
glasi
glass
glaucidium
glavu
glazer
glen
glenn
gli
glise
global
globalization
globe
globefeed
globu
gloria
glories
glorification
glorious
glory
glossary
glossina
glottolog
glover
glukosi
glutamate
gluteni
gm
gma
gmbh
gnosis
gnostic
gnosticism
gnu
go
goa
goal
goals
goat
gobi
god
goddess
godfather
godfrey
godoro
gods
godwin
goes
goethe
gof
gofu
gogo
goguryeo
going
goire
goku
gold
goldberg
golden
goldman
goldstein
golf
goli
goliath
golikipa
goma
gombe
gombo
gome
gomes
gomez
gonda
gone
gonna
gontougo
gonza
gonzaga
gonzalez
gonzalo
good
goodbye
gooding
goodluck
goodman
goods
goodwill
goodwin
google
goose
gorbachev
gordian
gordon
gore
gorilla
goromwe
goshawk
gospel
gospels
gossip
got
gotham
gothic
gothoburgensia
gothoburgensis
goths
goti
goto
gottfried
goue
gouine
gould
gout
gouv
gov
governance
government
governor
governorate
govpubs
govt
goya
gp
gps
gr
gra
grace
grade
graduate
grady
graeca
graeme
graf
graffiti
graham
grahamstown
grain
gram
grammar
grammatik
grammy
gramu
gran
granada
grand
grande
grandis
grands
grant
graphic
graphics
grass
grassfields
grave
graviti
gravity
gray
graz
gre
great
greater
greatest
greatness
grebe
greco
gredi
greece
greek
greeks
green
greenbul
greene
greenland
greenpeace
greens
greenwich
greenwood
greg
gregaria
gregg
gregor
gregori
gregorian
gregorio
gregory
grenada
grenoble
greta
gretchen
grey
griffin
griffith
griffiths
grime
grimke
grimm
griot
gro
gronniosaw
groote
groove
grosbeak
gross
ground
group
groupe
groups
grove
grover
grow
growing
growth
gru
grus
gruyter
gryllotalpa
gs
gse
gsm
gt
gu
guadalajara
guadalupe
guadeloupe
guam
guangdong
guangzhou
guard
guardian
guatemala
guba
gude
gue
guerra
guerre
guerrero
guessankro
guest
guevara
guez
guggenheim
gugu
guidance
guide
guideline
guidelines
guides
guido
guiglo
guild
guilford
guillaume
guilty
guine
guinea
guinness
guitar
gujarat
gulf
gull
gulu
gum
gumba
gumu
gumzo
gun
gundi
gunia
gunnar
guns
gunung
guo
gupta
gurnah
gurnard
guru
gurudumu
guruguru
gustaf
gustav
gutenberg
guthrie
gutierrez
guy
guyana
guys
guzman
gw
gwanda
gwen
gwiji
gynecology
gyo
h
ha
haas
haastrup
haba
habakkuk
habakuki
habari
habeshi
habib
habitat
habr
habsburg
habyarimana
hacker
hackett
had
hadhara
hadharani
hadhi
hadhira
hadi
hadith
hadithi
hadj
hadrian
hadubini
hafez
hafidh
hafidhi
hafifu
hafla
hagai
haggai
hagia
hagiographica
hagiography
hague
hahn
hai
haieleweki
haifahamiki
haifai
haihitaji
haihusiani
haijawahi
haijulikani
haiku
haikujulikana
haikutolewa
haikuwa
haikuwahi
haikuweza
haikuwezekana
hail
haile
hailingani
haimaanishi
haina
haines
haionekani
haionyeshi
haipatikani
haipo
hair
hairy
haitegemei
haiti
haitian
haitoi
haitokei
haitoshi
haitumiki
haiwezekani
haiwezi
haja
hajafa
hajawahi
haji
hajj
hajui
haki
hakika
hakiki
hakikisho
hakim
hakimiliki
hakimu
hakina
hakuacha
hakucheza
hakufanikiwa
hakufanya
hakufaulu
hakujua
hakukubali
hakukuwa
hakumaliza
hakuna
hakupata
hakupenda
hakutaka
hakuwa
hakuwahi
hakuweza
hal
halafu
halaiki
halali
hale
hales
haley
half
hali
halihewa
halijoto
halijulikani
halikadhalika
halikuwa
halima
halina
halipo
halisi
halisia
haliwezi
hall
halle
hallelujah
halley
halmahera
halmashauri
ham
hamad
hamali
hamas
hamasa
hambol
hamburg
hamed
hamid
hamilton
hamira
hamisi
hammer
hammond
hamna
hampshire
hampton
hamsini
hamu
hamza
han
hana
hanang
hand
handaki
handbook
handbuch
handeni
handle
hands
hane
hang
hank
hanna
hannah
hannibal
hannigan
hannover
hanoi
hanover
hans
hanse
hansen
hanson
hanyu
hao
haorodheshwi
hapa
hapakuwa
hapana
hapendi
hapo
happen
happened
happiness
happy
haq
har
hara
haraka
harakaharaka
harakati
harald
haram
harambee
haramu
harar
harare
harbor
harbour
harcourt
hard
hardcover
harding
hardy
hare
hargeisa
hari
hariri
harleen
harlem
harm
harmattan
harmondsworth
harmonize
harmony
harold
harper
harpercollins
harrassowitz
harrier
harriet
harrington
harris
harrison
harry
hart
hartford
hartmann
hartmut
harufu
harun
haruna
haruni
harusi
harvard
harvey
has
hasa
hasahasa
hasan
hasara
hashanah
hasi
hasira
hassan
hastings
haswa
hat
hata
hataki
hatakiwi
hatamu
hatari
hatarini
hatarishi
hatay
hataza
hatcher
hate
hathor
hati
hatia
hatima
hatimaye
hatimiliki
hatshepsut
hatua
hatujui
hatuna
hatutakiwi
hatuwezi
haujulikani
haukuwa
haukuweza
hauna
hausa
haut
haute
hautoshi
hauwezi
havana
have
haven
havina
having
haviwezi
haw
hawa
hawaa
hawai
hawaii
hawaiian
hawajawahi
hawajui
hawako
hawakubali
hawakuelewa
hawakujua
hawakupata
hawakupenda
hawakuridhika
hawakuruhusiwa
hawakutaka
hawakuwa
hawakuweza
hawana
hawaoni
hawaorodheshwi
hawapati
hawapendi
hawaruhusiwi
hawataki
hawawezi
hawezi
hawk
hawkins
hay
haya
hayafai
hayajulikani
hayakuwa
hayana
hayati
hayawezi
haydn
hayes
hayo
hayupo
hayward
hazard
hazel
hazijulikani
haziko
hazikuwa
hazikuweza
hazina
hazinadata
hazionekani
hazipatikani
hazipo
haziwezi
hbo
hc
hcv
hd
he
head
headache
headed
headies
headlee
headline
headlines
headquarters
heads
heal
healing
health
healthcare
healthy
hear
heard
heart
hearts
heat
heath
heather
heaven
heavy
hebrew
hebrews
hector
hedgehog
hedhi
hee
hegel
heidelberg
heidi
height
heights
heilige
heiligen
heiligenlexikon
heimat
heinemann
heinrich
heinz
hekalu
hekaluni
hekari
hekaya
hekima
hekta
hektari
hela
held
helen
helena
helgoland
heli
helicopter
helikopta
hell
hellenistic
heller
hellige
hello
helmut
help
helped
helping
helps
helsinki
hema
hemidactylus
hemiptera
hemoroidi
hen
henchir
henderson
hendricks
hendrickson
hendrik
hendrix
henri
henrik
henriksen
henry
hepatitis
hepatitisi
hepesi
her
hera
herald
herausgegeben
herb
herbermann
herbert
hercules
herder
here
heresies
heresy
heri
heritage
herman
hermann
hermas
hermes
hermit
herna
hero
herod
herode
herodoti
herodotus
heroes
heroini
heron
herpes
herrnhut
herschel
herself
hersi
herta
hertz
herufi
herzegovina
herzog
hes
hesabu
heshi
heshima
hess
hesse
het
hevelius
hewa
hewani
hewitt
hex
hey
hg
hh
hi
hiace
hiari
hichi
hicho
hicks
hidalgo
hidden
hide
hidrojeni
hierarchy
hifadhi
hifadhidata
higgins
high
highbeam
higher
highest
highland
highlands
highlife
highlights
highly
highway
hii
hija
hijabu
hijra
hiki
hiko
hila
hilal
hilali
hilari
hilarion
hilary
hilda
hildegard
hildegarde
hildesheim
hili
hill
hillary
hills
hilo
hilohilo
hilton
him
himalaya
himalayan
himaya
himoglobini
himself
hinabuluu
hinckley
hinde
hindi
hindu
hinga
hio
hip
hiphop
hiphopdx
hiplife
hippo
hippocrates
hippolytus
hiragana
hiro
hiroshi
hiroshima
hirsi
his
hisa
hisabati
hisani
hisi
hisia
hispania
hispaniola
hist
histo
histoire
historia
historian
historians
historic
historica
historical
histories
historiography
historique
history
hit
hitaji
hitchcock
hitilafu
hitimisho
hitler
hitparade
hits
hiv
hivi
hivo
hivyo
hiyo
hiyohiyo
hizi
hizo
hj
hk
hl
hm
hms
ho
hobbs
hoboken
hockey
hodari
hodder
hodges
hodgkin
hodgson
hoffman
hoffmann
hofmeyr
hofu
hogan
hoho
hoi
hoima
hoja
hokkaido
hold
holding
holdings
holds
hole
holes
holiday
holidays
holiness
holland
holloway
holly
hollywood
holmes
holocaust
holocene
holstein
holt
holweck
holy
homa
home
homecoming
homeland
homeless
homepage
homer
homes
homilies
homily
homme
hommes
homo
homoni
homosexual
homosexuality
hon
honda
hondohondo
honduras
honecker
honey
honeyguide
hong
hongo
hongwe
honolulu
honor
honorary
honorata
honorati
honore
honored
honori
honorius
honors
honour
honoured
honours
honshu
hood
hooded
hook
hooker
hoorn
hoover
hop
hope
hopes
hopkins
hopper
horace
hordaland
hori
horizon
horizons
hormonal
hormone
hormones
horn
hornbill
horned
horror
horse
horst
horton
horus
hosea
hospital
hospitali
hospitalini
hospitals
host
hosted
hosts
hot
hotel
hoteli
hotels
hotspur
hotuba
houghton
hounien
hour
hours
house
household
houses
housing
houston
houye
hovyo
how
howard
howe
howell
however
hp
hr
href
hrsg
hsbc
hsv
ht
htm
html
http
https
hu
hua
huacha
huadhimisha
huadhimishwa
huadimishwa
huainishwa
huambatana
huambo
huambukizwa
huamini
huaminika
huaminiwa
huamua
huandaa
huandaliwa
huandika
huandikwa
huang
huangalia
huangaliwa
huanguka
huanza
huanzia
huanzisha
huashiria
huathiri
huathirika
huathiriwa
hub
huba
hubadilika
hubadilisha
hubadilishwa
hubaki
hubakia
hubbard
hubble
hubeba
hubei
hubert
huboresha
huchagua
huchaguliwa
huchanganywa
huchangia
huchapisha
huchapishwa
hucheza
huchezwa
huchimba
huchochea
huchomwa
huchukua
huchukulia
huchukuliwa
huchunguza
hudai
hudhaniwa
hudhibiti
hudhihirika
hudhurungi
hudson
huduma
hudumisha
hudumu
huelekea
hueleza
huelezea
huelezwa
huenda
huendelea
huendeleza
huendesha
huendeshwa
huenea
huey
hufa
hufafanuliwa
hufanana
hufanya
hufanyika
hufanywa
huffington
huffpost
hufika
hufikia
hufikiriwa
hufuata
hufugwa
hufundisha
hufundishwa
hufunga
hufungwa
hufunika
hufunikwa
hufupishwa
hufyonza
hugawanyika
hugawanywa
hugawiwa
huge
hugeuka
hugh
hughes
hugo
huhama
huhamia
huharibu
huhesabiwa
huhesabu
huhifadhiwa
huhitaji
huhitajika
huhusiana
huhusika
huhusisha
huhusishwa
hui
huiangalia
huimba
huingia
huingizwa
huishi
huishia
huita
huitwa
huja
hujaribu
hujenga
hujengwa
hujifunza
hujihusisha
hujiita
hujilisha
hujishughulisha
hujitokeza
hujiunga
hujulikana
hujumuisha
hukaa
hukadiriwa
hukamata
hukatwa
hukiakia
hukiangalia
huko
hukohuko
hukosa
huku
hukua
hukubali
hukubaliana
hukumu
hukusanya
hukusanyika
hukusanywa
hukutana
hukuza
hukuzwa
hula
hulala
hulenga
huleta
hulijenga
hulimwa
hulinda
hulingana
huliwa
hulka
hull
hum
humaanisha
human
humanitarian
humanities
humanity
humans
humber
humble
humboldt
hume
humo
humpa
humphrey
humsaidia
humu
humwaga
huna
hundi
hundred
hundreds
huneriki
hung
hungama
hungaria
hungarian
hungary
hunger
hunt
hunter
hunting
huntington
huntley
hunyesha
hunywa
huo
huogelea
huohuo
huona
huondoa
huondoka
huonekana
huonesha
huongea
huongeza
huongezeka
huongezwa
huongozwa
huonwa
huonyesha
huonyeshwa
hupanda
hupandwa
hupangwa
hupata
hupatikana
hupelekea
hupelekwa
hupenda
hupendekeza
hupendekezwa
hupendelea
hupendelewa
hupendwa
hupewa
hupiga
hupigwa
hupikwa
hupimwa
hupita
hupitia
hupitisha
hupitishwa
hupokea
hupotea
hupoteza
hupungua
hupunguza
hurejea
hurejelea
huria
huron
hurricane
hurst
hurtado
huru
hurudi
huruhusu
huruka
huruma
hus
husababisha
husababishwa
husafiri
husafirishwa
husaidia
husambazwa
husayn
husband
husein
husema
hushiriki
hushirikiana
hushughulikia
hushuka
husika
husimama
husimamia
husoma
hussain
hussein
hustle
hususa
hususan
hususani
hutafuta
hutaga
hutaja
hutajwa
hutaka
hutambua
hutambulika
hutambuliwa
hutamkwa
hutawaliwa
hutazamiwa
hutazamwa
hutchinson
hutegemea
hutekelezwa
hutembea
hutembelea
hutengeneza
hutengenezwa
huteuliwa
hutibiwa
hutiririka
hutiwa
hutoa
hutofautiana
hutofautisha
hutofautishwa
hutoka
hutokana
hutokea
hutolewa
hutu
hutumia
hutumika
hutumiwa
hutunza
hutunzwa
huu
huua
huunda
huundwa
huungana
huunganisha
huunganishwa
huuzwa
huvaa
huvaliwa
huvuka
huvuta
huvutia
huwa
huwafanya
huwakilisha
huwapa
huwasaidia
huweka
huwekwa
huwepo
huweza
huwezesha
huwezi
huwinda
huxley
huyataga
huygens
huyo
huyu
huzaa
huzalisha
huzalishwa
huzaliwa
huzidi
huzingatia
huzuia
huzunguka
huzungumza
huzungumzwa
huzuni
hwale
hwang
hy
hybrid
hyde
hyderabad
hydra
hydro
hydrogen
hydrographic
hydrox
hyg
hygiene
hylomyscus
hymenoptera
hymn
hymns
hyperactivity
hypertension
hypothesis
hz
i
ia
iaaf
iaea
ian
ianuaria
ianuarius
iarc
iata
iau
ib
iba
ibada
ibadan
ibanda
ibara
ibaraki
iberia
ibilisi
ibis
ibm
ibn
ibom
ibrahim
ibrahimu
ic
icao
icc
icd
ice
iceland
icelandic
ich
ichi
ichiro
icon
iconic
iconography
icons
icp
icrc
ict
icu
id
ida
idadi
idaho
idara
idd
iddi
idea
ideal
ideas
identification
identified
identity
ideology
idhaa
idhini
idi
idk
ido
idol
idols
idris
ie
ieee
if
ifakara
ife
iffou
ifikapo
ifpi
ifuatavyo
ifuatayo
ig
iganga
igbo
igcse
igembe
igizo
iglesias
ign
ignacio
ignas
ignatius
ignored
igor
igulu
igunga
ihefu
ii
iidk
iii
iiliyopo
iitwayo
ijapokuwa
ijayo
ije
ijulikanayo
ijumaa
ik
ikaanza
ikabaki
ikaendelea
ikaingia
ikaitwa
ikaja
ikaonekana
ikaongezeka
ikapata
ikapewa
ikatokea
ikawa
ike
ikielekea
ikiendelea
ikifanya
ikifuata
ikifuatiwa
ikifuatwa
ikiitwa
ikijulikana
ikijumuisha
ikilinganishwa
ikimaanisha
ikionekana
ikiongozwa
ikionyesha
ikipakana
ikisema
ikitoa
ikitokea
ikitumia
ikitumika
ikitumiwa
ikiwa
ikiwemo
ikiwezekana
iko
ikolojia
ikulu
ikumbukwe
ikungi
ikweta
il
ila
ilala
ilani
ile
ileile
ileje
ilemela
ilha
ilhali
ili
iliachwa
iliad
iliadhimishwa
iliaminika
iliamua
iliandaa
iliandaliwa
iliandikwa
iliangaliwa
ilianguka
ilianza
ilianzia
ilianzisha
ilianzishwa
iliathiri
iliathiriwa
ilibadilika
ilibadilisha
ilibadilishwa
ilibaki
ilibidi
ilibuniwa
ilichaguliwa
ilichangia
ilichapisha
ilichapishwa
ilicheza
ilichezwa
ilichukua
ilichukuliwa
ilidai
ilidumu
ilielezwa
ilienda
iliendelea
iliendelezwa
ilienea
ilifanikiwa
ilifanya
ilifanyika
ilifanywa
ilifaulu
iliffe
ilifika
ilifikia
ilifuata
ilifuatiwa
ilifuatwa
ilifungua
ilifunguliwa
ilifungwa
ilifutwa
iligawanywa
iligawiwa
iligundua
iligunduliwa
ilihali
ilihamia
ilihamishwa
iliharibiwa
ilihesabiwa
ilihitaji
ilihusisha
iliibuka
iliidhinishwa
iliimbwa
iliingia
iliingizwa
iliisha
iliitwa
ilijaribu
ilijenga
ilijengwa
ilijitokeza
ilijiunga
ilijulikana
ilijumuisha
ilijumuishwa
ilikaa
ilikadiriwa
ilikaliwa
ilikamilika
ilikataa
ilikua
ilikubali
ilikubaliwa
ilikuja
ilikuwa
ilikuwepo
ilikwenda
ilikwisha
ililazimishwa
ililenga
ilileta
ilimaanisha
ilimaliza
ilimalizika
ilimbidi
ilimfanya
ilimpa
ilinunua
ilinunuliwa
iliomba
iliona
iliondoka
iliondolewa
ilionekana
iliongeza
iliongezeka
iliongezwa
iliongoza
iliongozwa
ilionyesha
ilionyeshwa
iliopo
iliorodheshwa
ilipanda
ilipanga
ilipangwa
ilipaswa
ilipata
ilipatikana
ilipatwa
ilipeleka
ilipelekea
ilipelekwa
ilipendekeza
ilipendekezwa
ilipewa
ilipiga
ilipigwa
ilipita
ilipitisha
ilipitishwa
ilipo
ilipoanza
ilipoanzishwa
ilipofika
ilipokea
ilipokelewa
ilipokuwa
ilipopata
ilipopitishwa
iliporomoka
ilipotea
ilipoteza
ilipungua
ilirejeshwa
ilirekodiwa
iliripoti
iliripotiwa
ilirudi
ilirudishwa
iliruhusu
ilirushwa
ilisababisha
ilisaidia
ilisaini
ilisema
ilisemekana
ilishika
ilishinda
ilishindana
ilishindwa
ilishiriki
ilishirikisha
ilishuka
ilisimamiwa
ilistawi
ilitafsiriwa
ilitaja
ilitajwa
ilitaka
ilitakiwa
ilitambua
ilitambuliwa
ilitangaza
ilitangazwa
ilitawala
ilitawaliwa
ilitayarishwa
ilitazamiwa
ilitazamwa
ilitegemea
ilitekwa
ilitengenezwa
iliteuliwa
ilithibitisha
ilithibitishwa
ilitoa
ilitoka
ilitokana
ilitokea
ilitolewa
ilitoweka
ilituma
ilitumia
ilitumika
ilitumiwa
ilitungwa
ilitunukiwa
ilitwaa
ilitwaliwa
iliunda
iliundwa
iliungana
iliunganisha
iliunganishwa
iliuza
iliuzwa
ilivamia
ilivamiwa
ilivunjwa
ilivutwa
ilivyo
ilivyoandikwa
ilivyoelezwa
ilivyokuwa
ilivyotokea
iliwabidi
iliwahi
iliwasilishwa
iliweka
iliwekwa
iliweza
iliwezekana
iliwezesha
iliyo
iliyoandaliwa
iliyoandikwa
iliyoanza
iliyoanzishwa
iliyoathiriwa
iliyobadilishwa
iliyobaki
iliyobuniwa
iliyochaguliwa
iliyochapishwa
iliyochezwa
iliyodumu
iliyoendelea
iliyoendeshwa
iliyoenea
iliyofanikiwa
iliyofanya
iliyofanyika
iliyofanywa
iliyofaulu
iliyofuata
iliyofuatia
iliyofungwa
iliyoganda
iliyohifadhiwa
iliyoitwa
iliyojaa
iliyojengwa
iliyojulikana
iliyojumuisha
iliyokatwa
iliyoko
iliyokua
iliyokubaliwa
iliyokuwa
iliyokuwepo
iliyokwenda
iliyolenga
iliyomo
iliyoongezeka
iliyoongozwa
iliyoonyeshwa
iliyopangwa
iliyopata
iliyopatikana
iliyopelekea
iliyopendekezwa
iliyopewa
iliyopigwa
iliyopita
iliyopitishwa
iliyopo
iliyoratibiwa
iliyorekodiwa
iliyoripotiwa
iliyosababisha
iliyosababishwa
iliyosambazwa
iliyoshinda
iliyosimamiwa
iliyotajwa
iliyotambuliwa
iliyotangazwa
iliyotangulia
iliyotawala
iliyotawaliwa
iliyotayarishwa
iliyotengenezwa
iliyotengwa
iliyotiwa
iliyotoa
iliyotoka
iliyotokana
iliyotokea
iliyotolewa
iliyotumia
iliyotumika
iliyotumiwa
iliyotungwa
iliyoua
iliyoundwa
iliyounganisha
iliyounganishwa
iliyowahi
iliyowekwa
iliyoweza
iliyozungumzwa
ilizidi
ilizindua
ilizinduliwa
ilizuia
ilkuwa
ill
illinois
illness
illrymz
illustrated
illustrations
illustribus
ilo
ilunga
ilya
im
image
images
imagination
imagine
imaging
imakulata
imam
imamu
iman
imani
imara
imdb
imeainishwa
imeandaliwa
imeandikwa
imeangaliwa
imeanza
imeanzisha
imeanzishwa
imebadilika
imebadilishwa
imebaki
imechangia
imechapishwa
imechukua
imechukuliwa
imeendelea
imeenea
imefanya
imefika
imefikia
imefikisha
imefungwa
imefunikwa
imegawanyika
imegawanywa
imegawiwa
imegunduliwa
imehesabiwa
imehifadhiwa
imeitwa
imejaa
imejengwa
imejikita
imejulikana
imekadiriwa
imekaribia
imekua
imekuwa
imekwisha
imenti
imeonekana
imeongezeka
imeongozwa
imeonyesha
imeonyeshwa
imeorodheshwa
imepakana
imepangwa
imepata
imepatikana
imepelekea
imependekezwa
imepewa
imepita
imepokea
imepokewa
imepotea
imepungua
imesababisha
imeshinda
imetafsiriwa
imetajwa
imetambuliwa
imetayarishwa
imetengenezwa
imetengwa
imethibitishwa
imetoa
imetoka
imetokana
imetokea
imetolewa
imetoweka
imetumika
imetumiwa
imetungwa
imeunda
imeundwa
imeunganishwa
imeuza
imewasilishwa
imewekwa
imeweza
imezidi
imezungukwa
imf
img
immaculate
immanuel
immigration
immortality
immune
immunodeficiency
immunology
imo
impact
impacts
impairment
imperative
imperial
imperialism
implications
import
importance
important
impossible
improve
imran
in
ina
inaadhimishwa
inaainishwa
inaajiri
inaaminika
inaaminiwa
inaandikwa
inaangazia
inaanza
inaanzia
inaashiria
inaathiri
inabadilika
inabaki
inabeba
inabidi
inachangia
inacheza
inachezwa
inachukua
inachukuliwa
inachunguza
inactive
inadai
inadaiwa
inadhaniwa
inadumu
inaelekea
inaeleweka
inaeleza
inaelezea
inaelezwa
inaendelea
inaendesha
inaendeshwa
inaenea
inafaa
inafafanua
inafahamika
inafanana
inafanya
inafanyika
inafanywa
inafika
inafikia
inafikiriwa
inafuata
inafundisha
inahesabiwa
inahitaji
inahitajika
inahudumia
inahusiana
inahusika
inahusisha
inahusishwa
inahusu
inaingia
inaishia
inaitwa
inajaribu
inajenga
inajitokeza
inajulikana
inajumlisha
inajumuisha
inakaa
inakabiliwa
inakadiriwa
inakaribia
inakua
inakuja
inakusanya
inakutana
inakuwa
inakuza
inakwenda
inalenga
inaleta
inalingana
inamaanisha
inamiliki
inamilikiwa
inaonekana
inaonesha
inaongeza
inaongezeka
inaongoza
inaongozwa
inaonyesha
inaonyeshwa
inaorodhesha
inapakana
inapanda
inapaswa
inapata
inapatikana
inapendekeza
inapendekezwa
inapita
inapitia
inapokea
inapopatikana
inapungua
inapunguza
inarejelea
inarudi
inaruhusu
inasababisha
inasababishwa
inasaidia
inasema
inasemekana
inashika
inashiriki
inashirikisha
inashughulikia
inasimama
inasimamia
inasimamiwa
inasimulia
inasimuliwa
inasisitiza
inastahili
inataja
inatajwa
inataka
inatakiwa
inatambua
inatamkwa
inatangaza
inatarajiwa
inatawala
inatawaliwa
inatazama
inatazamwa
inategemea
inatekelezwa
inatengeneza
inatengenezwa
inatoa
inatofautiana
inatoka
inatokana
inatokea
inatolewa
inatosha
inatumia
inatumika
inatumiwa
inatunza
inaunda
inaundwa
inaungana
inaunganisha
inaunganishwa
inauzwa
inavyojulikana
inavyoonekana
inavyotakiwa
inawakilisha
inaweza
inawezekana
inawezesha
inayo
inayoandikwa
inayoanza
inayoathiri
inayobadilika
inayobeba
inayochunguza
inayoelekea
inayoelezea
inayoendelea
inayoendeshwa
inayofaa
inayofahamika
inayofanana
inayofanya
inayofanyika
inayofanywa
inayofikia
inayofuata
inayofunika
inayohitaji
inayohitajika
inayohusiana
inayohusika
inayohusisha
inayohusishwa
inayohusu
inayoingia
inayoitwa
inayojitegemea
inayojulikana
inayojumuisha
inayokua
inayokuja
inayolenga
inayolingana
inayomaanisha
inayomilikiwa
inayoonekana
inayoongezeka
inayoongoza
inayoongozwa
inayoonyesha
inayopakana
inayopanda
inayopatikana
inayopeleka
inayopendwa
inayopita
inayopokea
inayoruhusu
inayosababisha
inayosababishwa
inayosaidia
inayosema
inayoshiriki
inayotaja
inayotajwa
inayotakiwa
inayotegemea
inayotenganisha
inayotengeneza
inayotengenezwa
inayotia
inayotoa
inayotoka
inayotokana
inayotokea
inayotolewa
inayotumia
inayotumika
inayotumiwa
inayoundwa
inayounganisha
inayoweza
inayowezesha
inayozidi
inayozuia
inayozunguka
inayozungumzwa
inazalisha
inazidi
inazingatia
inazuia
inazunguka
inazungumzia
inc
inchi
incidence
incident
include
included
includes
including
income
incorporated
incorporates
increase
increased
incredible
inde
indeed
independence
independent
index
indexes
indi
india
indian
indiana
indianapolis
indians
indica
indicator
indicators
indicus
indies
indiewire
indigenous
indigo
indio
indira
individual
individuals
indo
indochina
indonesia
indonesian
indoor
induced
indus
industrial
industries
industry
ine
inf
infant
infants
infect
infected
infection
infections
infectious
infinity
inflamesheni
influence
influences
influential
influenza
info
infobase
infodisc
informal
information
infotrakresearch
infrared
infraredi
infrastructure
ing
ingawa
ingawaje
ingekuwa
ingeweza
ingine
ingizo
ingolstadt
ingram
ingrid
inhabitants
inhibitors
ini
inia
initial
initiation
initiative
injera
injili
injini
injuries
injury
ink
inka
inland
inn
inner
innocent
innovation
innovations
innsbruck
inosenti
inpop
input
inquirer
inquiry
inscription
inscriptions
insect
insects
insha
inside
insider
insight
insights
inspector
inspiration
inspired
inspiring
instad
instagram
instauratum
institut
institute
institutes
institution
institutional
institutions
instituto
instruction
instructions
instrumental
instruments
insulini
insurance
int
intake
intanet
intaneti
integrated
integration
integrity
intel
intellectual
intelligence
intelligent
inter
interaction
interactions
interactive
intercontinental
interest
interesting
interface
intergovernmental
interim
interior
interlude
intern
internacional
internal
international
internationale
internazionale
internet
interpretation
interpretations
interscope
intervarsity
intervention
interventions
interview
interviews
intimate
into
intro
introduced
introducing
introduction
introductory
inu
invalid
invasion
invention
invertebrata
investigation
investigations
investment
invincible
invisible
involved
io
ioannis
ioc
iodini
iol
iona
ioni
ios
iowa
ip
ipa
ipasavyo
ipcc
ipi
ipitayo
ipo
ipp
ippmedia
ipupa
iqbal
ir
ira
irabu
irak
iraki
iramba
iran
irani
iranian
iranica
iraq
iraqi
iraya
ireland
irenaeus
irene
irenei
irin
iringa
iris
irish
irma
iro
iron
irony
irvine
irving
is
isa
isaac
isaaq
isabel
isabela
isabella
isabelle
isaiah
isaka
isakos
isaya
isbn
isfahan
isha
ishak
ishara
ishirini
isichanganywe
isidingo
isidore
isidori
isimu
isingiro
isiolo
isipokuwa
isis
isitoshe
isiwe
isiyo
isiyohamishika
isiyojulikana
isiyokuwa
isiyoonekana
isiyoweza
isla
islam
islamic
island
islands
isle
ismail
ismailia
isn
iso
isotopi
isparta
israel
israeli
iss
issa
issia
issn
issue
issues
ist
istanbul
istat
istilahi
istituto
it
ita
itaendelea
itakuwa
italia
italian
italiana
italiano
italy
itatolewa
item
itemid
ithaca
itifaki
itigi
itikadi
itikio
itilima
ito
itolewe
its
itself
itu
itumike
itunes
ituri
itv
iucn
iupac
iv
ivan
ivo
ivoire
ivory
ivy
iwapo
iwe
iweze
iwezekanavyo
ix
iyo
izungumzwayo
j
ja
jabal
jabali
jabari
jabir
jacana
jack
jackal
jackie
jackson
jacob
jacobs
jacobus
jacqueline
jacques
jadakiss
jade
jadi
jae
jagger
jah
jahazi
jahrhundert
jai
jail
jaime
jaipur
jaji
jakarta
jakaya
jake
jakob
jalada
jalidi
jalisco
jam
jama
jamaa
jamaica
jamaika
jamal
jambo
james
jameson
jamestown
jamhuri
jamie
jamii
jamiiforums
jammeh
jamuhuri
jan
jana
jando
jane
janeiro
janet
janga
jangwa
jangwani
jani
janice
janja
jansen
janssen
januari
january
janvier
japan
japanese
japani
japhet
japo
japokuwa
jaramogi
jaribio
jaribu
jarida
jaroslav
jasho
jasiri
jasmine
jason
jasper
jauza
java
javan
javascript
javier
jawabu
jaweon
jay
jazeera
jazz
jazzy
jb
jc
jd
je
jea
jean
jeanne
jedwali
jeezy
jeff
jefferson
jeffrey
jehovah
jekundu
jela
jelimo
jem
jema
jemadari
jembamba
jembe
jena
jenasi
jenerali
jenereta
jenetiki
jenetikia
jeneza
jengo
jeni
jenkins
jenna
jennifer
jennings
jenny
jenomu
jens
jensen
jer
jeraha
jerboa
jeremiah
jeremy
jericho
jerkins
jermaine
jermano
jerome
jeromu
jerry
jersey
jerusalem
jeshi
jeshini
jesse
jessica
jessie
jesu
jesuit
jesuits
jesus
jet
jets
jeune
jeunes
jeunesse
jeupe
jeusi
jew
jewish
jews
jezi
jf
jg
jh
jhu
ji
jia
jibini
jibu
jibuti
jicho
jide
jihad
jihadi
jiji
jijini
jike
jiko
jikoni
jill
jim
jimbo
jimboni
jimi
jimmy
jin
jina
jinai
jingi
jingine
jinja
jino
jinsi
jinsia
jiografia
jiolojia
jiometri
jiometria
jioni
jipe
jipu
jipya
jira
jirani
jiten
jitihada
jitu
jive
jiwe
jj
jk
jkt
jl
jm
jn
jo
joa
joachim
joan
joanna
joanne
joannes
job
jobs
jocelyn
jodi
joe
joel
joey
jogoo
joh
johan
johann
johannes
johannesburg
johari
john
johnny
johns
johnson
johnston
joho
join
joins
joint
jointi
joji
jojo
joka
jokate
jolie
jomo
jon
jona
jonah
jonas
jonathan
jones
jong
jongo
jongoo
jopo
jordan
jorge
jos
jose
josef
josemari
joseon
joseph
josephine
josephus
josh
joshua
josiah
joto
jotoridi
jou
jouni
journal
journalism
journalist
journalists
journals
journey
jours
joy
joyce
joyner
jozi
jp
jpg
jr
js
jsp
jstor
jt
ju
jua
juan
juba
jubba
jubilee
jubilei
judah
judaica
judaism
judas
jude
judge
judges
judgment
judith
judo
judy
juhudi
juice
juisi
juja
juju
jukumu
jukwaa
jukwaani
jul
julai
jules
julia
julian
juliana
juliani
juliasi
julie
juliet
juliette
julikana
julio
julius
july
juma
jumamosi
jumanne
jumapili
jumatano
jumatatu
jumba
jumbe
jumeirah
jumla
jump
jumuia
jumuishi
jumuiya
jun
junction
june
jung
jungle
juni
junior
juniperus
juno
junubi
jupiter
jura
jurassic
jurawa
jury
just
justice
justin
justine
justinian
justiniani
justus
juu
juujuu
juvenile
juventud
juventus
jux
juz
juzi
juzuu
jw
jwtz
k
ka
kaa
kaaba
kaabong
kabadougou
kabaila
kabaka
kabale
kabambe
kabarnet
kabarole
kabati
kabichi
kabila
kabinda
kabingo
kabisa
kabla
kabohaidreti
kabohidrati
kabongo
kaboni
kabonia
kabuga
kabul
kabumbu
kaburi
kaburini
kabwe
kabza
kachero
kacheza
kadai
kader
kadha
kadhaa
kadhalika
kadhi
kadi
kadiri
kadirio
kadri
kaduna
kafara
kafeini
kafiri
kafue
kagame
kagera
kagogo
kagoma
kaha
kahaba
kahama
kahawa
kahawia
kahawiachekundu
kahawianyekundu
kahigi
kahn
kahramanmaras
kai
kaika
kaimu
kaini
kairo
kaisarea
kaisari
kaiser
kaizari
kaizer
kajiado
kaka
kakake
kakakuona
kakamega
kakao
kakonko
kaku
kala
kalahari
kalala
kalamazoo
kalambo
kalamu
kalangala
kalashnikov
kalasinga
kalawa
kale
kaledonia
kalenda
kalenga
kalenjin
kaler
kali
kalifornia
kalimantan
kaliningrad
kaliro
kalisi
kaliua
kalivari
kalle
kaloleni
kalonzo
kalori
kalou
kalsedonia
kalsiamu
kalungu
kalunguyeye
kam
kama
kamala
kamanda
kamari
kamasi
kamati
kamau
kamba
kambale
kambarage
kambaremamba
kambi
kambo
kambodia
kamboja
kambu
kamchatka
kame
kamel
kamera
kamerun
kameruni
kamili
kamilifu
kamishna
kamji
kampala
kampasi
kampaundi
kampeni
kamprad
kampuchea
kampuni
kamuli
kamusi
kamuzu
kamwe
kamwenge
kan
kana
kanaani
kanada
kanali
kanari
kanda
kandamseto
kandanda
kandarasi
kando
kandokando
kane
kang
kanga
kangaja
kangaroo
kangaruu
kanghagha
kangundo
kangxi
kani
kanieneo
kanisa
kanisani
kanivali
kanji
kanjitab
kanku
kano
kanoni
kansa
kansas
kansela
kant
kantarusi
kantori
kanu
kanumba
kanungu
kanuni
kanwa
kanye
kanyeihamba
kanzu
kao
kaole
kapadokia
kapenguria
kapilari
kaplan
kapoor
kaposi
kappa
kapteni
kaptula
kar
kara
karabu
karachi
karadha
karafuu
karagwe
karakana
karakoram
karama
karamu
karan
karanga
karani
karantini
karas
karasuma
karatasi
karate
karatu
karbala
kardinali
karen
karenga
kariakoo
kariba
karibi
karibia
karibiani
karibu
karibuni
karim
karin
kariuki
karl
karmeli
karnataka
karne
karo
karol
karoli
karolo
karonga
karoo
karoti
kars
karthago
karthala
karua
karume
karuzi
karyn
kas
kasa
kasai
kasanda
kasanga
kasarani
kasbah
kasese
kaseti
kasha
kashfa
kashmir
kasi
kasiba
kasinoma
kasisi
kaskazi
kaskazini
kasoko
kasoro
kaspi
kasri
kassim
kast
kastamonu
kastilia
kasuku
kasulu
kasumba
kaswende
kat
kata
katakana
katakata
katakwi
katalogi
katanga
katani
katarina
katavi
katazo
kate
kategoria
katekesi
katekisimu
katekista
katerina
katharine
katherine
kathleen
kathryn
kathy
kati
katia
katiba
katibu
katie
katika
katikati
katima
katiola
katka
kato
katoliki
katolsk
katrina
katumbi
katuni
katwe
katy
katz
kau
kaufman
kaufmann
kaukazi
kauli
kaulimbiu
kaunda
kaunti
kauri
kausi
kavu
kawa
kawaida
kawawa
kawi
kay
kaya
kayanza
kaye
kayseri
kayunga
kazakhstan
kazan
kazi
kazini
kazkazini
kb
kbc
kc
kcb
kd
ke
keating
kebbi
keebler
keep
keeper
keeping
kefalotoraksi
kegan
kei
keita
keith
keiyo
kejeli
kekeo
keki
kelele
keller
kelley
kellog
kellogg
kelly
kelvin
kemal
kemia
kemikali
kemotherapi
kemp
ken
kenda
kendall
kendrick
kenge
kengele
kenkey
kennedy
kenneth
kenny
kent
kentridge
kentucky
kenya
kenyan
kenyans
kenyatta
kenye
kenzo
kepler
kept
kerala
kerem
kereng
kericho
kerio
kero
kerr
kerry
kersee
kesha
kesho
kesi
kessinger
kete
ketusi
kevin
key
keyboard
keyboards
keynes
keys
keyser
keyshia
kezilahabi
kg
kgalagadi
kgatleng
kh
khadija
khaled
khalid
khalifa
khalil
khamis
khan
khartoum
khatib
khazars
kheri
khmer
khoisan
khomeini
khumalo
ki
kia
kiada
kiadamawa
kiafrika
kiafrikaans
kiafrikana
kiafya
kiagta
kiajemi
kiaka
kiakili
kiakiolojia
kialbania
kialtai
kiamba
kiambishi
kiambu
kiamerika
kiamhari
kiang
kiangal
kiangazi
kianglikana
kiapo
kiarabu
kiaramu
kiarmenia
kiaryan
kiashiria
kiasi
kiasia
kiasili
kiasmat
kiatlantiki
kiatta
kiatu
kiaustro
kiaustronesia
kiawyu
kiayalandi
kiayta
kiazeri
kiazi
kiba
kibaale
kibabar
kibada
kibaga
kibaguzi
kibaha
kibahnariki
kibai
kibaka
kibakati
kibaki
kibakteria
kibali
kibalti
kibambara
kibanda
kibantu
kibao
kibara
kibarabara
kibareli
kibarito
kibaski
kibatak
kibati
kibaya
kibayolojia
kibelgiji
kibena
kibenedikto
kibenga
kibengali
kibenki
kibepari
kibera
kiberawan
kiberber
kibete
kibeti
kibiao
kibiashara
kibibi
kibiblia
kibichi
kibikol
kibima
kibinadamu
kibinafsi
kibiolojia
kibisi
kibiti
kibo
kibodi
kibodish
kibodo
kibofu
kiboga
kiboko
kibondo
kibongo
kibontok
kibonyezo
kiborneo
kibosho
kibretoni
kibulgaria
kibunge
kibunu
kiburi
kiburu
kibuyang
kibuyu
kibwagizo
kibwezi
kicelebiki
kichaa
kichadiki
kichagga
kichaka
kichawi
kicheche
kichefuchefu
kicheki
kichin
kichina
kichocheo
kichocho
kichungaji
kichwa
kichwani
kick
kid
kidaku
kidal
kidani
kidari
kidato
kidatu
kidemokrasia
kidenenda
kideni
kidenmark
kidevu
kidigitali
kidijitali
kidijiti
kidikteta
kidini
kidinka
kidiplomasia
kidiri
kidman
kidogo
kidogon
kidole
kidonda
kidong
kidonge
kidravidi
kids
kidugu
kidukari
kidunia
kidusia
kidusiwa
kidusun
kie
kiebrania
kiede
kiedoidi
kiefer
kieire
kiekolojia
kiekumeni
kiel
kielektroniki
kielelezo
kielezi
kielezo
kielimu
kieneo
kienyeji
kiesperanto
kiestonia
kiethiopia
kietruski
kiev
kifaa
kifaduro
kifafa
kifahari
kifali
kifalme
kifalsafa
kifamilia
kifani
kifaransa
kifarsi
kifaru
kifasihi
kifedha
kifilipino
kifini
kifinisia
kifinisterre
kifinlandi
kifizikia
kifo
kifodini
kifransisko
kifrisia
kifua
kifuani
kifuko
kifulfulde
kifundo
kifungo
kifungoni
kifungu
kifungua
kifuniko
kifupi
kifupisho
kiga
kigadaba
kigaidi
kigali
kigalicia
kigamboni
kiganda
kiganga
kiganja
kigbaya
kigbe
kigelao
kigeni
kigeorgia
kigermanik
kigezo
kiggundu
kigiriki
kigogo
kigoma
kigondi
kigong
kigosi
kigrebo
kigujarati
kigumu
kigunwinyguan
kigur
kigweno
kihafidhina
kihalali
kiharusi
kihausa
kihawai
kihaya
kihehe
kihimalaya
kihindi
kihindu
kihisabati
kihisi
kihisia
kihispania
kihistoria
kihmong
kihmongiki
kiholanzi
kihoro
kihuishui
kihungaria
kihutu
kiikolojia
kiima
kiindonesia
kiing
kiingereza
kiingilio
kiini
kiinitete
kiinjili
kiir
kiirani
kiishara
kiisimu
kiislam
kiislamu
kiitalia
kiitaliano
kiitikio
kiitneg
kiitwacho
kijadi
kijamaa
kijamii
kijana
kijani
kijapani
kijava
kijenetiki
kijenetikia
kijeni
kijerumani
kijeshi
kijicho
kijiji
kijijini
kijiko
kijimbo
kijimi
kijinsia
kijiografia
kijiolojia
kijiometri
kijitabu
kijiti
kijito
kijivu
kijiyai
kijukunoidi
kijumla
kijumuia
kijusi
kijuujuu
kik
kikabaila
kikabari
kikabila
kikaboni
kikadazan
kikaili
kikainji
kikali
kikalinga
kikallahan
kikami
kikamilifu
kikanda
kikanisa
kikannada
kikanum
kikanuri
kikao
kikapu
kikara
kikaren
kikarniki
kikatalani
kikatiba
kikatili
kikatoliki
kikaukazi
kikawa
kikawaida
kikayan
kikazakhi
kikazi
kike
kikele
kikelti
kikemia
kikemikali
kikham
kikhmer
kiki
kikinnauri
kikirgizi
kikirili
kikisi
kikiwa
kikiwemo
kikliniki
kiko
kikohozi
kikoli
kikoloni
kikombe
kikomo
kikomunisti
kikonfusyo
kikongo
kikono
kikonyo
kikopti
kikordofani
kikorea
kikoro
kikosi
kikota
kikristo
kikroatia
kikru
kikubwa
kikucha
kikuku
kikuletwa
kikundi
kikurdi
kikurumba
kikushi
kikuu
kikuyu
kikwa
kikwazo
kikwete
kikyrili
kila
kilabu
kilakala
kilala
kilalo
kilango
kilatini
kilatvia
kile
kilekile
kilele
kileleni
kilema
kilemba
kileo
kili
kiliandikwa
kilianza
kilianzishwa
kilichapishwa
kilicho
kilichoandikwa
kilichoanzishwa
kilichochapishwa
kilichofuata
kilichoitwa
kilichoko
kilichokuwa
kilichoongozwa
kilichopo
kilichotengenezwa
kilichotokea
kilichotolewa
kilichoundwa
kiliendelea
kilifanya
kilifi
kiliitwa
kilijengwa
kilijulikana
kilikia
kilikua
kilikuwa
kilima
kilimani
kilimanjaro
kilimo
kilimwengu
kilindi
kilingala
kilio
kilipata
kilipewa
kilisababisha
kilishinda
kilithuania
kilitoa
kilitokea
kilitolewa
kilitumika
kiliundwa
kiliweza
kill
killed
killer
killing
kills
kilo
kilogramu
kilolo
kilombero
kilometa
kilometres
kilomita
kilosa
kilugha
kiluo
kilutheri
kiluwiluwi
kiluwiri
kilwa
kim
kima
kimaadili
kimaandishi
kimaasai
kimadang
kimaendeleo
kimagharibi
kimahaba
kimaisha
kimakhuwa
kimakosa
kimakusudi
kimala
kimalagasi
kimalagasy
kimalay
kimalayalam
kimalayiki
kimaluku
kimanda
kimande
kimani
kimanobo
kimantiki
kimaori
kimapenzi
kimapinduzi
kimapokeo
kimara
kimarathi
kimarekani
kimari
kimaria
kimariki
kimarind
kimarkesa
kimasai
kimasela
kimashan
kimashi
kimasomo
kimataifa
kimatendo
kimathi
kimatibabu
kimaumbile
kimawazo
kimayi
kimazingira
kimbari
kimberley
kimberly
kimbilio
kimbo
kimbunga
kimeandikwa
kimekuwa
kimelanau
kimelea
kimeng
kimeru
kimeta
kimetaboliki
kimetali
kimfumo
kimiao
kimichezo
kimila
kimiminika
kimin
kimisionari
kimisri
kimkakati
kimkoa
kimnong
kimo
kimoja
kimojawapo
kimombo
kimonaki
kimondo
kimongolia
kimono
kimsingi
kimuji
kimunda
kimungu
kimuria
kimuundo
kimuziki
kimwili
kimya
kin
kina
kinabii
kinacho
kinachofanana
kinachofanya
kinachohitajika
kinachoitwa
kinachojulikana
kinacholiwa
kinachoonekana
kinachopatikana
kinachorushwa
kinachotengenezwa
kinachotoa
kinachotokana
kinachotokea
kinachotolewa
kinachotumika
kinachotumiwa
kinachoweza
kinadharia
kinaelezea
kinafanana
kinafikia
kinaga
kinaganaga
kinahusu
kinaitwa
kinajulikana
kinajumuisha
kinakadiriwa
kinamasi
kinamo
kinanda
kinango
kinaonekana
kinaonyesha
kinapatikana
kinara
kinasaba
kinasema
kinasimulia
kinataja
kinatakiwa
kinatoa
kinatumia
kinatumika
kinatumiwa
kinaweza
kinazidi
kind
kinda
kinder
kindi
kindu
kinengenenge
kinepali
king
kinga
kingamaradhi
kingamwili
kingbaka
kingdom
kingdoms
kingereza
kingfisher
kingi
kingine
kingo
kingono
kings
kingsley
kingston
kingwi
kiniger
kinigeria
kinili
kinilo
kiniloti
kinilotiki
kinisu
kinney
kinondoni
kinorwe
kinorwei
kinshasa
kinski
kinu
kinubi
kinuya
kinyago
kinyama
kinyamaganga
kinyamwezi
kinyang
kinyarwanda
kinyesi
kinyiha
kinyonga
kinyongia
kinyuklia
kinyumbani
kinyume
kinyunga
kinywa
kinywaji
kinywani
kinza
kio
kioevu
kiolwa
kiomotiki
kione
kiongozi
kioo
kioromo
kiorthodoksi
kioseaniki
kiosmani
kiota
kiotomatiki
kiowevu
kipa
kipagani
kipahari
kipaimara
kipaji
kipalaung
kipalawano
kipalestina
kipama
kipaman
kipana
kipandauso
kipande
kipanga
kipanya
kipapa
kipapua
kipare
kipashai
kipashio
kipashto
kipato
kipaumbele
kipawa
kipaza
kipekee
kipenan
kipengee
kipengele
kipengere
kipenyo
kipenzi
kipeo
kipepeo
kiphowa
kipi
kipihom
kipimaanga
kipimajoto
kipimanjia
kipimo
kipindi
kipindupindu
kipiri
kipitishi
kipo
kipofu
kipokezi
kipoland
kipolandi
kipolishi
kipozamataza
kippur
kiprotestanti
kipumbavu
kipunan
kipunjabi
kipupwe
kipya
kira
kirafiki
kirahisi
kirai
kiraia
kiraka
kiramu
kirangi
kiranja
kirby
kirche
kirchenlexikon
kirchner
kirefu
kireno
kirgizia
kiribati
kirikou
kirinyaga
kirk
kiroboto
kiroglai
kiroho
kiroma
kiromania
kirsch
kiruhura
kirukanjia
kirumi
kirundi
kirundo
kirusi
kiryandongo
kisa
kisaami
kisababishi
kisafwa
kisaga
kisahani
kisai
kisaikolojia
kisal
kisama
kisamba
kisamo
kisanaa
kisanga
kisangani
kisangu
kisanii
kisanji
kisanskrit
kisarawe
kisarufi
kisasa
kisasi
kisawe
kisayansi
kiselti
kisemiti
kisenoufo
kisepik
kiserbia
kiserbokroatia
kiserikali
kisha
kishahidi
kishairi
kishapu
kishawishi
kishazi
kisheria
kishia
kishimoto
kishindo
kishirikishi
kishogo
kishona
kishujaa
kishungi
kisiasa
kisicho
kisigino
kisii
kisima
kisindhi
kisingizio
kisino
kisiri
kisiria
kisiwa
kisiwani
kiskoti
kislavoni
kislovakia
kislovenia
kiso
kisogo
kisomali
kisomwe
kisonono
kisoro
kisoshalisti
kisotho
kisovieti
kisovyeti
kiss
kissinger
kisu
kisubanen
kisubi
kisukari
kisukuku
kisukuma
kisulawesi
kisumu
kisunni
kiswahili
kiswidi
kit
kita
kitaalam
kitaalamu
kitaaluma
kitabia
kitabibu
kitabu
kitagbanwa
kitahiti
kitai
kitaifa
kitajiki
kitakatifu
kitako
kitakuwa
kitale
kitaliano
kitalii
kitalu
kitamaduni
kitamang
kitambaa
kitambo
kitambulisho
kitamil
kitamu
kitanda
kitandani
kitangulizi
kitanzania
kitanzi
kitara
kitawa
kitchen
kite
kiteke
kiteknolojia
kitelugu
kitemi
kitendo
kitengo
kitenzi
kitenzijina
kiteolojia
kiteso
kiteto
kitgum
kithai
kitharu
kiti
kitigrinya
kitime
kitimor
kitita
kitivo
kito
kitonga
kitongoji
kitor
kitorricelli
kitoto
kitovu
kitoweo
kitropiki
kitts
kitu
kituamotu
kitubio
kitufe
kitui
kitume
kitunda
kitungusi
kitunguu
kituo
kiturki
kituruki
kitutu
kitwitwi
kityap
kiu
kiua
kiuchumi
kiufundi
kiujumla
kiukraine
kiukreni
kiulaya
kiuma
kiumbe
kiumbehai
kiume
kiunganishi
kiungo
kiuno
kiunoni
kiunzi
kiurali
kiurdu
kiutamaduni
kiutambuzi
kiutawala
kiutendaji
kiutu
kiuzbeki
kivietinamu
kivietnam
kivinjari
kivinje
kivita
kivolkeno
kivu
kivuka
kivuko
kivukoni
kivuli
kivumishi
kivutio
kivyake
kiwa
kiwakilishi
kiwalani
kiwambo
kiwanda
kiwandani
kiwango
kiwanja
kiwatut
kiwavi
kiwe
kiwelsh
kiwewe
kiwik
kiwiliwili
kixhosa
kiyahudi
kiyaka
kiyali
kiyama
kiyangum
kiyoruba
kiyunani
kizalendo
kizamani
kizazi
kizhuang
kizima
kizingiti
kizio
kizito
kizole
kizuio
kizuizi
kizuizini
kizulu
kizungu
kizunguzungu
kizuri
kj
kk
kkk
kkkt
kl
klabu
klamidia
klara
klasiki
klaudio
klaus
kle
klein
klemens
klementi
kleopatra
klerk
kliniki
kln
klorini
klose
kluwer
km
knappert
knbs
knew
knight
knights
knii
knock
knopf
know
knowledge
knowles
known
knows
knox
knyga
ko
koa
kobayashi
kobe
koboko
kobus
kocaeli
koch
kocha
kochi
kodi
koffi
koffikro
kofi
kofia
koikoi
kojo
kokeni
koki
koko
kokote
kokoto
kokwa
kol
kola
kolbe
kole
koleo
koli
kolkata
kolo
kolokolo
kolombia
koloni
kolumbani
kolumbia
kolumbus
kom
koma
komba
kombe
kombo
kombora
komori
komoro
kompilesheni
kompyuta
komunyo
kona
konde
kondo
kondoa
kondomu
kondoo
kones
kong
kongamano
kongo
kongoni
kongosho
kongwa
kongwe
koni
konje
konokono
konrad
konsert
konsonanti
konstantin
konstantino
konstantinopoli
konstanz
konsuli
kontena
konventi
kony
konya
konyeza
koo
kool
kopa
kope
kopenhagen
kopi
kopo
kor
kora
kore
korea
korean
koreshi
korhogo
korintho
kornelio
koro
korobindo
korogoto
korogwe
koromeo
korona
korongo
korosho
korti
kortini
kos
kosa
kosma
kosoko
kosovo
kosta
kota
kote
koti
kotido
kotikosteroidi
kotisoli
kou
kouadiokro
kouame
kouassi
kouassikro
koue
koum
koun
kouto
kouyate
kovu
kowalska
kozaki
kozi
kr
kra
krai
krako
kramer
krapf
kre
krebs
kremlin
kresensi
kreta
krete
kriketi
krim
krioli
kris
krishna
krismasi
krisostomo
kristen
kristian
kristo
kristofa
kristoforo
kro
kroatia
kromosomu
krou
kruger
ks
ksie
ku
kua
kuabudiwa
kuabudu
kuacha
kuachana
kuachia
kuachiliwa
kuachishwa
kuachwa
kuadhibu
kuadhimisha
kuaga
kuagiza
kuahidi
kuainisha
kuainishwa
kuajiri
kuajiriwa
kuala
kuambatana
kuambiana
kuambiwa
kuambukiza
kuambukizwa
kuamini
kuaminika
kuamka
kuamsha
kuamua
kuamulia
kuamuru
kuandaa
kuandaliwa
kuandamana
kuandika
kuandikia
kuandikwa
kuangalia
kuangaliwa
kuangamiza
kuangamizwa
kuangaza
kuangazia
kuanguka
kuangusha
kuanza
kuanzia
kuanzisha
kuanzishwa
kuapishwa
kuashiria
kuasi
kuathiri
kuathirika
kuathiriwa
kuba
kubadili
kubadilika
kubadilisha
kubadilishana
kubadilishwa
kubahatisha
kubaini
kubainisha
kubaki
kubakia
kubalehe
kubana
kubanwa
kubashiri
kubatizwa
kubeba
kubebea
kubebwa
kubishana
kubo
kubomoa
kubomolewa
kuboresha
kuboreshwa
kubuni
kubuniwa
kuburudisha
kubwa
kucha
kuchagua
kuchaguliwa
kuchakata
kuchakulo
kuchambua
kuchamsitu
kuchana
kuchanganua
kuchanganya
kuchanganyikiwa
kuchanganywa
kuchangia
kuchapa
kuchapisha
kuchapishwa
kuchekesha
kuchelewa
kuchelewesha
kuchemka
kuchemsha
kucheza
kuchezea
kuchezwa
kuchimba
kuchipua
kuchochea
kuchoka
kuchoma
kuchomwa
kuchonga
kuchora
kuchota
kuchuja
kuchukua
kuchukuliwa
kuchunga
kuchungulia
kuchunguza
kuchunguzwa
kudai
kudanganya
kudhaminiwa
kudhani
kudharau
kudhibiti
kudhibitisha
kudhibitiwa
kudhihirisha
kudhoofika
kudhoofisha
kudhulumiwa
kudhulumu
kudhuru
kudokeza
kudu
kudumisha
kudumu
kudunga
kudungwa
kuelea
kuelekea
kuelekeza
kuelekezwa
kuelewa
kuelewana
kueleweka
kueleza
kuelezea
kuelezewa
kuelezwa
kuelimisha
kuenda
kuendana
kuendelea
kuendeleza
kuendelezwa
kuendesha
kuendeshwa
kuenea
kueneza
kuenezwa
kuepuka
kuepukana
kuepusha
kufa
kufaa
kufadhili
kufafanua
kufafanuliwa
kufahamika
kufahamu
kufaidika
kufanana
kufanikisha
kufanikiwa
kufanya
kufanyia
kufanyika
kufanyiwa
kufanywa
kufariki
kufaulu
kufeli
kufia
kuficha
kufichua
kufidia
kufifia
kufika
kufikia
kufikiri
kufikiria
kufikirika
kufikiriwa
kufikisha
kufikiwa
kufiwa
kufuata
kufuatana
kufuatia
kufuatilia
kufuatiliwa
kufuatiwa
kufuatwa
kufufua
kufufuka
kufuga
kufugwa
kufukuza
kufukuzwa
kufuli
kufuma
kufundisha
kufundishia
kufundishwa
kufunga
kufungana
kufungia
kufungua
kufunguliwa
kufungwa
kufunika
kufunikwa
kufunua
kufunza
kufunzwa
kufupisha
kufurahia
kufurahisha
kufuta
kufutwa
kufuzu
kufyatua
kufyatulia
kufyonza
kuganda
kugandisha
kugawa
kugawana
kugawanya
kugawanyika
kugawanywa
kugawiwa
kugeuka
kugeuza
kugeuzwa
kugharamia
kugombea
kugonga
kugongana
kugongwa
kugundua
kugunduliwa
kugusa
kugusana
kuguswa
kuhakikisha
kuhalalisha
kuhama
kuhamahama
kuhamasisha
kuhamia
kuhamisha
kuhamishiwa
kuhamishwa
kuhangaika
kuhani
kuhara
kuharakisha
kuharibika
kuharibiwa
kuharibu
kuhariri
kuhaririwa
kuharisha
kuhatarisha
kuhesabiwa
kuhesabu
kuheshimiwa
kuheshimu
kuhifadhi
kuhifadhia
kuhifadhiwa
kuhiji
kuhimili
kuhimiza
kuhisi
kuhitaji
kuhitajika
kuhitimu
kuhn
kuhofia
kuhojiwa
kuhubiri
kuhudhuria
kuhudumia
kuhudumu
kuhukumiwa
kuhukumu
kuhusiana
kuhusika
kuhusisha
kuhusishwa
kuhusu
kuiacha
kuiba
kuibadilisha
kuibua
kuibuka
kuichezea
kuidhinisha
kuidhinishwa
kuifanya
kuifanyia
kuiga
kuigiza
kuigwa
kuiita
kuimarika
kuimarisha
kuimarishwa
kuimba
kuimbwa
kuingia
kuingilia
kuingiliana
kuingiliwa
kuingiza
kuingizwa
kuinjilisha
kuinua
kuinuka
kuinuliwa
kuipa
kuipanua
kuipata
kuipeleka
kuiper
kuisaidia
kuisha
kuishi
kuishia
kuishinda
kuisi
kuita
kuitengeneza
kuitikia
kuitisha
kuitoa
kuitumia
kuitwa
kuiva
kuiwakilisha
kuiweka
kuja
kujaa
kujadili
kujadiliana
kujadiliwa
kujali
kujaliwa
kujamiana
kujamiiana
kujaribiwa
kujaribu
kujaza
kujenga
kujengwa
kujeruhiwa
kujiachilia
kujiamini
kujiandaa
kujiandikisha
kujibu
kujieleza
kujiendeleza
kujiendesha
kujiepusha
kujifanya
kujificha
kujifunga
kujifungua
kujifunza
kujihami
kujihusisha
kujiingiza
kujiita
kujikana
kujikaza
kujikimu
kujikinga
kujikita
kujikomboa
kujikusanya
kujikuta
kujilinda
kujilisha
kujinyima
kujiokoa
kujiona
kujiondoa
kujipatia
kujipendea
kujirekebisha
kujirudia
kujishughulisha
kujisikia
kujitafutia
kujitahidi
kujitambua
kujitambulisha
kujitangaza
kujitawala
kujitegemea
kujitenga
kujitetea
kujitoa
kujitokeza
kujitolea
kujiua
kujiunga
kujiuzulu
kujivunia
kujiweka
kujua
kujulikana
kujulisha
kujumlisha
kujumuisha
kujumuishwa
kukaa
kukaanga
kukabidhi
kukabidhiwa
kukabili
kukabiliana
kukabiliwa
kukadiria
kukadiriwa
kukagua
kukalia
kukaliwa
kukamata
kukamatwa
kukamilika
kukamilisha
kukamilishwa
kukana
kukandamiza
kukanusha
kukanyaga
kukarabati
kukaribia
kukaribisha
kukariri
kukata
kukataa
kukataliwa
kukataza
kukatiza
kukatwa
kukauka
kukausha
kukaushwa
kukawa
kukaza
kukazia
kukesha
kuketi
kuki
kukidhi
kukielewa
kukifanya
kukimbia
kukimbilia
kukinga
kukiri
kukiuka
kukiwa
kukodi
kukodisha
kukohoa
kukojoa
kukoma
kukomaa
kukomboa
kukomesha
kukomeshwa
kukopa
kukosa
kukosea
kukosekana
kukosoa
kuku
kukua
kukubali
kukubaliana
kukubalika
kukubaliwa
kukulia
kukumbuka
kukumbukwa
kukumbusha
kukumbwa
kukunja
kukusanya
kukusanyika
kukusanywa
kukusudia
kukuta
kukutana
kukuza
kukuziwa
kukuzwa
kukwama
kukwepa
kula
kulaani
kulabu
kulainisha
kulala
kulalamika
kulalia
kulaumiwa
kulazimisha
kulazimishwa
kulazwa
kule
kulea
kulelewa
kulenga
kuleta
kuletwa
kulevya
kulia
kulianza
kulifanya
kuliko
kulikuwa
kulima
kulimwa
kulinda
kulindwa
kulingana
kulinganisha
kulinganishwa
kulipa
kulipia
kulipiza
kulipua
kulipuka
kulipwa
kulisababisha
kulisha
kulitokea
kulitumia
kuliwa
kulthum
kulungu
kum
kuma
kumaanisha
kumaliza
kumalizia
kumalizika
kumar
kumasi
kumb
kumbe
kumbi
kumbuka
kumbukizi
kumbukumbu
kumchagua
kumchukua
kumegwa
kumekuwa
kumeng
kumeza
kumezwa
kumfahamu
kumfanya
kumfanyia
kumfikia
kumfikiria
kumfuasa
kumfuata
kumfukuza
kumfunga
kumheshimu
kumhusu
kumi
kumiliki
kumiminiwa
kumjua
kumkamata
kumkubali
kumkumbuka
kumkuta
kumlazimisha
kumlea
kumlinda
kumnunua
kumpa
kumpata
kumpatia
kumpeleka
kumpenda
kumpendeza
kumpiga
kumpindua
kumpokea
kumrudisha
kumruhusu
kumsaidia
kumshambulia
kumshawishi
kumshinda
kumshirikisha
kumshukuru
kumsifu
kumsikiliza
kumtafuta
kumtaja
kumtambua
kumtambulisha
kumtangaza
kumtazama
kumtegemea
kumtembelea
kumtetea
kumteua
kumtia
kumtii
kumtoa
kumtolea
kumtukuza
kumtuma
kumtumia
kumtumikia
kumuabudu
kumuacha
kumuamini
kumudu
kumuendea
kumuita
kumuoa
kumuomba
kumuona
kumuua
kumuunga
kumwacha
kumwaga
kumwagilia
kumwambia
kumwamini
kumweka
kumweleza
kumwezesha
kumwita
kumwoa
kumwokoa
kumwomba
kumwona
kumwondoa
kumwua
kumzaa
kumzuia
kun
kuna
kunakili
kunako
kunasa
kunasababisha
kunatokea
kunawa
kunaweza
kunda
kunde
kundi
kundini
kundinyota
kunene
kung
kunguni
kunguru
kungwi
kuni
kunjamano
kunst
kunta
kununua
kununuliwa
kunusa
kunyakua
kunyang
kunyanyua
kunyesha
kunyimwa
kunyoa
kunyongwa
kunyonya
kunyonyesha
kunyoosha
kunywa
kunywea
kuoa
kuoana
kuoga
kuogelea
kuogopa
kuoka
kuokoa
kuokoka
kuolewa
kuomba
kuombaomba
kuombea
kuomintang
kuona
kuonana
kuondoa
kuondoka
kuondokana
kuondolewa
kuonekana
kuonesha
kuongea
kuongeza
kuongezea
kuongezeka
kuongezewa
kuongezwa
kuongoka
kuongoza
kuongozwa
kuonja
kuonyesha
kuonyeshwa
kuorodhesha
kuorodheshwa
kuosha
kuota
kuoza
kupaa
kupaka
kupakana
kupakia
kupakua
kupakuliwa
kupakwa
kupalizwa
kupamba
kupambana
kupanda
kupandana
kupandisha
kupandishwa
kupandwa
kupanga
kupangwa
kupanua
kupanuka
kupanuliwa
kupanusha
kupasha
kupashwa
kupasua
kupasuka
kupasuliwa
kupata
kupatana
kupatanisha
kupatikana
kupatwa
kupe
kupeana
kupeleka
kupelekea
kupelekwa
kupeleleza
kupenda
kupendana
kupendekeza
kupendekezwa
kupendelea
kupendeza
kupendezwa
kupendwa
kupenya
kupepesuka
kupewa
kupiga
kupigana
kupigania
kupigia
kupigiwa
kupigwa
kupika
kupikia
kupikwa
kupima
kupimia
kupimwa
kupindua
kupindukia
kupinduliwa
kupinga
kupingana
kupingwa
kupita
kupitia
kupitisha
kupitishwa
kupoa
kupokea
kupokelewa
kupokewa
kupokezana
kupona
kuponya
kupooza
kupora
kuporomoka
kupotea
kupotewa
kupoteza
kupotosha
kupoza
kupro
kupuliza
kupumua
kupumzika
kupungua
kupunguka
kupungukiwa
kupunguza
kupunguzwa
kupuuza
kupuuzia
kura
kurahisisha
kurani
kurap
kurasa
kuratibu
kurdish
kurefusha
kurejea
kurejelea
kurejesha
kurekebisha
kurekebishwa
kurekodi
kurekodia
kurekodiwa
kurene
kuria
kuridhika
kuridhisha
kuripoti
kuripotiwa
kurithi
kurithiwa
kuro
kurt
kurth
kuru
kurudi
kurudia
kurudiarudia
kurudisha
kurudishwa
kurudiwa
kurugenzi
kuruhusiwa
kuruhusu
kuruka
kurumbiza
kurusha
kurushia
kurushwa
kusababisha
kusababishwa
kusadiki
kusafiri
kusafiria
kusafirisha
kusafirishwa
kusafisha
kusafishia
kusafishwa
kusaga
kusagwa
kusahau
kusahihisha
kusaidia
kusaidiana
kusaidiwa
kusaini
kusainiwa
kusajili
kusajiliwa
kusali
kusalimu
kusambaa
kusambaratika
kusambaza
kusambazwa
kusamehe
kusanyiko
kusawazisha
kusema
kusemwa
kush
kushambulia
kushambuliwa
kushangaza
kushauri
kushauriana
kushawishi
kusherehekea
kushi
kushika
kushikamana
kushikana
kushikilia
kushikwa
kushinda
kushindana
kushindikana
kushindwa
kushiriki
kushirikiana
kushirikisha
kushirikishwa
kushona
kushoto
kushtakiwa
kushughulika
kushughulikia
kushughulikiwa
kushuhudia
kushuka
kushukuru
kushusha
kushushwa
kusi
kusifiwa
kusifu
kusikia
kusikika
kusikiliza
kusikilizwa
kusikitisha
kusilimu
kusimama
kusimamia
kusimamisha
kusimamishwa
kusimamiwa
kusimulia
kusini
kusinimashariki
kusisimua
kusisitiza
kusita
kusitisha
kusogea
kusogeza
kusoma
kusomea
kusomwa
kusonga
kustaafu
kustahili
kustahimili
kustawi
kustawisha
kusubiri
kusudi
kusuka
kusukuma
kusukumwa
kusuluhisha
kuswali
kut
kuta
kutabiri
kutafakari
kutafiti
kutafsiri
kutafsiriwa
kutafuna
kutafuta
kutaga
kutahiriwa
kutaja
kutajwa
kutaka
kutakasa
kutakaswa
kutakuwa
kutamani
kutamba
kutambua
kutambulika
kutambulisha
kutambuliwa
kutamka
kutana
kutangamana
kutangaza
kutangazwa
kutangulia
kutapika
kutarajia
kutatanisha
kutathmini
kutatua
kutawala
kutawaliwa
kutayarisha
kutayarishwa
kutazama
kutazamwa
kutegemea
kutegemeana
kutegemewa
kuteka
kutekeleza
kutekelezwa
kuteketezwa
kutekwa
kuteleza
kutembea
kutembelea
kutembelewa
kutenda
kutendeka
kutendewa
kutenga
kutengana
kutenganisha
kutengeneza
kutengenezea
kutengenezwa
kutengeza
kutengwa
kuteseka
kuteswa
kutetea
kutetemeka
kuteua
kuteuliwa
kuthamini
kuthibitisha
kuthibitishwa
kuti
kutia
kutibiwa
kutibu
kutii
kutilia
kutimiza
kutiririka
kutisha
kutishia
kutiwa
kutoa
kutoboa
kutoelewana
kutofanya
kutofaulu
kutofautiana
kutofautisha
kutofautishwa
kutojali
kutojua
kutoka
kutokana
kutokea
kutokeza
kutokomeza
kutokubali
kutokubaliana
kutokuwa
kutokuwepo
kutokwa
kutolea
kutolewa
kutomba
kutopata
kutoridhika
kutoroka
kutosha
kutosheleza
kutotumia
kutoweka
kutoweza
kutu
kutua
kutubu
kutulia
kutuliza
kutuma
kutumbuiza
kutumia
kutumika
kutumikia
kutumiwa
kutumwa
kutunga
kutungwa
kutunukiwa
kutunza
kutunzia
kutunzwa
kutupa
kutupwa
kutwa
kutwaa
kutwaliwa
kuu
kuua
kuuawa
kuufanya
kuufikia
kuugua
kuuliwa
kuuliza
kuuma
kuumba
kuumbwa
kuume
kuumia
kuumwa
kuunda
kuundwa
kuunga
kuungama
kuungana
kuunganisha
kuunganishwa
kuungwa
kuuona
kuupa
kuupata
kuutoa
kuuza
kuuzwa
kuvaa
kuvalia
kuvaliwa
kuvamia
kuvamiwa
kuvimba
kuvu
kuvua
kuvuja
kuvuka
kuvukia
kuvuma
kuvumbua
kuvumilia
kuvuna
kuvunja
kuvunjika
kuvunjwa
kuvuruga
kuvuta
kuvutia
kuvutiwa
kuvutwa
kuwa
kuwaacha
kuwaachia
kuwaambia
kuwaandaa
kuwaelekeza
kuwaelimisha
kuwafanya
kuwafanyia
kuwafikia
kuwafuata
kuwafukuza
kuwafundisha
kuwahamasisha
kuwahi
kuwahimiza
kuwahudumia
kuwahukumu
kuwait
kuwaita
kuwajibika
kuwaka
kuwakamata
kuwakilisha
kuwalazimisha
kuwaleta
kuwaletea
kuwalinda
kuwania
kuwaokoa
kuwaombea
kuwaona
kuwaondoa
kuwaongoza
kuwapa
kuwapatia
kuwapeleka
kuwapenda
kuwapiga
kuwapo
kuwarudisha
kuwaruhusu
kuwasaidia
kuwasha
kuwashambulia
kuwashawishi
kuwashinda
kuwashirikisha
kuwashwa
kuwasili
kuwasiliana
kuwasilisha
kuwatambua
kuwatazama
kuwatendea
kuwatesa
kuwatetea
kuwatia
kuwatumia
kuwatunza
kuwaua
kuwaunganisha
kuwavuta
kuwavutia
kuwaweka
kuwawezesha
kuwaza
kuwazuia
kuwe
kuweka
kuwekea
kuwekewa
kuwekeza
kuweko
kuwekwa
kuwepo
kuweza
kuwezesha
kuwinda
kuyafanya
kuyeyuka
kuyeyusha
kuzaa
kuzaliana
kuzalisha
kuzalishwa
kuzaliwa
kuzama
kuzeeka
kuzi
kuziba
kuzibwa
kuzidi
kuzidisha
kuzifanya
kuzika
kuzikwa
kuzima
kuzimu
kuzindua
kuzinduliwa
kuzingatia
kuzingatiwa
kuzingirwa
kuzipa
kuzitumia
kuziweka
kuzoea
kuzorota
kuzua
kuzuia
kuzuiliwa
kuzuiwa
kuzuka
kuzunguka
kuzungumza
kuzungumzia
kuzungusha
kuzuru
kv
kw
kwa
kwaajili
kwabena
kwaito
kwake
kwako
kwakuwa
kwale
kwamba
kwame
kwangu
kwani
kwanini
kwanta
kwanza
kwanzia
kwao
kwara
kwarara
kwaresima
kwasababu
kwasasa
kwato
kwaya
kwazulu
kweche
kweku
kwela
kwelea
kweli
kwelikweli
kwenda
kweneng
kwenu
kwenye
kwenzi
kwera
kwerba
kwesi
kwetu
kwimba
kwingi
kwingine
kwingineko
kwisha
kwk
kwon
ky
kyambogo
kyanga
kyankwanzi
kyegegwa
kyela
kyenjojo
kyerwa
kyiv
kyle
kylie
kyo
kyoga
kyoto
kyrgyzstan
kz
kırklareli
kırs
l
la
laana
lab
labda
label
labor
laboratory
laboso
labour
labrador
lac
lacaille
lace
lacey
lack
laden
ladha
ladies
lady
laetoli
lafarge
lafayette
lafudhi
laga
lager
lagh
lago
lagos
lagrange
lahaja
lahore
lahou
lai
laid
laikipia
laini
laizer
lak
lakabu
lake
lakes
lakhi
laki
lakini
lako
lakota
lal
lalibela
lam
lama
lamaanisha
lamar
lamb
lambert
lambeth
lambo
lame
lameck
lami
lamprophiidae
lamprotornis
lamu
lamwo
lan
lanc
lancaster
lance
lancet
land
landau
lands
landscape
lane
lang
langa
lange
langenburg
lango
langu
language
languages
langue
langues
langur
lanham
laniarius
lanius
lanka
lante
lanzoni
lao
laos
laozi
lapidge
laporte
laptop
lapwing
lara
laren
large
larger
largest
lark
larry
lars
larson
larter
larus
las
laser
last
lat
late
later
lateranense
laterano
latest
latham
latifah
latin
latina
latino
latitude
latitudo
latokana
latter
latumiwa
latvia
lau
laude
laugh
laughingthrush
launch
launched
launches
laura
laurean
lauren
laurence
laurent
laurenti
laurie
lauryn
lausanne
laut
lava
laval
lavigerie
law
lawal
lawama
laweza
lawi
lawrence
laws
lawsuit
lawyer
lawyers
lay
layiwola
lazaro
lazarus
lazima
lazio
lb
lc
ld
ldp
le
lea
lead
leader
leaders
leadership
leading
leads
leaf
league
leah
leakey
lean
leandro
leap
learn
learned
learning
least
leave
leaves
leaving
leba
lebanon
lebanoni
leben
lebo
lechwe
lecrae
lecture
lectures
led
lee
leeds
leff
left
leg
legacy
legal
legend
legenda
legendary
legends
legged
legislation
legislative
lego
lei
leibniz
leicester
leiden
leigh
leila
leipzig
lela
leland
lema
lembata
lemon
lemur
lemuri
lena
lenana
leng
lengo
lenin
leningrad
lennon
lens
lent
lenye
lenyewe
lenzi
leo
leon
leonard
leonardo
leone
leonid
leonis
leopard
leopards
leopold
lepilemur
lepus
lerins
lerner
leroy
les
lesbian
lescharts
leseni
lesley
leslie
lesotho
less
lesser
lesson
lessons
lester
let
letheobia
letter
letters
lettow
lettres
letu
leuven
lev
level
levels
leverkusen
levi
levin
levine
leviticus
levy
lewis
lex
lexicon
lexikon
lexington
ley
lez
leza
lg
lgbt
lh
li
lia
liang
liao
liar
lib
liber
liberal
liberalism
liberation
liberia
liberte
liberty
libra
librairie
libraries
library
libre
libreria
libreville
libri
libro
libros
libya
libyan
license
licha
licinius
licypriya
liddell
lie
liechtenstein
lien
lier
lies
life
lifesitenews
lifestyle
lifetime
lifuatalo
liga
light
lighthouse
lightning
lights
ligi
ligue
liguori
liguria
liitwalo
lijulikanalo
likabadilishwa
likaendelea
likaja
likawa
like
likely
likimaanisha
likiongozwa
likiwa
likizo
liko
lil
lilanga
lile
lilelile
liliamua
lilian
liliandaliwa
lilianza
lilianzisha
lilianzishwa
lilibadilishwa
lilibuniwa
lilichaguliwa
lilichapishwa
lilichukua
lilichukuliwa
liliendelea
lilienea
lilifanya
lilifanyika
lilifanywa
lilifunguliwa
liligawiwa
liliingia
liliitwa
lilijengwa
lilijulikana
lilijumuisha
lilikua
lilikuja
lilikuwa
lilileta
lililo
lililoandaliwa
lililoandikwa
lililoanza
lililoanzishwa
lililofanyika
lililohifadhiwa
lililoitwa
lililojengwa
lililojulikana
lililoko
lililokuwa
lililoongozwa
lililopo
lililotokana
lililotokea
lililotolewa
lililotumiwa
lililoundwa
lilionekana
lilipata
lilipelekea
lilipewa
lilipitisha
lilisababisha
lilisema
lilishinda
lilishindwa
lilitafsiriwa
lilitajwa
lilitangaza
lilitoa
lilitokana
lilitokea
lilitolewa
lilitumika
lilitumiwa
liliundwa
lilivyo
liliwahi
liliwekwa
liliweza
lilizinduliwa
lille
lillian
lilly
lilongwe
lily
lim
lima
limao
limau
limburg
limburgish
limeenea
limekuwa
limepakana
limepewa
limerick
limetajwa
limetokana
limetumika
limeundwa
limfu
limited
limits
limo
limoges
limpopo
limuru
lin
lina
linaanza
linadokeza
linaendelea
linaenea
linafanana
linafanya
linafuata
linahusiana
linahusu
linaitwa
linajulikana
linajumuisha
linalenga
linalochapishwa
linalofanana
linalofanya
linalofuata
linaloitwa
linalojulikana
linalojumlisha
linalojumuisha
linalomaanisha
linaloonekana
linaloongozwa
linalopatikana
linalosababisha
linalotokana
linalotolewa
linalotumika
linalotumiwa
linalounganisha
linalovaliwa
linaloweza
linalozunguka
linamaanisha
linamheshimu
linaonekana
linaongozwa
linaonyesha
linapakana
linapatikana
linasema
linataja
linatoa
linatoka
linatokana
linatokea
linatumika
linatumiwa
linaunda
linaundwa
linaunganisha
linaunganishwa
linaweza
lincoln
linda
linden
lindi
lindisfarne
lindsay
lindsey
lindwa
line
linear
lines
ling
linganisha
linganishi
lingine
lingua
lingue
linguistic
linguistics
lini
link
linked
linkedin
linkid
linkinghub
links
linnaeus
linux
lion
lionel
lions
lipidi
lipo
lippincott
lira
lisa
lisboa
lisbon
lishe
lisieux
lisilo
lissu
list
lista
listed
listen
listening
lister
listing
lists
liszt
lit
lita
litakuwa
literacy
literally
literary
literatur
literature
literatures
lithuania
lithuanian
litte
little
littlefield
lituanya
liturgia
liturgical
liturgy
liturujia
liu
live
lived
liver
liverpool
lives
livestock
living
livingston
livingstone
livius
livre
livres
liwale
liwali
liwe
lix
liz
liza
lizard
lj
ljajic
lk
ll
lla
llc
ller
llorona
lloyd
lm
ln
lo
loan
loando
loc
local
localite
localities
located
location
locations
lock
lockdown
locke
locust
lodge
lodi
loeb
log
logan
logi
logic
logo
logos
loi
loire
lola
lolo
lolote
lombardia
lome
lomonosov
lon
lonchura
london
lonely
long
longer
longido
longitude
longitudo
longman
longmans
look
looking
looks
looney
lopes
lopez
lophuromys
lord
lords
lorenz
lorenzo
loreto
lori
loroupe
lorraine
los
lose
loses
loss
lost
lot
lote
lou
loud
louis
louise
louisiana
louisville
lourdes
louvain
louvre
louw
love
loved
lovely
lover
lovers
loves
loving
low
lowassa
lowe
lowell
lower
loyola
lp
lr
lra
ls
lt
ltd
lu
lua
lualaba
luambo
luanda
luangwa
lubumbashi
luc
luca
lucas
lucca
luce
lucia
luciano
lucie
lucius
luck
lucknow
lucky
lucy
ludewa
ludoviko
ludwig
lufthansa
lugalo
lugard
lugari
lugha
luhya
lui
luigi
luis
luisa
luiz
luka
lukas
luke
lulu
lumen
lumpur
lumumba
luna
lunar
lund
lunda
lundin
lung
luo
lupinus
lupita
lupus
lusaka
lushoto
lusia
luteni
luther
lutheran
luv
luweero
luxembourg
luxemburg
luxor
luxury
luy
lv
ly
lyantonde
lyce
lydia
lyle
lyn
lynch
lynn
lynne
lynx
lyon
lyons
lyra
lyrics
lyte
m
ma
maa
maabadi
maabara
maada
maadhimisho
maadili
maadui
maafa
maafisa
maagizo
maajabu
maalim
maalum
maalumu
maambukizi
maambukizo
maamuzi
maana
maanani
maandalizi
maandamano
maandiko
maandishi
maangamizi
maarifa
maarten
maarufu
maasai
maasi
maaskari
maaskofu
maastricht
maathai
maazimio
mababa
mababu
mabadiliko
mabadilishano
mabaharia
mabaka
mabaki
mabalozi
mabamba
mabandari
mabango
mabano
mabao
mabara
mabaraza
mabasi
mabata
mabati
mabavu
mabawa
mabaya
mabega
mabegani
mabehewa
mabeki
mabel
mabele
mabenki
mabepari
mabichi
mabikira
mabilioni
mabingwa
mabinti
mabishano
mabivu
maboga
maboma
mabomba
mabomu
mabonde
mabondia
maboresho
maboti
mabradha
mabruda
mabundo
mabunge
mabuu
mabwana
mabwawa
mabweni
mac
macaca
macaque
macarius
macarthur
macau
macbeth
maccabees
macdonald
macedonia
macfarlane
machache
machado
machafu
machafuko
machakos
machame
machanga
machapisho
machar
macheda
machel
macheso
machi
machiavelli
machifu
machimbo
machine
machines
macho
machoni
machotara
machozi
machungu
machungwa
machweo
mack
mackay
mackenzie
mackinnon
macleod
macmillan
macon
macron
macrovision
mad
mada
madagascar
madagascariensis
madagaska
madai
madaktari
madam
madame
madan
madaraja
madaraka
madarakani
madarasa
madawa
made
madeira
madeleine
madeni
madereva
madhabahu
madhara
madhehebu
madhubuti
madhumuni
madi
madihano
madimbwi
madina
madini
madirisha
madison
madiwani
madness
madoa
madoadoa
madogo
madogomadogo
madola
madonda
madondoo
madonna
madrasa
madre
madrid
maduka
madukani
madume
madusa
mae
maeda
maelekeo
maelekezo
maelewano
maelezo
maelfu
maembe
maendeleo
maeneo
maestro
mafanikio
mafarakano
mafarao
mafarisayo
mafia
mafichoni
mafigo
mafinga
mafua
mafukara
mafumbo
mafundi
mafundisho
mafungamano
mafungo
mafungu
mafunjo
mafunzo
mafupi
mafuriko
mafuta
mag
magadi
magaidi
magallanes
magamaga
magamba
maganda
maganga
magari
magavana
magazeti
magazine
magazines
magdalena
magdalene
magdeburg
magego
magellan
magendo
magenge
magereza
mageuko
mageuzi
maggie
magharibi
maghofu
maghreb
magic
magimba
magimbi
magma
magna
magnetic
magnificent
magnus
magofu
magogo
magoli
magome
magomeni
magongo
magonjwa
magoti
magpie
magu
magufuli
magugu
magumu
magurudumu
mahaba
mahabharata
mahakama
mahakamani
mahakimu
mahal
mahala
mahalapye
mahali
mahameli
mahangaiko
maharage
maharagwe
maharaja
maharamia
maharashtra
mahari
mahatma
mahdi
mahe
mahekalu
mahema
mahenge
maher
mahesabu
mahfouz
mahia
mahindi
mahiri
mahitaji
mahler
mahmoud
mahmud
maho
mahojiano
mahoteli
mahsusi
mahubiri
mahudhurio
mahusiano
mahususi
mahututi
mai
maigizo
mail
maili
maimamu
main
maina
maindio
maine
maingiliano
mainland
maintained
maintenance
mainz
maior
maisha
maishani
maison
maiti
majabali
majadiliano
majaji
majaliwa
majambazi
majanga
majangwa
majani
majaribio
majaribu
majarida
majenerali
majeneza
majengo
majeraha
majeruhi
majeshi
majesty
maji
majibu
majid
majigambo
majiji
majike
majiko
majilio
majimaji
majimbo
majina
majini
majipu
majira
majirajoto
majirani
majiranukta
majitu
majivu
majivuno
majongoo
major
majorelle
majoris
majority
majukumu
majukwaa
majuma
majumba
majumbani
majuto
majuzi
mak
maka
makaa
makabaila
makabila
makaburi
makaburu
makadara
makadirio
makahaba
makaisari
makaizari
makaka
makala
makali
makamanda
makamba
makambako
makambi
makamo
makampuni
makamu
makani
makanisa
makao
makaratasi
makardinali
makari
makasia
makasisi
makatekista
makavazi
makavu
makazi
make
makeba
makedonia
makelele
maker
makerere
makers
makes
makete
makhalifa
maki
makinda
making
makini
makisio
makka
makleri
makocha
makofi
makohozi
makoloni
makoma
makombe
makombora
makonde
makongamano
makongoro
makorongo
makosa
makovu
makrina
maktaba
maktoum
makubaliano
makubwa
makueni
makuhani
makumbi
makumbusho
makumi
makundi
makundinyota
makusanyo
makusudi
makutano
makuu
makuyu
makwao
makwati
mal
mala
malabar
malachi
malagarasi
malagasy
malaika
malaki
malala
malalamiko
malale
malambo
malangali
malanje
malankara
malapterurus
malaria
malatya
malaw
malawi
malawian
malay
malaya
malaysia
malaysian
malazi
malcolm
malden
maldivi
male
malekula
malenga
malengelenge
malengo
malezi
mali
maliasili
malighafi
malik
malika
maliki
malima
malimwengu
malindi
malinyi
malipizi
malipo
malisho
malkia
malkoha
mall
malley
mallorca
malmo
malone
malori
malta
maluku
mama
mamajusi
mamake
mamalia
mamaye
mamba
mambo
mamboleo
mameneja
mamia
mamilioni
mamlaka
mamluki
mammals
man
mana
manabii
manafwa
management
manager
managing
manaibu
mananasi
manane
manase
manchester
manchuria
manda
mandarin
mande
mandela
mandell
mandera
mandhari
mandugu
mandy
mane
manene
maneno
manfred
mang
manga
mangi
mango
mangrove
manhattan
mani
mania
manicaland
manifesto
manii
manila
manin
manisa
manisipaa
manispaa
manitoba
manjano
mankind
mankono
manmo
mann
manne
mannikin
manning
manny
manowari
mans
mansfield
manson
mansur
mantiki
manu
manual
manucho
manuel
manufaa
manufacturing
manukato
manunuzi
manuscript
manuscripts
manutd
many
manyara
manyasi
manyoni
manyoya
mao
maofisa
maombezi
maombi
maombolezo
maonesho
maongezi
maongozi
maoni
maono
maonyesho
maonyo
maovu
map
mapacha
mapadre
mapadri
mapafu
mapafuni
mapambano
mapambo
mapana
mapande
mapango
mapapa
mapatano
mapato
mapcarta
mapema
mapendekezo
mapendeleo
mapendo
mapengo
mapenzi
mapezi
mapeziubavu
maphorisa
mapigano
mapigo
mapili
mapinduzi
mapipa
mapishi
mapitio
mapokeo
mapokezi
mapori
maporomoko
mapping
maprofesa
maps
mapumziko
mapunda
mapungufu
maputo
mapya
maqam
maqbool
maquis
mar
mara
maracha
maradhi
maradufu
marafiki
marahoue
marais
marakwet
marangu
marapa
marashi
marathon
marathoni
marburg
marc
marcel
marcello
marcelo
march
marche
marcia
marco
marconi
marcos
marcus
mardin
marduk
mare
maredio
marefu
marehemu
marejeleo
marejeo
marekani
marekebisho
margaret
margareta
margarita
margo
marguerite
mari
maria
mariae
mariah
mariam
mariamu
marian
mariana
marianne
mariano
maridadi
maridhiano
marie
mariga
marijani
marika
marilyn
marimba
marin
marina
marine
marino
marinus
mario
mariology
marion
maris
maritain
maritime
mariupol
marius
marjorie
mark
market
marketing
markets
marko
marks
markus
marlene
marley
marlon
marmara
marne
maro
maroc
maroko
maroon
marques
marquis
marrakech
marrakesh
marriage
married
marry
mars
marsabit
marseille
marselino
marsh
marsha
marshall
marta
martes
martha
marti
martial
martin
martina
martinez
martinique
martino
martins
martinus
martire
martiri
martyr
martyrdom
martyred
martyrologium
martyrology
martyrs
marubani
marudio
marufuku
marvel
marvin
marx
marxism
marxist
mary
maryam
maryknoll
maryland
mas
masaa
masaba
masafa
masahihisho
masai
masaka
masala
masalia
masanduku
masanja
masashi
masasi
masedonia
masekela
maseno
mashabiki
mashahidi
mashairi
mashaka
mashamba
mashambani
mashambulio
mashambulizi
mashapo
mashariki
masharti
masharubu
mashau
mashauri
mashavu
mashemasi
mashetani
mashimo
mashina
mashindano
mashine
mashirika
mashirikisho
mashitaka
mashoga
mashonaland
mashtaka
mashua
mashuhuri
mashujaa
mashuke
mashule
masi
masifu
masika
masikini
masikio
masikitiko
masilahi
masimo
masimulizi
masinagogi
masinde
masindi
masista
masiya
mask
maskani
maskat
masked
maskini
masks
maslahi
masoko
masokwe
masomo
masomoni
mason
masoud
mass
massa
massachusetts
massacre
massamba
massawa
massif
massimo
massive
mastaa
master
masters
masuala
masuda
masudi
masuke
masultani
masumbuko
masvingo
maswa
maswala
maswali
mat
mata
matabaka
matabeleland
matabibu
matago
mataifa
matairi
mataji
matajiri
matakaso
matakatifu
matako
matakwa
matamanio
matamasha
matambiko
matamko
matamshi
matamu
matamvua
matandu
matanga
matangazo
matano
matanuri
matapo
matarajio
matata
matatizo
matatu
matawi
matawimto
mataya
matayarisho
match
matches
mate
mateka
matembezi
matendo
matengenezo
mateo
mater
material
materials
maternal
mateso
matete
matetemeko
math
mathare
mathayo
mathematical
mathematics
mathew
mathias
mathwarehouse
matia
matiba
matibabu
matilda
matini
matiti
matitiri
matofali
matokeo
matoleo
matone
matope
matrix
matrona
matt
matter
matters
matthew
matthews
matthias
matu
matukio
matumaini
matumba
matumbawe
matumbo
matumizi
matunda
matundu
matupu
matusi
matuta
mau
maua
mauaji
maudhui
maujanja
maulid
maumbile
maumbo
maumivu
maungamo
maungano
maunzi
maureen
mauretania
maurice
mauritania
mauritius
mauro
maurus
maurya
mauti
mauzo
mavazi
maverick
mavi
mavoko
mavuno
mawaidha
mawakala
mawakili
mawasiliano
mawaziri
mawazo
mawe
mawenzi
mawese
mawili
mawimbi
mawindo
mawingu
max
maxeke
maxi
maxim
maximian
maximianus
maximilian
maximinus
maximum
maximus
maxwell
may
maya
mayai
mayanja
mayatima
mayen
mayer
maynard
mayo
mayor
mayotte
mayr
mays
mayuge
mazao
mazembe
mazima
mazingira
mazishi
mazito
maziwa
mazoea
mazoezi
mazrui
mazungumzo
mazuri
mb
mba
mbaazi
mbadala
mbagala
mbakweni
mbale
mbali
mbalimbali
mbamba
mbandaka
mbangi
mbao
mbaraka
mbarali
mbarara
mbari
mbaroni
mbatizaji
mbavu
mbawa
mbawakawa
mbaya
mbayuwayu
mbe
mbeere
mbega
mbegha
mbegu
mbeki
mbele
mbeleni
mbelewele
mbenedikto
mbevu
mbeya
mbezi
mbichi
mbidde
mbili
mbinga
mbingu
mbinguni
mbingusi
mbinu
mbio
mbira
mbiu
mbizi
mbochi
mboga
mbogo
mbogwe
mbolea
mbona
mboni
mbosso
mboup
mbovu
mbowe
mbox
mboya
mboyo
mbozi
mbu
mbua
mbuai
mbuawa
mbuga
mbugani
mbugua
mbulu
mbung
mbunge
mbunguo
mbuni
mbunifu
mburudishaji
mbuyu
mbuyuni
mbuzi
mbwa
mbwana
mbweha
mbweta
mbwigu
mc
mcbride
mccarthy
mccartney
mcdonald
mcfadden
mcfarland
mcghee
mcgill
mcgrath
mcgraw
mcha
mchache
mchakato
mchambuzi
mchana
mchanga
mchangani
mchanganyiko
mchangiaji
mchango
mchapishaji
mchawi
mche
mcheduara
mchekeshaji
mchele
mchemraba
mcheshi
mcheza
mchezaji
mchezo
mchicha
mchimbaji
mchongaji
mchoraji
mchoro
mchuano
mchujo
mchumba
mchumi
mchungaji
mchunguzi
mchuzi
mchwa
mckenzie
mckinley
mckinnon
mckinsey
mclaughlin
mclean
mclennan
mcmahon
mcmillan
mcnamara
mcp
mcqueen
mcvitie
md
mda
mdee
mdhamini
mdhibiti
mdo
mdogo
mdomo
mdomoni
mdudu
mdundo
me
meac
meako
mean
meaning
meanings
means
measure
measurement
measures
meat
meatu
mechanics
mechanism
mechanisms
mechi
mecklenburg
med
medal
medali
medals
medani
media
mediaeval
medical
medication
medici
medicine
medien
medieval
medikal
medina
medioevo
meditation
meditations
mediteranea
mediterania
mediterranean
medium
medley
medvedev
meena
meer
meet
meeting
meetings
meets
mega
megan
megascops
megawati
mei
meiji
mein
meinardus
meja
mekelle
mekong
meksiko
mekundu
mel
melaenornis
melanesia
melanie
melbourne
meles
melesi
meli
melinda
melissa
melitene
melito
melki
mellen
mellitus
mellon
melo
melody
melvin
mema
membamba
membe
member
members
membership
meme
memoir
memoirs
memoria
memorial
memorie
memories
memory
memphis
men
mena
mende
mendel
mendes
mendoza
meneja
menelik
mengi
mengine
mengineyo
mengistu
meningitis
meninjitisi
meno
menofisi
menopause
mensah
ment
mental
mentioned
mentions
mentor
mep
mepesi
mer
mercedes
mercer
merchant
mercredi
mercury
mercy
mere
meredith
merere
meri
merida
meridian
meridiani
merika
merikebu
merkel
meroe
merops
merovingian
merriam
merrill
merritt
merry
mersin
meru
meryl
mes
mesa
mesopotamia
message
messages
messenger
messi
messiah
messier
messina
met
meta
metaboli
metabolic
metabolism
metacritic
metal
metali
metallurgy
metaphysics
metarhizium
methali
methani
method
methodism
methodist
methodius
methods
methuen
metres
metro
metropolitan
metropolitana
metz
meupe
meurer
meusi
mexican
mexico
mexiko
meya
meyendorff
meyer
mez
meza
mezani
mf
mfadhaiko
mfadhili
mfalme
mfano
mfanya
mfanyabiashara
mfanyakazi
mfanyikazi
mfaransa
mfereji
mfiadini
mfiduo
mfinyanzi
mfransisko
mfuasi
mfuatano
mfufuka
mfugaji
mfuko
mfukoni
mfululizo
mfumo
mfungaji
mfungo
mfungwa
mfupa
mfupi
mg
mga
mgahawa
mgambo
mgando
mganga
mgawanyiko
mgawanyo
mgeni
mgh
mgiriki
mgodi
mgogoro
mgomba
mgombea
mgombeaji
mgomo
mgongano
mgongo
mgongoni
mgonja
mgonjwa
mgudlandlu
mgumu
mgunduzi
mgunga
mgusano
mguu
mguuni
mh
mhadhiri
mhalifu
mhandisi
mhando
mhanga
mhariri
mhasibu
mhe
mhemko
mheshimiwa
mhifadhi
mhimili
mhindi
mhispania
mhitimu
mholanzi
mhozo
mhubiri
mhudumu
mhuri
mhusika
mi
mia
miaka
miakanuru
miale
miali
miamba
miami
miandiko
mianga
miani
mianzi
mic
micah
mice
mich
michache
michael
michaelis
michakato
michanganyiko
michango
miche
michel
michelangelo
michele
michelle
micheweni
michezo
michigan
michirizi
michoaca
michoro
michuano
michuzi
mick
mickey
micro
microbial
microbiol
microbiology
microcebus
microform
microsoft
mid
middle
middlesex
middleton
midi
midia
midlands
midnight
midogo
midomo
midundo
mie
mieleka
mielekeo
mien
miendo
mienendo
miezi
mifano
mifereji
mifflin
mifuatano
mifugo
mifuko
mifululizo
mifumo
mifupa
mifupi
migahawa
migawanyo
might
mighty
migingo
migne
migodi
migogoro
migomba
migomo
migongo
migori
migraine
migration
miguel
migumu
miguso
miguu
miguuni
mihadhara
mihigo
mihogo
mihula
miiba
miikka
miiko
miili
miinuko
miito
mijadala
mijeledi
miji
mijikenda
mijini
mijusi
mika
mikaeli
mikahawa
mikakati
mikali
mikanda
mikasa
mikataba
mikate
mike
mikebe
mikeka
mikhail
miki
mikia
mikindani
mikoa
mikoko
mikondo
mikono
mikononi
mikopo
mikrobiolojia
mikronesia
mikubwa
mikufu
mikuki
mikumi
mikunga
mikunjo
mikusanyiko
mikutano
mikuu
mikwaju
mil
mila
milan
milango
milano
mile
milele
milenia
miles
milia
milian
miligramu
miliki
milikishi
milima
milimani
milimita
milio
milioni
milipuko
military
milk
milki
milky
mill
millard
mille
millennium
miller
million
millioni
millions
mills
milne
milo
milton
milwaukee
mimba
mimea
mimi
min
mina
minajili
minane
minara
minas
minazi
mind
mindanao
minds
mine
minene
mineral
mines
ming
mingi
mingine
minh
mini
minignan
mining
ministe
minister
ministers
ministres
ministries
ministry
minivet
minne
minneapolis
minnesota
minor
minorities
minority
minorum
minute
minutes
minuvi
minyiri
minyoo
minyororo
mio
miocene
miombo
miondoko
miongo
miongoni
miongozo
mionzi
mioto
mioyo
mipaka
mipakani
mipangilio
mipango
mipira
mipya
miquelon
mir
mira
miraa
miraba
miracle
miracles
miradi
mirafra
mirambo
miranda
mirefu
miriam
mirihi
mirija
mirror
misa
misaada
misafara
misalaba
misale
misamiati
misemo
mishahara
mishale
misheni
mishipa
mishmi
mishororo
mishtuko
mishumaa
misikiti
misimamo
misimbo
misimu
misingi
misioni
misitu
misituni
misombo
misonobari
misri
miss
missenyi
missing
mission
missionaries
missionary
missions
mississippi
missouri
mistari
misukosuko
misuli
misungwi
miswada
mit
mita
mitaa
mitaala
mitaani
mitaguso
mitakatifu
mitambo
mitandao
mitano
mitaro
mitatu
mitazamo
mitchell
mitego
mitelemko
mitende
miteremko
mitetemeko
mitetemo
mithali
mithili
mitholojia
miti
mitihani
mitindo
mitini
mitishamba
mito
mitra
mitsubishi
mittelalter
mitukutiko
mitume
mityana
miujiza
miundo
miundombinu
miungano
miungu
miviringo
miwa
miwani
miwili
mix
mixed
mixing
mixtape
miyombo
mizabibu
mizani
mizeituni
mizigo
miziki
mizimu
mizinga
mizingo
mizito
mizizi
mizoga
mizozo
mizuki
mizunguko
mizuri
mj
mja
mjadala
mjamzito
mjane
mjao
mjasiriamali
mjeledi
mjenzi
mjerumani
mjesuiti
mji
mjinga
mjini
mjoho
mjomba
mjukuu
mjumbe
mjusi
mk
mkaa
mkaapweke
mkabaji
mkabala
mkaguzi
mkahawa
mkakati
mkalama
mkali
mkalimani
mkamilifu
mkanda
mkandarasi
mkao
mkapa
mkarimu
mkasa
mkasi
mkataba
mkate
mkato
mkatoliki
mkavu
mkazi
mkazo
mke
mkenya
mkesha
mkewe
mkia
mkimbiaji
mkimbizi
mkinga
mkiwa
mkizi
mkoa
mkoani
mkojo
mkoloni
mkombozi
mkondo
mkondoni
mkonga
mkonge
mkongo
mkongwe
mkono
mkononi
mkopo
mkosefu
mkosoaji
mkristo
mkubwa
mkufu
mkufunzi
mkuki
mkuku
mkulima
mkundi
mkundu
mkunga
mkuranga
mkurugenzi
mkusanyiko
mkusanyo
mkutano
mkuu
mkuyu
mkwaju
mkwawa
mkwe
ml
mlali
mlalo
mlandizi
mlango
mlangobahari
mlangoni
mlanyoka
mle
mlei
mlele
mlemavu
mlevi
mlezi
mlia
mlima
mlimani
mlimba
mlinda
mlingoti
mlinzi
mlio
mlipuko
mlo
mloka
mlolongo
mlupini
mm
mma
mmarekani
mmbr
mmea
mmeng
mmenyuko
mmhg
mmiliki
mmisionari
mmisri
mmoja
mmojammoja
mmojawao
mmojawapo
mmomonyoko
mmonaki
mmumunyo
mmwr
mn
mna
mnada
mnafiki
mnamo
mnana
mnandi
mnara
mnarani
mnasaba
mnazi
mnene
mnenguaji
mng
mnigeria
mno
mnono
mnunuzi
mnururisho
mnuvi
mnyama
mnyampala
mnyenyekevu
mnyofu
mnyoo
mnyororo
mo
mob
mobb
mobile
mobo
mobutu
moc
mode
model
modeli
modeling
models
modern
moderne
modernghana
modernity
modesti
modi
module
moe
moen
mofimu
mogadishu
mographie
mohamed
mohammad
mohammed
mohinder
mohr
moi
mois
moise
moja
mojamoja
mojawapo
mojo
mol
mola
moldova
mole
molecular
molekiuli
molekuli
molekyuli
mollel
molly
molo
molokai
mom
moma
momba
mombasa
moment
moments
mon
mona
monaco
monaghan
monako
monalisa
monarch
monarchy
monasteri
monasteries
monasterini
monastery
monastic
monasticism
monday
monde
mondo
monduli
monetary
money
moneygram
mongolia
mongolian
mongoose
monica
monie
monika
monique
monitor
monitoring
monk
monkey
monks
monmouth
mono
monograph
monographs
monroe
monrovia
mons
monster
monsters
monsuni
mont
montana
montane
monte
montenegro
montevideo
montfort
montgomery
month
monthly
months
monticola
montpellier
montre
montreal
montserrat
monument
monumenta
monuments
moody
moon
moor
moore
mopti
mora
moral
morales
moran
moravia
moravian
morcelli
more
morelli
moreno
morgan
mori
morin
morisi
morning
moro
moroccan
morocco
morogoro
moroko
moronou
moroto
morris
morrison
morrissey
morrow
morse
mort
mortal
mortality
morte
mortimer
morton
moru
mos
mosaic
mosby
moscow
mose
moses
moshi
mosi
moskva
mosley
mosque
mosques
moss
most
mostarda
mostly
mota
motacilla
mother
mothers
motion
motisha
moto
motokaa
motomoto
motoni
motor
motors
motown
mott
mou
moulinier
mount
mountain
mountains
mourinho
mouse
mouskouri
moussa
mouth
mouton
move
movement
movements
moves
movie
movies
moving
moxico
moyale
moyen
moyo
moyoni
moza
mozaiki
mozambique
mozart
mp
mpagani
mpaka
mpakani
mpako
mpamba
mpana
mpanda
mpanga
mpangaji
mpangilio
mpango
mpasuaji
mpasuambegu
mpasuko
mpatanishi
mpate
mpea
mpelelezi
mpemba
mpendwa
mpenzi
mpevu
mpiga
mpigaji
mpiganaji
mpigi
mpigo
mpingo
mpinzani
mpira
mpishi
mpito
mpla
mpokeaji
mpole
mps
mpumalanga
mpumbavu
mpunga
mpwa
mpwapwa
mpweke
mpya
mr
mraba
mradi
mramba
mratibu
mrefu
mrema
mrembo
mrengo
mreno
mreteni
mri
mrija
mrima
mrisho
mrithi
mroma
mrs
mrukaji
mrusi
ms
msaada
msafara
msafiri
msafsafi
msaidizi
msajili
msalaba
msalabani
msaliti
msamaha
msambao
msambazaji
msambweni
msamiati
msanifu
msanii
msawazo
msc
msemaji
msemo
mseto
msezane
mshahara
mshairi
mshale
mshambuliaji
mshambulizi
mshangao
mshauri
mshawishi
mshenga
mshigi
mshikamano
mshindani
mshindi
mshipa
mshirika
mshiriki
mshonaji
mshororo
mshtakiwa
mshtarii
mshtuko
mshubiri
mshumaa
msiba
msichana
msikilizaji
msikiti
msimamizi
msimamo
msimbazi
msimbo
msimu
msimuliaji
msimulizi
msindo
msingi
msisimko
msisitizo
msitu
msituni
msn
msnbc
msomaji
msomi
msondo
msongamano
msongo
msonobari
mstaafu
mstari
mstatili
msuguano
msukosuko
msukumo
msuli
msulubiwa
msumbiji
msumeno
msururu
msuya
mswada
mswaki
mt
mtaa
mtaala
mtaalam
mtaalamu
mtaani
mtaarishaji
mtafiti
mtaguso
mtaji
mtakatifu
mtama
mtambo
mtamu
mtandao
mtandaoni
mtangazaji
mtango
mtangulizi
mtanzania
mtapo
mtaro
mtawa
mtawala
mtawalia
mtawaliwa
mtawanyiko
mtayarishaji
mtayarishi
mtazamaji
mtazamo
mtego
mteja
mtelemko
mtemi
mtemvu
mtendaji
mtende
mtengeneza
mtengenezaji
mtera
mteremko
mtetemo
mtetezi
mteule
mti
mtibwa
mtihani
mtiifu
mtindo
mtini
mtiririko
mtiti
mtn
mto
mtoa
mtoaji
mtolondo
mtoni
mtoro
mtoto
mtu
mtukudzi
mtukufu
mtulivu
mtumbwi
mtume
mtumiaji
mtumishi
mtumwa
mtungaji
mtungi
mtunza
mtunzi
mtv
mtwa
mtwara
mu
muammar
muandaaji
muandishi
muasisi
muawiya
mubarak
mubashara
mubende
much
muchmusic
mud
muda
mudavadi
muendelezo
mufindi
mufti
mug
mugabe
mugeez
mugerwa
mugirango
mugisha
mugo
muh
muhafaza
muhamad
muhammad
muhammed
muheza
muhimbili
muhimu
muhindi
muhogo
muhoroni
muhsin
muhtasari
muhula
muhuri
muhusika
muigizaji
muimbaji
muingiliano
muir
muislamu
mujibu
mukasa
mukomberanwa
mukono
muktadha
mulatu
muleba
mulenga
muliro
muller
mullet
multi
multimedia
multiparty
multiple
multitree
mumbai
mume
mumewe
mumia
mumias
mun
muna
mundi
mundo
mundu
mungiki
mungu
munia
munich
municipal
municipality
munro
muntu
munyigumba
muonekano
muongo
muongozaji
murad
muramvya
murang
murder
muridae
murphy
murray
murs
murua
murut
mus
musa
musambwa
muscat
muscicapa
muscle
muse
museo
museum
museums
museveni
mushi
music
musica
musical
musicale
musicbrainz
musician
musicians
musicline
musik
musique
musk
muslim
muslims
musoma
mussa
mussolini
must
mustafa
mustakabali
mustapha
musuli
muswada
musyoka
mutesa
mutharika
mutilation
muuaji
muuguzi
muujiza
muumba
muumini
muundaji
muundo
muungamishi
muunganiko
muunganisho
muungano
muungo
muuzaji
muyinga
muzik
muziki
mv
mvilio
mvinyo
mviringo
mvita
mvivu
mvomero
mvua
mvuke
mvulana
mvumbuzi
mvurugo
mvutaji
mvutano
mvuto
mvuvi
mw
mwa
mwadilifu
mwadui
mwafaka
mwafrika
mwai
mwajemi
mwajiri
mwajiriwa
mwaka
mwakani
mwake
mwakikagile
mwakilishi
mwako
mwala
mwali
mwaliko
mwalimu
mwaloni
mwamba
mwambao
mwambaoni
mwamerika
mwami
mwamini
mwaminifu
mwamko
mwamubambe
mwamuzi
mwana
mwanaanga
mwanaanthropolojia
mwanaastronomia
mwanabiolojia
mwanachama
mwanachuoni
mwanadada
mwanadamu
mwanadiplomasia
mwanae
mwanafalsafa
mwanafizikia
mwanafiziolojia
mwanafunzi
mwanahabari
mwanaharakati
mwanahisabati
mwanahistoria
mwanaidi
mwanajeshi
mwanakandanda
mwanakemia
mwanakondoo
mwanamalundi
mwanamama
mwanamapinduzi
mwanamazingira
mwanamichezo
mwanamitindo
mwanamke
mwanamume
mwanamuziki
mwanamziki
mwananchi
mwanangu
mwanao
mwanariadha
mwanasaikolojia
mwanasayansi
mwanasheria
mwanasiasa
mwanasoka
mwanasosholojia
mwanaspoti
mwanateolojia
mwanatheolojia
mwanauchumi
mwanaume
mwanawe
mwanazuoni
mwandamizi
mwandamo
mwandiko
mwandishi
mwanga
mwangalizi
mwangaza
mwangi
mwangu
mwangwi
mwani
mwanya
mwanza
mwanzi
mwanzilishi
mwanzo
mwanzoni
mwao
mwarabu
mwario
mwaro
mwashinga
mwasho
mwasi
mwathirika
mwathiriwa
mwatuko
mwavuli
mwea
mweka
mwekezaji
mwekundu
mwelekeo
mwelekezi
mwema
mwembamba
mwembe
mwenda
mwendelezo
mwendesha
mwendeshaji
mwendo
mwene
mwenendo
mwenge
mwengine
mwenu
mwenye
mwenyeheri
mwenyeji
mwenyekiti
mwenyewe
mwenyezi
mwenza
mwenzake
mwenzao
mwenzi
mwenzie
mwepesi
mwetu
mweupe
mweusi
mwewe
mwezi
mwezini
mwiba
mwigizaji
mwiko
mwili
mwilini
mwimbaji
mwindaji
mwingereza
mwingi
mwingiliano
mwingilio
mwingine
mwinjili
mwinjilisti
mwinshehe
mwinuko
mwinyi
mwisho
mwishoni
mwishowe
mwislamu
mwita
mwitalia
mwitikio
mwito
mwitu
mwituni
mwizi
mwogeleaji
mwokozi
mwonekano
mwongo
mwongozaji
mwongozo
mwovu
mx
my
myahudi
myanmar
mycobacterium
myekundu
myembamba
myers
myeupe
myeusi
myeyungano
myjoyonline
myna
myra
myself
myspace
mysterious
mystery
mystic
mystical
mysticism
myth
mythology
myths
mzabibu
mzaha
mzalendo
mzalishaji
mzaliwa
mzansi
mzao
mzawa
mzazi
mzee
mzigo
mziki
mzima
mzimu
mzinga
mzingo
mzio
mzito
mzizi
mzozo
mzuka
mzumbe
mzungu
mzunguko
mzungumzaji
mzuri
mzushi
mzvee
n
na
naa
naacp
naam
nabii
nabil
nach
nachingwea
nacho
nacional
nadhani
nadharia
nadhiri
nadia
nadine
nadra
nadu
nae
nafaka
nafasi
nafsi
nafuu
nagasaki
nagoya
nagy
nahau
nahodha
nahum
nahumu
nai
naibu
naidoo
naija
naili
nairobi
naivasha
naiyena
naja
najd
najua
nakala
nakamura
nakapiripirit
nakaseke
nakasongola
naked
nakheel
nakivubo
nako
nakshi
nakupenda
nakuru
nal
nalo
nam
nama
namayingo
namba
nambale
nambari
name
named
names
nami
namib
namibia
namibian
naming
namna
namtumbo
namutumba
nan
nana
nancy
nandi
nane
nang
nanga
nani
nansen
nantes
nanyamba
nanyi
nanyuki
nanyumbu
nao
naogopa
naomi
naona
napak
naped
napenda
naples
napoleon
napoleoni
napoli
nar
nara
narbonne
narc
narok
narrative
narratives
naruto
nas
nasa
nasaba
nasaha
nash
nashville
nasi
nasibu
nasir
naso
nasr
nasri
nasser
nassian
nassim
nasty
nat
nataka
natal
natalia
natalie
natasha
nate
nathan
nathaniel
nation
national
nationale
nationalism
nationality
nations
native
nativity
natl
nato
natron
natural
nature
nau
naughty
nauli
nauru
naval
navarro
navigation
navis
navy
navyo
nawa
nawaambia
nawaambieni
nawe
naweza
nay
naye
nayo
nazareth
nazareti
nazca
nazi
nazianzo
nazianzus
nazo
nb
nba
nbc
nbs
nbsp
nc
ncaa
ncbi
ncha
nchani
nchen
nchez
nchi
nchini
ncia
ncipe
nd
ndala
ndama
ndanda
ndani
nde
ndebele
ndefu
ndege
ndegeputo
ndembezi
nder
ndevu
ndewe
ndez
ndicho
ndiko
ndilo
ndimi
ndimu
ndio
ndipo
ndiposa
ndivyo
ndiwe
ndiye
ndiyo
ndizi
ndizo
ndlovu
ndo
ndoa
ndogo
ndogondogo
ndola
ndondi
ndoo
ndoto
ndovu
ndp
nduati
ndugu
nduguye
ndui
ne
neal
near
nearly
nebbi
nebraska
nebuchadnezzar
nebula
nec
necessary
neck
necked
ned
nederlandse
need
needed
needham
needle
needs
neema
negative
negro
negus
neh
nehemia
nehemiah
nehru
neil
neill
nejm
nejmoa
nel
neli
nell
nella
nelly
nelson
nematodi
nembo
nen
nenda
nene
neno
neo
neolithic
nepal
nepali
neptun
neptuni
neri
neria
nero
nestori
nestorius
net
netflix
netherlands
neto
nets
network
networking
networks
neu
neue
neumann
neural
neurol
neurology
neuroni
neuropsychology
neuroptera
neurosci
neuroscience
neutroni
neva
nevada
nevado
never
neville
nevis
nevs
new
newadvent
newala
newark
newcastle
newell
newfoundland
newhouse
newly
newman
newport
news
newsday
newsletter
newspaper
newspapers
newsroom
newsweek
newton
newvision
nex
next
nez
nezami
nfl
ng
nga
ngagi
ngai
ngamia
ngamiland
ngano
ngao
ngapi
ngara
ngarara
ngazi
ngazija
nge
ngedere
ngel
ngeli
ngeny
ngiri
ngisi
ngo
ngogo
ngoma
ngombe
ngome
ngong
ngoni
ngono
ngorongoro
ngowi
ngozi
ngubane
nguchiro
ngugi
nguli
ngumi
ngumu
nguo
ngurumo
nguruwe
nguva
nguvu
nguvuni
nguye
nguyen
nguzo
ngw
ngwaketse
ngwini
nh
nha
nhlbi
nhs
ni
nia
niaba
niagara
niassa
nic
nica
nicaragua
niccolo
nice
nicene
nicholas
nichols
nicholson
nicht
nick
nickelodeon
nicky
nico
nicodemus
nicola
nicolas
nicolaus
nicole
nicolson
nicosia
nidhamu
nie
niels
nielsen
nien
nietzsche
nig
nigel
niger
nigeria
nigerian
nigga
night
nightingale
nightjar
nightmare
nights
nigra
nigsberg
nih
nihan
nii
nijeria
nijhoff
nikaragua
nike
nikeli
niki
nikiona
nikita
nikiwa
nikki
niko
nikola
nikolai
nikolasi
nikolaus
nikomedia
nikon
nikotini
nikwata
nile
nilikuwa
nilo
nimonia
nin
nina
ninawi
nine
nineteenth
nineveh
ninga
nini
ninja
nino
ninox
ninth
ninyi
nio
nipe
nippon
nisa
nisea
nishani
nishati
nissan
nithi
nitrojeni
niwe
niweze
nixon
nj
njaa
njama
njano
nje
njegere
njema
njia
njiani
njiapanda
njiwa
njombe
njoo
njoro
njozi
njugu
nk
nkasi
nkhotakota
nkiru
nkomo
nkosi
nkrumah
nkurunziza
nl
nlm
nm
nme
nnamdi
nne
no
noaa
noah
nobel
noble
nobody
node
nodi
noe
noel
noeli
noir
noire
noise
nok
nokia
nola
nolan
nolasco
nollywood
noma
nomenclature
nominated
nomination
nominations
nominee
nominees
nominis
nomino
noms
non
nondo
nono
nonso
noor
noord
nor
nora
norbert
nord
nordic
norepinefrini
norfolk
norma
normal
norman
norment
norplant
norris
norte
north
northamptonshire
northern
northumbria
northwest
northwestern
norton
norway
norwe
norwegian
norwei
norwich
nos
nosed
nosy
not
notable
note
noted
notes
nothing
noti
notice
notices
notorious
notre
nottingham
nou
noula
noun
nous
nouveau
nouvelle
nouvelles
nov
nova
novara
novaya
novel
novemba
november
novembre
novgorod
novo
novum
now
np
npr
nr
nra
nrc
nrj
nrm
ns
nsa
nsdap
nsf
nsis
nster
nsukka
nsw
nt
nta
nther
ntoroko
ntungamo
ntv
nu
nuba
nubia
nubian
nuclear
nuestra
nuestro
nueva
nuevo
nuhu
nukta
nukuu
num
number
numbers
numerical
numerous
numidia
nun
nunavut
nundu
nungu
nuns
nuova
nuovo
nur
nuremberg
nurhaliza
nurse
nursery
nursia
nursing
nuru
nururifu
nusu
nusufamilia
nusujenasi
nusukipenyo
nusumaisha
nusungeli
nusuoda
nusura
nususpishi
nusutropiki
nusutufe
nuthatch
nutr
nutrition
nuwas
nv
nvpi
nwa
nwapa
nwoya
nxt
nxwrth
ny
nya
nyachae
nyadhifa
nyakach
nyakati
nyakatu
nyala
nyama
nyamagana
nyambizi
nyamira
nyanda
nyandarua
nyando
nyang
nyanga
nyangao
nyangumi
nyani
nyanja
nyanya
nyanza
nyara
nyaraka
nyasa
nyasaland
nyasi
nyati
nyavu
nyaya
nyayo
nyc
nye
nyege
nyegere
nyekundu
nyembamba
nyembelele
nyemelezi
nyengine
nyenje
nyenzo
nyepesi
nyerere
nyeri
nyeti
nyeupe
nyeusi
nyi
nyigu
nyika
nyimbo
nyingi
nyingine
nyinginezo
nyiragongo
nyofu
nyoka
nyong
nyonga
nyongeza
nyongo
nyororo
nyota
nyotamkia
nytimes
nyu
nyufa
nyuki
nyukleotidi
nyuklia
nyuma
nyumba
nyumbani
nyumbu
nyundo
nyungan
nyungunyungu
nyuro
nyuroni
nyurosaikolojia
nyurotransmita
nyusi
nyusika
nyuso
nyutroni
nyuzi
nyuzijoto
nyuzilandi
nyuzinyuzi
nywele
nywila
nz
nzega
nzi
nzige
nzima
nzito
nzoia
nzuri
o
oa
oak
oakland
oaks
oasis
oasisi
oates
oaxaca
ob
oba
obadia
obama
obasanjo
obe
obesity
obi
obinna
obiti
obituary
object
objects
oblast
obo
obote
observations
observatory
observer
obsolete
obstetrics
obstructive
oc
oca
occidental
occidentalis
occupational
ocean
oceania
oceanic
oceans
och
ochoa
ochs
oclc
oct
octoba
october
oda
odd
odds
ode
oder
odessa
odi
odie
odienne
odinga
odm
odnb
odo
odutola
odyssey
oe
oecd
oecumenici
oenanthe
oevu
of
ofa
off
offer
offers
office
officer
officers
official
officially
officials
officiel
oficial
ofisa
ofisi
ofisini
ofm
ofs
often
og
ogani
ogania
oginga
ogooue
ogopa
ographie
ogu
ogun
oh
ohchr
ohio
oil
ois
oise
ojih
ok
oka
okapi
okavango
okayafrica
okello
okere
okestra
okjeo
oklahoma
oko
okonkwo
okore
okoth
okoye
oksidi
oksijeni
okt
oktoba
ol
ola
olac
olamide
olatunji
olchorro
old
older
oldest
olduvai
ole
olga
oli
olifants
olimpbase
olimpiki
oliva
olive
oliveira
oliver
olivi
olivia
olivier
olkeju
ologie
olomide
olsen
olson
olusegun
olympia
olympic
olympics
olympique
olympus
om
oman
omani
omar
omari
omarion
ombaomba
ombe
ombi
ombwe
omdurman
omega
omer
ommy
omnes
omnia
omo
on
ona
once
ondoa
one
onepage
ones
onesha
onesho
ong
ongala
ongea
ongezeko
online
onlinelibrary
only
ono
ons
ontario
onyame
onyango
onychognathus
onyesho
onyo
oort
op
oparesheni
open
opening
opens
opera
operating
operation
operations
operator
operesheni
ophiuchus
opin
opinion
opinions
opioidi
opold
opportunities
opportunity
opposition
oprah
option
options
opus
or
ora
oracle
oral
oran
orange
oranje
oratorio
oratory
orbis
orbit
orchestra
order
ordered
orders
ordinary
ordinis
ordo
ordre
ordu
ore
oregon
org
organ
organic
organisation
organisations
organization
organizations
organs
ori
oricon
orient
oriental
orientale
orientales
orientalia
orientalis
orientalium
orig
origen
origin
original
originally
origine
origines
origini
origins
orinoco
oriole
oriolus
orion
orlandi
orlando
orle
orleans
oro
orodha
orodheshwa
oromia
oromo
orson
ortega
ortho
orthodox
orthodoxwiki
orthodoxy
ortiz
orum
oryx
os
osaka
osama
osb
osborne
oscar
oscars
osei
osha
osiris
oskar
oskido
oslo
osman
osmani
osprey
ostafrika
ostia
osu
osun
oswald
ot
ota
other
others
othman
oti
otieno
otomys
ott
ottawa
otter
otto
ottoman
otus
ou
oua
ouagadougou
ouangolodougou
oue
oued
ouest
ouko
oume
oumi
oup
our
out
outbreak
outcome
outcomes
outdoor
outer
outlawz
outline
outlook
outreach
outside
outstanding
outta
ova
ovari
oveni
over
overseas
overview
ovyo
owen
owens
owerri
owl
owlet
own
owned
owusu
ox
oxfam
oxford
oxfordjournals
oxfordshire
oxygen
oya
oyam
oyo
oyster
oz
ozoni
p
pa
paa
pablo
pac
pace
pacha
pachydactylus
pacific
pack
package
pader
padma
padova
padre
padri
padua
pafu
pag
pagan
page
pages
pahala
pahali
paharia
pai
paid
pain
paint
painted
painting
paintings
paja
paji
pak
paka
pake
pakistan
pakistani
pakiti
pakomi
pakubwa
pal
pala
palace
palapye
palatino
palau
palawan
palazzo
pale
palepale
palermo
palestina
palestine
palestinian
palestrina
palgrave
palikuwa
palipo
pallas
pallisa
palm
palma
palmas
palme
palmer
pam
pamba
pambano
pambo
pamela
pamir
pamoja
pampu
pan
pana
panama
panda
pande
pandemia
pandemic
panel
paneli
panga
pangani
pango
panic
pankhurst
panorama
panther
panthera
panya
panzi
pao
paolo
paoneaanga
papa
papacy
papai
papal
paper
paperback
papers
papias
papo
papua
papyrus
par
para
paraclete
parade
paradigma
paradise
paradiso
parafujo
paraguay
parallel
parameter
paramount
parana
parare
parasite
parasites
paraxerus
parc
pare
parent
parents
parigi
parimatch
paris
parish
park
parker
parkinson
parks
parliament
parliamentary
parliamenterians
parma
parokia
paroko
parole
parque
parra
parrot
parrotbill
parry
pars
parsek
parsons
part
parte
partement
partial
participation
particular
partie
parties
partner
partners
partnership
partridge
parts
party
parva
parveen
pas
pasaka
pascal
paschal
pasha
pasi
pasifiki
pasipo
pasipoti
paskali
pass
passage
passed
passer
passes
passing
passion
passiv
passive
password
past
pasta
pasteur
pastor
pastoral
pastors
pat
pata
patagonia
patakatifu
patasi
pate
patel
patent
path
pathfinder
pathogenesis
pathojeni
pathology
patholojia
paths
pathways
patience
patient
patients
pato
paton
patria
patriarch
patriarchate
patriarki
patrice
patricia
patrick
patriotic
patristic
patrologia
patron
patrum
pattern
patterns
patterson
patti
pau
paul
paula
pauli
paulina
pauline
paulino
paulinus
paulist
paulo
pauly
paundi
pauni
pavel
pavia
pay
paye
payn
payne
pays
paz
pazia
pazuri
pb
pbs
pc
pcr
pd
pdf
pdfs
pe
pea
peabody
peace
peacock
peak
pear
pearce
pearl
pearson
peck
pedi
pediatr
pediatric
pediatrics
pedro
peds
peek
peer
peeters
pegasi
pegasus
peju
peke
pekee
peku
pekupeku
pel
pele
pelican
peloponesi
pelusius
pemba
pembakusini
pembe
pembejeo
pembemraba
pembeni
pembenne
pembetatu
pembezoni
pen
penalti
penalty
pendekezo
pendo
penelope
pengi
pengine
penginepo
pengo
penguin
penguinrandomhouse
penh
peni
penicillin
peninsula
penisilini
penn
pennsylvania
penny
penseli
pensheni
pentateuch
pentecostal
pentecostalism
pentekoste
penye
penyewe
penzi
people
peoplepill
peoples
pepe
pepo
peponi
pepper
pepsi
peptidi
per
peramiho
percent
perception
perceptions
percussion
percy
pereira
perez
perfect
perfection
perform
performance
performances
performed
performing
pergamon
period
periplus
perkins
permanent
permanenti
perpetua
perrin
perry
persecution
persepolis
perseus
persia
persian
person
personal
personality
persons
perspective
perspectives
perth
pertoire
peru
perugia
peruvian
pes
pesa
pet
peta
petali
pete
peter
peterburg
peters
petersburg
petersen
peterson
petit
petra
petrarch
petrel
petrelli
petro
petroleum
petroli
petroliamu
petros
petrus
petzell
pew
pez
pezi
pezimgongo
pf
pg
ph
phaetornis
phalacrocorax
pham
pharaoh
pharmacol
pharmacological
pharmacology
pharmacotherapy
pharmacy
phase
phd
phelsuma
phenomenon
phil
philadelphia
philemon
philharmonic
philip
philipp
philippa
philippe
philippians
philippine
philippines
phillip
phillippa
phillips
philosopher
philosophers
philosophical
philosophie
philosophy
phnom
pho
phoebe
phoenix
phone
phonetic
phonographic
phonology
photo
photograph
photographer
photographic
photographs
photography
photos
php
phu
phyllis
phylloscopus
phylogeny
phyno
physical
physician
physicians
physics
physiol
physiology
pi
pia
piacenza
piano
pibor
pic
picha
pick
picks
pico
pictorial
picture
pictures
piculet
picumnus
pid
pie
piece
pieces
pied
piemonte
pier
pierce
piero
pierre
pieter
pietermaritzburg
pietrelcina
pietri
pietro
piety
pig
piga
pigeon
pigmenti
pigo
pii
pijini
pikipiki
pilato
pilgrim
pilgrimage
pilgrims
pili
pilipili
pill
pilot
pin
pinde
pindi
pine
ping
pingamizi
pingili
pingu
pini
pink
pinki
pinto
pinus
pinyin
pinzani
pio
pioneer
pioneers
pipa
pipe
pipeline
piper
pipit
piramidi
piran
pirates
pirenei
pisa
pisces
piscis
piscopaux
pishi
pistoni
pit
pitcairn
pitch
pitt
pitta
pittsburgh
pituitari
piu
pius
pizarro
pizza
pj
pk
pl
place
places
plague
plain
plains
plan
plancius
planck
plane
planet
planetary
planets
planktoni
planned
planning
plans
plant
plants
plasma
plasmodium
plastaz
plastic
plastiki
plata
plate
plateau
plateaux
platform
platinamu
platini
platinum
platnumz
plato
platyceps
plau
play
playa
played
player
players
playing
plays
playstation
plaza
plazma
plc
please
pleasure
pleistocene
plessis
pleu
plies
plinio
pliny
pliocene
plo
ploceus
plos
plot
plotinus
plover
plug
plural
plus
pluto
plutoni
plymouth
pm
pmc
pmed
pmid
pmidlookup
pnas
pneumonia
png
pnu
po
poa
pochi
pocket
poda
podcast
poe
poem
poems
poet
poetic
poetry
poets
pofu
point
pointe
pointi
points
poitier
poitiers
poj
pokot
pol
poland
polandi
polar
polaris
pole
polepole
poli
police
policies
policy
polikarpo
polima
polinesia
polio
poliovirus
polis
polisario
polish
polisi
political
politician
politico
politics
politique
polity
poll
polling
pollution
polo
polokwane
polycarp
polynesia
polytechnic
pombe
pomboo
pomponia
pone
pongezi
pongo
ponografia
ponsyo
ponta
pontifical
pontificalis
pontificia
pontificio
pontificum
ponto
ponts
pool
poole
poor
pop
pope
popes
popo
popolazione
popote
popular
population
populations
por
porcupine
pori
porini
poro
porphyrio
porres
port
porta
portal
portalino
porter
portland
porto
portrait
portraits
ports
portsmouth
portugal
portuguese
porzana
position
positions
positive
possible
possumus
post
posta
postal
postcode
postcolonial
posted
postikodi
pot
potasiamu
pote
potential
potofu
potosi
potovu
potsdam
potter
poulsen
pound
pour
poverty
povu
powell
power
powerful
powers
pp
ppe
ppell
pr
practical
practice
practices
pradesh
praeger
prague
praha
praia
praise
prajasakti
pras
pratt
pray
prayer
prayers
pre
preacher
preaching
precedenti
predator
preface
prefecture
pregnancy
pregnant
prehistoric
prehistory
preliminary
premie
premier
premiere
premio
premios
premium
prentice
preparation
prepare
prepared
presbyterian
prescriptions
presence
present
presentation
presented
presents
preservation
preserved
presha
presidency
president
presidential
presidents
presley
press
presse
presses
pressure
prestigious
preston
pretoria
pretty
prevalence
preventing
prevention
preventive
preview
previous
previously
pri
price
prices
pride
priest
priests
prikro
prima
primacy
primary
primates
prime
primer
primetime
primi
primitive
primo
primus
prince
princes
princess
princeton
principal
principe
principle
principles
prinia
print
printa
printed
printing
prints
prior
prisca
priscilla
prison
prisoner
prisoners
prisons
private
prix
priyanka
prize
prizes
pro
probability
probably
problem
problems
proc
proceedings
process
processes
processing
prod
produced
producer
producers
product
production
productions
productivity
products
prof
profaili
profesa
profession
professional
professionals
professor
profile
profiles
profit
program
programme
programming
programs
programu
progress
progressive
project
projects
projekte
projesteroni
projestini
prologue
prometheus
prominent
promise
promised
promo
promote
promoting
promotion
promulgatum
promusicae
pronunciation
proof
propaganda
proper
properties
property
prophecy
prophet
prophets
prophylaxis
proposal
proposed
proquest
prose
prosecutor
prosesa
prosopographie
prospective
prospects
protect
protected
protection
protectorate
protein
protest
protestant
protests
protini
proto
protocol
protoni
protozoa
proud
proust
provence
provera
provided
providence
provides
providing
province
provinces
provincial
prudence
pruitt
prunus
prussia
ps
psalms
psammophis
pseudo
psg
psv
psychiatric
psychiatry
psychol
psychological
psychology
pt
pternistis
pterodroma
pteropus
pterorhinus
pterygota
ptolemaio
ptolemy
ptsd
pu
pua
puani
puaz
pub
publ
public
publication
publications
publie
publique
published
publisher
publishers
publishersweekly
publishing
publius
pubmed
pubs
puebla
pueblo
puerto
puff
puglia
pugu
puju
pulitzer
pulmonary
pulse
puma
pumu
pumzi
pumziko
punch
punchng
punda
pundamilia
punde
pune
pungufu
punishment
punjab
punjabi
punje
punk
puppis
purcell
purdue
pure
purple
purpose
pursuit
push
put
putin
putnam
puto
puts
pv
pwani
pweza
pwo
px
pya
pycnonotus
pygmy
pyramid
pyre
pyrus
python
q
qa
qabus
qaeda
qaida
qatar
qawwali
qin
qing
qom
qu
quae
quail
qualifiers
quality
quantum
quark
quarter
quarterly
quartet
quaternary
que
quebec
queen
queens
queensland
queer
quentin
query
ques
quest
questia
question
questions
queue
qui
quick
quiet
quilt
quilts
quin
quincy
quinn
quintus
quiz
quo
quot
quotes
quoting
qur
quran
qurani
r
ra
rabat
rabbi
rabbit
rabe
rabi
rabin
race
racer
races
rachael
rachel
rachid
rachmaninoff
racial
racing
racism
rada
radar
radcliffe
radebe
radford
radhi
radi
radiation
radical
radidia
radio
radiotherapi
rae
raekwon
rafadha
rafael
rafiki
raga
rage
ragga
rah
raha
rahisi
rahman
rai
raia
rail
raila
railway
railways
rain
rainbow
rainer
rainforest
rais
raise
raised
raisi
raisin
raj
raja
rajab
rajabu
rajasthan
raju
rajveer
rakai
ral
rale
rallus
rally
ralph
ram
rama
ramadan
ramadhan
ramadhani
ramani
ramaphosa
ramesses
rami
ramia
ramo
ramon
ramos
ramsar
ramsay
ramses
ramsey
ramsgate
ran
rana
ranch
rand
randall
randolph
random
randomised
randomized
randy
range
ranger
rangers
rangi
rani
rania
rank
ranking
rankings
rao
rap
rapa
rape
raphael
rapid
rapids
rapper
rard
rare
ras
rasa
rashid
rashidi
rasi
rasilimali
rasimu
raslimali
rasmi
rasta
rastafari
rat
rate
rated
rates
rather
ratiba
ratings
ration
rats
rau
raul
raundi
raven
ravenna
ravine
raw
rawlings
ray
raymond
rayvanny
rb
rc
rca
rd
rdc
rdoba
re
reach
reaches
reaction
read
reader
readers
reading
readings
ready
reagan
real
reale
reality
really
reas
reason
reasons
rebeca
rebecca
rebel
rebellion
rec
receive
received
receives
recent
recently
reception
receptor
recherche
recherches
recipe
recipes
recipient
recipients
recognition
recommendations
reconstruction
record
recorded
recording
recordings
records
recovery
red
redemption
redio
redioni
redir
reduce
reduction
ree
reed
reef
rees
reeves
ref
refa
reference
referenced
references
reflections
reform
reformation
reformed
refs
refu
refugee
refugees
refworld
regarding
rege
regensburg
regent
reggae
reggie
reggio
regia
regime
regina
reginald
regio
regiola
region
regional
regions
regis
register
registered
regula
regular
regulation
regulations
regulus
rehabilitation
rehani
rehema
rehner
reich
reid
reign
reigns
reilly
reims
reina
reissue
rejareja
rejea
rejista
rekodi
rel
related
relating
relation
relations
relationship
relationships
relative
relativity
relay
release
released
releases
relevance
relevant
reli
reliable
relics
relief
religion
religions
religious
rema
remain
remains
remarks
remember
remembered
remembering
remix
remmy
remote
ren
renaissance
renato
renault
rene
renewable
renewal
rennes
reno
renowned
rep
replacement
report
reported
reporter
reporters
reporting
reports
repository
represent
representation
representations
representative
reprint
reprinted
reproductive
reptiles
reptilia
republic
republican
requiem
required
requirements
requires
rer
rerum
res
rescue
research
researcher
researchers
researchgate
reserve
reserves
residence
resident
residents
resigns
resistance
resolution
resort
resource
resources
respect
respiratory
response
responses
responsibility
responsible
rest
restaurant
restituta
restoration
result
results
resurrection
rethinking
retina
retreat
retrieve
retrieved
retrospective
retscreen
return
returns
reuben
reunion
reuters
rev
reveal
revealed
reveals
revelation
revenge
review
reviews
revised
revision
revisited
revista
revival
revolt
revolution
revolutionary
revue
rex
rey
reyes
reynolds
rez
rf
rfc
rfi
rg
rgb
rgen
rgph
rh
rhein
rhetoric
rhine
rhino
rho
rhode
rhodes
rhodesia
rhyme
rhymes
rhythm
rhythms
ri
ria
riaa
riadha
riaj
rianz
riba
ribeira
ric
rica
ricardo
rice
rich
richard
richards
richardson
richie
richmond
richter
rick
ricky
rico
rida
ridder
riddim
ride
rider
ridge
ridhaa
ridpath
rie
rienne
rieure
rievaulx
rifles
rift
riga
right
rights
rihanna
rijili
rika
riley
rim
rin
ring
ringo
rings
rio
rip
ripota
ripoti
ripper
risasi
rise
rises
rishi
rising
risk
risks
rita
ritchie
rite
rites
ritual
river
rivera
rivers
riwaya
rize
riziki
rj
rk
rkiye
rl
rm
rn
rna
rnb
ro
road
roads
rob
robben
robbie
robbins
roberson
robert
roberto
roberts
robertson
robespierre
robin
robinson
robles
robo
robot
roboti
robots
robson
roc
rocha
roche
rochelle
rochester
rock
rockefeller
rocks
rockstar
rocky
rod
roderick
rodney
rodri
rodrigo
rodrigues
rodriguez
roewer
rogatianus
rogatus
roger
rogers
roho
rohoni
roi
rojo
roketi
roland
role
roles
rolf
rolfe
roll
rolling
rollins
rolls
rom
roma
romae
romagna
romain
roman
romance
romanesque
romani
romania
romanian
romano
romanov
romanovs
romans
romantic
romanum
rombo
rome
romeo
romero
ron
ronald
ronaldo
ronan
rongai
ronnie
rono
roof
room
rooney
roosevelt
root
roots
rope
rorya
ros
rosa
rosario
rosary
rose
rosefinch
rosemary
rosen
rosenberg
roses
rosetta
rosh
roshan
rosie
ross
rossi
rostam
roster
rostov
rota
rotavirus
roth
rotten
rotterdam
rouen
rouge
rough
round
rousseau
route
routledge
roux
rover
rovers
rovuma
row
rowan
rowland
rowman
rowspan
roy
royal
royale
royce
rozari
rp
rpf
rpm
rr
rs
rt
rte
rterbuch
rttemberg
ru
ruaha
ruanda
ruangwa
rubani
rubens
rubin
rubirizi
ruby
rudd
rudi
rudishwa
rudolf
rudolph
rue
rufaa
ruff
rufiji
rufina
rufous
rufus
rugambwa
rugby
ruge
ruhusa
rui
ruins
ruiru
ruiz
rukia
rukundo
rukungiri
rukwa
rule
ruled
rulers
rules
ruling
rum
rumba
rumonge
rumped
run
rundiko
rundo
rungwe
runinga
runner
runnin
running
rununu
rupert
rupia
rupie
rural
rus
rush
rushwa
rusizi
russel
russell
russia
russian
russo
rusty
rusu
ruta
rutana
rutba
rutgers
ruth
rutherford
ruthu
ruto
rutuba
ruvu
ruvubu
ruvuma
ruwaza
ruwenzori
ruyigi
ruzizi
ruzuku
rw
rwanda
rwandair
rwandan
rwenzori
ry
ryan
rzburg
rømer
rı
s
sa
saa
saad
saadani
saba
sababu
sabah
sabaki
sabata
sabato
sabc
sabi
sabina
sabine
sabini
sabino
sabri
sabrina
sabuni
sachs
sacleux
sacra
sacrament
sacramento
sacred
sacrifice
sacrosancti
sad
sadaka
sadat
sadc
sadd
saddam
saddle
sae
safari
safaricom
safarini
safe
safety
safi
safina
safu
saga
sage
sagittarius
sahani
sahara
saharan
sahel
sahih
sahihi
sahili
sahrawi
sai
said
saida
saidi
saidizi
saigon
saikolojia
saini
saint
sainte
saintes
saintpatrickdc
saints
saire
saitoti
saizi
sakafu
sakai
sakakibara
sakalava
sakarya
sakassou
sakiti
sakramenti
saksafoni
saksonia
sal
sala
salaam
salah
salam
salama
salamanca
salami
salamis
salamu
salazar
saldana
sale
saleh
salem
salerno
sales
salesiana
salibu
salim
salisbury
salix
salle
sally
salma
salmon
salmoni
salome
salomon
salon
salone
salt
salters
salum
salvador
salvation
salvatore
salvatorianum
salzburg
sam
sama
samadi
samaki
samani
samantha
samaria
samarkand
samata
samatta
samawati
samba
sambamba
samburu
same
sami
samia
samini
samir
samira
sammanslagna
sammy
samoa
samora
sampa
sample
sampson
sampuli
samson
samsun
samsung
samuel
samueli
samwel
samweli
san
sana
sanaa
sanamu
sanasana
sanchez
sancho
sancta
sancti
sancto
sanctorum
sanctuary
sand
sanders
sanderson
sandpiper
sandra
sands
sanduku
sandy
sanford
sang
sanga
sanger
sango
sani
sanifu
sanitation
sankara
sankt
sans
sanskrit
sant
santa
santana
santander
sante
santi
santiago
santiebeati
santo
santos
santuri
sao
sapiens
sar
sara
sarafina
sarafu
sarah
sarakasi
saratani
sardegna
sardinia
sare
sarkodie
sarkozy
sars
sartre
sarufi
saruji
sasa
sash
sasha
saskatchewan
sassandra
sat
satan
sataranji
satelaiti
satellite
sato
satoshi
saturday
saturn
saturnina
saturnini
saturninus
satyagraha
sauce
saud
saudi
saudia
saul
sauli
saulo
saumu
saunders
sauti
sava
savage
savana
savanna
savannah
save
saved
savimbi
saving
savings
savio
saw
sawa
sawasawa
sawia
sawyer
saxon
saxony
saxophone
say
sayansi
sayari
saying
says
sayyid
sb
sc
scale
scaled
scaly
scandal
scandinavia
scar
scarecrow
scarlet
scene
scenes
scepter
scha
schaff
schalke
schedule
schengen
scherzinger
schism
schizophrenia
schleswig
schmid
schmidt
schnee
schneider
scho
schodt
scholar
scholarly
scholars
scholarship
school
schools
schopenhauer
schro
schu
schubert
schulte
schultz
schumann
schuster
schutztruppe
schuyler
schwartz
schwarz
schwenzer
schweppes
sci
science
sciencedirect
sciences
scientific
scientist
scientists
sclerosis
sco
scops
score
scores
scorpion
scorpionfish
scotia
scotland
scott
scottish
scotus
scout
scream
screech
screeching
screen
screening
scribd
scribner
script
scripta
scriptores
scriptorum
scripture
scriptures
scroll
scrub
sculpture
sd
se
sea
seal
sean
search
searchable
searching
searle
seas
season
seasons
seat
seattle
sebastia
sebastian
sec
seck
secolo
second
secondary
secondhand
secondo
secret
secretariat
secretary
secrets
section
sections
sector
sects
secular
secunda
secure
security
sede
see
seed
seedeater
seeing
seeks
seems
seen
sefania
sega
segal
segment
segun
sehemu
sei
seif
sein
seine
sekai
seko
sekondari
sekretarieti
sekta
sekunde
selassie
sele
select
selected
selection
selections
selemani
selena
selestini
self
seli
selim
selling
selous
sema
sembabule
sembe
seme
semi
semina
seminar
seminari
seminars
seminary
seminole
sen
senate
senati
senegal
senegalensis
senegali
senegalia
seneta
seneti
sengerema
senghor
sengi
senior
sens
sensa
sense
senses
sent
sentensi
senti
sentigredi
sentimeta
sentimita
sentinel
sentongo
seoul
sep
separate
separation
sepetu
sepik
sepsis
sept
septemba
september
septembre
septimius
septuagint
septuaginta
sequence
ser
sera
seram
seraphim
serapioni
serbia
serbian
seremala
serena
serengeti
serge
sergei
sergio
sergius
serie
series
serikali
serikalini
serious
sermon
sermons
serotonini
serowe
serpens
serpent
serra
servant
servants
serve
served
server
servetus
service
services
ses
sese
session
sessions
set
seth
seti
setilaiti
sets
setting
settings
settlement
settlements
seva
seven
sevens
seventeenth
seventh
seventy
several
severe
severino
severo
severus
seviksi
sevilia
sevilla
seville
sex
sexual
sexuality
sexually
sexy
seychelles
seymour
sf
sfinksi
sg
sgr
sh
sha
shaaban
shaba
shabaab
shabaha
shabani
shabiki
shada
shadow
shadows
shady
shafi
shag
shaggy
shah
shaha
shahada
shahamu
shahawa
shahidi
shairi
shajara
shaka
shake
shakespeare
shakira
shakivale
shakur
shakwe
shall
shamba
shambani
shambulio
shambulizi
shame
shams
shamu
shan
shane
shanga
shangaan
shangazi
shanghai
shangwe
shani
shania
shannon
shape
shaped
shapiro
shapur
share
shared
shares
shari
sharia
sharif
sharing
shark
sharma
sharon
sharp
sharpe
sharti
shati
shatta
shauku
shauri
shavu
shaw
shawn
shay
shayiri
shaykh
she
shea
shearwater
sheba
sheema
sheep
sheet
sheffield
shehena
sheikh
sheila
sheldon
shelisheli
shell
shelley
shemasi
shemeji
sheng
shepard
shepherd
shepwa
sheraton
sherehe
sheria
sheriff
sherman
sheroes
sherwood
shetani
shetland
shetri
shetty
shi
shia
shida
shield
shift
shigongo
shikizi
shilingi
shilole
shimo
shimoni
shina
shindano
shindikizo
shine
shingo
shingoni
shinikizo
shining
shinyanga
ship
shira
shirakawa
shiraz
shirazi
shire
shirika
shirikani
shiriki
shirikishi
shirikisho
shirley
shiro
shiva
sho
shock
shoe
shoes
shoga
shoka
shomoro
shoot
shooter
shooting
shop
shore
shoro
shorobo
short
shot
shoti
should
shouldered
show
showbiz
showing
shows
showtimes
shrew
shrike
shrine
shtaka
shtml
shu
shueisha
shughuli
shujaa
shuka
shukrani
shule
shuleni
shupavu
shura
shutuma
si
siagi
siasa
siastique
siaya
sibelius
siberia
siberian
sic
sica
sicilia
sicily
sick
sickle
sid
siddharta
side
sidi
sidney
sie
siebeck
siecles
siegfried
siena
sierra
sifa
sifaka
sifuri
sig
sigara
sigma
sign
signal
signature
signed
significance
significant
signs
siha
sijui
sikensi
sikh
siki
sikio
sikonge
siku
sikuhizi
sikukuu
sikusare
sikuzote
sila
silabi
silaha
silas
silence
silent
sili
silicon
silika
silinda
silio
silk
silva
silver
silvester
silvia
silvio
sim
sima
simanjiro
simba
simbel
simeon
simeoni
simi
similar
simiti
simiyu
simmons
simon
simone
simoni
simple
simplex
simplified
simply
simpson
simu
simujanja
simulation
simulizi
sin
sina
sinagogi
sinai
sinapsi
since
sinclair
sindano
sindh
sindromu
sine
sinema
sing
singapore
singapur
singapuri
singer
singers
singh
singida
singing
single
singles
singo
sings
singular
sinners
sino
sinodi
sinop
sins
sint
sintaksia
sintetiki
sio
sion
sipho
sipriani
sir
sira
siracusa
siradk
siri
siria
siriaki
sirili
sirius
sirleaf
siro
sisi
sisia
sisilia
sisimizi
siskin
sista
sister
sisters
sisto
sit
sita
sitcom
site
sites
sithole
siti
sitini
sitio
sitta
situation
sivas
sivyo
siwa
siwezi
six
sixteenth
sixth
sixtus
siyo
size
sj
sk
ska
skales
skandinavia
skauti
skeli
sketch
sketches
ski
skii
skills
skin
skink
skinner
skizofrenia
sklerosisi
skrini
skuli
sky
skype
skyvector
sl
slade
slam
slang
slate
slaty
slave
slavery
slaves
slavic
sleep
sleji
slender
slim
slothi
slovakia
slovenia
slow
sm
smackdown
small
smallpox
smart
smile
smirna
smith
smithsonian
smoke
smoking
smooth
sms
snake
snep
snipe
snoop
snouted
snow
snowden
snyder
so
soap
soba
sobat
sobre
soc
soccer
soccerbase
soccerway
social
sociales
socialism
socialist
socie
sociedad
societa
societies
society
socio
sociological
sociology
soda
soden
sodiamu
sodium
sofala
sofia
soft
software
soil
soissons
soka
soko
sokoine
sokoni
sokoto
sokotra
sokrates
soksi
sokwe
sol
sola
solar
sold
soldier
soldiers
sole
soli
solid
solidarity
solitaria
solo
solomon
solomoni
solon
solution
solutions
soma
somali
somalia
somaliland
some
somebody
someone
somerset
somethin
something
sometimes
somo
son
sona
song
songa
songea
songhai
songo
songs
songwe
songwriter
sonia
sono
sons
sony
soon
sooty
sophia
sophie
soprano
sorbonne
soroti
sorry
sort
sos
soseji
sosholojia
sota
sote
soter
soto
soubre
souk
soukous
soul
souls
sound
sounds
soundscan
soundtrack
soup
source
sourcebook
sources
sous
sousa
sousse
south
southampton
southeast
southeastern
southern
southwest
southwestern
souza
sovereignty
soviet
sowetan
soweto
soy
soya
soyinka
sozomen
sp
spa
space
spage
spaghetti
spain
spam
span
spanish
spark
sparks
sparrow
sparrowhawk
sparta
spawls
spck
spd
spe
speak
speaker
speakers
speaking
speaks
spear
spears
special
specialist
species
specific
specify
spectacled
spectrum
speculum
speech
speed
speke
spektra
spencer
sphere
spice
spider
spidi
spiegel
spielberg
spika
spike
spin
spine
spirit
spirits
spiritual
spirituality
spishi
spla
split
spoken
spoleto
spora
sport
sporting
sportive
sports
spot
spoti
spotlight
spotted
spp
sprache
sprachen
spread
spreading
spring
springer
springfield
springs
springsteen
spurfowl
sputnik
spy
sq
sqpn
sqq
squad
square
squeaker
squire
squirrel
sr
sri
ss
ssa
sseldorf
ssri
st
sta
stabat
stable
stade
stadi
stadium
stadiums
staff
stafford
stage
stahili
staili
stalin
stalingrad
stamford
stamp
stan
stanbic
stand
standard
standards
standing
stanford
stani
stanley
stanton
star
stardust
starehe
stargate
stark
starlets
starling
starr
starring
stars
start
started
starting
starts
stashahada
stat
state
statement
statements
staten
states
statesman
station
stations
statistical
statistics
statistique
statoids
stats
statue
status
stay
std
ste
steam
stechert
steel
steele
steere
stefan
stefano
steffen
stein
steinberg
steiner
stella
stellar
stellenbosch
stem
stempu
stendi
step
stephan
stephanie
stephen
stephens
stephenson
steps
stereo
sterling
stern
steroidi
stesheni
steve
steven
stevens
stevenson
stevie
stewart
stica
stick
still
stima
stm
sto
stock
stockholm
stoke
stokes
stone
stonebwoy
stones
stop
storage
storch
store
stores
storia
storico
stories
stork
storm
story
stoughton
straight
strait
straits
strand
strange
stranger
strasbourg
strategic
strategies
strategy
strathmore
straus
strauss
streaked
stream
streaming
streep
street
streets
streisand
strength
stress
strictly
strike
string
stripe
striped
strix
stroke
strokes
strong
stroud
structural
structure
structures
struggle
struggles
sts
stuart
student
students
studi
studia
studien
studies
studio
studios
study
stuff
stupid
stuttering
stuttgart
style
styles
su
sua
suaheli
suala
suarez
sub
suba
subcommittee
subira
subject
subjects
subscription
substance
success
successful
succession
successor
such
suche
sucre
sud
sudan
sudani
sudaniki
sudbury
sudi
sue
suez
suffered
suffering
suffolk
sufi
sufu
sufuria
sugar
sugu
sui
suicide
suit
suite
sukari
sukejiro
sukuma
sul
sula
sulawesi
suleiman
suleimani
sulemani
sulfuri
sulla
sullivan
sultan
sultani
suluhisho
suluhu
sululu
sulzberger
sumaku
sumakuumeme
sumatra
sumatran
sumba
sumbawanga
summa
summary
summer
summit
sumu
sun
suna
sunak
sunbird
sunda
sunday
sunderland
sung
sungura
sungusungu
sunna
sunni
sunset
sunshine
suny
supe
super
superior
superstar
suppl
supplement
supply
support
supported
supporting
supreme
supremes
supu
sur
sura
surat
surface
surgeon
surgeonfish
surgery
surgical
surinam
suriname
surprise
surrey
surua
suruali
surveillance
survey
survival
survivor
survivors
sus
susan
sussex
sustainability
sustainable
sutherland
suti
sutton
suv
suzanne
suzuki
sv
svalbard
svd
sven
sw
swa
swahili
swala
swali
swallow
swamp
swamphen
swan
swansea
swaziland
swear
sweden
swedish
swedishcharts
sweet
swichi
swift
swiftlet
swila
swimming
swing
swiss
swisscharts
switch
switzerland
sword
swot
sy
syda
sydney
sykes
sylar
sylla
sylvain
sylvanus
sylvester
sylvia
sylvilagus
symbol
symbols
symeon
symphony
symposium
symptoms
synaxaire
synaxarion
synaxaristes
synaxarium
syndrome
synod
synodontis
synopsis
synoptic
synthesis
syphilis
syracuse
syria
syriac
syrian
syriaque
syst
system
systematic
systems
t
ta
taa
taabu
taaluma
taarab
taarabu
taarifa
taasisi
tab
taba
tabaka
tabasamu
tabia
tabianchi
tabibu
table
tables
tablets
tabora
tabou
tabu
tabula
tacitus
taddesse
tae
tafadhali
tafakuri
taff
tafiti
tafsiri
tafuta
tag
tagalog
tageo
tagged
tago
taha
tahadhari
tahajia
tahakiki
tahiti
tahya
tai
taifa
taiga
tail
tailed
tailorbird
taipei
tairi
taita
taiwan
taiyuan
taj
taja
taji
tajikistan
tajiri
tajriba
taka
takadir
takahashi
takashi
takataka
takatifu
take
taken
takes
takeya
taking
tako
takoradi
takr
takriban
takribani
takwimu
talaka
talanta
talbot
tale
talent
tales
talib
taliban
talk
talking
talks
tall
tallinn
talmud
tam
tamaa
tamaduni
tamale
tamara
tamasha
tamathali
tamati
tamba
tambarare
tambi
tambiko
tambo
tambuzi
tamil
tamka
tamko
tampa
tamrat
tamthilia
tamthiliya
tamu
tan
tana
tanaka
tanakh
tanapa
tanbihi
tanda
tandahimba
tandala
tandale
tandaraka
tandawala
tando
tandu
tanesco
tang
tanga
tanganyika
tangawizi
tangazo
tangi
tango
tangu
tani
tank
tanner
tano
tanu
tanuri
tanzam
tanzania
tanzanian
tanzaniayenye
tanzia
tanzu
tao
tape
tapo
tar
tara
taraborrelli
tarafa
tarakilishi
tarakilishikuu
tarakimu
tarantula
taratibu
tarehe
target
targets
tarime
tarimo
tariq
tarn
taro
tarso
tartu
tarumbeta
tarzan
tas
tasa
task
tasmania
tasnia
tasnifu
taste
taswira
tat
tata
tatata
tate
tathmini
tatizo
tatu
tau
taught
tauni
tauris
taurus
tausi
taveta
tawa
tawala
tawasifu
tawi
tawimto
tawny
tax
taxi
taxonomic
tay
taya
tayari
taylor
taz
tazama
tazara
tazelita
tb
tbc
tbs
tc
tchad
tchaikovsky
tchologo
tcm
tcp
tcra
tcu
te
tea
teach
teacher
teachers
teaches
teaching
teachings
teal
team
teams
tears
teatro
teborg
tech
technical
technique
techniques
technologies
technology
ted
teddy
tedesco
tee
teen
teenage
teens
teeth
tegemezi
tegu
tehran
teil
tekelezi
tekeze
tekirdag
teknolojia
teksi
tel
tele
telecel
telegrafu
telegraph
teleka
telescope
televisheni
television
telica
tell
tells
tema
temba
tembe
tembo
temeke
temperature
template
templates
temple
temps
ten
tena
tendaguru
tendaji
tendi
tendo
tendon
tenerife
tengefu
tenisi
tennessee
tennis
tenno
tenochtitlan
tenrec
tense
tenth
tenzi
teofilo
teolojia
tepu
ter
terego
terence
teresa
tergat
teri
term
terminal
terminalia
terminator
terms
tern
terra
terre
terrence
terrestrial
territorial
territories
territory
terror
terrorism
terrorist
terry
tertullian
tes
tesistosteroni
tesla
teso
tessa
test
testament
testamentum
testing
testosteroni
tests
tete
tetekuwanga
tetemeko
teule
texas
text
textbook
texte
textes
textile
texts
tezi
tg
th
tha
thabiti
thabo
thai
thailand
thamani
thames
than
thanh
thank
thanks
tharaka
that
thawabu
the
theater
theatre
thebe
thebes
thecitizen
theft
theguardian
their
thelathini
theluji
theluthi
them
themanini
theme
themes
themselves
then
thenashara
thenia
theo
theodor
theodora
theodore
theodoret
theodori
theodoro
theodorus
theodosius
theologian
theologica
theological
theology
theolojia
theoretical
theories
theory
theotokos
ther
therapeutic
therapi
therapies
therapy
there
therefore
theresa
therese
thes
thesalonike
these
theses
thesis
thessaloniki
theta
they
thi
thibitisho
thick
thief
thierry
thika
thin
thing
things
think
thinking
thiong
thiopien
third
thirteenth
thirty
this
thoma
thomas
thompson
thomson
thor
thoracic
thorax
thorn
thornton
those
thou
though
thought
thoughts
thousand
thousands
thread
threads
threat
threatened
three
thriller
throat
throated
thrombosi
thrombosis
throne
through
throughout
throw
thrush
thug
thuluthi
thumb
thunberg
thunder
thuringia
thursday
thurston
thus
ti
tia
tiara
tiassa
tiba
tibet
tibetan
tibeti
tica
ticket
tico
tid
tie
tien
tienne
tiennes
tierney
tierra
tiffany
tigania
tiger
tigers
tigray
tigres
tija
tiketi
tikisa
tikiti
tiktok
til
till
tim
tima
timbaland
timberlake
timbuktu
time
timeline
times
timeslive
timor
timotheo
timothy
timu
timur
tin
tina
tinga
tingatinga
tini
tiny
tip
tippett
tippu
tips
tira
tiro
tisa
tishio
tishu
tisini
tit
titan
titanic
titi
title
titled
titles
tito
titular
titus
tiva
tj
tk
tkuu
tl
tlc
tls
tm
tn
tnt
to
toa
toad
toba
tobacco
tobago
tobias
tobitidk
tochi
tochigi
tod
today
todd
todi
todirhamphus
toed
tofali
tofauti
tofautitofauti
together
togo
tohara
toharani
tohe
toit
toka
tokat
tokea
tokeo
tokyo
told
toledo
toleo
toll
tom
toma
tomas
tomasello
tomaso
tomatoes
tomb
tombo
tome
tommy
tomo
tomografia
tomorrow
tomus
ton
tone
tong
tonga
tongue
toni
tonight
tonkpi
tony
too
took
tool
toole
tools
toomer
toothed
top
tope
topic
topics
tops
tor
torah
torati
torino
toro
toronto
tororo
torre
torrens
torres
torture
toscana
tosh
tosha
tosin
total
toto
tottenham
touba
touch
toufik
tough
toule
toulouse
toumodi
tour
toure
touring
tourism
tourist
tournament
tours
tous
toussaint
tout
tovuti
toward
towards
tower
towers
town
towns
townsend
township
toxic
toy
toyin
toyota
tp
tpok
tr
tra
trabzon
trace
tracey
trachylepis
track
tracks
tract
tractatus
tracy
trade
trading
tradition
traditional
traditions
traduction
traduit
traffic
trafford
trafiki
tragedy
trail
trailer
trailers
train
training
tran
trans
transaction
transactions
transcript
transfer
transformation
transgender
transista
transition
transl
translate
translated
translation
translations
translator
transmission
transmitted
transnational
transparency
transport
transvaal
traore
trap
traumatic
travel
traveler
traveling
travels
travis
trc
tre
treasure
treasures
treating
treatise
treatment
treatments
treaty
treccani
tredimili
tree
treepie
trees
trek
trekta
trench
trends
treni
trent
trentino
trento
trenton
treron
tres
trevor
trey
tri
trial
trials
triangle
triangulum
tribal
tribe
tribes
tribune
tribute
trick
trier
trieste
trilioni
trilogy
trinidad
trinity
trio
trioceros
trip
triple
tripoli
tristan
trithemis
triumph
trl
tro
trofimo
troglodytes
trogon
troia
trois
trondheim
troops
trop
trophy
tropical
tropiki
trotsky
trouble
troy
troyes
tru
true
truman
trump
trust
trustees
truth
try
trying
trøndelag
ts
tsar
tsavo
tsh
tshwane
tsunami
tsushima
tt
ttcl
ttingen
tu
tuamotu
tube
tuberculosis
tubman
tucker
tudes
tudor
tuduru
tuesday
tufaa
tufani
tufe
tufted
tufts
tuhuma
tuki
tukio
tukiwa
tuko
tukufu
tukumbuke
tukuyu
tula
tuli
tulikuwa
tulivu
tulsa
tumaini
tumba
tumbako
tumbaku
tumbawe
tumbili
tumbo
tumboni
tumbusi
tume
tumia
tumpende
tuna
tunahitaji
tunajua
tunakuta
tunaona
tunapaswa
tunapata
tunasema
tunasikia
tunataka
tunatakiwa
tunatumia
tunavyoona
tunaweza
tunda
tundra
tundu
tunduma
tunduru
tunes
tungo
tunguska
tunguu
tunis
tunisi
tunisia
tunu
tunutu
tuone
tupa
tupac
tupate
tupu
tur
turaco
turbo
turdus
turin
turing
turismo
turkana
turkey
turkish
turkmenistan
turks
turkwel
turn
turned
turner
turnhout
turning
turns
turtle
turubai
tusker
tutu
tutuko
tutume
tuvalu
tuwe
tuweze
tuzingatie
tuzo
tv
tvsa
tw
twain
twala
tweed
twelfth
twelve
twentieth
twenty
twice
twiga
twilight
twin
twins
twitter
two
tx
ty
tycho
tyler
tyndale
tyne
type
types
typis
tyra
tyson
tyto
tyuma
tz
tzs
tzu
u
ua
uadilifu
uadui
uae
uaguzi
uainishaji
uajemi
ualimu
uambukizaji
uamilifu
uaminifu
uamsho
uamuzi
uanachama
uanaharakati
uanamitindo
uanapwa
uandaaji
uandikishaji
uandishi
uangalifu
uangalizi
uangavu
uanzishaji
uanzishwaji
uarabuni
uario
uasherati
uasi
uasilia
uasin
uaskofu
ub
ubadilishaji
ubadilishanaji
ubaguzi
ubakaji
ubaldo
ubalehe
ubalozi
ubangi
ubani
ubao
ubaridi
ubatili
ubatizo
ubavu
ubaya
ubebaji
ubeberu
ubelgiji
ubepari
ubeti
ubia
ubikira
ubinadamu
ubinafsi
ubingwa
ubishi
ubongo
ubora
uboreshaji
ubos
ubuddha
ubudha
ubunge
ubungo
ubunifu
ubuntu
ubwana
uc
ucb
uchache
uchafu
uchafuzi
uchaguzi
uchaji
uchakataji
uchambuzi
uchangamfu
uchanganuzi
uchapaji
uchapishaji
uchawi
uche
uchekeshaji
ucheki
ucheshi
uchezaji
uchi
uchimbaji
uchina
uchochezi
uchokozi
uchomaji
uchongaji
uchoraji
uchovu
uchu
uchukuzi
uchumba
uchumi
uchungaji
uchungu
uchunguzi
ucla
uct
ud
uda
udadisi
udaktari
udanganyifu
udani
udhaifu
udhamini
udhibiti
udikteta
udogo
udongo
udsm
udugu
udukuzi
udumifu
uduvi
udzungwa
uefa
ueire
uelewa
uendelevu
uendelezaji
uendeshaji
ueneaji
uenezaji
uenezi
ufa
ufadhili
ufafanuzi
ufahamu
ufalme
ufanisi
ufanyaji
ufanyike
ufaransa
ufasaha
ufeministi
ufikiaji
ufilipino
ufini
ufinyanzi
ufisadi
ufishaji
ufu
ufuatano
ufuatao
ufuatiliaji
ufufuko
ufufuo
ufugaji
ufukara
ufuko
ufukoni
ufukwe
ufukweni
ufumaji
ufumbuzi
ufunda
ufundi
ufundishaji
ufungaji
ufunguo
ufunguzi
ufunuo
ufuo
ufupi
ufupisho
ufuta
ufyatuaji
ug
uga
ugaidi
ugali
uganda
ugandan
uganga
ugani
ugasumaku
ugatuzi
ugavana
ugavi
ugawaji
ugenini
ugiligili
ugiriki
ugly
ugo
ugolino
ugomvi
ugonjwa
ugumu
ugunduzi
uhaba
uhabeshi
uhai
uhaini
uhakika
uhakiki
uhalali
uhalifu
uhalisi
uhalisia
uhamaji
uhamasishaji
uhamiaji
uhamishaji
uhamisho
uhamishoni
uhandisi
uharamia
uharibifu
uhariri
uhasama
uhasibu
uhifadhi
uhindi
uhindu
uhispania
uhitaji
uhodari
uholanzi
uhuishaji
uhunzi
uhuru
uhusiano
uhusika
ui
uigaji
uigizaji
uimamu
uimara
uimarishaji
uimbaji
uingereza
uingizaji
uinjilishaji
uinjilisti
uishe
uislam
uislamu
uitwao
ujamaa
ujambazi
ujana
ujanani
ujangili
ujanibishaji
ujanja
ujao
ujapani
ujasiri
ujasiriamali
ujasusi
ujauzito
ujazo
ujenzi
ujerumani
uji
ujiji
ujinga
ujio
ujirani
ujulikanao
ujumbe
ujumla
ujumuishaji
ujuzi
uk
ukaanza
ukabila
ukabu
ukaendelea
ukafanywa
ukaguzi
ukahaba
ukaidi
ukaja
ukali
ukambi
ukame
ukamilifu
ukanda
ukandamizaji
ukarabati
ukarasa
ukaribu
ukarimu
ukataji
ukatili
ukatoliki
ukavu
ukawa
uke
ukeketaji
ukeni
ukerewe
ukhalifa
ukia
ukiacha
ukielekea
ukiendelea
ukilinganisha
ukimbizi
ukimwi
ukinga
ukingo
ukingoni
ukinzani
ukiritimba
ukitumia
ukitumika
ukiukaji
ukiukwaji
ukiwa
ukizingatia
uko
ukokotozi
ukolezi
ukoloni
ukoma
ukomavu
ukombozi
ukomeshaji
ukomunisti
ukoo
ukosefu
ukosi
ukosoaji
ukraina
ukraine
ukraini
ukrainian
ukristo
ukuaji
ukubwa
ukuhani
ukukwi
ukulima
ukulu
ukumbi
ukumbini
ukumbusho
ukungu
ukurasa
ukusanyaji
ukuta
ukutani
ukuu
ukuzaji
ukweli
ul
ulafi
ulaghai
ulaji
ulanga
ulanzi
ulaya
ule
ulegevu
ulemavu
uleule
ulevi
ulezi
uliamua
uliandaa
uliandikwa
ulianza
ulianzia
ulianzisha
ulianzishwa
ulibadilika
ulibadilishwa
ulibaki
ulichaguliwa
ulichangia
ulichezwa
ulichukua
ulichukuliwa
ulidumu
uliendelea
ulienea
ulifanikiwa
ulifanya
ulifanyika
ulifanywa
ulifika
ulifikia
ulifuata
ulifunguliwa
ulifutwa
uligundua
uliharibiwa
ulihusisha
uliimbwa
uliingia
uliitishwa
uliitwa
ulijengwa
ulijitokeza
ulijulikana
ulijumuisha
ulikadiriwa
ulikamilika
ulikua
ulikubali
ulikuja
ulikuwa
ulikuwepo
ulikwisha
ulilenga
ulileta
ulimfanya
ulimi
ulimpa
ulimwengu
ulimwenguni
ulinganifu
ulinganisho
ulingo
ulinzi
ulio
ulioandaliwa
ulioandikwa
ulioanza
ulioanzishwa
uliobaki
ulioendelea
ulioenea
uliofanya
uliofanyika
uliofanywa
uliofuata
uliofuatia
ulioimbwa
ulioitwa
uliojengwa
uliojulikana
uliokithiri
ulioko
uliokubaliwa
uliokuwa
uliokuwepo
uliomo
uliona
ulionekana
uliongezeka
uliongozwa
ulionyesha
uliopangwa
uliopatikana
uliopewa
uliopita
uliopo
uliorekodiwa
uliosababisha
uliosababishwa
uliotangulia
uliotayarishwa
uliotengenezwa
uliotoka
uliotokana
uliotokea
uliotolewa
uliotumika
uliotungwa
ulioundwa
uliowahi
uliowekwa
uliozidi
ulipangwa
ulipata
ulipatikana
ulipelekea
ulipewa
ulipigwa
ulipo
ulipoanza
ulipofika
ulipokea
ulipokuwa
uliporomoka
ulipungua
ulirekodiwa
ulisababisha
ulisaidia
ulishika
ulishinda
ulishindwa
ulistawi
ulitambuliwa
ulitangazwa
ulitawaliwa
ulitayarishwa
ulitegemea
ulitengenezwa
ulitoa
ulitoka
ulitokana
ulitokea
ulitolewa
ulitumia
ulitumika
ulitumiwa
ulitungwa
uliundwa
ulivyo
uliwahi
uliweka
uliwekwa
uliweza
ulizidi
ulrich
ultimate
ultra
ultrasound
ultratop
uluguru
ulysses
um
uma
umaarufu
umahiri
umakanika
umakini
umakinifu
umaksi
umar
umashuhuri
umasikini
umaskini
umati
umba
umbali
umbile
umbo
umbria
umeanza
umebaki
umechezwa
umechukua
umeendelea
umeenea
umefanya
umefanywa
umegawanyika
umegawanywa
umeimbwa
umejaa
umejengwa
umejulikana
umekadiriwa
umekoozeshwa
umekua
umekuwa
umeme
umememaji
umeng
umeonekana
umeongezeka
umeonyesha
umepakana
umepata
umepewa
umepungua
umesababisha
umetaboli
umetayarishwa
umetoka
umetokana
umetumika
umezungukwa
umiliki
umimi
umio
umisionari
umm
umma
umo
umoja
umonaki
umotomoto
umri
umuhimu
umungu
umwagaji
umwagiliaji
umwilisho
un
una
unaanza
unaanzia
unabii
unachangia
unachezwa
unachukua
unachukuliwa
unadai
unaelekea
unaendelea
unaenea
unafaa
unafanana
unafanya
unafanyika
unafanywa
unafiki
unafikia
unafuata
unahesabiwa
unahitaji
unahitajika
unahusiana
unahusisha
unahusishwa
unahusu
unaids
unaingia
unaishia
unaitwa
unajimu
unajitokeza
unajua
unajulikana
unajumuisha
unakadiriwa
unakua
unakuwa
unalenga
unaleta
unalingana
unamaanisha
unaoathiri
unaoendelea
unaofaa
unaofanana
unaofanywa
unaofuata
unaohitajika
unaohudumia
unaohusiana
unaohusisha
unaohusu
unaoishia
unaoitwa
unaojulikana
unaojumuisha
unaokua
unaolenga
unaonekana
unaongezeka
unaonyesha
unaoonekana
unaoonyesha
unaopatikana
unaopita
unaosababisha
unaosababishwa
unaotakiwa
unaotegemea
unaotiririka
unaotoa
unaotoka
unaotokana
unaotokea
unaotolewa
unaotumia
unaotumika
unaotumiwa
unaounganisha
unaoweza
unaozaa
unaozidi
unaozunguka
unapaswa
unapata
unapatikana
unapita
unapitia
unapokea
unapungua
unaruhusu
unasababisha
unasababishwa
unasaidia
unasema
unasimamiwa
unatajwa
unataka
unatakiwa
unategemea
unatiririka
unatoa
unatofautiana
unatoka
unatokana
unatokea
unatolewa
unatumia
unatumika
unatumiwa
unaunda
unaundwa
unaungana
unaunganisha
unaweka
unaweza
unazidi
unbreakable
und
undani
under
undercover
underground
understanding
undp
undugu
une
unene
unep
unesco
unfccc
ung
unga
ungamo
ungekuwa
unguja
unhcr
uni
unicef
unicolor
unicornfish
unihan
union
unions
unique
unit
unita
unite
united
units
unity
univ
universal
universe
universidad
universidade
universita
universitaires
universitatis
universite
universities
university
univision
unix
unknown
unlimited
uno
unofficial
unovisi
unter
untersuchungen
until
unto
untold
ununuzi
unururifu
unveiled
unveils
unwin
unyago
unyama
unyanyapaa
unyanyasaji
unyasa
unyenyekevu
unyeti
unyevu
unyevunyevu
unyofu
unyogovu
unyonge
unyonyaji
unywaji
uo
uokoaji
uondoaji
uongo
uongofu
uongozaji
uongozi
uoto
uovu
up
upadirisho
upadri
upadrisho
upagani
upambanuzi
upana
upandaji
upande
upanga
upangaji
upanuzi
upapa
upara
upare
upasuaji
upatanishi
upatanisho
upate
upatikanaji
update
updated
updates
upekee
upele
upelelezi
upendeleo
upendo
upenyezi
upenyo
upeo
upepo
upesi
upi
upigaji
upili
upimaji
upinde
upinzani
upishi
upitao
upitishaji
uploads
upo
upofu
upole
upon
uponyaji
upotevu
upotezaji
upotoshaji
upotovu
upper
uppsala
uprotestanti
uptown
upumbavu
upumuaji
upungufu
upunguzaji
upweke
upwekeni
upya
ur
urafiki
urahisi
uraia
uraibu
urais
uraisi
ural
urambazaji
urambo
urani
uranus
urari
urasimu
uratibu
urban
urbana
urbani
urbano
urdu
urefu
urekebishaji
urekebisho
urembo
ureno
urgell
urges
urinary
urithi
url
urmia
uroho
uropa
ursa
ursae
ursula
ursus
uru
uruguay
urujuanimno
uruk
urukaji
urundi
urusi
us
usa
usafi
usafiri
usafirishaji
usafishaji
usagara
usage
usaha
usahihi
usahili
usaid
usaidizi
usajili
usalama
usaliti
usambara
usambazaji
usangu
usanifu
usanii
usanisi
usanisinuru
usasa
usawa
usd
use
used
useful
useja
usemi
user
users
uses
usgs
ushahidi
ushairi
ushambuliaji
ushauri
ushawishi
ushemasi
usher
ushindani
ushindi
ushirika
ushiriki
ushirikiano
ushirikina
ushoga
ushonaji
ushuhuda
ushujaa
ushungi
ushuru
usi
usikivu
usiku
usimamizi
usimbishaji
usimulizi
usindikaji
using
usingizi
usio
usiokuwa
usiri
usiwe
uskoti
uso
usomaji
usomi
usoni
usonji
ussr
ustaarabu
ustad
ustadi
ustahimilivu
ustawi
usually
usubi
usufi
usugu
usukani
usul
usuli
usultani
usuluhishi
usumaku
usumbufu
uswahilini
uswazi
uswidi
uswisi
uswizi
ut
uta
utaalam
utaalamu
utabibu
utabiri
utafiti
utafutaji
utah
utaifa
utajiri
utakaso
utakatifu
utakuwa
utalii
utamaduni
utamadunisho
utambulisho
utambuzi
utamu
utandawazi
utando
utangazaji
utangulizi
utani
utanzu
utao
utaona
utapiamlo
utarakilishi
utaratibu
utaridi
utasa
utashi
utata
utathmini
utatu
utatuzi
utawa
utawala
utawani
utayari
utayarishaji
utd
ute
utegemeaji
utegemezi
utegili
utekaji
utekelezaji
uteketezaji
utemi
utendaji
utendakazi
utendi
utengano
utengenezaji
utengule
utenzi
utepe
uterasi
utesaji
utetezi
uteuzi
uthabiti
uthai
uthibitishaji
uthibitisho
uthman
uti
utii
utiifu
utimilifu
utitiri
utm
utoaji
utofauti
utomvu
utopia
utosi
utoto
utotoni
utovu
utrecht
uttar
utu
utukufu
utulivu
utumbo
utume
utumiaji
utumishi
utumizi
utumwa
utumwani
utungaji
utungisho
utunzaji
utunzi
utupaji
utupu
uturuki
uuaji
uuguzi
uumbaji
uume
uundaji
uuzaji
uvamizi
uvimbe
uvinza
uvivu
uvukizaji
uvumba
uvumbuzi
uvumi
uvumilivu
uvunaji
uvunjaji
uvutaji
uvutano
uvuvi
uvuvio
uwajibikaji
uwakilishi
uwanda
uwanja
uwanjani
uwasilishaji
uwazi
uwaziri
uwe
uwekaji
uwekezaji
uwele
uwemo
uwepo
uweza
uweze
uwezekano
uwezeshaji
uwezo
uwiano
uwindaji
uwingi
uwongo
uwoya
uyahudi
uyoga
uyole
uyui
uzalendo
uzalishaji
uzamili
uzamivu
uzani
uzao
uzazi
uzbekistan
uzee
uzeeni
uzembe
uzi
uzima
uzinduzi
uzinifu
uzio
uzito
uzoefu
uzuiaji
uzuri
uzushi
v
va
vaccination
vaccine
vaccines
vachellia
val
vale
valence
valencia
valentin
valentine
valentino
valentinus
valerian
valeriani
valerie
valerius
vali
valladolid
valle
valley
value
values
valvu
vampire
van
vancouver
vanellus
vanessa
vanga
vanguard
vanguardngr
vanity
vanuatu
var
variable
variants
variation
variations
varicella
variety
various
varisela
varsity
vasco
vatican
vaticana
vaticani
vaticano
vatikani
vatikano
vaughan
vaughn
vavoua
vaz
vazi
ve
vega
vegas
vekta
vel
vela
velten
velvet
vema
vena
venerable
veneto
venezia
venezuela
venice
venous
vented
ventrikali
venture
ventures
venues
venus
vera
veracruz
verb
vercelli
verde
verdi
vere
verlag
vermont
verna
vernon
verona
veronica
versailles
verse
version
versions
verso
versus
vertebrata
vertical
very
vescovi
vescovo
veteran
veterans
veto
vfl
vgma
vh
vi
via
viacom
viambishi
viashiria
viatu
viazi
vibali
vibanda
vibao
vibaya
vibe
vibete
viboko
vibonzo
vic
vicariate
vice
vicente
vichache
vichaka
vichekesho
vichocheo
vichochezi
vichwa
vicky
victim
victims
victor
victoria
victorian
victorianus
victorinus
victory
vida
video
videos
vidogo
vidogovidogo
vidokezo
vidole
vidonda
vidonge
vidua
vidubini
vidudu
vidukari
vidusia
vidusiwa
vie
vieira
vielelezo
vielezi
vienna
vienne
vies
viet
vietnam
vietnamese
view
viewers
views
vifaa
vifaranga
vifaru
vifo
vifuatavyo
vifungo
vifungu
vifupi
vifurushi
vifusi
vigae
vigawo
vigezo
vigumu
vihiga
vii
viii
viini
vijana
vijasumu
vijay
vijidudu
vijiji
vijijini
vijiko
vijisehemu
vijiti
vijito
vijiumbe
vijiwilaya
vikali
vikao
vikapu
vikawa
viking
vikiwa
vikiwemo
viko
vikombe
vikosi
vikta
viktor
viktoria
viktorini
vikubwa
vikundi
vikuu
vikwazo
vila
vilabu
vile
vilele
vilema
vileo
vilevile
viliandikwa
vilianza
vilianzishwa
viliendelea
vilikuwa
vilima
vilindi
vilipatikana
vilisababisha
vilitokea
viliundwa
vilivyo
vilivyoandikwa
vilivyofuata
vilivyokuwa
vilivyomo
vilivyopo
vilivyotengenezwa
vilivyotumika
villa
village
villages
villarreal
villasen
ville
villiers
vilnius
vimekuwa
vimelea
vimeng
vimondo
vina
vinaendelea
vinaitwa
vinamasi
vinanda
vinaonekana
vinaonyesha
vinapatikana
vinara
vinasaba
vinatumiwa
vinaunda
vinavyofanya
vinavyohusiana
vinavyoitwa
vinavyojulikana
vinavyoonekana
vinavyopatikana
vinavyosababisha
vinavyotokana
vinavyotumika
vinavyotumiwa
vinavyounda
vinavyoweza
vinaweza
vince
vincent
vincentius
vincenzo
vinci
vine
vinene
vingi
vingine
vinginevyo
vinne
vinsenti
vintage
vinyago
vinyl
vinyonga
vinywaji
viola
violence
violent
violet
violeta
violin
violwa
viongozi
vionjo
vioo
viota
viowevu
vip
vipaji
vipande
vipandevipande
vipanga
vipanya
vipapasio
vipashio
vipawa
vipele
vipengee
vipengele
vipepeo
viper
vipi
vipimo
vipindi
vipo
vipodozi
vipofu
vipokezi
vipya
vir
viral
viranja
virefu
virgin
virginia
virginis
virginity
virgo
viridis
viris
viroboto
virology
virtual
virtue
virtues
virunga
virus
viruses
virusi
virutubishi
virutubisho
vis
visa
visababishi
visasili
visawe
vishawishi
vishimo
visible
visigothic
visima
vision
visionary
visions
visit
visitor
visitors
visivyo
visivyopatikana
visiwa
visiwani
visser
vista
visu
visual
visukuku
vita
vitabu
vitae
vitafunio
vitakatifu
vital
vitali
vitalis
vitambaa
vitambulisho
vitamin
vitamini
vitamu
vitanda
vitani
vitano
vitatu
vitawi
vitendawili
vitendo
vitengo
vitenzi
viterbo
viti
vitisho
vitivo
vito
vitongoji
vitovu
vittorio
vitu
vitukutuku
vitunguu
vituo
viua
viuadudu
viuawadudu
viumbe
viumbehai
viunga
viunganishi
viungo
viunzi
viva
vivaldi
vivax
vivian
vivo
vivuli
vivumishi
vivutio
vivyo
viwakilishi
viwambo
viwanda
viwandani
viwango
viwanja
viwavi
viwe
viwili
viza
vizazi
vizio
vizito
viziwi
vizuia
vizuio
vizuizi
vizuri
vladimir
vlei
vo
vocabulary
vocal
vocals
vodacom
vodafone
vogel
vogue
voi
voice
voices
vokali
vol
volcano
volcanolive
volga
voliboli
volikano
volkano
volkeno
volkswagen
voll
vols
volta
voltaire
volteji
volti
volume
volumes
vom
von
voor
vor
vorbeck
vos
vote
voters
votes
voting
vox
voyage
voyager
vp
vr
vs
vt
vu
vuga
vuguvugu
vulgar
vulgata
vuli
vulpes
vulture
vumbi
vunjabei
vurugu
vv
vvu
vwawa
vy
vya
vyake
vyakula
vyama
vyandarua
vyanzo
vyao
vyema
vyembamba
vyenye
vyenyewe
vyeo
vyeti
vyombo
vyoo
vyote
vyovyote
vyuma
vyumba
vyungu
vyuo
vyura
vzv
w
wa
waabbasi
waadilifu
waadventista
waafrika
waajemi
waajiri
waajiriwa
waalimu
waamerika
waamini
waaminifu
waamuzi
waandaaji
waandamanaji
waandamizi
waandishi
waangalizi
waanglikana
waanzilishi
waarabu
waario
waarmenia
waashanti
waashuru
waasi
waasia
waasisi
waathirika
waathiriwa
waaugustino
waazteki
wabantu
wabaya
wabelgiji
wabena
wabenedikto
waberber
waberberi
waboksa
wabondei
wabuddha
wabukusu
wabulgaria
wabunge
wabunifu
wace
wachache
wachaga
wachagga
wachambuzi
wachanga
wachangiaji
wachapishaji
wachawi
wacheza
wachezaji
wachimbaji
wachina
wachoraji
wachumba
wachungaji
wachunguzi
wadau
wade
wadhamini
wadhifa
wadi
wadinka
wadogo
wadominiko
wadonato
wadsworth
wadudu
waebrania
waende
waendelee
waendesha
waendeshaji
waeritrea
waethiopia
waetruski
wafadhili
wafalme
wafanya
wafanyabiashara
wafanyakazi
wafanye
wafanyikazi
wafaranki
wafaransa
wafiadini
wafilipi
wafinisia
wafipa
wafransiskani
wafransisko
wafu
wafuasi
wafuatao
wafuate
wafugaji
wafungwa
wafupi
wagalatia
waganda
waganga
wageni
wagermanik
waghana
wagiriki
wagner
wagogo
wagoma
wagombea
wagonjwa
wagtail
wagugunaji
wagweno
waha
wahalifu
wahamaji
wahamiaji
wahandisi
wahanga
waharibifu
wahariri
wahasiriwa
wahaya
wahehe
wahenga
wahindi
wahindu
wahispania
wahitimu
wahl
wahlberg
waholanzi
wahubiri
wahudumu
wahungaria
wahuni
wahunni
wahusika
wahutu
waigbo
waigizaji
wailers
waimbaji
wainaina
waindio
waingereza
wairaqw
wairienyi
waishi
waishio
waislam
waislamu
waisraeli
wait
waitalia
waiting
waitwao
waja
wajaluo
wajane
wajapani
wajasiriamali
wajawazito
waje
wajenzi
wajerumani
wajesuiti
wajibu
wajir
wajita
wajue
wajukuu
wajumbe
waka
wakaamua
wakaanza
wakaanzisha
wakaao
wakaapweke
wakaazi
wakachukua
wakaenda
wakaendelea
wakafanya
wakafaulu
wakaguru
wakaguzi
wakahamia
wakahubiri
wakaingia
wakaishi
wakaja
wakajaribu
wakajenga
wakajiunga
wakala
wakalenjin
wakali
wakalvini
wakamba
wakamilifu
wakaona
wakapata
wakapewa
wakapuchini
wakarimu
wakarmeli
wakarudi
wakashindwa
wakasulubiwa
wakati
wakatoa
wakatoka
wakatoliki
wakauawa
wakaunda
wakawa
wakazi
wakazidi
wake
wakelti
wakenya
wakfu
wakiamini
wakicheza
wakidai
wakielekea
wakienda
wakiendelea
wakifanya
wakifuata
wakifuatwa
wakifurahia
wakiimba
wakiishi
wakijaribu
wakijua
wakikaa
wakikimbia
wakikuyu
wakila
wakili
wakilinganishwa
wakimbiaji
wakimbizi
wakina
wakinamama
wakinga
wakiona
wakiongozwa
wakipata
wakiridhika
wakiruka
wakisema
wakishirikiana
wakisii
wakiso
wakitafuta
wakitaka
wakitoa
wakitokea
wakitumia
wakiwa
wakiwemo
waklara
wakleri
wako
wakoloni
wakoma
wakomunisti
wakongwe
wakonventuali
wakopti
wakorintho
wakosefu
wakosoaji
wakristo
wakubali
wakubwa
wakufunzi
wakulima
wakunga
wakunta
wakurdi
wakuria
wakurugenzi
wakurya
wakusanyaji
wakuu
wal
wala
walakini
walanyama
walao
walau
walawi
wale
walei
walemavu
walengwa
wales
walevi
walezi
wali
waliacha
waliachana
waliahidi
waliainishwa
waliambukizwa
waliamini
waliamua
waliandaa
waliandika
walianza
walianzisha
waliathiriwa
walibadilisha
walibaki
walibora
walibuni
walichagua
walichaguliwa
walichangia
walichapisha
walicheza
walichukua
walichukuliwa
walidai
walidhani
walidhulumiwa
walielekea
walielewa
walieleza
walienda
waliendelea
walienea
walifanikiwa
walifanya
walifariki
walifaulu
walifia
walifika
walifikia
walifuata
walifukuzwa
walifunga
walifungwa
waligawanyika
waligundua
walihama
walihamia
walihesabiwa
walihisi
walihitaji
walihudhuria
walihukumiwa
walihusika
walii
waliimba
waliingia
waliishi
waliita
waliitwa
walijaribu
walijenga
walijifunza
walijiita
walijisikia
walijitahidi
walijitokeza
walijiunga
[...]
