!
"
#
##a
##aa
##ab
##ac
##ad
##ae
##af
##ag
##ah
##ai
##aj
##ak
##al
##am
##an
##ao
##ap
##aq
##ar
##as
##at
##au
##av
##aw
##ax
##ay
##az
##b
##ba
##bb
##bc
##bd
##be
##bf
##bg
##bh
##bi
##bj
##bk
##bl
##bm
##bn
##bo
##bp
##bq
##br
##bs
##bt
##bu
##bv
##bw
##bx
##by
##bz
##c
##ca
##cb
##cc
##cd
##ce
##cf
##cg
##ch
##ci
##cj
##ck
##cl
##cm
##cn
##co
##cp
##cq
##cr
##cs
##ct
##cu
##cv
##cw
##cx
##cy
##cz
##d
##da
##db
##dc
##dd
##de
##df
##dg
##dh
##di
##dj
##dk
##dl
##dm
##dn
##do
##dp
##dq
##dr
##ds
##dt
##du
##dv
##dw
##dx
##dy
##dz
##e
##ea
##eb
##ec
##ed
##ee
##ef
##eg
##eh
##ei
##ej
##ek
##el
##em
##en
##eo
##ep
##eq
##er
##es
##et
##eu
##ev
##ew
##ex
##ey
##ez
##f
##fa
##fb
##fc
##fd
##fe
##ff
##fg
##fh
##fi
##fj
##fk
##fl
##fm
##fn
##fo
##fp
##fq
##fr
##fs
##ft
##fu
##fv
##fw
##fx
##fy
##fz
##g
##ga
##gb
##gc
##gd
##ge
##gf
##gg
##gh
##gi
##gj
##gk
##gl
##gm
##gn
##go
##gp
##gq
##gr
##gs
##gt
##gu
##gv
##gw
##gx
##gy
##gz
##h
##ha
##hb
##hc
##hd
##he
##hf
##hg
##hh
##hi
##hj
##hk
##hl
##hm
##hn
##ho
##hp
##hq
##hr
##hs
##ht
##hu
##hv
##hw
##hx
##hy
##hz
##i
##ia
##ib
##ic
##id
##ie
##if
##ig
##ih
##ii
##ij
##ik
##il
##im
##in
##io
##ip
##iq
##ir
##is
##it
##iu
##iv
##iw
##ix
##iy
##iz
##j
##ja
##jb
##jc
##jd
##je
##jf
##jg
##jh
##ji
##jj
##jk
##jl
##jm
##jn
##jo
##jp
##jq
##jr
##js
##jt
##ju
##jv
##jw
##jx
##jy
##jz
##k
##ka
##kb
##kc
##kd
##ke
##kf
##kg
##kh
##ki
##kj
##kk
##kl
##km
##kn
##ko
##kp
##kq
##kr
##ks
##kt
##ku
##kv
##kw
##kx
##ky
##kz
##l
##la
##lb
##lc
##ld
##le
##lf
##lg
##lh
##li
##lj
##lk
##ll
##lm
##ln
##lo
##lp
##lq
##lr
##ls
##lt
##lu
##lv
##lw
##lx
##ly
##lz
##m
##ma
##mb
##mc
##md
##me
##mf
##mg
##mh
##mi
##mj
##mk
##ml
##mm
##mn
##mo
##mp
##mq
##mr
##ms
##mt
##mu
##mv
##mw
##mx
##my
##mz
##n
##na
##nb
##nc
##nd
##ne
##nf
##ng
##nh
##ni
##nj
##nk
##nl
##nm
##nn
##no
##np
##nq
##nr
##ns
##nt
##nu
##nv
##nw
##nx
##ny
##nz
##o
##oa
##ob
##oc
##od
##oe
##of
##og
##oh
##oi
##oj
##ok
##ol
##om
##on
##oo
##op
##oq
##or
##os
##ot
##ou
##ov
##ow
##ox
##oy
##oz
##p
##pa
##pb
##pc
##pd
##pe
##pf
##pg
##ph
##pi
##pj
##pk
##pl
##pm
##pn
##po
##pp
##pq
##pr
##ps
##pt
##pu
##pv
##pw
##px
##py
##pz
##q
##qa
##qb
##qc
##qd
##qe
##qf
##qg
##qh
##qi
##qj
##qk
##ql
##qm
##qn
##qo
##qp
##qq
##qr
##qs
##qt
##qu
##qv
##qw
##qx
##qy
##qz
##r
##ra
##rb
##rc
##rd
##re
##rf
##rg
##rh
##ri
##rj
##rk
##rl
##rm
##rn
##ro
##rp
##rq
##rr
##rs
##rt
##ru
##rv
##rw
##rx
##ry
##rz
##s
##sa
##sb
##sc
##sd
##se
##sf
##sg
##sh
##si
##sj
##sk
##sl
##sm
##sn
##so
##sp
##sq
##sr
##ss
##st
##su
##sv
##sw
##sx
##sy
##sz
##t
##ta
##tb
##tc
##td
##te
##tf
##tg
##th
##ti
##tj
##tk
##tl
##tm
##tn
##to
##tp
##tq
##tr
##ts
##tt
##tu
##tv
##tw
##tx
##ty
##tz
##u
##ua
##ub
##uc
##ud
##ue
##uf
##ug
##uh
##ui
##uj
##uk
##ul
##um
##un
##uo
##up
##uq
##ur
##us
##ut
##uu
##uv
##uw
##ux
##uy
##uz
##v
##va
##vb
##vc
##vd
##ve
##vf
##vg
##vh
##vi
##vj
##vk
##vl
##vm
##vn
##vo
##vp
##vq
##vr
##vs
##vt
##vu
##vv
##vw
##vx
##vy
##vz
##w
##wa
##wb
##wc
##wd
##we
##wf
##wg
##wh
##wi
##wj
##wk
##wl
##wm
##wn
##wo
##wp
##wq
##wr
##ws
##wt
##wu
##wv
##ww
##wx
##wy
##wz
##x
##xa
##xb
##xc
##xd
##xe
##xf
##xg
##xh
##xi
##xj
##xk
##xl
##xm
##xn
##xo
##xp
##xq
##xr
##xs
##xt
##xu
##xv
##xw
##xx
##xy
##xz
##y
##ya
##yb
##yc
##yd
##ye
##yf
##yg
##yh
##yi
##yj
##yk
##yl
##ym
##yn
##yo
##yp
##yq
##yr
##ys
##yt
##yu
##yv
##yw
##yx
##yy
##yz
##z
##za
##zb
##zc
##zd
##ze
##zf
##zg
##zh
##zi
##zj
##zk
##zl
##zm
##zn
##zo
##zp
##zq
##zr
##zs
##zt
##zu
##zv
##zw
##zx
##zy
##zz
$
%
&
'
(
)
*
+
,
-
.
/
0
00
000
0000
0001
0002
0006
001
002
003
004
005
006
007
008
009
01
010
011
012
013
014
0140
015
016
017
018
019
02
020
021
022
024
025
02571
026
027
028
029
03
030
031
032
033
035
0362
037
038
039
04
040
041
042
044
045
049
05
050
051312
054
055
056
06
060
061
062
063
065
066
067
07
070
072
073
076
077
08
080
081
083
085
086
088
09
091
093
094
095
0a
0b
0c
0d
0e
0f
0g
0h
0i
0j
0k
0l
0m
0n
0o
0p
0q
0r
0s
0t
0u
0v
0w
0x
0y
0z
1
10
100
1000
1001
1002
1003
1005
1006
1007
1008
1009
101
1010
1011
1012
1013
1014
1015
1016
1017
1018
1019
102
1020
1021
1022
1023
1024
1025
1026
1027
1028
1029
103
1030
1031
1032
1033
1034
1035
1036
1037
1038
1039
104
1040
1041
1042
1043
1044
1045
1046
1047
1048
1049
105
1050
1051
1052
1053
1054
1055
1056
1057
1058
1059
106
1060
1061
1062
1063
1064
1065
1066
1067
1068
1069
107
1070
1071
1072
1073
1074
1075
1076
1077
1078
1079
108
1080
1081
1082
1083
1084
1085
1086
1087
1088
1089
109
1090
1091
1092
1093
1094
1095
1096
1097
1098
1099
11
110
1100
1101
1102
1103
1104
1105
1106
1107
1108
1109
111
1110
1111
1112
1113
1114
1115
1116
1117
1118
1119
112
1120
1122
1123
1124
1125
1126
1128
1129
113
1130
1134
1135
1136
1139
114
1140
1142
1143
1144
1145
1146
1147
1149
115
1150
1152
1153
1154
1155
1157
1158
1159
116
1160
1161
1162
1163
1164
1165
1166
1167
1168
117
1170
1172
1174
1175
1176
1177
1179
118
1180
1181
1182
1183
1185
1186
1187
1189
119
1190
1191
1192
1193
1194
1195
1196
1197
1198
1199
12
120
1200
1201
1202
1203
1204
1205
1206
1207
1209
121
1210
1211
1212
1213
1214
1215
1216
1217
1218
1219
122
1220
1221
1223
1224
1225
12259
1226
1227
1228
1229
123
1230
1231
1232
1233
1234
1235
1236
1238
1239
124
1240
1241
1242
1243
1244
1245
1246
1247
1248
1249
125
1250
1252
1253
1254
1255
1256
1257
1258
1259
126
1260
1261
1262
1263
1264
1265
1266
1267
1268
1269
127
1270
1272
1274
1275
1276
1277
1279
128
1280
1282
1283
1284
1285
1287
1288
1289
129
1290
1291
1292
1294
1295
1296
1297
1298
13
130
1300
1301
1303
1304
1305
1308
1309
131
1310
1311
1312
1314
1315
1316
1317
1318
132
1320
1321
1322
1323
1324
1325
1327
1328
1329
133
1330
1331
1332
1334
1336
1337
1339
134
1340
1341
1342
1345
1346
1347
1348
1349
135
1350
1351
1352
1353
136
1360
1361
1362
1365
1368
1369
137
1370
1371
1373
1374
1375
1377
1378
138
1380
1381
1382
1383
1385
1386
1389
139
1390
1391
1392
1393
1394
1397
14
140
1400
1401
1403
1404
1405
1406
1407
1408
1409
141
1410
1412
1414
1415
1416
1417
1418
1419
142
1420
1424
1425
1426
1427
1428
143
1430
1431
1432
1433
1435
1437
1438
1439
144
1440
1441
1442
1443
1444
1445
1446
1447
145
1450
1451
1452
1453
1455
1456
1457
1458
1459
146
1460
1461
1463
1464
1465
14651858
1466
1467
1468
1469
147
1470
1471
1472
1473
1474
1475
1476
1478
1479
148
1480
1481
1482
1483
1484
1485
1486
1487
1488
1489
149
1490
1491
1492
1493
1494
1495
1497
1498
1499
15
150
1500
1501
1502
1503
1504
1505
1506
1507
1508
1509
151
1510
1511
1512
1513
1514
1515
1516
1517
1518
1519
152
1520
1521
1522
1523
1524
1525
1526
1527
1528
1529
153
1530
1531
1532
1533
1534
1535
1536
1537
1538
1539
154
1540
1541
1542
1543
1544
1545
1546
1547
1548
1549
155
1550
1551
1552
1553
1554
1555
1556
1557
1558
1559
156
1560
1561
1562
1563
1564
1565
1566
1567
1568
1569
157
1570
1571
1572
1573
1574
1575
1576
1577
1578
1579
158
1580
1581
1582
1583
1584
1585
1586
1587
1588
1589
159
1590
1591
1592
1593
1594
1595
1596
1597
1598
1599
16
160
1600
1601
1602
1603
1604
1605
1606
1607
1608
1609
161
1610
1611
1612
1613
1614
1615
1616
1617
1618
1619
162
1620
1621
1622
1623
1624
1625
1626
1627
1628
1629
163
1630
1631
1632
1633
1634
1635
1636
1637
1638
1639
164
1640
1641
1642
1643
1644
1645
1646
1647
1648
1649
165
1650
1651
1652
1654
1655
1656
1657
1658
1659
166
1660
1661
1662
1663
1664
1665
1666
1667
1668
1669
167
1670
1671
1672
1673
1674
1675
1676
1678
1679
168
1680
1681
1682
1683
1684
1685
1686
1687
1688
1689
169
1690
1691
1692
1693
1694
1695
1696
1697
1698
17
170
1700
1701
1702
1703
1704
1705
1707
1708
1709
171
1710
1711
1712
1713
1714
1715
1716
1717
1718
1719
172
1720
1721
1722
1723
1724
1725
1726
1727
1728
1729
173
1730
1731
1732
1733
1734
1735
1736
1737
1738
1739
174
1740
1741
1742
1743
1744
1745
1746
1747
1748
1749
175
1750
1751
1752
1753
1754
1755
1756
1757
1758
1759
176
1760
1761
1762
1763
1764
1765
1766
1767
1768
1769
177
1770
1771
1772
1773
1774
1775
1776
1777
1778
1779
178
1780
1781
1782
1783
1784
1785
1786
1787
1788
1789
179
1790
1791
1792
1793
1794
1795
1796
1797
1798
1799
18
180
1800
1801
1802
1803
1804
1805
1806
1807
1808
1809
181
1810
1811
1812
1813
1814
1815
1816
1817
1818
1819
182
1820
1821
1822
1823
1824
1825
1826
1827
1828
1829
183
1830
1831
1832
1833
1834
1835
1836
1837
1838
1839
184
1840
1841
1842
1843
1844
1845
1846
1847
1848
1849
185
1850
1851
1852
1853
1854
1855
1856
1857
1858
1859
186
1860
1861
1862
1863
1864
1865
1866
1867
1868
1869
187
1870
1871
1872
1873
1874
1875
1876
1877
1878
1879
188
1880
1881
1882
1883
1884
1885
1886
1887
1888
1889
189
1890
1891
1892
1893
1894
1895
1896
1897
1898
1899
19
190
1900
1901
1902
1903
1904
1905
1906
1907
1908
1909
191
1910
1911
1912
1913
1914
1915
1916
1917
1918
1919
192
1920
1921
1922
1923
1924
1925
1926
1927
1928
1929
193
1930
1931
1932
1933
1934
1935
1936
1937
1938
1939
194
1940
1941
1942
1943
1944
1945
1946
1947
1948
1949
195
1950
1951
1952
1953
1954
1955
1956
1957
1958
1959
196
1960
1961
1962
1963
1964
1965
1966
1967
1968
1969
197
1970
1971
1972
1973
1974
1975
1976
1977
1978
1979
198
1980
1981
1982
1983
1984
1985
1986
1987
1988
1989
199
1990
1991
1992
1993
1994
1995
1996
1997
1998
1999
1a
1b
1c
1d
1e
1f
1g
1h
1i
1j
1k
1l
1m
1n
1o
1p
1q
1r
1s
1t
1u
1v
1w
1x
1y
1z
2
20
200
2000
2001
2002
2003
2004
2005
2006
2007
2008
2009
201
2010
2011
2012
2013
2014
2015
20150923204417
2016
2017
2018
2019
202
2020
202012
2021
2022
2023
2024
2025
203
2030
20331901
204
2040
205
2050
206
2060
207
2070
208
2080
209
2090
21
210
2100
211
212
213
214
215
216
217
218
219
22
220
221
222
223
224
225
226
227
228
229
23
230
2307
231
232
233
2331
234
235
236
237
238
239
24
240
2400
241
242
243
244
245
246
247
248
249
25
250
2500
251
252
253
254
255
256
257
258
259
26
260
261
262
263
264
265
266
267
268
269
27
270
2700
271
272
273
274
275
276
277
278
279
28
280
281
282
283
284
285
286
287
288
289
29
290
291
292
293
294
295
296
297
298
299
2a
2b
2c
2d
2e
2f
2g
2h
2i
2j
2k
2l
2m
2n
2o
2p
2q
2r
2s
2t
2u
2v
2w
2x
2y
2z
3
30
300
3000
301
302
303
304
305
306
307
308
309
31
310
311
312
313
314
315
316
3166
317
318
319
32
320
321
322
323
324
325
326
327
328
329
33
330
331
332
333
334
335
336
337
338
339
34
340
341
342
343
344
345
346
347
348
349
35
350
3500
351
352
353
354
355
356
357
358
359
36
360
361
362
363
364
365
366
36672705
367
368
369
37
370
371
372
373
374
375
376
377
378
379
38
380
381
382
383
384
385
386
387
388
389
39
390
391
392
393
394
395
396
397
398
399
3a
3b
3c
3d
3e
3f
3g
3h
3i
3j
3k
3l
3m
3n
3o
3p
3q
3r
3s
3t
3u
3v
3w
3x
3y
3z
4
40
400
4000
401
402
403
404
405
4051
406
407
408
409
41
410
411
412
413
414
415
416
417
418
419
42
420
421
422
423
424
425
426
427
428
429
43
430
431
432
433
4331
434
435
436
437
438
439
44
440
441
442
443
444
445
446
447
448
449
45
450
4500
451
452
453
454
455
456
457
458
459
46
460
461
462
463
464
465
466
467
468
469
47
470
471
472
473
474
475
476
477
478
479
48
480
481
482
483
484
485
486
487
488
489
49
490
491
492
493
494
495
496
497
498
499
4a
4b
4c
4d
4e
4f
4g
4h
4i
4j
4k
4l
4m
4n
4o
4p
4q
4r
4s
4t
4u
4v
4w
4x
4y
4z
5
50
500
5000
501
502
503
504
505
506
507
508
509
51
510
511
512
513
514
515
516
517
518
519
52
520
521
522
523
524
525
526
527
528
529
53
530
531
532
533
534
535
536
537
538
539
54
540
541
542
543
544
545
546
547
548
549
55
550
551
552
553
554
555
556
557
558
559
56
560
561
562
563
564
565
566
567
568
569
57
570
571
572
573
574
575
576
577
578
579
58
580
581
582
583
584
585
586
587
588
589
59
590
591
592
593
594
595
596
597
598
599
5a
5b
5c
5d
5e
5f
5g
5h
5i
5j
5k
5l
5m
5n
5o
5p
5q
5r
5s
5t
5u
5v
5w
5x
5y
5z
6
60
600
6000
601
602
603
604
605
606
607
608
609
61
610
611
612
613
614
615
616
617
618
619
62
620
621
622
623
624
625
626
627
628
629
63
630
631
632
633
634
635
636
637
638
639
64
640
641
642
643
644
645
646
647
648
649
65
650
651
652
653
654
655
656
657
658
659
66
660
661
662
663
664
665
666
667
668
669
67
670
671
672
673
6736
674
675
676
677
678
679
68
680
681
682
683
684
685
686
687
688
689
69
690
691
692
693
694
695
696
697
698
699
6a
6b
6c
6d
6e
6f
6g
6h
6i
6j
6k
6l
6m
6n
6o
6p
6q
6r
6s
6t
6u
6v
6w
6x
6y
6z
7
70
700
7000
701
702
703
704
705
706
707
708
709
71
710
711
712
713
714
715
716
7167
717
718
719
72
720
721
7210
722
723
724
725
726
727
728
729
73
730
731
732
733
734
7346
735
736
737
738
739
74
740
741
742
743
744
745
746
747
748
749
75
750
751
752
753
754
755
756
757
758
759
76
760
761
762
763
764
765
766
767
768
769
77
770
771
772
773
774
775
776
777
778
779
78
780
781
7817
782
783
784
785
786
787
788
789
79
790
791
792
793
794
795
796
797
798
799
7a
7b
7c
7d
7e
7f
7g
7h
7i
7j
7k
7l
7m
7n
7o
7p
7q
7r
7s
7t
7u
7v
7w
7x
7y
7z
8
80
800
8000
8006
801
8010
8018
802
8028
803
804
8047
805
806
807
808
809
8091
81
810
8108
811
812
813
814
8146
815
816
817
818
819
82
820
821
822
823
824
825
826
8264
827
828
829
83
830
831
832
833
834
835
836
837
838
839
84
840
841
842
843
844
845
846
847
848
849
85
850
851
852
853
854
855
856
857
858
859
86
860
86012
861
862
863
864
865
866
867
868
869
86914
87
870
871
872
873
874
875
876
877
87779
878
879
88
880
881
882
8820972107
883
884
885
886
887
888
889
89
890
891
892
893
894
895
896
897
898
899
8a
8b
8c
8d
8e
8f
8g
8h
8i
8j
8k
8l
8m
8n
8o
8p
8q
8r
8s
8t
8u
8v
8w
8x
8y
8z
9
90
900
9000
901
902
903
904
905
906
907
9070
908
909
91
910
911
912
913
914
915
916
917
918
919
92
920
921
922
923
924
925
926
927
928
929
93
930
931
932
933
934
935
936
937
938
939
94
940
941
942
943
944
945
946
947
948
949
95
950
951
952
953
954
955
956
957
958
959
96
960
961
962
963
964
965
966
967
968
969
97
970
971
972
973
974
975
976
977
978
979
98
980
981
982
983
984
985
986
987
988
989
99
990
991
992
993
994
995
996
9966
997
9976
998
9987
999
9a
9b
9c
9d
9e
9f
9g
9h
9i
9j
9k
9l
9m
9n
9o
9p
9q
9r
9s
9t
9u
9v
9w
9x
9y
9z
:
;
<
=
>
?
@
[
[CLS]
[MASK]
[PAD]
[SEP]
[UNK]
\
]
^
_
`
a
a0
a1
a2
a3
a4
a5
a6
a7
a8
a9
aa
aache
aaliyah
aanze
aaron
aas
ab
aba
ababa
abasia
abati
abay
abba
abbas
abbe
abbey
abbot
abbott
abby
abc
abd
abdalla
abdallah
abdel
abdelaziz
abdi
abdul
abdulaziz
abdulla
abdullah
abdulwahid
abe
abeid
abel
abengourou
aberdare
abesi
abi
abia
abidjan
abingdon
abiria
abitazioni
abitina
abitinae
able
abo
aboisso
aboriginal
about
above
abraham
abrahamu
abrams
abs
abstract
abu
abubakar
abuja
abuse
abushiri
abyssinian
ac
acacia
acad
academia
academic
academie
academy
access
accessdate
accessed
accident
accipiter
according
account
accounts
accra
accreditations
ace
acevedo
acha
achebe
achievement
acid
acoustic
acquired
acrocephalus
across
act
acta
acth
acting
action
active
activism
activist
activists
activities
activity
actor
actors
actress
acts
actual
acute
ad
ada
adabu
adam
adama
adamawa
adams
adamu
adan
adana
adc
add
added
adder
addiction
addis
addison
additional
addo
address
adelaide
adele
aden
adhabu
adhd
adhimisho
adhuhuri
adi
adili
adimu
adisq
adjumani
admin
administration
administrative
adn
adolescent
adolescents
adolf
adowa
adria
adrian
adriano
adua
adui
adult
adults
advanced
advances
advent
adventure
adventures
adversus
advice
advisory
advocate
ae
aegean
aende
aendelee
aero
aerodramus
aesthetics
aevi
af
afadhali
afanasieff
afanye
afar
afc
affair
affairs
afghanistan
afisa
afp
afr
africa
africaine
african
africana
africans
africanus
afrika
afrikaans
afrima
afrique
afro
afrotyphlops
after
aftermath
afya
afyonkarahisar
afyuni
ag
aga
agago
again
against
agama
agano
agape
agapornis
agata
agatha
agboville
age
aged
agence
agencies
agency
agenda
agent
agents
ages
aggrey
aghalabu
aging
agizo
agneby
agnes
ago
agosti
agostino
agreement
agricultural
agriculture
ah
ahadi
ahead
ahly
ahmad
ahmadiyya
ahmadu
ahmed
ahmedabad
ahram
ai
aibu
aid
aida
aidan
aidha
aids
aiesec
aiken
aim
aime
ain
aina
air
airbus
aires
airline
airlines
airplay
airport
airways
aisha
aishi
aishwarya
ait
aitwae
aitwaye
aj
ajabu
ajali
ajax
aje
ajenda
ajenti
ajentina
ajili
ajira
ajiunge
ak
aka
akaacha
akaamua
akaandika
akaanza
akaanzisha
akabaki
akachaguliwa
akachukua
akademia
akaenda
akaendelea
akafa
akafanya
akafariki
akafaulu
akafika
akafuatwa
akafunga
akahamia
akaingia
akaishi
akaitwa
akaja
akajibu
akajiunga
akajiuzulu
akakaa
akakubali
akamaliza
akamjibu
akampa
akamtangaza
akamwambia
akaomba
akaona
akaondoka
akaongoza
akapata
akapewa
akapokea
akarudi
akasema
akashika
akashinda
akashindwa
akashiriki
akasoma
akatangazwa
akatoa
akatumwa
akauawa
akaunda
akaunti
akawa
akawaambia
akawapa
akaweka
akaweza
akazaa
akazidi
akazikwa
akbar
akhenaten
akiagiza
akiandika
akianza
akiba
akicheza
akichezea
akichukua
akida
akidai
akielekea
akielezea
akiendelea
akifanya
akifuata
akifundisha
akifunga
akihudumu
akiichezea
akiigiza
akiimba
akiingia
akiishi
akiitwa
akijaribu
akijulikana
akili
akilini
akimaliza
akimshirikisha
akin
akina
akiolojia
akiona
akionekana
akiongoza
akipata
akipiga
akipokea
akira
akisaidiwa
akisema
akishika
akishinda
akishiriki
akishirikiana
akishirikishwa
akisisitiza
akisoma
akisomea
akitafuta
akitaka
akitangaza
akitawala
akitoa
akitokea
akitumia
akiwa
akiwakilisha
akiwemo
akizungumza
ako
akon
aksum
aktiki
akubali
akwino
al
ala
alabama
alain
alama
alan
alasiri
alaska
alba
albamu
alban
albania
albanian
albany
albatrosi
albert
alberta
alberto
albino
albion
albizia
albrecht
album
albums
alcohol
alcoholism
ale
aleksanda
aleksander
aleksandria
alele
aleli
aleppo
alessandro
alex
alexa
alexander
alexandra
alexandre
alexandria
alexis
alfa
alfabeti
alfajiri
alfonso
alfred
alfredo
algebra
alger
algeria
algerian
algerie
algiers
alhamisi
ali
aliacha
aliachana
aliachia
aliachiliwa
aliaga
aliagiza
aliahidi
aliajiriwa
alialikwa
aliambiwa
aliamini
aliamua
aliamuru
aliandaa
aliandika
alianza
alianzisha
aliapishwa
alibadili
alibadilisha
alibainisha
alibaki
alibatizwa
aliboresha
alibuni
alice
alichagua
alichaguliwa
alichangia
alichapisha
alicheza
alichezea
alichora
alichukua
alichukuliwa
alichunguza
alicia
alidai
alidumu
alielekea
alielekeza
alieleza
alielezea
alien
alienda
aliendelea
aliendeleza
aliendesha
alifafanua
alifahamika
alifanikiwa
alifanya
alifanywa
alifariki
alifaulu
alifia
alifika
alifikia
alifuata
alifuatwa
alifukuzwa
alifundisha
alifundishwa
alifunga
alifungua
alifungwa
alifuta
alifuzu
align
aligombea
aligundua
aligunduliwa
alihama
alihamia
alihamishiwa
alihamishwa
aliheshimiwa
alihimiza
alihitaji
alihitimisha
alihitimu
alihudhuria
alihudumia
alihudumu
alihukumiwa
alihusika
aliibuka
aliichezea
aliigiza
aliimarisha
aliimba
aliingia
aliingizwa
aliisaidia
aliishi
aliita
aliitwa
aliiwakilisha
alijaliwa
alijaribu
alijenga
alijeruhiwa
alijiandikisha
alijibu
alijifunza
alijihusisha
alijiita
alijipatia
alijishughulisha
alijitahidi
alijitangaza
alijitoa
alijitokeza
alijitolea
alijitosa
alijiua
alijiunga
alijiuzulu
alijua
alijulikana
alikaa
alikamatwa
alikamilisha
alikata
alikataa
alikatwa
alikimbia
alikimbilia
alikiri
alikopwa
alikosa
alikua
alikubali
alikubaliwa
alikufa
alikuja
alikulia
alikusanya
alikuta
alikutana
alikuwa
alikuwepo
alikwenda
alilazimika
alilazimishwa
alilelewa
alilenga
alileta
alimaliza
alimfanya
alimfuata
alimfundisha
alimpa
alimsaidia
alimshauri
alimshinda
alimsifu
alimtaja
alimtangaza
alimteua
alimtuma
alimuoa
alimuomba
alimwambia
alimwita
alimwoa
alimzaa
alinunua
alinusurika
alinyongwa
alioa
aliogopa
aliokuwa
aliolewa
aliomba
aliombwa
aliona
aliondoka
aliondolewa
alionekana
aliongeza
aliongokea
aliongoza
alionyesha
alionyeshwa
aliorodheshwa
alipambana
alipanda
alipandishwa
alipanga
alipaswa
alipata
alipatikana
alipatwa
alipelekwa
alipenda
alipendekeza
alipendelea
alipewa
alipiga
alipigana
alipigania
alipigwa
alipinduliwa
alipinga
alipita
alipitia
alipo
alipoamua
alipoanza
alipoanzisha
alipochaguliwa
alipofanya
alipofariki
alipofika
alipofikia
alipohitimu
alipoingia
alipoishi
alipojiunga
alipojiuzulu
alipokaa
alipokea
alipokua
alipokufa
alipokuja
alipokutana
alipokuwa
alipokwenda
alipomaliza
alipoona
alipoondoka
alipopata
alipopewa
aliporudi
aliposikia
aliposoma
alipostaafu
alipotangazwa
alipotembelea
alipoteza
alipouawa
alipoulizwa
alipozaliwa
alirejea
alirekodi
aliripoti
alirudi
alirudia
alirudishwa
aliruhusiwa
alisafiri
alisaidia
alisaini
alisainiwa
alisajiliwa
alisema
alishawahi
alishika
alishikilia
alishinda
alishindana
alishindwa
alishiriki
alishirikiana
alishirikishwa
alishtakiwa
alishughulikia
alisifiwa
alisikia
alisikiliza
alisimama
alisimamia
alisimulia
alisisitiza
alisoma
alisomea
alison
alistaafu
alitabiri
alitafuta
alitaja
alitajwa
alitaka
alitakiwa
alitamani
alitambua
alitambuliwa
alitangaza
alitangazwa
alitawala
alitawazwa
alitayarisha
alitekwa
alitembelea
alitengeneza
aliteswa
alitetea
aliteuliwa
alithibitisha
alitia
alitiwa
alitoa
alitoka
alitokea
alitolewa
alitoroka
alituma
alitumbuiza
alitumia
alitumikia
alitumwa
alitunga
alitunukiwa
alituzwa
alitwaa
aliuawa
aliugua
aliuliza
aliunda
aliunga
aliungana
aliunganisha
aliuza
aliuzwa
alivaa
alivamia
alive
alivunja
alivutiwa
alivyo
alivyofanya
alivyokuwa
alivyosema
aliwaambia
aliwaandikia
aliwahi
aliwakaribishwa
aliwakilisha
aliwapa
aliwasili
aliwasilisha
aliwaunganisha
aliweka
aliwekwa
aliweza
aliye
aliyeambukizwa
aliyeandika
aliyeanzisha
aliyebobea
aliyechaguliwa
aliyecheza
aliyeendelea
aliyefanikiwa
aliyefanya
aliyefariki
aliyefia
aliyefika
aliyehamia
aliyeishi
aliyeitwa
aliyejulikana
aliyekufa
aliyekuwa
aliyemfuata
aliyeongoza
aliyepata
aliyepewa
aliyeshika
aliyeshinda
aliyetaka
aliyetawala
aliyeteuliwa
aliyetumia
aliyeuawa
aliyewahi
aliyeweza
aliyezaliwa
aliyoianzisha
aliyoipata
aliyokuwa
aliyopewa
alizaa
alizaliwa
alizeti
alizidi
alizikwa
alizindua
alizocheza
alizungumza
aljeria
all
alla
allafrica
allah
allan
alle
allen
allergy
alliance
allied
allison
allmovie
allmusic
ally
alma
almaarufu
almagest
almagesti
almanacco
almasi
almeida
almost
aloe
aloi
alois
alone
along
alonso
aloysius
alpes
alpha
alphabet
alphabetical
alphonse
alpi
alpine
already
als
also
alt
alta
altare
alter
alternative
although
althusser
altman
alto
alumini
alumni
alvares
alvarez
alvin
always
alzeima
alzheimer
am
ama
amadeus
aman
amana
amanda
amani
amapiano
amar
amarna
amato
amazing
amazon
amazonas
amba
ambacho
ambae
ambako
ambalo
ambamo
ambao
ambapo
ambassador
ambavyo
ambaye
ambayo
ambazo
ambedkar
amber
ambo
ambrose
ambrosi
ambuya
ame
ameandika
ameanza
ameanzisha
amechaguliwa
amechangia
amechapisha
amecheza
amechukua
amechunguza
ameendelea
amefanikiwa
amefanya
amefariki
amefungwa
amehudumu
ameichezea
ameigiza
ameir
ameishi
amejiunga
amejulikana
amekamata
ameketi
amekua
amekufa
amekuwa
amelala
amelia
amen
ameoa
ameolewa
ameonekana
ameongoza
amepata
amepewa
amepokea
america
american
americana
americancatholic
americans
americas
amerigo
amerika
ames
amesema
ameshika
ameshikilia
ameshinda
ameshiriki
ameshirikiana
amesoma
ametajwa
ametambuliwa
ametangaza
ameteuliwa
ametoa
ametokea
ametumia
ametunga
amevaa
amewahi
amewakilisha
ameweza
amezaliwa
amfetamine
amfetamini
amfibia
amhara
ami
amiens
amietophrynus
amiloidi
amin
amina
amini
amino
amir
amiri
amistad
amman
ammophila
amnesty
among
amoni
amonia
amor
amos
amosi
amour
amp
ampelius
amphetamine
amprofon
amr
amri
amsterdam
amu
amua
amun
amur
amuria
amuru
amuzi
amy
an
ana
anaamini
anaamua
anaandika
anaanza
anacheza
anachezea
anachukua
anachukuliwa
anadai
anaelekea
anaeleza
anaelezea
anaenda
anaendelea
anaendesha
anafahamika
anafanya
anafika
anafundisha
anagundua
anahesabiwa
anaheshimiwa
anahitaji
anahudumu
anahusika
anahusishwa
anaichezea
anaimba
anaingia
anaishi
anaitwa
anajaribu
anajua
anajulikana
anakaa
anakataa
anakubali
anakuja
anakumbukwa
anakutana
anakuwa
analecta
analysis
analytical
anam
anambra
anamiliki
anampenda
anamwambia
anania
anaona
anaondoka
anaonekana
anaongea
anaongoza
anaonyesha
anapaswa
anapata
anapenda
anapewa
anaphylaxis
anapiga
anapokea
anapokuwa
anarudi
anas
anasa
anasema
anasemekana
anashikilia
anashiriki
anasifiwa
anasimulia
anasoma
anastahili
anastasi
anastasia
anastasio
anastasius
anatafuta
anataja
anatajwa
anataka
anatakiwa
anatambulika
anatembea
anatoa
anatoka
anatokea
anatolia
anatomia
anatomy
anatumia
anauawa
anawakilisha
anaweza
anayecheza
anayechezea
anayefanya
anayeheshimiwa
anayeishi
anayeitwa
anayejulikana
anayeongoza
anayependa
anayetajwa
anayetaka
anayetumia
anayewakilisha
anayeweza
anazidi
anazungumza
anc
anchieta
anchor
ancienne
ancient
ancona
and
andalusia
andaman
andean
anders
andersen
anderson
andes
andiko
andishi
ando
andorra
andrade
andre
andrea
andreas
andrei
andres
andrew
andrews
android
androjeni
andromeda
andy
anemia
ang
anga
angahewa
angakaskazi
angakusi
angalau
angalia
angani
angavu
angekuwa
angel
angela
angeles
angelina
angelo
angels
anger
angeweza
anglican
anglikana
anglo
angola
angolan
angolensis
anguko
ani
ania
animal
animals
animated
animation
anime
aniston
anita
anjela
anjouan
ankara
ankole
ann
anna
annales
annals
annan
anne
annee
annie
anniversary
anno
annotated
announce
announced
announces
annual
annuario
annurev
ano
anonymous
another
ans
ansd
anselm
anser
answer
answers
ant
antaktika
antaktiki
antalya
antananarivo
antarctic
ante
antelope
antena
anthem
anthology
anthony
anthropological
anthropology
anthropolojia
anthus
anti
antibiotiki
antidepressant
antidepressants
antigua
antijeni
antili
antinoe
antioch
antiokia
antique
antiquities
antiquity
antiretroviral
antoine
anton
antoni
antonia
antonino
antonio
antony
anullinus
anuwai
anwani
anwar
any
anya
anything
anywa
ao
aondoke
aout
ap
apa
apalis
apart
apartheid
apate
apenini
apewe
aplonis
apocalypse
apollo
apolo
apostle
apostles
apostolic
app
appeal
appeared
appears
appendix
appiah
appietus
apple
appleton
application
applications
applied
appointed
appoints
approach
approaches
apps
apr
apres
april
aprili
aps
apus
aq
aquila
aquileia
aquinas
aquitaine
ar
ara
arab
arabe
arabia
arabian
arabic
arabs
arabu
aragon
arap
arbor
arc
arch
archaeological
archaeology
archbishop
archdiocese
archer
archibald
archimedes
architectural
architecture
archive
archived
archives
archuleta
arctic
ardea
ardhi
ardhini
are
area
areas
arena
aretha
argentina
argo
argument
argus
ari
aria
ario
aristoteli
aristotle
arithropodi
arizona
ark
arkansas
arles
arlington
armed
armenia
armenian
arms
armstrong
army
arno
arnold
aro
arobaini
aron
around
arranger
arrested
arrow
ars
arsenal
arsene
art
arte
arthroleptis
arthur
article
articles
artist
artiste
artistes
artists
arts
artvin
arua
aruba
arubaini
arudi
arun
arusha
arusi
as
asa
asadi
asali
asante
asasi
ascension
asd
ash
asha
ashanti
ashe
ashgate
ashiki
ashley
ashuru
ashy
asia
asian
asiatic
asiatiki
asidi
asie
asije
asili
asilia
asilimia
asimov
asin
asiweze
asiye
asiyejulikana
asizi
ask
askari
asked
askofu
asm
asmara
asp
aspects
aspx
ass
assembly
assessment
assisi
assistance
assistant
associated
association
assyria
assyrian
asteroidi
asthma
aston
astronomia
astronomical
astronomy
astrophysics
asubuhi
aswan
at
ata
atakuwa
atanasi
ataturk
atbarah
aten
ateri
athanasius
athari
athena
athene
athens
athi
athira
athlete
athletes
athletic
athletics
athroskopia
athumani
ati
atiria
atkins
atkinson
atlanta
atlantic
atlantiki
atlantis
atlas
atlasi
atletico
atoe
atolli
atomi
atomia
atomic
atomu
atp
atta
attack
attempt
attention
atti
attila
attwater
au
auckland
auctoritate
audi
audience
audio
audrey
auf
aug
augsburg
august
augusta
auguste
augustine
augustini
augustino
augusto
augustus
auplopus
aura
aureli
aurelius
aurora
aus
auschwitz
austen
austin
australia
australian
australis
austria
austrian
author
authorities
authority
authors
autism
auto
autobiography
automatically
automatisering
autonoma
autumn
autun
auvergne
aux
auxerre
av
available
avant
ave
avec
avengers
aventure
avenue
average
avery
aviation
avignon
avila
aviv
avon
avril
aw
awach
awali
awamu
award
awarded
awards
awareness
away
awe
aweze
awori
ax
axel
axis
axum
ay
aya
aydın
ayman
ayo
ayoni
ayubu
az
azam
azania
azerbaijan
azhar
azikiwe
azimio
aziz
azma
azori
azteki
azur
b
b0
b1
b2
b3
b4
b5
b6
b7
b8
b9
ba
baa
baada
baadae
baadaye
baadhi
bab
baba
babake
babar
babati
babbler
babeli
babu
babuloni
baby
babyface
babylon
babylonian
bach
bachchan
bachelor
back
backed
background
backstreet
bacon
bacteria
bacterial
bad
badala
baden
badiliko
bado
baez
bafana
baffin
bafing
bafu
bag
bagamoyo
baghdad
bagirmi
bagoue
bah
baha
bahamas
bahari
baharia
baharini
bahasha
bahati
bahi
bahia
bahn
bahr
bahrain
bahri
baht
bai
bailey
baina
bainifu
baisikeli
baiskeli
baja
bajeti
bak
baka
bakari
baker
bakhita
bakr
bakteria
bakuli
bala
balaa
balbu
baldwin
bale
bali
balkani
ball
ballad
ballet
ballon
balotelli
balozi
baltic
baltiki
baltimore
balıkesir
bamako
bamba
bamboo
ban
bana
banana
banca
banco
band
banda
bandari
bandarini
banded
bandia
bang
bangalore
bangi
bangili
bangkok
bangladesh
bango
bangolo
bani
banj
bank
banka
banking
banks
banque
bantu
bantustan
bao
bapa
baptism
baptist
baptiste
bar
bara
barabara
barabarani
barack
barafu
barafuto
baraka
barakoa
barani
baraza
barbados
barbara
barbarian
barber
barbet
barbra
barcelona
barclays
bare
barghash
bari
bariadi
baridi
baringo
barlow
barn
barnaba
barnard
barnes
barnett
barolong
baron
barraba
barre
barred
barrett
barrier
barrow
barry
bart
barth
bartlett
bartolome
barton
barua
baruch
barukudk
baruti
bas
base
baseball
based
basel
bashir
basi
basic
basil
basili
basilica
basilika
basimba
basin
basis
basketball
basque
bass
bassam
bastola
bat
bata
bates
bathynomus
bati
batis
batista
batman
battista
battle
battles
battuta
bauer
baumann
bavaria
bawa
bawaba
baxter
bay
baya
bayana
bayer
bayern
bayt
bb
bbc
bc
bce
bd
be
bea
beach
beaked
beaming
bean
bear
bearded
beast
beat
beati
beatification
beatles
beatrice
beats
beaufort
beautiful
beauty
beauveria
bebe
became
because
beck
becker
beckham
becky
become
becomes
becoming
bed
beda
bede
bedford
bee
beeman
been
beer
bees
beethoven
before
bega
begin
beginning
beginnings
begins
behavior
behavioral
behaviour
behind
bei
beijing
being
beirut
beki
bel
belarus
belfast
belgian
belgium
belgrade
belief
beliefs
belier
believe
belinda
belize
bell
bella
bellanaija
belle
bellied
bello
belmont
beloved
below
belt
ben
benchi
bendera
bendi
benedict
benedictine
benedikto
benefits
benetti
benfica
bengal
bengali
benguela
beni
benignus
benin
benito
benjamin
benki
bennet
bennett
benny
benson
benton
benue
benz
benzodiazepini
beowulf
berber
bere
berectina
berg
bergamo
bergen
berger
bergman
beri
bering
berkeley
berlin
bermuda
bern
bernadette
bernard
bernardino
bernardo
bernd
bernhard
bernie
berry
bertha
bertram
bertrand
besancon
beseni
besi
bessie
best
bet
beta
beteri
beth
bethlehemu
beti
betri
better
betty
between
beukes
beverly
beyonce
beyond
bf
bg
bh
bhrt
bhutan
bi
bia
biafra
bianchi
biashara
bibi
bibiarusi
bible
biblia
biblical
bibliography
biblioteca
bibliotheca
bibliotheque
bichi
bid
biden
bidhaa
bidii
bieber
bien
biennale
big
biggest
biharamulo
bikira
biko
bila
bilioni
bill
billboard
billed
billie
billings
billion
billy
bima
bin
binadamu
binafsi
binamu
bing
bingen
bingwa
bint
binti
bio
biodiversity
biografia
biographical
biographie
biographies
biography
bioidentical
biokemia
biol
biological
biology
biolojia
biomasi
biomedical
bipolar
bir
bird
birds
birisi
birmingham
birth
birthday
bis
bisau
biscuits
bishop
bishops
biskuti
bismarck
bissau
bit
biti
bitinia
bitis
bittern
biz
bizanti
bj
bk
bl
black
blackburn
blackwell
blair
blaise
blake
blanc
blanchett
blandina
bleach
bleckmann
blessed
blessing
bleu
blige
blind
blixen
block
bloemfontein
blog
blogspot
blogu
blood
bloom
bloomberg
bloomington
bloomsbury
blow
blue
blues
bluu
bm
bmg
bmi
bmj
bn
bnf
bo
boa
board
boas
boat
bob
bobby
boca
boda
bodi
bodies
body
boeing
boethius
bogota
bohemia
bois
boko
bolivar
bolivia
boll
bollywood
bologna
bolt
bolton
boma
bomb
bomba
bombay
bombomu
bomet
bomu
bon
bonaire
bonaparte
bonaventura
bonaventure
bond
bonde
bondeni
bondia
bondo
bondoukou
bone
bones
bongo
bongocinema
bonhoeffer
boni
boniface
bonifasi
bonn
bonnie
bonny
bono
bonus
book
booker
booklet
books
boolean
boom
booth
bop
bor
bora
bordeaux
border
borders
borealis
boris
born
borneo
borno
borromeo
borussia
bosco
bosnia
boss
bossa
boston
botania
botanical
both
botha
boti
botswana
bou
bouake
boulaye
boulder
boumerdes
bouna
boundaries
boundary
bounkani
bourges
boushaki
bovidae
bow
bowl
box
boy
boyd
boydell
boyer
boyle
boys
boyz
bp
bpi
bq
br
brabant
brachystegia
brackish
brad
bradford
bradha
bradley
bradt
brady
braga
bragg
brahim
brain
branch
brand
brandenburg
brandi
brandon
brandt
brandy
branham
brasil
braun
bravo
braxton
brazil
brazili
brazilian
brazza
brazzaville
bread
break
breaking
breaks
breast
breasted
breathe
breki
bremen
brenda
brendan
brenner
brepols
brescia
bretagne
breton
brett
breviarium
breviary
brewer
breweries
brewing
brewster
brexit
brian
bride
bridge
bridges
brief
brien
briggs
bright
brighton
brigitte
brill
bring
brisbane
bristol
brit
britain
britania
britannica
briteni
british
britney
britt
brittany
britten
broad
broadcast
broadcasting
broadway
brock
broken
bronx
bronze
bronzi
brook
brooke
brooklyn
brooks
bros
brosnan
brother
brothers
brought
browed
brown
browns
bruce
brunei
bruno
brunswick
brush
brussels
bryan
bryant
bs
bsc
bt
bu
buabua
bubanza
bubo
bubu
buchanan
buck
bud
budapest
buddha
buddhism
buddhist
buddy
budi
bududa
buenos
buff
buffalo
buffy
buganda
bugiri
buhari
buhigwe
buhweju
bui
buibui
buikwe
build
building
buildings
built
bujumbura
bukavu
bukedea
bukhari
bukini
bukoba
bukombe
buku
bulawayo
bulbul
bulgaria
bulgarian
buliisa
bull
bullard
bullet
bulletin
bullock
bulls
buluu
bumbuli
bunda
bundesliga
bundestag
bundi
bundibugyo
bundo
bunduki
bunge
bungeni
bungo
bungoma
bunilizi
bunny
bunson
bunting
bunyoro
bunzi
burden
burdur
bure
bureau
burger
burgess
burgundy
burj
burke
burkina
burlington
burma
burn
burning
burnley
burns
burrows
bursa
burton
burudani
burundi
bururi
bury
bus
busara
busby
busega
bush
bushenyi
busia
business
bustani
but
butaleja
buteo
buti
butiama
butler
butterfly
butu
buvuma
buy
buzz
buzzard
bv
bw
bwana
bwawa
bweha
bweni
bx
by
byanyima
byrne
byron
byzacena
byzantine
byzantium
bz
c
c0
c1
c2
c3
c4
c5
c6
c7
c8
c9
ca
cabinet
cable
cabo
cabral
caecilia
caecilian
caecilianus
caesar
caesarea
caesariensis
caesarius
caf
cafe
cagliari
cairo
cal
calabar
calabria
calcutta
calendar
calgary
cali
calif
california
call
called
calling
calls
calvin
cam
camara
cambodia
cambridge
came
camel
camera
cameron
cameroon
camille
camp
campaign
campania
campbell
campo
camponotus
camps
campus
can
canada
canadian
canakkale
canal
canary
cancer
cancik
candidate
candy
cangjie
canis
cankuzo
cannabis
cannes
cannon
cannot
canon
canonization
canons
canter
canterbury
canton
cao
cap
cape
capensis
capital
capitalism
capitol
capo
capone
capped
cappella
caprimulgus
caprivi
captain
capua
car
carbon
card
cardiff
cardinal
cardinalfish
cardinals
cardiovascular
cards
care
career
carey
cargo
caribbean
carina
carl
carling
carlo
carlos
carlsson
carlton
carmelite
carmen
carnegie
carol
carole
carolina
caroline
carolyn
carpenter
carpet
carr
carrie
carrillo
carroll
carrying
carson
cartagena
carter
carthage
cartoon
carvalho
casa
casablanca
casas
case
cases
cash
casper
cassianus
cassidy
cassini
cast
castle
castor
castro
casts
cat
catalog
catalogue
catalonia
catania
catch
cate
catechism
category
caterina
catfish
cathedral
cathen
catherine
catholic
catholicism
catholics
catholicsaints
cause
causes
cavally
cave
cavendish
caxton
cb
cbc
cbd
cbn
cbold
cbs
cc
ccel
ccm
cd
cdc
cdo
cdu
ce
ceb
cebuano
cecafa
cecil
cecilia
cef
celebrate
celebrated
celebrates
celebrating
celebration
celebrities
celebrity
celeste
celestino
celine
cell
cells
celtic
cena
cengage
censimenti
census
cent
centauri
center
centers
central
centrale
centre
centro
centropus
centuries
century
ceo
ceremony
ceres
cerf
cerro
certain
certificate
certification
certifications
certified
cervantes
cesar
ceuta
ceylon
cf
cfm
cfr
cg
cgi
ch
cha
chaabi
chacha
chache
chachu
chad
chadema
chadi
chadwick
chafu
chafya
chaguo
chaguzi
chai
chain
chairman
chaji
chaka
chake
chako
chakula
chale
chalinze
challenge
challenges
chama
chamber
chamberlain
chambers
champagne
champion
champions
championship
championships
chamwino
chan
chance
chancellor
chandra
chaneli
chang
changa
changamano
changamoto
changarawe
change
changed
changes
changing
chanjo
channel
chansela
chansella
chant
chantal
chante
chanya
chanzo
chao
chaos
chapa
chapati
chapel
chapisho
chaplin
chapman
chapter
chapters
character
characteristics
characters
charadrius
charge
charges
charity
charles
charleston
charlie
charlotte
charlton
chart
charter
chartered
charts
chase
chasez
chat
chata
chati
chato
chatu
chawa
che
cheche
chechele
check
cheeked
cheikh
chekechea
chekoslovakia
chekundu
chelsea
chem
chemba
chembe
chembechembe
chembeuzi
chemchemi
chemical
chemistry
chen
chenene
chennai
chenye
chenyewe
cheo
cherang
cherero
cherry
chess
chest
chested
chester
chestnut
cheti
chetu
cheupe
cheusi
chez
chi
chiarini
chiba
chibu
chicago
chichester
chicken
chief
chiefs
chiesa
chifu
child
childhood
children
chile
chimbuko
chimurenga
chin
china
chinese
chini
chinua
chipmunks
chipsi
chipukizi
chiriku
chisholm
cho
chochea
chochote
chocolate
choice
choir
chokaa
chokoleti
chole
chombo
chong
chonge
choo
chopin
chopra
choral
chororo
chotara
chote
chozi
chretienne
chris
christ
christendom
christi
christiaan
christian
christiana
christianity
christianorum
christians
christie
christina
christine
christmas
christology
christoph
christophe
christopher
chronic
chronicle
chronicles
chronology
chrysostom
chu
chuchu
chuchunge
chuck
chui
chuki
chukua
chuma
chumba
chumbani
chumvi
chung
chungu
chungwa
chunusi
chunya
chuo
chuoni
chupa
chura
church
churches
churchill
ci
cia
cibitoke
cid
cincinnati
cinema
cinnamon
cinnyris
circle
circuit
circulation
circumcision
circus
cisticola
citation
cite
citeaux
cited
citibank
cities
citizen
citizens
citizenship
citrus
citta
city
citypopulation
ciudad
civic
civil
civilization
civilizations
cj
ck
cl
claim
claims
claire
clairvaux
clan
clara
clare
claremont
clarendon
clark
clarke
class
classic
classical
classics
classification
claude
claudia
claudio
claudius
claus
clautus
claver
clawed
clay
clayton
clean
clear
cleef
clegg
clement
cleopatra
clergy
clermont
cleveland
click
cliff
clifford
climate
climbing
clin
clinic
clinical
clinics
clint
clinton
clio
clip
clipe
clitherow
clive
clock
close
closed
closer
closet
closing
cloth
clothes
cloud
clouds
club
clubs
cluny
clyde
cm
cmaj
cmn
cmr
cms
cn
cnbc
cndd
cnewa
cnn
co
coach
coal
coalition
coast
coastal
cobb
cobra
coca
cochrane
cocos
code
codes
codex
coetzee
coffee
cognitive
cogo
cohen
coke
col
cola
cold
cole
coleman
coli
colin
coll
collaboration
collaborative
collared
collected
collection
collections
collective
college
colleges
collegeville
collins
colloquial
colobus
cologne
colombia
colombo
colon
colonel
colonial
colonialism
colonnade
colony
color
colorado
colour
coloured
columba
columbia
columbus
com
combat
combined
combs
come
comedian
comedy
comes
comesa
comfort
comic
comics
coming
command
commentaries
commentary
comments
commerce
commercial
commission
commissioner
committee
common
commons
commonwealth
communication
communications
communion
communist
communities
community
como
comoe
comoro
companies
companion
companions
company
comparative
compare
comparison
compass
compendium
competition
compilation
compiled
complete
completed
complex
composer
composers
composition
compostela
comprehensive
comptia
compton
computer
computing
comte
con
concept
conception
concepts
concerning
concert
concerto
concilii
concise
concord
concordia
conde
conditions
confederation
confederations
conference
confessions
confessor
confirmed
conflict
confusion
congar
congo
congregation
congress
conn
connecticut
connection
connor
conquest
conrad
conscience
consciousness
conseil
consensus
consequences
conservation
conservative
considered
consortium
constantine
constantinople
constantius
constellation
constellations
constituency
constitution
constitutional
construction
consulte
consumer
consumption
contact
containing
contains
contemporary
content
context
continent
continental
continue
continues
continuum
contra
contraception
contraceptive
contraceptives
contract
contre
contribution
contributions
control
controlled
controversy
convention
conversation
conversations
conversion
cook
cooke
cooking
cool
coolio
cooper
cooperation
cooperative
coordination
cop
copa
copd
copenhagen
copernicus
copies
copper
coptic
copy
copyright
cor
coracina
coral
cordoba
core
coree
corey
corinthians
cork
cormorant
cornelius
cornell
corner
cornish
cornwall
corona
coronavirus
corp
corporate
corporation
corps
corpus
correspondence
correspondent
corruption
cortes
cortez
corvus
cosmas
cosmopolitan
cosmos
cost
costa
costs
cote
cotton
coua
coucal
could
council
councils
count
counter
countries
country
county
countytrak
coup
coupe
couple
courage
courier
course
court
courts
cousteau
covenant
cover
coverage
covers
covid
cow
coward
cox
cp
cq
cr
craft
craig
crake
crane
crash
crater
crawford
crazy
crc
cream
create
created
creating
creation
creative
credit
creed
creek
creole
crescent
crested
crestwood
crew
cria
cricket
crime
crimean
crimes
criminal
crimson
crisis
cristiano
cristina
cristobal
criteria
crithagra
critic
critical
criticism
critics
critique
croatia
crocidura
crocodile
croix
croome
crosby
cross
crow
crown
crowned
crowther
cruise
crusade
cruz
cry
crystal
cs
ct
ctu
cu
cuanza
cuba
cuban
cube
cuckoo
cuckooshrike
cuf
cullen
cult
cultura
cultural
culture
cultures
cum
cummings
cunha
cunningham
cup
cura
curacao
cure
curie
curious
curr
current
curriculum
curse
curtis
cushing
custom
customs
cut
cuthbert
cutting
cv
cw
cx
cy
cycle
cygnus
cylinder
cymbopogon
cynthia
cyprian
cyprus
cyril
cyrus
cz
czech
d
d0
d1
d2
d3
d4
d5
d6
d7
d8
d9
da
dacb
dacianus
dad
dada
daddy
dae
dagaa
dagoretti
dahomey
dai
daily
dailynews
daima
daimler
daisy
dakar
dakika
dakota
daktari
dal
dale
dalili
dallas
dallet
daloa
dalton
daly
dam
damascus
damasko
dame
dameski
damian
damiani
damiano
damilola
damon
damu
dan
dana
dance
dancehall
dancing
danger
dangerous
daniel
daniela
daniele
danieli
danielle
daniels
danish
danny
dans
dansi
dante
danubi
daoud
dar
daraja
darasa
darasani
daressalaam
darfur
dari
dario
dark
darkness
darmstadt
darubini
darwin
darya
das
dash
dashiki
dat
data
database
date
dated
dates
dating
dativo
dativus
dau
daudi
daughter
daughters
dave
david
davido
davidson
davies
davis
dawa
dawamfadhaiko
dawati
dawn
dawson
day
dayosisi
days
dayton
db
dc
dd
ddt
de
deacon
dead
deadly
deal
dean
dear
death
deaths
debate
debbie
debe
deborah
debut
dec
decade
december
decembre
decision
decius
declaration
declared
decline
decreto
dedicated
dee
deeds
deep
deer
def
defao
default
defeat
defence
defense
deficiency
deficit
defined
defining
definition
definitions
definitive
degli
degree
dei
del
delaware
delgado
delhi
dell
della
delle
delta
dem
demand
dementia
demi
democracy
democratic
demografia
demographie
demokrasia
demons
den
deng
dengi
dengue
deni
denis
denise
denizli
denmark
dennis
densi
densiti
dent
denver
deo
deon
departement
department
dependence
depo
depression
depth
der
derby
derek
dereva
derg
derived
derrick
des
descartes
descent
description
desemba
desert
design
designer
desire
desk
desmodium
desmond
despite
destination
destiny
destruction
desturi
det
detail
detailed
details
detection
detective
detroit
dettaglio
deus
deuterokanoni
deuteronomy
deutsch
deutsche
deutschen
deutscher
deutsches
deutschland
deux
dev
developing
development
developmental
devi
devil
devon
devoted
devotion
df
dfb
dg
dh
dhabi
dhabihu
dhabiti
dhahabu
dhahiri
dhaifu
dhamana
dhambi
dhamira
dhamiri
dhana
dharau
dharura
dhati
dhehebu
dhidi
dhiki
dhima
dhoruba
dhuluma
di
diabetes
diagnosis
diagnostic
diallo
dialogue
diamond
diamonds
diana
diane
diario
diarra
diary
dias
diaspora
diaz
dick
dickinson
dictionaries
dictionary
dictionnaire
did
diddy
didier
didn
die
died
diego
dies
diet
dietrich
dieu
difference
differences
different
differential
difficult
digest
digital
digitized
digrii
dijitali
dijiti
dijon
dikteta
dil
dillon
dimbwi
din
dina
dini
dinosauri
dio
diocese
diocesi
diocletian
diocletianus
dioecesis
dioklesyano
diokletian
dioksidi
dion
dionisi
dionisia
dionysius
diospyros
diploma
diplomacy
diplomasia
diplomatic
dir
dira
dire
direct
directed
direction
director
directors
directory
dirisha
dirty
dis
disability
disaster
disc
disco
discography
discogs
discourse
discovered
discovery
discusses
discussion
disease
diseases
diseli
disemba
diski
diskografia
disney
disord
disorder
disorders
display
displaystyle
dispute
dissertation
distance
distinguished
distribution
district
districts
dit
diva
divai
diversity
divine
divisheni
division
divisions
divo
divorce
diwani
dixon
diyarbakır
dizasta
dizeli
dizionario
dizzy
dj
djebar
djiboua
djibouti
djuablin
dk
dknob
dkt
dl
dlamini
dm
dn
dna
do
doa
dobrik
doc
docs
doctor
doctors
doctrine
doctrines
document
documenta
documentary
documentation
documents
dodoma
does
doesn
dog
dogg
dogma
dogo
dogs
doha
doherty
doi
doing
dola
dolar
dole
dollar
dollars
dolly
dolphin
dom
domain
dome
domenico
domestic
domingo
domini
dominic
dominica
dominican
dominico
dominika
dominiko
dominique
domo
domofupi
don
donald
donati
donatistas
donato
dondoo
done
dong
donge
donna
donovan
doo
door
dopamine
dopamini
doppler
dora
doreen
doria
doris
dormouse
dorothy
dortmund
dos
dosari
douala
double
doubleday
doubt
doug
douglas
dove
dover
down
downers
download
downloads
doyle
dozi
dp
dq
dr
draft
dragon
drake
drama
dramatic
drc
dre
dream
dreaming
dreams
dress
drew
drewes
drink
drinking
driscoll
drive
driver
drongo
drop
drops
drug
drugs
drum
drums
dry
ds
dsm
dstv
dt
du
dua
dual
duara
duaradufu
dub
dubai
dube
dublin
dubu
dubwana
duchesne
duchess
duck
dudley
due
duffy
duka
duke
dully
duma
dumas
dume
dumuzi
dunant
dunbar
duncan
dung
duni
dunia
duniani
dunn
duns
dunstan
duo
dupri
durban
durham
during
duru
dusky
dusseldorf
dust
dutch
dutu
duty
dv
dvd
dvt
dw
dwarf
dwellings
dwight
dx
dy
dying
dylan
dynamics
dynasty
dz
e
e0
e1
e2
e3
e4
e5
e6
e7
e8
e9
ea
eac
each
eagle
eala
ear
eared
earl
earlier
earliest
early
earth
east
easter
eastern
easton
eastwood
easy
eater
eating
eatv
eazy
eb
ebert
ebola
ebony
ec
eccles
ecclesiae
ecclesiarum
ecclesiastes
ecclesiastica
ecclesiastical
echo
eclipse
ecmo
eco
ecobank
ecole
ecological
ecology
economic
economics
economist
economy
ecuador
ecumenical
ed
eddie
eddy
edem
eden
edessa
edgar
edge
edinburgh
edirne
edison
edit
edited
edith
edition
editions
editor
editorial
editors
editrice
edizione
edizioni
edmond
edmonds
edmund
edn
edna
edo
edoardo
eds
edu
eduard
eduardo
education
educational
edvard
edward
edwards
edwin
ee
eerdmans
ef
efeso
effect
effectiveness
effects
efficacy
efforts
eg
egerton
eglise
ego
egypt
egyptian
eh
ehrlich
ehrman
ei
eight
eighteenth
eighth
eileen
ein
eine
einstein
eire
eisenbrauns
eisenhower
ej
ek
ekari
ekaristi
ekolojia
eksirei
ekuador
ekwador
el
elaine
elder
eldoret
eleanor
elected
election
elections
electoral
electric
electrical
electricity
electronic
electronics
elegans
elekeo
elektroni
elektroniki
element
elementary
elementi
elements
elena
elephant
elevation
elezo
elf
elfu
elgar
elgeyo
elgon
eli
elia
elias
elijah
elimu
eliot
elisabeth
elisabeti
elisha
elite
eliya
elizabeth
elizabeti
ella
elle
ellen
elles
elliot
elliott
ellis
elsa
elsevier
elsie
elton
elvis
em
ema
emanuel
embakasi
embassy
embe
emberiza
embu
emerald
emergence
emergency
emerging
emeritus
emerson
emi
emil
emile
emilia
emilio
emily
emin
eminem
emir
emirates
emirati
emma
emmanuel
emmy
emotional
emperor
empire
empires
empowerment
empress
empty
en
encarta
enciclopedia
encounter
encyclopaedia
encyclopedia
encyclopædia
end
endangered
endapo
ende
endelevu
ending
ends
enemy
eneo
energy
eng
engare
engels
engine
engineer
engineering
engineers
engl
england
english
enlightenment
eno
enough
enrico
enrique
ensemble
entebbe
enter
enterprise
enterprises
entertainment
entre
entries
entry
enugu
environment
environmental
enya
enyaji
enye
enyi
enyo
enzi
enzo
eo
ep
epa
ephrem
epic
epidemic
epidemiol
epidemiological
epidemiology
epiphanius
episcopal
episcopaux
episcopi
episcoporum
episode
epistemology
epistle
epistles
eprdf
eq
equal
equality
equatorial
equity
equus
er
era
erasmus
eremitae
eric
erica
erich
erie
erik
erin
eritrea
ernest
ernst
eropleni
error
ers
erwin
erzurum
es
esa
escape
escherichia
escriva
eskisehir
espana
especially
espn
essay
essays
essence
essential
essentials
essex
est
esta
established
estado
estate
ester
esther
estimate
estimates
estonia
estrojeni
eswatini
et
eta
etat
etc
eternal
ethical
ethics
ethiopia
ethiopian
ethiopien
ethnic
ethnicity
ethnologue
eti
etienne
etrangeres
etudes
etymology
eu
eucharist
euclid
eugene
eugenio
eukaryota
euler
eulogius
eunice
euphonia
eur
eurasia
eurasian
euro
europa
europe
european
eusebi
eusebius
ev
eva
evaluation
evan
evangelical
evans
eve
evelyn
even
evening
event
events
ever
everest
everett
everton
every
everyday
everyone
everything
evidence
evil
evolution
evolutionary
evra
ew
ewaso
ewe
ex
examination
example
examples
excellence
except
excerpt
excerpts
exchange
exclusive
executive
exercise
exeter
exhibition
exile
exists
exodus
exp
expand
expanded
expanding
expansion
expedition
experience
experimental
experiments
expert
experts
explained
explanation
exploration
explore
explorer
exploring
export
exposure
express
expression
extended
extensive
external
extra
extreme
ey
eye
eyed
eyes
eyez
eyre
ez
ezana
eze
ezekiel
ezekieli
ezra
f
f0
f1
f2
f3
f4
f5
f6
f7
f8
f9
fa
fabaceae
faber
fabian
fabio
fabolous
fabriano
face
facebook
faced
faces
facing
facsimile
fact
factbook
factor
factors
factory
facts
faculty
fadak
fadhila
fadhili
fahali
fahamu
faharasa
fahari
fahrenheit
faida
faila
failed
faili
failure
fainali
faini
fair
fairy
faith
faithful
fake
fal
falaki
falciparum
falco
falcon
falkland
fall
falling
falls
falme
falsafa
false
fam
fame
familia
families
family
famous
fan
fani
fans
fantasy
fanya
fao
faq
far
faragha
farah
faraja
farakano
farao
farasi
farewell
farid
farida
farisi
farm
farmer
farmers
faroe
farrar
farrell
farsy
faru
fashion
fasihi
faso
fast
fastes
fat
fatal
fate
father
fathers
fathi
fathy
fatima
fatma
fatuma
faustina
fausto
faustus
favorite
faz
fb
fbi
fc
fd
fda
fdd
fe
fear
fears
feast
feat
feature
featured
features
featuring
feb
februari
february
federal
federation
federico
fedha
feel
feeling
feet
feldman
feleji
felipe
felis
felisi
felix
fell
fellow
fellows
fellowship
female
femi
feminine
feminism
feminist
femme
femmes
ferdinand
ferguson
feri
fernandez
fernando
ferrand
ferrara
ferrari
ferrer
ferry
fertility
fest
festival
fever
few
ff
fg
fgm
fh
fi
ficedula
fiche
fiction
fid
fide
fidel
fidia
field
fields
fifa
fifth
fifty
fig
fight
fighter
fighting
figo
figure
figures
fiji
fikira
fikra
fil
filamu
file
filemoni
files
filimbi
filipino
filipo
filippo
film
filmfare
filming
films
fimbi
fimbo
fin
final
finali
finalists
finally
finance
financial
finch
find
finding
findings
finds
fine
finland
finn
finnish
finyu
fiore
fire
firenze
firigogo
firm
first
fischer
fish
fisher
fishing
fisi
fistful
fitina
fitzgerald
five
fizikia
fiziolojia
fj
fk
fl
flag
flame
flamingo
flanders
flandria
flash
flat
flava
flavius
fleming
flesh
fletcher
flight
flood
floor
flora
florence
flores
florida
flow
flower
flowers
floyd
fly
flycatcher
flying
flynn
fm
fn
fnl
fo
focus
foley
foligno
folk
folklore
follow
following
fomu
fomula
fonda
fondation
fonimu
fontes
food
foods
fool
foot
football
footed
for
forbes
force
forced
forces
ford
fordham
forecast
forecasts
foreign
forest
forests
forever
foreword
forget
forgotten
form
format
formation
former
forms
formula
forodha
forodhani
fort
fortress
fortunati
fortune
forty
forum
forward
foster
found
foundation
foundations
founder
founding
four
fourth
fowler
fox
fp
fq
fr
fra
frac
fragments
frame
framework
francais
francaise
france
frances
francesco
franchise
francis
franciscan
franciscans
francisco
franco
francois
francoise
francolin
frank
frankfurt
franklin
franks
frans
fransiska
fransisko
franz
fraser
frati
frauen
fred
freddie
frederic
frederick
frederik
fredrick
fredrik
free
freedom
freeman
freestyle
freetown
freiburg
fremu
french
frequency
frequently
frere
fresh
freud
friday
fridays
friedman
friedrich
friend
friends
friendship
frigia
fritz
frog
from
front
fronted
frontier
frontiers
frost
fruit
frumensyo
fs
ft
fu
fuego
fueli
fufu
fujo
fukara
fuko
fukwe
fulani
fulanifulani
fulham
full
fuller
fully
fumbatio
fumbo
fun
function
functional
functions
fund
fundamental
fundamentalism
fundanus
fundi
fundisho
fundo
funeral
funga
fungi
fungo
fungu
funguo
funguvisiwa
funk
fununu
fupi
fur
furaha
furious
furred
fursa
further
furukombe
fusion
futa
futi
future
futures
fuvu
fuwele
fv
fw
fx
fy
fz
g
g0
g1
g2
g3
g4
g5
g6
g7
g8
g9
ga
gaba
gabi
gabon
gaborone
gabriel
gabrieli
gabriella
gaddafi
gael
gaetano
gaga
gagnoa
gaidi
gail
gairo
gaius
gal
gala
galaksi
galana
galantuomo
galapagos
galaxy
gale
galia
galilaya
galilei
galileo
gallery
gallia
gallo
galoni
gama
gamal
gamba
gambia
game
games
gamma
gan
ganda
gandhi
gandunia
gang
gangsta
gani
gantt
gao
gap
garang
garcia
garden
gardens
gardner
garfield
gari
garissa
garland
garner
garrett
garth
gary
gas
gaston
gastroenteritis
gatanga
gate
gates
gateway
gatundu
gauge
gaul
gaule
gaulle
gauni
gauteng
gavana
gave
gavin
gay
gaza
gazelle
gazeti
gazette
gazetteer
gaziantep
gb
gbeke
gc
gcatholic
gd
ge
gecko
gedi
gee
gegereka
geita
geji
gellersen
gem
gemini
gemma
gen
gender
gene
genealogy
general
generale
generation
generations
genes
genesis
genet
genetic
genetics
genetta
geneva
genevieve
genge
geni
genital
genitive
genius
genk
genoa
genocide
genome
genova
genre
geo
geoff
geoffrey
geographic
geographical
geographie
geography
geohive
geological
geology
geometry
geonames
geonet
geophysical
geordavie
georg
george
georges
georgia
georgian
gerald
gerard
gereza
gerezani
gerhard
germain
german
germania
germaniae
germanic
germany
gerry
gertrude
geschichte
gesellschaft
gesi
get
getamap
geti
gets
getting
gf
gfc
gg
gh
ghafla
ghala
ghali
ghana
ghanaian
ghanaweb
ghanzi
gharama
ghasia
ghazal
ghetto
ghorofa
ghost
ghosts
ghuba
ghulam
gi
gia
giacomo
gian
giant
gibbs
gibe
gibraltar
gibson
gideon
gift
giga
gikuyu
gil
gilbert
gilgamesh
giligili
gill
gilles
gillespie
gimba
gina
giorgio
giotto
giovanni
gir
giresun
girl
girlfriend
girls
girolamo
gisenyi
gishu
gita
gitaa
gitega
githongo
giulio
giuseppe
givalius
give
given
gives
giving
giza
gizani
gj
gk
gl
glacier
gladys
glamour
glasgow
glasi
glass
glaucidium
glavu
glen
glenn
gli
global
globalization
globe
globefeed
globu
gloria
glories
glorification
glory
glossary
glossina
glottolog
glukosi
gluteni
gm
gmbh
gn
gnosticism
gnu
go
goa
goal
goals
goat
god
goddess
godfather
godfrey
godoro
gods
godwin
goes
goethe
gof
gofu
goguryeo
goh
going
gold
goldberg
golden
goldman
goldstein
golf
goli
golikipa
goma
gombe
gome
gomez
gonda
gone
gonna
gontougo
gonzalez
good
goodbye
goodman
goodwill
google
goose
gor
gordon
gore
gorilla
goromwe
goshawk
gospel
gospels
gossip
got
goteborg
gothic
gothoburgensia
gothoburgensis
goti
gottfried
gottingen
gould
gout
gouv
gov
governance
government
governor
govpubs
govt
goya
gp
gps
gq
gr
grace
grade
graduate
graeca
graf
graffiti
graham
grahamstown
grain
gram
grammar
grammy
gramu
gran
granada
grand
grande
grands
grant
graphic
grass
grassfields
grave
graviti
gravity
gray
great
greater
greatest
grebe
greco
greece
greek
green
greenbul
greene
greenland
greens
greenwich
greenwood
greg
gregoire
gregor
gregori
gregorian
gregorio
gregory
grenada
grenoble
greta
gretchen
grey
griffin
griffith
griffiths
grimke
grimm
griot
gronniosaw
groote
groove
grosbeak
gross
ground
group
groups
grove
grover
grow
growing
growth
grus
gruyter
gs
gsm
gt
gu
guadalajara
guadalupe
guadeloupe
guam
guangdong
guangzhou
guard
guardian
guatemala
guemon
guerin
guerrero
guest
guevara
guide
guideline
guidelines
guides
guido
guild
guillaume
guilty
guinea
guinness
guitar
gujarat
gulf
gull
gulu
gumba
gumu
gumzo
gun
gundi
gunther
gunung
gupta
guru
gurudumu
guruguru
gustav
gutenberg
guthrie
gutierrez
guy
guyana
guzman
gv
gw
gwanda
gwen
gx
gy
gynecology
gz
h
h0
h1
h2
h3
h4
h5
h6
h7
h8
h9
ha
haba
habakkuk
habakuki
habari
habeshi
habib
habitat
habsburg
habyarimana
hacker
hackett
had
hadhara
hadharani
hadhi
hadhira
hadi
hadith
hadithi
hadubini
hafifu
hafla
hagai
hagiography
hague
hahn
hai
haieleweki
haifahamiki
haifai
haihusiani
haijawahi
haijulikani
haiku
haikujulikana
haikuwa
haikuweza
hail
haile
haina
haionekani
haipatikani
haipo
hair
haiti
haitoshi
haiwezekani
haiwezi
haja
hajafa
hajawahi
haji
hajj
hajui
haki
hakika
hakiki
hakim
hakimiliki
hakimu
hakina
hakufanikiwa
hakukubali
hakukuwa
hakuna
hakupata
hakupenda
hakutaka
hakuwa
hakuwahi
hakuweza
hal
halafu
halaiki
halali
hale
haley
half
hali
halijoto
halikadhalika
halikuwa
halima
halina
halisi
hall
halle
hallelujah
halley
halmashauri
ham
hamad
hamas
hamasa
hambol
hamburg
hamed
hamid
hamilton
hamira
hamisi
hammer
hammond
hamna
hampshire
hampton
hamsini
hamu
hamza
han
hana
hanang
hand
handbook
handeni
handle
hands
hang
hanna
hannah
hannibal
hannover
hanoi
hanover
hans
hanse
hansen
hanson
hanyu
hao
haorodheshwi
hapa
hapakuwa
hapana
hapendi
hapo
happiness
happy
haraka
harakaharaka
harakati
harald
haram
harambee
haramu
harare
harbor
harcourt
hard
hardcover
harding
hardy
hare
hargeisa
hariri
harleen
harlem
harmattan
harmonize
harmony
harold
harper
harpercollins
harrassowitz
harrier
harriet
harris
harrison
harry
hart
hartford
harufu
harun
haruna
harusi
harvard
harvey
has
hasa
hasahasa
hasan
hasara
hasi
hasira
hassan
hastings
haswa
hat
hata
hataki
hatamu
hatari
hatarini
hatarishi
hatcher
hate
hati
hatia
hatima
hatimaye
hatimiliki
hatshepsut
hatua
hatujui
hatuna
hatuwezi
haujulikani
haukuwa
hauna
hausa
haut
haute
hauwezi
havana
have
haven
havina
having
haviwezi
haw
hawa
hawaii
hawaiian
hawajui
hawako
hawakujua
hawakuruhusiwa
hawakuwa
hawakuweza
hawana
hawaorodheshwi
hawapendi
hawataki
hawawezi
hawezi
hawk
hawkins
hay
haya
hayajulikani
hayakuwa
hayana
hayati
hayawezi
haydn
hayes
hayo
hayward
hazard
haziko
hazikuwa
hazina
hazinadata
hazipatikani
haziwezi
hb
hc
hd
he
head
headache
headed
headies
headline
heads
healing
health
healthcare
healthy
hear
heard
heart
hearts
heat
heath
heather
heaven
heavy
hebrew
hebrews
hector
hedhi
hegel
heidelberg
heights
heiligen
heinemann
heinrich
heinz
hekalu
hekaluni
hekaya
hekima
hekta
hektari
hela
held
helen
helena
helgoland
heli
helicopter
helikopta
hell
heller
hellige
hello
helmut
help
helped
helsinki
hema
hemoroidi
henchir
henderson
hendrik
hendrix
henri
henrik
henriksen
henry
hepatitis
hepatitisi
her
herald
herbert
hercules
herder
here
heresies
heri
heritage
herman
hermann
hermas
hermit
hernandez
hero
herod
herode
heroes
heroini
heron
herpes
herrnhut
herschel
herufi
herzegovina
herzog
hes
hesabu
heshima
hesse
het
hevelius
hewa
hewani
hex
hey
hf
hg
hh
hi
hiace
hiari
hicho
hicks
hidden
hidrojeni
hierarchy
hifadhi
hifadhidata
higgins
high
highbeam
higher
highest
highland
highlands
highlife
highlights
highly
highway
hii
hija
hijabu
hijra
hiki
hila
hilali
hilari
hilarion
hilary
hilda
hildegard
hildegarde
hildesheim
hili
hill
hillary
hills
hilo
hilohilo
hilton
him
himalaya
himalayan
himaya
himoglobini
himself
hinabuluu
hinckley
hindi
hindu
hio
hip
hiphop
hiplife
hippo
hippolytus
hiragana
hiro
hiroshi
hiroshima
hirsi
his
hisa
hisabati
hisani
hisi
hisia
hispania
hispaniola
hist
histoire
historia
historian
historians
historic
historica
historical
histories
historiography
historique
history
hit
hitaji
hitchcock
hitilafu
hitimisho
hitler
hitparade
hits
hiv
hivi
hivyo
hiyo
hiyohiyo
hizi
hizo
hj
hk
hl
hm
hn
ho
hockey
hodari
hodder
hoffman
hoffmann
hofu
hoi
hoima
hoja
hold
holding
holdings
holds
hole
holiday
holiness
holland
holloway
holly
hollywood
holmes
holocaust
holstein
holt
holweck
holy
homa
home
homeland
homepage
homer
homilies
homily
homme
homo
homoni
homosexual
hon
honda
honduras
honey
hong
hongo
hongwe
honolulu
honor
honorary
honorata
honored
honori
honorius
honors
honour
honoured
honours
hood
hooded
hook
hop
hope
hopkins
hopper
horace
hori
horizon
hormonal
hormone
hormones
horn
hornbill
horned
horse
horst
horton
hosea
hospital
hospitali
hospitalini
hospitals
host
hosted
hosts
hot
hotel
hoteli
hotels
hotspur
hotuba
houghton
hour
hours
house
houses
housing
houston
how
howard
howe
howell
however
hp
hq
hr
hrsg
hs
hsbc
ht
htm
html
http
https
hu
hua
huacha
huadhimisha
huadhimishwa
huainishwa
huambatana
huambukizwa
huamini
huaminika
huaminiwa
huamua
huandaa
huandaliwa
huandikwa
huang
huanza
huanzia
huashiria
huathiri
huathiriwa
hub
hubadilika
hubadilisha
hubadilishwa
hubaki
hubble
hubeba
hubei
hubert
huchagua
huchaguliwa
huchanganywa
huchangia
huchapisha
huchapishwa
hucheza
huchezwa
huchimba
huchukua
huchukuliwa
huchunguza
hudai
hudhurungi
hudson
huduma
hudumu
huelekea
huelezea
huenda
huendelea
huenea
huey
hufa
hufafanuliwa
hufanana
hufanya
hufanyika
hufanywa
huffington
hufika
hufikia
hufikiriwa
hufuata
hufundisha
hufungwa
hufunikwa
hugawiwa
huge
hugh
hughes
hugo
huhamia
huhesabiwa
huhitaji
huhusiana
huhusika
huhusisha
huhusishwa
hui
huiangalia
huimba
huingia
huishi
huishia
huita
huitwa
huja
hujaribu
hujenga
hujengwa
hujifunza
hujihusisha
hujilisha
hujishughulisha
hujitokeza
hujiunga
hujulikana
hujumuisha
hukaa
hukadiriwa
hukamata
hukatwa
hukiakia
huko
hukohuko
hukosa
huku
hukua
hukubali
hukumu
hukutana
hukuza
hukuzwa
hula
hulala
hulenga
huleta
hulijenga
hulimwa
hulinda
hulingana
huliwa
hulka
hull
hum
humaanisha
human
humanitarian
humanities
humanity
humans
humber
humboldt
hume
humo
humphrey
humu
huna
hundred
huneriki
hung
hungama
hungaria
hungarian
hungary
hunger
hunt
hunter
huntington
huntley
hunyesha
hunywa
huo
huohuo
huona
huonekana
huongea
huongeza
huongezeka
huongezwa
huonyesha
huonyeshwa
hupanda
hupandwa
hupangwa
hupata
hupatikana
hupelekea
hupenda
hupendekeza
hupendekezwa
hupendelea
hupendwa
hupewa
hupiga
hupikwa
hupimwa
hupita
hupitia
hupokea
hupoteza
hupungua
hupunguza
hurejea
hurejelea
huria
hurricane
hurst
huru
huruhusu
huruka
huruma
hus
husababisha
husababishwa
husafiri
husaidia
husambazwa
husayn
husband
husema
hushiriki
hushirikiana
husika
hussain
hussein
hususa
hususan
hususani
hutafuta
hutaga
hutaja
hutajwa
hutambulika
hutambuliwa
hutamkwa
hutazamiwa
hutazamwa
hutchinson
hutegemea
hutembea
hutengeneza
hutengenezwa
hutibiwa
hutiririka
hutoa
hutofautiana
hutofautishwa
hutoka
hutokana
hutokea
hutolewa
hutu
hutumia
hutumika
hutumiwa
hutunza
huu
huunda
huundwa
huungana
huuzwa
huvaa
huvaliwa
huwa
huwapa
huwasaidia
huweka
huwekwa
huweza
huwezesha
huwezi
huwinda
huxley
huyataga
huyo
huyu
huzaa
huzalisha
huzalishwa
huzaliwa
huzidi
huzingatia
huzuia
huzunguka
huzungumza
huzungumzwa
huzuni
hv
hw
hwale
hx
hy
hyderabad
hydra
hygiene
hymns
hyperactivity
hypertension
hypothesis
hz
i
i0
i1
i2
i3
i4
i5
i6
i7
i8
i9
ia
iaaf
ian
ianuaria
ianuarius
iata
iau
ib
ibada
ibadan
ibanda
ibara
iberia
ibilisi
ibis
ibm
ibn
ibrahim
ibrahimu
ic
icao
icc
icd
ice
iceland
icelandic
ichiro
icon
iconography
icons
icp
icrc
ict
id
ida
idadi
idaho
idara
idd
iddi
idea
ideas
identification
identity
ideology
idhaa
idhini
idi
idk
ido
idol
idols
idris
ie
ieee
if
ifakara
iffou
ifikapo
ifpi
ifuatavyo
ifuatayo
ig
iganga
igbo
igcse
igembe
igizo
iglesias
ignas
ignatius
ignored
igor
igulu
igunga
ih
ii
iidk
iii
iitwayo
ij
ijapokuwa
ijayo
ijulikanayo
ijumaa
ik
ikaanza
ikaendelea
ikaitwa
ikaja
ikapata
ikawa
ikielekea
ikiendelea
ikifuatiwa
ikiitwa
ikijulikana
ikijumuisha
ikilinganishwa
ikimaanisha
ikiongozwa
ikionyesha
ikipakana
ikitoa
ikitokea
ikitumia
ikitumika
ikitumiwa
ikiwa
ikiwemo
ikiwezekana
iko
ikolojia
ikulu
ikungi
ikweta
il
ila
ilala
ilani
ile
ileile
ileje
ilemela
ilhali
ili
iliad
iliamua
iliandaa
iliandikwa
iliangaliwa
ilianguka
ilianza
ilianzia
ilianzisha
ilianzishwa
ilibadilika
ilibadilisha
ilibadilishwa
ilibaki
ilibidi
ilibuniwa
ilichaguliwa
ilichangia
ilichapishwa
ilicheza
ilichezwa
ilichukua
ilichukuliwa
ilidai
ilidumu
ilienda
iliendelea
ilienea
ilifanikiwa
ilifanya
ilifanyika
ilifanywa
ilifaulu
ilifika
ilifikia
ilifuata
ilifuatiwa
ilifungua
ilifunguliwa
ilifungwa
ilifutwa
iligawanywa
iligawiwa
iligundua
iligunduliwa
ilihamia
ilihamishwa
ilihesabiwa
ilihusisha
iliibuka
iliimbwa
iliingia
iliingizwa
iliisha
iliitwa
ilijaribu
ilijengwa
ilijiunga
ilijulikana
ilijumuisha
ilikaa
ilikadiriwa
ilikaliwa
ilikataa
ilikua
ilikubali
ilikubaliwa
ilikuja
ilikuwa
ilikuwepo
ilikwenda
ilikwisha
ililenga
ilileta
ilimaanisha
ilimaliza
ilimalizika
ilimbidi
ilimfanya
ilimpa
ilinunua
ilinunuliwa
iliona
iliondolewa
ilionekana
iliongeza
iliongezeka
iliongezwa
iliongozwa
ilionyesha
ilionyeshwa
iliopo
iliorodheshwa
ilipanda
ilipangwa
ilipaswa
ilipata
ilipatikana
ilipelekea
ilipendekeza
ilipewa
ilipiga
ilipigwa
ilipita
ilipitishwa
ilipo
ilipoanza
ilipoanzishwa
ilipofika
ilipokea
ilipokuwa
ilipopata
ilipopitishwa
ilipoteza
ilipungua
ilirejeshwa
ilirekodiwa
iliripotiwa
ilirudi
ilirudishwa
iliruhusu
ilisababisha
ilisaidia
ilisema
ilisemekana
ilishika
ilishinda
ilishindwa
ilishiriki
ilishuka
ilitajwa
ilitaka
ilitakiwa
ilitambuliwa
ilitangaza
ilitangazwa
ilitawala
ilitawaliwa
ilitayarishwa
ilitazamiwa
ilitazamwa
ilitengenezwa
iliteuliwa
ilithibitisha
ilithibitishwa
ilitoa
ilitoka
ilitokana
ilitokea
ilitolewa
ilitoweka
ilitumia
ilitumika
ilitumiwa
ilitungwa
ilitunukiwa
iliunda
iliundwa
iliunganisha
iliunganishwa
iliuza
iliuzwa
ilivamia
ilivamiwa
ilivutwa
ilivyo
ilivyoandikwa
ilivyoelezwa
ilivyokuwa
ilivyotokea
iliwahi
iliweka
iliwekwa
iliweza
iliyo
iliyoandaliwa
iliyoandikwa
iliyoanza
iliyoanzishwa
iliyobaki
iliyochaguliwa
iliyochapishwa
iliyochezwa
iliyoendelea
iliyoenea
iliyofanyika
iliyofanywa
iliyofuata
iliyofungwa
iliyohifadhiwa
iliyoitwa
iliyojaa
iliyojengwa
iliyojulikana
iliyoko
iliyokuwa
iliyokuwepo
iliyokwenda
iliyomo
iliyoongozwa
iliyoonyeshwa
iliyopangwa
iliyopata
iliyopatikana
iliyopelekea
iliyopewa
iliyopita
iliyopitishwa
iliyopo
iliyoratibiwa
iliyorekodiwa
iliyosababisha
iliyosababishwa
iliyoshinda
iliyotajwa
iliyotangulia
iliyotawala
iliyotayarishwa
iliyotengenezwa
iliyotengwa
iliyotoa
iliyotoka
iliyotokana
iliyotokea
iliyotolewa
iliyotumika
iliyotumiwa
iliyotungwa
iliyoundwa
iliyounganishwa
iliyowahi
iliyowekwa
iliyoweza
iliyozungumzwa
ilizidi
ilizindua
ilizinduliwa
ill
illinois
illness
illustrated
ilunga
im
image
images
imaging
imakulata
imam
imamu
iman
imani
imara
imdb
imeandikwa
imeangaliwa
imeanza
imeanzishwa
imebadilika
imebadilishwa
imebaki
imechukua
imechukuliwa
imeendelea
imeenea
imefanya
imefika
imefikia
imefungwa
imefunikwa
imegawanyika
imegawanywa
imegawiwa
imehesabiwa
imehifadhiwa
imejengwa
imejulikana
imekadiriwa
imekaribia
imekua
imekuwa
imekwisha
imenti
imeonekana
imeongezeka
imeongozwa
imeonyeshwa
imeorodheshwa
imepakana
imepangwa
imepata
imepatikana
imepelekea
imependekezwa
imepewa
imepokea
imepokewa
imepungua
imesababisha
imeshinda
imetajwa
imetambuliwa
imetayarishwa
imetengenezwa
imetengwa
imethibitishwa
imetoa
imetoka
imetokana
imetolewa
imetoweka
imetumika
imetumiwa
imeundwa
imeunganishwa
imeuza
imewasilishwa
imewekwa
imeweza
imezungukwa
imf
immaculate
immanuel
immigration
immortality
immune
immunodeficiency
immunology
imo
impact
impacts
impairment
imperial
imperialism
implications
importance
important
in
ina
inaadhimishwa
inaainishwa
inaaminika
inaaminiwa
inaandikwa
inaangazia
inaanza
inaashiria
inabadilika
inabaki
inabeba
inabidi
inachezwa
inachukua
inachukuliwa
inachunguza
inadai
inadhaniwa
inaelekea
inaeleza
inaelezea
inaelezwa
inaendelea
inaendesha
inaendeshwa
inaenea
inafaa
inafahamika
inafanana
inafanya
inafanyika
inafanywa
inafika
inafikia
inafikiriwa
inafuata
inahesabiwa
inahitaji
inahitajika
inahusiana
inahusika
inahusisha
inahusishwa
inahusu
inaingia
inaishia
inaitwa
inajaribu
inajenga
inajitokeza
inajulikana
inajumlisha
inajumuisha
inakaa
inakadiriwa
inakaribia
inakua
inakuja
inakuwa
inalenga
inaleta
inalingana
inamaanisha
inamiliki
inamilikiwa
inaonekana
inaonesha
inaongeza
inaongezeka
inaongoza
inaongozwa
inaonyesha
inaorodhesha
inapakana
inapanda
inapaswa
inapata
inapatikana
inapendekeza
inapendekezwa
inapita
inapokea
inapungua
inapunguza
inarudi
inaruhusu
inasababisha
inasababishwa
inasaidia
inasema
inasemekana
inashika
inashirikisha
inasimamia
inasimamiwa
inasimulia
inasimuliwa
inasisitiza
inataja
inatajwa
inatakiwa
inatangaza
inatarajiwa
inategemea
inatengenezwa
inatoa
inatofautiana
inatoka
inatokana
inatokea
inatolewa
inatosha
inatumia
inatumika
inatumiwa
inatunza
inaunda
inaundwa
inaunganisha
inavyoonekana
inavyotakiwa
inawakilisha
inaweza
inawezekana
inawezesha
inayo
inayoandikwa
inayoanza
inayoelekea
inayoendelea
inayoendeshwa
inayofaa
inayofanana
inayofanya
inayofanyika
inayofanywa
inayofuata
inayofunika
inayohitaji
inayohitajika
inayohusiana
inayohusika
inayohusisha
inayohusishwa
inayohusu
inayoingia
inayoitwa
inayojulikana
inayojumuisha
inayokua
inayolenga
inayolingana
inayomaanisha
inayomilikiwa
inayoonekana
inayoongoza
inayoongozwa
inayoonyesha
inayopakana
inayopatikana
inayopita
inayoruhusu
inayosababisha
inayosababishwa
inayosaidia
inayoshiriki
inayotakiwa
inayotengenezwa
inayotia
inayotoa
inayotoka
inayotokana
inayotokea
inayotolewa
inayotumia
inayotumika
inayotumiwa
inayounganisha
inayoweza
inayowezesha
inayozunguka
inayozungumzwa
inazalisha
inazidi
inazingatia
inazuia
inazunguka
inazungumzia
inc
inchi
incidence
include
included
includes
including
income
incorporated
incorporates
increase
incredible
indeed
indenie
independence
independent
index
indexes
india
indian
indiana
indianapolis
indians
indica
indies
indigenous
indio
indira
individual
individuals
indo
indochina
indonesia
induced
indus
industrial
industries
industry
inf
infant
infect
infected
infection
infections
infectious
inflamesheni
influence
influences
influential
influenza
info
infodisc
information
infotrakresearch
ing
ingawa
ingawaje
ingekuwa
ingeweza
ingine
ingizo
ingolstadt
ingrid
inhabitants
ini
inia
initiation
initiative
injili
injini
injuries
injury
inka
inner
innocent
innovation
innsbruck
inosenti
input
inquiry
inscriptions
insha
inside
insider
insight
insights
inspector
inspired
instagram
instauratum
institut
institute
institutes
institution
institutions
instituto
instruction
instrumental
instruments
insulini
insurance
int
intanet
intaneti
integrated
integration
intellectual
intelligence
inter
interaction
interactive
intercontinental
interest
interesting
intergovernmental
interim
interior
interlude
intern
internacional
internal
international
internationale
internazionale
internet
interpretation
interscope
intervarsity
intervention
interventions
interview
interviews
into
intro
introduction
introductory
invalid
invasion
invention
investigation
investment
io
ioannis
ioc
iol
ioni
iowa
ip
ipa
ipasavyo
ipcc
ipi
ipitayo
ipo
ipp
ippmedia
iq
ir
irabu
irak
iraki
iramba
iran
irani
iranian
iraq
iraqi
ireland
irenaeus
irene
iringa
iris
irish
iro
iron
irony
irving
is
isa
isaac
isabel
isabelle
isaiah
isaka
isakos
isaya
isbn
ishak
ishara
ishirini
isichanganywe
isidingo
isidore
isidori
isimu
isingiro
isiolo
isipokuwa
isis
isitoshe
isiwe
isiyo
isiyohamishika
isiyojulikana
isiyokuwa
islam
islamic
island
islands
isle
ismail
iso
isotopi
isparta
israel
israeli
iss
issa
issn
issue
issues
ist
istanbul
istat
istilahi
istituto
isxn
it
itakuwa
italia
italian
italiana
italiano
italy
item
itemid
ithaca
itifaki
itikadi
itilima
its
itself
itu
itunes
itv
iu
iucn
iv
ivan
ivoire
ivory
iw
iwapo
iwe
iweze
iwezekanavyo
ix
iy
iyo
iz
izungumzwayo
j
j0
j1
j2
j3
j4
j5
j6
j7
j8
j9
ja
jabal
jabari
jack
jackal
jackie
jackson
jacob
jacobs
jacobus
jacqueline
jacques
jade
jadi
jah
jahazi
jaji
jakarta
jakaya
jake
jakob
jalada
jalidi
jalisco
jam
jama
jamaa
jamaica
jamaika
jamal
jambo
james
jameson
jamestown
jamhuri
jamie
jamii
jamiiforums
jammeh
jamuhuri
jan
jana
jane
janeiro
janet
janga
jangwa
jangwani
jani
jansen
januari
january
janvier
japan
japanese
japani
japhet
japo
japokuwa
jaribio
jaribu
jarida
jaroslav
jasho
jason
jauza
java
javan
javascript
javier
jawabu
jaweon
jay
jazeera
jazz
jb
jc
jd
je
jea
jean
jeanne
jedwali
jeff
jefferson
jeffrey
jehovah
jekundu
jela
jelimo
jema
jemadari
jembamba
jembe
jenasi
jenerali
jenetiki
jenetikia
jeneza
jengo
jeni
jenkins
jennifer
jennings
jenny
jenomu
jens
jensen
jer
jeraha
jerboa
jeremiah
jeremy
jermaine
jerome
jeromu
jerry
jersey
jerusalem
jeshi
jeshini
jesse
jessica
jesuit
jesuits
jesus
jet
jeune
jeupe
jeusi
jewish
jews
jezi
jf
jg
jh
ji
jibini
jibu
jibuti
jicho
jide
jihad
jihadi
jiji
jijini
jike
jiko
jikoni
jill
jim
jimbo
jimboni
jimi
jimmy
jin
jina
jinai
jingi
jingine
jinja
jino
jinsi
jinsia
jiografia
jiolojia
jioni
jipe
jipya
jirani
jiten
jitihada
jitu
jive
jiwe
jj
jk
jkt
jl
jm
jn
jo
joachim
joan
joanne
joannes
joao
job
jobs
jocelyn
joe
joel
joey
jogoo
johan
johann
johannes
johannesburg
john
johnny
johns
johnson
johnston
join
joins
joint
joji
jojo
joka
jolie
jomo
jon
jonas
jonathan
jones
jong
jongo
jongoo
jopo
jordan
jorge
jos
jose
josef
josemaria
joseon
joseph
josephine
josephus
josh
joshua
josiah
joto
jotoridi
jouni
journal
journalism
journalist
journalists
journals
journey
joy
joyce
joyner
jozi
jp
jpg
jq
jr
js
jsp
jstor
jt
ju
jua
juan
juba
jubba
jubilee
judah
judaism
jude
judge
judges
judgment
judith
judo
judy
juhudi
juice
juisi
juja
juju
jukumu
jukwaa
jukwaani
jul
julai
jules
julia
julian
juliana
juliani
juliasi
julie
juliet
julio
julius
july
juma
jumamosi
jumanne
jumapili
jumatano
jumatatu
jumba
jumbe
jumeirah
jumla
jump
jumuia
jumuishi
jumuiya
jun
june
jung
jungle
juni
junior
juniperus
juno
jupiter
jurgen
just
justice
justin
justine
justinian
justus
juu
juventus
juz
juzuu
jv
jw
jx
jy
jz
k
k0
k1
k2
k3
k4
k5
k6
k7
k8
k9
ka
kaa
kaabong
kabadougou
kabaka
kabale
kabarole
kabati
kabila
kabisa
kabla
kabohaidreti
kaboni
kabonia
kabuga
kabul
kaburi
kaburini
kabwe
kachero
kacheza
kadai
kadha
kadhaa
kadhalika
kadi
kadiri
kadirio
kadri
kaduna
kafara
kafiri
kagame
kagera
kagoma
kahaba
kahama
kahawa
kahawia
kahawianyekundu
kahigi
kahramanmaras
kai
kaimu
kairo
kaisarea
kaisari
kaiser
kaizari
kaizer
kajiado
kaka
kakamega
kakao
kakonko
kalahari
kalala
kalambo
kalamu
kalangala
kalasinga
kale
kaledonia
kalenda
kalenga
kalenjin
kaler
kali
kalifornia
kalimantan
kalisi
kaliua
kalle
kaloleni
kalonzo
kalori
kalou
kalsedonia
kalungu
kalunguyeye
kam
kama
kamanda
kamari
kamasi
kamati
kamba
kambale
kambarage
kambi
kambo
kambodia
kamboja
kame
kamel
kamera
kamerun
kameruni
kamili
kamilifu
kamishna
kamji
kampala
kampasi
kampaundi
kampeni
kampuchea
kampuni
kamuli
kamusi
kamuzu
kamwe
kamwenge
kan
kana
kanaani
kanada
kanali
kanari
kanda
kandanda
kandarasi
kando
kandokando
kane
kang
kanga
kangaja
kangaroo
kangaruu
kangxi
kani
kanieneo
kanisa
kanisani
kanji
kanjitab
kano
kansa
kansas
kant
kanu
kanumba
kanungu
kanuni
kanwa
kanye
kanyeihamba
kanzu
kaole
kapadokia
kapenguria
kapilari
kaplan
kapoor
kapteni
kar
kara
karachi
karafuu
karagwe
karakana
karakoram
karama
karamu
karanga
karani
karantini
karas
karatasi
karate
karatu
kardinali
karen
karenga
kariakoo
kariba
karibi
karibia
karibiani
karibu
karibuni
karim
kariuki
karl
karmeli
karnataka
karne
karo
karoli
karolo
karonga
karoo
karoti
kars
karthago
karthala
karua
karume
karuzi
kasa
kasai
kasanga
kasese
kasha
kashfa
kashmir
kasi
kasiba
kasisi
kaskazi
kaskazini
kasoko
kasoro
kaspi
kasri
kassim
kast
kastamonu
kasuku
kasulu
kaswende
kat
kata
katakana
katakwi
katanga
katani
katavi
kate
kategoria
katekesi
katekisimu
katekista
katerina
katherine
kathleen
kathryn
kati
katia
katiba
katibu
katie
katika
katikati
katka
kato
katoliki
katrina
katumbi
katuni
katwe
katy
katz
kau
kaufman
kaukazi
kauli
kaulimbiu
kaunda
kaunti
kauri
kavu
kawaida
kawawa
kay
kaya
kayanza
kaye
kayseri
kayunga
kazakhstan
kazan
kazi
kazini
kb
kbc
kc
kcb
kd
ke
kebbi
keep
keeping
kegan
keita
keith
keiyo
kejeli
kekeo
keki
kelele
keller
kellogg
kelly
kelvin
kemal
kemia
kemikali
ken
kendall
kengele
kennedy
kenneth
kenny
kent
kentridge
kentucky
kenya
kenyan
kenyans
kenyatta
kenzo
kepler
kerala
kerem
kereng
kericho
kerry
kersee
kesho
kesi
kessinger
kete
kevin
key
keyboard
keyboards
keynes
keys
keyser
keyshia
kezilahabi
kf
kg
kgalagadi
kgatleng
kh
khadija
khaled
khalid
khalifa
khamis
khan
khartoum
khatib
khmer
khoisan
khomeini
khumalo
ki
kia
kiada
kiadamawa
kiafrika
kiafrikaans
kiafrikana
kiafya
kiagta
kiajemi
kiaka
kiakili
kiakiolojia
kialbania
kiambishi
kiambu
kiamhari
kiangazi
kianglikana
kiapo
kiarabu
kiaramu
kiarmenia
kiaryan
kiasi
kiasia
kiasili
kiasmat
kiatlantiki
kiatu
kiaustro
kiaustronesia
kiawyu
kiayta
kiazeri
kiazi
kiba
kibaale
kibaguzi
kibaha
kibai
kibaki
kibakteria
kibali
kibanda
kibantu
kibao
kibara
kibarabara
kibarito
kibaski
kibatak
kibati
kibaya
kibayolojia
kibelgiji
kibena
kibengali
kibepari
kibera
kiberber
kibete
kibiashara
kibibi
kibiblia
kibichi
kibikol
kibima
kibinadamu
kibinafsi
kibiolojia
kibiti
kibo
kibodish
kibofu
kiboga
kiboko
kibondo
kibongo
kibontok
kibonyezo
kiborneo
kibosho
kibretoni
kibulgaria
kibunge
kibunu
kiburi
kibuyu
kibwagizo
kibwezi
kicelebiki
kichaa
kichadiki
kichaka
kichawi
kichefuchefu
kicheki
kichin
kichina
kichocheo
kichocho
kichungaji
kichwa
kichwani
kick
kid
kidaku
kidani
kidari
kidato
kidemokrasia
kidenenda
kidenmark
kidevu
kidijitali
kidijiti
kidikteta
kidini
kidiplomasia
kidiri
kidman
kidogo
kidogon
kidole
kidonda
kidonge
kidravidi
kids
kidugu
kidunia
kidusiwa
kidusun
kiebrania
kiede
kiedoidi
kieire
kielektroniki
kielelezo
kielezi
kielezo
kielimu
kieneo
kienyeji
kiesperanto
kiestonia
kietruski
kiev
kifaa
kifaduro
kifafa
kifahari
kifalme
kifalsafa
kifamilia
kifani
kifaransa
kifaru
kifasihi
kifedha
kifilipino
kifini
kifinisia
kifinisterre
kifinlandi
kifizikia
kifo
kifodini
kifransisko
kifrisia
kifua
kifuani
kifuko
kifulfulde
kifundo
kifungo
kifungoni
kifungu
kifuniko
kifupi
kifupisho
kigaidi
kigali
kigalicia
kigamboni
kiganda
kiganga
kiganja
kigbaya
kigbe
kigeni
kigeorgia
kigermanik
kigezo
kiggundu
kigiriki
kigogo
kigoma
kigondi
kigong
kigosi
kigrebo
kigumu
kigur
kihafidhina
kiharusi
kihausa
kihawai
kihimalaya
kihindi
kihindu
kihisabati
kihisi
kihisia
kihispania
kihistoria
kihmong
kiholanzi
kihoro
kihungaria
kiikolojia
kiindonesia
kiing
kiingereza
kiingilio
kiini
kiinitete
kiinjili
kiir
kiishara
kiisimu
kiislam
kiislamu
kiitalia
kiitaliano
kiitikio
kiitneg
kiitwacho
kijadi
kijamaa
kijamii
kijana
kijani
kijapani
kijava
kijenetiki
kijeni
kijerumani
kijeshi
kijicho
kijiji
kijijini
kijiko
kijinsia
kijiografia
kijiolojia
kijiti
kijito
kijivu
kijiyai
kijumla
kijumuia
kijusi
kijuujuu
kik
kikabari
kikabila
kikaboni
kikainji
kikali
kikalinga
kikamilifu
kikanda
kikanisa
kikannada
kikanum
kikanuri
kikao
kikapu
kikara
kikaren
kikarniki
kikatalani
kikatiba
kikatili
kikatoliki
kikawa
kikawaida
kikayan
kikazi
kike
kikemia
kikemikali
kikham
kiki
kikinnauri
kikirili
kikisi
kikiwa
kikiwemo
kiko
kikohozi
kikoloni
kikombe
kikomo
kikomunisti
kikonfusyo
kikongo
kikopti
kikorea
kikoro
kikosi
kikota
kikristo
kikroatia
kikru
kikubwa
kikucha
kikuku
kikundi
kikurdi
kikurumba
kikushi
kikuu
kikuyu
kikwa
kikwazo
kikwete
kila
kilabu
kilala
kilalo
kilango
kilatini
kilatvia
kile
kilele
kilema
kileo
kili
kiliandikwa
kilianza
kilianzishwa
kilichapishwa
kilicho
kilichoandikwa
kilichoanzishwa
kilichochapishwa
kilichofuata
kilichoitwa
kilichoko
kilichokuwa
kilichoongozwa
kilichopo
kilichotengenezwa
kilichotokea
kilifi
kiliitwa
kilikuwa
kilima
kilimani
kilimanjaro
kilimo
kilimwengu
kilindi
kilingala
kilio
kilipata
kilithuania
kilitokea
kilitolewa
kiliundwa
kill
killed
killer
killing
kilo
kilogramu
kilolo
kilombero
kilometa
kilomita
kilosa
kiluo
kilutheri
kiluwiluwi
kiluwiri
kilwa
kim
kima
kimaadili
kimaandishi
kimaasai
kimadang
kimaendeleo
kimagharibi
kimahaba
kimaisha
kimakhuwa
kimakosa
kimala
kimalagasy
kimalay
kimalayalam
kimalayiki
kimaluku
kimanda
kimande
kimani
kimanobo
kimapenzi
kimapinduzi
kimapokeo
kimarekani
kimasai
kimataifa
kimathi
kimatibabu
kimaumbile
kimazingira
kimbari
kimberley
kimberly
kimbilio
kimbunga
kimekuwa
kimelanau
kimelea
kimeng
kimiao
kimichezo
kimila
kimiminika
kimin
kimisionari
kimisri
kimkakati
kimo
kimoja
kimojawapo
kimonaki
kimondo
kimsingi
kimunda
kimungu
kimuziki
kimwili
kimya
kina
kinachohitajika
kinachoitwa
kinachojulikana
kinachoonekana
kinachopatikana
kinachotoa
kinachotumika
kinachotumiwa
kinachoweza
kinadharia
kinafanana
kinaga
kinaganaga
kinaitwa
kinajulikana
kinamasi
kinamo
kinanda
kinaonyesha
kinapatikana
kinasimulia
kinataja
kinatakiwa
kinatoa
kinatumika
kinatumiwa
kinaweza
kind
kinda
kindi
kinengenenge
king
kinga
kingamaradhi
kingamwili
kingdom
kingdoms
kingereza
kingfisher
kingi
kingine
kingo
kingono
kings
kingsley
kingston
kingwi
kiniger
kinili
kinilo
kiniloti
kinilotiki
kinisu
kinondoni
kinorwe
kinorwei
kinshasa
kinu
kinubi
kinyago
kinyama
kinyamaganga
kinyang
kinyarwanda
kinyesi
kinyonga
kinyuklia
kinyume
kinyunga
kinywa
kinywaji
kinywani
kinza
kiolwa
kiomotiki
kione
kiongozi
kioo
kioromo
kiorthodoksi
kioseaniki
kiota
kiowevu
kipa
kipagani
kipaimara
kipaji
kipama
kipana
kipandauso
kipande
kipanga
kipanya
kipapa
kipapua
kipare
kipashai
kipato
kipaumbele
kipawa
kipekee
kipengee
kipengele
kipengere
kipenyo
kipenzi
kipeo
kipepeo
kipi
kipimajoto
kipimanjia
kipimo
kipindi
kipindupindu
kipo
kipofu
kipokezi
kipoland
kipolandi
kipozamataza
kiprotestanti
kipunan
kipunjabi
kipya
kirafiki
kirahisi
kirai
kiraia
kiraka
kiramu
kirangi
kirby
kirche
kirchner
kirefu
kireno
kirgizia
kirinyaga
kirk
kiroho
kiroma
kiromania
kirsch
kiruhura
kirukanjia
kirumi
kirundi
kirundo
kirusi
kiryandongo
kisa
kisaami
kisababishi
kisafwa
kisahani
kisaikolojia
kisal
kisama
kisamo
kisanaa
kisangani
kisangu
kisanii
kisanskrit
kisarawe
kisarufi
kisasa
kisasi
kisawe
kisayansi
kiselti
kisemiti
kisenoufo
kisepik
kiserbia
kiserbokroatia
kiserikali
kisha
kishahidi
kishairi
kishapu
kishawishi
kishazi
kisheria
kishimoto
kishindo
kishirikishi
kishogo
kishona
kishujaa
kishungi
kisiasa
kisicho
kisii
kisima
kisingizio
kisino
kisiri
kisiria
kisiwa
kisiwani
kiskoti
kislavoni
kislovakia
kislovenia
kiso
kisogo
kisomali
kisomwe
kisonono
kisoro
kisoshalisti
kisotho
kisovyeti
kiss
kisu
kisubanen
kisukari
kisukuku
kisukuma
kisulawesi
kisumu
kisunni
kiswahili
kiswidi
kit
kita
kitaalam
kitaalamu
kitaaluma
kitabia
kitabu
kitahiti
kitai
kitaifa
kitakatifu
kitale
kitaliano
kitalii
kitamaduni
kitamang
kitambaa
kitambo
kitambulisho
kitamil
kitamu
kitanda
kitandani
kitanzania
kitara
kitawa
kitchen
kite
kiteke
kiteknolojia
kitendo
kitengo
kitenzi
kitenzijina
kiteto
kitgum
kithai
kitharu
kiti
kitigrinya
kitime
kitimor
kitivo
kito
kitonga
kitongoji
kitorricelli
kitoto
kitovu
kitoweo
kitropiki
kitts
kitu
kituamotu
kitubio
kitui
kitume
kitunda
kitunguu
kituo
kiturki
kituruki
kitutu
kiu
kiua
kiuchumi
kiufundi
kiujumla
kiukraine
kiukreni
kiulaya
kiumbe
kiumbehai
kiume
kiunganishi
kiungo
kiuno
kiunoni
kiunzi
kiurali
kiurdu
kiutamaduni
kiutawala
kiutendaji
kiutu
kivietinamu
kivietnam
kivinjari
kivinje
kivita
kivolkeno
kivu
kivuka
kivuko
kivuli
kivumishi
kivutio
kiwa
kiwakilishi
kiwambo
kiwanda
kiwandani
kiwango
kiwanja
kiwavi
kiwe
kiwelsh
kiwewe
kiwik
kiwiliwili
kixhosa
kiyahudi
kiyaka
kiyoruba
kiyunani
kizalendo
kizazi
kizhuang
kizima
kizingiti
kizio
kizito
kizole
kizuio
kizuizi
kizuizini
kizulu
kizungu
kizunguzungu
kizuri
kj
kk
kkk
kkkt
kl
klabu
klamidia
klara
klaudio
klaus
klein
klementi
kleopatra
klerk
kliniki
kln
klorini
klose
kluwer
km
kn
knappert
knbs
knew
knight
knock
knopf
know
knowledge
knowles
known
knox
knyga
ko
kobayashi
kobe
koch
kocha
kochi
kodi
koffi
koffikro
kofi
kofia
kojo
koki
koko
kokoto
kokwa
kol
koli
kolkata
koln
kolokolo
kolombia
koloni
kolumbia
kolumbus
kom
koma
komba
kombe
kombo
kombora
komori
komoro
kompilesheni
kompyuta
komunyo
kona
konde
kondo
kondoa
kondomu
kondoo
kong
kongamano
kongo
kongoni
kongosho
kongwa
kongwe
koni
konigsberg
konokono
konrad
konsonanti
konstantino
konstantinopoli
konstanz
kontena
konventi
kony
konya
konyeza
koo
kool
kopi
kopo
kor
kora
korea
korean
koreshi
korhogo
korintho
koro
korobindo
korogoto
korogwe
koromeo
korongo
korosho
korti
kosa
kosoko
kosovo
kosta
kota
kote
koti
kotido
kotikosteroidi
kotisoli
kouadiokro
kouamekro
kouassi
kouassikro
kouyate
kovu
kozi
kp
kq
kr
krai
krakow
kramer
krapf
krebs
krete
kriketi
krim
krioli
krishna
krismasi
krisostomo
kristen
kristo
kristoforo
kroatia
kromosomu
kruger
ks
ksiega
kt
ku
kua
kuabudu
kuacha
kuachana
kuachia
kuachiliwa
kuachwa
kuadhimisha
kuagiza
kuahidi
kuainisha
kuainishwa
kuajiri
kuajiriwa
kuala
kuambatana
kuambukiza
kuambukizwa
kuamini
kuaminika
kuamka
kuamsha
kuamua
kuamuru
kuandaa
kuandaliwa
kuandamana
kuandika
kuandikwa
kuangalia
kuangaliwa
kuangamiza
kuangamizwa
kuanguka
kuanza
kuanzia
kuanzisha
kuanzishwa
kuapishwa
kuashiria
kuasi
kuathiri
kuathirika
kuathiriwa
kuba
kubadili
kubadilika
kubadilisha
kubadilishana
kubadilishwa
kubaini
kubainisha
kubaki
kubalehe
kubana
kubashiri
kubatizwa
kubeba
kubebea
kubebwa
kubo
kubomoa
kuboresha
kuboreshwa
kubuni
kubuniwa
kuburudisha
kubwa
kucha
kuchagua
kuchaguliwa
kuchakulo
kuchambua
kuchamsitu
kuchanganya
kuchanganyikiwa
kuchanganywa
kuchangia
kuchapa
kuchapisha
kuchapishwa
kuchekesha
kuchelewa
kuchelewesha
kuchemka
kuchemsha
kucheza
kuchezea
kuchezwa
kuchimba
kuchipua
kuchochea
kuchoka
kuchoma
kuchomwa
kuchonga
kuchora
kuchukua
kuchukuliwa
kuchunga
kuchunguza
kuchunguzwa
kudai
kudhaminiwa
kudhani
kudhibiti
kudhibitisha
kudhibitiwa
kudhihirisha
kudhoofika
kudhoofisha
kudhuru
kudokeza
kudumisha
kudumu
kudunga
kudungwa
kuelea
kuelekea
kuelekeza
kuelekezwa
kuelewa
kuelewana
kueleweka
kueleza
kuelezea
kuelezwa
kuelimisha
kuenda
kuendana
kuendelea
kuendeleza
kuendelezwa
kuendesha
kuendeshwa
kuenea
kueneza
kuenezwa
kuepuka
kuepukana
kuepusha
kufa
kufaa
kufadhili
kufafanua
kufafanuliwa
kufahamika
kufahamu
kufaidika
kufanana
kufanikisha
kufanikiwa
kufanya
kufanyia
kufanyika
kufanyiwa
kufanywa
kufariki
kufaulu
kufeli
kufia
kuficha
kufichua
kufidia
kufifia
kufika
kufikia
kufikiri
kufikiria
kufikirika
kufikisha
kufikiwa
kufiwa
kufuata
kufuatana
kufuatia
kufuatilia
kufuatiwa
kufuatwa
kufufua
kufufuka
kufuga
kufugwa
kufukuza
kufukuzwa
kufuli
kufuma
kufundisha
kufundishia
kufundishwa
kufunga
kufungana
kufungia
kufungua
kufunguliwa
kufungwa
kufunika
kufunikwa
kufunua
kufunza
kufurahia
kufurahisha
kufuta
kufutwa
kufuzu
kufyonza
kuganda
kugandisha
kugawa
kugawana
kugawanya
kugawanyika
kugawanywa
kugawiwa
kugeuka
kugeuza
kugeuzwa
kugombea
kugonga
kugundua
kugunduliwa
kugusa
kuhakikisha
kuhalalisha
kuhama
kuhamahama
kuhamasisha
kuhamia
kuhamisha
kuhamishiwa
kuhamishwa
kuhani
kuhara
kuharakisha
kuharibika
kuharibiwa
kuharibu
kuhariri
kuharisha
kuhatarisha
kuhesabiwa
kuhesabu
kuheshimiwa
kuheshimu
kuhifadhi
kuhifadhia
kuhifadhiwa
kuhiji
kuhimili
kuhimiza
kuhisi
kuhitaji
kuhitajika
kuhitimu
kuhojiwa
kuhubiri
kuhudhuria
kuhudumia
kuhudumu
kuhukumiwa
kuhukumu
kuhusiana
kuhusika
kuhusisha
kuhusishwa
kuhusu
kuiba
kuibua
kuibuka
kuichezea
kuifanya
kuiga
kuigiza
kuigwa
kuiita
kuimarika
kuimarisha
kuimarishwa
kuimba
kuimbwa
kuingia
kuingilia
kuingiliana
kuingiliwa
kuingiza
kuingizwa
kuinjilisha
kuinua
kuinuka
kuipa
kuipanua
kuiper
kuisaidia
kuisha
kuishi
kuishia
kuisi
kuita
kuitengeneza
kuitikia
kuitisha
kuitoa
kuitumia
kuitwa
kuiva
kuiwakilisha
kuiweka
kuja
kujaa
kujadili
kujadiliana
kujali
kujamiiana
kujaribu
kujaza
kujenga
kujengwa
kujeruhiwa
kujiamini
kujiandaa
kujiandikisha
kujibu
kujieleza
kujiendeleza
kujiendesha
kujiepusha
kujifanya
kujificha
kujifungua
kujifunza
kujihami
kujihusisha
kujiingiza
kujiita
kujikana
kujikaza
kujikimu
kujikinga
kujilinda
kujilisha
kujinyima
kujiona
kujiondoa
kujipatia
kujirudia
kujishughulisha
kujisikia
kujitafutia
kujitahidi
kujitambua
kujitambulisha
kujitawala
kujitegemea
kujitenga
kujitetea
kujitoa
kujitokeza
kujitolea
kujiua
kujiunga
kujiuzulu
kujiweka
kujua
kujulikana
kujumlisha
kujumuisha
kujumuishwa
kukaa
kukabidhi
kukabidhiwa
kukabili
kukabiliana
kukadiria
kukadiriwa
kukagua
kukaliwa
kukamata
kukamatwa
kukamilika
kukamilisha
kukandamiza
kukanusha
kukaribia
kukariri
kukata
kukataa
kukataliwa
kukataza
kukatwa
kukauka
kukausha
kukawa
kukaza
kuketi
kuki
kukidhi
kukielewa
kukimbia
kukimbilia
kukinga
kukiri
kukiwa
kukodisha
kukohoa
kukojoa
kukoma
kukomaa
kukomboa
kukomesha
kukomeshwa
kukosa
kukosea
kukosekana
kukosoa
kuku
kukua
kukubali
kukubaliana
kukubalika
kukubaliwa
kukulia
kukumbuka
kukusanya
kukusanyika
kukusudia
kukuta
kukutana
kukuza
kukuzwa
kukwepa
kula
kulabu
kulala
kulazimisha
kulazimishwa
kulazwa
kule
kulea
kulelewa
kulenga
kuleta
kuletwa
kulevya
kulia
kulifanya
kuliko
kulikuwa
kulima
kulinda
kulindwa
kulingana
kulinganisha
kulinganishwa
kulipa
kulipia
kulipiza
kulipuka
kulipwa
kulisababisha
kulisha
kulitokea
kuliwa
kulungu
kum
kumaanisha
kumaliza
kumalizia
kumalizika
kumar
kumasi
kumb
kumbe
kumbi
kumbuka
kumbukumbu
kumchagua
kumchukua
kumekuwa
kumeng
kumeza
kumezwa
kumfanya
kumfanyia
kumfuata
kumheshimu
kumi
kumiliki
kumiminiwa
kumjua
kumkamata
kumkubali
kumlazimisha
kumlea
kumlinda
kumpa
kumpata
kumpatia
kumpeleka
kumpenda
kumpendeza
kumpiga
kumpindua
kumpokea
kumrudisha
kumruhusu
kumsaidia
kumshambulia
kumshawishi
kumshinda
kumshirikisha
kumsifu
kumsikiliza
kumtafuta
kumtaja
kumtambulisha
kumtangaza
kumtazama
kumtegemea
kumtembelea
kumteua
kumtia
kumtii
kumtoa
kumtolea
kumtumikia
kumuabudu
kumudu
kumuita
kumuoa
kumuomba
kumuona
kumuua
kumuunga
kumwacha
kumwaga
kumwagilia
kumwambia
kumwamini
kumweka
kumwezesha
kumwita
kumwokoa
kumwona
kumwondoa
kumwua
kumzaa
kumzuia
kun
kuna
kunakili
kunako
kunatokea
kunawa
kunaweza
kunde
kundi
kundinyota
kunene
kung
kunguni
kunguru
kungwi
kuni
kunst
kununua
kununuliwa
kunusa
kunyakua
kunyang
kunyimwa
kunyongwa
kunyonya
kunyonyesha
kunyoosha
kunywa
kuoa
kuoana
kuoga
kuogelea
kuogopa
kuoka
kuokoa
kuolewa
kuomba
kuombaomba
kuomintang
kuona
kuonana
kuondoa
kuondoka
kuondolewa
kuonekana
kuonesha
kuongea
kuongeza
kuongezea
kuongezeka
kuongezewa
kuongezwa
kuongoka
kuongoza
kuongozwa
kuonja
kuonyesha
kuonyeshwa
kuorodhesha
kuosha
kuota
kuoza
kupaa
kupaka
kupakua
kupamba
kupambana
kupanda
kupandana
kupandisha
kupandishwa
kupandwa
kupanga
kupangwa
kupanua
kupanuka
kupanuliwa
kupasha
kupasua
kupasuka
kupata
kupatana
kupatanisha
kupatikana
kupatwa
kupe
kupeana
kupeleka
kupelekea
kupelekwa
kupeleleza
kupenda
kupendana
kupendekeza
kupendekezwa
kupendelea
kupendeza
kupendwa
kupenya
kupewa
kupiga
kupigana
kupigania
kupigia
kupigwa
kupika
kupikia
kupikwa
kupima
kupimia
kupimwa
kupindua
kupindukia
kupinduliwa
kupinga
kupingana
kupingwa
kupita
kupitia
kupitisha
kupitishwa
kupoa
kupokea
kupokelewa
kupokewa
kupokezana
kupona
kuponya
kupooza
kuporomoka
kupotea
kupotewa
kupoteza
kupoza
kupro
kupuliza
kupumua
kupumzika
kupungua
kupunguka
kupungukiwa
kupunguza
kupunguzwa
kupuuza
kupuuzia
kura
kurahisisha
kurani
kurap
kurasa
kuratibu
kurdish
kurefusha
kurejea
kurejelea
kurejesha
kurekebisha
kurekebishwa
kurekodi
kurekodiwa
kurene
kuria
kuridhika
kuridhisha
kuripoti
kuripotiwa
kurithi
kurithiwa
kuro
kurt
kurudi
kurudia
kurudisha
kurudishwa
kurudiwa
kuruhusiwa
kuruhusu
kuruka
kurumbiza
kurusha
kurushwa
kusababisha
kusababishwa
kusadiki
kusafiri
kusafirisha
kusafirishwa
kusafisha
kusafishwa
kusaga
kusagwa
kusahau
kusahihisha
kusaidia
kusaidiana
kusaidiwa
kusaini
kusainiwa
kusajili
kusajiliwa
kusali
kusambaa
kusambaratika
kusambaza
kusambazwa
kusamehe
kusawazisha
kusema
kush
kushambulia
kushambuliwa
kushangaza
kushauriana
kushawishi
kusherehekea
kushika
kushikamana
kushikilia
kushikwa
kushinda
kushindana
kushindwa
kushiriki
kushirikiana
kushirikisha
kushirikishwa
kushona
kushoto
kushtakiwa
kushughulika
kushughulikia
kushuhudia
kushuka
kusi
kusifiwa
kusifu
kusikia
kusikika
kusikiliza
kusikitisha
kusimama
kusimamia
kusimamisha
kusimamishwa
kusimamiwa
kusimulia
kusini
kusinimashariki
kusisimua
kusisitiza
kusitisha
kusogea
kusoma
kusomea
kusomwa
kusonga
kustaafu
kustahili
kustahimili
kustawi
kustawisha
kusubiri
kusudi
kusukuma
kusukumwa
kut
kuta
kutabiri
kutafakari
kutafiti
kutafsiri
kutafsiriwa
kutafuna
kutafuta
kutaga
kutahiriwa
kutahya
kutaja
kutajwa
kutaka
kutakasa
kutakaswa
kutakuwa
kutamani
kutambua
kutambulika
kutambulisha
kutambuliwa
kutamka
kutangamana
kutangaza
kutangazwa
kutangulia
kutapika
kutarajia
kutathmini
kutatua
kutawala
kutawaliwa
kutayarisha
kutayarishwa
kutazama
kutazamwa
kutegemea
kutegemeana
kutegemewa
kuteka
kutekeleza
kutekelezwa
kutekwa
kuteleza
kutembea
kutembelea
kutembelewa
kutenda
kutenga
kutengana
kutenganisha
kutengeneza
kutengenezea
kutengenezwa
kutengeza
kutengwa
kuteseka
kuteswa
kutetea
kuteua
kuteuliwa
kuthibitisha
kuthibitishwa
kuti
kutia
kutibiwa
kutibu
kutii
kutilia
kutimiza
kutiririka
kutisha
kutishia
kutiwa
kutoa
kutoboa
kutofanya
kutofaulu
kutofautiana
kutofautisha
kutofautishwa
kutojali
kutoka
kutokana
kutokea
kutokomeza
kutokuwa
kutokuwepo
kutokwa
kutolea
kutolewa
kutomba
kutoroka
kutosha
kutosheleza
kutoweka
kutoweza
kutu
kutua
kutubu
kutulia
kutuliza
kutuma
kutumbuiza
kutumia
kutumika
kutumikia
kutumiwa
kutumwa
kutunga
kutungwa
kutunukiwa
kutunza
kutunzwa
kutupa
kutupwa
kutwa
kutwaa
kutwaliwa
kuu
kuua
kuuawa
kuufanya
kuufikia
kuugua
kuuliza
kuumba
kuume
kuumia
kuumwa
kuunda
kuundwa
kuunga
kuungana
kuunganisha
kuunganishwa
kuungwa
kuuza
kuuzwa
kuvaa
kuvamia
kuvamiwa
kuvimba
kuvu
kuvua
kuvuja
kuvuka
kuvukia
kuvuma
kuvumbua
kuvumilia
kuvuna
kuvunja
kuvunjika
kuvunjwa
kuvuruga
kuvuta
kuvutia
kuvutiwa
kuvutwa
kuwa
kuwaachia
kuwaambia
kuwaelimisha
kuwafanya
kuwafukuza
kuwafundisha
kuwahi
kuwahudumia
kuwait
kuwaita
kuwajibika
kuwaka
kuwakamata
kuwakilisha
kuwalazimisha
kuwalinda
kuwania
kuwaokoa
kuwaombea
kuwaona
kuwaondoa
kuwaongoza
kuwapa
kuwapatia
kuwapeleka
kuwapiga
kuwarudisha
kuwaruhusu
kuwasaidia
kuwasha
kuwashambulia
kuwashinda
kuwashirikisha
kuwasili
kuwasiliana
kuwasilisha
kuwatia
kuwatunza
kuwaua
kuwaunganisha
kuwavuta
kuwaweka
kuwawezesha
kuwaza
kuwazuia
kuwe
kuweka
kuwekea
kuwekeza
kuwekwa
kuwepo
kuweza
kuwezesha
kuwinda
kuyafanya
kuyeyuka
kuyeyusha
kuzaa
kuzaliana
kuzalisha
kuzalishwa
kuzaliwa
kuzama
kuzeeka
kuzi
kuziba
kuzidi
kuzidisha
kuzika
kuzikwa
kuzima
kuzimu
kuzindua
kuzinduliwa
kuzingatia
kuzingatiwa
kuzitumia
kuzoea
kuzorota
kuzua
kuzuia
kuzuiliwa
kuzuiwa
kuzuka
kuzunguka
kuzungumza
kuzungumzia
kuzungusha
kuzuru
kv
kw
kwa
kwaajili
kwabena
kwaito
kwake
kwako
kwale
kwamba
kwame
kwangu
kwani
kwanini
kwanta
kwanza
kwanzia
kwao
kwarara
kwaresima
kwasababu
kwaya
kwazulu
kweche
kweli
kwenda
kweneng
kwenu
kwenye
kwenzi
kwera
kwerba
kwesi
kwetu
kwimba
kwingine
kwingineko
kwisha
kwk
kx
ky
kyambogo
kyanga
kyankwanzi
kyegegwa
kyela
kyenjojo
kyerwa
kyle
kyoga
kyoto
kyrgyzstan
kz
l
l0
l1
l2
l3
l4
l5
l6
l7
l8
l9
la
laana
lab
labda
label
labor
laboratory
labour
labrador
lac
lacaille
laden
ladha
ladies
lady
lafudhi
laga
lagh
lagos
lahaja
lahore
lai
laikipia
laini
laizer
lak
lake
lakes
lakhi
laki
lakini
lako
lakota
lalibela
lam
lama
lamaanisha
lamb
lambert
lambeth
lambo
lami
lamu
lamwo
lan
lanca
lancaster
lance
lancet
land
lands
landscape
lane
lang
langa
lange
langenburg
lango
langu
language
languages
langue
langur
lanham
lanius
lanka
lao
laos
laozi
lapidge
lara
large
largest
lark
larry
lars
larter
las
laser
last
lat
late
later
laterano
latest
latifah
latin
latina
latino
latitude
latitudo
latokana
latumiwa
latvia
lau
laughingthrush
launch
launched
launches
laura
lauren
laurence
laurent
laurenti
laurie
lauryn
lava
law
lawama
laweza
lawrence
laws
lawyer
lay
layiwola
lazaro
lazarus
lazima
lazio
lb
lc
ld
ldp
le
lea
lead
leader
leaders
leadership
leading
leads
leaf
league
leah
leakey
leandro
learn
learned
learning
least
leave
leaves
leaving
lebanon
lebanoni
leben
lebo
lecrae
lecture
lectures
led
lee
leeds
leff
left
legacy
legal
legend
legendary
legends
legged
leicester
leiden
leigh
leila
leipzig
lela
lembata
lemur
lemuri
lena
lenana
leng
lengo
lenin
lent
lenye
lenyewe
lenzi
leo
leon
leonard
leonardo
leone
leopard
leopards
leopold
lepus
lerins
leroy
les
lesbian
lescharts
leseni
leslie
lesotho
lesser
lesson
lessons
lester
let
letheobia
letter
letters
lettow
lettres
letu
leuven
level
levels
leverkusen
levi
levin
levine
leviticus
levy
lewis
lexicon
lexikon
lexington
ley
leza
lf
lg
lgbt
lh
li
lib
liber
liberal
liberalism
liberation
liberia
liberty
librairie
libraries
library
libreria
libreville
libri
libya
license
licha
licinius
licypriya
lie
liechtenstein
liege
lien
lies
life
lifestyle
lifetime
liga
light
lighthouse
lightning
lights
ligi
ligue
liguria
liitwalo
lijulikanalo
likabadilishwa
likaendelea
likaja
likawa
like
likely
likimaanisha
likiongozwa
likiwa
likizo
liko
lil
lilanga
lile
lilelile
lilian
lilianza
lilianzishwa
lilibadilishwa
lilichaguliwa
lilichapishwa
liliendelea
lilifanya
lilifanyika
lilifunguliwa
liliingia
liliitwa
lilijengwa
lilijulikana
lilijumuisha
lilikua
lilikuja
lilikuwa
lililo
lililoanzishwa
lililofanyika
lililoitwa
lililojengwa
lililoko
lililokuwa
lililopo
lililotokana
lililotolewa
lililoundwa
lilipata
lilipelekea
lilipewa
lilisababisha
lilishindwa
lilitangaza
lilitoa
lilitokana
lilitokea
lilitolewa
lilitumika
lilitumiwa
liliundwa
lilivyo
lille
lillian
lilly
lilongwe
lily
lima
limburg
limburgish
limekuwa
limepakana
limetajwa
limetokana
limfu
limited
limits
limo
limoges
limpopo
lin
lina
linaanza
linaendelea
linafanana
linafanya
linafuata
linahusiana
linaitwa
linajulikana
linajumuisha
linalenga
linalofanana
linaloitwa
linalojulikana
linalomaanisha
linaloonekana
linalopatikana
linalosababisha
linalotokana
linalotumika
linalotumiwa
linalovaliwa
linaloweza
linalozunguka
linamaanisha
linamheshimu
linaonekana
linaonyesha
linapakana
linapatikana
linataja
linatoka
linatokana
linatumika
linatumiwa
linaunda
linaundwa
linaweza
lincoln
linda
lindi
lindsay
lindsey
lindwa
line
lines
ling
linganisha
lingine
lingua
linguistic
linguistics
lini
link
linked
linkedin
linkinghub
links
linnaeus
linux
lion
lionel
lions
lipo
lippincott
lira
lisa
lisbon
lishe
lisilo
list
lista
listed
listen
listing
lists
liszt
lit
lita
litakuwa
literacy
literally
literary
literature
literatures
lithuania
little
littlefield
lituanya
liturgia
liturgical
liturgy
liturujia
liu
live
lived
liver
liverpool
lives
living
livingstone
livre
livres
liwale
liwali
liwe
liz
liza
lizard
lj
lk
ll
llc
llorona
lloyd
lm
ln
lo
loan
loando
loc
local
localites
localities
location
lock
locke
locust
lodge
lodi
loeb
log
logan
logic
logos
loh
loire
lola
lolo
lolote
lombardia
lome
lomonosov
lonchura
london
lonely
long
longer
longido
longitude
longitudo
longman
longmans
look
looking
looks
lopes
lopez
lophuromys
lord
lorenzo
lori
loroupe
lorraine
los
lose
loss
lost
lot
lote
lou
loud
louis
louise
louisiana
louisville
lourdes
louvain
louw
love
loved
lover
lovers
loves
loving
low
lowassa
lowell
lower
loyola
lp
lq
lr
lra
ls
lt
ltd
lu
lua
luanda
lubumbashi
luc
luca
lucas
lucca
lucia
lucius
luck
lucky
lucy
ludewa
ludoviko
ludwig
lufthansa
lugalo
lugha
luhya
luigi
luis
luisa
luiz
luka
lukas
luke
lulu
lumen
lumpur
lumumba
luna
lunar
lund
lunda
lung
luo
lupita
lupus
lusaka
lushoto
lusia
luteni
luther
lutheran
luv
luweero
luxembourg
luxemburg
luxor
luy
lv
lw
lx
ly
lydia
lyle
lynch
lynn
lynx
lyon
lyons
lyrics
lz
m
m0
m1
m2
m3
m4
m5
m6
m7
m8
m9
ma
maabadi
maabara
maada
maadhimisho
maadili
maadui
maafa
maafisa
maagizo
maajabu
maalum
maalumu
maambukizi
maambukizo
maamuzi
maana
maanani
maandalizi
maandamano
maandiko
maandishi
maangamizi
maarifa
maarten
maarufu
maasai
maasi
maaskofu
maazimio
mababa
mababu
mabadiliko
mabadilishano
mabaharia
mabaka
mabaki
mabalozi
mabamba
mabandari
mabango
mabano
mabao
mabara
mabaraza
mabasi
mabata
mabati
mabavu
mabawa
mabaya
mabega
mabehewa
mabeki
mabenki
mabichi
mabikira
mabingwa
mabinti
mabishano
maboga
maboma
mabomba
mabomu
mabonde
mabondia
maboresho
maboti
mabradha
mabuu
mabwana
mabwawa
mabweni
mac
macaca
macaque
macarthur
macau
macbeth
macdonald
machache
machafu
machafuko
machakos
machame
machapisho
machar
machel
machi
machiavelli
machifu
machimbo
machine
machines
macho
machoni
machotara
machozi
machungwa
machweo
mack
mackinnon
macmillan
mad
mada
madagascar
madagascariensis
madagaska
madai
madaktari
madam
madame
madan
madaraja
madaraka
madarakani
madarasa
madawa
made
madeira
madeleine
madeni
madereva
madhabahu
madhara
madhehebu
madhubuti
madhumuni
madi
madihano
madina
madini
madirisha
madison
madiwani
madness
madoa
madoadoa
madogo
madogomadogo
madola
madonda
madondoo
madonna
madrasa
madre
madrid
maduka
madukani
madume
madusa
mae
maelekeo
maelekezo
maelewano
maelezo
maelfu
maembe
maendeleo
maeneo
mafanikio
mafarakano
mafarao
mafarisayo
mafia
mafigo
mafinga
mafua
mafukara
mafumbo
mafundi
mafundisho
mafungo
mafunjo
mafunzo
mafupi
mafuriko
mafuta
mag
magadi
magaidi
magallanes
magamaga
magamba
maganda
magari
magavana
magazeti
magazine
magdalena
magdalene
magellan
magendo
magereza
mageuko
mageuzi
magharibi
maghofu
maghreb
magic
magimba
magma
magna
magnificent
magnus
magofu
magogo
magoli
magongo
magonjwa
magoti
magpie
magu
magufuli
magugu
magumu
magurudumu
mahaba
mahabharata
mahakama
mahakamani
mahakimu
mahala
mahalapye
mahali
mahangaiko
maharage
maharagwe
maharamia
maharashtra
mahari
mahatma
mahdi
mahe
mahekalu
mahenge
maher
mahesabu
mahia
mahindi
mahiri
mahitaji
mahler
mahmoud
maho
mahojiano
mahoteli
mahsusi
mahubiri
mahudhurio
mahusiano
mahususi
mahututi
mai
maigizo
mail
maili
maimamu
main
maindio
maine
maingiliano
mainz
maior
maisha
maishani
maiti
majadiliano
majaji
majambazi
majanga
majangwa
majani
majaribio
majaribu
majarida
majenerali
majengo
majeraha
majeruhi
majeshi
maji
majibu
majid
majiji
majike
majilio
majimaji
majimbo
majina
majini
majira
majirani
majiranukta
majivu
majivuno
major
majorelle
majukumu
majukwaa
majuma
majumba
majuto
majuzi
mak
maka
makaa
makabaila
makabila
makaburi
makaburu
makadara
makadirio
makahaba
makaisari
makaizari
makaka
makala
makali
makamba
makambako
makambi
makamo
makampuni
makamu
makanisa
makao
makardinali
makari
makasia
makasisi
makavu
makazi
make
makeba
makedonia
maker
makerere
makers
makes
makete
makhalifa
maki
makinda
making
makini
makisio
makka
makleri
makocha
makofi
makoloni
makombe
makombora
makongoro
makorongo
makosa
maktaba
maktoum
makubaliano
makubwa
makueni
makuhani
makumbusho
makumi
makundi
makundinyota
makusanyo
makusudi
makutano
makuu
makwao
makwati
mal
malabar
malachi
malagarasi
malagasy
malaika
malaki
malala
malalamiko
malambo
malapterurus
malaria
malatya
malawi
malawian
malay
malaya
malaysia
malazi
malcolm
malden
male
malenga
malengelenge
malengo
malezi
mali
maliasili
malighafi
malik
maliki
malimwengu
malindi
malipizi
malipo
malisho
malkia
mall
malley
mallorca
malori
malta
maluku
mama
mamajusi
mamake
mamalia
mamaye
mamba
mambo
mamboleo
mameneja
mamia
mamilioni
mamlaka
mamluki
mammals
man
mana
manabii
manafwa
management
manager
managing
manaibu
manane
manase
manchester
manchuria
manda
mandarin
mande
mandela
mandera
mandhari
mandy
mane
maneno
manfred
mang
manga
mango
mangrove
manhattan
mani
manifesto
manii
manila
manisa
manisipaa
manispaa
manitoba
manjano
mankind
mann
manne
manning
manowari
mans
mantiki
manu
manual
manucho
manuel
manufaa
manukato
manuscript
manuscripts
many
manyara
manyasi
manyoni
manyoya
mao
maofisa
maombezi
maombi
maombolezo
maonesho
maongezi
maongozi
maoni
maono
maonyesho
maonyo
maovu
map
mapacha
mapadre
mapadri
mapafu
mapambano
mapambo
mapana
mapango
mapapa
mapatano
mapato
mapcarta
mapema
mapendekezo
mapendeleo
mapendo
mapenzi
mapezi
maphorisa
mapigano
mapigo
mapinduzi
mapishi
mapitio
mapokeo
mapokezi
maporomoko
mapping
maps
mapumziko
mapungufu
maputo
mapya
maqam
maqbool
maquis
mar
mara
maracha
maradhi
maradufu
marafiki
marahoue
marais
marakwet
marangu
marapa
marashi
marathon
marathoni
marburg
marc
marcel
march
marche
marcia
marco
marcos
marcus
mardin
mare
marefu
marehemu
marejeo
marekani
marekebisho
margaret
margareta
margarita
mari
maria
mariah
mariam
mariamu
marian
mariana
marianne
mariano
maridadi
marie
marijani
marilyn
marimba
marin
marina
marine
marino
mario
marion
maritime
marius
mark
market
marketing
markets
marko
marks
markus
marlene
marley
marlon
marmara
marne
maro
maroko
marrakech
marrakesh
marriage
married
marry
mars
marsabit
marseille
marsh
marshall
marta
martha
martial
martin
martinez
martinique
martino
martins
martinus
martiri
martyr
martyrdom
martyred
martyrologium
martyrology
martyrs
marudio
marufuku
marvel
marvin
marx
mary
maryam
maryland
mas
masaa
masaba
masafa
masahihisho
masai
masaka
masalia
masanduku
masanja
masashi
masasi
masedonia
masekela
mashabiki
mashahidi
mashairi
mashaka
mashamba
mashambani
mashambulio
mashambulizi
mashapo
mashariki
masharti
masharubu
mashauri
mashavu
mashemasi
mashimo
mashina
mashindano
mashine
mashirika
mashirikisho
mashitaka
mashoga
mashtaka
mashua
mashuhuri
mashujaa
mashuke
masi
masika
masikini
masikio
masilahi
masimo
masimulizi
masinde
masindi
masista
masiya
mask
maskani
maskat
masked
maskini
maslahi
masoko
masokwe
masomo
mason
mass
massachusetts
massacre
massimo
massive
mastaa
master
masters
masuala
masudi
masultani
maswa
maswala
maswali
mat
mata
matabaka
matabibu
matago
mataifa
mataji
matajiri
matakatifu
matakwa
matamanio
matamasha
matambiko
matamko
matamshi
matamu
matamvua
matangazo
matano
matarajio
matata
matatizo
matatu
matawi
matawimto
matayarisho
match
matches
mate
mateka
matembezi
matendo
matengenezo
mater
material
materials
maternal
mateso
matete
matetemeko
math
mathare
mathayo
mathematical
mathematics
mathias
mathwarehouse
matiba
matibabu
matini
matiti
matitiri
matofali
matokeo
matoleo
matone
matope
matrix
matrona
matt
matter
matters
matthew
matthews
matthias
matukio
matumaini
matumbawe
matumbo
matumizi
matunda
matundu
matupu
matusi
matuta
mau
maua
mauaji
maudhui
maumbile
maumbo
maumivu
maungamo
maungano
maureen
mauretania
maurice
mauritania
mauritius
mauro
maurus
mauti
mauzo
mavazi
mavi
mavoko
mavuno
mawaidha
mawakala
mawakili
mawasiliano
mawaziri
mawazo
mawe
mawese
mawili
mawimbi
mawindo
mawingu
max
maxeke
maxi
maxim
maximian
maximianus
maximilian
maximus
maxwell
may
maya
mayai
mayanja
mayatima
mayer
maynard
mayo
mayor
mayotte
mayr
mayuge
mazao
mazembe
mazima
mazingira
mazishi
mazito
maziwa
mazoea
mazoezi
mazungumzo
mazuri
mb
mba
mbadala
mbakweni
mbale
mbali
mbalimbali
mbangi
mbao
mbaraka
mbarali
mbarara
mbari
mbatizaji
mbavu
mbawakawa
mbaya
mbayuwayu
mbega
mbegu
mbeki
mbele
mbeleni
mbelewele
mbenedikto
mbevu
mbeya
mbezi
mbichi
mbidde
mbili
mbinga
mbingu
mbinguni
mbingusi
mbinu
mbio
mbira
mbiu
mbizi
mbochi
mboga
mbogo
mbogwe
mbolea
mbona
mboup
mbovu
mboya
mbozi
mbu
mbuai
mbuga
mbulu
mbung
mbunge
mbuni
mbunifu
mburudishaji
mbuzi
mbwa
mbwana
mbweha
mbwigu
mc
mccarthy
mccartney
mcdonald
mcfarland
mcgill
mcgrath
mcgraw
mcha
mchache
mchakato
mchambuzi
mchana
mchanga
mchanganyiko
mchangiaji
mchango
mchapishaji
mchawi
mchekeshaji
mchele
mcheza
mchezaji
mchezo
mchimbaji
mchongaji
mchoraji
mchoro
mchuano
mchujo
mchumba
mchungaji
mchuzi
mchwa
mckenzie
mclaughlin
mclean
mcnamara
mcqueen
md
mda
mdee
mdhamini
mdo
mdogo
mdomo
mdomoni
mdudu
mdundo
me
meac
mean
meaning
meanings
means
measure
measurement
measures
meat
meatu
mechanics
mechanisms
mechi
mecklenburg
med
medal
medali
medals
medani
media
mediaeval
medical
medici
medicine
medien
medieval
medikal
medina
meditation
mediteranea
mediterranean
medium
meer
meet
meeting
meets
mega
megan
megawati
mei
meiji
mein
meja
meksiko
mekundu
mel
melanesia
melanie
melbourne
meli
melissa
mellitus
melody
melvin
mema
membamba
membe
member
members
meme
memoir
memoirs
memorial
memories
memory
memphis
men
mende
mendel
mendes
meneja
menelik
mengi
mengine
mengineyo
mengistu
meningitis
meninjitisi
meno
mensah
mental
mentioned
mep
mer
mercer
mercredi
mercury
mercy
mere
meredith
merere
meri
merida
meridian
meridiani
merika
merikebu
merkel
merriam
merry
mersin
meru
meryl
mesa
mesopotamia
message
messenger
messi
messier
met
meta
metaboli
metacritic
metal
metali
metallurgy
metarhizium
methali
method
methodist
methods
metres
metro
metropolitan
metz
meupe
meusi
mexican
mexico
mexiko
meya
meyer
meza
mezani
mf
mfadhaiko
mfadhili
mfalme
mfano
mfanya
mfanyabiashara
mfanyakazi
mfanyikazi
mfaransa
mfereji
mfiadini
mfiduo
mfinyanzi
mfransisko
mfuasi
mfuatano
mfufuka
mfugaji
mfuko
mfukoni
mfululizo
mfumo
mfungaji
mfungo
mfungwa
mfupa
mfupi
mg
mga
mgahawa
mgando
mganga
mgawanyiko
mgawanyo
mgeni
mgh
mgiriki
mgodi
mgogoro
mgombea
mgomo
mgongano
mgongo
mgongoni
mgonjwa
mgumu
mgunduzi
mgunga
mguu
mguuni
mh
mhadhiri
mhalifu
mhandisi
mhanga
mhariri
mhasibu
mheshimiwa
mhimili
mhindi
mhispania
mhitimu
mholanzi
mhozo
mhubiri
mhudumu
mhusika
mi
mia
miaka
miakanuru
miale
miali
miamba
miami
miandiko
mianga
mianzi
mic
micah
mich
michache
michael
michakato
michanganyiko
michango
miche
michel
michelangelo
michele
michelle
micheweni
michezo
michigan
michirizi
michoro
michuano
michuzi
mick
mickey
micro
microbial
microbiol
microbiology
microsoft
mid
middle
midi
midlands
midnight
midogo
midomo
midundo
mieleka
mielekeo
mien
miendo
mienendo
miezi
mifano
mifereji
mifflin
mifugo
mifuko
mifululizo
mifumo
mifupa
mifupi
migahawa
might
migne
migodi
migogoro
migomba
migomo
migori
migraine
migration
miguel
migumu
miguso
miguu
miguuni
mihadhara
mihigo
mihogo
miiba
miikka
miili
miinuko
miito
mijadala
miji
mijikenda
mijini
mijusi
mika
mikaeli
mikahawa
mikakati
mikali
mikataba
mikate
mike
mikhail
mikia
mikindani
mikoa
mikoko
mikondo
mikono
mikononi
mikopo
mikronesia
mikubwa
mikufu
mikuki
mikunga
mikusanyiko
mikutano
mikuu
mil
mila
milan
milango
milano
mile
milele
milenia
miles
milia
milian
miligramu
miliki
milikishi
milima
milimani
milimita
milio
milioni
milipuko
military
milk
milki
milky
mill
millard
mille
millennium
miller
million
millioni
millions
mills
milne
milo
milton
milwaukee
mimba
mimea
mimi
min
mina
minajili
minane
minara
mind
mindanao
minds
mine
minene
mineral
ming
mingi
mingine
minh
mini
mining
minister
ministers
ministres
ministry
minne
minneapolis
minnesota
minor
minority
minute
minutes
minyoo
minyororo
miocene
miondoko
miongo
miongoni
miongozo
mionzi
mioyo
mipaka
mipangilio
mipango
mipira
mipya
miraa
miraba
miracle
miracles
miradi
miranda
mirefu
miriam
mirihi
mirija
mirror
misa
misaada
misafara
misalaba
misale
misamiati
misemo
mishahara
mishale
misheni
mishipa
mishtuko
mishumaa
misikiti
misimamo
misimbo
misimu
misingi
misioni
misitu
misombo
misri
miss
missenyi
missing
mission
missionaries
missionary
missions
mississippi
missouri
mistari
misukosuko
misuli
misungwi
mit
mita
mitaa
mitaala
mitaani
mitaguso
mitambo
mitandao
mitano
mitatu
mitazamo
mitchell
mitego
mitelemko
mitende
miteremko
mithali
mitholojia
miti
mitihani
mitindo
mitini
mitishamba
mito
mitsubishi
mitume
mityana
miujiza
miundo
miundombinu
miungano
miungu
miviringo
miwa
miwani
miwili
mix
mixed
mixing
mixtape
miyombo
mizabibu
mizani
mizigo
miziki
mizimu
mizinga
mizizi
mizoga
mizozo
mizunguko
mizuri
mj
mja
mjadala
mjamzito
mjane
mjao
mjasiriamali
mjeledi
mjenzi
mjerumani
mji
mjinga
mjini
mjoho
mjomba
mjukuu
mjumbe
mjusi
mk
mkaa
mkaapweke
mkabaji
mkabala
mkaguzi
mkahawa
mkakati
mkalama
mkali
mkamilifu
mkanda
mkao
mkapa
mkarimu
mkasi
mkataba
mkate
mkato
mkatoliki
mkazi
mkazo
mke
mkenya
mkesha
mkewe
mkia
mkimbiaji
mkimbizi
mkinga
mkizi
mkoa
mkoani
mkojo
mkoloni
mkombozi
mkondo
mkondoni
mkonge
mkongo
mkongwe
mkono
mkononi
mkopo
mkosoaji
mkristo
mkubwa
mkufu
mkufunzi
mkuki
mkuku
mkulima
mkundu
mkunga
mkuranga
mkurugenzi
mkusanyiko
mkusanyo
mkutano
mkuu
mkwaju
mkwawa
mkwe
ml
mlalo
mlango
mlangobahari
mlangoni
mle
mlei
mlele
mlevi
mlezi
mlia
mlima
mlimani
mlinda
mlinzi
mlio
mlipuko
mlo
mlolongo
mm
mma
mmarekani
mmea
mmeng
mmenyuko
mmhg
mmiliki
mmisionari
mmoja
mmojammoja
mmojawao
mmojawapo
mmomonyoko
mmonaki
mmumunyo
mmwr
mn
mna
mnafiki
mnamo
mnana
mnandi
mnara
mnasaba
mnazi
mnene
mng
mno
mnunuzi
mnururisho
mnuvi
mnyama
mnyenyekevu
mnyofu
mnyoo
mnyororo
mo
mobile
mobo
mobutu
mode
model
modeli
models
modern
modernghana
modernity
module
moe
moen
mofimu
mogadishu
mohamed
mohammad
mohammed
mohinder
mohr
moi
mois
moise
moja
mojamoja
mojawapo
mojo
mol
mola
moldova
mole
molecular
molekiuli
molekuli
molekyuli
molly
molo
moma
momba
mombasa
moment
moments
mon
mona
monaco
monako
monarch
monarchy
monasteri
monasterini
monastery
monastic
monasticism
monday
monde
mondo
monduli
monetary
money
mongolia
mongoose
monica
monitor
monk
monkey
monks
mono
monographs
monroe
monrovia
monster
monsters
monsuni
mont
montana
monte
montenegro
montfort
montgomery
month
monthly
months
montpellier
montreal
montserrat
monument
monumenta
monuments
moody
moon
moor
moore
moral
morales
moran
moravia
moravian
more
moreno
morgan
mori
morisi
morning
morocco
morogoro
moroko
moronou
moroto
morris
morrison
morse
mort
mortality
morton
mosaic
moscow
mose
moses
moshi
mosley
mosque
moss
most
mostarda
mota
motacilla
mother
mothers
motion
motisha
moto
motokaa
motomoto
motoni
motor
motors
motown
moulinier
mount
mountain
mountains
mouse
mouskouri
moussa
mouth
move
movement
movements
movie
movies
moving
moyen
moyo
moyoni
mozambique
mozart
mp
mpaka
mpakani
mpana
mpanda
mpangaji
mpangilio
mpango
mpasuaji
mpasuambegu
mpasuko
mpate
mpelelezi
mpemba
mpendwa
mpenzi
mpevu
mpiga
mpigaji
mpiganaji
mpigi
mpigo
mpinzani
mpira
mpishi
mpito
mpla
mpokeaji
mpole
mps
mpumalanga
mpunga
mpwa
mpwapwa
mpya
mq
mr
mraba
mradi
mratibu
mrefu
mrema
mrembo
mrengo
mreno
mri
mrija
mrima
mrisho
mrithi
mrs
mrukaji
mrusi
ms
msaada
msafara
msafiri
msafsafi
msaidizi
msajili
msalaba
msalabani
msaliti
msamaha
msambao
msamiati
msanifu
msanii
msawazo
msc
msemaji
msemo
mseto
mshahara
mshairi
mshale
mshambuliaji
mshambulizi
mshangao
mshauri
mshigi
mshikamano
mshindani
mshindi
mshipa
mshirika
mshiriki
mshororo
mshtarii
mshtuko
msiba
msichana
msikiti
msimamizi
msimamo
msimbazi
msimbo
msimu
msimulizi
msingi
msisimko
msisitizo
msitu
msituni
msn
msnbc
msomaji
msomi
msongamano
msongo
msonobari
mstaafu
mstari
mstatili
msuguano
msukumo
msulubiwa
msumbiji
msururu
mswada
mswaki
mt
mtaa
mtaala
mtaalam
mtaalamu
mtaani
mtaarishaji
mtafiti
mtaguso
mtaji
mtakatifu
mtama
mtambo
mtamu
mtandao
mtandaoni
mtangazaji
mtango
mtangulizi
mtanzania
mtaro
mtawa
mtawala
mtawalia
mtawanyiko
mtayarishaji
mtayarishi
mtazamaji
mtazamo
mtego
mteja
mtelemko
mtemi
mtemvu
mtendaji
mtengenezaji
mteremko
mtetezi
mteule
mti
mtihani
mtindo
mtini
mtiririko
mtn
mto
mtoa
mtoaji
mtolondo
mtoni
mtoro
mtoto
mtu
mtukudzi
mtukufu
mtume
mtumiaji
mtumishi
mtumwa
mtungaji
mtungi
mtunzi
mtv
mtwara
mu
muandishi
muawiya
mubarak
mubashara
mubende
much
muda
mudavadi
muendelezo
mufindi
mugabe
mugirango
mugla
muhamad
muhammad
muhammed
muheza
muhimbili
muhimu
muhindi
muhogo
muhtasari
muhula
muhusika
muigizaji
muimbaji
muislamu
mujibu
mukasa
mukomberanwa
mukono
muktadha
muleba
muliro
muller
mullet
multi
multimedia
multiparty
multiple
multitree
mumbai
mume
mumewe
mumias
mun
munchen
mundo
mundu
mungiki
mungu
munia
munich
municipal
municipality
munro
munster
muonekano
muongo
muongozaji
muramvya
murang
murder
murphy
murray
murs
murut
mus
musa
muse
musee
museo
museum
museums
museveni
music
musica
musical
musician
musicians
musicline
musik
musique
musk
muslim
muslims
musoma
mussa
mussolini
must
mustafa
mustakabali
mustapha
muswada
musyoka
mutilation
muuaji
muuguzi
muujiza
muumba
muumini
muundaji
muundo
muunganiko
muungano
muungo
muuzaji
muyinga
muzik
muziki
mv
mvinyo
mviringo
mvomero
mvua
mvuke
mvulana
mvumbuzi
mvutano
mvuto
mw
mwa
mwadilifu
mwafaka
mwafrika
mwai
mwajiri
mwaka
mwakani
mwake
mwakikagile
mwakilishi
mwako
mwali
mwaliko
mwalimu
mwamba
mwambao
mwambaoni
mwamerika
mwaminifu
mwamko
mwamuzi
mwana
mwanaanga
mwanaanthropolojia
mwanaastronomia
mwanabiolojia
mwanachama
mwanadada
mwanadamu
mwanadiplomasia
mwanae
mwanafalsafa
mwanafizikia
mwanafunzi
mwanahabari
mwanaharakati
mwanahisabati
mwanahistoria
mwanaidi
mwanajeshi
mwanakandanda
mwanakemia
mwanakondoo
mwanamalundi
mwanamapinduzi
mwanamazingira
mwanamichezo
mwanamitindo
mwanamke
mwanamume
mwanamuziki
mwananchi
mwanangu
mwanao
mwanariadha
mwanasaikolojia
mwanasayansi
mwanasheria
mwanasiasa
mwanasoka
mwanasosholojia
mwanateolojia
mwanatheolojia
mwanaume
mwanawe
mwandamizi
mwandiko
mwandishi
mwanga
mwangalizi
mwangaza
mwangi
mwangu
mwangwi
mwani
mwanza
mwanzi
mwanzilishi
mwanzo
mwanzoni
mwao
mwarabu
mwario
mwaro
mwashinga
mwasho
mwasi
mwavuli
mweka
mwekundu
mwelekeo
mwema
mwembamba
mwembe
mwenda
mwendelezo
mwendesha
mwendo
mwene
mwenendo
mwenge
mwengine
mwenye
mwenyeji
mwenyekiti
mwenyewe
mwenyezi
mwenza
mwenzake
mwenzi
mwepesi
mwetu
mweupe
mweusi
mwezi
mwezini
mwiba
mwigizaji
mwiko
mwili
mwilini
mwimbaji
mwindaji
mwingereza
mwingi
mwingiliano
mwingine
mwinjili
mwinjilisti
mwinuko
mwinyi
mwisho
mwishoni
mwishowe
mwislamu
mwita
mwitalia
mwitikio
mwito
mwitu
mwituni
mwizi
mwokozi
mwonekano
mwongo
mwongozaji
mwongozo
mwovu
mx
my
myahudi
myanmar
myekundu
myembamba
myers
myeupe
myeusi
myeyungano
myjoyonline
myna
myra
myself
myspace
mysterious
mystery
mystic
mystical
myth
mythology
myths
mz
mzabibu
mzaha
mzalendo
mzalishaji
mzaliwa
mzansi
mzawa
mzazi
mzee
mzigo
mziki
mzima
mzinga
mzingo
mzio
mzito
mzizi
mzozo
mzumbe
mzungu
mzunguko
mzungumzaji
mzuri
mzushi
mzvee
n
n0
n1
n2
n3
n4
n5
n6
n7
n8
n9
na
naa
naacp
naam
nabii
nach
nachingwea
nacho
nacional
nadharia
nadhiri
nadia
nadra
nae
nafaka
nafasi
nafsi
nafuu
nagasaki
nagy
nahau
nahodha
nahum
nahumu
nai
naibu
naija
naili
nairobi
naivasha
naja
najd
nakala
nakamura
nakapiripirit
nakaseke
nakasongola
naked
nako
nakuru
nalo
nam
nama
namayingo
namba
nambari
name
named
names
nami
namib
namibia
naming
namna
namtumbo
namutumba
nan
nana
nancy
nandi
nane
nanga
nani
nantes
nanyamba
nanyi
nanyuki
nanyumbu
nao
naomi
naona
napak
naped
naples
napoleon
napoleoni
napoli
nara
narc
narok
narrative
naruto
nas
nasa
nasaba
nash
nashville
nasi
nasibu
nasser
nassim
nat
nataka
natal
natalie
natasha
nate
nathan
nathaniel
nation
national
nationale
nationalism
nations
native
natl
nato
natural
nature
nau
naughty
nauru
naval
navigation
navis
navy
navyo
nawa
nawaambieni
nawe
naweza
naye
nayo
nazareth
nazareti
nazi
nazianzo
nazianzus
nazo
nb
nba
nbc
nbs
nbsp
nc
ncaa
ncbi
ncha
nchani
nchi
nchini
nd
ndama
ndanda
ndani
ndebele
ndefu
ndege
ndevu
ndewe
ndicho
ndiko
ndilo
ndimi
ndimu
ndio
ndipo
ndivyo
ndiwe
ndiye
ndiyo
ndizi
ndizo
ndlovu
ndo
ndoa
ndogo
ndogondogo
ndondi
ndoo
ndoto
ndovu
ndp
nduati
ndugu
nduguye
ndui
ne
neal
near
nearly
nebbi
nebraska
nebula
nec
necessary
neck
necked
ned
nederlandse
nee
need
needs
neema
negative
negro
negus
nehemia
nehemiah
neil
neill
nejm
nejmoa
nel
neli
nell
nella
nelly
nelson
nembo
nenda
nene
neno
neo
nepal
nepali
neptuni
neri
neria
nero
nestori
nestorius
net
netflix
netherlands
network
networks
neu
neumann
neural
neurol
neurology
neuroni
neuropsychology
neurosci
neuroscience
neutroni
neva
nevada
nevado
never
neville
nevis
new
newadvent
newala
newark
newcastle
newfoundland
newly
newman
news
newsletter
newspaper
newspapers
newton
next
nf
nfl
ng
ngagi
ngamia
ngamiland
ngano
ngao
ngapi
ngara
ngarara
ngazi
nge
ngedere
ngeli
ngiri
ngo
ngogo
ngoma
ngombe
ngome
ngong
ngono
ngorongoro
ngowi
ngozi
nguchiro
ngugi
nguli
ngumi
ngumu
nguo
nguruwe
nguva
nguvu
nguvuni
nguyen
nguzo
ngwaketse
nh
nha
nhs
ni
nia
niaba
niagara
niassa
nic
nicaragua
nice
nicene
nicholas
nichols
nick
nickelodeon
nicky
nico
nicola
nicolas
nicole
nicolson
nidhamu
niels
nielsen
nietzsche
nigel
niger
nigeria
nigerian
night
nightingale
nightjar
nights
nih
nihan
nii
nijeria
nikaragua
nike
niki
nikiwa
nikola
nikolai
nikolasi
nikolaus
nikomedia
nikon
nikotini
nile
nilikuwa
nimonia
nina
nine
nineteenth
ninga
nini
ninja
nino
ninox
ninth
ninyi
nisa
nisea
nishani
nishati
nissan
nithi
nitrojeni
niwe
nixon
nj
njaa
njama
njano
nje
njegere
njema
njia
njiani
njiapanda
njiwa
njombe
njoo
njoro
njozi
njugu
nk
nkasi
nkiru
nkomo
nkosi
nkrumah
nkurunziza
nl
nlm
nm
nme
nn
nne
no
noaa
noah
nobel
noble
nobody
noel
noeli
noire
nokia
nola
nolan
nollywood
noma
nomenclature
nominated
nomination
nominations
nominees
nominis
nomino
non
nondo
noor
noord
nor
norbert
nord
nordic
norepinefrini
norfolk
norma
normal
norman
norment
norplant
norris
norte
north
northern
northumbria
northwest
northwestern
norton
norway
norwe
norwegian
norwei
norwich
nos
nosed
not
notable
note
noted
notes
nothing
noti
notice
notices
notorious
notre
nottingham
noun
nouveau
nouvelle
nouvelles
nov
nova
novel
novemba
november
novembre
novgorod
novo
now
np
npr
nq
nr
nrc
nrj
ns
nsdap
nsw
nt
nta
ntoroko
ntungamo
ntv
nu
nuba
nubia
nuclear
nuestra
nuestro
nueva
nuevo
nuhu
nukta
nukuu
number
numbers
numerical
numidia
nun
nunavut
nundu
nungu
nur
nurhaliza
nurse
nursia
nursing
nuru
nururifu
nusu
nusufamilia
nusukipenyo
nusumaisha
nusungeli
nusuoda
nusura
nususpishi
nusutropiki
nusutufe
nuthatch
nutrition
nuwas
nv
nvpi
nw
nwoya
nx
ny
nya
nyachae
nyadhifa
nyakati
nyakatu
nyama
nyamagana
nyamira
nyanda
nyandarua
nyando
nyang
nyangumi
nyani
nyanja
nyanya
nyanza
nyara
nyaraka
nyasa
nyasaland
nyasi
nyati
nyavu
nyaya
nyayo
nyege
nyekundu
nyembamba
nyembelele
nyemelezi
nyengine
nyenje
nyenzo
nyepesi
nyerere
nyeri
nyeti
nyeupe
nyeusi
nyigu
nyika
nyimbo
nyingi
nyingine
nyinginezo
nyiragongo
nyofu
nyoka
nyonga
nyongeza
nyongo
nyororo
nyota
nyotamkia
nytimes
nyufa
nyuki
nyuklia
nyuma
nyumba
nyumbani
nyumbu
nyundo
nyungan
nyungunyungu
nyuroni
nyuso
nyutroni
nyuzi
nyuzilandi
nyuzinyuzi
nywele
nywila
nz
nzega
nzi
nzige
nzima
nzito
nzoia
nzuri
o
o0
o1
o2
o3
o4
o5
o6
o7
o8
o9
oa
oak
oakland
oaks
oasisi
oates
ob
obadia
obama
obasanjo
obesity
obi
obinna
obiti
obituary
object
objects
oblast
obote
observations
observatory
observer
obstetrics
obstructive
oc
oca
occidental
occidentalis
occupational
ocean
oceania
och
ochs
oclc
oct
octoba
october
od
oda
odd
odds
ode
odessa
odi
odie
odienne
odinga
odm
odutola
odyssey
oe
oecd
oecumenici
oenanthe
of
ofa
off
offers
office
officer
officers
official
officially
officials
officiel
oficial
ofisa
ofisi
ofisini
ofm
often
og
ogani
ogania
oginga
ogooue
ogopa
ogun
oh
ohio
oi
oil
oj
ojih
ok
okapi
okavango
okayafrica
okello
oklahoma
okonkwo
okore
okoye
oksidi
oksijeni
okt
oktoba
ol
olac
olchorro
old
older
oldest
ole
olga
olimpbase
olimpiki
olive
oliveira
oliver
olivi
olivia
olivier
olkeju
olsen
olympia
olympic
olympics
olympus
om
oman
omani
omar
omari
omarion
ombaomba
ombe
ombi
ombwe
omdurman
omega
ommy
omnes
omnia
omo
on
ona
once
ondoa
one
onepage
ones
onesha
onesho
ong
ongala
ongezeko
online
only
ono
ontario
onyesho
onyo
oo
oort
op
oparesheni
open
opening
opens
opera
operating
operation
operations
operesheni
opin
opinion
opioidi
opportunities
opportunity
opposition
oprah
option
options
opus
oq
or
ora
oral
oran
orange
oranje
oratory
orbis
orchestra
order
orders
ordinary
ordo
ordu
oregon
org
organ
organic
organisation
organization
organizations
oricon
orient
oriental
orientale
orientales
orientalia
orientalis
orientalium
origen
origin
original
originally
origines
origini
origins
oriole
oriolus
orion
orlandi
orlando
orleans
oro
orodha
orodheshwa
oromia
orthodox
orthodoxwiki
orthodoxy
os
osaka
osama
osb
oscar
oscars
osei
osiris
oslo
osman
osmani
ostafrika
osun
oswald
ot
ota
other
others
otieno
ottawa
otter
otto
ottoman
otus
ou
oued
ouko
oup
our
out
outbreak
outcomes
outer
outlawz
outline
outlook
outside
outstanding
ov
ovari
over
overseas
overview
ovyo
ow
owen
owerri
owl
own
owusu
ox
oxfam
oxford
oxfordjournals
oy
oyam
oyo
oz
ozoni
p
p0
p1
p2
p3
p4
p5
p6
p7
p8
p9
pa
paa
pablo
pac
pace
pacha
pachydactylus
pacific
pader
padova
padre
padri
padua
pafu
pag
pagan
page
pages
pahala
pahali
paid
pain
paint
painted
painting
paintings
pais
paja
paji
pak
paka
pake
pakistan
pakistani
pakiti
pakomi
pakubwa
pal
pala
palace
palapye
palatino
palau
pale
palepale
palermo
palestina
palestine
palestinian
palgrave
palikuwa
palipo
pallas
palm
palma
palmas
palme
palmer
pam
pamba
pambano
pambo
pamela
pamoja
pampu
pan
pana
panama
panda
pande
pandemia
pandemic
panel
paneli
panga
pangani
pango
panorama
panther
panthera
panya
panzi
pao
paolo
paoneaanga
papa
papacy
papal
paper
paperback
papers
papias
papo
papua
par
para
parade
paradise
paradiso
parafujo
paraguay
parallel
parameter
parana
parare
parasite
parasites
pare
parents
parigi
parimatch
paris
parish
park
parker
parkinson
parks
parliament
parliamentary
parliamenterians
parma
parokia
paroko
parra
parrot
parrotbill
pars
parsons
part
parte
parties
partner
partners
partnership
partridge
parts
party
pas
pasaka
pascal
pasha
pasi
pasifiki
pasipo
pasipoti
paskali
pass
passage
passer
passes
passion
passiv
password
past
pasteur
pastor
pastoral
pat
pata
patagonia
patakatifu
pate
patel
path
pathogenesis
pathojeni
pathology
patience
patient
patients
pato
paton
patria
patriarch
patriarchate
patriarki
patrice
patricia
patrick
patriotic
patristic
patrologia
patron
patrum
patterns
patterson
patti
pau
paul
paula
pauli
paulina
pauline
paulinus
paulist
paulo
pauly
paundi
pauni
pavel
pavia
pay
payn
payne
pays
paz
pazia
pb
pbs
pc
pd
pdf
pe
peabody
peace
peak
pearce
pearl
pearson
peck
pediatr
pediatric
pediatrics
pedro
peek
pegasus
peke
pekee
pekupeku
pel
pele
pelican
pelusius
pemba
pembe
pembeni
pembetatu
pembezoni
pen
penalti
penalty
pendekezo
pendo
pengi
pengine
penginepo
pengo
penguin
penh
penicillin
peninsula
penisilini
penn
pennsylvania
penny
penseli
pensheni
pentateuch
pentecostal
pentekoste
penye
penyewe
penzi
people
peoplepill
peoples
pepe
pepo
peponi
peptidi
per
peramiho
percent
percussion
percy
pereira
perez
perfect
perform
performance
performing
period
perkins
permanenti
perpetua
perrin
perry
persecution
perseus
persia
persian
person
personal
personality
persons
perspective
perspectives
perth
peru
perugia
pesa
pet
peta
pete
peter
peters
petersburg
petersen
peterson
petit
petrarch
petrel
petro
petroli
petrus
petzell
pew
pezi
pezimgongo
pf
pg
ph
pharmacotherapy
phase
phd
phelsuma
phil
philadelphia
philemon
philip
philipp
philippa
philippe
philippians
philippine
philippines
phillip
phillips
philosopher
philosophers
philosophical
philosophie
philosophy
phnom
phoenix
phone
phonographic
phonology
photo
photographic
photographs
photography
photos
php
phyllis
phylloscopus
phylogeny
physical
physician
physicians
physics
physiology
pi
pia
piacenza
piano
pibor
picha
pick
pico
picture
pictures
piculet
pid
pie
piece
pieces
pied
piemonte
pier
pierce
piero
pierre
pieter
pietermaritzburg
pietro
piety
pig
piga
pigeon
pigo
pii
pijini
pikipiki
pilato
pilgrimage
pili
pilipili
pill
pilot
pinde
pindi
pine
pingamizi
pingili
pink
pinki
pinus
pinyin
pinzani
pio
pioneer
pipe
pipeline
pipit
piramidi
pirates
pisa
pitch
pitt
pitta
pittsburgh
pius
pizarro
pj
pk
pl
place
places
plague
plain
plains
plan
planet
planetary
planets
planktoni
planning
plans
plant
plants
plasma
plasmodium
plastaz
plastic
plastiki
plata
plate
plateau
platform
platinamu
platinum
platnumz
plato
play
played
player
players
playing
plays
playstation
plaza
plazma
plc
please
pleasure
pleistocene
plies
pliny
pliocene
plo
ploceus
plos
plot
plotinus
plover
plug
plural
plus
pluto
plutoni
plymouth
pm
pmc
pmid
pmidlookup
pn
pnas
pneumonia
png
pnu
po
poa
pocket
poda
podcast
poem
poems
poesie
poet
poetic
poetry
poets
pofu
point
pointe
pointi
points
poitiers
poj
pokot
pol
poland
polandi
polar
pole
polepole
police
policies
policy
polima
polinesia
polio
polisario
polish
polisi
political
politician
politics
politique
polity
poll
polling
polo
polycarp
polynesia
polytechnic
pombe
pomboo
pomponia
pongo
ponta
pontifical
pontificalis
pontificia
pontificio
ponto
pool
poole
poor
pop
pope
popes
popo
popolazione
popote
popular
population
populations
por
porcupine
pori
porini
poro
port
portal
porter
portland
porto
portrait
portraits
portsmouth
portugal
portuguese
porzana
position
positions
positive
possible
possumus
post
posta
postal
postcode
postcolonial
postikodi
pot
pote
potential
potofu
potosi
potsdam
potter
pound
pour
poverty
powell
power
powerful
powers
pp
pq
pr
practical
practice
practices
pradesh
praeger
prague
praha
praia
praise
pray
prayer
prayers
pre
precedenti
predator
preface
prefecture
prefets
pregnancy
pregnant
prehistoric
prehistory
preliminary
premier
premiere
premio
premios
prentice
prepared
presbyterian
prescriptions
presence
present
presentation
presented
presents
preservation
presha
presidency
president
presidential
presidents
presley
press
presse
pressure
preston
pretoria
pretty
prevalence
preventing
prevention
preview
previous
price
pride
priest
priests
prima
primacy
primary
prime
primetime
primi
primo
prince
princes
princess
princeton
principal
principe
principles
prinia
print
printed
printing
prior
priscilla
prison
private
prix
priyanka
prize
pro
probability
probably
problem
problems
proc
proceedings
process
prod
produced
producer
producers
product
production
productions
products
prof
profesa
professional
professionals
professor
profile
profiles
profit
program
programme
programming
programs
programu
progress
progressive
project
projects
projesteroni
prometheus
prominent
promise
promo
promoting
promotion
promulgatum
proof
propaganda
proper
properties
property
prophet
prophets
proposal
proposed
prosesa
prosopographie
prospective
prospects
protect
protection
protectorate
protein
protest
protestant
protini
proto
protocol
protoni
proud
provence
provera
provided
providence
provides
province
provinces
provincial
pruitt
prunus
prussia
ps
psammophis
psychiatric
psychiatry
psychol
psychological
psychology
pt
pternistis
pterodroma
pteropus
ptolemaio
ptolemy
pu
pua
puaz
pub
public
publication
publications
published
publisher
publishers
publishing
publius
pubmed
pubs
puebla
puerto
puff
puglia
pugu
puju
pulitzer
pulmonary
pulse
puma
pumu
pumzi
pumziko
punch
punda
pundamilia
punde
pune
pungufu
punishment
punjab
punje
puppis
pure
purple
purpose
put
putin
puto
pv
pw
pwani
pweza
pwo
px
py
pycnonotus
pygmy
pyrenees
pyrus
python
pz
q
q0
q1
q2
q3
q4
q5
q6
q7
q8
q9
qa
qaeda
qaida
qatar
qawwali
qb
qc
qd
qe
qf
qg
qh
qi
qin
qing
qj
qk
ql
qm
qn
qo
qom
qp
qq
qr
qs
qt
qu
quail
quality
quantum
quarter
quarterly
quartet
quaternary
que
quebec
queen
queens
queensland
queer
query
quest
question
questions
queue
qui
quick
quiet
quilt
quincy
quinn
quintus
quiz
quot
quoting
qur
quran
qurani
qv
qw
qx
qy
qz
r
r0
r1
r2
r3
r4
r5
r6
r7
r8
r9
ra
rabat
rabbi
rabbit
rabi
rabin
race
racer
rachel
rachid
racial
racing
racism
rada
radcliffe
radford
radhi
radi
radiation
radical
radidia
radio
rae
rafadha
rafael
rafiki
raga
rage
raha
rahisi
rahman
rai
raia
rail
raila
railway
railways
rain
rainbow
rainer
rais
raise
raisi
raja
rajab
rajveer
rakai
rally
ralph
ram
rama
ramadhani
ramani
ramaphosa
ramia
ramirez
ramon
ramos
ramsay
ramses
ramsey
ramsgate
rana
rand
randall
random
randomized
randy
range
rangers
rangi
rani
ranking
rankings
rap
rapa
rape
raphael
rapid
rapids
rapper
rare
ras
rashid
rashidi
rasi
rasilimali
rasimu
rasmi
rasta
rastafari
rat
rate
rates
rather
ratiba
raul
raundi
raven
ravenna
ravine
raw
rawlings
ray
raymond
rb
rc
rd
rdc
re
reach
reaction
read
reader
reading
readings
ready
reagan
real
reality
really
reason
rebecca
rebel
rebellion
rec
receive
received
receives
recent
receptor
recherche
recipient
recognition
recommendations
reconstruction
record
recorded
recording
recordings
records
recovery
red
redemption
redio
reduction
reed
reef
reeves
ref
refa
reference
referenced
references
reflections
reform
reformation
reformed
refs
refu
refugee
refugees
refworld
regarding
regensburg
regent
reggae
reggie
regime
regina
reginald
regiola
region
regional
regions
regis
register
registered
regular
regulation
rehabilitation
rehani
rehema
rehner
reich
reid
reign
reilly
reims
rejareja
rejea
rekodi
related
relating
relation
relations
relationship
relationships
relativity
release
released
releases
reli
relics
relief
religion
religions
religious
remain
remains
remarks
remember
remembered
remembering
remi
remix
remmy
remote
ren
renaissance
rene
renewable
renewal
rennes
rep
repertoire
report
reported
reporter
reporters
reporting
reports
representation
representative
reprint
reprinted
reproductive
reptiles
reptilia
republic
republican
republique
required
res
rescue
research
researchgate
reserve
resident
resistance
resolution
resort
resource
resources
respect
respiratory
response
responses
responsibility
rest
restituta
restoration
result
results
resurrection
rethinking
retrieve
retrieved
retscreen
return
returns
reunion
reuters
rev
revealed
reveals
revelation
revenge
review
reviews
revised
revision
revisited
revival
revolt
revolution
revolutionary
revue
rex
rey
reynolds
rf
rfi
rg
rgb
rgph
rh
rhein
rhine
rhode
rhodes
rhodesia
rhone
rhymes
rhythm
ri
riaa
riadha
rianz
riba
rica
ricardo
rice
rich
richard
richards
richardson
richie
richmond
richter
rick
ricky
rico
ride
rider
ridge
ridhaa
ridpath
rifles
rift
right
rights
rihanna
rijili
rika
riley
ring
rings
rio
ripoti
ripper
risasi
rise
rising
risk
risks
rita
rite
rites
ritual
river
rivers
riwaya
riziki
rj
rk
rl
rm
rn
rna
ro
road
roads
rob
robbins
roberson
robert
roberto
roberts
robertson
robespierre
robin
robinson
robo
robot
roboti
robson
roc
rochester
rock
rocks
rockstar
rocky
rod
rodney
rodrigo
rodrigues
rodriguez
roewer
rogatianus
rogatus
roger
rogers
roho
rohoni
roi
roketi
roland
role
roles
roll
rolling
rom
roma
romae
romagna
romaji
roman
romance
romania
romanian
romano
romanovs
romans
romantic
romanum
rombo
rome
romeo
romero
ron
ronald
ronaldo
rongai
ronnie
room
rooney
roosevelt
root
roots
rorya
rosa
rosario
rosary
rose
rosefinch
rosemary
rosen
rosenberg
roses
ross
rossi
roth
rotten
rotterdam
rouen
rouge
rough
round
rousseau
routledge
rover
rovers
rovuma
row
rowan
rowland
rowman
rowspan
roy
royal
royale
rozari
rp
rpf
rpm
rq
rr
rs
rt
ru
ruaha
ruanda
ruangwa
rubani
ruben
rubin
rubirizi
ruby
rudi
rudishwa
rudolf
rudolph
rufaa
ruff
rufiji
rufous
rufus
rugby
ruge
ruhusa
ruiru
ruiz
rukungiri
rukwa
rule
ruled
rulers
rules
ruling
rum
rumba
rumped
run
rundiko
rungwe
runinga
runner
running
rununu
rupia
rural
rus
rush
rushwa
russell
russia
russian
rusty
rusu
rutana
rutba
rutgers
ruth
rutherford
ruthu
ruto
rutuba
ruvu
ruvubu
ruvuma
ruwaza
ruwenzori
ruyigi
ruzuku
rv
rw
rwanda
rwandan
rx
ry
ryan
rz
rømer
s
s0
s1
s2
s3
s4
s5
s6
s7
s8
s9
sa
saa
saad
saadani
saba
sababu
sabah
sabaki
sabata
sabato
sabc
sabine
sabini
sabino
sabri
sabrina
sabuni
sacleux
sacra
sacramento
sacred
sacrifice
sacrosancti
sad
sadaka
sadat
sadc
saddam
saddle
safari
safaricom
safarini
safe
safety
safi
safina
safu
saga
sage
sagittarius
sahani
sahara
saharan
sahel
sahihi
sahili
sahrawi
sai
said
saida
saidi
saidizi
saigon
saikolojia
saini
saint
sainte
saintpatrickdc
saints
saitoti
saizi
sakafu
sakarya
sakassou
sakiti
sakramenti
saksafoni
saksonia
sal
sala
salaam
salah
salam
salama
salamu
sale
saleh
salem
sales
salesiana
salim
salisbury
salix
salle
sally
salmon
salome
salon
salone
salt
salum
salvador
salvation
salvatore
salzburg
sam
sama
samaki
samani
samantha
samaria
samata
samawati
samba
sambamba
samburu
same
samia
sammanslagna
samoa
samora
sampa
sampson
sampuli
samson
samsun
samsung
samuel
samueli
samweli
san
sana
sanaa
sanamu
sanasana
sanchez
sancti
sanctorum
sand
sanders
sandpiper
sandra
sands
sanduku
sandy
sang
sanga
sanifu
sanitation
sankt
sans
sanskrit
sant
santa
santana
santi
santiago
santiebeati
santo
santos
santuri
sao
sapiens
sar
sara
sarafina
sarafu
sarah
saratani
sardegna
sardinia
sare
sarkodie
sars
sarufi
saruji
sasa
sasha
sassandra
satelaiti
satellite
sato
saturday
saturn
saturnina
saturnini
saturninus
satyagraha
saud
saudi
saudia
saul
sauli
saulo
saumu
saunders
sauti
sava
savage
savana
savanna
savannah
save
saved
saving
savings
savio
saw
sawa
sawasawa
sawia
saxon
saxony
saxophone
say
sayansi
sayari
saying
says
sayyid
sb
sc
scale
scandal
scarecrow
scarlet
scene
scenes
schaff
schalke
scherzinger
schism
schizophrenia
schleswig
schmidt
schneider
scholar
scholarly
scholars
scholarship
school
schools
schopenhauer
schrodinger
schubert
schultz
schumann
schuster
schutztruppe
schuyler
schwartz
schwenzer
sci
science
sciencedirect
sciences
scientific
scientist
scientists
sclerosis
sco
scops
score
scores
scorpion
scotia
scotland
scott
scottish
scotus
scream
screech
screen
screening
scribd
scribner
script
scripta
scriptores
scriptorum
scripture
scriptures
sculpture
scylla
sd
se
sea
seal
sean
search
searchable
searching
seas
season
seasons
seat
seattle
sebastian
sec
secolo
second
secondary
secondhand
secret
secretariat
secretary
secrets
section
sector
sects
secular
secunda
security
see
seed
seedeater
seen
sefania
sega
seguela
sehemu
sei
seif
seine
sekai
seko
sekondari
sekou
sekta
sekunde
selassie
select
selected
selection
selemani
selena
selestini
self
seli
selling
selous
sema
sembabule
sembe
semi
semina
seminari
seminary
sen
senate
senati
senegal
senegali
senegalia
seneta
seneti
sengerema
senghor
sengi
senior
senora
sens
sensa
sense
sent
sentensi
senti
sentigredi
sentimeta
sentimita
seoul
sep
sepetu
sepik
sepsis
sept
septemba
september
septembre
septimius
septuaginta
sequence
sera
seram
serapioni
serbia
serbian
seremala
serena
serengeti
serge
sergei
sergio
sergius
serie
series
serikali
serikalini
serious
sermon
sermons
serotonini
serowe
serpent
serra
servant
servants
serve
server
service
services
ses
sese
session
sessions
set
seth
seti
sets
setting
settlement
seva
seven
seventh
several
severe
severino
severo
severus
seviksi
sevilia
sevilla
seville
sex
sexual
sexuality
sexually
sexy
seychelles
seymour
sf
sfinksi
sg
sgr
sh
shaaban
shaba
shabaab
shabaha
shabiki
shadow
shadows
shafi
shag
shaggy
shah
shahada
shahamu
shahawa
shahidi
shairi
shajara
shaka
shake
shakespeare
shakira
shakivale
shakur
shakwe
shall
shamba
shambani
shambulio
shambulizi
shame
shamu
shan
shane
shanga
shangazi
shanghai
shangwe
shania
shannon
shape
shapiro
share
shared
shares
shari
sharia
shark
sharma
sharon
sharp
sharpe
sharti
shati
shauku
shauri
shaw
shawn
shayiri
shaykh
she
shea
shearwater
sheba
sheep
sheet
sheffield
shehena
sheikh
sheila
shelisheli
shell
shelley
shemasi
shemeji
sheng
shepherd
shepwa
sheraton
sherehe
sheria
sheriff
sherman
sherwood
shetani
shi
shia
shida
shield
shilingi
shimo
shina
shindano
shindikizo
shine
shingo
shingoni
shinikizo
shining
shinyanga
ship
shira
shirazi
shire
shirika
shirikani
shirikishi
shirikisho
shirley
sho
shock
shoe
shoes
shoga
shoka
shomoro
shonen
shoot
shooting
shop
shore
shoro
shorobo
short
shot
shoti
should
show
showbiz
showing
shows
shrew
shrike
shrine
shtml
shu
shughuli
shujaa
shuka
shukrani
shule
shuleni
shupavu
si
siagi
siasa
siaya
siberia
siberian
sic
sicilia
sicily
sick
sickle
sid
side
sidi
sidney
siecle
siecles
siena
sierra
sifa
sifaka
sifuri
sigara
sign
significance
significant
signs
siha
sikio
sikonge
siku
sikukuu
sikusare
silabi
silaha
silas
silence
silent
sili
silika
silinda
silk
silva
silver
sim
simanjiro
simba
simeon
simeoni
similar
simiti
simiyu
simmons
simon
simone
simoni
simple
simplified
simpson
simu
simulizi
sin
sina
sinagogi
sinai
sinapsi
since
sinclair
sindano
sindromu
sine
sinema
sing
singapore
singapuri
singer
singers
singh
singida
singing
single
singles
singular
sino
sinodi
sint
sintaksia
sintetiki
sio
sipho
sipriani
sir
siracusa
siradk
siri
siria
sirili
sirius
sirleaf
siro
sisi
sisia
sisilia
sisimizi
siskin
sista
sister
sisters
sita
site
sites
sithole
siti
sitini
sitio
sitta
situation
sivas
sivyo
siwa
siwezi
six
sixteenth
sixth
sixtus
siyo
size
sj
sk
skales
skandinavia
skauti
skeli
sketch
skin
skink
skinner
skizofrenia
sklerosisi
skrini
skuli
sky
skype
sl
slam
slang
slate
slaty
slave
slavery
slaves
slavic
sleep
sleji
slender
slim
slovakia
slovenia
slow
sm
smackdown
small
smart
smith
smithsonian
smoke
smoking
smooth
sms
sn
snake
snep
snipe
snoop
snow
so
soap
sobre
soc
soccer
soccerbase
soccerway
social
socialism
socialist
societa
societe
societies
society
socio
sociological
sociology
soda
soden
sodiamu
sodium
sofia
soft
software
soil
soka
soko
sokoine
sokoni
sokoto
sokotra
sokrates
soksi
sokwe
sol
sola
solar
soldier
soldiers
sole
solidarity
solo
solomon
solomoni
solon
solution
solutions
soma
somali
somalia
somaliland
some
somebody
someone
somethin
something
sometimes
somo
son
song
songa
songea
songhai
songo
songs
songwe
sonia
sons
sony
soon
sophia
sophie
sorbonne
soroti
sorry
sort
sos
soseji
sosholojia
sota
sote
soto
soukous
soul
souls
sound
sounds
soundscan
soundtrack
source
sourcebook
sources
sous
south
southampton
southeast
southern
southwest
soviet
soweto
soy
soya
sozomen
sp
spa
space
spaghetti
spain
spam
span
spanish
sparrow
sparrowhawk
sparta
spawls
spd
speak
speaker
speaking
speaks
spear
spears
special
species
specific
specify
spectacled
spectrum
speech
speed
speke
spektra
spencer
sphere
spice
spider
spidi
spiegel
spika
spirit
spirits
spiritual
spirituality
spishi
spla
split
spoken
spoleto
spora
sport
sporting
sportive
sports
spot
spoti
spotlight
spotted
spp
sprache
sprachen
spread
spring
springer
springfield
springs
spurfowl
spy
sq
sqpn
squad
square
squeaker
squire
squirrel
sr
sri
ss
ssri
st
stable
stade
stadi
stadium
stadiums
staff
stage
stahili
staili
stalin
stamford
stan
stand
standard
standards
standing
stanford
stani
stanley
stanton
star
starehe
stark
starling
starr
starring
stars
start
started
starting
stashahada
state
statement
states
statesman
station
statistical
statistics
statistique
statoids
stats
statue
status
stay
std
steam
stechert
steel
steele
steere
stefan
stefano
stein
steinberg
steiner
stella
stellenbosch
stem
stempu
step
stephanie
stephen
stephens
steps
sterling
stern
steroidi
stesheni
steve
steven
stevens
stevenson
stevie
stewart
still
stima
stm
stock
stockholm
stoke
stokes
stone
stonebwoy
stones
stop
storch
store
stores
storia
stories
stork
storm
story
straight
strait
strange
stranger
strasbourg
strategic
strategies
strategy
strathmore
strauss
stream
streaming
streep
street
streets
strength
stress
strike
string
striped
strix
stroke
strokes
strong
structural
structure
structures
struggle
sts
stuart
student
students
studi
studia
studien
studies
studio
studios
study
stuttgart
style
styles
su
sua
suaheli
suala
suarez
sub
suba
subira
subject
subjects
subscription
substance
success
successful
successor
such
suche
sucre
sud
sudan
sudani
sudi
sue
suez
suffered
suffering
sufi
sufu
sufuria
sugar
sugu
sui
suicide
suite
sukari
sukuma
sul
sulawesi
suleiman
suleimani
sulemani
sulfuri
sullivan
sultan
sultani
suluhisho
suluhu
sulzberger
sumaku
sumakuumeme
sumatra
sumba
sumbawanga
summa
summary
summer
summit
sumu
sun
suna
sunbird
sunda
sunday
sung
sungura
sunna
sunni
sunset
sunshine
suny
super
superior
suppl
supplement
supply
support
supporting
supreme
supu
sur
sura
surface
surgeon
surgery
surinam
suriname
suruali
surveillance
survey
survival
survivor
sus
susan
sussex
sustainability
sustainable
sutherland
suti
sutton
suzanne
suzuki
sv
sven
sw
swahili
swala
swali
swallow
swamp
swan
swansea
swaziland
sweden
swedish
sweet
swichi
swift
swiftlet
swila
swimming
swing
swiss
swisscharts
switzerland
sword
swot
sx
sy
sydney
sykes
sylar
sylla
sylvanus
sylvester
sylvia
symbols
symeon
symphony
symposium
symptoms
synaxaire
synaxarion
synaxarium
syndrome
synod
synodontis
synopsis
synthesis
syphilis
syracuse
syria
syriac
syrian
syriaque
syst
system
systematic
systems
sz
t
t0
t1
t2
t3
t4
t5
t6
t7
t8
t9
ta
taa
taabu
taaluma
taarab
taarifa
taasisi
tab
tabaka
tabia
tabianchi
tabibu
table
tables
tabora
tabu
tacitus
tafadhali
tafakuri
tafiti
tafsiri
tafuta
tag
tagalog
tageo
tagged
tago
tahadhari
tahajia
tahakiki
tai
taifa
taiga
tail
tailed
taipei
tairi
taita
taiwan
taj
taja
taji
tajikistan
tajiri
taka
takadir
takataka
takatifu
take
taken
takes
taking
tako
takr
takriban
takribani
takwimu
talaka
talanta
talbot
tale
talent
tales
talib
taliban
talk
talking
talks
tam
tamaa
tamaduni
tamale
tamara
tamasha
tamathali
tamati
tambarare
tambi
tambo
tambuzi
tamil
tamka
tamko
tamrat
tamthilia
tamthiliya
tamu
tan
tana
tanaka
tanakh
tandahimba
tandale
tandaraka
tandawala
tandu
tanesco
tang
tanga
tanganyika
tangawizi
tangazo
tangi
tangu
tani
tano
tanu
tanuri
tanzania
tanzanian
tanzu
tao
tape
tapo
tar
tara
taraborrelli
tarafa
tarakilishi
tarakilishikuu
tarakimu
tarantula
taratibu
tarehe
target
targets
tarime
tarn
tarso
tarumbeta
tarzan
tasa
task
tasmania
tasnia
tasnifu
taste
taswira
tata
tatata
tate
tathmini
tatizo
tatu
tau
tauni
tauris
taurus
tausi
taveta
tawa
tawala
tawasifu
tawi
tawimto
tawny
tax
taxi
tay
taya
tayari
taylor
taz
tazama
tazara
tazelita
tb
tc
tchologo
tcm
tcp
tcra
td
te
tea
teach
teacher
teachers
teaches
teaching
teachings
teal
team
teams
tears
teatro
tech
technical
technique
techniques
technologies
technology
ted
teddy
tedesco
teen
tegemezi
tegu
tehran
teil
tekeze
teknolojia
teksi
tel
tele
telecel
telegrafu
telegraph
teleka
telescope
televisheni
television
telica
tell
tells
tema
tembe
tembo
temeke
template
templates
temple
temps
ten
tena
tendaji
tendi
tendo
tenerife
tenisi
tennessee
tennis
tenno
tenochtitlan
tenrec
tense
tenth
tenzi
teofilo
teolojia
tepu
ter
terego
terence
teresa
tergat
term
terminal
terms
tern
terra
terre
terrence
territories
territory
terror
terrorism
terry
tertullian
teso
test
testament
testing
testosteroni
tests
tete
tetekuwanga
tetemeko
teule
texas
text
textbook
texte
texts
tezi
tf
tg
th
tha
thabiti
thabo
thai
thailand
thamani
thames
than
thanh
thank
tharaka
that
the
theater
theatre
thebe
thebes
thecitizen
theft
theguardian
their
thelathini
theluji
theluthi
them
themanini
theme
themes
themselves
then
thenia
theodor
theodore
theodori
theodoro
theodosius
theologian
theological
theology
theolojia
theoretical
theories
theory
theotokos
therapeutic
therapies
therapy
there
theresa
therese
thes
thesalonike
these
thesis
thessaloniki
they
thick
thierry
thika
thin
thing
things
think
thinking
third
thirty
this
thoma
thomas
thompson
thomson
thoracic
thorn
thornton
those
thou
though
thought
thoughts
thousand
thousands
threads
threat
three
thriller
throat
throated
thrombosi
through
throughout
throw
thrush
thug
thuluthi
thumb
thunberg
thunder
thuringia
thursday
thus
ti
tia
tiassa
tiba
tibet
tibeti
ticket
tie
tierra
tiger
tigray
tiketi
tikisa
tikiti
tiktok
til
till
tim
timbaland
timberlake
timbuktu
time
timeline
times
timor
timotheo
timothy
timu
timur
tin
tina
tinga
tingatinga
tiny
tip
tippu
tips
tira
tiro
tisa
tishio
tishu
tisini
tit
titan
titanic
titi
title
titles
tito
titular
titus
tiva
tj
tk
tkuu
tl
tlc
tls
tm
tn
tnt
to
toa
toad
toba
tobacco
tobago
tobias
tobitidk
tochi
tochigi
tod
today
todd
todi
toed
tofali
tofauti
tofautitofauti
together
togo
tohara
toit
toka
tokea
tokeo
tokyo
told
toledo
toleo
toll
tom
tomas
tomasello
tomatoes
tomb
tome
tommy
tomo
tomografia
tomorrow
tone
tong
tonga
toni
tonight
tonkpi
tony
too
took
tool
tools
top
tope
topic
topics
tops
tor
torah
torati
torino
toronto
tororo
torre
torres
toscana
total
toto
tottenham
touba
touch
toulouse
toumodi
tour
toure
tourism
tourist
tournament
tours
toussaint
tout
tovuti
toward
towards
tower
towers
town
towns
township
toyin
toyota
tp
tpok
tq
tr
tra
trabzon
trachylepis
track
tracks
tract
tracy
trade
tradition
traditional
traditions
traduction
traduit
traffic
trafford
trafiki
tragedy
trail
trailer
train
training
tran
trans
transaction
transactions
transcript
transformation
transition
transl
translated
translation
translations
translator
transmission
transmitted
transport
transvaal
traore
trap
travel
travels
travis
trc
tre
treating
treatise
treatment
treaty
tree
trees
trek
trends
treni
trent
trento
treron
tres
trevor
trey
trial
trials
triangle
tribe
tribes
tribune
tribute
trier
trieste
trilioni
trilogy
trinidad
trinity
trip
triple
tripoli
tristan
trithemis
triumph
trl
trogon
trois
troops
trop
tropical
tropiki
trotsky
trouble
troy
troyes
true
truman
trump
truong
trust
truth
try
ts
tsar
tsavo
tsunami
tsushima
tt
tu
tuamotu
tube
tuberculosis
tubingen
tucker
tudor
tuduru
tuesday
tufani
tufe
tufts
tuhuma
tuki
tukio
tukiwa
tuko
tukufu
tukumbuke
tukuyu
tula
tulivu
tulsa
tumaini
tumba
tumbaku
tumbawe
tumbili
tumbo
tumboni
tumbusi
tume
tumia
tuna
tunahitaji
tunajua
tunakuta
tunaona
tunapaswa
tunapata
tunatakiwa
tunatumia
tunavyoona
tunaweza
tunda
tundra
tundu
tunduma
tunduru
tunes
tungo
tunguska
tunis
tunisia
tunu
tunutu
tupa
tupac
tupu
tur
turbo
turdus
turismo
turkana
turkey
turkish
turkmenistan
turn
turned
turner
turnhout
turns
turtle
turubai
tusker
tutu
tutuko
tutume
tuvalu
tuwe
tuweze
tuzo
tv
tvsa
tw
twain
twala
twelfth
twelve
twentieth
twenty
twiga
twilight
twin
twins
twitter
two
tx
ty
tyler
tyndale
tyne
type
types
tyson
tyto
tz
tzs
tzu
u
u0
u1
u2
u3
u4
u5
u6
u7
u8
u9
ua
uadilifu
uadui
uae
uaguzi
uainishaji
uajemi
ualimu
uambukizaji
uaminifu
uamsho
uamuzi
uanachama
uanapwa
uandishi
uangalifu
uangalizi
uangavu
uanzishaji
uanzishwaji
uarabuni
uario
uasi
uasin
uaskofu
ub
ubadilishaji
ubadilishanaji
ubaguzi
ubakaji
ubalozi
ubangi
ubani
ubao
ubatizo
ubavu
ubaya
ubeberu
ubelgiji
ubepari
uber
ubeti
ubia
ubikira
ubinadamu
ubinafsi
ubingwa
ubishi
ubongo
ubora
uboreshaji
ubos
ubuddha
ubunge
ubungo
ubunifu
ubuntu
uc
ucb
uchache
uchafu
uchafuzi
uchaguzi
uchaji
uchambuzi
uchangamfu
uchanganuzi
uchapaji
uchapishaji
uchawi
uche
ucheki
ucheshi
uchezaji
uchi
uchimbaji
uchina
uchochezi
uchongaji
uchoraji
uchovu
uchu
uchukuzi
uchumba
uchumi
uchungaji
uchungu
uchunguzi
ucla
uct
ud
uda
udadisi
udaktari
udanganyifu
udhaifu
udhamini
udhibiti
udikteta
udogo
udongo
udsm
udugu
udzungwa
ue
uefa
ueire
uelewa
uendelevu
uendelezaji
uendeshaji
uenezaji
uenezi
uf
ufa
ufadhili
ufafanuzi
ufahamu
ufalme
ufanisi
ufaransa
ufasaha
ufeministi
ufikiaji
ufilipino
ufini
ufinyanzi
ufisadi
ufishaji
ufu
ufuatano
ufuatao
ufuatiliaji
ufufuko
ufufuo
ufugaji
ufukara
ufuko
ufukoni
ufumaji
ufumbuzi
ufunda
ufundi
ufundishaji
ufungaji
ufunguo
ufunguzi
ufunuo
ufupi
ufupisho
ufuta
ug
uga
ugaidi
ugali
uganda
ugandan
uganga
ugavi
ugawaji
ugenini
ugiligili
ugiriki
ugly
ugo
ugolino
ugomvi
ugonjwa
ugumu
ugunduzi
uh
uhaba
uhabeshi
uhai
uhaini
uhakika
uhakiki
uhalali
uhalifu
uhalisia
uhamaji
uhamasishaji
uhamiaji
uhamishaji
uhamisho
uhamishoni
uhandisi
uharamia
uharibifu
uhariri
uhasama
uhasibu
uhifadhi
uhindi
uhindu
uhispania
uhodari
uholanzi
uhuishaji
uhunzi
uhuru
uhusiano
uhusika
ui
uigaji
uigizaji
uimamu
uimara
uimbaji
uingereza
uingizaji
uinjilishaji
uishe
uislamu
uitwao
uj
ujamaa
ujana
ujanani
ujanibishaji
ujanja
ujao
ujapani
ujasiri
ujasiriamali
ujasusi
ujauzito
ujazo
ujenzi
ujerumani
uji
ujiji
ujinga
ujio
ujulikanao
ujumbe
ujumla
ujumuishaji
ujuzi
uk
ukabila
ukaendelea
ukafanywa
ukaguzi
ukahaba
ukaidi
ukaja
ukali
ukambi
ukame
ukamilifu
ukanda
ukandamizaji
ukarabati
ukaribu
ukarimu
ukataji
ukatili
ukatoliki
ukavu
ukawa
uke
ukeketaji
ukeni
ukerewe
ukhalifa
ukia
ukielekea
ukilinganisha
ukimwi
ukingo
ukinzani
ukitumika
ukiukaji
ukiukwaji
ukiwa
ukizingatia
uko
ukolezi
ukoloni
ukoma
ukomavu
ukombozi
ukomeshaji
ukomunisti
ukoo
ukosefu
ukosoaji
ukraina
ukraine
ukrainian
ukristo
ukuaji
ukubwa
ukuhani
ukukwi
ukulima
ukulu
ukumbi
ukumbusho
ukungu
ukurasa
ukusanyaji
ukuta
ukutani
ukuu
ukuzaji
ukweli
ul
ulaghai
ulaji
ulanga
ulanzi
ulaya
ule
ulegevu
ulemavu
uleule
ulevi
ulezi
uliamua
uliandikwa
ulianza
ulianzishwa
ulibadilishwa
ulibaki
ulichezwa
ulichukua
uliendelea
ulienea
ulifanikiwa
ulifanya
ulifanyika
ulifanywa
ulifika
ulifikia
ulifuata
ulifunguliwa
ulifutwa
uligundua
uliharibiwa
ulihusisha
uliimbwa
uliingia
uliitwa
ulijengwa
ulijitokeza
ulijulikana
ulijumuisha
ulikadiriwa
ulikua
ulikubali
ulikuja
ulikuwa
ulikuwepo
ulikwisha
ulilenga
ulileta
ulimfanya
ulimi
ulimpa
ulimwengu
ulimwenguni
ulinganifu
ulinzi
ulio
ulioandaliwa
ulioandikwa
ulioanza
ulioanzishwa
ulioendelea
ulioenea
uliofanyika
uliofanywa
uliofuata
ulioimbwa
ulioitwa
uliojengwa
uliojulikana
uliokithiri
ulioko
uliokuwa
uliokuwepo
uliona
ulionekana
uliongezeka
ulionyesha
uliopangwa
uliopewa
uliopita
uliopo
uliosababisha
uliosababishwa
uliotengenezwa
uliotoka
uliotokea
uliotolewa
uliotumika
uliotungwa
ulioundwa
uliowahi
uliowekwa
ulipata
ulipatikana
ulipewa
ulipo
ulipungua
ulirekodiwa
ulisababisha
ulishika
ulishinda
ulitambuliwa
ulitangazwa
ulitayarishwa
ulitegemea
ulitengenezwa
ulitoa
ulitoka
ulitokana
ulitokea
ulitolewa
ulitumika
ulitumiwa
ulitungwa
uliundwa
ulivyo
uliwahi
uliwekwa
uliweza
ulizidi
ulrich
ultimate
ultra
ultratop
uluguru
um
uma
umaarufu
umahiri
umakini
umakinifu
umar
umasikini
umaskini
umati
umba
umbali
umbile
umbo
umbria
umeanza
umechezwa
umechukua
umeenea
umegawanyika
umeimbwa
umejengwa
umekadiriwa
umekoozeshwa
umekuwa
umeme
umeng
umeonekana
umeonyesha
umepakana
umepata
umepewa
umesababisha
umetaboli
umetayarishwa
umiliki
umimi
umisionari
umm
umma
umo
umoja
umonaki
umotomoto
umri
umuhimu
umungu
umwagiliaji
umwilisho
un
una
unaanza
unaanzia
unabii
unachangia
unachezwa
unachukua
unadai
unaelekea
unaendelea
unaenea
unafaa
unafanana
unafanya
unafanyika
unafanywa
unafiki
unafikia
unafuata
unahitaji
unahitajika
unahusisha
unahusu
unaids
unaingia
unaishia
unaitwa
unajimu
unajitokeza
unajua
unajulikana
unajumuisha
unakadiriwa
unakuwa
unalenga
unamaanisha
unaoendelea
unaofaa
unaofanana
unaofanywa
unaofuata
unaohitajika
unaohusiana
unaoishia
unaoitwa
unaojulikana
unaojumuisha
unaolenga
unaonekana
unaongezeka
unaonyesha
unaoonekana
unaoonyesha
unaopatikana
unaopita
unaosababisha
unaosababishwa
unaotakiwa
unaotegemea
unaotiririka
unaotokana
unaotokea
unaotumia
unaotumika
unaotumiwa
unaounganisha
unaoweza
unaozaa
unaozunguka
unapaswa
unapatikana
unapita
unapitia
unapokea
unapungua
unaruhusu
unasababisha
unasababishwa
unasema
unataka
unatakiwa
unategemea
unatiririka
unatoa
unatofautiana
unatoka
unatokana
unatokea
unatumia
unatumika
unatumiwa
unaunda
unaungana
unaunganisha
unaweka
unaweza
unazidi
und
undani
under
undercover
underground
understanding
undp
undugu
une
unene
unep
unesco
ung
unga
ungamo
unguja
unhcr
uni
unicef
unicode
unihan
union
unique
unit
unita
united
units
unity
univ
universal
universe
universidad
universidade
universita
universitat
universitatis
universite
universities
university
univision
unknown
uno
until
unto
ununuzi
unururifu
unveils
unwin
unyago
unyama
unyanyapaa
unyanyasaji
unyenyekevu
unyeti
unyevu
unyofu
unyogovu
unyonge
unyonyaji
unywaji
uo
uokoaji
uondoaji
uongo
uongofu
uongozi
uoto
uovu
up
upadri
upadrisho
upagani
upana
upandaji
upande
upanga
upangaji
upanuzi
upapa
upara
upare
upasuaji
upatanisho
upate
upatikanaji
update
updated
updates
upekee
upele
upelelezi
upendeleo
upendo
upeo
upepo
upesi
upigaji
upili
upimaji
upinde
upinzani
upishi
upitishaji
uploads
upo
upofu
upole
upon
uponyaji
upotevu
upotezaji
upotovu
upper
uppsala
uprotestanti
uptown
upumuaji
upungufu
upunguzaji
upweke
upwekeni
upya
uq
ur
urafiki
urahisi
uraia
uraibu
urais
uraisi
ural
urambazaji
urambo
urani
uranus
urasimu
uratibu
urban
urbana
urbani
urbano
urdu
urefu
urekebishaji
urekebisho
urembo
ureno
urithi
url
uropa
ursa
ursae
ursula
ursus
uruguay
urujuanimno
urundi
urusi
us
usa
usafi
usafiri
usafirishaji
usafishaji
usage
usaha
usahihi
usahili
usaid
usaidizi
usajili
usalama
usambara
usambazaji
usangu
usanifu
usanii
usanisi
usanisinuru
usasa
usawa
use
used
useja
usemi
user
users
uses
usgs
ushahidi
ushairi
ushauri
ushawishi
ushemasi
usher
ushindani
ushindi
ushirika
ushiriki
ushirikiano
ushirikina
ushoga
ushonaji
ushuhuda
ushujaa
ushungi
ushuru
usikivu
usiku
usimamizi
usimbishaji
usindikaji
using
usingizi
usio
usiokuwa
usiri
uskoti
uso
usomaji
usoni
usonji
ustaarabu
ustadi
ustahimilivu
ustawi
usually
usugu
usultani
usumaku
usumbufu
uswahilini
uswazi
uswidi
uswisi
uswizi
ut
uta
utaalam
utaalamu
utabibu
utabiri
utafiti
utafutaji
utah
utaifa
utajiri
utakaso
utakatifu
utakuwa
utalii
utamaduni
utamadunisho
utambulisho
utambuzi
utamu
utandawazi
utando
utangazaji
utangulizi
utani
utapiamlo
utarakilishi
utaratibu
utaridi
utashi
utata
utatu
utatuzi
utawa
utawala
utawani
utayari
utayarishaji
utd
ute
utegemeaji
utegemezi
utegili
utekaji
utekelezaji
uteketezaji
utemi
utendaji
utendakazi
utendi
utengano
utengenezaji
utengule
utenzi
utepe
uterasi
utetezi
uteuzi
uthabiti
uthai
uthibitisho
uthman
uti
utii
utiifu
utimilifu
utitiri
utoaji
utofauti
utomvu
utosi
utoto
utotoni
utovu
utrecht
utu
utukufu
utulivu
utumbo
utume
utumiaji
utumishi
utumizi
utumwa
utumwani
utungaji
utungisho
utunzaji
utunzi
utupu
uturuki
uu
uuaji
uuguzi
uumbaji
uume
uundaji
uuzaji
uv
uvamizi
uvimbe
uvinza
uvivu
uvukizaji
uvumbuzi
uvumi
uvumilivu
uvutaji
uvuvi
uvuvio
uw
uwajibikaji
uwakilishi
uwanda
uwanja
uwanjani
uwasilishaji
uwazi
uwe
uwekaji
uwekezaji
uwepo
uweza
uweze
uwezekano
uwezeshaji
uwezo
uwiano
uwindaji
uwingi
uwongo
ux
uy
uyahudi
uyoga
uyui
uz
uzalendo
uzalishaji
uzamili
uzamivu
uzani
uzao
uzazi
uzbekistan
uzee
uzembe
uzi
uzima
uzinduzi
uzinifu
uzio
uzito
uzoefu
uzuiaji
uzuri
uzushi
v
v0
v1
v2
v3
v4
v5
v6
v7
v8
v9
va
vaccine
vaccines
vachellia
val
valencia
valentin
valentine
valerian
valerie
vali
valley
value
values
vampire
van
vancouver
vanessa
vanga
vanguard
vanguardngr
vanuatu
var
variable
varicella
variety
various
varisela
vasco
vatican
vaticana
vaticani
vaticano
vatikani
vatikano
vaz
vazi
vb
vc
vd
ve
vega
vegas
velten
velvet
vema
vena
venerable
veneto
venezia
venezuela
venice
venous
vented
ventrikali
venus
vera
veracruz
verb
vercelli
verde
verdi
verlag
vermont
vernon
verona
veronica
versailles
verse
version
versions
verso
versus
vertebrata
very
vescovo
veteran
vf
vfl
vg
vgma
vh
vi
via
viambishi
viashiria
viatu
viazi
vibali
vibanda
vibao
vibaya
vibe
viboko
vic
vicariate
vice
vicente
vichache
vichaka
vichekesho
vichocheo
vichwa
victims
victor
victoria
victorian
victorianus
victorinus
victory
vida
video
videos
vidogo
vidogovidogo
vidokezo
vidole
vidonda
vidonge
vidua
vidubini
vidukari
vidusia
vie
vieira
vielelezo
vielezi
vienna
vienne
vies
viet
vietnam
vietnamese
view
viewers
views
vifaa
vifaranga
vifaru
vifo
vifuatavyo
vifungo
vifungu
vifupi
vifurushi
vigae
vigawo
vigezo
vigumu
vihiga
vii
viii
viini
vijana
vijasumu
vijidudu
vijiji
vijijini
vijisehemu
vijiti
vijito
vijiwilaya
vikali
vikao
vikapu
viking
vikiwa
vikiwemo
viko
vikombe
vikosi
vikta
viktor
viktoria
viktorini
vikubwa
vikundi
vikuu
vikwazo
vilabu
vile
vilele
vilema
vileo
vilevile
vilianza
viliendelea
vilikuwa
vilima
vilindi
vilipatikana
vilisababisha
vilitokea
vilivyo
vilivyoandikwa
vilivyokuwa
vilivyomo
vilivyopo
villa
village
villages
ville
villiers
vimekuwa
vimelea
vimeng
vimondo
vina
vinaitwa
vinamasi
vinapatikana
vinara
vinavyohusiana
vinavyoitwa
vinavyoonekana
vinavyopatikana
vinavyosababisha
vinavyotokana
vinavyotumika
vinavyotumiwa
vinavyounda
vinavyoweza
vinaweza
vincent
vincentius
vincenzo
vinci
vine
vinene
vingi
vingine
vinginevyo
vinne
vinsenti
vintage
vinyago
vinyl
vinyonga
vinywaji
violence
violet
violin
violwa
viongozi
vionjo
vioo
viota
viowevu
vip
vipaji
vipande
vipandevipande
vipanya
vipapasio
vipashio
vipawa
vipele
vipengele
vipepeo
viper
vipi
vipimo
vipindi
vipo
vipodozi
vipofu
vipokezi
vipya
viral
virefu
virgin
virginia
virgo
virtual
virtues
virunga
virus
viruses
virusi
virutubishi
virutubisho
visa
visababishi
visasili
vishawishi
vishimo
visima
vision
visions
visit
visitor
visivyo
visivyopatikana
visiwa
visiwani
visser
vista
visu
visual
visukuku
vita
vitabu
vitae
vitakatifu
vitambaa
vitambulisho
vitamin
vitamini
vitamu
vitanda
vitani
vitano
vitatu
vitendo
vitengo
vitenzi
viti
vitisho
vitivo
vito
vitongoji
vitovu
vitu
vitunguu
vituo
viua
viumbe
viumbehai
viunganishi
viungo
viunzi
viva
vivax
vivian
vivumishi
vivutio
vivyo
viwakilishi
viwanda
viwandani
viwango
viwanja
viwavi
viwili
vizazi
vizio
vizito
viziwi
vizuio
vizuizi
vizuri
vj
vk
vl
vladimir
vm
vn
vo
vocabulary
vocal
vocals
vodacom
vodafone
vogue
voi
voice
voices
vokali
vol
volcano
volcanolive
volga
voliboli
volikano
volkano
volkeno
volkswagen
voll
vols
volta
volteji
volume
volumes
vom
von
vorbeck
vos
vote
voters
vox
voyage
voyager
vp
vq
vr
vs
vt
vu
vuguvugu
vulpes
vumbi
vurugu
vv
vvu
vw
vx
vy
vya
vyake
vyakula
vyama
vyanzo
vyao
vyema
vyenye
vyenyewe
vyeo
vyeti
vyombo
vyoo
vyote
vyovyote
vyuma
vyumba
vyuo
vyura
vz
w
w0
w1
w2
w3
w4
w5
w6
w7
w8
w9
wa
waadilifu
waafrika
waajemi
waajiri
waajiriwa
waalimu
waamerika
waamini
waaminifu
waamuzi
waandamanaji
waandamizi
waandishi
waanglikana
waanzilishi
waarabu
waario
waarmenia
waashanti
waashuru
waasi
waasia
waathirika
waathiriwa
waazteki
wabantu
wabaya
wabelgiji
wabena
wabenedikto
waberber
waberberi
waboksa
wabondei
wabuddha
wabunge
wabunifu
wace
wachache
wachaga
wachagga
wachambuzi
wachanga
wachapishaji
wachawi
wacheza
wachezaji
wachimbaji
wachina
wachoraji
wachungaji
wachunguzi
wadau
wade
wadhamini
wadhifa
wadi
wadogo
wadominiko
wadsworth
wadudu
waebrania
waende
waendeshaji
waethiopia
wafadhili
wafalme
wafanya
wafanyabiashara
wafanyakazi
wafanye
wafanyikazi
wafaranki
wafaransa
wafiadini
wafinisia
wafransiskani
wafransisko
wafu
wafuasi
wafuatao
wafuate
wafugaji
wafungwa
wafupi
waganda
waganga
wageni
wagermanik
wagiriki
wagner
wagogo
wagombea
wagonjwa
wagtail
wagugunaji
waha
wahalifu
wahamiaji
wahandisi
wahanga
wahariri
wahehe
wahindi
wahindu
wahispania
wahitimu
wahl
wahlberg
waholanzi
wahubiri
wahudumu
wahunni
wahusika
wahutu
waigbo
waigizaji
wailers
waimbaji
wainaina
waindio
waingereza
wairienyi
waishi
waishio
waislam
waislamu
waisraeli
wait
waitalia
waiting
waitwao
wajaluo
wajane
wajapani
wajasiriamali
wajawazito
waje
wajenzi
wajerumani
wajesuiti
wajibu
wajir
wajita
wajukuu
wajumbe
waka
wakaamua
wakaanza
wakaanzisha
wakaao
wakaapweke
wakaazi
wakaenda
wakaendelea
wakafaulu
wakahamia
wakaingia
wakaja
wakala
wakalenjin
wakali
wakamba
wakaona
wakapata
wakapuchini
wakarimu
wakarmeli
wakarudi
wakati
wakatoliki
wakaunda
wakawa
wakazi
wakazidi
wake
wakelti
wakenya
wakfu
wakicheza
wakidai
wakifanya
wakifuata
wakifuatwa
wakiishi
wakijaribu
wakikaa
wakikuyu
wakili
wakimbiaji
wakimbizi
wakina
wakinga
wakiona
wakiongozwa
wakipata
wakiridhika
wakisema
wakishirikiana
wakisii
wakiso
wakitafuta
wakitaka
wakitokea
wakitumia
wakiwa
wakiwemo
waklara
wakleri
wako
wakoloni
wakomunisti
wakongwe
wakonventuali
wakopti
wakorintho
wakosefu
wakosoaji
wakristo
wakubwa
wakulima
wakunta
wakurdi
wakurugenzi
wakurya
wakusanyaji
wakuu
wala
walakini
walau
walawi
wale
walei
walemavu
walengwa
wales
walevi
walezi
wali
waliacha
waliachana
waliamini
waliamua
waliandika
walianza
walianzisha
walibadilisha
walibaki
walichaguliwa
walichangia
walicheza
walichukua
walidai
walidhani
walidhulumiwa
walielekea
walienda
waliendelea
walienea
walifanikiwa
walifanya
walifariki
walifaulu
walifia
walifika
walifikia
walifuata
walifukuzwa
walifunga
walifungwa
waligundua
walihama
walihamia
walihesabiwa
walihitaji
walihudhuria
walihukumiwa
walii
waliimba
waliingia
waliishi
waliita
waliitwa
walijaribu
walijenga
walijifunza
walijitahidi
walijiunga
walijua
walijulikana
walikaa
walikamatwa
walikataa
walikimbia
walikimbilia
walikosa
walikua
walikubali
walikubaliana
walikufa
walikuja
walikuta
walikutana
walikuwa
walikuwepo
walikwenda
walilazimishwa
walilenga
walileta
walimfuata
walimpa
walimu
walinzi
walio
walioambukizwa
walioanza
walioanzisha
walioathirika
walioathiriwa
waliobaki
waliochaguliwa
waliodai
walioendelea
waliofanya
waliofariki
waliofia
waliofika
waliofuata
waliogopa
waliohamia
waliohitimu
waliohudhuria
waliohusika
walioishi
walioitwa
waliojeruhiwa
waliojulikana
waliokaa
waliokamilika
waliokimbia
walioko
waliokufa
waliokuja
waliokuwa
waliokuwepo
waliomfuata
waliomtangulia
waliona
waliondoka
waliondolewa
walionekana
waliongeza
walionyesha
walioona
walioongozwa
waliopata
waliopewa
waliopinga
waliopo
waliosema
walioshiriki
waliosoma
waliotaka
waliotawala
walioteuliwa
waliotoka
waliotumia
waliotumwa
waliouawa
waliowahi
walioweza
waliozaliwa
walipanga
walipaswa
walipata
walipatana
walipatikana
walipeleka
walipelekwa
walipenda
walipendekeza
walipendelea
walipewa
walipiga
walipigana
walipigwa
walipinga
walipo
walipoanza
walipofika
walipokea
walipokuwa
walipoteza
walirekodi
walirudi
waliruhusiwa
walisafiri
walisema
walishambulia
walishika
walishinda
walishindwa
walishiriki
walishirikiana
walisimama
walitafuta
walitaka
walitakiwa
walitambua
walitangaza
walitangazwa
walitawala
walitegemea
waliteka
walitengana
walitengeneza
waliteswa
walitoa
walitoka
walitokea
walituma
walitumia
waliuawa
waliunda
waliungana
walivamia
walivuka
walivyo
walivyofanya
walivyokuwa
waliwahi
waliwatangaza
waliweka
waliweza
waliyotoa
walizaliwa
walizidi
walk
walker
walking
wall
wallace
wallah
wallis
wallonia
walowezi
walsh
walt
walter
walton
waluguru
waluhya
waluo
walutheri
wamaasai
wamakabayo
wamakonde
wamalay
wamanda
wamanyema
wamarekani
wamaroni
wamasai
wamaya
wameacha
wameambukizwa
wameanza
wamebaki
wamefanya
wamegawanyika
wamehamia
wamekufa
wamekuwa
wamepata
wamepewa
wamersedari
wameru
wamethodisti
wametoa
wametoka
wametokana
wameweza
wamezoea
wamiliki
wamisionari
wamisri
wamo
wamonaki
wamongolia
wamoravian
wamormoni
wan
wana
wanaakiolojia
wanaamini
wanaanga
wanaanthropolojia
wanaanza
wanaastronomia
wanachama
wanacheza
wanachezea
wanadai
wanadamu
wanadhani
wanae
wanaendelea
wanafalsafa
wanafamilia
wanafanana
wanafanya
wanafuata
wanafunzi
wanaga
wanahabari
wanaharakati
wanaheshimiwa
wanahisa
wanahistoria
wanahitaji
wanaimba
wanaishi
wanaisraeli
wanaitwa
wanajamii
wanajaribu
wanajeshi
wanajimbo
wanajishughulisha
wanajua
wanajulikana
wanakaa
wanakabiliwa
wanakadiriwa
wanakijiji
wanakubali
wanakubaliana
wanakufa
wanakula
wanakutana
wanakuwa
wanamaji
wanamgambo
wanamichezo
wanamuziki
wananchi
wanandoa
wanane
wanao
wanaoanza
wanaoendelea
wanaofanana
wanaofanya
wanaofuata
wanaohitaji
wanaohusika
wanaoishi
wanaoitwa
wanaojulikana
wanaokaa
wanaokalia
wanaokula
wanaombwa
wanaona
wanaonekana
wanaongea
wanaopata
wanaopatikana
wanaopenda
wanaosema
wanaotafuta
wanaotaka
wanaotoka
wanaotumia
wanaoweza
wanaozungumza
wanapaswa
wanapata
wanapatikana
wanapenda
wanapendelea
wanapewa
wanapokuwa
wanariadha
wanasaikolojia
wanasayansi
wanasema
wanasheria
wanashirika
wanasiasa
wanatafuta
wanatajwa
wanataka
wanatakiwa
wanategemea
wanateolojia
wanatoa
wanatoka
wanatokea
wanatumia
wanauchumi
wanaume
wanaunda
wanawake
wanawe
wanaweza
wanazi
wanazidi
wanazuoni
wandebele
wanderers
wanene
wang
wanga
wangeweza
wanging
wangoni
wangu
wangwa
wani
waniloti
wanjiru
wanna
wanne
want
wanted
wants
wanunuzi
wanyakyusa
wanyama
wanyamapori
wanyamwezi
wanyika
wanyonge
wao
waongozaji
waorthodoksi
waoservanti
waosmani
waovu
wapagani
wapagazi
wapalestina
wapare
wapatao
wapate
wapelelezi
wapentekoste
wapenzi
wapevu
wapi
wapiga
wapiganaji
wapinzani
wapo
wapokeaji
wapole
waprotestanti
wapya
war
waraka
warangi
waray
warbler
ward
ware
warefu
wareno
warfare
waridi
warithi
warming
warner
warning
waroma
warren
warrior
warriors
wars
warsaw
warsha
warshawa
warszawa
warudi
warumi
warusi
was
wasabato
wasafi
wasafiri
wasafwa
wasagaji
wasaidizi
wasaksoni
wasambaa
wasangu
wasani
wasanifu
wasanii
wasekulari
wasemaji
waserbia
washabiki
washairi
washambuliaji
washauri
washia
washindani
washindi
washington
washingtonpost
washirika
washiriki
wasia
wasichana
wasifu
wasikilizaji
wasikutane
wasimamizi
wasio
wasiojulikana
wasiokuwa
wasioweza
wasiozidi
wasiwasi
wasiwe
wasiweze
waslavi
waslavoni
wasomaji
wasomali
wasomi
wastani
waste
wasuba
wasukuma
wasumbufu
wasuni
wasunni
waswahili
wasweta
wat
wataalam
wataalamu
watafiti
watakatifu
watakuwa
watalii
watambaachi
watanabe
watangazaji
watangulizi
watano
watanzania
watapata
watatu
watawa
watawala
watayarishaji
watazamaji
watch
wateja
watemi
watendaji
watengenezaji
water
waterford
waterloo
waters
watersyari
watetezi
wateule
watford
wati
watkins
watoa
watoto
watson
watt
watts
watu
watuareg
watubu
watuhumiwa
watumiaji
watumishi
watumwa
watunzi
waturuki
watutsi
wauaji
wauguzi
waume
waumini
wauzaji
wavamizi
wavandali
wave
waves
waviking
wavu
wavulana
wavumbuzi
wavuti
wavuvi
wawakilishi
wawe
wawekezaji
waweza
waweze
wawili
wawindaji
wax
way
waya
wayahudi
wayao
wayback
wayi
wayne
wayoruba
ways
wazalendo
wazalishaji
wazao
wazaramo
wazawa
wazazi
wazee
wazi
wazima
wazimu
waziri
waziwazi
wazo
wazulu
wazungu
wazungumzaji
wazuri
wazushi
wb
wc
wcb
wd
we
weah
wealth
weapons
weasel
weather
weaver
web
webb
webcite
weber
weblinks
webpage
website
websites
webster
wedding
wednesday
week
weekend
weekly
weeks
weidenfeld
weight
weimar
weiss
weka
wekundu
welcome
welfare
welisi
well
welle
wellington
wells
welsh
welt
wema
wemba
wembamba
wendo
wendy
wenger
wengi
wengine
wengineo
went
wenu
wenye
wenyeji
wenyewe
wenzake
wenzao
wenzi
wenzie
wepesi
were
werner
wesley
west
western
westfalia
westlands
westlife
westminster
westport
westview
wete
wetu
weupe
weusi
wewe
wezi
wf
wg
wh
whale
what
whatsapp
wheel
wheeler
when
where
which
while
whistling
white
whitney
who
whole
whom
whoopi
whose
why
wi
wiani
wide
wien
wiener
wiesbaden
wife
wigo
wikamusi
wikendi
wiki
wikimania
wikimapia
wikimedia
wikipedia
wikiproject
wikiquote
wikisafiri
wikisource
wiktionary
wilaya
wilayani
wilbur
wild
wilderness
wildlife
wiley
wilfrid
wilhelm
wilkins
wilkinson
will
willard
willem
william
williams
williamson
willie
willis
willow
willy
wilson
wima
wimbi
wimbo
wimpy
win
winchester
wind
windhoek
windo
windows
wine
winfrey
wing
winga
winged
wingi
wings
wingu
winky
winner
winners
winnie
winning
wino
wins
winston
winter
wipf
wire
wisconsin
wisdom
wise
wish
wissmann
wit
witch
witchcraft
witches
with
within
without
witness
witnesses
wito
wits
wittgenstein
witu
witwatersrand
wives
wivu
wizara
wizi
wizkid
wj
wk
wl
wm
wn
wo
wodi
woga
wokovu
wolf
wolfgang
wolfsburg
woman
women
won
wonder
wonders
wong
wongofu
wood
woodbridge
woodpecker
woodrow
woods
woodward
worcester
word
wordpress
words
wordsworth
work
worker
workers
working
works
workshop
world
worldathletics
worldbank
worldcat
worlds
worldstadiums
worldwide
worm
worodougou
worship
worth
wote
would
wow
wowote
wp
wpdmpro
wq
wr
wrestling
wright
write
writer
writers
writing
writings
written
wrong
wrote
ws
wt
wu
wuhan
wurttemberg
wurzburg
wv
ww
wwe
wwf
www
wx
wy
wyoming
wz
x
x0
x1
x2
x3
x4
x5
x6
x7
x8
x9
xa
xavier
xb
xbox
xc
xd
xe
xf
xg
xh
xi
xii
xiii
xiv
xix
xj
xk
xl
xls
xm
xn
xo
xp
xq
xr
xs
xscript
xt
xu
xv
xvi
xvii
xviii
xw
xx
xxi
xxii
xxiii
xxv
xy
xz
y
y0
y1
y2
y3
y4
y5
y6
y7
y8
y9
ya
yaa
yaani
yabisi
yafaa
yafuatayo
yahoo
yahya
yai
yaitwayo
yajayo
yak
yakasse
yakawa
yake
yakiwa
yakiwemo
yako
yakobo
yale
yaleyale
yaliandikwa
yalianza
yalianzishwa
yaliendelea
yalifanyika
yalifanywa
yalijengwa
yalikuja
yalikuwa
yalikuwepo
yalileta
yalionekana
yaliongezeka
yalionyesha
yalipata
yalipatikana
yalisababisha
yalitokana
yalitokea
yalitolewa
yalivyo
yaliyo
yaliyoandikwa
yaliyoanzishwa
yaliyobaki
yaliyobuniwa
yaliyoendelea
yaliyofanyika
yaliyofanywa
yaliyofuata
yaliyofungana
yaliyoko
yaliyokuwa
yaliyomo
yaliyopangwa
yaliyopatikana
yaliyopita
yaliyopo
yaliyosababisha
yaliyotajwa
yaliyotokana
yaliyotokea
yaliyotolewa
yaliyowahi
yaliyowekwa
yalizidi
yam
yamaguchi
yamekuwa
yametokea
yamo
yamoussoukro
yana
yanaanza
yanachangia
yanaelekea
yanaendelea
yanafaa
yanafanana
yanafikia
yanahitaji
yanahitajika
yanahusu
yanaingia
yanaishia
yanaitwa
yanajulikana
yanajumuisha
yanakwenda
yanaonekana
yanaonyesha
yanapaswa
yanapatikana
yanategemea
yanatiririka
yanatiririkia
yanatofautiana
yanatokana
yanatokea
yanatumika
yanaweza
yanayoathiri
yanayoendelea
yanayofanana
yanayofanya
yanayofuata
yanayohusiana
yanayohusu
yanayoitwa
yanayojulikana
yanayoonekana
yanayopatikana
yanayosababisha
yanayosababishwa
yanayotokana
yanayotokea
yanayotolewa
yanayotumika
yanayotumiwa
yanayounda
yanayoweza
yang
yanga
yangu
yao
yaonyesha
yaounde
yapi
yapo
yar
yard
yasiyo
yasiyokuwa
yatakuwa
yatima
yatokanayo
yawe
yaweza
yb
yc
yd
ye
year
yearbook
years
yehova
yellow
yemen
yemeni
yemi
yen
yenu
yenye
yenyewe
yeremia
yerevan
yerusalemu
yes
yesterday
yesu
yet
yetu
yeye
yeyote
yf
yg
yh
yhwh
yi
yj
yk
yl
ym
yn
yo
yoana
yobu
yoeli
yoga
yoh
yohana
yohane
yolanda
yombeyombe
yona
yordani
york
yorker
yorkshire
yoruba
yos
yosefu
yoshua
yosia
yote
you
young
younger
your
youth
youtube
yoweri
yoyote
yozgat
yp
yq
yr
ys
yt
yu
yuan
yucatan
yuda
yudea
yudithidk
yugoslavia
yuhina
yuko
yukon
yul
yule
yuleyule
yumbe
yumo
yun
yung
yupo
yuri
yussuf
yusto
yusuf
yusufu
yv
yves
yvonne
yw
yx
yy
yz
z
z0
z1
z2
z3
z4
z5
z6
z7
z8
z9
za
zab
zabibu
zaburi
zachary
zafar
zagreb
zaha
zahanati
zaidi
zaire
zaka
zakaria
zake
zako
zama
zamani
zambarau
zambezi
zambia
zamu
zana
zangu
zanj
zanu
zanzibar
zao
zapu
zaragoza
zawadi
zaweza
zb
zc
zd
ze
zea
zealand
zealandic
zebaki
zebra
zee
zege
zeit
zeitschrift
zeitung
zeituni
zekaria
zelewski
zemlya
zeno
zenu
zenye
zenyewe
zephaniah
zero
zetu
zeu
zeus
zf
zg
zh
zhang
zhao
zheng
zhou
zhu
zi
ziada
ziara
zidane
zidian
zifuatazo
ziitwazo
zijazo
zikawa
zikiwa
zikiwemo
ziko
zile
zilezile
ziliandikwa
zilianza
zilianzishwa
ziliendelea
zilifanya
zilifanyika
zilifanywa
zilifika
zilifuata
ziliitwa
zilijengwa
zilijumuisha
zilikuwa
zilikuwepo
zilionekana
zilionyesha
zilipata
zilipatikana
zilipendwa
zilipigwa
zilisababisha
zilitambuliwa
zilitengenezwa
zilitokea
zilitolewa
zilitumia
zilitumika
zilitumiwa
ziliundwa
ziliunganishwa
ziliuzwa
zilivyo
ziliwahi
ziliwekwa
ziliweza
zilizo
zilizoandikwa
zilizobaki
zilizochapishwa
zilizoendelea
zilizofanywa
zilizofuata
zilizojengwa
zilizojulikana
zilizoko
zilizokusanywa
zilizokuwa
zilizomo
zilizopangwa
zilizopatikana
zilizopigwa
zilizopita
zilizopo
zilizotajwa
zilizotangulia
zilizotengenezwa
zilizotolewa
zilizotumika
zilizotumiwa
zilizoundwa
zilizounganishwa
zilizowahi
zilizowekwa
zim
zima
zimbabwe
zimbabwean
zimdancehall
zimeandikwa
zimeanza
zimekuwa
zimeonyesha
zimepangwa
zimepata
zimepatikana
zimetumika
zimewekwa
zimo
zina
zinaa
zinaanza
zinabaki
zinaendelea
zinafaa
zinafanana
zinafanya
zinafuata
zinahitaji
zinahitajika
zinahusiana
zinahusu
zinaitwa
zinajulikana
zinajumuisha
zinalenga
zinalingana
zinaonekana
zinaonyesha
zinapaswa
zinapatikana
zinategemea
zinatengenezwa
zinatoa
zinatofautiana
zinatoka
zinatokana
zinatokea
zinatumia
zinatumika
zinatumiwa
zinaweza
zinazidi
zinazo
zinazoendelea
zinazofaa
zinazofanana
zinazofanya
zinazofuata
zinazohitajika
zinazohusiana
zinazohusika
zinazohusishwa
zinazohusu
zinazoitwa
zinazojulikana
zinazoonekana
zinazoongoza
zinazoonyesha
zinazopatikana
zinazosababisha
zinazostawi
zinazotoa
zinazotokana
zinazotokea
zinazotolewa
zinazotumia
zinazotumika
zinazotumiwa
zinazounda
zinazoweza
zinazozalishwa
zinazozunguka
zinazunguka
zindiko
zingine
zinki
zion
zipatazo
zipo
zisizo
zito
ziwa
ziwani
ziwe
zizi
zj
zk
zl
zm
zmir
zn
zo
zodiaki
zoe
zoezi
zohali
zombo
zondervan
zone
zoo
zoom
zopa
zorotypus
zosta
zoster
zosterops
zote
zozote
zp
zq
zr
zs
zt
zu
zuckerberg
zuhura
zuid
zulu
zum
zuma
zur
zuri
zurich
zuwakulu
zv
zw
zwingli
zx
zy
zz
{
|
}
~
¡
£
¥
§
©
ª
«
®
¯
°
±
²
³
´
µ
·
º
»
½
¿
×
ß
æ
ð
ø
þ
đ
ħ
ı
ł
ŋ
œ
ƒ
ǀ
ǁ
ǝ
ɐ
ɑ
ɔ
ɕ
ə
ɚ
ɛ
ɡ
ɣ
ɨ
ɪ
ɫ
ɲ
ɾ
ʀ
ʁ
ʂ
ʃ
ʉ
ʊ
ʋ
ʌ
ʎ
ʒ
ʔ
ʕ
ʰ
ʲ
ʹ
ʻ
ʼ
ʾ
ʿ
ˈ
ˌ
ː
˥
˦
˧
˨
˩
͵
α
αγιος
β
γ
δ
ε
ζ
η
θ
ι
κ
και
λ
μ
μαιου
μεγας
ν
ξ
ο
π
ρ
ς
σ
συναξαριστης
τ
της
του
υ
φ
χ
ψ
ω
а
б
в
г
д
е
ж
з
и
к
л
лес
м
н
на
населення
наявного
о
п
р
с
т
ть
у
украіни
ф
х
ходи
ц
ч
чисельність
ш
щ
ъ
ы
ь
э
ю
я
ђ
є
і
ј
љ
њ
ћ
ѣ
қ
ә
ա
բ
գ
դ
ե
զ
է
ը
թ
ի
լ
խ
ծ
կ
հ
ղ
ճ
մ
յ
ն
շ
ո
պ
ջ
ռ
ս
վ
տ
ր
ց
ւ
ք
א
ב
ג
ד
ה
ו
ז
ח
ט
י
ך
כ
ל
ם
מ
ן
נ
ס
ע
ף
פ
ץ
צ
ק
ר
ש
ת
،
؛
؟
ء
ا
ال
الله
ب
بن
ة
ت
ث
ج
ح
خ
د
ذ
ر
ز
س
ش
ص
ض
ط
ظ
ع
عبد
غ
ـ
ف
في
ق
ك
ل
م
محمد
من
ن
ه
و
ى
ي
٢
ٱ
ٹ
پ
چ
ک
گ
ھ
ہ
ی
ܐ
ܕ
ܘ
ܝ
ܟ
ܠ
ܡ
ܢ
ܣ
ܥ
ܩ
ܪ
ܬ
क
ग
च
ज
ट
ड
त
थ
द
ध
न
प
ब
भ
म
य
र
ल
व
श
स
ह
ম
র
ল
ట
బ
ర
ల
ಕ
ದ
ರ
ക
ത
ന
പ
ര
വ
ක
ග
ජ
ට
ණ
ත
ද
ධ
න
ප
ම
ය
ර
ල
ව
ශ
ස
හ
ก
ค
ง
จ
ช
ณ
ด
ต
ท
น
บ
ป
พ
ม
ย
ร
ล
ว
ศ
ษ
ส
ห
อ
ะ
า
เ
แ
ไ
ა
ე
ვ
თ
ი
ლ
მ
ნ
ო
რ
ს
ქ
ᄀ
기
ᄁ
ᄂ
ᄃ
다
대
ᄄ
ᄅ
리
ᄆ
ᄇ
불
ᄈ
ᄉ
사
성
스
ᄊ
ᄋ
어
왕
이
ᄌ
자
지
ᄍ
ᄎ
ᄏ
ᄐ
ᄑ
ᄒ
ᅡ
ᅢ
ᅣ
ᅥ
ᅦ
ᅧ
ᅨ
ᅩ
ᅪ
ᅬ
ᅭ
ᅮ
ᅯ
ᅱ
ᅲ
ᅳ
ᅴ
ᅵ
ᆨ
ᆫ
ᆮ
ᆯ
ᆰ
ᆷ
ᆸ
ᆺ
ᆼ
ᆾ
ᇀ
ለ
ሊ
ላ
ል
ሐ
ሕ
መ
ማ
ም
ረ
ራ
ሬ
ር
ሰ
ሳ
ስ
ቀ
በ
ባ
ብ
ተ
ታ
ት
ች
ነ
ና
ን
አ
ኢ
ካ
ክ
ወ
ዋ
ው
ዎ
ዘ
ዝ
የ
ያ
ይ
ዮ
ደ
ዳ
ድ
ገ
ግ
ፍ
‐
‑
–
—
―
‘
’
“
”
„
†
•
…
′
″
›
⁄
€
№
℟
™
℣
↑
→
↔
↷
−
∘
≈
≤
≥
⋅
③
④
⑦
▶
►
◄
●
☉
➞
ⴰ
⺀
⺄
⺆
⺈
⺊
⺌
⺕
⺝
⺸
⺼
⿰
⿱
⿲
⿳
⿴
⿵
⿶
⿷
⿸
⿹
⿺
⿻
、
。
々
「
」
〢
あ
い
う
え
お
か
き
く
け
こ
さ
し
す
せ
そ
た
ち
っ
つ
て
と
な
に
ぬ
ね
の
は
ひ
ふ
へ
ほ
ま
み
む
め
も
ゃ
や
ゅ
ゆ
ょ
よ
ら
り
る
れ
ろ
わ
を
ん
ァ
ア
ィ
イ
ウ
ェ
エ
オ
カ
キ
ク
コ
サ
シ
ス
セ
ソ
タ
チ
ッ
ツ
テ
ト
ナ
ニ
ネ
ハ
ヒ
フ
ヘ
ホ
マ
ミ
ム
メ
モ
ャ
ヤ
ュ
ユ
ョ
ヨ
ラ
リ
ル
レ
ロ
ワ
ン
・
ー
㇁
㇂
㇄
㇇
㇈
㇉
㇓
㐁
㐄
㐅
㐌
㐫
㐬
㐭
㐮
㐱
㑒
㒵
㒸
㒼
㓁
㓞
㔾
㕛
㕣
㖾
㘝
㚅
㚇
㚔
㚘
㝉
㝡
㝴
㝵
㞋
㞢
㞷
㠩
㠭
㠯
㡀
㡭
㡿
㢲
㢴
㣇
㣺
㥯
㪅
㫄
㫐
㫒
㫺
㬅
㬎
㬥
㬰
㲋
㳄
㷠
㸒
㸚
㸦
㼌
㼲
㽞
㿟
䀠
䂞
䍃
䏍
䒑
䖍
䖒
䖝
䖵
䙴
䚻
䜌
䝿
䡛
䧹
䪞
一
丁
丂
七
丄
丅
丆
万
丈
三
上
下
丌
不
与
丏
丐
丑
专
且
丕
世
丘
丙
业
东
丞
丢
丣
两
严
並
丨
丩
个
丫
丬
中
丮
丰
丱
串
丵
丶
丷
丸
丹
为
主
丽
丿
乀
乂
乃
久
乆
乇
么
义
之
乌
乍
乎
乏
乐
乑
乔
乖
乗
乘
乙
乚
乛
乜
九
乞
也
习
乡
书
乳
乾
亀
亅
了
亇
予
争
事
二
亍
于
亏
亐
云
互
亓
五
井
亘
亚
亜
亞
亟
亠
亡
亢
交
亥
亦
产
亨
亩
享
京
亭
亮
亯
亰
亲
亳
亶
亷
人
亻
亼
亾
仁
今
介
仌
从
仐
仑
仒
仓
仔
仕
他
付
仝
代
令
以
任
企
伊
伏
伐
休
会
伝
伯
但
位
佐
体
何
佘
余
作
佥
使
來
侈
侌
侖
侯
侵
便
俊
俗
保
俞
信
修
倉
倍
倒
候
倠
健
傅
備
僉
僕
優
儿
兀
允
兂
元
兄
充
兆
兇
先
光
兊
克
兌
免
児
兑
兒
兓
兔
党
兜
兟
入
全
兩
兪
八
公
六
兮
兰
共
关
兵
其
具
典
兹
兼
冀
冂
冃
冄
内
冈
冉
冊
冋
册
再
冎
冏
冐
冒
冓
冖
冗
冘
军
农
冝
冠
冡
冥
冫
冬
决
冷
几
凡
凢
凵
凶
凷
凸
凹
出
函
凾
刀
刁
刂
刃
刄
刅
分
切
刍
刑
刕
刖
列
刘
则
初
別
利
别
到
制
刺
則
削
剌
前
剛
剡
剽
劉
力
功
加
务
劦
助
劫
劳
劵
勃
勇
勉
勒
動
務
勝
勞
勤
勹
勺
勻
勾
勿
匀
匂
包
匆
匈
匊
匋
匍
匕
化
北
匚
匝
匡
匪
匱
匸
匹
区
医
匽
匿
區
十
卂
千
卄
卅
卆
升
午
卉
半
卌
华
卑
卒
卓
单
卖
南
博
卜
卝
卞
占
卡
卢
卣
卤
卦
卩
卪
卬
卯
印
危
即
却
卵
卷
卸
卻
厂
厃
厄
历
厈
厉
厌
厓
厘
厚
原
厤
厥
厨
厭
厲
厶
厷
厸
去
厼
厽
叀
参
參
叅
又
叉
及
友
双
反
叐
发
叒
叔
叕
取
受
叚
叜
叟
口
古
句
另
叩
只
召
可
台
叱
史
右
叵
号
司
叹
吂
各
吅
合
吉
吊
吋
同
名
后
吏
向
吕
君
吝
吞
否
含
启
吳
吴
吹
吾
呂
呆
呈
告
员
呙
周
命
咅
和
咎
咠
咢
咨
咸
咼
哀
品
哉
員
哥
哲
唐
商
啇
問
啚
啤
啬
啻
善
喜
喝
喬
單
喿
嗇
器
噩
嚴
囊
囗
囘
囙
囚
四
回
囟
因
囧
囬
困
囱
囷
固
国
圂
圅
國
圍
園
圓
土
圡
圣
圥
在
圭
地
圶
圼
坂
坐
坒
坚
坴
垂
垔
垚
埀
埋
城
埶
執
基
堂
堅
堆
堇
堯
報
場
塞
墨
壘
士
壬
壯
声
売
壳
壴
壹
壺
壽
夂
处
夅
夆
备
夊
夋
夌
复
夏
夒
夕
外
夗
夘
多
夜
夢
大
夨
天
太
夫
夬
夭
央
失
夲
头
夷
夸
夹
夻
夾
奂
奄
奇
奈
奉
奎
奏
奐
契
奓
奔
奚
奞
奠
奢
奥
奭
女
奴
奻
好
如
妄
妙
妟
妥
妻
妾
姑
委
姜
威
娄
娠
婁
婴
嬰
嬴
子
孑
孔
孕
孖
字
存
孚
孛
孝
孟
季
孤
学
孫
孱
學
宀
宁
宂
它
宅
宇
守
安
宋
完
宏
宓
宗
官
定
宛
宜
宝
実
客
宣
室
宮
宰
害
家
容
宾
宿
寄
寅
密
富
寒
察
寧
審
寫
寬
寮
寸
对
寺
寻
寽
対
寿
封
尃
射
将
將
專
尉
尊
尋
尌
對
小
少
尒
尓
尔
尖
尗
尚
尞
尢
尣
尤
尧
尨
尭
就
尸
尹
尺
尻
尼
尽
尾
尿
局
居
屈
屋
屌
屎
屏
屑
展
屖
屚
属
屠
屡
屬
屮
屯
屰
山
屵
屾
岁
岂
岑
岡
岩
岳
岸
峯
島
崇
崎
崑
崔
崖
崙
崩
嵬
嶲
巂
巛
川
州
巟
巠
巢
巤
工
左
巧
巨
巩
巫
差
己
已
巳
巴
巷
巸
巽
巾
巿
帀
市
布
师
希
帚
帛
帝
带
師
席
帶
常
干
平
年
幵
并
幷
幸
幺
幻
幼
幽
幾
广
広
庄
床
底
店
庚
府
度
庫
庭
庶
康
庸
廉
廌
廛
廣
廩
廴
延
廷
建
廾
廿
开
弁
弃
弄
弇
弋
式
弓
弔
引
弗
弘
弜
弟
弥
弦
弱
張
強
强
彊
彌
彎
彐
彑
当
彔
录
彖
彗
彡
形
彥
彦
彧
彭
彳
役
彼
往
待
律
後
徒
従
得
徙
從
復
微
徳
徵
心
忄
必
忌
忍
志
忝
忠
忩
快
念
忽
忿
思
怠
急
性
怱
恆
恋
恒
恩
恭
息
恵
悉
悠
患
悤
悲
悶
情
惠
惡
惢
愁
愈
意
愛
感
慈
慧
慮
慶
憂
憲
應
戀
戈
戉
戊
戋
戌
戍
戎
成
我
戒
戔
或
戚
戠
戢
截
戲
戶
户
戸
戹
戼
戾
房
所
扁
扇
手
扌
才
打
托
执
承
折
报
拉
拜
拿
指
掌
推
提
摩
支
攴
攵
收
攸
改
放
政
敄
敏
敕
敖
敗
教
敝
敞
敢
散
敦
敫
敬
数
敷
數
斂
文
斉
斊
斗
斤
斥
斩
斬
斯
新
方
於
施
斿
旁
旋
族
无
旡
既
旣
日
旦
旧
旨
早
旬
旱
旲
时
旾
昆
昇
昌
昍
明
昏
易
昔
昗
昜
星
春
昬
昭
是
昱
昴
昷
時
晃
晋
晏
普
景
晶
智
暑
暴
曇
曜
曩
曰
曲
曳
更
曷
書
曹
曼
曾
替
最
朁
會
月
有
朋
服
朔
朕
朗
望
朝
期
木
朩
未
末
本
札
朮
术
朱
朵
朶
朿
杀
李
杏
村
杜
束
条
来
東
杲
杳
松
极
析
林
枚
果
枝
枲
枼
某
柔
查
柬
柰
柳
柴
栗
校
桀
桑
桼
梁
條
梟
梨
棘
棠
棥
森
楚
業
楽
榮
様
樂
樊
横
樹
橋
機
欠
次
欣
欮
欲
欶
欽
款
歆
歇
歌
歛
止
正
此
步
武
歨
歪
歮
歯
歰
歲
歴
歷
歸
歹
歺
死
殳
段
殷
殸
殹
殺
殻
殿
毋
毌
母
每
毒
比
毕
毚
毛
毳
氏
氐
民
气
気
氣
氧
水
氵
氶
氷
永
氺
氾
求
汉
汝
汞
江
池
決
沃
沓
沙
沝
沢
河
治
泉
法
波
泣
泥
泰
泳
洋
洛
津
洪
活
派
流
浦
浪
浮
浴
海
液
淡
淮
深
混
清
渚
渠
渡
港
湖
湯
源
準
溯
滿
漢
漸
澤
火
灬
灭
灰
灵
灷
炅
炎
炏
炗
炙
炭
為
烈
烏
烝
焉
無
焦
焱
然
煞
熊
熏
熱
燕
營
燮
爪
爫
爭
爯
爰
爱
爲
爵
父
爻
爽
爾
爿
片
牙
牚
牛
牜
牟
牢
牧
物
牪
牽
犀
犬
犭
犮
狂
狄
狊
独
狺
猋
猒
猪
献
猿
獻
玄
率
玉
王
玟
玨
现
珎
班
現
球
理
琴
瑟
瑩
瓜
瓦
瓶
甘
甚
生
産
用
甫
甬
田
由
甲
申
电
甶
男
甸
甹
画
甾
畀
界
畏
畐
留
畜
畟
畢
畧
畨
番
畫
異
畱
當
畺
畾
疊
疋
疌
疑
疒
疾
病
痛
癶
癸
癹
発
登
發
白
百
皀
皃
的
皆
皇
皋
皐
皕
皮
皷
皿
盃
盆
盇
盈
益
盍
盎
监
盒
盖
盛
盡
監
盤
盧
目
直
相
盾
省
眇
眉
看
県
眔
眞
真
眷
眼
眾
着
睘
睪
睿
瞏
瞢
瞿
矍
矛
矞
矢
矣
知
矦
短
石
研
破
碎
磊
磨
示
礻
礼
社
神
祟
票
祭
禀
禁
福
禮
禸
禹
禺
离
禽
禾
禿
秀
秃
秉
秋
科
秘
秝
秦
移
稟
穀
穌
穴
究
穷
穹
空
穿
突
窄
窒
立
竒
竜
竝
竟
章
童
竹
笑
笠
筆
等
答
箕
算
管
箴
節
篤
篭
米
粉
粛
粟
粤
粦
粲
精
糞
糸
糹
系
紀
約
納
素
索
紫
累
細
絜
絫
統
絲
維
綿
縣
繇
纍
纟
缶
网
罒
罔
罕
罗
罙
罡
罢
罪
署
罷
羅
羊
羌
羍
美
羔
羕
羗
羞
羡
羣
群
義
羲
羸
羽
翁
翏
習
翕
翟
翠
翻
翼
老
耂
考
者
耆
而
耎
耑
耒
耳
耴
耶
耷
聂
聊
聖
聚
聶
聿
肀
肃
肅
肉
肖
肙
肥
肩
肯
育
肴
胃
背
胡
胥
能
脊
脩
膚
臣
臤
臧
自
臬
臭
臯
臱
至
致
臺
臼
臽
臾
臿
舀
舂
舄
與
興
舉
舌
舍
舛
舜
舞
舟
航
般
船
艮
良
色
艸
艹
艾
芒
芔
芬
芮
花
芳
芺
芻
苔
苗
苟
若
苦
英
茂
茶
茸
荅
草
荒
荣
荼
莆
莧
莫
莽
菆
菊
菐
華
萬
落
葉
著
葛
董
葵
蒙
蒦
蒼
蓋
蓬
蓺
蔑
蔡
蔵
蕉
蕭
薄
薛
薦
薰
藍
藏
藤
藥
蘭
虍
虎
虐
虒
虔
處
虖
虗
虘
虚
虛
虜
虞
虫
虽
蚤
蚩
蛇
蛛
蜀
蜘
蜜
蝶
蟲
蠡
血
行
衍
衛
衣
衤
表
衮
衰
袁
袋
袞
裕
褭
褱
襄
襾
西
覀
要
覃
見
規
覓
覧
親
覽
见
角
解
言
訁
訇
計
記
設
訳
詞
詹
誕
語
誩
諸
警
譯
議
讠
记
设
词
译
诞
谷
豆
豈
豊
豐
豕
豖
豙
豚
象
豦
豩
豪
豸
貇
貝
貞
貟
負
財
貢
貧
貪
貫
責
貳
貴
買
費
賀
賁
資
賈
賏
賓
賔
賛
賞
賢
賣
質
賴
贊
贝
贡
财
责
贯
贲
贵
赖
赞
赤
赦
走
越
足
路
蹇
身
躬
車
軍
軎
軟
輔
輝
輦
车
辛
辜
辟
辥
辭
辰
辱
農
辵
辶
边
辺
达
过
近
连
迷
追
退
送
逆
选
逐
途
通
速
造
逢
連
逮
週
進
遀
遂
運
過
道
達
遣
適
遷
遺
邊
邑
邕
那
邦
邪
郎
部
郭
都
鄉
酉
酋
配
酒
酓
酸
釆
采
里
重
野
量
金
釒
鈴
錢
钅
長
镸
长
門
閃
閉
開
閏
閑
閒
間
閔
閵
閻
闌
门
间
闷
阑
阜
阝
阳
阴
阿
降
院
陳
陽
隅
隆
隊
隋
隡
隨
隱
隶
隹
隺
隻
隼
隽
难
雀
雁
雄
雅
集
雈
雋
雍
雐
雔
雙
雚
雜
雝
離
難
雨
雩
雪
雲
零
雷
需
霍
霜
霝
霞
霸
靈
靑
青
非
靡
面
靣
革
韋
韓
韦
韭
韯
韱
音
頁
頃
項
須
頗
頡
頭
頻
顛
页
風
风
飛
飜
飞
食
飠
養
館
饣
首
香
馬
馮
駦
马
骨
高
髟
鬥
鬯
鬲
鬼
魂
魚
魯
鮮
鱼
鲁
鳥
鳳
鸟
鹵
鹿
麃
麒
麗
麟
麥
麦
麻
黃
黄
黍
黎
黑
黒
黨
黹
黽
黾
鼎
鼓
鼠
鼻
齊
齋
齐
齒
齿
龍
龙
龜
龟
龠
龰
龱
龴
龵
龶
龷
龸
龹
者
艹
ﬁ
ﺵ
ﻡ
？
￼
�
𝄆
𝄇
𠀁
𠀃
𠀆
𠀉
𠀎
𠀐
𠁁
𠁣
𠂆
𠂇
𠂈
𠂉
𠂊
𠂋
𠂎
𠂒
𠂔
𠂛
𠂡
𠂢
𠂤
𠂬
𠂭
𠂹
𠃊
𠃋
𠃌
𠃍
𠃎
𠃑
𠃓
𠃔
𠃜
𠄌
𠄎
𠄠
𠄢
𠆢
𠆥
𠇍
𠈌
𠌵
𠓜
𠔉
𠔥
𠔼
𠔽
𠔿
𠕀
𠕁
𠕋
𠘧
𠘨
𠙻
𠙼
𠚏
𠚒
𠚤
𠚪
𠣏
𠤎
𠤕
𠥓
𠦄
𠦑
𠦝
𠧒
𠧗
𠧪
𠩺
𠪚
𠫓
𠫔
𠫤
𠬛
𠬝
𠬞
𠬢
𠬤
𠬶
𠮛
𠮦
𠮷
𠯑
𠱠
𠳮
𠷎
𡈼
𡉀
𡉵
𡌥
𡍮
𡏳
𡕒
𡕩
𡕰
𡖅
𡗗
𡗜
𡘆
𡘤
𡧱
𡨄
𡩧
𡬠
𡭽
𡰣
𡰥
𡰪
𡰯
𡰱
𡷈
𡸁
𡿨
𡿩
𡿪
𡿺
𢀖
𢀛
𢀩
𢁙
𢆉
𢆰
𢆶
𢇁
𢇇
𢉖
𢌬
𢌿
𢏚
𢑑
𢑚
𢖻
𢙣
𢛳
𢦏
𢦒
𢧵
𢼄
𢾕
𣁋
𣄼
𣅀
𣅽
𣍘
𣎳
𣎵
𣏋
𣏼
𣗥
𣥂
𣥖
𣦵
𣦼
𣧄
𣪊
𣪠
𣬉
𣳾
𣶒
𤇾
𤊽
𤐫
𤓰
𤔔
𤕨
𤣩
𤰇
𤰔
𤰞
𤴓
𤴔
𤽄
𥁑
𥁕
𥃦
𥃩
𥃭
𥇡
𥑟
𥘅
𥘈
𥝢
𥫗
𥱡
𦈢
𦉪
𦉬
𦉼
𦍌
𦍒
𦎧
𦐇
𦓔
𦔮
𦘒
𦙃
𦚏
𦣝
𦣞
𦣻
𦥑
𦥔
𦥯
𦨉
𦭝
𦰩
𧆞
𧈧
𧘇
𧰨
𧴪
𧴮
𧵩
𧾷
𨸏
𨾴
𩙿
𩠐
𩫏
𩵋
𪉷
𪜀
𪟽
𪠲
𪩲
𫇦
𫔭
𫜸
𫝀
𫠣
𫠩
𫢉
𫥞
𫩏
𫩠
𫪡
𫲽
𫶧
𬀷
𬐘
𬗌
𬙙
𬛸
𬜯
𬟩
𬯁
𬴘
𬺻
𬼉
𬼖
𭀰
𭁈
𭁨
𭅰
𭑈
𭕄
𭗼
𭤨
𭥫
𭻾
𮅕
𮊿
𮍌
𮍏
𮓗
𮥼
𮧮
廾
𰀁
𰀄
𰀈
𰀉
𰀕
𰀠
𰀡
𰀢
𰀪
𰁜
𰃮
𰆊
𰆘
𰋙
𰕎
𰢴
𰧭
𰯲
0--
000--
0000--
001--
002--
003--
004--
005--
006--
007--
008--
009--
019--
02--
03--
030--
04--
041--
044--
05--
06--
07--
08--
080--
081--
09--
1--
2--
204--
206--
211--
213--
214--
215--
216--
217--
218--
219--
220--
221--
222--
223--
227--
229--
232--
234--
255--
280--
3--
328--
4--
5--
6--
7--
8--
860--
889--
897--
9--
900--
904--
905--
933--
978--
978019--
97805--
97807--
97808--
978080--
978081--
aa--
ab--
aba--
abd--
abdul--
abi--
abo--
abs--
absol--
abu--
abys--
ac--
acant--
acce--
accu--
ace--
achi--
acqui--
act--
ad--
ada--
adapt--
add--
adeb--
adel--
adi--
adje--
admi--
adop--
adren--
ae--
aero--
aeth--
af--
affe--
afr--
afro--
ag--
aga--
agri--
agua--
agye--
ah--
ai--
air--
ait--
aj--
ak--
aka--
akafi--
akafu--
akaji--
akamc--
akams--
akamt--
akawa--
akia--
akic--
akie--
akif--
akih--
akii--
akij--
akik--
akim--
akio--
akip--
akir--
akis--
akisa--
akit--
akitu--
akiu--
akiv--
akiz--
ako--
akwi--
al--
ala--
albi--
alci--
alder--
ale--
aleks--
ali--
alicho--
alidh--
alifi--
aliif--
aliji--
alika--
aliko--
alila--
alili--
alilo--
alimc--
alimf--
alimk--
alimp--
alims--
alimt--
alimu--
alimw--
aliou--
alipo--
alite--
alitu--
alivu--
alivyo--
aliwa--
aliya--
aliye--
aliyeji--
aliyo--
aliyoya--
alizi--
alizo--
alizozi--
all--
almo--
alop--
als--
alt--
am--
ama--
aman--
ambu--
ame--
ameji--
ameon--
ames--
ametu--
ami--
amp--
amu--
an--
ana--
anacho--
anafi--
anaji--
anam--
anapo--
anas--
anatu--
anavy--
anawa--
anaye--
anayeji--
anayes--
anayet--
anayo--
anazo--
anc--
and--
ang--
ani--
ano--
ans--
ant--
anti--
any--
ao--
ap--
apa--
aphr--
apoc--
apol--
apos--
app--
appoint--
aps--
aq--
aqua--
ar--
ara--
arc--
arch--
are--
argen--
ari--
arith--
ark--
aro--
arri--
art--
as--
asa--
asce--
ash--
asif--
asik--
asipo--
asiye--
ask--
asp--
aspir--
ass--
asta--
astr--
at--
ata--
ataka--
atakapo--
atakaye--
athe--
ati--
au--
aus--
austra--
auto--
av--
ave--
aw--
ax--
ay--
aya--
az--
ba--
baa--
bab--
bacc--
baci--
back--
bacter--
bad--
bag--
bai--
bak--
bala--
bald--
balf--
balk--
ball--
balt--
ban--
bao--
bar--
bas--
bat--
bauh--
bay--
bb--
bc--
be--
bea--
bed--
bee--
bei--
bel--
bell--
ben--
bere--
berk--
bern--
bert--
bet--
beth--
beve--
bh--
bi--
biblio--
bid--
big--
bild--
bin--
bio--
biograp--
bir--
bis--
bit--
biz--
bj--
bl--
black--
blan--
blat--
blen--
bles--
blue--
bo--
bob--
bols--
bon--
bor--
bott--
bou--
bow--
box--
boy--
br--
brac--
brachy--
brad--
brah--
break--
brei--
bren--
brev--
brid--
brig--
brin--
brom--
bron--
brook--
bruc--
brun--
bu--
bubb--
bud--
bugo--
bull--
burc--
bus--
bush--
but--
buy--
bw--
by--
ca--
cabr--
caf--
cal--
calcu--
cam--
can--
canna--
cap--
car--
carac--
casc--
cass--
cast--
cat--
cauc--
cc--
cd--
ce--
celes--
cerc--
cercop--
cere--
cerv--
cf--
ch--
cha--
chall--
charl--
che--
chem--
chi--
chill--
chimpan--
chlo--
chloro--
cho--
chry--
chu--
ci--
ciga--
cine--
circ--
cl--
clim--
cm--
cn--
co--
cock--
cogn--
col--
com--
commemo--
commo--
compl--
con--
confe--
confu--
const--
contemp--
contr--
coor--
cop--
cor--
corti--
cosm--
cott--
cour--
cow--
cp--
cr--
crea--
crem--
crist--
croc--
crom--
cruc--
cs--
ct--
cu--
cum--
cx--
cy--
cyano--
cycl--
cz--
da--
dai--
dal--
dam--
dan--
dar--
day--
dc--
de--
dead--
dec--
dee--
def--
dei--
del--
deliv--
dem--
democ--
demog--
den--
deogr--
depen--
der--
des--
det--
deter--
deute--
dev--
df--
dh--
dhah--
dhih--
di--
diag--
diar--
dict--
did--
diff--
digi--
dil--
dimb--
dimen--
din--
dio--
dis--
discip--
divi--
dj--
dl--
dm--
do--
doc--
doctr--
dog--
dolo--
dom--
domo--
don--
dord--
dorm--
down--
dr--
draw--
dream--
du--
dv--
dw--
dx--
dy--
dz--
ea--
earth--
east--
eb--
eber--
ec--
eco--
ed--
edic--
edu--
educa--
ee--
ef--
effi--
eg--
eh--
ei--
ein--
ej--
ek--
el--
elec--
eleg--
eleu--
eli--
elimu--
em--
embr--
emph--
en--
ency--
encycl--
end--
eng--
eo--
ep--
epa--
epid--
epif--
epip--
epis--
epit--
eq--
equa--
equi--
er--
eryt--
erythr--
es--
espi--
est--
estro--
et--
ethn--
ethnog--
eti--
etrus--
eu--
euph--
euro--
eust--
ev--
eva--
evange--
eve--
ever--
ew--
ex--
exca--
exce--
exci--
exec--
exhi--
exp--
expec--
extra--
ey--
eye--
ez--
eze--
fa--
fabr--
faci--
fair--
fal--
fam--
fan--
far--
fasci--
faus--
favo--
fc--
fe--
feed--
feli--
ferr--
fi--
fibr--
fies--
fig--
fil--
film--
fin--
fire--
fish--
fitz--
fl--
flam--
flat--
flav--
flor--
fo--
foot--
for--
forsc--
fosf--
fr--
fra--
free--
frei--
frie--
fu--
fulg--
full--
fulv--
fun--
fungu--
fur--
fy--
ga--
gal--
gamb--
gan--
gard--
garr--
gas--
gaud--
gaze--
gb--
gc--
gd--
ge--
gebr--
gem--
gen--
geo--
geri--
gerv--
get--
gg--
gh--
ghana--
gi--
gian--
gil--
gior--
giov--
gir--
giul--
gj--
gl--
gli--
global--
glor--
gluta--
gm--
gn--
go--
god--
gold--
gonc--
gonz--
good--
gor--
got--
gr--
grac--
grand--
grap--
grass--
green--
gren--
grie--
grim--
grin--
gu--
guer--
gues--
guil--
gun--
gutt--
gw--
gy--
ha--
had--
hagiog--
hai--
haija--
haiku--
haja--
haki--
haku--
hal--
hali--
ham--
han--
hand--
harb--
hard--
hari--
harm--
harr--
hart--
haru--
has--
hat--
hata--
hauh--
hauj--
hauk--
havi--
hawa--
hawaja--
hay--
haya--
hayaja--
hazi--
hazija--
he--
head--
heart--
heid--
hein--
helm--
hemi--
hend--
hens--
her--
hes--
het--
hey--
heze--
hi--
hidr--
hier--
high--
him--
hip--
his--
hit--
hk--
hl--
ho--
hoch--
hodg--
holl--
home--
hon--
horo--
hot--
how--
hr--
hs--
hu--
hua--
hub--
huchu--
hudh--
huel--
hufa--
huff--
hufi--
hufu--
hufy--
huga--
huha--
hui--
huji--
huju--
huku--
huli--
hum--
huny--
huo--
hupi--
hupu--
hus--
hushi--
huta--
hute--
huten--
huto--
hutu--
huu--
huung--
huvu--
huwa--
huya--
huzi--
huzu--
hw--
hy--
hydr--
hylo--
hyper--
hypo--
ia--
ib--
ic--
ichi--
id--
iden--
ie--
if--
ig--
ih--
ii--
iili--
ij--
ik--
ikaa--
ikaba--
ikaf--
ikah--
ikain--
ikaj--
ikam--
ikao--
ikap--
ikasa--
ikat--
ikia--
ikib--
ikic--
ikie--
ikif--
ikih--
ikii--
ikij--
ikik--
ikim--
ikio--
ikip--
ikis--
ikisa--
ikit--
ikiung--
ikiz--
iko--
ikum--
il--
ile--
ili--
ilifi--
iliji--
ilila--
ilims--
ilipo--
ilite--
ilitu--
ilivu--
ilivyo--
iliwa--
iliyo--
ill--
illum--
illus--
im--
imag--
imea--
imeand--
imeb--
imec--
imee--
imef--
imeg--
imeh--
imei--
imein--
imej--
imek--
imekub--
imel--
imem--
imen--
imeo--
imep--
imer--
imes--
imesa--
imet--
imeta--
imew--
imez--
imit--
immi--
in--
ina--
inael--
inafa--
inaji--
inaku--
inapi--
inapo--
inashi--
inaten--
inatu--
inavy--
inawa--
inayo--
inc--
incar--
incor--
incre--
indepen--
indi--
indie--
indo--
indu--
inf--
info--
ing--
inhi--
ini--
insp--
inspir--
inst--
int--
integ--
inter--
inva--
inve--
invest--
investig--
invi--
io--
ip--
iq--
ir--
is--
isa--
isiyo--
iso--
ist--
it--
itaf--
itah--
itakayo--
itap--
itat--
ithn--
itu--
iu--
iv--
iw--
iy--
iz--
ja--
jada--
jah--
jahrh--
jam--
jan--
jay--
je--
jea--
jer--
jet--
jh--
ji--
jin--
jiom--
jn--
jo--
jp--
ju--
juu--
juve--
jw--
ka--
kaa--
kabu--
kafe--
kago--
kahawia--
kai--
kaka--
kali--
kall--
kalo--
kam--
kama--
kan--
kani--
kapc--
kapi--
kaps--
kapt--
kar--
kara--
kasa--
kasi--
kass--
kat--
kata--
kau--
kawa--
kay--
kc--
ke--
ken--
kers--
key--
kg--
kh--
khay--
khaz--
ki--
kia--
kiaya--
kiba--
kibe--
kibh--
kibi--
kibin--
kibo--
kibu--
kibw--
kiche--
kid--
kiek--
kiel--
kier--
kies--
kifa--
kifu--
kiga--
kigb--
kige--
kigh--
kigi--
kigo--
kigu--
kigun--
kiha--
kihe--
kihi--
kihui--
kiib--
kiis--
kija--
kiji--
kijivu--
kiju--
kik--
kikau--
kike--
kiki--
kiko--
kikul--
kila--
kile--
kili--
kilitu--
kilo--
kilu--
kim--
kima--
kimef--
kimet--
kimo--
kina--
kinacho--
kind--
kine--
king--
kini--
kink--
kino--
kins--
kiny--
kinya--
kiog--
kiok--
kion--
kipa--
kipc--
kiph--
kipk--
kips--
kipt--
kipu--
kiqi--
kira--
kire--
kiri--
kirk--
kiro--
kiru--
kisa--
kise--
kisi--
kiso--
kist--
kisu--
kit--
kita--
kiti--
kito--
kitu--
kiu--
kiva--
kivi--
kiwa--
kiwo--
kiwu--
kiya--
kiye--
kiyi--
kiyo--
kiza--
kizi--
kl--
km--
kn--
ko--
koca--
kol--
kom--
kond--
kons--
konstan--
kont--
konv--
kor--
koua--
koul--
kp--
kr--
kres--
kris--
krist--
ks--
kt--
ku--
kua--
kuba--
kubis--
kucho--
kuchu--
kudan--
kudh--
kudon--
kuel--
kufa--
kufi--
kufu--
kufy--
kugh--
kugo--
kuhes--
kuia--
kuic--
kuie--
kuif--
kuig--
kuih--
kuik--
kuim--
kuin--
kuio--
kuip--
kuir--
kuit--
kuje--
kuji--
kujivu--
kuju--
kuka--
kukara--
kuki--
kuko--
kuku--
kuli--
kult--
kultur--
kulu--
kum--
kumfi--
kumfu--
kumua--
kumuo--
kumvu--
kumwa--
kun--
kuna--
kuni--
kunya--
kuok--
kuon--
kupi--
kupo--
kupu--
kure--
kuri--
kuru--
kusa--
kush--
kusi--
kuso--
kusu--
kut--
kuta--
kuti--
kutoele--
kutok--
kutokub--
kutom--
kutop--
kutos--
kutot--
kutoz--
kutu--
kuu--
kuvi--
kuwa--
kuya--
kuza--
kuzi--
kuzu--
kw--
kwa--
ky--
la--
lab--
lac--
lady--
lai--
lak--
lam--
lan--
land--
las--
lat--
lau--
laugh--
lavi--
law--
lay--
lc--
le--
lea--
lee--
legi--
legisl--
leo--
lepi--
lept--
les--
let--
leuc--
lexi--
lh--
li--
lib--
lie--
life--
lika--
liki--
lil--
lilia--
lilib--
lilic--
lilif--
lilih--
lilik--
lilikub--
lililo--
lilim--
lilio--
lilipo--
lilis--
lilit--
liliv--
liliw--
liliz--
lime--
limep--
limet--
lin--
lina--
linalo--
linalos--
linalot--
lips--
lisi--
lit--
lita--
lj--
ll--
lo--
loc--
lock--
log--
long--
loph--
los--
lot--
lou--
lough--
love--
low--
lu--
lua--
luc--
ludo--
lv--
lw--
lx--
ly--
ma--
maas--
mabe--
mabr--
mac--
macca--
macha--
macro--
mad--
mae--
mafi--
mag--
maha--
mai--
main--
maja--
maje--
maji--
mak--
maka--
mal--
male--
man--
mana--
mani--
manu--
many--
mao--
map--
mar--
mara--
mare--
mari--
mas--
masah--
mascu--
masi--
mass--
mat--
math--
matsu--
mau--
mave--
may--
mazi--
mb--
mba--
mber--
mbu--
mc--
mccl--
mche--
mchi--
mcki--
mcle--
md--
mda--
mdhi--
me--
med--
medic--
medit--
mega--
mei--
mel--
memb--
men--
meno--
mer--
merce--
merov--
meso--
mess--
met--
meta--
meteoro--
mf--
mfum--
mg--
mga--
mgh--
mh--
mi--
mia--
mic--
micro--
mid--
mifu--
miga--
migo--
mikr--
miku--
mil--
milit--
min--
mini--
mira--
misc--
mist--
misu--
misw--
mit--
mita--
mittel--
mix--
mj--
mja--
mji--
mk--
mke--
mkok--
ml--
mle--
mling--
mm--
mma--
mn--
mna--
mnya--
mnyam--
mo--
modu--
mofo--
mol--
momo--
mon--
mona--
mono--
monte--
moon--
morc--
mosq--
mour--
moza--
mp--
mr--
ms--
msam--
msha--
mshi--
msik--
msum--
mt--
mtaf--
mti--
mto--
mtu--
mu--
muga--
muha--
muhi--
muho--
muka--
mukh--
multi--
mun--
munyi--
muri--
muru--
mus--
musa--
musci--
music--
muta--
mutu--
mv--
mvur--
mw--
mwa--
mwana--
mwand--
mwek--
mwel--
mwin--
mwir--
mx--
my--
myst--
mz--
na--
nabu--
nadh--
nai--
naka--
naki--
nali--
nam--
nama--
nan--
nao--
narb--
narr--
nas--
nat--
nau--
nc--
nd--
ndo--
ne--
nebu--
nec--
negr--
nemat--
neo--
nept--
net--
neu--
neuro--
new--
news--
ng--
nge--
ngo--
ngur--
nh--
ni--
nia--
nic--
nigr--
niji--
nika--
niki--
nili--
nilipo--
niliyo--
nime--
nina--
ninge--
nisi--
nita--
nj--
nje--
nk--
nn--
no--
non--
nor--
nord--
north--
nos--
not--
nr--
ns--
nt--
nta--
nu--
nur--
nusu--
nw--
nx--
ny--
nya--
nyabi--
nyabu--
nyaga--
nyaka--
nyaki--
nyami--
nyamu--
nyank--
nyaru--
nz--
oa--
ob--
ober--
observ--
oc--
occa--
och--
oct--
od--
oe--
of--
off--
og--
oh--
oi--
oj--
ok--
ol--
olat--
old--
ole--
oliv--
olym--
om--
omni--
omuk--
on--
one--
ong--
online--
oo--
op--
open--
ophi--
oppo--
or--
ora--
orph--
orth--
os--
ot--
ou--
out--
ov--
over--
ow--
ox--
oy--
oyster--
oz--
pa--
pac--
pag--
pal--
pam--
pan--
par--
para--
pas--
pat--
path--
pay--
pc--
pe--
peace--
pel--
pemba--
pembe--
pen--
per--
perci--
perip--
pet--
pf--
ph--
phae--
phar--
pheno--
phoe--
photo--
phyl--
phys--
pi--
pict--
pie--
pig--
pl--
plat--
play--
plum--
pm--
po--
podi--
pol--
polyg--
pomp--
pong--
pont--
pop--
por--
poss--
post--
pot--
poul--
pp--
pr--
prae--
pre--
preac--
press--
princ--
priv--
pro--
prophyl--
prost--
provi--
prud--
ps--
pseu--
psyc--
psycho--
pt--
pter--
pteryg--
ptole--
pu--
pub--
publi--
punc--
put--
pw--
py--
pyrr--
qa--
qi--
qu--
quad--
quae--
qualifi--
que--
qui--
ra--
racc--
radio--
raff--
rai--
rain--
ram--
rap--
ras--
rat--
raw--
ray--
re--
rec--
recon--
red--
ref--
refer--
regu--
rein--
reje--
rele--
ren--
rep--
res--
rest--
reti--
retr--
rev--
rh--
rhet--
rheu--
rhin--
ri--
ribo--
ro--
rob--
roc--
rock--
rod--
ron--
rota--
row--
rs--
ru--
rufi--
ruga--
rum--
run--
rus--
rw--
ry--
s--
sa--
saa--
saba--
sad--
sai--
saka--
sakh--
sal--
salva--
sam--
san--
sand--
sar--
sara--
sass--
sc--
scand--
scep--
scha--
sche--
schi--
schl--
schm--
scho--
schr--
schu--
schw--
sci--
sco--
scri--
scul--
se--
sea--
sebas--
sec--
see--
sei--
sele--
semi--
sen--
sep--
seri--
sero--
serv--
ses--
set--
seve--
sf--
sh--
shak--
shar--
she--
shi--
shill--
sho--
show--
shu--
si--
sic--
sid--
siddh--
side--
sieg--
sija--
siku--
silv--
sim--
sin--
sir--
six--
sk--
sky--
sl--
sm--
sn--
so--
soc--
socio--
soft--
sol--
solit--
son--
song--
soph--
sopr--
sos--
sove--
soy--
sp--
spa--
space--
spec--
spel--
sper--
spie--
spin--
spit--
sq--
squa--
sr--
ss--
st--
stan--
star--
stat--
stea--
ster--
stereo--
stor--
stra--
stre--
strep--
stri--
stuhlm--
stur--
styl--
su--
sub--
sud--
suff--
sugg--
sui--
sul--
sun--
super--
sur--
sus--
sv--
sw--
swim--
swit--
sy--
sylv--
symb--
symp--
syna--
synaxa--
syno--
synt--
sz--
t--
ta--
tab--
tafa--
tag--
tai--
taj--
taka--
take--
tam--
tan--
tar--
tash--
tau--
tax--
taz--
tb--
tc--
te--
tea--
tech--
tect--
ted--
teki--
tekn--
tel--
tele--
temp--
tempera--
ten--
tenda--
teod--
ter--
terri--
tf--
th--
tha--
thalas--
the--
theop--
thes--
thib--
thir--
thor--
thur--
ti--
tie--
tigr--
til--
tim--
tin--
tip--
tl--
to--
tole--
tom--
too--
top--
topog--
tor--
toxi--
tr--
tra--
trans--
tre--
trib--
tric--
trig--
trini--
trof--
try--
ts--
tt--
tu--
tuji--
tuka--
tuki--
tuli--
tume--
tump--
tumu--
tuna--
tur--
turn--
tusc--
tusi--
tuta--
tv--
tw--
ty--
tz--
ua--
uana--
uand--
uang--
ub--
uc--
ucha--
ucho--
ud--
ue--
uf--
ufa--
ufu--
ufyo--
ug--
uga--
uh--
uhus--
ui--
uing--
uj--
uji--
uk--
ukaa--
ukaf--
ukat--
ukic--
ukie--
ukif--
ukii--
ukim--
ukio--
ukir--
ukis--
ukit--
ukitu--
uko--
ul--
ulia--
ulib--
ulic--
ulicha--
ulie--
ulif--
ulig--
ulih--
ulii--
ulij--
ulik--
ulim--
uling--
ulio--
ulip--
ulipo--
ulir--
ulis--
ulisa--
ulit--
ulitu--
uliv--
uliw--
uliyo--
uliz--
ultra--
um--
uma--
umea--
umeb--
umec--
umee--
umef--
umeg--
umeh--
umej--
umek--
umel--
umem--
umeo--
umep--
umes--
umesa--
umet--
umeta--
umetok--
umeu--
umez--
un--
una--
unael--
unaji--
unaok--
unaom--
unaop--
unaos--
unaot--
unaota--
unaow--
unaoz--
unapo--
unaten--
unatu--
unavy--
unayo--
under--
ung--
unguja--
uni--
unter--
unve--
uo--
up--
upak--
ur--
urej--
us--
usa--
usha--
usim--
usio--
usuk--
usul--
ut--
uta--
ute--
uthi--
uti--
utu--
uu--
uung--
uv--
uw--
uy--
uz--
uzi--
uzing--
va--
vacc--
vagi--
val--
van--
var--
varie--
vaz--
ve--
veget--
vene--
vent--
verm--
vers--
vert--
vesp--
vi--
via--
vic--
vicho--
vidu--
vie--
view--
viji--
vika--
viki--
vili--
vilit--
vime--
vimep--
vina--
vinatu--
viol--
vip--
vipima--
viri--
viro--
visi--
vita--
vitt--
viua--
vl--
vm--
vo--
vol--
vr--
vu--
vulg--
vw--
vy--
wa--
waba--
wabe--
wabu--
wada--
wadh--
wadu--
wael--
waet--
wafa--
wafil--
wafu--
waga--
wagu--
waha--
wahu--
wais--
waji--
waka--
wakaji--
wakh--
waki--
wakia--
wakiji--
wakik--
wakim--
wako--
wakr--
waku--
wala--
wald--
wali--
walicho--
walichu--
waliga--
waliji--
walio--
walipo--
waliyo--
walizo--
walo--
walu--
wama--
wame--
wamei--
wameji--
wamel--
wameon--
wamep--
wamesh--
wamet--
wami--
wamu--
wan--
wana--
wanacho--
wanaji--
wanao--
wanapo--
wanayo--
wang--
wanor--
wanya--
wanyi--
wao--
wapen--
wapo--
wapu--
war--
ware--
was--
wasim--
wasio--
wat--
wataf--
water--
wati--
watu--
wavisi--
wawa--
wax--
way--
waza--
we--
web--
wein--
west--
wetl--
wh--
whea--
whet--
whis--
whit--
white--
wi--
wick--
wiki--
wilf--
wili--
wimbi--
win--
wit--
wk--
wn--
wo--
wolt--
wood--
world--
wort--
wr--
wu--
wy--
xa--
xe--
xh--
xi--
xl--
xo--
xu--
xx--
ya--
yaa--
yak--
yali--
yalib--
yalifi--
yalifu--
yaliji--
yalipo--
yalit--
yalita--
yaliung--
yaliyo--
yam--
yameb--
yamec--
yamef--
yamek--
yameo--
yamep--
yamet--
yana--
yanatu--
yanayo--
yanayos--
yar--
yasi--
yasu--
yata--
ye--
yen--
yi--
yo--
yos--
you--
your--
yt--
yu--
yun--
yv--
za--
zab--
zama--
ze--
zele--
zh--
zi--
zika--
ziki--
zikitu--
zili--
zilib--
ziliji--
zilipi--
zilipo--
zilit--
zilita--
ziliung--
zilizo--
zim--
zimea--
zimeb--
zimec--
zimef--
zimegaw--
zimeh--
zimej--
zimek--
zimeo--
zimep--
zimes--
zimet--
zimeung--
zina--
zinazo--
zing--
zinge--
zinz--
zisi--
zisizo--
zita--
zitu--
zo--
zoo--
zu--
zucker--
zw--
zy--
đ--
ʁ--
αγ--
ε--
λο--
ο--
οσ--
τ--
д--
л--
м--
н--
о--
п--
р--
с--
י--
ا--
ام--
ب--
ح--
د--
ر--
س--
ش--
ص--
ع--
ق--
ل--
م--
ن--
و--
ي--
ᄀ--
ᄂ--
ᄃ--
ᄄ--
ᄅ--
ᄆ--
ᄇ--
ᄉ--
ᄋ--
ᄌ--
ᄎ--
ᄏ--
ᄐ--
ᄑ--
ᄒ--
い--
か--
し--
--0
--0
--00
--01
--02
--03
--04
--05
--06
--07
--08
--09
--1
--1
--10
--11
--12
--13
--14
--15
--16
--17
--18
--19
--2
--2
--20
--21
--22
--23
--24
--25
--26
--27
--28
--29
--3
--3
--30
--31
--32
--33
--34
--35
--36
--37
--38
--39
--4
--4
--40
--41
--42
--43
--44
--45
--46
--47
--48
--49
--5
--5
--50
--51
--52
--53
--54
--55
--56
--57
--58
--59
--6
--6
--60
--61
--62
--63
--64
--65
--66
--67
--68
--69
--7
--7
--70
--71
--72
--73
--74
--75
--76
--77
--78
--79
--8
--8
--80
--81
--82
--83
--84
--85
--86
--87
--88
--89
--9
--9
--90
--91
--92
--93
--94
--95
--96
--97
--98
--99
--a
--aa
--aaji
--aan
--aanza
--ab
--abad
--ability
--abiwa
--able
--abudu
--ac
--ach
--acha
--ache
--achi
--achia
--achiwa
--achwa
--acion
--aciones
--ack
--aco
--ad
--ada
--ade
--adhibiwa
--adhimisha
--adhimishwa
--adi
--ado
--ae
--aea
--ael
--af
--afa
--afi
--afu
--ag
--aga
--age
--agen
--agh
--agi
--agiza
--agizwa
--ah
--aha
--ahan
--ahi
--ahia
--ahidi
--ahidiwa
--ahisha
--ai
--aidia
--aika
--ail
--aili
--ain
--ainishwa
--air
--aire
--ais
--aise
--aj
--aja
--aji
--ajiri
--ajiriwa
--aju
--ak
--aka
--ake
--aki
--akro
--aku
--al
--ala
--ald
--ale
--ali
--alia
--alikwa
--alis
--aliwa
--all
--ally
--alo
--als
--alus
--aly
--am
--ama
--ambatana
--ambia
--ambiwa
--ambua
--ambukiza
--ambukizwa
--amia
--amishwa
--amiwa
--amka
--amo
--amu
--amua
--amwa
--an
--ana
--ance
--ances
--and
--andaa
--andaliwa
--andika
--andikia
--andikishwa
--andikwa
--ane
--ang
--anga
--anguka
--ani
--anisha
--anishi
--anishwa
--anje
--ano
--ans
--ant
--anu
--anua
--anum
--anus
--anza
--anzia
--anzisha
--anzishwa
--ao
--ap
--api
--apishwa
--apo
--apy
--aq
--ar
--ara
--ard
--are
--ari
--aries
--aris
--ars
--art
--arum
--ary
--as
--ase
--ashiria
--asi
--asisi
--aso
--asso
--at
--ata
--ate
--ated
--ates
--ath
--athiri
--athirika
--athiriwa
--ati
--atia
--atio
--ation
--ations
--atiwa
--ato
--ator
--atr
--att
--atu
--atum
--ature
--atus
--au
--aud
--ault
--auri
--aurus
--av
--ava
--avi
--aw
--awa
--awe
--awi
--ax
--ay
--aye
--ayi
--ayo
--ayu
--az
--aza
--azi
--azia
--azione
--b
--ba
--babisha
--babishwa
--back
--badili
--badilika
--badilisha
--badilishwa
--baki
--bal
--ball
--bank
--bar
--batizwa
--baum
--bazi
--be
--bea
--beba
--bebwa
--ber
--berg
--bert
--bery
--bes
--bet
--bey
--bi
--bia
--bic
--bidhi
--bie
--bii
--bika
--bile
--bili
--bilia
--bill
--bird
--biri
--bisha
--bishwa
--biwa
--ble
--bles
--bli
--bly
--bo
--boi
--bok
--bola
--boli
--boliki
--bon
--book
--boreshwa
--boro
--box
--boy
--bra
--bre
--bri
--bs
--bu
--bua
--buch
--buk
--buka
--bul
--bulia
--bulika
--bulisha
--bulishwa
--buliwa
--bun
--buni
--buniwa
--burg
--buru
--bwa
--bwe
--by
--bya
--c
--ca
--cas
--cc
--ce
--cea
--ceae
--ced
--cens
--cephalus
--ces
--cey
--ch
--cha
--chagua
--chaguliwa
--changia
--chapisha
--chapishwa
--charts
--che
--cher
--cheza
--chezwa
--chi
--chia
--chimbwa
--cho
--choma
--chomwa
--chora
--chorwa
--cht
--chwa
--chy
--ci
--cia
--cik
--cing
--cio
--cion
--cism
--city
--cius
--ck
--cle
--co
--cock
--con
--cos
--cribed
--cs
--ct
--cta
--ction
--ctive
--cto
--cts
--cu
--cula
--culus
--cus
--cy
--d
--da
--daa
--dae
--dah
--dai
--daiwa
--dak
--dale
--dan
--dani
--day
--de
--dea
--ded
--deka
--dekeza
--dekezwa
--delea
--den
--der
--des
--deza
--dezwa
--dh
--dha
--dhani
--dhaniwa
--dhesha
--dhi
--dhibiti
--dhibitiwa
--dhibu
--dhihirika
--dhulumiwa
--dhulumu
--dhuru
--di
--dia
--dian
--dic
--dika
--diki
--dikiza
--dikwa
--dili
--dilisha
--din
--dio
--disciplinary
--dishwa
--divi
--diwa
--dj
--dja
--dji
--dl
--dle
--dler
--dman
--do
--doa
--doka
--dokeza
--don
--dor
--dos
--dou
--douo
--down
--dox
--dra
--dri
--dro
--ds
--dt
--du
--dua
--dudu
--dugu
--dui
--duk
--dulika
--duliwa
--dum
--dumisha
--dumu
--dus
--duzi
--dwa
--dy
--e
--ea
--eaji
--eal
--ean
--eandikwa
--eanza
--eau
--eb
--eba
--ebaki
--ebe
--ebi
--ebo
--ebus
--ec
--eca
--echapishwa
--eck
--ect
--ed
--eda
--ede
--edi
--edia
--ee
--eed
--eel
--eem
--een
--eendelea
--eenea
--eer
--ees
--ef
--efu
--eg
--ega
--ege
--egemea
--egwa
--eh
--ehifadhiwa
--ei
--eia
--eim
--eira
--eisha
--eja
--ejaa
--eji
--ek
--eka
--ekani
--eke
--ekea
--eki
--eko
--ekro
--ekuwa
--ekwa
--el
--ela
--eld
--ele
--elea
--elekea
--elekeza
--elekezwa
--elewa
--eleweka
--eleza
--elezea
--elezewa
--elezwa
--eli
--ell
--ella
--elli
--ello
--ellus
--elm
--elo
--els
--em
--ema
--eme
--emea
--ement
--en
--ena
--enary
--ence
--ency
--end
--enda
--endana
--endelea
--endesha
--endeshwa
--ene
--enea
--ened
--eneza
--enezwa
--eng
--eni
--enia
--enne
--ens
--ense
--ensi
--ensis
--ensive
--ent
--enti
--ento
--ents
--eo
--eon
--eous
--ep
--epe
--epewa
--epo
--epotea
--eps
--eption
--er
--era
--ere
--ered
--ereza
--erg
--eri
--eria
--erium
--ern
--ero
--eros
--ers
--ert
--eru
--ery
--es
--ese
--esh
--esha
--eshi
--eshwa
--esi
--esque
--ess
--est
--et
--ete
--eth
--eti
--eto
--etokea
--etri
--ets
--ett
--etta
--ette
--etti
--etto
--etumiwa
--ety
--eu
--euliwa
--eum
--eundwa
--eur
--eus
--eux
--ev
--evu
--ew
--ewa
--eweza
--ews
--ex
--ey
--eya
--ez
--eza
--ezaji
--ezea
--ezi
--ezo
--ezwa
--f
--fa
--faa
--face
--fafanua
--fafanuliwa
--fahamika
--fai
--fanana
--fanikiwa
--fanya
--fanyia
--fanyika
[...]
