!
"
#
##0
##1
##10
##11
##12
##13
##14
##15
##16
##17
##18
##19
##2
##20
##21
##22
##23
##24
##25
##26
##27
##28
##29
##3
##30
##31
##32
##33
##34
##35
##36
##37
##38
##39
##4
##40
##41
##42
##43
##44
##45
##46
##47
##48
##49
##5
##50
##51
##52
##53
##54
##55
##56
##57
##58
##59
##6
##60
##61
##62
##63
##64
##65
##66
##67
##68
##69
##7
##70
##71
##72
##73
##74
##75
##76
##77
##78
##79
##8
##80
##81
##82
##83
##84
##85
##86
##87
##88
##89
##9
##90
##91
##92
##93
##94
##95
##96
##97
##98
##99
$
%
&
'
(
)
*
+
,
-
.
/
0
00
000
001
002
003
004
005
006
007
008
009
01
010
011
012
013
014
016
017
018
019
02
020
021
022
023
024
025
02571
026
027
028
03
030
031
032
033
035
037
038
04
040
041
042
044
045
047
049
05
050
051312
054
055
056
06
060
061
062
063
065
066
067
07
070
072
074
076
077
078
079
08
080
081
083
084
085
086
088
09
090
091
093
094
095
096
098
1
10
100
1000
1001
1002
1003
1007
1009
101
1010
1011
1012
1015
1016
1018
102
1020
1022
1024
1025
1026
1029
103
1030
1031
1035
1036
1038
104
1040
1045
1046
1048
1049
105
1050
1053
1054
1056
1057
1059
106
1060
1066
1068
107
1070
1073
1075
108
1080
1085
1087
109
1090
1093
1095
1098
1099
11
110
1100
1101
1106
1107
1109
111
1110
1111
1118
112
1120
1123
1126
113
1130
114
1140
1145
115
1150
1153
116
1160
1164
117
1170
1179
118
1180
1185
119
1193
1198
12
120
1200
1209
121
1210
1213
1215
1216
1219
122
1220
1221
1223
1224
1225
1226
1227
1228
123
1231
1232
124
1240
1241
1242
1244
1245
1246
1247
125
1250
1253
1254
1257
1258
1259
126
1260
1261
1264
1269
127
1270
1274
1279
128
1280
1282
1285
1287
129
1294
1297
1298
13
130
1300
1301
1303
1305
1308
1309
131
1310
1312
1316
132
1324
133
1330
1334
1336
1337
1339
134
135
1350
136
1368
137
1370
1378
138
1380
1383
1386
1389
139
1392
14
140
1400
1401
1405
141
1410
1414
1415
1418
142
1420
1427
1428
143
1430
1431
1439
144
1440
1447
145
1450
1453
1456
1458
146
1464
147
1471
148
1480
1484
1485
149
1490
1491
1492
1493
1494
1495
1497
1498
1499
15
150
1500
1501
1502
1503
1504
1505
1506
1507
151
1510
1512
1513
1515
1516
1517
1519
152
1520
1521
1522
1523
1524
1525
1526
1527
1528
1529
153
1530
1531
1532
1533
1534
1535
1536
1537
1538
1539
154
1540
1542
1545
1546
1547
1548
1549
155
1550
1552
1555
1556
1557
1558
1559
156
1560
1562
1563
1564
1565
1566
1567
1568
157
1570
1571
1572
1576
1577
1578
158
1580
1581
1582
1583
1585
1586
1588
1589
159
1590
1591
1592
1593
1595
1596
1597
1598
1599
16
160
1600
1601
1603
1605
1606
1607
1608
1609
161
1610
1611
1612
1613
1616
1618
1619
162
1620
1621
1622
1623
1624
1625
1626
1627
1629
163
1630
1631
1632
1633
1634
1635
1637
1639
164
1640
1641
1642
1643
1644
1645
1648
1649
165
1650
1651
1654
1655
1657
166
1660
1663
1667
1668
1669
167
1670
1672
1675
1676
1678
1679
168
1680
1684
1685
1687
1688
1689
169
1690
1693
1696
1697
1698
17
170
1700
1709
171
1710
1711
1712
1713
1715
1717
172
1720
1721
1722
1725
1726
1727
1728
1729
173
1730
1732
1735
1736
1739
174
1740
1741
1742
1744
1745
1746
1747
1748
1749
175
1750
1751
1752
1754
1755
1756
1758
1759
176
1760
1761
1762
1763
1764
1765
1766
1767
1768
1769
177
1770
1771
1772
1773
1774
1775
1776
1777
1778
1779
178
1780
1781
1782
1783
1784
1785
1786
1787
1788
1789
179
1790
1791
1792
1793
1794
1795
1796
1797
1798
1799
18
180
1800
1801
1802
1803
1804
1805
1806
1807
1808
1809
181
1810
1811
1812
1813
1814
1815
1816
1817
1818
1819
182
1820
1821
1822
1823
1824
1825
1826
1827
1828
1829
183
1830
1831
1832
1833
1834
1835
1836
1837
1838
1839
184
1840
1841
1842
1843
1844
1845
1846
1847
1848
1849
185
1850
1851
1852
1853
1854
1855
1856
1857
1858
1859
186
1860
1861
1862
1863
1864
1865
1866
1867
1868
1869
187
1870
1871
1872
1873
1874
1875
1876
1877
1878
1879
188
1880
1881
1882
1883
1884
1885
1886
1887
1888
1889
189
1890
1891
1892
1893
1894
1895
1896
1897
1898
1899
19
190
1900
1901
1902
1903
1904
1905
1906
1907
1908
1909
191
1910
1911
1912
1913
1914
1915
1916
1917
1918
1919
192
1920
1921
1922
1923
1924
1925
1926
1927
1928
1929
193
1930
1931
1932
1933
1934
1935
1936
1937
1938
1939
194
1940
1941
1942
1943
1944
1945
1946
1947
1948
1949
195
1950
1951
1952
1953
1954
1955
1956
1957
1958
1959
196
1960
1961
1962
1963
1964
1965
1966
1967
1968
1969
197
1970
1971
1972
1973
1974
1975
1976
1977
1978
1979
198
1980
1981
1982
1983
1984
1985
1986
1987
1988
1989
199
1990
1991
1992
1993
1994
1995
1996
1997
1998
1999
2
20
200
2000
2001
2002
2003
2004
2005
2006
2007
2008
2009
201
2010
2011
2012
2013
2014
2015
20150923204417
2016
2017
2018
2019
202
2020
202012
2021
2022
2023
2025
203
2030
204
205
2050
206
207
208
209
21
210
2100
211
212
213
214
215
216
217
218
219
22
220
2200
221
222
223
224
225
226
227
228
229
23
230
2307
231
232
233
2331
234
235
236
237
238
239
24
240
2400
241
242
243
244
245
246
247
248
249
25
250
2500
251
252
253
254
255
256
257
258
259
26
260
261
262
263
264
265
266
267
268
269
27
270
2700
271
272
273
274
275
276
277
278
279
28
280
281
282
283
284
285
286
287
288
289
29
290
291
292
293
294
295
296
297
298
299
3
30
300
3000
301
302
303
304
305
306
307
308
309
31
310
311
312
313
314
315
316
3166
317
318
319
32
320
3200
321
322
323
324
325
326
327
328
329
33
330
331
332
333
334
335
336
337
338
339
34
340
341
342
343
344
345
346
347
348
349
35
350
3500
351
352
353
354
355
356
357
358
359
36
360
361
362
363
364
365
366
367
368
369
37
370
371
372
373
374
375
376
377
378
379
38
380
381
382
383
384
385
386
387
388
389
39
390
391
392
393
394
395
396
397
398
399
4
40
400
4000
401
402
403
404
405
406
407
408
409
41
410
411
412
413
414
415
416
417
418
419
42
420
421
422
423
424
425
426
427
428
429
43
430
431
432
433
434
435
436
437
438
439
44
440
4406
441
442
443
444
445
446
447
448
449
45
450
4500
451
452
453
454
455
456
457
458
459
46
460
461
462
463
464
465
466
467
468
469
47
470
471
472
473
474
475
476
477
478
479
48
480
481
482
483
484
485
486
487
488
489
49
490
491
492
493
494
495
496
497
498
499
5
50
500
5000
501
502
503
504
505
506
507
508
509
51
510
511
512
513
514
515
516
517
518
519
52
520
521
522
523
524
525
526
527
528
529
53
530
531
532
533
534
535
536
537
538
539
54
540
541
542
543
544
545
545540
546
547
548
549
55
550
551
552
553
554
555
556
557
558
559
56
560
561
562
563
564
565
566
567
568
569
57
570
571
572
573
574
575
576
57659
577
57731
578
579
58
580
581
582
583
584
585
586
587
588
589
59
590
591
592
593
594
595
596
597
598
599
6
60
600
6000
601
602
603
604
605
606
607
608
609
61
610
611
612
613
614
615
616
617
618
619
62
620
621
622
623
624
625
626
627
628
629
63
630
631
632
633
634
635
636
637
638
639
64
640
641
642
643
644
645
646
647
648
649
65
650
651
652
653
654
655
656
657
658
659
66
660
661
662
663
664
665
666
667
668
669
67
670
671
672
673
674
675
676
677
678
679
68
680
681
682
683
684
685
686
687
688
689
69
690
691
692
693
694
695
696
697
698
699
7
70
700
7000
701
702
703
704
705
706
707
708
709
71
710
711
712
713
714
715
716
717
718
719
72
720
721
7210
722
723
724
725
726
727
728
729
73
730
731
732
733
734
7346
735
736
737
738
739
74
740
741
742
743
744
745
746
747
748
749
75
750
751
752
753
754
755
756
757
758
759
76
760
761
762
763
764
765
766
767
768
769
77
770
771
772
773
774
775
776
777
778
779
78
780
781
782
783
784
785
786
787
788
789
79
790
791
792
793
794
795
796
797
798
799
8
80
800
8000
8006
801
802
8028
803
804
805
8050
806
807
808
809
81
810
811
812
813
814
8146
815
816
817
818
819
82
820
821
822
823
824
825
826
82644
827
828
829
83
830
831
832
833
834
835
836
837
838
839
84
840
841
842
843
844
845
846
847
848
849
85
850
851
852
853
854
855
856
857
858
859
86
860
861
862
863
864
865
866
867
868
869
86914
87
870
871
872
873
874
875
876
877
878
879
88
880
881
882
8820972107
883
884
885
887
889
89
890
891
892
893
894
895
89555
896
897
898
899
9
90
900
9000
901
902
903
904
905
906
907
908
909
91
910
911
912
913
914
915
916
917
918
919
92
920
922
923
924
925
926
927
928
929
93
930
931
932
933
934
935
936
937
938
939
94
940
941
942
943
944
945
946
947
948
949
95
950
951
952
953
954
955
956
957
958
959
96
960
961
962
963
964
965
966
967
968
969
97
970
971
972
973
974
975
976
977
978
979
98
980
981
983
984
985
986
987
988
989
99
990
991
992
993
994
995
996
9966
997
9976
998
9987
999
:
;
<
=
>
?
@
\
^
_
`
a
aa
aache
aaliyah
aandike
aanze
aaron
aas
ab
aba
ababa
abacha
abaki
abasia
abate
abati
abay
abba
abbas
abbe
abbey
abbot
abbott
abby
abc
abd
abdalla
abdallah
abdel
abdelaziz
abdi
abdu
abdul
abdulaziz
abdulla
abdullah
abdulwahid
abe
abebe
abeid
abel
abelson
abengourou
abeokuta
aberdare
aberdeen
abesi
abi
abia
abidjan
abim
abingdon
abiria
abitazioni
abitina
abitinae
abitinaejean
abn
abo
aboisso
aboriginal
aboud
about
above
abowd
abraham
abrahams
abrahamu
abrams
abruzzo
abs
abstract
abu
abubakar
abuja
abuse
abushiri
abyssinian
ac
acacia
acade
academia
academic
academy
acanthurus
access
accessdate
accessed
accipiter
according
account
accounts
accra
ace
acha
achebe
achieng
achievement
achilles
achukue
acid
acm
acoustic
acrocephalus
across
acs
act
acta
actes
acth
acting
action
active
activist
activities
activity
acton
actor
actors
actress
acts
actual
ad
ada
adabu
adam
adama
adamawa
adams
adamu
adan
adana
adaptation
add
adder
addis
addison
additional
addo
address
ade
adebayor
adelaide
aden
adhabu
adhimisho
adhuhuri
adi
adichie
adige
adili
adimu
adjumani
adler
administration
administrative
adn
adnan
adobe
adolf
adowa
adrena
adria
adrian
adriano
adua
adui
adult
adults
advanced
advent
adventist
adventure
adventures
adversus
advice
advisory
advocate
adıyaman
ae
aegean
aelred
aende
aendelee
aereas
aerial
aero
aerodramus
aesthetics
aevi
af
afadhali
afanasieff
afande
afanye
afar
afc
afe
afer
affair
affairs
affinis
afghanistan
afisa
afisi
afr
africa
africaine
african
africana
africans
africanus
afrika
afrique
afro
afrobasket
afrobeat
afrocine
afrocuration
afropop
afrotyphlops
after
aftermath
afya
afyonkarahisar
afyuni
ag
aga
agago
again
against
agama
agano
agape
agapornis
agata
agatha
agboville
age
agence
agencies
agency
agenda
agent
ages
aggrey
aghalabu
agiografia
agizo
agne
agnes
ago
agoos
agosti
agostimartyrologium
agostino
agreement
agricultural
agriculture
agu
agulhas
agyemang
ah
ahadi
ahead
ahl
ahlul
ahly
ahmad
ahmadiyya
ahmadu
ahmed
ahmedabad
ai
aibu
aid
aida
aidan
aidha
aids
aiesec
aiken
aim
aime
ain
aina
air
airbus
aire
aires
airline
airlines
airplay
airport
airtel
airways
ais
aise
aisha
aishi
aishwarya
aitwae
aitwaye
aix
aj
ajabu
ajabuajabu
ajali
ajax
aje
ajenda
ajenti
ajentina
ajili
ajira
ajiunge
ajue
ak
aka
akaacha
akaamua
akaamuru
akaandika
akaanza
akaanzisha
akabaki
akabatizwa
akachaguliwa
akacheza
akachukua
akademi
akademia
akaelekea
akaenda
akaendelea
akafa
akafanya
akafariki
akafaulu
akafika
akafikia
akafuata
akafuatwa
akafundisha
akafunga
akafungwa
akagundua
akahamia
akahitimu
akaingia
akaishi
akaitwa
akaja
akajaribu
akajenga
akajibu
akajiunga
akajiuzulu
akakaa
akakamatwa
akakataa
akakubali
akakubaliwa
akakutana
akamaliza
akamchukua
akamjibu
akampa
akamtangaza
akamuomba
akamwambia
akaomba
akaona
akaondoka
akaonekana
akaongoza
akapanda
akapata
akapelekwa
akapewa
akapokea
akarabu
akarudi
akasafiri
akasema
akashika
akashinda
akashindwa
akashiriki
akasoma
akatangaza
akatangazwa
akateuliwa
akatoa
akatuma
akatumia
akatumwa
akatunga
akauawa
akaunda
akaunti
akawa
akawaambia
akawapa
akaweka
akaweza
akazaa
akazidi
akazikwa
akbar
ake
akhenaten
akhmim
aki
akiacha
akiagiza
akiamini
akiandika
akianza
akiba
akicheza
akichezea
akichukua
akida
akidai
akielekea
akieleza
akielezea
akienda
akiendelea
akiendesha
akifa
akifanya
akifuata
akifuatwa
akifundisha
akifunga
akihudumu
akiichezea
akiigiza
akiimba
akiingia
akiishi
akiitwa
akija
akijaribu
akijitahidi
akijua
akijulikana
akikataa
akila
akilenga
akili
akilini
akim
akimaanisha
akimaliza
akimshirikisha
akina
akiolojia
akiomba
akiona
akionekana
akiongea
akiongoza
akiongozwa
akionyesha
akipata
akipenda
akipewa
akipiga
akipokea
akira
akirudi
akisafiri
akisaidia
akisaidiwa
akisali
akisema
akishika
akishinda
akishindwa
akishiriki
akishirikiana
akishirikishwa
akishrikiana
akisi
akisimamia
akisisitiza
akisoma
akisomea
akisubiri
akitafuta
akitaka
akitangaza
akitawala
akitazama
akitembea
akitetea
akitoa
akitoka
akitokea
akitumbuiza
akitumia
akiwa
akiwakilisha
akiweka
akiwemo
akizungumza
ako
akobo
akon
aksaray
aksum
aktiki
akubali
akwa
akwino
akwitania
akzoni
al
ala
alabama
alade
alain
alama
alameda
alan
alasiri
alaska
alba
albam
albamu
alban
albania
albanian
albano
albany
albatrosi
albatross
albert
alberta
alberto
albino
albion
albizia
albrecht
album
albums
albumu
aldabra
aldo
ale
alejandro
aleksanda
aleksander
aleksandria
aleli
aleppo
alessandro
alex
alexander
alexandra
alexandre
alexandria
alexis
alfa
alfabeti
alfajiri
alfonso
alfred
alfredo
alge
algebra
alger
algeria
algiers
algorithm
alhaji
alhamisi
ali
alia
aliacha
aliachana
aliachia
aliachiliwa
aliaga
aliagiza
aliahidi
aliajiriwa
alialikwa
aliambiwa
aliamini
aliamua
aliamuru
aliandaa
aliandika
alianza
alianzisha
aliapishwa
alias
aliathiriwa
alibadili
alibadilisha
alibadilishwa
alibainisha
alibaki
alibakia
alibatizwa
aliboresha
alibuni
alice
alichagua
alichaguliwa
alichangia
alichapisha
alicheza
alichezea
alichora
alichukua
alichukuliwa
alichunguza
alicia
alidai
alidhani
alidumu
alielekea
alielekeza
alielewa
alieleza
alielezea
alien
alienda
aliendelea
aliendeleza
aliendesha
alieneza
alifafanua
alifahamika
alifanikiwa
alifanya
alifanywa
alifariki
alifaulu
alifia
alifika
alifikia
alifikiri
alifuata
alifuatwa
alifukuzwa
alifundisha
alifundishwa
alifunga
alifungua
alifungwa
alifurahia
alifuta
alifuzu
aligombea
aligundua
aligunduliwa
alihama
alihamia
alihamisha
alihamishiwa
alihamishwa
aliheshimiwa
alihimiza
alihisi
alihitaji
alihitimisha
alihitimu
alihubiri
alihudhuria
alihudumia
alihudumu
alihukumiwa
alihusika
aliibuka
aliichezea
aliigiza
aliimarisha
aliimba
aliingia
aliingiza
aliingizwa
aliiongoza
aliisaidia
aliishi
aliishia
aliita
aliitisha
aliitwa
aliiwakilisha
alijaliwa
alijaribu
alijenga
alijeruhiwa
alijiandikisha
alijibu
alijifunza
alijihusisha
alijiita
alijikuta
alijipatia
alijishughulisha
alijisikia
alijitahidi
alijitambulisha
alijitangaza
alijitoa
alijitokeza
alijitolea
alijitosa
alijiua
alijiunga
alijiuzulu
alijua
alijulikana
alijumuishwa
alikaa
alikabidhiwa
alikabiliwa
alikalini
alikamatwa
alikamilisha
alikanusha
alikaribishwa
alikasirika
alikata
alikataa
alikataliwa
alikataza
alikatwa
alikimbia
alikimbilia
alikiri
aliko
alikoholi
alikopwa
alikosa
alikozaliwa
alikua
alikubali
alikubaliwa
alikufa
alikuja
alikulia
alikumbuka
alikusanya
alikuta
alikutana
alikuwa
alikuwepo
alikuza
alikwenda
alilazimika
alilazimishwa
alilelewa
alilenga
alileta
alilishwa
alimaliza
alimchagua
alimchukua
alimfanya
alimfuata
alimfundisha
alimpa
alimpeleka
alimpiga
alimsaidia
alimshauri
alimshinda
alimshirikisha
alimsifu
alimtaja
alimtambulisha
alimtangaza
alimteua
alimtokea
alimtuma
alimuandikia
alimuita
alimuoa
alimuomba
alimuua
alimwambia
alimwita
alimwoa
alimwomba
alimzaa
aling
alinunua
alinunuliwa
alinusurika
alinyongwa
alioa
aliogopa
aliokuwa
aliolewa
aliomba
aliombwa
aliona
alionao
aliondoka
aliondolewa
alionekana
aliongeza
aliongokea
aliongoza
aliongozwa
alionyesha
alionyeshwa
aliorodheshwa
alipambana
alipanda
alipandishwa
alipanga
alipanua
alipaswa
alipata
alipatikana
alipatwa
alipelekwa
alipenda
alipendekeza
alipendelea
alipendezwa
alipewa
alipiga
alipigana
alipigania
alipigwa
alipinduliwa
alipinga
alipingwa
alipita
alipitia
alipo
alipoaga
alipoamua
alipoanza
alipoanzisha
alipochaguliwa
alipochukua
alipoendelea
alipofanya
alipofariki
alipofika
alipofikia
alipofikisha
alipogundua
alipohamia
alipohitimu
alipoingia
alipoishi
alipojaribu
alipojiunga
alipojiuzulu
alipokaa
alipokamatwa
alipokea
alipokewa
alipokua
alipokufa
alipokuja
alipokutana
alipokuwa
alipokwenda
alipomaliza
alipoona
alipoondoka
alipopata
alipopewa
aliporejea
aliporudi
aliposhinda
aliposikia
aliposoma
alipostaafu
alipotangazwa
alipotembelea
alipoteuliwa
alipoteza
alipotoa
alipotoka
alipouawa
alipoulizwa
alipozaliwa
alirejea
alirekebisha
alirekodi
aliripoti
aliripotiwa
alirithi
alirudi
alirudia
alirudisha
alirudishwa
aliruhusiwa
aliruhusu
alisababisha
alisafiri
alisaidia
alisaini
alisainiwa
alisajiliwa
alisema
alishambulia
alishambuliwa
alishawahi
alishika
alishikilia
alishinda
alishindana
alishindwa
alishiriki
alishirikiana
alishirikishwa
alishtakiwa
alishughulikia
alishuhudia
alisifiwa
alisikia
alisikiliza
alisimama
alisimamia
alisimulia
alisisitiza
alisoma
alisomea
alison
alistaafu
alitabiri
alitafsiri
alitafuta
alitaja
alitajwa
alitaka
alitakiwa
alitamani
alitambua
alitambulishwa
alitambuliwa
alitamka
alitangaza
alitangazwa
alitawala
alitawazwa
alitayarisha
aliteka
alitekwa
alitembelea
alitengeneza
aliteswa
alitetea
aliteua
aliteuliwa
alithibitisha
alitia
alitiwa
alitoa
alitoka
alitokea
alitolewa
alitoroka
alituma
alitumbuiza
alitumia
alitumikia
alitumwa
alitunga
alitunukiwa
alitupwa
alituzwa
alitwaa
aliuawa
aliugua
aliuliza
aliumba
aliunda
aliunga
aliungana
aliunganisha
aliuza
aliuzwa
alivaa
alivamia
alive
alivuka
alivumbua
alivunja
alivutiwa
alivyo
alivyoandika
alivyochorwa
alivyofanya
alivyokuwa
alivyosema
alivyotaka
alivyoweza
aliwaambia
aliwaandikia
aliwahi
aliwaita
aliwajibika
aliwakaribishwa
aliwakilisha
aliwaongoza
aliwapa
aliwasili
aliwasiliana
aliwasilisha
aliwaunganisha
aliweka
aliwekwa
aliweza
aliye
aliyeambukizwa
aliyeandika
aliyeanzisha
aliyebobea
aliyechaguliwa
aliyecheza
aliyeendelea
aliyefanikiwa
aliyefanya
aliyefanyika
aliyefariki
aliyefaulu
aliyefia
aliyefika
aliyefuata
aliyehamia
aliyehusika
aliyeishi
aliyeitwa
aliyejaribu
aliyejiunga
aliyejulikana
aliyekomaa
aliyekua
aliyekufa
aliyekuja
aliyekuwa
aliyemfuata
aliyeolewa
aliyeonekana
aliyeongoza
aliyepata
aliyepewa
aliyepigwa
aliyepinga
aliyepokea
aliyeshika
aliyeshinda
aliyeshiriki
aliyestaafu
aliyetaka
aliyetangulia
aliyetawala
aliyeteuliwa
aliyetoa
aliyetumia
aliyetumwa
aliyeuawa
aliyewahi
aliyeweza
aliyezaliwa
aliyofanya
aliyoianzisha
aliyoipata
aliyokuwa
aliyonayo
aliyopata
aliyopewa
aliyoyapata
alizaa
alizaliwa
alizeti
alizidi
alizikwa
alizindua
alizocheza
alizoigiza
alizokuwa
alizoshiriki
alizotoa
alizowahi
alizunguka
alizungumza
alizungumzia
aljeria
alkali
all
alla
allafrica
allah
allahabad
allan
alle
allen
allgemeine
alliance
allianz
allied
allison
allmusic
ally
alma
almaarufu
almagest
almagesti
almanacco
almasi
almaty
almeida
almere
almost
aloe
aloi
alois
alomofu
alone
along
alonso
aloysius
alpes
alpha
alphabet
alphabetical
alphonse
alpi
alpine
alps
already
als
alsace
also
alt
altai
altar
altare
alter
alternative
although
althusser
altman
alto
alumini
alumni
alvarez
alves
alvin
always
alzeima
alzheimer
am
ama
amadeus
amadou
aman
amana
amanda
amani
amapiano
amar
amasya
amateur
amato
amazing
amazon
amazonas
amba
ambacho
ambae
ambako
ambalo
ambamo
ambao
ambapo
ambassador
ambavyo
ambaye
ambayo
ambazo
ambedkar
amber
ambo
ambon
amboseli
ambrose
ambrosi
ambukizo
ambuya
ame
ameacha
ameandika
ameanza
ameanzisha
amechaguliwa
amechangia
amechapisha
amecheza
amechezea
amechukua
amechunguza
ameendelea
amefanikiwa
amefanya
amefariki
amefundisha
amefungwa
amehitimu
amehudumu
amehusika
ameichezea
ameigiza
ameimba
ameir
ameishi
amejiunga
amejulikana
amekaa
amekamata
ameketi
amekua
amekufa
amekuja
amekuwa
amekwisha
amelala
amelia
amemaliza
amemwoa
amen
ameoa
ameolewa
ameonekana
ameongoza
amepata
amepewa
amepokea
amerekodi
america
american
americana
americancatholic
americanus
americas
amerigo
amerika
amerudi
ames
amesema
ameshika
ameshikilia
ameshinda
ameshiriki
ameshirikiana
ameshirikishwa
amesimama
amesoma
ametajwa
ametambuliwa
ametangaza
ametayarisha
ameteuliwa
ametoa
ametoka
ametokea
ametuachia
ametumia
ametunga
ameunda
amevaa
amewahi
amewakilisha
ameweka
ameweza
amezaliwa
amfetamine
amfetamini
amfibia
amhara
amherst
ami
amiens
amietophrynus
amiloidi
amin
amina
amini
amino
aminoasidi
amir
amiri
amistad
ammad
amman
ammophila
amnesty
amolatar
among
amoni
amonia
amor
amos
amosi
amour
ampelius
amr
amri
amsterdam
amu
amua
amun
amur
amuria
amuru
amuzi
amy
an
ana
anaamini
anaamua
anaandika
anaanza
anabaki
anacheza
anachezea
anachotaka
anachukua
anachukuliwa
anadai
anaelekea
anaeleza
anaelezea
anaenda
anaendelea
anaendesha
anafaa
anafahamika
anafanikiwa
anafanya
anafika
anafikia
anafuata
anafundisha
anagundua
anahesabiwa
anaheshimiwa
anahisi
anahitaji
anahudumu
anahusika
anahusishwa
anaichezea
anaimba
anaingia
anaishi
anaitwa
anajaribu
anajifunza
anajikuta
anajua
anajulikana
anakaa
anakataa
anakkale
anakua
anakubali
anakufa
anakuja
anakula
anakumbuka
anakumbukwa
anakutana
anakuwa
analecta
analenga
analia
analojia
analysis
analytical
anam
anambra
anamiliki
anampa
anampenda
anamwambia
anania
anaona
anaondoka
anaonekana
anaongea
anaongoza
anaonyesha
anapaswa
anapata
anapenda
anapendelea
anapewa
anaphylaxis
anapiga
anapokea
anapokuwa
anarudi
anaruhusiwa
anas
anasa
anasema
anasemekana
anashika
anashikilia
anashindwa
anashiriki
anasifika
anasifiwa
anasikia
anasimulia
anasisitiza
anasoma
anastahili
anastasi
anastasia
anastasio
anastasius
anatafuta
anataja
anatajwa
anataka
anatakiwa
anatambua
anatambulika
anatarajia
anatawala
anatazamwa
anatembea
anatoa
anatoka
anatokea
anatolia
anatomia
anatomy
anatumia
anauawa
anavutiwa
anavyoweza
anawakilisha
anaweka
anaweza
anaye
anayecheza
anayechezea
anayeendelea
anayefahamika
anayefanya
anayeheshimiwa
anayehudumu
anayehusika
anayeichezea
anayeishi
anayeitwa
anayejua
anayejulikana
anayekumbukwa
anayeongoza
anayependa
anayetajwa
anayetaka
anayetumia
anayewakilisha
anayeweza
anayo
anazidi
anazungumza
anazungumzia
anc
anchieta
anchor
ancienne
ancient
ancona
and
andalus
andalusia
andaman
andean
anders
andersen
anderson
andes
andhra
andiko
andishi
ando
andorra
andrade
andre
andrea
andreas
andrei
andrew
andrews
andrey
android
andromeda
andy
anemia
ang
anga
angahewa
angakaskazi
angakusi
angalau
angali
angalia
angani
angavu
ange
angekuwa
angel
angela
angeles
angelico
angelina
angelo
angels
anger
angers
angeweza
angiotensin
angkor
angle
anglican
anglikana
anglo
angola
angolan
angolensis
anguko
anhalt
ani
ania
animal
animals
animated
animation
anime
anita
anjela
anjouan
ankara
ankole
ankırı
anlıurfa
ann
anna
annales
annan
annapurna
anne
annie
anniversary
anno
annotated
annual
annuario
anofelesi
anonymous
anopheles
another
ans
ansd
anselm
anser
answers
ant
anta
antaktika
antaktiki
antalya
antananarivo
antarctic
ante
antelope
antena
anthem
anthology
anthony
anthropological
anthropology
anthropolojia
anthus
anti
antibiotiki
antibodi
antigua
antijeni
antili
antinoe
antinoo
antioch
antioche
antiokia
antioko
antique
antiquities
antiquity
anto
antoine
anton
antoni
antonia
antonino
antonio
antonius
antony
anullinus
anuwai
anwani
anwar
any
anya
anyiro
anything
anywa
anza
ao
aondoke
aone
aonekane
aorta
aosta
aota
aou
ap
apa
apac
apalis
apart
apartheid
apate
apenini
apewe
apis
aplonis
apo
apocalypse
apollo
apolo
apoloni
apophthegmata
apostle
apostles
apostolic
app
appeal
appeared
appears
appendix
appiah
appietus
apple
applegate
appleton
application
applied
applying
approach
approaches
apps
apr
apre
april
aprili
aprilimartyrologium
apus
aq
aqaba
aquila
aquileia
aquinas
aquino
aquitaine
ar
ara
arab
arabe
arabia
arabian
arabic
arabu
arafat
aragon
aral
arap
arbor
arc
arch
archaeological
archaeology
archbishop
archdiocese
arche
archer
archibald
archidioecesis
archimedes
architecture
archiv
archive
archived
archives
archuleta
arctic
ardahan
ardea
ardhi
ardhini
are
area
areas
arena
aretha
argentina
argo
ari
aria
ariana
ariel
aries
ario
aristoteli
aristotle
arithropodi
arizona
arjuna
ark
arkansas
arles
arlington
armadilo
arme
armenia
armenian
arms
armstrong
army
arne
arno
arnold
aro
arobaini
aron
around
arp
arrangement
arrangements
arranger
arras
arrow
ars
arse
arsenal
art
arte
arthroleptis
arthur
article
articles
artificial
artist
artiste
artists
arts
artvin
arua
aruba
arubaini
arudi
arusha
arusi
as
asa
asadi
asali
asante
asasi
ascension
asd
ash
asha
ashanti
ashe
ashes
ashgate
ashiki
ashinde
ashley
ashuru
ashy
asia
asian
asiatic
asiatiki
asidi
asie
asije
asili
asilia
asilimia
asimov
asin
asiwe
asiweze
asiye
asiyejulikana
asiyekuwa
asizi
ask
askari
asked
askofu
asmara
asp
aspects
aspirini
aspx
ass
assad
assam
assembly
assengaonline
assessment
assia
assisi
assistance
assistant
associated
association
assosa
assumption
assyria
astana
astashahada
asteroidi
aston
astronomia
astronomical
astronomy
astrophysical
astrophysics
asubuhi
aswan
at
ata
atacama
atafanya
ataishi
ataitwa
atakayekuwa
atakuwa
atalanta
atanasi
atapata
atarudi
atatu
ataweza
atbara
atbarah
aten
ateri
athanasius
athari
athena
athene
athens
athi
athira
athlete
athletes
athletic
athletics
athroskopia
athumani
ati
atieno
atiria
atiya
atkins
atkinson
atlanta
atlantic
atlantiki
atlantique
atlantis
atlas
atlasi
atle
atletico
atoe
atolli
atomi
atomia
atomic
atomu
atp
atta
attack
atti
attila
attributed
attwater
au
auawe
aubin
auckland
auctoritate
audi
audience
audio
audrey
auf
aug
augsburg
august
augusta
auguste
augustin
augustine
augustini
augustino
augusto
augustus
auplopus
aura
aureli
aurelius
aureus
aurora
aus
auschwitz
austen
austin
australasia
australasian
australia
australian
australis
austria
austrian
author
authorities
authority
authors
autism
auto
autobiography
automatisering
autumn
autun
auvergne
aux
auxerre
av
available
avant
ave
avec
avengers
aventure
avenue
average
avery
avia
aviation
avignon
avila
aviv
avon
avril
awa
awach
awad
awali
awamu
award
awards
awareness
awash
away
awe
aweze
awiya
awori
axel
axis
axum
ay
aya
ayalandi
ayat
aydın
ayman
ayo
ayoni
aythya
ayubu
az
azad
azam
azania
azerbaijan
azhar
azidi
azikiwe
azimio
aziz
azizi
azma
azori
azteki
azur
azure
azzam
b
ba
baa
baada
baadae
baadaye
baadhi
baali
bab
baba
babake
babar
babati
babbler
babeli
babu
babuloni
baby
babyface
bach
bachelor
bacillus
back
backed
background
backstreet
bacon
bacteria
bad
badae
badala
baden
badger
badilifu
badiliko
bado
baekje
baez
bafana
baffin
bafing
bafta
bafu
bafuni
bag
bagamoyo
baghdad
bagirmi
bagnoregio
bagoue
bah
baha
bahamas
bahari
baharia
baharini
bahasha
bahati
bahi
bahia
bahn
bahr
bahrain
bahri
baht
bai
baikal
bailey
baina
bainifu
baiolojia
baisikeli
baiskeli
baja
bajeti
bak
baka
bakari
baker
bakhita
bakita
bakr
bakteria
bakuli
bal
bala
balaa
balance
balbu
baldwin
bale
balfour
bali
balkan
balkani
ball
ballad
ballet
ballon
balotelli
balozi
baltic
baltiki
baltimore
balıkesir
bamako
bamba
bamboo
bamburi
ban
bana
banana
banca
banco
band
banda
bandari
bandarini
banded
bandia
bang
banga
bangalore
bangi
bangili
bangkok
bangla
bangladesh
bango
bangolo
bangui
banguko
bani
banj
banjul
bank
banka
banking
banks
banque
bantu
bantustan
banu
bao
baobab
baobonye
bapa
baptism
baptist
baptista
baptiste
baqir
bar
bara
barabara
barabarani
barack
barafu
barafuto
baragumu
baraka
barakoa
barani
baraza
barbados
barbara
barber
barbera
barbet
barbra
barbuda
barcelona
barclays
bare
bargash
barghash
bari
bariadi
baridi
baringo
baringohttps
barka
barker
barlow
barn
barnaba
barnard
barnes
barnett
barnsley
baroda
barolong
baron
barra
barraba
barre
barred
barrett
barrier
barrow
barry
bart
barth
bartolomeo
barton
bartın
barua
baruch
baruku
baruti
bas
basata
base
baseball
based
basel
bashir
basi
basic
basil
basili
basilica
basilika
basimba
basin
basis
basketball
basotho
basque
basra
bass
bassam
basse
bastian
bastola
basutoland
bat
bata
batalioni
bates
bath
bathynomus
bati
batis
batista
batman
battista
battle
battles
battuta
bauer
bauhaus
baumann
bavaria
bawa
bawaba
baxter
bay
baya
bayan
bayana
bayar
bayburt
bayda
bayer
bayern
bayt
bb
bbc
bbva
bc
bce
bd
be
bea
beach
beacon
beaked
beaming
bean
bear
bearded
beast
beat
beata
beati
beatles
beatrice
beats
beaufort
beautiful
beauty
beauveria
bebe
bec
became
because
beck
becker
beckham
become
becomes
bed
beda
bede
bedford
bee
beeman
been
beer
bees
beethoven
before
beg
bega
begin
beginning
begins
behavior
behind
bei
beijing
being
beira
beirut
beki
bel
bela
belarus
belfast
belgian
belgium
belgrade
belief
beliefs
believe
belinda
belize
bell
bella
belle
bellied
bello
belo
belong
beloved
below
belt
ben
benchi
bend
bendera
bendi
benedict
benedictine
benedikto
benfica
bengal
bengali
bengaluru
benghazi
bengo
benguela
beni
benignus
benin
benito
benjamin
benki
bennet
bennett
benny
benson
bent
bentham
bentley
benton
benue
benyamini
benz
benzodiazepini
beowulf
ber
berardo
berber
berbera
berectina
berenike
berg
bergamo
bergen
berger
bergman
beri
bering
berkeley
berlin
bermuda
bern
bernadette
bernard
bernardino
bernardo
bernd
bernhard
bernie
berry
bertha
bertram
bertrand
bes
besanc
beseni
besi
best
bet
beta
beteri
beth
bethlehemu
beti
betri
better
betty
between
beukes
beverley
beverly
beyonce
beyond
bf
bh
bhakti
bhishma
bhopal
bhrt
bhutan
bi
bia
biafra
bianchi
biashara
bibi
bibiarusi
bible
biblia
biblical
bibliografia
bibliography
biblioteca
bibliothe
bibliotheca
bichi
bicolor
biden
bidhaa
bidii
bie
bien
biennale
big
biggest
bigiano
bihar
biharamulo
bikira
biko
bila
bilauri
bilbao
bild
bilecik
bilioni
bill
billboard
billed
billie
billings
billion
billy
bima
bin
binadamu
binafsi
binamu
bing
bingen
bingo
bingwa
bint
binti
bio
bioanuwai
biodiversity
biografia
biographical
biographie
biographies
biography
biokemia
biological
biology
biolojia
biomasi
biopsi
bir
bird
birding
birds
birisi
birmingham
birth
birthday
bis
bisau
biscuits
bishop
bishops
biskuti
bismarck
bison
bissau
bit
bitch
biti
bitinia
bitis
bitlis
bittern
biya
bizanti
bizerte
bj
bjo
bk
bl
black
blackburn
blackwell
blair
blaise
blake
blame
blanc
blanco
blandina
blantyre
bleach
bleckmann
bless
blessed
blessing
blige
blind
blixen
bloch
block
blockers
bloemfontein
blog
blogs
blogspot
blogu
blood
bloom
bloomberg
bloomington
bloomsbury
blow
blu
blue
blues
bluu
bmg
bmi
bmr
bnf
bnp
bo
boa
board
boas
boat
boateng
bob
bobby
boca
boda
bodi
bodies
body
boeing
boethius
bog
bogota
bohemia
bohr
bois
bokassa
boko
bole
boli
bolivar
bolivia
boll
bollywood
bologna
bolt
bolton
bolu
boma
bomb
bomba
bombay
bombo
bombomu
bombwe
bomet
bomu
bon
bonaire
bonaparte
bonaventura
bonaventure
bond
bonde
bondeni
bondia
bondo
bondoukou
bone
bones
bongo
bongocinema
bonhoeffer
boni
boniface
bonifas
bonifasi
bonn
bonnie
bonny
bono
bonus
book
booker
booklet
books
booksources
boom
boot
booth
bop
bor
bora
bordeaux
border
borders
borealis
borg
borges
boris
boriti
borja
born
bornean
borneo
borno
borromeo
borrow
borussia
bosch
bosco
bosi
bosnia
boss
boston
bot
botania
botanical
both
botha
boti
botswana
bottom
bou
bouake
boubou
boulaye
boulder
boulevard
bouna
bound
bounkani
bourges
bourgogne
boushaki
bouzid
bovidae
bow
bowl
box
boy
boyd
boyer
boyle
boys
boyz
bozzoli
bp
bpd
br
bra
brabant
brachystegia
brackish
brad
bradford
bradha
bradley
bradt
brady
braga
bragg
brahe
brahim
brahman
brain
bran
branch
brand
brandenburg
brandi
brandon
brandt
brandy
branham
brashi
brasil
brass
brat
bratislava
braun
bravo
braxton
brazil
brazili
brazilian
brazza
brazzaville
bre
bread
break
breaking
breakthrough
breasted
breki
bremen
brenda
brendan
brepols
brescia
bretagne
breton
brett
breviari
breviarium
breviary
brewer
breweries
brewing
brewster
brian
brick
bride
bridge
bridges
bridget
brie
brief
brien
briggs
bright
brighton
brill
bring
brink
brisbane
bristol
brit
britain
britania
britannica
briteni
british
britney
britt
brittany
britten
broad
broadcast
broadcasting
broadway
brock
brody
broken
bromine
bromwich
bronkasi
bronson
bronx
bronze
bronzi
brook
brooke
brooklyn
brooks
bros
brosnan
brother
brothers
brought
browed
brown
browns
bruce
brugge
brunei
bruno
brunswick
brush
brussels
bruxelles
bryan
bryant
bsc
bss
bt
bu
buabua
bubanza
bubo
bubu
buchanan
buchner
buchosa
buck
bud
budaka
budapest
buddha
buddhism
buddy
budi
bududa
buenos
buff
buffalo
buffy
buganda
bugiri
buhari
buhigwe
buhweju
bui
buibui
buikwe
building
buildings
built
bujumbura
bukavu
bukedea
bukhari
bukini
bukit
bukoba
bukombe
buku
bulambuli
bulawayo
bulbul
bulgaria
bulgarian
buliisa
bull
bullard
bulletin
bulls
buluu
bumbuli
bunda
bundesliga
bundestag
bundi
bundibugyo
bundo
bunduki
bunge
bungeni
bungo
bungoma
bungu
buni
bunifu
bunilizi
bunny
bunting
bunyoro
bunzi
bura
burchell
burdur
bure
bureau
burger
burgess
burgos
burgundy
burj
burkina
burkinafaso
burlington
burma
burn
burning
burnley
burns
burr
burrowing
burrows
bursa
burton
buru
burudani
burundi
bururi
bus
busara
busby
busega
busekelo
bush
bushenyi
busia
business
bust
busta
bustani
bustard
busu
but
butaleja
buteo
butere
buti
butiama
butler
butterfly
buttonquail
butu
buu
buvuma
buyende
buyeo
buyoya
buzz
buzzard
bw
bwana
bwawa
bweha
bweni
by
byanyima
bye
byrne
byron
byzacena
byzantine
byzantium
c
ca
cabinda
cabinet
cable
cabo
cabral
caecilia
caecilian
caecilianus
caesar
caesarea
caesariensis
caesarius
caf
cafe
cage
cagliari
cahiers
cai
cain
cairo
caisse
caixa
caja
cal
calabar
calabria
calais
calcium
calculator
calcutta
caldina
calendar
calgary
cali
calidris
california
call
called
calling
calls
calvin
cam
cambodia
cambridge
came
camel
camelopardalis
camera
camerapix
cameron
cameroon
camille
camp
campaign
campania
campbell
camping
campo
camponotus
camps
campus
camus
can
canada
canadian
canal
canaria
canary
cancer
cancik
candy
canis
cankuzo
cannabidiol
cannabis
cannes
cannon
cannot
canon
canonization
canons
canonum
canter
canterbury
canton
canyon
cap
cape
capella
capensis
capital
capitalism
capitol
capped
cappella
caprimulgus
caprivi
captain
caption
capua
car
caracara
caracas
caraffa
carbon
card
cardiff
cardinal
cardinalfish
carduelis
care
career
carey
cargo
caribbean
carina
carl
carla
carling
carlo
carlos
carlsson
carlton
carmel
carmelite
carmen
carnegie
carol
carole
carolina
caroline
carolyn
carpenter
carpet
carpodacus
carr
carrie
carrillo
carroll
carson
cartagena
carter
carthage
cartoon
carvalho
cary
casa
casablanca
casale
casbah
cascades
case
cases
casey
cash
casino
casper
caspian
cassianus
cassidy
cassini
cast
castanea
castello
castle
castor
castro
casts
cat
catalina
catalog
catalogue
catalonia
catania
catch
catechism
catechismo
category
caterina
catfish
cathay
cathedral
cathedrales
catherine
catholic
catholicae
catholicism
catholics
catholicsaints
cato
cattolica
caucasian
cause
causes
cavally
cave
cavell
caxton
cayman
cayo
cb
cbc
cbd
cbn
cbold
cbs
cc
ccel
ccm
cd
cdc
cdm
cdu
ce
cecafa
cecil
cecilia
cef
celebrate
celebrated
celebrating
celebration
celebrity
celeste
celestino
celina
celine
cell
celta
celtic
cembre
cemetery
cena
cengage
censimenti
census
cent
centauri
center
centers
central
centrale
centre
centro
centropus
centuries
century
ceo
cephalophus
cercopithecus
ceremony
ceres
cerf
cerro
certain
certificate
certification
cervantes
ceuta
ceylon
cf
cfa
cfm
cfr
cgi
ch
cha
chaabi
chabad
chacha
chache
chachu
chad
chadema
chadi
chadwick
chaetura
chafu
chafya
chaguo
chaguzi
chai
chain
chaji
chaka
chake
chakehttp
chakehttps
chakemartyrologium
chako
chakula
chale
chalinze
challenge
challenges
cham
chama
chamber
chamberlain
chambers
chameleon
champagne
champaign
champion
champions
championship
championships
chamwino
chan
chance
chances
chandarua
chandra
chaneli
chang
changa
changamani
changamano
changamoto
changarawe
change
changed
changes
changing
changu
chanjo
channel
chansela
chansella
chant
chantal
chante
chanya
chanzo
chao
chaos
chap
chapa
chapati
chapel
chapeli
chapisho
chaplin
chapman
chapter
chapters
character
characters
charadrius
charge
chari
charity
charles
charleston
charlie
charlotte
charlton
charrie
chart
charter
chartered
chartres
charts
chase
chasez
chat
chata
chatham
chati
chato
chatu
chavua
chawa
che
cheche
chechele
check
cheeked
cheikh
chekechea
chekoslovakia
chekundu
chelsea
chelyabinsk
chema
chemba
chembamba
chembe
chembechembe
chembeuzi
chemchemi
chemical
chemistry
chen
chenene
chennai
chenye
chenyewe
cheo
cherang
cherero
cherry
chesapeake
chess
chested
chester
chestnut
cheti
chetu
cheupe
cheusi
chez
chi
chiang
chiapas
chiarini
chiba
chibu
chicago
chicken
chico
chief
chiefs
chiesa
chifu
chihuahua
child
childhood
children
chile
chimbuko
chimpanzee
chimurenga
chin
china
chinese
chini
chinichini
chinua
chios
chipmunks
chipsi
chipukizi
chiriku
chisholm
chloe
chlorine
cho
chobe
chochea
chochote
chocolate
choice
choir
chokaa
chokoleti
chole
choma
chombo
chong
chonga
chonge
choo
chopin
chopra
choreography
chororo
chotara
chote
chozi
chre
chris
christ
christi
christiaan
christian
christiana
christiane
christianity
christianorum
christians
christie
christina
christine
christmas
christology
christoph
christophe
christopher
chrome
chronicle
chronicles
chronicon
chronology
chrysostom
chss
chu
chuchu
chuchunge
chuck
chui
chujio
chuki
chukua
chuma
chumba
chumbani
chumvi
chun
chung
chungu
chunguzi
chungwa
chunusi
chunya
chuo
chuoni
chupa
chura
church
churches
churchill
ci
cia
ciara
cibitoke
cid
cie
cincinnati
cinderella
cine
cinema
cinematography
cinerea
cinnamon
cinnyris
cio
circa
circle
circumcision
circus
cistercian
cisticola
cite
citeaux
cited
citibank
cities
citizen
citizens
citrus
citta
city
citypopulation
ciudad
civic
civil
civilisation
civilization
ck
cl
claims
claire
clairvaux
clan
clara
clare
claremont
clarendon
clark
clarke
class
classic
classical
classics
classification
claude
claudia
claudio
claudius
claus
clautus
claver
clawed
clay
clayton
cle
clean
clear
cleef
clegg
clement
cleopatra
clergy
clerk
clermont
cleveland
click
cliff
clifford
climate
climbing
clinical
clint
clinton
clio
clip
clipperton
clitherow
clive
close
closer
closet
cloud
clouds
club
cluny
clyde
cm
cms
cn
cndd
cnewa
cnn
cnrs
co
coach
coahuila
coal
coalition
coast
coastal
coat
cobb
cobra
coca
cochrane
coco
cocos
code
codex
coetzee
coffee
cohen
coke
col
cola
colby
cold
cole
coleman
coleoptera
coli
colima
colin
coll
collaboration
collared
collected
collection
collections
collective
college
colleges
collegeville
collins
colobus
cologne
colombia
colombo
colonel
colonia
colonial
colonialism
colonnade
colony
color
colorado
colors
colour
coloured
columba
columbia
columbus
com
combined
combs
come
comedy
comes
comesa
comfort
comhttp
comic
comics
coming
command
commentaries
commentary
comments
commerce
commercial
commission
committee
common
commons
commonwealth
commune
communication
communications
communion
communist
communities
community
como
comoe
comoro
comoros
companion
companions
company
comparative
comparison
compendium
competition
compilation
compiled
complete
complex
compline
composed
composition
compostela
comprehensive
compton
computer
computing
comte
con
conakry
concept
conception
concepts
concerning
concert
concerto
concilii
concise
concord
concordia
conde
conditions
confederations
conference
confession
confessions
confessor
conflict
confucian
confucianism
confucius
congar
congo
congregation
congress
connect
connecticut
connection
connor
conquest
conrad
conscience
consciousness
consequences
conservation
conservative
considered
constantine
constantinople
constantius
constellation
constellations
constituency
constitution
constitutional
construction
consulte
contact
containing
contains
conte
contemporary
content
contenus
context
continent
continental
continents
continues
continuum
contra
contraceptive
contre
contribution
contributions
control
controversy
convent
convention
conversation
conversion
conwy
cook
cooke
cool
coolio
cooper
cooperation
cooperative
coordinates
coordination
coot
cop
copa
copenhagen
copernicus
copies
coppa
copper
copte
coptic
copy
copyright
cor
coracina
coral
corbusier
cordillera
cordoba
core
corinthians
cork
corleone
cormorant
corn
cornelius
cornell
corner
cornish
cornwall
corolla
corona
coronavirus
corp
corporate
corporation
corps
corpus
corrales
correspondence
corruption
corsica
corte
cortes
cortez
cortona
corvus
cosmas
cosmos
cost
costa
cote
cotonou
cotton
coua
coucal
could
council
councils
count
counter
countries
country
county
countytrak
coupe
couple
courage
course
court
cousteau
covenant
cover
coverage
covering
covers
covid
coward
cox
cp
cpp
cppcg
cpu
cr
crab
craft
craig
crake
crane
crash
crater
crawford
cray
crazy
crc
cre
cream
created
creating
creation
creative
credit
creed
creek
cremona
creole
crescent
crested
crew
cricket
crime
crimean
crimes
criminal
crimson
crisis
cristata
cristiana
cristiano
cristina
cristo
crithagra
critical
criticism
critics
critique
croatia
crocidura
crocodile
croix
crop
cropped
crosby
cross
crow
crowe
crown
crowned
crowther
cruise
crusade
cruz
cry
crystal
cs
csf
csiro
css
ct
ctu
cu
cuando
cuanza
cuba
cuban
cubango
cube
cuckoo
cuckooshrike
cuf
cullen
cult
culto
cultura
cultural
culture
cultures
cum
cummings
cunene
cunha
cunningham
cup
cura
cure
curie
curious
curr
current
curriculum
curse
curtis
cushing
custom
customs
cut
cuthbert
cutting
cv
cw
cyanocorax
cycle
cyclops
cygnus
cylinder
cymbopogon
cynthia
cypress
cyprian
cyprus
cyril
cyrus
czech
d
da
daa
dabakala
dabo
dacb
dacianus
dada
dadake
daddy
daftari
dag
dagaa
dagoretti
dahab
dahomey
dai
daily
daima
daimler
daisy
dajaja
dakar
dakika
dakota
daktari
dal
dalai
dale
dalili
dallas
dallet
dalmatia
daloa
dalton
daly
dam
dama
damara
damas
damascus
damasko
damaso
dame
dameski
damian
damiani
damiano
damien
damietta
damon
damu
dan
dana
dance
dancehall
dancer
dancing
danger
dangerous
dangote
daniel
daniele
danieli
daniels
danish
danki
danny
dans
dansi
dante
danube
danubi
danzig
daoud
dar
daraja
darasa
darasani
daressalaam
darfur
dari
dario
darius
dark
darkness
darmstadt
daro
darubini
darwin
darya
das
dash
dashiki
dat
data
database
date
dated
dates
dating
dativus
dau
daudi
daughter
daughters
dave
david
davido
davidson
davies
davis
dawa
dawamfadhaiko
dawati
dawn
dawson
day
dayosisi
days
dayton
daz
db
dc
dcma
dd
ddc
ddt
de
deacon
dead
deadly
deal
dean
dear
death
deaths
debate
debbie
debe
debod
deborah
debut
dec
decade
december
decision
decius
declaration
decreto
dedan
dedicated
dee
deeds
deep
deer
def
defao
default
defence
defense
defining
definition
definitive
defunct
degli
degree
dei
dekula
del
delaware
delgado
delhi
dell
della
delle
delphinus
delta
dem
dementia
demetrius
demi
demo
democracy
democratic
demografia
demokrasia
den
dendera
dendrocitta
deng
dengi
deni
denis
denise
denizli
denmark
dennis
densi
densiti
dent
denver
deo
deon
department
departments
depo
depth
der
derby
derek
dereva
derg
derrick
des
descartes
descent
description
desemba
desembahttps
desembamartyrologium
desert
desh
design
designer
desire
desmond
desperate
desse
destination
destiny
destruction
desturi
det
detail
detailed
details
detective
detroit
dettaglio
deus
deuterokanoni
deutsch
deutsche
deutschen
deutscher
deutsches
deutschland
deux
developing
development
devi
devil
devils
devon
devoted
devotion
dewey
dey
dfb
dhabi
dhabihu
dhabiti
dhahabu
dhahania
dhahiri
dhaifu
dhaka
dhamana
dhambi
dhamira
dhamiri
dhana
dharau
dharma
dharura
dhati
dhehebu
dhidi
dhihaka
dhiki
dhima
dhoruba
dhritarashtra
dhulma
dhuluma
dhumuni
di
dia
diab
dialect
diallo
dialogue
diamond
diamonds
diana
diane
diarra
diary
dias
diaspora
diastolic
diaz
dibaji
dice
dick
dickinson
dicrurus
dictionary
dictionnaire
did
diddy
didier
die
died
diego
dies
dietrich
dieu
difenda
difference
different
digest
digidigi
digital
digitized
digo
digrii
dijitali
dijiti
dijon
dik
dikteta
dil
dillon
dimbokro
dimbwi
dimenshia
dimensions
din
dina
dinamo
dinger
dini
dinosauri
dio
dioce
diocese
diocesi
diocletian
diocletianus
dioecesis
dioguardi
dioklesyano
dioklesyanohttp
diokletian
dioksidi
dion
dionisi
dionysius
dioskoro
diospyros
diploma
diplomacy
diplomasia
diplomatic
diptera
dir
dira
dire
direct
directed
direction
director
directors
directory
dirisha
dirty
disaster
disc
disco
discography
discogs
discount
discourse
discover
discovered
discovery
discusses
discussion
disease
diseases
diseli
disemba
diski
diskografia
disney
disorder
disorders
display
dissertation
dissertationes
distance
distributed
distribution
district
districts
dit
dite
dition
ditions
diva
divai
diversity
divina
divine
divisheni
division
divo
diwani
dixon
diyarbakır
diz
dizasta
dizeli
dizionario
dizzy
dj
dje
djebar
djiboua
djibouti
djuablin
dk
dknob
dkt
dl
dlamini
dm
dn
dna
do
doa
dobrik
doc
docs
doctor
doctors
doctrine
doctrines
document
documenta
documentary
documentation
documents
dodd
dodoma
doe
does
dog
dogg
doggy
dogma
dogmatics
dogo
dogs
doha
doherty
doi
doing
dokolo
dokta
dola
dolar
dole
dollar
dollars
dolly
dolomiti
dolphin
dom
domain
dome
domenico
domestic
domingo
domini
dominic
dominica
dominican
dominico
dominika
dominikana
dominiko
dominique
domo
domofupi
don
donald
donati
donatistas
donato
donda
dondoo
done
dong
donge
donis
donna
donovan
doo
door
dopamine
dopamini
doppler
dora
dorado
doreen
doria
doris
dormouse
dorothy
dortmund
dos
dosari
dotterbolag
douala
double
doubleday
doubt
doug
douglas
dougou
dove
dover
down
downers
download
downloads
downtown
doyle
dozi
dp
dq
dr
draft
dragon
drake
drakensberg
drama
dramatic
drc
dre
dream
dreaming
dreams
dreamworks
dresden
dress
drew
drewes
drink
driscoll
drive
driver
dro
drongo
drug
drugs
drum
drums
dry
dsc
dsm
du
dua
duara
duaradufu
dub
dubai
dube
dublin
dubu
dubwana
duchesne
duchess
duck
dudley
dudumizi
due
duet
duffy
duiker
duka
dukani
duke
dukes
dully
duma
dumas
dume
dumuzi
dunant
dunbar
duncan
dundee
dunford
dung
duni
dunia
duniamartyrologium
duniani
dunn
duns
dunstan
duo
dupri
dura
durango
durban
durham
during
duru
dusky
dust
dutch
dutton
dutu
duty
dvd
dvor
dvt
dw
dwarf
dweru
dwight
dylan
dynamics
dynasty
dz
e
ea
eabl
eac
each
eagle
eagles
eala
ear
eared
earl
earlier
earliest
early
earth
east
easter
eastern
eastleigh
easton
eastwood
easy
eater
eating
eatv
eazy
eb
ebay
ebola
ebony
ec
eccle
eccles
ecclesiae
ecclesiarum
ecclesias
ecclesiastica
ecclesiastical
ecf
echo
echr
eck
eclipse
ecmo
eco
ecobank
ecole
ecology
economic
economics
economist
economy
ecuador
ecumenical
ed
eddie
eddy
edem
eden
edeni
edessa
edfou
edfu
edgar
edge
edicions
edinburgh
edirne
edison
edit
editathon
edited
edith
editing
edition
editions
editor
editorial
editors
editrice
edizione
edizioni
edmond
edmonds
edmonton
edmund
edn
edna
edo
edoardo
eds
edu
eduard
eduardo
education
educational
educazione
edvard
edward
edwards
edwin
ee
eerdmans
ef
efeso
effect
effects
efforts
eg
egan
egerton
egg
ego
egypt
egyptian
ehir
ei
eight
eighteenth
eighth
eileen
ein
eine
einer
einstein
eire
eisenhower
ek
ekari
ekaristi
ekiti
ekliptiki
eko
ekolojia
eksirei
ekuador
ekumeni
ekwador
el
ela
elaine
eland
elazıg
elbe
eldama
elder
eldoret
ele
eleanor
election
elections
electoral
electoralcollege
electric
electricity
electronic
elegans
elegant
elekeo
elektroni
elektroniki
element
elementi
elements
elena
elephant
elevation
eleven
elezo
elf
elfu
elgar
elgeyo
elgon
eli
elia
elias
elie
elijah
elimu
elimunafsia
eliot
elisabeth
elisabeti
elisha
elite
eliya
elizabeth
elizabeti
elki
ella
elle
ellen
elles
elliot
elliott
ellis
elmina
elsa
elsie
elton
elvis
em
emanuel
embakasi
embassy
embe
emberiza
embu
emedicine
emerald
emergence
emerging
emeritus
emerson
emfisema
emi
emil
emile
emilia
emiliani
emilio
emily
emin
eminem
emir
emirates
emirati
emma
emmanuel
emmy
emperor
empire
empress
en
encarta
enciclopedia
encore
encyclopaedia
encyclopedia
encyclopædia
end
endangered
endapo
ende
endelevu
ending
endokrini
ends
enemy
eneo
energy
eng
engare
engels
engine
engineer
engineering
engineers
england
english
enhanced
enkidu
enlightenment
eno
enough
enovid
enrico
enrique
ensemble
entebbe
enter
enterprise
enterprises
entertainer
entertainment
entre
entries
entry
enugu
environment
environmental
enya
enyaji
enye
enyi
enyo
enzi
enzo
enzyme
ep
epa
ephesus
epic
epidemiolojia
epidemolojia
epinephrine
epiphanius
episcopal
episcopi
episcopo
episcoporum
episcopus
episode
epistemology
epistle
epistles
eplf
eprdf
epsilon
equality
equatoria
equatorial
equity
equus
er
era
erasmus
eratosthenes
eremitae
eric
erica
erich
eridanus
erie
erik
erin
eris
eritrea
ernest
ernst
eropleni
eros
ers
erwin
erzincan
erzurum
es
esa
esc
escape
escherichia
escriva
esd
esinofili
eskis
espan
especially
espn
essai
essay
essays
essence
essential
essex
est
esta
estado
estate
este
ester
esther
estimates
estonia
estrojeni
eswatini
et
eta
etc
eternal
ethanoli
ethereal
ethics
ethiopia
ethiopian
ethiopic
ethnic
ethnologue
eti
etienne
etimolojia
etosha
etrange
etrangeres
ets
etudes
etymology
eu
eucharist
euge
eugene
eugenio
eujeni
eukaryota
euler
eulogi
eulogius
euphonia
euplectes
eurasia
eurasian
euro
europa
europe
european
eusebi
eusebius
eva
evan
evangelical
evans
eve
evelyn
even
evening
event
events
ever
everest
everett
everton
every
everybody
everyday
everything
evidence
evil
evolution
evolutionary
evra
ewaso
ewe
ex
examination
example
excavations
excellence
excerpt
excerpts
exchange
exclusive
executive
exeter
exhibition
exile
exists
exodus
expanding
expansion
expedition
experience
expert
experts
explained
explanation
exploration
explorer
exploring
export
express
expression
extended
extensive
external
extra
extreme
eye
eyed
eyes
eyez
eyre
ez
ezana
eze
ezekiel
ezekieli
ezra
f
fa
fabaceae
fabian
fabolous
fabriano
face
facebook
faced
faces
facing
facsimile
fact
factbook
factor
factory
facts
faculty
fadak
fadhila
fadhili
fafanuzi
fahali
fahamu
faharasa
fahari
faida
faila
failed
faili
failure
fainali
faini
fair
fairfield
fairy
faisal
faith
faithful
fake
fal
falaki
falciparum
falco
falcon
falkland
fall
falling
fallingrain
falls
fally
falme
falsafa
false
fame
familia
families
family
famous
fan
fanani
fani
fans
fantastic
fantasy
fante
fanya
fao
faq
far
faragha
farah
faraja
farakano
farao
farasi
farid
farida
farisi
farm
farmer
farnham
faroe
farrell
farsy
faru
fasaha
fashion
fasihi
faso
fast
fastes
fat
fatal
fate
fateh
father
fathers
fathi
fathy
fatima
fatimah
fatma
fatuma
fatwa
fauna
faustina
fausto
faustus
favorite
favourite
faye
fb
fbi
fc
fd
fda
fdd
fdl
fe
fear
feast
feat
feature
featured
features
featuring
feb
februari
februarihttps
februarimartyrologium
february
fecture
fede
federal
federation
federico
fedha
feed
feel
feet
feldman
feleji
felice
felicity
felipe
felis
felisi
felista
felix
fell
fellow
fellows
fellowship
female
femi
feminism
feminist
femme
femmes
fer
ferdinand
ferguson
feri
fermi
ferna
fernandez
fernando
ferrand
ferrara
ferrari
ferrer
ferry
fes
fest
festival
fever
few
ff
ffd
fg
fgm
fi
fib
fiba
ficedula
fiche
fiction
ficus
fid
fide
fidel
fidelis
fidia
fidla
field
fields
fiesta
fifa
fifi
fifth
fig
fight
fighter
fighting
figo
figure
figures
fiji
fika
fikira
fikra
fil
filamu
filan
file
filemoni
files
filimbi
filipi
filipino
filipo
filippo
film
filmfare
filming
filmografia
films
filmu
fimbi
fimbo
fin
final
finali
finally
finance
financial
finch
find
finding
findo
finds
fine
finisia
finland
finn
finyu
fiore
fire
firefox
firenze
firigogo
firm
first
fischer
fischeri
fish
fisher
fishing
fisi
fistful
fitina
fitzgerald
fitzpatrick
five
fizikia
fiziolojia
fk
fl
flag
flajela
flame
flamingo
flanders
flandria
flash
flat
flathead
flava
flavius
flavour
fleischer
fleming
fletcher
flickr
flies
flight
flood
floor
flops
flora
florence
flores
florida
flow
flower
flowers
floyd
flute
fly
flycatcher
flying
flynn
fm
fnl
fo
focus
fogo
foinike
foley
foligno
folio
folk
folklore
follow
following
follows
fomati
fomu
fomula
fomyula
fonda
fondation
fonimu
fontes
fontsize
food
foods
fool
foot
football
footed
for
forbes
force
forced
forces
ford
forecast
forecasts
foreign
forest
forever
foreword
forget
forgotten
form
format
formation
former
forms
formula
forodha
forodhani
fort
fortress
fortunati
fortune
fortuner
forty
forum
forward
fosfati
foster
fosyo
found
foundation
foundations
founder
founding
fountain
four
fourth
fowey
fowler
fox
fr
fra
frac
fragments
frame
frameless
franc
france
frances
francesco
franchise
francia
francis
franciscan
franciscans
francisci
francisco
franck
franco
francois
francolin
frank
frankfurt
frankie
franklin
franks
frans
fransiska
fransisko
franz
fraser
frati
fratrum
frauen
fre
fred
freddie
frederic
frederick
frederik
fredrik
free
freedom
freeman
freestyle
freetown
freiburg
frelimo
fremu
french
frequency
fresco
fresh
freud
friars
frida
friday
fridays
friedman
friedrich
friend
friends
friendship
frigia
frisia
fritz
friuli
frodebu
frog
frogsinminiaturecoffins
from
front
fronted
frontie
frontier
frost
fruit
fruits
frumensyo
ft
fu
fuck
fuego
fueli
fufu
fugees
fujo
fukara
fuko
fukuoka
fukwe
fula
fulani
fulanifulani
fulham
fulica
full
fuller
fully
fulvetta
fumbatio
fumbo
fumbwe
fumo
fun
function
functions
fund
fundamentalism
fundanus
fundi
fundisho
fundo
funga
fungi
fungo
fungu
fungua
fungunyota
funguo
funguvisiwa
funisciurus
funk
fununu
fupanyonga
fupi
fur
furaha
furious
furred
fursa
further
furukombe
fusion
fuso
futa
futi
futsal
future
futures
fuvu
fuwele
g
ga
gaba
gabi
gabon
gaborone
gabriel
gabrieli
gabriella
gaddafi
gadi
gaetano
gafsa
gaga
gagarin
gagnoa
gaidi
gairo
gaius
gal
gala
galago
galaksi
galana
galantuomo
galatia
galatians
galaxy
gale
galia
galicia
galilaya
galilei
galileo
galleries
gallery
gallia
gallimard
gallirallus
gallo
gallus
galoni
galva
galway
gama
gamal
gamba
gambia
game
games
gameti
gamma
gan
ganda
gandhi
gandunia
gang
ganga
ganglia
gangsta
gani
ganja
ganjavi
gantt
ganzi
gao
gap
garang
garci
garcia
garden
gardens
gardner
garfield
gari
garimoshi
garissa
garland
garner
garonne
garrett
garth
garvey
gary
gas
gasherbrum
gaston
gastroenteritis
gatanga
gate
gates
gateway
gatundu
gauge
gaul
gaule
gaulle
gauni
gauteng
gavana
gave
gavin
gay
gaza
gazella
gazelle
gazeteer
gazeti
gazette
gazetteer
gaziantep
gazprom
gb
gbe
gcatholic
gdp
ge
gebel
gebre
gebrselassie
gecko
gedi
gee
gegedu
gegereka
geita
geji
gellersen
gem
gemini
gemma
gen
gender
gene
genealogy
general
generale
generation
generations
genesis
genet
genetics
genetta
geneva
genge
genghis
geni
genital
genitive
genius
genji
genk
genoa
genocide
genome
genova
genseriki
gentile
geo
geoffrey
geographic
geographical
geography
geological
geology
geonames
geordavie
georg
george
georges
georgetown
georgia
georgian
ger
geral
gerald
gerard
gereza
gerezani
gerhard
germain
german
germania
germaniae
germany
gerry
gertrude
gervinho
geschichte
gesellschaft
gesi
gesijoto
gesta
get
getamap
geti
gets
gettier
getting
gh
ghafi
ghafla
ghala
ghali
ghana
ghanahomepage
ghanaian
ghanaweb
ghandi
ghanzi
gharama
gharika
ghasia
ghat
ghazal
ghetto
ghorofa
ghost
ghosts
ghuba
ghulam
gi
gia
giacomo
gian
gianfranco
giant
gibb
gibbs
gibe
gibraltar
gibson
gideon
gif
gift
giga
giganteus
gikuyu
gil
gilbert
gilgamesh
gilgil
giligili
gill
gillespie
gimba
gina
gion
giorgio
giotto
giovanni
giovinco
gir
giraffa
giresun
girl
girlfriend
girls
girolamo
gisenyi
gishu
gita
gitaa
gitega
githongo
giulia
giulio
giuseppe
givalius
give
given
gives
giving
giza
gizani
gje
gladys
glasgow
glasi
glass
glaucidium
glavu
glen
glenn
gli
gliadini
glise
global
globe
globu
gloria
glories
glorification
glory
glossa
glossary
glossina
glottolog
glover
glukosi
glutamate
glutamati
gluteni
gm
gnu
go
goa
goal
goat
god
godfrey
godoro
gods
godwin
goes
goethe
gofu
gogh
goguryeo
going
goire
goku
gold
goldberg
golden
goldman
golf
goli
goliath
golikipa
goma
gombe
gombo
gome
gomes
gomez
gonda
gone
gonna
gontougo
gonza
gonzaga
gonzalez
gonzalo
good
goodbye
goodluck
goodman
goodwill
google
goose
gordian
gordon
gore
gorilla
goromwe
goshawk
gospel
gospels
got
gotham
gothic
gothoburgensia
gothoburgensis
goti
goto
gottfried
gould
gourna
gov
government
governor
govpubs
goya
gps
gr
gra
grace
graduate
graeca
graffin
graffiti
grafu
graham
grahamstown
grain
gram
grammar
grammy
gramu
gran
granada
grand
grande
grands
grant
graphic
graphics
grass
grassfields
grave
graviti
gray
graz
gre
great
greater
greatest
greatness
grebe
grec
greco
gredi
greece
greek
green
greenbul
greene
greenland
greens
greenwich
greenwood
greg
gregaria
gregg
gregor
gregori
gregorian
gregorio
gregory
grenada
grenadini
grenoble
greta
grey
griffin
griffith
grimke
grimm
griot
gro
groningen
groote
groove
grosbeak
gross
grottaferrata
ground
group
groups
grove
grover
growing
growth
gru
grus
gruyter
gryllotalpa
gs
gse
gsm
gt
gu
guadalajara
guadalupe
guadeloupe
guam
guangdong
guangzhou
guard
guardian
guatemala
guba
gue
guernsey
guerrero
guest
guevara
guez
guide
guidelines
guides
guido
guild
guillaume
guillermo
guine
guinea
guinness
guitar
gujarat
gularis
gulf
gull
gulu
gumba
gumu
gumzo
gun
gundi
gunung
gupta
gurls
guru
gurudumu
guruguru
gustaf
gustav
gustave
gutenberg
guthrie
gutierrez
guy
guyana
guzman
gwanda
gwen
gypte
h
ha
haag
haba
habari
habeshi
habib
habitat
habsburg
habyarimana
hackett
had
hadhara
hadharani
hadhi
hadhira
hadi
hadith
hadithi
hadrian
hadubini
hafez
hafidhi
hafifu
hafla
hagai
hagia
hagiography
hague
hahn
hai
haidrojeni
haieleweki
haifai
haihitaji
haihusiani
haijawahi
haijulikani
haiku
haikubaliki
haikuchukua
haikujulikana
haikuwa
haikuwahi
haikuweza
haikuwezekana
hail
haile
haimaanishi
haina
haionekani
haionyeshi
haipatikani
haipo
hair
hairuhusiwi
hairy
haitakiwi
haitegemei
haiti
haitoi
haitokei
haitoshi
haitumiki
haiwezekani
haiwezi
haja
hajafa
hajapata
hajawahi
haji
hajj
hajui
haki
hakika
hakiki
hakikisha
hakim
hakimiliki
hakimu
hakina
hakiwezi
hakuacha
hakucheza
hakufanikiwa
hakufanya
hakufaulu
hakujua
hakukubali
hakukuwa
hakuna
hakupata
hakupenda
hakutaka
hakuwa
hakuwahi
hakuweza
hal
halafu
halaiki
halali
hale
haley
half
hali
halifax
halihewa
halijoto
halijulikani
halikadhalika
halikuwa
halima
halina
halipo
halisi
halisia
haliwezi
hall
halle
hallelujah
halley
halmahera
halmashauri
ham
hamad
hamali
hamas
hamasa
hambol
hamburg
hamburger
hamed
hamid
hamilton
hamira
hamisa
hamisi
hammer
hammond
hamna
hampshire
hampton
hamsini
hamu
hamza
han
hana
hanang
hand
handaki
handbook
handeni
handle
hands
hane
hang
hangeweza
hank
hanna
hannah
hannibal
hannover
hanoi
hanover
hans
hanse
hansen
hao
haorodheshwi
hapa
hapakuwa
hapana
hapendi
hapo
happens
happiness
happy
hara
haraka
harakaharaka
harakati
harald
haram
harambee
haramu
harar
harare
harbor
harbour
harcourt
hard
hardcover
harding
hardy
hare
hargeisa
harikeni
hariri
harleen
harlem
harmattan
harmonize
harmony
harold
harp
harper
harpercollins
harrassowitz
harrier
harriet
harris
harrison
harry
hart
hartford
harufu
haruhusiwi
harun
haruna
haruni
harusi
harvard
harvey
has
hasa
hasahasa
hasan
hasara
hasi
hasira
hassan
hastings
haswa
hat
hata
hataki
hatakiwi
hatamu
hatari
hatarini
hatarishi
hatay
hataza
hatcher
hate
hathor
hati
hatia
hatiani
hatima
hatimaye
hatimiliki
hatshepsut
hatua
hatujui
hatuna
hatutakiwi
hatuwezi
haujulikani
haukuwa
haukuweza
hauna
hauonekani
hausa
haut
haute
hautoshi
hauwezi
havana
have
haven
havikuwa
havina
having
haviwezi
hawa
hawaa
hawaii
hawaiian
hawajawahi
hawajui
hawako
hawakubali
hawakuelewa
hawakujua
hawakuona
hawakupata
hawakupenda
hawakuridhika
hawakuruhusiwa
hawakutaka
hawakuwa
hawakuweza
hawana
hawaoni
hawaorodheshwi
hawapati
hawapendi
hawaruhusiwi
hawataki
hawawezi
hawezi
hawk
hawkins
hay
haya
hayafai
hayajulikani
hayakuwa
hayana
hayati
hayawezi
haydn
hayes
hayo
hayupo
hayward
hazard
hazijulikani
haziko
hazikuwa
hazikuweza
hazina
hazinadata
hazionekani
hazipatikani
hazipendekezwi
hazipo
haziwezi
hb
hbs
hcards
hcv
hd
he
head
headed
headies
heads
healing
health
hear
heard
heart
hearts
heat
heath
heather
heaven
heavy
heavyweight
hebrew
hebrews
hector
hedgehog
hedhi
hee
hegel
heidelberg
heidi
height
heights
heilige
heiligen
heiligenlexikon
heimat
heinemann
heinrich
hekalu
hekaluni
hekari
hekaya
hekima
hekta
hektari
hela
held
helen
helena
helgoland
heli
helikopta
hell
heller
hello
helmut
help
helsinki
hema
hemidactylus
hemoglobini
hemoroidi
hempstead
henchir
henderson
hendricks
hendrik
hendrix
henri
henrik
henry
heparini
hepatitis
hepatitisi
hepesi
heptathlon
her
herald
herausgegeben
herbert
hercules
herder
here
heresies
heresiesdativo
heri
heritage
herman
hermann
hermas
hermit
herna
hero
herode
herodoti
herodotus
heroes
heroini
heron
herrnhut
herschel
hersi
hertz
herufi
herzegovina
herzog
hes
hesabu
heshi
heshima
hesse
het
hevelius
hewa
hewani
hewlett
hex
hey
hg
hi
hiace
hiari
hibis
hichi
hicho
hicks
hidalgo
hidden
hidrojeni
hidrokaboni
hierarchy
hifadhi
hifadhidata
higgins
high
higher
highest
highland
highlands
highlife
highly
highway
hii
hija
hijabu
hijra
hiki
hiko
hila
hilali
hilari
hilarion
hilary
hilda
hildegard
hildegarde
hildesheim
hili
hill
hillary
hills
hilo
hilohilo
hilton
him
himalaya
himalayan
himaya
himoglobini
himself
hinabuluu
hinckley
hind
hinde
hindi
hindu
hio
hip
hiplife
hippo
hippocrates
hips
hiro
hiroglifi
hiroshima
hirundo
his
hisa
hisabati
hisani
hisham
hisi
hisia
hispania
hispaniola
hist
histo
histoire
historia
historian
historians
historic
historica
historical
histories
historiography
historique
history
hit
hitaji
hitchcock
hitilafu
hitimisho
hitler
hits
hiv
hivi
hivo
hivyo
hiyo
hiyohiyo
hizi
hizo
hl
hla
hm
hms
ho
hobbes
hockey
hodari
hodder
hodgkin
hodgson
hoffman
hoffmann
hofu
hoi
hoima
hoja
hojaji
hokkaido
hold
holding
holdings
hole
holiday
holiness
holland
holloway
holly
hollywood
holmes
holocaust
holstein
holt
holweck
holy
homa
home
homecoming
homeland
homepage
homer
homiliae
homilies
homily
homme
homo
homoni
hon
honda
hondohondo
honduras
honey
hong
hongo
hongwe
honolulu
honor
honorary
honorata
honori
honorius
honour
honshu
hood
hooded
hook
hoorn
hoover
hop
hope
hopkins
hopper
horace
hordaland
hori
horizon
horizons
horn
hornbill
horned
horner
horror
horse
horst
horton
horus
hosana
hosea
hospital
hospitali
hospitalini
hospitals
host
hosted
hot
hotel
hoteli
hotels
hotspur
hotuba
houghton
hour
hours
house
houses
housing
houston
hovyo
how
howard
howe
howell
however
hp
hpa
hr
hrsg
hsbc
hsv
ht
htm
html
htmlhttp
htmlhttps
http
https
hu
hua
huacha
huadhimisha
huadhimishwa
huainishwa
huambatana
huambo
huambukiza
huambukizwa
huamini
huaminika
huaminiwa
huamua
huandaa
huandaliwa
huandamana
huandika
huandikwa
huang
huangalia
huangaliwa
huanguka
huanza
huanzia
huanzisha
huashiria
huathiri
huathirika
huathiriwa
hubadilika
hubadilisha
hubadilishwa
hubaki
hubakia
hubble
hubeba
hubebwa
hubei
hubert
huboresha
huchagua
huchaguliwa
huchanganywa
huchangia
huchapisha
huchapishwa
hucheza
huchezwa
huchimba
huchochea
huchomwa
huchukua
huchukulia
huchukuliwa
huchunguza
huchunguzwa
hudai
hudhaniwa
hudhibiti
hudhibitiwa
hudhihirika
hudhihirisha
hudhurungi
hudokeza
hudson
huduma
hudumisha
hudumu
huelekea
hueleza
huelezea
huelezwa
huenda
huendelea
huendeleza
huendesha
huendeshwa
huenea
hufa
hufafanuliwa
hufanana
hufanya
hufanyika
hufanywa
hufariki
hufika
hufikia
hufikiria
hufikiriwa
hufuata
hufugwa
hufundisha
hufundishwa
hufunga
hufungwa
hufunika
hufunikwa
hufyonza
huganda
hugawanyika
hugawanywa
hugawiwa
hugeuka
hugh
hughes
hugo
huhamia
huharibu
huhesabiwa
huhifadhiwa
huhisi
huhitaji
huhitajika
huhusiana
huhusika
huhusisha
huhusishwa
hui
huiangalia
huibuka
huila
huimba
huingia
huingizwa
huishi
huishia
huita
huitwa
huja
hujaa
hujaribu
hujazwa
hujenga
hujengwa
hujifunza
hujihusisha
hujiita
hujilisha
hujishughulisha
hujitokeza
hujiunga
hujulikana
hujumuisha
hukaa
hukadiriwa
hukamata
hukantaival
hukatwa
hukiakia
hukiangalia
huko
hukohuko
hukosa
huku
hukua
hukubali
hukubaliana
hukumu
hukusanya
hukusanyika
hukusanywa
hukutana
hukuza
hukuzwa
hula
hulala
hulenga
huleta
hulijenga
hulimwa
hulinda
hulingana
huliwa
hulka
hull
hum
humaanisha
human
humanitarian
humanities
humanity
humanrights
humber
humboldt
hume
humo
humpa
humphrey
humsaidia
humu
humwaga
huna
hundi
hundred
huneriki
hung
hungaria
hungarian
hungary
hunger
hunt
hunter
huntington
huntley
hunyesha
hunywa
huo
huogelea
huohuo
huona
huondoa
huondoka
huondolewa
huonekana
huonesha
huongea
huongeza
huongezeka
huongezwa
huongoza
huongozwa
huonwa
huonyesha
huonyeshwa
hupanda
hupandwa
hupanga
hupangwa
hupata
hupatikana
hupelekea
hupelekwa
hupenda
hupendekeza
hupendekezwa
hupendelea
hupendelewa
hupendwa
hupewa
hupiga
hupigwa
hupikwa
hupimwa
hupita
hupitia
hupitisha
hupitishwa
hupokea
hupotea
hupoteza
hupungua
hupunguza
hurejea
hurejelea
huria
huron
huru
hurudi
huruhusu
huruka
huruma
hus
husababisha
husababishwa
husafiri
husafirishwa
husaidia
husambazwa
husayn
husband
husein
husema
hushikilia
hushindwa
hushiriki
hushirikiana
hushughulikia
hushuka
husika
husimama
husimamia
husisitiza
husoma
hussain
hussein
husukumwa
hususa
hususan
hususani
hutafsiriwa
hutafuta
hutaga
hutaja
hutajwa
hutaka
hutambua
hutambulika
hutambuliwa
hutamkwa
hutawaliwa
hutazamiwa
hutazamwa
hutchinson
hutegemea
hutekelezwa
hutembea
hutembelea
hutenda
hutengeneza
hutengenezwa
huteuliwa
hutibiwa
hutiririka
hutiwa
hutoa
hutofautiana
hutofautisha
hutofautishwa
hutoka
hutokana
hutokea
hutolewa
hutu
hutuma
hutumia
hutumika
hutumiwa
hutunza
hutunzwa
huu
huua
huunda
huundwa
huungana
huunganisha
huunganishwa
huuzwa
huvaa
huvaliwa
huvuka
huvuta
huvutia
huwa
huwafanya
huwakilisha
huwapa
huwasaidia
huwasiliana
huwasilishwa
huweka
huwekwa
huwepo
huweza
huwezesha
huwezi
huwinda
huxley
huyataga
huygens
huyo
huyu
huzaa
huzalisha
huzalishwa
huzaliwa
huzidi
huzingatia
huzuia
huzunguka
huzungumza
huzungumzwa
huzuni
hwale
hyde
hyderabad
hydra
hydrogen
hymns
hz
i
ia
iaaf
ian
ianuaria
ianuarius
iarc
iata
iau
ib
ibada
ibadan
ibanda
ibara
ibaraki
iberia
ibilisi
ibis
ibm
ibn
ibrahim
ibrahimu
ic
icao
icc
icd
ice
iceland
icelandic
ich
ichiro
icici
icon
iconography
icons
icp
icrc
ict
icty
icu
id
ida
idadi
idaho
idara
idd
iddi
idea
ideas
identification
identity
ideology
idhaa
idhini
idi
idibia
idol
idols
idris
ie
ieee
if
ifakara
ife
iffou
ifikapo
ifuatavyo
ifuatayo
ig
iganga
igbo
igcse
igembe
igizo
iglesias
ignacio
ignas
ignatius
igor
igulu
igunga
ihefu
ii
iii
iiliyopo
iitwayo
ijapokuwa
ijayo
ijulikanayo
ijumaa
ik
ikaanza
ikabaki
ikaendelea
ikaingia
ikaitwa
ikaja
ikaonekana
ikaongezeka
ikapata
ikapewa
ikatokea
ikawa
ike
ikielekea
ikiendelea
ikifanya
ikifuata
ikifuatiwa
ikifuatwa
ikiitwa
ikijulikana
ikijumuisha
ikilinganishwa
ikimaanisha
ikionekana
ikionesha
ikiongozwa
ikionyesha
ikipakana
ikipata
ikisema
ikitoa
ikitokea
ikitumia
ikitumika
ikitumiwa
ikiunganisha
ikiwa
ikiwemo
ikiwezekana
iko
ikolojia
ikulu
ikumbukwe
ikungi
ikweta
il
ila
ilala
ilani
ile
ileile
ileje
ilemela
ilha
ilhali
ili
iliad
iliadhimishwa
iliaminika
iliamua
iliamuliwa
iliandaa
iliandaliwa
iliandikwa
iliangaliwa
iliangazia
ilianguka
ilianza
ilianzia
ilianzisha
ilianzishwa
iliathiri
iliathiriwa
ilibadilika
ilibadilisha
ilibadilishwa
ilibaki
ilibidi
ilibuniwa
ilichaguliwa
ilichangia
ilichapisha
ilichapishwa
ilicheza
ilichezwa
ilichukua
ilichukuliwa
ilidai
ilidumu
ilielezwa
ilienda
iliendelea
iliendelezwa
ilienea
ilifanikiwa
ilifanya
ilifanyika
ilifanywa
ilifaulu
ilifika
ilifikia
ilifikiriwa
ilifuata
ilifuatiwa
ilifuatwa
ilifungua
ilifunguliwa
ilifungwa
ilifutwa
iligawanywa
iligawiwa
iligundua
iligunduliwa
ilihali
ilihamia
ilihamishwa
iliharibiwa
ilihesabiwa
ilihitaji
ilihusisha
iliibuka
iliidhinishwa
iliimbwa
iliingia
iliingizwa
iliisha
iliitwa
ilijaribu
ilijenga
ilijengwa
ilijitokeza
ilijiunga
ilijulikana
ilijumuisha
ilijumuishwa
ilikaa
ilikabidhiwa
ilikadiriwa
ilikaliwa
ilikamilika
ilikataa
ilikosa
ilikua
ilikubali
ilikubaliwa
ilikuja
ilikuwa
ilikuwepo
ilikwenda
ilikwisha
ililazimishwa
ililenga
ilileta
ilimaanisha
ilimaliza
ilimalizika
ilimbidi
ilimfanya
ilimpa
ilimradi
ilinunua
ilinunuliwa
iliomba
iliona
iliondoka
iliondolewa
ilionekana
iliongeza
iliongezeka
iliongezwa
iliongoza
iliongozwa
ilionyesha
ilionyeshwa
iliopo
iliorodheshwa
ilipanda
ilipanga
ilipangwa
ilipanuliwa
ilipaswa
ilipata
ilipatikana
ilipatwa
ilipeleka
ilipelekea
ilipelekwa
ilipendekeza
ilipendekezwa
ilipewa
ilipiga
ilipigwa
ilipita
ilipitisha
ilipitishwa
ilipo
ilipoanza
ilipoanzishwa
ilipofika
ilipofikia
ilipokea
ilipokelewa
ilipokuwa
ilipopata
ilipopitishwa
iliporomoka
ilipotea
ilipoteza
ilipungua
ilirejeshwa
ilirekodiwa
iliripoti
iliripotiwa
ilirudi
ilirudishwa
iliruhusu
ilirushwa
ilisababisha
ilisaidia
ilisaini
ilisema
ilisemekana
ilishika
ilishinda
ilishindana
ilishindikana
ilishindwa
ilishiriki
ilishirikisha
ilishuka
ilisimamiwa
ilistawi
ilitafsiriwa
ilitaja
ilitajwa
ilitaka
ilitakiwa
ilitambua
ilitambuliwa
ilitangaza
ilitangazwa
ilitawala
ilitawaliwa
ilitayarishwa
ilitazamiwa
ilitazamwa
ilitegemea
ilitekelezwa
ilitekwa
ilitengenezwa
iliteuliwa
ilithibitisha
ilithibitishwa
ilitoa
ilitoka
ilitokana
ilitokea
ilitolewa
ilitoweka
ilituma
ilitumia
ilitumika
ilitumiwa
ilitungwa
ilitunukiwa
ilitwaa
ilitwaliwa
iliunda
iliundwa
iliungana
iliunganisha
iliunganishwa
iliuza
iliuzwa
ilivamia
ilivamiwa
ilivunja
ilivunjwa
ilivutwa
ilivyo
ilivyoandikwa
ilivyoelezwa
ilivyokuwa
ilivyoonekana
ilivyotokea
iliwabidi
iliwahi
iliwasilishwa
iliweka
iliwekwa
iliweza
iliwezekana
iliwezesha
iliyo
iliyoandaliwa
iliyoandikwa
iliyoanza
iliyoanzishwa
iliyoathiriwa
iliyobadilishwa
iliyobaki
iliyobuniwa
iliyochaguliwa
iliyochapishwa
iliyochezwa
iliyochorwa
iliyochukuliwa
iliyodumu
iliyoendelea
iliyoendeshwa
iliyoenea
iliyofanikiwa
iliyofanya
iliyofanyika
iliyofanywa
iliyofaulu
iliyofuata
iliyofuatia
iliyofungwa
iliyoganda
iliyohifadhiwa
iliyoitwa
iliyojaa
iliyojengwa
iliyojulikana
iliyojumuisha
iliyokamilika
iliyokatwa
iliyoko
iliyokolea
iliyokua
iliyokubaliwa
iliyokufa
iliyokuja
iliyokuwa
iliyokuwepo
iliyokwenda
iliyolenga
iliyomo
iliyoongezeka
iliyoongozwa
iliyoonyesha
iliyoonyeshwa
iliyopangwa
iliyopata
iliyopatikana
iliyopelekea
iliyopendekezwa
iliyopewa
iliyopigwa
iliyopita
iliyopitishwa
iliyopo
iliyoratibiwa
iliyorekodiwa
iliyoripotiwa
iliyosababisha
iliyosababishwa
iliyosambazwa
iliyoshika
iliyoshinda
iliyosimamiwa
iliyotajwa
iliyotambuliwa
iliyotangazwa
iliyotangulia
iliyotawala
iliyotawaliwa
iliyotayarishwa
iliyotengenezwa
iliyotengwa
iliyothibitishwa
iliyotiwa
iliyotoa
iliyotoka
iliyotokana
iliyotokea
iliyotolewa
iliyotumia
iliyotumika
iliyotumiwa
iliyotungwa
iliyoua
iliyoundwa
iliyounganisha
iliyounganishwa
iliyowahi
iliyowekwa
iliyoweza
iliyozungumzwa
ilizidi
ilizindua
ilizinduliwa
ilizuia
ilkuwa
ill
illinois
illustrated
illustrations
illustribus
ilo
ilunga
ilya
im
image
images
imagination
imaging
imakulata
imam
imamu
iman
imani
imara
imdb
imeandaliwa
imeandikwa
imeangaliwa
imeanza
imeanzisha
imeanzishwa
imeathiriwa
imebadilika
imebadilishwa
imebaki
imechangia
imechapishwa
imechukua
imechukuliwa
imeendelea
imeenea
imefanya
imefika
imefikia
imefikisha
imefungwa
imefunikwa
imegawanyika
imegawanywa
imegawiwa
imegunduliwa
imehesabiwa
imehifadhiwa
imehusishwa
imeitwa
imejaa
imejengwa
imejikita
imejulikana
imekadiriwa
imekaribia
imekua
imekuwa
imekwisha
imenti
imeonekana
imeongezeka
imeongozwa
imeonyesha
imeonyeshwa
imeorodheshwa
imepakana
imepangwa
imepata
imepatikana
imepelekea
imependekezwa
imepewa
imepita
imepokea
imepokewa
imepotea
imepungua
imeripotiwa
imesababisha
imeshinda
imeshindwa
imeshuka
imetafsiriwa
imetajwa
imetambulika
imetambuliwa
imetayarishwa
imetengenezwa
imetengwa
imethibitishwa
imetoa
imetoka
imetokana
imetokea
imetolewa
imetoweka
imetumika
imetumiwa
imetungwa
imeunda
imeundwa
imeunganishwa
imeuza
imewahi
imewasilishwa
imewekwa
imeweza
imezidi
imezungukwa
imf
img
immaculate
immanuel
immortality
imo
impact
impala
imperial
imperialism
impi
implications
import
important
in
ina
inaadhimishwa
inaainishwa
inaajiri
inaaminika
inaaminiwa
inaandikwa
inaangazia
inaanza
inaanzia
inaashiria
inaathiri
inabadilika
inabaki
inabakia
inabeba
inabidi
inachangia
inacheza
inachezwa
inachukua
inachukuliwa
inachunguza
inadai
inadaiwa
inadhaniwa
inadokeza
inadumu
inaelekea
inaeleweka
inaeleza
inaelezea
inaelezwa
inaendelea
inaendesha
inaendeshwa
inaenea
inafaa
inafafanua
inafahamika
inafanana
inafanya
inafanyika
inafanywa
inafika
inafikia
inafikiriwa
inafuata
inafundisha
inahesabiwa
inahitaji
inahitajika
inahudumia
inahusiana
inahusika
inahusisha
inahusishwa
inahusu
inaingia
inaishia
inaitwa
inajaribu
inajenga
inajitokeza
inajulikana
inajumlisha
inajumuisha
inakaa
inakabiliwa
inakadiriwa
inakaribia
inakisiwa
inakua
inakuja
inakusanya
inakuwa
inakuza
inakwenda
inalenga
inaleta
inalingana
inamaanisha
inamiliki
inamilikiwa
inaonekana
inaonesha
inaongeza
inaongezeka
inaongoza
inaongozwa
inaonyesha
inaonyeshwa
inaorodhesha
inapakana
inapanda
inapaswa
inapata
inapatikana
inapendekeza
inapendekezwa
inapigwa
inapita
inapitia
inapokea
inapopatikana
inapungua
inapunguza
inarejelea
inarudi
inaruhusu
inasababisha
inasababishwa
inasaidia
inasema
inasemekana
inashika
inashiriki
inashirikisha
inashughulikia
inasimama
inasimamia
inasimamiwa
inasimulia
inasimuliwa
inasisitiza
inasukuma
inataja
inatajwa
inataka
inatakiwa
inatambua
inatambulika
inatamkwa
inatangaza
inatarajiwa
inatawala
inatawaliwa
inatazama
inatazamwa
inategemea
inatekelezwa
inatengeneza
inatengenezwa
inathibitisha
inatoa
inatofautiana
inatoka
inatokana
inatokea
inatolewa
inatosha
inatumia
inatumika
inatumiwa
inatunza
inaunda
inaundwa
inaungana
inaunganisha
inaunganishwa
inauzwa
inavyojulikana
inavyoonekana
inavyotakiwa
inavyoweza
inawakilisha
inaweza
inawezekana
inawezesha
inayo
inayoambukiza
inayoandikwa
inayoanza
inayoathiri
inayobadilika
inayobeba
inayochangia
inayochunguza
inayoelekea
inayoelezea
inayoendelea
inayoendeshwa
inayofaa
inayofahamika
inayofanana
inayofanya
inayofanyika
inayofanywa
inayofikia
inayofuata
inayofunika
inayohitaji
inayohitajika
inayohusiana
inayohusika
inayohusisha
inayohusishwa
inayohusu
inayoingia
inayoitwa
inayojitegemea
inayojulikana
inayojumuisha
inayokua
inayokuja
inayolenga
inayolingana
inayomaanisha
inayomilikiwa
inayoonekana
inayoongezeka
inayoongoza
inayoongozwa
inayoonyesha
inayopakana
inayopanda
inayopatikana
inayopendwa
inayopita
inayopokea
inayoruhusu
inayosababisha
inayosababishwa
inayosaidia
inayosema
inayoshiriki
inayosimamiwa
inayotaja
inayotajwa
inayotakiwa
inayotegemea
inayotengeneza
inayotengenezwa
inayotia
inayotoa
inayotoka
inayotokana
inayotokea
inayotolewa
inayotumia
inayotumika
inayotumiwa
inayounda
inayoundwa
inayounganisha
inayoweza
inayowezekana
inayowezesha
inayozalisha
inayozidi
inayozingatia
inayozuia
inayozunguka
inayozungumzwa
inazalisha
inazidi
inazingatia
inazuia
inazunguka
inazungumzia
inc
inchi
include
included
includes
including
incorporated
incredible
increment
inde
independence
independent
index
indexes
indi
india
indian
indiana
indianapolis
indians
indica
indicus
indies
indigenous
indigo
indigobird
indio
indira
individual
indo
indochina
indonesia
indoor
indri
indus
industrial
industries
industry
ine
inf
infectious
inflamesheni
influence
influences
influential
influenza
influenzae
info
information
infotrakresearch
infraredi
ing
ingawa
ingawaje
ingekuwa
ingeweza
ingine
ingizo
ingolstadt
inhabitants
ini
inia
initiative
injera
injili
injini
injinitreni
inka
inland
inn
inner
innocent
innovation
innsbruck
ino
inosenti
inpop
inquiry
inscription
insha
inside
inspector
inspired
instad
instagram
instauratum
institut
institute
institution
institutions
instituto
instruction
instrumental
instruments
insulini
insurance
int
intanet
intaneti
integrated
intel
intellectual
intelligence
inter
interactive
intercontinental
interesting
interior
interlude
internacional
international
internationale
internazionale
internet
interneti
interpretation
interscope
intervarsity
interview
interviews
into
intro
introduction
introductory
invasion
invention
invertebrata
investigation
investment
io
ioannis
iodini
iol
ioni
iowa
ip
ipa
ipandwayo
ipasavyo
ipcc
iphone
ipi
ipitayo
ipo
ipp
ippmedia
ipupa
ipv
ir
ira
irabu
irak
iraki
iramba
iran
irani
iranian
iranica
iraq
iraqi
iraya
ireland
irene
irenei
iringa
iris
irish
iro
iron
irony
irving
is
isa
isaac
isaaq
isabel
isabella
isabelle
isaka
isakos
isaya
isbn
isha
ishak
ishara
ishirini
isichanganywe
isidore
isidori
isimu
isingiro
isiolo
isipokuwa
isis
isitoshe
isiwe
isiyo
isiyofaa
isiyohamishika
isiyojulikana
isiyokuwa
isiyoonekana
isiyotumia
isiyoweza
isla
islam
islamabad
islamic
island
islands
isle
ismail
iso
isoniazidi
isotopi
isparta
israe
israel
israeli
iss
issa
issn
issue
issues
ist
istanbul
istat
istilahi
istituto
it
ita
itabaki
itaendelea
itakuwa
italia
italiahttps
italian
italiana
italiano
italy
itatolewa
itaweza
item
itemid
ithaca
itifaki
itigi
itikadi
itikio
itilima
itolewe
its
itself
itu
itumike
itunes
ituri
itv
iucn
iud
iv
ivan
ivo
ivoire
ivory
ivy
iwapo
iwe
iweze
iwezekanavyo
ix
iyo
izungumzwayo
j
ja
jabal
jabari
jabir
jack
jackal
jackie
jackson
jacksoni
jacksons
jacob
jacobs
jacobus
jacqueline
jacques
jadakiss
jade
jadi
jae
jagger
jah
jahazi
jai
jaipur
jaji
jakarta
jakaya
jake
jakob
jalada
jalidi
jalisco
jam
jama
jamaa
jamaica
jamaika
jamal
jambo
james
jameson
jamestown
jamhuri
jamie
jamii
jammeh
jammu
jamuhuri
jan
jana
jando
jane
janeiro
janet
janga
jangwa
jangwani
jani
janice
janja
jansen
janssen
januari
januarimartyrologium
january
janvier
japan
japanese
japani
japhet
japo
japokuwa
jaramogi
jardin
jaribio
jaribu
jarida
jaroslav
jasho
jasiri
jason
jauza
java
javan
javascript
javier
jawabu
jay
jaya
jazeera
jazz
jazzy
jb
jc
jd
je
jean
jeanjos
jeanne
jeddah
jedwali
jeezy
jeff
jefferson
jeffrey
jehovah
jekundu
jela
jelimo
jema
jemadari
jembamba
jembe
jena
jenasi
jenerali
jenereta
jenetiki
jenetikia
jeneza
jengo
jeni
jenkins
jennifer
jennings
jenny
jenomu
jens
jensen
jer
jeraha
jerboa
jeremiah
jeremy
jerkins
jermaine
jermano
jerome
jeromu
jerry
jersey
jerusalem
jeshi
jeshini
jesse
jessica
jessie
jesu
jesuit
jesuits
jesus
jet
jets
jeunesse
jeupe
jeusi
jewish
jews
jezi
ji
jibini
jibu
jibuti
jicho
jihad
jihadi
jiji
jijini
jike
jiko
jikoni
jill
jim
jimbo
jimboni
jimi
jimmy
jin
jina
jinai
jingi
jingine
jinja
jino
jinsi
jinsia
jiografia
jiolojia
jiometri
jiometria
jioni
jipe
jipu
jipya
jira
jirani
jitihada
jitu
jive
jiwe
jj
jk
jkt
jo
joa
joachim
joan
joanne
joannes
job
jobs
jocelyn
joe
joel
joey
jogoo
johan
johann
johannes
johannesburg
johari
john
johnny
johns
johnson
johnston
johr
joint
jointi
joji
jojo
joka
jolie
jomo
jon
jonas
jonathan
jones
jong
jongo
jongoo
jopo
jordan
jorge
jorgic
jos
jose
josef
joseon
joseph
josephine
josephus
josh
joshua
josiah
joto
jotoridi
jouni
journal
journalism
journalist
journalists
journals
journey
joy
joyce
joyner
jozi
jp
jpeg
jpg
jr
js
jstor
ju
jua
juan
juba
jubba
jubilee
jubilei
judah
judaism
jude
judge
judges
judgment
judith
judo
judy
juhudi
juice
juin
juisi
juja
jukumu
jukwaa
jukwaani
jul
julai
julaimartyrologium
jules
juli
julia
julian
juliana
juliani
juliasi
julie
juliet
julio
julius
july
juma
jumamosi
jumanne
jumapili
jumatano
jumatatu
jumba
jumbe
jumeirah
jumla
jumong
jump
jumuia
jumuishi
jumuiya
jun
junction
june
jung
jungle
juni
junimartyrologium
junior
juniperus
juno
junubi
jupiter
jura
jurassic
jury
just
justice
justin
justine
justinian
justiniani
justus
juu
juujuu
juventus
jux
juz
juzi
juzuu
jwtz
k
ka
kaa
kaabong
kabadougou
kabaila
kabaka
kabale
kabambe
kabarnet
kabarole
kabati
kaberamaido
kabichi
kabila
kabinda
kabisa
kabla
kabohaidreti
kabohidrati
kaboni
kabonia
kabuga
kabul
kaburi
kaburini
kabwe
kachero
kacheza
kadai
kader
kadewele
kadha
kadhaa
kadhalika
kadhi
kadi
kadiri
kadirio
kadri
kaduna
kafara
kafeini
kafiri
kafue
kagame
kagera
kagoma
kahaba
kahama
kahawa
kahawia
kahawiachekundu
kahawianyekundu
kahigi
kahramanmaras
kai
kaika
kaimu
kaini
kairo
kairouan
kaisarea
kaisari
kaiser
kaizari
kaizer
kajiado
kaka
kakake
kakakuona
kakamega
kakao
kakonko
kaku
kakum
kala
kalahari
kalala
kalamazoo
kalambo
kalamu
kalangala
kalasinga
kalawa
kale
kaledonia
kalenda
kalenga
kaler
kali
kalifornia
kalimantan
kaliningrad
kaliro
kalisi
kaliua
kalivari
kalle
kaloleni
kalonzo
kalori
kalou
kalsedonia
kalsiamu
kalungu
kalunguyeye
kam
kama
kamal
kamanda
kamari
kamasi
kamati
kamau
kamba
kambale
kambarage
kambaremamba
kambi
kambini
kambo
kambodia
kamboja
kamchatka
kame
kamel
kamen
kamera
kamerun
kameruni
kamili
kamilifu
kamisheni
kamishna
kamji
kampala
kampasi
kampaundi
kampeni
kampuchea
kampuni
kamuli
kamusi
kamuzu
kamwe
kamwenge
kan
kana
kanaani
kanada
kanali
kanari
kanda
kandamseto
kandanda
kandarasi
kando
kandokando
kane
kang
kanga
kangaja
kangaroo
kangaruu
kanghagha
kani
kanieneo
kanisa
kanisani
kanivali
kanku
kano
kanoni
kansa
kansai
kansas
kansela
kant
kantarusi
kantonalbank
kantori
kanu
kanumba
kanungu
kanuni
kanye
kanzu
kao
kaole
kapadokia
kapenguria
kapilari
kapita
kaplan
kapoor
kapteni
kar
kara
karabakh
karabu
karachi
karadha
karafuu
karagwe
karakana
karakoram
karama
karaman
karamu
karanga
karani
karantini
karaoke
karas
karasuma
karatasi
karate
karatu
karbala
kardinali
karen
karenga
kariakoo
kariba
karibi
karibia
karibiani
karibu
karibuni
karim
kariuki
karl
karma
karmeli
karnataka
karne
karo
karol
karoli
karolo
karonga
karoo
karoti
karpati
kars
karthago
karua
karume
karuzi
kasa
kasai
kasakazini
kasanda
kasanga
kasarani
kasbah
kasese
kasha
kashfa
kashmir
kasi
kasiba
kasinojeni
kasinoma
kasisi
kaskazi
kaskazini
kasoko
kasoro
kaspi
kasri
kasserine
kassim
kast
kastamonu
kastilia
kasuku
kasulu
kasumba
kaswende
kat
kata
katakata
katakwi
katalogi
katanga
katani
katarina
katavi
katazo
kate
kategoria
katekesi
katekisimu
katekista
katerina
katharine
katherine
katheta
kathleen
kathmandu
kathryn
kati
katia
katiba
katibu
katie
katika
katikati
katka
kato
katoliki
katrina
katumbi
katuni
katwe
katy
katz
kau
kaukazi
kauli
kaulimbiu
kaunda
kaunti
kauri
kausi
kavu
kawa
kawaida
kawawa
kawi
kay
kaya
kayanza
kaye
kayseri
kayunga
kazakhstan
kazan
kazi
kazini
kazkazini
kb
kbc
kc
kcb
ke
keating
kebbi
keebler
keep
kef
kei
keita
keith
keiyo
kejeli
kekeo
keki
kelele
keller
kellog
kellogg
kelly
kelvin
kemal
kemia
kemikali
kemotherapi
ken
kenda
kendall
kengele
kenkey
kennedy
kenneth
kenny
kensei
kent
kente
kentridge
kentucky
kenya
kenyaelectoral
kenyan
kenyatta
kenyawww
kenye
kenzo
kepler
kerala
kerem
kereng
kericho
kerio
kero
kerry
kersee
kesho
kesi
kestrel
kete
ketusi
kevin
key
keyboard
keyboards
keynes
keys
keyser
keyshia
kezilahabi
kg
kgalagadi
kgatleng
khadija
khaled
khalid
khalifa
khalil
khamis
khan
khartoum
khatib
kheri
khmer
khoisan
khomeini
khumalo
ki
kia
kiada
kiadamawa
kiafrika
kiafrikaans
kiafrikana
kiafya
kiagta
kiajemi
kiaka
kiakili
kiakiolojia
kialbania
kialtai
kiambishi
kiambu
kiamerika
kiamhari
kiangazi
kianglikana
kiapo
kiarabu
kiaramu
kiarmenia
kiaryan
kiashiria
kiasi
kiasia
kiasili
kiaskofu
kiasmat
kiatlantiki
kiatu
kiaustro
kiaustronesia
kiawyu
kiayalandi
kiayta
kiazeri
kiazi
kiba
kibaale
kibabar
kibada
kibaga
kibaguzi
kibaha
kibahnariki
kibai
kibaka
kibakati
kibaki
kibakteria
kibali
kibalti
kibambara
kibanda
kibantu
kibao
kibara
kibarabara
kibarito
kibatak
kibati
kibaya
kibayolojia
kibelgiji
kibena
kibenedikto
kibengali
kibenki
kibepari
kibera
kiberawan
kiberber
kiberiti
kibete
kibeti
kibiashara
kibibi
kibiblia
kibichi
kibikol
kibima
kibinadamu
kibinafsi
kibiolojia
kibisi
kibiti
kibo
kibodi
kibodish
kibodo
kibofu
kiboga
kiboko
kibondo
kibongo
kibontok
kibonyezo
kiborneo
kibosho
kibosnia
kibuku
kibulgaria
kibunge
kibunu
kiburi
kiburu
kibuyu
kibwagizo
kibwezi
kicelebiki
kichaa
kichadiki
kichagga
kichaka
kichawi
kichefuchefu
kicheki
kichin
kichina
kichocheo
kichocho
kichungaji
kichwa
kichwani
kick
kid
kidaku
kidani
kidari
kidato
kidatu
kidemokrasia
kidenenda
kideni
kidenmark
kidesturi
kidevu
kidhibiti
kidigitali
kidijitali
kidijiti
kidikteta
kidini
kidinka
kidiplomasia
kidiri
kidogo
kidogon
kidole
kidonda
kidonge
kidravidi
kids
kidugu
kidukari
kidunia
kidusiwa
kidusun
kiebrania
kiede
kiedoidi
kiefer
kieire
kiekolojia
kiekumeni
kiel
kielektroniki
kielelezo
kielezi
kielezo
kielimu
kieneo
kienyeji
kiesperanto
kiestonia
kiethiopia
kietruski
kiev
kifaa
kifaduro
kifafa
kifahari
kifali
kifalme
kifalsafa
kifamilia
kifani
kifaransa
kifarsi
kifaru
kifasihi
kifedha
kifilipino
kifini
kifinisia
kifinisterre
kifizikia
kifo
kifodini
kifransisko
kifua
kifuani
kifuko
kifulfulde
kifundo
kifungo
kifungoni
kifungu
kifungua
kifuniko
kifupi
kifupisho
kigadaba
kigaidi
kigali
kigamboni
kiganda
kiganga
kiganja
kigbaya
kigbe
kigelao
kigeni
kigeorgia
kigermanik
kigezo
kigiriki
kigogo
kigoma
kigondi
kigong
kigosi
kigrebo
kigujarati
kigumu
kigunwinyguan
kigur
kigweno
kihafidhina
kihalali
kiharusi
kihausa
kihaya
kihehe
kihimalaya
kihindi
kihindu
kihisabati
kihisi
kihisia
kihispania
kihistoria
kihmong
kiholanzi
kihoro
kihuishui
kihungaria
kihutu
kiikolojia
kiima
kiimani
kiindonesia
kiing
kiingereza
kiingilio
kiini
kiinitete
kiinjili
kiir
kiirani
kiishara
kiisimu
kiislam
kiislamu
kiitalia
kiitaliano
kiitikadi
kiitikio
kiitneg
kiitwacho
kijadi
kijamaa
kijamii
kijana
kijani
kijapani
kijasusi
kijava
kijenetiki
kijenetikia
kijeni
kijerumani
kijeshi
kijicho
kijiji
kijijini
kijiko
kijimbo
kijinsia
kijiografia
kijiolojia
kijiometri
kijitabu
kijiti
kijito
kijivu
kijiyai
kijumla
kijumuia
kijusi
kijuujuu
kikabaila
kikabari
kikabila
kikaboni
kikainji
kikali
kikalinga
kikamilifu
kikanda
kikanisa
kikannada
kikanum
kikanuri
kikao
kikapu
kikara
kikaren
kikarniki
kikatiba
kikatili
kikatoliki
kikaukazi
kikawa
kikawaida
kikayan
kikazakhi
kikazi
kike
kikele
kikelti
kikemia
kikemikali
kikham
kikhmer
kiki
kikinnauri
kikirgizi
kikirili
kikisi
kikiwa
kikiwemo
kikliniki
kiko
kikohozi
kikoli
kikoloni
kikombe
kikomo
kikomunisti
kikonfusyo
kikongo
kikonyo
kikopti
kikorea
kikoro
kikosi
kikota
kikristo
kikroatia
kikru
kikubwa
kikucha
kikuku
kikuletwa
kikundi
kikurdi
kikurumba
kikushi
kikuu
kikuyu
kikwa
kikwazo
kikwete
kila
kilabu
kilakala
kilala
kilalo
kilango
kilatini
kile
kilekile
kilele
kileleni
kilema
kileo
kili
kiliandikwa
kilianza
kilianzishwa
kilichapishwa
kilicho
kilichoandikwa
kilichoanzishwa
kilichochapishwa
kilichofuata
kilichoitwa
kilichoko
kilichokuwa
kilichoongozwa
kilichopo
kilichotengenezwa
kilichotokea
kilichotolewa
kilichoundwa
kilichukua
kiliendelea
kilifanya
kilifi
kiliitwa
kilijengwa
kilijulikana
kilikia
kilikua
kilikuwa
kilima
kilimani
kilimanjaro
kilimo
kilimwengu
kilindi
kilindini
kilingala
kilio
kilipata
kilipewa
kilisababisha
kilishinda
kilithuania
kilitoa
kilitokea
kilitolewa
kilitumika
kiliundwa
kiliweza
kill
killed
killer
killing
kilo
kilogramu
kilolo
kilombero
kilometa
kilomita
kilosa
kilugha
kiluo
kilutheri
kiluwiluwi
kiluwiri
kilwa
kim
kima
kimaadili
kimaandishi
kimaasai
kimadang
kimaendeleo
kimagharibi
kimahaba
kimahakama
kimaisha
kimakhuwa
kimakosa
kimakusudi
kimala
kimalagasi
kimalagasy
kimalay
kimalayalam
kimalayiki
kimaluku
kimanda
kimande
kimani
kimanobo
kimantiki
kimaori
kimapenzi
kimapinduzi
kimapokeo
kimara
kimarekani
kimaria
kimarkesa
kimasai
kimashan
kimasomo
kimataifa
kimatendo
kimathi
kimatibabu
kimaumbile
kimawazo
kimayi
kimazingira
kimbari
kimberley
kimberly
kimbilio
kimbo
kimbunga
kimeandikwa
kimekuwa
kimelanau
kimelea
kimeng
kimeru
kimeta
kimetaboliki
kimetali
kimfumo
kimiao
kimichezo
kimila
kimiminika
kimin
kimisionari
kimisri
kimkakati
kimkoa
kimnong
kimo
kimoja
kimojawapo
kimonaki
kimondo
kimono
kimsingi
kimunda
kimungu
kimuundo
kimuziki
kimwili
kimya
kina
kinabii
kinachofaa
kinachofanana
kinachofanya
kinachohitajika
kinachohusiana
kinachoitwa
kinachojulikana
kinachoonekana
kinachopatikana
kinachorushwa
kinachotengenezwa
kinachotoa
kinachotokana
kinachotokea
kinachotolewa
kinachotumika
kinachotumiwa
kinachoweza
kinachozuia
kinadharia
kinaeleza
kinaelezea
kinafanana
kinaga
kinaganaga
kinahusu
kinaitwa
kinajulikana
kinajumuisha
kinamasi
kinamo
kinanda
kinango
kinangop
kinaonekana
kinaonyesha
kinapatikana
kinara
kinasaba
kinasema
kinasimulia
kinataja
kinatakiwa
kinatoa
kinatumia
kinatumika
kinatumiwa
kinaweza
kind
kinda
kindani
kinder
kindi
kindugu
kinengenenge
kinepali
king
kinga
kingamaradhi
kingamwili
kingbaka
kingdom
kingdoms
kingereza
kingfisher
kingi
kingine
kingo
kingono
kings
kingsley
kingston
kingwi
kiniger
kinigeria
kinili
kinilo
kiniloti
kinilotiki
kinisu
kinney
kinondoni
kinorwe
kinorwei
kinshasa
kinski
kinu
kinubi
kinuya
kinyago
kinyama
kinyang
kinyarwanda
kinyesi
kinyiha
kinyonga
kinyongia
kinyuklia
kinyumbani
kinyume
kinyunga
kinywa
kinywaji
kinywani
kinza
kinzani
kio
kioevu
kiolwa
kiomotiki
kione
kiongozi
kioo
kioromo
kiorthodoksi
kioseaniki
kiosmani
kiota
kiotomatiki
kiowevu
kipa
kipagani
kipahari
kipaimara
kipaji
kipalaung
kipalestina
kipama
kipaman
kipana
kipandauso
kipandava
kipande
kipanga
kipanya
kipapa
kipapua
kipare
kipashai
kipato
kipaumbele
kipawa
kipaza
kipekee
kipenan
kipengee
kipengele
kipengere
kipenyo
kipenzi
kipeo
kipepeo
kipi
kipimaanga
kipimajoto
kipimanjia
kipimo
kipindi
kipindupindu
kipitishi
kipo
kipofu
kipokezi
kipoland
kipolandi
kipolishi
kipozamataza
kippur
kiprotestanti
kipumbavu
kipunan
kipunjabi
kipya
kirafiki
kirahisi
kirai
kiraia
kiraka
kiramu
kirangi
kirasmi
kirby
kirche
kirchner
kirefu
kireno
kirgizia
kiribati
kirinyaga
kirk
kiroho
kiroma
kiromania
kiruhura
kirukanjia
kirumi
kirundi
kirundo
kirusi
kiryandongo
kisa
kisaami
kisababishi
kisafwa
kisahani
kisai
kisaidizi
kisaikolojia
kisal
kisama
kisamo
kisanaa
kisanga
kisangani
kisangu
kisanii
kisanskrit
kisanskriti
kisarawe
kisarufi
kisasa
kisasi
kisawe
kisayansi
kiselti
kisemiti
kisenoufo
kisepik
kiserbia
kiserbokroatia
kiserikali
kisha
kishahidi
kishairi
kishapu
kishawishi
kishazi
kisheria
kishia
kishimoto
kishindo
kishirikishi
kishogo
kishona
kishujaa
kishungi
kisiasa
kisicho
kisii
kisima
kisindhi
kisingizio
kisino
kisiri
kisiria
kisiwa
kisiwani
kislavoni
kislovakia
kiso
kisogo
kisomali
kisomwe
kisonono
kisoro
kisoshalisti
kisotho
kisovieti
kisovyeti
kiss
kissed
kisu
kisubanen
kisukari
kisukuku
kisukuma
kisulawesi
kisumu
kisunni
kiswahili
kiswidi
kit
kita
kitaalam
kitaalamu
kitaaluma
kitaasisi
kitabia
kitabibu
kitabu
kitahiti
kitai
kitaifa
kitajiki
kitakatifu
kitako
kitakuwa
kitakwimu
kitale
kitalii
kitalu
kitamaduni
kitamang
kitambaa
kitambo
kitambulisho
kitamil
kitamu
kitanda
kitandani
kitangulizi
kitanzania
kitanzi
kitara
kitawa
kitchen
kite
kiteke
kiteknolojia
kitelugu
kitemi
kitendo
kitengo
kitenzi
kiteolojia
kiteto
kitgum
kithai
kitharu
kiti
kitibeti
kitigrinya
kitime
kitimor
kitita
kitivo
kito
kitonga
kitongoji
kitor
kitorricelli
kitoto
kitovu
kitoweo
kitropiki
kitts
kitu
kituamotu
kitubio
kitufe
kitui
kitume
kitunda
kitungusi
kitunguu
kituo
kiturki
kituruki
kitutu
kitwitwi
kiu
kiua
kiuchumi
kiufundi
kiujumla
kiukraine
kiukreni
kiulaya
kiuma
kiumbe
kiumbehai
kiume
kiunga
kiunganishi
kiungo
kiuno
kiunoni
kiunzi
kiunzikuu
kiurali
kiurdu
kiutamaduni
kiutambuzi
kiutawala
kiutendaji
kiutu
kiuzbeki
kivietinamu
kivietnam
kivinjari
kivinje
kivita
kivolkeno
kivu
kivuka
kivuko
kivukoni
kivuli
kivumishi
kivutio
kivyake
kiwa
kiwakilishi
kiwalani
kiwambo
kiwanda
kiwandani
kiwango
kiwanja
kiwavi
kiwe
kiwewe
kiwik
kiwiliwili
kiworrorran
kixhosa
kiyahudi
kiyaka
kiyoruba
kiyunani
kizalendo
kizamani
kizambarau
kizazi
kizhuang
kizima
kizimkazi
kizingiti
kizio
kizito
kizole
kizuio
kizuizi
kizuizini
kizulu
kizungu
kizunguzungu
kizuri
kk
kkk
kkkt
klabu
klamidia
klara
klasiki
klaudio
klaus
kle
klein
kleist
klementi
kleopatra
klerk
kliniki
klorini
klose
km
kml
kmn
kmsk
knappert
knbs
knew
knight
knights
knock
knopf
know
knowledge
knowles
known
knows
knox
ko
koa
koba
kobayashi
kobe
koboko
kobus
kocaeli
koch
kocha
kochi
kodi
koffi
kofi
kofia
kojo
kokeni
koki
koko
kokote
kokoto
kokwa
kol
kola
kolbe
kole
koleo
koli
kolkata
kolo
kolokolo
kolombia
koloni
kolumbia
kolumbus
kom
koma
komba
kombe
kombo
kombora
komori
komoro
kompilesheni
kompyuta
komunyo
kon
kona
konde
kondo
kondoa
kondomu
kondoo
kones
kong
kongamano
kongo
kongoni
kongosho
kongwa
kongwe
koni
konokono
konrad
konsert
konsonanti
konstantino
konstantinopoli
konstanz
konsuli
kontena
kontraseptivu
konventi
konvict
kony
konya
konyeza
koo
kool
kopenhagen
kopi
kopo
kor
kora
korasya
korea
korean
koreshi
korhogo
korintho
kornelio
korobindo
korogoto
korogwe
koromeo
korona
korongo
korosho
korsika
korti
kosa
kosma
kosoko
kosovo
kosta
kota
kote
koteksi
koti
kotido
kotikosteroidi
kotisoli
kou
koue
kouyate
kovu
kowalska
kozaki
kozi
kr
krai
krako
kramer
krapf
krebs
kreditkort
kremlin
kresensi
kreta
krete
kriketi
krim
krioli
krishna
krismasi
krisostomo
kristen
kristian
kristo
kristofa
kristoforo
kro
kroatia
kromosomu
krou
krsna
krstic
kruger
ks
ku
kua
kuabudiwa
kuabudu
kuacha
kuachana
kuachia
kuachiliwa
kuachishwa
kuachwa
kuadhibiwa
kuadhibu
kuadhimisha
kuadhimishwa
kuaga
kuagiza
kuagizwa
kuahidi
kuainisha
kuainishwa
kuajiri
kuajiriwa
kuala
kuambatana
kuambiwa
kuambukiza
kuambukizana
kuambukizwa
kuamini
kuaminika
kuamka
kuamsha
kuamua
kuamulia
kuamuru
kuandaa
kuandaliwa
kuandamana
kuandika
kuandikishwa
kuandikwa
kuangalia
kuangaliwa
kuangamia
kuangamiza
kuangamizwa
kuangaza
kuangazia
kuanguka
kuangusha
kuanza
kuanzia
kuanzisha
kuanzishwa
kuapishwa
kuashiria
kuasi
kuathiri
kuathirika
kuathiriwa
kuba
kubadili
kubadilika
kubadilisha
kubadilishana
kubadilishwa
kubahatisha
kubaini
kubainisha
kubaki
kubakia
kubalehe
kubana
kubanwa
kubashiri
kubatiza
kubatizwa
kubeba
kubebea
kubebwa
kubishana
kubo
kubomoa
kubomolewa
kuboresha
kuboreshwa
kubuni
kubuniwa
kuburudisha
kubwa
kucha
kuchagua
kuchaguliwa
kuchakata
kuchakulo
kuchambua
kuchamsitu
kuchana
kuchanga
kuchanganua
kuchanganya
kuchanganyikiwa
kuchanganywa
kuchangia
kuchapa
kuchapisha
kuchapishwa
kuchekesha
kuchelewa
kuchelewesha
kuchemka
kuchemsha
kucheza
kuchezea
kuchezwa
kuchimba
kuchipua
kuchochea
kuchochewa
kuchoka
kuchoma
kuchomeka
kuchomwa
kuchonga
kuchora
kuchorwa
kuchota
kuchuja
kuchukua
kuchukuliwa
kuchunga
kuchungulia
kuchunguza
kuchunguzwa
kudai
kudanganya
kudhaminiwa
kudhani
kudhaniwa
kudharau
kudhibiti
kudhibitisha
kudhibitiwa
kudhihirika
kudhihirisha
kudhoofika
kudhoofisha
kudhulumiwa
kudhulumu
kudhuru
kudidimia
kudokeza
kudondosha
kudu
kudumisha
kudumu
kudunga
kudungwa
kuelea
kuelekea
kuelekeza
kuelekezwa
kuelewa
kuelewana
kueleweka
kueleza
kuelezea
kuelezewa
kuelezwa
kuelimisha
kuenda
kuendana
kuendelea
kuendeleza
kuendelezwa
kuendesha
kuendeshwa
kuenea
kueneza
kuenezwa
kuepa
kuepuka
kuepukana
kuepusha
kufa
kufaa
kufadhili
kufafanua
kufafanuliwa
kufahamika
kufahamu
kufaidika
kufanana
kufanikisha
kufanikiwa
kufanya
kufanyia
kufanyika
kufanyiwa
kufanywa
kufariki
kufaulu
kufeli
kufia
kuficha
kufichua
kufidia
kufifia
kufika
kufikia
kufikiri
kufikiria
kufikirika
kufikiriwa
kufikisha
kufikiwa
kufisha
kufiwa
kufuata
kufuatana
kufuatia
kufuatilia
kufuatiliwa
kufuatiwa
kufuatwa
kufufua
kufufuka
kufuga
kufugwa
kufukuza
kufukuzwa
kufuli
kufuma
kufundisha
kufundishia
kufundishwa
kufunga
kufungana
kufungia
kufungua
kufungulia
kufunguliwa
kufungwa
kufunika
kufunikwa
kufunua
kufunza
kufunzwa
kufupisha
kufurahia
kufurahisha
kufuta
kufutwa
kufuzu
kufyatua
kufyatulia
kufyonza
kufyonzwa
kuganda
kugandisha
kugawa
kugawana
kugawanya
kugawanyika
kugawanywa
kugawiwa
kugeuka
kugeuza
kugeuzwa
kugharamia
kugombea
kugonga
kugongana
kugongwa
kugundua
kugundulika
kugunduliwa
kugusa
kugusana
kuguswa
kuhakikisha
kuhalalisha
kuhama
kuhamahama
kuhamasisha
kuhamia
kuhamisha
kuhamishiwa
kuhamishwa
kuhangaika
kuhani
kuhara
kuharakisha
kuharibika
kuharibiwa
kuharibu
kuhariri
kuhaririwa
kuharisha
kuhatarisha
kuhesabiwa
kuhesabu
kuheshimiwa
kuheshimu
kuhifadhi
kuhifadhia
kuhifadhiwa
kuhiji
kuhimili
kuhimiza
kuhisi
kuhitaji
kuhitajika
kuhitimisha
kuhitimu
kuhofia
kuhojiwa
kuhubiri
kuhudhuria
kuhudumia
kuhudumu
kuhukumiwa
kuhukumu
kuhusiana
kuhusika
kuhusisha
kuhusishwa
kuhusu
kuiba
kuibadilisha
kuibua
kuibuka
kuichezea
kuidhinisha
kuidhinishwa
kuifanya
kuifanyia
kuiga
kuigiza
kuigwa
kuiita
kuimarika
kuimarisha
kuimarishwa
kuimba
kuimbwa
kuingia
kuingilia
kuingiliana
kuingiliwa
kuingiza
kuingizia
kuingizwa
kuinjilisha
kuinua
kuinuka
kuinuliwa
kuiona
kuiondoa
kuipa
kuipata
kuipeleka
kuiper
kuipokea
kuisaidia
kuisha
kuishi
kuishia
kuishinda
kuishiwa
kuisi
kuita
kuitawala
kuitengeneza
kuitikia
kuitisha
kuitoa
kuitumia
kuitwa
kuiva
kuivamia
kuiwakilisha
kuiweka
kuja
kujaa
kujadili
kujadiliana
kujadiliwa
kujali
kujaliwa
kujamiana
kujamiiana
kujaribiwa
kujaribu
kujaza
kujazwa
kujenga
kujengwa
kujeruhiwa
kujiachilia
kujiamini
kujiamulia
kujiandaa
kujiandikisha
kujibu
kujidunga
kujieleza
kujiendeleza
kujiendesha
kujiepusha
kujifahamu
kujifanya
kujificha
kujifunga
kujifungua
kujifunza
kujifunzia
kujihami
kujihusisha
kujiingiza
kujiita
kujikana
kujikaza
kujikimu
kujikinga
kujikita
kujikomboa
kujikusanya
kujikuta
kujilinda
kujilisha
kujinyima
kujiokoa
kujiona
kujiondoa
kujiongoza
kujionyesha
kujipatia
kujipendea
kujirekebisha
kujirudia
kujishughulisha
kujisikia
kujisomea
kujitafutia
kujitahidi
kujitakasa
kujitambua
kujitambulisha
kujitangaza
kujitawala
kujitegemea
kujitenga
kujitetea
kujitoa
kujitokeza
kujitolea
kujiua
kujiuliza
kujiunga
kujiuzulu
kujivunia
kujiweka
kujua
kujulikana
kujumlisha
kujumuisha
kujumuishwa
kukaa
kukaanga
kukaba
kukabidhi
kukabidhiwa
kukabili
kukabiliana
kukabiliwa
kukadiria
kukadiriwa
kukagua
kukalia
kukaliwa
kukamata
kukamatwa
kukamilika
kukamilisha
kukamilishwa
kukana
kukandamiza
kukanusha
kukanyaga
kukarabati
kukaribia
kukaribiana
kukaribisha
kukariri
kukata
kukataa
kukataliwa
kukataza
kukatisha
kukatiza
kukatizwa
kukatwa
kukauka
kukausha
kukaushwa
kukawa
kukaza
kukazia
kukesha
kuketi
kuki
kukidhi
kukielewa
kukifanya
kukimbia
kukimbilia
kukinga
kukiri
kukithiri
kukiuka
kukiwa
kukodi
kukodisha
kukohoa
kukojoa
kukokotoa
kukoma
kukomaa
kukomboa
kukomesha
kukomeshwa
kukopa
kukosa
kukosea
kukosekana
kukosoa
kuku
kukua
kukubali
kukubaliana
kukubalika
kukubaliwa
kukulia
kukumbuka
kukumbukwa
kukumbusha
kukumbwa
kukunja
kukupenda
kukusanya
kukusanyika
kukusanywa
kukusudia
kukuta
kukutana
kukuwa
kukuza
kukuzwa
kukwama
kukwepa
kula
kulaani
kulabu
kulainisha
kulala
kulaumiwa
kulazimisha
kulazimishwa
kulazwa
kule
kulea
kulegeza
kulelewa
kulenga
kuleta
kuletwa
kulevya
kulia
kulianza
kulifanya
kulifikia
kuliko
kulikuwa
kulima
kulinda
kulindwa
kulingana
kulinganisha
kulinganishwa
kulipa
kulipia
kulipiza
kulipua
kulipuka
kulipwa
kulisababisha
kulisha
kulitokea
kulitumia
kuliwa
kulungu
kum
kumaanisha
kumaliza
kumalizia
kumalizika
kumar
kumasi
kumb
kumbe
kumbi
kumbuka
kumbukumbu
kumchagua
kumchukua
kumegwa
kumekuwa
kumeng
kumeza
kumezwa
kumfahamu
kumfanya
kumfanyia
kumfikia
kumfikiria
kumfuasa
kumfuata
kumfukuza
kumfunga
kumheshimu
kumhusu
kumi
kumiliki
kumiminiwa
kumjua
kumkabidhi
kumkamata
kumkubali
kumkumbuka
kumlazimisha
kumlea
kumlinda
kumnunua
kumpa
kumpata
kumpatia
kumpeleka
kumpenda
kumpendeza
kumpiga
kumpindua
kumpokea
kumrudisha
kumrudishia
kumruhusu
kumsaidia
kumshambulia
kumshawishi
kumshinda
kumshirikisha
kumshukuru
kumsifu
kumsikiliza
kumtafuta
kumtaja
kumtambua
kumtambulisha
kumtangaza
kumtazama
kumtegemea
kumtembelea
kumtetea
kumteua
kumtia
kumtii
kumtoa
kumtolea
kumtukuza
kumtuma
kumtumia
kumtumikia
kumtunza
kumuabudu
kumuacha
kumuambia
kumuamini
kumudu
kumuelekea
kumuendea
kumuiga
kumuita
kumuoa
kumuomba
kumuona
kumuua
kumuunga
kumvutia
kumwabudu
kumwacha
kumwaga
kumwagilia
kumwambia
kumwamini
kumweka
kumweleza
kumwezesha
kumwita
kumwokoa
kumwomba
kumwona
kumwondoa
kumwua
kumzaa
kumzuia
kuna
kunahitaji
kunakili
kunako
kunasa
kunasababisha
kunatokea
kunawa
kunaweza
kunda
kunde
kundi
kundini
kundinyota
kunene
kung
kunguni
kunguru
kungwi
kuni
kunjamano
kunst
kununua
kununuliwa
kunusa
kunyakua
kunyang
kunyanyua
kunyesha
kunyimwa
kunyongwa
kunyonya
kunyonyesha
kunyoosha
kunywa
kunywea
kuoa
kuoana
kuoga
kuogelea
kuogopa
kuoka
kuokoa
kuokoka
kuokolewa
kuolewa
kuomba
kuombaomba
kuombea
kuomintang
kuona
kuonana
kuondoa
kuondoka
kuondokana
kuondolewa
kuonekana
kuonesha
kuongea
kuongeza
kuongezea
kuongezeka
kuongezewa
kuongezwa
kuongoka
kuongoza
kuongozwa
kuonja
kuonya
kuonyesha
kuonyeshwa
kuorodhesha
kuorodheshwa
kuosha
kuota
kuoza
kupaa
kupaka
kupakana
kupakia
kupakua
kupakuliwa
kupakwa
kupalizwa
kupamba
kupambana
kupanda
kupandana
kupandikiza
kupandisha
kupandishwa
kupandwa
kupanga
kupangwa
kupanua
kupanuka
kupanuliwa
kupanusha
kupasha
kupashwa
kupasua
kupasuka
kupasuliwa
kupata
kupatana
kupatanisha
kupatikana
kupatiwa
kupatwa
kupe
kupeana
kupeleka
kupelekea
kupelekwa
kupeleleza
kupenda
kupendana
kupendekeza
kupendekezwa
kupendelea
kupendeza
kupendezwa
kupendwa
kupenya
kupepesuka
kupewa
kupiga
kupigana
kupigania
kupigia
kupigiwa
kupigwa
kupika
kupikia
kupikwa
kupima
kupimia
kupimwa
kupindua
kupindukia
kupinduliwa
kupinga
kupingana
kupingwa
kupita
kupitia
kupitisha
kupitishia
kupitishwa
kupoa
kupokea
kupokelewa
kupokewa
kupokezana
kupona
kuponya
kupooza
kupora
kuporomoka
kupotea
kupotewa
kupoteza
kupotosha
kupoza
kupro
kupuliza
kupumua
kupumzika
kupungua
kupunguka
kupungukiwa
kupunguza
kupunguzwa
kupuuza
kupuuzia
kupwa
kura
kurahisisha
kurani
kurap
kurasa
kuratibu
kurdish
kurefusha
kurejea
kurejelea
kurejesha
kurekebisha
kurekebishwa
kurekodi
kurekodia
kurekodiwa
kurene
kuria
kuridhika
kuridhisha
kuripoti
kuripotiwa
kurithi
kurithiwa
kuro
kurt
kuru
kurudi
kurudia
kurudiarudia
kurudisha
kurudishwa
kurudiwa
kurugenzi
kuruhusiwa
kuruhusu
kuruka
kurumbiza
kurusha
kurushwa
kusababisha
kusababishwa
kusadiki
kusafiri
kusafirisha
kusafirishwa
kusafisha
kusafishia
kusafishwa
kusaga
kusagwa
kusahau
kusahihisha
kusaidia
kusaidiana
kusaidiwa
kusaini
kusainiwa
kusajili
kusajiliwa
kusali
kusalimu
kusambaa
kusambaratika
kusambaza
kusambazwa
kusamehe
kusamehewa
kusawazisha
kusema
kusemwa
kush
kushambulia
kushambuliwa
kushangaza
kushauri
kushauriana
kushawishi
kusherehekea
kushi
kushika
kushikamana
kushikana
kushikilia
kushikwa
kushinda
kushindana
kushindikana
kushindwa
kushiriki
kushirikiana
kushirikisha
kushirikishwa
kushona
kushoto
kushtakiwa
kushughulika
kushughulikia
kushughulikiwa
kushuhudia
kushuka
kushukuru
kushusha
kushushwa
kusi
kusifiwa
kusifu
kusikia
kusikika
kusikiliza
kusikilizwa
kusikitisha
kusilimu
kusimama
kusimamia
kusimamisha
kusimamishwa
kusimamiwa
kusimulia
kusini
kusinimashariki
kusisimua
kusisitiza
kusita
kusitisha
kusiwe
kusogea
kusogeza
kusoma
kusomea
kusomwa
kusonga
kustaafu
kustahili
kustahimili
kustawi
kustawisha
kusubiri
kusudi
kusugua
kusuka
kusukuma
kusukumwa
kusuluhisha
kuswali
kut
kuta
kutaalamika
kutabiri
kutafakari
kutafiti
kutafsiri
kutafsiriwa
kutafuna
kutafuta
kutaga
kutahiriwa
kutaja
kutajwa
kutaka
kutakasa
kutakaswa
kutakata
kutakuwa
kutamani
kutamba
kutambua
kutambulika
kutambulisha
kutambulishwa
kutambuliwa
kutamka
kutangamana
kutangaza
kutangazwa
kutangulia
kutapika
kutarajia
kutathmini
kutatiza
kutatua
kutawala
kutawaliwa
kutawanyika
kutawazwa
kutayarisha
kutayarishwa
kutazama
kutazamia
kutazamwa
kutegemea
kutegemeana
kutegemewa
kuteka
kutekeleza
kutekelezwa
kuteketezwa
kutekwa
kutelekezwa
kuteleza
kutembea
kutembelea
kutembelewa
kutenda
kutendewa
kutenga
kutengana
kutenganisha
kutengeneza
kutengenezea
kutengenezwa
kutengeza
kutengwa
kuteseka
kuteswa
kutetea
kutetemeka
kuteua
kuteuliwa
kuthamini
kuthibitisha
kuthibitishwa
kuti
kutia
kutibiwa
kutibu
kutii
kutilia
kutiliwa
kutimiza
kutiririka
kutisha
kutishia
kutiwa
kutoa
kutoboa
kutoelewana
kutofanya
kutofaulu
kutofautiana
kutofautisha
kutofautishwa
kutojali
kutojua
kutoka
kutokana
kutokea
kutokeza
kutokomeza
kutokubali
kutokubaliana
kutokuwa
kutokuwepo
kutokwa
kutolea
kutolewa
kutopata
kutoridhika
kutoroka
kutosha
kutosheleza
kutotumia
kutoweka
kutoweza
kutu
kutua
kutubu
kutufanya
kutulia
kutuliza
kutuma
kutumbuiza
kutumia
kutumika
kutumikia
kutumiwa
kutumwa
kutunga
kutungwa
kutunukiwa
kutunza
kutunzia
kutunzwa
kutupa
kutupatia
kutupwa
kutusaidia
kutwa
kutwaa
kutwaliwa
kuu
kuua
kuuawa
kuufanya
kuufikia
kuufuata
kuugua
kuuliza
kuuma
kuumba
kuumbwa
kuume
kuumia
kuumwa
kuunda
kuundwa
kuunga
kuungama
kuungana
kuunganika
kuunganisha
kuunganishwa
kuungwa
kuuona
kuupa
kuupata
kuupokea
kuutoa
kuutumia
kuuza
kuuzwa
kuvaa
kuvalia
kuvamia
kuvamiwa
kuvimba
kuvitumia
kuvu
kuvua
kuvuja
kuvuka
kuvukia
kuvuma
kuvumbua
kuvumilia
kuvuna
kuvunja
kuvunjika
kuvunjwa
kuvuruga
kuvuta
kuvutia
kuvutiwa
kuvutwa
kuwa
kuwaacha
kuwaachia
kuwaadhibu
kuwaambia
kuwaandaa
kuwaandikia
kuwaelekeza
kuwaelimisha
kuwafanya
kuwafanyia
kuwafikia
kuwafuata
kuwafukuza
kuwafundisha
kuwafunga
kuwahamasisha
kuwahi
kuwahimiza
kuwahudumia
kuwahukumu
kuwaimarisha
kuwait
kuwaita
kuwajibika
kuwaka
kuwakamata
kuwakilisha
kuwalazimisha
kuwaleta
kuwaletea
kuwalinda
kuwalipa
kuwania
kuwaokoa
kuwaombea
kuwaona
kuwaondoa
kuwaongoza
kuwapa
kuwapatia
kuwapeleka
kuwapenda
kuwapiga
kuwapo
kuwarudisha
kuwaruhusu
kuwasaidia
kuwasha
kuwashambulia
kuwashawishi
kuwashinda
kuwashirikisha
kuwashughulikia
kuwashwa
kuwasili
kuwasiliana
kuwasilisha
kuwasilishwa
kuwatambua
kuwatazama
kuwatendea
kuwatenga
kuwatesa
kuwatetea
kuwatia
kuwatumia
kuwatunza
kuwaua
kuwaunganisha
kuwavuta
kuwavutia
kuwaweka
kuwawezesha
kuwaza
kuwazuia
kuwe
kuweka
kuwekea
kuwekewa
kuwekeza
kuweko
kuwekwa
kuwepo
kuweza
kuwezesha
kuwinda
kuyafanya
kuyeyuka
kuyeyusha
kuzaa
kuzaana
kuzaliana
kuzalisha
kuzalishwa
kuzaliwa
kuzama
kuzamia
kuzeeka
kuzi
kuziba
kuzibwa
kuzidi
kuzidisha
kuzifanya
kuzika
kuzikwa
kuzima
kuzimu
kuzindua
kuzinduliwa
kuzingatia
kuzingatiwa
kuzingirwa
kuzipa
kuzitumia
kuziuza
kuziweka
kuzoea
kuzorota
kuzua
kuzuia
kuzuiliwa
kuzuiwa
kuzuka
kuzunguka
kuzungumza
kuzungumzia
kuzungusha
kuzuru
kv
kw
kwa
kwaajili
kwaito
kwake
kwako
kwakuwa
kwale
kwamba
kwame
kwango
kwangu
kwani
kwanini
kwanta
kwanza
kwanzia
kwao
kwara
kwarara
kwaresima
kwasababu
kwaya
kwazulu
kweche
kween
kwelea
kweli
kwelikweli
kwenda
kweneng
kwenu
kwenye
kwenzi
kwera
kwerba
kwesi
kwetu
kwimba
kwingi
kwingine
kwingineko
kwinini
kwisha
kwk
kyambogo
kyanga
kyankwanzi
kyegegwa
kyela
kyenjojo
kyerwa
kyle
kyo
kyoga
kyoto
kyrgyzstan
kyrka
kz
kırklareli
kırs
l
la
laana
lab
labda
label
labor
laboratory
laboso
labour
labrador
labre
lac
lacaille
lacrosse
laden
ladha
ladies
lady
laetoli
lafarge
lafayette
lafudhi
laga
lager
lagh
lago
lagoon
lagos
lagrange
laguna
lahaja
lahore
lai
laikipia
laini
laizer
lak
lakabu
lake
lakes
lakhi
laki
lakini
lako
lakota
lalibela
lam
lama
lamaanisha
lamar
lamb
lambert
lambo
lameck
lami
lamprotornis
lamu
lamwo
lan
lancaster
lance
land
landscape
lane
lang
langa
lange
langenburg
lango
langu
language
languages
langue
languedoc
langues
langur
laniarius
lanius
lanka
lanthanidi
lao
laos
laozi
laptop
lapwing
lara
laren
large
larger
largest
lark
larry
lars
larter
larus
las
laser
last
lat
late
later
lateranense
laterano
latest
latifah
latin
latina
latino
latitude
latitudo
latokana
latumiwa
latvia
laude
laugh
laughingthrush
laura
laurean
lauren
laurence
laurent
laurenti
lauryn
lausanne
lava
lavigerie
law
lawama
laweza
lawi
lawrence
laws
lay
layer
layiwola
lazaro
lazarus
lazima
lazio
lb
ldp
le
lea
lead
leader
leaders
leadership
leading
leaf
league
leah
leakey
leandro
learn
learning
least
leave
lebanon
lebanoni
leben
lebo
lechwe
lecrae
lecture
lectures
led
lee
leeds
leff
left
legacy
legal
legend
legenda
legendary
legends
legged
lego
leibniz
leicester
leiden
leigh
leila
leipzig
lela
lembata
lemon
lemur
lemuri
lena
lenana
leng
lengo
lenin
leningrad
lens
lenye
lenyewe
lenzi
leo
leon
leonard
leonardo
leone
leopard
leopards
leopold
lepilemur
lepus
lerins
leroy
les
leseni
leslie
lesotho
less
lesser
lesson
lessons
lester
let
letheobia
letter
letters
lettow
lettres
letu
leuven
lev
level
levels
leverkusen
levi
levine
levy
lewis
lex
lexicon
lexikon
lexington
ley
lez
leza
lgbt
li
lia
liao
liar
lib
liber
liberal
liberalism
liberation
liberia
libertadores
liberty
libra
librairie
libraries
library
libreria
libreville
libri
libros
libya
license
licha
licinius
lie
liechtenstein
lier
lies
lieutenant
life
lifesitenews
lifestyle
lifetime
lifuatalo
liga
light
lighthouse
lightning
lights
ligi
ligue
liguori
liguria
liitwalo
lijulikanalo
likabadilishwa
likaendelea
likaja
likawa
like
likimaanisha
likiongozwa
likiwa
likiwemo
likizo
liko
lil
lilanga
lile
lilelile
liliamua
lilian
liliandaliwa
lilianza
lilianzisha
lilianzishwa
lilibadilishwa
lilibuniwa
lilichaguliwa
lilichapishwa
lilichukuliwa
liliendelea
lilifanya
lilifanyika
lilifanywa
lilifunguliwa
lilifungwa
liligawiwa
liliingia
liliitwa
lilijengwa
lilijulikana
lilijumuisha
lilikua
lilikuja
lilikuwa
lilileta
lililo
lililoandaliwa
lililoandikwa
lililoanza
lililoanzishwa
lililochapishwa
lililofanyika
lililohifadhiwa
lililoitwa
lililojengwa
lililojulikana
lililoko
lililokuwa
lililoongozwa
lililopo
lililotokana
lililotokea
lililotolewa
lililotumiwa
lililoundwa
lilimfanya
lilionekana
liliongozwa
lilipata
lilipelekea
lilipewa
lilipitisha
lilipo
liliripoti
lilisababisha
lilisema
lilishinda
lilishindwa
lilitafsiriwa
lilitajwa
lilitangaza
lilitoa
lilitokana
lilitokea
lilitolewa
lilitumika
lilitumiwa
liliundwa
lilivyo
liliwahi
liliwekwa
liliweza
lilizinduliwa
lille
lillian
lilly
lilo
lilongwe
lima
limao
limau
limburg
limeenea
limekuwa
limepakana
limepewa
limerick
limetajwa
limetokana
limetolewa
limfu
limited
limits
limo
limoges
limpopo
limuru
lin
lina
linaanza
linadokeza
linaendelea
linaenea
linafanana
linafanya
linafuata
linahitaji
linahusiana
linahusu
linaitwa
linajulikana
linajumuisha
linakuwa
linalenga
linalo
linalochapishwa
linalofanana
linalofanya
linalofuata
linaloitwa
linalojulikana
linalojumuisha
linalomaanisha
linaloonekana
linaloongozwa
linaloonyesha
linalopatikana
linalosababisha
linalotokana
linalotumika
linalotumiwa
linalounganisha
linaloweza
linalozunguka
linamaanisha
linamheshimu
linaonekana
linaonyesha
linapakana
linapatikana
linasema
linataja
linatakiwa
linatoa
linatoka
linatokana
linatokea
linatumika
linatumiwa
linaunda
linaundwa
linaunganisha
linaweza
lincoln
linda
lindi
lindl
lindsay
lindsey
lindwa
line
lines
ling
linganisha
linganishi
lingine
lingua
linguistic
linguistics
linhas
lini
link
linkedin
links
linnaeus
linus
linux
linz
lion
lionel
lions
lipidi
lipitalo
lipo
lira
lisa
lisboa
lisbon
lishe
lisieux
lisilo
list
listen
listing
lists
liszt
lit
lita
litakuwa
literary
literatur
literature
literatures
lithuania
litte
little
littlefield
lituanya
liturgia
liturgical
liturgy
liturujia
liu
live
lived
liverpool
lives
living
livingston
livingstone
livre
livres
liwale
liwali
liwe
lix
liz
liza
lizard
ljajic
lk
ll
llc
ller
llorona
lloyd
ln
lo
loando
loc
local
localities
location
lock
locke
locust
lodge
lodi
loeb
logan
logi
logic
logo
logos
loire
lokole
lola
lolo
lolote
lomami
lombardia
lome
lomonosov
lonchura
london
lonely
long
longer
longido
longitude
longitudo
longman
longmans
look
looking
looney
lopes
lopez
lophuromys
lord
lorenzo
loreto
lori
loroupe
lorraine
los
lose
loss
lost
lot
lote
lou
loud
louis
louise
louisiana
louisville
lourdes
louvain
louvre
louw
love
loved
lover
lovers
loves
loving
low
lowassa
lowell
lower
loyola
lp
lra
lt
ltd
lu
lua
lualaba
luambo
luanda
luangwa
luapula
lubumbashi
luc
luca
lucas
lucca
lucia
luciano
lucie
lucius
luck
luckett
lucknow
lucky
lucy
ludewa
ludoviko
ludwig
lufthansa
lugalo
lugard
lugari
lugha
lui
luigi
luis
luisa
luiz
luka
luke
lulu
lumen
lumpur
lumumba
luna
lunar
lund
lunda
lundin
luo
lupinus
lupita
lupus
lusaka
lushoto
lusia
luteni
luther
lutheran
luv
luweero
luxembourg
luxemburg
luxor
luzon
lv
lxx
lyantonde
lyce
lydia
lyle
lynch
lyndon
lynn
lynx
lyon
lyons
lyrics
lyte
m
ma
maabadi
maabara
maada
maadhimisho
maadili
maadilifu
maadui
maafa
maafisa
maagizo
maajabu
maajenti
maalum
maalumu
maambukizi
maambukizo
maamuzi
maana
maanani
maandalizi
maandamano
maandiko
maandishi
maangamizi
maarifa
maarten
maarufu
maasai
maasi
maaskari
maaskofu
maathai
maazimio
mabaa
mababa
mababu
mabadiliko
mabadilishano
mabaharia
mabaka
mabaki
mabalozi
mabamba
mabanda
mabandari
mabango
mabano
mabao
mabara
mabaraza
mabasi
mabata
mabati
mabavu
mabawa
mabaya
mabega
mabegani
mabehewa
mabeki
mabel
mabele
mabenki
mabepari
mabeseni
mabichi
mabikira
mabingwa
mabinti
mabishano
maboga
maboma
mabomba
mabomu
mabonde
mabondia
maboresho
maboti
mabradha
mabruda
mabundo
mabunge
mabuu
mabwana
mabwawa
mabweni
mac
macaca
macaque
macarius
macarthur
macau
macbeth
macdonald
machache
machado
machafu
machafuko
machakos
machame
machanga
machansela
machapisho
machar
macheda
machel
machi
machiavelli
machifu
machimartyrologium
machimbo
machine
macho
machoni
machotara
machozi
machungu
machungwa
machweo
mack
mackinnon
macleod
macmillan
macron
maculatus
mad
mada
madaba
madagascar
madagascariensis
madagaska
madai
madaktari
madam
madame
madan
madaraja
madaraka
madarakani
madarasa
madawa
made
madeira
madeleine
madeni
madereva
madhabahu
madhara
madhehebu
madhubuti
madhumuni
madhya
madi
madihano
madimbwi
madina
madini
madirisha
madison
madiwani
madoa
madoadoa
madogo
madogomadogo
madola
madonda
madondoo
madonna
madrasa
madre
madrid
maduka
madukani
madume
madusa
mae
maelekeo
maelekezo
maelewano
maelezo
maelfu
maembe
maendeleo
maeneo
mafanikio
mafarakano
mafarao
mafarisayo
mafia
mafichoni
mafigo
mafinga
mafua
mafukara
mafumbo
mafundi
mafundisho
mafungamano
mafungo
mafungu
mafunjo
mafunzo
mafupi
mafuriko
mafuta
mag
magadi
magaidi
magallanes
magamaga
magamba
maganda
maganga
magari
magavana
magazeti
magazine
magdalena
magdalene
magdeburg
magellan
magendo
magenge
magereza
mageuko
mageuzi
maggie
maghani
magharibi
maghofu
maghreb
magic
magimba
magimbi
magma
magna
magnificent
magnus
magofu
magogo
magoli
magombo
magome
magomeni
magongo
magonjwa
magoti
magpie
magu
magufuli
magugu
magumu
magurudumu
mahaba
mahabharata
mahakama
mahakamani
mahakimu
mahal
mahala
mahalapye
mahali
mahangaiko
maharage
maharagwe
maharaja
maharamia
maharashtra
mahari
mahatma
mahdi
mahdia
mahdiyya
mahe
mahekalu
mahema
mahenge
mahesabu
mahia
mahindi
mahiri
mahitaji
mahler
mahmoud
mahmud
maho
mahojiano
mahoteli
mahsusi
mahubiri
mahudhurio
mahusiano
mahususi
mahututi
mai
maigizo
mail
maili
maimamu
main
maina
maindio
maine
maingiliano
mainland
maint
maintained
mainz
maior
maisha
maishani
maiti
majadiliano
majaji
majambazi
majanga
majangwa
majani
majaribio
majaribu
majarida
majenerali
majeneza
majengo
majeraha
majeruhi
majeshi
majesty
maji
majibu
majid
majigambo
majiji
majike
majiko
majilio
majimaji
majimbo
majina
majini
majira
majirabaridi
majirajoto
majirani
majiranukta
majitu
majivu
majivuno
majongoo
major
majorelle
majukumu
majukwaa
majuma
majumba
majumbani
majuto
majuzi
mak
maka
makaa
makabaila
makabila
makaburi
makaburu
makadara
makadirio
makahaba
makaisari
makaizari
makaka
makala
makali
makamanda
makamba
makambako
makambi
makamo
makampuni
makamu
makanisa
makanisani
makao
makardinali
makari
makasia
makasisi
makatekista
makatibu
makavazi
makavu
makazi
make
makeba
makedonia
makerere
makers
makes
makete
makhalifa
maki
makinda
making
makini
makisio
makka
makleri
makocha
makofi
makohozi
makoloni
makombe
makombora
makonde
makongamano
makongoro
makorongo
makosa
makovu
makrina
maktaba
maktoum
makubaliano
makubwa
makueni
makuhani
makumbi
makumbusho
makumi
makundi
makundinyota
makusanyo
makusudi
makutano
makuu
makuyu
makwao
makwati
mal
mala
malabar
malachi
malagarasi
malagasy
malaika
malaki
malala
malalamiko
malambo
malangali
malango
malanje
malapterurus
malaria
malatya
malawi
malawian
malay
malaysia
malazi
malcolm
maldives
maldivi
male
malenga
malengelenge
malengo
malezi
mali
maliasili
malighafi
malik
maliki
malimwengu
malindi
malinyi
malipizi
malipo
malisho
malkia
malkoha
mall
mallorca
malori
malta
malu
maluku
mama
mamajusi
mamake
mamalia
mamaye
mamba
mambo
mamboleo
mameneja
mamia
mamilioni
mamlaka
mamluki
man
mana
manabii
manafwa
management
manaibu
manane
manase
manchester
manchuria
manda
mandarin
mande
mandeb
mandela
mandera
mandhari
mandharinyuma
mandugu
mandy
mane
maneno
manfred
mang
manga
mango
mangrove
manhattan
mani
manicaland
manifesto
manii
manikongo
manila
manin
manisa
manisipaa
manispaa
manitoba
manjano
mankala
mankind
manmo
mann
manne
mannikin
manning
mannone
manny
manowari
mans
mansfield
mansur
mantiki
manu
manual
manucho
manuel
manufaa
manukato
manunuzi
manuscript
manuscripts
many
manyara
manyasi
manyoni
manyoya
mao
maofisa
maois
maombezi
maombi
maombolezo
maonesho
maongezi
maongozi
maoni
maono
maonyesho
maonyo
maovu
map
mapacha
mapadre
mapadri
mapafu
mapafuni
mapambano
mapambo
mapana
mapande
mapango
mapapa
mapatano
mapato
mapcarta
mapema
mapendekezo
mapendeleo
mapendo
mapengo
mapenzi
mapezi
mapeziubavu
mapigano
mapigo
mapili
mapinduzi
mapipa
mapishi
mapitio
mapito
mapokeo
mapokezi
mapori
maporomoko
mapping
maprofesa
maps
mapumziko
mapungufu
maputo
mapya
maqam
maqbool
maquis
mar
mara
maracha
maradhi
maradufu
marafiki
marahoue
marais
marakwet
marangu
marapa
marashi
marathon
marathoni
marburg
marc
marcel
marcello
march
marche
marcia
marco
marconi
marcos
marcus
mardin
mare
marefu
marehemu
marejeleo
marejeo
marek
marekani
marekebisho
margaret
margareta
margarita
margo
marguerite
mari
maria
mariae
mariah
mariam
mariamu
marian
mariana
marianne
mariano
maridadi
maridhiano
marie
marijani
marika
marilyn
marimba
marin
marina
marine
marino
marinus
mario
marion
maritain
maritime
mariupol
marius
marjorie
mark
market
marketing
markets
marko
marks
markus
marley
marlon
marmara
marne
maro
maroko
maroon
marquis
marrakech
marrakesh
marriage
married
marry
mars
marsabit
marseille
marsh
marsha
marshall
marta
martha
marti
martial
martin
martinez
martini
martinique
martino
martins
martinus
martire
martiri
martyr
martyrdom
martyred
martyrologium
martyrology
martyrs
marubani
marudio
marufuku
marumaru
marvel
marvin
marx
marxism
mary
maryam
maryland
mas
masaa
masaba
masafa
masai
masaka
masalia
masanduku
masanja
masasi
masedonia
masekela
maseno
mashabiki
mashahidi
mashairi
mashaka
mashamba
mashambani
mashambulio
mashambulizi
mashapo
masharifu
mashariki
masharti
masharubu
mashau
mashauri
mashavu
mashemasi
mashetani
mashimo
mashina
mashindano
mashine
mashirika
mashirikisho
mashitaka
mashoga
mashonaland
mashtaka
mashua
mashuhuri
mashujaa
mashuke
mashule
masi
masifu
masika
masikini
masikio
masikitiko
masilahi
masimo
masimulizi
masinagogi
masinde
masindi
masista
masiya
mask
maskani
maskat
masked
maskini
masks
maslahi
masoko
masokwe
masomo
masomoni
mason
masoud
mass
massachusetts
massacre
massamba
massawa
massif
massimo
mastaa
master
masters
masuala
masudi
masuke
masultani
masumbuko
masvingo
maswa
maswala
maswali
mat
mata
matabaka
matabeleland
matabibu
matago
mataifa
matairi
mataji
matajiri
matakaso
matakatifu
matako
matakwa
matamanio
matamasha
matambiko
matamko
matamshi
matamu
matamvua
matandu
matangazo
matangi
matano
matanuri
matapo
matarajio
matata
matatizo
matatu
matawi
matawimto
mataya
matayarisho
match
mate
mateka
matembezi
matendo
matengenezo
mater
material
materials
mateso
matete
matetemeko
math
mathare
mathayo
mathematical
mathematics
mathew
mathias
mathwarehouse
matia
matiba
matibabu
matilda
matini
matiti
matitiri
matofali
matokeo
matoleo
matone
matope
matowashi
matrix
matrona
matt
matter
matters
matthew
matthews
matthias
matuidi
matukio
matumaini
matumbawe
matumbo
matumizi
matunda
matundu
matunukio
matupu
matusi
matuta
mau
maua
mauaji
maudhui
maujanja
maumbile
maumbo
maumivu
maungamo
maungano
maungo
maureen
mauretania
maurice
mauritania
mauritius
mauro
maurus
maurya
mauti
mauzo
mavazi
mavi
mavoko
mavuno
mawaidha
mawakala
mawakili
mawasiliano
mawaziri
mawazo
mawe
mawenzi
mawese
mawili
mawimbi
mawindo
mawingu
max
maxeke
maxi
maxim
maximian
maximianus
maximilian
maximum
maximus
maxwell
may
maya
mayai
mayanja
mayatima
mayen
mayer
maynard
mayo
mayotte
mayr
mayuge
mazao
mazembe
maziko
mazima
mazingira
mazishi
mazito
maziwa
mazoea
mazoezi
mazrui
mazulia
mazungumzo
mazuri
mb
mba
mbaazi
mbadala
mbagala
mbakweni
mbale
mbali
mbalimbali
mbamba
mbandaka
mbangi
mbao
mbaraka
mbarali
mbarara
mbari
mbaroni
mbatizaji
mbavu
mbawakawa
mbaya
mbayuwayu
mbeere
mbega
mbegha
mbegu
mbeki
mbele
mbeleni
mbelewele
mbenedikto
mbevu
mbeya
mbezi
mbichi
mbidde
mbili
mbinga
mbingu
mbinguni
mbingusi
mbinu
mbio
mbira
mbita
mbiu
mbizi
mbochi
mboga
mbogo
mbogwe
mbolea
mbona
mboni
mboup
mbovu
mbox
mboya
mboyo
mbozi
mbu
mbuai
mbuawa
mbuga
mbulu
mbung
mbunge
mbunguo
mbuni
mbunifu
mburudishaji
mbuyu
mbuzi
mbwa
mbweha
mbwigu
mc
mccarthy
mccartney
mcdonald
mcfadden
mcgill
mcgrath
mcgraw
mcha
mchache
mchafu
mchakato
mchambuzi
mchana
mchanga
mchangani
mchanganuo
mchanganyiko
mchangiaji
mchango
mchapishaji
mchawi
mcheduara
mchekeshaji
mchele
mchemraba
mcheshi
mcheza
mchezaji
mchezo
mchicha
mchimbaji
mchongaji
mchoraji
mchoro
mchuano
mchujo
mchumba
mchumi
mchungaji
mchuzi
mchwa
mckinley
mckinnon
mckinsey
mclaughlin
mclean
mclennan
mcmillan
mcnamara
mcqueen
mcvitie
md
mda
mdee
mdhamini
mdhibiti
mdo
mdogo
mdomo
mdomoni
mdudu
mdundo
me
meac
meako
mean
meaning
meanings
means
meatu
mechanics
mechi
mecklenburg
med
medal
medali
medani
media
mediaeval
medical
medici
medicine
medieval
medina
meditation
mediteranea
mediterania
mediterranean
medium
medvedev
meena
meer
meet
meeting
mega
megascops
megawati
mei
meiji
meimartyrologium
mein
meja
mekong
meksiko
mekundu
mel
melaenornis
melanesia
melbourne
meles
melesi
meli
melinda
melissa
mellon
melo
melody
melvin
mema
membamba
membe
member
members
meme
memoir
memoirs
memorial
memorie
memories
memory
memphis
men
mena
mende
mendel
mendes
mendoza
meneja
menejimenti
menelik
mengi
mengine
mengineyo
mengistu
meningokokasi
meninjesi
meninjitisi
meno
menofisi
mensah
mental
mentioned
mentions
mep
mepesi
mer
mercedes
mercer
mercury
mercy
mere
meredith
merere
meri
merida
meridian
meridiani
merika
merikebu
merkel
merkouri
merlin
meroe
merops
merriam
merrill
merritt
merry
mersin
meru
meryl
mesa
mesopotamia
message
messages
messenger
messi
messier
messina
met
meta
metaboli
metal
metali
metallurgy
metaphysics
metarhizium
methali
methani
metheni
method
methodism
methodist
methods
metorolojia
metro
metropolitan
metz
meupe
meusi
mexican
mexicano
mexico
mexiko
meya
meyer
mez
meza
mezani
mf
mfadhaiko
mfadhili
mfalme
mfano
mfanya
mfanyabiashara
mfanyakazi
mfanyikazi
mfaransa
mfereji
mfiadini
mfiduo
mfinyanzi
mfransisko
mfuasi
mfuatano
mfufuka
mfugaji
mfuko
mfukoni
mfululizo
mfumo
mfungaji
mfungo
mfungwa
mfupa
mfupi
mg
mgahawa
mgambo
mgando
mganga
mgao
mgawanyiko
mgawanyo
mgeni
mgh
mgiriki
mgodi
mgogoro
mgombea
mgombeaji
mgomo
mgongano
mgongo
mgongoni
mgonja
mgonjwa
mgumu
mgunduzi
mgunga
mgusano
mguso
mguu
mguuni
mh
mhadhiri
mhalifu
mhandisi
mhanga
mharagwe
mhariri
mhasibu
mhe
mhemko
mheshimiwa
mhifadhi
mhimili
mhindi
mhispania
mhitimu
mhnt
mholanzi
mhozo
mhubiri
mhudumu
mhuri
mhusika
mi
mia
miaka
miakanuru
miale
miali
miamba
miami
miandiko
mianga
miani
mianzi
mibaya
mic
micah
mich
michache
michael
michakato
michanganyiko
michango
miche
michel
michelangelo
michele
michelle
micheweni
michezo
michigan
michirizi
michoaca
michoro
michuano
michuzi
mick
mickey
micro
microcebus
microfinance
microsoft
mid
middle
middlesbrough
middlesex
midi
midia
midlands
midnight
midogo
midomo
midundo
mie
mieleka
mielekeo
mielini
mien
miendo
mienendo
miezi
mifano
mifereji
mifflin
mifuatano
mifugo
mifuko
mifululizo
mifumo
mifupa
mifupi
migahawa
migawanyo
might
mighty
migne
migodi
migogoro
migomba
migomo
migongo
migori
migration
miguel
migumu
miguso
miguu
miguuni
mihadhara
mihigo
mihogo
mihula
mihuri
miiba
miikka
miili
miinuko
miito
mijadala
miji
mijikenda
mijini
mijusi
mika
mikaeli
mikahawa
mikakati
mikali
mikanda
mikasa
mikataba
mikate
mike
mikebe
mikhail
miki
mikia
mikindani
mikoa
mikoko
mikondo
mikono
mikononi
mikopo
mikrobiolojia
mikronesia
miktadha
mikubwa
mikufu
mikuki
mikumi
mikunga
mikunjo
mikusanyiko
mikutano
mikuu
mikwaju
mil
mila
milan
milango
milano
mile
milele
milenia
miles
milia
milian
miligramu
miliki
milikishi
milima
milimani
milimita
milio
milioni
milipuko
military
milk
milki
milky
mill
millard
mille
millennium
miller
million
millioni
mills
milne
milo
milton
milwaukee
mimba
mimea
mimi
min
mina
minajili
minane
minara
minazi
mind
mindanao
minds
mine
minene
mines
ming
mingi
mingine
minh
mini
mining
miniseries
minister
ministries
ministry
minivet
minne
minneapolis
minnesota
minor
minorum
minute
minutes
minuvi
minyiri
minyoo
minyororo
mio
miocene
miombo
miondoko
miongo
miongoni
miongozo
mionzi
mioto
mioyo
mioyoni
mipaka
mipakani
mipangilio
mipango
mipira
mipumuo
mipya
miquelon
mira
miraa
miraba
miracle
miracles
miradi
mirafra
mirambo
miranda
mirator
mirefu
miriam
mirihi
mirija
mirror
misa
misaada
misafara
misalaba
misale
misamiati
misemo
mishahara
mishale
misheni
mishipa
mishmi
mishororo
mishtuko
mishumaa
misikiti
misimamo
misimbo
misimu
misingi
misioni
misitu
misituni
misombo
misonobari
misri
miss
missenyi
missing
mission
missionaries
missionary
missions
mississippi
missouri
missy
mistari
misukosuko
misuli
misungwi
miswada
mit
mita
mitaa
mitaala
mitaani
mitaguso
mitakatifu
mitambo
mitandao
mitano
mitaro
mitatu
mitazamo
mitchell
mitego
mitelemko
mitende
miteremko
mitetemeko
mitetemo
mithali
mithili
mitholojia
miti
mitihani
mitindo
mitini
mitiririko
mitishamba
mito
mitsubishi
mitukutiko
mitume
mityana
miujiza
miundo
miundombinu
miungano
miungu
miviringo
miwa
miwani
miwili
mix
mixed
mixing
mixtape
miyombo
mizabibu
mizani
mizeituni
mizigo
miziki
mizimu
mizinga
mizingo
mizito
mizizi
mizoga
mizozo
mizuki
mizunguko
mizuri
mja
mjadala
mjamzito
mjane
mjao
mjasiriamali
mjeledi
mjenzi
mjerumani
mjesuiti
mji
mjini
mjoho
mjomba
mjukuu
mjumbe
mjusi
mk
mkaa
mkaapweke
mkabaila
mkabaji
mkabala
mkaguzi
mkahawa
mkakati
mkalama
mkali
mkalimani
mkamilifu
mkanda
mkandarasi
mkanganyiko
mkao
mkapa
mkarimu
mkasa
mkasi
mkataba
mkate
mkato
mkatoliki
mkavu
mkazi
mkazo
mke
mkenya
mkesha
mkewe
mkia
mkimbiaji
mkimbizi
mkinga
mkiwa
mkizi
mkoa
mkoani
mkojo
mkoloni
mkombozi
mkondo
mkondoni
mkonga
mkonge
mkongo
mkongwe
mkono
mkononi
mkopo
mkosefu
mkosoaji
mkristo
mkubwa
mkufu
mkufunzi
mkuki
mkuku
mkulima
mkundu
mkunga
mkuranga
mkurugenzi
mkusanyiko
mkusanyo
mkutano
mkuu
mkwaju
mkwawa
mkwe
ml
mlali
mlalo
mlango
mlangobahari
mlangoni
mle
mlei
mlele
mlevi
mlezi
mlia
mlima
mlimani
mlimba
mlinda
mlingoti
mlinzi
mlio
mlipuko
mlo
mlolongo
mlupini
mm
mma
mmarekani
mmea
mmeng
mmenyuko
mmhg
mmiliki
mmisionari
mmoja
mmojammoja
mmojawao
mmojawapo
mmomonyoko
mmonaki
mmumunyo
mn
mna
mnada
mnafiki
mnamo
mnana
mnandi
mnara
mnarani
mnasaba
mnavu
mnazi
mnene
mng
mnigeria
mno
mnono
mnunuzi
mnururisho
mnuvi
mnyama
mnyampala
mnyenyekevu
mnyofu
mnyoo
mnyororo
mo
moac
mobb
mobile
mobo
mobutu
moc
mode
model
modeli
models
modern
modernghana
modernity
modesti
module
moe
moen
mofimu
mofolojia
mogadishu
mographie
mohamed
mohammad
mohammed
mohinder
moi
mois
moja
mojamoja
mojawapo
mokoena
mol
mola
moldova
mole
molekiuli
molekuli
molekyuli
molly
molo
molokai
moma
momba
mombasa
moment
moments
mon
mona
monaco
monako
monalisa
monarch
monarchs
monasteri
monasterini
monastery
monastic
monasticism
monastir
monday
monde
mondo
monduli
money
mongol
mongolia
mongoose
monica
monika
monitor
monk
monkey
monks
monmouth
mono
monoamini
monografi
monoksidi
monroe
monrovia
mons
monster
monsuni
mont
montana
montane
monte
montenegro
montevideo
montfort
montgomery
month
monthly
monticola
montpellier
montre
montreal
montserrat
monument
monumenta
monuments
moody
moon
moor
moore
moral
morales
moran
moravia
moravian
more
morelli
morelos
moreno
morgan
mori
morisi
morning
moro
morocco
morogor
morogoro
moroko
moroto
morris
morrison
morrissey
morse
mortality
morton
morus
mos
mosaic
moscow
mose
moses
moshi
moshoeshoe
mosi
mosley
mosque
mosques
moss
most
mostarda
mota
motacilla
mother
motion
motisha
moto
motokaa
motomoto
motoni
motor
motors
motown
mott
mou
moulinier
mount
mountain
mountains
mourinho
mouse
mouskouri
moussa
mouth
mouton
move
movement
movements
moves
movie
movies
moving
moxico
moyale
moyen
moyo
moyoni
moza
mozaiki
mozambique
mozart
mp
mpagani
mpaka
mpakani
mpako
mpamba
mpana
mpanda
mpangaji
mpangilio
mpango
mpasuaji
mpasuambegu
mpasuko
mpatanishi
mpate
mpea
mpelelezi
mpemba
mpendwa
mpenyezo
mpenzi
mpevu
mpiga
mpigaji
mpiganaji
mpigi
mpigo
mpinzani
mpira
mpishi
mpito
mpla
mpokeaji
mpole
mps
mpumalanga
mpunga
mpwa
mpwapwa
mpweke
mpya
mr
mraba
mradi
mratibu
mrefu
mrema
mrembo
mrengo
mreno
mreteni
mri
mrija
mrima
mrisho
mrithi
mroma
mrs
mrukaji
mruko
mrusi
ms
msaada
msafara
msafiri
msafsafi
msaidizi
msajili
msalaba
msalabani
msaliti
msamaha
msambao
msambazaji
msambweni
msamiati
msanifu
msanii
msawazo
msc
msemaji
msemo
mseto
mshahara
mshairi
mshale
mshambuliaji
mshambulizi
mshangao
mshauri
mshawishi
mshenga
mshigi
mshikamano
mshindani
mshindi
mshipa
mshirika
mshiriki
mshonaji
mshororo
mshtakiwa
mshtarii
mshtuko
mshubiri
mshumaa
msiba
msichana
msikilizaji
msikiti
msimamizi
msimamo
msimbazi
msimbo
msimu
msimuliaji
msimulizi
msingi
msisimko
msisitizo
msitu
msituni
msn
msnbc
msomaji
msomi
msondo
msongamano
msongo
msonobari
mstaafu
mstari
mstatili
msuguano
msukosuko
msukumo
msuli
msulubiwa
msumbiji
msumeno
msumenonyororo
msururu
msuya
mswada
mswaki
mt
mtaa
mtaala
mtaalam
mtaalamu
mtaani
mtaarishaji
mtafiti
mtaguso
mtaji
mtakatifu
mtama
mtambo
mtamu
mtandao
mtandaoni
mtangazaji
mtango
mtangulizi
mtanzania
mtapo
mtaro
mtawa
mtawala
mtawalia
mtawaliwa
mtawanyiko
mtayarishaji
mtayarishi
mtazamaji
mtazamo
mtego
mteja
mtelemko
mtemi
mtemvu
mtendaji
mtende
mtengeneza
mtengenezaji
mteremko
mtetemo
mtetezi
mteule
mti
mtibwa
mtihani
mtindo
mtini
mtiririko
mtiti
mtn
mto
mtoa
mtoaji
mtolondo
mtoni
mtoro
mtoto
mtu
mtukudzi
mtukufu
mtulivu
mtumbuizaji
mtume
mtumiaji
mtumishi
mtumizi
mtumwa
mtungaji
mtungi
mtunza
mtunzi
mtupu
mtv
mtwa
mtwara
mu
muafaka
muammar
muandaaji
muandishi
muasisi
muawiya
mubarak
mubashara
mubende
much
mud
muda
mudavadi
muendelezo
mufindi
mufti
mug
mugabe
mugerwa
mugirango
muh
muhamad
muhammad
muhammed
muheza
muhimbili
muhimu
muhindi
muhogo
muhoroni
muhsin
muhtasari
muhula
muhuri
muhusika
muigizaji
muimbaji
muislamu
mujahideen
mujibu
mukasa
mukomberanwa
mukono
muktadha
mulatu
muleba
mulenga
muliro
mullet
multi
multimedia
multiple
multitree
mumbai
mume
mumewe
mumia
mumias
mun
mundi
mundo
mundu
mungiki
mungu
munia
munich
municipal
municipality
munro
muntiacus
muntiako
munyigumba
muonekano
muongo
muongozaji
muramvya
murang
murder
muridae
murphy
murray
murs
murut
mus
musa
musambwa
muscat
muscicapa
muse
museo
museum
museums
museveni
music
musica
musical
musician
musicians
musique
musk
muslim
muslims
musoma
mussa
mussolini
must
mustafa
mustakabali
mustapha
musuli
muswada
musyoka
mutawakkil
mutesa
mutilation
muuaji
muuguzi
muujiza
muumba
muumini
muundaji
muundo
muungamishi
muunganiko
muunganisho
muungano
muungo
muuzaji
muyinga
muzik
muziki
mv
mvilio
mvinyo
mviringo
mvita
mvomero
mvua
mvuke
mvulana
mvumbuzi
mvurugiko
mvurugo
mvutaji
mvutano
mvuto
mvuvi
mw
mwa
mwadilifu
mwadui
mwafaka
mwafrika
mwai
mwainisho
mwajemi
mwajiri
mwajiriwa
mwaka
mwakani
mwake
mwakikagile
mwakilishi
mwako
mwala
mwali
mwaliko
mwalimu
mwaloni
mwamba
mwambao
mwambaoni
mwamerika
mwami
mwamini
mwaminifu
mwamko
mwamubambe
mwamuzi
mwamvuli
mwana
mwanaanga
mwanaanthropolojia
mwanaastronomia
mwanabiolojia
mwanachama
mwanachuoni
mwanadada
mwanadamu
mwanadiplomasia
mwanae
mwanafalsafa
mwanafizikia
mwanafiziolojia
mwanafunzi
mwanahabari
mwanaharakati
mwanahisabati
mwanahistoria
mwanaidi
mwanajeshi
mwanakandanda
mwanakemia
mwanakondoo
mwanamalundi
mwanamama
mwanamapinduzi
mwanamazingira
mwanamichezo
mwanamitindo
mwanamke
mwanamume
mwanamuziki
mwanamziki
mwananchi
mwanangu
mwanao
mwanariadha
mwanasaikolojia
mwanasayansi
mwanasheria
mwanasiasa
mwanasoka
mwanasosholojia
mwanateolojia
mwanatheolojia
mwanauchumi
mwanaume
mwanawe
mwandamizi
mwandamo
mwandiko
mwandishi
mwanga
mwangalizi
mwangaza
mwangi
mwangu
mwangwi
mwani
mwanya
mwanza
mwanzi
mwanzilishi
mwanzo
mwanzoni
mwao
mwarabu
mwaridi
mwario
mwaro
mwashinga
mwasho
mwasi
mwathirika
mwathiriwa
mwatuko
mwavuli
mweka
mwekezaji
mwekundu
mwelekeo
mwema
mwembamba
mwembe
mwenda
mwendelezo
mwendesha
mwendeshaji
mwendo
mwendokasi
mwene
mwenendo
mwenge
mwengine
mwenye
mwenyeheri
mwenyeji
mwenyekiti
mwenyewe
mwenyezi
mwenza
mwenzake
mwenzao
mwenzi
mwenzie
mwepesi
mwetu
mweupe
mweusi
mwewe
mwezi
mwezini
mwiba
mwigizaji
mwiko
mwili
mwilini
mwimbaji
mwindaji
mwingereza
mwingi
mwingiliano
mwingilio
mwingine
mwinjili
mwinjilisti
mwinshehe
mwinuko
mwinyi
mwisho
mwishoni
mwishowe
mwislamu
mwita
mwitalia
mwitikio
mwito
mwitu
mwituni
mwizi
mwokozi
mwonekano
mwongo
mwongozaji
mwongozo
mwovu
mx
my
myahudi
myanmar
myekundu
myembamba
myers
myeupe
myeusi
myeyungano
myna
myra
myself
myspace
mystery
mystic
myth
mythology
myths
mzabibu
mzaha
mzalendo
mzalishaji
mzaliwa
mzansi
mzao
mzawa
mzazi
mzee
mzigo
mziki
mzima
mzimu
mzinga
mzingo
mzio
mzito
mzizi
mzozo
mzumbe
mzungu
mzunguko
mzungumzaji
mzuri
mzushi
mzvee
n
na
naa
naacp
naam
nabeul
nabii
nac
nach
nachingwea
nacho
nacional
nadhani
nadharia
nadhiri
nadia
nadra
nadu
nae
nafaka
nafasi
nafsi
nafsia
nafuu
nagasaki
nagoya
nagy
nahau
nahodha
nai
naibu
naili
nairobi
naivasha
naja
najd
najua
nakala
nakamura
nakapiripirit
nakaseke
nakasongola
naked
nako
nakshi
nakupenda
nakuru
nalo
nam
nama
namayingo
namba
nambari
name
named
names
nami
namib
namibia
naming
namna
namtumbo
namutumba
nan
nana
nancy
nandi
nane
nang
nanga
nani
nanjing
nansen
nantes
nanyamba
nanyi
nanyuki
nanyumbu
nao
naomi
naona
napak
naped
napenda
naples
napoleon
napoleoni
napoli
nara
narbonne
narc
narok
narrative
narrator
naruto
nas
nasa
nasaba
nasaha
nash
nashville
nasi
nasibu
nasir
naso
nasr
nasri
nassau
nasser
nassim
nasty
nat
nataka
natal
natalensis
natalia
natalie
natasha
nate
nathan
nathani
nathaniel
nation
national
nationale
nationalism
nations
native
nato
natron
natural
nature
nau
naughty
nauli
nauru
naval
navigation
navis
navy
navyo
nawa
nawaambia
nawaambieni
nawe
naweza
nay
nayarit
naye
nayo
nazareth
nazareti
nazi
nazianzo
nazianzus
nazo
nba
nbc
nbs
nc
ncaa
ncb
ncbi
ncha
nchani
nchen
nchez
nchi
nchini
nchinimichael
ncia
ncipe
nd
ndadaye
ndala
ndama
ndanda
ndani
nde
ndebele
ndefu
ndege
ndegeputo
ndembezi
ndevu
ndewe
ndez
ndicho
ndie
ndiko
ndilo
ndimi
ndimu
ndio
ndipo
ndiposa
ndivyo
ndiwe
ndiye
ndiyo
ndizi
ndizo
ndo
ndoa
ndogo
ndogondogo
ndola
ndondi
ndoo
ndoto
ndovu
ndp
ndubwi
ndugu
nduguye
ndui
ne
neal
near
nebbi
nebraska
nebula
nec
necessary
necked
nectarinia
need
needs
neema
negative
negro
negus
neh
nehemia
nehemiah
nehru
neil
neill
nel
neli
nell
nella
nelly
nelson
nematodi
nembo
nen
nenda
nene
neno
neo
neolithic
nepal
nepali
neptuni
neri
neria
nero
nerva
nest
nestori
nestorius
net
netflix
netherlands
network
networks
neu
neue
neumann
neural
neuroni
neuropsychology
neutroni
neva
nevada
nevado
never
neville
nevis
nevs
new
newadvent
newala
newark
newcastle
newcomen
newfoundland
newman
newport
news
newsletter
newspaper
newspapers
newton
nex
next
nez
nezami
nfl
ng
nga
ngagi
ngai
ngamia
ngamiland
ngano
ngao
ngapi
ngara
ngarara
ngazi
ngazija
nge
ngedere
ngelela
ngeli
ngeny
ngiri
ngisi
ngo
ngogo
ngoma
ngombe
ngome
ngong
ngono
ngorongoro
ngowi
ngozi
nguchiro
ngugi
nguli
ngumi
ngumu
nguo
ngurumo
nguruwe
nguva
nguvu
nguvuni
nguye
nguyen
nguzo
ngwaketse
nh
nha
nhs
ni
nia
niaba
niagara
niassa
nic
nicaragua
niccolo
nice
nicene
nicholas
nichols
nicholson
nick
nickelodeon
nicky
nico
nicola
nicolas
nicolaus
nicole
nidhamu
nie
niels
nielsen
nien
nietzsche
nig
nigel
niger
nigeria
nigerian
nigga
night
nightingale
nightjar
nights
nigra
nigsberg
nih
nihan
nii
nijeria
nikaragua
nike
nikeli
niki
nikita
nikiwa
nikki
niko
nikola
nikolai
nikolasi
nikolaus
nikomedia
nikon
nikotini
nikwata
nile
nilikuwa
nilo
nimeiry
nimonia
nin
nina
nine
nineteenth
ninga
nini
ninja
nino
ninox
ninth
ninyi
nio
nipate
nipe
nippon
nisa
nisea
nishani
nishati
nissan
nithi
nitrojeni
niwe
nixon
nj
njaa
njama
njano
nje
njegere
njema
njia
njiani
njiapanda
njiwa
njombe
njoo
njoro
njozi
njugu
nk
nkasi
nkhotakota
nkomo
nkosi
nkrumah
nkurunziza
nl
nlm
nm
nnamdi
nne
nnje
no
noaa
noah
nobel
nobis
noble
nobody
nodi
noe
noel
noeli
noire
nok
nokia
nola
nolan
nollywood
noma
nomination
nominations
nominees
nominis
nomino
non
nondo
nono
noor
noord
nor
norbert
nord
nordic
norepinefrini
norfolk
norma
normal
norman
normandie
norplant
norris
norte
north
northern
northumbria
northwest
northwestern
norton
norway
norwe
norwegian
norwei
norwich
nos
nosed
nosy
not
note
notes
nothing
noti
notice
notorious
notre
nottingham
nou
nouvelle
nov
nova
novara
novel
novemba
novembamartyrologium
november
novembre
novgorod
novo
now
np
npr
nr
nrj
ns
nsa
nsdap
nsf
nsis
nssf
nster
nsukka
nsw
nt
nta
ntoroko
ntungamo
ntv
nu
nuba
nubia
nubian
nuclear
nuestra
nueva
nuevo
nuhu
nukta
nukuu
number
numbers
numerical
numerous
numidia
numonia
numoniae
nun
nunavut
nundu
nungu
nungunungu
nuns
nuova
nur
nuremberg
nurhaliza
nurse
nursia
nursing
nuru
nururifu
nusu
nusufamilia
nusujenasi
nusukipenyo
nusumaisha
nusungeli
nusuoda
nusura
nususpishi
nusutropiki
nusutufe
nuthatch
nuwas
nv
nw
nwa
nwapa
nwoya
ny
nya
nyachae
nyadhifa
nyahururu
nyakach
nyakati
nyakatu
nyala
nyama
nyamagana
nyambizi
nyamira
nyanda
nyandarua
nyando
nyang
nyanga
nyangao
nyangumi
nyani
nyanja
nyanya
nyanza
nyara
nyaraka
nyasa
nyasaland
nyasi
nyati
nyavu
nyaya
nyayo
nye
nyege
nyegere
nyekundu
nyembamba
nyembelele
nyemelezi
nyengine
nyenje
nyenyekevu
nyenzo
nyepesi
nyerere
nyeri
nyeti
nyeupe
nyeusi
nyigu
nyika
nyimbo
nyingi
nyingine
nyinginezo
nyiragongo
nyofu
nyoka
nyonga
nyongeza
nyongo
nyororo
nyota
nyotamkia
nytimes
nyufa
nyuki
nyukleotidi
nyuklia
nyukliasi
nyuma
nyumba
nyumbani
nyumbu
nyundo
nyungan
nyungunyungu
nyuro
nyurolojia
nyuroni
nyurosaikolojia
nyurotransmita
nyusi
nyusika
nyuso
nyutroni
nyuzi
nyuzijoto
nyuzilandi
nyuzinyuzi
nywele
nywila
nz
nzega
nzi
nzige
nzima
nzito
nzoia
nzuri
o
oa
oak
oakland
oaks
oasis
oasisi
oates
oaxaca
ob
obafemi
obama
obasanjo
obe
obertan
obesity
obi
obinna
obiti
obituary
object
objects
oblast
obote
observations
observatory
observer
oc
oca
occidental
occidentalis
ocean
oceania
oceanic
och
ochoa
oclc
oct
octoba
october
oda
odd
odds
ode
oder
odessa
odi
odienne
odinga
odm
odo
odyssey
oe
oecd
oecumenici
oenanthe
oevu
of
ofa
off
office
officer
official
oficial
ofisa
ofisi
ofisini
ofm
ofs
often
og
ogani
ogania
ogg
oginga
ogooue
ogopa
ogu
ogun
oh
ohio
oil
ois
oise
ok
okapi
okavango
okello
okestra
okjeo
oklahoma
okoye
oksidesi
oksidi
oksijeni
oktoba
oktobamartyrologium
ol
ola
olac
olamide
olatunji
olchorro
old
oldest
olduvai
ole
olewa
olga
oli
olimpiki
oliva
olive
oliveira
oliver
olivi
olivia
olivier
olkeju
ologie
olomide
olsen
olusegun
olympia
olympic
olympics
olympique
olympus
om
oman
omani
omar
omari
omarion
ombaomba
ombe
ombi
ombwe
omdurman
omega
omer
ommy
omnes
omnia
omo
on
ona
once
ondoa
one
onepage
ones
onesha
onesho
ong
ongala
ongezeko
online
only
ono
ons
ontario
onychognathus
onyesha
onyesho
onyo
oort
op
oparesheni
open
opera
operating
operation
operations
operesheni
ophiuchus
opiati
opinion
opioidi
oprah
option
opus
or
ora
oral
oran
orange
oranje
oratorio
oratory
orbis
orchestra
order
ordinary
ordinis
ordo
ordu
ore
oregon
org
organ
organic
organisation
organization
organizations
organs
ori
orient
oriental
orientale
orientales
orientalia
orientalis
orientalium
orig
origen
origene
origin
original
originally
origines
origini
origins
orinoco
oriole
oriolus
orion
orlandi
orlando
orleans
oro
orodha
oromia
oromo
ortho
orthodoksi
orthodox
orthodoxwiki
orthodoxy
ortiz
orum
oryx
os
osaka
osama
osb
oscar
oscars
osei
osiris
oslo
osman
osmani
osmaniye
ossetia
ostafrika
ostia
osun
oswald
ot
ota
ote
other
others
oti
otieno
otis
otomys
ottawa
otter
otto
ottoman
otus
ou
ouagadougou
oue
oued
ouest
ouko
our
out
outer
outlawz
outline
outlook
outre
outside
outstanding
outta
ova
ovari
oveni
over
overseas
overview
ovyo
owen
owerri
owl
owlet
own
owned
owusu
oxfam
oxford
oyam
oyo
oyster
oz
ozoni
p
pa
paa
pablo
pac
pace
pacha
pachydactylus
pacific
pader
padova
padre
padri
padua
pafu
pagan
page
pages
pahala
pahali
paharia
pai
pain
paint
painted
painting
paintings
pair
paja
paji
pak
paka
pake
pakistan
pakistani
pakiti
pakku
pakomi
pakubwa
pal
pala
palace
palais
palapye
palatino
palau
palazzo
pale
palepale
palermo
palestina
palestine
palestinian
palestrina
palgrave
palikuwa
palipo
pallas
pallisa
palm
palma
palmas
palme
palmer
pam
pamba
pambano
pambo
pamela
pamir
pamoja
pampu
pan
pana
panama
panda
pande
pandemia
pandu
paneli
panga
pangani
pango
panorama
panoramio
panther
panthera
panya
panzi
pao
paolo
paoneaanga
papa
papacy
papal
paper
paperback
papers
papias
papo
papua
par
para
parade
paradise
paradiso
parafujo
paraguay
paralaksi
parallel
paramount
parana
parare
paraxerus
parc
pare
parents
parfait
pari
parigi
parimatch
paris
parish
park
parker
parkinson
parks
parliament
parliamentary
parma
parokia
paroko
parra
parrot
parrotbill
pars
parsons
part
partement
partements
partial
partie
partizan
partners
partnership
parton
partridge
parts
party
parva
pas
pasaka
pascal
pasha
pasi
pasifiki
pasipo
pasipoti
paskali
pass
passage
passer
passes
passion
passiv
password
past
pasta
pasteur
pastor
pastoral
pat
pata
patagioenas
patagonia
patakatifu
patasi
pate
patel
patent
patenti
path
pathofisiolojia
pathojeni
patholojia
pato
paton
patriarch
patriarchate
patriarki
patrice
patricia
patrick
patriotic
patristic
patrologia
patron
patrum
patterns
patterson
patti
pau
paul
paula
pauli
paulina
pauline
paulino
paulinus
paulist
paulo
pauly
paundi
pauni
pavel
pavia
pax
payn
payne
pays
paz
pazia
pazuri
pbs
pc
pcr
pd
pdf
pe
pea
peabody
peace
peak
pear
pearce
pearl
pearson
peck
pedro
peek
pegasus
peju
peke
pekee
peku
pekupeku
pel
pele
pelican
pelusius
pemba
pembe
pembejeo
pembemraba
pembeni
pembenne
pembetatu
pembezoni
pen
penalti
penalty
pendekezo
pendo
pendwa
pengi
pengine
penginepo
pengo
penguin
penh
peni
penicillin
peninsula
penisilini
penn
pennsylvania
penny
penseli
pensheni
pentecostal
pentekoste
penye
penyewe
penzi
people
peoplepill
peoples
pepe
pepo
peponi
peptidi
per
peramiho
percussion
percy
pereira
perez
perfect
performance
performed
performer
performing
pergamon
period
periplus
permanenti
perpetua
perrin
perry
persecution
persepolis
perseus
persia
persian
person
personal
personality
persons
perspective
perspectives
perth
peru
perugia
pes
pesa
pet
peta
petali
pete
peter
peterburg
peters
petersburg
petersen
peterson
petit
petra
petrarch
petrel
petrelli
petro
petroli
petroliamu
petrus
petzell
pew
pez
pezi
pezimgongo
pf
pg
ph
phaetornis
phalacrocorax
pharaoh
phase
phd
phelsuma
phil
philadelphia
philharmonic
philip
philipp
philippa
philippe
philippians
philippine
philippines
phillip
phillips
philosopher
philosophers
philosophical
philosophie
philosophy
phnom
phoenix
phonology
photo
photograph
photographic
photographs
photography
photos
php
phu
phyllis
phylloscopus
physical
physics
pi
pia
piacenza
piano
pibor
pica
picasso
picha
pick
pico
picture
pictures
piculet
picumnus
pid
pie
pieces
pied
piemonte
pier
pierce
piero
pierre
pieter
pietermaritzburg
pietismus
pietri
pietro
piety
pig
piga
pigeon
pigmenti
pigo
pijini
pikipiki
pilato
pilgrim
pilgrimage
pili
pilipili
pilot
pinde
pindi
pine
ping
pingamizi
pingili
pini
pink
pinki
pinus
pinyin
pinzani
pio
pioneer
pipa
pipe
piper
pipit
piramidi
piran
pirates
pirenei
pisa
piscis
piscopaux
pishi
pistoni
pitcairn
pitch
pitt
pitta
pittsburgh
pituitari
pius
pix
piz
pizarro
pizza
pl
place
places
plague
plain
plains
plan
plancius
planck
planet
planetary
planets
planktoni
planning
plant
plants
plasma
plasmodium
plastaz
plastiki
plata
plate
plateau
plateaux
platform
platinamu
platini
platinum
platnumz
plato
platyceps
play
playa
played
player
players
playing
playstation
plaza
plazma
plc
please
pleistocene
plies
plinio
pliny
pliocene
plo
ploceus
plotinus
plover
plug
plus
pluto
plutoni
plymouth
pm
pmid
png
pnu
po
poa
pocket
poda
podcast
poe
poem
poems
poet
poetry
poets
pofu
point
pointe
pointi
points
poitier
poitiers
poitou
poker
pokot
pol
poland
polandi
polar
polaris
pole
polepole
police
policies
policy
polima
polinesia
polio
polis
polisario
polish
polisi
political
politics
politique
polity
poll
polling
polo
polokwane
poly
polycarp
polynesia
polytechnic
pombe
pomboo
pomerania
pomponia
pongezi
pongo
ponografia
ponsyo
ponta
pontifical
pontificalis
pontificia
pontificio
ponto
ponts
pool
poole
poor
pop
pope
popes
popo
popolazione
popote
popular
population
por
porcupine
pori
porini
poro
porphyrio
port
portal
portalino
porter
portland
porto
portrait
portraits
portsmouth
portugal
portuguese
porzana
posa
position
positive
posse
possible
possumus
post
posta
postal
postcode
posted
postikodi
pot
potasiamu
pote
potential
potofu
potosi
potovu
potsdam
potter
pound
pour
poverty
povu
powell
power
powerful
powers
poza
pp
ppe
ppell
pr
practical
practice
practices
pradesh
praeger
prague
praha
praia
praise
pras
pray
prayer
prayers
pre
precedenti
precision
predator
preface
prefecture
premie
premier
premiere
premiers
premio
premios
prentice
prepared
presbyterian
prescriptions
presence
present
presentation
presented
presents
preservation
preserved
presha
president
presidential
presley
press
presse
presses
pressure
preston
pretoria
pretty
prevention
previous
pri
price
pride
priest
priests
prima
primary
prime
primetime
primi
primitive
primo
primus
prince
princes
princess
princeton
principal
principe
principles
prinia
print
printa
printed
printing
priori
priscilla
prison
prisoner
prisons
private
prix
prize
pro
probability
probably
problem
problems
proceedings
process
proconsularis
prod
produced
producer
product
production
productions
products
prof
profaili
profesa
professional
professor
profile
profiles
profit
prognosi
prognosisi
program
programme
programming
programs
programu
progress
progressive
project
projects
projesteroni
projestini
prometheus
promise
promo
promoting
promotion
promulgatum
proof
propaganda
proper
properties
property
prophet
prophets
propithecus
prose
prosecutor
prosesa
prosopographie
protected
protection
protectorate
protest
protestant
protini
protisi
proto
protocol
protoni
protozoa
proud
proust
provence
provera
providence
provides
province
provinces
provincial
pru
pruitt
prunus
prussia
ps
psalms
psammophis
pseudo
psg
psv
psychiatry
psychological
psychology
pt
pternistis
pterocles
pterodroma
pteropus
pterygota
ptolemaio
ptolemy
pu
pua
puani
pub
public
publication
publications
publie
publique
published
publisher
publishers
publishing
puebla
puerto
puf
puff
puffinus
puglia
pugu
puju
pulitzer
pulse
puma
pumu
pumzi
pumziko
punch
punda
pundamilia
punde
pune
pungufu
punishment
punjab
punje
punk
punt
pupa
puppis
pure
purple
purpose
put
putin
puto
puy
pwani
pweza
pwo
px
pycnonotus
pygmy
pyre
pyrus
python
q
qabus
qaeda
qaida
qatar
qawwali
qin
qing
qom
qu
quae
quaestiones
quail
quality
quang
quantum
quark
quarterly
quartet
quaternary
que
quebec
queen
queens
queensland
quelea
quere
ques
quest
question
questions
qui
quick
quiet
quilt
quin
quincy
quinn
quintus
quo
quotes
qur
quran
qurani
r
ra
rabat
rabbi
rabbit
rabi
rabin
racconto
race
racer
rachel
rachid
rachmaninoff
racing
rada
radcliffe
radebe
radford
radhi
radi
radiation
radical
radidia
radio
radiotherapi
radislav
radoni
rae
rafadha
rafael
rafiki
rafu
raga
ragga
rah
raha
rahisi
rahman
rai
raia
rail
raila
railway
railways
rain
rainbirder
rainbow
rais
raise
raisi
raisin
raja
rajab
rajabu
rajasthan
rajiv
rajveer
rak
rakaa
rakai
rale
rallus
rally
ralph
ram
rama
ramadan
ramadhani
ramani
ramaphosa
ramesses
rami
ramia
ramo
ramon
ramos
ramsay
ramses
ramsey
ramsgate
ran
rana
rand
randall
random
randy
range
rangers
rangi
rani
rania
rap
rapa
raphael
rapid
rapids
rapper
rard
rare
ras
rasa
rashid
rashidi
rasi
rasilimali
rasimu
raslimali
rasmi
raspberry
rasta
rastafari
rat
rate
rated
rates
rather
ratiba
ration
rau
raul
raundi
raven
ravenna
ravine
raw
rawlings
ray
raymond
rayvanny
rb
rc
rca
rd
rdc
rdoba
re
reach
reaction
read
reader
reading
readings
ready
reagan
real
reality
really
reas
reason
rebecca
rebel
received
recensement
recent
recherche
recipe
recipes
reconstruction
record
recorded
recording
recordings
records
red
redemption
redio
redioni
redir
reed
reef
reekado
reeves
ref
refa
reference
references
reflections
reform
reformation
refu
refugee
refugees
regarding
rege
regensburg
regent
reggae
reggaeton
reggie
regime
regina
reginald
regio
regiola
region
regional
regions
regis
register
registered
regla
regula
regular
regulus
rehani
rehema
rehner
reich
reid
reign
reilly
reims
rejareja
rejea
rejista
rekodi
related
relating
relations
relationship
relationships
relativity
release
released
releases
reli
relics
relief
religion
religions
religious
remains
rembrandt
remember
remix
remmy
ren
renaissance
renato
rene
rennes
reno
rep
report
reported
reporter
reports
reprint
reprinted
reptiles
reptilia
republic
republican
required
rer
rerum
res
rescue
research
researchgate
reserve
resident
resistance
resolution
resort
resource
resources
respect
response
responsibility
rest
restituta
restoration
results
resurrection
rethinking
retina
retreat
retrieved
retscreen
return
returns
reunion
reuters
rev
revelation
revenge
review
reviews
revised
revision
revisited
revival
revolution
revolutionary
revue
rex
rey
reynolds
rez
rfc
rfi
rg
rgb
rgen
rh
rhapta
rhein
rhine
rhineland
rhino
rho
rhode
rhodes
rhodesia
rhone
rhymes
rhythm
ri
ria
riaa
riadha
riba
ribeira
ribosomu
ric
rica
rican
ricardo
rice
rich
richard
richards
richardson
richie
richmond
richter
rick
ricky
rico
rida
riddim
ride
rider
ridge
ridhaa
ridpath
rie
rieure
rievaulx
rifles
rift
right
rights
rihanna
riise
rijili
rijn
rika
riley
rima
rin
ring
rings
rio
riparia
ripota
ripoti
ripper
risa
risasi
rise
rising
risk
rita
rite
rites
ritual
river
rivers
riverside
riwaya
rize
riziki
rj
rk
rn
rna
ro
road
roar
rob
robben
robbins
roberson
robert
roberto
roberts
robertson
robespierre
robin
robinson
robo
robot
roboti
robson
roc
rocha
roche
rochelle
rochester
rock
rockefeller
rocks
rockstar
rocky
rod
rodney
rodri
rodrigo
rodrigues
rodriguez
roewer
rogatianus
rogatus
roger
rogers
roho
rohoni
roi
rojo
roketi
roland
role
rolfe
roll
rolling
rollins
rolls
rom
roma
romae
romagna
romahttp
romain
roman
romance
romanesque
romania
romanian
romano
romanov
romanovs
romans
romantic
romantik
romanum
romanumhttp
romanumhttps
romanus
rombo
rome
romeo
romero
ron
ronald
ronaldo
ronan
rondo
rongai
ronnie
room
rooney
roosevelt
root
roots
rope
rorya
ros
rosa
rosario
rosary
rose
rosefinch
rosemary
rosen
rosenberg
roses
rosh
roshan
ross
rossi
rostam
rostov
rote
roth
rotterdam
rouen
rouge
rough
round
rousseau
roussillon
route
routledge
rover
rovers
rovuma
row
rowan
rowland
rowling
rowman
roy
royal
royale
rozari
rpf
rpm
rr
rs
rt
rterbuch
rttemberg
ru
ruaha
ruanda
ruangwa
rubani
rubens
rubin
rubirizi
ruby
ruddy
rudi
rudishwa
rudolf
rudolph
rufaa
ruff
rufiji
rufous
rufus
rugambwa
rugby
ruge
ruhusa
ruins
ruiru
ruiz
rukia
rukundo
rukungiri
rukwa
rule
ruled
rules
rum
rumba
rumi
rumonge
rumped
run
rundiko
rundo
rungwe
runinga
running
rununu
rupert
rupia
rupie
rural
rus
rush
rushwa
russel
russell
russia
russian
rusty
rusu
ruta
rutana
rutba
rutgers
ruth
rutherford
ruto
rutuba
ruvu
ruvubu
ruvuma
ruwaza
ruwenzori
ruyigi
ruzizi
ruzuku
rw
rwanda
rwandair
rwd
rwenzori
ry
ryan
rømer
rı
s
sa
saa
saad
saadani
saarland
saba
sababu
sabah
sabaki
sabata
sabato
sabc
sabi
sabina
sabine
sabini
sabino
sabri
sabrina
sabuni
sachs
sacleux
sacra
sacramento
sacred
sacrosancti
sad
sadaka
sadat
sadc
saddam
saddle
sadiq
safari
safaricom
safarini
safe
safety
safi
safina
safu
saga
sage
sagittarius
sahani
sahara
saharan
sahel
sahib
sahih
sahihi
sahili
sahrawi
sai
said
saida
saidi
saidizi
saigon
saikloni
saikolojia
saini
saint
sainte
saintes
saintpatrickdc
saints
saitoti
saizi
sakafu
sakakibara
sakalava
sakarya
sakassou
sakata
sakiti
sakramenti
saksafoni
saksonia
sal
sala
salaam
salah
salam
salama
salamanca
salamu
sale
saleh
salem
sales
salesiana
salibu
salim
salisbury
salix
salle
sally
salma
salmon
salome
salomon
salon
salone
saloth
salt
salum
salvador
salvation
salvatore
salzburg
sam
sama
samadi
samaki
samani
samantha
samaria
samarkand
samata
samawati
samba
sambamba
samburu
same
sami
samia
samir
sammanslagna
sammy
samoa
samora
sampson
sampuli
samson
samsun
samsung
samuel
samueli
samweli
san
sana
sanaa
sanamu
sanasana
sanchez
sancta
sancti
sancto
sanctorum
sanctuary
sand
sanders
sandgrouse
sandpiper
sandra
sands
sanduku
sandy
sanford
sang
sanga
sanger
sani
sanifu
sanjari
sankara
sankt
sans
sanskrit
sant
santa
santana
santander
santi
santiago
santiebeati
santo
santos
santuri
sao
sapiens
sar
sara
sarafina
sarafu
sarah
saraha
sarakasi
saratani
sarawak
sardegna
sardinia
sare
sarkodie
sarkozy
sars
sartre
sarufi
saruji
sasa
sasha
sasini
saskatchewan
sassandra
sataranji
satelaiti
satellite
sato
saturday
saturn
saturnina
saturnini
saturninus
satyagraha
saud
saudi
saudia
saul
sauli
saulo
saumu
saunders
sauti
sava
savage
savana
savanna
savannah
save
saved
savimbi
saving
savings
savio
saw
sawa
sawasawa
sawia
saxon
saxony
saxophone
say
sayansi
sayari
saying
says
sayyid
sb
sc
scale
scaled
scaly
scandal
scandinavia
scar
scarecrow
scarlet
scene
schaff
schalke
schengen
scherzinger
schleswig
schloss
schmidt
schnee
schneider
scho
scholar
scholarly
scholars
scholarship
school
schools
schopenhauer
schro
schu
schubert
schulte
schultz
schumann
schuster
schutztruppe
schuyler
schwartz
schwenzer
schweppes
sci
science
scienceimage
sciences
scientific
scientist
scientists
scops
score
scores
scorpion
scorpionfish
scotia
scotiabank
scotland
scott
scottish
scotus
scout
scream
screech
screen
script
scripta
scriptores
scriptorum
scripture
scrub
sculpture
sd
se
sea
seal
sean
search
searchable
searching
searle
seas
season
seasons
seattle
sebastia
sebastian
sec
secolo
second
secondary
secondhand
secondo
secret
secretary
secrets
section
sections
sects
secular
secunda
security
see
seed
seedeater
seen
sega
sehemu
sei
seif
seine
sekai
seko
sekondari
sekretarieti
sekta
sekunde
selassie
select
selected
selection
selemani
selena
selestini
self
seli
selling
selous
sema
sembabule
sembe
semi
semina
seminari
seminary
sen
senate
senati
senegal
senegalensis
senegali
senegalia
seneta
seneti
sengerema
sengha
senghor
sengi
senior
sens
sensa
sensahttps
sense
sent
sentensi
senti
sentigredi
sentimeta
sentimita
seoul
sep
separate
sepetu
sepik
sept
septemba
septembamartyrologium
september
septimius
septuagint
septuaginta
sequence
sera
seram
serapioni
serbia
seremala
serena
serengeti
serge
sergei
sergio
sergius
serie
series
serikali
serikalini
serious
sermon
sermons
serotonini
serowe
serpent
serra
servants
serve
server
servetus
service
services
ses
sese
sesotho
sessions
set
seth
seti
setilaiti
sets
setting
settlement
seva
seven
seventh
several
severino
severo
severus
seviksi
sevilia
sevilla
seville
sex
sexual
sexy
seychelles
seymour
sf
sfax
sfinksi
sgr
sh
sha
shaaban
shaba
shabaab
shabaha
shabani
shabiki
shadow
shady
shafi
shag
shaggy
shah
shaha
shahada
shahamu
shahawa
shahidi
shairi
shajara
shaka
shake
shakespeare
shakira
shakivale
shakur
shakwe
shall
shallow
shamba
shambani
shambulio
shambulizi
shame
shams
shamu
shan
shane
shanga
shangazi
shanghai
shangwe
shannon
shape
shapiro
shapur
share
shari
sharia
sharif
sharifu
sharika
sharjah
shark
sharma
sharon
sharp
sharpe
sharti
shati
shauku
shauri
shavu
shaw
shawn
shayiri
shaykh
she
shea
shearwater
sheba
sheema
sheep
sheet
sheffield
shehena
sheikh
sheila
shelisheli
shell
shelley
shemasi
shemeji
sheng
shepard
shepherd
shepwa
sheraton
sherehe
sheria
sheriff
sherman
sheroes
sherwood
shetani
shetland
shetri
shi
shia
shida
shield
shift
shigongo
shikizi
shilingi
shilole
shimo
shimoni
shina
shindano
shindikizo
shine
shingo
shingoni
shinikizo
shining
shinyanga
ship
ships
shira
shirakawa
shiraz
shirazi
shire
shirika
shirikani
shiriki
shirikishi
shirikisho
shirley
sho
shock
shoe
shoes
shoga
shoka
shomoro
shooting
shop
shore
shoro
shorobo
short
shot
shoti
should
shouldered
show
showing
shows
shrew
shri
shrike
shrine
shtaka
shtml
shu
shufwa
shughuli
shujaa
shuka
shukrani
shule
shuleni
shupavu
shutuma
si
siagi
siam
siasa
siastique
siaya
siberia
siberian
sicilia
sicily
sick
sid
siddharta
side
sidi
sidney
sie
siecles
siedah
siena
sierra
sifa
sifaka
sifuri
sig
sigara
sigma
sigmund
sign
signal
significance
signs
siha
sihanouk
sijui
sikh
siki
sikio
sikonge
siku
sikuhizi
sikukuu
sikusare
sikuzote
sila
silabi
silaha
silas
silence
silent
sili
siliaki
silika
silinda
silk
silky
silva
silver
silvester
sim
sima
simama
simanjiro
simba
simbel
simeon
simeoni
simetali
simfonia
simi
simiti
simiyu
simmons
simo
simon
simone
simoni
simple
simpson
simu
simulizi
sin
sina
sinagogi
sinai
sinapsi
since
sinclair
sindano
sindh
sindromu
sine
sinema
sinepsi
sing
singapore
singapur
singapuri
singer
singh
singida
singing
single
singles
singo
sings
sino
sinodi
sinop
sins
sint
sintaksia
sintetiki
sio
sion
sipho
sipriani
sir
sira
siracusa
siri
siria
siriaki
sirili
sirius
sirleaf
siro
sisi
sisilia
sisimizi
siskin
sista
sister
sisters
sisto
sistoli
sita
sitcom
site
sites
sithole
siti
sitini
sitio
sitta
situation
sivas
sivyo
siwa
siwezi
six
sixth
sixtus
siyo
size
sj
sk
ska
skana
skandinavia
skauti
skeli
sketch
ski
skii
skin
skink
skinner
skizofrenia
sklerosisi
skrini
skrubu
skuli
sky
sl
slade
slam
slate
slaty
slave
slavery
sleep
sleji
slender
sligo
slim
sloth
slothi
slovakia
slovenia
slow
sm
smackdown
small
smart
smile
smith
smithsonian
smoke
smooth
sms
snake
snipe
snoop
snow
snowden
so
soap
sobat
soccer
soccerway
social
socialism
socialist
socie
sociedad
societa
societies
society
sociological
sociology
soda
soden
sodiamu
sodium
sofala
sofia
soft
softcover
software
soka
soko
sokoine
sokoni
sokoto
sokotra
sokrates
soksi
sokwe
sol
sola
solanum
solar
soldier
soldiers
solferino
soli
solidarity
solitaria
solo
solomon
solomoni
solon
solution
solutions
soma
somali
somalia
somaliland
some
somebody
somerset
somethin
something
sometimes
somo
son
sona
sonata
song
songa
songea
songhai
songo
songs
songwe
songwriter
sonia
sons
sony
soon
sooty
sophia
sophie
soprano
sorbonne
soria
soroti
sorry
sos
soseji
sosholojia
sota
sote
soter
soto
souk
soukous
soul
souls
sound
sounds
soundtrack
source
sourcebook
sources
sous
sousse
south
southampton
southeast
southern
southwest
souza
soviet
soweto
soy
soya
sozomen
sp
spa
space
spaghetti
spain
spam
span
spanish
sparebanken
sparrow
sparrowhawk
sparta
spawls
spd
speak
speaker
speaking
speaks
spear
spears
special
species
speckled
spectacled
spectrum
speech
speed
speke
spektra
spencer
spesheli
sphere
sphinx
spice
spider
spidi
spiegel
spielberg
spika
spike
spirit
spiritual
spirituality
spishi
spla
split
spoken
spoleto
spora
sport
sporting
sportive
sports
spot
spoti
spotted
spp
sprache
sprachen
spread
spring
springer
springfield
springs
spurfowl
sq
sqpn
sqq
squad
square
squeaker
squire
squirrel
sr
sri
ss
ssa
sseldorf
ssri
st
sta
stabat
stable
stade
stadi
stadium
staff
stafford
stage
stahili
staili
stalin
stalingrad
stamford
stan
stanbic
stand
standard
standards
standing
stanford
stani
stanley
stanton
star
stardust
starehe
stargate
stark
starling
starr
starring
stars
start
stashahada
state
statement
states
station
statistical
statistics
statistique
statoids
stats
statue
status
stay
ste
steam
stechert
steel
steele
steere
stefan
stefano
stein
steinberg
steinman
stella
stellenbosch
stempu
stendi
step
stephanie
stephen
steps
stereo
sterling
stern
steroidi
stesheni
steve
steven
stevens
stevenson
stevie
stewart
stili
still
stima
stm
sto
stock
stockholm
stoke
stokes
stone
stones
stop
storch
store
stores
storia
stories
stork
storm
story
straight
strait
strand
strange
stranger
strasbourg
strategy
strathmore
strauss
streaked
stream
streaming
streep
street
streets
strength
strep
strike
string
stripe
striped
strix
strong
structure
structures
struggle
sts
stuart
student
students
studi
studia
studien
studies
studio
studios
study
stuttgart
style
styles
su
sua
suaheli
suala
sub
suba
subira
subject
subscription
success
such
sucre
sud
sudan
sudani
sudi
sue
suez
suffered
suffering
suffolk
sufi
sufu
sufuria
sugar
sugu
sui
suicide
suite
sukari
sukejiro
sukuma
sul
sula
sulawesi
suleiman
suleimani
sulemani
sulfuri
sulla
sullivan
sultan
sultani
suluhisho
suluhu
sululu
sumaku
sumakuumeme
sumatra
sumatran
sumba
sumbawanga
sumeri
summa
summary
summer
summit
sumu
sun
suna
sunak
sunbird
sunda
sunday
sunderland
sung
sungura
sungusungu
sunna
sunni
sunset
sunshine
supe
super
superior
superstar
supplement
supply
support
supporting
supreme
supu
sur
sura
surface
surgeonfish
surgery
surinam
suriname
surua
suruali
survey
survival
survivor
sus
susan
susenyos
sussex
sustainable
sutherland
suti
sutton
suv
suzanne
suzuki
sv
svd
sven
svg
sw
swa
swahili
swala
swalah
swali
swallow
swamp
swamphen
swan
swansea
swaziland
swear
sweden
swedish
sweet
swichi
swift
swiftlet
swila
swing
swiss
switzerland
swot
sydney
sykes
sylar
sylvain
sylvester
sylvia
sylvilagus
symbols
symphony
symposium
synaxaire
synaxarion
synaxaristes
synaxarium
syndrome
synod
synodontis
syracuse
syria
syriac
syrian
syriaque
system
systematic
systems
systolic
szczepanek
t
ta
taa
taabu
taaluma
taamuli
taarab
taarifa
taasisi
taba
tabaka
tabakamwamba
tabasamu
tabia
tabianchi
tabibu
table
tables
tabora
tabu
tabula
tacitus
tae
tafadhali
tafakuri
taff
tafiti
tafsiri
tafuta
tag
taganrog
tageo
tagged
tago
taha
tahadhari
tahajia
tahakiki
tahiti
tahya
tai
taifa
taiga
tail
tailed
tailorbird
tails
taimur
taipei
tairi
taita
taiwan
taiyuan
taj
taji
tajikistan
tajiri
tajriba
taka
takadir
takataka
takatifu
take
taken
takes
takeya
taking
tako
takr
takriban
takribani
takwimu
talaka
talanta
talbot
tale
talent
tales
talib
taliban
talk
talking
talks
tallinn
talmud
tam
tamaa
tamaduni
tamale
tamasha
tamathali
tamati
tamaulipas
tamba
tambarare
tambi
tambo
tambuzi
tamil
tamka
tamko
tampa
tamthilia
tamthiliya
tamu
tan
tana
tanaka
tanakh
tanbihi
tandahimba
tandala
tandale
tandaraka
tandawala
tando
tandu
tanesco
tang
tanga
tanganyika
tangawizi
tangazo
tangi
tango
tangu
tangulizi
tani
tank
tano
tanu
tanuri
tanzam
tanzania
tanzaniajamii
tanzanian
tanzaniayenye
tanzu
tao
tape
tapo
tar
tara
taraborrelli
tarafa
tarakilishi
tarakilishikuu
tarakimu
tarantula
taratibu
tarehe
target
tarime
tarn
taro
tarso
tartu
tarumbeta
tarzan
tas
tasa
tashkent
task
tasmania
tasnia
tasnifu
taswira
tat
tata
tatata
tate
tatedo
tathmini
tatizo
tatu
tau
taught
tauni
taurus
tausi
taveta
tawa
tawala
tawasifu
tawi
tawimto
tawny
tax
taxi
tay
taya
tayari
taylor
taz
tazama
tazamia
tazara
tazelita
tb
tbc
tbilisi
tbl
tbs
tc
tchaikovsky
tcp
tcra
te
tea
teacher
teachers
teaches
teaching
teachings
teal
team
teams
tears
teatro
teborg
tech
technical
technique
techniques
technologies
technology
ted
tedashii
teddy
tedesco
tee
teen
teenage
tegemezi
tegu
tehran
teide
teil
tekelezi
tekeze
tekirdag
teknolojia
teksi
tel
tele
telecel
telegrafu
telegraph
teleka
telephone
telescope
televisheni
television
telica
tell
tema
temba
tembe
tembo
temeke
temple
temps
temptations
ten
tena
tenda
tendaguru
tendaji
tendi
tendo
tenerife
tengefu
tenisi
tennessee
tennis
tenno
tenochtitlan
tenrec
tenth
tenzi
teofilo
teolojia
tepu
ter
tere
terego
terence
teresa
tergat
teri
term
terminal
terminator
terms
tern
terra
terre
terrence
territories
territory
terror
terry
tertullian
tes
tesistosteroni
tesla
teso
test
testament
testosteroni
tete
tetekuwanga
tetemeko
teule
tex
texas
text
textbook
texte
textes
texts
tezi
th
tha
thabiti
thabo
thai
thailand
thalasemia
thalassemia
thamani
thames
than
thang
thanh
thank
tharaka
that
thawabu
the
theater
theatre
thebe
thebes
thecitizen
theft
theguardian
their
thelathini
theluji
theluthi
them
themanini
theme
themselves
then
thenashara
theo
theodor
theodora
theodore
theodori
theodoro
theodosi
theodosius
theologian
theological
theology
theolojia
theoretical
theories
theory
theotokos
therapi
there
therefore
theresa
therese
thes
thesalonike
these
thesis
thessaloniki
they
thi
thibitisho
thick
thierry
thies
thika
thing
things
think
thinking
thiopien
third
this
thoma
thomas
thompson
thomson
thon
thor
thorn
thornton
those
thou
though
thought
thoughts
thousand
threads
threat
three
thriller
throat
throated
thrombosi
through
thrush
thug
thuluthi
thumb
thumbnail
thunberg
thunder
thuringia
thus
ti
tia
tiassa
tiba
tibet
tibeti
tica
ticino
tico
tie
tienne
tiennes
tierra
tif
tigania
tiger
tigers
tigray
tigres
tija
tiketi
tikisa
tikiti
tiktok
til
till
tim
tima
timbaland
timberlake
timbuktu
time
timeline
times
timor
timotheo
timothy
timu
timur
tin
tina
tingatinga
tiny
tip
tipasa
tippett
tippu
tips
tira
tiro
tisa
tishio
tishu
tisini
tit
titan
titanic
titi
title
titles
tito
titular
titus
tiva
tiwa
tk
tkuu
tlaxcala
tlc
tls
tnt
to
toa
toad
toba
tobacco
tobago
tochi
tochigi
tockus
tod
today
todd
todi
toed
tofali
tofauti
tofautitofauti
together
togo
tohara
toharani
tohe
toit
toka
tokat
tokea
tokeo
tokyo
told
toledo
toleo
tom
toma
tomas
tomasello
tomaso
tomb
tome
tommy
tomo
tomografia
tomorrow
tomus
tone
tonesha
tong
tonga
tongue
toni
tonight
tonkpi
tony
too
took
tool
tools
toothed
top
tope
topic
topics
topografia
tor
torah
torati
torino
toro
toronto
tororo
torre
torrens
torres
toscana
tosh
tosha
total
toto
tottenham
touba
touch
toulouse
toumodi
tour
toure
touring
tourism
tourist
tours
toussaint
tovuti
toward
towards
tower
towers
town
towns
townsend
township
toyota
tp
tpok
tr
tra
trabzon
tracey
trachylepis
track
trackmasters
tracks
tractatus
tracy
trade
tradition
traditional
traditions
traduction
traduit
trafford
trafiki
tragedy
trail
train
training
trajan
tran
trans
transactions
transcript
transformation
transgender
transista
transit
transition
transl
translated
translation
translations
translator
transport
transvaal
traore
trap
trask
travel
travels
travis
trc
tre
treatise
treatment
treaty
tredimili
tree
treepie
trees
trekta
trela
trends
treni
trent
trentino
trento
treron
tres
trevor
trey
trial
trials
triangle
triangulum
tribe
tribune
tribute
trier
trieste
trilioni
trilogy
trinidad
trinity
trio
trip
triple
tripoli
trisaikliki
tristan
trithemis
triumph
trl
trogon
troia
trois
tropical
tropiki
trotsky
trouble
troy
troyes
tru
true
trujillo
truman
trump
truncatus
trust
truth
try
trøndelag
ts
tsar
tsavo
tsh
tshuapa
tsingy
tsunami
tsushima
tt
ttcl
ttingen
tu
tuamotu
tube
tuberculosis
tubman
tucker
tudes
tudor
tuduru
tuelewe
tuesday
tufaa
tufani
tufe
tufted
tufts
tuhuma
tuki
tukio
tukiwa
tukizingatia
tuko
tukufu
tukumbuke
tukuyu
tula
tuli
tulikuwa
tulivu
tulivyo
tulsa
tumaini
tumba
tumbaku
tumbawe
tumbili
tumbo
tumboni
tumbusi
tume
tumia
tumpende
tumuombe
tuna
tunahitaji
tunajua
tunakuta
tunaona
tunapaswa
tunapata
tunasema
tunasikia
tunataka
tunatakiwa
tunatumia
tunavyoona
tunaweza
tunceli
tunda
tundra
tundu
tunduma
tunduru
tunes
tungamo
tungi
tungo
tunguska
tunguu
tunis
tunisi
tunisia
tunnel
tunu
tunutu
tuombe
tuone
tupa
tupac
tupate
tupu
turaco
turbo
turdoides
turdus
turin
turing
turismo
turkana
turkey
turkish
turkmenistan
turks
turkwel
turn
turner
turnhout
turtle
turubai
tuseme
tusker
tutende
tutu
tutuko
tutume
tuvalu
tuwe
tuweze
tuzingatie
tuzo
tv
twain
twariqah
tweed
twelfth
twelve
twentieth
twenty
twice
twiga
twilight
twin
twins
twitter
two
tx
ty
tycho
tyler
tyndale
tyne
type
types
tyra
tyson
tyto
tyuma
tz
tzs
tzu
u
ua
uadilifu
uadui
uae
uagizaji
uaguzi
uainishaji
uajemi
ualimu
uambukizaji
uamilifu
uaminifu
uamsho
uamuzi
uanachama
uanaharakati
uanamitindo
uandaaji
uandikishaji
uandishi
uangalifu
uangalizi
uangavu
uanzishaji
uanzishwaji
uarabuni
uario
uasherati
uasi
uasilia
uasin
uaskofu
ub
ubadilishaji
ubadilishanaji
ubaguzi
ubakaji
ubaldo
ubalehe
ubalozi
ubangi
ubani
ubao
ubaridi
ubashiri
ubatili
ubatizo
ubavu
ubaya
ubebaji
ubeberu
ubelgiji
ubepari
ubeti
ubia
ubikira
ubinadamu
ubinafsi
ubinafsishaji
ubingwa
ubishi
ubongo
ubongokati
ubongombele
ubongoni
ubongonyuma
ubora
uboreshaji
ubuddha
ubudha
ubunge
ubungo
ubunifu
ubuntu
ubwana
uc
ucb
uchache
uchafu
uchafuzi
uchaguzi
uchaji
uchakataji
uchambuzi
uchangamfu
uchanganuzi
uchapaji
uchapishaji
uchawi
uchekeshaji
ucheki
ucheleweshaji
ucheshi
uchezaji
uchi
uchimbaji
uchina
uchochezi
uchokozi
uchomaji
uchongaji
uchoraji
uchovu
uchu
uchukuzi
uchumba
uchumi
uchungaji
uchungu
uchunguzi
ucla
uct
ud
uda
udadisi
udaktari
udanganyifu
udani
udhaifu
udhalimu
udhamini
udhibiti
udikteta
udogo
udongo
udsm
udugu
udukuzi
udumifu
uduvi
udzungwa
uefa
ueire
uelewa
uelewano
uendelevu
uendelezaji
uendeshaji
ueneaji
uenezaji
uenezi
ufa
ufadhili
ufafanuzi
ufahamu
ufalme
ufanisi
ufanyaji
ufanyike
ufaransa
ufasaha
ufeministi
ufikiaji
ufilipino
ufini
ufinyanzi
ufisadi
ufishaji
ufj
ufu
ufuatano
ufuatao
ufuatiliaji
ufufuko
ufufuo
ufugaji
ufukara
ufuko
ufukoni
ufukwe
ufukweni
ufumaji
ufumbuzi
ufunda
ufundi
ufundishaji
ufungaji
ufunguo
ufunguzi
ufunuo
ufuo
ufupi
ufupisho
ufuta
ufyatuaji
ufyonyaji
ug
uga
ugaidi
ugali
uganda
ugandan
uganga
ugani
ugasumaku
ugatuzi
ugavi
ugawaji
ugenini
ughaibuni
ugiligili
ugiriki
ugly
ugo
ugolino
ugomvi
ugonjwa
ugumu
ugunduzi
uhaba
uhabeshi
uhai
uhaini
uhakika
uhakiki
uhalali
uhalifu
uhalisi
uhalisia
uhamaji
uhamasishaji
uhamiaji
uhamishaji
uhamisho
uhamishoni
uhandisi
uharamia
uharibifu
uhariri
uhasama
uhasibu
uhatarisho
uhehe
uhifadhi
uhindi
uhindu
uhisani
uhispania
uhitaji
uhodari
uholanzi
uhuishaji
uhunzi
uhuru
uhusiano
uhusika
ui
uigaji
uigiriki
uigizaji
uimamu
uimara
uimarishaji
uimbaji
uingereza
uingizaji
uinjilishaji
uinjilisti
uishe
uislam
uislamu
uitwao
ujaini
ujamaa
ujana
ujanani
ujangili
ujanibishaji
ujanja
ujao
ujapani
ujasiri
ujasiriamali
ujasusi
ujauzito
ujazo
ujenzi
ujerumani
uji
ujiji
ujinga
ujio
ujirani
ujue
ujulikanao
ujumbe
ujumla
ujumuishaji
ujuzi
uk
ukaa
ukaanza
ukabila
ukabu
ukaendelea
ukafanywa
ukaguzi
ukahaba
ukaidi
ukaja
ukali
ukambi
ukame
ukamilifu
ukanda
ukandamizaji
ukarabati
ukarasa
ukaribu
ukarimu
ukataji
ukatili
ukatoliki
ukavu
ukawa
uke
ukeketaji
ukeni
ukerewe
ukhalifa
ukia
ukiacha
ukielekea
ukiendelea
ukilinganisha
ukilinganishwa
ukimbizi
ukimwi
ukingo
ukingoni
ukinzani
ukiritimba
ukisema
ukitumia
ukitumika
ukiukaji
ukiukwaji
ukiwa
ukizingatia
uko
ukokotozi
ukolezi
ukoloni
ukoma
ukomavu
ukombozi
ukomeshaji
ukomunisti
ukoo
ukosefu
ukosi
ukosoaji
ukraina
ukraine
ukraini
ukrainian
ukristo
ukuaji
ukubwa
ukuhani
ukukwi
ukulima
ukulu
ukumbi
ukumbini
ukumbusho
ukungu
ukurasa
ukusanyaji
ukuta
ukutani
ukuu
ukuzaji
ukweli
ul
ulafi
ulaghai
ulaji
ulanga
ulanzi
ulaya
ule
ulegevu
ulemavu
uleule
ulevi
ulezi
uliamua
uliandikwa
ulianza
ulianzia
ulianzisha
ulianzishwa
ulibadilika
ulibadilishwa
ulibaki
ulichaguliwa
ulichangia
ulichapishwa
ulichezwa
ulichukua
ulichukuliwa
ulidumu
uliendelea
ulienea
ulifanikiwa
ulifanya
ulifanyika
ulifanywa
ulifika
ulifikia
ulifuata
ulifunguliwa
ulifutwa
uligundua
uliharibiwa
ulihitimisha
ulihudhuriwa
ulihusisha
ulihusu
uliimbwa
uliingia
uliitwa
ulijengwa
ulijitokeza
ulijulikana
ulijumuisha
ulikadiriwa
ulikamilika
ulikua
ulikubali
ulikuja
ulikuwa
ulikuwepo
ulikwisha
ulilenga
ulileta
ulimfanya
ulimi
ulimpa
ulimwengu
ulimwenguni
ulinganifu
ulinganisho
ulingo
ulinzi
ulio
ulioandaliwa
ulioandikwa
ulioanza
ulioanzishwa
uliobaki
ulioboreshwa
uliochapishwa
ulioendelea
ulioenea
uliofanya
uliofanyika
uliofanywa
uliofuata
uliofuatia
ulioimbwa
ulioitwa
uliojaa
uliojengwa
uliojulikana
uliokithiri
ulioko
uliokuwa
uliokuwepo
uliomfanya
uliomo
uliona
ulionekana
uliongeza
uliongezeka
uliongozwa
ulionyesha
uliopangwa
uliopatikana
uliopendekezwa
uliopewa
uliopita
uliopo
uliorekodiwa
uliosababisha
uliosababishwa
uliotangulia
uliotayarishwa
uliotengenezwa
uliotoka
uliotokana
uliotokea
uliotolewa
uliotumika
uliotungwa
ulioundwa
uliowahi
uliowekwa
uliozidi
ulipangwa
ulipata
ulipatikana
ulipelekea
ulipewa
ulipigwa
ulipitishwa
ulipo
ulipoanza
ulipofika
ulipokea
ulipokuwa
uliporomoka
ulipuaji
ulipungua
ulirekodiwa
ulisababisha
ulisababishwa
ulisaidia
ulishika
ulishinda
ulishindwa
ulitambuliwa
ulitangazwa
ulitawaliwa
ulitayarishwa
ulitegemea
ulitengenezwa
ulitoa
ulitoka
ulitokana
ulitokea
ulitolewa
ulitumia
ulitumika
ulitumiwa
ulitungwa
uliundwa
ulivyo
uliwahi
uliweka
uliwekwa
uliweza
uliwezesha
ulizidi
ulrich
ulster
ultimate
ultra
uluguru
ulysses
um
uma
umaarufu
umahiri
umakanika
umakini
umakinifu
umaksi
umar
umashuhuri
umasikini
umaskini
umati
umauti
umayya
umba
umbali
umbile
umbo
umbria
umeanza
umebaki
umechezwa
umechukua
umeendelea
umeenea
umefanya
umefanywa
umefikia
umegawanyika
umegawanywa
umeimbwa
umejaa
umejengwa
umejulikana
umekadiriwa
umekoozeshwa
umekua
umekuwa
umeme
umememaji
umeng
umeonekana
umeongezeka
umeonyesha
umepakana
umepata
umepewa
umepungua
umesababisha
umetaboli
umetayarishwa
umetoka
umetokana
umetokea
umetumika
umewekwa
umezungukwa
umiliki
umimi
umio
umisionari
umm
umma
umo
umoja
umonaki
umotomoto
umri
umuhimu
umungu
umuundo
umwagaji
umwagiliaji
umwilisho
un
una
unaanza
unaanzia
unabii
unachangia
unachezwa
unachukua
unachukuliwa
unadai
unaelekea
unaendelea
unaenea
unafaa
unafanana
unafanya
unafanyika
unafanywa
unafiki
unafikia
unafuata
unahitaji
unahitajika
unahusiana
unahusika
unahusisha
unahusishwa
unahusu
unaids
unaingia
unaishia
unaitwa
unajimu
unajitokeza
unajua
unajulikana
unajumuisha
unakadiriwa
unakua
unakuwa
unalenga
unaleta
unalingana
unamaanisha
unaoathiri
unaoelekea
unaoendelea
unaofaa
unaofanana
unaofanywa
unaofuata
unaohitajika
unaohudumia
unaohusiana
unaohusisha
unaohusu
unaoishia
unaoitwa
unaojulikana
unaojumuisha
unaokua
unaolenga
unaonekana
unaongezeka
unaonyesha
unaoonekana
unaoonyesha
unaopatikana
unaopita
unaosababisha
unaosababishwa
unaotakiwa
unaotegemea
unaotiririka
unaotoa
unaotoka
unaotokana
unaotokea
unaotolewa
unaotumia
unaotumika
unaotumiwa
unaounganisha
unaoweza
unaozaa
unaozidi
unaozingatia
unaozunguka
unapaswa
unapata
unapatikana
unapita
unapitia
unapokea
unapungua
unaruhusu
unasababisha
unasababishwa
unasaidia
unasema
unasimamiwa
unastawi
unatajwa
unataka
unatakiwa
unategemea
unatiririka
unatoa
unatofautiana
unatoka
unatokana
unatokea
unatolewa
unatufanya
unatumia
unatumika
unatumiwa
unaunda
unaundwa
unaungana
unaunganisha
unavyoonekana
unaweka
unaweza
unazidi
unbreakable
und
undani
under
underground
understanding
undp
undugu
une
unene
unep
unesco
ung
unga
ungamo
unganifu
unganishi
ungekuwa
unguja
unhcr
uni
unicef
unicolor
unicornfish
union
unique
unit
unita
united
units
unity
univ
universal
universe
universidad
universita
universitatis
universite
universities
university
unix
unknown
uno
unovisi
unter
until
unto
ununuzi
unururifu
unusu
unwin
unyago
unyama
unyanyapaa
unyanyasaji
unyenyekevu
unyeti
unyevu
unyevunyevu
unyofu
unyogovu
unyonge
unyonyaji
unyunyizaji
unywaji
uo
uokoaji
uondoaji
uonevu
uongo
uongofu
uongozaji
uongozi
uoto
uovu
up
upadirisho
upadri
upadrisho
upagani
upambanuzi
upana
upandaji
upande
upanga
upangaji
upanuzi
upanuziviungo
upapa
upare
upasuaji
upataji
upatanifu
upatanishi
upatanisho
upate
upatikanaji
update
updated
upekee
upele
upelelezi
upendeleo
upendo
upenyezi
upenyo
upeo
upepo
upesi
upi
upigaji
upili
upimaji
upinde
upinzani
upishi
upitao
upitishaji
uploads
upo
upofu
upole
upon
uponyaji
upotevu
upotezaji
upotoshaji
upotovu
upper
uppsala
upright
uprotestanti
uptown
upumbavu
upumuaji
upungufu
upunguzaji
upweke
upwekeni
upya
ur
urafiki
urahisi
uraia
uraibu
urais
uraisi
ural
urambazaji
urambo
urani
uranus
urari
urasimu
uratibu
urban
urbana
urbani
urbano
urdu
urea
urefu
urekebishaji
urekebisho
urembo
ureno
urgell
urithi
url
uroho
uropa
ursa
ursae
ursula
ursus
uruguay
urujuanimno
uruk
urukaji
urundi
urusi
us
usa
usafi
usafiri
usafirishaji
usafishaji
usagara
usage
usaha
usahihi
usahili
usaid
usaidizi
usajili
usalama
usaliti
usambara
usambazaji
usangu
usanifu
usanii
usanisi
usanisinuru
usasa
usawa
use
used
useful
useja
usemi
user
uses
usgs
ushahidi
ushairi
ushambuliaji
ushauri
ushawishi
ushemasi
usher
ushindani
ushindi
ushirika
ushiriki
ushirikiano
ushirikina
ushoga
ushonaji
ushuhuda
ushujaa
ushungi
ushuru
usi
usikivu
usiku
usimamizi
usimbishaji
usimulizi
usindikaji
using
usingizi
usio
usiofaa
usiojulikana
usiokuwa
usiri
usiwe
uskoti
uslw
uslwa
uslwo
uso
usomaji
usomi
usoni
usonji
uss
ussr
ustaarabu
ustadi
ustahimilivu
ustawi
usubi
usufi
usugu
usukani
usul
usuli
usultani
usuluhishi
usuluhisho
usumaku
usumbufu
usw
uswahilini
uswazi
uswidi
uswisi
uswizi
ut
uta
utaalam
utaalamu
utabibu
utabiri
utafiti
utaftaji
utafutaji
utah
utaifa
utajiri
utakaso
utakatifu
utakuwa
utalii
utamaduni
utamadunisho
utambulisho
utambuzi
utamu
utandawazi
utando
utangazaji
utangulizi
utani
utanzu
utao
utaona
utapata
utapiamlo
utarakilishi
utaratibu
utaridi
utasa
utashi
utata
utathmini
utatu
utatuzi
utawa
utawala
utawani
utayari
utayarishaji
utazamaji
utc
ute
utegemeaji
utegemezi
utegili
utekaji
utekelezaji
uteketezaji
utemi
utenda
utendaji
utendajikazi
utendakazi
utendi
utengano
utengenezaji
utengule
utenzi
utepe
uterasi
utesaji
utetezi
uteuzi
uthabiti
uthai
uthibitishaji
uthibitisho
uthman
uti
utii
utiifu
utimilifu
utitiri
utm
utoaji
utofauti
utomvu
utopia
utosi
utoto
utotoni
utovu
utrecht
uttar
utu
utukufu
utulivu
utumbo
utume
utumiaji
utumishi
utumizi
utumwa
utumwani
utungaji
utungisho
utunzaji
utunzi
utupaji
utupu
uturuki
uuaji
uuguzi
uumbaji
uume
uundaji
uunganishaji
uungu
uuzaji
uvamizi
uvimbe
uvinza
uvivu
uvujaji
uvukizaji
uvukizi
uvumba
uvumbuzi
uvumi
uvumilivu
uvunaji
uvunjaji
uvutaji
uvutano
uvuvi
uvuvio
uwajibikaji
uwakala
uwakilishi
uwanda
uwanja
uwanjani
uwasilishaji
uwazi
uwaziri
uwe
uwekaji
uwekezaji
uwemo
uwepo
uweza
uweze
uwezekano
uwezeshaji
uwezo
uwiano
uwindaji
uwingi
uwongo
uyahudi
uyoga
uyole
uyui
uzalendo
uzalishaji
uzamili
uzamivu
uzani
uzao
uzazi
uzbekistan
uzee
uzeeni
uzembe
uzi
uzima
uzinduzi
uzinifu
uzio
uzito
uzoefu
uzuiaji
uzuri
uzushi
v
va
vaccine
vachellia
val
vale
valencia
valentin
valentine
valentino
valerian
valeriani
valerie
vali
valladolid
valle
valley
value
values
valvu
vampire
van
vancouver
vanellus
vanessa
vanga
vanguard
vanuatu
var
variable
variety
various
varisela
vasco
vatican
vaticana
vaticani
vaticano
vatikani
vatikano
vaughn
vaz
vazi
ve
vega
vegas
veit
vekta
vel
vela
velten
velvet
vema
vena
venerable
veneto
venezia
venezuela
venice
venous
vented
ventrikali
venus
vera
veracruz
vercelli
verde
verdi
verlag
vermont
verna
vernon
verona
veronica
versailles
verse
version
versions
verso
versus
vertebrata
very
vescovo
vespucci
veto
vfb
vfl
vh
vi
via
viambishi
viashiria
viatu
viazi
vibali
vibanda
vibao
vibarua
vibaya
vibe
vibete
viboko
vibonzo
vibwagizo
vic
vicariate
vice
vicente
vicenza
vichache
vichaka
vichekesho
vichocheo
vichochezi
vichwa
victims
victor
victoria
victorianus
victorinus
victory
vida
video
videos
vidhibiti
vidogo
vidogovidogo
vidokezo
vidole
vidonda
vidonge
vidua
vidubini
vidudu
vidukari
vidusia
vidusiwa
vie
vieira
vielelezo
vielezi
vienna
vienne
vies
viet
vietnam
vietnamese
view
viewer
viewers
views
vifaa
vifaranga
vifaru
vifo
vifuatavyo
vifungo
vifungu
vifupi
vifupisho
vifurushi
vifusi
vigae
vigawo
vigezo
vigo
vigumu
vihiga
vii
viii
viini
viitwavyo
vijana
vijasumu
vijavyo
vijidudu
vijiji
vijijini
vijisehemu
vijiti
vijito
vijiumbe
vijiwe
vijiwilaya
vikali
vikao
vikapu
vikawa
viking
vikiwa
vikiwemo
viko
vikolezo
vikombe
vikosi
vikta
viktor
viktoria
viktorini
vikubwa
vikundi
vikuu
vikwazo
vila
vilabu
vile
vilele
vilema
vileo
vilevile
viliandikwa
vilianza
vilianzishwa
viliendelea
vilikuwa
vilileta
vilima
vilindi
vilipatikana
vilisababisha
vilitokea
viliundwa
vilivyo
vilivyoandikwa
vilivyofuata
vilivyoitwa
vilivyokuwa
vilivyomo
vilivyopatikana
vilivyopo
vilivyotengenezwa
vilivyotumika
vilivyowekwa
villa
village
villages
villarreal
ville
villiers
vilnius
vimekuwa
vimelea
vimeng
vimondo
vina
vinaendelea
vinahitaji
vinaitwa
vinamasi
vinanda
vinaonekana
vinaonyesha
vinapatikana
vinara
vinasaba
vinatokana
vinatumiwa
vinaunda
vinavyohitajika
vinavyohusiana
vinavyoitwa
vinavyojulikana
vinavyoonekana
vinavyopatikana
vinavyosababisha
vinavyotokana
vinavyotumika
vinavyotumiwa
vinavyounda
vinavyoweza
vinaweza
vince
vincent
vincentius
vincenzo
vinci
vine
vinene
vingi
vingine
vinginevyo
vinne
vinsenti
vintage
vinyago
vinyl
vinyonga
vinywaji
viola
violence
violet
violeta
violin
violwa
viongozi
vionjo
vioo
viota
viowevu
vip
vipaji
vipande
vipandevipande
vipanga
vipanya
vipapasio
vipashio
vipawa
vipele
vipengee
vipengele
vipepeo
viper
vipi
vipimo
vipindi
vipingamizi
vipo
vipodozi
vipofu
vipokezi
vipya
viranja
virefu
virejeleo
virgen
virgin
virginia
virginis
virgo
viridis
viris
virtual
virtues
virunga
virus
virusi
virutubishi
virutubisho
vis
visa
visababishi
visasili
vishawishi
vishazi
vishimo
visima
vision
visionary
visions
visit
visiting
visitor
visivyo
visiwa
visiwani
vista
visu
visual
visukuku
vita
vitabu
vitae
vitafunio
vitakatifu
vital
vitalis
vitambaa
vitambulisho
vitamini
vitamu
vitanda
vitani
vitano
vitatu
vitendawili
vitendo
vitengo
vitenzi
viterbo
viti
vitisho
vitivo
vito
vitongoji
vitovu
vittorio
vitu
vitukutuku
vitunguu
vituo
vitwitwi
viua
viuadudu
viuawadudu
viumbe
viumbehai
viunga
viunganishi
viungo
viunzi
viva
vivax
vivian
vivuli
vivumishi
vivutio
vivyo
viwakilishi
viwambo
viwanda
viwandani
viwango
viwanja
viwavi
viwavijeshi
viwe
viwili
viza
vizazi
vizio
vizito
viziwi
vizuia
vizuio
vizuizi
vizuri
vladimir
vlei
vlog
vo
vocabulary
vocal
vocals
vodacom
vodafone
vogue
voi
voice
voices
voip
vokali
vol
volca
volcano
volcanolive
volga
voliboli
volikano
volkano
volkeno
volkswagen
voll
vols
volta
voltaire
volteji
volti
volume
volumes
volunteer
vom
von
vorbeck
vostok
vote
voters
voyage
voyager
vp
vrin
vs
vu
vue
vuga
vuguvugu
vulgata
vulpes
vulture
vumbi
vurugu
vv
vvu
vwawa
vy
vya
vyake
vyakula
vyama
vyandarua
vyanzo
vyao
vyasa
vyema
vyembamba
vyenye
vyenyewe
vyeo
vyeti
vyo
vyombo
vyoo
vyote
vyovyote
vyuma
vyumba
vyungu
vyuo
vyura
vywa
vzv
w
wa
waabbasi
waache
waadilifu
waadventista
waafrika
waajemi
waajiri
waajiriwa
waalbania
waalimu
waamerika
waamini
waaminifu
waamuzi
waandaaji
waandamanaji
waandamizi
waandishi
waangalizi
waanglikana
waanzilishi
waarabu
waario
waarmenia
waashanti
waashuru
waasi
waasia
waasisi
waathirika
waathiriwa
waaugustino
waazteki
wabantu
wabaya
wabelgiji
wabena
wabenedikto
waberber
waberberi
waboksa
wabondei
wabuddha
wabulgaria
wabunge
wabunifu
wabusinenge
wace
wachache
wachaga
wachagga
wachambuzi
wachanga
wachangiaji
wachapishaji
wachawi
wacheza
wachezaji
wachimbaji
wachina
wachongaji
wachoraji
wachumba
wachungaji
wachunguzi
wadau
wade
wadhamini
wadhifa
wadi
wadinka
wadogo
wadominiko
wadonato
wadudu
waebrania
waende
waendelee
waendesha
waendeshaji
waeritrea
waethiopia
waetruski
wafadhili
wafalme
wafanya
wafanyabiashara
wafanyakazi
wafanye
wafanyikazi
wafaranki
wafaransa
wafiadini
wafinisia
wafoinike
wafransiskani
wafransisko
wafu
wafuasi
wafuatao
wafuate
wafugaji
wafugwao
wafungwa
wafupi
waga
waganda
waganga
wageni
wagermanik
waghana
wagiriki
wagner
wagogo
wagombea
wagon
wagonjwa
wagtail
wagugunaji
wagweno
waha
wahabeshi
wahalifu
wahamaji
wahamiaji
wahandisi
wahanga
waharibifu
wahariri
wahasiriwa
wahausa
wahaya
wahehe
wahenga
wahindi
wahindu
wahispania
wahitimu
wahl
wahlberg
waholanzi
wahubiri
wahudumu
wahungaria
wahuni
wahunni
wahusika
wahutu
waigbo
waigizaji
wailers
waimbaji
wainaina
waindio
waingereza
wainjili
wainjilisti
wairani
wairaqw
wairienyi
waishi
waishio
waislam
waislamu
waisraeli
wait
waitalia
waiting
waitwao
wajaluo
wajane
wajapani
wajasiriamali
wajawazito
waje
wajenzi
wajerumani
wajesuiti
wajibu
wajir
wajita
wajitolea
wajue
wajukuu
wajumbe
waka
wakaamua
wakaanza
wakaanzisha
wakaao
wakaapweke
wakaazi
wakachukua
wakaenda
wakaendelea
wakafanya
wakafaulu
wakaguru
wakaguzi
wakahamia
wakahubiri
wakaingia
wakaishi
wakaja
wakajaribu
wakajenga
wakajiunga
wakala
wakalenjin
wakali
wakalvini
wakamaldoli
wakamba
wakamilifu
wakanoni
wakaona
wakapata
wakapewa
wakapuchini
wakarimu
wakarmeli
wakartusi
wakarudi
wakashindwa
wakasulubiwa
wakati
wakatoa
wakatoka
wakatoliki
wakauawa
wakaunda
wakawa
wakazi
wakazidi
wake
wakelti
wakenya
wakfu
wakiamini
wakicheza
wakidai
wakielekea
wakienda
wakifanya
wakifuata
wakifuatwa
wakifurahia
wakiimba
wakiishi
wakijaribu
wakijua
wakikaa
wakikimbia
wakikuyu
wakila
wakili
wakilinganishwa
wakimbiaji
wakimbizi
wakina
wakinamama
wakinga
wakiona
wakiongozwa
wakipata
wakipinga
wakiruka
wakisema
wakishirikiana
wakisii
wakiso
wakitafuta
wakitaka
wakitoa
wakitokea
wakitumia
wakivaa
wakiwa
wakiwemo
waklara
wakleri
wako
wakoloni
wakolumbani
wakoma
wakomunisti
wakongwe
wakonventuali
wakopti
wakorintho
wakosefu
wakosoaji
wakristo
wakubali
wakubwa
wakufunzi
wakulima
wakunta
wakurdi
wakuria
wakurugenzi
wakurya
wakusanyaji
wakuu
wal
wala
walakini
walao
walau
walawi
wale
walei
walemavu
walengwa
wales
walevi
walezi
wali
waliacha
waliachana
waliahidi
waliambukizwa
waliamini
waliamua
waliandaa
waliandika
walianza
walianzisha
waliathiriwa
walibadilisha
walibaki
walibuni
walichagua
walichaguliwa
walichangia
walichapisha
walicheza
walichukua
walichukuliwa
walid
walidai
walidhani
walidhulumiwa
walielekea
walielewa
walieleza
walienda
waliendelea
waliendesha
walienea
walieneza
walifanikiwa
walifanya
walifariki
walifaulu
walifia
walifika
walifikia
walifuata
walifukuzwa
walifundishwa
walifunga
walifungwa
waligawanyika
waligundua
walihama
walihamia
walihamishwa
walihesabiwa
waliheshimiwa
walihisi
walihitaji
walihubiri
walihudhuria
walihukumiwa
walihusika
walii
waliimba
waliingia
waliishi
waliita
waliitwa
walijaribu
walijenga
walijifunza
walijiita
walijisikia
walijitahidi
walijitokeza
walijiunga
walijua
walijulikana
walikaa
walikadiriwa
walikamatwa
walikataa
walikatwa
walikimbia
walikimbilia
walikosa
walikua
walikubali
walikubaliana
walikufa
walikuja
walikusanya
walikusanyika
walikuta
walikutana
walikuwa
walikuwepo
walikwenda
walilazimika
walilazimishwa
walilenga
walileta
walimaliza
walimfuata
walimpa
walimu
walimwengu
walimwona
walinzi
walio
walioajiriwa
walioambukizwa
walioamini
walioana
walioanza
walioanzisha
walioathirika
walioathiriwa
waliobaki
waliochaguliwa
waliodai
walioelekea
walioendelea
waliofanikiwa
waliofanya
waliofariki
waliofaulu
waliofia
waliofika
waliofuata
waliofukuzwa
waliogopa
waliohai
waliohamia
waliohitimu
waliohudhuria
waliohusika
walioingia
walioishi
walioitwa
waliojaribu
waliojenga
waliojeruhiwa
waliojitolea
waliojiunga
waliojulikana
waliokaa
waliokamatwa
waliokamilika
waliokataa
waliokimbia
walioko
waliokomaa
waliokubali
waliokufa
waliokuja
waliokuwa
waliokuwepo
waliolazwa
walioletwa
waliomaliza
waliomba
waliomfuata
waliomtangulia
waliona
waliondoka
waliondolewa
walionekana
waliongeza
waliongoza
walionusurika
walionyesha
walioona
walioongozwa
waliopaswa
waliopata
waliopatikana
waliopelekwa
waliopewa
waliopinga
waliopo
waliopokea
waliorudi
waliosema
walioshika
walioshinda
walioshiriki
waliosoma
waliotafuta
waliotajwa
waliotaka
waliotangazwa
waliotangulia
waliotawala
waliotekwa
walioteuliwa
waliotoka
waliotoroka
waliotumia
waliotumwa
waliouawa
waliowahi
waliowekwa
walioweza
waliozaliwa
waliozoea
walipanga
walipaswa
walipata
walipatana
walipatikana
walipeleka
walipelekwa
walipenda
walipendekeza
walipendelea
walipewa
walipiga
walipigana
walipigwa
walipinga
walipita
walipo
walipoanza
walipofika
walipoingia
walipokea
walipokutana
walipokuwa
walipopata
waliporudi
walipoteza
walirekodi
waliripoti
walirudi
waliruhusiwa
walisafiri
walisaidia
walisema
walishambulia
walishika
walishinda
walishindana
walishindwa
walishiriki
walishirikiana
walisikia
walisimama
walisisitiza
walitafsiri
walitafuta
walitaka
walitakiwa
walitambua
walitangaza
walitangazwa
walitawala
walitegemea
waliteka
walitekwa
walitembelea
walitengana
walitengeneza
waliteswa
walitia
walitoa
walitoka
walitokea
walitoroka
walitukanwa
walituma
walitumbuiza
walitumia
walitumiwa
walitumwa
walitunga
waliuawa
waliunda
waliungana
walivamia
walivuka
walivutiwa
walivyo
walivyofanya
walivyokuwa
waliwahi
waliwatangaza
waliweka
waliwekwa
waliweza
waliyokuwa
waliyotoa
walizaliwa
walizidi
walizoea
walk
walker
walking
wall
wallace
wallah
waller
wallis
wallonia
walls
walombardi
walowezi
walsh
walt
walter
walton
waluguru
waluhya
waluo
walutheri
wamaasai
wamakabayo
wamakonde
wamalay
wamalwa
wamanda
wamanyema
wamarekani
wamaroni
wamasai
wamatengo
wamaya
wameacha
wameambukizwa
wameanza
wameathiriwa
wamebaki
wamedai
wameendelea
wamefanikiwa
wamefanya
wamegawanyika
wamegundua
wamehamia
wameishi
wamekimbia
wamekufa
wamekuwa
wameonyesha
wamepata
wamependekeza
wamepewa
wamersedari
wameru
wamethodisti
wametoa
wametoka
wametokana
wametumia
wamevaa
wamewahi
wameweza
wamezaliwa
wamezoea
wami
wamiliki
wamisionari
wamisri
wamo
wamonaki
wamongolia
wamoravia
wamoravian
wamormoni
wamuawiya
wamuwahidun
wan
wana
wanaakiolojia
wanaamini
wanaaminika
wanaamua
wanaanga
wanaanthropolojia
wanaanza
wanaastronomia
wanabiolojia
wanachama
wanacheza
wanachezea
wanachukuliwa
wanadai
wanadamu
wanadhani
wanadiplomasia
wanae
wanaelekea
wanaendelea
wanafaa
wanafalsafa
wanafamilia
wanafanana
wanafanya
wanafiki
wanafikiri
wanafizikia
wanafuata
wanafunzi
wanaga
wanahabari
wanaharakati
wanaheshimiwa
wanahewa
wanahisa
wanahisabati
wanahisi
wanahistoria
wanahitaji
wanahusika
wanaimba
wanaingia
wanaishi
wanaisraeli
wanaitwa
wanajamii
wanajaribu
wanajeshi
wanajihusisha
wanajimbo
wanajishughulisha
wanajua
wanajulikana
wanakaa
wanakabiliwa
wanakadiriwa
wanakemia
wanakijiji
wanakosa
wanakubali
wanakubaliana
wanakufa
wanakuja
wanakula
wanakundi
wanakutana
wanakuwa
wanalima
wanamaji
wanamapinduzi
wanamgambo
wanamheshimu
wanamichezo
wanamiliki
wanamitindo
wanamuziki
wananchi
wanandi
wanandoa
wanane
wanao
wanaoanza
wanaochaguliwa
wanaoendelea
wanaofanana
wanaofanya
wanaofuata
wanaoheshimiwa
wanaohitaji
wanaohusika
wanaoishi
wanaoitwa
wanaojulikana
wanaokaa
wanaokadiriwa
wanaokalia
wanaokula
wanaona
wanaonekana
wanaongea
wanaonyesha
wanaopata
wanaopatikana
wanaopenda
wanaosema
wanaoshiriki
wanaotafuta
wanaotaka
wanaotegemea
wanaotembelea
wanaotoa
wanaotoka
wanaotumia
wanaougua
wanaovuta
wanaowakilisha
wanaoweza
wanaozaliwa
wanaozungumza
wanapaswa
wanapata
wanapatikana
wanapenda
wanapendelea
wanapewa
wanapiga
wanapigana
wanapinga
wanapokuwa
wanariadha
wanarudi
wanaruhusiwa
wanasaikolojia
wanasayansi
wanasema
wanasemekana
wanasheria
wanashika
wanashirika
wanashiriki
wanasiasa
wanastahili
wanatafuta
wanatajwa
wanataka
wanatakiwa
wanatarajiwa
wanategemea
wanateolojia
wanatoa
wanatoka
wanatokea
wanatumia
wanauchumi
wanaume
wanaunda
wanavaa
wanawake
wanawe
wanaweza
wanazi
wanazidi
wanazungumza
wanazuoni
wanda
wandebele
wanderers
wanene
wang
wanga
wangali
wangari
wangekuwa
wangeweza
wanging
wangoni
wangu
wangwa
wani
waniloti
wanjiru
wanna
wanne
wanormani
wanovisi
want
wanted
wanunuzi
wanyakyusa
wanyama
wanyamapori
wanyamwezi
wanyiha
wanyika
wanyiramba
wanyofu
wanyonge
wanywaji
wao
waogeleaji
waongozaji
waoromo
waorthodoksi
waoservanti
waosmani
waovu
wapagani
wapagazi
wapalestina
wapanda
wapangaji
wapare
wapatao
wapate
wapelelezi
wapenda
wapendwa
wapentekoste
wapenzi
wapevu
wapewe
wapi
wapiga
wapigaji
wapiganaji
wapigania
wapinzani
wapo
wapokeaji
wapole
waprotestanti
wapya
war
waraka
warangi
warbler
ward
ware
wareformati
warefu
waregulari
warembo
wareno
warfare
wari
waridi
wariformati
warithi
warming
warner
warohingya
waroma
warren
warrior
warriors
wars
warsaw
warsha
warshawa
warszawa
warthog
warudi
warumi
warusi
warwick
was
wasabato
wasafi
wasafiri
wasafwa
wasagaji
wasaidizi
wasaksoni
wasaliti
wasambaa
wasambazaji
wasamburu
wasangu
wasani
wasanifu
wasanii
wasasani
wasekulari
wasemaji
waserbia
washabiki
washairi
washambuliaji
washauri
washia
washindani
washindi
washington
washingtonpost
washirika
washiriki
washona
wasia
wasichana
wasifu
wasije
wasikilizaji
wasikutane
wasimamizi
wasio
wasiojiweza
wasiojua
wasiojulikana
wasiokuwa
wasiovuta
wasioweza
wasiozidi
wasitoo
wasiwasi
wasiwe
wasiweze
waslavi
waslavoni
wasomaji
wasomali
wasomi
wasotho
wasovyeti
wastani
wasuba
wasukuma
wasumbufu
wasuni
wasunni
waswahili
wasweta
wat
wataalam
wataalamu
watafiti
watafsiri
wataita
watakatifu
watakuwa
watalii
watambaachi
watanabe
watangazaji
watangulizi
watani
watano
watanzania
watapata
watatu
watawa
watawala
wataweza
watayarishaji
watazamaji
watch
wateja
watemi
watendaji
watengenezaji
water
waterford
waterloo
waters
watersyari
watesi
watetezi
wateule
watford
wathesalonike
wati
watoa
watoaji
watoto
watson
watt
watts
watu
watuareg
watubu
watuhumiwa
watumiaji
watumishi
watumizi
watumwa
watungaji
watunzi
waturkana
waturuki
watutsi
wau
wauaji
wauawe
wauguzi
waume
waumini
waundaji
wauti
wauzaji
wavamizi
wavandali
wave
waves
waviking
wavu
wavulana
wavumbuzi
wavutaji
wavuti
wavuvi
wawakilishi
wawanji
wawe
wawekezaji
waweza
waweze
wawili
wawindaji
wax
waxbill
way
waya
wayahudi
wayao
wayback
wayi
wayne
wayoruba
ways
wazalendo
wazalishaji
wazaliwa
wazao
wazaramo
wazawa
wazazi
wazee
wazi
wazigua
wazima
wazimu
waziri
waziwazi
wazo
wazulu
wazungu
wazungumzaji
wazuri
wazushi
wcb
wcw
wd
we
weah
wealth
weapons
wears
weasel
weather
weaver
web
webb
weber
weblinks
webpage
website
websites
webster
webuye
wedding
wednesday
week
weekend
weekly
weeks
weezya
weimar
weka
wekundu
welcome
weledi
welfare
welisi
well
welle
wellington
wells
welsh
welt
wema
wemba
wembamba
wembley
wendo
wendy
wenger
wengi
wengine
wengineo
wengu
went
wenu
wenye
wenyeji
wenyewe
wenza
wenzake
wenzao
wenzetu
wenzi
wenzie
wenzo
wepesi
werder
were
werner
wesley
wesleyan
west
western
westerns
westfalia
westlands
westlife
westminster
westphalia
westport
westview
wete
weto
wetu
weupe
weusi
wewe
wey
weza
wezi
whale
wharton
what
whatever
whatsapp
wheatear
wheel
wheeler
when
whenever
where
whether
which
while
whistler
whistling
white
whitehead
whitley
whitney
who
whole
whom
whose
why
wi
wiani
widal
wide
width
wie
wien
wiener
wiesbaden
wife
wigan
wigo
wikendi
wiki
wikiforhumanrights
wikimania
wikimapia
wikimedia
wikipedia
wikisource
wikivibrance
wilaya
wilayani
wilbur
wild
wilderness
wildlife
wiley
wilfred
wilhelm
wiliamu
wilkins
wilkinson
will
willard
willem
willi
william
williams
williamson
willie
willis
willow
willy
wilson
wima
wimbi
wimbo
wimpy
win
winchester
wind
windhoek
windo
windows
wine
winfrey
wing
winga
winged
wingi
wings
wingu
winky
winner
winners
winnie
winning
wino
wins
winston
winter
wire
wisconsin
wisdom
wise
wish
wissmann
wit
witch
witchcraft
with
within
without
witiri
witness
witnesses
wito
wits
wittgenstein
witu
witwatersrand
wivu
wizara
wizi
wizkid
wm
wo
wodi
woga
wokovu
wolf
wolff
wolfgang
wolfsburg
woman
women
won
wonder
wonders
wong
wongofu
wood
woodpecker
woodrow
woods
woodward
worcester
word
wordpress
words
wordsworth
work
worker
workers
working
works
workshop
world
worldcat
worlds
worldstadiums
worldwide
worm
worship
worst
worth
wote
would
wow
wowote
wp
wpdmpro
wrestling
wright
write
writer
writers
writing
writings
written
wrong
wrote
wu
wuhan
ww
wwe
wwf
www
wyclef
wyeth
wyoming
x
xavi
xavier
xbox
xenopus
xerxes
xi
xico
xii
xiii
xiv
xix
xl
xls
xp
xv
xvi
xvii
xviii
xx
xxi
xxii
xxiii
xxv
xxvii
xxviii
xxx
xxxi
xxxii
y
ya
yaa
yaani
yabisi
yafaa
yafuatayo
yafuatayohttp
yahoo
yahya
yai
yaitwayo
yajayo
yak
yakasse
yakawa
yake
yakehttp
yakiwa
yakiwemo
yako
yakobo
yala
yale
yaleyale
yaliandikwa
yalianza
yalianzishwa
yalibadilika
yalibadilishwa
yalibaki
yalichapishwa
yaliendelea
yalienea
yalifanya
yalifanyika
yalifanywa
yalifika
yalifuata
yaligunduliwa
yalihusu
yaliingia
yalijengwa
yalikua
yalikuja
yalikuwa
yalikuwepo
yalilenga
yalileta
yalimfanya
yalionekana
yaliongezeka
yalionyesha
yalipata
yalipatikana
yalipewa
yalisababisha
yalishindikana
yalitengwa
yalitoa
yalitokana
yalitokea
yalitolewa
yalitumika
yaliunganishwa
yalivyo
yalivyokuwa
yaliweza
yaliyo
yaliyoandaliwa
yaliyoandikwa
yaliyoanzishwa
yaliyobaki
yaliyobuniwa
yaliyochaguliwa
yaliyochapishwa
yaliyoendelea
yaliyoenea
yaliyofanyika
yaliyofanywa
yaliyofuata
yaliyofungana
yaliyohifadhiwa
yaliyoitwa
yaliyojengwa
yaliyojitokeza
yaliyoko
yaliyokusudiwa
yaliyokuwa
yaliyomo
yaliyopangwa
yaliyopatikana
yaliyopita
yaliyopo
yaliyosababisha
yaliyosababishwa
yaliyostawi
yaliyotajwa
yaliyotangulia
yaliyotengwa
yaliyotokana
yaliyotokea
yaliyotolewa
yaliyowahi
yaliyowekwa
yalizidi
yallop
yalova
yam
yamaguchi
yameandikwa
yameanza
yamefanywa
yamekuwa
yameongezeka
yamepangwa
yamepatikana
yamepotea
yamesababisha
yametokana
yametokea
yamo
yamoussoukro
yana
yanaanza
yanachangia
yanadai
yanaelekea
yanaelezea
yanaendelea
yanafaa
yanafanana
yanafanyika
yanafikia
yanahitaji
yanahitajika
yanahusiana
yanahusisha
yanahusu
yanaingia
yanaishia
yanaitwa
yanajulikana
yanajumuisha
yanakuwa
yanakwenda
yanalenga
yanalingana
yanaonekana
yanaonyesha
yanapaswa
yanapatikana
yanasema
yanatajwa
yanatakiwa
yanatarajiwa
yanategemea
yanatiririka
yanatiririkia
yanatofautiana
yanatoka
yanatokana
yanatokea
yanatumika
yanaweza
yanayoathiri
yanayoendelea
yanayofaa
yanayofanana
yanayofanya
yanayofuata
yanayohitajika
yanayohusiana
yanayohusika
yanayohusishwa
yanayohusu
yanayoitwa
yanayojulikana
yanayolenga
yanayolimwa
yanayolingana
yanayoonekana
yanayoonyesha
yanayopatikana
yanayosababisha
yanayosababishwa
yanayostawi
yanayotakiwa
yanayotoa
yanayotoka
yanayotokana
yanayotokea
yanayotolewa
yanayotumia
yanayotumika
yanayotumiwa
yanayounda
yanayoweza
yanayozunguka
yanazidi
yang
yanga
yangu
yao
yaohttp
yaonyesha
yaounde
yapata
yapi
yapitayo
yapo
yar
yard
yasiyo
yasiyofaa
yasiyokuwa
yasiyoonekana
yasiyoweza
yatakuwa
yatima
yatokanayo
yawe
yaweza
yaweze
ye
year
years
yehova
yei
yella
yellow
yemen
yemeni
yemi
yen
yenu
yenye
yenyewe
yer
yeremia
yerevan
yeriko
yerusalemu
yes
yesterday
yesu
yet
yetu
yeye
yeyote
yhwh
yi
yo
yoana
yobe
yobo
yoga
yoh
yohakimu
yohana
yohane
yolanda
yom
yombeyombe
yona
yordani
york
yorker
yorkshire
yoruba
yos
yosefu
yoshua
yosia
yote
you
young
younger
your
yourself
youssef
youth
youtube
yoweri
yoyote
yozgat
yu
yuan
yucata
yucatan
yuda
yudea
yugoslavia
yuhina
yuko
yukon
yul
yule
yuleyule
yumbe
yumo
yun
yung
yungali
yunnan
yupo
yuri
yussuf
yusto
yusuf
yusufu
yves
yvonne
z
za
zab
zabibu
zabuni
zaburi
zachary
zafar
zagreb
zaha
zahanati
zahra
zaidi
zain
zaire
zaka
zakaria
zakariya
zake
zaki
zako
zama
zamani
zambarau
zambezi
zambia
zamu
zana
zangu
zanj
zanla
zanu
zanzibar
zao
zapu
zaragoza
zari
zawadi
zawahiri
zaweza
zce
ze
zealand
zebaki
zebra
zedong
zee
zege
zeit
zeitschrift
zeitung
zeituni
zekaria
zelewski
zemlya
zen
zeno
zenu
zenye
zenyewe
zero
zerubabeli
zetu
zeu
zeus
zeze
zhang
zhao
zheng
zhou
zi
ziada
ziara
zidan
zidane
zidisha
ziff
zifuatazo
ziitwazo
zijazo
zikaendelea
zikaja
zikawa
zikitumia
zikiwa
zikiwemo
ziko
zile
zilezile
ziliandikwa
zilianza
zilianzishwa
zilibadilishwa
zilibaki
zilichukua
zilichukuliwa
ziliendelea
zilienea
zilifanya
zilifanyika
zilifanywa
zilifika
zilifuata
zilifungwa
ziligunduliwa
ziliingia
ziliitwa
zilijengwa
zilijulikana
zilijumuisha
zilikua
zilikuja
zilikuwa
zilikuwepo
zililenga
zilileta
zilionekana
ziliongezeka
zilionyesha
zilipata
zilipatana
zilipatikana
zilipendwa
zilipewa
zilipigwa
zilipokea
zilipozidi
zilisababisha
zilishiriki
zilitambuliwa
zilitawaliwa
zilitengenezwa
zilitia
zilitoa
zilitoka
zilitokea
zilitolewa
zilitumia
zilitumika
zilitumiwa
zilitungwa
ziliundwa
ziliungana
ziliunganishwa
ziliuzwa
zilivyo
ziliwahi
ziliwekwa
ziliweza
zilizo
zilizoandikwa
zilizoanzishwa
zilizoathirika
zilizoathiriwa
zilizobaki
zilizochaguliwa
zilizochapishwa
zilizochukuliwa
zilizoendelea
zilizofanikiwa
zilizofanyika
zilizofanywa
zilizofuata
zilizohifadhiwa
zilizoitwa
zilizojengwa
zilizojulikana
zilizoko
zilizokusanywa
zilizokuwa
zilizomo
zilizoongozwa
zilizoorodheshwa
zilizopangwa
zilizopatikana
zilizopewa
zilizopigwa
zilizopita
zilizopo
zilizorekodiwa
zilizosababisha
zilizostawi
zilizotajwa
zilizotangulia
zilizotayarishwa
zilizotengenezwa
zilizotengwa
zilizothibitishwa
zilizotokana
zilizotolewa
zilizotumia
zilizotumika
zilizotumiwa
zilizotungwa
zilizoundwa
zilizounganishwa
zilizowahi
zilizowekwa
zilizoweza
zima
zimbabwe
zimdancehall
zimeandikwa
zimeanza
zimeenea
zimehifadhiwa
zimejengwa
zimekuwa
zimeonekana
zimeonyesha
zimepangwa
zimepata
zimepatikana
zimependekezwa
zimetambuliwa
zimetokana
zimetolewa
zimetumika
zimeundwa
zimeunganishwa
zimewekwa
zimo
zimwi
zina
zinaa
zinaanza
zinabaki
zinachangia
zinachukuliwa
zinaelekea
zinaendelea
zinafaa
zinafanana
zinafanya
zinafuata
zinahitaji
zinahitajika
zinahusiana
zinahusishwa
zinahusu
zinaitwa
zinajulikana
zinajumuisha
zinakuwa
zinalenga
zinaleta
zinalingana
zinaonekana
zinaonyesha
zinaonyeshwa
zinapaswa
zinapatikana
zinaruhusu
zinasababisha
zinasaidia
zinasema
zinasimulia
zinatajwa
zinatakiwa
zinategemea
zinatengenezwa
zinatoa
zinatofautiana
zinatoka
zinatokana
zinatokea
zinatumia
zinatumika
zinatumiwa
zinaunda
zinaweza
zinazidi
zinazo
zinazoanza
zinazoathiri
zinazoendelea
zinazoendeshwa
zinazofaa
zinazofanana
zinazofanya
zinazofanywa
zinazofuata
zinazohitaji
zinazohitajika
zinazohusiana
zinazohusika
zinazohusisha
zinazohusishwa
zinazohusu
zinazoishi
zinazoitwa
zinazojitokeza
zinazojulikana
zinazojumuisha
zinazolenga
zinazoleta
zinazolingana
zinazomilikiwa
zinazoonekana
zinazoongoza
zinazoonyesha
zinazopakana
zinazopatikana
zinazosababisha
zinazosababishwa
zinazoshiriki
zinazostawi
zinazotajwa
zinazotangulia
zinazotegemea
zinazotengenezwa
zinazotoa
zinazotofautisha
zinazotoka
zinazotokana
zinazotokea
zinazotolewa
zinazotumia
zinazotumika
zinazotumiwa
zinazounda
zinazoweza
zinazozalishwa
zinazozunguka
zinazunguka
zindiko
zingine
zinginezo
zinki
zinzendorf
zion
zipatazo
zipi
zipo
zipra
zisizo
zisizojulikana
zisizokuwa
zitakuwa
zito
ziwa
ziwani
ziwe
zizi
zmir
zodiaki
zoe
zoezi
zohali
zombo
zondervan
zone
zonguldak
zoo
zoolojia
zoom
zoothera
zopa
zorotypus
zosta
zosterops
zote
zotiko
zouk
zozote
zquez
zu
zuberi
zuckerberg
zue
zuhura
zuid
zulia
zulu
zum
zuma
zur
zuri
zurich
zuwakulu
zw
{
|
}
~
¡
£
¥
§
¨
©
ª
«
¬
­
®
°
±
²
³
´
µ
·
¹
º
»
¼
½
¿
×
ß
ð
ı
ırnak
ł
ɑ
ə
ɛ
ʲ
ʻ
ʼ
ʽ
ʾ
ʿ
ˀ
ˈ
ˌ
ː
ˤ
̀
́
̂
̃
̄
̆
̇
̈
̉
̊
̋
̌
̓
̔
̛
̣
̦
̧
̨
̯
̱
͂
ͅ
͡
͵
΄
α
ας
β
γ
γιος
δ
ε
ζ
η
θ
ι
κ
και
λ
μ
μα
μαι
μεγας
ν
ξ
ο
οι
ος
ου
π
πι
ρ
ς
σ
σιος
συναξαριστης
τ
τη
της
του
υ
χ
ψ
ω
в
г
е
и
к
л
м
н
на
населення
наявного
ни
о
п
с
т
у
украі
чисельність
я
ְ
ֱ
ֲ
ִ
ֵ
ֶ
ַ
ָ
ֹ
ּ
־
ׁ
א
ב
ג
ד
ה
ו
ז
ח
י
ך
כ
ל
ם
מ
ן
נ
ס
ע
פ
צ
ק
ר
ש
ת
،
؛
ا
ال
الا
الل
الله
ب
بن
ة
ت
ث
ج
ح
حمد
خ
د
ذ
ر
ز
س
ش
ص
ع
عبد
ف
في
ق
ك
ل
م
محمد
من
ن
ه
و
ي
ً
َ
ُ
ِ
ّ
ْ
ٓ
ٔ
ٕ
ی
ं
क
ग
च
ज
त
थ
द
न
प
ब
म
र
ल
श
स
ा
ि
ी
ु
ौ
्
ক
র
ল
া
ু
ে
ਾ
ੀ
ா
ி
ு
்
క
ಾ
ക
ച
ാ
ി
്
්
ා
ු
จ
ช
ท
น
ส
ั
ิ
ี
ุ
ู
็
่
้
์
​
‌
‎
‏
‐
‑
‒
–
—
―
‘
’
‚
“
”
„
‟
†
•
…
‰
′
″
›
⁄
€
№
℟
™
℣
↑
→
↔
↷
−
∘
≈
≤
≥
③
④
⑦
●
☉
➞
➢
ⲁ
ⲃ
ⲛ
ⲱ
ⴰ
ⴱ
⺀
⺄
⺆
⺈
⺊
⺌
⺕
⺝
⺸
⺼
⿰
⿱
⿲
⿳
⿴
⿵
⿶
⿷
⿸
⿹
⿺
⿻
〢
い
う
え
き
さ
す
た
な
の
ま
み
り
゙
゚
ァ
ア
ィ
イ
ウ
エ
オ
カ
キ
ク
コ
サ
シ
ス
セ
タ
チ
ッ
ツ
テ
ト
ナ
ニ
ハ
ヒ
フ
ヘ
マ
ム
メ
モ
ャ
ヤ
ュ
ユ
ョ
ヨ
ラ
リ
ル
レ
ロ
ワ
ン
・
ー
㇁
㇂
㇄
㇇
㇈
㇉
㇓
㐁
㐄
㐅
㐌
㐫
㐬
㐭
㐮
㐱
㑒
㒵
㒸
㒼
㓁
㓞
㔾
㕛
㕣
㖾
㘝
㚅
㚇
㚔
㚘
㝉
㝡
㝴
㝵
㞋
㞢
㞷
㠩
㠭
㠯
㡀
㡭
㡿
㢲
㢴
㣇
㣺
㥯
㪅
㫄
㫐
㫒
㫺
㬅
㬎
㬥
㬰
㲋
㳄
㷠
㸒
㸚
㸦
㼌
㼲
㽞
㿟
䀠
䂞
䍃
䏍
䒑
䖍
䖒
䖝
䖵
䙴
䚻
䜌
䝿
䡛
䧹
䪞
一
丁
丂
七
丄
丅
丆
万
丈
三
上
下
丌
不
与
丏
丐
丑
专
且
丕
世
丘
丙
业
东
丞
丢
丣
两
严
並
丨
丩
个
丫
丬
中
丮
丰
丱
串
丵
丶
丷
丸
丹
为
主
丽
丿
乀
乂
乃
久
乆
乇
么
义
之
乌
乍
乎
乏
乐
乑
乔
乖
乗
乘
乙
乚
乛
乜
九
乞
也
习
乡
乳
乾
亀
亅
了
亇
予
争
事
二
亍
于
亏
亐
云
互
亓
五
井
亘
亚
亜
亞
亟
亠
亡
亢
交
亥
亦
产
亨
亩
享
京
亭
亮
亯
亰
亲
亳
亶
亷
人
亻
亼
亾
仁
今
介
仌
从
仐
仑
仒
仓
仕
他
付
仝
代
令
以
任
企
伊
伏
伐
休
会
伝
伯
但
位
佐
佑
何
佘
余
作
佥
使
來
侈
侌
侖
侯
侵
便
俊
保
俞
信
修
倉
倍
候
倠
健
備
僉
僕
儿
兀
允
兂
元
兄
充
兆
兇
先
光
兊
克
兌
免
児
兑
兒
兓
兔
党
兜
兟
入
全
兩
兪
八
公
六
兮
兰
共
关
兵
其
具
典
兹
兼
冀
冂
冃
冄
内
冈
冉
冊
冋
册
再
冎
冏
冐
冒
冓
冖
冗
冘
军
农
冝
冡
冥
冫
冬
冷
几
凡
凢
凵
凶
凷
凸
凹
出
函
凾
刀
刁
刂
刃
刄
刅
分
切
刍
刑
刕
刖
列
刘
则
初
別
利
别
到
制
刺
則
削
剌
前
剛
剡
剽
劉
力
功
加
劦
助
劫
劳
劵
勃
勇
勉
勒
動
務
勝
勞
勤
勹
勺
勻
勾
勿
匀
匂
包
匆
匈
匊
匋
匍
匕
化
北
匚
匝
匡
匪
匱
匸
匹
区
医
匽
匿
區
十
卂
千
卄
卅
卆
升
午
卉
半
卌
华
卑
卒
卓
单
卖
南
博
卜
卝
卞
占
卡
卢
卣
卤
卦
卩
卪
卬
卯
印
危
即
却
卵
卷
卸
卻
厂
厃
厄
历
厈
厉
厌
厓
厘
厚
原
厤
厥
厨
厭
厲
厶
厷
厸
去
厼
厽
叀
参
參
叅
又
叉
及
友
双
反
叐
发
叒
叔
叕
取
受
叚
叜
叟
口
古
句
另
叩
只
召
可
台
叱
史
右
叵
号
司
叹
吂
各
吅
合
吉
吊
吋
同
名
后
吏
向
吕
君
吝
吞
否
含
启
吳
吴
吹
吾
呂
呆
呈
告
员
呙
周
命
咅
和
咎
咠
[...]
