!
"
#
##0
##1
##10
##11
##12
##13
##14
##15
##16
##17
##18
##19
##2
##20
##21
##22
##23
##24
##25
##26
##27
##28
##29
##3
##30
##31
##32
##33
##34
##35
##36
##37
##38
##39
##4
##40
##41
##42
##43
##44
##45
##46
##47
##48
##49
##5
##50
##51
##52
##53
##54
##55
##56
##57
##58
##59
##6
##60
##61
##62
##63
##64
##65
##66
##67
##68
##69
##7
##70
##71
##72
##73
##74
##75
##76
##77
##78
##79
##8
##80
##81
##82
##83
##84
##85
##86
##87
##88
##89
##9
##90
##91
##92
##93
##94
##95
##96
##97
##98
##99
$
%
&
'
(
)
*
+
,
-
.
/
0
00
000
001
002
003
004
005
007
008
009
01
010
011
014
015
017
018
02
026
03
04
0402
0406
042
046
05
050
051
056
06
0601
0602
0603
0604
0605
0606
0607
0608
0609
0610
0611
069
07
074
076
079
08
09
090
097
1
10
100
1000
1001
100101
1002
1003
1004
1005
1006
1008
1009
101
1010
1011
1012
1013
1014
1015
1016
1017
1018
102
1023
1024
1025
1026
1027
1028
1029
103
1030
1031
1032
1033
1034
1035
1036
1037
1038
1039
104
1040
1041
1044
1045
1046
1047
1048
1049
105
1050
1051
1052
1053
1054
1055
1056
1057
1058
1059
106
1060
1061
1063
1064
1065
1066
1067
1068
1069
107
1070
1071
1072
1073
1074
1075
1076
1077
1078
1079
108
1080
1081
1082
1083
1084
1085
1086
1087
1089
109
1090
1091
1092
1093
1094
1095
1096
1097
1098
1099
11
110
1100
1101
1102
1103
1104
1105
1106
1107
1108
1109
111
1110
1111
1112
1113
1114
1115
1116
1117
1118
1119
112
1120
1121
1122
1123
1124
1125
1126
1127
1128
1129
113
1130
1131
1132
1133
1134
1135
1136
1137
1138
1139
114
1140
1141
1142
1143
1144
1145
1146
1147
1148
1149
115
1150
1151
1152
1153
1154
1155
1156
1157
1158
1159
116
1160
1161
1162
1163
1164
1165
1166
1167
1168
1169
117
1170
1171
1172
1173
1174
1175
1176
1177
1178
1179
118
1180
1181
1182
1183
1184
1185
1186
1187
1188
1189
119
1190
1191
1192
1193
1194
1195
1196
1197
1198
1199
12
120
1200
1201
1202
1203
1204
1205
1206
1207
1208
1209
121
1211
1212
1213
1214
1215
1216
1217
1218
1219
122
1220
1221
1222
1223
1224
1225
1226
1227
1228
1229
123
1230
1231
1232
1233
1234
1235
1236
1237
124
1240
1241
1242
1243
1244
1245
1246
1247
1248
1249
125
1250
1251
1252
1253
1254
1255
1256
1257
1258
126
1260
1261
1262
1263
1265
1266
1267
1268
1269
127
1270
1271
1272
1273
1274
1275
1276
1277
1278
1279
128
1280
1281
1282
1283
1284
1285
1286
1287
1288
1289
129
1290
1291
1292
1293
1294
1295
1296
1297
1298
1299
13
130
1300
1301
1302
1303
1304
1305
1306
1307
1308
1309
131
1310
1311
1312
1313
1314
1315
1316
1317
1318
1319
132
1320
1321
1322
1323
1324
1325
1326
1327
1328
1329
133
1330
1331
1332
1333
1334
1335
1336
1337
1338
1339
134
1340
1341
1342
1343
1344
1345
1346
1347
1348
1349
135
1350
1351
1352
1353
1354
1355
1356
1357
1358
1359
136
1360
1361
1362
1363
1364
1365
1366
1367
1368
1369
137
1370
1371
1372
1373
1374
1375
1376
1377
1378
1379
138
1380
1381
1382
1383
1384
1385
1386
1387
1388
1389
139
1390
1391
1392
1393
1394
1395
1396
1397
1398
1399
14
140
1400
1401
1402
1403
1404
1405
1406
1407
1408
1409
141
1410
1411
1412
1413
1414
1415
1416
1417
1418
1419
142
1420
1421
1422
1423
1424
1425
1426
1427
1428
1429
143
1430
1431
1432
1433
1434
1435
1436
1437
1438
1439
144
1440
1441
1442
1443
1444
1445
1446
1447
1448
1449
145
1450
1451
1452
1453
1454
1455
1456
1457
1458
1459
146
1460
1461
1462
1463
1464
1465
1466
1467
1468
1469
147
1470
1471
1472
1473
1474
1475
1476
1477
1478
1479
148
1480
1481
1482
1483
1484
1485
1486
1487
1488
1489
149
1490
1491
1492
1493
1494
1495
1496
1497
1498
1499
15
150
1500
1501
1502
1503
1504
1505
1506
1507
1508
1509
151
1510
1511
1512
1513
1514
1515
1516
1517
1518
1519
152
1520
1521
1522
1523
1524
1525
1526
1527
1528
1529
153
1530
1531
1532
1533
1534
1535
1536
1537
1538
1539
154
1540
1541
1542
1543
1544
1545
1546
1547
1548
1549
155
1550
1551
1552
1553
1554
1555
1556
1557
1558
1559
156
1560
1561
1562
1563
1564
1565
1566
1567
1568
1569
157
1570
1571
1572
1573
1574
1575
1576
1577
1578
1579
158
1580
1581
1582
1583
1584
1585
1586
1587
1588
1589
159
1590
1591
1592
1593
1594
1595
1596
1597
1598
1599
16
160
1600
1601
1602
1603
1604
1605
1606
1607
1608
1609
161
1610
1611
1612
1613
1614
1615
1616
1617
1618
1619
162
1620
1621
1622
1623
1624
1625
1626
1627
1628
1629
163
1630
1631
1632
1633
1634
1635
1636
1637
1638
1639
164
1640
1641
1642
1643
1644
1645
1646
1647
1648
1649
165
1650
1651
1652
1653
1654
1655
1656
1657
1658
1659
166
1660
1661
1662
1663
1664
1665
1666
1667
1668
1669
167
1670
1671
1672
1673
1674
1675
1676
1677
1678
1679
168
1680
1681
1682
1683
1684
1685
1686
1687
1688
1689
169
1690
1691
1692
1693
1694
1695
1696
1697
1698
1699
17
170
1700
1701
1702
1703
1704
1705
1706
1707
1708
1709
171
1710
1711
1712
1713
1714
1715
1716
1717
1718
1719
172
1720
1721
1722
1723
1724
1725
1726
1727
1728
1729
173
1730
1731
1732
1733
1734
1735
1736
1737
1738
1739
174
1740
1741
1742
1743
1744
1745
1746
1747
1748
1749
175
1750
1751
1752
1753
1754
1755
1756
1757
1758
1759
176
1760
1761
1762
1763
1764
1765
1766
1767
1768
1769
177
1770
1771
1772
1773
1774
1775
1776
1777
1778
1779
178
1780
1781
1782
1783
1784
1785
1786
1787
1788
1789
179
1790
1791
1792
1793
1794
1795
1796
1797
1798
1799
18
180
1800
1801
1802
1803
1804
1805
1806
1807
1808
1809
181
1810
1811
1812
1813
1814
1815
1816
1817
1818
1819
182
1820
1821
1822
1823
1824
1825
1826
1827
1828
1829
183
1830
1831
1832
1833
1834
1835
1836
1837
1838
1839
184
1840
1841
1842
1843
1844
1845
1846
1847
1848
1849
185
1850
1851
1852
1853
1854
1855
1856
1857
1858
1859
186
1860
1861
1862
1863
1864
1865
1866
1867
1868
1869
187
1870
1871
1872
1873
1874
1875
1876
1877
1878
1879
188
1880
1881
1882
1883
1884
1885
1886
1887
1888
1889
189
1890
1891
1892
1893
1894
1895
1896
1897
1898
1899
19
190
1900
1901
1902
1903
1904
1905
1906
1907
1908
1909
191
1910
1911
1912
1913
1914
1915
1916
1917
1918
1919
192
1920
1921
1922
1923
1924
1925
1926
1927
1928
1929
193
1930
1931
1932
1933
1934
1935
1936
1937
1938
1939
194
1940
1941
1942
1943
1944
1945
1946
1947
1948
1949
195
1950
1951
1952
1953
1954
1955
1956
1957
1958
1959
196
1960
1961
1962
1963
1964
1965
1966
1967
1968
1969
197
1970
1971
1972
1973
1974
1975
1976
1977
1978
1979
198
1980
1981
1982
1983
1984
1985
1986
1987
1988
1989
199
1990
1991
1992
1993
1994
1995
1996
1997
1998
1999
2
20
200
2000
2001
2002
2003
2004
2005
2006
2007
2008
2009
201
2010
2011
2012
2013
2014
2015
2016
2017
2018
2019
202
2020
2021
2022
2023
2024
2029
203
204
205
206
207
208
209
21
210
211
213
214
215
216
217
218
219
22
220
221
222
223
224
2244
225
226
227
228
229
23
230
2300
231
232
233
234
235
236
237
238
239
24
240
2400
241
242
243
244
245
246
247
248
249
25
250
2500
251
252
253
254
255
256
257
258
259
26
260
261
262
263
264
265
266
267
268
269
27
270
271
272
273
274
275
276
277
278
279
28
280
2800
281
283
284
285
286
287
288
289
29
290
291
292
293
294
295
296
297
298
299
3
30
300
3000
301
302
304
305
306
307
308
309
31
310
311
312
313
314
315
316
317
318
319
32
320
321
322
323
324
325
326
327
328
329
33
330
331
332
333
334
335
336
337
338
339
34
340
341
342
343
344
345
346
347
348
349
35
350
351
352
353
355
356
357
358
359
36
360
361
363
364
365
366
367
368
369
37
370
371
372
373
374
375
377
378
379
38
380
384
385
386
387
388
389
39
390
392
394
395
396
397
399
4
40
400
4000
402
403
404
405
406
407
41
411
412
413
414
416
42
420
421
425
426
428
429
43
430
431
432
433
435
436
437
44
440
443
444
445
4451
446
447
448
45
450
452
453
454
455
456
457
458
459
46
460
461
462
463
465
468
469
47
470
471
472
473
474
475
476
478
479
48
480
481
483
486
487
488
49
490
492
494
496
497
498
499
5
50
500
5000
501
502
507
509
51
510
511
512
513
515
52
520
521
522
523
525
527
528
53
530
531
532
534
535
537
5381
539
54
540
542
544
545
546
547
548
549
55
550
551
552
553
555
557
56
560
561
565
57
570
571
572
578125
58
580
584
585
59
590
592
595
599
6
60
600
6000
602
603
606
607
61
610
613
615
618
62
624
626
627
629
63
630
632
634
639
64
640
648
65
650
651
652
66
663
666
67
670
673
675
68
680
682
686
687
69
694
695
698
7
70
700
7000
71
710
711
714
715
716
717
718
72
720
73
732
739
74
740
741
742
747
749
75
750
751
753
76
760
765
767
768
769
77
770
771
773
774
775
776
777
778
779
78
780
781
782
783
788
79
790
792
794
795
796
797
799
8
80
800
8000
803
806
807
808
809
81
810
8101
811
812
813
814
815
816
817
818
819
82
820
821
822
823
825
826
828
829
83
830
8300
831
8310
833
834
8340
835
836
837
838
839
84
840
841
842
843
8433
844
845
846
847
848
849
8490
85
850
8500
851
852
853
854
855
856
857
858
859
86
860
8600
861
862
863
8630
864
8647
865
866
867
868
869
8691
87
870
8700
871
87114
872
873
874
875
876
877
878
879
88
880
881
882
883
884
885
886
887
888
889
89
890
8900
891
892
893
894
895
896
897
898
8980
899
9
90
900
9000
901
902
903
905
906
907
908
909
91
910
911
912
913
915
918
919
92
920
921
922
923
924
925
926
927
928
929
93
930
931
932
933
934
935
936
937
938
939
94
940
941
942
943
944
945
947
948
949
95
950
951
952
953
954
955
956
957
958
959
96
960
961
962
963
964
965
966
967
968
969
97
970
971
972
973
974
975
976
977
978
9789062675036
979
98
980
982
983
984
985
986
987
988
989
99
990
991
992
993
994
995
996
997
998
999
:
;
<
=
>
?
@
\
^
_
`
a
aa
aad
aagje
aakn
aal
aaln
aalst
aalstar
aalter
aan
aandacht
aangeduud
aangepast
aangezien
aanslag
aantal
aantalln
aantol
aanval
aanvol
aanwezig
aanzien
aar
aard
aardappel
aardappelen
aarde
aare
aargau
aarn
aaron
aars
aartrijke
aartsbisschop
aartsertoginne
aartsertoogn
aartshertog
aartshertoginne
aartshertoogn
aat
aatn
ab
abate
abba
abbate
abbaye
abbe
abbekerke
abbeville
abbey
abc
abdesse
abdeye
abdie
abdis
abdy
abdye
abdyen
abdyhoeve
abdykerke
abe
abeele
abel
abele
abies
abimeerd
able
abortus
about
above
abraham
abramsiana
abreu
abruzzo
absis
absolute
absoluut
absorbe
absorbeern
absorptie
abstract
abstracte
absurde
absynthe
abt
abu
ac
acacia
acade
academic
academie
academiestraat
academiestroate
academisch
academische
academy
accademia
accent
accessed
accident
accipiter
accordeong
accordeongs
account
ace
acer
acetyleen
acevedo
achel
achiel
achille
acht
achte
achter
achterdeure
achtergeloatn
achtergevel
achtergroend
achterground
achtergroundzangeresse
achterkant
achterkle
achterkommertje
achterland
achterlyf
achterlyne
achtern
achternoa
achternoar
achternoene
achterof
achterpo
achterpootn
achterste
achterstevoren
achteruut
achteruutgang
achteruutgank
achtervoegsel
achtervolgienge
achterwerk
achtiend
achtig
achtige
achtign
achtr
achtre
achtrlyf
achtruut
achtschellinck
achtsn
achtste
achtstn
achttien
achttiende
achttiene
achttienste
acid
acke
acker
acknowledgements
acoz
acquaviva
acquired
act
acta
acten
acteur
acteurs
actie
actief
actiegroep
acties
actieve
actineskelet
actinopterygii
actinostrobus
action
activist
activiteit
activiteiten
activiteitn
actrice
acv
acw
ad
ada
adalberon
adalbert
adalolf
adam
adams
add
adde
addition
addn
ade
adel
adela
adelaide
adelbert
adele
adelheid
adelin
adem
aden
adhemar
adiengkerke
adige
adinkerke
adipiscing
adirondack
adjunct
admieniestroasje
administratie
administratief
administratieve
administroasje
admiral
admiroal
adn
adolf
adolphe
adopteerd
adopteern
adoptie
adorant
adornes
adr
adres
adresn
adriaan
adriaen
adrian
adrianus
adriatico
adriatische
adrien
adrioatische
advies
adviseur
advocaat
advocoat
advokoat
ae
aegithalos
aelst
aen
aeneas
aerial
aertrycke
aerts
af
afankelik
afbeelding
afbeeldingen
afc
afde
afdeling
affaire
affaires
affiche
affinis
affligem
afgeleid
afgeschaft
afgestudeerde
afghanistan
afhankelik
afkomst
afkomste
afkomstig
afkortienge
aflevering
afleveringn
afrekening
africa
african
africana
africanus
afrika
afrikoans
afrikoansche
afrikoanschn
afrikoanse
afrikoansn
afrit
afro
afroinsectophilia
afrosoricida
afrotropis
afscheid
afseits
afstand
afstandn
aftakkienge
after
ag
agadir
again
against
agalev
agamemnon
agatha
agder
age
agen
agency
agent
agentschap
ages
agezien
agglomeroasje
aggregate
aggregoatietoestand
aglais
aglik
agne
agnes
agnolo
agressief
agressieve
agri
agricole
agricultural
agriculture
agrigento
agrippa
agrippina
ahmed
ahonen
ai
aids
aigle
aiguille
aime
ain
air
aire
aires
airlines
airport
ais
aischylos
aise
aisne
aix
aj
ajax
aje
ajuin
ak
akademie
akademiestroate
akattemets
aken
aketisse
aketissn
akker
akkers
akketesn
akketesse
akketisn
akko
akkoord
akropolis
aksje
aksjes
akster
akte
akten
aktief
aktieve
aktievieteitn
aktiviteit
aktiviteitn
al
alabama
alain
alan
alanis
alaska
alawietn
alba
albanees
albanie
albano
albany
alberic
albert
alberta
alberti
alberto
alblasserdam
alboanse
albom
albrecht
album
albums
alcaraz
alcazaba
alcedo
alces
alchemie
alcohol
alcoholische
alcol
alcool
alcoolpercentage
alcyon
aldegonde
aldobrandini
ale
aleidis
alejandro
aleksander
alemann
alemanni
alemannie
alemannisch
alessandro
aleutn
alex
alexander
alexandre
alexandrie
alexandrje
alexis
alf
alfa
alfabet
alfabetisch
alfons
alfonso
alfred
algarve
algebra
algelyk
algeme
algemee
algemeen
algemein
algemene
algereye
algerye
algn
algouwe
alhoewel
ali
alias
alicante
alice
aliens
alighieri
alighiero
align
alignbars
alin
aliot
alisonder
alive
alix
aljinne
alken
alkmaar
all
alla
allaeys
alle
allee
alleen
alleene
allegria
allein
alleine
allekerke
allemaal
allemalle
allemoale
allemolle
allen
allene
allennes
aller
allergisch
allerhande
alles
alleseters
alletorre
alletwe
alletwee
allez
allia
alliansje
alliantie
allie
allieerd
allieerde
allieerdn
allier
alliet
allium
alln
allo
alloam
allodapini
alloo
allori
allum
alma
almeida
almere
almohoadn
almoraviedn
alni
alnus
aloam
aloewe
aloewel
aloi
alois
alone
alonso
alpaca
alpe
alpes
alpha
alphonse
alpiene
alpine
alpn
alpnwoatersalamander
alpro
als
alsan
also
alsof
alsook
alt
altai
altaica
altamira
alte
alternatief
alternatieve
alternatieven
alternative
altijd
altiora
alto
altoar
altoarstik
altyd
altydgroene
aluminium
alva
alvergem
alveringem
alvinne
always
alyssa
alþing
am
amadeus
amalia
amalie
amand
amands
amandsberg
amandskerke
amandstroate
amandus
amanduskerke
amar
amaryllidaceae
amateur
amateurs
amazo
ambacht
ambachtn
ambachtshuus
ambassadeur
amber
amberkleurig
ambetant
ambiance
ambiesje
ambiorix
ambition
ambras
ambrogio
ambt
ambtn
ame
amen
america
american
americana
americans
americanus
ameriekoansche
amerika
amerikaanse
amerikoan
amerikoanders
amerikoann
amerikoans
amerikoansche
amerikoanschen
amerikoanschn
amerikoanse
amerikoansen
amerikoansn
amersfoort
amfibiee
amfibien
amfitheoater
amherst
amiens
aminozuur
aminozuurn
amme
ammoniak
ammoniakkristalln
amnestie
amniota
amoer
amoled
amon
among
amor
amoraen
amore
amour
amours
ampe
amper
amphibia
amplexus
amstel
amstelveen
amsterdam
amsterdamsche
amundsen
amurensis
amusement
amy
an
ana
anakkale
analoog
analyse
analysis
anarchist
anas
anatolie
anatomie
anatomische
anbeedn
anbevooln
anbod
anchorage
anciaux
ancien
ancienne
ancient
ancoisne
ancona
and
andacht
andalusie
andamansche
ande
andel
andeliengn
anden
ander
andere
anderen
anderlecht
andern
andernach
anders
andersen
anderson
andersson
anderzyds
andes
andesgebergte
andjoen
andjoens
andle
andn
andoen
andoenienge
andoeniengn
andorra
andr
andre
andrea
andreas
andreaskerke
andreaslyceum
andrei
andren
andrew
andrews
andriengn
andries
andrn
android
andrs
andschoenn
andschrift
andschrifte
andschriftn
andudienge
anduudienge
andvoatn
andy
andyvie
ane
ang
ange
angebrocht
angedoan
angedreevn
angeduud
angeevn
angegeevn
angekocht
angel
angela
angeleid
angeleide
angeles
angeleyd
angeli
angelique
angeln
angelo
angels
angelsaksers
angelsaksisch
angelsaksische
angemakt
angemoedigd
angen
angenoame
angenoomn
angepast
angeplant
anger
angers
angesleegn
angeslootn
angespoeld
angesteld
angetast
angetrokkn
angevins
angevoerd
angevolln
angevuld
angeweezn
angezie
angezien
anggun
angiosperm
angiospermae
angllo
anglo
angn
angnde
angola
angoule
angrenzende
angrenznde
angst
angste
angt
anguis
angustifolia
anhalt
anhanger
anhangers
anhangsels
animal
animalia
animals
anisoptera
anjou
anka
ankara
anker
ankern
ankerplatse
ankommn
ankomste
ankomt
anleg
anleggn
anleidienge
anleidiengn
anleidinge
anlo
anloop
anmerkienge
ann
anna
annaeus
annakerk
annakerke
annales
annappes
annarei
annareie
annatje
anne
annelien
annelies
annemans
annemie
annexeerd
annexeerde
annexoasje
annie
anno
annual
annuleerd
annys
anoniem
anoniemn
another
anpak
anpassienge
anpassiengn
anpassn
anroadn
anroakn
ans
ansbach
ansche
anselmus
anslag
ansloagn
anslutienge
ansluut
ansluutienge
ansluutn
ansoame
ansoamevoart
ansprekienge
ansproake
ansproakn
anstaing
anstelde
anstellienge
ant
antal
antalln
antarctica
antarctisch
antarctische
antarctischn
antarktiesche
antastn
ante
antenne
antennes
antheraea
anthierens
anthologie
anthonis
anthony
anthophorini
anthropoceen
anthropology
anti
antiek
antieke
antiekn
antieln
antigone
antilles
antilln
antiloopn
antins
antinsn
antiochie
antn
antoine
antoinette
antoing
antol
anton
antonello
antoni
antonia
antoninus
antonio
antonius
antoniuskerke
antoon
antrekkienge
antrekkiengskracht
antrekkn
antrekt
antropogene
antropologie
ants
antwerp
antwerpen
antwerpn
antwerps
antwerpsche
antwerpschn
antwerpse
antwo
antwoord
antword
anura
anus
anval
anvallend
anvaller
anvallers
anvalln
anve
anveird
anveirde
anveirdn
anvieln
anvoer
anvoerder
anvol
anvollers
anvolln
anvrage
anvroage
anvt
anvulln
anweezig
anweezigeid
anwezig
anwezigheid
any
anzac
anze
anzegem
anzet
anzettn
anzie
anzien
anziene
anzienlik
anziet
ao
aoc
aosta
ap
apache
apart
aparte
apartheid
apartn
ape
apeldoorn
apennynn
aperitief
apeupri
apg
aphelion
aphrodite
apiaceae
apinae
apis
apium
apocalyps
apocalypse
apollo
apostel
apostels
apostolo
apotheekrs
apotheker
app
appareil
appareils
apparoat
appartementsgebouw
appe
appel
appelmans
appels
appelvienke
appelvienkn
appia
apple
apprecieerd
approach
approaches
apps
apre
apreupri
april
aprilia
apulie
aquaduct
aquarellist
aquarium
aquila
aquino
aquitaine
aquitanie
ar
arab
arabidopsis
arabie
arabiere
arabiern
arabisch
arabische
arachnida
arafat
arago
aragon
aragonees
arbeid
arbeider
arbeiders
arbeidersbeweginge
arbeiderswyk
arbeiterpartei
arbiter
arboretum
arbre
arc
arcade
archaea
archaeopterix
archaeopteryx
archeologie
archeologisch
archeologische
archeoloog
archeoloogn
archibald
archief
archieven
archievn
archipel
architect
architecten
architecteure
architectn
architecture
architectuur
architekt
archive
archives
arco
arctan
arctic
arctischn
arctos
ard
arde
ardea
ardenn
ardenne
ardennen
ardo
ardooie
arduun
are
area
areas
arelat
arena
arenaria
arenas
arenberg
arend
arents
arentshof
arentshuus
arentsuus
areoal
ares
arezzo
arfeuille
argent
argentina
argentinie
argentynsche
argon
argument
argumentn
ari
ariccia
aricia
arid
arie
ariel
arion
aristoteles
arizona
arizonica
arjen
ark
arkansas
arkn
arktiesch
arktiesche
arles
arlon
arm
armada
armagnac
armand
armbouts
armboutskapelle
arme
armeens
armeensche
armen
armenie
armentie
armentiers
armoede
armor
arms
armstrong
army
arn
arnaert
arne
arneke
arnhem
arno
arnold
arnoldus
arnulf
arnyke
aroabiesch
aroabiesche
aroabisch
aroabische
aroma
aromatische
around
aroundissement
arp
arqua
arrangeerde
arrangeern
arrangement
arrangeur
arras
arrebodem
arrest
arresteerd
arresteern
arrestoasje
arrhenius
arrive
arrivee
arriveerd
arriveerde
arriveerdn
arriveert
arroendissement
arroendissementn
arrondissement
arrondissementn
arroundissement
arroundissementen
arroundissementn
ars
arsenal
art
artcyclopedia
arte
arten
arter
artes
artesie
artevelde
arthropoda
arthur
article
artiekle
artiest
artiesten
artiestn
artificie
artikel
artikels
artillerie
artiodactyla
artist
artistiek
artistieke
artistn
artn
artois
arts
artus
aruba
arvan
as
ascq
ash
asia
asiel
asjetik
askoy
aspe
aspectn
ass
assad
assam
assan
assassination
assche
asse
assebroek
assebroeke
assembly
assen
assenede
assenee
assessment
assimilatie
assisi
assistent
assn
association
associe
associeerd
assumpsjekerke
assunta
ast
astana
astarloza
astene
aster
asteraceae
asterachtige
asterachtign
asterias
asterix
asteroi
asteroiedn
asteroiedngordel
asthenosfeer
aston
astrid
astrologie
astronaut
astronauten
astronomie
astronomische
astronoom
astronoomn
asturie
asturisch
asymmetrisch
at
atatu
atelier
ater
ath
athanasius
athanor
atheensche
athei
athena
athene
atheneum
athens
athis
atkinson
atla
atlant
atlanta
atlantic
atlantica
atlantiesche
atlantikwall
atlantique
atlantiques
atlantis
atlantisch
atlantische
atlantischen
atlantischn
atlas
atleet
atlete
atletiek
atletiekvere
atmosfeer
atmosfeere
atmosfere
atn
ato
atol
aton
atoom
atoomgetal
atoomkern
atoomn
atoomnummer
atp
atra
atre
atrecht
attack
attakeern
attakeert
attaqueerd
attaqueern
atthis
attiches
atticus
attika
attracsjes
attracties
attraksies
attraksjes
attribuutn
au
aube
aubergine
aubers
aubisque
auchy
audacer
aude
audenaerde
audio
audomarois
audomaruskerke
auf
aufzeichnungen
augsburg
august
augusta
auguste
augustin
augustinus
augustus
aujourd
aulnes
aulus
aum
aup
aureus
auricularia
auroras
aus
auschwitz
austin
australazie
australia
australian
australie
australis
australisch
australische
australoaziesche
australopithecus
austrasie
austroalie
austroaliesche
austroalische
auteur
auteurs
authentic
authentieke
author
authorities
authority
authors
auto
autobiografisch
autobus
autonome
autonomie
autonoom
autoriteit
autoriteitn
autostrade
auvergne
aux
auxerre
av
ava
avaarn
available
avalon
avalonia
avance
ave
avec
avelin
avenue
averbode
avermaet
aves
avesnes
avignon
aviv
avocoat
avokoat
avond
avondmaal
avonturen
avontuur
avontuurn
avoriaz
avound
avui
award
awards
away
ax
axel
axpoele
ay
az
azerbeidzjan
azerbeidzjoans
aziatische
azie
azioatische
azioatn
aznavour
azo
azoa
azoorn
azur
azyl
azyn
azzo
b
ba
baa
baafs
baas
babel
babelutte
baby
babylon
babylonie
bac
baccata
bacchus
bach
bachelor
bachte
bachten
bachtn
bachy
back
backer
backgammon
backgroundcolors
bacteria
bacterie
bactrianus
bad
baden
badhuus
badstad
baekeland
baekelandt
baert
baeyens
bagdad
bagne
bagynof
bahama
bahrein
bahreyn
bahri
bai
baileux
bailleul
bains
baisieux
bajkal
bak
bakelandt
bakeliet
baker
bakker
bakkers
bakkersreie
bakkery
bakkn
bakste
bakt
bakteerje
baku
bal
balaban
balaenoptera
baldr
baldzo
baleoarn
bali
balie
baljuw
baljuws
balkan
balkanschiereiland
ball
ballad
ballade
ballades
ballan
balle
ballegeer
ballesjiere
ballet
balliengschap
ballingschap
balliol
balloade
balsamea
balsamifera
balta
balthazar
baltica
baltisch
baltische
bambeke
bamberg
bamboe
ban
banana
banann
bananne
band
bande
bandleedn
bandn
bandoneonapart
bandoneong
bands
bane
bang
bange
bangkok
bangladesh
bank
bankbrieftjes
banken
banket
bankier
bankiers
bankn
bankroet
banks
baptist
baptiste
baptistkerke
bar
barack
barakke
barbara
barbariesche
barbarossa
barbatus
barbe
barberini
barberino
barbier
barbry
barcelona
barco
bardata
bardi
barge
bari
bariseele
bark
barker
barman
barnes
barney
barok
barokcomponist
barokcompositeur
barokke
barokkerke
barokschilder
barokstyl
baron
baronesse
barong
barraca
barragges
barranquilla
barredo
barrens
barrie
barrier
barry
barst
bart
barthe
bartholomeus
bartholomeuskerke
bartoli
bartolomeo
barœul
bas
base
based
basel
basen
basenpoar
basenpoarn
basgitaar
basgitare
basgitoar
basilica
basilicata
basilicoale
basilicum
basilieke
basiliekn
basis
basisch
basise
basket
basketball
basketclub
basketcompetitie
basketploeg
basketspeelster
basketspeler
basketter
baskettn
basketveld
baskisch
baskische
baskn
basknland
bass
basse
bassin
bassing
bassist
basso
basten
bastenoakn
bastien
bastille
bastoard
bastoardzeune
bat
bataille
bateman
bator
batselier
battaklang
battern
battista
battle
bauvin
bavette
bavik
bavikhove
bavo
bavokerke
bay
bayer
bayerische
bayern
bayeux
bayley
bazatse
bazel
bazerong
baziel
bazilieke
bb
bbc
bbox
bc
bdo
bdth
be
beach
beagle
bear
beast
beat
beatles
beatrice
beatrix
beatrys
beaucamps
beauclerc
beaufort
beaufortschoale
beaulieu
beaumont
beauregard
beautiful
beauty
beauvais
beauvoorde
beaux
bebouwd
bebouwde
bebouwienge
bebust
bebuste
bec
because
beck
beckaert
becker
becque
becue
bed
bedacht
bedankn
bedde
beddeze
beddienge
bedekkn
bedekt
bedekte
bedektzoadign
bedert
bedevoart
bedevoartsplekke
bedford
bediende
bedje
bedoeld
bedoelieng
bedoelienge
bedoeling
bedoelinge
bedoeln
bedorvn
bedr
bedrag
bedre
bedreigd
bedreigde
bedreigienge
bedreigiengn
bedreign
bedreygd
bedrijf
bedrijven
bedroagn
bedroagt
bedryf
bedryven
bedryvn
bedtime
bee
beech
beejker
beekn
beekre
beeksjes
beeld
beelden
beeldende
beeldhouwer
beeldhouwers
beeldhouwkunst
beeldhouwwerk
beeldhouwwerkn
beeldje
beeldn
beeldngroep
beeldnstorm
beeldouwer
beeldouwers
beeldouwkunste
beeldowre
beeldt
been
beenn
beentje
beer
beernaert
beernem
beers
beerschot
bees
beest
beeste
beesten
beestjes
beestn
beet
beetje
beetre
beevre
bef
beffroi
befoamd
befoamde
before
bege
begeleid
begeleidienge
begeleidinge
begeleyd
begga
begin
beginn
beginnen
beginning
begint
begoan
begoest
begoestn
begon
begonn
begonnen
begost
begoste
begosten
begostn
begraavienge
begraavn
begraven
begrensd
begrenzienge
begrip
begro
begroafplekke
begroafplekkn
begroaven
begroavienge
begroavn
begroeid
begroeiienge
begun
begund
begunjoarn
begunn
begunnen
begunperiode
begunt
begust
beguste
begustn
begynhof
begynhoovn
begynof
behalve
behandeld
behandelienge
behe
beheer
beheerd
beho
behoald
behoefte
beholve
behoort
behun
behunn
bei
beiaard
beide
beier
beieren
beiern
beiers
beiersche
beige
beijoard
beikn
beille
being
beioard
beir
beire
beirn
beirnem
beirst
beirtns
beirut
beisbroek
beisn
beist
beistn
beitem
bek
bekaert
beke
bekeek
bekeekn
bekegem
bekend
bekende
bekendeid
bekendheid
bekendn
bekendst
bekendste
bekendsten
bekendstn
bekendstoan
bekendstoat
bekenn
bekenste
beker
bekers
bekerwinnoars
bekken
bekkn
bekkns
bekle
beklemmienge
beklid
beklimmienge
beklommn
beknopt
bekommn
bekro
bekykn
bekykt
bel
belachelik
beland
belang
belangn
belangrik
belangrike
belangrikke
belangrikst
belangrikste
belangryk
belangryke
belangryker
belangrykn
belangrykste
belangrykstn
belangstellienge
belank
belankrykste
belanryk
belast
belastienge
belastiengn
belcanto
bele
beleefde
beleegerd
beleegerienge
beleg
belegerd
belegerde
belegerienge
beleid
belet
belettn
belfast
belfort
belfortn
belg
belga
belgae
belge
belgen
belges
belgian
belgica
belgicus
belgie
belgique
belgisch
belgische
belgischen
belgischn
belgium
belgje
belgn
belgrado
belgs
belgsche
believe
belize
bell
bellay
belle
bellegem
bellewaerde
bellini
belln
bello
belluno
belo
belofte
beloftn
beloofd
beloofde
beloofdn
belooft
beloovn
below
bels
belspellekes
belt
bemachtign
bemannienge
bemanniengsleedn
bembo
bemoeilikt
ben
benaminge
benauwd
benbow
bende
bendes
bendn
bene
benedicta
benedictus
benedictynsche
benee
beneed
beneedn
beneen
beneixama
benelux
benen
bengal
benin
bening
benito
benjamin
benne
benny
benoade
benoaderienge
benoadrienge
benoamieng
benoamienge
benoamiengn
benoaminge
benoemd
benoemde
benoemdeg
benoemienge
benoeminge
benoemn
benoemt
benoi
benoit
benouwd
benowd
benrather
benratherlinie
benson
bent
benton
benvenuto
beo
beowulf
bepaald
bepaalde
bepeisd
beperkiengn
beperkn
beperkt
beperkte
beplant
bepoald
bepoalde
bepoaldn
bepoalienge
bepoaln
bepoalt
berbers
berbersch
berbersche
berchem
bere
bereidn
bereik
bereikboar
bereikn
bereikt
bereikte
berekend
berekenn
berengar
berg
bergachtig
bergachtige
bergbusschn
bergen
bergerac
bergh
berghe
berghes
bergkeetn
bergkeetns
bergklassement
bergmeuln
bergn
bergof
bergpas
bergrede
bergrit
bergstreekn
bergtoppn
bergues
bericht
berichtn
bering
berk
berkachtign
berke
berkebloarn
berkel
berkeley
berkem
berkeschusse
berklo
berkn
berkshire
berkyn
berlin
berlyn
bern
bernanchon
bernard
bernardo
bernardus
berner
bernhard
bernini
beroemd
beroemde
beroemdste
beroep
beroepsschool
beroerte
beroertn
berouw
berry
berse
bert
berteele
bertelo
bertha
bertin
bertje
bertn
bertrada
bertulf
bertynsabdye
berucht
beruchte
beryllium
bes
besanc
beschaafd
beschamd
bescheidn
beschermd
beschermde
beschermen
beschermer
beschermhillign
beschermienge
bescherming
bescherminge
beschermn
beschermt
beschikboar
beschikkienge
beschikt
beschilderd
beschilderienge
beschoadigd
beschoadign
beschoavienge
beschoaviengn
beschootn
beschouwd
beschowd
beschre
beschreef
beschreeft
beschreevn
beschryft
beschryvienge
beschryviengn
beschryvn
beschuldigd
beschut
beschutte
beschuttienge
besef
beseffn
beseft
besefte
beseloare
beslag
beslissende
beslissienge
beslissinge
beslissn
beslist
besliste
beslistn
beslo
besloa
besloan
besloat
besloeg
besloot
beslootn
besluut
besmet
bespeeld
bespoarn
bespreekiengn
besprekiengn
besprookn
besse
bessn
best
besta
bestaan
bestaande
bestand
bestandde
bestandn
beste
bestemd
bestemmienge
bestemmiengn
besten
besteur
besteurd
besteurder
besteuriengssyste
besteurlik
besteurlikke
besteurlyk
besteurn
besteursniveau
bestid
bestier
bestierd
bestierder
bestierdre
bestiern
bestierslid
bestn
bestoa
bestoan
bestoand
bestoande
bestoat
bestoatr
bestoeg
bestoend
bestond
bestormienge
bestormn
bestound
bestoundn
bestraft
bestrydienge
bestseller
bestu
bestudeerd
bestudeerde
bestudeern
bestudeert
bestuur
bestuurd
bestuurder
bestuurlikke
bestuuvienge
bestverkochte
bestygt
bet
beta
bete
betekende
betekenis
betekenisse
betekent
betelgeuze
beter
betere
bethlehem
bethune
betikketakt
betje
beto
betoald
betoalde
betoaln
betogiengn
betong
betongstoal
betoogiengn
betreffend
betreffende
betreft
betrekkienge
betrekkiengn
betrekklik
betroapn
betrokkn
bette
better
bettini
betty
betula
betulaceae
between
betwist
betwistte
beu
beukachtign
beuke
beukeboomn
beukebusschn
beukn
beuningen
beurgeme
beurs
beurse
beurt
beurze
beurzn
beuter
beuterslekke
beuterstroate
beuvry
beuze
bevat
bevatte
bevattn
beveilign
bevel
beveland
bever
bevere
beveren
bevergem
beverhoutsveld
bevern
bevers
bevestigd
bevestigde
bevestigdn
bevestigen
bevestigienge
bevestign
beviendt
beviengn
bevindt
bevo
bevoarboar
bevoarboare
bevoarn
bevoegd
bevoegdeedn
bevoegdheedn
bevolkieng
bevolkienge
bevolkiengsdichtheid
bevolkiengsgroepn
bevolkinge
bevolkt
bevolkte
bevolkynge
bevoorbeeld
bevorderde
bevorderienge
bevordering
bevordern
bevordrn
bevriend
bevriest
bevroozn
bevrucht
bevruchte
bevruchtienge
bevryd
bevrydienge
bevryen
bewaard
bewe
beweegienge
beweegn
beweegt
beweezn
bewegieng
bewegienge
bewegiengn
beweging
beweginge
beweird
beweirde
beweirn
beweirt
bewerkienge
bewerkiengn
bewerkn
bewerkt
beweund
beweunde
beweuner
beweuners
beweunienge
bewiend
bewind
bewoakn
bewoard
bewoarde
bewoarienge
bewoarn
bewoart
bewoogn
bewust
bewuste
bewustzyn
bewys
bewyst
bewyzen
bewyzn
beyern
beyers
beyersche
beyond
bezat
beze
bezeetn
bezet
bezette
bezetter
bezetters
bezettienge
bezettinge
bezettn
bezichtign
bezie
bezien
beziensweirdigeedn
beziensweirdigheed
beziensweirdigheedn
bezienswoardigeedn
bezienswoardigheden
bezienswoardigheedn
bezig
bezige
bezigoudt
bezirke
bezit
bezittiengn
bezittn
bezocht
bezoek
bezoekers
bezoekerscentrum
bezoekn
bezoekt
bezounder
bhurja
bhutan
bi
bibi
bible
bibliografie
biblioteca
biblioteke
bibliothe
bibliotheek
bibliotheke
bicci
bid
biddn
bie
biechtstoel
biechtstoeln
biedn
biedt
biee
biekans
bieke
biekorf
bielefeld
bien
biendienge
biendn
bier
bieren
biern
bierso
biervliet
biesbosch
bieskoajr
bievo
biezn
biezoendre
biezong
big
biggekerke
biggest
bij
bijna
bijnaam
bijous
bijvoorbeeld
bikan
bikkans
bikkansn
bikke
bikscho
bikschote
bilbao
bild
bilder
bilingual
bilk
bill
billie
billy
bin
binair
binaire
binche
bindienge
bindn
bing
bingen
binn
binne
binnekant
binneland
binnen
binnenin
binnenkant
binnenland
binnenstad
binnenste
binnestad
binnkant
binnkomt
binnland
binnreien
binnstad
binnste
binomio
binst
bio
biobi
biochemie
biodiversiteit
biodiversity
biodiversityt
biogeography
biogeogroafiesche
biografie
biography
biological
biologie
biologisch
biologische
biology
bioloog
bioloogiesch
bioloogiesche
bioloogn
bioluminescentie
biomassa
bioom
bioomn
biosfe
biosfeer
biotechnologie
biotoopn
birch
bird
birger
birma
birmingham
birth
bis
bisch
bische
bisdom
bisdommn
bishop
biskaje
biskop
biskoppn
bismarck
bison
bisschop
bisschoppn
bissegem
bissen
bissezele
bissn
bist
bistn
bistu
bit
bite
bitje
bits
bitter
bittere
bittre
bivalvia
bivinus
bizar
bizong
bizongs
bizzig
bjarne
bjo
bjorn
bk
black
blackburn
blackpool
blad
blade
bladelin
bladje
bladjes
bladjie
bladkevers
bladluuzn
bladvollige
bladzyde
blagoai
blake
blanc
blanca
blancefloer
blanche
blanckaert
blandain
blank
blanke
blankenberge
blankenberghe
blankenbergs
blankenbergsche
blankenbergse
blankenesse
blanknberge
blanknbergenoars
blanknbergs
blanknbergsche
blankoart
blasiuskerke
blason
blaute
blauw
blauwe
blauwer
blauwers
blauwn
blaze
ble
bleeding
bleef
bleeft
bleek
bleekt
bleevn
blegny
bleine
bleitn
blek
blekker
blekstjie
blekstjies
blend
blende
blendn
blessures
bleu
bleven
blica
blick
blienker
blienkn
blienknde
blijven
blik
bliksem
blind
blink
blinken
blitzkrieg
blo
bloadn
bloaren
bloaringem
bloarn
bloars
bloasinstrument
bloast
bloazn
block
bloebleine
bloed
bloedbasiliek
bloedbasilieke
bloedige
bloedkapelle
bloedprocessie
bloedroad
bloedverwantschap
bloedvienke
bloedvienkn
bloedvoatn
bloedvynke
bloei
bloeide
bloeiende
bloein
bloeinde
bloeiperiode
bloeit
bloelienk
bloem
bloeme
bloemen
bloemlezieng
bloemlezing
bloemmeulns
bloemn
bloewost
blog
blois
blok
blokkeern
blokkn
blokkoade
blokkoage
bloksjes
blom
blomfield
blomko
blomme
blommebeist
blommeplantn
blommetjes
blommn
blomn
blond
blonde
blondeau
blondeel
blondel
blondelle
blontrock
blood
bloodthirst
bloody
bloom
bloot
blootland
bloso
blote
bloumn
blound
blow
blowe
blue
blues
blueszanger
bluft
blusscher
bluuf
bluuft
bluuv
bluuvn
bluuvnd
bluuvnde
bluven
bluyvn
bly
blyde
blydhove
blye
blykboar
blykt
blz
bmc
bn
bo
boafs
boai
boaie
boain
boaj
boaje
boalsm
boan
boane
boaneberg
boann
board
boardegem
boarmoeder
boarn
boas
boasepoarienge
boasis
boasn
boasson
boavekove
boavinkove
boazies
boazisse
boazn
bob
bobbejaan
bobbie
bobby
boccaccio
bocht
bochtn
bockor
bod
bode
bodem
bodems
body
boe
boeck
boeckstuyns
boeda
boedapest
boee
boeijen
boeing
boek
boekarest
boeken
boekenleeuw
boekenpauw
boekenpluim
boekenwelp
boekery
boekhandel
boekillustrateur
boekn
boeknneutn
boeksje
boeksjes
boekskes
boekstjes
boekvorm
boel
boend
boendje
boendskanselier
boent
boente
boer
boerderie
boerdery
boerderye
boerderyen
boerebuutn
boeredichtre
boeredorp
boeren
boerenipstand
boerhof
boern
boeschepe
boeschepeberg
boete
boeve
boeveriestroate
boeynants
boezegem
boezienge
boezinge
bofartikel
boffn
bogaert
bogd
boge
bogota
bohe
boheemers
boheemn
boheems
boheemsche
boheemschn
boi
boijmans
bois
bokken
bokser
boksers
bokseur
boksn
bokst
bol
bolder
bolderberg
boleslaus
boleyn
bolivie
bolke
bolle
bolleke
bolletje
bolletjes
bollezele
bolln
bolloard
boloard
boloards
bologna
bolvormig
bolvormige
bolwerk
bolzano
bom
bomanslag
bombardeern
bombardement
bombardementn
bombus
bombyx
bomen
bomme
bommesmytrs
bommn
bon
bonaire
bonaparte
bonasus
bonaventura
bond
bondscoach
bondue
bonduwe
bonen
bonifacio
bonifacius
bonifatius
bonjour
bonn
bonne
bonneure
bonobo
bonus
boo
boodschap
boodt
booe
boog
booge
boogie
boogn
boogschutters
boogvulder
booitshoeke
book
books
boom
boomgrenze
boomn
boomso
boomstoet
boomvalke
boon
boone
boonen
boord
boot
bootje
boovn
boovndien
boovngenoamde
boovnip
boovnkant
boovnlope
boovnluchtn
boovnste
bor
borcht
bord
bordeaux
border
bordeure
bordjes
boreal
borealis
boreoal
boreoale
borgerhout
borges
borghese
borgia
borgloon
borgo
borinage
boris
borle
born
borneo
bornholm
borobudur
borough
boroughs
borre
borromini
borst
borstbeeld
borstel
borsten
borststik
bortolo
borussia
bos
bosbow
bosch
boschvogel
bosco
boskeun
bosman
bosmanarrest
bosnie
bosnisch
boso
bosoniedn
bosporus
boss
bossche
bossen
bossn
bossut
bossuut
bossuyt
bost
bostn
bostoen
boston
bot
botanic
botanical
botanicus
botaniekn
botanische
botany
boter
both
botnische
botsienge
botsn
botst
botte
bottel
botticelli
bottn
bottom
bouchard
boucher
bouches
bouckaert
boudewijn
boudewyn
boudewynkanoal
boudry
bouet
boufflers
bouillon
boule
boules
boulevard
boulogne
bound
boundgeno
boundgenootn
boundn
bourbon
bourbourg
bourel
bourg
bourgeois
bourgeoisie
bourges
bourghelles
bourgogne
bourgondie
bourgondisch
bourgondische
bourgondischn
bourse
bouscat
bousignies
boutros
bouts
bouvier
bouvignies
bouvines
bouw
bouwde
bouwdige
bouwdn
bouwen
bouwer
bouwkunde
bouwkundig
bouwkunste
bouwman
bouwme
bouwn
bouwste
bouwstyl
bouwt
bouwwerk
bouwwerkn
bov
bovekerke
boven
bovendien
bovenkant
bovenste
bovidae
boviengn
bow
bowde
bowie
bown
box
boxing
boy
boys
bozen
bp
br
braaf
braakn
brabandere
brabant
brabants
brabantsche
brabantschn
brabantse
bracht
bradley
braeckevelt
brahim
brail
braille
brailleschrift
braine
brak
brakt
bram
branche
brand
brandbleine
brandblusscher
brandde
brande
branden
brandenburg
brandn
brandpuntn
brandstoapel
brandstoffe
brandt
brangwyn
brasserie
brassica
brassicaceae
bratislava
braun
braunschweig
brave
bravo
bray
brazilie
brazilioansche
brazilioanschn
bre
break
breathless
breda
bredene
brederode
bree
breed
breekn
breidde
breidelstroate
breidn
brein
breinienge
breken
brel
bremen
bremer
brems
brenda
brera
brescia
breskens
brest
bretagne
bretislaus
bretoenn
bretoens
bretoensche
breucq
breugel
breuke
breukelen
breukn
brevifolia
brexit
breydel
breydelstadion
breydelstadiong
breyne
brezhoneg
brian
brice
bridge
bridte
brie
brief
briefe
briefwechsel
briefwisslienge
briek
briekn
briel
brielle
brieln
brien
briengen
briengn
briengt
brieven
brievenbus
brievn
brigade
brigand
brigge
brighton
brigitte
brigoade
brikt
bril
brill
brillon
brindisi
bring
bringn
bringt
brise
brisighella
bristol
bristolkanoal
bristow
britain
britannica
britannicus
british
britney
brits
britsch
britsche
britschn
britse
brittanie
brittanje
brittannie
britten
brittn
brixton
brno
bro
broabant
broabantgouwe
broabants
broabantsche
broabantschn
broabantse
broadleaf
broadway
broakn
broambeier
broamberg
broave
broca
brocht
brochte
brochten
brochtn
broeck
broeder
broederlam
broedn
broedt
broeikaseffect
broek
broekburg
broekburgvoart
broekkerke
broekn
broeltoorns
broen
broenzn
broere
broers
broertje
broken
brokke
brokkn
broksele
brol
brommer
brommers
bron
bronn
bronne
bronnen
bronnn
brons
bronte
bronzen
bronzino
bronzn
brood
brooklyn
brossano
brother
brothers
brouchoven
brouckerque
broun
brounne
brouns
brounstyd
brounzn
brouwer
brouwereye
brouwerie
brouwerij
brouwers
brouwery
brouwerye
brouweryn
brouwn
browery
brown
brt
brtn
bru
bruce
bruegel
brueghel
brug
brugensis
brugeoise
bruges
brugge
bruggeliengen
bruggeliengn
bruggelienk
bruggen
brugghe
bruggn
brugs
brugsch
brugsche
brugschn
brugse
bruin
bruine
brulez
brullen
brun
bruna
brune
brunehaut
brunehautse
brunei
brunelleschi
brunetto
brunhilde
bruno
brunswick
brunswyk
brussel
brusselmans
brusseloars
brussels
brusselsche
brusselschn
brusselse
brussl
brussle
brutoal
bruukboar
bruun
bruunachtig
bruune
bruunn
bruxelles
bruyelle
bruyn
bruyne
bruyneel
bruynooghe
brydevinvis
bryggen
brythonisch
brønsted
bs
bsd
bt
bu
bubo
buccinum
buch
bucht
buckingham
bucquoy
buda
budapest
budel
budelbe
budelrattn
budget
buenos
buerse
buffalo
buffel
buffels
buffon
bufo
bufonidae
bug
bugno
bui
buildings
buiten
buitenwijk
buk
bulckaen
bulgan
bulgareye
bulgoarn
bulgoars
bull
bulle
bulletin
bulls
buls
bulskamp
bulskampveld
bulte
bultn
bun
bundel
bundels
bundesland
bundle
bunker
bunkers
buonarroti
burchard
burcht
burchte
burchtn
bureau
burg
burgeme
burgemee
burgemeester
burgenland
burger
burgerie
burgerlik
burgerlikke
burgerlyk
burgerlyke
burgero
burgeroorloge
burgers
burgery
burgerye
burggroaf
burggroafschap
burggroafschappn
burggroave
burgos
burgro
burin
burkina
burning
burns
burr
burrus
bursa
burton
burundi
bus
busbeke
busbrand
busbrandn
buscemi
busgebied
bush
business
busje
buskruut
busnes
busnois
bussche
busschen
busschn
busseboom
busseboomn
bussn
buste
bustel
bustels
bustik
bustls
busveugle
but
butchered
buten
butenkant
butenland
butenlandse
butenspel
butenste
buteo
butstekker
butstekkers
butte
butter
butterflies
butterfly
buue
buugn
buugt
buuk
buurgeme
buurgemeenten
buurgemeentn
buurt
buurtn
buurtschap
buus
buusscheure
buut
buuten
buutenste
buutn
buutngebied
buutngeweun
buutngeweune
buutnkant
buutnland
buutnlanders
buutnlandsche
buutnlandse
buutnlansche
buutnmeurn
buutnste
buutnverbluuf
buuze
buuzerds
buuzn
buxus
buy
buyse
buysse
buytn
buyze
buze
buzze
bv
bvb
bw
bwv
by
bybel
bybelsche
byble
bydraagn
bydroage
bydroagn
bye
byen
bygebouwd
bygekommn
bygeleegn
bygenoamd
bygestoan
bygevo
bygevoegd
bygezet
bykan
bykans
bykommnde
bylange
byle
byligg
byln
byloage
byn
byna
byname
bynoame
bynoamn
byrolle
byron
byst
bytn
byttebier
byval
byvo
byvol
byvoorbeeld
byzantium
byzantyns
byzantynsche
byzoendr
byzoendre
byzounder
byzoundere
c
ca
cabaret
cabaretier
cacao
cache
cadeau
cadeaus
cadel
cadzand
caecotrofie
caelifera
caen
caenegem
caerulea
caeruleus
caesar
caestre
cafaggiolo
cafe
cafeetje
cafetaria
cafmeyer
cai
caisse
calabria
calabrie
calais
calamita
calcio
calcium
cale
caledonie
cali
calidris
california
californie
californische
caligula
calixtus
call
callebert
callens
callewaert
callitris
callitropsis
calloigne
calocedrus
calonne
calpurnius
caltabellotta
caltagirone
caltanissetta
caluwe
calvados
calvin
calving
calvinisme
calvinistische
calvinistn
calzati
cam
cambodja
cambrai
cambridge
cambridgeshire
cambrium
cambyses
camden
camelidae
camelus
camera
cameron
camiel
camille
camionetjes
camionette
camiong
cammarata
camp
campagne
campanie
campanile
campbell
camphin
campin
camping
campo
campus
can
canada
canadees
canadeesche
canadeeschn
canadeezn
canadensis
canadese
canadian
canal
canarische
cancellara
cancer
candela
cane
canelle
cangrande
canidae
canis
cannes
cannibal
canongs
canorus
cantate
cantates
canterbury
cantiliter
cantimeiter
cantimeiters
cantimeter
cantmeiter
canvas
canyon
caoutchou
caoutchouc
cap
capaciteit
cape
capensis
capet
capetiengers
capitool
capoen
cappaert
cappel
cappelle
capreolus
caprica
caprifoliaceae
caps
car
cara
caracal
caracara
carai
caravaggio
carbo
carbon
carbong
carcinus
cardiff
cardijn
cardozo
carduelis
carels
carembault
carex
cargo
caribbean
caribou
caritate
carl
carlier
carlisle
carll
carlo
carlos
carme
carmen
carnaval
carnin
carnivora
carol
carolina
caroline
carolus
caron
carpenters
carpentier
carre
carrefour
carrie
carson
cartagena
cartel
carter
carteus
carthago
cartograaf
cartogroaf
cartoon
cartoonfestival
cartoonist
cartoons
cartuloarium
carvin
caryophyllales
cas
casa
casablanca
casar
cascade
case
cash
casier
casimir
casino
casper
cassel
cassius
cassoasje
castanea
casteelmeulen
castel
castelli
castello
castellum
castilie
castillo
castle
castor
castors
castro
castrum
cat
catala
catalana
cataldo
cataloans
cataloansche
cataloanse
catalonie
catalunya
catania
categorie
categoriee
category
caterina
cath
catharina
catharinakerke
cathe
cathedral
catherine
catholic
cato
catone
cats
cattedrale
cauberg
caudatus
causa
causanti
causes
cauwelaert
cavalerie
cavani
cavendish
cavia
caviomorpha
cb
cbs
cc
cd
cda
cdh
cdot
cds
cdu
ce
ceaus
cecile
cecilia
cedar
cedrus
ceedre
ceedrs
cefalu
cel
celbiologie
celio
celkern
celle
cellini
cellist
celln
cello
celn
celsius
celstoffe
celtic
celvorm
celwand
cemetery
cens
censerie
cent
centauren
center
centiemn
centime
centimeter
centra
centraal
central
centrale
centre
centriool
centro
centroal
centroalbouw
centroale
centrum
century
ceo
cephalopoda
cephei
cerci
cercle
ceremonie
ceremonieel
ceres
certain
certaldo
cervantes
cerve
cervus
ces
cesar
cetacea
cetartiodactyla
ceulemans
ceuta
ceylon
cf
cfr
ch
cha
chaco
chalkis
chalon
chamaecyparis
chambrang
chambre
chameleon
champagne
champaigne
champion
champions
championship
champs
chance
chang
changdeokgung
change
channel
chanoux
chanson
chansons
chant
chantal
chantrell
chaos
chaparral
chapel
chapelle
chapin
chaplin
chapment
chappement
chapter
charcuterie
chardin
charente
charentes
charleroi
charles
charlie
charlier
charlotte
charlton
charme
charmed
charolais
charon
charteau
charter
chartres
chase
chateau
chateauroux
chatterdo
chaucer
chauffeur
chavanel
chce
che
cheap
check
checklist
cheek
chef
chelsea
chemie
chemisch
chemische
chemnitz
chemy
chen
cheng
cher
chercq
ches
cheshire
chester
chevalier
chez
chi
chic
chicago
chicane
chicong
chicongs
chicoreie
chief
chielens
chieneesche
chiesa
chieti
chigi
chihuahua
child
childebert
childeric
childerik
children
chile
chileensche
chili
chilperik
chimay
chimpansees
chin
china
chinees
chineesche
chineeschn
chineezn
chinensis
chinese
chiny
chique
chiro
chiron
chiroptera
chirurg
chirurgyn
chlamydogobius
chlein
chlodomer
chloris
chloroplast
chloroplastn
chlotarius
chlotharius
cho
choco
chocola
chocolade
chocolate
choice
choirokoitia
choluim
chondrichthyes
chopin
chopping
chordabe
chordadier
choreogroaf
chr
chre
chris
christ
christchurch
christelijk
christelijke
christelik
christelike
christelikke
christelyke
christen
christendom
christenen
christenn
christiaan
christian
christina
christine
christlich
christmas
christn
christndom
christnn
christoffel
christoffelkerke
christoph
christophe
christophekerke
christopher
christus
christy
chroicocephalus
chromosoom
chromosoomn
chronologie
chronologische
chroom
chrysaetos
cht
chuck
church
churchill
chyler
chyugh
cia
ciampino
ciccone
cicero
cichorium
cider
cie
cifers
cilinder
cilou
cimetie
cina
cineast
cinelli
cinema
cinerea
ciney
cingulata
cinnamomum
cinq
cinquantenaire
circa
circle
circuit
circuits
circumscription
circus
cirkel
cirkels
cirkelvormig
cirkelvormige
cirque
cisalpina
cisjuranie
cistercie
cit
citadel
citadelle
cite
citroen
citrus
citta
city
civiele
civil
civitas
civitella
cj
ck
cke
cken
cl
clade
claeissens
claere
claerhout
claes
claeys
claeyssens
clair
claire
clairmarais
clairvaux
clan
clara
clare
clarence
clarice
claris
clarissa
clark
class
classic
classicisme
classicistisch
classicistische
classics
classification
classificoasje
classificoatie
classifikoatie
claude
claudel
claudia
claudius
claus
clauwaert
clav
clay
clayton
cle
clean
clematis
clemens
clemenskerke
clement
clementia
cleopatra
clerck
clercq
cleremeersch
clermont
clerus
cleveland
cleveleys
cliff
clifton
clijsters
climate
clinckemaillie
clint
clinton
clip
clips
clitellata
clito
clive
cloaca
cloacabe
clocher
clock
cloedt
clos
close
clothilde
cloud
clouseau
clovis
clown
club
clubs
cluse
clyde
cm
cneut
cnt
co
coach
coaliesje
coalitie
coat
cobra
cobrieux
coburg
coca
cocai
coccothraustes
cock
cockerill
cocktail
cocktails
coconne
code
codex
codons
coecke
coene
coens
coeur
cofidis
cogge
cohen
col
cola
cold
cole
colens
colette
coligny
colin
coll
collaboroasje
colle
collecsje
collectie
collectief
collecties
collection
collega
college
collegiata
collegioale
collepardo
collier
collins
collstrop
colmar
colme
coloeus
colombia
colombus
colonia
colonna
color
colorado
coloradokever
colors
colosseum
columba
columbia
columbus
columnist
com
coma
comarca
combined
combineern
combinoasje
combinoasjes
combinoatie
combinoaties
come
comeback
comedy
comes
comet
comines
comite
comitoat
commandant
commande
commandeerde
commanderye
commandeur
commando
commedia
commentaar
commentary
commentoar
commerc
commercant
commercantn
commerce
commercial
commercie
commercieel
commersantn
commisje
commissie
commission
commissoaris
commodo
common
commons
commonwealth
commotie
communal
commune
communes
communiceern
communicoasje
communicoatie
communie
communis
communisme
communistische
como
comoorn
compact
compagnie
companie
companion
company
compassie
compatri
compensoasje
compernolle
competiesche
competiesje
competitie
competities
compie
comple
compleet
complete
complex
complexe
complit
complot
componeerde
componeern
componist
componiste
componistn
composeert
composiesjes
compositeur
compositeurs
compositie
composities
compromis
compte
computer
computers
computerspel
comte
comtesse
comunale
comune
comyn
con
conan
concacaf
conce
concentreern
concentroasje
concentroatie
concentroaties
concepcio
concept
concert
concerten
concertgebouw
concertina
concertn
concerto
concerts
concertzoale
concie
concilie
concise
concolor
concorde
concordoat
concours
concreet
concubine
concurrense
concurrensje
concurrent
concurrentie
concurrentn
conde
conditions
cones
confederoasje
conference
conferensje
confessions
confiteure
conflict
conflictn
confucius
conge
congo
congolezen
congres
congress
congressn
conifer
conifers
coninck
conne
connecticut
conrad
conscience
conservateur
conservatief
conservatieve
conservation
conservator
conservatorium
considered
console
constance
constant
constante
constantin
constantinopel
constantyn
constitutione
constitutionele
constructie
constructies
constructiestoal
construksje
consul
consuloat
contact
contactn
contador
contains
content
contes
conteville
context
contexte
conti
continent
continental
continentn
continentoal
continentoale
continu
contorta
contra
contrabas
contract
contrareformoasje
contrast
control
controle
controleern
controlle
controverse
controversie
controversieel
controversje
convergente
convivio
coo
cook
cools
cooper
coopman
coor
coorevits
copa
copernicus
copies
coppens
copper
copperfield
coppi
coppieters
copy
copying
copyright
corax
corbaccio
corbie
corbula
cordier
cordillera
core
coriandrum
corinthische
cork
corneille
cornelia
cornelis
cornelius
corner
corners
cornet
cornichong
cornil
cornisch
cornish
cornus
cornwall
corolla
corona
coronavirus
corone
corporation
corps
corpse
corpsegrinder
corpus
correa
correggio
correspondent
corridoio
corridor
corsica
corsicoans
cort
corte
cortona
corvidae
corvus
cos
cosimo
cosmos
costa
coster
cot
cote
cotswolds
cottage
coturnix
couche
coudekerque
could
coulomb
council
count
counties
country
county
coupe
couperin
coupeure
coupure
courage
courageus
courant
courante
coureur
coureurs
couroage
cours
court
courtenay
courtois
coussemaker
coutteure
cover
covers
covid
cowboy
cowboys
cowper
cox
coxyde
coyote
crabbe
craemer
craenenburg
crangon
crash
crassipes
crayong
crazy
cre
creatief
creation
creative
cree
crevits
crick
cricket
crimineel
criminele
criquielion
crisis
cristal
criterium
critical
critici
cro
croce
croix
crombe
crombez
cromwell
cronquist
crop
cropped
cross
crossing
crown
croy
cru
crustacea
cruydeboeck
cruz
cry
crypte
cryptocentrus
cryptomeria
cs
csc
csi
csp
ct
cu
cuba
cuculus
cucurbitales
culinair
culteur
culteure
cultural
culture
cultureel
culturele
cultustempels
cultuur
cultuurlandschap
cultuurn
cultuurroad
cum
cumbria
cuminum
cunego
cunigonde
cuore
cup
cupido
cupressaceae
cupressus
cura
curac
cure
curiosamuseum
curitiba
current
cursus
cursussen
curthose
curtis
curtmantle
cuspidata
cvp
cwgc
cy
cyanistes
cyclassics
cycling
cyclocross
cyclocrosser
cyclus
cyclussn
cyfer
cyfers
cylinder
cylons
cyminum
cypresachtign
cypress
cypresse
cypressn
cyprus
cyr
cyriel
cyrillisch
cysoing
cytoplasma
cz
d
da
daagn
daan
daar
daarin
daarmee
daarna
daarom
dad
dadde
dadipark
dadizele
daens
daer
daf
dag
dagboek
dagelijks
dageliks
dagen
dagobert
dahl
dahoeriesche
dahurica
daily
daj
daje
dajje
dak
dakpann
dal
dale
dali
dall
dalle
dam
damascus
dame
dames
damiano
damme
damon
damp
dampierre
dampierres
dampo
damsche
damschen
damse
damselflies
dan
dance
dancing
dander
danico
danie
daniel
daniele
dank
dankn
dankt
dankzij
dankzy
danneels
danni
danny
dans
dansen
danser
dansercoer
danseresse
dansn
danst
dante
dantzig
dany
danza
danze
daoeriesche
daphne
dar
dardanelln
dark
darline
darlington
dart
darters
darts
darwin
darwinisme
darwish
das
dasse
dassn
dat
data
database
date
dateern
dateert
dateformat
daterienge
datje
datn
datr
datte
datter
dattie
datum
daucus
dauphin
dauphine
dauw
dave
david
davide
davidsfonds
davidsfondsprys
davis
davitamon
davy
dawkins
dawn
dawson
day
days
daz
daze
dazelfde
dazelfste
dazze
dbnl
dc
dd
ddr
de
dead
deal
dean
dear
death
deathmetalband
deauville
debat
deboosere
deborah
debrabandere
debrauwer
deburghgraeve
debuteerde
debuut
debuutalbum
dec
decade
decaluwe
decameron
decamerone
decapoda
december
decembre
decemlineata
decennia
decennium
decidua
decimoal
decleir
declerck
declercq
deco
deconinck
decor
decorateur
decoratief
decoratieve
decoreern
decoroasje
decreet
dede
dedecker
dedee
dedeeze
dedications
dedie
dedien
dee
deed
deedn
deeglik
deej
deejn
deekn
deel
deelgeme
deelgemeente
deelgemeenten
deelgemeentes
deelgemeentn
deeln
deelnemers
deels
deelstoat
deelstoatn
deeltjes
deen
deenn
deens
deensche
deenschn
deensen
deep
deeper
deerlijk
deeze
deezn
defever
definie
definiesje
definiesjes
definitie
definitief
definitieve
defoort
defraeye
defrancq
deftig
deftige
degelik
degli
degradoasche
degrelle
degryse
dehaene
dehenauw
dei
deicide
deil
deiln
deilstoat
deimos
dein
deinze
deir
deirlik
deirlyk
deisel
deizel
dej
dejaeghere
dejn
dejonghe
dek
deken
dekkn
deksel
del
delavayi
delaware
delbecque
delegoasje
delegorguei
delen
deleu
delfine
delft
delfzeyl
delfzijl
delhi
delicatesse
delichon
delik
delillo
dell
della
delle
delonge
delory
delta
deltawerkn
delvaux
delvoye
delyen
dem
deman
demarreern
demedts
demeester
demer
demeulemeester
demeulenaere
demo
democratie
democratisch
democratische
democroatn
demografische
demol
demosthenes
demuysere
demyttenaere
den
denarius
dendeen
dender
dendermonde
dendien
dendoncker
dendooven
denemarken
denemarkn
denied
denijs
denis
deniskerke
denk
denken
denkend
denmark
denn
denne
dennis
denoe
denoyelle
dentergem
denuwelaere
denver
denys
deorum
departeme
departement
departementn
department
depauw
depoele
depoorter
depoortere
depraetere
depreitere
depressie
depressief
deprez
der
derachter
derachtr
deran
derbie
derby
derbyshire
derde
derden
derdeure
derdn
derekt
derijcke
derin
derip
derlaasn
derm
dermaptera
dermee
derms
dern
derneffest
deroo
derounder
derover
derroend
derround
derteegn
dertien
dertiende
dertiene
dertienjoarige
dertienste
dertig
dertigjoarign
derup
deruut
deruwe
dervan
dervo
dervoorn
derycke
des
desastreus
descamps
descartes
deschampsia
description
descriptions
desert
desiderata
desiderius
design
desimpel
desire
desmarets
desmet
desmit
desmond
desnerck
despriet
desselgem
destrooper
destruction
deswaef
detail
detailbloadn
detailpagina
details
detd
detective
dethroned
detroit
deu
deugd
deugniet
deule
deulemounde
deur
deurbreekn
deurbroake
deurda
deurdan
deurdat
deurde
deurdege
deurdn
deure
deurebreekn
deuregebrookn
deuregegeevn
deuregegoan
deureging
deuregoan
deuregoat
deurelopt
deurgank
deurgoans
deurkruust
deurmeetre
deurn
deurnband
deurne
deursnee
deurt
deurtocht
deurzichtig
deurzoam
deurzoame
deutsche
deutscher
deutsches
deux
development
deventer
devenyns
devil
devlieger
devliegher
devolder
devon
devonshire
devos
devynck
dewael
dewaele
deyle
deyleland
deyster
deze
dezeifste
dezelfde
dezelfste
dezelste
dezelstn
dezen
dezeste
dgroep
di
dia
diagnose
diagnostic
diagram
dialect
dialecten
dialectn
dialekt
diamant
diamantn
diame
diameter
diameters
diamond
diamonds
diana
diarree
dicht
dichtbundel
dichtbundle
dichtby
dichte
dichteby
dichten
dichter
dichteresse
dichters
dichtheid
dichtkunste
dichtn
dichtr
dichtre
dichtresse
dichtrs
dichtst
dichtstbevolkte
dichtste
dichtwerk
dick
dickens
dickinson
dictator
dictionary
dictionnaire
dida
didelphimorphia
didelphis
didier
didius
die
diederik
diedr
diego
diejn
dien
diende
diendn
diene
dienen
dieng
dienge
diengen
diengn
dienk
dienn
diens
dienst
dienstbeurte
dienste
dienstn
dient
diep
diepe
dieper
diepere
dieppe
diepst
diepste
diepte
diepze
dierder
diere
dieren
dierenpark
dieric
dierlikke
dies
diesel
dieselmoteurs
diesendag
diesndag
diest
dieter
dietn
dietrich
diets
dietsch
dietsche
dietz
dieven
dievn
dievoet
diff
difference
different
difterie
dig
digd
dige
digienge
digitaal
digital
digitale
digitoal
digitoale
dijck
dijk
dijon
dijver
dik
dikke
dikkebus
dikkebusvyver
dikkels
dikkens
dikker
dikkers
dikkersn
dikkn
dikkoptjes
dikkrs
diksmude
diksmuide
diksmuude
dikte
dikwils
dikwyls
dillen
dillenburg
dimensionoale
dimitri
din
dinamo
dinant
dinerstein
ding
dinge
dingen
dingn
dinne
dino
dinoflagelloatn
dinosaurie
diocletianus
dionigi
dionysius
dionysos
dionysus
diplom
diplomatieke
diplomoat
diprotodontia
dipsacales
diptera
direct
directe
directeur
direkt
dirigent
dirk
dirt
dirty
discipline
disciplines
disclaimers
disco
discobar
discografie
discovery
discussie
discussies
discuswerpn
discuteern
discuusje
discuusjes
disintegration
disk
diskuusje
disney
disoek
distelvienkn
distribute
distributie
distribution
district
districtn
dit
dite
diva
diverse
diverses
diversiteit
diversity
divina
divine
divisie
divisio
division
dixie
dizze
dj
dje
djeems
dm
dmeer
dn
dna
dnjestr
do
doa
doaboovn
doabuutn
doaby
doad
doader
doadeure
doadn
doage
doageliks
doagelikse
doagelyks
doagen
doagn
doags
doagse
doakn
doalde
doaln
doalt
doame
doamee
doamei
doanaasn
doanig
doanoast
doar
doarachter
doaran
doarbie
doarby
doardeure
doarenteegn
doarin
doarip
doarmee
doarnoa
doarnoast
doarom
doarounder
doarover
doarup
doaruut
doarvan
doarvo
doarvoorn
doateegn
doatum
doavan
doavn
doavo
doavoorn
doavoren
dobhair
doc
doceerde
docent
doch
dochter
dochters
dochtertje
dochtr
dochtre
docteur
doctor
doctoroat
document
documentaire
documentaires
documentation
documenten
documentn
documents
dode
dodeure
dodoens
dodonaei
doe
doedelzak
doeglas
doeglasn
doek
doekn
doel
doelstelliengn
doen
doene
doenieng
doenienge
doenk
doenker
doenkere
doenkrblow
doenkre
does
doest
doet
doffe
dog
doggerbank
doggersbank
dogma
dogs
doherty
doin
dok
dokkn
doksoal
dokter
dokteur
dokteurs
dolce
dolfijntjes
dolfyntjes
dollar
dolle
dolly
dolomietn
dolore
dom
domain
domburg
dome
domee
domein
domeinn
domenico
domestica
domesticus
domin
dominant
dominante
dominee
doming
domingo
dominicoan
dominicoann
dominicoansche
dominicus
dominiek
dominique
domino
domitianus
domme
domo
domus
domyn
don
donaas
donaaskathedroale
donaaskerke
donald
donar
donatello
donati
donatianus
donato
donau
donderdag
done
donegal
dong
donker
donna
donnell
donoas
donoaskateedroale
donoaskerke
donovan
donspluumtjes
doo
dood
doodgegoane
doof
dooie
dooin
doointempel
doom
doomkerke
doop
dooperkerke
doopn
doopr
door
doorheen
doornaert
doornik
doornikse
doors
doortje
doot
dooze
dop
dope
doper
doperkerke
dopienge
doppelhochzeit
doppn
dor
dora
dorachter
dordeure
dordogne
dordrecht
dore
dorian
doris
dorische
dorom
dorothea
dorp
dorpel
dorpen
dorpke
dorpkes
dorpn
dorpscentrum
dorpsje
dorpsjes
dorpskern
dorpsstroate
dorptje
dorptjen
dorptjes
dorre
dorset
dos
dossier
dottenys
douai
double
doubs
douglas
doulieu
dounker
dounkerblauw
dounkerbruun
dounkerder
dounkere
dounkern
douvrin
dovan
dover
dovo
dowd
down
downe
downloadn
dowoai
doze
dr
draagn
draagt
draaien
draft
dragen
dragon
dragonflies
drake
drama
drank
drankn
dranouter
drapeau
drawings
drby
dre
dream
dreams
dreevn
dreigde
dreigienge
dreigt
drenthe
drents
drentsche
dresden
dribbeln
dric
drie
driebeukige
driedoagsche
driedoagse
drieduusd
driee
driehoek
driekapellen
drieluuk
drienken
drienkn
drienkt
drienkwoater
drieoek
drieounderd
dries
driessche
driete
drieux
drievuldigheid
drift
drifters
drigo
dril
drin
drink
drinkam
drinkn
drinkt
drip
driutius
dro
droad
droadn
droagn
droagt
droai
droaide
droaien
droailier
droain
droait
droake
droef
droeg
droegn
droenke
droevoard
droge
droger
drogo
dromedoaris
dromen
drongen
droog
drooge
droogn
droogre
droogste
droogte
droom
droomn
drop
drowned
drug
drugs
druk
drukke
drukken
drukker
drukkery
drukkn
drukste
drukt
drukte
drum
drummer
drums
drury
drusus
druuvn
drvan
dry
dryft
drynk
dryvn
dryvnde
dsc
dt
dte
du
dua
duatleet
dubbel
dubbele
dubbelmonarchie
dubbeln
dubbels
dublin
dubois
ducale
duclos
duddelik
dudelik
dudelike
dudelyk
duet
duffel
dufoer
duft
dui
duif
duineser
duino
duisiner
duitama
duits
duitsche
duitse
duitsland
duivel
duizend
dujardin
duke
dul
dullaert
dulle
dumery
dumont
dumoulin
dumouriez
dun
dunder
dunderbe
dunderdag
dune
dunegebied
dunen
dunes
dunk
dunkerque
dunkerquois
dunlop
dunne
duo
duomo
dupon
dur
duran
durban
durch
durfde
durft
durham
duriez
durnez
durp
durpel
durven
durvn
dury
dus
dusauchoit
dust
dutch
dutroux
duts
dutsekop
dutsen
dutske
dutsland
duudelik
duudelyk
duudlik
duudlikke
duudn
duudt
duuk
duukn
duukt
duum
duun
duunbergn
duunkerke
duunkerksche
duunn
duur
duurstede
duusd
duust
duuts
duutsch
duutsche
duutscher
duutschers
duutschn
duutse
duutsers
duutsland
duutstoalig
duutstoalige
duutstoalign
duuve
duuvn
duuwn
duuzende
duuznde
duva
duve
duvekot
duvel
duvels
duvelspact
duvemelker
duvn
duw
duwde
duwn
duwt
dux
duyts
duytsche
duytsland
duzende
duzendn
dvd
dvor
dwaas
dwars
dwarsbeuke
dwe
dweirs
dweis
dwerg
dwergberke
dwergen
dwerggalery
dwergn
dwergplaneetn
dwergplanete
dwergstruukn
dwergvinvis
dwiengn
dwoung
dy
dyck
dying
dyk
dykn
dylan
dyle
dynamiek
dynamo
dynastie
dynastiee
dynastien
dynasty
dyne
dyver
dyvre
dz
e
each
eadgifu
eagle
earl
early
earth
east
eastern
easy
eaten
eau
ebaseerd
ebblingem
ebblinghem
ebe
eberhard
ebevienge
ebleevn
ebo
ebodem
ebouwd
ebrocht
ebrookn
ebrouwn
ebrugge
ebt
ec
ech
echinodermata
echo
echt
echte
echter
echtn
echtre
eck
ecliptisch
ecolo
ecological
ecologie
ecologische
ecology
economie
economisch
economische
economischn
econoom
ecoregion
ecoregions
ecosyste
ecss
ectoare
ectoarn
ecuador
ecuadorioansche
ed
edda
edde
eddie
eddy
ede
edelman
edeln
eden
edeni
edentata
eder
edeurd
edgar
edge
edict
edienge
ediesje
ediesjes
edinburgh
edingen
edison
edit
edited
edith
editie
edities
edition
editions
editor
editors
edmond
edmund
edn
edoan
edouard
eds
edt
edte
edtegroad
edu
eduard
education
edulis
edvald
edvard
edward
edwards
edwardstone
edwin
edyk
ee
eebre
eecke
eeckhout
eed
eede
eedeln
eee
eeft
eeg
eeghem
eej
eekhoorns
eekhoutabdye
eekhoutreie
eeklo
eeland
eem
eeml
eemle
eemmeer
eems
eemskanoal
een
eende
eendemussels
eendn
eendracht
eene
eenentwintigste
eenheid
eenhoorn
eenigste
eenigte
eenn
eens
eentje
eenvoudige
eer
eerder
eere
eernegem
eeroozje
eerst
eerste
eerstn
eesn
eest
eeste
eesten
eestn
eet
eetboar
eetboare
eetn
eetrs
eeuw
eeuwe
eeuwn
eeuws
eeuwsche
eeuwse
eevn
eevnhoevige
eevnhoevign
eevnoare
eevnredig
eevnvele
ef
efd
effect
effectief
effectif
effekt
effn
effort
efkes
efn
efokt
eft
eftn
eftyd
eg
egbert
egd
ege
egebied
egeevn
egei
egel
egels
egem
eger
eggeleegn
eggeric
eggewoartskapelle
egidius
egied
egland
eglandn
egliek
eglise
eglyk
egmond
egmont
egmontpact
egn
egnwo
ego
egoan
egon
egre
egroeid
egste
egt
egvlakte
egypte
egyptenoarn
egyptiesche
egyptisch
egyptische
egyptischn
eh
ehoavn
ei
eicelln
eichsta
eid
eie
eiermarkt
eiers
eiffel
eig
eigelik
eigelyk
eigen
eigenare
eigendom
eigenlijk
eigenlik
eigenoare
eigenoars
eigenschap
eigenschappn
eigentlik
eight
eign
eigndom
eignlik
eignlyk
eignoare
eignschap
eignschappn
eigntlik
eigntlyk
eikels
eiland
eilandje
eilandjes
eilandn
eilandngroep
eilandstoat
eilig
eiligen
ein
eind
einde
eindelijk
eindelik
eindhoven
eindhovens
eindklassement
eindklassementn
eindoverwinnienge
eindronde
eindrounde
eindwinnoare
eine
einigte
einstein
eird
eirdbevienge
eirdbeviengn
eirde
eirdenburg
eirdewerk
eirdippervlak
eirdkorste
eirdn
eirdnburg
eirdrykskunde
eirdrykskundig
eirdrykskundige
eirduppervlak
eire
eirn
eirtsbisschop
eirtshertog
eisenach
eisn
eist
eiste
eistn
eit
either
eitje
eitjes
eivormig
eiwe
eiwit
eiwitn
eiwittn
ej
eje
ejoagd
ek
ekaterinburg
ekbe
eke
ekelsbeke
ekend
ekende
ekeniengn
ekenn
ekenoare
ekent
ekeren
eki
ekir
ekje
ekkergem
eklapt
ekleppige
ekleppign
ekleurd
eklimoat
eklo
eklopt
ekn
eknd
eknde
eknen
eknfilms
eknienge
ekniengn
eknisse
eknn
eknoare
ekns
eknt
eko
ekoerst
ekokkeduund
ekologie
ekologiesch
ekologiesche
ekoloogiesche
ekommn
ekomn
ekonomie
ekonomiesch
ekonomiesche
ekoozn
ekoprovinsje
ekoprovinsjes
ekostelsl
ekostelsls
ekostreeke
ekostreekn
ekout
ekozo
ekreegn
ekse
ekster
eksterne
eksters
ekstoaln
ekstoel
ekt
ekte
ekunn
ekust
ekwikt
el
eland
elandn
elastische
elbe
elbier
elboar
elche
eld
elde
elder
elderberry
elders
eldienge
eldn
ele
electrische
electron
electronica
eleen
elegans
elegansn
elegast
elegien
elegies
eleid
elektriciteit
elektriek
elektrieke
elektrisch
elektrische
elektron
elektronica
elektroonn
element
elementaire
elementen
elementn
elements
eleonora
eleonore
eleutheriuskerke
elf
elfde
elfste
elfstn
elft
elftal
elgebiedn
elgeme
elgemeente
elgemeentn
elgezelschap
eli
elias
elie
elienge
eliengn
elienk
elig
eliomys
elisa
elisabeth
elise
elite
elizabeth
elizabethsvloed
elk
elkaar
elke
elken
elkoar
elks
elkyng
ella
elle
ellen
elletuute
elliptische
eln
elnemers
elnon
elo
eloeis
elooi
eloois
elooiskerke
elp
elpen
elpn
elpt
els
elsan
elschryver
else
elsegem
elsene
elst
elstik
elstikkn
elstoat
elstoatn
elt
elte
eltegansten
elteganstn
eltelik
eltelyk
eltje
eltjes
eltjies
eltlik
eltn
elukt
elve
elverdienge
elverdinge
elvis
elx
elyse
elzas
elze
elzn
em
ema
emakt
eman
emann
emanuel
embleem
embrun
embryo
embryophyta
emde
emeerminne
emel
emelbe
emelgem
emelvoart
emiel
emile
emilia
emilio
emilion
emily
emir
emma
emmanuel
emme
emmen
emmer
emmerin
emmy
emn
emotie
empire
empirische
ems
emsche
emtote
emysl
emyslid
emysliden
emzelve
en
ename
enbreuke
enbrugge
enburg
encarta
enceladus
enclave
encyclopaedia
encyclopedia
encyclopedie
encyclopædia
end
endagswedstrydn
ende
endeemiesch
endeemiesche
endeke
endemisch
ender
endere
endern
enders
endetje
endigd
endigde
endigdn
endigen
endign
endigt
endje
endklassement
endn
endochter
endogene
endoplasmoatisch
endorsements
ene
enebest
eneco
eneedn
enegouwn
eneid
enen
enendertig
enentwientig
energie
energy
enerzyds
eng
engagement
engel
engelo
engels
engelse
engine
england
english
enhe
enheedn
enheid
enhere
enienge
enig
enigd
enigde
enige
enigienge
enigste
enigsten
enigstn
enigte
eniveau
enjounges
enkel
enkele
enkelvoud
enkerke
enkhuizen
enkhuuzn
enkhuyzn
enkienders
enkloavn
enkomst
enkomste
enkomstn
enkomt
enkool
enman
enmoakienge
enn
enne
ennelin
ennetie
ennevelin
enni
enoarnd
enoeg
enoemd
enoomn
enorm
enorme
enormn
enpit
enrico
ens
enschap
enschappelik
enschappelikke
enschappelyke
enschapplik
enschapplikke
enschappn
ensche
enschoalige
ensemble
ensis
ensor
enste
enstens
enstoande
enstroate
ent
ente
entebestier
entefuuzjes
entelik
entelikke
entelyk
entelyke
enten
entenoame
entepolletiek
enteroad
enteroadslid
enteroadsverkieziengn
enteroadsverkiezingn
enterprise
entertainment
entes
enteschole
enthousiast
enthuus
entig
entige
entiteit
entitled
entje
entjes
entn
entre
entree
entuus
entwa
entwadde
entwodde
entyd
enuuzig
enveloppe
environment
environmental
envo
envolgende
envolgnde
envolln
enweg
enwoordn
enya
enz
enzeune
enzeuns
enzo
enzovo
enzovors
enzyme
enzymes
enzymn
eo
eoarnd
ep
epakt
epargne
epe
epicenter
epicentrum
epidemie
episode
epistulae
epitonium
eplant
epn
epoque
epos
ept
epte
equidae
equivalent
equus
er
erachter
eran
erasmus
eratosthenes
erbepoald
erberge
erbouwd
erbouwn
erd
erde
erdeg
erdege
erdeid
erdenkienge
erder
erdere
erdereid
erderheid
erderjoarig
erdet
erdeyd
erdheid
erdn
erdre
erdryke
ere
ereburger
erecta
erectus
ered
eredivisie
ereeknd
ereen
erekwam
erelyste
erembald
erembalds
eremo
eren
erende
erf
erfd
erfde
erfdeel
erfdegt
erfelik
erfelikke
erfelikkn
erfenisse
erfgenoam
erfgenoame
erfgenoamn
erfgoed
erfipvolgienge
erflandn
erfrecht
erfregelienge
erfurt
erg
ergaster
ergens
erger
eric
ericaceae
ericht
erieng
erienge
erik
erika
erin
erinaceus
erinde
eringem
erinnerienge
eripgebouwd
eris
erkegem
erkenboar
erkend
erkende
erkendn
erkenn
erkennen
erkennieng
erkennienge
erkenninge
erkennn
erkens
erkent
erliengn
erlienk
erlik
erlingn
erlink
erlo
ermakt
erman
erme
ermee
ermengarde
ermentiers
ermentrude
ermentrudis
erminea
ermuuzn
ern
ernde
ernest
ernieuw
ernoemd
ernreie
ernst
erny
eroare
erocht
eros
erosie
erotica
erotiek
erotisch
erotische
eroverd
errewete
erreweten
ers
erschnde
ersn
ersnd
ersnde
erst
erste
ersteld
ersten
erstn
erstoel
ert
erte
ertien
ertiende
ertiene
ertienste
ertig
ertje
ertn
ertog
ertogdom
ertoginne
ertoogn
ertrouwde
ervan
ervn
ervo
ervoarienge
ervoariengn
ervoaringe
ervormienge
ervoud
ervoudige
ervulle
erwin
erzele
erzet
es
esa
escaut
esche
eschilderd
eschootn
eschorst
eschreevn
eschuum
escorteerd
escu
esdo
eseters
esgle
eshuus
eskimo
eskoader
eslag
eslekke
esmeetn
esn
esneuveld
esox
espagne
espan
espe
espeegle
espeeld
espegel
esperanto
espiegel
esplechin
espres
esquelmes
essars
essay
essayist
essays
esse
essen
essentie
essentieel
essex
est
esta
estafette
estal
estdag
estdoagn
estdrift
este
estekt
estelik
estelikke
estelikkn
estelikn
estelyk
estelyke
estelykn
esten
ester
esterie
estern
esterre
esterrn
esters
estert
esterwerk
esterwerkn
esteso
esther
estiano
esticht
estig
estje
estjes
estland
estlik
estlikke
estn
estnde
estnepos
estnryk
estoal
estoan
estol
estookn
estopt
estr
estrd
estre
estroate
estroatn
eststroate
estuarium
estuoarium
estzoale
esuus
et
etappe
etappes
etappezeges
etappn
etc
ete
eten
eternal
ethiek
ethiopie
ethiopische
ethische
ethoan
etienne
etiket
etje
etjoept
etn
etna
etnisch
etnische
etoalig
etoalige
etrokkn
etrouwd
etse
etser
etsn
ette
ettelgem
etterbeek
etwa
etwadde
etwien
etwoa
etwoar
etwoaschn
etwoatre
etwod
etwodde
etwot
etwuk
etymologie
etymologisch
etzelfde
etzelfste
eu
eucalyptus
euder
eudes
eudicots
eufroat
euge
eugeen
eugene
eugenetica
eugenia
eugenius
euglossini
eukaryootn
eule
eulipotyphla
eupen
eupn
eur
euralille
eurazie
eurazioatische
eurde
eure
euren
euripides
eurn
eurne
eurnen
euro
euroaziesche
euroazje
eurobasket
euroleague
europa
europacollege
europacup
europaea
europarlementair
europcar
europe
european
europees
europeesch
europeesche
europeeschn
europeese
europeeske
europeoann
europese
europeskeen
eurosong
eurostar
euroviezjesongfestival
eurovisiesongfestival
eurozone
eurydice
eurzelvn
eus
euskaltel
eustace
eustatius
eut
euthanasie
euvel
euvelachtig
euvelland
euvels
euvls
euw
euwardn
euwe
euwen
euwig
euwigd
euwige
euwinn
euwn
euws
euwsche
euwse
ev
eva
evangelie
evangn
evans
evanston
evariste
eve
even
evenement
evenementn
evening
evenoare
evenredig
eventueel
eventuele
evenvele
evenwicht
evenwydig
ever
everard
evere
everly
evernys
everybody
everyone
everything
eveugels
eveugls
evic
evidence
evil
evita
evleuglign
evn
evoarders
evochtn
evoen
evoleusje
evolln
evolueerd
evolueerde
evolueerdn
evolutie
evolutiebiologie
evolutiebioloog
evolutietheorie
evolution
evolutionaire
evolutionary
evoluusje
evoundn
evrard
evy
ew
ewe
ewel
ewist
ewn
ewoater
ewonn
ews
ewsch
ewsche
ewschoe
ewund
ewwe
ex
exact
exacte
examples
excelsior
exchange
exclave
exclusief
excommunicoasje
executeerd
execuusje
exemploar
exemploarn
exhibition
exodus
exogene
exosfeer
exotische
expansje
expediesje
expeditie
experiment
experimenteern
expertise
expliciet
explorer
explosieve
expo
export
exposeert
exposiesje
exposiesjes
expositie
expres
express
expressieve
expressionisme
expressionistische
extended
extension
external
externe
extra
extract
extreem
extreme
exutoire
ey
eyck
eyckplatse
eyckpling
eye
eyers
eyes
eyewerve
eyland
eylandjes
eylandn
eylandstoat
eymeer
eynde
eyskens
ez
eze
ezeetn
ezeid
ezel
ezelpo
ezels
ezelstratje
ezet
ezien
ezn
ezo
ezoa
ezoadlobbign
ezoogd
f
fa
faables
fabaceae
fabels
fabian
fabiola
fabre
fabri
fabriek
fabrieke
fabriekn
fabrikant
fabrikke
fabrikken
fabrikoase
fac
face
facebook
faches
faciliteitn
facsimile
factbook
facteur
facteurtje
facto
factor
factory
facts
faculteit
faculteitn
faculteyt
fade
faema
faero
fagaceae
fagales
fagus
fahrenheit
failliet
failliete
faine
fair
faire
fait
fak
fakke
fakto
falaise
falcipennis
falco
falconidae
falempin
faleyrens
fallen
falls
false
fame
famenne
fameus
fameuze
fami
famielje
famieljes
familiaris
familie
familienoame
familienoamn
families
familje
familjes
famille
family
fan
fanatieke
fanclub
fanfare
fanny
fanoatn
fans
fansite
fantasie
fantasiee
fantastische
far
farao
farazijn
farjon
farm
farnese
farrar
farrell
farringford
fase
faso
fasoade
fassa
fast
father
fatima
fats
faumont
fauna
faut
favoriet
favoriete
favorietn
fawkes
faydherbe
fazantachtige
fazantachtign
fazante
fazantn
fc
fd
fde
fdf
fdj
fe
fear
featured
februari
february
februoari
februoarie
fecit
federatie
federation
federico
federoal
federoale
federoaln
federoasje
federoatie
feel
feest
feeste
feestn
feet
feillu
feit
feite
feitelik
feitelikke
feitelyke
feiten
feitlik
feitn
feje
fel
felice
felicita
felidae
felipe
felippo
felis
felix
felle
felt
female
fendt
fenomeen
fenomeenn
feodoale
fer
ferchette
ferdinand
ferdinando
ferguson
ferguut
ferm
ferme
ferna
fernand
fernando
fernient
fernin
ferrain
ferrand
ferrara
ferrari
ferraris
ferrera
ferry
fersjette
ferus
fes
fest
festival
festivals
festivols
festubert
feuerbach
fever
fevijn
feyenoord
feys
feyt
ff
ffnst
fiammetta
fiba
fibonacci
fiche
fick
fictie
fictieve
fiction
fide
fidel
fie
field
fields
fieliepienn
fiesjow
fietematrulle
fiets
fietsroute
fifa
fiftig
figeure
figeurlik
figeurn
figuratieve
figure
figuren
figuur
figuurlik
figuurn
fiji
fik
filamentn
file
filibert
filip
filippo
filippynn
filips
filipsfort
filipynn
filipyns
filipynsche
film
filmacteur
filmactrice
filmfestival
filmografie
filmpjes
filmregisseur
films
filmscenario
filmtje
filmtjes
filocolo
filologie
filoloog
filoso
filosofie
filosofische
filosoof
filosoofn
filozofie
filters
final
finale
finales
finalist
finalle
finalles
finals
financie
financieel
financies
finansje
finansjes
find
fine
finiste
finland
finn
finoale
fins
finsche
fintele
fiorentino
fire
firenze
firma
firmin
first
fiscus
fish
fisher
fishes
fit
fitzroya
five
fives
fjord
fjordn
fla
flag
flageln
flamand
flamande
flamands
flamboyante
flamen
flamingant
flanders
flandre
flandrensis
flandres
flandria
flandriae
flandrien
flandriens
flankn
flaske
flassche
flasse
flatcat
flaubert
flavius
fle
flecha
flemish
flensburg
flers
fles
flesh
flestjie
fleur
fleurus
flevoland
flexibel
flexibele
flickr
flikken
flikkn
flikn
flines
flip
floor
flop
flor
flora
florence
florentynn
florentynsche
flores
floresiensis
florida
floridus
florimond
florio
floris
florizoone
florquin
florynn
flossche
flosschn
flou
flow
flower
flowering
flowers
floyd
fluit
flut
flute
fluute
fluutn
fm
fo
foase
foaze
foazn
foch
focus
foefelen
foetbal
foetballist
foetbol
foetboller
foetbolliest
foetbollist
foetbolln
foetbolploeg
foetboltrainer
folk
folkfestival
folkgroep
folklore
follow
following
fonds
fonetisch
fong
fons
fonseca
fontaine
fontainebleau
fontana
fontane
fonteine
fonteinn
fonteintjes
fontenoy
fonteyne
fontsize
food
fool
football
fopspeen
for
forall
forbin
forcalquier
force
ford
fore
forest
forestier
forestiers
forestry
forests
forever
forficula
forges
forlan
forli
form
format
formateur
formats
forme
formeel
formoat
formosus
formule
formules
forsacho
fort
fortifikoasjes
fortis
fortn
fortress
fortune
forum
forward
fosfoatgroep
fosfoatgroepn
fosfor
fosforyloatie
fossanova
fossiel
fossiele
fossieln
fossil
foto
fotogalery
fotograaf
fotografie
fotogravure
fotomodel
fotosfeer
fotosynthese
fotto
fottos
found
foundation
four
fourier
fourment
fournes
fourvie
fout
foute
foutn
fox
fr
fra
frac
fractie
fractieleider
fraeters
fragaria
fragment
fragmentn
fraise
frak
fraks
frame
frames
franc
franca
france
francesca
francesco
franche
francia
francie
francis
francisco
franciscus
franciscusinstituut
franck
francky
franco
franconie
francorchamps
francorum
frang
frank
franken
frankfurt
frankie
frankisch
frankische
frankischn
franklin
frankn
frankrijk
frankryk
franky
franquin
frans
fransch
fransche
franschen
franschke
franschn
franse
fransjke
franske
fransman
fransmans
fransn
franstoalig
franstoalige
franstoaligen
franstoalign
franz
frascati
fraseri
frauenkirche
fraxinus
frazier
frazione
frazioni
fre
fred
freddie
freddy
frederick
frederico
frederiek
frederik
free
freebee
freebsd
freedman
freezn
fregat
fregattn
freiburg
freinet
freire
freistaat
freizn
frekwensjes
french
frequency
fresco
freshwater
fret
fretin
frettn
freud
frey
freya
freze
frick
frieda
friedl
friedrich
friend
friends
fries
friesche
frieschn
friesland
frietn
friezn
frigg
frigo
frimout
fringilla
fringillidae
fris
frisco
frisia
friso
frissche
frits
frittn
friuli
friulisch
fro
froai
froaiem
froent
froete
froidmont
from
fromelles
front
froome
frosinone
frottn
frount
frozen
fruit
fruits
frut
frutnier
fruut
frysk
fryske
frysla
fs
fsleutl
fssp
ft
ftw
fu
fuad
fuck
fuel
fuente
fuga
fuif
fuiven
fulco
fulica
full
functie
functies
functioneel
functionele
fund
fundamente
fundum
funen
fungeert
fungi
funksje
funksjes
furie
further
fusie
fusieclub
fusiegeme
fusies
fusioneerde
fusioneern
future
fuusje
fuusjegemeente
fuusjes
fuuzje
fuuzjegeme
fuuzjes
fw
fylke
fylker
fyn
fyne
fyntig
fysica
fysicus
fysiek
fysieke
fysiologie
fysioloog
fysische
g
ga
gaa
gaaf
gaaft
gaan
gaat
gaavn
gabbe
gabrie
gabriel
gadamer
gadeyne
gaeilge
gaelic
gaelisch
gaf
gaft
gaga
gaius
gala
galactica
galapagoseilandn
galatasaray
galaxy
galbert
galbertus
galerant
galerie
galerius
galery
galerye
galge
galibier
galicie
galicisch
galie
galilei
galileo
galle
galleria
gallery
gallia
gallico
gallie
gallieerdn
gallinula
gallipoli
gallisch
gallische
gallo
gallus
galway
gama
game
games
gamma
gan
gandhi
gandolfo
gang
gangn
gank
ganshoren
gantois
ganymedes
ganzemeur
ganzn
gaoth
gap
gapienge
garage
garantie
garate
garci
garcia
gard
garda
gardameer
garde
garden
gardening
gardens
gardeyn
gardner
gare
garemijn
garenmarkt
garfield
gargamel
garland
garmin
garmisch
garnalen
garnizoen
garonne
garre
garros
garrulus
gary
gas
gascogne
gasn
gaspar
gaspard
gasreuzn
gass
gassn
gast
gaste
gasten
gasthuus
gastje
gastjes
gastland
gastn
gaston
gastone
gastrolln
gastropoda
gastuus
gasvormig
gat
gate
gatje
gatjes
gatz
gaudens
gaulle
gauw
gauwe
gaven
gavere
gay
gaze
gazet
gazette
gazetten
gazettn
gb
gc
gd
gdan
gde
ge
geallieerde
geallieerdn
geangn
gearchive
gearresteerd
gebak
gebakkn
gebase
gebaseerd
gebe
gebed
gebeedn
gebeetn
gebergte
gebergtes
gebergtevormienge
gebergtn
gebeur
gebeurd
gebeurde
gebeurn
gebeurs
gebeurt
gebeurte
gebeurtenisn
gebeurteniss
gebeurtenisse
gebeurtenissen
gebeurtenissn
gebeurtnisse
gebeurtnissn
gebezigd
gebhard
gebie
gebied
gebiedn
gebit
gebleekn
gebleevn
gebleven
gebo
geboarn
geboendn
gebombardeerd
geboogn
geboorn
geboorte
geboorteplekke
geboortestad
geboorteuus
geboren
geborte
geboundn
gebouw
gebouwd
gebouwde
gebouwen
gebouwn
gebow
gebowd
gebown
gebracht
gebrand
gebrek
gebreukt
gebrocht
gebroeders
gebrookn
gebrouwd
gebrouwn
gebrown
gebruik
gebruikt
gebruk
gebrukelik
gebruken
gebruker
gebrukers
gebrukt
gebrukte
gebruuk
gebruuklik
gebruuklikke
gebruukn
gebruuksvo
gebruukt
gebruukte
gebruukten
gebruuktn
gebruyk
gebruykn
gebruykt
gebruykte
gebundeld
geburt
geburte
geciteerd
geclassificeerd
gecombineerd
geconcentreerd
gecoverd
gecree
gecultiveerde
ged
gedaan
gedacht
gedachte
gedachten
gedachtn
gede
gedee
gedeelte
gedeeltelik
gedeeltelyk
gedefinieerd
gedelegeerd
gedempt
gedenkploate
gedenkste
gedetailleerd
gedetailleerde
gedeurd
gedeurende
gedeurnd
gedeurnde
gedicht
gedichte
gedichten
gedichtje
gedichtn
gediend
gedo
gedoan
gedoane
gedoanteverwisslienge
gedomesticeerd
gedomesticeerde
gedomineerd
gedopt
gedraagn
gedrag
gedreegn
gedreevn
gedrenkt
gedro
gedroagn
gedroagt
gedroaid
gedroaide
gedroogd
gedroogde
gedrounkn
gedrukt
gedrukte
geduld
gedurende
geduwd
gedwoengn
gedwoungn
gee
geef
geeft
geel
geeln
geen
geeraerts
geernaartstratje
geert
geertrui
gees
geesink
geest
geestelijke
geestelikkn
geestig
geetn
geev
geevn
gefusioneerd
gegeetn
gegeevn
gegeevns
gegeven
gegevens
gegiste
gegoan
gegoane
gegootn
gegraveerd
gegroavn
gegrocht
gegroeid
gegroepeerd
gehad
gehangn
gehe
gehecht
geheel
geheeten
geheim
geheime
geheimen
geheimzinnig
geheimzinnige
geho
gehoald
gehoord
gehouden
gehoudn
gehucht
gehuchtje
gehuchtjes
gehuchtn
gei
geike
geiren
geirn
geirne
geirnoare
geirnoars
geiser
geisers
geistemout
gejoagd
gek
gekanaliseerd
gekanaliseerde
gekapt
geke
gekeekn
gekend
gekende
gekendste
gekenmerkt
geklapt
geklasse
geklasseerd
geklasseerde
gekleurd
gekleurde
geklid
geknield
gekocht
gekokt
gekoloniezeerd
gekom
gekomen
gekomm
gekommen
gekommn
gekomn
gekontroleerd
gekoomn
gekoozn
gekopieerd
gekoppeld
gekreegn
gekregen
gekro
gekroond
gekruud
gekruust
gekuust
gekwe
gekwetst
gekwetste
gekwikt
gekwikte
gela
gelance
gelanceerd
geland
gelati
gelatiniseerde
geld
gelderland
gelders
geldersche
geldig
geldige
geldmuntstroate
geldschieters
geldstik
geldt
gele
gelede
geleden
gelee
geleedn
geleedpo
geleefd
geleegn
geleegneid
geleen
geleerd
geleevrd
geleezn
gelegen
gelegenheid
geleid
geleidelik
geleidelyk
geleiders
geleie
geleverd
geliefd
geliefde
gelijk
gelik
gella
gellir
gelo
geloadn
geloan
geloatn
geloof
geloofdn
geloovn
gelost
gelove
geloven
gelovig
gelre
geluid
geluk
gelukkig
gelukt
geluud
geluudn
geluveld
geluwe
gelwe
gelyk
gelyke
gelykig
gelykige
gelykn
gelyknoamig
gelyknoamige
gelyknoamign
gelykoardig
gelykoardige
gelykt
gelykzydigen
gem
gema
gemaakt
gemak
gemakkelijk
gemakkelik
gemakkeliker
gemakkelikker
gemakkelyk
gemakkelyker
gemakklik
gemaklik
gemakt
gemakte
gemarteld
gember
gemberplante
gembloux
geme
gemee
gemeenschap
gemeenschappn
gemeente
gemeentehuis
gemeentelikke
gemeentelyke
gemeenten
gemeentn
gemeetn
gemeinte
gemenebest
gemengd
gemiddeld
gemiddelde
gemiddelden
gemiddlde
gemiee
gemiengd
gemiengeld
gemiengelde
gemiengld
gemienglde
gemigreerd
gemis
gemist
gemixt
gemma
gemoakt
gemoaln
gemoatigd
gemoatigde
gemoderniseerd
gemonteerd
gen
genaamd
gende
gendt
gene
geneeskunde
geneeskundige
geneetiesche
geneezn
geneirn
genen
genera
generaal
general
generali
generatie
generation
generoal
generoasje
generoasjes
generoatie
generoaties
genesis
genet
genetic
genetica
genetisch
genetische
genezen
genghis
genie
genietn
geniver
genk
geno
genoade
genoaid
genoaken
genoamd
genoeg
genoegen
genoemd
genoemde
genomd
genomineerd
genoom
genoomn
genootschap
genoteerd
genova
genre
genres
gens
genst
gent
gentbrugge
gentele
genteleroute
gentenaars
gentenoars
genthof
gentile
gentpo
gents
gentsche
gentschn
gentse
gentweg
genua
genueezn
genuese
genummerd
genus
genzano
geo
geoffrey
geografie
geografisch
geografische
geograph
geographic
geography
geogroafisch
geogroafische
geological
geologie
geologisch
geologische
geologischen
geoloog
geoloogn
georg
georganiseerd
george
georgekanoal
georges
georgia
georgie
geosfeer
gepakt
gepasseerd
gepast
gepeisd
geplaatst
gepland
geplant
geplatst
gepleegd
geploagd
geplukt
geplunderd
gepoard
gepreezn
gepresenteerd
geprobeerd
geproduceerd
gepromoveerd
geprononceerd
gepubliceerd
gepubliceerde
ger
gera
geraakn
geraardsbergen
geraerts
geraint
geraken
gerakt
gerakte
geraktn
gerangschikt
gerard
gerards
gerardus
gerberga
gerd
gerda
gere
gerealiseerd
gerecht
gerechtelik
gerechtelikke
gerechtn
gerechtshof
gereconstrueerd
gered
gereed
gereedn
gereeknd
gereen
gereformeerde
geregeerd
geregeld
geregisseerd
gerekend
gerelateerd
gerelateerde
gerenoveerd
gereorganiseerd
gereserveerd
gerestaureerd
gerestoreerd
gerhard
gericht
gerichte
gerinne
gerlache
germaans
germaansche
germaanse
germain
germaine
german
germania
germanicus
germany
germinal
germo
germoan
germoann
germoans
germoansche
germoanse
germplasm
gern
gernoare
gernoars
gero
geroakn
geroamte
geroardsbergn
gerocht
gerochte
gerochtn
gerold
gerookn
gerrard
gerre
gerrit
gerry
gers
gerst
gert
gertrud
gertrude
geruchtn
gerust
gervaas
gerypt
ges
geschat
geschatte
gesche
geschee
gescheid
geschid
geschiedenis
geschiedenisse
geschiedkundige
geschiedkundign
geschiednisse
geschiedschryver
geschienisse
geschikt
geschikte
geschil
geschilderd
geschoenkn
geschootn
geschorst
geschounkn
geschrapt
geschre
geschreevn
geschreven
geschrift
geschriftn
gescoord
gesegmenteerd
geselecteerd
gesjchreev
geskantn
geskiedenisse
geskreevn
geslacht
geslachtn
geslachtngroepn
geslachtsde
geslachtsgroepn
geslachtskenmerkn
geslachtsrype
geslapen
gesleegn
gesloagd
gesloapen
gesloopt
geslootn
gesloten
gesmeetn
gesmoltn
gesneen
gesneuveld
gesneuvelde
gesneuveldn
gespe
gespecialiseerd
gespecialiseerde
gespeeld
gespeld
gespierde
gespild
gespleetn
gesplitst
gespoard
gesprek
gesproken
gesprook
gesprookn
gesproungn
gestalte
gestampt
gestapo
gestapt
gestart
geste
gesteegn
gesteld
gestemd
gesteund
gesteurd
gesticht
gestoan
gestookn
gestooln
gestopt
gestorven
gestorvn
gestraft
gestrand
gestre
gestudeerd
gesu
get
getal
getallen
getalln
gete
getekend
geteld
getinte
getiteld
geto
getoogd
getroffn
getrokken
getrokkn
getrouw
getrouwd
getrowd
getuge
getuuge
getuugn
getuugnheuvel
getuugnheuvels
getuugt
getye
getyen
geule
geuln
geure
geute
geuze
geuzn
gevaert
geval
gevallen
gevalln
gevaln
gevang
gevangen
gevangene
gevangenis
gevangenn
gevangn
gevangngezet
gevangnschap
gevank
gevarieerd
gevarieerde
gevecht
gevechtn
gevel
gevels
geven
gevestigd
gevicht
gevierd
gevleuglde
gevlochtn
gevloogn
gevlucht
gevo
gevoar
gevoarlik
gevoarn
gevochtn
gevoegd
gevoel
gevoeld
gevoelig
gevoelige
gevoelns
gevoen
gevoendn
gevoenn
gevoerd
gevol
gevolg
gevolgd
gevolge
gevolgen
gevolgn
gevollen
gevolln
gevoln
gevondn
gevormd
gevound
gevoundn
gevraagd
gevroagd
gevuld
gevulde
gewalst
gewapend
gewe
geweest
geweetn
geweezn
gewei
geweirkt
geweirn
geweld
gewelddoadige
geweldig
geweldige
gewelvn
gewend
gewente
gewerkt
gewerveld
gewervelde
gewerveldn
gewest
gewesten
gewestn
geweun
geweund
geweune
geweunlik
geweunlyk
geweunn
geweunte
geweyd
gewicht
gewichte
gewild
gewist
gewoapnd
gewoardeerd
gewoarig
gewon
gewonn
gewonnen
gewoonte
geword
geworden
gewordn
geworn
gewoun
gewound
gewounn
gewricht
gewunte
gewyd
geyter
gezag
gezakt
gezangen
gezangn
gezant
gezeetn
gezegd
gezegde
gezei
gezeid
gezeit
gezelle
gezellemuseum
gezelschap
gezet
gezeten
gezicht
gezie
gezien
geziene
gezin
gezoagde
gezoaid
gezoajde
gezocht
gezoend
gezoendeid
gezoendheid
gezoengn
gezoenn
gezond
gezongen
gezorgd
gezound
gezoundeid
gezoundheid
gezoundn
gezoungn
ghana
ghe
ghent
ghesquiere
ghi
ghibelyn
ghiselhuus
ghislain
ghoald
ghv
ghy
ghybe
ghyvelde
gi
giacomo
giambologna
gian
gianetti
gianni
giants
gibb
gibralfaro
gibraltar
gibson
gider
gids
gie
gieng
gienge
giengen
giengn
giengt
giengtn
gienk
gienke
gienkn
gienkt
gierigoard
giern
gieten
gietynge
gif
gift
giftig
giftige
gigantisch
gigantische
giggs
gihe
gij
gilbert
gilde
gildig
gildn
gilf
gili
gille
gilles
gilleveld
gillis
gilliskerke
gillot
gilve
gilvebuukvierpadde
gilvn
gilwe
gime
gimme
gin
ginappel
gineroal
ging
gingen
gingn
gingt
gink
ginkgo
ginne
ginnen
gioacchino
gion
gional
giordano
giorgio
giorgione
giovanni
gipsy
giraffe
girl
girls
giro
girolamo
gironde
gisant
gisela
giselbert
gist
gistel
gistelhof
gisteren
gistern
gistienge
gistl
gitaar
gitare
gitarist
gitoar
gitoare
gitoarn
gits
gittens
giulia
giuliano
giulio
giuseppe
give
given
givenchy
gives
gizurr
gje
glabra
glacis
glama
glanerie
glas
glasgow
glass
glauca
gleddig
gleddige
glen
glenn
gletsjer
gletsjers
glijden
glik
glise
gloazn
global
globale
globalspecies
globe
globoal
globoale
gloovn
gloria
glorie
glorieux
glorieuze
glottisslag
gloucester
gloucestershire
glu
glucose
glutinosa
gluutn
glycine
glycyrrhiza
glyk
glykn
glyknisse
glyknoamige
glykoardig
glykoardige
gmelinii
gmina
gn
gnaeus
gnd
gnde
gne
gns
gnst
gnu
go
goa
goai
goain
goal
goald
goalle
goals
goan
goande
goandeweg
goane
goapers
goapn
goarshausen
goat
goatn
goaverbeke
goavers
goavn
goaze
goazn
gobi
gobiidae
gobiiformes
god
goddaer
goddelikke
goddelo
gode
godefroid
godelieve
goderis
godfried
godgele
godinne
gods
godsdienst
godsdienste
godsdienstige
godsdienstn
godsdienstoorloogn
godsuus
godsuuzn
godsvelde
goe
goeberg
goed
goede
goedele
goedern
goedkeurienge
goedn
goednand
goegekeurd
goeie
goeien
goein
goeje
goejn
goeko
goekoop
goekope
goen
goengn
goenk
goeree
goes
goeste
goestienge
goet
goethals
goethe
goethem
goeverneur
goewd
gof
gogh
goidelisch
goidelische
goin
going
goire
goj
gold
golden
goldene
golf
golfbreker
golflengtn
golfstro
golgi
golias
goliath
golle
golln
gols
golve
golvn
gomme
gon
gondecourt
gondwana
gone
goniometrische
gonk
gontier
gonza
gonzaga
good
goodbye
goodlife
goodn
goody
google
gooimeer
goose
goossens
gootn
gorbatsjov
gorcum
gordel
gordes
gordon
gore
gorge
gorges
gorgue
gorik
gorilla
gorinchem
gorki
goscinny
got
gotha
gothic
gotiek
gotisch
gotische
gotischn
gotje
gott
gottfried
gotye
gou
goud
gouda
gouden
goudeseune
goudn
goudsmed
gould
goungn
gounk
gouste
gouvernement
gouverneur
gouverneurs
gouwe
gouwegroavn
gouwn
goveniana
government
gow
gozelo
goði
gp
gr
graaf
graafschap
graag
graavn
gracht
grachten
grachtn
graeve
graf
grafiek
grafisch
grafische
grafmonument
grafmonumentn
grafschrifte
grafste
graftombe
graham
grakt
grakte
gram
grammatica
gramme
gran
granada
grand
grande
grandifolia
grandis
grandorde
graniet
grant
granvelle
grard
gras
grasland
graslandn
grasn
graspop
grasse
grassn
gratis
graubu
grave
gravelines
graven
gravensteen
graveolens
graves
graveur
graveure
graveyard
gravinne
gray
graz
grazie
gre
great
greater
greatest
greco
greed
green
greenwich
greep
greg
gregoire
gregor
gregorio
gregorioansche
gregorioanse
gregorius
gregory
greipel
greitn
grembergen
gremlins
grenier
grenoble
grens
grensdorpn
grenst
grenze
grenzen
grenzn
greppe
greveliengn
grevelingn
gri
gridcolor
grieg
griek
grieken
griekn
grieknland
grieks
grieksch
grieksche
griekschn
griekse
griep
griepskerke
griet
griffel
griffie
grimaldi
grimbergen
grimm
grimminck
grimoald
grimsargh
grin
griphosaurus
grizzly
gro
groad
groade
groadn
groaf
groafelik
groafelikke
groafschap
groafschapp
groafschappn
groafwerkn
groaken
groakn
groan
groankonvo
groasje
groat
groate
groatis
groatn
groatste
groave
groaven
groavinne
groavn
grochtn
grodder
groddere
groe
groede
groei
groeide
groeidn
groeien
groeiende
groein
groeit
groej
groejsezoen
groen
groenbluuvnde
groend
groendel
groendelachtige
groendelachtign
groendels
groendgebie
groendgebied
groendig
groendige
groendlegger
groendn
groendwet
groene
groenendoal
groenereie
groenewoud
groeninge
groeningemuseum
groenland
groenn
groensel
groenselachtig
groensels
groep
groepeerienge
groepeeriengn
groeperienge
groeperiengn
groepke
groepkes
groepn
groepsleedn
groepsleen
groeptje
groeptjes
groeten
groetn
groeve
groevn
grof
grofweg
grol
grond
groniengn
groningen
groninger
groo
grooe
groonsels
groot
groote
grooten
grootn
grootndeels
grootste
groove
gros
grot
grote
groten
grotende
groter
grotmoeder
grotr
grotre
grotsn
grotst
grotste
grotstn
grottaferrata
grotte
grotter
grottere
grottn
grotvoader
ground
groundgebied
groundig
groundige
groundlegger
groundleggers
groundn
groundplan
groundslag
groundstoffe
groundstoffn
groundwet
groundwoater
groundzeiler
group
groupn
grove
growt
growte
grus
gruson
grust
gruuj
gruujn
gruujnde
gruujplatse
gruujsezoen
gruujt
gruut
gruuthuse
gruuthusemuseum
gruuthusepaleis
gruwez
gruyaert
grypn
grypt
grys
grysachtig
grysde
grysdn
grysloke
gsm
gt
gu
guanaco
guangxi
guarani
guard
guardian
guatemala
guayaquil
gue
guernsey
guerra
guerre
guglielmo
gui
guide
guideschi
guido
guignies
guilera
guilini
guillaume
guillotine
guinea
guinee
guld
gulden
guldn
guldnspoornslag
gulik
gullegem
gulo
gunste
gunstig
gunstige
gunter
gustaaf
gustav
gustave
gusten
guten
gutenberg
gutenburg
guttata
guttierez
guy
guyana
guyenne
gwelfn
gwij
gwinea
gwyde
gy
gyan
gyder
gydre
gymnosperm
gynder
gyps
gyvelde
gyverienkhove
h
ha
haa
haad
haag
haan
haar
haarlem
haat
haavn
habilis
habitat
habsburg
habsburger
habsburgers
habsburgs
habsburgsche
habsburgse
had
hadde
hadden
haddn
haddock
hadewych
haeghen
haemoglobine
haer
haes
haese
hafabra
hagen
hai
haifa
hainan
hainaut
hakkeloare
haksjes
hale
halen
half
halfbroere
halfoapn
halfroend
halfround
halfzuster
haliaeetus
haliaetus
hall
hallam
halle
hallekerke
hallekerkn
hallen
hallennes
halln
hallo
halloween
hallstatt
hals
halve
halverwege
ham
hamburg
hamilton
hamlets
hamme
hammer
hammett
hampshire
han
hand
handel
handelingen
handeln
handelsblad
handen
handicap
handn
handreie
handschrift
handte
handvat
handvest
handzoame
hang
hangn
hangt
hankey
hanky
hanna
hanne
hannelore
hannibal
hannover
hanoi
hans
hansen
hansestadt
hansworst
hantay
hanze
hanzestad
hanzesteedn
hapkin
happel
hara
harald
harbor
hard
hardcore
hardcorescene
harde
hardrock
hardware
hardy
harelbeke
harendyke
hargreaves
haries
haringe
harinxmakanoal
harlingen
harmonie
harmonieorkest
harmonium
haro
harold
harpe
harper
harris
harrison
harry
hars
hart
harte
harvard
has
hasnon
haspengouw
haspngouw
hassan
hasselt
hastings
hat
hate
hathor
hatsjepsoet
hattrick
haubourdin
haumea
hauspie
haussler
haut
haute
hautekiet
hautes
hauts
hauwaert
have
havel
haven
havens
haverbeeke
havik
havre
hawai
hawaii
haydn
hazard
hazebroek
hazebrouck
he
head
headliner
healing
health
hear
heard
heart
hearts
heat
heaven
heavy
heb
hebban
hebben
hebdo
hebe
hebre
hebreeuws
hebriedn
hebt
hecke
hectare
hectoare
hectoarn
hector
hed
heden
hedwig
hee
heeft
heel
heelal
heeln
heem
heemkundige
heen
heer
heere
heerlen
heerlikeid
heerlikheid
heerlykeid
heerlykheid
heern
heerschappye
heerser
heestert
heet
heetvelde
heide
heideland
heidelberg
heidelbergensis
heidense
heideroosjes
height
heil
heilegans
heilig
heilige
heiligen
heilign
heim
hein
heinrich
heirboane
heird
heirsens
heirsenschedel
heirweg
heist
heit
heizel
hekeln
hekse
heksn
hel
held
helden
helder
heldere
helderheid
helderste
heldn
hele
helegans
helegansn
helemaal
helen
helena
helene
helewaut
helft
helices
heliopause
heliosfeer
heliosheath
helium
helix
helkijn
helking
hell
helle
hellebaut
hellem
hellespont
hellienge
helliengn
hello
helloween
helm
helmut
help
helpn
helpston
helpt
helsinki
helt
helvetie
hem
hemakt
hemel
hemelipneemiengekerke
hemellichoam
hemellichoamn
hemelvoart
hemelvoartkerke
hemionus
hemma
hemzelve
hen
hendrik
hendryckx
hene
henegouwn
henin
henk
henn
henoeg
henri
henricus
henriette
henrik
henriquez
henry
henslow
hepburn
her
hera
herald
herberge
herbergn
herbert
herbouwd
hercule
hercules
here
heren
herendael
herentals
herfst
herge
hergeklasseerd
herinde
herindelynge
herinnerienge
herinnern
herinnert
heripbouw
heripgebouwd
heriplevienge
heritage
herkauwers
herkenn
herkoozn
herlies
herman
hermann
hermans
hermes
hermitage
hernandez
hernoemd
herodes
heroes
heron
herr
herrin
herseaux
herstal
herstel
hersteld
herstelln
hert
hertachtign
hertain
herte
herten
hertn
hertog
hertogdom
hertogdommn
hertogelik
hertogen
hertogenbosch
hertogenrade
hertoginne
hertoogn
hertrouwd
hertrouwde
hertsberge
herve
hervelle
hervormd
hervormde
hervormienge
hervormiengn
herze
herzegovina
hesjedal
hessen
het
heterdaad
hetfield
hetgeen
hetzelfde
heule
heur
heure
heuren
heurn
heusdn
heuvel
heuvelachtig
heuvelkam
heuvelland
heuvels
heverlee
hewest
heword
hey
heylen
heyman
hi
hickey
hie
hiel
hield
hieldn
hielp
hielpn
hielpt
hier
hiermee
hieronymus
hierounder
hiervan
high
higher
highland
highway
hij
hil
hilde
hildegard
hildegarde
hildesheim
hill
hillary
hille
hillegans
hillegansn
hillig
hillige
hillign
hillman
hills
hilversum
him
himalaja
himalaya
himalayan
himmler
hinase
hinges
hiphop
hiphopgroep
hippocrates
hippolytus
hiroshima
his
histoire
historia
historica
historical
historici
historicus
historie
historieker
historique
historisch
historische
history
hit
hitachi
hitler
hits
hitte
hle
hlotharii
hms
ho
hoagedissn
hoageland
hoagemussche
hoagemusschn
hoain
hoak
hoald
hoalde
hoaldn
hoaln
hoalt
hoamer
hoane
hoar
hoarelbeke
hoarienge
hoat
hoave
hoavestad
hoavik
hoavn
hoavndyk
hoavns
hoavnstad
hoavnsteed
hoaze
hoazebroeke
hoazelworm
hoazelwormes
hoazn
hobbes
hobby
hobo
hoboken
hoe
hoed
hoedemoakersstroate
hoedn
hoefbe
hoefbeestn
hoei
hoeiloart
hoek
hoeke
hoekn
hoekse
hoend
hoendachtign
hoenderd
hoenderdjoarign
hoenderveugels
hoendn
hoes
hoessein
hoet
hoeve
hoeveel
hoeveelheedn
hoeveelheid
hoevele
hoevn
hoewel
hoeze
hof
hoffmann
hofmeier
hofmeiers
hofmeyer
hofschilder
hofstee
hoge
hoger
hogere
hogeschool
hogger
hogste
hogte
hogtepunt
hohenstaufn
hohenzollern
hohenzollerns
hoi
hokkaido
hol
holarctis
holbein
hold
holf
holfround
holho
holhoornign
holiday
hollain
holland
hollander
hollanders
hollands
hollandsche
hollandschn
hollandse
hollansche
holle
hollebeke
holly
hollywood
holoceen
holophylla
holpn
holstein
holve
homans
home
homer
homeros
hominidae
homme
hommel
hommelbier
hommelpluk
hommels
homo
homogeen
homoseksualiteit
hond
honda
hondeghem
hondt
honduras
honey
honfleur
hong
hongaars
hongareye
hongkong
hongoarn
hongoars
hongoarsche
honing
honolulu
honorem
honoris
honsebrouck
hoo
hoofd
hoofdbeuke
hoofdcoach
hoofdeiland
hoofdgroepn
hoofdkerke
hoofdplekke
hoofdredacteur
hoofdrolle
hoofdstad
hoofdstedelik
hoofdstedelyk
hoofdstee
hoofdsteedn
hoofdstroate
hoofdtak
hoofdtrainer
hoofdvoart
hoofdwerk
hoofdzoakelik
hoofstad
hooft
hoofzakelik
hoofzoakelik
hoog
hoogduuts
hooge
hoogenband
hoogkoor
hooglandn
hoogle
hooglede
hooglee
hoogovens
hoogrenaissance
hoogste
hoogstn
hoogstoade
hoogte
hoogtepunt
hoogverroad
hoogvlakte
hooiwoagn
hooiwoagns
hook
hookertelescoop
hoolf
hooln
hoolve
hoons
hoop
hoopn
hoor
hoorde
hoorn
hoorne
hoorns
hoort
hooverphonic
hoovn
hop
hope
hopegevoegd
hoppus
horace
hordn
horeca
horen
horizon
horizontoale
horloge
hormoonn
hornu
horoscoop
horrie
horror
horst
horta
hortus
horus
hospice
hospital
hospitoal
host
hoste
hot
hotel
hotels
hotspur
hou
houa
houck
houden
houdienge
houdn
houdt
houleron
houn
hound
hounderd
hounderdjoarign
hounderdn
houndn
houngersno
houplin
house
houston
hout
houtave
houtduuvn
houtem
houten
houthulst
houtkantn
houtland
houtn
houtnde
houtsnede
hove
hovetje
hovetjes
how
howard
howardries
howgate
hrr
ht
htc
htm
html
http
https
hu
huang
hubble
hubbleconstante
hubert
hubertus
hudevetterspling
hudige
hudson
hue
huens
huerta
huez
hugenootn
hugh
hugo
hugues
hui
huib
huidige
huis
huisje
huizen
huizinga
hulde
huldigd
hulpe
hulptrainer
hulst
hulste
human
humaniest
humaniora
humanist
humaniste
humanistn
humanoid
humanus
humbert
humo
humor
humoristisch
humoristische
humphrey
hun
hunder
hung
hunt
hunters
hunyadi
hur
hurt
hushovd
hutchinson
huudige
huus
huuzn
huvluv
huwe
huwelik
huwelyk
huxley
huygebaert
huygens
huyghebaert
huys
huysentruyt
huyszwoaluwe
huzetjes
hy
hyalinobatrachium
hyde
hydrofobe
hydrosfeer
hygie
hyla
hymenoptera
hymnus
hypothese
i
ian
iberisch
ibiza
ibn
ibsen
ibz
ic
ice
iced
iceland
ich
ichtegem
icomos
iczn
id
ida
idder
iddere
iddern
iddre
ideale
idee
ideee
identieke
identiteit
ideoal
ideoale
ider
idesbald
idhlig
idioticon
idool
idrisiedn
ie
ieder
iedere
iedereen
iederen
iedern
iedr
iedre
iee
ieffelto
ield
ieldn
iele
ielp
iemand
iemands
ieng
iengel
iengeland
iengelmunster
iengelmunstr
iengels
iengelsch
iengelsche
iengelschen
iengelschn
iengelse
iengelske
iengelsman
iengelsn
iengelstoalige
iengland
iengls
ienglsche
ienkel
ienkele
ienkelvoud
ienkle
iep
ieper
ieperfest
ier
ierachter
ierboovn
ierby
ierdeur
ierdeure
iere
ierin
ierip
ierland
iermee
iern
ieroendre
ierounder
iers
iersche
ierschn
ierse
iervan
iervo
iervoren
iesto
iet
ietaljoansche
ietoalje
iets
ietske
ietwat
ievers
if
iga
iglesia
ignace
ignatiev
ihs
ii
iii
ij
ijzer
ik
iker
ikke
il
ile
ilft
ilias
ilig
ilige
ilign
ill
ille
illegansn
illegoale
illetriek
illetrieke
illies
illig
illigdom
illige
illigen
illign
illinois
illustrata
illustrateur
illustrator
illustre
illustroasje
illustroasjes
ilse
im
image
images
imagesize
imaginair
imaginaire
imago
imam
imdb
img
immaculate
immanuel
immigrantn
immuniteit
immuunsyste
imperator
imperial
imperii
imperium
implications
importateurs
importent
imposant
impressie
impressionisme
impuls
in
ina
inbegreepn
inbegrip
inbev
inc
inca
incertae
inch
incident
inclinoatie
include
included
including
inclusief
incomple
increment
inde
indeelienge
indeilynge
indelienge
indeliks
indeliksche
indelinge
inder
inderdoad
indere
index
india
indian
indiana
indicum
indie
indiesch
indiesche
indigo
indioann
indioansche
indisch
indische
indischn
individu
individual
individueel
individuele
indje
indo
indochina
indonesie
indonesisch
indonesische
indoor
indre
indruk
indrukwekkend
indrukwekkende
indurain
industrie
industrieel
industries
industriestad
industrietak
industrieterrein
industriezone
ine
inevoerd
infant
infanterie
infe
inferior
infernal
inferno
influenceerd
influenza
info
infobox
infodok
informatica
informatie
information
informoasje
informoatie
infraklasse
infraorde
infraro
ing
ingang
ingank
inge
ingebeelde
ingeborg
ingede
ingedeeld
ingediend
ingegroavn
ingehuldigd
ingeland
ingeleid
ingelger
ingelmunster
ingels
ingelsche
ingelschn
ingelse
ingelyfd
ingenieur
ingenieurs
ingenoom
ingenoomn
ingepakt
ingepolderd
ingericht
ingeschreevn
ingeslootn
ingesneen
ingesteld
ingetrokkn
ingeval
ingevoerd
ingevoerde
ingeweyd
ingewikkeld
ingewikklde
ingewyd
ingezet
inghelbrecht
inghelram
ingo
ingooigem
ingredie
ingredient
ingrid
ingrie
ingveoons
ingveoonsche
inham
inhe
inheemsche
inhoald
inhoud
inhuldigienge
inienge
initiatief
inkom
inkommn
inkomsten
inkomstn
inl
inleiding
inlet
inn
inne
innergetic
innlandet
innoame
innocentius
innsbruck
inoed
inoud
inox
inpakkn
inpolderienge
inquisiesje
inquisitie
inrichtienge
inscriptie
insect
insecteneter
insectn
insectneters
insects
insekte
insektn
insel
inside
inslag
inslagkroaters
inspannienge
inspanniengn
inspieroasje
inspiration
inspireerd
inspireerde
inspireern
inspiroasje
insproake
instagram
installeerd
installeern
installoasje
instansje
instantie
instellienge
instelliengn
insters
institute
instituut
instructies
instrument
instrumenten
instrumentn
instrumentoale
int
inte
integreerd
intellectueeln
intelligensje
intens
intensief
interactie
interacties
interbellum
interessant
interessante
interesse
interesseerd
interest
interieur
interieurs
interim
interior
intermedia
intern
internasjonoal
internasjonoale
internationaal
international
internationale
internationoal
internationoale
interne
internet
internoat
interplanetair
interplanetaire
interpretoasje
interpretoasjes
interpretoatie
interregnum
intersexual
interview
interviews
intespuger
intespugers
intevissn
intiem
intje
into
intrede
introduceerd
introduceerde
introduction
intusschen
intusschenwyne
intusschn
intussen
intybus
inuit
inval
invalln
invariant
invasive
inventaris
invention
invloe
invloed
invloedn
invloedryke
invloewd
invoasie
invoasies
invoazje
invoazjes
invoer
invoerienge
invoern
invol
involln
inw
inwendig
inwendige
inwerkienge
inwerkn
inweuner
inweuners
inweunertal
inweunrs
inwoners
inzet
inzicht
inzienkienge
inzienkiengn
inzit
inzittn
io
ioc
ion
ionie
ionische
ionosfeer
ioonn
iowa
ip
ipa
ipbouw
ipbow
ipbringste
ipde
ipdracht
ipdrachtgever
ipdrachtn
ipe
ipeetn
ipeisn
ipg
ipgebloazn
ipgebouwd
ipgebrocht
ipgebrookn
ipgede
ipgedeeld
ipgedreegn
ipgedroagn
ipgee
ipgeetn
ipgeevn
ipgegroavn
ipgegroeid
ipgeheevn
ipgekocht
ipgekoomn
ipgekwikt
ipgeleid
ipgeloopn
ipgelost
ipgemerkt
ipgenoomn
ipgepakt
ipgericht
ipgeschreevn
ipgeslootn
ipgesplitst
ipgesteld
ipgetreedn
ipgetrokkn
ipgevo
ipgevoerd
ipgevolgd
ipgevuld
ipgewekt
ipgezet
ipgienk
ipgroaviengn
ipgroeide
ipkommn
ipkomst
ipkomste
ipkwam
ipleidienge
ipleidinge
ipleidynge
iplossienge
iplossn
iplossynge
ipmerkelik
ipmerkn
ipname
ipnief
ipnieuw
ipnoame
ipper
ippergezag
ippergod
ipperste
ippervlak
ippervlakte
ippervlaktn
ippolito
ippr
ippre
iprichter
iprichters
iprichtienge
iprichtn
iproep
ipschrift
ipslag
ipsluutn
ipsommienge
ipstand
ipstandeliengn
ipstandig
ipstandige
ipstandn
ipsum
iptreden
iptredens
iptreed
iptreedn
iptreedns
ipv
ipvangn
ipvattienge
ipvattiengn
ipvoalnd
ipvoedienge
ipvoerienge
ipvolgde
ipvolger
ipvolgers
ipvolgienge
ipvolgiengsrecht
ipvolgn
ipvolgster
ipvollend
ipvollnd
ipvollnde
ipzet
ipzettn
ipzichte
ipzyds
ir
ira
irak
irakeesche
iran
ird
ire
ireann
ireland
irene
iris
irish
irma
irmingard
iroansche
iron
ironie
ironisch
ironman
irrationoale
is
isa
isaac
isabel
isabella
isabelle
isar
isbergues
isbn
ise
isens
isgeschiedenis
isidoor
isis
isla
islam
islamiestiesche
islamitische
island
islands
isle
isn
iso
isoglosse
isoglossn
isola
isoleerd
isoleucine
isoloasje
isomo
isotherm
isotoopn
israe
issoudun
ist
istanboel
istanbul
iste
ister
istn
istorie
istorisch
istorische
istr
istrie
it
ita
itali
italia
italian
italiana
italie
italioander
italioann
italioans
italioansche
italioanschn
italioanse
italioanstoalig
italjoans
italjoansche
italo
italy
item
iter
iters
itoalie
itoalisch
itoalje
its
iucn
iulius
iv
ivan
ivanov
ivo
ivoj
ivoor
ivrea
iweuners
ix
izegem
izzegem
j
ja
jaagn
jaak
jaap
jaar
jaarboek
jaarliks
jabal
jabbeke
jacht
jack
jackson
jacky
jacob
jacoba
jacobins
jacobs
jacobsen
jacobskapelle
jacobskerke
jacobus
jacopo
jacqueline
jacques
jaer
jaeren
jager
jagiello
jagiellon
jagiełło
jakarta
jakob
jakoeb
jakoetje
jalousie
jam
jamaica
james
jammer
jan
jane
janeiro
janez
janick
janka
janne
jans
jansbrugge
jansdyk
jansen
janskerke
janspling
janssen
janssens
janszoon
jantje
januari
januarije
januoari
japan
japaneesche
japanese
japans
japansche
japonica
jard
jardin
jaren
jargon
jason
jasper
java
jawbreaker
jay
jazz
jazzmuzikant
je
jean
jeanne
jeans
jeanty
jef
jeff
jeffrey
jehan
jelle
jemappes
jemen
jen
jena
jennifer
jenny
jens
jensen
jeremy
jericho
jeroen
jerome
jerry
jersey
jerusalem
jeruzalem
jesse
jessie
jesus
jet
jetairfly
jets
jette
jeu
jeugd
jeugdbewegienge
jeugdboek
jeugdboekn
jeugdjoarn
jeugdjury
jeugdliteratuur
jeugdschryver
jeugduus
jeugdzorg
jeune
jeunn
jeux
jevgeni
jezo
jezoensis
jezui
jezus
jheronimus
ji
jie
jielbeaumadier
jij
jim
jimmy
jin
jis
jiste
jiwwe
jo
joa
joachim
joag
joagen
joager
joagers
joagn
joagt
joak
joan
joanna
joannes
joaquim
joaquin
joar
joare
joaren
joarenlank
joargetyde
joarig
joarige
joarign
joarliks
joarliksche
joarlikschn
joarlikse
joarlyks
joarlykse
joarmarktn
joarn
joarriengn
joartal
joartellienge
joat
job
jobs
jocteau
jodocus
joe
joegoslavie
joegosloavie
joekon
joel
joen
joene
joeng
joenge
joengere
joengern
joengers
joenges
joengn
joengre
joengs
joengsjes
joengste
joenk
joens
joerie
jogaila
johan
johann
johanna
johannes
johannesburg
john
johnny
johnson
johny
joint
joke
jollain
jommeke
jon
jonas
jonathan
jonckheere
jones
jong
jonge
jongen
jongens
jongeren
jonghe
jongste
jood
joodn
joods
joodsche
joop
joos
joost
jordaens
jordan
jordanie
jorge
joris
joriskerke
jorn
jos
jose
josef
josep
joseph
josephine
josh
josip
josue
jou
joun
joung
jounge
joungen
joungens
jounger
joungere
joungern
joungernklassement
joungers
jounges
joungetje
joungn
joungns
joungsje
joungsjes
joungste
joungstn
jounk
jounkeid
jounkvrouwe
journal
journalist
journaliste
journalistiek
journoal
joyce
jozef
jozefskerke
jpeg
jpg
jr
jstor
ju
juan
jubelpark
judas
jude
judea
judith
judo
judoka
juffrouw
juillet
juiste
jukte
jules
juli
julia
julian
juliana
julianus
julie
julien
juliens
julioansche
julius
jullie
july
jump
jun
junder
june
jungle
juni
junior
juniors
juniperus
junne
juno
jupiler
jupiter
jura
juragebergte
jurapteryx
jurgen
juridische
jurist
jury
just
juste
justice
justiciarius
justiesje
justify
justin
justine
justitie
justus
jutland
juust
juuste
juustn
juutn
juventus
k
ka
kaa
kaam
kaamn
kaamre
kaamt
kaap
kaart
kabbeljowse
kabinet
kabinetschef
kabouters
kachtelgat
kachtem
kader
kadril
kaempferi
kaffee
kaffie
kafka
kafte
kahn
kai
kaj
kajotter
kajotters
kakkerlak
kakkerlakkn
kakkernestje
kalender
kales
kaliefornje
kaliesje
kalifornie
kaliningrad
kalisje
kalissie
kalissieout
kalium
kaliumchloroat
kaliumhydroxide
kalk
kalkoen
kalkoenn
kalkrotsn
kalkste
kalle
kalme
kalmeern
kalut
kalwaria
kam
kamagurka
kamchatka
kameleong
kameleongs
kamer
kameroen
kamers
kamiel
kammn
kamp
kampen
kampf
kampingem
kampioen
kampioene
kampioenen
kampioenn
kampioenschap
kampioenschappen
kampioenschappn
kampioenskap
kampioenskappn
kampn
kamsalamander
kamtsjatka
kan
kanaal
kanaaltwee
kanaar
kanada
kanadeesch
kanadeesche
kanal
kand
kandidoat
kandidoatn
kane
kanegem
kangoeroes
kanker
kankerblomme
kankre
kanne
kano
kanoal
kanoaleilandn
kanoaln
kanol
kanong
kanongs
kans
kanse
kanselier
kansn
kant
kantcentrum
kanten
kantje
kantl
kantn
kanto
kantong
kantongs
kanunnik
kanunniken
kanunnikn
kapel
kapelle
kapellebroek
kapellekes
kapelletje
kapelln
kapelme
kapite
kapiteeln
kapiteing
kapiting
kapitoal
kapittel
kapittelkerke
kapittels
kapot
kappa
kappe
kappn
kappus
kapsel
karajiebiesche
karajiebn
karakter
karakteristiek
karakteristieke
karakteristiekn
karakters
karaktertrek
karaktre
kardemong
kardinoal
kardinoaln
karel
karelie
karels
karen
karieboe
karinthie
karl
karloman
karnak
karolienger
karoliengers
karoliengische
karolingisch
karolingische
karolingischn
karootn
karote
karpers
karpoatn
karre
karrn
kart
karte
kartel
kartje
kartn
karyatides
kasbah
kaspiesche
kaspische
kasse
kassel
kasselberg
kasselry
kasselrye
kasselryen
kasseystroke
kasseystrooke
kassn
kaste
kastee
kasteel
kasteil
kaster
kasterlee
kastilie
kat
katachtige
katachtign
katapult
kate
kateedroale
katelynepo
katelynestroate
kathedraal
kathedrale
kathedroale
kathedroaln
katheedroale
kathleen
katholicisme
katholiek
katholieke
katholiekn
katholyke
katje
katjes
katjoesja
katlieke
katlynepo
katoen
kats
katsberg
katte
kattegat
kattenstoet
kattestoet
kattn
kaukasische
kaukasus
kaulitz
kaume
kauwe
kauwgom
kauwn
kav
kave
kaye
kazachstan
kazakhstan
kazakstan
kazerne
kb
kbab
kbbc
kbc
kbvb
ke
kebe
kee
keegle
keegles
keegls
keekn
keel
keeler
keemlachtign
keep
keeper
keepers
keer
keerde
keern
keers
keert
keetn
keetns
keevre
keevrs
kegel
kei
keihard
keikop
keir
keirel
keirels
keirke
keirn
keirs
keirse
keirsn
keisuke
keith
keizer
keizerinne
keizerlik
keizerlikke
keizerryk
keizers
keizerschap
keizerskro
keizerstitel
keizre
keken
kelder
keldermans
kelders
kele
kelly
keltiberisch
keltisch
keltische
keltn
kelvin
kemal
kemel
kemelachtigen
kemelachtign
kemels
kemmel
kemmelbeke
kemmelberg
kempn
ken
kenai
kend
kende
kendn
kenen
kenia
kenienge
keniengn
kenisse
kenissn
kenmerk
kenmerken
kenmerkn
kenmerknd
kenn
kennedy
kennemerland
kennen
kenners
kennesse
kenneth
kennisse
kennissn
kenny
kenoare
kens
kent
kentucky
kenyns
kepler
keppe
ker
keramiek
keratine
kerels
keren
kerk
kerke
kerkebeke
kerkelik
kerkelikke
kerkelyk
kerkelyke
kerken
kerkestroate
kerketorre
kerkgebouw
kerkgebouwn
kerkhof
kerkhoovn
kerkhove
kerkn
kerkof
kerkoovn
kerkrade
kerksje
kerkstroate
kerkuul
kerkuuls
kerkvoader
kermis
kern
kerncentrale
kernen
kernfusie
kerngebied
kernn
kerns
kerremesse
kerry
kers
kersschaever
kerstdag
kerstmis
keryen
kesfehe
kestdag
kestoavend
ketel
ketters
kettery
keuken
keukn
keulen
keuln
keun
keuneginne
keunekapelle
keunevlees
keunieng
keunienginne
keuniengn
keuniengschap
keuniengshuus
keunienk
keunienklik
keunienklike
keunienklikke
keunienklyk
keunienklyke
keunienkryk
keunienkrykn
keunienkschap
keunienksdag
keuniginn
keuniginne
keuniginnedag
keuning
keuningn
keunink
keuninklik
keuninklike
keuninklikke
keuninklyke
keuninkryk
keunn
keuns
keunt
keunynk
keunynklyk
keunynkryk
keure
keurt
keurvorst
keurvorstn
keurvorstndom
keuze
kever
kevers
kevin
kew
keyboard
keyboards
keye
keyem
keyes
keys
keyse
keyser
keyzer
kf
kfc
kg
khabarovsk
khan
khentie
khuree
ki
kids
kie
kiek
kiekeboe
kiekens
kiekn
kiekndief
kiekndievn
kiekns
kieksjes
kiekt
kiel
kielomeetrs
kiend
kiender
kienderboekn
kienderjoarn
kienders
kiendertyd
kiendje
kiendjes
kiendrs
kienge
kieskrieng
kieskring
kiest
kieuwn
kiev
kiezen
kiezenet
kiezienge
kiezn
kijk
kijken
kijkt
kik
kikt
kill
killem
killer
killing
kilo
kilogram
kilome
kilomeiter
kilomeiters
kilometer
kilometers
kilt
kim
kimbra
kind
kinder
kinderen
kinders
kindjes
kindsheid
kinepolis
king
kingdom
kings
kinne
kinshasa
kint
kip
kipchak
kipling
kir
kiraz
kirgizie
kirk
kirn
kirs
kis
kiss
kiwi
kje
kji
kkn
klaas
klacht
klachtn
klagenfurt
klakke
klakkebusse
klank
klanke
klanken
klankn
klankverschuvienge
klankverschuviengn
klap
klapp
klappen
klappn
klappnde
klaproos
klapt
klapte
klaptn
klara
klarinette
klas
klasse
klassement
klassementn
klasserienge
klassiek
klassieke
klassieker
klassiekers
klassiekn
klassifikoasje
klassn
klauwe
klauwen
klauwers
klauwn
klauwoarts
klavecimbel
kle
klee
kleef
kleen
kleene
kleenste
kleenzeune
kleern
kleers
klein
kleinder
kleindere
kleine
kleiner
klem
klemmer
klemmers
klemmn
klemplantn
klemskerke
klemto
klene
kleppn
klerk
klerkn
klets
kletse
kletsekop
kletsn
kleur
kleuren
kleurgebruuk
kleurn
kleurnspectrum
kleurryke
kleurstoffe
kleuter
kleuters
kleve
klie
kliemoat
klienge
klienieke
klienker
klienkers
klienkt
kliere
kliern
klik
klimoat
klimoatn
klinder
klindere
klindre
klinieke
klinkt
klinste
klintjes
klippn
klj
klo
kloade
kloar
kloare
kloarte
kloavers
klockhuis
kloeffe
kloeke
klok
klokhuus
klokke
klokketorre
klokkn
klooster
kloosterkerke
kloovn
klop
kloppen
kloppn
klopt
klopte
klucht
kluchtig
kluchtige
kluchtigoard
kluchtigoards
kluchtje
kluchtjes
kluchtn
klukowski
klute
kluttergeld
kluusberg
kluusbergn
kluut
kluutn
kluuzenoareye
klyte
km
kms
knabbeln
knack
knappe
knecht
knechtn
knesseloare
knie
knien
knight
knoagbe
knoagbeestn
knoagdier
knoagdiern
knobl
knock
knokke
knokteberg
knoop
knoopn
knooppunt
knop
knopf
knopgalle
knopgalletjes
knoppn
knops
knopschubn
knoptjes
knotwilge
know
knowledge
known
knows
knud
ko
koabels
koader
koadre
koaie
koake
koakn
koala
koale
koamer
koamermuziek
koamers
koameryk
koamre
koanegem
koap
koape
koaper
koapers
koapn
koapr
koapsche
koapstad
koarel
koarl
koarle
koarte
koartn
koartspel
koas
koasfabrieke
koaskerke
koasmoakery
koaster
koater
koave
kobbe
kobbeachtign
kobbenette
kobbenettn
kobbn
kobe
koblenz
kocht
kochte
kochtn
kockere
kodiak
koe
koebe
koed
koede
koeiboeren
koeie
koeien
koeigem
koein
koekelare
koekelberg
koekeloare
koekn
koekoeksnest
koeksjes
koele
koem
koeman
koen
koenraad
koepala
koepel
koepeure
koer
koerdische
koereur
koerieln
koers
koerse
koerseklassieker
koersen
koersn
koersvelo
koest
koeste
koestn
koetelwyk
koetelwykpo
koetse
koeweit
koffie
kogel
kok
koken
koker
kokerulle
kokkeduunn
kokkels
kokme
koksijde
koksyde
kolas
kolisje
kolk
kolkste
kolle
kollwitz
kolme
kolobnev
kolomme
kolonel
kolonie
kolonies
koloniestn
koloniezoasje
kolonioal
kolonioale
koloniseerde
koloniseern
kolonisoasje
kolonistn
koloonje
koloonjes
koluumbja
kom
komaf
komar
kombienoasche
kombienoasches
komedie
komeet
komeetn
komen
komete
komi
komiek
komitee
komkommer
komm
komma
komme
kommeern
kommen
kommende
kommentoar
kommersje
kommn
kommt
komn
komodo
kompasje
kompleete
komplot
kompost
komst
komste
komt
komyn
kon
kong
kongo
koniefeere
koniefeerebusschn
koniefeern
konifeere
konifeern
koning
koningin
koninklijk
koninklijke
koninkrijk
konkelberge
konrad
konradyners
konstantinoople
konstruktie
kontakt
konte
kontienent
kontienentn
kontienentoale
kontinent
kontinentoal
kontrolle
konvo
konvooi
kook
kookloare
kookn
kooksfabrieke
koolhydroatn
koolme
kooln
koolstof
koolstofatoom
koolstofdioxide
koolstoffe
koolstofmonoxide
koolstofmonoxidevergiftigienge
koolwoaterstoffn
koomn
koomt
koophandel
koopman
koopn
koopnoagn
koor
koorommegank
koos
koozn
kop
kopborststik
kope
kopen
kopenhagen
koper
koperbloazers
kopgroep
kopie
kopiee
kopies
kopman
kopn
koppel
koppelieng
koppelienge
koppeliengen
koppeliengn
koppelinge
koppels
koppen
koppenaksvoorde
koppenberg
koppig
kopplienge
koppliengn
koppn
koppo
kopt
koptje
koran
kordieleera
korea
koreana
koren
koreoansche
koriander
kork
korno
koroal
koroaln
koroalriffn
koroalrifn
kors
korses
korst
korste
korstmossn
kort
korte
kortelings
kortemark
korter
kortere
kortetermynkomeetn
kortfilm
kortfilme
kortn
kortndrank
kortrijk
kortrijks
kortrijkse
kortrik
kortryk
kortryke
kortryks
kortrykse
kortschildkever
kortschildkevers
kortste
kortweg
kosmische
kosovo
kossien
kost
koste
kosten
koster
kostige
kostn
kostte
kot
koteletten
koter
kotje
kotmadam
koud
koudbloedige
koude
koudekerke
kouder
koudn
koudste
koukerke
kout
kouter
kouters
koutn
koutys
kowlier
kozn
kozyn
kpa
kra
krabbe
krabben
krabbn
kracht
krachtig
krachtige
krachtn
krachtns
kraj
krak
krakau
krako
krans
kransn
krant
krapuul
krasnodar
krc
kre
kree
kreeftachtige
kreeg
kreegn
kreegt
kreekls
kreekn
kregen
kreis
kreise
kreisfreie
kreits
kreitsn
kreke
kremlin
kreta
kreukel
kreukels
kreuners
kreuscheke
krewinkel
krieg
kriegt
kriek
kriekn
kriengn
kriftachtign
kriftn
krig
krigt
krijgen
krijgt
krim
krimi
kring
kris
kristien
kristlik
kristlikke
kristndom
kristnen
kristof
kristus
kritiek
kritiekn
kritisch
kritische
kro
kroagcelln
kroaiachtign
kroaiberg
kroaie
kroain
kroaiwyk
kroaizje
kroakbe
kroam
kroane
kroanplatse
kroanreie
kroater
kroaters
kroatie
kroatisch
krochte
krokkediele
krokkedieln
krom
krombeke
kromme
krommenelst
krone
kroniek
kroniekn
kroniekschryver
kronos
krootn
krot
krote
krotte
krottegem
krowoasje
krowoatische
kru
krudekoeke
kruger
kruis
kruishoutem
krulstaart
kruud
kruudachtige
kruudn
kruudnhof
kruudnoagel
kruune
kruupn
kruupt
kruus
kruusblommign
kruuschienge
kruusgewelvn
kruusienge
kruusigienge
kruuskerke
kruuskerkn
kruusn
kruuspo
kruuspunt
kruust
kruustocht
kruustochtn
kruusvoarders
kryg
krygen
krygn
krygt
krypte
kryt
krytperiode
ksa
ksc
ksk
ksv
kt
ktoarn
ku
kubieke
kubus
kud
kudde
kuddn
kudul
kuifje
kuiftsje
kuip
kuipergordel
kuipergordellichoamn
kuj
kuje
kuk
kul
kulak
kuleuven
kulln
kulmerland
kulon
kulture
kultuur
kultuure
kun
kundje
kunigunde
kunn
kunnen
kunnn
kunst
kunste
kunsten
kunstenoare
kunstenoars
kunstenoarsgroep
kunstgeschiedenisse
kunsthistorisches
kunstmoatig
kunstmoatige
kunstmuseum
kunstn
kunstnoare
kunstnoars
kunstschilder
kunstschilders
kunststoffe
kunststromienge
kunsttoale
kunstwerk
kunstwerkn
kunt
kupe
kurile
kurpfalz
kurremul
kurt
kus
kush
kusn
kust
kuste
kustgebied
kustgebiedn
kustgeme
kustlyne
kustlynne
kustn
kuststad
kuststreke
kuststroke
kusttoerisme
kusttram
kustvlakte
kustwestvlams
kut
kuts
kuultuure
kuurne
kuuschen
kuuschn
kv
kvc
kvk
kvs
kw
kwaam
kwaamn
kwaamt
kwadrant
kwadroat
kwakkel
kwakkels
kwalificeern
kwaliteit
kwaliteitn
kwalle
kwalln
kwam
kwame
kwamen
kwamn
kwamt
kwamter
kwamtr
kwartel
kwartfinalle
kwartfinalles
kwartier
kwartiern
kwastvinnign
kwb
kwe
kweek
kweekn
kweiste
kwestie
kwestje
kwetsboar
kwetseurn
kwik
kwiksteirt
kwiksteirtn
kwoad
kwoadyper
kwoam
kwoamen
kwoamn
kwoaremont
kwom
kwyt
kyk
kyke
kyken
kykers
kykn
kykt
l
la
laag
laagn
laamas
laasn
laat
laatste
labadoux
label
labeur
laboratorium
labour
labrador
lac
lach
lachaise
lachen
lachende
lachn
lacht
lactose
ladder
laden
ladinisch
ladislaus
lady
laet
laey
laf
lag
laga
lagae
lage
lagen
lager
lagere
lagersta
laghetto
lago
lagomorpha
lagopus
lagos
lagt
lagune
lai
lais
lake
lakenhalle
lam
lama
lamain
lamarck
lambeaux
lambersart
lambert
lambertsro
lambertuskerke
lambic
lambrecht
lambrechts
lamiaceae
lamiales
lammens
lamoot
lamoral
lampe
lampernisse
lampn
lampre
lan
lancashire
lancaster
lance
lanceert
lanceloot
lancerienge
land
landast
landbe
landbouw
landbouwground
landbow
landbowgroend
landbrugge
lande
landelik
landelikke
landelyk
landelyke
landen
landes
landgoed
landgroaf
landgroafschap
landgroavn
landhuus
landienge
landinnewoarts
landinwoarts
landippervlak
landkreis
landkreise
landkrokkediele
landlikke
landmassa
landn
landna
landplantn
lands
landscape
landschap
landschapp
landschappen
landschappn
landschapschilder
landschapsschilder
landschoot
landsde
landskampioen
landskampioenn
landstreeke
landstreekn
landstreke
landt
landtoenge
landuus
landuyt
landvo
landvoogd
landvoogdesse
landvoogdn
landvorm
lane
lang
langde
langdeurige
lange
langemarck
langemark
langen
langenus
langer
langere
langereie
langern
langestroate
langetermynkomeetn
langgerekt
langhemans
langk
langn
langpo
langre
langs
langsn
langsom
langst
langste
langstn
language
languages
langue
languedoc
langues
langwerpig
langwerpige
lank
lanka
lanks
lankte
lankwerpig
lann
lannoo
lannoy
lano
lanotte
lans
lanse
lanst
lanteirn
lantois
lanuvio
laon
laos
lap
laplaigne
lapland
laplasse
lapname
lapnoame
lapnoamn
lapouter
lappn
lapscheure
lapscheurs
lapsus
larch
large
largillie
lariano
laricina
larix
larry
lars
larsson
larus
larve
larven
larvn
las
lascaux
lasen
lasiocarpa
lassn
lasso
last
laste
lastig
lastn
lat
late
latem
latemsche
laten
later
laterale
latere
lateur
latin
latina
latino
latium
latn
latrans
latsn
latst
latste
latsten
latstgenoemde
latstn
latte
lattesto
latyn
latyns
latynsche
latynschn
latynse
laude
laura
lauraceae
laureins
laurence
laurent
laurentkerke
laurids
laurier
lauterbach
lauwe
lauwers
lava
lavendel
laventie
law
lawe
lawoai
lawrence
laxdæla
lay
lazarus
laziale
lazio
ld
ldd
ldegalerie
ldn
le
leadgitaar
league
least
leben
lecelles
lech
lectrr
led
leda
lede
ledeberg
ledegem
ledemoatn
leden
lederzele
ledringem
lee
leed
leedn
leeds
leefde
leefdn
leefgebied
leefgebiedn
leefomgeevienge
leefomgevienge
leeft
leeftijd
leeftyd
leeg
leege
leegem
leeger
leegr
leegre
leegvlakte
leek
leekn
leem
leemans
leemput
leen
leenders
leenn
leer
leerde
leerliengn
leerlingn
leern
leerne
leers
lees
leest
leeuw
leeuwarden
leeuwenhart
leev
leevdn
leevend
leevn
leevnd
leevnde
leevnsbeschryvienge
leevnsbeschryviengn
leevnslange
leevnslank
leevnswyze
leezers
leezienge
leeziengn
leezn
leezrs
lefe
lefevere
leffe
leffienge
leffrinkoeke
leforest
left
leg
legans
legansn
legde
lege
legem
legenda
legende
legendes
legendn
legendoarische
leger
legeranvoerder
legerdienst
legere
legeriengselementn
legers
leggen
leggn
legiers
legioen
legn
legt
lei
leibniz
leicester
leicestershire
leidde
leiden
leider
leiders
leiderschap
leidieng
leidienge
leidinge
leidn
leidre
leidt
leie
leiedal
leien
leiestreke
leif
leigh
lein
leipzig
leisel
leisele
leit
lek
leke
lekkn
lekt
lelie
lelies
lelioards
lely
lelystad
lemaire
leman
lembeek
lemen
lemire
lemmer
lemon
lemond
len
lendlee
lengte
lengtegroad
lengtegroadn
lennon
lennox
lenny
leno
lens
lente
leo
leon
leonard
leonardo
leone
leonees
leopard
leopardus
leopold
lepanto
lepidoptera
lepidus
lepontisch
lepra
leprosy
leptinotarsa
lepus
ler
lerberghe
lere
leren
lerma
lernout
leroare
leroy
les
lesage
lesquin
lesse
lessen
lessn
leste
lestin
leszczyn
let
leterme
letland
leto
letste
letstn
letter
lettere
letteren
lettergrepe
letterkunde
letterkundig
letterkundige
letterlik
letterlyk
lettern
letters
lettn
lettre
lettrekunde
lettrekundig
lettrekundige
lettres
leucine
leucocephalus
leukemans
leusd
leute
leuven
leuvense
leuvn
leuze
lev
levant
leve
level
levellers
leven
levend
levende
levendig
levendige
levensbeschryvienge
levensverhaal
levenswyze
lever
leverancier
leverde
levern
levert
leviathan
leviticus
levrancier
lewes
lewis
lex
lexicon
leyden
leydienge
leydn
leyman
leysen
leyssens
lez
lezen
lezennes
lezers
lezienge
leziengn
lfb
lfljo
lft
lgemee
li
lia
liar
liard
libani
libanon
libe
libeco
libelle
libelln
liber
liberalisme
libero
liberoal
liberoale
liberoaln
liberty
libie
libourne
library
libre
libretto
libri
libroasje
license
licensje
licentie
licentioat
lichaam
lichoam
lichoamn
lichodzijewski
licht
lichtbruun
lichte
lichten
lichter
lichtervelde
lichtjes
lichtjoar
lid
lidmoatschap
lidstoatn
lidwoord
lie
liechtenstein
liechtnstein
lied
liederen
liedern
liedje
liedjes
liedjesschryfster
liedjesschryver
liedjestekstn
lief
liefde
liefdesverhaal
liefebber
liefebbers
liefhebbers
liefmans
liefsje
liefst
liefste
liekens
lien
lienge
liengn
lienk
lienkerkant
lienkeroever
lienks
lienkschn
lienkse
liep
liepn
liept
lier
lierde
liere
lierse
lies
liesa
liesbeth
liet
lietaer
lieten
lietn
lietrateure
lietre
lieve
lieven
lievens
liever
lievre
life
lig
liga
lige
ligg
liggen
liggend
ligger
liggienge
liggiengn
ligginge
liggn
liggnde
liggynge
light
lightning
lign
ligny
ligt
ligter
ligurie
ligurische
ligurischn
lijk
lijkt
lijn
lijssenthoek
lijst
lik
like
likeure
lille
lily
lima
limburg
limburgs
limburgsche
limburgse
limiet
limited
limoen
limousin
lin
lincoln
lincolnshire
linda
linde
line
lineair
linge
lingelsh
lingn
lingua
linie
link
linkeroevr
links
linkse
linn
linnaeus
linne
linsele
lint
lintbebouwienge
linum
linux
linz
lion
lionel
lip
lipblommefamilie
lipidegroepn
lippe
lippens
lippn
lis
lisa
lisbourg
lische
liseenn
lissabon
lisseweegs
lissewege
lissotriton
list
liste
listed
liston
lists
liszt
litchi
litchibo
liter
literair
literaire
literarische
literary
literateure
literature
literatuur
liters
lithium
lithograaf
lithografie
lithographica
lithogroafische
lithosfeer
litische
litouwn
litouws
litte
little
littorina
liturgie
liudolfiengers
liutgarde
live
liverpool
livia
living
livius
livre
lix
lizard
ljo
ljubljana
ll
lle
lleida
ller
llienge
lliengn
lloyd
llywelyn
ln
lo
load
loadienge
loadiengn
loadn
loage
loager
loagere
loagn
loagsje
loakn
loaknalln
loaknandel
loaknhalle
loaknindustrie
loaknolle
loaknolln
loane
loat
loate
loaten
loater
loatere
loatern
loatgotiek
loatgotische
loatn
loatr
loatre
loatste
loberge
location
lochristi
lochtienk
lockon
loco
locoasje
lode
lodewijk
lodewyk
lodewyks
lodewykscollege
loenen
loengn
loes
lof
lofdicht
log
logan
loge
logie
logische
logo
loir
loire
loiret
loisach
lokaal
lokale
loker
lokeren
lokern
loki
lokketetsn
lokkn
lokoal
lokoale
lokoaln
lokoasje
lokoers
lokoerse
lokt
lol
lombaerts
lombardeye
lombardisch
lombardische
lombardn
lombardo
lombardsijde
lombardsyde
lombeek
lomme
lommel
lomp
lompret
lond
londen
londn
londnsche
london
lonely
long
longfellow
longicaudatus
longobardn
lons
loo
loof
loofbo
loofboom
loofboomn
loofbus
loofbusschn
loog
look
loon
loop
loopboane
loopgroavn
loopn
loopster
loopt
loopveugels
loos
loose
looten
loove
looy
loozje
lop
lope
lopen
loper
loppem
lopt
lorca
lord
lordi
loreley
lorenzo
lorgies
lorke
lorkn
lorrain
lorraine
lorsch
los
losloatn
losse
lossn
lost
lot
lothariengn
lotharingen
lotharingia
lotharingn
lotharius
lothier
lotte
lotto
lou
lough
louis
louise
louisiana
lounge
loungn
loungountstekienge
loup
lourdes
louvie
louvil
louvre
louwaege
louwyck
love
loved
loveling
lovely
lovesong
loving
lovoart
low
lowiengn
lowland
lowlands
loxodonta
lp
lpn
ls
lt
ltd
ltegans
ltelyk
ltiesche
lu
lublin
luc
luca
lucania
lucas
lucasgilde
lucca
luchon
lucht
luchtbeuke
luchtboogn
luchtdruk
luchtfoto
luchtjes
luchtmacht
luchtn
luchtoavn
luchtsterkte
luchtstroom
luchtweegn
lucia
lucien
lucifer
lucilius
lucille
lucius
lucky
lucrezia
lucy
lude
ludo
ludovicus
ludvig
ludwig
luftwaffe
lugano
lugdunum
lui
luid
luigi
luik
luioard
luipeird
luis
luisa
luk
luka
lukaku
lukas
luke
lukt
lukte
lumbricus
lumen
lumie
lumina
luminisme
lumumba
luna
lune
lupus
lusitanica
lust
lustenhouwer
lustrumverjoardag
lutenant
lutgart
luther
lutheranisme
luthersche
lutra
luttn
lutyens
luuk
luuksche
luupe
luusen
luustern
luusteroars
luustert
luutenant
luuzn
lux
luxe
luxembourg
luxemburg
luxemburgs
luxemburgsche
luxor
luxueus
luz
luzekam
lvarez
lve
ly
lybeer
lyell
lyen
lyf
lyfspreuke
lyk
lyke
lykn
lykt
lynch
lynde
lyne
lynn
lynne
lynx
lyon
lyrics
lyriesch
lyriesche
lyrisch
lyrische
lys
lyse
lyste
lysters
lystje
lysttrekker
m
ma
maa
maagd
maaike
maakn
maakt
maal
maan
maand
maar
maarschalk
maarssen
maart
maarten
maastricht
maat
maatschappelijk
maatschappij
mabo
mac
macaroni
macedonie
macedonisch
machen
machiels
machienn
machine
macht
machte
machteld
machtig
machtige
machtiger
machtigste
machtn
machtsgebied
macken
mackenzie
macnabiana
macrocarpa
macroscelidea
macrourus
macrura
madagascar
madagaskar
madam
madame
madams
madara
made
madeira
madeleine
mademoiselle
maderno
madness
mado
madocke
madonna
madre
madrid
maekeblyde
maenas
maene
maer
maere
maerlant
maertens
maes
maeterlinck
maeyens
maffeo
mag
magazine
magazyn
magazyne
magda
magdalen
magdalena
magdalenakerke
magdeburg
mager
maggie
maggiore
maghreb
maghrib
magic
magisch
magische
magistroat
magma
magna
magnesium
magnetisch
magnetische
magnifica
magnifico
magnifiek
magnitude
magnoliophyta
magnon
magnorde
magnum
magnus
magritte
magt
magyoarn
mahal
mahaut
mahmoud
mai
maiden
mail
maile
main
maine
mainz
mairie
maisnil
maison
maisons
majeur
majoor
major
majutte
mak
make
makelaars
makemake
maken
makes
making
makkelik
makkoar
makn
makoar
makoars
makt
makte
makteg
maktege
makten
maktige
maktign
maktn
mal
malacologie
malaga
malaria
malawi
malbork
malcolm
maldegem
male
maleisie
malesia
mali
malisse
malle
mallekoar
mallorca
malmedy
malo
malpertuis
malpighiales
malstaf
malta
malte
mama
maman
mammalia
man
management
manager
mancha
manche
manchester
mande
mandel
mandela
mandelinck
mander
mandetjes
mandoat
mandoatgebied
mane
manet
manfred
mangaan
manhattan
manie
manier
maniere
manieren
maniern
manifest
manilla
manilln
manitoba
mankaor
mankoar
mann
manneke
manneken
mannekensveere
mannekensvere
mannekes
mannelijk
mannelik
mannelike
mannelikke
mannelli
mannelyke
mannen
mannetje
mannheim
mannlikke
manoir
mans
mansfeld
manson
mansur
mantas
manteau
mantegna
mantel
manten
mantsjoerye
mantua
manu
manuel
manuscript
manuscrit
manx
many
mao
maori
map
mapei
maps
maquette
mar
mara
maradona
marais
marat
marathon
marbais
marc
marcel
marcello
marcellus
march
marchandieze
marchandise
marchang
marche
marcheerde
marcheern
marciana
marco
marcomann
marcq
marcus
mardyck
mardyk
mare
marec
margaret
margareta
margaretha
margarine
margarita
marge
margherita
margriet
marguerite
mari
maria
mariakapelle
mariakerke
marialegende
mariana
marianne
mariapo
mariawende
marie
marieke
mariekerke
marien
marienkirche
mariette
marihuana
marijke
marilyn
marina
marine
marino
marinus
mario
maris
maritiem
maritieme
maritime
maritimes
maritimus
marja
marjoleine
marjorie
mark
marke
markebrugge
markeern
markeert
markegem
markermeer
market
marketing
markette
markgroaf
markgroafschap
markgroavn
markies
markn
marko
markt
marktpling
markus
marlborough
marleen
marlene
marmara
marmer
marmern
marne
marnix
maroc
marokko
marokkoann
marokkoans
marokkoansche
marot
marquain
marque
marquette
marquillies
marraine
marrakesh
mars
marseillaise
marseille
marsenne
marseping
marshall
marsupialia
mart
marta
martel
marten
martens
marterachtige
marterachtign
marters
martes
martha
marti
martin
martine
martinez
martino
martinus
martinuskerk
martinuskerke
marva
marvin
marx
mary
maryland
mascotte
masereel
masker
mason
masquinongy
massa
massachusetts
massacre
massagetal
massas
massasprint
masse
massey
massief
massieve
massimo
massinn
massinne
massoal
master
masters
match
matchen
matchn
mate
maten
matera
materiaal
material
materie
materioal
materioaln
materiol
materjoal
mathbb
mathematica
mathias
mathieu
mathilda
mathilde
mathrm
matic
matidia
matilda
matrix
matt
mattan
matter
matters
mattheu
mattheus
matthew
matthews
matthias
matthieu
mattn
mau
maud
maulde
maur
maure
maurice
maurienne
mauritanie
maurits
maurkerke
mauro
mauroy
mausoleum
max
maxi
maxim
maximaal
maxime
maximiliaan
maximilian
maximoal
maximum
maximus
may
maya
mayenne
mayo
mayotte
mazarin
mazovie
mazurkiewicz
małopolska
mb
mbox
mc
mcbrain
mccartney
mccrae
mcewen
mcgovney
mcgowan
mcpherson
me
meadow
means
meat
meaux
mecenas
mechanica
mechanische
mechanisme
mechelen
mecheln
mechelsche
mecklenburg
med
medaille
medailleklassement
medailles
medaillewinnoare
mede
medeklienker
medeklienkers
medelli
medespeler
medestichter
medewerker
medewerkers
media
mediafigeure
medica
medical
medicament
medicamentn
medici
medicibank
medicine
medicyne
medieval
medikamentn
medisch
medische
meditationes
mediterroan
mediterroane
medium
medley
medusa
mee
meediekame
meediesche
meedoen
meegebrocht
meegedoan
meegemakt
meegepakt
meegewerkt
meegoan
meehedoan
meeldroadn
meer
meerdere
meerkoet
meern
meersman
meerssen
meervoud
meesseman
meest
meestal
meeste
meester
meesters
meestol
meet
meetjesland
meetkerke
meetkunde
meetn
meetrs
meeuws
meezjs
mega
megadeth
megafauna
megan
meh
mei
meibo
meidein
meiden
meidoen
meie
meiedoan
mein
meinhardin
meiose
meir
meire
meireloare
meise
meisje
meisjes
meiske
meiskes
meist
meistal
meiste
meistje
meistjens
meistjes
meiter
meiters
meißen
mejuffrouw
mek
mekka
mekkoar
meknes
mekoar
mekongdelta
meksikoansche
mel
melanesie
melbourne
melchior
meldde
meleagris
meles
meli
melilla
meliskerke
meljoen
melk
melkweg
melkwegstelsel
melo
melodie
melun
membroan
memleben
memling
memorial
memoriam
memorioal
memphis
men
menage
menapie
menapiorum
mendeljev
mendelssohn
mendes
mene
meneer
meneire
menelaos
menen
menepoorte
menig
menoage
mens
mensachtign
mensch
menschelikke
menschelyke
menschen
menschlik
menschlikke
menschn
menschnrechtn
menselik
menselike
mensen
mensheid
mensjchen
mensjov
mensn
mensoapn
ment
mente
menu
menute
menuutn
menziesii
mer
mercator
mercedes
mercia
mercier
merckx
mercurius
mercury
meregem
merg
merge
mergui
meridioan
merk
merkegem
merkel
merkem
merkn
merkwoardig
merlin
merovech
merovienger
meroviengers
meroviengisch
meroviengische
merovingisch
merovingische
merria
merris
mersey
merseyside
mertens
mervillie
merwede
merwedekanoal
merwin
mes
meskien
mesolithicum
mesosfeer
messchien
messchiens
messe
messi
messias
messina
messn
mest
mestdagh
mesut
met
metaal
metabolisme
metal
metalen
metalgroep
metalgroepn
metallica
metamorfose
metasequoia
mete
meteorietn
meteoroloog
meter
metern
meters
methionine
methoan
methode
methodes
metiengn
metoal
metoaln
metriek
metro
metropolitan
metropolitane
metropolitoane
metsenoare
metser
metten
mettentyd
mettn
metz
metzger
meubel
meubelmoaker
meubels
meubilair
meudon
meug
meugelik
meugelike
meugelikeedn
meugelikheedn
meugelikheid
meugelikke
meugeliks
meugelyk
meugelyks
meugen
meuglik
meuglikeedn
meuglikke
meugliks
meugn
meugt
meul
meulebeke
meulemeester
meulen
meulenaere
meulenoare
meulens
meuln
meulnbrugge
meulne
meulns
meunier
meur
meurn
meurschilderiengn
meurthe
meuse
mexicana
mexico
mexicoans
mexicoansche
mey
meye
meyer
meyere
meyerie
meyers
meyse
meziek
mezzo
mg
mhnt
mhz
mi
mia
miami
mich
michae
michael
michail
michel
michelangelo
michele
michelle
michiel
michiels
michielsgestel
michielskerke
michigan
mickey
micro
micronesie
microsoft
microtubuli
microtus
mid
midd
middel
middelbaar
middelboar
middelboare
middelburg
middelduuts
middele
middeleeuwn
middeleeuws
middeleeuwsche
middeleeuwse
middelfrankisch
middelgro
middelgroote
middelkerke
middellands
middellandsche
middellandse
middellansche
middellatyn
middeln
middelnederlands
middelnederlandsche
middelpunt
middels
middelste
middelstn
midden
midder
middl
middle
middlpunt
middn
middnbeuke
middnryk
middnstik
middnveld
middnvelder
midi
midlands
midn
midwestern
mie
miee
miek
mieke
miekn
miekt
mieljoen
mien
miender
mienge
miengelienge
miengeln
mienglienge
miengn
miengsel
mieniesteerje
miens
miensch
mienschn
miensn
miere
miern
miernegel
miernegels
mieszko
mietje
miguel
mij
mijn
mijne
mijnheer
mik
mika
mike
miknasa
miko
milaan
milan
milano
mild
milde
mile
milete
milhouse
milieu
milion
militair
militaire
militairen
militairn
militante
military
milite
miljaar
miljard
miljoe
miljoen
miljoenen
miljoenn
milk
millam
millar
millenium
millennium
miller
millimeter
millite
millonfosse
milne
milo
miloan
milos
milow
milton
milvus
min
mina
minarette
mind
minded
minder
minderbroeders
mindere
minderheedn
minderheid
minderjoarig
minderjoarige
mindr
mindre
mineroaln
minerva
mines
mineur
minhstad
mini
miniateure
miniatuur
miniestre
minimoal
minimum
mininova
minister
ministerie
ministers
ministre
minivoetbol
minn
minne
minneke
minnesota
minnewoater
minnewoatre
minnoare
minnoars
minoaresse
minor
mins
minschn
minsen
minsk
minsken
minsn
minst
minste
minstens
minster
minstns
mint
mintzkov
minute
minuten
minuutn
mir
miroakel
mis
misbruuk
misdoadn
mise
miserie
misje
misjes
miskien
mislukkienge
mislukkn
mislukt
mislukte
misluktn
miss
missa
misschien
misschiens
misse
missie
missies
mission
missionoaris
mississippi
missn
missouri
mist
miste
mister
mit
mitochondrie
mitose
mits
mitterrand
mivb
mix
mixed
mjinde
mjir
mm
mme
mn
mnd
mnm
mo
moa
moagd
moagdn
moagdneilandn
moage
moager
moak
moaken
moaker
moakers
moakloare
moakn
moakt
moakte
moal
moaldegem
moale
moaln
moaltandn
moand
moandag
moanden
moandn
moane
moann
moansverduusterienge
moanuppervlak
moar
moarschalk
moart
moarte
moarten
moartenskerke
moartn
moartnskathedroale
moartnskerke
moas
moasgouwe
moat
moate
moaten
moatig
moatn
moatschappelik
moatschappie
moatschappy
moatschappye
mobiele
mobile
mobiliteit
mobutu
moc
mocht
mochte
mochten
mochtn
mocrate
mode
model
modelln
modern
moderne
modernen
modernste
modersohn
modest
modifications
modificoaties
modified
modify
modularis
moe
moeder
moederbord
moeders
moedersmart
moedertoale
moedign
moedr
moedre
moeilijk
moeilik
moeilike
moeiliker
moeilikke
moeilikker
moeilyk
moeilyke
moein
moeite
moej
moeje
moejlik
moejlikke
moelik
moelikker
moen
moenaert
moend
moendde
moendienge
moendt
moeras
moerasgebied
moerasschn
moerassig
moerassige
moerassn
moerbeke
moerbrugge
moere
moeren
moerenvoart
moerkerke
moern
moerstroate
moeschroen
moeskroen
moest
moeste
moesten
moestn
moet
moete
moeten
moetn
moeyaert
moezel
mogelijk
mohamed
mohammed
moi
moine
mokke
mokker
mol
moldau
moldavie
moldoavie
moleculaire
molecular
molecule
molecules
molecuul
molecuuln
molen
molenbeek
molie
molina
molise
mollusca
molluuskn
molotov
mols
mome
momelin
momelingn
moment
momente
momenteel
momentn
mommens
mon
mona
monaco
monarchie
monarchn
moncassin
moncheaux
mond
mondadori
monde
mondriaan
monedula
monegaskisch
monet
money
monferrato
monfort
mong
mongolia
mongolie
mongoolje
mongooln
mongoolsch
mongoolsche
monica
monique
monk
monnik
monnikn
monocotyln
monografie
monogram
monograph
monokini
monopis
monopolie
monotremata
monroe
mons
monsere
monsieur
monster
mont
montagne
montana
montane
montargis
monte
monteberg
montees
montenegro
montereau
monteriggioni
montfort
montgomery
monti
montifringilla
montmorency
montpellier
montreuil
monument
monumenten
monumentendag
monumentendagen
monumentn
monumentoale
monza
mood
mooi
mooie
moon
moor
moord
moore
moorn
moors
moortgat
mor
moravie
morbecque
morbihan
morda
more
moreau
morf
morfologie
morgan
morgen
mori
morienn
morini
morissette
moritz
morning
moro
morocco
morris
morrison
morsen
mort
mortagne
morte
mortier
morts
mortsel
morzine
mos
moselle
moskee
moskeejn
moskoe
moskou
moskva
moslim
moslims
mosoel
mosque
mossn
most
moste
mosten
mostn
mostoard
motacilla
mote
motettn
moteur
moteurtje
moth
moths
motief
moto
motte
mottn
motto
mottocrosser
mouchin
moulin
mound
moundienge
moundn
moundt
mounsters
mount
mountain
mountainbike
mountains
mouscron
mouse
mout
mouvement
movie
movistar
moyen
mozai
mozambique
mozart
moze
mozes
mpc
mr
mrna
ms
mt
mtskheta
mtv
mu
mucht
muchte
muchtn
mude
muelenaere
muenster
muggn
muhammad
muharraq
muiden
mulder
mule
mulieribus
mulisch
mulle
mullebeke
multis
mundo
municipal
munster
munsterbilzen
munt
munte
muntme
muntn
muntschouwburg
murcia
murder
murray
mus
musculus
muse
musea
musee
musees
museeuw
museo
museum
museums
music
musica
musical
musicals
musique
muskwa
mussche
musschn
musse
mussel
mussels
mussn
mussolini
mussomeli
must
mustafa
mustaine
mustela
mustelidae
mustn
muti
mutilated
mutse
mutualiteiten
muul
muule
muur
muus
muuzn
muyzn
muze
muzeum
muziek
muziekconservatorium
muziekfestival
muziekgroep
muziekinstrument
muziekinstrumentn
muziekschole
muziekweireld
muzik
muzikale
muzikant
muzikante
muzikantn
muzikoal
muzikoale
muzot
muzyk
mv
mvp
my
mya
myanmar
myidae
myle
myln
myn
mynbow
mynder
myne
mynen
mynn
myra
myriam
myrtaceae
myrte
myrtefamilie
myrtus
myself
myspace
mysterie
mysterieus
mysterieuze
mystery
mystica
mystiek
mystieke
myter
myth
mythe
mythiesche
mythologie
mythologische
mytilida
mytilus
myxini
myzerie
møre
n
na
naa
naam
naame
naamlik
naamn
naamt
naar
naasn
nabeurige
nabij
nacht
nachte
nachtegaal
nachten
nachtn
nachts
nachtschoafamilie
nacional
nadat
nade
nadien
nadruk
naem
naer
naert
nafte
nai
nailpin
najoar
nakt
naktzoadign
nam
name
namelijk
namelik
namen
names
namibie
namt
namur
nana
nancy
nang
nantes
napels
napoleon
napoleong
napoli
napolitoans
nar
nasa
nasale
nasjonoal
nasjonoale
nassau
nat
natal
natale
nateur
nateurbeschermienge
nateure
nateurfilosoof
nateurgebied
nateurhistorie
nateurkunde
nateurkundige
nateurkundign
nateurlik
nateurlike
nateurlikke
nateurlyk
nateurlyke
nateurpark
nateurreservoat
nateurste
nathalie
natie
naties
nation
nationaal
national
nationale
nationalgeografic
nationalgeographic
nationalist
nationalistisch
nationalistische
nationaliteit
nationoal
nationoale
nationoaln
nations
native
nato
natrium
natte
nattre
natural
naturalis
nature
naturel
natuur
natuurgebied
natuurlijk
natuurlik
natuurlikke
natuurlyk
natuurlyke
natuurmuseum
natuurpunt
natuurreservoat
nauw
nauwe
nauwste
navarra
navigoatie
navo
nazaire
nazareth
nazi
nazionale
nba
nbroere
nchen
nd
nde
nden
nder
ndez
ndien
ndn
ndom
nds
ndsche
ne
neanderthalensis
neanderthoalers
near
nearctis
nearktiesche
nebest
neburg
neckere
nectar
ned
neder
nederduuts
nederfrankisch
nederfrankische
nederland
nederlanden
nederlanders
nederlandn
nederlands
nederlandsche
nederlandschn
nederlandse
nederlandstalige
nederlandstoalig
nederlandstoalige
nederlandstoaligen
nederlans
nederlansche
nederloage
nederreyn
nedersaksen
nedersaksisch
nedersaksische
nedersaksn
nederzettienge
nee
need
needrlans
needrlansche
neef
neefest
neefs
neeg
neegn
neegnde
neegnjoarige
neegnjoarign
neegnste
neegntiende
neegntiene
neegntienste
neegtiende
neemn
neen
neere
neermeerskaai
neerslag
neerwoastn
neevn
neffe
neffens
neffenst
neffers
nefferst
neffest
neffnst
negatief
negatieve
negen
negenste
negentiend
negentiende
negentienste
negentig
negienk
neigienge
neil
nek
nekier
nekke
nektar
nele
nelson
nem
nematocera
neme
nemen
nemi
nemorensis
nemours
nen
neo
neoclassicisme
neoclassicistische
neoclassicistischn
neogo
neogotiek
neogotisch
neogotische
neogotischn
neolithicum
neolithische
neon
neoromoansche
neotroopiesche
neotropis
nepal
nepomucenus
nepos
neptunus
nere
neregeschootn
nergens
neri
nermaal
nermoal
nero
nerts
nerva
nervie
nervn
nes
nest
nestas
nesten
nestkassn
nestn
net
nete
netebuk
netelbe
netherlands
netsky
nette
nettn
netwerk
network
neuburg
neucha
neue
neues
neuke
neur
neurenberg
neurn
neus
neushoorn
neustadt
neustrie
neute
neutn
neutraliteit
neutroal
neutron
neutroonn
neuve
neuville
neuze
nevada
nevadensis
neve
nevel
nevele
nevenst
never
nevers
nevest
neville
new
newcastle
newfoundland
newly
newman
newport
news
newsted
newton
next
neyl
neylpeirdn
neymeegn
neyvel
nez
ng
nga
nh
nha
nhoavns
ni
nia
niagara
nicaise
nicaragua
niccolo
nice
niche
nicholas
nichte
nichtje
nick
nicko
nico
nicolaas
nicolae
nicolaes
nicolas
nicolaus
nicole
nicolo
nicosia
nie
niederbacher
nief
nieks
niels
niemand
nieme
nienge
niengn
niengs
niepkerke
nieppe
niern
niet
nietend
nietig
nietn
nietnt
niets
nietzsche
nieuw
nieuwbouw
nieuwe
nieuwegein
nieuweliengn
nieuwen
nieuwenhove
nieuwer
nieuwerck
nieuwere
nieuwerleet
nieuwjoar
nieuwkapelle
nieuwkerke
nieuwkoomer
nieuwleusn
nieuwmunster
nieuwn
nieuwndyk
nieuwpo
nieuwpoort
nieuwpoorte
nieuws
nieuwsblad
nieuwslezer
nieuwslezeresse
nieuwste
nieuwstn
nieuwvliet
nieve
nievers
niew
niewe
niews
nig
nigd
nigde
nige
nigella
nigelle
nigen
niger
nigeria
night
nigieng
nigienge
nigiengn
niginge
nigingen
nigingn
nign
nigra
nigrum
nigsberg
nigsn
nigste
nigsten
nigstn
nigte
nijmegen
nike
nikkel
nikki
niklaas
niklaaskerk
nikloai
nikloaikerke
nikloajkerke
nikloas
niko
nikolaikirche
niks
nimf
nimt
nin
nina
nine
ninove
nintendo
nir
nis
nisse
nisus
nittels
nivalis
niveau
niveaus
nivoos
nizza
nk
nkant
nkerke
nklank
nl
nland
nlandsche
nm
nmbs
nn
nne
no
noa
noade
noader
noadien
noadruk
noagel
noagelank
noagels
noais
noajoar
noaldachtige
noaldboomn
noaldbusschn
noalde
noaldn
noam
noamdn
noame
noamelik
noamelyk
noamen
noamgever
noamgevienge
noamlik
noamn
noamt
noapels
noar
noare
noargelang
noarmaote
noarmate
noarmoate
noasje
noasjes
noast
noaste
noastn
noatie
noatiehuus
noaties
noatoe
noavolgens
noazn
nobe
nobel
nobelprys
nobelpryswinnoare
noble
nocentini
noch
nochtans
noctiluca
node
nodien
nodig
nodige
noe
noel
noem
noemde
noemdege
noemdegen
noemden
noemdigd
noemdigde
noemdige
noemdn
noemen
noemi
noemn
noemnde
noemt
noene
noenkel
nof
nog
nogal
nogoal
nogol
noh
noi
noir
nokere
nolf
nom
nomadinae
nomain
nomas
nomen
nominoasje
nomoadn
nomt
non
nonkel
noo
noois
nooit
noor
noord
noordede
noordelik
noordelikke
noordelyk
noordelyke
noorden
noorderdepartement
noordn
noordoost
noordoostn
noordreyn
noordschote
noordwest
noordwestn
noordze
noordzee
noormann
noorn
noors
noorsche
noorse
noorweegn
noorwegen
noot
nootn
nor
norbert
nord
nordmanniana
norfolk
norm
normaal
normaalschole
normale
norman
normandie
normandisch
normandische
normoal
normoale
normoalgezien
north
northampton
northamptonshire
northeast
northern
northumberland
northumbria
northumbrian
northwest
northwestern
norton
norway
norwich
nos
nostra
not
nota
note
notes
notevaschoa
nothing
nothofagus
nothomb
notice
notices
notjes
notoatie
notre
nottingham
nounkel
nounkels
nouter
nouveau
nouvelle
nova
novarum
novastar
novelle
novellen
november
novembre
novgorod
novo
now
nowe
nowhere
nowrd
nowrdelyke
nowrdpole
nowwers
noyelle
noyelles
noyon
npogeschiedenis
nr
nrc
nro
nryk
ns
nschap
nsche
nsdap
nsje
nskerke
nspoornslag
nste
nster
nsweirdigheedn
nt
nte
ntegreerd
ntegreerde
nten
nteresseerd
ntg
nther
ntn
ntwa
nu
nuchtend
nuchtends
nuchtens
nucleaire
nuclear
nucleotiedn
nueva
nuevo
nui
nuit
nul
nulder
nulla
nulpunt
number
nume
numer
numeri
numero
numerous
numers
nummer
nummerienge
nummero
nummers
nummrienge
nunavut
nunc
nunder
nundern
nunn
nunne
nunnebier
nuova
nur
nurenberg
nut
nutjes
nutt
nuttige
nuumers
nuus
nuuze
nuze
nv
nvloed
nvloedde
nvloedn
nw
nwoud
ny
nyak
nymeegn
nymegen
nymfn
nys
nyvreid
nze
nzer
nzers
nzeune
nzuster
o
oa
oad
oade
oadel
oadelikke
oadellikke
oadellyke
oader
oaders
oadle
oaf
oafbusschn
oafroend
oagn
oaje
oak
oakn
oal
oalbeke
oald
oalde
oalen
oalewyne
oalfround
oalle
oallie
oaln
oals
oalsan
oalst
oalt
oalter
oaltyd
oalveringem
oamer
oan
oane
oantal
oanzichte
oap
oapenynn
oapn
oar
oard
oardig
oarelbeke
oarend
oarends
oarienge
oarlbeke
oarlen
oarm
oarme
oarmoe
oarms
oarmste
oarnen
oarsele
oas
oasem
oasemen
oasemn
oasm
oasmn
oast
oat
oater
oave
oavekapelle
oavelgem
oaven
oavend
oaverskerke
oavn
oavnd
oavnstad
oaze
oazebroeke
oazelmuuzn
oazelnootn
oazeloare
oazeloars
oazie
oaziesche
oazje
ob
obama
obelisk
obelix
object
objectn
oblast
oblastn
obliquiteit
oblitum
obovata
obsessed
obuusn
occidentalis
occitaans
occitanie
occitoans
oceanic
oceanie
oceanografie
oceoan
oceoanbodem
oceoane
oceoanie
oceoanische
oceoann
och
ocharme
ochtezele
oclc
ocmw
octaaf
octave
octavia
octavianus
octavius
october
ocypus
od
oda
odachtig
odat
odde
ode
odense
oder
odessa
odgeboorn
odgeschootn
odgoan
odhuus
odiel
odig
odigd
odige
odin
odn
odngang
odo
odoaker
odoar
odocoileus
odonata
odonatoptera
odore
odrecht
odschap
odste
odstraffe
odverschuvienge
odvonnis
odysseus
odzoakelik
odzoaklik
oe
oed
oede
oedeburg
oedeid
oedekapelle
oedelem
oeden
oedere
oeders
oedgrieks
oedienge
oedn
oednburg
oednrode
oedre
oedrs
oedste
oee
oefend
oefent
oegrische
oegst
oeigem
oeigoern
oeigoers
oej
oek
oekd
oekde
oekden
oeke
oekn
oekne
oekrai
oel
oelan
oelem
oem
oemda
oemgeevienge
oemriengd
oen
oenafanklikeid
oenbekend
oenbekende
oenbeweund
oend
oendanks
oender
oenderd
oenderde
oenderdeel
oenderfamilie
oenderfamilies
oendergeslacht
oendergroend
oenderhandeliengn
oenderhandeln
oenderkant
oenderme
oendernemer
oenderoarm
oenderorde
oenderste
oenderte
oendertusschen
oendertusschn
oendertussen
oenderverde
oenderverdeeld
oenderverdeild
oenderweireld
oenderwerpn
oenderwys
oenderzoek
oendiep
oendiepe
oendn
oendr
oendre
oendrede
oendrefamielje
oendrefamieljes
oendregeslacht
oendregienk
oendregoan
oendrekant
oendrenam
oendrescheidn
oendreso
oendresteund
oendrewerpn
oendrezoek
oendrorde
oendrwerpn
oene
oeneevnhoevign
oengeluk
oengerept
oengeve
oengeveer
oengewervelde
oenglykvleuglign
oenkruud
oenofanklik
oenofanklikeid
oenofanklikke
oenofhankelik
oenofhankelikheid
oenofhankelyk
oenofhankelyke
oenofhankelykheid
oenrechstreeks
oenrype
oens
oenstoan
oentbiendienge
oentbusschienge
oentdekkienge
oentdekkiengsreiziger
oentdekt
oenthoofd
oentmoetienge
oentploft
oentslag
oentsnappn
oentspriengt
oentstoan
oentstoat
oentstoend
oentstoenn
oentvangn
oentvangt
oentvienk
oentwerp
oentwerper
oentwerpster
oentwikkeld
oentwikkelde
oentwikkelienge
oentwikkeln
oentwikkld
oentwikklde
oentwikklienge
oentwikkln
oentworpn
oenwettige
oenze
oer
oeraalsche
oeral
oeralgebergte
oerbus
oerdom
oeren
oergm
oern
oeros
oes
oeselgem
oest
oeste
oet
oetachtige
oetangs
oetave
oetkap
oetn
oetulst
oeuvre
oeve
oeveel
oeveele
oeveeleid
oevele
oever
oevers
oevre
oewe
oewel
oezbeeks
oezbekistan
oeze
of
ofankelyk
ofanklik
ofbeeldienge
ofbeeldiengn
ofbeeldingn
ofbreekn
ofbroake
ofd
ofdat
ofde
ofdkeetn
ofdkwartier
ofdoalienge
ofdplekke
ofdredacteur
ofdstad
ofdstee
ofdzetel
ofdzoakelik
ofekeurd
off
offa
offenbach
offerlaan
office
official
officie
officieel
officieeln
officiele
officier
officiern
officinalis
offiesje
offise
offs
ofgebeeld
ofgebrand
ofgebrookn
ofgeevn
ofgekapt
ofgeknotte
ofgekort
ofgeleegn
ofgeleezn
ofgeleid
ofgeleide
ofgeleyd
ofgepakt
ofgeplat
ofgeroend
ofgeschaft
ofgeschermd
ofgeschootn
ofgeslacht
ofgeslootn
ofgesmeetn
ofgesneen
ofgesplitst
ofgesprookn
ofgestoan
ofgestudeerd
ofgetreedn
ofgevoardigdn
ofgevoerd
ofgewerkt
ofgewisseld
ofgezet
ofgezien
ofgezoenderd
ofgezounderd
ofhangt
ofhankelik
ofhankelyk
ofke
ofkoelienge
ofkomst
ofkomste
ofkomstig
ofkortienge
ofkortinge
ofleggn
ofleverienge
ofleveriengn
ofloop
ofmeetienge
ofmetiengn
ofneemn
ofpakkn
ofrit
ofschaffienge
ofsluutdyk
ofsluutienge
ofsluutn
ofspanninge
ofspeelt
ofsplitsienge
ofsproake
ofsproakn
ofstad
ofstamde
ofstammeliengn
ofstammienge
ofstammn
ofstand
ofstandn
ofstee
ofstervn
ofstoan
oft
ofte
oftewel
oftreedn
oftrekkn
oftwel
ofveugel
ofvoerkanal
ofvoerkanoal
ofvol
ofvolln
ofwachtienge
ofwe
ofwel
ofwerkienge
ofwezigheid
ofwisselend
ofwisselnd
ofwoaterienge
ofzet
ofzettienge
ofzettn
ofzien
ofzoenderlikke
ofzow
og
ogd
oge
ogen
ogenblik
oger
ogere
ogeschootn
ogesneleydlynne
ogesneleydslynne
ogger
oggere
oghuz
ogienk
ogier
ogiva
oglee
ogleroare
ogliek
oglyk
ogn
ogspriengn
ogst
ogste
ogstn
ogt
ogte
ogtepunt
ogtepuntn
ogteverschil
ogtn
ogustus
oh
ohio
oi
oibe
oid
oide
oie
oien
oiers
oigem
oikerke
oin
ois
oise
oiskerke
oit
oj
ojd
ojde
oje
ojienge
ojje
ojn
ojnd
ojs
ojt
ok
okapi
oke
okhotsk
okkoazje
oklahoma
okra
oksel
okseloare
oktober
oktobre
oktoobre
ol
olangsn
old
olde
oldenbarnevelt
oldr
ole
olea
oleaceae
olens
oleracea
olf
olfarte
olga
olgauwe
olgeme
olgemeen
olgensis
olhoewel
olie
olier
oliere
olieverftechniek
olieverve
olifant
olifantn
oliveira
oliver
olivia
olivier
olke
olkerke
olla
ollan
olland
ollanders
ollands
ollandsche
ollandschn
ollandse
ollansche
olle
ollebeke
olledrie
olleman
ollemoale
ollemolle
ollene
oller
ollerande
ollerlie
olles
olleseters
olletorre
olletwe
olletwee
ollik
olln
olm
olmete
olms
oln
oloewel
olomouc
olonne
ols
olsan
olskamp
olsmoa
olson
olte
oltemets
oltid
oltied
oltyd
olv
olve
olverwege
olyfboom
olyfboomachtign
olyfboomn
olyfgroen
olyftak
olympia
olympiabad
olympiade
olympic
olympisch
olympische
olympiske
olyvn
om
omaars
oman
omd
omda
omdaj
omdan
omdat
omdatn
omdatr
omde
omega
omer
omerkerke
omernak
omerskerke
omgebied
omgeevienge
omgeevn
omgeke
omgevienge
omgevinge
omhoge
omiengn
omliggende
omliggnde
omlo
omloop
omme
ommegank
ommegebouwd
ommegedopt
ommegeke
ommegekeerd
ommegevormd
ommegezet
ommegoan
ommeke
ommel
ommeland
ommetoer
ommezet
omn
omnes
omnibus
omnium
omoars
omoge
omriengd
omroep
omroepster
oms
omsche
omschryvn
omse
omslootn
omstandigeedn
omstandigheedn
omstreedn
omstreekn
omstreeks
omt
omtrek
omtrent
omvalke
omvang
omvat
omvatn
omvatte
omvattn
omverre
omwallienge
omwentelienge
omwille
omzet
omzettienge
on
onafhankelik
onafhankelike
onafhankelikheid
onard
onbekend
onbekende
onberg
onbevlekt
onbroere
once
oncorhynchus
ond
ondanks
ondatra
onde
onder
onderde
onderdeel
ondertusschn
ondertussen
ondertussn
onderweg
onderwerp
onderwijs
onderwys
onderzoek
ondomein
ondyke
one
oned
oneid
ones
ongareye
ongedierte
ongelooflijke
ongeluk
ongesteld
ongeve
ongeveer
onheilign
onienge
onillign
onipvolger
onje
onlangs
onlik
onlike
onlikeid
onlikheid
onlikke
online
onloage
only
onmiddellik
onn
onno
onnozel
ono
onon
onpretendent
onprins
onroerend
ons
onsofstand
onste
onstellienge
onstelliengsruumte
onstoan
ont
ontaarde
ontario
ontdekkienge
ontdekkiengsreiziger
ontdekking
ontdekt
onte
ontoald
ontploft
ontsnapt
ontstaan
ontstoan
ontvangn
ontwerp
ontwikkeld
ontwikkelienge
ontworpn
onvloandern
onze
onzeune
oo
ood
ooe
oof
oofd
oofdkwartier
oofdstad
oofdstedelik
oofdstee
oofdtente
oofdzoaklik
oofplatse
oofs
oofstad
oofstik
oofstikkn
oofzoaklik
oog
oogduuts
oogduutsche
ooge
ooglandn
oogle
ooglee
oogn
oogr
oogre
oogst
oogste
oogstn
oogstoande
oogte
oogteliggienge
oogteliggiengn
oogtepunt
oogtepuntn
oogvlakte
oogvlaktn
ooimille
oois
ooit
ooiwoagn
ooiwoagns
ook
ool
oolje
ooln
oop
oope
oopn
oopnboar
oopnboare
oopnboarn
oopnd
oor
oord
oorde
oordeel
oorlog
oorloge
oorlogen
oorlogsgroavn
oorlogsmonument
oorlogsmonumentn
oorlogsmuseum
oorlogsscheepn
oorlogsschip
oorlooge
oorloogn
oorn
oorsproenkelik
oorsproenkelike
oorsproenkelyk
oorsprong
oorsproung
oorsprounkelik
oorsprounkelikke
oorsprounkelikkn
oortwolke
oost
oostduinkerke
oostelik
oostelyk
oostelyke
oosten
oostende
oostends
oostendse
oostenryk
oostersche
oosterse
oostkamp
oostkant
oostkerke
oostkust
oostn
oostnieuwkerke
oostnryk
oostnryksche
oostnrykschn
oostrozebeke
oostvletern
oover
ooverstro
ooviengn
oovn
oovr
oovral
oovrbluufseln
oovre
oovrebegroazienge
oovrebluuvnde
oovregank
oovregebrocht
oovreleevn
oovrespannienge
oovretuugde
oovrevloedig
oovrewe
oovrkant
oovrstro
oovrstroomde
oovrwe
oovrwinnienge
oovrwinniengn
op
opaciteit
opaque
opboane
opbrouck
opdracht
ope
opekomm
open
openbaar
openbare
openboar
openboare
opend
opende
openen
openienge
openlik
openluchtmuseum
opera
operation
operazanger
opericht
operoasje
opgebouwd
opgedraagn
opgenomen
opgericht
opgewekt
opilio
opinion
opkomst
opkomt
opline
oplossienge
opm
opmerkelik
opmerking
opn
opnames
opnieuw
opoalkust
opossum
opossums
oppervlak
oppervlakte
oppidum
opposiesje
opsomer
opstand
opt
opticks
optiek
optimoale
option
optreedn
opus
opvolger
or
oraje
oral
oralpn
orang
orange
oranje
orant
oratoria
oratorium
orbe
orbeeld
orbeeldn
orbereidienge
orbild
orbis
orbison
orbit
orbiter
orblad
orchies
orcq
ord
ordanslag
orde
ordeel
ordeeld
ordelik
ordelike
ordelikke
ordelikkn
ordelyk
ordelyke
ordelykn
orden
ordenienge
ordenoare
order
orderbre
orderdepartement
orders
ordes
ordestoat
ordeure
ordgrenze
ordig
ordigd
ordigde
ordige
ordiger
ordigers
ordign
ordinateur
ordinatio
ordkant
ordkantn
ordkust
ordlik
ordlikke
ordn
ordnschat
ordo
ordovicium
ordpene
ordpool
ordrachtn
ordre
ordreyn
ordsche
ordschote
ordstroate
ordwest
ordwestelik
ordwestkant
ordwestkantn
ordwestlik
ordwestlikke
ordwestn
ordwoarts
ordze
ordzee
ore
oregano
oregon
oren
orfeus
org
organelln
organeln
organger
organgers
organisatie
organisator
organisch
organische
organise
organiseerd
organiseerde
organiseern
organiseernde
organiseert
organism
organisme
organismen
organismes
organismn
organisoasje
organisoasjes
organisoatie
organisoaties
organist
organization
organizeern
organizoasje
orge
orgeborchte
orgeevl
orgel
orgels
orgelspeler
orgeschiedenisse
orgesteld
orgevel
orgoan
orgoande
orgoann
orhof
orie
orienge
oriental
orientales
orientalis
orientation
oriesch
oriesche
origanum
orige
origin
original
origine
origineel
originele
orinoco
orion
orjoar
orkant
orkest
orkeure
orkney
orkoan
orkommende
orkommn
orkoomn
orkust
orlando
orle
orleans
orley
orlo
orlog
orloge
orlogen
orlogsgroavn
orlogsscheepn
orlooge
orloogn
orloozje
orloper
orlyne
orme
ormoalige
orn
ornbe
ornde
orne
orngesteld
ornik
orniksche
ornikse
ornithorhynchus
ornkommn
ornkommnde
ornkomn
ornkomt
ornkwoamn
ornoame
ornoamelik
ornoamste
orns
ornsala
ornsaloa
ornste
ornstelde
oro
oroedrs
oroemgank
orol
oroofd
orouder
orouders
orpheus
orpo
orprogramma
orrechtn
orroad
orroundn
ors
orsay
orsche
orschie
orse
orsele
orseolo
orsini
orso
orsproeng
orsproenk
orsproenkelik
orsproenkelikke
orsproenkelyk
orsproenkelyke
orsproenklik
orsproenklikke
orsproung
orsprounkelik
orsprounkelike
orsprounkelikke
orsprounkelyk
orsprounkelyke
orstad
orstander
orstanders
orstel
orstellienge
orstelliengn
orstelln
ort
ortbestoan
ortbeweegn
orte
orten
ortestad
ortgebouw
ortgebrocht
ortgezet
ortgoan
orthodokse
orthodoxe
ortn
ortnnivoo
ortplantienge
ortplantiengsstelsel
ortplantn
ortzettienge
oruut
orval
orvechter
orverkieziengn
orverliefd
orvleugls
orvoader
orvoadre
orvoadrs
orweegn
orweg
orwerp
orwerpn
orwo
orwoarde
orwoardn
orzaakn
orzaakt
orzake
orzakt
orzakte
orzet
orzien
orzitster
orzitter
orzitters
orzitterschap
orzittre
orzoake
orzoakn
orzoakt
os
osaka
osama
osan
osasco
osc
oscar
oseid
oseoane
osiris
oskerke
oslee
oslo
osprounkelyk
ossa
ossan
osse
ost
ostburg
ostduunkerke
oste
osteichthyes
ostelik
ostelike
ostelikke
ostelyk
ostelyke
osten
ostende
ostendenoare
ostends
ostendsche
ostenryk
ostens
ostensche
oster
osterbant
ostergeme
osterliengn
osters
ostersche
ostgrenze
ostkamp
ostkant
ostkantn
ostkapelle
ostkerke
ostkust
ostlik
ostlikke
ostme
ostn
ostnieuwkerke
ostnkantn
ostnryk
ostnrykers
ostnryks
ostnryksche
ostnrykschn
ostre
ostricourt
ostrliengn
ostro
ostrogootn
ostrom
ostveld
ostvletern
ostwoarts
ostyn
ostze
ostzuudkantn
osun
oswald
ot
otakar
otbloadige
ote
otegem
otel
otemets
oter
otere
otertog
otertogdom
otgesteld
other
othertog
othertogdom
othertoogn
otiesche
otign
otje
otjes
otmachtn
otme
otmoeder
otmuggn
otn
otnde
oto
otomoaten
otostrade
otouders
otr
otranto
otsalamander
otschap
otschoalige
otste
otsten
otstn
ottavio
ottawa
otte
otter
otters
otto
ottocar
ottocoureur
ottokar
ottomoan
ottomoann
ottomoans
ottomoansche
ottonome
ottonomie
ottoonn
ottoons
ottos
ottostrade
ottostroade
otvoader
otvorst
ou
ouckama
oud
oude
oudeid
oudejoar
oudekapelle
ouden
oudenaarde
oudenburg
oudenoarde
ouder
ouderdom
oudere
oudergem
ouderlik
oudern
ouders
oudeyd
oudezele
oudfrans
oudfries
oudgrieks
oudheid
oudheidkunde
oudheidkundig
oudiengels
oudiengelsche
oudn
oudnberg
oudnburg
oudnederfrankisch
oudnederlands
oudnederlandsche
oudnoors
oudoogduuts
oudoostnederfrankisch
oudsaksisch
oudst
oudste
oudsten
oudstn
oudt
oudwestnederfrankisch
ouest
ouk
oul
oumgeevienge
oumgeevn
oumgevormd
oumligg
oumvatt
oumvattigd
oun
ounafankelik
ounafhankelik
ounafhankelikheid
ounbekend
ounbekende
ound
oundanks
oundegem
ounder
ounderbrookn
ounderd
ounderdak
ounderde
ounderdeel
ounderdjoarigen
ounderdrukkn
ounderdrukt
ounderfamilie
oundergank
oundergebrocht
oundergoan
ounderground
oundergrounds
ounderhandeliengn
ounderhandeln
ounderhoud
ounderhoudn
ounderkake
ounderkant
ounderkeunienk
ounderkeunienkryk
ounderlienge
ounderlinge
ounderme
oundermeer
oundernemer
ounderorde
ounderoud
ounderoudn
ounderpaster
ounderscheid
ounderscheidienge
ounderscheidn
ounderso
oundersoorte
ounderste
oundersteboovn
oundersteund
oundersteunn
ounderstn
ounderte
oundertekend
oundertusschen
oundertusschn
oundertussen
oundertussn
ounderverde
oundervo
ounderweireld
ounderwerp
ounderwerpn
ounderwys
ounderwyzer
ounderzocht
ounderzoek
ounderzoekers
ounderzoekn
oundiepe
oundrezoek
oundschote
oungeldig
oungeluk
oungelukkign
ounger
oungeve
oungeveer
ounofankelik
ounofhankelik
ounofhankelikheid
ounofhankelikke
ounofhankelyk
ounregelmoatig
ounrust
ountdekker
ountdekkienge
ountdekkiengn
ountdekkiengsreiziger
ountdekt
ountdekte
ounterecht
ounthoofd
ounthuld
ountslag
ountsnappn
ountspriengt
ountstaan
ountstoan
ountstoane
ountstoat
ountstound
ountstoundn
ountvangeniskerke
ountvangn
ountvlamboare
ountvoerienge
ountwerp
ountwerper
ountwerpn
ountwierp
ountwikkeld
ountwikkelde
ountwikkelienge
ountwikkeliengn
ountwikkeln
ountwikkelt
ountworpn
ounverwacht
ounverwachts
ounwettig
ounwettige
our
ourthe
ous
out
outbloazers
outem
outer
outkerke
outland
outn
outoar
outre
outryve
outsider
outstanding
outsysteim
outulst
ouverture
ouwdurp
ouwe
ouze
oven
over
overal
overble
overbleef
overbluufsel
overbluufsels
overbluuft
overbluuvnde
overbluvende
overbriengn
overdag
overdekt
overdekte
overdracht
overdreevn
overe
overee
overeen
overeenkomste
overeenkomstn
overeid
overende
overenoomn
overflakkee
overg
overgangszone
overgank
overgebleevn
overgebrocht
overgedreegn
overgeevn
overgegoan
overgeleverd
overgenoomn
overgepakt
overgeplatst
overgestapt
overgestookn
overgoat
overgoave
overgro
overheid
overhoaln
overige
overkant
overkomt
overleden
overleedn
overleefd
overleefde
overleeft
overleevn
overleg
overleverienge
overline
overlo
overme
overnoames
overol
overols
overolst
overreen
overschot
oversloan
overspel
overspoeld
overstap
oversteek
overstro
overstromienge
overstromiengn
overtuugd
overtuugn
overtyd
overview
overvolln
overwelfd
overwientern
overwinnienge
overwinniengn
overwinninge
overwinningn
overyse
overyssel
overysselse
overze
overzetbo
overzicht
overzichtje
ovetjes
ovidius
ovis
ovl
ovliere
ovn
ovoader
ovoal
ovoale
ovre
owen
owens
own
owst
oxelaere
oxford
oxfordshire
oye
oyenkerke
ozark
oze
ozn
oznoedkoaje
oznoorloogn
ozo
ozon
ozonlage
ozowel
ozze
p
pa
paar
paard
paars
paasch
pablo
pacemakers
pacht
pachtcontract
pachter
paciefieke
pacific
pacificoatie
pacifieke
packo
pad
padde
paddestoeln
paddn
padua
paedophryne
paele
paemel
paenungulata
paepe
page
pages
pagina
pagus
paige
pain
pajotteland
pak
pakistan
pakk
pakken
pakkn
pakn
paksje
pakt
pakte
pakten
paktn
palace
palacio
palaearctis
palais
palatyn
palau
palazzo
pale
palearktiesche
paleis
paleizn
paleoantropologie
paleolithicum
paleontologie
paleontoloog
palermo
palestina
palestine
palestinian
palestynsche
palestynschn
palet
paleys
palfijn
paljas
pallas
palm
palma
palmanova
palmans
palmares
palmer
palmyra
palts
paltsgroaf
paltsgroafschap
paltsgroavn
paltskapelle
palys
pamel
pamflet
pan
panama
panciatichi
pand
pandemie
pandion
pandn
pandora
pandreitje
pane
pangaea
paniek
panky
panne
pannekoekn
pannonische
panorama
panoramio
panter
pantheon
panthera
pantser
paola
paolo
papa
papas
papaver
paper
papier
papierberke
papiern
papini
papoea
papyrifera
papyrus
par
para
paraable
parade
paradise
paradiso
paradys
paraguay
parallel
parallelle
parallellogram
paravang
parazieteern
parazietn
parc
parco
parcours
parfum
paribas
parijs
paris
parish
parisiennes
park
parker
parket
parkn
parle
parlement
parlementaire
parlementsgebouw
parlementslid
parlementsverkieziengn
parlementsverkiezingn
parma
parmentier
parmigianino
parochie
parochieblad
parochiekerke
parochies
parochje
parochjes
parodie
parque
parsec
part
partement
partenkirchen
parthenon
parthie
parti
particuliern
partie
partiee
partien
partij
partner
party
partye
partyen
partyn
partyvo
parus
parys
pas
pascal
pascale
paschalis
pasn
pass
passage
passagiers
passantnhuus
passau
passchendoale
passchndoale
passe
passeer
passeerde
passeern
passeert
passendoale
passer
passeridae
passie
passieve
passion
passirde
passirt
passn
past
paste
paster
pasters
pastersmoarte
pasteur
pastn
pastorie
pastre
pat
patat
patatten
patattn
pate
patent
pathways
patie
patinier
patinir
patisserie
patra
patriarch
patrice
patricia
patricie
patricioat
patrick
patro
patryze
patryzn
patterns
patti
patty
pattyn
patula
pau
paucituberculata
paul
paula
paulette
pauline
paulinho
paulo
paulus
pauluskerke
paume
paus
pausdom
pauselyke
pausn
pauw
pauwels
pauze
pave
pavia
paviljoen
pays
pazzi
pc
pd
pdc
pdf
pe
peace
pearl
pechota
peck
pecq
pede
pediculus
pedro
peegie
peel
peene
peer
peerd
peeters
peetses
peggy
peinture
peinzn
peird
peirdachtign
peirde
peirden
peirdn
peire
peirn
peis
peisde
peisdn
peist
peize
peizen
peizn
pek
pekel
pekela
peking
pekkeln
pekkels
pekkn
pele
peletong
pelgrims
pelle
pellevoisin
pellizotti
peloeze
pelophylax
peloponnesos
peloton
pels
pembrokeshire
pen
penalty
penanti
penanties
pendula
penebeke
penguin
peninsula
penis
penitentn
penn
penne
pennepisse
pennsylvania
pense
penseel
pensioen
pentateuch
penzance
people
peoples
peper
peperbusse
pepers
pepeyn
pepinidn
pepinster
pepper
per
percent
percentage
perche
percussie
percy
perdix
peregrinus
pereira
perez
perfect
perfecte
perfectn
pergamyn
perihelion
period
periode
periodes
periodiek
periodieke
perioodn
periostracum
periparus
perisoreus
perkament
perloff
perm
permafrost
permanent
permanente
permeke
permission
peron
perpignan
perroen
perry
pers
persbericht
perse
perselle
perseverance
persienne
persijn
persn
perso
personage
personages
personal
persone
personele
personie
personne
personoages
persoon
persoonlik
persoonlikke
perspectief
persyn
pertang
pertank
pertanks
perth
pertil
peru
perugia
perviezje
pervyzje
perzie
perziesch
perzisch
perzische
perzn
pesaro
pest
peste
pestepidemie
pestn
pests
pet
petacchi
petat
petatte
petattn
pete
petegem
peter
peterborough
peters
petersburg
petit
petite
petr
petra
petrarca
petrarch
petreit
petroselinum
petrus
petruskerke
pettibone
petula
peu
peugeot
peur
peut
pevelenberg
pevelenkapelle
peyo
pez
pfaff
pff
pg
ph
phaedra
phalacrocorax
phalangium
phanie
phantom
pharidae
pharma
phasianidae
phasianus
pheip
phia
phil
philadelphia
philip
philipp
philippe
philippine
philippus
philips
philipstockstroate
phillips
philosophiae
phobos
phoebe
phoenix
phong
photo
photos
php
phylogenetic
phylogenetics
phylogeny
phylum
phytophthora
pi
piaf
pianist
pianiste
piano
piast
piastn
piatuskerke
piazza
pica
picanol
picardie
picardisch
picasso
picea
pick
pickery
pico
picque
picture
pie
piek
pieken
piekezot
piekn
piemonte
pien
pieper
piepers
pier
piere
pierewoai
pierlala
piero
pierre
pierrick
piet
pieta
pieter
pieters
pietersabdeye
pietersabdy
pietersabdye
pietersbasilieke
pieterskerke
pieterspling
pietje
pietjekuntje
pietjesbak
pietkin
pietn
pietro
pieve
pigmaea
pijn
pika
pilasters
pilatus
pile
pileus
piloare
piloarn
piloot
pils
piltdown
pim
pimpelme
pin
pinaceae
pinacoteca
pinales
pine
pineau
pines
ping
pinguins
pink
pinn
pinne
pino
pinte
pinus
pioneer
pionier
piper
piperaceae
piramides
piro
piroatn
piron
pis
pisa
piscine
piso
pissebedde
pissebeddn
pisseblomme
piste
pistolets
pisum
pit
pitau
pitgam
pitje
pittem
pitti
pittige
pittn
pius
piv
pixels
pizza
pk
pl
plaats
plaatsen
plaatsnamen
place
plafong
plage
plagioat
plains
plakkaat
plakkn
plakkoate
plakt
plakwoaier
plan
plancius
planckaert
plane
planeet
planeete
planeetn
planet
planetaire
planete
plang
plangs
plangtrekkers
planke
plankier
plankton
planktong
plann
plant
plantae
plantagenet
plante
planten
plantery
planteso
plantin
plantje
plantkunde
plantkundige
plantkundign
plantn
plantneters
plantoardig
plantoardige
plants
plas
plasma
plasmide
plasmiden
plassndoale
plastiden
plastiek
plastiekn
plastische
plat
plateau
plateaus
platgesmeetn
platini
plato
platse
platselik
platselike
platselikke
platselyk
platselyke
platsen
platslik
platslikke
platsn
platsnoame
platsnoamn
platst
platste
platsvervanger
platte
platteland
plattn
platvis
play
playboy
playstation
plaza
ple
please
plechtig
plechtige
plechtigeedn
pleegn
pleegt
pleiku
plein
pleing
pleistoceen
plejoade
plekk
plekke
plekken
plekkn
plekn
pleksje
pleksjes
pleurant
pleurobrachia
plezier
plicht
pling
plings
plingsje
plinius
plo
ploage
ploagn
ploate
ploategrenzn
ploaten
ploatn
ploatntektoniek
ploeg
ploege
ploegen
ploegkoers
ploegleider
ploegmoat
ploegn
ploegnklassement
ploegntydrit
ploegsteert
ploegsteirt
ploegsteirte
plofklankn
plok
plopsaland
plot
plotarea
plotdata
plots
plottn
plouay
plough
pluk
plumb
plume
plumer
plunderdn
plunderienge
plunderiengn
plundern
plus
pluto
pluumn
pluumtjes
plymouth
pm
pn
png
po
poaceae
poain
poale
poaliengbeke
poaln
poapegoais
poapingem
poar
poarienge
poarn
poartyd
poaschn
poasn
poater
poaters
poatre
pockets
podgorica
podium
podocarpaceae
poe
poeier
poekapelle
poelberg
poele
poelewedstrydn
poelkapelle
poem
poema
poems
poer
poes
poesie
poesjkin
poesjkins
poet
poeta
poetic
poetry
poets
pogienge
point
poitevin
poitiers
poitou
pokkn
pol
pola
poland
polder
polderdorptje
poldergebied
polderlandschap
polders
polderstreke
pole
poliep
poliesje
polisario
politica
politics
politie
politiek
politieke
politieker
politiekers
pollefeyt
pollentier
polletiek
polletieke
polletieker
polletiekers
pollienkhove
pollienkove
pollitiek
pollitieke
pollitieker
polln
polo
pols
poly
polya
polymeer
polymeerkeetn
polymeern
polynesie
polyvalente
pomerol
pommern
pompei
pompeius
pompelmoes
pompiers
pompn
pond
pont
ponte
ponthieu
pontormo
poogienge
poogiengn
pool
pooln
poolreiziger
pools
poolsche
poolschn
poolvos
poort
poorte
poorter
poorters
poortersloge
poot
pootn
pop
pope
popelier
poperienge
poperienknoars
poperinge
popgroep
popliere
popliern
popolani
popolo
poppa
poppaea
poppe
poppy
populair
populairder
populaire
populairste
populariteit
population
popule
populiere
populiern
populoasche
populoasches
populoaschn
populoasje
populoasjes
populoasjn
populus
popuuloasjes
popzanger
por
porcellio
poreie
pornography
porres
port
porta
porte
portefeuille
portinari
portland
porto
portoal
portoaln
portrait
portreit
portreitn
portreitschilder
portret
portretschilder
portrettn
ports
portsmouth
portugal
portugees
portugeesche
portugeezn
porzio
pos
pose
poseidon
posiesje
positie
positief
posities
positieve
post
postal
postbus
poste
posthumus
postume
postuum
pot
poten
potensje
potenza
potje
potjes
potjevleesch
potlo
potlood
pottenmakersstroate
potter
potterie
potteriereie
pottn
pou
poulsen
pound
pour
pourbus
pourbusstroate
povas
povlakte
powell
power
powiat
poziesje
pozzo
pp
ppm
pr
praag
pracht
prachtig
prachtige
pradeels
prado
praeses
praet
praetoria
pragmatieke
praha
praia
praitere
praktisch
praktische
praktyk
pralienn
prambanan
prater
prayer
pre
preach
precies
precis
predikant
prediker
preedieke
preekn
preetjes
prefect
prefecteure
prefecture
prehistorie
prehistorische
premi
premie
premier
premio
pres
present
presentateur
presentator
presentatrice
presenteerde
presenteern
presenteert
presentoatie
preserve
president
presidentieel
presidentsverkieziengn
presley
press
prestige
prestigieuze
prestoasje
prestoasjes
prestoaties
preston
prestre
pret
pretensche
pretoria
pretpark
pretty
preud
preus
preuteleute
preußen
previous
priant
price
prie
priem
priemgetal
priemgetalln
priest
priester
priesters
priestley
priestr
priestre
prijs
prikkels
prikstoel
prima
primaire
primates
primaticcio
primer
primigenius
primitief
primitieve
primitievn
primoatn
prince
princeps
princesse
princeton
principe
principes
principia
prins
prinsbisdom
prinsbisschop
prinsdom
prinse
prinsenhof
prinsesse
prinsn
printed
prionailurus
prior
priora
prioriteit
priory
pris
prison
prisong
private
prive
priverno
privilege
privileges
privoat
privoate
prix
pro
proag
proalgraf
proalgroavn
probeerde
probeerdeg
probeerdegt
probeerdn
probeern
probeert
proberen
proble
probleem
probleemn
problems
proboscidea
procedeure
proceedings
procent
proces
procesje
procesn
process
processen
processn
processor
prochie
prochies
prochje
prochjes
proconsul
procureur
procycling
prodg
produceerde
produceern
produceert
producent
producer
product
producten
productie
production
productn
produksje
produucsje
produuksje
proevn
proevrtje
prof
profcarrie
profcontract
profcoureur
profeet
profeetn
professer
professione
professioneel
professionele
professor
profiel
profile
profiteerde
profiteerdn
profiteern
profs
profyt
program
programma
programmas
programs
progressieve
project
projectn
projekt
projektn
projob
prokaryootn
proline
proloog
promenade
prometheus
prominente
promoosje
promoot
promootn
promotie
promoveerde
prooi
prooie
proosse
proost
proovn
prop
proper
propositions
proprie
prose
prosper
prostoat
protector
protectoroat
protei
proteine
proteines
protektoroat
protest
protestantisme
protestantn
protestants
protestantsche
protestantse
protesteern
protestn
protista
proto
protocol
proton
protoonn
prototype
prototypes
provenc
provence
provided
provin
province
provinces
provincia
provinciaal
provinciae
provinciale
provincie
provincies
provincioal
provincioale
provinsche
provinsjalle
provinsje
provinsjeho
provinsjes
provinsjn
provinsjoal
provoost
proza
pru
prue
prume
prunella
prunus
prutsen
prutser
pruumn
pruuschn
pruusische
pruusn
pruussisch
pruussische
pruussn
prys
pryzen
pryzn
ps
psalm
psalmn
psalms
psc
pseudo
pseudoniem
pseudotsuga
psiloxylaceae
psv
psychoanalyste
psychologie
psycholoog
pt
pterodactylus
ptolemaeus
pu
puber
pubescens
public
publicaties
publications
publiceerde
publiceern
publiceert
publicist
publicoasje
publicoasjes
publicoatie
publicoaties
publiek
publieke
publiekelik
publiekoasje
publikoasjes
publique
published
publisher
publishers
publishing
publius
puente
puerto
puglia
pukkelpop
pulle
pulpe
pumila
punk
punt
punta
punteboai
punten
puntig
puntige
puntje
puntjes
puntn
puntnklassement
pupe
pupegoale
puppe
puppen
puppets
puppn
pure
puree
purgatorio
purmerend
purper
purpern
purpre
purpurea
pussycat
put
puterek
putorius
putte
putter
puudn
puupn
puuptje
puur
puut
puutn
puy
puype
pvda
pvv
px
pxdat
py
pygargus
pyjama
pyk
pykes
pyl
pyle
pyln
pyls
pynboom
pynboomachtign
pynboomn
pyndershuus
pyne
pynlikke
pynn
pynoo
pyramide
pyre
pyreneee
pyreneen
pyrrhula
pyrus
pyu
pz
q
qaeda
qatar
qing
qua
quadruple
quae
quaghebeur
quai
quam
quartier
quatorze
quatre
quattro
que
quebec
quechua
queen
queens
quellinus
quentin
quentinkerke
quercus
querido
quesnoy
quest
qui
quick
quickenborne
quickstep
quid
quiet
quinn
quiz
quod
r
ra
raad
raar
raas
rabat
rabin
rabobank
racconigi
race
races
raches
rachter
racine
racing
racisme
rackham
rad
radingem
radio
radioactief
radioactieve
radiohits
radiopresentateur
radiopresentatrice
radioshack
radiozender
radsel
radsels
raf
rafae
rafael
raffaello
rafflesia
rails
railway
raimbeaucourt
rain
rainbow
rainer
rakel
rakels
raket
rakt
rakte
ralachtign
rale
ralf
ralle
rallidae
rallies
rallus
rally
ralph
ramallah
ramegnies
rami
rammelaere
ramon
ramona
ramone
ramones
ramoudt
rampe
ramskapelle
ran
rana
rance
rand
randstad
rang
range
rangifer
ranglyste
rangn
ranh
rank
rankn
ranuccio
ranunculaceae
ranunculales
ranunculus
raoul
rap
rape
rapgroep
rapid
rappe
rapper
rappn
rapste
rapstn
rarchie
rard
rare
ras
rassen
rassn
rat
rathaus
ration
rationoale
ratje
ratn
ratte
rattevergif
rattn
rattus
rature
rau
rault
rauw
raveel
ravenna
raversiede
raversijde
raversyde
raw
ray
raymond
rberge
rbergier
rbergn
rbergt
rc
rce
rd
rda
rde
rdee
rdige
rdinaten
rdinoatn
rdn
re
reacsje
reactie
reacties
reading
ready
reagan
reageerde
reageern
reageert
reaksje
reaksjes
real
realisme
realistisch
realistische
realiteit
reality
really
rebbekasse
rebbekwalle
rebbekwalln
rebbn
rebel
rebelleerde
rebellie
rebelln
rebels
rebry
reburger
recent
recente
recentelik
recept
receptie
rechs
rechstreeks
recht
rechtbank
rechtbankn
rechte
rechtedeure
rechten
rechter
rechterkant
rechteroever
rechters
rechtestoan
rechtet
rechthoek
rechthoekig
rechtn
rechtoek
rechtoekigen
rechtover
rechts
rechtse
rechtsgebied
rechtsgele
rechtsprake
rechtstreeks
rechtuut
rechtvleuglign
reclame
recollettn
reconquista
reconstructie
recor
record
recordings
recordouder
records
recreatieve
recreoatie
rect
rector
red
redacteur
redactie
redder
reddieng
reddienge
reddn
reddy
rede
redelik
redelikke
redelikkn
redelyk
redelyke
reden
redenoare
redens
reder
rederyker
rederykers
rederykerskoamer
rederykerskoamers
redl
redmond
ree
reed
reedlik
reedn
reedns
reeds
reee
reegeln
reeglmoatig
reeglmoatige
reegls
reegn
reegnbus
reegnbusschn
reegnvol
reegnworms
reeke
reekn
reeknen
reeknkoamer
reeknn
reeks
reekse
reeksen
reeksn
refereert
reference
referendum
referensje
referensjes
referensjn
referentie
referenties
referesjn
reflections
reformoasje
refrein
refuge
refuseerde
refuseert
reg
rega
regeerde
regeerdeg
regeerdn
regeerienge
regeern
regeerperiode
regeert
regel
regelde
regelen
regelienge
regelmo
regelmoatig
regelmoatige
regeln
regels
regelt
regen
regenboogstadion
regensburg
regent
regente
regentesse
regentschap
regerieng
regerienge
regeringe
reggio
regi
regie
regierungsbezirke
regime
regiment
regina
reginald
reginar
reginars
regio
region
regionaal
regional
regionale
regionoal
regionoale
regions
regisseur
register
registers
reglisse
regnorum
regnum
regressie
reguliere
reie
reien
reifert
reiger
reigers
reign
reims
rein
reina
reinaert
reinald
reinhart
reinhild
reinier
reiniers
reinoud
reinout
reis
reisde
reisprogramma
reist
reiste
reisverhalen
reitje
reitjes
reize
reizigers
reizn
reke
rekenienge
rekkem
rekkienge
reklamation
rekonstruuksje
reks
reksche
rekse
rel
related
relatief
relatieve
relatif
relationship
relationships
relay
reld
reldorloge
release
released
releasedatum
relie
reliekn
religie
religieus
religieuze
relikwie
relln
reloasje
reloasjes
reloatie
relyste
rem
remains
rembert
rembrandt
remedies
remember
remembrance
remi
remigius
remix
remo
remorke
remus
ren
renaat
renaissance
renaissancecomponist
renaissanceschilder
renaissancestyl
renard
renault
renchies
rende
rendier
rene
reng
renier
reninge
reningelst
renkommn
renne
renner
rennes
renong
renshaw
rente
repertoire
replekkn
replica
replicoatie
report
reportage
reportages
reporter
reptieln
reptilia
repu
republic
republiek
republiekn
republik
republika
republikeinsche
reputatie
reputoasje
reputoatie
repuutoasje
requesens
requiem
required
rer
rerum
res
rescue
research
reservaat
reserve
reservoir
residensje
residentie
resources
respect
respecteern
respectievelik
respektievlik
respoee
respondet
rest
restant
restantn
restaurang
restaurangs
restaurant
restaureern
restauroatie
reste
restn
restorang
restorangs
restoroasje
resulteerde
resulteern
resulteert
resultoat
resultoatn
rete
rethel
rethinking
reticulum
retie
retitel
reto
retranchement
retrieved
return
reuke
reuma
reus
reuters
reuze
reuzekoor
reuzen
reuzinne
reuzn
reve
revenge
review
revolte
revolucions
revolutie
revolutionair
revolutionaire
revolutionairn
revoluusje
revoo
revue
rex
rey
reybrouck
reye
reyger
reygers
reykjavi
reykjavik
reyn
reynaerde
reynaert
reynders
reynebeau
reyngrenze
reynkanoal
reynland
reyze
rez
rezultoat
rfst
rgb
rge
rhea
rhead
rhein
rhin
rho
rhode
rhodes
rhone
rhs
rhythm
ri
ria
riario
ribemont
riblon
ribosoomn
ric
rica
rich
richard
richebourg
richilde
richildis
richmond
richt
richte
richten
richter
richterschoale
richtieng
richtienge
richtienk
richting
richtinge
richtn
richtte
richtten
rico
ridder
ridderorde
ridders
ride
rideau
rider
ridge
ridibundus
rie
riee
riekn
riekt
rien
rienge
riengel
riengels
riengelworm
riengn
riengvoart
rienk
riep
riepn
riept
riera
riet
rietsuker
rietue
rieure
rieviere
rieviern
rif
riff
rifferensjes
rifka
rig
riga
rige
right
rigiditeit
rignies
rigord
riguelle
rigueux
riis
rij
rijk
rijksarchief
rijksmonument
rijkswaterstaat
rijn
rijsbrack
rik
rikkeburg
rilke
rime
rin
rinde
rine
ring
ringelheim
ringen
rink
rinnegelst
rint
rio
rios
riot
rip
riparia
rippebliek
ripuarische
rise
risico
risikogroepn
risme
rissel
risten
ristisch
ristische
ristn
rit
rita
ritchie
ritmegitaar
rittn
riva
rivaliteit
river
rivie
rivier
riviera
riviere
rivieren
rivierke
riviern
riviertje
rivoal
rivoaln
rize
rk
rkend
rkende
rkenn
rkn
rld
rlitz
rloge
rm
rn
rna
ro
road
roadgever
roadn
roadsman
roadzoale
roakn
roald
roape
roapn
roar
roare
roars
roatlpopliere
roave
roavn
roazn
roaznd
rob
robbe
robben
robbie
robbneiland
robbrecht
robeke
robert
roberts
robertynn
robin
robinson
roboais
robrecht
rocca
roche
rochefort
rochester
rocht
rochte
rochtn
rochus
rochuskerke
rock
rockband
rocket
rockgroep
rockmuzikant
rockox
rocky
rococo
rod
rode
rodenbach
rodentia
rodin
rodrigo
rodrigues
rodriguez
roe
roeier
roein
roekn
roekoe
roel
roeland
roels
roelstraete
roemeens
roemenie
roend
roende
roenk
roep
roepn
roepnoame
roept
roermond
roern
roesbrugge
roeselare
roeseloare
roeseloarsche
roesschaert
roest
roestn
roestvry
rogaland
roger
rogers
roges
rogge
rogier
rohan
rohrau
roi
roibaard
roidkin
rois
rojas
roje
roksem
rol
roland
rolarius
rolin
roll
rolland
rolle
rollegem
rollen
rolletje
rolling
rolln
rollo
rolluik
rolt
rom
roma
romaans
romaansche
romaanse
romagna
romain
roman
romana
romance
romandie
romane
romang
romangs
romani
romano
romans
romantiek
romantiesche
romantisch
romantische
romanum
rombout
romboutskathedroale
rome
romein
romeinen
romeinn
romeins
romeinsche
romeinschn
romeinse
romeinsn
romelu
romeo
romeynsche
romeynschn
rominse
rommel
romoans
romoansche
romoanschn
romoanse
rompaey
rompuy
romsdal
romulus
ron
ronald
ronaldo
ronchin
roncq
rond
ronda
ronde
rondom
rongy
ronne
ronnes
ronnie
ronny
ronsard
ronse
ronymus
roo
rood
roof
roofbe
roofbeestn
roofdiern
roofveugels
rooie
rook
rookn
room
rooms
roomsche
roomse
roos
roose
roosevelt
roots
roovere
roovn
rooze
roozefamilie
rop
roport
ros
rosa
rosaceae
rosales
rose
rosendae
roses
rosie
rosika
roskilde
ross
rossem
rossi
rossini
rosso
rossom
rost
roste
rosult
rotaru
roteern
rotoasje
rotoatie
rotsachtig
rotsachtige
rotse
rotsen
rotsgebergte
rotsn
rotte
rotterdam
rotterdamsche
rottnd
rouanne
roubaix
roubei
rouen
rouge
roularta
round
roundboge
roundboogn
rounde
rounder
roundes
roundn
rousseau
rousses
roussillon
route
rouvres
rouwe
rovere
row
rowe
roy
royal
royale
rozala
roze
rozemareyn
rozen
rozendoale
rozenhoedkoaie
rpa
rpien
rre
rro
rs
rsant
rsantn
rsc
rse
rsje
rste
rstel
rsteld
rt
rtachtign
rtbf
rte
rtekerke
rten
rtl
rtn
rtoalienge
rtoogn
rttemberg
ru
ruanda
rubber
ruben
rubens
rubriek
rubroek
rubrouck
rubus
rudd
ruddervo
ruddervoorde
rudi
rudolf
rudy
rudyard
rue
rues
ruff
rufus
rug
rugby
rugge
ruggegroate
rui
ruiz
rules
rumbeke
rumegies
rumes
run
rund
runders
running
rupel
rupelmonde
rupo
rupse
rupsn
rural
rus
rusay
ruska
rusland
russell
russen
russia
russian
russiesch
russiesche
russisch
russische
russischn
russn
rust
ruste
rustig
rustige
rustn
ruta
rute
ruter
ruth
rutland
rutte
rutten
ruud
ruugpo
ruum
ruumte
ruumtelikke
ruumtetelescoop
ruumtevoarder
ruumtevoart
ruuscheure
ruuslee
ruut
ruutn
ruuwe
ruuzje
ruuzjes
ruw
ruwe
ruwoard
ruwweg
ruyskensvelde
ruyslinck
ruyter
ruze
ruzie
rv
rva
rvan
rvi
rvoat
rvormiengn
rwanda
rwebier
ry
ryan
ryckaert
ryckeboer
ryd
ryder
rydn
rydt
ryen
ryk
rykdom
ryke
rykers
rykke
rykn
ryksdag
ryksgrenze
rykskanselier
ryksmiddelboare
ryksmonument
ryksmonumentn
ryksmonumentoale
ryksmuseum
rykste
ryksvloandern
rym
rymbybel
rymn
rymtje
ryn
ryp
rype
rypeid
rypn
rys
rysbrack
rysel
ryselnoars
rysels
ryselse
ryselstroate
rysselendemeulne
rystepiet
rz
rzburg
rzien
rzitter
rzynn
rðr
rður
s
sa
saami
saba
sabam
sabbath
sabbe
sabina
sabine
sachsen
sack
sacramento
sacred
sacrifice
sacro
sad
saddam
saedeleer
saeftinghe
saelens
safety
saga
sagan
sage
sagen
sagittariidae
sagrada
saguenay
sahara
sahel
said
saigon
sail
sailly
saint
sainte
sakha
sakhalien
sakhalin
sakriestie
saksen
saksisch
saksische
saksn
sal
salade
salades
saladin
salamander
salamanders
salamandra
salamis
sale
salicine
salie
salient
salisbury
salisch
salische
salix
salm
saloa
salome
salomon
salon
salvador
salvator
salvatore
salvatorskateedroale
salvatorskathedraal
salvatorskathedroale
salvatorskerke
salzburg
salzkammergut
sam
samaey
samaniego
samara
samarietoan
samber
sambre
sambuca
sambucus
same
samen
samengesteld
samenstellienge
sami
samisch
sammy
samoa
samojeeds
sample
samson
samsung
samuel
san
sanatorium
sanchez
sancho
sancti
sanctie
sand
sandbox
sanders
sanderus
sandra
sandriejees
sandro
sandy
sankt
sans
sanskriet
sant
santa
santeboetiek
santi
santiago
santn
santo
santos
santy
sanzaidorj
sao
saoedi
sap
sapiens
sapientiae
sapindaceae
sapindales
sar
sara
sarafian
sarah
sarajevo
sarcopterygii
sardinie
sargent
sark
sarlat
sars
sarstedt
sart
sarthe
sarto
sarze
sas
saskatsjewan
saskia
sasso
sastre
satan
satelliet
satelliete
satellietn
satire
satirisch
satirische
sativa
sativum
saturday
saturnus
sauer
saur
sause
sauveur
sauwens
sava
savann
savanne
save
savelli
saverys
saviour
savoie
savona
savonarola
savoye
sax
saxo
saxofong
say
sayre
sc
scala
scalemajor
scaleminor
scandinavian
scandinavie
scandinoavie
scandinoavisch
scardinius
scarpe
scarphout
sce
scenario
scenarioschryver
scene
sch
scha
schaan
schaarbeek
schaduw
schaduwe
schaepdrijver
schaft
schakbord
schandoal
schanse
schansn
schansspringers
schansspringn
schat
schatbewoarder
schatje
schatkiste
schatkoamer
schattienge
schattiengn
schattn
sche
schedel
schee
scheeboogn
scheel
scheepn
scheepnhuus
scheepvoart
scheidde
scheids
scheidsrechter
scheikunde
scheikundig
scheikundige
scheikundign
scheirmesschelpe
schelde
scheldegotiek
scheldeprys
scheldwoord
schele
schelle
schelln
schelpbe
schelpe
schelpn
schema
schemoatische
schenkienge
schepens
schepn
schepper
scheppienge
scheppn
scheppnde
schept
scherm
schermblommige
schermblommign
schermn
scherp
scherpe
scherper
scherpn
scherpnberg
scherpnheuvel
schertsende
schets
schetsn
schetst
schette
scheur
scheure
scheurn
scheute
scheutn
scheveniengn
scheveningen
schidde
schiddienge
schidt
schie
schiedam
schienkn
schient
schiep
schier
schiereiland
schiereilandn
schiereyland
schiervelde
schiet
schieten
schietn
schild
schilder
schilderde
schilderen
schilderesse
schilderie
schilderien
schilderkunst
schilderkunste
schildern
schilderoare
schilders
schildersgilde
schildert
schildery
schilderye
schilderyen
schilderyn
schildpad
schildre
schiltz
schimmel
schimmels
schimmls
schip
schippers
schleck
schleswig
schloss
schmidt
scho
schoa
schoakel
schoale
schoanste
schoap
schoapn
schoarbeek
schoarn
schobeke
schoe
schoeisel
schoen
schoenen
schoenk
schoepen
schoere
schoern
schoers
schoes
schof
schok
schole
scholen
scholengeme
schommel
schonbroere
schonder
schone
schonste
schonvoader
schonzeune
school
schoole
schoolme
schooln
schoolslag
schooltje
schoon
schoone
schoonheid
schoonn
schoonselhof
schoonste
schootn
schoovn
schop
schore
schorpioenn
schorre
schorregebied
schorrn
schors
schorse
schossene
schot
schotland
schots
schotsche
schotschn
schotse
schotsn
schotte
schottn
schounk
schouteet
schoutteet
schouwburg
schouwe
schouwn
schouwte
schowne
schowte
schre
schree
schreef
schreeft
schreeve
schreevn
schrei
schreif
schreve
schrift
schrifte
schrijven
schrijvers
schrik
schrikbewiend
schrikkeljoar
schro
schryf
schryfsels
schryfster
schryfstre
schryft
schryfwyze
schryn
schryven
schryver
schryvers
schryvn
schryvr
schryvre
schryvrs
schubbe
schubbn
schubn
schubreptiel
schubreptieln
schubvleuglign
schuddn
schufeln
schuferskapelle
schuld
schuldig
schuldiner
schuldn
schumacher
schusse
schutbloadig
schutbloadige
schutbloarn
schutteldoek
schuttels
schuufle
schuum
schuuvn
schuw
schwa
schwarze
schweiz
schwichtenberg
schyfkwalln
schynbeukn
schynboar
schynboare
schyngestaltn
schynn
schynt
schyte
schyve
schyvn
science
sciences
scientific
scilly
sco
scone
scoorde
scoorn
scoort
scop
scophthalmus
scoren
scorzonera
scotia
scotland
scots
scott
scottish
scouts
scream
scripta
scrofa
scuderia
sculpture
se
sea
sean
seapark
seaside
seasons
seattle
sebastian
sebastien
sebiet
sebit
sebrechtsstroate
secitse
seclin
secondary
seconde
secondn
seconds
seconn
secret
secretaris
secretoaris
secteur
sectie
section
sections
sector
secundair
secundaire
sed
sedaka
sedan
sedert
sedertdien
sedertien
sedes
sedimentair
sedis
sedna
see
seed
seeds
seeking
seeland
seele
seen
seenappel
seerje
seghem
segmentn
seigneur
seine
seinen
seismische
seismologie
seizoen
seizoenn
sekretoaris
seks
seksueel
seksuele
sekunde
selder
selected
selectie
selection
selektie
self
selling
selve
semi
seminarie
seminoarie
seminoaries
seminoarje
semois
sempervirens
sen
senateur
seneca
senegal
sengin
senior
senlis
senoat
sens
sense
sent
sente
sentimento
sentroal
sentroale
seoel
seoul
sep
separatisme
sepia
sepolcro
sepolto
seppen
september
septembre
septuagint
sequedin
sequences
sequentie
sequoia
sequoiadendron
ser
seraing
sercu
serge
sergeant
sergio
sergius
serhuygs
serie
series
serieus
serieuze
serine
serjeus
serjeuze
serooskerke
serpentarium
serra
serre
sertoe
servaes
servais
serve
server
service
services
servie
servisch
servische
ses
sesam
sesame
sesamum
sesamzoad
set
setoe
sets
seu
seule
seute
seven
seventeen
seventh
several
severance
severen
severus
sevilla
sex
sextus
sexuelle
sexy
seychelln
seymour
seynhaeve
sezoe
sezoee
sezoen
sezoenn
sfeer
sfere
sforza
sfroos
sg
sgt
sh
shadows
shah
shakespeare
shakira
shall
shanghai
shannen
shannon
shark
sharon
she
shea
sheets
sheffield
shell
shep
shepherd
shetlandeilandn
shield
shift
shirley
shokata
shop
shore
short
shot
shots
should
show
shows
shrewsbury
shropshire
shuttle
shuttlemissie
si
sia
sibeeriesche
sibeerje
siberia
siberian
siberie
siberisch
siberische
sibirica
sibylle
sichten
sichtend
sichtent
sichuan
sicilia
sicilie
sicilioans
siddert
siderische
sidney
sie
siebeeriesche
siebeerje
sieber
siegfried
siempre
siena
siends
siene
sient
sierplantn
sierra
sies
sietuoasje
sifong
sigebert
sigismund
sigmund
sign
signoal
signoria
sigrette
sigrettn
sigrid
sijn
sijsele
sikelin
sikhote
sikkel
sikkim
silence
silent
silex
silezie
silezisch
silezische
silica
silicium
siliqua
silk
silva
silver
silvester
silvesterstrips
silvestris
simbel
simenon
simoen
simoens
simon
simone
simoni
simons
simpel
simpelder
simpele
simpeln
simpelweg
simple
simpleweg
simpson
simpsons
sin
sinatra
since
sincfala
sind
sinds
sindsdien
sine
sinensis
sinfonia
singapore
singel
singels
singem
single
singles
sins
sinsdien
sinsn
sinsndien
sint
sinte
sintekloai
sinterklaas
sinterkloai
sintn
sioen
sir
sire
sisi
sison
sister
sisters
sitchensis
site
sites
situoasje
situoasjes
situoatie
six
sixtus
sixtynsche
sizoen
sizoenn
sj
sjantar
sje
sjette
sjhe
sjieke
sjiekn
sjiena
sjiietn
sjoukje
sjouwer
sjælland
sk
ska
skagerrak
skandienoavje
skandienoavsche
skarbina
skarpe
ske
skeepn
skelde
skelet
skeletal
skerke
sketch
sketches
ski
skinner
skint
sko
skoa
skoale
skoenn
skole
skoolslag
skoolslah
skopje
skull
skwone
sky
skyline
slaan
slaap
slabbetje
slabbynck
slachtn
slachtoffer
slachtoffers
slag
slagveld
slagwerk
slam
slange
slangesterrn
slangn
slank
slanke
slapen
slapende
slapers
slapratte
slaprattn
slapt
slav
slave
slavinne
slayer
sle
slecht
slechte
slechts
sleedo
sleen
sleep
sleepn
sleeswyk
sleevie
sleifr
slekke
slekkn
slekn
slendingabo
slenteren
sleutel
sleutelbe
slicht
slichte
slichter
slichtn
slichtste
sliedrecht
sliek
sliern
slik
slikke
slikkn
slim
slimme
slimste
slingeneyer
slo
sloagde
sloagn
sloagt
sloan
sloape
sloapn
sloat
sloavische
sloavn
sloeg
sloegn
slogan
sloot
slootn
slot
slovakeye
slovenie
slovoaksche
sluffer
sluier
sluis
slunse
slurf
sluus
sluuswachter
sluut
sluutn
sluuzn
sluze
sluzen
slyk
slym
slype
slyps
sm
smaak
smakt
smal
smalbekpuut
small
smalle
smalste
sman
smart
smashed
sme
smeednreie
smeepo
smeet
smeiren
smeken
smelt
smeltn
smet
smetana
smetje
smile
smith
smo
smoak
smoake
smoakn
smoel
smoke
smokkeln
smol
smolle
smoller
smolste
smout
smurf
smurfen
smurfn
smyrna
smyt
smytn
sn
snake
sne
snee
sneeuw
sneijder
snel
sneleedn
snelheedn
snelheid
snelle
snellegem
snelwandeln
sneukelienge
sneuvelde
sneuveln
sneuvelt
snippn
snoare
snoarn
snoaskerke
snoavel
snoek
snoeks
snoep
snooker
snorri
snow
snugger
snute
snuyte
snyen
snytandn
so
soablemartre
soamen
soamenstellienge
soamn
soamngesteld
soamnlevienge
soamnstellienge
soamnvattienge
soamnvloeiienge
soamnvoegynge
soamnwerkieng
soamnwerkienge
soap
soarland
soarte
soartn
sobe
soc
sociaal
social
sociale
socialisme
socialist
socialistische
socialistn
socie
society
socioal
socioale
socrates
soderini
soe
soedan
soedaneesche
soendaland
soennietn
soennisme
soepe
soepkinders
soeppe
soete
soetkin
soeverein
soevereine
soevereiniteit
soffici
sofia
sofie
soft
software
soir
soissons
sojasun
sokkel
soks
sol
solanum
soldaat
soldaten
soldatenfriedhof
soldier
soldoat
soldoatekerkof
soldoatn
solen
solitaire
solitude
solnhofen
solo
solvay
som
somalie
somalische
some
somebody
someone
somerset
something
somme
sommekanoal
sommige
sommigen
sommign
sommigste
sommigte
soms
somsteke
somtyds
son
sonar
sonate
sonette
song
songfestival
songs
sonne
sonnet
sonnets
sonnetten
sons
sont
soo
soort
soorte
soorten
soortenbank
soortn
sop
sophia
sophie
sophocles
sophora
sopra
soproan
sorry
sorte
sorten
sortn
sos
sosisong
sosjoal
sosjoale
soubise
souda
soul
sound
sounds
soundtrack
sous
south
southampton
southeast
southern
souvenir
souvenirs
sovjet
sovjetrepubliekn
sovjets
sowrt
sowrte
sp
spa
spaak
spaans
spaansche
spaarne
space
spaceshuttle
spaignien
spain
spajje
spanje
spanjoard
spanjoardn
spanjoarn
spann
spannienge
spanniengn
spanwydte
sparre
sparrn
sparta
spawn
spe
specery
speciaal
special
speciale
specialiestn
specialist
specialistn
specialiteit
specialiteitn
species
specifiek
specifieke
specimens
specioal
specioale
specioalen
specioaln
spectaculaire
spectrum
spee
speed
speeglreie
speel
speelbucht
speeldag
speelde
speeldeg
speeldege
speeldegen
speelder
speelders
speeldige
speeldn
speeldoagn
speelgoed
speelmansreie
speeln
speelnde
speelster
speelt
spegel
spegelreie
spegeltest
spek
spekke
spekkn
spel
spelcomputer
spelen
speler
spelers
spelletje
spelletjes
spellienge
spelling
spelregels
spencer
sperma
spermacelln
spermalie
sperwer
speyer
spezia
spice
spiegel
spiegelrei
spieghel
spiere
spierekanoal
spierinck
spiern
spierweefsel
spil
spildige
spillebeen
spillement
spilliaert
spilt
spin
spinn
spinola
spinus
spirit
spiritual
spirituele
spiroalsgewyze
spiroalvormig
spirou
spits
spitsbergn
spitsboge
spitsboogn
spitse
spitsmuuzn
split
splitsen
splitsienge
splitsn
splitst
splitste
splitstn
splytn
spo
spoakbe
spoans
spoansch
spoansche
spoanschn
spoanse
spoarn
spoarzoam
spoeln
spoense
spoensn
spoleto
sponsors
spontoan
spoor
spoorlyne
spoorn
spoorweg
sporen
sport
sportcentrum
sportdirecteur
sporter
sportief
sportieve
sporting
sportjournalist
sportman
sportn
sportploeg
sports
sportverdienste
sportverslaggever
sportvrouwe
spot
spp
spraak
sprak
sprake
spre
spreek
spreekn
spreekt
spreken
spreker
sprekers
spreuke
spreukn
spriengn
spriengt
sprienkoanders
sprienkoann
sprikt
spring
springer
springers
springfield
springn
springt
sprint
sprinter
sprinters
sprintn
sproake
sproakerkennienge
sproakn
sprookjes
sprooksjes
sproung
sproungn
spruce
spurs
sputn
spuugn
spuutn
spyker
spyt
spytig
sqrt
square
squatina
sr
sri
sry
ss
ssc
sse
sseldorf
ssen
st
sta
staak
staan
staat
staavn
stabiel
stabiele
stabieler
stad
stade
stadhouder
stadhuis
stadhuus
stadhuuzn
stadhuys
stadion
stadiong
stadium
stadje
stadjes
stads
stadsarchitect
stadsbesteur
stadsbestier
stadsbestuur
stadscenter
stadscentrum
stadsde
stadsdistrictn
stadsgebied
stadsgezicht
stadslucht
stadsmeur
stadsmeurn
stadsomroep
stadsomwallienge
stadspark
stadspo
stadspoorte
stadspoortn
stadsrechtn
stadsschouwburg
stadstitel
stadswalln
stadswoapn
stadt
staduus
staelens
staes
staf
stafford
staffordshire
stage
stagiair
stak
stalbemt
stalhille
stalin
stam
stamboom
stamde
stamdeg
stamhertogdom
stamhertogdommn
stamhertogdomn
stamhoofd
stamm
stamme
stammen
stammn
stamn
stamnumero
stamnummer
stamnummero
stampn
stamt
stamvoader
stan
stanbeeld
stand
standaard
standaardnederlands
standard
standbe
standbeeld
standbild
standing
standoard
standoardtoale
standoardvlams
standpunt
standpuntn
standvastig
stanislascollege
stanisław
stank
stanley
stanza
stanzas
stanze
stanzn
stap
stappn
stapt
stapte
staptje
star
starbuck
stardust
starr
stars
start
starten
startn
startte
state
stated
staten
states
statie
station
stationgs
statistiek
statistiekn
statue
status
statuut
stave
ste
steak
stede
stedelijk
stedelik
stedelike
stedelikke
stedelyk
steden
stee
steed
steedelyke
steedlikke
steedn
steeds
steeg
steeghere
steej
steejn
steek
steekn
steekspeeln
steekspel
steekt
steel
steelant
steeln
steels
steen
steenbecque
steenbeke
steenbergen
steenn
steens
steenstraat
steentyd
steenvoorde
steenweg
steenwerk
steeple
stef
stefaan
stefan
stefanie
stefano
stefanus
stegers
steile
stein
steinbach
steinbeck
steinway
steirt
steirtje
steirtme
steirtmeze
steken
stekene
stekkerdroad
stekkers
stekkervelbe
stekkn
steksje
stekveugels
stel
stelde
steldn
stelen
stella
stellaria
stellen
stellienge
stelliengn
stellingmeuln
stelln
stelsel
stelsels
stelt
stem
stemlo
stemme
stemmen
stemmn
stemn
stempel
stemple
stemrecht
stemt
sten
stene
stenen
stenopus
step
stephan
stephanie
stephansdom
stephen
stepney
steppe
ster
sterbeeck
sterchele
stereo
sterfbedde
sterfdag
sterft
sterk
sterke
sterken
sterker
sterkn
sterkste
sterkte
stern
sternn
sterns
sterre
sterrebe
sterrebeeld
sterrebus
sterreich
sterrekundign
sterren
sterrenbeeld
sterrenhemel
sterrenstelsel
sterrenstelsels
sterrewacht
sterrn
sterrnhoopn
sters
stervn
steun
steunbeir
steunbeirn
steunde
steundn
steunn
steunt
steur
steve
steven
stevens
steverlynck
stevie
stevig
stevige
stevin
stevinpling
stewart
steyermark
sticht
stichtegn
stichter
stichters
stichtienge
stichting
stichtn
stichtse
stichtte
stief
stiefvoader
stiel
stiengel
stiengels
stienkende
stienker
stientjes
stier
stierf
stierft
stiermarkn
stiervn
stif
stift
stifterbu
stig
stijl
stijn
stik
stikk
stikken
stikkn
stikn
stiksje
stiksjes
stikske
stikskes
stikstje
stikstjie
stikstof
stikstoffe
stikt
stil
still
stille
stillekesan
stillen
stilletjesan
stilln
stiln
stilte
stimuleern
stive
stn
stnryk
sto
stoa
stoadn
stoake
stoakiengn
stoakmeuln
stoakn
stoal
stoalfabriekn
stoaln
stoalso
stoan
stoand
stoande
stoapel
stoasegem
stoasje
stoasjekwartier
stoasjes
stoat
stoate
stoaten
stoatie
stoaties
stoatn
stoatr
stoats
stoatservormienge
stoatshervormienge
stoatshoofd
stoatsman
stoatsprys
stoatssecretoaris
stoatus
stoavel
stock
stockeern
stockholm
stockton
stoeg
stoegn
stoel
stoeln
stoen
stoend
stoendn
stoendr
stoenn
stoet
stoeten
stoetn
stof
stoffe
stoffelik
stoffn
stoffoasje
stofn
stok
stoke
stoker
stokke
stokkn
stoksje
stol
stom
stomata
ston
stond
stondn
stone
stonehenge
stones
stoofstroate
stookn
stoom
stoommachine
stoop
stoops
stooringe
stop
stopgezet
stopn
stopp
stoppen
stoppn
stopt
stopte
stoptige
stoptn
stories
storm
storme
stormn
stormvloed
stort
story
stot
stound
stoundn
stout
stoute
stoutn
stove
stoven
straat
straatnamen
straatsburg
stradella
straeten
straf
straffe
straffen
straffn
strafkolonie
strafpuntn
strafste
strafte
straight
straks
stralsund
strand
strange
strangegoaper
strangeloper
strangelopers
strasbourg
strategie
strategies
strategisch
strategische
straten
stratje
stratjes
stratosfeer
stratton
straubing
strauss
stravve
stravver
stravvn
strazeele
stre
streek
streeke
streekn
streektoale
streektoaln
streep
streepn
street
streevn
streke
streken
strekkn
strekt
strekte
strelasund
strengn
strength
strepe
stress
streuvels
striatus
strieng
strienge
striepe
striepn
strike
strikt
strikte
string
strip
strippersonage
stripreekse
strips
stripte
striptje
stro
stroal
stroale
stroalienge
stroalkapelln
stroaln
stroalstro
stroalt
stroalvinnige
stroalvinnign
stroat
stroate
stroatn
stroatnoame
stroatnoamn
stroatsburg
stroazele
stroke
stromienge
stroo
stroofe
strooi
strooke
stroom
stroomde
stroomgebied
stroomn
stroomt
strop
stropers
strubbe
structeure
structeurn
structure
structureel
structurele
structuur
structuurn
struise
struke
strukteure
struthio
struthionidae
struthioniformes
struuk
struuke
struukgewassn
struuklandn
struukloage
struukn
struukrovers
struusveugel
struusveugels
stryd
stryders
strydkrachtn
strydlust
strydn
strykers
strykorkest
sts
stu
stuart
stude
studeerde
studeerdege
studeern
studeernd
student
studenten
studentevere
studentn
studeren
studie
studies
studio
studioploate
studioploatn
study
stuivekenskerke
stuk
stunden
stunt
stuntman
stute
stuttgart
stuudje
stuudjes
stuufmeel
stuuvetjeskerke
styf
stygn
stygt
styl
style
styln
stylo
styve
styvn
su
sub
subalpiene
subbuteo
subductie
subfamilie
subfamilies
subiet
subite
subklasse
subkontinent
sublimeern
suborde
subs
subsidies
subsp
substamme
substitute
subtroopiesche
subtropiesche
subtropisch
subtropische
suburbia
succes
successie
successieoorlog
successieoorloge
successn
succesvol
succesvulle
such
sud
sue
suebi
sueevn
suffolk
sugar
suicide
suidae
suisse
suite
suites
suker
sukerbe
sukers
sukur
sul
sulfer
sulferberg
sulla
sulle
sullivan
sulpice
sulpicius
sultan
sumatra
summer
sun
sunday
sung
sunset
sunweb
super
supercontinent
supercup
superfamielje
superfamilie
superfamilies
superia
superieure
superior
superklasse
superorde
superprestige
supplement
supplinburg
suppo
supporters
sur
suriname
surprise
surrealistische
surrey
surtoe
surtou
surtout
survey
surveyor
sus
susan
susanna
suske
sussex
sutera
sutter
suuker
suukr
suve
suyker
suykers
suzanna
suzanne
suzerein
sv
svaneti
sven
svg
svi
sw
swaabische
swaabn
swaen
sweet
swift
switch
switzerland
sword
syagrius
sydney
syfilis
sylvain
sylvatica
sylve
sylvesterkerke
sylvestre
sylvestris
sylvia
sylvio
symboliek
symbolisch
symbolische
symbolisme
symbool
symbooln
symfonie
symfonisch
symmetrisch
sympathie
sympathiee
symptoomn
syn
synapsida
synchro
syndroom
synode
synodische
synoniem
synoniemn
synthe
synthese
synthesizers
synthetische
syrie
syriesche
syrisch
syrische
syroope
sys
syse
syste
systeem
systeim
system
systematics
systematiek
systemoatisch
syzygium
sze
sørensen
sørlandet
t
ta
taag
taal
taalunie
taamlik
tabel
tabelle
table
tac
tachentig
tachntig
tachtig
tachtigjoarign
tachyglossus
tacitus
tack
tadjikistan
tadzjikistan
tael
taeldeman
tafelbier
tafere
tag
tagetes
taiga
tain
taintignies
taipei
taire
taiwan
tajga
tajgas
tajo
tak
take
takkenkind
takkery
takkn
takko
taksa
taksen
taksje
taksjes
taksnomoomiesche
taksonomie
tal
talbot
tale
talent
talk
tallinn
talpa
tamarit
tamias
tan
tand
tanden
tandn
tanganyika
tange
tanger
tanghe
tango
tani
tank
tann
tannenberg
tant
tante
tantist
tanzania
tap
tapyt
tapytn
tarandus
tarente
targa
tarn
tasje
tasman
tasmanie
taste
tataars
tate
tavernier
tavis
taxaceae
taxi
taxis
taxoboxnl
taxodium
taxonomic
taxonomie
taxonomische
taxonomy
taxus
taylor
tbilisi
tc
tchmil
td
te
tea
team
teams
teatro
teau
teborg
tech
techniek
techniekn
technisch
technische
technologie
technologische
technology
ted
tee
teeg
teegn
teegngoan
teegnhanger
teegnkeunienk
teegnkommn
teegnkomn
teegnkwam
teegnoovre
teegnoovrestoande
teegnover
teegnpaus
teegnsloagn
teegnstand
teegnstander
teegnstanders
teegnstellienge
teegnstellynge
teegnwo
teegnwoordig
teegwo
teekn
teen
teens
teetn
tefe
teffrente
tefrente
tegelyk
tegelykertyd
tegen
tegenaria
tegendraads
tegengestelde
tegenhanger
tegenkomt
tegenover
tegenovergestelde
tegenstander
tegenstanders
tegenstellieng
tegenstellienge
tegenstellinge
tegenwo
tegenwoordig
teglyk
tego
tegoare
teil
teilhard
teim
teirlienks
teirlinck
teit
teitn
teitur
teken
tekeniengn
tekenoars
tekniek
tekort
tekst
tekstdichter
tekste
teksten
tekstn
tekstschryver
tektonische
tel
telde
teldege
telemann
telemark
telenet
telescoop
telescoopn
televiezje
televisie
televisieserie
televisje
telg
telindus
tell
teller
tellienge
telln
telo
telt
tem
tember
temidd
temiddn
teminste
temme
temmen
temmerman
tempel
tempelcomplex
tempeliers
tempels
temperate
temperateure
temperateurn
temperateurschoale
template
temple
templemars
templeuve
tempo
temprateure
temprateurn
temps
temptation
temse
ten
tendances
tende
tenden
teniers
tennessee
tennis
tennisclub
tennisser
tennisspeelster
tennisster
tennyson
tenor
tenslotte
tentaculata
tente
tentn
tento
tentoakels
tentoonstellienge
tentoonstellynge
tenue
tenuifolia
ter
terdegem
terdeghem
tere
terecht
terechte
terechtgesteld
tereke
teresa
terkoeje
term
terme
termen
termietn
terminologie
termn
terms
termyn
terneuzen
terneuzn
ternynck
terplekke
terra
terrarum
terras
terrasse
terre
terrebut
terrein
terrestrial
terrestrische
terreurgroep
terring
territoria
territories
territorioale
territorium
territory
terror
terroristn
terry
ters
tert
tertiaire
tertiare
tertie
tertn
tertry
terug
terugkeer
tervuren
terwaan
terwe
terwijl
terwoan
terwyl
terzelfdertyd
tes
teschen
tesoamen
tessenderlo
test
testament
tetanus
tetegem
teten
tetraoninae
tetrapoda
tette
tettiengn
tettienk
tettienks
tettigoniidae
teure
teusje
teut
teutoonsche
teutoonschn
teveele
tevele
tevoorn
texas
texel
text
textiel
textielindustrie
texts
tge
tgeen
tgenbach
tgv
th
tha
thabor
thailand
thales
thalys
thames
than
that
the
theater
theatre
thebe
thee
theems
their
them
thema
themo
[...]
