!
"
#
##0
##1
##10
##11
##12
##13
##14
##15
##16
##17
##18
##19
##2
##20
##21
##22
##23
##24
##25
##26
##27
##28
##29
##3
##30
##31
##32
##33
##34
##35
##36
##37
##38
##39
##4
##40
##41
##42
##43
##44
##45
##46
##47
##48
##49
##5
##50
##51
##52
##53
##54
##55
##56
##57
##58
##59
##6
##60
##61
##62
##63
##64
##65
##66
##67
##68
##69
##7
##70
##71
##72
##73
##74
##75
##76
##77
##78
##79
##8
##80
##81
##82
##83
##84
##85
##86
##87
##88
##89
##9
##90
##91
##92
##93
##94
##95
##96
##97
##98
##99
$
%
&
'
(
)
*
+
,
-
.
/
0
00
000
001
005
01
02
03
04
0402
0406
05
06
0601
0602
0603
0604
0605
0606
0607
0608
0609
0610
0611
069
07
08
09
090
1
10
100
1000
1001
100101
1002
1003
1004
1005
1006
1008
1009
101
1010
1011
1012
1013
1014
1015
1016
1017
1018
102
1023
1024
1025
1026
1027
1028
1029
103
1030
1031
1032
1033
1034
1035
1036
1037
1038
1039
104
1040
1041
1044
1045
1046
1047
1048
1049
105
1050
1051
1052
1053
1054
1055
1056
1057
1058
1059
106
1060
1061
1063
1064
1065
1066
1067
1068
1069
107
1070
1071
1072
1073
1074
1075
1076
1077
1078
1079
108
1080
1081
1082
1083
1084
1085
1086
1087
1089
109
1090
1091
1092
1093
1094
1095
1096
1097
1098
1099
11
110
1100
1101
1102
1103
1104
1105
1106
1107
1108
1109
111
1110
1111
1112
1113
1114
1115
1116
1117
1118
1119
112
1120
1121
1122
1123
1124
1125
1126
1127
1128
1129
113
1130
1131
1132
1133
1134
1135
1136
1137
1138
1139
114
1140
1141
1142
1143
1144
1145
1146
1147
1148
1149
115
1150
1151
1152
1153
1154
1155
1156
1157
1158
1159
116
1160
1161
1162
1163
1164
1165
1166
1167
1168
1169
117
1170
1171
1172
1173
1174
1175
1176
1177
1178
1179
118
1180
1181
1182
1183
1184
1185
1186
1187
1188
1189
119
1190
1191
1192
1193
1194
1195
1196
1197
1198
1199
12
120
1200
1201
1202
1203
1204
1205
1206
1207
1208
1209
121
1211
1212
1213
1214
1215
1216
1217
1218
1219
122
1220
1221
1222
1223
1224
1225
1226
1227
1228
1229
123
1230
1231
1232
1233
1234
1235
1236
1237
124
1240
1241
1242
1243
1244
1245
1246
1247
1248
1249
125
1250
1251
1252
1253
1254
1255
1256
1257
126
1260
1261
1262
1263
1265
1266
1267
1268
1269
127
1270
1271
1272
1273
1274
1275
1276
1277
1278
1279
128
1280
1281
1282
1283
1284
1285
1286
1287
1288
1289
129
1290
1291
1292
1293
1294
1295
1296
1297
1298
1299
13
130
1300
1301
1302
1303
1304
1305
1306
1307
1308
1309
131
1310
1311
1312
1313
1314
1315
1316
1317
1318
1319
132
1320
1321
1322
1323
1324
1325
1326
1327
1328
1329
133
1330
1331
1332
1333
1334
1335
1336
1337
1338
1339
134
1340
1341
1342
1343
1344
1345
1346
1347
1348
1349
135
1350
1351
1352
1353
1354
1355
1356
1357
1358
136
1360
1361
1362
1363
1364
1365
1366
1367
1368
1369
137
1370
1371
1372
1373
1374
1375
1376
1377
1378
1379
138
1380
1381
1382
1383
1384
1385
1386
1387
1388
1389
139
1390
1391
1392
1393
1395
1396
1397
1398
1399
14
140
1400
1401
1402
1403
1404
1405
1406
1407
1408
1409
141
1410
1411
1412
1413
1414
1415
1416
1417
1418
1419
142
1420
1421
1422
1423
1424
1425
1426
1427
1428
1429
143
1430
1431
1432
1433
1434
1435
1436
1437
1438
1439
144
1440
1441
1442
1443
1444
1445
1446
1447
1448
1449
145
1450
1451
1452
1453
1454
1455
1456
1457
1458
1459
1460
1461
1462
1463
1464
1465
1466
1467
1468
1469
147
1470
1471
1472
1473
1474
1475
1476
1477
1478
1479
148
1480
1481
1482
1483
1484
1485
1486
1487
1488
1489
149
1490
1491
1492
1493
1494
1495
1496
1497
1498
1499
15
150
1500
1501
1502
1503
1504
1505
1506
1507
1508
1509
151
1510
1511
1512
1513
1514
1515
1516
1517
1518
1519
152
1520
1521
1522
1523
1524
1525
1526
1527
1528
1529
153
1530
1531
1532
1533
1534
1535
1536
1537
1538
1539
1540
1541
1542
1543
1544
1545
1546
1547
1548
1549
155
1550
1551
1552
1553
1554
1555
1556
1557
1558
1559
156
1560
1561
1562
1563
1564
1565
1566
1567
1568
1569
1570
1571
1572
1573
1574
1575
1576
1577
1578
1579
158
1580
1581
1582
1583
1584
1585
1586
1587
1588
1589
159
1590
1591
1592
1593
1594
1595
1596
1597
1598
1599
16
160
1600
1601
1602
1603
1604
1605
1606
1607
1608
1609
161
1610
1611
1612
1613
1614
1615
1616
1617
1618
1619
162
1620
1621
1622
1623
1624
1625
1626
1627
1628
1629
163
1630
1631
1632
1633
1634
1635
1636
1637
1638
1639
164
1640
1641
1642
1643
1644
1645
1646
1647
1648
1649
165
1650
1651
1652
1653
1654
1655
1656
1657
1658
1659
166
1660
1661
1662
1663
1664
1665
1666
1667
1668
1669
167
1670
1671
1672
1673
1674
1675
1676
1677
1678
1679
168
1680
1681
1682
1683
1684
1685
1686
1687
1688
1689
169
1690
1691
1692
1693
1694
1695
1696
1697
1698
1699
17
170
1700
1701
1702
1703
1704
1705
1706
1707
1708
1709
171
1710
1711
1712
1713
1714
1715
1716
1717
1718
1719
172
1720
1721
1722
1723
1724
1725
1726
1727
1728
1729
173
1730
1731
1732
1733
1734
1735
1736
1737
1738
1739
1740
1741
1742
1743
1744
1745
1746
1747
1748
1749
175
1750
1751
1752
1753
1754
1755
1756
1757
1758
1759
176
1760
1761
1762
1763
1764
1765
1766
1767
1768
1769
177
1770
1771
1772
1773
1774
1775
1776
1777
1778
1779
178
1780
1781
1782
1783
1784
1785
1786
1787
1788
1789
179
1790
1791
1792
1793
1794
1795
1796
1797
1798
1799
18
180
1800
1801
1802
1803
1804
1805
1806
1807
1808
1809
181
1810
1811
1812
1813
1814
1815
1816
1817
1818
1819
182
1820
1821
1822
1823
1824
1825
1826
1827
1828
1829
183
1830
1831
1832
1833
1834
1835
1836
1837
1838
1839
184
1840
1841
1842
1843
1844
1845
1846
1847
1848
1849
185
1850
1851
1852
1853
1854
1855
1856
1857
1858
1859
1860
1861
1862
1863
1864
1865
1866
1867
1868
1869
187
1870
1871
1872
1873
1874
1875
1876
1877
1878
1879
188
1880
1881
1882
1883
1884
1885
1886
1887
1888
1889
189
1890
1891
1892
1893
1894
1895
1896
1897
1898
1899
19
190
1900
1901
1902
1903
1904
1905
1906
1907
1908
1909
191
1910
1911
1912
1913
1914
1915
1916
1917
1918
1919
192
1920
1921
1922
1923
1924
1925
1926
1927
1928
1929
193
1930
1931
1932
1933
1934
1935
1936
1937
1938
1939
194
1940
1941
1942
1943
1944
1945
1946
1947
1948
1949
195
1950
1951
1952
1953
1954
1955
1956
1957
1958
1959
196
1960
1961
1962
1963
1964
1965
1966
1967
1968
1969
197
1970
1971
1972
1973
1974
1975
1976
1977
1978
1979
198
1980
1981
1982
1983
1984
1985
1986
1987
1988
1989
199
1990
1991
1992
1993
1994
1995
1996
1997
1998
1999
2
20
200
2000
2001
2002
2003
2004
2005
2006
2007
2008
2009
201
2010
2011
2012
2013
2014
2015
2016
2017
2018
2019
202
2020
2021
2022
203
204
205
206
207
208
209
21
210
211
213
214
215
216
217
218
22
220
221
222
223
224
225
226
227
228
23
230
2300
232
233
234
235
236
237
238
239
24
240
241
242
243
244
245
246
247
248
249
25
250
2500
251
252
253
255
256
257
258
259
26
260
261
262
263
264
266
269
27
270
271
272
273
274
275
276
277
278
279
28
280
2800
283
285
286
287
288
289
29
290
292
293
295
296
297
298
299
3
30
300
3000
301
302
304
305
306
307
308
31
310
311
312
313
314
315
316
317
318
319
32
320
321
322
323
324
325
326
327
328
329
33
330
331
332
333
335
336
337
338
339
34
340
341
342
343
344
345
346
347
348
349
35
350
351
352
353
355
356
358
359
36
360
361
363
364
365
366
37
370
371
372
373
375
377
379
38
380
384
385
386
387
389
39
390
394
395
396
397
399
4
40
400
4000
402
403
404
405
406
41
412
413
414
416
42
420
421
425
428
429
43
430
431
44
440
444
446
45
450
452
455
46
461
463
465
468
47
470
476
478
479
48
480
481
483
486
49
492
496
497
498
499
5
50
500
5000
501
502
507
509
51
510
511
512
52
521
522
523
525
527
528
53
530
531
532
534
535
5381
54
540
542
545
55
550
551
552
56
560
561
565
57
570
578125
58
580
59
590
595
599
6
60
600
6000
602
606
607
61
610
613
615
618
62
627
629
63
630
634
639
64
640
65
650
651
66
666
67
670
673
675
68
680
686
687
69
695
7
70
700
7000
71
711
714
715
716
717
718
72
720
73
732
74
741
742
747
75
750
751
76
760
765
767
768
769
77
770
771
773
774
777
778
779
78
780
781
782
79
790
792
794
795
796
797
799
8
80
800
8000
806
807
808
81
810
811
812
813
814
815
816
817
818
82
820
821
822
823
825
826
829
83
830
8300
831
8310
833
834
8340
835
836
837
838
839
84
840
841
842
843
8433
844
845
846
847
848
849
8490
85
850
8500
851
852
853
855
856
857
858
859
86
860
8600
861
862
863
8630
864
8647
865
866
867
868
869
8691
87
870
8700
871
87114
872
873
874
875
876
877
878
879
88
880
881
882
883
884
885
886
887
888
889
89
890
8900
891
892
893
894
895
896
897
898
8980
899
9
90
900
9000
901
902
903
905
906
907
908
909
91
910
911
912
913
915
918
919
92
920
921
922
923
924
925
926
927
928
929
93
930
931
932
933
934
935
936
937
938
939
94
940
941
942
943
944
945
947
948
949
95
950
951
952
953
954
955
956
957
958
959
96
960
961
962
963
964
965
966
967
968
969
97
970
971
972
973
974
975
976
977
978
9789062675036
979
98
980
982
983
984
985
986
987
988
989
99
990
991
992
993
994
995
996
997
998
999
:
;
<
=
>
?
@
[
\
]
^
_
`
a
aa
aad
aagje
aakn
aal
aaln
aalst
aalstar
aalter
aan
aandacht
aangeduud
aangepast
aangezien
aanslag
aantal
aantol
aanval
aanvol
aanwezig
aanzien
aar
aard
aardappel
aardappelen
aarde
aare
aarn
aars
aartrijke
aartsbisschop
aartsertoginne
aartsertoogn
aartshertog
aartshertoginne
aartshertoogn
aat
aatn
ab
abate
abba
abbe
abbekerke
abbeville
abbey
abdesse
abdeye
abdie
abdis
abdy
abdye
abdyen
abdyhoeve
abe
abeele
abel
abies
abimeerd
abortus
about
above
abraham
abreu
abruzzo
absis
absolute
absoluut
absorbeern
abstract
abstracte
absurde
absynthe
abt
abu
ac
acacia
acade
academic
academie
academiestraat
academiestroate
academisch
academische
academy
accademia
accent
accident
accipiter
accordeong
accordeongs
account
acer
acevedo
achel
achiel
achille
acht
achte
achter
achterdeure
achtergeloatn
achterground
achterkant
achterkle
achterkommertje
achterland
achterlyf
achterlyne
achtern
achternoa
achternoar
achternoene
achterof
achterpo
achterpootn
achterste
achteruut
achteruutgang
achtervoegsel
achtervolgienge
achterwerk
achtiend
achtige
achtign
achtr
achtre
achtrlyf
achtschellinck
achtste
achtstn
achttien
achttiende
achttiene
achttienste
acid
acke
acker
acknowledgements
acoz
act
acta
acteur
acteurs
actie
actief
acties
actieve
actinopterygii
actinostrobus
action
activist
activiteit
activiteiten
activiteitn
actrice
acv
acw
ad
ada
adalberon
adalbert
adalolf
adam
adams
add
adde
addn
ade
adel
adela
adelaide
adele
adelheid
adelin
adem
adhemar
adiengkerke
adige
adinkerke
adirondack
adjunct
admieniestroasje
administratief
administratieve
administroasje
admiral
admiroal
adn
adolf
adolphe
adopteerd
adoptie
adorant
adornes
adr
adres
adresn
adriaan
adriaen
adrian
adrianus
adriatico
adriatische
adrien
adrioatische
advies
adviseur
advocaat
advocoat
advokoat
ae
aegithalos
aelst
aen
aeneas
aertrycke
aerts
af
afankelik
afde
afdeling
affaire
affinis
affligem
afgeleid
afgestudeerde
afghanistan
afhankelik
afkomst
afkomstig
afkortienge
aflevering
afleveringn
afrekening
africa
african
africana
africanus
afrika
afrikoans
afrikoansche
afrikoanschn
afrikoanse
afrit
afro
afrotropis
afseits
afstand
afstandn
after
ag
again
against
agalev
agamemnon
agatha
agder
age
agen
agency
agent
agentschap
ages
agezien
agglomeroasje
aggregate
aglais
agne
agnes
agnolo
agressief
agressieve
agri
agricole
agricultural
agriculture
agrigento
agrippa
agrippina
ahmed
ahonen
ai
aids
aigle
aiguille
aime
ain
air
aire
airlines
airport
ais
aischylos
aise
aisne
aix
aj
ajax
aje
ajuin
ak
akademie
aken
aketissn
akker
akkers
akketesn
akketesse
akketisn
akko
akkoord
akropolis
aksje
aksjes
akster
akte
aktief
aktieve
aktievieteitn
al
alabama
alain
alan
alaska
alba
albanees
albanie
albano
albany
alberic
albert
alberta
alberti
alberto
alblasserdam
alboanse
albom
albrecht
album
albums
alcazaba
alcedo
alces
alcohol
alcol
alcool
alcyon
aldegonde
ale
alejandro
aleksander
alemann
alemanni
alemannie
alemannisch
alessandro
alex
alexander
alexandre
alexandrie
alexandrje
alexis
alf
alfa
alfabet
alfabetisch
alfons
alfonso
alfred
algarve
algebra
algelyk
algeme
algemee
algemeen
algemein
algemene
algereye
algn
algouwe
alhoewel
ali
alias
alicante
alice
aliens
alighieri
alighiero
alin
aliot
alive
alix
alken
alkmaar
all
alla
allaeys
alle
allee
alleen
alleene
alleine
allekerke
allemaal
allemalle
allemoale
allemolle
allen
allene
allennes
aller
allerhande
alles
alleseters
alletorre
alletwe
alletwee
allia
alliansje
alliantie
allie
allieerd
allieerde
allieerdn
allier
allies
allium
alln
allo
alloam
alloo
allori
allum
almere
almohoadn
almoraviedn
alni
alnus
aloam
aloewe
aloewel
aloi
alois
alone
alonso
alpaca
alpes
alpha
alphonse
alpiene
alpine
alpn
alpnwoatersalamander
alpro
als
alsan
also
alsof
alsook
alt
altai
alte
alternatief
alternatieve
alternatieven
alternative
altijd
altiora
alto
altoar
altoarstik
altyd
altydgroene
aluminium
alva
alvergem
alveringem
alvinne
always
alyssa
alþing
am
amadeus
amalia
amand
amands
amandsberg
amandskerke
amandus
amanduskerke
amar
amaryllidaceae
amateur
amateurs
amazo
ambacht
ambachtn
ambachtshuus
ambassadeur
amber
amberkleurig
ambetant
ambiance
ambiorix
ambition
ambras
ambrogio
ambt
ame
america
american
americana
americans
americanus
ameriekoansche
amerika
amerikaanse
amerikoan
amerikoanders
amerikoann
amerikoans
amerikoansche
amerikoanschen
amerikoanschn
amerikoanse
amerikoansen
amerikoansn
amersfoort
amfibiee
amfibien
amfitheoater
amiens
aminozuur
aminozuurn
amme
ammoniak
amnestie
amniota
amoer
amoled
amon
amor
amore
amour
amours
ampe
amper
amphibia
amstel
amsterdam
amsterdamsche
amurensis
amy
an
ana
anakkale
analyse
analysis
anarchist
anas
anatolie
anatomie
anbeedn
anbod
anchorage
anciaux
ancien
ancient
ancoisne
ancona
and
andacht
andalusie
andamansche
ande
andel
anden
ander
andere
anderen
anderlecht
andern
andernach
anders
andersen
anderson
andersson
anderzyds
andes
andjoen
andjoens
andn
andoen
andoenienge
andorra
andr
andre
andrea
andreas
andreaskerke
andreaslyceum
andrei
andren
andrew
andrews
andriengn
andries
andrn
android
andrs
andschrift
andschrifte
andschriftn
andudienge
anduudienge
andy
andyvie
ane
ang
ange
angebrocht
angedoan
angedreevn
angeduud
angeevn
angekocht
angel
angela
angeleid
angeleide
angeles
angeleyd
angeli
angelique
angeln
angelo
angels
angelsaksers
angelsaksisch
angelsaksische
angemakt
angemoedigd
angen
angenoomn
angepast
angeplant
anger
angers
angesleegn
angeslootn
angesteld
angetast
angetrokkn
angevins
angevoerd
angevuld
angeweezn
angezien
angiosperm
angiospermae
anglo
angn
angnde
angola
angrenzende
angrenznde
angste
angt
anguis
angustifolia
anhalt
anhanger
anhangers
anhangsels
animal
animalia
animals
anisoptera
anjou
anka
anker
ankern
ankerplatse
ankommn
ankomste
ankomt
anleg
anleggn
anleidienge
anleidiengn
anleidinge
anloop
anmerkienge
ann
anna
annaeus
annakerke
annales
annappes
annareie
annatje
anne
annelien
annelies
annemie
annexeerd
annexeerde
annexoasje
annie
anno
annuleerd
annys
anoniem
another
anpak
anpassienge
anpassiengn
anpassn
anroadn
anroakn
ans
ansbach
ansche
anselmus
anslag
ansloagn
anslutienge
ansluut
ansluutienge
ansluutn
ansoame
ansprekienge
ansproake
ansproakn
anstaing
anstelde
anstellienge
ant
antal
antalln
antarctica
antarctisch
antarctischn
ante
antenne
antennes
anthonis
anthony
anthropoceen
anti
antiek
antieke
antiekn
antieln
antigone
antilles
antilln
antiloopn
antins
antinsn
antn
antoine
antoinette
antoing
antol
anton
antonello
antoni
antonia
antonio
antonius
antoniuskerke
antoon
antrekt
antropologie
ants
antwerp
antwerpen
antwerpn
antwerps
antwerpsche
antwerpse
antwo
antwoord
anura
anval
anvallend
anvaller
anvallers
anvalln
anve
anveird
anveirde
anveirdn
anvoer
anvoerder
anvol
anvolln
anvrage
anvroage
anvt
anweezig
anweezigeid
anwezig
anwezigheid
any
anzac
anze
anzegem
anzet
anzettn
anzie
anzien
anziene
anzienlik
ao
aoc
aosta
ap
apache
apart
aparte
apartheid
ape
apennynn
aperitief
apeupri
apg
aphelion
aphrodite
apiaceae
apium
apocalyps
apocalypse
apollo
apostels
apostolo
apotheker
app
appareil
appareils
apparoat
appartementsgebouw
appe
appel
appelmans
appels
appelvienkn
appia
apple
apprecieerd
approach
apps
apre
apreupri
april
aprilia
apulie
aquarellist
aquarium
aquila
aquino
aquitaine
aquitanie
ar
arabidopsis
arabie
arabiere
arabiern
arabisch
arabische
arachnida
arafat
arago
aragon
arbeid
arbeider
arbeiders
arbeiderswyk
arbiter
arboretum
arbre
arc
arcade
archaea
archaeopteryx
archeologie
archeologisch
archeologische
archeoloog
archeoloogn
archibald
archief
archieven
archievn
archipel
architect
architecteure
architectn
architectuur
architekt
archive
archives
arctan
arctischn
arctos
ard
arde
ardea
ardenn
ardenne
ardo
ardooie
arduun
are
area
areas
arelat
arena
arenaria
arend
arents
arentshof
arentshuus
arentsuus
areoal
ares
arezzo
arfeuille
argentinie
argentynsche
argon
argument
ari
ariccia
aricia
arid
arie
ariel
arion
aristoteles
arizona
arizonica
arkansas
arkn
arktiesch
arktiesche
arles
arlon
arm
armada
armand
armbouts
armboutskapelle
arme
armeens
armeensche
armen
armenie
armentie
armentiers
armoede
armor
armstrong
army
arn
arnaert
arne
arneke
arnhem
arno
arnold
arnoldus
arnulf
arnyke
aroabiesch
aroabiesche
aroabisch
aroabische
aroma
aromatische
around
aroundissement
arrangeerde
arrangeern
arrangement
arrangeur
arras
arrebodem
arrest
arresteerd
arresteern
arrhenius
arrive
arrivee
arriveerd
arriveerde
arriveerdn
arriveert
arroendissement
arroendissementn
arrondissement
arroundissement
arroundissementen
arroundissementn
ars
arsenal
art
artcyclopedia
arte
arter
artes
artesie
artevelde
arthropoda
arthur
artiest
artiestn
artificie
artikel
artikels
artillerie
artiodactyla
artist
artistiek
artistieke
artistn
artn
artois
arts
artus
aruba
as
ascq
ash
asia
asiel
asjetik
askoy
aspe
aspectn
assad
assam
assan
assche
asse
assebroek
assebroeke
assen
assenede
assessment
assisi
assistent
assn
association
associe
associeerd
assumpsjekerke
assunta
ast
astana
astene
aster
asteraceae
asterachtign
asterias
asterix
asteroi
asteroiedn
asthenosfeer
aston
astrid
astrologie
astronaut
astronauten
astronomie
astronomische
astronoom
astronoomn
asturie
at
atatu
atelier
ater
ath
athanasius
athanor
atheensche
athei
athena
athene
atheneum
athis
atlant
atlanta
atlantic
atlantiesche
atlantikwall
atlantique
atlantiques
atlantis
atlantisch
atlantische
atlantischen
atlantischn
atlas
atleet
atlete
atletiek
atletiekvere
atmosfeer
atmosfeere
atmosfere
atn
ato
atoom
atoomgetal
atoomkern
atoomn
atoomnummer
atp
atre
atrecht
attakeern
attakeert
attaqueerd
attaqueern
atthis
attiches
atticus
attika
attracties
attraksjes
attribuutn
au
aube
aubergine
aubers
auchy
audacer
aude
audenaerde
audomarois
auf
aufzeichnungen
augsburg
august
augusta
auguste
augustin
augustinus
augustus
aulus
aum
aup
aureus
auricularia
aus
australazie
australia
australian
australie
australis
australisch
australische
australopithecus
austrasie
austroalie
austroalische
auteur
auteurs
authentic
authentieke
authorities
authority
authors
auto
autobus
autonome
autonomie
autonoom
autoriteitn
autostrade
auvergne
aux
auxerre
av
ava
available
avalon
avalonia
avance
ave
avelin
avenue
averbode
avermaet
aves
avesnes
avignon
aviv
avocoat
avokoat
avond
avondmaal
avonturen
avontuur
avontuurn
avound
avui
award
awards
away
ax
axel
axis
axpoele
ay
az
azerbeidzjan
azerbeidzjoans
aziatische
azie
azioatische
aznavour
azo
azoa
azoorn
azur
azyl
azyn
azzo
b
ba
baa
baafs
baas
babbeln
babel
babelutte
baby
bac
baccata
bacchus
bach
bachelor
bachte
bachten
bachtn
bachy
back
backer
backgammon
bacteria
bacterie
bactrianus
bad
baden
badstad
baekeland
baekelandt
baert
baeyens
bagdad
bagynof
bahama
bahrein
bahreyn
bai
baileux
bailleul
bains
baisieux
bajkal
bak
bakeliet
baker
bakker
bakkers
bakkersreie
bakkery
bakkn
bakste
bakt
bakteerje
baku
bal
balaban
balaenoptera
baldr
baldzo
baleoarn
bali
balie
baljuw
baljuws
balkan
balkanschiereiland
ball
ballade
ballades
ballan
balle
ballegeer
ballesjiere
ballet
balliengschap
ballingschap
balloade
balsamea
balsamifera
balta
balthazar
baltische
bambeke
bamberg
bamboe
ban
banana
banann
bananne
band
bande
bandn
bandoneong
bands
bane
bang
bange
bangkok
bangladesh
bank
bankier
bankiers
bankn
banks
baptist
baptiste
bar
barack
barbara
barbarossa
barbe
barberini
barbier
barbry
barcelona
barco
bardi
barge
bari
bariseele
barker
barnes
barok
barokcomponist
barokcompositeur
barokke
barokkerke
barokschilder
barokstyl
baron
baronesse
barong
barragges
barranquilla
barrens
barrie
barry
barst
bart
barthe
bartholomeuskerke
bartoli
barœul
bas
base
based
basel
basen
basgitaar
basgitare
basilica
basilicata
basilicoale
basilieke
basis
basisch
basise
basket
basketball
basketclub
basketcompetitie
basketploeg
basketspeelster
basketspeler
basketter
baskettn
baskisch
baskische
baskn
basknland
bass
basse
bassing
bassist
basso
basten
bastenoakn
bastien
bastille
bastoard
bastoardzeune
bataille
bateman
bator
battaklang
battern
battista
battle
bauvin
bavette
bavik
bavo
bavokerke
bay
bayerische
bayern
bayeux
bazatse
bazel
baziel
bazilieke
bb
bbc
bc
bdo
bdth
be
beach
beagle
bear
beast
beat
beatles
beatrice
beatrix
beatrys
beaucamps
beauclerc
beaufort
beaufortschoale
beaulieu
beaumont
beauregard
beautiful
beauty
beauvais
beauvoorde
beaux
bebouwde
bebouwienge
bebust
bebuste
bec
because
beck
beckaert
becque
becue
bed
bedacht
bedde
beddeze
beddienge
bedekkn
bedekt
bedekte
bedektzoadign
bedevoart
bedevoartsplekke
bediende
bedoeld
bedoelieng
bedoelienge
bedoeling
bedoelinge
bedoeln
bedorvn
bedr
bedrag
bedre
bedreigd
bedreigde
bedreigienge
bedreigiengn
bedreign
bedrijf
bedroagn
bedroagt
bedryf
bedryven
bedryvn
bee
beech
beekn
beeld
beelden
beeldende
beeldhouwer
beeldhouwers
beeldhouwkunst
beeldhouwwerk
beeldhouwwerkn
beeldje
beeldn
beeldngroep
beeldnstorm
beeldouwer
beeldouwers
beeldt
been
beenn
beentje
beer
beernaert
beers
beerschot
bees
beest
beeste
beesten
beestjes
beestn
beetje
beetre
beevre
bef
befoamd
befoamde
before
begeleidienge
begeleidinge
begga
begin
beginn
beginnen
begint
begoan
begoest
begoestn
begon
begonn
begonnen
begost
begoste
begosten
begostn
begraavn
begraven
begrensd
begrenzienge
begrip
begro
begroafplekke
begroafplekkn
begroaven
begroavienge
begroavn
begroeid
begroeiienge
begun
begunn
begunnen
begunperiode
begunt
begust
beguste
begustn
begynhof
begynhoovn
begynof
behalve
behandeld
behandelienge
behe
beheer
beheerd
beho
behoald
behoefte
beholve
behoort
behunn
bei
beiaard
beide
beier
beieren
beiern
beiers
beiersche
beige
beikn
being
beioard
beir
beirn
beirnem
beirtns
beirut
beisbroek
beisn
beist
beistn
beitem
bek
bekaert
beke
bekeek
bekeekn
bekegem
bekend
bekende
bekendeid
bekendn
bekendst
bekendste
bekendstn
bekenn
bekenste
beker
bekers
bekerwinnoars
bekkn
bekkns
bekle
beklemmienge
beklimmienge
beklommn
bekommn
bekro
bekykn
bel
beland
belang
belangn
belangrik
belangrike
belangrikke
belangrikste
belangryk
belangryke
belangryker
belangrykn
belangrykste
belangrykstn
belangstellienge
belank
belast
belastienge
belastiengn
belcanto
bele
beleefde
beleegerienge
beleg
belegerd
belegerde
belegerienge
beleid
belet
belettn
belfast
belfort
belfortn
belg
belga
belgae
belge
belgen
belges
belgian
belgica
belgie
belgique
belgisch
belgische
belgischen
belgischn
belgium
belgje
belgn
belgrado
belgs
belgsche
believe
belize
bell
bellay
belle
bellegem
bellewaerde
bellini
belln
bello
belluno
belo
belofte
beloftn
beloofd
beloofde
beloofdn
belooft
beloovn
below
bels
belspellekes
belt
bemachtign
bemannienge
bemanniengsleedn
bembo
ben
benaminge
benauwd
bende
bendes
bendn
bene
benedictus
benedictynsche
benee
beneedn
beneen
beneixama
benelux
benen
bengal
benito
benjamin
benne
benny
benoade
benoaderienge
benoadrienge
benoamienge
benoaminge
benoemd
benoemde
benoemdeg
benoemienge
benoeminge
benoemn
benoemt
benoi
benoit
benouwd
benowd
benrather
benratherlinie
benson
bent
benton
benvenuto
beo
bepaald
bepaalde
beperkiengn
beperkn
beperkt
beperkte
bepoald
bepoalde
bepoaldn
bepoaln
bepoalt
berbers
berbersch
berbersche
berchem
bere
bereikboar
bereikn
bereikt
bereikte
berekend
berekenn
berengar
berg
bergachtig
bergachtige
bergbusschn
bergen
bergerac
berghe
berghes
bergkeetn
bergkeetns
bergklassement
bergn
bergof
bergrede
bergrit
bergtoppn
bergues
bericht
berichtn
bering
berk
berkachtign
berke
berkel
berkeley
berkem
berkeschusse
berklo
berkn
berkshire
berkyn
berlin
berlyn
bern
bernanchon
bernard
bernardo
bernardus
berner
bernhard
bernini
beroemd
beroemde
beroemdste
beroep
beroepsschool
beroerte
beroertn
berry
berse
bert
berteele
bertelo
bertha
bertin
bertje
bertn
bertrada
bertulf
bertynsabdye
berucht
beruchte
bes
besanc
bescheidn
beschermd
beschermde
beschermen
beschermer
beschermienge
bescherming
bescherminge
beschermn
beschermt
beschikboar
beschikkienge
beschikt
beschilderd
beschoadigd
beschoadign
beschoavienge
beschoaviengn
beschootn
beschouwd
beschowd
beschre
beschreef
beschreevn
beschryft
beschryvienge
beschryviengn
beschryvn
beschuldigd
beschut
beschutte
beschuttienge
beseffn
beseft
besefte
beseloare
beslag
beslissende
beslissienge
beslissn
beslist
besliste
beslistn
beslo
besloa
besloan
besloat
besloeg
besloot
beslootn
besluut
besmet
bespeeld
bespoarn
besprekiengn
besprookn
besse
bessn
best
bestaan
bestaande
bestand
bestandde
bestandn
beste
bestemd
bestemmienge
besten
besteur
besteurd
besteurder
besteurlik
besteurlikke
besteurlyk
besteurn
besteursniveau
bestid
bestier
bestierd
bestierder
bestierdre
bestiern
bestierslid
bestn
bestoa
bestoan
bestoande
bestoat
bestoatr
bestoeg
bestoend
bestond
bestormn
bestound
bestoundn
bestraft
bestrydienge
bestseller
bestu
bestudeerd
bestudeerde
bestudeern
bestudeert
bestuur
bestuurd
bestuurder
bestuurlikke
bestuuvienge
bestverkochte
bestygt
bet
beta
bete
betekenis
betekenisse
betekenissn
betekent
betelgeuze
beter
betere
bethlehem
bethune
betikketakt
betje
betoald
betoalde
betoaln
betogiengn
betong
betongstoal
betreffend
betreffende
betreft
betrekkienge
betrekkiengn
betrekklik
betroapn
betrokkn
bette
better
bettini
betty
betula
betulaceae
between
betwist
betwistte
beu
beukachtign
beuke
beukebusschn
beukn
beuningen
beurgeme
beurs
beurse
beurt
beurze
beuter
beuterslekke
beuvry
beuze
bevat
bevatte
bevattn
beveilign
bevel
beveland
bevere
beveren
bevergem
beverhoutsveld
bevern
bevestigd
bevestigde
bevestigdn
bevestigen
bevestign
beviendt
bevindt
bevo
bevoarboar
bevoarn
bevoegd
bevoegdeedn
bevoegdheedn
bevolkienge
bevolkiengsdichtheid
bevolkiengsgroepn
bevolkinge
bevolkt
bevolkte
bevolkynge
bevoorbeeld
bevorderde
bevorderienge
bevordern
bevriend
bevriest
bevroozn
bevrucht
bevruchte
bevruchtienge
bevryd
bevrydienge
bevryen
bewaard
bewe
beweegienge
beweegn
beweegt
beweezn
bewegieng
bewegienge
bewegiengn
beweging
beweginge
beweird
beweirde
beweirn
beweirt
bewerkienge
bewerkn
bewerkt
beweund
beweunde
beweuner
beweuners
beweunienge
bewiend
bewind
bewoakn
bewoard
bewoarde
bewoarienge
bewoarn
bewoart
bewoogn
bewust
bewuste
bewustzyn
bewys
bewyst
bewyzen
bewyzn
beyern
beyers
beyersche
beyond
bezat
beze
bezeetn
bezet
bezette
bezetter
bezetters
bezettienge
bezettinge
bezettn
bezichtign
bezien
beziensweirdigeedn
beziensweirdigheedn
bezienswoardigeedn
bezig
bezige
bezigoudt
bezirke
bezit
bezittiengn
bezittn
bezocht
bezoek
bezoekers
bezoekerscentrum
bezoekn
bezoekt
bezounder
bhurja
bhutan
bi
bible
biblioteca
biblioteke
bibliotheek
bibliotheke
bicci
bid
biddn
bie
biechtstoel
biechtstoeln
biedn
biedt
biee
biekans
bieke
biekorf
bielefeld
bien
biendienge
bier
bieren
biern
biervliet
bieskoajr
bievo
biezn
biezoendre
biezong
big
bij
bijna
bijnaam
bijous
bijvoorbeeld
bikan
bikkans
bikkansn
bikscho
bikschote
bilbao
bild
bilk
bill
bille
billie
billy
bin
binair
binaire
binche
bindienge
bing
bingen
binn
binne
binnekant
binneland
binnen
binnenkant
binnenland
binnenstad
binnenste
binnestad
binnkant
binnland
binnreien
binnstad
binst
bio
biobi
biodiversiteit
biodiversity
biodiversityt
biogeography
biogeogroafiesche
biografie
biography
biological
biologie
biologisch
biologische
biology
bioloog
bioloogiesch
bioloogiesche
bioloogn
bioluminescentie
biomassa
bioom
bioomn
biosfe
biosfeer
biotechnologie
biotoopn
birch
bird
birger
birma
birmingham
birth
bis
bisch
bische
bisdom
bisdommn
bishop
biskaje
biskop
biskoppn
bismarck
bison
bisschop
bisschoppn
bissegem
bissen
bissezele
bissn
bist
bistn
bit
bitje
bits
bitter
bittere
bittre
bivalvia
bivinus
bizar
bizong
bizongs
bizzig
bjarne
bjo
bjorn
black
blackpool
blad
blade
bladelin
bladje
bladjes
bladjie
bladkevers
bladluuzn
bladvollige
blaffeteure
blagoai
blake
blanc
blanca
blancefloer
blanche
blanckaert
blandain
blank
blanke
blankenberge
blankenberghe
blankenbergs
blankenesse
blanknberge
blanknbergenoars
blanknbergs
blanknbergsche
blankoart
blasiuskerke
blaute
blauw
blauwe
blauwer
blauwers
blauwn
ble
bleeding
bleef
bleeft
bleek
bleevn
blegny
bleine
bleitn
blek
blekker
blekstjie
blekstjies
blend
blende
blendn
blessures
bleu
bleven
blica
blienker
blijven
blik
bliksem
blind
blink
blinken
blitzkrieg
blo
bloadn
bloaren
bloaringem
bloarn
bloars
bloasinstrument
bloast
bloazn
bloed
bloedbasiliek
bloedige
bloedkapelle
bloedprocessie
bloedroad
bloedverwantschap
bloedvienke
bloedvienkn
bloedvoatn
bloedvynke
bloei
bloeide
bloeiende
bloein
bloeinde
bloeiperiode
bloeit
bloelienk
bloeme
bloemen
bloemlezieng
bloemlezing
bloemmeulns
bloemn
bloewost
blog
blois
blok
blokkn
bloksjes
blom
blomfield
blomko
blomme
blommebeist
blommeplantn
blommetjes
blommn
blomn
blond
blonde
blondeau
blondeel
blondel
blondelle
blontrock
blood
bloody
bloom
blootland
bloso
blote
bloumn
blound
blow
blowe
blue
blues
blueszanger
bluft
blusscher
bluuf
bluuft
bluuv
bluuvn
bluuvnde
bluven
bluyvn
bly
blyde
blydhove
blye
blykboar
blykt
blz
bmc
bn
bo
boafs
boai
boaie
boaj
boaje
boalsm
boan
boane
boaneberg
boann
board
boardegem
boarn
boas
boasis
boasn
boasson
boavekove
boavinkove
boazies
boazisse
bob
bobbejaan
bobby
boccaccio
bocht
bochtn
bockor
bod
bode
bodem
bodems
body
boe
boeck
boeckstuyns
boeda
boedapest
boeing
boek
boekarest
boeken
boekery
boekhandel
boekillustrateur
boekn
boeksje
boeksjes
boekskes
boekstjes
boekvorm
boel
boendje
boendskanselier
boent
boente
boer
boerderie
boerdery
boerderye
boerderyen
boerebuutn
boeredorp
boeren
boerenipstand
boerhof
boern
boeschepe
boeschepeberg
boete
boeve
boeveriestroate
boeynants
boezegem
boezienge
boezinge
boffn
bogaert
bogd
boge
bogota
bohe
boheemers
boheemn
boheems
boheemsche
boi
boijmans
bois
bokken
bokser
boksers
bokseur
boksn
bokst
bol
bolder
bolderberg
boleslaus
boleyn
bolivie
bolke
bolle
bolleke
bolletje
bolletjes
bollezele
bolln
bolloard
boloards
bologna
bolvormig
bolvormige
bom
bomanslag
bombardement
bombardementn
bombus
bomen
bomme
bommn
bon
bonaire
bonaparte
bonaventura
bond
bondscoach
bondue
bonduwe
bonen
bonifacio
bonifatius
bonn
bonne
bonneure
bonobo
bonus
boo
boodschap
booe
boog
booge
boogie
boogn
boogvulder
booitshoeke
book
books
boom
boomgrenze
boomn
boomso
boomvalke
boon
boone
boonen
boord
boot
bootje
boovn
boovndien
boovnip
boovnkant
boovnlope
boovnluchtn
boovnste
bor
borcht
bord
bordeaux
bordjes
boreal
borealis
boreoal
boreoale
borgerhout
borges
borghese
borgia
borgloon
borgo
borinage
boris
borle
born
borneo
bornholm
borough
boroughs
borre
borromini
borst
borstbeeld
borstel
borsten
borststik
bos
bosbow
bosch
boschvogel
bosco
bosman
bosmanarrest
bosnie
bosnisch
boso
bosoniedn
bosporus
boss
bossche
bossn
bossut
bossuut
bost
bostn
bostoen
boston
botanic
botanical
botanicus
botaniekn
botanische
botany
boter
botnische
botsienge
botsn
botte
botticelli
bottn
bouchard
boucher
bouches
bouckaert
boudewijn
boudewyn
boudewynkanoal
boudry
bouillon
boule
boules
boulevard
boulogne
bound
boundgeno
boundgenootn
boundn
bourbon
bourbourg
bourel
bourg
bourgeois
bourgeoisie
bourges
bourghelles
bourgogne
bourgondie
bourgondisch
bourgondische
bourgondischn
bouscat
bousignies
boutros
bouts
bouvignies
bouvines
bouw
bouwde
bouwdige
bouwdn
bouwen
bouwer
bouwkunde
bouwkundig
bouwkunste
bouwman
bouwme
bouwn
bouwt
bouwwerk
bouwwerkn
bovekerke
boven
bovendien
bovenkant
bovenste
bovidae
boviengn
bow
bowie
bown
boxing
boy
boys
bozen
bp
br
braaf
brabandere
brabant
brabants
brabantsche
brabantschn
brabantse
bracht
bradley
braeckevelt
brahim
brail
braille
brailleschrift
braine
brak
brakt
bram
branche
brand
brandblusscher
brandde
brande
branden
brandenburg
brandn
brandstoapel
brandstoffe
brandt
brangwyn
brasserie
brassica
brassicaceae
bratislava
braun
braunschweig
brave
bravo
bray
brazilie
brazilioansche
bre
break
breda
bredene
brederode
bree
breed
breekn
breidde
breidelstroate
breidn
brein
breinienge
breken
brel
bremen
bremer
brera
brescia
breskens
brest
bretagne
bretoenn
bretoens
bretoensche
breucq
breugel
breuke
breukelen
brevifolia
brexit
breydel
breyne
brezhoneg
brian
brice
bridge
bridte
brie
brief
briefe
briek
briekn
briel
brielle
brieln
brien
briengen
briengn
briengt
brieven
brievenbus
brievn
brigand
brigge
brighton
brigitte
brigoade
brikt
bril
brill
brillon
brindisi
bring
bringn
bringt
brise
brisighella
bristol
bristow
britain
britannica
british
brits
britsch
britsche
britschn
britse
brittanie
brittanje
brittannie
brittn
bro
broabant
broabantgouwe
broabants
broabantsche
broabantschn
broabantse
broadleaf
broambeier
broamberg
broave
broca
brocht
brochte
brochten
brochtn
broeck
broeder
broederlam
broedn
broedt
broek
broekburg
broekburgvoart
broekkerke
broekn
broeltoorns
broen
broere
broers
broertje
broken
brokkn
broksele
brol
brommer
brommers
bron
bronn
bronne
bronnen
brons
bronte
bronzen
bronzino
bronzn
brood
broodpudding
brooklyn
brother
brothers
brouchoven
broun
brounne
brouns
brounstyd
brounzn
brouwer
brouwereye
brouwerie
brouwerij
brouwers
brouwery
brouwerye
brouweryn
brouwn
browery
brown
brt
brtn
bru
bruce
bruegel
brueghel
brug
brugensis
brugeoise
bruges
brugge
bruggeliengen
bruggeliengn
bruggelienk
bruggen
brugghe
bruggn
brugs
brugsch
brugsche
brugschn
brugse
bruin
bruine
brulez
brullen
brun
bruna
brune
brunehaut
brunehautse
brunelleschi
bruno
brunswick
brunswyk
brussel
brusselmans
brussels
brusselsche
brusselschn
brusselse
brussle
bruukboar
bruun
bruunachtig
bruune
bruunn
bruxelles
bruyelle
bruyn
bruyne
bruyneel
bruynooghe
brydevinvis
bryggen
brythonisch
brønsted
bsd
bt
bu
bubo
buccinum
buch
bucht
buckingham
bucquoy
buda
budel
budelbe
budelrattn
budget
buerse
buffalo
buffel
buffels
bufo
bufonidae
bugno
bui
buildings
buiten
buitenwijk
buk
bulckaen
bulgan
bulgareye
bulgoarn
bulgoars
bull
bulle
bulletin
bulls
bulskamp
bulskampveld
bulte
bultn
bun
bundel
bundels
bundesland
bundle
bunker
bunkers
buonarroti
burchard
burcht
burchte
burchtn
bureau
burg
burgeme
burgemee
burgemeester
burgenland
burger
burgerie
burgerlik
burgerlikke
burgerlyk
burgero
burgeroorloge
burgers
burgery
burgerye
burggroaf
burggroafschap
burggroafschappn
burggroave
burgos
burin
burkina
burns
burrus
bursa
burton
burundi
bus
busbeke
busbrand
busbrandn
buscemi
bush
business
busje
buskruut
busnes
busnois
bussche
busschen
busschn
busseboom
busseboomn
bussn
buste
bustel
bustels
bustik
busveugle
but
butchered
buten
butenkant
butenland
butenste
buteo
butstekker
butstekkers
butter
butterflies
butterfly
buugn
buugt
buuk
buurt
buurtn
buus
buusscheure
buut
buuten
buutn
buutngebied
buutngeweun
buutngeweune
buutnkant
buutnland
buutnlanders
buutnlandsche
buutnlandse
buutnlansche
buutnmeurn
buutnste
buutnverbluuf
buuze
buuzerds
buuzn
buxus
buy
buyse
buysse
buytn
buyze
buze
buzze
bv
bvb
bwv
by
bybel
bybelsche
byble
bydroage
bydroagn
bye
byen
bygebouwd
bygekommn
bygeleegn
bygenoamd
bygevo
bygevoegd
bygezet
bykan
bykans
byle
byligg
byln
byn
byna
byname
bynoame
bynoamn
byrolle
byron
byst
bytn
byttebier
byvo
byvol
byvoorbeeld
byzantium
byzantyns
byzantynsche
byzoendr
byzoendre
byzounder
byzoundere
c
ca
cabaret
cabaretier
cadeau
cadeaus
cadel
cadzand
caecotrofie
caelifera
caen
caenegem
caeruleus
caesar
cafaggiolo
cafe
cafetaria
cafmeyer
cai
caisse
calabria
calabrie
calais
calamita
calcio
calcium
cale
calidris
california
californie
californische
caligula
calixtus
call
callebert
callens
callewaert
callitris
callitropsis
calloigne
calocedrus
calonne
calpurnius
caltabellotta
caltagirone
caltanissetta
caluwe
calvados
calvin
calving
calvinisme
calvinistische
calvinistn
cam
cambodja
cambrai
cambridge
cambridgeshire
cambrium
cambyses
camden
camelidae
camelus
camera
cameron
camiel
camille
camiong
cammarata
camp
campagne
campanie
campanile
campbell
camphin
campin
camping
campo
campus
can
canada
canadees
canadeesche
canadeeschn
canadensis
canadian
canal
canarische
cancellara
cancer
candela
cane
canelle
canidae
canis
cannibal
cantate
cantates
canterbury
cantiliter
cantimeiter
cantimeiters
cantimeter
cantmeiter
canvas
canyon
caoutchou
caoutchouc
cap
capaciteit
cape
capensis
capet
capetiengers
capitool
capoen
cappaert
cappel
cappelle
capreolus
caprifoliaceae
car
cara
caracal
caracara
carai
carbo
carbong
carcinus
cardiff
cardijn
carduelis
carels
carembault
carex
cargo
caribbean
caribou
carl
carlier
carll
carlo
carlos
carme
carmen
carnaval
carnin
carnivora
carolina
caroline
carolus
caron
carpentier
carre
carrefour
carrie
carson
cartagena
carter
carteus
cartograaf
cartogroaf
cartoonfestival
cartoonist
cartoons
cartuloarium
carvin
caryophyllales
cas
casa
casablanca
casar
case
cash
casimir
casino
casper
cassel
cassius
cassoasje
castanea
castel
castelli
castello
castellum
castilie
castillo
castle
castor
castro
cat
catalana
cataldo
cataloans
cataloansche
cataloanse
catalonie
catalunya
catania
categorie
caterina
catharina
catharinakerke
cathe
cathedral
catherine
catholic
cato
catone
cats
cattedrale
cattle
cauberg
causa
causanti
cauwelaert
cavendish
cavia
cb
cbs
cc
cd
cda
cdh
cdot
cds
cdu
ce
ceaus
cecilia
cedar
cedrus
ceedre
ceedrs
cel
celkern
celle
cellini
cellist
celln
cello
celn
celsius
celstoffe
celtic
celwand
cemetery
cens
censerie
cent
center
centiemn
centime
centimeter
centra
centraal
central
centrale
centre
centroal
centroalbouw
centroale
centrum
century
ceo
cephalopoda
cerci
cercle
ceremonie
ceremonieel
ceres
cervantes
cerve
cervus
ces
cesar
cetacea
ceulemans
ceuta
ceylon
cf
cfr
ch
cha
chaco
chalkis
chalon
chamaecyparis
chambrang
champagne
champaigne
champion
champions
championship
champs
chance
chang
change
channel
chanson
chansons
chant
chantal
chaos
chapelle
chapin
chaplin
chapment
chapter
charcuterie
chardin
charente
charentes
charleroi
charles
charlie
charlier
charlotte
charme
charmed
charolais
charter
chartres
chase
chatterdo
chauffeur
chavanel
che
check
checklist
cheek
chef
chelsea
chemie
chemisch
chemische
chemnitz
chemy
chen
cher
chercq
ches
cheshire
chevalier
chez
chi
chic
chicago
chicane
chicong
chicongs
chicoreie
chief
chielens
chiesa
chieti
chihuahua
child
childebert
childeric
childerik
chile
chileensche
chili
chilperik
chimay
chimpansees
chin
china
chinees
chineesche
chineeschn
chineezn
chinensis
chinese
chiny
chique
chiro
chirurg
chirurgyn
chlamydogobius
chlodomer
chloris
chloroplast
chloroplastn
chlotarius
chlotharius
cho
choco
chocola
chocolade
chocolate
choice
choluim
chondrichthyes
chopin
chopping
chr
chre
chris
christ
christelijk
christelijke
christelik
christelike
christelikke
christelyke
christen
christendom
christenen
christenn
christiaan
christian
christina
christine
christmas
christn
christndom
christnn
christoffel
christoffelkerke
christoph
christophe
christopher
christus
chroicocephalus
chromosoom
chromosoomn
chronologie
chroom
chuck
church
churchill
chyler
chyugh
cia
ciampino
ciccone
cicero
cichorium
cider
cilou
cina
cineast
cinelli
cinema
cinerea
ciney
cinnamomum
cinq
circa
circle
circuit
circuits
circus
cirkel
cirkels
cirque
cisalpina
cisjuranie
cistercie
cit
citadel
citadelle
cite
citroen
citrus
citta
city
civiele
civil
civitas
civitella
cj
ck
cl
clade
claeissens
claerhout
claes
claeys
clair
claire
clairvaux
clan
clara
clare
clarence
clarice
clarissa
clark
class
classic
classicisme
classicistisch
classicistische
classification
classificoasje
claude
claudel
claudia
claudius
claus
clauwaert
clav
clay
cle
clean
clemens
clemenskerke
clement
clementia
cleopatra
clerck
clercq
cleremeersch
clermont
clerus
cleveland
cliff
clifton
clijsters
climate
clinckemaillie
clinton
clip
clips
clitellata
clito
clive
cloaca
cloacabe
clock
cloedt
clos
close
cloud
clouseau
clovis
clown
club
clubs
cluse
cm
cneut
cnt
co
coach
coaliesje
coalitie
cobrieux
coburg
cocai
coccothraustes
cock
cockerill
cocktail
coconne
code
codons
coecke
coene
coens
cofidis
cogge
cohen
col
cola
cold
cole
colens
colette
colin
coll
collaboroasje
colle
collecsje
collectie
collecties
collection
collega
college
collegioale
collepardo
collier
collins
collstrop
colmar
colme
coloeus
colombia
colombus
colonia
colonna
color
colorado
coloradokever
colosseum
columba
columbia
columbus
columnist
com
coma
comarca
combined
combineern
combinoasje
combinoatie
combinoaties
come
comedy
comes
comet
comines
comite
comitoat
commandant
commande
commandeur
commando
commedia
commentaar
commentary
commentoar
commerc
commercant
commercantn
commerce
commercie
commercieel
commersantn
commisje
commissie
commission
commissoaris
common
commonwealth
communal
commune
communes
communicoasje
communie
communis
communistische
como
comoorn
compact
compagnie
companion
company
compassie
compatri
compensoasje
compernolle
competiesche
competiesje
competitie
competities
compie
compleet
complete
complex
complexe
complot
componeerde
componeern
componist
componiste
componistn
composeert
composiesjes
compositeur
compositeurs
compositie
composities
compromis
compte
computer
computers
comte
comyn
con
conce
concentreern
concentroasje
concentroatie
concentroaties
concepcio
concept
concert
concertina
concertn
concerts
concilie
concolor
concorde
concordoat
concours
concubine
concurrensje
concurrent
concurrentie
concurrentn
conde
conditions
confederoasje
conference
conferensje
confessions
confiteure
conflict
conflictn
confucius
conge
congo
congolezen
congres
congress
congressn
conifer
conifers
coninck
conne
connecticut
conscience
conservateur
conservatief
conservatieve
conservation
conservator
conservatorium
considered
console
constance
constant
constante
constantin
constantinopel
constantyn
constitutionele
constructie
constructies
consul
consuloat
contact
contactn
contador
container
contains
content
contes
conteville
context
contexte
conti
continent
continental
continentn
continentoal
continentoale
continu
contorta
contra
contrabas
contract
control
controle
controleern
controverse
controversie
convergente
convivio
coo
cook
cools
cooper
coopman
coorevits
copernicus
copies
coppens
copper
copperfield
coppieters
copy
copying
copyright
corax
corbie
cordillera
core
coriandrum
corinthische
cork
corneille
cornelia
cornelis
cornelius
corner
corners
cornet
cornil
cornisch
cornish
cornwall
corona
coronavirus
corporation
corps
corpse
corpsegrinder
corpus
correggio
correspondent
corridoio
corsica
corsicoans
cort
corte
cortona
corvidae
corvus
cos
cosimo
cosmos
costa
coster
cot
cote
cotswolds
cottage
coturnix
couche
coudekerque
could
council
count
counties
country
county
coupe
couperin
coupeure
coupure
courage
courageus
courant
courante
coureur
coureurs
couroage
cours
court
courtenay
courtois
coussemaker
coutteure
cover
covers
covid
cowboy
cowboys
cowper
cox
coxyde
craemer
craenenburg
crangon
crash
crassipes
crazy
cre
creatief
creation
cree
cref
crevits
crick
cricket
crimineel
crisis
cristal
criterium
critici
cro
croce
croix
crombe
crombez
cromwell
cronquist
cross
crown
croy
cru
crustacea
cruydeboeck
cruz
cry
crypte
cryptomeria
cs
csp
cu
cuba
culteur
culteure
cultural
culture
cultureel
culturele
cultuur
cultuurlandschap
cultuurn
cum
cumbria
cuminum
cunigonde
cuore
cup
cupido
cupressaceae
cupressus
curac
cure
curiosamuseum
cursus
cursussen
curthose
curtis
curtmantle
cuspidata
cvp
cwgc
cy
cyanistes
cycling
cyclocross
cyclocrosser
cyclus
cyfer
cyfers
cylinder
cylons
cyminum
cypresachtign
cypress
cypresse
cypressn
cyprus
cyr
cyriel
cyrillisch
cysoing
d
da
daagn
daan
daar
daarin
daarmee
daarna
daarom
dad
dadde
dadipark
dadizele
daens
daer
daf
dag
dagboek
dagelijks
dageliks
dagen
dagobert
dahl
dahoeriesche
daily
daj
daje
dajje
dak
dakpann
dal
dale
dali
dalle
dam
damascus
dame
dames
damme
damon
damp
dampierre
dampierres
dampo
damsche
damse
damselflies
dan
dance
dancing
dander
danico
danie
daniel
dank
dankn
dankt
dankzy
danneels
danny
dans
dansen
danser
dansercoer
danseresse
dansn
danst
dante
danza
danze
daoeriesche
daphne
dar
dardanelln
dark
darline
dart
darts
darwin
darwish
das
dasse
dassn
dat
data
database
date
dateern
dateert
daterienge
datje
datn
datr
datte
datter
dattie
datum
daucus
dauphin
dauphine
dauw
dave
david
davide
davidsfonds
davidsfondsprys
davis
davitamon
davy
dawkins
dawn
dawson
day
days
daze
dazelfde
dazelfste
dazze
dbnl
dc
dd
ddr
de
dead
deal
dean
death
deathmetalband
debat
deboosere
debrabandere
debrauwer
deburghgraeve
debuteerde
debuut
debuutalbum
decade
decaluwe
decamerone
decapoda
december
decembre
decennia
decennium
decimoal
decleir
declerck
declercq
deco
deconinck
decor
decorateur
decoratief
decoratieve
decoreern
decoroasje
decreet
dede
dedecker
dedee
dedeeze
dedications
dedie
dee
deed
deedn
deej
deejn
deekn
deel
deelgemeente
deelgemeentes
deelgemeentn
deeln
deelnemers
deels
deelstoat
deelstoatn
deeltjes
deen
deenn
deens
deensche
deenschn
deensen
deep
deerlijk
deeze
deezn
defever
definie
definiesje
definiesjes
definitie
definitief
definitieve
defoort
defraeye
defrancq
deftig
deftige
degli
degrelle
degryse
dehaene
dehenauw
dei
deicide
deil
deiln
deilstoat
dein
deinze
deirlik
deirlyk
deisel
deizel
dej
dejaeghere
dejonghe
dek
deken
dekkn
deksel
del
delavayi
delaware
delbecque
delegoasje
delen
deleu
delfine
delft
delfzeyl
delfzijl
delhi
delichon
delik
dell
della
delle
delonge
delta
deltawerkn
delvaux
delvoye
delyen
dem
deman
demarreern
demedts
demeester
demer
demeulemeester
demeulenaere
demo
democratie
democratisch
democratische
democroatn
demol
demosthenes
demuysere
demyttenaere
den
denarius
dendeen
dender
dendermonde
dendien
dendoncker
dendooven
denemarken
denemarkn
denijs
denis
denk
denken
denn
denne
dennis
denoe
denoyelle
dentergem
denuwelaere
denver
denys
departeme
departement
departementn
department
depauw
depoele
depoorter
depoortere
depot
depraetere
depreitere
deprez
der
derachter
derachtr
derby
derbyshire
derde
derden
derdeure
derdn
derekt
derijcke
derin
derip
derm
dermaptera
dermee
derms
dern
derneffest
derounder
derover
derroend
derround
dertien
dertiende
dertiene
dertienjoarige
dertienste
dertig
dertigjoarign
derup
deruut
deruwe
dervan
dervo
dervoorn
derycke
des
desastreus
descamps
descartes
deschampsia
descriptions
desert
desiderata
desiderius
design
desimpel
desire
desmarets
desmet
desmit
desnerck
despriet
desselgem
destrooper
destruction
deswaef
detail
detailbloadn
detailpagina
details
detd
detective
dethroned
detroit
deu
deugniet
deule
deulemounde
deur
deurbreekn
deurbroake
deurda
deurdan
deurdat
deurde
deurdege
deurdn
deure
deurebreekn
deuregebrookn
deuregegeevn
deuregegoan
deureging
deuregoan
deuregoat
deurelopt
deurgank
deurgoans
deurkruust
deurmeetre
deurn
deurnband
deurne
deursnee
deurt
deurtocht
deurzichtig
deurzoam
deurzoame
deutsche
deutscher
deutsches
deux
development
deventer
devil
devlieger
devliegher
devolder
devon
devonshire
devos
devynck
dewael
dewaele
deyle
deyleland
deyster
deze
dezeifste
dezelfde
dezelfste
dezelste
dezelstn
dezen
dezeste
di
dia
diagnose
diagnostic
dialect
dialecten
dialectn
dialekt
diamant
diamantn
diame
diameter
diamond
diana
diarree
dicht
dichtbundel
dichtbundle
dichtby
dichte
dichteby
dichten
dichter
dichteresse
dichters
dichtheid
dichtkunste
dichtn
dichtr
dichtre
dichtresse
dichtrs
dichtst
dichtstbevolkte
dichtste
dichtwerk
dick
dickens
dickinson
dictator
dictionary
dictionnaire
didelphis
didier
die
diederik
diedr
diego
diejn
dien
diende
diendn
diene
dienen
dienge
diengen
diengn
dienk
dienn
diens
dienst
dienstbeurte
dienste
dienstn
dient
diep
diepe
dieper
dieppe
diepst
diepste
diepte
diepze
dierder
diere
dieren
dierenpark
dieric
dierlikke
dies
diesel
diesndag
diest
dieter
dietn
dietrich
dietsch
dietsche
dietz
dieven
dievoet
different
dig
digd
dige
digitaal
digital
digitale
digitoal
digitoale
dijk
dijon
dijver
dik
dikke
dikkebus
dikkebusvyver
dikkels
dikkens
dikker
dikkers
dikkersn
dikkn
dikkoptjes
dikkrs
diksmude
diksmuide
diksmuude
dikte
dikwils
dikwyls
dillenburg
dimitri
din
dinamo
dinant
ding
dinge
dingen
dingn
dinne
dino
dinoflagelloatn
dinosaurie
diocletianus
dionysius
dionysos
dionysus
diplom
diploma
diplomatieke
diplomoat
diptera
direct
directe
directeur
direkt
dirigent
dirk
discipline
disciplines
disclaimers
disco
discobar
discovery
discussie
discussies
discuusje
discuusjes
disintegration
disk
disney
disoek
displaystyle
distelvienkn
distribute
distributie
distribution
district
districtn
dit
diverse
diverses
diversiteit
diversity
divina
divine
divisie
divisio
division
dixie
dizze
dj
dje
djeems
dmeer
dn
dna
dnjestr
do
doa
doaboovn
doabuutn
doaby
doad
doader
doadeure
doadn
doage
doageliks
doagelikse
doagelyks
doagen
doagn
doagse
doakn
doaln
doalt
doame
doamee
doamei
doanaasn
doanig
doar
doarachter
doaran
doarbie
doarby
doardeure
doarenteegn
doarin
doarip
doarmee
doarnoa
doarnoast
doarom
doarounder
doarover
doarup
doaruut
doarvan
doarvo
doarvoorn
doateegn
doatum
doavan
doavn
doavo
doavoorn
doavoren
dobhair
doceerde
docent
doch
dochter
dochters
dochtertje
dochtr
dochtre
docteur
doctor
doctoroat
document
documentaire
documentation
documentn
documents
dode
dodeure
dodoens
dodonaei
doe
doedelzak
doeglas
doeglasn
doek
doekn
doel
doelstelliengn
doen
doene
doenienge
doenk
doenker
doenkere
doenkre
does
doest
doet
doffe
dog
doggerbank
dogma
dogs
doherty
doin
dok
dokkn
doksoal
dokter
dokteur
dokteurs
dolfijntjes
dolfyntjes
dollar
dolle
dolly
dolomietn
dom
domburg
domee
domein
domeinn
domenico
domestica
domesticus
dominant
dominante
dominee
doming
domingo
dominicoan
dominicoann
dominicoansche
dominicus
dominiek
dominique
domino
domitianus
domme
domo
domus
domyn
don
donaas
donaaskathedroale
donaaskerke
donald
donar
donatello
donatianus
donato
donau
donegal
dong
donker
donna
donoas
donoaskateedroale
donoaskerke
doo
dood
doodgegoane
doof
dooie
dooin
doom
doomkerke
doop
dooperkerke
doopn
door
doorheen
doornaert
doornik
doornikse
doors
doortje
doot
dooze
dop
dope
doper
doperkerke
dopienge
doppelhochzeit
doppn
dor
dora
dorachter
dordeure
dordogne
dordrecht
dore
dorian
doris
dorische
dorom
dorothea
dorp
dorpel
dorpen
dorpke
dorpkes
dorpn
dorpscentrum
dorpsje
dorpsjes
dorpskern
dorptje
dorptjen
dorptjes
dorre
dorset
dos
dossier
dottenys
douai
double
doubs
douglas
dounker
dounkerbruun
dounkerder
dounkere
dounkern
douvrin
dovan
dover
dovo
dowd
down
downloadn
dowoai
doze
dr
draagn
draagt
draaien
draft
dragen
dragonflies
drake
drama
drank
drankn
dranouter
drawings
drby
dre
dream
dreams
dreevn
dreigde
dreigienge
drenthe
drents
drentsche
dresden
dribbeln
dric
drie
driedoagsche
driedoagse
drieduusd
driee
driehoek
driekapellen
drieluuk
drienken
drienkn
drienkt
drienkwoater
drieoek
dries
driessche
driete
drieux
drievuldigheid
drigo
dril
drin
drink
drinkam
drinkn
drinkt
drip
dro
droad
droadn
droagn
droagt
droai
droaide
droaien
droailier
droain
droait
droajn
droake
droef
droeg
droegn
droenke
droevoard
droge
drogo
dromedoaris
dromen
drongen
droog
drooge
droogn
droogre
droogte
droom
droomn
drop
drugs
druk
drukke
drukken
drukker
drukkery
drukkn
drukste
drukt
drukte
drum
drummer
drums
drusus
druuvn
drvan
dry
dryvn
dryvnde
dt
dte
du
duatleet
dubbel
dubbele
dubbelmonarchie
dubbeln
dublin
dubois
duclos
dudelik
dudelyk
duet
duffel
dufoer
duft
dui
duineser
duino
duisiner
duitama
duits
duitsche
duitse
duitsland
duivel
duizend
duke
dul
dullaert
dulle
dumery
dumont
dumouriez
dun
dunder
dunderbe
dunderdag
dune
dunegebied
dunen
dunes
dunkerque
dunkerquois
dunlop
dunne
duo
duomo
dupon
dur
duran
durfde
durft
durham
duriez
durnez
durp
durpel
durven
durvn
dury
dus
dusauchoit
dust
dutroux
duts
dutsekop
dutske
duudelik
duudelyk
duudlik
duudn
duudt
duuk
duukn
duukt
duum
duun
duunbergn
duunkerke
duunkerksche
duunn
duur
duurstede
duusd
duust
duuts
duutsch
duutsche
duutscher
duutschers
duutschn
duutse
duutsers
duutsland
duutstoalig
duutstoalige
duutstoalign
duuve
duuvn
duuwn
duuzende
duuznde
duve
duvel
duvels
duvn
duw
duwde
duwn
duwt
dux
duyts
duytsche
duytsland
duzende
duzendn
dvd
dvor
dwaas
dwars
dwarsbeuke
dwe
dweis
dwerg
dwergberke
dwergen
dwerggalery
dwergn
dwergplaneetn
dwergplanete
dwergstruukn
dwergvinvis
dwiengn
dwoung
dyck
dyk
dykn
dylan
dyle
dynamiek
dynamo
dynastie
dyne
dyver
dyvre
dz
e
each
eadgifu
eagle
early
earth
east
eastern
easy
eaten
eau
ebaseerd
ebblingem
ebe
eberhard
ebleevn
ebo
ebodem
ebouwd
ebrocht
ebrookn
ebrouwn
ebrugge
ec
ech
echinodermata
echo
echt
echte
echter
echtn
echtre
eck
ecliptisch
ecolo
ecological
ecologie
ecologische
ecology
economie
economisch
economische
economischn
econoom
ecoregion
ecoregions
ecosyste
ecss
ectoare
ectoarn
ecuador
ed
edda
edde
eddie
eddy
ede
edelman
edeln
eden
edeni
eder
edeurd
edgar
edge
edict
edienge
ediesje
edinburgh
edingen
edison
edited
edith
editie
edities
edition
editions
editor
editors
edmond
edmund
edn
edoan
edouard
eds
edt
edte
edtegroad
edu
eduard
education
edvald
edvard
edward
edwards
edwardstone
edwin
edyk
ee
eebre
eecke
eeckhout
eed
eede
eedeln
eee
eeft
eeg
eeghem
eej
eekhoorns
eekhoutreie
eeklo
eeland
eem
eeml
eemle
eemmeer
eems
eemskanoal
een
eende
eendn
eendracht
eene
eenentwintigste
eenheid
eenhoorn
eenigste
eenigte
eenn
eens
eentje
eenvoudige
eer
eerder
eernegem
eeroozje
eerst
eerste
eerstn
eesn
eest
eeste
eesten
eestn
eet
eetboar
eetboare
eetn
eeuw
eeuwe
eeuwn
eeuws
eeuwsche
eeuwse
eevn
eevnhoevige
eevnhoevign
eevnoare
eevnredig
eevnvele
ef
efd
effect
effectief
effn
effort
efkes
eft
eftn
eftyd
eg
egbert
egd
ege
egebied
egeevn
egei
egel
egels
egem
eger
eggeleegn
eggeric
eggewoartskapelle
egidius
egied
egland
eglandn
egliek
egmond
egmont
egn
egnwo
ego
egoan
egre
egroeid
egste
egt
egvlakte
egypte
egyptenoarn
egyptiesche
egyptisch
egyptische
egyptischn
eh
ei
eicelln
eid
eie
eiermarkt
eiers
eiffel
eig
eigelik
eigen
eigenare
eigendom
eigenlijk
eigenlik
eigenoare
eigenoars
eigenschap
eigenschappn
eigentlik
eight
eign
eigndom
eignlik
eignlyk
eignschap
eignschappn
eigntlik
eigntlyk
eikels
eiland
eilandje
eilandjes
eilandn
eilandngroep
eilig
eiligen
ein
eind
einde
eindelijk
eindelik
eindhoven
eindhovens
eindklassement
eindrounde
eindwinnoare
eine
einigte
einstein
eird
eirdbevienge
eirdbeviengn
eirde
eirdenburg
eirdewerk
eirdippervlak
eirdkorste
eirdn
eirdnburg
eirdrykskunde
eirdrykskundig
eirdrykskundige
eirn
eirtsbisschop
eirtshertog
eisn
eist
eiste
eistn
eit
either
eitje
eitjes
eiwe
eiwit
eiwitn
eiwittn
ej
eje
ejoagd
ek
ekbe
eke
ekelsbeke
ekend
ekende
ekeniengn
ekenn
ekenoare
ekent
ekeren
eki
ekir
ekkergem
eklapt
ekleppige
ekleppign
ekleurd
eklimoat
eklo
eklopt
ekn
eknd
eknde
eknen
ekniengn
eknisse
eknn
eknoare
ekns
eknt
eko
ekokkeduund
ekologiesch
ekologiesche
ekoloogiesche
ekommn
ekomn
ekonomie
ekonomiesch
ekoozn
ekoprovinsje
ekoprovinsjes
ekostelsl
ekostelsls
ekostreeke
ekostreekn
ekout
ekozo
ekreegn
ekse
ekster
eksters
ekstoel
ekt
ekte
ekunn
ekust
ekwikt
el
eland
elastische
elbe
elbier
elboar
elche
eld
elde
elder
elderberry
elders
eldn
ele
electrische
eleen
elegans
elegansn
elegast
elegien
elegies
eleid
elektriciteit
elektriek
elektrieke
elektrisch
elektrische
elektron
elektronica
elektroonn
element
elementaire
elementen
elementn
elements
eleonora
eleonore
elf
elfde
elfste
elfstn
elft
elftal
elgeme
elgemeente
elias
elie
elienge
eliengn
elienk
elig
eliomys
elisa
elisabeth
elise
elite
elizabeth
elizabethsvloed
elk
elke
elkoar
elks
elkyng
ella
elle
ellen
elletuute
elliptische
eln
elnemers
elnon
elo
eloeis
elooi
eloois
elooiskerke
elp
elpen
elpn
elpt
els
elsan
elschryver
elsegem
elsene
elst
elstik
elstikkn
elstoat
elstoatn
elt
elte
eltegansten
elteganstn
eltelik
eltelyk
eltje
eltjes
eltjies
eltlik
eltn
elukt
elve
elverdienge
elverdinge
elvis
elx
elyse
elzas
elze
elzn
em
emakt
emann
emanuel
embleem
embrun
embryo
embryophyta
emde
emeerminne
emel
emelbe
emelgem
emelvoart
emiel
emile
emilia
emilio
emily
emir
emma
emmanuel
emme
emmen
emmer
emmerin
emn
emotie
empire
ems
emsche
emtote
emysl
emyslid
emysliden
emzelve
en
ename
enbrugge
enburg
enclave
encyclopedia
encyclopedie
encyclopædia
end
endagswedstrydn
ende
endeemiesch
endeemiesche
endeke
endemisch
ender
endere
endern
enders
endetje
endigd
endigde
endigdn
endigen
endign
endigt
endje
endklassement
endn
endochter
endorsements
ene
enebest
eneco
eneedn
enegouwn
eneid
enen
enendertig
enentwientig
energie
enerzyds
eng
engagement
engel
engelo
engels
engelse
england
english
enhe
enheedn
enheid
enhere
enienge
enig
enigd
enigde
enige
enigienge
enigste
enigsten
enigstn
enigte
eniveau
enjounges
enkel
enkele
enkelvoud
enkerke
enkhuyzn
enkienders
enkloavn
enkomst
enkomste
enkomstn
enkomt
enmoakienge
enn
enne
ennelin
ennetie
ennevelin
enni
enns
enoeg
enoemd
enorm
enorme
enormn
enpit
enrico
ens
enschap
enschappelik
enschappelikke
enschappelyke
enschapplik
enschappn
ensche
enschoalige
ensemble
ensis
ensor
enste
enstens
enstoande
enstroate
ent
ente
entebestier
entefuuzjes
entelik
entelikke
entelyk
entelyke
enten
entenoame
enteroad
enteroadslid
enteroadsverkieziengn
enteroadsverkiezingn
enterprise
entertainment
entes
enteschole
enthousiast
enthuus
entige
entiteit
entitled
entje
entjes
entn
entree
entuus
entwa
entwadde
entwodde
enuuzig
environment
environmental
envo
envolgende
envolgnde
envolln
enweg
enya
enz
enzeune
enzo
enzovo
enzovors
enzymn
ep
epakt
epargne
epe
epicenter
epicentrum
epidemie
episode
epistulae
epitonium
epn
epoque
epos
ept
epte
equidae
equivalent
equus
er
erachter
eran
erasmus
eratosthenes
erberge
erboane
erbouwd
erd
erde
erdeg
erdege
erdeid
erdenkienge
erder
erdere
erdereid
erderheid
erderjoarig
erdet
erdeyd
erdheid
erdn
erdre
erdryke
ere
ereburger
erecta
erectus
ered
eredivisie
ereeknd
ereen
erembald
erembalds
eren
erende
erf
erfd
erfde
erfdeel
erfelik
erfelikke
erfelikkn
erfenisse
erfgenoam
erfgenoame
erfgenoamn
erfgoed
erfipvolgienge
erflandn
erfrecht
erfregelienge
erfurt
erg
ergens
erger
eric
ericaceae
ericht
erienge
erik
erika
erin
erinaceus
erinde
eringem
erinnerienge
eripgebouwd
eris
erkegem
erkenboar
erkend
erkende
erkenn
erkennen
erkennienge
erkent
erliengn
erlienk
erlik
erlink
erlo
erman
erme
ermee
ermengarde
ermentiers
ermentrude
ermentrudis
erminea
ern
ernde
ernest
ernoemd
ernreie
ernst
erny
eroare
erocht
eros
erosie
erotisch
eroverd
errewete
erreweten
ers
ersn
ersnd
ersnde
erst
erste
ersteld
ersten
erstn
ert
erte
ertien
ertiende
ertiene
ertienste
ertig
ertje
ertn
ertog
ertogdom
ertoginne
ertoogn
ervan
ervn
ervo
ervoarienge
ervoariengn
ervoaringe
ervormienge
ervoud
erwin
erzele
es
esa
escaut
esche
eschootn
eschorst
eschreevn
escu
esdo
eseters
esgle
eshuus
eskoader
eslag
esmeetn
esn
esneuveld
esox
espagne
espan
espe
espeegle
espeeld
espegel
esperanto
espiegel
esplechin
espres
esquelmes
essars
essay
essayist
essays
esse
essen
essentie
essentieel
essex
est
esta
estafette
estal
estdag
estdoagn
este
estekt
estelik
estelikke
estelikkn
estelikn
estelyk
estelyke
estelykn
esten
ester
esterie
estern
esterre
esterrn
esters
estert
esterwerk
esterwerkn
esteso
esticht
estig
estje
estjes
estland
estlikke
estn
estnde
estnepos
estoal
estol
estookn
estopt
estre
estroate
estroatn
eststroate
estuarium
estuoarium
estzoale
esuus
et
etappe
etappes
etappn
etc
ete
eten
eternal
ethiek
ethiopie
ethiopische
ethische
etienne
etiket
etje
etjoept
etn
etna
etnisch
etnische
etoalig
etoalige
etrokkn
etrouwd
etser
etsn
ettelgem
etterbeek
etwa
etwadde
etwien
etwoa
etwoar
etwoaschn
etwoatre
etwod
etwodde
etwot
etwuk
etymologisch
etzelfde
eu
euder
eudicots
eufroat
euge
eugeen
eugene
eugenia
eugenius
eukaryootn
eule
eupen
eupn
eur
eurazie
eure
euren
euripides
eurn
eurne
eurnen
euro
euroaziesche
euroazje
eurobasket
euroleague
europa
europacup
europaea
europe
european
europees
europeesch
europeesche
europeeschn
europeese
europeoann
europese
europeskeen
eurosong
eurostar
euroviezjesongfestival
eurovisiesongfestival
eurozone
eurydice
eurzelvn
eus
euskaltel
eustace
eustatius
eut
euthanasie
euvel
euvelachtig
euvelland
euvels
euvls
euw
euwardn
euwe
euwen
euwig
euwigd
euwige
euwinn
euwn
euws
euwsche
euwse
ev
eva
evangelie
evangn
evans
evariste
eve
even
evenement
evenementn
evening
evenoare
eventueel
eventuele
evenvele
evenwicht
evenwydig
ever
everard
evere
everly
evernys
everybody
everything
eveugels
eveugls
evidence
evil
evleuglign
evn
evoarders
evochtn
evoen
evolln
evolueerd
evolueerde
evolueerdn
evolutie
evolutietheorie
evolution
evolutionary
evoluusje
evoundn
evrard
evy
ew
ewe
ewist
ewn
ewoater
ewonn
ews
ewsch
ewsche
ewschoe
ewund
ewwe
ex
exact
exacte
excelsior
exclave
exclusief
excommunicoasje
executeerd
execuusje
exemploar
exemploarn
exotische
expansje
expediesje
expeditie
experiment
experimenteern
explorer
explosieve
expo
export
exposeert
exposiesje
exposiesjes
expositie
expres
express
expressieve
expressionisme
expressionistische
extension
externe
extra
extract
extreem
extreme
exutoire
ey
eyck
eyckplatse
eyckpling
eye
eyers
eyes
eyland
eylandjes
eylandn
eylandstoat
eymeer
eynde
eyskens
ezeetn
ezeid
ezel
ezelpo
ezels
ezet
ezien
ezn
ezo
ezoa
ezoadlobbign
f
fa
faables
fabaceae
fabian
fabiola
fabre
fabriek
fabrieke
fabriekn
fabrikant
fabrikke
fac
face
facebook
faches
faciliteitn
factbook
facteur
facteurtje
facto
factor
facts
faculteit
faculteitn
faculteyt
faema
faero
fagaceae
fagales
fagus
fahrenheit
failliet
failliete
faine
fair
faire
fait
fak
fakke
fakto
falaise
falcipennis
falco
falconidae
falempin
fallen
falls
fame
fameus
fameuze
famielje
famieljes
familiaris
familie
familienoame
families
familje
familjes
famille
family
fan
fanatieke
fanclub
fanfare
fans
fansite
fantasie
fantastische
far
farao
farazijn
farjon
farm
farnese
farrar
fase
faso
fast
father
faumont
fauna
favoriet
favoriete
favorietn
fawkes
faydherbe
fazantachtign
fazante
fazantn
fc
fd
fde
fdf
fdj
fe
fear
februari
february
februoari
federatie
federation
federico
federoal
federoale
federoaln
federoasje
federoatie
feel
feest
feeste
feestn
feet
feit
feite
feitelik
feitelikke
feitelyke
feiten
feitlik
feitn
fel
felice
felidae
felipe
felis
felix
felle
fendt
fenomeen
feodoale
fer
ferchette
ferdinand
ferdinando
ferguson
ferguut
ferm
ferme
fernand
fernando
fernient
fernin
ferrain
ferrand
ferrara
ferrari
ferraris
ferrera
ferry
fersjette
ferus
fes
festival
festivals
festubert
feuerbach
fever
fevijn
feyenoord
feys
ff
fiammetta
fiba
fibonacci
fiche
fick
fiction
fidel
field
fields
fiesjow
fietematrulle
fiets
fietsroute
fifa
fiftig
figeure
figeurn
figuratieve
figure
figuren
figuur
figuurlik
figuurn
fik
file
filibert
filip
filippo
filips
filipsfort
filipynn
filipynsche
film
filmacteur
filmfestival
filmregisseur
films
filmscenario
filmtje
filmtjes
filologie
filoloog
filoso
filosofie
filosofische
filosoof
filosoofn
filozofie
filters
final
finale
finales
finalist
finalle
finalles
finals
financie
financieel
financies
finansjes
find
fine
finiste
finland
finn
finoale
fins
finsche
fintele
fiorentino
fire
firenze
firma
firmin
first
fiscus
fish
fisher
fit
fitzroya
five
fives
fjord
fjordn
fla
flamand
flamands
flamen
flamingant
flanders
flandre
flandrensis
flandres
flandria
flandriae
flandrien
flankn
flaske
flassche
flasse
flatcat
flaubert
flavius
fle
flensburg
flers
fles
fleur
fleurus
flevoland
flexibele
flikken
flikn
flines
flip
floor
flor
flora
florence
florentynn
florentynsche
flores
florida
florimond
florio
floris
florizoone
florquin
flossche
flosschn
flou
flow
flower
flowering
flowers
floyd
fluit
flute
fm
fo
foase
foaze
foazn
focus
foefelen
foetbal
foetballist
foetbol
foetboller
foetbolliest
foetbollist
foetbolln
foetbolploeg
foetboltrainer
folk
folkfestival
folkgroep
folklore
follow
following
fonds
fonetisch
fong
fons
fonseca
fontaine
fontainebleau
fontana
fonteine
fonteinn
fonteintjes
fontenoy
fonteyne
food
fool
football
fopspeen
for
forall
forbin
forcalquier
force
ford
fore
forest
forestier
forestiers
forestry
forests
forever
forficula
forges
forli
form
format
formateur
formats
forme
formeel
formoat
formosus
formule
formules
fort
fortifikoasjes
fortis
fortn
forum
forward
fosfor
fossiel
fossiele
fossieln
fossil
foto
fotograaf
fotografie
fotogravure
fotomodel
fotosfeer
fotosynthese
fotto
fottos
found
foundation
four
fourier
fourment
fournes
foute
foutn
fox
fr
fra
frac
fractie
fractieleider
fraeters
fragaria
fragment
fragmentn
fraise
frak
fraks
frames
franc
franca
france
francesca
francesco
franche
francie
francis
francisco
franciscus
franck
francky
franco
franconie
francorchamps
francorum
frang
frank
franken
frankfurt
frankie
frankisch
frankische
frankischn
franklin
frankn
frankrijk
frankryk
franky
franquin
frans
fransch
fransche
franschen
franschke
franschn
franse
fransjke
franske
fransman
fransmans
fransn
franstoalig
franstoalige
franstoaligen
franstoalign
franz
frascati
fraxinus
frazier
frazione
frazioni
fre
fred
freddie
freddy
frederick
frederico
frederiek
frederik
free
freebee
freebsd
freedman
freezn
fregat
fregattn
freinet
freire
freistaat
freizn
french
fresco
freshwater
fret
fretin
frettn
freud
frey
freya
freze
frick
frieda
friedl
friedrich
friends
fries
friesche
frieschn
friesland
frietn
friezn
frigg
frigo
frimout
fringilla
fringillidae
fris
frisco
frisia
friso
frits
frittn
friuli
fro
froai
froaiem
froent
froete
froidmont
from
fromelles
front
froome
frosinone
frottn
frount
frut
fruut
frysk
fryske
frysla
fs
ft
fu
fuad
fuck
fuel
fuga
fuif
fuiven
fulco
fulica
full
functie
functies
functioneel
functionele
fund
fundamente
fundum
funen
fungeert
fungi
funksje
furie
fusie
fusieclub
fusiegeme
fusies
fusioneerde
fusioneern
future
fuusje
fuusjegemeente
fuusjes
fuuzje
fuuzjegeme
fuuzjes
fw
fylke
fylker
fyn
fyne
fyntig
fysica
fysicus
fysieke
fysioloog
fysische
g
ga
gaa
gaaf
gaaft
gaan
gaat
gaavn
gabbe
gabrie
gabriel
gadeyne
gaeilge
gaelic
gaelisch
gaf
gaft
gaga
gaius
galaxy
galbert
galbertus
galerant
galerie
galery
galerye
galge
galicie
galicisch
galie
galilei
galileo
galle
galleria
gallery
gallerye
gallia
gallico
gallie
gallinula
gallisch
gallische
gallo
gallus
gama
game
games
gamma
gan
gandhi
gandolfo
gang
gangn
gank
ganshoren
gantois
ganymedes
ganzemeur
ganzn
gaoth
gap
garage
garantie
garci
garcia
gard
garda
gardameer
garde
garden
gardening
gardens
gardeyn
gare
garemijn
garenmarkt
garfield
gargamel
garland
garmin
garmisch
garnalen
garnizoen
garonne
garre
garros
garrulus
gary
gas
gascogne
gaspar
gaspard
gasreuzn
gass
gassn
gast
gaste
gasten
gasthuus
gastje
gastjes
gastland
gastn
gaston
gastropoda
gastuus
gasvormig
gat
gate
gatje
gatjes
gatz
gaulle
gauw
gauwe
gaven
gaze
gazet
gazette
gazettn
gb
gd
gdan
gde
ge
geallieerde
geallieerdn
geangn
gearchive
gebak
gebakkn
gebase
gebaseerd
gebe
gebed
gebeedn
gebeetn
gebergte
gebergtes
gebergtevormienge
gebergtn
gebeur
gebeurd
gebeurde
gebeurn
gebeurs
gebeurt
gebeurte
gebeurtenisse
gebeurtenissn
gebeurtnisse
gebeurtnissn
gebhard
gebie
gebied
gebiedn
gebleekn
gebleevn
gebleven
gebo
geboarn
geboendn
gebombardeerd
geboogn
geboorn
geboorte
geboorteplekke
geboortestad
geboren
geborte
geboundn
gebouw
gebouwd
gebouwde
gebouwen
gebouwn
gebow
gebowd
gebown
gebracht
gebrand
gebrek
gebreukt
gebrocht
gebroeders
gebrookn
gebrouwd
gebrouwn
gebruik
gebruikt
gebruk
gebrukelik
gebruken
gebruker
gebrukers
gebrukt
gebruuk
gebruuklik
gebruuklikke
gebruukn
gebruukt
gebruukte
gebruukten
gebruuktn
gebruyk
gebruykn
gebruykt
gebruykte
gebundeld
geburte
geciteerd
geclassificeerd
gecombineerd
geconcentreerd
gecree
gecultiveerde
ged
gedacht
gedachte
gedachten
gedachtn
gede
gedeelte
gedeeltelik
gedeeltelyk
gedefinieerd
gedempt
gedenkploate
gedetailleerd
gedetailleerde
gedeurd
gedeurende
gedeurnde
gedicht
gedichten
gedichtn
gediend
gedo
gedoan
gedoane
gedoanteverwisslienge
gedomesticeerd
gedomesticeerde
gedomineerd
gedopt
gedrag
gedreegn
gedreevn
gedro
gedroagn
gedroaid
gedroaide
gedroogd
gedroogde
gedrounkn
gedrukt
geduld
gedurende
geduwd
gedwoengn
gedwoungn
gee
geef
geeft
geel
geeln
geen
geeraerts
geernaartstratje
geert
geertrui
gees
geesink
geest
geestelikkn
geestig
geetn
geevn
gefusioneerd
gegeetn
gegeevn
gegeevns
gegeven
gegevens
gegoan
gegoane
gegootn
gegraveerd
gegroavn
gegroeid
gegroepeerd
gehad
gehe
gehecht
geheel
geheeten
geheim
geheime
geheimen
geheimzinnig
geheimzinnige
geho
gehoald
gehoord
gehouden
gehoudn
gehucht
gehuchtje
gehuchtjes
gehuchtn
gei
geike
geiren
geirn
geirne
geirnoare
geirnoars
geiser
geistemout
gejoagd
gek
gekanaliseerd
gekanaliseerde
gekapt
geke
gekeekn
gekend
gekende
gekendste
gekenmerkt
geklapt
geklasseerd
geklasseerde
gekleurd
gekleurde
geklid
geknield
gekocht
gekokt
gekomen
gekomm
gekommen
gekommn
gekomn
gekoomn
gekoozn
gekoppeld
gekreegn
gekregen
gekro
gekroond
gekuust
gekwe
gekwetst
gekwetste
gekwikt
gekwikte
gela
gelance
gelanceerd
geland
gelatiniseerde
geld
gelderland
gelders
geldersche
geldmuntstroate
geldschieters
geldt
gele
gelede
geleden
gelee
geleedn
geleedpo
geleefd
geleegn
geleegneid
geleen
geleerd
geleevrd
geleezn
gelegen
gelegenheid
geleid
geleidelik
geleidelyk
geleie
geleverd
geliefd
geliefde
gelijk
gelik
gella
gelo
geloadn
geloatn
geloof
geloofdn
geloovn
gelost
geloven
gelre
geluid
geluk
gelukkig
gelukt
geluud
gelwe
gelyk
gelyke
gelykig
gelykige
gelykn
gelyknoamig
gelyknoamige
gelyknoamign
gelykoardige
gelykt
gem
gema
gemaakt
gemak
gemakkelijk
gemakkelik
gemakkeliker
gemakkelikker
gemakkelyk
gemakkelyker
gemakklik
gemaklik
gemakt
gemakte
gemarteld
gember
gemberplante
gembloux
geme
gemee
gemeenschap
gemeenschappn
gemeente
gemeentelikke
gemeentelyke
gemeenten
gemeentn
gemeetn
gemeinte
gemenebest
gemengd
gemiddeld
gemiddelde
gemiddelden
gemiddlde
gemiee
gemiengd
gemiengeld
gemiengld
gemienglde
gemis
gemist
gemma
gemoakt
gemoaln
gemoatigd
gemoatigde
gemoderniseerd
gen
genaamd
gene
geneeskunde
geneeskundige
geneetiesche
geneezn
geneirn
generaal
general
generali
generatie
generation
generoal
generoasje
generoasjes
generoatie
generoaties
genet
genetic
genetisch
genetische
genie
genietn
geniver
genk
geno
genoamd
genoeg
genoemd
genoemde
genomd
genomineerd
genoom
genoomn
genootschap
genoteerd
genre
genres
gens
genst
gent
gentbrugge
gentele
gentenaars
gentenoars
genthof
gentile
gentpo
gents
gentsche
gentschn
gentse
gentweg
genua
genueezn
genummerd
genus
genzano
geo
geoffrey
geografie
geografisch
geografische
geographic
geography
geogroafisch
geogroafische
geological
geologie
geologisch
geologische
geoloog
geoloogn
georg
georganiseerd
george
georges
georgia
georgie
geosfeer
gepakt
gepasseerd
gepeisd
gepland
geplant
geplatst
gepleegd
geploagd
geplukt
geplunderd
gepoard
gepreezn
gepresenteerd
geprobeerd
geproduceerd
gepromoveerd
geprononceerd
gepubliceerd
ger
geraakn
geraardsbergen
geraerts
geraken
gerakt
gerakte
geraktn
gerangschikt
gerard
gerards
gerardus
gerberga
gerd
gerda
gere
gerealiseerd
gerecht
gerechtelik
gerechtn
gerechtshof
gereconstrueerd
gered
gereed
gereedn
gereeknd
gereen
gereformeerde
geregeerd
geregeld
geregisseerd
gerekend
gerelateerd
gerenoveerd
gereorganiseerd
gereserveerd
gerestaureerd
gerestoreerd
gerhard
gericht
gerlache
germaansche
germain
germaine
german
germania
germanicus
germinal
germo
germoan
germoann
germoans
germoansche
germoanse
germplasm
gern
gernoars
gero
geroakn
geroamte
geroardsbergn
gerocht
gerochte
gerochtn
gerold
gerre
gerrit
gerry
gers
gerst
gert
gertrude
geruchtn
gerust
gervaas
gerypt
ges
geschat
geschatte
gesche
geschee
gescheid
geschid
geschiedenis
geschiedenisse
geschiedkundige
geschiedkundign
geschiednisse
geschiedschryver
geschienisse
geschikt
geschikte
geschil
geschilderd
geschoenkn
geschootn
geschorst
geschounkn
geschrapt
geschre
geschreevn
geschreven
geschrift
geschriftn
geschuufld
gesegmenteerd
geselecteerd
gesjchreev
geskiedenisse
geskreevn
geslacht
geslachtn
geslachtsde
geslapen
gesleegn
gesloagd
gesloapen
gesloopt
geslootn
gesloten
gesmeetn
gesmoltn
gesneen
gesneuveld
gesneuvelde
gesneuveldn
gespe
gespecialiseerd
gespecialiseerde
gespeeld
gespeld
gespierde
gespild
gesplitst
gespoard
gesprek
gesproken
gesprook
gesprookn
gesproungn
gestalte
gestampt
gestapt
gestart
geste
gesteegn
gesteld
gestemd
gesteund
gesteurd
gesticht
gestoan
gestookn
gestooln
gestopt
gestorven
gestorvn
gestraft
gestre
gestudeerd
get
getal
getallen
getalln
gete
getekend
geteld
getinte
getiteld
geto
getoogd
getroffn
getrokkn
getrouwd
getrowd
getuuge
getuugn
getuugnheuvel
getuugnheuvels
getuugt
getye
geule
geuln
geure
geute
geuze
geuzn
gevaert
geval
gevallen
gevalln
gevaln
gevang
gevangen
gevangene
gevangenis
gevangenn
gevangn
gevangnschap
gevarieerde
gevecht
gevechtn
gevel
gevels
geven
gevestigd
gevicht
gevierd
gevloogn
gevlucht
gevo
gevoar
gevoarlik
gevoarn
gevochtn
gevoegd
gevoel
gevoeld
gevoelig
gevoelige
gevoelns
gevoen
gevoendn
gevoenn
gevoerd
gevol
gevolg
gevolgd
gevolge
gevolgen
gevolgn
gevolln
gevoln
gevondn
gevormd
gevound
gevoundn
gevraagd
gevroagd
gevuld
gevulde
gewapend
gewe
geweest
geweetn
geweezn
gewei
geweirkt
geweirn
geweld
gewelddoadige
geweldig
geweldige
gewelvn
gewend
gewente
gewerkt
gewerveld
gewervelde
gewerveldn
gewest
gewesten
gewestn
geweun
geweund
geweune
geweunlik
geweunlyk
geweunn
geweyd
gewicht
gewichte
gewild
gewist
gewoardeerd
gewoarig
gewonn
gewonnen
gewoonte
geworden
gewordn
geworn
gewoun
gewounn
gewricht
gewunte
gewyd
geyter
gezag
gezakt
gezangen
gezangn
gezant
gezeetn
gezegd
gezegde
gezei
gezeid
gezeit
gezelle
gezelschap
gezet
gezeten
gezicht
gezie
gezien
geziene
gezin
gezoagde
gezoaid
gezoajde
gezocht
gezoend
gezoendeid
gezoendheid
gezoengn
gezoenn
gezond
gezorgd
gezound
gezoundheid
gezoundn
gezoungn
ghana
ghe
ghent
ghesquiere
ghi
ghibelyn
ghiselhuus
ghoald
ghy
ghybe
ghyvelde
gi
giacomo
giambologna
gian
gianetti
gianni
giants
gibb
gibraltar
gibson
gider
gids
gie
gieng
gienge
giengen
giengn
giengt
giengtn
gienk
gienke
gienkn
gienkt
gierigoard
giern
gietynge
gif
gift
giftig
giftige
gigantisch
gij
gilbert
gilde
gildig
gildn
gilf
gili
gille
gilles
gilleveld
gillis
gilliskerke
gilve
gilvn
gilwe
gime
gin
ginappel
ging
gingen
gingn
gingt
gink
ginkgo
ginne
ginnen
gion
gional
giordano
giorgio
giorgione
giovanni
girl
girls
giro
girolamo
gironde
gisant
gisela
giselbert
gist
gistel
gistelhof
gisteren
gistern
gistienge
gistl
gitaar
gitare
gitarist
gitoar
gitoare
gits
giulia
giuliano
giulio
giuseppe
give
given
givenchy
glabra
glama
glanerie
glas
glasgow
glauca
gleddig
gleddige
glen
glenn
gletsjer
gletsjers
glijden
glik
glise
gloazn
global
globale
globalspecies
globe
globoal
gloria
glorie
glorieux
glorieuze
glottisslag
gloucester
gloucestershire
glu
glucose
glutinosa
gluutn
glycine
glycyrrhiza
glyk
glykn
glyknoamige
glykoardige
gmelinii
gmina
gn
gnaeus
gnd
gnde
gne
gns
gnst
gnu
go
goa
goai
goain
goal
goald
goalle
goals
goan
goande
goandeweg
goane
goapers
goat
goatn
goavers
goavn
goaze
goazn
gobi
gobiidae
gobiiformes
god
goddaer
goddelikke
goddelo
gode
godefroid
godelieve
goderis
godfried
godgele
godinne
gods
godsdienst
godsdienste
godsdienstige
godsdienstn
godsdienstoorloogn
godsuus
godsuuzn
godsvelde
goe
goeberg
goed
goede
goedele
goedern
goedn
goednand
goegekeurd
goeie
goein
goeje
goejn
goeko
goekoop
goekope
goen
goengn
goenk
goeree
goes
goeste
goestienge
goethe
goeverneur
goewd
gof
gogh
goidelisch
goidelische
goin
going
goire
goj
gold
golden
golf
golfbreker
golfstro
golias
goliath
golle
golln
gols
golve
golvn
gomme
gon
gondecourt
gondwana
gonza
gonzaga
good
goodbye
goodlife
goodn
goody
google
gooimeer
goose
goossens
gootn
gorbatsjov
gordel
gordon
gore
gorge
gorges
gorik
gorilla
gorinchem
gorki
got
gotha
gotiek
gotisch
gotische
gotischn
gott
gotye
gou
goud
gouda
gouden
goudeseune
goudn
goudsmed
gould
goungn
gounk
gouste
gouvernement
gouverneur
gouwe
gouwn
government
gow
gozelo
gp
graaf
graafschap
graag
graavn
gracht
grachten
grachtn
graeve
graf
grafisch
grafische
grafmonument
grafmonumentn
grafschrifte
grafste
graftombe
graham
grakt
gram
gramme
gran
granada
grand
grande
grandis
graniet
grant
granvelle
grap
grard
gras
grasland
graslandn
grasn
graspop
grasse
grassn
gratis
graubu
grave
graven
gravensteen
graveolens
graves
graveur
graveyard
gravinne
gray
graz
grazie
gre
great
greater
greatest
greco
greed
green
greenwich
greep
greg
gregoire
gregor
gregorio
gregorioansche
gregorioanse
gregorius
gregory
greipel
greitn
grembergen
grenier
grenoble
grens
grenst
grenze
grenzen
grenzn
greppe
greveliengn
grevelingn
grieg
griek
grieken
griekn
grieknland
grieks
grieksche
griekschn
griekse
griep
griepskerke
griet
griffie
grimaldi
grimbergen
grimm
grimminck
grimoald
grin
grizzly
gro
groad
groadn
groaf
groafelik
groafelikke
groafschap
groafschapp
groafschappn
groafwerkn
groaken
groakn
groan
groat
groate
groatis
groatn
groatste
groave
groavinne
groavn
grodder
groddere
groe
groede
groei
groeide
groeidn
groeien
groeiende
groein
groeit
groej
groejsezoen
groen
groenbluuvnde
groend
groendel
groendelachtign
groendels
groendgebie
groendgebied
groendig
groendlegger
groendn
groendwet
groene
groenendoal
groenereie
groenewoud
groeninge
groeningemuseum
groenland
groenn
groensel
groensels
groep
groepeerienge
groepeeriengn
groeperienge
groeperiengn
groepke
groepkes
groepn
groeptje
groeptjes
groetn
groeve
groevn
grof
grofweg
grol
grond
groniengn
groningen
groo
grooe
groonsels
groot
groote
grootn
grootndeels
grootste
gros
grot
grote
groter
grotmoeder
grotr
grotre
grotsn
grotst
grotste
grotstn
grottaferrata
grotte
grotter
grottere
grottn
grotvoader
ground
groundgebied
groundig
groundige
groundlegger
groundleggers
groundn
groundplan
groundstoffe
groundstoffn
groundwet
groundwoater
groundzeiler
group
groupn
grove
growt
growte
grus
gruson
grust
gruuj
gruujn
gruujnde
gruujsezoen
gruujt
gruut
gruuthuse
gruuthusemuseum
gruuthusepaleis
gruwez
gruyaert
grypn
grys
grysachtig
grysde
grysdn
grysloke
gt
gu
guanaco
guangxi
guarani
guard
guardian
guatemala
guayaquil
gue
guernsey
guerra
guerre
gui
guide
guideschi
guido
guignies
guilera
guilini
guillaume
guillotine
guinea
guinee
guld
gulden
guldn
guldnspoornslag
gulik
gullegem
gulo
gunste
gunstig
gunstige
gunter
gustaaf
gustav
gustave
gutenberg
guy
guyana
guyenne
gwelfn
gwij
gwinea
gwyde
gy
gyan
gyder
gydre
gymnosperm
gyvelde
h
ha
haa
haad
haag
haan
haar
haarlem
haat
haavn
habilis
habsburg
habsburger
habsburgers
habsburgs
habsburgsche
had
hadde
hadden
haddn
haddock
hadewych
haeghen
haer
haes
haese
hafabra
hagen
hai
haifa
hainan
hainaut
hakkeloare
haksjes
halen
half
halfbroere
halfoapn
halfroend
halfround
halfzuster
haliaeetus
hall
hallam
halle
hallekerke
hallen
hallennes
halln
hallo
halloween
hallstatt
hals
halve
halverwege
ham
hamburg
hamilton
hamme
hammer
hammett
hampshire
han
hand
handel
handelingen
handelsblad
handen
handicap
handn
handschrift
handvat
handvest
handzoame
hang
hangn
hangt
hankey
hanky
hanna
hanne
hannelore
hannibal
hannover
hanoi
hans
hansen
hansestadt
hansworst
hantay
hanze
hanzestad
hanzesteedn
hapkin
happel
hara
harald
harbor
hard
hardcore
hardcorescene
harde
hardware
hardy
harelbeke
harendyke
haries
haringe
harinxmakanoal
harlingen
harmonie
harmonium
haro
harold
harpe
harper
harris
harrison
harry
hars
hart
harte
harvard
has
hasj
hasnon
haspengouw
haspngouw
hassan
hasselt
hastings
hate
hathor
haubourdin
hauspie
haut
haute
hautekiet
hautes
hauts
hauwaert
have
haven
havens
havre
hawai
hawaii
haydn
hazard
hazebroek
he
head
hear
heart
hearts
heat
heaven
heavy
heb
hebben
hebdo
hebe
hebre
hebreeuws
hebriedn
hebt
hecke
hectare
hectoare
hectoarn
hector
hed
heden
hedwig
hee
heeft
heel
heelal
heeln
heem
heemkundige
heen
heer
heere
heerlen
heerlikeid
heerlikheid
heerlykeid
heerlykheid
heern
heerschappye
heerser
heet
heetvelde
heide
heideland
heidelberg
heidense
heideroosjes
heil
heilegans
heilig
heilige
heiligen
heilign
heim
hein
heinrich
heirboane
heirsens
heirweg
heist
heit
hekse
heksn
hel
held
helden
helder
heldere
heldn
hele
helegans
helegansn
helemaal
helen
helena
helene
helewaut
helft
helices
helium
helix
helkijn
helking
hell
helle
hellem
hellespont
hellienge
helliengn
hello
helloween
helmut
help
helpn
helpston
helpt
helsinki
helt
helvetie
hem
hemel
hemelipneemiengekerke
hemellichoam
hemellichoamn
hemionus
hemzelve
hen
hendrik
hendryckx
hene
henegouwn
henin
henk
henn
henri
henricus
henriette
henrik
henriquez
henry
henslow
her
hera
herald
herberge
herbergn
herbert
herbouwd
hercule
hercules
here
heren
herendael
herentals
herfst
herge
herinde
herindelynge
herinnerienge
herinnern
herinnert
heripgebouwd
heriplevienge
heritage
herkauwers
herkenn
herkoozn
herlies
herman
hermann
hermans
hermes
hermitage
hernoemd
herodes
heroes
heron
herr
herrin
herschreevn
herstal
herstel
hersteld
herstelln
hert
hertachtign
hertain
herte
hertn
hertog
hertogdom
hertogdommn
hertogelik
hertogen
hertogenbosch
hertogenrade
hertoginne
hertoogn
hertrouwd
hertrouwde
hertsberge
herve
hervelle
hervormde
hervormienge
hervormiengn
herze
herzegovina
hesjedal
hessen
het
heterdaad
hetfield
hetgeen
hetzelfde
heule
heur
heuren
heurn
heusdn
heuvel
heuvelachtig
heuvelkam
heuvelland
heuvels
heverlee
hewest
hey
heylen
heyman
hi
hie
hiel
hield
hieldn
hielp
hielpn
hier
hiermee
hieronymus
hierounder
hiervan
high
higher
highland
hij
hil
hilde
hildegard
hildegarde
hildesheim
hill
hille
hillegans
hillegansn
hillig
hillige
hillign
hills
hilversum
him
himalaja
himalaya
hinges
hiphop
hiphopgroep
hippolytus
hiroshima
his
histoire
historia
historica
historical
historici
historicus
historie
historieker
historique
historisch
historische
history
hit
hitachi
hitler
hits
hitte
hle
hlotharii
ho
hoagedissn
hoageland
hoagemussche
hoagemusschn
hoain
hoald
hoalde
hoaldn
hoaln
hoalt
hoane
hoar
hoarelbeke
hoarienge
hoat
hoave
hoavestad
hoavik
hoavn
hoavndyk
hoavnstad
hoaze
hoazebroeke
hoazelworm
hoazelwormes
hoazn
hobbes
hobby
hoboken
hoe
hoed
hoedn
hoefbe
hoefbeestn
hoei
hoeiloart
hoek
hoeke
hoekn
hoekse
hoend
hoendachtign
hoenderd
hoenderdjoarign
hoenderveugels
hoendn
hoes
hoessein
hoet
hoeve
hoeveel
hoeveelheedn
hoeveelheid
hoevele
hoevn
hoewel
hoeze
hof
hoffmann
hofmeier
hofmeiers
hofmeyer
hofschilder
hofstee
hoge
hoger
hogere
hogger
hogste
hogte
hogtepunt
hohenstaufn
hohenzollern
hoi
hokkaido
hol
holarctis
holbein
hold
holf
holfround
holhoornign
holiday
hollain
holland
hollander
hollanders
hollands
hollandsche
hollandschn
hollandse
hollansche
holle
hollebeke
holly
hollywood
holoceen
holstein
holve
homans
home
homer
homeros
hominidae
homme
hommel
hommelbier
hommels
homo
hond
honda
hondt
honduras
honey
honfleur
hong
hongaars
hongareye
hongkong
hongoarn
hongoars
hongoarsche
honing
honolulu
honoris
honsebrouck
hoo
hoofd
hoofdbeuke
hoofdcoach
hoofdeiland
hoofdkerke
hoofdplekke
hoofdredacteur
hoofdrolle
hoofdstad
hoofdstedelik
hoofdstedelyk
hoofdsteedn
hoofdtak
hoofdtrainer
hoofdvoart
hoofdzoakelik
hooft
hoofzakelik
hoofzoakelik
hoog
hoogduuts
hooge
hoogenband
hoogkoor
hooglandn
hoogle
hooglee
hoogovens
hoogrenaissance
hoogste
hoogstn
hoogte
hoogtepunt
hoogverroad
hoogvlakte
hooiwoagn
hooiwoagns
hook
hooln
hoolve
hoons
hoop
hoopn
hoor
hoorde
hoorn
hoorne
hoorns
hoort
hooverphonic
hoovn
hop
hope
hopegevoegd
hoppus
horace
horeca
horen
horizon
horizontoale
horloge
hornu
horrie
horror
horst
horta
hospice
hospitoal
host
hoste
hot
hotel
hotels
hotspur
hou
houa
houck
houden
houdn
houdt
houleron
hound
hounderd
hounderdjoarign
hounderdn
houndn
houplin
house
houston
hout
houtave
houtduuvn
houtem
houten
houthulst
houtkantn
houtland
houtn
houtnde
houtsnede
hove
hovetje
hovetjes
how
howard
howardries
hrr
htc
htm
html
http
https
hu
huang
hubble
hubbleconstante
hubert
hubertus
hudevetterspling
hudige
hudson
huens
huerta
hugenootn
hugo
hugues
hui
huib
huidige
huis
huisje
huizen
huizinga
hulde
huldigd
hulpe
hulptrainer
hulst
hulste
human
humaniora
humanist
humaniste
humanistn
humanoid
humanus
humbert
humo
humor
humoristisch
humoristische
humphrey
hun
hunder
hunt
hur
hurt
hushovd
hutchinson
huudige
huus
huuzn
huvluv
huwe
huwelik
huwelyk
huxley
huygebaert
huygens
huyghebaert
huys
huysentruyt
huyszwoaluwe
hy
hyalinobatrachium
hyde
hydrofobe
hydrosfeer
hygie
hyla
hymenoptera
hypothese
i
ian
iberisch
ibiza
ibn
ibsen
ibz
ic
ice
iced
iceland
ich
ichtegem
icomos
iczn
id
ida
idder
iddere
iddern
iddre
ideale
idee
ideee
identieke
identiteit
ideoal
ideoale
idesbald
idioticon
idool
ie
ieder
iedere
iedereen
iederen
iedern
iedr
iedre
iee
ieffelto
ield
ieldn
iele
ielp
iemand
iengel
iengeland
iengelmunster
iengelmunstr
iengels
iengelsch
iengelsche
iengelschen
iengelschn
iengelse
iengelsman
iengelsn
iengelstoalige
iengland
iengls
ienglsche
ienkel
ienkele
ienkelvoud
ienkle
iep
ieper
ieperfest
ier
ierachter
ierby
ierdeure
iere
ierin
ierip
ierland
iermee
iern
ieroendre
ierounder
iers
iersche
ierschn
ierse
iervan
iervo
iesto
iet
ietaljoansche
ietoalje
iets
ietske
ietwat
ievers
if
iga
iglesia
ignace
ignatiev
ii
iii
ijzer
ik
ikke
il
ilft
ilias
ilig
ilign
ill
ille
illegansn
illetriek
illies
illig
illigdom
illige
illigen
illign
illinois
illustrata
illustrateur
illustrator
illustre
illustroasjes
ilse
im
image
images
imaginair
imaginaire
imago
imam
imdb
immanuel
immigrantn
immuunsyste
imperii
imperium
implications
importent
impressionisme
impuls
in
ina
inbegreepn
inbegrip
inbev
inc
inca
incertae
incident
include
included
inclusief
inde
indelienge
indeliks
inder
inderdoad
indere
index
india
indian
indiana
indicum
indie
indiesche
indigo
indioann
indioansche
indisch
indische
indischn
individu
individual
individueel
individuele
indje
indo
indochina
indonesie
indonesisch
indonesische
indre
indruk
indrukwekkend
indrukwekkende
indurain
industrie
industrieel
industries
industriestad
industrieterrein
industriezone
ine
inevoerd
infant
infanterie
infe
inferior
inferno
influenceerd
influenza
info
infodok
informatica
informatie
information
informoasje
informoatie
infraklasse
infraorde
infraro
ing
ingang
ingank
inge
ingebeelde
ingeborg
ingede
ingedeeld
ingediend
ingegroavn
ingehuldigd
ingeland
ingeleid
ingelmunster
ingels
ingelsche
ingelschn
ingelse
ingelyfd
ingenieur
ingenieurs
ingenoomn
ingepakt
ingepolderd
ingericht
ingeschreevn
ingeslootn
ingesneen
ingesteld
ingetrokkn
ingevoerd
ingevoerde
ingeweyd
ingewikkeld
ingewikklde
ingewyd
ingezet
inghelbrecht
inghelram
ingo
ingooigem
ingredie
ingrid
ingveoons
ingveoonsche
inham
inhe
inheemsche
inhoald
inhoud
inhuldigienge
inienge
initiatief
inkom
inkommn
inkomsten
inkomstn
inl
inleiding
inlet
inn
inne
innergetic
innlandet
innoame
innocentius
innsbruck
inoed
inox
inpakkn
inpolderienge
inquisiesje
inrichtienge
inscriptie
insect
insectn
insectneters
insects
insekte
insektn
insel
inside
inslag
inslagkroaters
inspannienge
inspanniengn
inspieroasje
inspireerd
inspireerde
inspireern
inspiroasje
instagram
installeerd
installeern
installoasje
instantie
instellienge
instelliengn
insters
institute
instituto
instituut
instrument
instrumenten
instrumentn
instrumentoale
int
inte
integreerd
intellectueeln
intensief
interbellum
interessant
interessante
interesse
interesseerd
interieur
interieurs
interim
interior
intermedia
internasjonoal
internasjonoale
internationaal
international
internationale
internationoal
internationoale
interne
internet
internoat
interplanetaire
interpretoasje
interregnum
intersexual
interview
interviews
intespuger
intespugers
intevissn
intje
into
intrede
introduceerde
introduction
intusschenwyne
intusschn
intussen
intybus
inval
invalln
invariant
invasive
inventaris
invloe
invloed
invloedn
invloedryke
invloewd
invoasie
invoazje
invoazjes
invoerienge
invoern
invol
involln
inw
inwendig
inwendige
inweuner
inweuners
inweunertal
inweunrs
inwoners
inzet
inzicht
inzit
inzittn
io
ioc
ion
ionie
ionische
ionosfeer
ioonn
iowa
ip
ipa
ipbow
ipdracht
ipdrachtgever
ipdrachtn
ipe
ipeetn
ipeisn
ipg
ipgebloazn
ipgebouwd
ipgebrocht
ipgebrookn
ipgede
ipgedeeld
ipgedreegn
ipgedroagn
ipgeetn
ipgeevn
ipgegroavn
ipgegroeid
ipgeheevn
ipgekocht
ipgekoomn
ipgekwikt
ipgeleid
ipgeloopn
ipgelost
ipgemerkt
ipgenoomn
ipgepakt
ipgericht
ipgeschreevn
ipgeslootn
ipgesplitst
ipgesteld
ipgetreedn
ipgetrokkn
ipgevo
ipgevoerd
ipgevolgd
ipgevuld
ipgewekt
ipgezet
ipgienk
ipgroaviengn
ipgroeide
ipkommn
ipkomste
ipkwam
ipleidienge
ipleidinge
ipleidynge
iplossienge
iplossn
iplossynge
ipmerkelik
ipmerkn
ipname
ipnief
ipnieuw
ipnoame
ipper
ippergezag
ippergod
ippervlak
ippervlakte
ippervlaktn
ippolito
iprichter
iprichters
iprichtienge
iprichtn
iproep
ipslag
ipsluutn
ipstand
ipstandeliengn
ipstandig
ipstandige
ipstandn
iptredens
iptreed
iptreedn
iptreedns
ipv
ipvangn
ipvattienge
ipvattiengn
ipvoedienge
ipvoerienge
ipvolgde
ipvolger
ipvolgers
ipvolgienge
ipvolgiengsrecht
ipvolgn
ipvolgster
ipvollnd
ipvollnde
ipzet
ipzichte
ir
ira
irak
iran
ire
ireann
ireland
irene
iris
irish
irma
irmingard
iroansche
iron
ironisch
ironman
irrationoale
is
isaac
isabel
isabella
isabelle
isar
isbergues
isbn
ise
isens
isgeschiedenis
isidoor
isis
isla
islam
islamitische
island
islands
isle
isn
iso
isoglosse
isoglossn
isola
isoleerd
isoleucine
isomo
isotherm
isotoopn
israe
ist
istanboel
istanbul
iste
ister
istn
istorie
istorisch
istorische
istr
istrie
it
ita
italia
italian
italiana
italie
italioander
italioann
italioans
italioansche
italioanschn
italioanse
italioanstoalig
italjoans
italjoansche
item
iter
iters
itoalie
itoalisch
itoalje
its
iucn
iv
ivan
ivo
ivoj
ivoor
ivrea
iweuners
ix
izegem
izzegem
j
ja
jaagn
jaak
jaap
jaar
jaarboek
jabbeke
jacht
jack
jackson
jacky
jacob
jacoba
jacobins
jacobs
jacobsen
jacobskapelle
jacobskerke
jacobus
jacopo
jacqueline
jacques
jaer
jaeren
jagiello
jagiellon
jagiełło
jakarta
jakob
jakoeb
jalousie
jam
jamaica
james
jammer
jan
jane
janeiro
janez
janka
janne
jans
jansbrugge
jansdyk
jansen
janskerke
janspling
janssen
janssens
jantje
januari
januoari
japan
japaneesche
japanese
japansche
japonica
jard
jardin
jaren
jason
jasper
java
jay
jazz
jazzmuzikant
je
jean
jeanne
jef
jeff
jeffrey
jelle
jemappes
jemen
jen
jenny
jens
jensen
jeremy
jericho
jeroen
jerome
jerry
jersey
jerusalem
jeruzalem
jesse
jessie
jesus
jet
jetairfly
jets
jette
jeu
jeugd
jeugdbewegienge
jeugdboekn
jeugdjury
jeugdschryver
jeugduus
jeune
jeunn
jeux
jevgeni
jezo
jezoensis
jezui
jezus
jheronimus
jie
jij
jim
jimmy
jin
jis
jiste
jo
joa
joachim
joag
joagen
joagers
joagn
joagt
joak
joan
joanna
joannes
joaquin
joar
joare
joaren
joarenlank
joargetyde
joarig
joarige
joarign
joarliks
joarliksche
joarlikschn
joarlikse
joarlyks
joarlykse
joarmarktn
joarn
joartal
joartellienge
joat
job
jodocus
joe
joegoslavie
joegosloavie
joekon
joen
joene
joeng
joenge
joengens
joengere
joengern
joengers
joenges
joengn
joengs
joengsjes
joengste
joenk
joens
joerie
jogaila
johan
johann
johanna
johannes
johannesburg
john
johnny
johnson
johny
joint
joke
jollain
jommeke
jon
jonas
jonathan
jonckheere
jones
jong
jonge
jongen
jongens
jongeren
jonghe
jongste
jood
joodn
joods
joodsche
joop
joos
joost
jordaens
jordan
jordanie
jorge
joris
jorn
jos
jose
josef
josep
joseph
josephine
josh
josip
josue
jou
joun
joung
jounge
joungen
joungens
jounger
joungere
joungern
joungernklassement
joungers
jounges
joungn
joungns
joungsjes
joungste
joungstn
jounk
journal
journalist
journaliste
journalistiek
journoal
joyce
jozef
jozefskerke
jpg
jr
jstor
ju
juan
jubelpark
judas
jude
judea
judith
judo
judoka
juffrouw
juillet
juiste
jukte
jules
juli
julia
julian
juliana
julie
julien
juliens
julioansche
julius
jullie
july
jump
jun
junder
june
jungle
juni
junior
juniors
juniperus
junne
juno
jupiler
jupiter
jura
juragebergte
jurgen
juridische
jurist
jury
just
juste
justice
justiciarius
justiesje
justin
justine
justitie
justus
jutland
juust
juuste
juustn
juutn
juventus
k
ka
kaa
kaamre
kaamt
kaart
kabbeljowse
kabinet
kabinetschef
kabouters
kachtelgat
kachtem
kader
kadril
kaffee
kaffie
kafka
kai
kaj
kajotters
kakkerlakkn
kakkernestje
kalender
kales
kaliesje
kalifornie
kaliningrad
kalissie
kalissieout
kalium
kaliumhydroxide
kalk
kalkoen
kalkoenn
kalkrotsn
kalkste
kalle
kalme
kalut
kam
kamagurka
kamchatka
kameleong
kameleongs
kamer
kameroen
kamers
kamiel
kammn
kamp
kampf
kampingem
kampioen
kampioene
kampioenen
kampioenschap
kampioenschappn
kampioenskap
kampn
kamsalamander
kamtsjatka
kan
kanaal
kanaaltwee
kanaar
kanada
kanadeesch
kanadeesche
kanal
kand
kandidoat
kandidoatn
kane
kangoeroes
kanker
kankerblomme
kanne
kano
kanoal
kanoaleilandn
kanoaln
kanol
kanong
kanongs
kans
kanse
kanselier
kansn
kant
kanten
kantje
kantl
kantn
kanto
kantong
kantongs
kanunnik
kanunniken
kanunnikn
kapel
kapelle
kapellebroek
kapellekes
kapelletje
kapelln
kapelme
kapiteing
kapiting
kapitoal
kapittel
kapittels
kapot
kappe
kappn
karajiebiesche
karajiebn
karakter
karakteristiek
karakteristieke
karakters
karaktre
kardemong
kardinoal
kardinoaln
karel
karels
karieboe
karinthie
karl
karloman
karolienger
karoliengers
karoliengische
karolingisch
karolingische
karolingischn
karootn
karote
karpers
karpoatn
karre
karrn
kart
karte
kartel
kartje
kartn
karyatides
kasbah
kaspische
kasse
kassel
kasselberg
kasselry
kasselrye
kasselryen
kasseystroke
kasseystrooke
kassie
kassn
kaste
kastee
kasteel
kaster
kastilie
kat
katachtign
katapult
kate
kateedroale
katelynepo
katelynestroate
kathedrale
kathedroale
kathedroaln
katheedroale
kathleen
katholicisme
katholiek
katholieke
katholiekn
katholyke
katje
katjebei
katjes
katlieke
katlynepo
katoen
katsberg
katte
kattegat
kattenstoet
kattestoet
kattn
kaukasische
kaukasus
kaulitz
kaume
kauwe
kauwgom
kauwn
kav
kave
kaye
kazachstan
kazakhstan
kazakkn
kazakstan
kazerne
kbab
kbbc
kbc
kbvb
ke
kebe
kee
keegle
keegles
keegls
keekn
keel
keep
keeper
keepers
keer
keerde
keern
keers
keert
keetn
keetns
keevre
keevrs
kegel
kei
keihard
keir
keirel
keirels
keirn
keirs
keirsn
keisse
keith
keizer
keizerinne
keizerlik
keizerlikke
keizerryk
keizers
keizerschap
keizerskro
keizerstitel
keizre
keken
kelder
keldermans
kelders
kele
kelly
keltiberisch
keltisch
keltische
keltn
kelvin
kemal
kemel
kemelachtign
kemels
kemmel
kemmelbeke
kemmelberg
kempn
ken
kenai
kend
kende
kendn
kenen
kenia
kenienge
keniengn
kenisse
kenissen
kenissn
kenmerk
kenmerken
kenmerkn
kenmerknd
kenn
kennedy
kennemerland
kennen
kenners
kenneth
kennisse
kennissn
kenny
kenoare
kens
kent
kentucky
kenyns
keppe
ker
keramiek
kerels
keren
kerk
kerke
kerkebeke
kerkelikke
kerkelyk
kerkelyke
kerken
kerketorre
kerkgebouw
kerkgebouwn
kerkhof
kerkhoovn
kerkhove
kerkn
kerkof
kerkoovn
kerkrade
kerksje
kerkstroate
kerkuul
kerkuuls
kerkvoader
kermis
kern
kerncentrale
kernfusie
kerngebied
kernn
kerremelk
kerremesse
kerry
kers
kersschaever
kerstmis
keryen
kesfehe
kestdag
kestoavend
ketel
ketters
kettery
keuken
keukn
keulen
keuln
keun
keuneginne
keunekapelle
keunevlees
keunieng
keuniengn
keuniengschap
keuniengshuus
keunienk
keunienklik
keunienklike
keunienklikke
keunienklyk
keunienklyke
keunienkryk
keunienkrykn
keunienkschap
keuniginn
keuniginne
keuniginnedag
keuning
keuningn
keunink
keuninklik
keuninklike
keuninklikke
keuninkryk
keunn
keuns
keunt
keunynk
keunynklyk
keunynkryk
keure
keurt
keurvorst
keurvorstn
keurvorstndom
keuze
kevers
kevin
kew
keyboard
keyboards
keys
keyser
keyzer
kf
kfc
kg
khabarovsk
khan
khentie
khuree
ki
kids
kie
kiek
kiekeboe
kiekens
kiekn
kiekndievn
kiekns
kiekt
kiel
kielomeetrs
kiend
kiender
kienderboekn
kienderjoarn
kienders
kiendje
kiendjes
kiendrs
kienge
kieskrieng
kieskring
kiest
kieuwn
kiev
kiezen
kiezenet
kiezienge
kiezig
kiezn
kijk
kijken
kijkt
kik
kikt
kill
killem
killer
killing
kilo
kilogram
kilome
kilomeiter
kilomeiters
kilometer
kilometers
kim
kind
kinder
kinderen
kinders
kindje
kindjes
kinepolis
king
kingdom
kings
kinne
kinshasa
kint
kip
kipling
kir
kiraz
kirgizie
kirk
kirs
kis
kiss
kiwi
kje
kkn
klaas
klacht
klachtn
klagenfurt
klak
klakke
klakkebusse
klakkers
klank
klanke
klankn
klankverschuvienge
klankverschuviengn
klap
klapp
klappen
klappn
klappnde
klapro
klaproos
klapt
klapte
klaptn
klara
klarinette
klasse
klassement
klasserienge
klassiek
klassieke
klassieker
klassiekers
klassiekn
klassifikoasje
klassn
klauwe
klauwen
klauwers
klauwn
klauwoarts
klavecimbel
kle
klee
kleef
kleen
kleene
kleenste
kleenzeune
kleers
klein
kleinder
kleindere
kleine
klem
klemmer
klemmers
klemmn
klemplantn
klemskerke
klene
kleppn
klerk
klerkn
klets
kletse
kletsekop
kletsn
kleur
kleuren
kleurgebruuk
kleurn
kleurryke
kleurstoffe
kleuter
kleuters
kleve
klie
kliemoat
klienge
klienieke
klienker
klienkers
klienkt
kliere
kliern
klik
klimoat
klimoatn
klinder
klindere
klindre
klinieke
klinkt
klinste
klintje
klintjes
klj
klo
kloade
kloar
kloare
kloarte
kloavers
kloefe
kloeke
klok
klokhuus
klokke
klokketorre
klokkn
klooster
kloosterkerke
kloovn
kloppn
klopt
klopte
klucht
kluchtig
kluchtige
kluchtigoard
kluchtigoards
kluchtn
kluts
kluttergeld
kluttern
kluusberg
kluusbergn
kluutn
kluuzenoareye
klyte
km
kms
knabbeln
knack
knap
knappe
knecht
knechtebrakke
knechtn
knesseloare
knie
knien
knoagbe
knoagbeestn
knoagdier
knoagdiern
knobl
knock
knoezel
knokke
knokteberg
knoop
knoopn
knooppunt
knop
knopgalle
knopgalletjes
knoppn
knoptjes
knotwilge
know
knud
ko
koabels
koader
koadre
koaie
koake
koakn
koala
koale
koamer
koamermuziek
koamers
koameryk
koamre
koanegem
koap
koape
koaper
koapers
koapn
koapr
koapstad
koarel
koarl
koarle
koarte
koartn
koartspel
koas
koaskerke
koasmoakery
koaster
koater
koave
kobbe
kobbeachtign
kobbenette
kobbenettn
kobbn
kobe
koblenz
kocht
kochte
kochtn
kockere
kodiak
koe
koebe
koed
koede
koeiboeren
koeie
koeien
koeigem
koein
koekelare
koekelberg
koekeloare
koeketiene
koekn
koekoeksnest
koeksjes
koele
koen
koenraad
koepala
koepel
koepeure
koer
koerdische
koereur
koerieln
koers
koerse
koerseklassieker
koersen
koersn
koersvelo
koest
koeste
koestn
koetelwyk
koetelwykpo
koeweit
koffie
kogel
kok
koken
koker
kokkeduunn
kokkels
kokme
koksijde
koksyde
kola
kolas
koleire
kolf
kolk
kolkste
kolle
kollwitz
kolme
kolomme
kolonel
kolonie
kolonies
koloniezoasje
kolonioale
koloniseern
kolonisoasje
kolonistn
koloonje
koloonjes
koluumbja
kom
komaf
komar
komedie
komeetn
komen
komete
komiek
komitee
komkommer
komm
komma
komme
kommeern
kommen
kommentoar
kommersje
kommn
kommt
komn
kompasje
kompleete
komplot
komst
komste
komt
komyn
kon
kong
kongo
koniefeere
koniefeerebusschn
koniefeern
konifeere
konifeern
konijn
koning
koningin
koninklijk
koninklijke
koninkrijk
konkelberge
konrad
konradyners
konstantinoople
konte
kontienentn
kontrolle
konvo
konvooi
kook
kookloare
kookn
koolhydroatn
koolme
kooln
koolstof
koolstofdioxide
koolstoffe
koolstofmonoxide
koolstofmonoxidevergiftigienge
koolwoaterstoffn
koomn
koomt
koophandel
koopman
koopn
koopnoagn
koor
koorommegank
koos
kootn
koozn
kop
kopborststik
kope
kopen
kopenhagen
koper
koperbloazers
kopgroep
kopie
kopies
kopman
kopn
koppel
koppeliengn
koppels
koppen
koppenaksvoorde
koppn
koppo
kopt
koptje
koran
kordieleera
korea
koreana
koreoansche
koriander
kork
koroal
koroaln
kors
korses
korst
korste
korstmossn
kort
korte
kortemark
korter
kortere
kortfilm
kortfilme
kortn
kortndrank
kortrijk
kortrijks
kortrijkse
kortrik
kortryk
kortryke
kortryks
kortrykse
kortschildkever
kortste
kortweg
kosmische
kosovo
kossien
kost
koste
kosten
koster
kostn
kostte
kot
koteletten
koter
kotmadam
koud
koudbloedige
koude
koudekerke
kouder
koudn
koukerke
kout
kouter
kouters
koutn
koutys
kowlier
kozn
kozyn
kpa
kra
krabbe
krabben
krabbn
kracht
krachtig
krachtige
krachtn
krachtns
kraj
krak
krakau
krako
kransn
krant
krapuul
krasnodar
krc
kre
kree
kreeg
kreegn
kreegt
kreekls
kreekn
kregen
kreis
kreisfreie
kreits
kreitsn
kreta
kreukel
kreukels
kreuners
kreuscheke
krieg
kriegt
kriek
kriekn
kriengn
kriftachtign
kriftn
krig
krijgen
krijgt
krim
kring
kris
kristien
kristlikke
kristndom
kristof
kristus
kritiek
kritiekn
kritisch
kritische
kro
kroaiachtign
kroaiberg
kroaie
kroain
kroaiwyk
kroaizje
kroam
kroane
kroanplatse
kroanreie
kroater
kroaters
kroatie
kroatisch
krochte
krokkediele
krokkedieln
krom
krombeke
kromme
krommenelst
krone
kroniek
kroniekn
kroniekschryver
kronos
krot
krote
krotte
krottegem
krowoasje
kru
krudekoeke
kruis
kruud
kruudachtige
kruudn
kruudnoagel
kruupn
kruupt
kruus
kruuschienge
kruusgewelvn
kruusienge
kruusigienge
kruuskerke
kruuskerkn
kruusn
kruuspo
kruuspunt
kruust
kruustocht
kruustochtn
kruusvoarders
kryg
krygen
krygn
krygt
kryt
krytperiode
ksa
ksk
ksv
kt
ktoarn
ku
kubieke
kubus
kud
kudde
kuddn
kudul
kuifje
kuiftsje
kuip
kuipergordel
kuj
kuje
kuk
kul
kulak
kuleuven
kulln
kulture
kultuure
kun
kundje
kunigunde
kunn
kunnen
kunnn
kunst
kunste
kunsten
kunstenoare
kunstenoars
kunstenoarsgroep
kunstgeschiedenisse
kunsthalle
kunsthistorisches
kunstmoatig
kunstmoatige
kunstmuseum
kunstn
kunstnoare
kunstnoars
kunstschilder
kunstschilders
kunststoffe
kunststromienge
kunstwerk
kunstwerkn
kunt
kupe
kurile
kurremul
kurt
kus
kusn
kust
kuste
kustgebied
kustgebiedn
kustgeme
kustlyne
kustlynne
kustn
kuststad
kuststreke
kuststroke
kusttoerisme
kusttram
kustvlakte
kustwestvlams
kut
kuts
kuultuure
kuurne
kuuschn
kv
kvc
kvk
kvs
kwaam
kwaamn
kwaamt
kwadrant
kwadroat
kwakkel
kwakkels
kwalificeern
kwaliteit
kwaliteitn
kwalle
kwalln
kwam
kwamen
kwamn
kwamt
kwamter
kwamtr
kwartel
kwartfinalle
kwartfinalles
kwartier
kwartiern
kwb
kwe
kweek
kweekn
kweiste
kwestie
kwestje
kwetsboar
kwetseurn
kwik
kwiksteirt
kwiksteirtn
kwoad
kwoadyper
kwoam
kwoamen
kwoamn
kwoaremont
kwom
kwyt
kyk
kyke
kyken
kykers
kykn
kykt
l
la
laag
laagn
laasn
laat
laatste
label
labeur
laboratorium
labour
labrador
lac
lach
lachen
lachende
lachn
lacht
lactose
laden
ladinisch
ladislaus
lady
laet
laey
laf
lag
laga
lagae
lage
lagen
lager
lagere
lagersta
laghetto
lago
lagopus
lagos
lagt
lagune
lai
lake
lam
lama
lamain
lamarck
lambeaux
lambersart
lambert
lambertsro
lambertuskerke
lambic
lambrecht
lamiaceae
lamiales
lammens
lamoot
lamoral
lampe
lampernisse
lampn
lampre
lancashire
lancaster
lance
lanceert
lanceloot
lancerienge
land
landast
landbouw
landbouwground
landbow
landbrugge
lande
landelik
landelikke
landelyk
landelyke
landen
landes
landgoed
landgroaf
landgroafschap
landhuus
landienge
landinnewoarts
landinwoarts
landippervlak
landkreis
landkreise
landkrokkediele
landmassa
landn
landna
landplantn
landscape
landschap
landschapp
landschappen
landschappn
landschapschilder
landschapsschilder
landschoot
landskampioen
landstreeke
landstreekn
landstreke
landt
landtoenge
landuus
landuyt
landvo
landvoogd
landvoogdesse
landvoogdn
lane
lang
langdeurige
lange
langemarck
langemark
langen
langer
langere
langereie
langern
langestroate
langhemans
langk
langn
langpo
langre
langs
langsn
langst
langste
langstn
language
languages
langue
languedoc
langues
langwerpig
langwerpige
lank
lanka
lanks
lankte
lankwerpig
lann
lannoo
lannoy
lano
lanotte
lans
lanse
lanst
lanteirn
lantois
lanuvio
laon
laos
lap
laplaigne
lapland
laplasse
lapname
lapnoame
lapnoamn
lapouter
lappn
lapscheure
lapscheurs
lapsus
large
largillie
lariano
laricina
larix
larry
lars
larsson
larus
larve
larven
larvn
las
lasen
lasiocarpa
lassn
last
laste
lastig
lastn
lat
late
latem
latemsche
laten
later
lateur
latin
latina
latrans
latsn
latst
latste
latsten
latstgenoemde
latstn
latte
lattesto
latyn
latyns
latynsche
latynschn
latynse
laura
lauraceae
laureins
laurence
laurent
laurentkerke
laurids
lauwe
lauwers
lava
lavendel
laventie
law
lawe
lawoai
lawrence
lay
lazarus
laziale
lazio
ld
ldd
ldegalerie
le
leadgitaar
league
least
lecelles
lech
lectrr
leda
ledeberg
ledegem
ledemoatn
leden
lederzele
ledringem
lee
leed
leedn
leefde
leefdn
leefgebied
leefgebiedn
leefomgeevienge
leeft
leeftyd
leeg
leege
leeger
leegr
leegre
leegvlakte
leek
leem
leemput
leen
leenders
leenn
leer
leerde
leerliengn
leern
leerne
leers
lees
leest
leeuw
leeuwarden
leeuwenhart
leevend
leevn
leevnd
leevnde
leevnsbeschryvienge
leevnslank
leezers
leezn
leezrs
lefevere
leffienge
leffrinkoeke
leforest
left
leg
legans
legansn
legde
lege
legem
legende
legendes
legendn
legendoarische
leger
legeranvoerder
legerdienst
legere
legers
leggen
leggn
legiers
legioen
legn
legt
lei
leicester
leidde
leiden
leider
leiders
leiderschap
leidieng
leidienge
leidinge
leidn
leidt
leie
leiedal
leien
leiestreke
leif
leigh
lein
leipzig
leisel
leisele
leit
lek
leke
lekkn
lekt
lelie
lelies
lely
lelystad
lemaire
leman
lemen
lemire
lemmer
lemond
len
lendlee
lengte
lengtegroad
lengtegroadn
lenig
lennon
lennox
lenny
lens
lente
leo
leon
leonard
leonardo
leone
leopard
leopardus
leopold
lepanto
lepidoptera
lepidus
lepra
leptinotarsa
lepus
ler
lerberghe
lere
leren
lerma
lernout
leroare
leroy
lerwe
les
lesage
lesquin
lesse
lessen
lessn
leste
lestin
leszczyn
let
leterme
letland
leto
letste
letstn
letter
lettere
letteren
lettergrepe
letterkunde
letterkundig
letterkundige
letterlik
letterlyk
lettern
letters
lettn
lettre
lettrekunde
lettrekundig
lettrekundige
lettres
leucine
leusd
leute
leuven
leuvense
leuvn
leuze
levant
leve
level
levellers
leven
levend
levende
levendig
levendige
levensverhaal
lever
leverancier
leverde
levern
levert
leviathan
levrancier
lewes
lewis
lexicon
leyden
leydienge
leydn
leyman
leysen
leyssens
lez
lezen
lezennes
lezers
lezienge
leziengn
lgemee
li
lia
liar
liard
libani
libanon
libe
libeco
libelle
libelln
liber
liberalisme
liberoal
liberoale
liberoaln
liberty
libie
libourne
library
libre
libretto
libri
license
licensje
licentie
licentioat
lichaam
lichoam
lichodzijewski
licht
lichtbruun
lichte
lichten
lichter
lichtervelde
lichtjes
lichtjoar
lid
lidmoatschap
lidstoatn
lie
liechtenstein
liechtnstein
lied
liederen
liedern
liedje
liedjes
liedjesschryfster
liedjesschryver
liedjestekstn
lief
liefde
liefdesverhaal
liefebber
liefebbers
liefhebbers
liefmans
liefsje
liefst
liefste
liekens
lien
lienge
liengn
lienkerkant
lienkeroever
lienks
lienkse
liep
liepn
liept
lier
lierde
liere
lierse
liesa
liesbeth
liet
lietaer
lieten
lietn
lietrateure
lietre
lieve
lieven
lievens
liever
lievre
life
lig
liga
lige
ligg
liggen
liggend
ligger
liggienge
liggiengn
liggn
liggnde
light
lightning
lign
ligny
ligt
ligter
ligurie
ligurische
ligurischn
lijk
lijkt
lijn
lijssenthoek
lijst
lik
like
lille
lily
limburg
limburgs
limburgsche
limiet
limited
limoen
limousin
lin
lincolnshire
linda
linde
line
lineair
linge
lingelsh
lingua
linie
link
links
linn
linnaeus
linne
linnean
linsele
lint
lintbebouwienge
linum
linux
linz
lion
lionel
lippe
lippens
lippn
lis
lisa
lisbourg
lische
liseenn
lissabon
lisseweegs
lissewege
lissotriton
list
liste
listed
liston
lists
liszt
litchi
liter
literair
literaire
literary
literateure
literature
literatuur
liters
lithium
lithograaf
lithografie
lithographica
lithogroafische
lithosfeer
litische
litouwn
litouws
litte
little
littorina
liturgie
liudolfiengers
liutgarde
live
liverpool
livia
living
livius
livre
lix
lizard
ll
lle
lleida
ller
lliengn
lloyd
llywelyn
ln
lo
loadienge
loadiengn
loadn
loage
loager
loagere
loagn
loagsje
loakn
loaknandel
loaknhalle
loaknindustrie
loane
loat
loate
loaten
loater
loatere
loatern
loatgotiek
loatgotische
loatn
loatr
loatre
loatste
loberge
location
lochristi
lochtienk
lockon
loco
lode
lodewijk
lodewyk
lodewyks
lodewykscollege
loenen
loengn
loes
lof
lofdicht
log
logan
loge
logie
logo
loir
loire
loiret
loisach
lokaal
lokale
loker
lokeren
lokern
loki
lokketetsn
lokkn
lokoal
lokoale
lokoaln
lokoers
lokoerse
lokt
lol
lombaerts
lombardeye
lombardisch
lombardische
lombardn
lombardo
lombardsijde
lombardsyde
lomme
lommel
lomp
lompret
lond
londen
londn
london
lonely
long
longfellow
longobardn
lons
loo
loof
loofboomn
loofbus
loofbusschn
loog
look
loon
loop
loopboane
loopgroavn
loopn
loopster
loopt
loopveugels
loos
looten
loove
looy
lop
lopen
loper
loppem
lopt
lorca
lord
lordi
loreley
lorenzo
lorgies
lorke
lorkn
lorraine
los
losse
lossn
lost
lot
lothariengn
lotharingen
lotharingia
lotharingn
lotharius
lothier
lotte
lotto
lou
louis
louise
louisiana
lounge
loungn
loup
lourdes
louvie
louvil
louvre
louwaege
louwyck
love
loved
lovely
lovoart
low
lowiengn
lowland
lowlands
loxodonta
lp
lpn
ls
lt
ltiesche
lu
lublin
luc
luca
lucania
lucas
lucasgilde
lucht
luchtbeuke
luchtboogn
luchtdruk
luchtfoto
luchtjes
luchtmacht
luchtn
luchtoavn
luchtsterkte
luchtweegn
lucia
lucien
lucifer
lucilius
lucius
lucky
lucrezia
lucy
lude
ludo
ludovicus
ludvig
ludwig
lugano
lui
luid
luigi
luik
luis
luisa
luk
luka
lukaku
lukas
luke
lukt
lukte
lumbricus
lumen
luminisme
lumumba
luna
lune
lupus
lust
lustenhouwer
lutenant
lutgart
luther
luthersche
lutra
luttn
lutyens
luuk
luuksche
luupe
luusen
luustern
luusteroars
luustert
luutenant
luuzn
lux
luxe
luxembourg
luxemburg
luxemburgs
luxemburgsche
luxor
luxueus
lvarez
lve
ly
lybeer
lyell
lyen
lyf
lyfspreuke
lyk
lykn
lykt
lynch
lyne
lynn
lynne
lynx
lyon
lyrics
lyriesch
lyriesche
lyrisch
lyrische
lys
lyse
lyste
lysters
lystje
lysttrekker
m
ma
maa
maagd
maaike
maakn
maakt
maal
maan
maand
maar
maarssen
maart
maarten
maastricht
maatschappij
mabo
mac
macedonie
macedonisch
machen
machiels
machienn
machine
macht
machteld
machtig
machtige
machtiger
machtigste
machtn
machtsgebied
macken
mackenzie
macnabiana
macrocarpa
madagascar
madagaskar
madam
madame
madams
made
madeira
madeleine
mademoiselle
maderno
mado
madocke
madonna
madrid
maekeblyde
maenas
maene
maer
maere
maerlant
maertens
maes
maeterlinck
maeyens
mag
magazine
magazyne
magda
magdalena
magdalenakerke
maggie
maggiore
maghreb
maghrib
magic
magisch
magistroat
magma
magna
magnesium
magnetisch
magnetische
magnifico
magnitude
magnoliophyta
magnon
magnum
magnus
magritte
magt
magyoarn
mahal
mahaut
mahmoud
mai
maiden
mail
maile
main
maine
mainz
maisnil
maison
majeur
majoor
major
majutte
mak
make
makelaars
maken
making
makkelik
makkoar
makn
makoar
makoars
makt
makte
makteg
maktege
makten
maktige
maktign
maktn
mal
malaga
malaria
malawi
malcolm
maldegem
male
maleisie
mali
malisse
malle
mallekoar
mallorca
malmedy
malo
malpertuis
malpighiales
malstaf
malta
malte
mama
mammalia
man
management
manager
mancha
manche
manchester
mande
mandel
mandela
mandelinck
mander
mandoat
mane
manet
manfred
manhattan
manie
manier
maniere
manieren
maniern
manifest
manilla
manilln
manitoba
mankaor
mankoar
mann
manneke
manneken
mannekensvere
mannekes
mannelijk
mannelik
mannelikke
mannelyke
mannen
mannetje
mannheim
mannlikke
manoir
mans
mansfeld
manson
manteau
mantegna
mantel
manten
mantsjoerye
mantua
manu
manuel
manuscript
manx
many
mao
maori
map
mapei
maps
mar
mara
maradona
marais
marat
marathon
marbels
marc
marcel
marcello
marcellus
march
marchandieze
marchandise
marchang
marche
marcheerde
marcheern
marco
marcq
marcus
mardyck
mardyk
mare
marec
margaret
margareta
margaretha
margarine
margarita
marge
marguerite
mari
maria
mariakapelle
mariakerke
mariana
marianne
mariapo
mariawende
marie
marieke
mariekerke
marien
mariette
marijke
marilyn
marina
marine
marino
marinus
mario
maritiem
maritieme
maritime
maritimes
maritimus
marja
marjoleine
marjorie
mark
marke
markebrugge
markeern
markeert
markegem
markermeer
market
marketing
markette
markgroaf
markgroafschap
markgroavn
markies
markn
marko
markt
marktpling
markus
marleen
marmara
marmer
marmern
marne
marnix
maroc
marokko
marokkoans
marokkoansche
marot
marquain
marque
marquette
marquillies
marraine
marrakesh
mars
marseillaise
marseille
marsenne
marseping
marshall
marsupialia
mart
marta
martel
marten
martens
marterachtign
marters
martes
martha
marti
martin
martine
martino
martinus
martinuskerke
marva
marvin
marx
mary
maryland
mascotte
masereel
masker
masquinongy
massa
massachusetts
massacre
massagetal
massas
massasprint
masse
massief
massieve
massimo
massinn
massoal
master
masters
match
matchen
matchn
mate
maten
matera
materiaal
material
materie
materioal
materioaln
materjoal
mathbb
mathematica
mathias
mathieu
mathilda
mathilde
mathrm
matic
matilda
matrix
matt
mattan
matter
matters
mattheu
mattheus
matthew
matthias
matthieu
mattn
mau
maud
maulde
maur
maurice
maurienne
mauritanie
maurits
mauro
mausoleum
max
maxim
maximaal
maxime
maximiliaan
maximilian
maximoal
maximum
maximus
may
mayenne
mayo
mayonaise
mayotte
mazarin
mazovie
mazurkiewicz
mbox
mc
mccartney
mccrae
mcgowan
mcpherson
me
meadow
means
meat
meaux
mecenas
mechanica
mechanische
mechanisme
mechelen
mecheln
mechelsche
mecklenburg
med
medaille
medailles
mede
medeklienkers
medelli
medestichter
medewerker
medewerkers
media
mediafigeure
medical
medicament
medicamentn
medici
medicyne
medieval
medisch
medische
mediterroan
mediterroane
medium
mee
meedoen
meegebrocht
meegedoan
meegemakt
meegepakt
meegewerkt
meegoan
meeldroadn
meer
meerdere
meern
meersman
meerssen
meervoud
meesseman
meest
meestal
meeste
meester
meesters
meestol
meet
meetjesland
meetkerke
meetn
meetrs
meezjs
mega
megadeth
megafauna
meh
mei
meibo
meidein
meiden
meidoen
meie
meiedoan
mein
meir
meire
meireloare
meise
meisje
meisjes
meiske
meiskes
meistal
meiste
meistje
meistjes
meiter
meiters
meißen
mejuffrouw
mekka
mekkoar
meknes
mekoar
meksikoansche
mel
melanesie
melbourne
melchior
meleagris
meles
meli
melilla
meliskerke
meljoen
melk
melkweg
melkwegstelsel
melodie
melun
membroan
memleben
memling
memorial
memoriam
memphis
men
menage
menapie
menapiorum
mendeljev
mendelssohn
mene
meneer
meneire
menelaos
menen
menepoorte
menig
menoage
mens
mensachtign
mensch
menschelikke
menschelyke
menschen
menschlik
menschlikke
menschn
menselik
menselike
mensen
mensheid
mensjchen
mensjov
mensn
mensoapn
ment
mente
menu
menute
menuutn
menziesii
mer
mercator
mercedes
mercia
mercier
merckx
mercurius
mercury
meregem
merk
merkegem
merkel
merkem
merkn
merlin
merovech
merovienger
meroviengers
meroviengische
merovingisch
merovingische
merria
merris
mersey
merseyside
mertens
mervillie
merwede
merwedekanoal
mes
meskien
mesolithicum
mesosfeer
messchien
messchiens
messe
messi
messias
messina
messn
mest
mestdagh
mesut
met
metaal
metabolisme
metal
metalen
metalgroep
metalgroepn
metallica
metasequoia
mete
meter
metern
meters
methionine
methoan
methode
methodes
metiengn
metoal
metoaln
metriek
metro
metropolitan
metropolitoane
metsenoare
metser
metten
mettn
metz
metzger
meubel
meubelmoaker
meubels
meudon
meug
meugelik
meugelikeedn
meugelikheedn
meugelikheid
meugelikke
meugeliks
meugelyk
meugelyks
meugen
meuglik
meuglikeedn
meuglikeid
meuglikke
meugliks
meugn
meugt
meul
meulebeke
meulemeester
meulen
meulenoare
meulens
meuln
meulnbrugge
meulne
meulns
meur
meurn
meurschilderiengn
meurthe
meuse
mexicana
mexico
mexicoansche
mey
meye
meyer
meyere
meyerie
meyers
meyse
meziek
mezzo
mg
mhz
mi
mia
miami
michae
michael
michail
michel
michelangelo
michele
michelle
michiel
michiels
michielsgestel
michielskerke
michigan
micro
micronesie
microsoft
microtus
mid
midd
middel
middelbaar
middelboar
middelboare
middelburg
middelduuts
middele
middeleeuwn
middeleeuws
middeleeuwsche
middeleeuwse
middelgro
middelgroote
middelkerke
middellandsche
middellandse
middellansche
middellatyn
middelnederlands
middelnederlandsche
middelpunt
middels
middelste
middelstn
midden
midder
middl
middle
middlpunt
middn
middnbeuke
middnryk
middnstik
middnvelder
midi
midlands
midn
midwestern
mie
miek
mieke
miekn
miekt
mieljoen
mien
miender
mienge
miengelienge
miengeln
mienglienge
miengn
miengsel
mieniesteerje
miens
miensch
mienschn
miensn
miere
miern
miernegel
miernegels
mietje
miguel
mij
mijn
mijne
mijnheer
mika
mike
miknasa
miko
milaan
milan
milano
mild
milde
mile
milete
milieu
milion
militair
militaire
militairen
militairn
military
miljaar
miljard
miljoe
miljoen
miljoenn
milk
millam
millennium
miller
millimeter
millonfosse
milne
milo
miloan
milos
milow
min
mina
mind
minded
minder
minderbroeders
mindere
minderheedn
minderheid
minderjoarig
minderjoarige
mindr
mindre
mineroaln
minerva
mines
mineur
minhstad
mini
minimum
minister
ministerie
ministers
ministre
minivoetbol
minne
minnesota
minnewoater
minnewoatre
minor
mins
minschn
minsen
minsk
minsn
minst
minste
minstens
minster
minstns
mint
minute
minuten
minuutn
mir
miroakel
mis
misbruuk
mise
miserie
misje
misjes
mislukkienge
mislukkn
mislukt
mislukte
misluktn
miss
missa
misschien
misschiens
misse
missie
missies
missionoaris
mississippi
missn
missouri
mist
miste
mister
mit
mitochondrie
mitose
mits
mitterrand
mivb
mix
mixed
mjinde
mjir
mm
mme
mn
mnd
mo
moa
moagd
moagdneilandn
moage
moager
moak
moaken
moaker
moakn
moakt
moakte
moal
moaldegem
moale
moaln
moaltandn
moand
moandag
moanden
moandn
moane
moann
moar
moarschalk
moart
moarte
moarten
moartenskerke
moartn
moartnskathedroale
moartnskerke
moas
moasgouwe
moat
moate
moaten
moatig
moatn
moatschappelik
moatschappie
moatschappy
moatschappye
mobiele
mobile
mobiliteit
mobutu
moc
mocht
mochte
mochten
mochtn
mocrate
mode
model
modelln
modern
moderne
modernen
modernste
modest
modifications
modified
modify
moe
moeder
moederbord
moeders
moedertoale
moedr
moedre
moeilijk
moeilik
moeilike
moeiliker
moeilikke
moeilikker
moeilyk
moeilyke
moein
moeite
moej
moeje
moejlik
moelik
moelikker
moen
moenaert
moend
moendde
moendienge
moendt
moeras
moerasgebied
moerassig
moerassige
moerassn
moerbeke
moerbrugge
moere
moeren
moerenvoart
moerkerke
moern
moerstroate
moeschroen
moeskroen
moest
moeste
moesten
moestn
moet
moete
moeten
moetn
moeyaert
moezel
mogelijk
mohamed
mohammed
moi
moine
mokke
mokker
mol
moldau
moldavie
moldoavie
moleculaire
molecular
molecule
molecuuln
molen
molenbeek
molie
molise
mollusca
molluuskn
molotov
mols
momelingn
moment
momente
momenteel
momentn
mommens
mon
mona
monaco
monarchia
monarchie
monarchn
moncheaux
mond
mondadori
monde
mondriaan
monegaskisch
monet
money
monferrato
mong
mongolia
mongolie
mongoolje
mongooln
mongoolsch
mongoolsche
monica
monique
monnik
monnikn
monocotyln
monografie
monogram
monograph
monokini
monroe
mons
monsere
monsieur
monster
mont
montagne
montane
monte
monteberg
montees
montenegro
montereau
montfort
monti
montmorency
montpellier
montreuil
monument
monumenten
monumentendag
monumentendagen
monumentn
monumentoale
monza
mood
mooi
mooie
moon
moor
moord
moore
moorn
moors
moortgat
mor
moravie
morbihan
morda
more
morf
morfologie
morgan
morgen
mori
morienn
moritz
moro
morocco
morris
morrison
morsen
mort
mortagne
morte
mortier
mortsel
mos
moselle
moskee
moskeejn
moskou
moslim
moslims
mosoel
mossn
most
moste
mosten
mostn
mostoard
motacilla
mote
motettn
moteur
moteurtje
moths
motief
moto
motte
mottn
motto
mouchin
moulin
mound
moundienge
moundn
moundt
mount
mountain
mountains
mouscron
mouse
mout
mouvement
movie
movistar
mozai
mozambique
mozart
moze
mozes
mp
mpc
mr
mrna
ms
mt
mtv
mu
mucht
muchte
muchtn
mude
muggn
muhammad
mulder
mule
mulieribus
mulisch
mulle
mullebeeks
mullebeke
multis
mundo
munster
munt
munte
muntn
muntschouwburg
murcia
murder
murray
mus
musculus
muse
musea
musee
museeuw
museo
museum
museums
music
musica
musical
musique
muskwa
mussche
musschn
musse
mussel
mussels
mussolini
mussomeli
must
mustafa
mustaine
mustela
mustelidae
mustn
mutilated
mutse
mutualiteiten
muul
muule
muus
muuzn
muyzn
muze
muzeum
muziek
muziekconservatorium
muziekfestival
muziekgroep
muziekinstrument
muziekinstrumentn
muziekschole
muziekweireld
muzik
muzikale
muzikant
muzikante
muzikantn
muzikoal
muzikoale
muzot
muzyk
mv
mvp
my
mya
myanmar
myidae
myle
myn
mynbow
mynder
myne
mynen
mynn
myra
myriam
myrtaceae
myrte
myrtus
myspace
mysterie
mysterieus
mysterieuze
mystica
mystiek
mystieke
myter
myth
mythe
mythologie
mythologische
mytilida
mytilus
møre
n
na
naa
naam
naame
naamlik
naamn
naamt
naar
naasn
nabij
nacht
nachte
nachtegaal
nachten
nachtn
nachts
nacional
nadat
nade
nadruk
naem
naer
naert
nafte
nai
nailpin
nakt
naktzoadign
nam
name
namelik
namen
names
namibie
namur
nana
nancy
nang
nantes
napels
napoleon
napoleong
napoli
nar
nasa
nasjonoal
nasjonoale
nassau
nat
natal
nateur
nateurbeschermienge
nateure
nateurfilosoof
nateurgebied
nateurkunde
nateurkundige
nateurkundign
nateurlik
nateurlike
nateurlikke
nateurlyk
nateurlyke
nateurpark
nateurreservoat
nateurste
nathalie
nation
nationaal
national
nationale
nationalgeografic
nationalgeographic
nationalist
nationalistisch
nationalistische
nationaliteit
nationoal
nationoale
nationoaln
nations
native
natrium
natte
nattre
natural
nature
naturel
natuur
natuurgebied
natuurlijk
natuurlik
natuurlikke
natuurlyk
natuurlyke
natuurmuseum
natuurpunt
natuurreservoat
nauw
nauwe
nauwste
navarra
navo
nazaire
nazareth
nazi
nazionale
nb
nba
nbroere
nchen
nd
nde
nden
nder
ndez
ndien
ndn
ndsche
ne
neanderthalensis
neanderthoalers
nearctis
nebest
neburg
nectar
ned
neder
nederduuts
nederfrankisch
nederfrankische
nederland
nederlanden
nederlanders
nederlandn
nederlands
nederlandsche
nederlandschn
nederlandse
nederlandstoalig
nederlandstoalige
nederlans
nederlansche
nederloage
nederreyn
nedersaksen
nedersaksisch
nedersaksische
nedersaksn
nederzettienge
nee
need
needrlans
needrlansche
neef
neefest
neefs
neeg
neegn
neegnde
neegnjoarign
neegnste
neegntiende
neegntiene
neegntienste
neegtiende
neemn
neen
neere
neermeerskaai
neerslag
neerwoastn
neevn
neffe
neffenst
neffers
neffest
neffnst
negatief
negatieve
negen
negenste
negentiende
negentienste
negienk
neigienge
neil
nek
nekier
nekke
nektar
nele
nelson
nem
nematocera
neme
nemen
nemi
nemorensis
nemours
nen
neo
neoclassicisme
neoclassicistische
neogo
neogotisch
neogotische
neogotischn
neolithicum
neolithische
neon
neoromoansche
neotroopiesche
neotropis
nepal
nepomucenus
nepos
neptunus
nere
neregeschootn
nergens
nermaal
nermoal
nero
nerts
nerva
nervn
nes
nest
nesten
nestkassn
nestn
net
nete
netebuk
netherlands
nette
nettn
netwerk
network
neuburg
neucha
neue
neuke
neur
neurenberg
neurn
neus
neushoorn
neustadt
neustrie
neute
neutn
neutraliteit
neutroal
neutroonn
neuve
neuville
neuze
nevada
neve
nevel
nevele
nevenst
never
nevers
nevest
neville
new
newcastle
newfoundland
newport
news
newsted
newton
next
neyl
neylpeirdn
neymeegn
neyvel
nez
ng
nga
nh
nha
nhoavns
ni
nia
nicaise
nicaragua
niccolo
nice
niche
nicholas
nichte
nichtje
nick
nico
nicolaas
nicolae
nicolaes
nicolas
nicolaus
nicole
nicolo
nicosia
nie
nief
nieks
niels
niemand
nieme
nienge
niengn
niengs
niepkerke
nieppe
niern
niet
nietend
nietig
nietn
nietnt
niets
nietzsche
nieuw
nieuwbouw
nieuwe
nieuwegein
nieuweliengn
nieuwen
nieuwenhove
nieuwer
nieuwere
nieuwerleet
nieuwjoar
nieuwkapelle
nieuwkerke
nieuwleusn
nieuwmunster
nieuwn
nieuwndyk
nieuwpo
nieuwpoort
nieuwpoorte
nieuws
nieuwsblad
nieuwslezer
nieuwslezeresse
nieuwste
nieuwstn
nieuwvliet
nieve
nievers
niew
niewe
niews
nig
nigd
nigde
nige
nigella
nigelle
nigen
niger
nigeria
night
nigienge
nigiengn
niginge
nigingn
nign
nigra
nigrum
nigsberg
nigsn
nigste
nigsten
nigstn
nigte
nijmegen
nike
nikkel
niklaas
nikloai
nikloajkerke
nikloas
niko
niks
nimf
nimt
nin
nina
nine
ninove
nintendo
nir
nis
nisse
nittels
nivalis
niveau
niveaus
nivoos
nizza
nk
nkant
nkerke
nl
nland
nlandsche
nm
nmbs
nn
no
noa
noade
noader
noadien
noadruk
noagel
noagelank
noagels
noajoar
noaldboomn
noaldbusschn
noalde
noaldn
noam
noame
noamelik
noamelyk
noamen
noamgever
noamlik
noamn
noamt
noapels
noar
noare
noargelang
noarmoate
noasjes
noast
noaste
noastn
noatie
noatiehuus
noaties
noatoe
noazn
nobe
nobel
nobelprys
noble
noch
nochtans
noctiluca
node
nodien
nodig
nodige
noe
noel
noem
noemde
noemdege
noemdegen
noemden
noemdigd
noemdigde
noemdige
noemdn
noemen
noemi
noemn
noemt
noene
noenkel
nog
nogal
nogoal
nogol
noh
noi
noir
nolf
nom
nomain
nomas
nomen
nomoadn
nomt
non
nonkel
noo
noois
nooit
noord
noordelik
noordelikke
noordelyk
noordelyke
noorden
noorderdepartement
noordn
noordoost
noordoostn
noordreyn
noordschote
noordwest
noordwestn
noordze
noordzee
noormann
noorn
noors
noorsche
noorweegn
noorwegen
noot
nootn
nor
norbert
nord
nordmanniana
norfolk
norm
normaal
normaalschole
normale
norman
normandie
normandisch
normandische
normoal
normoale
north
northamptonshire
northeast
northern
northumberland
northumbria
northumbrian
northwest
northwestern
norton
norway
norwich
nos
nostra
not
nota
note
notes
notevaschoa
nothing
nothofagus
nothomb
notice
notices
notjes
notoatie
notre
nottingham
nounkel
nounkels
nouter
nouveau
nouvelle
nova
novastar
novelle
novellen
november
novembre
novgorod
now
nowe
nowrd
nowrdelyke
nowrdpole
nowwers
noyelle
noyelles
noyon
npogeschiedenis
nr
nrc
nro
nryk
ns
nschap
nsche
nsje
nskerke
nspoornslag
nste
nster
nt
nte
nten
nteresseerd
ntg
nther
ntn
ntwa
nu
nuchtend
nuchtends
nuchtens
nucleaire
nuclear
nuevo
nui
nuit
nul
nulder
nulpunt
number
nume
numer
numero
numers
nummer
nummerienge
nummero
nummers
nummrienge
nunavut
nunder
nundern
nunn
nunne
nunnebier
nuova
nur
nurenberg
nut
nutjes
nutt
nuttige
nuus
nuuze
nuze
nv
nvloed
nvloedde
nvloedn
nw
nwoud
ny
nyak
nymeegn
nymegen
nymfn
nys
nyvreid
nze
nzer
nzers
nzeune
o
oa
oad
oade
oadel
oadellikke
oadellyke
oaders
oadle
oaf
oafbusschn
oafroend
oaje
oak
oakn
oal
oalbeke
oald
oalde
oalen
oalewyne
oalfround
oalle
oaln
oals
oalsan
oalst
oalt
oaltyd
oalveringem
oamer
oan
oane
oantal
oanzichte
oap
oapenynn
oapn
oar
oard
oardig
oarelbeke
oarend
oarends
oarienge
oarlbeke
oarlen
oarm
oarme
oarmoe
oarms
oarmste
oarnen
oarsele
oas
oasem
oasemen
oasm
oasmn
oast
oat
oave
oavekapelle
oavelgem
oaven
oavend
oaverskerke
oavn
oavnstad
oaze
oazebroeke
oazelmuuzn
oazelnootn
oazeloare
oazeloars
oazie
oaziesche
oazje
ob
obama
obelisk
obelix
object
objectn
oblast
oblastn
obliquiteit
oblitum
obuusn
occidentalis
occitanie
occitoans
oceanic
oceanie
oceoan
oceoanbodem
oceoane
oceoanische
oceoann
och
ocharme
ochtezele
oclc
ocmw
octaaf
octave
octavianus
october
ocypus
od
oda
odachtig
odde
ode
odense
oder
odessa
odgeboorn
odgeschootn
odgoan
odiel
odig
odige
odin
odn
odo
odoaker
odoar
odocoileus
odonata
odonatoptera
odrecht
odschap
odstraffe
odysseus
odzoakelik
oe
oed
oede
oedeburg
oedeid
oedekapelle
oeden
oedere
oeders
oedgrieks
oedn
oednburg
oednrode
oedre
oedrs
oedste
oee
oefend
oefent
oegst
oeigem
oeigoern
oeigoers
oej
oek
oekd
oekde
oekden
oeke
oekn
oekrai
oel
oelan
oelem
oem
oemriengd
oen
oenbekend
oenbekende
oenbeweund
oendanks
oender
oenderd
oenderde
oenderdeel
oenderfamilie
oenderfamilies
oendergeslacht
oendergroend
oenderhandeliengn
oenderhandeln
oenderkant
oenderme
oendernemer
oenderoarm
oenderorde
oenderste
oenderte
oendertusschen
oendertusschn
oenderverde
oenderverdeeld
oenderverdeild
oenderweireld
oenderwerpn
oenderwys
oenderzoek
oendiep
oendiepe
oendn
oendr
oendre
oendrede
oendrefamielje
oendrefamieljes
oendregeslacht
oendregienk
oendregoan
oendrenam
oendrescheidn
oendreso
oendresteund
oendrewerpn
oendrezoek
oendrorde
oene
oeneevnhoevign
oengeluk
oengerept
oengeve
oengeveer
oengewervelde
oenglykvleuglign
oenkruud
oenofhankelik
oenofhankelikheid
oenofhankelyk
oenofhankelyke
oenofhankelykheid
oens
oenstoan
oentbiendienge
oentbusschienge
oentdekkiengsreiziger
oentdekt
oenthoofd
oentslag
oentsnappn
oentspriengt
oentstoan
oentstoat
oentstoend
oentvangn
oentvangt
oentvienk
oentwerp
oentwerper
oentwerpster
oentwikkeld
oentwikkelde
oentwikkelienge
oentwikkeln
oentwikkld
oentwikklde
oentwikklienge
oentwikkln
oentworpn
oenwettige
oenze
oer
oeral
oeralgebergte
oerbus
oergm
oern
oeros
oes
oeselgem
oest
oet
oetachtige
oetave
oetkap
oetn
oetulst
oeuvre
oeve
oeveele
oeveeleid
oevele
oever
oevers
oevre
oewe
oewel
oezbekistan
oeze
of
ofankelyk
ofanklik
ofbeeldienge
ofbeeldiengn
ofbreekn
ofbroake
ofd
ofdat
ofde
ofdkeetn
ofdkwartier
ofdoalienge
ofdplekke
ofdredacteur
ofdstad
ofdstee
ofdzetel
ofdzoakelik
off
offa
offenbach
offerlaan
office
official
officie
officieel
officieeln
officiele
officier
officiern
officinalis
offiesje
offise
offs
ofgebeeld
ofgebrand
ofgebrookn
ofgeevn
ofgekapt
ofgeknotte
ofgekort
ofgeleid
ofgeleyd
ofgepakt
ofgeplat
ofgeroend
ofgeschaft
ofgeschootn
ofgeslacht
ofgeslootn
ofgesmeetn
ofgesneen
ofgesplitst
ofgesprookn
ofgestoan
ofgestudeerd
ofgetreedn
ofgevoardigdn
ofgevoerd
ofgewerkt
ofgewisseld
ofgezet
ofgezien
ofgezoenderd
ofgezounderd
ofhangt
ofhankelik
ofhankelyk
ofke
ofkomst
ofkomste
ofkomstig
ofkortienge
ofkortinge
ofleggn
ofleverienge
ofleveriengn
ofloop
ofmeetienge
ofneemn
ofrit
ofsluutdyk
ofsluutienge
ofsluutn
ofspanninge
ofspeelt
ofsplitsienge
ofsproake
ofsproakn
ofstad
ofstamde
ofstammeliengn
ofstammienge
ofstammn
ofstand
ofstandn
ofstee
ofstervn
ofstoan
oft
ofte
oftewel
oftreedn
oftwel
ofveugel
ofvoerkanal
ofvoerkanoal
ofvol
ofwachtienge
ofwe
ofwel
ofwerkienge
ofwisselend
ofwisselnd
ofwoaterienge
ofzet
ofzettienge
ofzettn
ofzien
ofzoenderlikke
og
ogd
oge
ogen
ogenblik
oger
ogere
ogeschootn
ogesneleydlynne
ogesneleydslynne
ogger
ogier
ogiva
oglee
ogleroare
ogliek
oglyk
ogn
ogst
ogste
ogstn
ogt
ogte
ogtepunt
ogtepuntn
ogtn
ogustus
oh
ohio
oi
oibe
oid
oie
oien
oiers
oigem
oikerke
oin
ois
oise
oit
oj
ojd
ojde
oje
ojje
ojn
ojs
ojt
ok
okapi
oke
okhotsk
okkoazje
oklahoma
okra
oksel
okseloare
oktober
oktobre
oktoobre
ol
olangsn
old
olde
oldenbarnevelt
oldr
ole
olea
oleaceae
olens
oleracea
olf
olfarte
olgauwe
olgeme
olgemeen
olhoewel
olie
olier
oliere
olieverftechniek
olieverve
olifant
olifantn
oliver
olivier
olke
olkerke
olla
olland
ollanders
ollands
ollandsche
ollandschn
ollandse
ollansche
olle
ollebeke
olledrie
olleman
ollemoale
ollemolle
ollene
oller
olles
olletorre
olletwe
olletwee
ollik
olm
olmete
oloewel
ols
olsan
olskamp
olson
olte
oltemets
oltid
oltied
oltyd
olve
olverwege
olyfboom
olyfboomachtign
olyfboomn
olyfgroen
olyftak
olympia
olympiabad
olympiade
olympic
olympisch
olympische
olyvn
om
omaars
oman
omd
omda
omdaj
omdan
omdat
omdatn
omdatr
omde
omega
omer
omerkerke
omernak
omerskerke
omgebied
omgeevienge
omgeevn
omgeke
omgevienge
omgevinge
omhoge
omiengn
omliggende
omliggnde
omlo
omloop
omme
ommegank
ommegebouwd
ommegedopt
ommegeke
ommegekeerd
ommegevormd
ommegezet
ommegoan
ommeke
ommel
ommeland
ommetoer
ommezet
omn
omnibus
omnium
omoars
omoge
omriengd
omroep
omroepster
oms
omsche
omschryvn
omse
omslootn
omstandigeedn
omstandigheedn
omstreedn
omstreekn
omstreeks
omt
omtrek
omtrent
omvalke
omvang
omvat
omvatn
omvatte
omvattn
omverre
omwallienge
omwentelienge
omwille
on
onafhankelik
onafhankelike
onafhankelikheid
onard
onbekend
onbekende
onberg
onbevlekt
onbroere
once
oncorhynchus
ond
ondanks
ondatra
onde
onder
onderde
onderdeel
ondertusschn
ondertussen
ondertussn
onderwerp
onderwijs
onderwys
onderzoek
ondomein
ondyke
one
oneid
ones
ongareye
ongedierte
ongelooflijke
ongeluk
ongesteld
ongeve
ongeveer
onhandig
onienge
onillign
onipvolger
onlangs
onlik
onlikke
online
only
onmiddellik
onn
onno
onnozel
ono
onpretendent
onprins
onroerend
ons
onsofstand
onste
onstellienge
onstoan
ont
ontaarde
ontario
ontdekkiengsreiziger
ontdekking
ontdekt
onte
ontploft
ontsnapt
ontstoan
ontvangn
ontwerp
ontwikkeld
ontwikkelienge
ontworpn
onvloandern
onze
onzeune
oo
ood
ooe
oof
oofd
oofdkwartier
oofdstad
oofdstedelik
oofdstee
oofdtente
oofdzoaklik
oofplatse
oofstad
oofstik
oofstikkn
oofzoaklik
oog
oogduuts
oogduutsche
ooge
ooglandn
oogle
ooglee
oogn
oogre
oogst
oogste
oogstn
oogstoande
oogte
oogteliggienge
oogtepunt
ooimille
oois
ooit
ooiwoagns
ook
ool
oolje
oop
oope
oopn
oopnboar
oopnboare
oopnboarn
oopnd
oor
oord
oorde
oordeel
oorlog
oorloge
oorlogen
oorlogsmonument
oorlogsmonumentn
oorlogsmuseum
oorlogsscheepn
oorlooge
oorloogn
oorn
oorsproenkelike
oorsproenkelyk
oorsprong
oorsproung
oorsprounkelik
oorsprounkelikke
oorsprounkelikkn
oost
oostduinkerke
oostelik
oostelyk
oostelyke
oosten
oostende
oostends
oostendse
oostenryk
oostersche
oostkamp
oostkant
oostkerke
oostkust
oostn
oostnieuwkerke
oostnryk
oostnryksche
oostvletern
oover
ooverstro
ooviengn
oovn
oovr
oovral
oovre
oovrebluuvnde
oovregank
oovregebrocht
oovrespannienge
oovrevloedig
oovrewe
oovrkant
oovrstro
oovrwe
oovrwinnienge
oovrwinniengn
op
opaque
opboane
opbrouck
opdracht
ope
opekomm
open
openbaar
openbare
openboar
openboare
opend
opende
openen
openienge
openluchtmuseum
opera
operazanger
opericht
operoasje
opgebouwd
opgericht
opilio
opinion
opkomst
opline
oplossienge
opm
opmerking
opn
opnames
opnieuw
opoalkust
opossum
opossums
oppervlakte
oppidum
opposiesje
opstand
opt
option
optreedn
opus
opvolger
or
oraje
oral
orang
orange
oranje
orant
oratoria
oratorium
orbe
orbeeld
orbeeldn
orbereidienge
orbild
orbis
orbison
orchies
orcq
ord
ordanslag
orde
ordeel
ordeeld
ordelik
ordelike
ordelikke
ordelikkn
ordelyk
ordelyke
ordelykn
orden
ordenienge
ordenoare
order
orderbre
orderdepartement
orders
ordes
ordestoat
ordgrenze
ordig
ordigd
ordigde
ordige
ordiger
ordigers
ordign
ordinateur
ordinatio
ordkant
ordkantn
ordkust
ordlik
ordlikke
ordn
ordnschat
ordo
ordovicium
ordpene
ordpool
ordrachtn
ordre
ordreyn
ordsche
ordschote
ordwest
ordwestelik
ordwestkant
ordwestkantn
ordwestlik
ordwestlikke
ordwestn
ordwoarts
ordze
ordzee
ore
oregano
oregon
oren
orfeus
org
organger
organgers
organisatie
organisator
organisch
organische
organise
organiseerd
organiseerde
organiseern
organiseert
organism
organisme
organismen
organismes
organismn
organisoasje
organisoasjes
organisoatie
organisoaties
organist
organization
organizeern
organizoasje
orge
orgeborchte
orgel
orgels
orgelspeler
orgesteld
orgoan
orgoande
orgoann
orie
orienge
orientales
orientalis
oriesch
oriesche
origanum
orige
origin
original
origine
origineel
originele
orion
orjoar
orkant
orkest
orkeure
orkney
orkoan
orkommende
orkommn
orkust
orlando
orle
orleans
orley
orlo
orlog
orloge
orlogsgroavn
orlooge
orloogn
orloper
orlyne
orme
ormoalige
orn
ornbe
ornde
orne
orngesteld
ornik
orniksche
ornikse
ornithorhynchus
ornkommn
ornkommnde
ornkomn
ornkomt
ornoame
ornoamelik
ornoamste
orns
ornsala
ornsaloa
ornste
oro
orol
orouder
orouders
orpheus
orpo
orprogramma
orrechtn
orroad
orroundn
ors
orsche
orschie
orse
orsele
orseolo
orsini
orsproeng
orsproenk
orsproenkelik
orsproenkelikke
orsproenkelyk
orsproenklik
orsproenklikke
orsproung
orsprounkelik
orsprounkelike
orsprounkelikke
orsprounkelyk
orsprounkelyke
orstad
orstander
orstanders
orstel
orstellienge
orstelliengn
ort
ortbestoan
ortbeweegn
orte
orten
ortestad
ortgebouw
ortgebrocht
ortgezet
orthodoxe
ortn
ortnnivoo
ortplantienge
ortplantn
ortzettienge
oruut
orval
orverkieziengn
orvleugls
orvoader
orvoadrs
orweegn
orweg
orwerp
orwerpn
orwoarde
orwoardn
orzaakn
orzaakt
orzakt
orzakte
orzien
orzitster
orzitter
orzitterschap
orzittre
orzoake
orzoakn
orzoakt
os
osaka
osama
osan
osasco
osc
oscar
oseid
oseoane
osiris
oskerke
oslee
oslees
oslo
ossa
ossan
osse
ost
ostburg
ostduunkerke
oste
ostelik
ostelike
ostelikke
ostelyk
ostelyke
osten
ostende
ostendenoare
ostends
ostendsche
ostenryk
ostens
ostensche
oster
osterbant
ostergeme
osters
ostersche
ostgrenze
ostkamp
ostkant
ostkantn
ostkapelle
ostkust
ostlik
ostlikke
ostme
ostn
ostnieuwkerke
ostnkantn
ostnryk
ostnrykers
ostnryks
ostnryksche
ostnrykschn
ostre
ostricourt
ostrliengn
ostro
ostrogootn
ostveld
ostvletern
ostwoarts
ostyn
ostze
ostzuudkantn
ot
otakar
ote
otegem
otel
otemets
oter
otere
otertog
otertogdom
other
othertog
othertogdom
othertoogn
otiesche
otign
otje
otjes
otmachtn
otme
otmoeder
otmuggn
otn
otnde
oto
otostrade
otouders
otr
otranto
otsalamander
otschap
otschoalige
otste
otsten
otstn
ottavio
ottawa
otte
otters
otto
ottocar
ottocoureur
ottokar
ottomoan
ottomoann
ottomoans
ottomoansche
ottonome
ottonomie
ottoonn
ottoons
ottos
ottostrade
ottostroade
otvoader
ou
ouckama
oud
oude
oudeid
oudejoar
oudekapelle
ouden
oudenaarde
oudenburg
oudenoarde
ouder
ouderdom
oudere
oudergem
ouderlik
oudern
ouders
oudeyd
oudezele
oudfrans
oudfries
oudgrieks
oudheid
oudheidkunde
oudiengels
oudn
oudnberg
oudnburg
oudnederfrankisch
oudnederlands
oudnederlandsche
oudnoors
oudoogduuts
oudoostnederfrankisch
oudsaksisch
oudst
oudste
oudstn
oudt
ouest
ouk
oul
oumgeevienge
oumgeevn
oumligg
oumvatt
oumvattigd
oun
ounafankelik
ounafhankelik
ounafhankelikheid
ounbekend
ounbekende
ound
oundanks
oundegem
ounder
ounderbrookn
ounderd
ounderdak
ounderde
ounderdjoarigen
ounderdrukkn
ounderdrukt
ounderfamilie
oundergank
oundergebrocht
oundergoan
ounderground
oundergrounds
ounderhandeliengn
ounderhandeln
ounderhoud
ounderhoudn
ounderkake
ounderkant
ounderkeunienk
ounderlienge
ounderme
oundernemer
ounderorde
ounderoud
ounderpaster
ounderscheid
ounderscheidn
ounderso
ounderste
oundersteboovn
oundersteunn
ounderstn
ounderte
oundertekend
oundertusschen
oundertusschn
oundertussen
oundertussn
ounderverde
oundervo
ounderweireld
ounderwerp
ounderwerpn
ounderwys
ounderwyzer
ounderzocht
ounderzoek
ounderzoekers
ounderzoekn
oundiepe
oundrezoek
oundschote
oungeldig
oungeluk
oungelukkign
ounger
oungeve
oungeveer
ounofankelik
ounofhankelik
ounofhankelikheid
ounofhankelikke
ounofhankelyk
ounregelmoatig
ounrust
ountdekker
ountdekkienge
ountdekkiengsreiziger
ountdekt
ountdekte
ounthoofd
ounthuld
ountslag
ountsnappn
ountspriengt
ountstaan
ountstoan
ountstoane
ountstoat
ountstound
ountstoundn
ountvangn
ountwerp
ountwerper
ountwerpn
ountwierp
ountwikkeld
ountwikkelde
ountwikkelienge
ountwikkeln
ountwikkelt
ountworpn
ounverwacht
ounverwachts
ounwettig
ounwettige
our
ourthe
ous
out
outbloazers
outem
outkerke
outland
outn
outoar
outre
outryve
outstanding
outulst
ouwdurp
ouwe
ouze
oven
over
overal
overble
overbluufsel
overbluufsels
overbluuft
overbluuvnde
overbluvende
overbriengn
overdag
overdekt
overdekte
overdracht
overe
overee
overeen
overeenkomste
overeid
overende
overenoomn
overg
overgangszone
overgank
overgebleevn
overgebrocht
overgedreegn
overgeevn
overgegoan
overgeleverd
overgenoomn
overgepakt
overgestapt
overgestookn
overgoat
overgoave
overgro
overheid
overhoaln
overige
overkant
overkomt
overleden
overleedn
overleefd
overleefde
overleeft
overleevn
overleg
overleverienge
overline
overlo
overme
overnoames
overol
overols
overolst
overreen
overschot
oversloan
overspel
overspoeld
overstap
oversteek
overstro
overstromienge
overstromiengn
overtuugd
overtuugn
overtyd
overvolln
overwelfd
overwientern
overwinnienge
overwinniengn
overwinninge
overyse
overyssel
overysselse
overze
overzetbo
overzicht
overzichtje
ovetjes
ovidius
ovis
ovliere
ovn
ovoader
ovoal
ovre
owen
owens
own
owst
oxford
oye
oyenkerke
ozark
oze
ozn
oznoedkoaje
oznoorloogn
ozo
ozowel
ozze
p
pa
paar
paard
pablo
pacemakers
pacht
pachter
pacific
pacificoatie
pacifieke
packo
padde
paddestoeln
paddn
padua
paedophryne
paele
paemel
paepe
page
pages
pagina
pagus
paige
pain
pajotteland
pak
pakistan
pakk
pakken
pakkn
pakn
pakt
pakte
pakten
paktn
palace
palacio
palaearctis
palais
palazzo
pale
palearktiesche
paleis
paleizn
paleoantropologie
paleolithicum
paleontoloog
palermo
palestina
palestynsche
palestynschn
paleys
palfijn
paljas
pallas
palm
palma
palmanova
palmans
palmares
palmer
palmyra
palts
paltsgroaf
paltsgroafschap
paltskapelle
palys
pamel
pan
panama
pand
pandemie
pandn
pandora
pandreitje
pane
paniek
panky
panne
pannekoekn
pannonische
panorama
panter
pantheon
panthera
pantser
paola
paolo
papa
papas
papaver
paper
papier
papierberke
papiern
papoea
papyrifera
par
para
paraable
parade
paradise
paradiso
paradys
paraguay
parallel
parallelle
parallellogram
paravang
parazietn
parc
parcours
parfum
parijs
paris
parish
parisiennes
park
parker
parkn
parlement
parlementaire
parlementsgebouw
parlementslid
parlementsverkieziengn
parlementsverkiezingn
parliament
parma
parmentier
parmigianino
parochie
parochiekerke
parochies
parochje
parochjes
parodie
parsec
part
partement
partenkirchen
parthenon
parthie
parti
particuliern
partie
partiee
partien
partij
partner
party
partye
partyen
partyvo
parus
parys
pas
pascal
pascale
paschalis
pasn
pass
passage
passagiers
passantnhuus
passchendoale
passchndoale
passe
passeer
passeerde
passeern
passeert
passendoale
passer
passie
passieve
passion
passirde
passirt
passn
past
paste
paster
pasters
pastersmoarte
pasteur
pastn
pastorie
pastre
pat
patat
patatten
patattn
pate
pathways
patie
patinier
patisserie
patriarch
patrice
patricia
patricie
patricioat
patrick
patro
patryze
patryzn
patterns
patti
patty
pattyn
patula
pau
paul
paula
paulette
pauline
paulo
paulus
pauluskerke
paus
pausdom
pauselyke
pausn
pauw
pauwels
pave
pavia
paviljoen
pays
pazzi
pc
pdc
pdf
pe
peace
pearl
peck
pecq
pediculus
pedro
peegie
peel
peene
peer
peeters
peetses
peggy
peinture
peinzn
peird
peirdachtign
peirde
peirden
peirdn
peire
peirn
peis
peisde
peisdn
peist
peize
peizen
peizn
pek
pekel
pekela
peking
pekkeln
pekkels
pekkn
pel
pele
peletong
pelgrims
pelle
pellevoisin
peloeze
pelophylax
peloponnesos
peloton
pels
pen
penalty
penanti
pendula
penebeke
penguin
peninsula
penn
penne
pennepisse
pennsylvania
pense
pensioen
people
peoples
peper
pepers
pepeyn
pepinidn
pepinster
per
percent
perche
percussie
percy
perdix
peregrinus
pereira
perez
perfect
perfecte
pergamyn
perihelion
periode
periodes
periodiek
perioodn
periostracum
periparus
perkament
perm
permafrost
permanent
permanente
permeke
permission
perpignan
perry
pers
perse
persebo
perselle
persen
persienne
persijn
persn
perso
personage
personages
persone
personele
personoages
persoon
persoonlik
persoonlikke
perspectief
persyn
pertang
pertank
pertanks
perth
pertil
peru
perugia
perviezje
pervyzje
perzie
perziesch
perzisch
perzische
perzn
pest
peste
pet
petacchi
petat
petatte
petattn
petegem
peter
peterborough
peters
petersburg
petit
petite
petra
petrarca
petrarch
petroselinum
petrus
peu
peugeot
peur
pevelenberg
pevelenkapelle
peyo
pg
ph
phaedra
phalacrocorax
phalangium
phanie
phantom
pharidae
pharma
phasianidae
pheip
phil
philadelphia
philip
philipp
philippe
philippine
philippus
philips
philipstockstroate
philosophiae
phobos
phoebe
phoenix
photos
php
phylogenetic
phylogeny
phylum
phytophthora
pi
piaf
pianist
pianiste
piano
piast
piatuskerke
piazza
pica
picanol
picardie
picardisch
picasso
picea
pick
pickery
pico
pie
piek
pieken
piekezot
piekn
piemonte
pien
piepers
pier
piere
pierewoai
pierlala
piero
pierre
piet
pieter
pieters
pietersabdy
pietersabdye
pietersbasilieke
pieterskerke
pietje
pietjekuntje
pietkin
pietn
pietro
pieve
pijn
pika
pilasters
pile
pileus
piloare
piloarn
piloot
pils
piltdown
pim
pin
pinaceae
pinales
pine
pineau
pines
pinguins
pink
pinn
pinne
pino
pinte
pinus
pionier
piper
piperaceae
piramides
piro
piroatn
pis
pisa
piso
pissebedde
pissebeddn
pisseblomme
piste
pisum
pit
pitau
pitgam
pitje
pittem
pitti
pittige
pittn
pius
piv
pixels
pizza
pk
plaatsnamen
place
plaffeture
plafong
plage
plains
plakkaat
plakker
plakkn
plakkoate
plakt
plakwoaier
plan
plancius
planckaert
planeet
planeete
planeetn
planet
planetaire
planete
plang
plangs
planke
plankier
plankton
planktong
plann
plant
plantae
plantagenet
plante
planten
planteso
plantin
plantje
plantkunde
plantkundige
plantkundign
plantn
plantneters
plantoardig
plantoardige
plants
plas
plasma
plasmide
plasmiden
plassndoale
plastiek
plastische
plastrong
plat
plateau
plateaus
platgesmeetn
platini
plato
platse
platselik
platselike
platselikke
platselyk
platselyke
platsen
platslik
platslikke
platsn
platsnoame
platst
platste
platsvervanger
platte
platteland
plattn
play
playboy
playstation
plaza
ple
please
plechtig
plechtige
plechtigeedn
pleegn
pleegt
pleiku
plein
pleing
pleite
plejoade
plekk
plekke
plekken
plekkn
plekn
pleksje
pleksjes
pleurant
pleurobrachia
plezier
plicht
pling
plings
plingsje
plinius
plo
ploage
ploagn
ploate
ploaten
ploatn
ploatntektoniek
ploatse
ploeg
ploege
ploegen
ploegkoers
ploegleider
ploegmoat
ploegn
ploegntydrit
ploegsteert
ploegsteirt
ploegsteirte
plofklankn
plopsaland
plots
plottn
plouay
plumb
plume
plunderdn
plunderienge
plunderiengn
plundern
plus
pluto
pluumn
plymouth
pn
po
poaceae
poale
poaliengbeke
poaln
poapegoais
poapingem
poar
poarienge
poarn
poartyd
poaschn
poasn
poater
poaters
poatre
pockets
podium
podocarpaceae
poe
poeier
poekapelle
poelberg
poele
poelkapelle
poema
poems
poepeschete
poer
poesie
poesjkin
poesjkins
poet
poeta
poetry
pogienge
point
poitevin
poitiers
poitou
pokkn
pol
pola
polder
polderdorptje
poldergebied
polders
polderstreke
pole
poliep
poliesje
polisario
politica
politie
politiek
politieke
politieker
pollefeyt
pollentier
polletiek
polletieke
polletieker
polletiekers
pollienkove
pollitiek
pollitieke
pollitieker
polln
pols
polymeern
polynesie
polyvalente
pomerol
pommern
pompei
pompeius
pompelmoes
pompiers
pompn
pond
pont
ponte
ponthieu
pontormo
poogienge
poogiengn
pool
pooln
pools
poolsche
poolschn
poolvos
poort
poorte
poorter
poorters
poortersloge
poot
pootn
pop
popelier
poperienge
poperiengs
poperienknoars
poperinge
popgroep
popliere
popliern
popolani
poppa
poppe
populair
populairder
populaire
populairste
populariteit
population
popule
populiere
populiern
populoasche
populoasches
populoaschn
populoasje
populoasjes
populoasjn
populus
popuuloasjes
popzanger
por
porcellio
poreie
port
porta
porte
portefeuille
portinari
portland
porto
portoal
portrait
portreit
portreitn
portreitschilder
portret
portretschilder
portrettn
ports
portugal
portugees
portugeesche
portugeezn
porzio
poseidon
posiesje
positie
positief
positieve
post
postal
postbus
posthumus
postuum
pot
poten
potenza
potieng
potje
potjes
potjevleesch
potlo
potlood
potter
pottn
pou
pound
pour
pourbus
pourbusstroate
povlakte
powell
power
powiat
poziesje
pp
ppm
pr
praag
pracht
prachtig
prachtige
pradeels
prado
praeses
praet
pragmatieke
praia
praitere
praktisch
praktische
praktyk
pralienn
praten
prayer
pre
preach
precies
precis
predikant
preedieke
preekn
preetjes
prefect
prefecteure
prefecture
prehistorie
prehistorische
prei
premi
premie
premier
premio
prente
pres
present
presentateur
presentator
presentatrice
presenteerde
presenteern
presenteert
presentoatie
preserve
president
presidentsverkieziengn
presley
press
prestige
prestigieuze
prestoasje
prestoasjes
prestoaties
preston
prestre
pret
prete
pretensche
pretpark
pretty
preud
preus
preute
preuteleute
previous
priant
price
prie
priem
priemgetal
priemgetalln
priest
priester
priestley
priestr
priestre
prijs
prikkels
prikken
prikstoel
prima
primal
primaticcio
primigenius
primitief
primitieve
primitievn
primoatn
prince
princeps
princesse
princeton
principe
principes
principia
prins
prinsbisdom
prinsbisschop
prinsdom
prinsenhof
prinsesse
prinsn
printed
prionailurus
prior
priora
pris
prisong
private
prive
priverno
privilege
privileges
privoate
prix
pro
proalgraf
proalgroavn
probeerde
probeerdeg
probeerdegt
probeerdn
probeern
probeert
proberen
proble
probleem
probleemn
problems
procedeure
proceedings
procent
proces
procesje
procesn
process
processen
processn
processor
prochie
prochies
prochje
proconsul
procureur
procycling
prodg
produceerde
produceern
produceert
producent
producer
product
producten
productie
production
productn
produksje
produucsje
proevn
prof
profcontract
profcoureur
profeet
professer
professioneel
professionele
professor
profiel
profile
profiteerde
profiteerdn
profiteern
profs
profyt
program
programma
programmas
programs
progressieve
project
projectn
projektn
projob
prokaryootn
proloog
promenade
prominente
promootn
promotie
promoveerde
prooi
prooie
proosse
proost
proovn
prop
proper
prosper
prostoat
protei
proteines
protest
protestantisme
protestantn
protestants
protestantsche
protestantse
protestn
protista
proto
protocol
proton
protoonn
prototype
provenc
provence
provided
provin
provincia
provinciaal
provinciae
provinciale
provincie
provincies
provincioal
provincioale
provinsche
provinsje
provinsjes
provinsjn
provinsjoal
provoost
proza
pru
prue
prume
prunella
prunus
prut
prutsen
prutser
pruumn
pruuschn
pruusische
pruusn
pruussisch
pruussische
pruussn
prys
pryzn
ps
psalm
psalmn
psalms
psc
pseudo
pseudoniem
pseudotsuga
psv
psychoanalyste
psychologie
psycholoog
pt
ptolemaeus
puber
pubescens
public
publications
publiceerde
publiceern
publiceert
publicist
publicoasje
publicoatie
publiek
publieke
publiekelik
publique
published
publisher
publishers
publius
pudding
puente
puerto
puglia
pukkelpop
pulle
pumila
punk
punt
punteboai
punten
puntig
puntige
puntje
puntn
puntnklassement
pupe
pupegoale
puppe
puppets
puppn
pure
puree
purper
purpern
purpre
purpurea
pussycat
put
puterek
putorius
putte
putter
puudn
puupn
puuptje
puur
puut
puutn
puy
puype
pvda
pvv
pykes
pyl
pyle
pyln
pyls
pynboom
pynboomachtign
pynboomn
pyndershuus
pyne
pynn
pynoo
pyramide
pyre
pyreneee
pyreneen
pyrrhula
pyrus
pz
q
qatar
qing
qua
quadruple
quaghebeur
quartier
quatorze
quatre
que
quebec
quechua
queen
queens
quellinus
quentin
quentinkerke
quercus
querido
quesnoy
qui
quick
quickenborne
quickstep
quiet
quinn
quiz
quod
r
ra
raad
raar
raas
rabat
rabin
rabobank
racconigi
race
races
raches
rachter
racine
racing
rackham
rad
radingem
radio
radioactief
radiohits
radiopresentateur
radiopresentatrice
radiozender
radsel
raf
rafae
rafael
rafflesia
rails
raimbeaucourt
rain
rainer
rakel
rakels
raket
rakt
rakte
ralachtign
rale
ralf
ralle
rallidae
rallus
rally
ralph
ramallah
ramegnies
rami
rammelaere
ramon
ramone
ramones
ramoudt
rampe
ramskapelle
ran
rana
rand
randstad
rang
range
rangifer
ranglyste
rank
ranunculaceae
ranunculales
ranunculus
raoul
rap
rape
rapgroep
rapid
rappe
rapper
rappn
rapste
rapstn
rarchie
rard
rare
ras
rassn
rat
rathaus
ration
rationoale
ratje
ratn
ratte
rattn
rattus
rau
rault
rauw
raveel
ravenna
raversyde
raw
ray
raymond
rberge
rbergn
rbergt
rc
rd
rda
rde
rdee
rdichtienge
rdige
rdinoatn
rdn
re
reacsje
reactie
reacties
reading
reagan
reageerde
reageern
reageert
reaksje
reaksjes
real
realisme
realistisch
realistische
reality
rebbekwalln
rebbn
rebel
rebelleerde
rebellie
rebelln
rebry
reburger
recent
recente
recentelik
recept
rechs
recht
rechtbank
rechtbankn
rechte
rechten
rechter
rechterkant
rechteroever
rechters
rechtet
rechthoekig
rechtn
rechtoek
rechtoekigen
rechtover
rechts
rechtse
rechtsgebied
rechtsgele
rechtsprake
rechtstreeks
rechtuut
rechtvleuglign
reclame
reconstructie
recor
record
recordouder
records
recreatieve
rector
red
redacteur
redactie
redder
reddienge
reddn
reddy
rede
redelik
redelikke
redelyk
reden
redenoare
redens
reder
rederyker
rederykers
rederykerskoamer
rederykerskoamers
redmond
ree
reed
reedlik
reedn
reedns
reeds
reee
reegeln
reeglmoatig
reeglmoatige
reegls
reegn
reegnbus
reegnbusschn
reegnvol
reegnworms
reeke
reekn
reeknen
reeknn
reeks
reekse
reeksn
refereert
reference
references
referendum
reflections
reformoasje
refrein
refuge
refuseerde
refuseert
reg
rega
regeerde
regeerdeg
regeerdn
regeerienge
regeern
regeerperiode
regeert
regel
regelde
regelienge
regelmoatig
regelmoatige
regeln
regels
regelt
regen
regensburg
regent
regente
regentesse
regentschap
regerienge
regeringe
reggio
regi
regie
regierungsbezirke
regime
regiment
regina
reginald
reginar
reginars
regio
region
regionaal
regional
regionale
regionoal
regionoale
regions
regisseur
register
registers
regnorum
regnum
regressie
reguliere
reie
reien
reiger
reigers
reign
reims
rein
reinaert
reinald
reinhild
reinier
reiniers
reinoud
reinout
reis
reisde
reisprogramma
reist
reiste
reisverhalen
reitje
reitjes
reize
reizigers
reizn
reke
rekenienge
rekkem
rekonstruuksje
reks
reksche
rekse
rel
related
relatief
relatieve
relationships
relay
reld
reldorloge
release
released
relie
reliekn
religie
religieus
religieuze
relikwie
relln
reloasje
reloasjes
reloatie
rem
remains
rembert
rembrandt
remember
remembrance
remi
remigius
remix
remo
remorke
remus
ren
renaat
renaissance
renaissancestyl
renault
renchies
rende
rene
reng
renier
reninge
reningelst
renne
renner
rennes
renong
rente
repertoire
replekkn
replica
report
reportage
reporter
reptieln
repu
republic
republiek
republiekn
republik
republika
republikeinsche
reputoasje
reputoatie
requesens
requiem
rer
rerum
res
rescue
research
reserve
residensje
residentie
resources
respect
respectievelik
respektievlik
respoee
rest
restant
restantn
restaurang
restaurangs
restaurant
restaureern
restauroatie
reste
restn
restorang
restorangs
restoroasje
resulteerde
resulteert
resultoat
resultoatn
rete
rethel
reticulum
retie
retitel
reto
retranchement
retrieved
return
reuke
reuma
reus
reuze
reuzekoor
reuzen
reuzn
reve
review
revolte
revolucions
revolutie
revolutionair
revolutionaire
revolutionairn
revoluusje
revoo
revue
rex
rey
reybrouck
reye
reyger
reygers
reyn
reynaerde
reynaert
reynders
reyngrenze
reynkanoal
reynland
rez
rfst
rhea
rhead
rhein
rhin
rho
rhs
rhythm
ri
ria
riario
ribemont
ric
rica
rich
richard
richebourg
richilde
richildis
richmond
richt
richten
richter
richterschoale
richtieng
richtienge
richtienk
richting
richtinge
richtn
richtte
rico
ridder
ridderorde
ridders
ride
rider
ridge
ridibundus
rie
riee
riekn
rieko
riekt
rien
rienge
riengels
riengn
riengvoart
rienk
riep
riepn
riept
riera
riet
rietsuker
rieure
rieviere
rieviern
rif
rifka
rig
riga
rige
right
rignies
rigord
riguelle
rigueux
riis
rij
rijksarchief
rijkswaterstaat
rijn
rijsbrack
rik
rikkeburg
rilke
rime
rin
rine
ring
ringen
rink
rinnegelst
rint
rio
rios
riot
rip
rippebliek
ripuarische
rise
risico
risme
rissel
ristisch
ristische
ristn
rit
rita
ritchie
ritmegitaar
rittn
rivaliteit
river
rivie
rivier
riviere
rivierke
riviern
riviertje
rivoal
rivoaln
rize
rk
rkend
rkende
rkenn
rld
rlitz
rloge
rn
rna
ro
road
roadgever
roadn
roadsman
roadzoale
roakn
roald
roape
roapn
roar
roare
roars
roatlpopliere
roave
roavn
roazn
rob
robbe
robbie
robbrecht
robeke
robert
roberts
robertynn
robin
robinson
roboais
robrecht
rocca
roche
rochefort
rochester
rocht
rochte
rochtn
rochus
rochuskerke
rock
rocket
rockgroep
rockmuzikant
rockox
rocky
rococo
rode
rodenbach
rodentia
rodin
rodrigo
rodriguez
roe
roeier
roein
roekn
roekoe
roel
roeland
roels
roelstraete
roemeens
roemenie
roend
roende
roenk
roepn
roepnoame
roept
roermond
roern
roesbrugge
roeselare
roeseloare
roeseloars
roeseloarsche
roesschaert
roest
roestn
rogaland
roger
rogers
roges
rogge
rogier
roi
roidkin
rois
roje
roksem
rol
roland
rolarius
rolin
roll
rolland
rolle
rollegem
rolling
rolln
rollo
rolluik
rolt
rom
roma
romaans
romaansche
romaanse
romagna
romain
roman
romana
romance
romandie
romane
romang
romangs
romani
romano
romantiek
romantiesche
romantisch
romantische
romanum
rombout
romboutskathedroale
rome
romein
romeinen
romeinn
romeins
romeinsche
romeinschn
romeinse
romeinsn
romelu
romeo
romeynsche
romeynschn
rominse
rommel
romoans
romoansche
romoanschn
romoanse
rompaey
rompuy
romsdal
romulus
ron
ronald
ronchin
rond
ronda
ronde
rongy
ronne
ronnes
ronny
ronsard
ronse
ronymus
roo
rood
roof
roofbe
roofbeestn
roofveugels
rooie
rook
rookn
room
rooms
roomsche
roomse
roos
roose
roots
roovere
roovn
rooze
rop
roport
ros
rosa
rosaceae
rosales
rose
roses
rosie
rosika
roskilde
ross
rossem
rossi
rosso
rossom
rost
roste
rosult
rotoasje
rotsachtig
rotsachtige
rotse
rotsen
rotsgebergte
rotsn
rotte
rotterdam
rouanne
roubaix
roubei
rouen
rouge
roularta
round
roundboge
roundboogn
rounde
rounder
roundes
roundn
rousseau
roussillon
route
rouvres
rouwe
rovere
row
rowe
roy
royal
royale
rozala
roze
rozemareyn
rozen
rozendoale
rozenhoedkoaie
rpa
rpien
rre
rro
rs
rsantn
rsc
rse
rsje
rste
rstel
rsteld
rt
rtachtign
rtbf
rte
rtekerke
rtl
rtn
rtoogn
rttemberg
ru
ruanda
ruben
rubens
rubriek
rubroek
rubrouck
rubus
rudd
ruddervo
ruddervoorde
rudi
rudolf
rudy
rudyard
rue
rues
ruff
rufus
rug
rugby
rugge
ruggegroate
rui
rules
rumbeke
rumegies
rumes
run
rund
runders
rupel
rupelmonde
rupo
rupse
rupsn
rus
ruska
rusland
russia
russian
russiesch
russiesche
russisch
russische
russischn
russn
rust
ruste
rustig
rustige
rustn
ruta
rute
ruth
rutte
ruud
ruugpo
ruum
ruumte
ruumtelikke
ruumtetelescoop
ruuscheure
ruuslee
ruut
ruuwe
ruuzje
ruuzjes
ruw
ruwe
ruwoard
ruwweg
ruyskensvelde
ruyslinck
ruyter
ruze
ruzie
rv
rva
rvan
rvoat
rvormiengn
rwanda
ry
ryan
ryckaert
ryckeboer
ryd
ryder
rydn
rydt
ryen
ryk
rykdom
ryke
rykers
rykke
rykn
ryksdag
ryksgrenze
ryksmiddelboare
ryksmonument
ryksmonumentn
ryksmonumentoale
ryksmuseum
rykste
ryksvloandern
rym
rymn
rymtje
ryn
rype
rypeid
rypn
rys
rysel
rysels
ryselse
ryselstroate
rysselendemeulne
rystepiet
rzburg
rzien
rzitter
rzynn
rður
s
sa
saami
saba
sabam
sabbath
sabbe
sabine
sachsen
sacramento
sacro
saddam
saedeleer
saeftinghe
saelens
safety
saga
sagan
sage
sagen
saguenay
sahara
said
saigon
sailly
saint
sainte
sakhalien
sakhalin
saksen
saksisch
saksische
saksn
sal
saladin
salamander
salamanders
salamandra
sale
salie
salient
salisbury
salisch
salische
salix
salm
saloa
salome
salomon
salon
salvador
salvator
salvatore
salvatorskathedraal
salvatorskathedroale
salvatorskerke
salzburg
salzkammergut
sam
samaey
samaniego
samara
samarietoan
samber
sambre
sambuca
sambucus
same
samen
samenstellienge
sami
samisch
sammy
samson
samuel
san
sanatorium
sanchez
sancho
sancti
sanctie
sand
sanders
sanderus
sandra
sandriejees
sandro
sandy
sankt
sans
sanskriet
sant
santa
santeboetiek
santi
santiago
santn
santo
santos
santy
sanzaidorj
sao
saoedi
sap
sapiens
sapindaceae
sar
sara
sarah
sarajevo
sardinie
sark
sarlat
sars
sarstedt
sart
sarthe
sarto
sarze
sas
saskia
sasso
sastre
satelliet
satellietn
satire
satirisch
satirische
sativum
saturnus
sause
sauwens
sava
savann
savanne
save
saverys
savoie
savona
savonarola
savoye
sax
saxo
saxofong
say
sayre
sc
scandinavian
scandinavie
scandinoavie
scardinius
scarpe
scarphout
sce
scenario
scenarioschryver
scene
sch
scha
schaan
schaarbeek
schaduw
schaduwe
schaepdrijver
schaft
schanse
schansn
schansspringers
schansspringn
schat
schatbewoarder
schatje
schattienge
schattiengn
schattn
sche
schedel
schee
scheeboogn
scheel
scheepn
scheepnhuus
scheepvoart
scheidsrechter
scheikunde
scheikundig
scheikundige
scheikundign
scheirmesschelpe
schelde
scheldegotiek
scheldeprys
scheldwoord
schele
schelle
schelln
schelpbe
schelpe
schelpn
schema
schenkienge
schepens
scheppienge
scheppn
scheppnde
schept
scherm
schermblommign
schermn
scherp
scherpe
scherper
scherpn
scherpnberg
scherpnheuvel
schertsende
schets
schetsn
schette
scheur
scheure
scheurn
scheute
scheutn
scheveningen
schidde
schiddienge
schidt
schie
schiedam
schienkn
schient
schier
schiereiland
schiereilandn
schiereyland
schiet
schieten
schietn
schild
schilder
schilderde
schilderen
schilderesse
schilderie
schilderien
schilderkunst
schilderkunste
schildern
schilderoare
schilders
schildersgilde
schildert
schildery
schilderye
schilderyen
schilderyn
schildre
schiltz
schimmel
schimmels
schimmls
schip
schippers
schleck
schleswig
schloss
schmidt
scho
schoa
schoakel
schoale
schoanste
schoap
schoapn
schoarbeek
schoarn
schobeke
schoe
schoeisel
schoen
schoenen
schoenk
schoenn
schoepen
schoere
schoern
schoers
schoes
schof
schok
schole
scholen
schommel
schonbroere
schonder
schone
schonste
schonvoader
schonzeune
school
schoole
schoolme
schooln
schoolslag
schooltje
schoon
schoone
schoonheid
schoonn
schoonselhof
schoonste
schootn
schoovn
schop
schore
schorpioenn
schorre
schorregebied
schorrn
schors
schorse
schossene
schot
schotland
schots
schotsche
schotschn
schotse
schotsn
schotte
schottn
schounk
schouteet
schoutteet
schouwburg
schouwe
schouwn
schouwte
schowne
schowte
schre
schree
schreef
schreeft
schreeve
schreevn
schrei
schreif
schreve
schrift
schrifte
schrijven
schrik
schrikkeljoar
schryfster
schryfstre
schryft
schryfwyze
schryn
schryven
schryver
schryvers
schryvn
schryvr
schryvre
schryvrs
schubbe
schubbn
schubn
schubreptieln
schubvleuglign
schuddn
schufeln
schuferskapelle
schuld
schuldig
schuldiner
schuldn
schumacher
schusse
schutbloadige
schutbloarn
schutteldoek
schuttels
schuufle
schuum
schuuvn
schuw
schwa
schwarze
schwichtenberg
schynbeukn
schynboar
schynboare
schynn
schynt
schyte
schyve
schyvn
science
sciences
scientific
scilly
sco
scone
scoorde
scoorn
scoort
scophthalmus
scoren
scorzonera
scotia
scotland
scots
scott
scottish
scouts
scream
scripta
scrofa
scuderia
sculpture
se
sea
sean
seapark
seaside
seasons
seattle
sebastian
sebastien
sebiet
secitse
secondary
seconde
secondn
seconds
seconn
secret
secretoaris
secteur
sectie
section
sections
sector
secundair
secundaire
sedert
sedertdien
sedes
sedimentair
sedis
see
seed
seeland
seele
seen
seenappel
seerje
segmentn
seigneur
seine
seinen
seismische
seizoen
seks
seksueel
seksuele
selder
selected
selectie
selection
selektie
semi
seminarie
seminoarie
seminoarje
semois
sempervirens
sen
senateur
seneca
senegal
sengin
senior
senlis
senoat
sens
sent
sente
sentimento
sentroal
sentroale
seoel
seoul
sep
sepia
sepolto
seppen
september
septembre
sequedin
sequences
sequoia
sequoiadendron
ser
seraing
sercu
serge
sergeant
sergio
sergius
serie
series
serieus
serieuze
serjeus
serjeuze
serooskerke
serra
serre
servaes
servais
serve
server
service
services
servie
servisch
servische
ses
sesam
sesamum
sesamzoad
set
setoe
sets
seule
seute
seven
seventh
several
severance
severen
severus
sevilla
sex
sextus
sexuelle
sexy
seymour
seynhaeve
sezoe
sezoee
sezoen
sezoenn
sfeer
sforza
sg
shadows
shah
shakespeare
shakira
shall
shanghai
shannen
sharon
she
shea
sheets
sheffield
shepherd
shetlandeilandn
shield
shirley
shop
short
shot
should
show
shows
shuttle
shuttlemissie
si
sia
sibeerje
siberia
siberian
siberie
siberische
sibirica
sibylle
sichten
sichtend
sichtent
sichuan
sicilia
sicilie
sicilioans
siddert
sidney
sie
siebeeriesche
siebeerje
siegfried
siena
sient
sierplantn
sierra
sies
sifong
sigismund
sigmund
sigrette
sigrettn
sigrid
sijn
sikelin
sikhote
sikkel
silezie
silezisch
silezische
silicium
silk
silva
silver
silvester
silvesterstrips
silvestris
simenon
simoen
simoens
simon
simone
simoni
simons
simpel
simpele
simpeln
simpelweg
simple
simpson
simpsons
sin
sinatra
sincfala
sind
sinds
sindsdien
sine
sinensis
singapore
singel
singels
singem
single
singles
sins
sinsdien
sinsn
sinsndien
sint
sinte
sintekloai
sinterklaas
sintn
sioen
sir
sire
sisi
sison
sister
sisters
sitchensis
site
sites
situoasje
situoasjes
situoatie
six
sixtus
sixtynsche
sizoen
sizoenn
sjantar
sje
sjette
sjieke
sjiietn
sjoukje
sjouwer
sjælland
sk
ska
skagerrak
skandienoavje
skandienoavsche
skarbina
skarpe
ske
skeepn
skelde
skelet
skerke
sketch
ski
sko
skoa
skoale
skoenn
skole
skoolslah
skull
sky
slaan
slaap
slabbetje
slabbynck
slachtn
slachtoffer
slachtoffers
slag
slagveld
slak
slam
slange
slangn
slank
slanke
slapende
slapers
slapkeirl
slapkle
slapratte
slaprattn
slapt
slav
slave
slavinne
slayer
sle
slecht
slechte
slechts
sleedo
sleen
sleeswyk
sleevie
slekke
slekkn
slekn
slendingabo
slenteren
sleutel
sleutelbe
slicht
slichte
slichter
slichtn
slichtste
sliek
sliern
slikke
slikkn
slim
slimme
slimste
slingeneyer
slo
sloagde
sloagn
sloagt
sloan
sloape
sloapn
sloat
sloavische
sloavn
sloeg
sloegn
slogan
sloot
slootn
slot
slovakeye
slovenie
slovoaksche
slow
sluffer
sluffers
sluier
slunse
slurf
sluus
sluuswachter
sluut
sluutn
sluuzn
sluze
sluzen
slyk
slym
slype
slyps
sm
smaak
smakt
smal
small
smalle
smalste
smashed
sme
smeednreie
smeepo
smeet
smeiren
smeken
smelt
smeltn
smesse
smet
smetana
smetje
smile
smith
smo
smoak
smoake
smoakn
smoel
smoke
smokkeln
smol
smolle
smoller
smolste
smout
smurf
smurfen
smurfn
smyt
smytn
sn
snake
snakkn
sne
snee
sneeuw
snel
snelheid
snelle
snellegem
sneukelienge
sneuvelde
sneuveln
sneuvelt
snippn
snoarn
snoaskerke
snoavel
snoek
snoeks
snoep
snooker
snorri
snow
snugger
snute
snuyte
snyen
snytandn
so
soablemartre
soamen
soamn
soamngesteld
soamnlevienge
soamnstellienge
soamnvattienge
soamnvloeiienge
soamnvoegynge
soamnwerkienge
soap
soarland
soarte
soartn
sobe
soc
sociaal
social
sociale
socialisme
socialist
socialistische
socialistn
socie
society
socioal
socioale
socrates
soderini
soe
soedan
soennietn
soennisme
soepe
soete
soetkin
soeverein
soevereine
soevereiniteit
sofia
sofie
software
soir
soissons
sokkel
soks
sol
solanum
soldaat
soldaten
soldatenfriedhof
soldier
soldoat
soldoatekerkof
soldoatn
solen
solitaire
solitude
solnhofen
solo
solvay
som
somalie
somalische
some
somebody
somerset
something
somme
sommige
sommigen
sommign
sommigste
sommigte
soms
somsteke
somtyds
son
sonate
sonette
song
songfestival
songs
sonne
sonnets
sons
sont
soo
soort
soorte
soorten
soortenbank
soortn
sop
sophia
sophie
sophocles
sophora
soproan
sorry
sorte
sorten
sortn
sos
sosisong
sosjoale
souda
soul
sound
sounds
soundtrack
south
southampton
southern
souvenir
souvenirs
sovjet
sovjetrepubliekn
sowrt
sowrte
soyuz
sp
spa
spaans
spaansche
spaarne
space
spaceshuttle
spain
spajje
spanje
spanjoard
spanjoardn
spanjoarn
spann
spannienge
spanniengn
spanwydte
sparre
sparrn
sparta
spe
speciaal
special
speciale
specialist
specialistn
specialiteit
species
specifiek
specifieke
specioal
specioale
specioalen
specioaln
spectaculaire
spectrum
speculoasje
speed
speeglreie
speel
speelbucht
speeldag
speelde
speeldeg
speeldege
speeldegen
speelder
speelders
speeldige
speeldn
speelgoed
speelmansreie
speeln
speelnde
speelster
speelt
spegel
spegelreie
spegeltest
speitn
spek
spekke
spekkn
spel
spelcomputer
spelen
speler
spelers
spellement
spelletje
spelletjes
spellienge
spelling
spencer
sperma
spermalie
sperwer
speyer
spezia
spiegel
spiegelrei
spiere
spierekanoal
spierinck
spiern
spierweefsel
spil
spillebeen
spillement
spilliaert
spilt
spin
spinn
spinola
spinus
spirit
spirituele
spiroalsgewyze
spirou
spits
spitsbergn
spitsboge
spitse
spitsmuuzn
split
splitsienge
splitsn
splitst
splitstn
spo
spoans
spoansch
spoansche
spoanschn
spoanse
spoarn
spoeln
spoense
spoensn
spoleto
sponsors
spontoan
spoor
spoorlyne
spoorn
spoorweg
sporen
sport
sportcentrum
sportdirecteur
sportief
sporting
sportjournalist
sportman
sportn
sportploeg
sports
sportverdienste
sportverslaggever
sportvrouwe
spot
spp
sprak
sprake
spre
spreek
spreekn
spreekt
spreken
spreker
sprekers
spreuke
spriengn
spriengt
sprienkoanders
sprienkoann
spriet
sprikt
spring
springer
springers
springfield
springn
springt
sprint
sprinter
sprinters
sprintn
sproake
sproakn
sprooksjes
sproung
sproungn
spruce
spurs
spuutn
spyker
spyt
spytig
sqrt
square
squatina
sr
sri
sry
ss
ssc
sse
sseldorf
st
sta
staak
staan
staat
staavn
stabiel
stabiele
stad
stade
stadhouder
stadhuus
stadhuys
stadion
stadiong
stadium
stadje
stadjes
stads
stadsarchitect
stadsbesteur
stadsbestier
stadsbestuur
stadscenter
stadscentrum
stadsde
stadsdistrictn
stadsgezicht
stadslucht
stadsmeur
stadsmeurn
stadsomroep
stadsomwallienge
stadspark
stadspo
stadspoorte
stadspoortn
stadsrechtn
stadsschouwburg
stadstitel
stadswalln
stadswoapn
stadt
staduus
staelens
staes
staf
stafford
staffordshire
stage
stagiair
stak
stalbemt
stalhille
stam
stamboom
stamcafe
stamde
stamdeg
stamhertogdom
stamhertogdommn
stamhertogdomn
stamhoofd
stamme
stammn
stamn
stamnumero
stamnummer
stamnummero
stamt
stamvoader
stan
stanbeeld
stand
standaard
standaardnederlands
standard
standbe
standbeeld
standbild
standoard
standoardvlams
standpunt
standpuntn
standvastig
stank
stanley
stanza
stanzas
stanze
stanzn
stap
stappn
stapte
staptje
star
stardust
stars
start
starten
startn
startte
statbel
state
staten
states
statie
station
statistics
statistiek
status
statuut
stave
ste
steak
stede
stedelijk
stedelik
stedelike
stedelikke
stedelyk
steden
stee
steed
steedelyke
steedlikke
steedn
steeds
steeg
steeghere
steej
steejn
steek
steekn
steekspeeln
steekspel
steekt
steel
steelant
steeln
steels
steen
steenbeke
steenbergen
steenn
steens
steenstraat
steentyd
steenvoorde
steenweg
steenwerk
steeple
stef
stefaan
stefan
stefanie
stefano
stefanus
stegers
steile
steinbach
steinbeck
steinway
steirt
steirtje
steirtme
steirtmeze
steken
stekene
stekker
stekkerdroad
stekkers
stekkn
stekveugels
stel
stelde
steldn
stelen
stella
stellaria
stellen
stellienge
stellingmeuln
stelln
stelsel
stelsels
stelt
stem
stemlo
stemme
stemmen
stemmn
stemn
stempel
stemt
sten
stene
stenen
stenopus
step
stephan
stephansdom
stephen
steppe
ster
sterbeeck
sterchele
sterfbedde
sterft
sterk
sterke
sterken
sterker
sterkn
sterkste
sterkte
stern
sternn
sterns
sterre
sterrebe
sterrebeeld
sterrebus
sterreich
sterrekundign
sterren
sterrenbeeld
sterrenstelsels
sterrewacht
sterrn
sterrnhoopn
sters
stervn
steun
steunbeir
steunbeirn
steunde
steundn
steunn
steunt
steur
steve
steven
stevens
steverlynck
stevie
stevig
stevige
stevin
stevinpling
stewart
steyermark
sticht
stichtegn
stichter
stichters
stichtienge
stichting
stichtn
stichtse
stichtte
stief
stiefvoader
stiel
stiengel
stiengels
stienkende
stienker
stier
stierf
stierft
stiermarkn
stiervn
stif
stijl
stijn
stik
stikk
stikken
stikkn
stikn
stiksje
stiksjes
stikske
stikskes
stikstje
stikstof
stikstoffe
stikt
stil
still
stille
stillekesan
stillen
stilletjesan
stilln
stiln
stilte
stimuleern
stive
stn
stnryk
sto
stoa
stoadn
stoake
stoakmeuln
stoakn
stoal
stoaln
stoalso
stoan
stoand
stoande
stoapel
stoasegem
stoasje
stoasjes
stoat
stoate
stoaten
stoatie
stoaties
stoatn
stoatr
stoats
stoatservormienge
stoatshervormienge
stoatshoofd
stoatsman
stoatsprys
stoatssecretoaris
stoatus
stoavel
stockholm
stockton
stoeg
stoegn
stoel
stoeln
stoen
stoend
stoendn
stoendr
stoenn
stoet
stoete
stoeten
stoetn
stof
stoffe
stoffelik
stoffen
stoffn
stoffoasje
stofn
stok
stoke
stoker
stokkn
stoksje
stol
stom
ston
stond
stondn
stone
stonehenge
stones
stoofstroate
stookn
stoom
stoommachine
stoop
stoops
stooringe
stoot
stop
stopgezet
stopn
stopp
stoppen
stoppn
stopt
stopte
stoptige
stoptn
store
storm
storme
stormn
stormvloed
stort
story
stot
stound
stoundn
stout
stoute
stoutn
stove
stoven
stovers
straat
straatnamen
straatsburg
straeten
straf
straffe
straffen
straffn
strafkolonie
strafpuntn
strafte
straight
straks
stralsund
strand
strange
strangegoaper
strangeloper
strangelopers
strasbourg
strategisch
strategische
straten
stratje
stratjes
stratosfeer
straubing
strauss
stravve
stravver
stre
streek
streeke
streekn
streektoale
streektoaln
streep
streepn
street
streevn
streke
streken
strekkn
strekt
strekte
strelasund
strepe
stress
streuvels
strieng
strienge
striepe
striepn
strikt
strikte
string
strip
stripreekse
strips
stripte
striptje
stro
stroale
stroalienge
stroalkapelln
stroaln
stroalt
stroalvinnige
stroalvinnign
stroat
stroate
stroatn
stroatnoame
stroatnoamn
stroatsburg
stroazele
stroke
stromienge
stroo
stroofe
strooi
strooke
stroom
stroomde
stroomgebied
stroomn
stroomt
strop
stropers
strubbe
structeure
structeurn
structure
structureel
structurele
structuur
structuurn
struik
struise
struke
strukteure
struthio
struuk
struuke
struukgewassn
struuklandn
struukloage
struukn
struusveugel
struusveugels
stryd
stryders
strydkrachtn
strykers
sts
stuart
stude
studeerde
studeerdege
studeern
studeernd
student
studenten
studentn
studeren
studie
studies
studio
studioploate
study
stuk
stunt
stuntman
stute
stuttgart
stuudje
stuudjes
stuufmeel
stuuk
stuukn
styf
stygn
stygt
styl
style
styln
styve
styvn
su
sub
subalpiene
subductie
subfamilie
subfamilies
subiet
subite
subklasse
subkontinent
suborde
subsidies
subsp
substamme
subtroopiesche
subtropiesche
subtropisch
subtropische
succes
successieoorlog
successieoorloge
successn
succesvol
succesvulle
such
sud
sue
sueevn
suffolk
suicide
suidae
suisse
suite
suker
sukerbe
sukerbo
sukers
sul
sulfer
sulferberg
sulle
sullivan
sulpice
sulpicius
sultan
sumatra
summer
sun
sunday
sung
sunset
sunweb
super
supercontinent
supercup
superfamielje
superfamilie
superia
superieure
superior
superklasse
superorde
superprestige
supplinburg
suppo
supporters
sur
suriname
surrealistische
surrey
surtoe
surtou
surtout
survey
sus
susan
susanna
suske
sussex
sutter
suuker
suve
suyker
suykers
suzanna
suzanne
suzerein
sv
sven
sw
swaabische
swaabn
swaen
sweet
swift
switch
syagrius
sydney
syfilis
sylvain
sylvatica
sylve
sylvesterkerke
sylvestris
sylvia
symboliek
symbolisch
symbolische
symbolisme
symbool
symbooln
symfonie
symmetrisch
sympathie
sympathiee
symptoomn
syn
synapsida
syndroom
synode
synoniem
synoniemn
synthe
synthese
synthesizers
syrie
syriesche
syrische
syroope
sys
syse
syste
systeem
systeim
system
systematics
systemoatisch
syzygium
sze
t
ta
taag
taal
taalunie
taamlik
tabel
tabelle
tachentig
tachntig
tachtig
tachtigjoarign
tachyglossus
tacitus
tack
tael
taeldeman
tafere
tag
tagetes
taiga
taintignies
taipei
taiwan
tajga
tajgas
tajo
tak
take
takkenkind
takkn
takko
taksa
taksje
taksjes
taksnomoomiesche
tal
talbot
tale
talent
talk
talpa
tan
tand
tanden
tandn
tanger
tanghe
tango
tani
tank
tann
tant
tante
tantist
tanzania
tapyt
tapytn
tarandus
tarente
targa
tarn
tasman
tasmanie
tataars
taxaceae
taxi
taxodium
taxonomic
taxonomie
taxonomische
taxonomy
taxus
taylor
tbilisi
tc
tchmil
te
tea
team
teams
teau
tech
techniek
techniekn
technisch
technische
technologie
ted
tee
teeg
teegn
teegngoan
teegnhanger
teegnkeunienk
teegnkomn
teegnoovre
teegnoovrestoande
teegnover
teegnpaus
teegnsloagn
teegnstand
teegnstander
teegnstanders
teegnstellienge
teegnstellynge
teegnwo
teegnwoordig
teegwo
teekn
teen
teens
teetn
tefe
teffrente
tefrente
tegelyk
tegelykertyd
tegen
tegenaria
tegendraads
tegengestelde
tegenkomt
tegenover
tegenstander
tegenstanders
tegenstellienge
tegenstellinge
tegenwo
tegenwoordig
teglyk
tegoare
teilhard
teim
teirlienks
teirlinck
teit
teitn
teitur
teken
tekeniengn
tekniek
tekort
tekst
tekstdichter
tekste
teksten
tekstn
tekstschryver
tektonische
tel
telde
teldege
telemann
telemark
telescoop
telescoopn
televiezje
televisie
televisieserie
telg
telindus
tell
teller
tellienge
telln
telt
tem
tember
temidd
temiddn
teminste
temme
temmen
temmerman
tempel
tempelcomplex
tempeliers
tempels
temperate
temperateure
temperateurn
temple
templemars
templeuve
tempo
temprateure
temprateurn
temse
ten
tendances
tende
tenden
teniers
tennessee
tennis
tennisclub
tennisser
tennisspeelster
tennisster
tennyson
tenslotte
tente
tentn
tento
tentoakels
tentoonstellienge
tentoonstellynge
tenuifolia
ter
terdegem
tere
terecht
terechte
terechtgesteld
tereke
teresa
terkoeje
term
terme
termietn
terms
termyn
terneuzn
ternynck
terplekke
terra
terrarum
terras
terrasse
terre
terrebut
terrestrial
terrestrische
terreurgroep
terring
territoria
territories
territorioale
territorium
territory
terroristn
terry
ters
tert
tertn
tertry
terug
tervuren
terwaan
terwe
terwijl
terwoan
terwyl
terzelfdertyd
tes
teschen
tesoamen
test
testament
tetegem
teten
tetraoninae
tetrapoda
tette
tettienk
tettienks
tettigoniidae
teure
teusje
teutoonsche
teveele
tevele
texas
texel
text
textiel
textielindustrie
texts
tge
tgeen
tgenbach
tgv
th
tha
thailand
thales
thalys
than
that
the
theater
thebe
thee
theems
their
them
thema
themo
thems
then
theo
theoater
theodoor
theolo
theologie
theologische
theoloog
theophanu
theoretisch
theoretische
theorie
there
theresia
thes
these
theta
theuderic
theuderik
theuninck
theutberga
they
thi
thia
thibaut
thie
thielemans
thierry
thing
thio
this
thomas
thompson
thomson
thope
thor
thorax
thorn
thorntonbank
those
thought
thouroutenaere
thracie
thrash
three
thriller
through
thu
thuis
thuja
thumeries
thumesnil
thune
thus
thuus
thuuswedstrydn
ti
tibbaut
tiber
tiberius
tibet
tibetoansche
ticino
tid
tie
tied
tiegem
tiek
tielik
tielt
tielts
tien
tiende
tiene
tienen
tienge
tiengels
tienke
tienn
tienne
tienpo
tienste
tienstn
tientalln
tietle
tiger
tign
tigris
tijd
tijdens
tijdschrift
tijl
till
tillefong
tillegem
tilleviezje
tillon
tilloy
tim
timber
time
times
timmermans
timor
tin
tindemans
tine
tineke
tintin
tintoretto
tirana
tirette
tirol
tirreno
tis
titan
titanic
titel
titelnummer
titels
titelsong
titiaan
title
titles
titulair
titus
tje
tjestig
tjie
tjingstjeraraboem
tjoenkershove
tjoenkesove
tjoetn
tlp
tmf
tn
to
toa
toafel
toaie
toake
toakn
toal
toale
toalen
toalfaciliteitn
toalfamilie
toalgebied
toalgebruuk
toalgrenze
toalgroep
toalgroepn
toalkunde
toalkundig
toalkundige
toalkundign
toaln
toamelik
toamelyk
toan
tobago
toch
tocht
toe
toebak
toebaksmuseum
toeda
toedat
toedoen
toegang
toegangspo
toegank
toegankelik
toeganklik
toegediend
toegekend
toegeloatn
toegenoomn
toegepast
toegepaste
toegeschreevn
toegestoan
toegevoegd
toegeweezn
toekommn
toekomst
toekomste
toekomstige
toekomstign
toekomt
toeloatienge
toeloatn
toen
toenda
toendra
toene
toenge
toengern
toengn
toenmoalige
toenoame
toepassienge
toepassiengn
toer
toeriestiesche
toeriestn
toerisme
toeristisch
toeristische
toeristn
toern
toernee
toerno
toernooi
toeroet
toespelle
toesproake
toestand
toestandn
toestel
toestemmienge
toet
toeter
toetredienge
toetse
toetsn
toeval
toevallig
toevlucht
toevoegienge
toevoegn
toevol
toezicht
toffeloare
together
toh
toilet
tokio
tol
toledo
tolerantie
tolhuus
tom
tomatte
tomattn
tomb
tombe
tome
tommaso
tommelein
tommy
ton
tone
toneel
toneilstik
tonen
tong
toni
tonight
tonne
tons
tony
toogde
toogdn
toogn
toogt
tools
toon
toope
toopn
toorn
toorns
toornvalke
toots
toovey
top
topclub
tope
topmodel
topomapviewer
toponymie
toppn
toppunt
topschutter
topscorer
topsport
toren
torhout
torment
torno
toromiro
toronto
torpedo
torre
torren
torrent
torrents
torrn
toscane
toscoane
tot
totaal
total
totaliteit
totda
totdat
tote
totoal
totoale
tottenham
tou
touan
toulouse
toun
toune
tounge
toungern
tour
tourhout
tourisme
touristisch
touristische
touristischn
touristn
tourmalet
tourmignies
tourn
tournavys
tournee
tourout
tours
tous
tout
touw
tower
town
toxandrie
toyota
tr
trace
tracht
trachtn
track
tracteur
tracteurs
trad
trade
tradiesje
tradiesjes
tradiesjone
tradisje
traditie
tradities
traditione
traditioneel
traditionele
trage
tragedies
trainer
trainers
trainn
trajanus
traject
tram
trams
tranche
tranen
trans
transbajkal
transcendent
transcriptie
transcriptiefactoorn
transept
transfer
transformers
transgressie
transgressies
transition
translated
translation
translations
transmutoatie
transparent
transport
trap
trapezium
trappe
trappist
trappistn
trappistnbier
trappistnvere
trappn
traveir
travis
tre
tree
treedn
treedt
trees
treffn
treft
treille
trein
trek
trekbe
trekk
trekken
trekker
trekkn
trekn
trekoak
trekt
trekteur
trekteurs
trekveugels
trekzak
tremuloides
trend
trends
trent
trente
trentino
trento
tres
tresse
tresses
tressin
tretat
treurende
treurzangn
treurzank
trias
triathlon
triatleet
triatlon
tribune
tribunoal
tribus
trie
trier
trieste
triestig
triforium
triggerfinger
trigonobalanus
trilliengn
trilln
trilogie
tring
trings
trinidad
trio
triomfboge
trip
tripel
triple
triptiek
tristan
tristig
triticum
triton
triturus
triumviroat
tro
troage
troann
troebel
troef
troenke
troep
troepen
troepn
trofee
trofeo
troglodytes
trois
troje
trok
trokkn
trokt
trolley
trompe
trompette
trompettn
tronto
troon
troopiesch
troopiesche
troopn
tropiesch
tropiesche
tropisch
tropische
tropole
troposfeer
trossn
trottoir
trouw
trouwde
trouwdegt
trouwdige
trouwdn
trouwe
trouwen
trouwens
trouwfe
trouwn
trouws
trouwt
trow
trowde
trown
troyes
trudo
trudoabdye
true
trui
trump
truttes
truudn
tryntje
tryntjes
trøndelag
ts
tsaar
tsje
tsjechie
tsjechisch
tsjechische
tsjecho
tsjechoslovakeye
tsjernobyl
tsjestig
tsjetsjenie
tsjeventig
tste
tsuga
tsunami
tt
tte
tten
ttingen
ttir
ttn
tu
tuberculose
tuchthuus
tuchtig
tudor
tui
tuin
tuinen
tullius
tulpn
tundra
tunesie
tungewelvn
tunis
tunne
tunnel
tura
turbo
turenne
turf
turkey
turkeye
turkije
turkmenistan
turkn
turks
turksche
turkse
turn
turnhout
turnster
turpin
turtelboom
turyn
tusculum
tusn
tussch
tusschen
tusschn
tusschnkomste
tussen
tussenwerpsel
tussn
tut
tute
tutor
tuts
tutte
tuug
tuun
tuus
tuut
tv
tvoader
twa
twadde
twe
twee
tweede
tweee
tweeklank
tween
twei
tweide
tweie
tweirs
tweis
tweisn
twi
twidd
twidde
twidden
twiddn
twie
twien
twientig
twientigst
twientigste
twin
twintig
twintigste
twis
twist
twitter
twjee
two
twoafste
twoalf
twoalfde
twoalfjoarig
twoalfste
twoalve
twolf
twolve
twuk
twyfel
twyfeln
twyge
twygn
ty
tyd
tydde
tyde
tydelik
tydelikke
tydelyk
tyden
tydens
tydetje
tydgeno
tydje
tydn
tydperk
tydrit
tydryen
tydschrift
tydschriftn
tyfoon
tyfus
tyger
tygre
tyler
tym
tyne
type
types
typetje
typies
typiesch
typiesche
typisch
typische
typischen
typn
tyr
tyrreensche
tyrus
tyto
tzelfste
u
ua
ubuntu
uci
udder
uddern
udekem
udige
udine
udo
uefa
uerdinger
uffizi
ugent
ugly
ui
uilenspiegel
uit
uitg
uitgesproken
uitgeverij
uitgevers
uitspreken
uitziend
uitziende
uk
ukkel
uksem
ulder
uldern
uldre
uleb
ulla
ulle
ulleke
ulletje
ulpe
ulrich
ulst
ulste
ulster
um
umberto
umbra
umbrie
ume
un
una
und
under
undere
underground
undern
underne
underworld
undr
undre
une
unen
unesco
ungaretti
unie
unief
uniek
unieke
unif
uniform
unilin
union
unique
unitaire
unitary
united
univ
universe
universitair
universitaire
universite
universiteit
universiteitn
universiteyt
university
universum
uno
unruoch
unruochiengers
uomo
up
upbriengste
update
updracht
upe
upeetn
upegeevn
upericht
upgebouwd
upgebrookn
upgede
upgeevn
upgekocht
upgelost
upgenoomn
upgericht
upgetrokkn
upgezet
upkomste
uplossienge
uplossingn
upnames
upneemn
upon
uppervlak
uppervlakte
uppsala
uprichtienge
upstand
upstandige
upstart
uptellinge
uptreedn
uptreedns
upvolger
upvolgers
upvolln
ur
ural
uralensis
uranus
urban
urbani
urbanus
urbino
uren
url
ursula
ursus
uruguay
urundi
us
usa
usda
use
used
users
usitatissimum
ussr
ut
utah
ute
utendelik
uterste
utgebrocht
utrecht
utrechts
utrechtse
uu
uudige
uudign
uue
uul
uuls
uur
uus
uusvestienge
uut
uutbarstienge
uutbarstiengn
uutbeeldn
uutboatienge
uutbouw
uutbrak
uutbreekn
uutbreidienge
uutbreidn
uutbreydienge
uutbrocht
uutdrukkienge
uutdrukkiengn
uute
uutebrocht
uutegeevn
uuteindelik
uutende
uutendelik
uutendelyk
uutendn
uuterlik
uuteroeid
uuterste
uuteschid
uuteschoakeld
uutestorvn
uutezet
uutg
uutgaf
uutgank
uutgave
uutgebouwd
uutgebre
uutgebreid
uutgebreide
uutgebreyd
uutgebreyde
uutgebrocht
uutgediept
uutgedoan
uutgedrukt
uutgeevre
uutgegeevn
uutgegeven
uutgegroavn
uutgegroeid
uutgekommn
uutgekoomn
uutgele
uutgenodigd
uutgenoomn
uutgere
uutgereikt
uutgeroepn
uutgeroopn
uutgerust
uutgeschoakeld
uutgesproken
uutgesprookn
uutgestorvn
uutgestrekt
uutgestrekte
uutgever
uutgeverie
uutgevery
uutgevochtn
uutgevoen
uutgevoendn
uutgevoerd
uutgevoundn
uutgeweekn
uutgewerkt
uutgezoenderd
uutgezoendn
uutgezond
uutgezondn
uutgezounderd
uutgezoundn
uutgoave
uutgoavn
uutgroeide
uutgroein
uutkerke
uutkom
uutkommn
uutkomn
uutkomste
uutkomt
uutkwaam
uutkwam
uutleg
uutleggn
uutloper
uutlopers
uutmakt
uutmakte
uutmoakn
uutmoendt
uutmoundt
uutno
uutroepn
uutschietn
uutslag
uutsloagn
uutsprake
uutspreekn
uutsproake
uutsproakn
uutsteekn
uutsteeknde
uutstekkn
uutstervn
uutstikt
uutstrekt
uutstroalienge
uutverkocht
uutviender
uutviendienge
uutvinder
uutvliegn
uutvoerienge
uutvoeriengn
uutvoern
uutvoert
uutwendig
uutwendige
uutwerkienge
uutwisslienge
uutzendienge
uutzendn
uutzettn
uutzicht
uutzichte
uutzien
uutziet
uutzoenderienge
uutzoenderlik
uutzoendrienge
uutzoendrlikke
uutzounderienge
uutzounderiengn
uutzounderlik
uuze
uuzetjes
uuzn
uw
uwe
uwelik
uws
uyt
uytendelyk
uytgestorvn
uytgezoenderd
uytzoenderynge
uze
uzen
uzetje
uzetjes
v
va
vaang
vaart
vaastkerke
vaccin
vaccinium
vaccinoasje
vaccins
vacht
vachtegel
vachtegels
vadder
vader
vaderland
vaderlandsche
vadoage
vadsige
vaduz
vagina
vak
vakanse
vakboundn
val
vale
valencia
valenciennes
valencyn
valentino
valerianella
valerius
valine
valkachtign
valke
valkenburg
valkenisse
valknburg
vall
valladolid
valle
valleeje
vallei
valleie
valleien
valleje
vallen
valley
valleye
valln
valn
valois
valparai
vals
valt
valtra
valverde
van
vanachter
vanachtern
vanackere
vanaf
vanalles
vanbinn
vanboovn
vanboven
vandaele
vandage
vandamme
vande
vandecaveye
vandekerckhove
vandemeulebroucke
vandemoortele
vanden
vandenberghe
vandenbroucke
vandenbussche
vandendriessche
vander
vanderbank
vanderbilt
vanderhaeghe
vandermeersch
vandersteen
vanderstichelen
vandewalle
vandewiele
vandoa
vandoage
vandoaln
vandoar
vaneigens
vaneigns
vangen
vangheluwe
vangn
vangt
vanhecke
vanhegen
vanhevel
vanip
vanlerberghe
vanloo
vanmarcke
vanneste
vannieuwkerke
vanof
vanolles
vanonder
vanounder
vanoundern
vansevenant
vansteelant
vansteenkiste
vant
vanthourenhout
vantornout
vantydn
vanuit
vanup
vanut
vanuut
vanuyt
vanwalleghem
vanwege
var
varese
vargas
variant
variante
varianten
variantn
variation
varie
varieern
varieert
varioasje
varioatie
varioaties
various
varjeern
varjeert
varjeteit
varjeteitn
varjoable
varjoasje
varken
varna
varretje
vas
vasari
vasco
vassenoare
vasseur
vast
vaste
vastegeleid
vastegemakt
vastegesteld
vasteland
vasteleggn
vastleggienge
vastn
vat
vaticoan
vaticoanstad
vauban
vaucluse
vaud
vaughan
vaulx
vazal
vazalstoat
vb
vdb
ve
vec
vecchia
vecchio
vech
vecht
vechten
vechter
vechtn
vector
vee
veel
veelal
veele
veelhoek
veeln
veelvroate
veelvroatn
veen
veenendaal
veenn
veer
veere
veerle
veerse
veertien
veertienste
veertig
veezle
veezls
vega
vegetoasje
veghel
vei
veilig
veiligheid
veinsters
veire
veister
veisterluuk
veisters
vel
vela
veld
velde
veldegem
veldeke
veldheer
veldloopn
veldn
veldslag
veldsloagn
veldtocht
veldtochtn
vele
velen
velletje
velletri
velln
velo
velodrome
velokoers
velokoerse
veloroute
veloroutn
velox
veluwe
velvain
velvet
ven
venant
vende
vendel
vendeville
vendo
venetie
venetioann
venetioansche
veneto
venezia
venezuela
venlo
vent
ventje
ventjes
ventn
ventoux
venus
venynboom
venynboomachtign
venynboomn
ver
vera
veraal
veraard
veraarn
veranderd
veranderde
veranderdn
veranderen
veranderienge
veranderiengn
verandern
verandert
verandlienge
verandriengn
verandrn
verantwo
verantwoordelik
verband
verbann
verbannienge
verbasterienge
verbatim
verbeeldienge
verbeke
verberckt
verbeterd
verbeterde
verbeteren
verbetern
verbiedt
verbiendienge
verbiendiengn
verbiendn
verbiendt
verbienn
verbiest
verbindienge
verbindiengskanal
verbindt
verble
verbleevn
verbluuf
verbluufplatse
verbluuft
verbluuvn
verbod
verboend
verboendn
verboenn
verbond
verbondn
verbood
verboodn
verboon
verborgen
verborgn
verbound
verboundn
verbouwd
verbouwn
verbowd
verbrand
verbrandienge
verbrandn
verbre
verbridderd
verbroederd
verbrookn
verby
verbye
verbyndynge
vercelli
verdacht
verde
verdedigd
verdedigde
verdedigen
verdediger
verdedigers
verdedigienge
verdediginge
verdedign
verdedigt
verdee
verdeedegienge
verdeedign
verdeeld
verder
verdere
verdiend
verdiende
verdienn
verdienste
verdienstn
verdient
verdiep
verdiepn
verdiept
verdikt
verdinaso
verdoen
verdookn
verdrag
verdre
verdreevn
verdrengh
verdrienkn
verdriet
verdroagn
verdroagt
verdronken
verdroungn
verdrounk
verdrounkn
verdryvn
verdubbeld
verdun
verduukn
verduusterienge
verdwe
verdween
verdweenn
verdwenen
verdwynn
verdwynt
vere
vereenigde
vereinigde
verenigd
verenigde
verenigienge
verenigiengn
vereniging
vereniginge
verergerde
verfaillie
verfilmd
verfranst
verfynd
verfynde
vergeetn
vergeevn
vergeleekn
vergelykboar
vergelykienge
vergelykinge
vergelykingn
vergelykn
vergelykt
vergeten
vergezeld
vergif
vergiftigd
vergiftigienge
verglykn
vergoan
vergoarienge
vergoaringe
vergoarn
vergoat
vergro
vergrodderd
vergroeid
verhaal
verhaegen
verhaeghe
verhaeren
verhalen
verheevn
verhemelte
verheyen
verhoal
verhoalen
verhoaln
verhoeven
verhofstadt
verhoudienge
verhulst
verhuusd
verhuusde
verhuusdn
verhuust
verhuuzn
verjoagd
verjoagn
verjoardag
verke
verkee
verkeerd
verkenn
verkie
verkiezienge
verkieziengn
verkiezinge
verkiezingn
verkiezingsutsloagn
verkiezn
verkle
verkloard
verkloarde
verkloarienge
verkloariengn
verkloarn
verkloart
verko
verkocht
verkochte
verkochtn
verkoop
verkoopn
verkoozn
verkopt
verkort
verkozen
verkreegn
verkrygn
verlag
verlangen
verlangn
verlatinghe
verle
verleden
verleedn
verleen
verlegem
verleid
verlengd
verlengde
verlengienge
verlengiengn
verleyen
verlichtienge
verliefd
verliefde
verliep
verlies
verliest
verliet
verlietn
verliezen
verliezer
verliezn
verlingem
verlo
verloatn
verloofd
verloor
verloorn
verloren
vermandere
vermandois
vermaut
verme
vermeer
vermeersch
vermeire
vermeld
vermelde
vermeldienge
vermeldiengn
vermeldinge
vermeldn
vermeldt
vermenigvuldiginge
vermenigvuldign
vermeulen
verminderd
verminderde
vermindern
vermindert
verminnen
vermist
vermo
vermoedelik
vermoedelyk
vermoogn
vermoord
vermord
vermydn
vern
vernield
vernieldn
vernietigd
vernietigienge
vernietign
vernieuwd
vernieuwde
vernieuwienge
vernieuwiengn
verno
vernoemd
vero
veroal
veroalen
veroaln
veroedienge
veroendersteld
veroengelukt
veroli
verona
veronese
veronica
veroorde
veroorzakt
verooverd
verooverienge
veroovern
verouderd
veroudienge
veroundersteld
veroungelukt
veroungelukte
veroverd
veroverde
veroverdn
veroverienge
verovern
veroveroare
verovert
verplatsienge
verplatsn
verplatst
verplatste
verplicht
verplichtte
verre
verreedn
verreweg
verriest
verroad
verrykt
vers
versailles
versavel
verschaeve
versche
verscheen
verscheenn
verscheidneid
verschelde
verschietn
verschil
verschill
verschillen
verschillend
verschillende
verschillig
verschillige
verschilligte
verschilln
verschillnd
verschillnde
verschiln
verschilt
verschoof
verschoore
verschoovn
verschrikkelik
verschuuvn
verschynn
verschynsel
verschynsels
verschynt
verse
versie
versierd
versierde
versierienge
versieriengn
versiern
versies
version
versions
versje
versjes
verskillende
verskillige
verskillnde
verskilnde
verslag
verslaggever
versleegn
versloagn
versloan
versloat
versloeg
versloegn
versloegt
versluys
versmo
versnellynge
verspaille
verspre
verspreid
verspreidde
verspreide
verspreidienge
verspreidiengsgebied
verspreidn
verstand
verste
versterkienge
versterkiengn
versterkn
versterkt
versterkte
versterktn
versto
verstoan
verstoat
verstraete
verstreken
verstro
versus
vert
vertaald
vertakkienge
vertaling
verte
vertebrata
verteegnwo
verteegnwoordigd
verteegnwoordiger
verteegnwoordigers
vertegenwo
vertegenwoordiger
verteird
verteirienge
verteirn
verteld
vertelde
vertellen
verteller
vertellienge
vertelliengen
vertelliengn
vertelliengsjes
vertelln
vertelsels
vertelt
verticoal
verticoale
vertikoale
verto
vertoald
vertoalde
vertoaler
vertoalienge
vertoaliengn
vertoaln
vertold
vertrek
vertrekkn
vertrekt
vertrok
vertrokken
vertrokkn
vertrokt
vertrouwd
vertrouwelienk
vertrouwn
verum
verust
veruusd
veruusde
veruusdn
veruust
veruut
veruuzn
vervaecke
verval
vervalln
vervang
vervangen
vervanger
vervangienge
vervangn
vervangt
verve
vervelliengn
vervelln
vervenne
verversdyk
verviers
vervo
vervoegd
vervoegienge
vervoer
vervoerd
vervoeren
vervoern
vervol
vervolg
vervolgens
vervolgienge
vervolln
vervolsienge
vervormboar
vervulienge
verwacht
verwachtienge
verwachtiengn
verwachtn
verwant
verwante
verwantn
verward
verwarmienge
verwarren
verwarrienge
verwarrn
verwe
verweevn
verweezn
verweirn
verwennen
verwerkienge
verwerkn
verwerkt
verwerkte
verwierf
verwoarlo
verwoest
verwoestienge
verwoestiengn
verwyst
verwyt
verwyzienge
verwyziengn
verwyzn
very
verzaamlienge
verzand
verzandienge
verze
verzeekers
verzeekrs
verzeker
verzekers
verzekerst
verzet
verzetsstryder
verzetteg
verzettn
verzien
verzn
verzoamelbundel
verzoameld
verzoamelde
verzoamelienge
verzoameliengn
verzoamelinge
verzoameln
verzoamelnoame
verzoamlde
verzoamlienge
verzoek
verzoenn
verzorgd
verzorgde
verzorginge
verzwakt
verzwakte
verzwolgn
ves
vesder
veske
vespasianus
vespula
veste
vestfold
vestienge
vestiengn
vestigde
vestigdeg
vestigdn
vestigienge
vestign
vestigt
vestland
vestlandet
vestn
vesuvius
vet
vette
vettel
vettn
veugel
veugelbekbe
veugeloare
veugelpyk
veugels
veugeltjes
veugl
veugle
veugls
veur
veural
veurn
veurne
vezels
vg
vgl
vi
via
vianen
vic
vice
viceminister
vicente
vicenza
vicht
vichte
vichtiende
vichtienste
vichtig
vichtn
vichy
victor
victoria
vicugna
vicun
vida
vidaigneberg
video
videoclip
vie
vieille
viel
vieln
vieloo
vieloos
vielt
vien
viend
vienden
viendn
viendt
vienger
viengers
viengn
vienke
vienkem
vienkn
vienn
vienne
vier
vierde
vierden
vierdn
vierdoagsche
vierdoagse
viere
vieren
vierienge
vierkant
vierkante
viern
vieroek
viersalamander
vierschansntoerno
vierschare
viert
viertorre
vierwerk
vierzn
vies
vietnam
vietnamees
vieux
vievig
viezn
viftien
viftiene
viftienste
viftig
vii
viii
vijf
vijftv
vijve
viken
vikiengs
vikingleider
vikings
vil
vilaine
vile
villa
village
villanova
villawyk
ville
villeneuve
villers
villes
villo
villon
vilnius
vilvo
vilvoorde
vimy
vin
vincennes
vincent
vincenzo
vinci
vind
vinden
vindn
vindt
vinger
vingers
vingrs
vinn
vinokourov
vinpo
vint
vintekoor
vinten
vintje
vintjes
vintjies
vintn
vinvis
vinvisschn
violaines
viole
violent
violieren
violist
viooln
vipsanius
virgilius
virgin
virginia
virginiana
virginianus
virginie
virtual
virus
virussn
vis
visegra
visie
visigootn
visjes
vismarkt
vismart
vismyne
visn
visscher
visschers
visschersbende
visschn
visser
vissers
vissn
visvangst
visverkopers
vita
vital
vitale
vitamienn
vitamine
vitesse
vith
viv
vivaldi
vive
vivenkapelle
viversel
vives
vj
vk
vl
vlaams
vlaamsch
vlaamsche
vlaamse
vlaanderen
vlaandern
vladimir
vladislaus
vladislav
vladslo
vlaeminck
vlaemsch
vlaemsche
vlagge
vlak
vlakby
vlakke
vlakkn
vlakte
vlaktes
vlaktn
vlamertinge
vlamiengn
vlaming
vlamingen
vlamingstraat
vlamme
vlammn
vlams
vlamsch
vlamsche
vlamschen
vlamschn
vlamse
vlamsen
vlamsgezind
vlamsgezinde
vlamske
vlas
vlasindustrie
vlasmuseum
vlasverwerkienge
vlasvienke
vlasvienkn
vlaze
vld
vle
vleermuuzn
vlees
vlekkn
vleminck
vlemsch
vlerick
vlerkn
vleteren
vletern
vleugel
vleugels
vleugle
vleugls
vlie
vlieg
vliegen
vliegende
vlieger
vliegers
vliegn
vliegnde
vliegpling
vliegt
vliegveld
vliender
vlienders
vliendrs
vliere
vliern
vlies
vliesvleuglign
vliet
vlinderblommign
vlinders
vlindertuin
vlissegem
vlissiengn
vlissingen
vliz
vlo
vloamertienge
vloamieng
vloamiengn
vloamienk
vloamienkstroate
vloaming
vloamingen
vloamingn
vloams
vloamsch
vloamsche
vloamse
vloanderen
vloandern
vloanderngouwe
vloanders
vloandren
vloardingn
vloed
vloeiboar
vloeiboare
vloeistoffe
vloeistoffn
vloeit
vloer
vloerbeke
vloog
vloot
vlote
vlucht
vluchtegn
vluchteliengn
vluchters
vluchtn
vluchtte
vlug
vn
vo
voa
voader
voaderdag
voaderland
voaders
voadr
voadre
voar
voarde
voardigt
voaren
voargeule
voarn
voarns
voarol
voarroute
voart
voastkerke
voatn
voby
voc
vocals
voce
vocht
vochtig
vochtige
vochtn
vocoale
vodder
voddere
voddr
voddre
vodien
voe
voeckler
voedienge
voediengsstoffn
voedinge
voedn
voedsel
voedsl
voedslplante
voegde
voegn
voel
voelboar
voelde
voelen
voeln
voelsprietn
voelt
voen
voend
voendn
voer
voerde
voerdn
voeren
voern
voerol
voert
voertoale
voertuug
voertuugn
voet
voetbal
voetbalclub
voetbol
voetbolclub
voetboller
voetbolploeg
voetbolploegn
voete
voeten
voetgangers
voetn
voetpad
voetstik
voetvolk
voewuk
vogala
vogel
vogels
vogens
vogue
voice
voiture
vol
voldeg
voldoen
voldoende
volendam
volg
volgde
volgdeg
volgdn
volgeliengn
volgen
volgend
volgende
volgendn
volgens
volgenst
volgest
volgn
volgnde
volgndn
volgns
volgorde
volgt
volk
volkerinkhove
volkerinkove
volkern
volkn
volkse
volkskunde
volkslied
volksliedjes
volksmoend
volksmound
volksmuziek
volksrepubliek
volksroadpleegienge
volkstellienge
volkstoale
volkstoneel
volksunie
volksverteegnwoordiger
volksverteegnwoordigers
volksvertegenwo
volksvertegenwoordiger
volksvertegenwoordigers
volkszanger
voll
volle
volledig
volledige
volleedige
vollen
volln
voln
volskn
volt
volto
voltooid
volturno
volueerd
volume
volumes
volvo
volwassen
volwassn
vom
von
vond
vondel
vonnis
voo
voogd
voogdye
voogns
vook
voor
vooral
voorbeeld
voorbeeldn
voorbereid
voorbij
voorde
voorkomen
voorkomende
voorkomt
voorloper
voorlopig
voormoalige
voorn
voornkomn
voornkomt
voornoamelik
voornoamste
voorol
voorpommern
voorstad
voorstellienge
voort
voortijds
vooruit
vooruut
voorwerp
voorwerpn
voorzien
voorzitster
voorzitter
vor
voral
vorarlberg
voren
vorige
vorke
vorm
vormde
vormdigde
vormdn
vorme
vormen
vormeze
vormienge
vormig
vormn
vormt
vornoamelik
vornoamste
vorol
vors
vorst
vorsten
vorstn
vorstndom
vort
vortn
voruut
vorzien
vos
vosges
vosn
vosseslag
vossn
vot
vou
voun
vound
voundn
voundstn
vour
vous
vowuk
voyage
voyager
vp
vraag
vraagn
vrage
vragen
vrankryk
vrankryke
vratislaus
vratislav
vre
vrede
vredesverdrag
vree
vreede
vrees
vreindig
vres
vreux
vrie
vriend
vriendelik
vrienden
vriendinne
vriendn
vriendschap
vriendt
vries
vriest
vriezn
vrij
vrijdag
vrije
vrijen
vrijheid
vrimd
vrimde
vrimdeliengn
vrimdn
vrji
vroag
vroage
vroagn
vroagt
vroeg
vroege
vroegen
vroeger
vroegerder
vroegere
vroegern
vroegertyd
vroegn
vroegr
vroegre
vroegste
vroet
vromenschn
vromins
vrommins
vroomn
vrouw
vrouwe
vrouwekathedroale
vrouwekerke
vrouwelijk
vrouwelik
vrouwelikke
vrouwelyke
vrouwen
vrouweparochie
vrouwke
vrouwkes
vrouwmens
vrouwn
vrouwnpolder
vrouwtje
vrouwtjies
vrowelikke
vrowlikke
vrowwelikke
vrt
vrucht
vruchtboar
vruchtboare
vruchte
vruchtn
vry
vrydag
vrydom
vrye
vryeid
vryen
vrygeloatn
vryheedn
vryheid
vryheidsbeeld
vrykomt
vryle
vryme
vrystoat
vrywillig
vrywillige
vrywilliger
vrywilligers
vs
vt
vti
vtm
vu
vub
vue
vuelta
vuf
vuile
vul
vuldoende
vule
vulgair
vulgaire
vulgare
vulgaris
vulgroeid
vulgroeide
vulkanische
vulkanisme
vulkoan
vulkoanisch
vulkoanische
vulkoann
vulle
vulln
vulpes
vulto
vuluut
vulwassn
vuuf
vuufde
vuufden
vuufdn
vuufduusd
vuufounderd
vuuftiende
vuufweegn
vuul
vuulkoann
vuur
vuustbyln
vuuve
vuve
vuyf
vv
vvd
vvf
vwo
vyand
vyandn
vynd
vyndn
vyngers
vynkachtign
vynke
vys
vyve
vyver
vyvers
vyzn
vzw
w
wa
waag
waal
waar
waarbij
waard
waarin
waarip
waarom
waarvan
waas
waasten
wacht
wachten
wachtn
wad
wada
wadda
wadde
waddneilandn
waddnze
waefelghem
waer
waffer
wagner
wahagnies
wakker
wakkn
wal
walburgakerke
walcheren
walchern
wales
walewein
walk
wall
wallace
wallays
walle
wallijn
wallis
wallon
wallonie
wally
walpling
walram
walter
waltrudis
walvis
walvissn
wambrechies
wan
wand
wandel
wandelgids
wandelienge
wandeling
wandeln
wandeloars
wandelpad
wandn
wandtapytn
wang
wanhem
wanna
wanne
wanneer
wannes
wanorde
want
wanten
wantsn
wapen
wapens
wapietie
wapper
war
warande
ward
ware
waregem
waren
warhol
warkonje
warlaing
warm
warmdre
warme
warmer
warmgemoatigd
warmgemoatigde
warmn
warmste
warmte
warneton
warranty
warrem
warschau
was
washington
waskehal
waskenhal
wasn
wassenaar
wast
waste
wastn
wastr
wat
water
waterloo
waters
waterslaeghers
watersportbaan
watou
watson
watt
wattenys
wattrelos
waut
wauters
wave
way
wayne
wb
wbc
wc
we
wear
web
weber
website
websites
webster
wedde
wednesday
wedstryd
wedstrydn
weduwe
wee
weed
weefsel
weefsels
weeg
weegn
weegns
weegoarde
weegt
week
weekblad
weekbode
weeke
weekend
weekn
weenn
weer
weerbericht
weere
weereke
weerman
weerol
weerskantn
weerstand
weerstoan
weert
weet
weete
weetn
weetnschap
weetnschappelik
weetnschappelikke
weetnschappelyk
weetnschappelyke
weetnschapper
weetnschappers
weetnschapplik
weetnschapplikke
weetnschappn
weetnschapprs
weeuwe
weevn
weevrs
weeze
weezn
weezns
weg
wegbeweegn
wegen
wegens
weggedoan
weggedookn
weggespoeld
weggestookn
wegpolitie
wegrit
wegslekke
wegsteekn
wei
weide
weigerde
weimar
weinig
weir
weird
weirde
weirden
weirdevulle
weirdn
weirdt
weireld
weireldbekend
weireldbeker
weireldberoemd
weireldde
weirelderfgoed
weirelderfgoedlyste
weireldkampioen
weireldkampioene
weireldkampioenn
weireldkampioenschap
weireldkampioenschapn
weireldkampioenschappn
weireldkoarte
weireldlikke
weireldmacht
weireldo
weireldoorlog
weireldoorloge
weireldoorloogn
weireldorloge
weireldrecord
weireldryk
weireldstad
weireldtento
weireldtitel
weireldtitels
weireldwyd
weireldwyde
weirk
weirken
weirklo
weirkn
weirkt
weirld
weirlderfgoed
weirldo
weirldwyd
weirldwyde
weirn
weke
weken
wekkn
wel
welbekende
welf
welfn
welgemeende
welgestelde
welke
welkom
wellington
welsh
welshe
welvoart
welzyn
wemmel
wemmersys
wemoars
wenceslas
wenceslaus
wenduine
wendune
wendy
wenen
wenschn
wenteltrap
wentie
wenzel
weppes
wept
wer
wera
werbrouck
werchter
werd
werden
werdn
were
weregegeevn
weregeke
weregekommn
weregevoundn
weregoat
wereke
werekeern
werekwaam
wereld
wereldoorlog
werevindn
werf
werk
werke
werkelikheid
werken
werkienge
werkmens
werkmenschn
werkn
werknemers
werkplatse
werksjes
werkt
werkte
werkteg
werktege
werktegn
werktige
werktn
werktuug
werktuugn
werkvloer
werkvolk
werkwoord
werkwoordn
werkwyze
werner
wernicke
wervicq
wervik
werviks
wesley
wespe
wespn
wessex
west
westbouw
westelijk
westelik
westelike
westelikke
westelyk
westelyke
westelykn
westen
westende
westerlo
western
westersche
westerschelde
westerse
westfalen
westgrenze
westhoek
westhoeks
westkant
westkantn
westkapelle
westkerke
westkust
westland
westlik
westlikke
westmalle
westminster
westn
westoek
westouter
westrem
westro
westrozebeke
westtalent
westvlams
westvlamsche
westvle
westvleteren
westvletern
wet
weten
wetenschap
wetenschappelik
wetenschappelike
wetenschappen
wetenschapper
wetenschappers
wetenschappn
wetgevende
wetgevienge
wetgevinge
wetspreekre
wette
wettelik
wettelikke
wettelyk
wetterau
wetteren
wettern
wettig
wettige
wettign
wettn
weug
weun
weund
weunde
weundege
weunden
weundn
weunen
weungebied
weuniengn
weunkern
weunn
weunplekke
weunt
weunwyk
weus
wevelgem
wever
wevers
weyden
weylandt
weymeis
weymouth
wez
wezel
wezels
wezen
wezer
wgm
what
when
where
which
white
whitehall
who
whole
whose
wi
wibf
widdebroek
wide
wider
wido
wie
wieder
wiedre
wiee
wiege
wieke
wiekn
wiel
wielerklassieker
wielermuseum
wielersite
wieln
wielsbeke
wieltje
wien
wiend
wiendmeuln
wiendsnelheedn
wiener
wiengne
wienkel
wienkelcenter
wienkels
wienkelstroate
wienkeltjes
wiens
wienter
wienters
wientersloap
wientersloape
wienterspeeln
wientr
wientre
wientrekoale
wientrs
wier
wierd
wierden
wierdn
wierdr
wierdt
wieren
wiern
wierook
wiert
wiesbaden
wiet
wiggins
wight
wij
wijf
wijk
wijnendaele
wik
wiki
wikipedia
wikisource
wil
wild
wilde
wildeg
wildege
wildegen
wildegn
wilden
wilder
wildernisse
wildlife
wildn
wildrize
wilfried
wilge
wilgn
wilhelm
wilhelmina
will
willa
willaert
wille
willem
willemeau
willems
willemskanoal
willemsvoart
willen
william
williams
willn
willow
willy
wilmots
wiln
wilnde
wilskerke
wilson
wilt
wiltshire
wim
wimbledon
win
winchester
wind
windkracht
windmeulens
windmeuln
windows
windsor
wingene
winghe
winkel
winkels
winn
winne
winnen
winnig
winnige
winnoare
winnoars
winok
winoksbergen
winoksbergn
winschoterdiep
winst
winste
winston
wint
winter
winters
wip
wir
wird
wirden
wirdn
wirdt
wirn
wisents
wiske
wiskunde
wiskundige
wiskundign
wispelaere
wissant
wisselienge
wisseln
wisselslah
wist
wiste
wistn
wisła
wit
witbier
with
within
without
witse
witsoone
witte
wittekerke
wittelsbach
witten
wittenborg
wittevrongel
wittn
wittoen
witzand
wk
wnba
wo
woa
woaby
woada
woadan
woadat
woadeure
woakn
woal
woalen
woaln
woals
woalsche
woalschn
woalse
woamee
woamei
woanzinnige
woapen
woapens
woapenschild
woapn
woapns
woapnschild
woapnschildn
woapnspreuke
woapnstilstand
woar
woarachter
woaran
woarby
woarda
woardamme
woardan
woardat
woarde
woardeure
woardn
woare
woaregem
woareid
woaren
woarin
woarip
woarmee
woarmoarde
woarn
woarnemiengn
woaroender
woaroendre
woarom
woarop
woarounder
woarover
woarschynlik
woarschynlyk
woarschynlyke
woarschynlykn
woarup
woaruut
woarvan
woarvo
woas
woasland
woastn
woater
woaterdamp
woatergeuzn
woaterhoender
woateringe
woateringn
woaterland
woaterlandkerksje
woaterloo
woaterloopn
woatermassa
woatermeuln
woaterolle
woaterplantn
woaterrattn
woaters
woatersalamander
woatersalamanders
woaterspugers
woaterstof
woaterstoffe
woatertorre
woaterveugels
woaterweg
woatn
woatnberg
woatou
woatr
woatre
woatrelo
woatrlo
woavan
woaver
woavern
woavo
woby
woda
wodan
wodeure
woede
woensdag
woensdagmart
woensdrecht
woerden
woeringen
woeste
woestn
woestyne
woestynn
woiwodschap
woiwodschappn
wok
wolf
wolff
wolfgang
wolkn
wollestraat
woluwe
wolvn
woman
womee
women
won
wonde
wonder
wonderful
wonen
wonn
wonne
wont
wontergem
wood
woodstock
woodward
woomn
woor
woord
woorden
woordenboek
woordenlijst
woordn
woordnboek
woordnschat
woorn
wor
word
worda
worden
wordeur
wordeure
wordn
words
wordsworth
wordt
woren
worip
work
workls
works
world
worm
wormes
wormhout
wormout
worms
worn
worst
wortegem
wortel
wortels
wortelstok
wos
wost
woste
woster
wostie
wostn
wou
woun
wounn
wouter
wouwenberg
wouwn
wovan
wre
wreed
wright
wrochte
wryvienge
wryvn
wtc
wtv
wu
wuf
wuffer
wuk
wukke
wul
wulde
wulder
wuldn
wulf
wulgn
wulle
[...]
