!
"
#
##0
##1
##10
##11
##12
##13
##14
##15
##16
##17
##18
##19
##2
##20
##21
##22
##23
##24
##25
##26
##27
##28
##29
##3
##30
##31
##32
##33
##34
##35
##36
##37
##38
##39
##4
##40
##41
##42
##43
##44
##45
##46
##47
##48
##49
##5
##50
##51
##52
##53
##54
##55
##56
##57
##58
##59
##6
##60
##61
##62
##63
##64
##65
##66
##67
##68
##69
##7
##70
##71
##72
##73
##74
##75
##76
##77
##78
##79
##8
##80
##81
##82
##83
##84
##85
##86
##87
##88
##89
##9
##90
##91
##92
##93
##94
##95
##96
##97
##98
##99
$
%
&
'
(
)
*
+
,
-
.
/
0
00
000
001
002
01
011
0183
02
03
04
041
05
06
07
08
09
090
1
10
100
1000
10000
1008
101
1018
102
1024
103
1030
104
1040
1041
1048
105
1056
1057
1058
106
107
1071
1072
1074
1075
108
1080
1083
1085
109
1095
1096
1097
1099
11
110
1100
1105
111
1111
112
113
114
115
116
1160
1166
117
118
1185
119
12
120
1200
12000
1204
121
1211
1212
1219
122
1220
1225
1226
1227
1228
123
1230
1231
1238
124
1241
1247
125
1250
1251
1256
1258
1259
126
1260
1261
1264
1266
127
1270
1271
1272
1273
1274
1275
1276
1277
1279
128
1285
1286
129
1299
13
130
1300
131
1312
1317
1318
132
1326
1327
1329
133
1330
1334
1335
1336
1338
134
1345
1348
135
1354
136
1360
1365
137
1370
1371
1372
1373
138
1380
1383
139
14
140
1400
1403
1405
141
1416
142
1420
1428
143
144
1442
1445
1448
1449
145
1451
1453
146
1460
147
148
1487
149
1492
15
150
1500
1501
1505
151
1514
1516
1517
152
1520
153
1533
154
155
156
157
1570
158
1582
159
1596
16
160
1600
161
162
1626
163
1636
1638
164
1640
1644
165
166
1660
167
1678
168
169
1694
1696
1697
17
170
1700
1706
1709
171
1711
172
1721
173
1730
174
1740
175
1750
1755
1757
1759
176
1760
177
1770
1771
1773
1775
178
1780
1783
1789
179
1790
1792
1797
1798
1799
18
180
1800
1802
1804
1805
1808
1809
181
1810
1812
1813
1815
1817
1818
182
1820
1821
1822
1823
1825
1826
1827
1828
183
1830
1831
1832
1833
1834
1835
1836
1837
1839
184
1840
1841
1842
1843
1844
1845
1847
1848
1849
185
1850
1851
1852
1853
1854
1855
1856
1857
1859
186
1860
1861
1862
1863
1864
1865
1866
1867
1868
1869
187
1870
1871
1872
1873
1875
1876
1877
1878
1879
188
1880
1881
1882
1883
1884
1885
1886
1887
1888
1889
189
1890
1891
1892
1893
1894
1895
1896
1897
1898
1899
19
190
1900
1901
1902
1903
1904
1905
1906
1907
1908
1909
191
1910
1911
1912
1913
1914
1915
1916
1917
1918
1919
192
1920
1921
1922
1923
1924
1925
1926
1927
1928
1929
193
1930
1931
1932
1933
1934
1935
1936
1937
1938
1939
194
1940
1941
1942
1943
1944
1945
1946
1947
1948
1949
195
1950
1951
1952
1953
1954
1955
1956
1957
1958
1959
196
1960
1961
1962
1963
1964
1965
1966
1967
1968
1969
197
1970
1971
1972
1973
1974
1975
1976
1977
1978
1979
198
1980
1981
1982
1983
1984
1985
1986
1987
1988
1989
199
1990
1991
1992
1993
1994
1995
1996
1997
1998
1999
2
20
200
2000
2001
2002
2003
2004
2005
2006
2007
2008
2009
201
2010
2011
2012
2013
2014
2015
2016
2017
2018
2019
202
2020
2021
2022
203
204
205
206
207
208
209
21
210
2100
211
212
213
214
215
216
217
218
219
22
220
2200
221
222
223
224
225
226
227
228
229
23
230
2300
231
232
233
234
235
236
237
238
239
24
240
2400
241
242
243
244
245
246
247
2479
248
249
25
250
2500
251
252
253
254
255
256
257
258
259
26
260
2600
261
262
263
264
265
266
267
268
269
27
270
2700
271
272
273
274
275
276
277
278
279
28
280
281
282
283
284
285
286
287
288
289
29
290
2900
291
292
293
294
295
296
297
298
299
3
30
300
3000
301
302
303
304
305
306
307
308
309
31
310
311
312
313
314
315
316
317
318
319
32
320
321
322
323
324
325
326
327
328
329
33
330
3300
331
332
333
334
335
336
337
338
339
34
340
341
342
343
344
345
346
347
348
349
35
350
3500
351
352
353
354
355
356
357
358
359
36
360
3600
361
362
363
364
365
366
368
37
370
3700
372
374
375
376
377
378
38
380
3800
381
382
383
384
385
386
387
388
389
39
390
392
393
394
395
397
398
399
4
40
400
4000
401
402
403
404
405
406
407
408
41
410
412
413
414
415
416
417
418
419
42
420
423
424
425
427
428
429
43
430
431
432
433
435
437
438
439
44
440
442
443
445
447
448
449
45
450
4500
451
452
454
456
458
46
460
462
463
466
467
468
47
470
471
474
475
476
48
480
484
485
486
487
488
49
490
492
496
5
50
500
5000
503
504
505
506
508
51
510
512
513
514
517
518
519
52
520
525
527
528
53
530
532
534
535
537
538
54
540
541
542
544
55
550
552
555
557
558
56
560
561
562
563
564
565
567
57
570
571
573
574
575
577
578
58
580
581
583
586
587
59
590
594
595
597
6
60
600
6000
601
602
603
605
606
608
609
61
610
6100
612
613
615
617
618
619
62
620
621
622
623
624
625
626
627
628
629
63
630
631
632
633
634
635
636
637
638
639
64
640
641
642
644
645
646
647
648
649
65
650
651
652
653
654
655
656
657
659
66
660
661
663
664
665
666
667
668
67
670
671
672
674
676
678
679
68
680
682
683
684
685
686
69
690
691
693
694
696
697
699
7
70
700
7000
705
707
71
710
711
712
714
715
716
717
718
719
72
720
721
723
724
725
726
727
73
730
731
734
736
737
74
740
741
742
743
744
745
747
748
749
75
750
751
752
754
755
756
757
758
759
76
762
763
765
766
767
768
77
770
771
776
78
780
788
789
79
790
791
795
798
8
80
800
8000
805
808
81
810
812
82
820
821
824
83
830
833
839
84
840
842
846
847
848
849
85
850
852
853
855
857
859
86
8611
867
87
870
873
88
880
887
888
89
893
9
90
900
9000
907
91
910
911
92
920
923
924
93
930
931
934
94
940
944
945
95
950
955
956
958
96
960
961
962
97
970
971
974
978
98
980
982
983
984
985
99
990
992
993
994
995
997
998
999
:
;
<
=
>
?
@
[
\
]
^
_
`
a
aa
ab
abc
abd
abdu
abdullah
abduwali
abidin
about
abstracts
ac
academy
access
account
act
activity
ad
adaları
adalet
adem
ademler
adette
adı
af
afghanistan
afrika
afriqa
ag
age
ah
ahale
ahalisi
ahmet
ai
aip
air
airport
ais
aise
ait
ajax
ak
aksa
al
alahide
alahidiliki
alan
albert
aldi
aldigha
aldini
aldinqi
alem
alex
alexander
alghan
ali
alidighan
alidu
alimi
alimlar
alimliri
aliy
all
allah
alma
alman
almanya
almashturush
alpha
alphabet
already
also
altay
alte
altun
alıs
am
ama
amazon
ame
america
american
amerika
amirika
an
ana
analysis
ancak
anche
and
andin
android
ang
ankara
anlamında
announcement
another
anthen
any
anın
apet
api
apple
aptonom
aptonum
aq
aqsu
aqsugha
ar
ara
arabic
aralliri
arap
aras
arasında
archive
archived
ardıl
are
arian
arid
ariliqi
arip
aripning
arisida
arisidiki
arm
arma
arqa
arqiliq
ars
art
article
articles
artuq
arxe
as
asas
asasen
asasi
asasida
asasiy
asaslanghanda
asaslinip
asasliq
asasliqi
ashina
ashqan
asia
asina
asiya
asiyadiki
asiyadin
asiyaning
ask
asp
aspx
assaslik
assisted
association
asta
astida
at
ata
atalghan
atalmish
atatu
ataydu
atighan
atilidu
atlantik
atliq
au
august
authentication
automatic
autonomous
available
avoir
avrupa
awghust
awin
axiri
axirida
axiridiki
axirqi
ay
ayan
ayda
ayet
aymiqi
ayning
aynı
ayrilip
ayrim
ayrip
ayrıca
aysajan
az
azirki
aziz
b
ba
bag
bahasi
baidu
bar
barat
bardi
barghan
baridighan
baridu
barliq
barliqqa
barıs
bas
based
bash
bashlan
bashlanghan
bashlap
bashlidi
bashlighan
bashliqi
bashqa
bashqarmisi
bashqurush
baskısı
bay
bayan
bayliqi
bayrak
bayraksimge
bazar
bazargha
baziri
bazı
bb
bbc
bbs
be
become
been
before
bek
belki
belkim
bell
belli
ben
bene
berdi
bergen
berpa
bes
besh
best
bet
beta
betawiki
betler
between
beyet
bezi
bg
bi
bic
bildu
bilen
bilge
bilgi
bilim
bilimler
bilip
bill
bille
bin
biogenic
bir
biraq
birge
biri
biridin
birige
birinchi
birinci
birini
birk
birles
birlig
birlikke
birlikte
birqeder
bis
biz
bizge
bizning
bkz
black
blog
blogbus
bn
bo
body
bolap
bolatti
boldi
bolgan
bolghachqa
bolghan
bolghanda
bolghandin
bolidighan
bolidu
bolishi
bolmaydu
bolmighan
bolsa
bolsaq
bolsimu
bolsun
bolup
bolupmu
bolush
bolushi
book
books
boran
bot
bots
boyiche
boylap
br
brill
britaniye
britannica
bs
bu
budda
bug
bugu
bular
bularning
bulidu
bulunan
bulup
bundaq
buni
buning
buningdin
buninggha
bureau
burun
burunqi
but
buxara
buyan
buyiche
by
c
ca
california
called
caltech
cambridge
can
caption
carcan
career
cas
cbs
cc
cd
ce
center
central
ceo
ch
cha
chaghda
chaghdiki
chaghdin
chaghlarda
chamma
chammadana
change
changes
chaqiliq
chaqirim
charchan
charles
charwichi
che
chemical
chemistry
cherchen
cherchendin
chet
chetel
chi
chin
china
chinchi
chinese
ching
chingxey
chini
chining
chip
chiqarghan
chiqidu
chiqip
chiqish
chiqqan
chiqti
chira
chken
chlu
cho
chong
chongqur
chqandaq
chu
cia
cicero
city
cm
cn
cnn
co
code
cog
col
com
comment
commons
community
company
complete
computer
congress
consider
content
convert
cook
copy
coronavirus
corporation
could
council
countries
country
county
cov
covid
cpu
crispr
cs
css
cu
cube
culture
cumhuriyeti
current
currently
cut
cvi
d
da
daha
dairaiqida
dan
dane
dangliq
daniye
das
data
date
david
dawamliq
day
db
dc
dd
ddd
ddos
de
december
deg
dek
del
delivery
dell
den
dep
department
der
dergisi
derijide
derya
deryasi
deryasining
des
desert
deslep
deslepki
details
development
devletleri
dewri
dewride
dewridiki
dewrige
di
dictionary
die
different
dig
digen
digital
diki
dikibixahar
dil
din
dini
dinigha
dinini
discussion
disp
distributed
diyilgen
dna
do
dog
dollar
dolliri
don
donation
done
dos
dosya
dr
dream
du
dulat
dunya
dunyada
dunyadiki
dunyagha
dunyaning
dv
dvd
e
each
east
ec
economic
ed
edebiyati
eden
edilmis
edit
edition
editors
edu
ee
efendi
eg
eger
egiship
ego
egu
ehir
einstein
ejdadle
ek
ekles
el
elchi
elchiler
ele
elwette
emeliyette
emes
emevi
emir
emissions
emma
empire
en
enabled
encyclopaedia
encyclopedia
encyclopædia
endu
ene
energiya
eng
enge
english
eni
enning
entry
ependi
eq
er
erdog
erdoghan
ereb
eris
erkin
error
es
esc
escalade
eser
eserliri
esir
esirdin
esiride
esirning
eski
esli
eslide
eslige
esposito
est
et
etik
etmek
etmis
etrapida
eur
europe
european
ev
even
ewetip
ex
example
excel
extensions
ey
eyni
eysaning
eza
ezeldin
f
fa
face
facebook
faku
faq
fazla
fe
february
federal
feedback
feminism
festival
ff
fi
film
final
find
finland
first
fit
fix
fizika
flag
flash
for
forum
forvo
found
foundation
fox
fr
franc
france
francisco
fransa
fransiye
fransuz
free
freebsd
from
fu
full
function
future
g
ga
garmin
gb
gdp
ge
gec
gelir
gelis
gen
general
genis
genju
genocide
gensu
gensuning
geophysical
george
gerardm
gerc
gerche
geri
german
get
gey
gh
gha
ghan
ghayet
gherb
gherbi
gherbidiki
gherbiy
gherbke
gherpke
ghi
ghining
ghir
ghiz
ghz
gi
gibi
gif
gippert
giris
girmaniye
giz
glas
gliz
global
gmail
gmp
gmt
gnu
go
god
good
google
gov
gps
gpu
gra
gre
great
grisi
gu
guma
guo
h
ha
hac
hakimiyet
hakimiyetni
hakkında
halak
halda
has
hasil
have
hawa
hayat
hazir
hazirghiche
hazirmu
hazirqi
he
health
hediye
hel
hello
help
hem
hemde
hemme
hemmisi
henry
heqiqiy
heqqide
heqqidiki
her
herbiy
here
herket
herkiti
herqandaq
herqaysi
herxil
hetta
heyder
heyran
hezriti
hh
hi
hic
high
hindi
hindistan
his
hisaplinidu
hispania
history
ho
hon
hope
hoquqi
horatius
how
hp
hqanchiliq
hr
hrw
htm
html
http
https
hu
hujum
hukuk
human
hz
i
ibaret
ibm
ibn
ibook
ic
ichide
ichidiki
ichige
ichki
id
ide
idi
ie
if
ige
igileydu
igilik
ii
iii
ik
iken
ikenlikini
iki
ikki
ikkinchi
il
ilahi
ilan
ildir
ile
ilghar
ilgili
ilgiri
ilgiriki
ili
iliktir
ilim
ilk
ilmi
ilmiy
im
imac
image
images
imdb
img
impe
improve
in
inc
inci
including
inde
index
indonesia
ine
info
information
ini
inirgiye
inisi
inlun
inqilabi
ins
insan
insanlar
insanlarning
institute
intayin
intel
interested
international
interwiki
into
introduction
invalid
ios
ipod
ipv
iq
iqtisad
iqtisadi
iqtisadiy
ir
iran
iranliq
is
isbn
ise
ish
ishbara
ishlepchiqirish
ishletken
ishqa
isi
islam
islamic
ismi
iso
ispaniye
issue
issues
istanbul
istiyorsan
it
italiye
itemid
itools
its
ittipaqdash
ittipaqi
ittipaqigha
iv
ix
iy
iyi
izda
j
ja
jalalidin
james
jan
january
javascript
jay
jayda
jaylar
jaylargha
jaylashqan
jaylaxkan
je
jean
jehette
jehettiki
jehettin
jemiyiti
jemiyitining
jeng
jenub
jenubi
jenubidiki
jenubiy
jenupqa
jenupta
jerusalem
jewish
jisimning
jobis
jobs
john
joseph
journal
jpg
jpl
ju
jumhuriyet
jumhuriyiti
june
jungghar
junggo
junggodiki
junggogha
junggoning
jurja
just
k
ka
kabul
kac
kadar
kala
kanada
kapısı
kars
kasım
katolik
ke
keldi
kelgen
kelgende
kelgu
kelmekte
keltu
kemal
ken
kendi
keng
kengliki
kennedy
kent
kes
ketken
ketti
key
kg
kgb
ki
kichik
kilidighan
kilidu
kilome
kilometir
kilomite
kimxap
kin
kirgen
kirgu
kiridu
kirim
kirip
kis
kishi
kishiler
kishilerning
kishilik
kistan
kitabida
kitap
kitik
kiyim
kiyin
kiyinki
kk
km
kning
know
knowledge
ko
kocha
komarajiwa
komite
kompyote
kona
korea
krallık
kroran
ksek
ktar
ktu
ku
kubbetu
kuchar
kudu
kulalchilar
kullanılır
kuni
kur
kus
kuvista
kuwadirat
kuzey
kwadrat
kwe
kız
l
la
laboratory
lagash
lan
language
languages
lar
larsson
lasseter
latin
lc
lcd
lchu
ldi
ldu
le
lee
ler
les
let
letis
letler
letlerning
letliri
letning
leyman
lgen
lgendin
lgesi
lgiye
li
library
lidighan
lidu
life
lik
like
limi
lindi
line
linghan
link
links
linux
lip
liq
lis
lish
lishqa
list
liti
litining
live
lk
lke
lkisi
ll
llu
lo
local
localisation
localised
localising
logo
logs
london
look
lop
louis
low
lower
ltesi
ltu
lu
lua
lutpulla
lı
m
ma
mac
machine
macintosh
macionis
macos
macworld
magazine
main
maint
major
make
mal
maliye
mallarni
mamtimin
man
mana
mangghanda
mani
many
maqale
march
marcus
margaret
martin
masdjid
massa
mate
max
may
maydani
mb
mchi
me
medeniyet
medeniyiti
medeniyitini
media
mediawiki
medya
meghlup
mehmet
mehmud
meixner
mek
mektep
melike
melikisi
melum
melumat
memliket
memliketlik
men
menbesi
menggu
menilik
menisi
mensup
mer
meripet
merkez
merkizi
merkiziy
mers
mescid
mescidi
meshhur
mesi
mesile
mesilen
message
messagepad
messages
met
meta
metformin
mewjut
mewlane
mexsus
meydan
meydani
meyli
mezgil
mezgilde
mezgilide
mezmuni
mhz
mi
michael
microsoft
middle
might
mike
mikrosoft
miladi
miladidin
miladining
miladiye
miladiyedin
millet
milletler
milletlerning
milli
million
milliy
milyard
milyon
milyondin
min
ming
mini
miqdari
mirza
mis
misranim
mit
miti
mkin
ml
mlu
mm
mo
mode
model
modern
module
molla
mongghul
monsters
more
morgen
most
motorola
mottosu
moyunchu
mp
mparatorlug
mranliq
ms
mtv
mu
much
muhammad
muhammed
muhim
mukapatigha
mumkin
munasiwet
munasiwetlik
munasiwiti
mundaq
muqeddes
muqim
musa
mushu
music
muslim
muslims
must
mustafa
mustakkil
musteqil
musteqilliq
musulman
musulmanlar
mutleq
muzika
muzikisi
mv
my
n
na
nahayiti
nahiye
nahiyesi
nahiyisi
nahiyisige
nahiyisining
nam
namaz
name
named
nami
namida
namining
namlar
namliq
namliri
nasa
national
nationality
nations
nature
nce
ncel
ncu
nd
nde
ndi
ndin
ndu
ne
nec
nechche
neden
need
nemde
neminde
nemli
nemo
nen
nes
neshiryati
neshr
neshri
neshriyati
neshryati
net
netflix
netici
netijisi
new
news
newsletter
newton
next
ney
nezirye
neziryisi
neziryisini
ng
ngi
ngiz
nglu
ngu
ni
nihil
nin
ning
niq
nisbeten
nispiylik
nitric
niversitesi
niye
nki
nku
nl
nley
nlu
nn
nning
no
noinclude
non
nopus
nopusi
nopusibar
north
northern
not
now
nsey
nt
nu
number
nun
nuqta
nur
nurghun
nurghunlighan
nusxisi
nya
nyanın
nın
o
oadm
oblasti
oblysy
oc
october
of
office
og
oghli
ok
okyan
ol
olan
olarak
olay
old
oldu
oldug
olmak
olmaz
ologiye
olsun
olturaqlashqan
olus
omnia
omumi
omumiy
omumyu
on
one
online
only
oo
operator
option
oq
oqush
or
order
org
organization
orientalstudies
original
orni
ornigha
orqun
ortaq
orun
orunda
os
osman
osmanlı
ost
other
ottura
otturgha
otturiche
otturigha
ou
our
out
over
own
oxford
oxfordreference
oxide
oxshash
oxshashla
oxshimighan
oymanliqi
oymanliqining
oz
p
pa
padishah
padishahi
padishahliqi
page
pages
pakistan
pakitlar
pamir
pante
papa
para
parc
parche
paris
parlame
part
partiyisi
pas
pathoschild
paul
pay
paydilinip
paytahti
paytext
paytexti
pc
pda
pdf
pe
pek
pelsepe
pen
penler
people
peqet
per
peslide
peter
peyda
peygamber
ph
phase
php
pi
pichan
picture
pil
pile
pilghan
pippin
pixar
pk
pl
place
please
pligen
plus
pm
png
policy
polsha
population
poqtamuri
poqtanomuri
possible
post
power
powerbook
powermac
powerpc
powerschool
poyizning
pp
pre
prefecture
prek
press
pro
problems
proceedings
prof
program
project
projects
proof
prophet
provided
ps
pt
pu
public
px
pywikipedia
q
qa
qaghan
qaghangha
qaghani
qaghanning
qaldi
qalghan
qan
qanche
qandaq
qanuni
qara
qarap
qaraqash
qarar
qaraydu
qarighan
qarighanda
qarishi
qarita
qarluq
qarshi
qashte
qasim
qatar
qatarliq
qatarliqlar
qatarliqlarning
qatnash
qattiq
qaysi
qayta
qaytip
qazaq
qazaqistan
qe
qebilile
qebilisi
qeder
qedimki
qedimqi
qeshqer
qi
qilatti
qildi
qilghan
qilghanda
qilghandin
qilghanliqini
qilghili
qilghuch
qilidighan
qilidu
qilin
qilindi
qilinghan
qilinip
qilinishi
qilip
qilish
qilishni
qilishqa
qiliwatqan
qimmetlik
qimmiti
qin
qinqi
qip
qirghiz
qirghizistan
qisim
qismi
qismigha
qismini
qisqa
qizil
qobul
qolgha
qollanghan
qong
qoral
qori
qosh
qoshma
qoshumche
qoshun
qoshunle
qoydi
qoyghan
qoyuldi
qoyulghan
qoyup
qq
quam
quantum
questions
qui
quicktime
quju
qum
qumluq
qumul
quod
qurban
qurghan
qurqan
qurulghan
qurup
quruqluq
qurutining
quyash
r
ra
rafya
rahip
rain
ram
rayon
rayoni
rayonida
rayonining
rayonmuri
rayunnomuri
rde
rdi
re
read
reading
real
recent
ref
reference
refs
region
rejep
rek
ren
renglik
report
republic
request
research
resh
reshidi
resistor
resmi
resmiy
ret
retrieved
review
rfa
rgen
rgezmiside
rgu
rh
ri
richard
ridighan
ridin
ridu
rige
righ
righa
right
rights
rika
rilgen
rim
rini
rining
rip
riq
risc
rish
rishken
riwayet
riwayetler
riye
rk
rkc
rki
rkistan
rkistanning
rkiy
rkiye
rkiyening
rkler
rklerge
rklerni
rklerning
rku
rlar
rlarning
rlu
rmaniye
rna
rneg
rning
ro
robert
robot
rol
rom
roma
romagha
ron
rosiye
rp
rr
rse
rsitidu
rsitip
rsu
rt
rtu
ru
rufus
rule
rw
rxan
s
sa
sabiq
sablinidu
sag
sage
sahra
samsung
san
sana
sanat
sandiki
sani
sanliq
sapal
sari
sarmadan
sars
sartre
savas
sayahet
school
science
sciences
scientific
script
sculley
se
sebep
sec
second
section
security
sed
see
selim
semper
sen
senesinde
seplengen
series
server
set
sezar
sh
sha
shah
shamal
she
sheher
sheherler
sheherning
shehiri
shehiride
shehirining
shehri
shehrining
sherq
sherqi
sherqiy
sherqqe
sherqte
sherqtin
shi
shigha
shimal
shimalda
shimaldiki
shimalghiche
shimali
shimalida
shimalidiki
shimaligha
shimaliy
shinjang
shinjangdiki
shinjangning
ship
shirket
shirkiti
shirkitining
shitati
shizang
shke
shni
should
show
shtatliri
shtml
shu
shuki
shundaq
shundaqla
shundin
shunga
shunglashqa
shuning
shuningdin
shwe
si
sic
siggraph
sina
sine
single
sip
sir
siri
sirislar
sirisler
sirisliqlar
siste
site
sites
siwalidu
siyaset
siyasi
siyasiy
sk
sla
slam
slu
small
smart
so
social
society
sociology
soda
software
sog
soil
some
son
sonra
sosyal
sosyoloji
sotsiyalistik
south
sovyetler
sowe
spanya
special
sr
srail
ss
st
stanbul
star
start
state
states
statistical
ste
stephen
steve
stide
stige
stimisi
stiwe
store
story
strength
structural
stu
stub
studies
study
su
subview
sulalisi
sulalisige
sulalisigha
sulalisini
sulalisining
sultan
sume
summit
sun
sunt
super
support
sure
svg
swot
system
sırasında
t
ta
tabghach
tag
tagh
taghle
taki
talk
talya
tam
tan
tang
tanrı
tapqan
tapınag
tapınak
tar
tarafından
tarihi
tarim
tarix
tarixi
tarixida
tarixidiki
tarixiy
tarixta
tarmiqi
tarqalghan
tartip
tartish
tartishsh
tartıs
tas
tash
tashlap
tashqi
tashqiri
tayyip
tdk
te
team
tebi
tech
technical
technology
tehdit
tek
teklimakan
tekshu
telep
teleppuz
ten
teng
ter
terep
terepke
tereptin
tereqqi
tereqqiy
tereqqiyat
teripi
teripidin
terjime
tes
teshkil
teshkilati
teshkilatining
tesir
tesis
teslim
test
tetqiq
tetqiqat
tewe
tewesidiki
texminen
text
textke
teyzung
tezkirisi
tft
th
than
thank
thanks
that
the
their
them
then
theory
there
they
things
think
this
thomas
thread
through
thumb
ti
tibabiti
tibet
tibetler
tid
tidighan
tidu
tige
til
tilgha
tili
tilida
tillar
tilliri
tim
time
times
timliq
tin
tinch
tinich
tining
tip
tir
tish
title
tjj
tken
tku
to
toghra
toghrisida
toghrisidiki
toluq
ton
top
toqquz
tor
total
toy
tr
translate
translatewiki
translation
tre
trump
ts
tt
ttu
tu
tughluq
tullius
tunji
tur
turatti
turghan
turidighan
turidu
turk
turpan
tursun
turup
tutishidu
tutuq
tv
two
tır
u
ubi
uc
uey
ug
uk
ukij
ul
ular
ularni
ularning
ulugh
uluk
uly
un
undaqta
under
undin
une
unesco
uni
unicode
uning
uningda
uningdin
uninggha
union
united
universal
university
uniwe
up
update
ur
url
urumqi
uruqini
urush
urushta
urxun
us
usa
use
used
user
users
using
usulini
usy
ut
utc
uti
utm
uy
uycnr
uyghun
uyghur
uyghurche
uyghurlar
uyghurlarning
uygur
uyy
uz
uzaq
uzun
uzunluk
uzunluqi
v
va
van
var
vardır
varolus
vc
ve
vekil
version
very
vi
via
video
view
views
viewthread
viii
vis
vo
vol
volkswagen
von
vs
vu
vulkan
vv
w
wa
wang
want
wapat
wapi
waqit
waqitta
waqittiki
waqti
waqtida
war
was
washington
washshehri
watch
wavesplitter
way
wayne
we
web
website
week
well
wen
wenhua
were
west
wetlik
wette
weyran
wezir
what
when
where
which
white
who
wi
wiki
wikidata
wikimedia
wikimedians
wikipedia
wikipedias
wikis
wilayetlik
wilayiti
wilayitining
will
william
windows
with
wo
word
wordpress
work
working
works
world
would
woznik
writing
wrong
wru
wu
www
x
xahri
xan
xani
xanliq
xanliqi
xanliqigha
xanliqini
xanliqining
xaqani
xariki
xatire
xatirilengen
xatirisi
xe
xelq
xelqara
xelqi
xelqler
xelqlerning
xelqning
xen
xenname
xenzu
xenzuche
xenzular
xi
xiii
xil
ximalikang
ximu
xinjiang
xiv
xix
xizmet
xnikomi
xoja
xoten
xotenge
xotenning
xu
xuddi
xuyzu
xv
xvi
xx
y
ya
yabghu
yaki
yaklas
yani
yaponiye
yapılan
yar
yas
yasalghan
yash
yashaydighan
yashaydu
yashighan
yatliq
yawa
yawropa
yawropadiki
yawropaning
yawrupa
yaxshi
yay
yayınları
yazghan
yazidu
yazma
ye
year
years
yene
yengi
yeni
yeniden
yenila
yer
yerde
yerdin
yerge
yerles
yerlik
yetken
yetku
yette
yi
yighinida
yil
yildin
yili
yilidiki
yilidin
yiligha
yilighiche
yilining
yillar
yillarda
yillardin
yilliq
yilliri
yin
yingi
yinki
yipek
yirmi
yjing
yle
ylenir
ynishtiyin
ynishtiyinning
yo
yok
yol
yolgha
yoli
yoligha
yolini
yolning
yong
yoq
york
yosemite
you
your
youtube
ytqanda
yu
yumshaq
yunan
yuqiri
yuqirida
yuquri
yurt
yurti
yuruqluq
yusuf
yy
yı
yıl
yılları
yılında
z
za
zadi
zaman
zara
zbe
zde
zden
ze
zel
zerine
zerk
zgen
zgu
zh
zi
zidin
zige
zilghan
zini
zining
zip
ziq
ziqi
ziqida
zisi
zle
zlenglik
zlep
zliri
zlirini
zlu
zo
zor
zu
zungtung
zz
{
|
}
~

¤
§
©
«
­
°
±
²
³
´
µ
·
»
½
×
æ
ð
÷
ı
ık
ın
ına
ında
ını
ɑ
ə
ət
ɛ
ɡ
ɨ
ɪ
ʃ
ʒ
ʰ
ʲ
ʻ
ʼ
ʾ
ʿ
ˈ
ˌ
ː
˚
ˠ
ˤ
̀
́
̂
̃
̄
̆
̇
̈
̉
̊
̌
̓
̔
̛
̡
̣
̧
̨
̪
͂
͡
α
β
γ
ε
η
θ
ι
λ
μ
ς
φ
χ
ω
а
абонти
адаләт
адәм
аз
аи
алақә
алаһидилики
алаһидә
алди
алдида
алдидики
алдини
алдинқи
алдиға
алидиған
алиду
алии
алими
алимлар
алимлири
алма
алмаштуруш
алтаи
алтун
алтә
алған
алғанда
аләм
америка
амирика
ана
андин
анчә
аптоном
аптонум
арилиқи
арисида
арисидики
арисиға
армии
артуқ
арқа
арқилиқ
асас
асаси
асасида
асасии
асасланғанда
асаслиқ
асаслиқи
асасән
асина
асия
асиядики
астида
ат
аталған
ататүрк
атилиду
атилип
атиған
атлантик
атлиқ
ахири
ахирида
ахиридики
ахирқи
ашина
ашлиқ
ашти
ашқан
ақ
аһалә
б
базар
базарға
базири
баи
бар
барди
баридиған
бариду
барлиқ
барлиққа
барған
баш
башланған
башлап
башлиди
башлиған
башлиқи
башқа
башқуруш
баян
бағлиғучи
баһаси
беги
беи
бери
бериду
берип
бериш
бесивалиду
бешиға
биз
бизгә
бизниң
билгә
билип
биллә
билмәи
билән
бир
бирақ
биргә
бири
биригә
биридин
биринчи
бирликкә
бирликтә
бирәр
бои
болатти
болди
болидиған
болиду
болиши
болмаи
болмиған
болса
болсиму
болсун
болуп
болупму
болуш
болуши
болған
болғанда
болғандин
болғанлиқи
болғачқа
бош
бу
будда
буи
булиду
булуп
бундақ
буни
буниң
буниңдин
буниңға
бурун
бурунқи
буян
бүгүнки
бүи
бәзи
бәи
бәлгилири
бәлгилирини
бәлгилириниң
бәлгиси
бәлгә
бәлки
бәлким
бәргән
бәрди
бәрпа
бәт
бәтләр
бәш
в
вапат
вариант
вақит
вақитта
вақиттики
вақтида
веи
вилаи
возник
второи
вә
г
гектар
германии
гирмании
гума
гүзәл
гүл
гә
гән
гәнсу
гәнсуниң
гәнҗу
гәрчә
д
да
давамлиқ
даим
дан
дани
данға
даңлиқ
дегән
деи
демәк
деңиз
деһқанчилиқ
ди
дивани
дигән
дии
дики
дилинип
дин
дини
динини
диған
доллар
доллири
ду
дуня
дуняда
дунядики
дуняниң
дуняға
дә
дәври
дәвригә
дәвридики
дәвридә
дәи
дәл
дәп
дәриҗидә
дәриҗилик
дәря
дәряси
дәрясиниң
дәсләп
дәсләпки
дөлити
дөлитиниң
дөләт
дөләтлири
дөләтләр
дөләтләрниң
дөләтниң
е
егиз
еза
езилған
езиқ
езиқи
езиқида
езиқидики
езиқлар
еи
екологии
ел
елан
ели
елик
елиниду
елинған
елип
елиш
емпирии
ениқ
енсәи
ери
ерим
еришкән
етип
етиқад
ечип
ечиш
ешип
еғир
еқин
еқинқи
еңи
ж
з
зади
заман
земини
зор
зуң
и
ибарәт
игилик
игиләи
игә
иди
идики
иду
из
изниң
икки
иккинчи
икән
икәнликини
ил
илан
илаһи
илгири
илгирики
илгән
илдикидин
илдин
или
илидики
илидикидин
илидин
илиду
илик
иликтир
илим
илиниң
илиға
илиғичә
иллири
иллиқ
илми
илмии
илғар
им
империи
ин
ини
иниргии
иниси
иниң
инки
инниң
инсанлар
инсанларниң
интаи
интонатсии
инқилаби
ип
ипадиләи
ипәк
иран
иранлиқ
иси
исигә
исидики
исидин
исидә
исим
исини
исиниң
ислам
исми
истанбул
ити
итигә
итини
итиниң
иттипақдаш
иттипақи
иттипақиға
ичигә
ичидики
ичидә
ички
ичә
иш
ишбара
ишләпчиқириш
ишләткән
ишләш
ишқа
иға
иҗтимаии
иқтисад
иқтисади
иқтисадии
иңи
к
кашғәрии
квадрат
кеи
келидиған
келиду
келип
керии
керәк
кетиду
кеңәи
кии
килидиған
килиду
километир
кимхап
киргән
кириду
кирим
кирими
кирип
китабида
кичик
киши
кишилик
кишиләр
кишиләрниң
коинлун
комараҗива
комитети
компартии
компи
кона
кроран
кучар
күмүш
күн
күни
күч
күчи
күчини
күчиниң
күчлүк
күчәи
кәи
кәлгән
кәлгәндә
кәлди
кәлмәктә
кәлсә
кәлтүрди
кәлтүрүп
кәлтүрүш
кәнт
кәткән
кәтсә
кәтти
кәң
көз
көздә
көк
көктүрк
көл
көли
көлими
көмүр
көп
көргәзмисидә
көрситиду
көрситип
көтүрүп
көчкән
көчүп
көчүрмә
л
ла
лагаш
лаи
ланди
ланған
лап
лар
латин
лашқан
лекин
ли
лик
линии
лиқ
лиқи
лоп
м
маарип
маарипниң
маи
мал
малии
малларни
ман
мана
мани
манлиқи
манлиқиниң
масса
маңғанда
месопотамии
метир
миз
микрософт
милади
миладидин
миладии
миладиниң
мили
милли
миллии
миллити
милләт
милләтләр
милләтләрниң
милярд
миқдари
миқи
миң
миңдин
миңға
мо
моюнчүр
моңғул
моңғулии
муавин
мувапиқии
мувәппәқии
музика
музикиси
мумкин
мунасивити
мунасивәт
мунасивәтлик
мундақ
мустәқил
мустәқиллиқ
мутләқ
мушу
мушундақ
муқим
муһим
мәвҗут
мәдәнии
мәзгилдә
мәзгилидә
мәи
мәктәп
мәликиси
мәликә
мәлум
мәлумат
мәмликәт
мәмликәтлик
мәмурии
мән
мәнидики
мәнилик
мәниси
мәнә
мәркизи
мәркизии
мәркәз
мәсилә
мәсилән
мәшғулат
мәшһур
мәғлуп
мәңгү
мәһмуд
мәһсулати
н
на
нам
намаи
нами
намидин
намини
наминиң
намлар
намлири
намлиқ
намни
намниң
национальныи
наһаи
наһии
немә
нет
нефит
ни
нидин
нии
нисбити
нисбәтән
ниспии
ништии
ния
ниң
нопус
нопуси
нур
нурғун
нурғунлиған
нусхиси
нуқта
нәзири
нәтиҗидә
нәтиҗиси
нәччә
нәшри
нәшрияти
нөвәтлик
нөвәттә
о
ои
ол
оли
олини
олиниң
олиға
олниң
олға
омуми
омумии
он
ондин
они
онида
онидин
онимиз
ониниң
орни
орнини
орниға
орун
орунда
орунға
орхун
орқун
осман
от
отер
оттура
оттуричә
оттуриға
оттурға
охшаи
охшаш
охшашла
охшимиған
оғли
оқ
оқуш
оң
п
паалии
падишаһ
падишаһи
паи
памир
парламент
партии
парчә
пилии
пилә
пичан
по
пои
пул
пүтүн
пүтүнләи
пәи
пән
пәнләр
пәслидә
пәш
пәқәт
р
раи
ран
риваи
рилип
рим
рип
рол
роли
ролини
рома
ромаға
роник
росии
россии
руқ
рәиси
рәсми
рәсмии
рәт
рәҗәп
рәңлик
с
са
сабиқ
саи
сан
санаәт
сани
санлиқ
сармадан
саяһәт
саәт
селип
сестимиси
сетиш
си
сии
синтаксислиқ
сир
сирислар
сирислиқлар
сирисләр
ситивен
сияси
сиясии
сиясити
соал
совет
сода
соммиси
сотсиялистик
су
сулалиси
сулалисигә
сулалисини
сулалисиниң
сулалисиға
сумер
сумерлар
сумерларниң
сүи
сүпитидә
сүргүнди
сүргән
сәвии
сәи
сән
сәпләнгән
сөз
сөзләр
сөзниң
т
та
табғач
тавар
таи
тар
тарим
тарих
тарихи
тарихида
тарихидики
тарихии
тарихта
тармақ
тармиқи
тартип
тартиш
тартишш
таш
таши
ташқи
ташқири
тағ
таң
тез
текин
тепилған
территории
техи
техиму
техника
техникоми
теши
теғи
теғиниң
ти
тибабити
тибәт
тибәтләр
тил
тили
тилида
тилидики
тилиниң
тиллар
тиллири
тилға
тин
тинич
тиниш
тип
тирнақ
тирнаққа
толуқ
топ
тор
тоғра
тоғрисида
тоғрисидики
тоққуз
транскрипсии
тти
тунҗи
туратти
туридиған
туриду
турпан
туруп
турған
тутишиду
тутуқ
туғлуқ
тқанда
түзгән
түзләңлик
түзүлгән
түпәи
түрдә
түрк
түркии
түркистан
түркләр
түркләргә
түркләрни
түркләрниң
түрколог
түркчә
түрлүк
тәбии
тәбиии
тәвә
тәвәсидә
тәи
тәклимакан
тәкшүрүш
тәләп
тәләппуз
тәрбии
тәрипи
тәрипидин
тәркиб
тәркибләр
тәрҗимиси
тәрҗимә
тәрәп
тәрәпкә
тәрәптин
тәрәққи
тәрәққии
тәрәққият
тәсир
тәсис
тәслим
тәтқиқ
тәтқиқат
тәтқиқати
тәхминән
тәхт
тәхти
тәхткә
тәшкил
тәшкилатиниң
тәң
тәңдаш
төвән
төмүр
төт
у
узақ
узун
узунлуқи
уи
улар
уларни
уларниң
улуғ
ундақта
ундин
уни
университети
униң
униңдин
униңға
ур
уруш
урушта
уруқини
урхун
усулини
фаи
физика
флаг
флаги
франсии
франсуз
х
хан
хани
ханлиқ
ханлиқи
ханлиқини
ханлиқиниң
ханлиқиға
хас
хата
хатириләнгән
хатириси
хатирә
хели
хеши
хизмәт
хил
хиттаи
хотән
хотәнгә
хотәнниң
худди
хуи
хуласә
хусусии
хәлқ
хәлқара
хәлқи
хәлқләр
хәлқниң
хән
хәнзу
хәнзулар
хәнзучә
хәннамә
хәт
ч
чаи
чан
чатақ
чағда
чағдики
чағдин
чағларда
чақилиқ
чақирим
чаңәнгә
чегра
чекит
четигә
чира
чиқарған
чиқиду
чиқип
чиқиш
чиқти
чиққан
чиң
чиңхәи
чор
чорчан
чоң
чоңқур
чур
чурчан
чүнки
чүшүп
чәрчән
чәт
ш
шизаң
шимал
шималда
шимали
шималида
шималидики
шималии
шималғичә
шинҗаң
шинҗаңда
шинҗаңдики
шинҗаңниң
ширкити
ширкитиниң
ширкәт
шу
шундақ
шундақла
шундин
шуни
шуниң
шуниңдин
шуңа
шуңлашқа
шәрқ
шәрқи
шәрқии
шәрқтин
шәрқтә
шәхсләр
шәһири
шәһиридә
шәһириниң
шәһәр
ы
э
ю
юмшақ
юнан
юрт
юруқлуқ
юқири
юқирида
юқириқи
юқури
я
ябғу
ява
явропа
яврупа
язиду
язма
язған
яи
яки
ясалған
ятлиқ
яхши
яш
яшаи
яшиған
і
ға
ғаи
ған
ғун
ғур
ғурлар
ғурларниң
ғурчә
ғәрб
ғәрби
ғәрбии
ғәрбкә
ғәрпкә
җ
җаи
җан
җисимниң
җиң
җобис
җорҗан
җумһурии
җуғрапии
җуңго
җуңгодики
җуңгониң
җуңгоға
җуңғар
җүмлидин
җүмлидә
җүмлиниң
җүмлә
җәмии
җәнуб
җәнуби
җәнубидики
җәнубии
җәнупта
җәнупқа
җәһәттики
җәһәттин
җәһәттә
қ
қазақ
қазақистан
қаи
қалаи
қалди
қалған
қандақ
қануни
қанчә
қара
қараи
қарап
қарар
қарақаш
қарита
қариши
қариған
қариғанда
қарлуқ
қарши
қатар
қатарлиқ
қатарлиқлар
қатарлиқларниң
қатнаш
қаттиқ
қаштеши
қаған
қағани
қағанниң
қағанға
қелип
қетим
қетимлиқ
қизил
қии
қилатти
қилди
қиливатқан
қилидиған
қилиду
қилинди
қилинип
қилинған
қилип
қилиш
қилишқа
қилған
қилғанда
қилғанлиқини
қилғуч
қиммити
қиммәтлик
қирғиз
қирғизистан
қисим
қисми
қисмиға
қобул
қои
қолланған
қоллинилиду
қолға
қорал
қош
қошма
қошумчә
қошун
қошунлери
қошуп
қоюлди
қоюлиду
қоюлмаи
қоюлған
қоюп
қуи
қумлуқ
қумул
қурулди
қурулуш
қурулған
қуруп
қурутиниң
қуруқлуқ
қурған
қуяш
қуҗу
қәбилилери
қәбилиси
қәбилә
қәдимии
қәдимки
қәдәм
қәдәр
қәшқәр
ү
үз
үзидин
үзлүк
үзлүксиз
үк
үндәш
үрүмчи
үрүш
үстигә
үстидә
үч
үчинчи
үчүн
үән
үәнгә
һава
һазир
һазирғичә
һазирқи
һаи
һакимии
һалда
һасил
һесаблиниду
һинди
һон
һоқуқ
һоқуқи
һуҗум
һәдии
һәи
һәл
һәм
һәмдә
һәммиси
һәммә
һәмраһ
һәр
һәрбии
һәркити
һәркәт
һәрқаи
һәрқандақ
һәссә
һәтта
һәққидә
һөкүм
һөкүмити
һөкүмранлиқ
һөкүмәт
һөрмәт
ә
әвәтип
әгишип
әгәр
әдики
әдин
әдә
әза
әзаси
әзәлдин
әи
әл
әлвәттә
әлик
әлчи
әлчиләр
әмма
әмәлии
әмәс
ән
әнгилии
әнглии
әни
әнила
әниң
әнә
әр
әрдин
әрдоған
әрдә
әрлик
әрәб
әси
әсир
әсирдин
әсиридә
әсирниң
әсли
әслигә
әслидә
әт
әткә
әткән
әтлик
әтләр
әтни
әтниң
әтрапида
әтрапқа
әтти
әттә
әң
әһмии
өз
өзара
өзгәртиш
өзи
өзигә
өзини
өзиниң
өи
өлкә
өлтүрүп
өткән
өтмәи
өтүп
ְ
ֲ
ִ
ֵ
ֶ
ַ
ָ
ֹ
ּ
ׁ
ׂ
א
ב
ג
ד
ה
ו
ח
י
ל
ם
מ
ן
נ
ס
ע
ק
ר
ש
ת
،
ؕ
؛
؞
؟
ء
ا
اء
اب
ابابەكرى
ابات
اباد
ابادان
ابايا
ابباس
ابباسنىڭ
ابباسوف
ابباسىلار
ابباسىي
ابباسىيلار
ابباسىيلەر
ابدال
ابدىمىلىك
ابدۇ
ابدۇجېلىل
ابدۇخالىق
ابدۇراخمان
ابدۇراھمان
ابدۇرراززاق
ابدۇرراھمان
ابدۇررەشىدخاننىڭ
ابدۇرىشىت
ابدۇرۇسۇل
ابدۇرېشىت
ابدۇرېھىم
ابدۇرېھىمجان
ابدۇرەشىد
ابدۇرەشىدخان
ابدۇرەي
ابدۇرەھمان
ابدۇرەھىم
ابدۇسالام
ابدۇسەمەت
ابدۇشۈكۈر
ابدۇشۈكۈرنىڭ
ابدۇغوپۇر
ابدۇغۇپۇر
ابدۇغېنى
ابدۇقادىر
ابدۇقەييۇم
ابدۇكېرىم
ابدۇكېرىمجان
ابدۇكېرەم
ابدۇل
ابدۇلباقى
ابدۇلقادىر
ابدۇلكەرىم
ابدۇللا
ابدۇللاخان
ابدۇللانىڭ
ابدۇللاھ
ابدۇلمۇتتەلىب
ابدۇلمەجىد
ابدۇلمەلىك
ابدۇلي
ابدۇلھېكىم
ابدۇلھەكىم
ابدۇلھەمىد
ابدۇمىجىت
ابدۇنىياز
ابدۇۋېلى
ابدۇۋەلى
ابرال
ابراھام
ابروي
ابرويلۇق
ابزاس
ابستراكت
ابلا
ابلاجان
ابلاجاننىڭ
ابلىز
ابلىكىم
ابلىمىت
ابلەت
ابن
ابونت
ابونتى
ابى
ابىدىسى
ابىدىلىرى
ابىدىلىرىدە
ابىدىلەر
ابىدىن
ابىدە
ابي
ابېت
ات
اتا
اتاتۈرك
اتاتۈركنىڭ
اتاخان
اتار
اتاسى
اتاش
اتاشقا
اتاشنى
اتاغلىق
اتاق
اتاقلىق
اتالاي
اتالدى
اتالسا
اتالغان
اتالغانلىقى
اتالغۇ
اتالغۇسى
اتالغۇسىنى
اتالغۇسىنىڭ
اتالغۇغا
اتالغۇلار
اتالغۇلارغا
اتالغۇلارنى
اتالغۇلارنىڭ
اتالغۇلىرى
اتالغۇلىرىنى
اتالغۇلىرىنىڭ
اتالغۇنى
اتالغۇنىڭ
اتالماقتا
اتالمىش
اتام
اتاي
اتايتتى
اتايدىغان
اتايدۇ
اتايمىز
اتايىن
اتاپ
اتتى
اتتىم
اتتىن
اتسا
اتسىيىسى
اتسىيە
اتقا
اتقان
اتقاندا
اتقۇردى
اتقۇچى
اتلار
اتلاردا
اتلارنى
اتلارنىڭ
اتلاشتۇرۇش
اتلانتىك
اتلاندى
اتلانغان
اتلاپ
اتلىرى
اتلىرىدا
اتلىرىغا
اتلىرىنى
اتلىرىنىڭ
اتلىشى
اتلىق
اتلىنىدۇ
اتلىنىپ
اتموسفېرا
اتموسفېرادىكى
اتموسفېراغا
اتمىش
اتنى
اتنىڭ
اتور
اتوم
اتى
اتىدى
اتىدىغان
اتىدىن
اتىدۇ
اتىسى
اتىسىغا
اتىسىنى
اتىسىنىڭ
اتىشى
اتىشىدۇ
اتىغا
اتىغان
اتىلاتتى
اتىلار
اتىلدۇ
اتىللا
اتىلىدىغان
اتىلىدىغانلىقى
اتىلىدۇ
اتىلىش
اتىلىشقا
اتىلىشى
اتىلىق
اتىلىپ
اتىلىۋاتقان
اتىنىڭ
اتىي
اتىۋالغان
اتۇش
اتۇشتا
اتۇشتىكى
اتۇشقا
اتۇشلۇق
اتۇشنىڭ
اتۇم
اتەش
اج
اجايىپ
اجراتقان
اجراتما
اجراپ
اجرىتىش
اجرىتىلغان
اجرىتىلىپ
اجرىتىپ
اجرىشىش
اجرىشىپ
اجىز
اجىزلاپ
اجىزلىشىشى
اجىزلىشىپ
اجىزلىق
اجىزلىقى
اجىزلىقىنى
اح
اخبارات
اخباراتنىڭ
اخباراتچىلار
اخباراتچىلىق
اختۇرۇش
اخرى
اخرىدا
اخشام
اخشاملىرى
اخشىمى
اخىر
اخىردا
اخىرغىچە
اخىرقى
اخىرقىسى
اخىرلاشتى
اخىرلاشتۇردى
اخىرلاشتۇرۇش
اخىرلاشتۇرۇپ
اخىرلاشقان
اخىرلاشقاندا
اخىرلاشقاندىن
اخىرلىرى
اخىرلىرىدا
اخىرلىرىدىن
اخىرلىرىغىچە
اخىرلىشىدۇ
اخىرلىشىش
اخىرلىشىشى
اخىرلىشىپ
اخىرى
اخىرىدا
اخىرىدىكى
اخىرىدىن
اخىرىغا
اخىرىغىچە
اخىرىقى
اخىرىنى
اخىرەت
اخىرەتتە
اخۇن
اخۇننىڭ
اخۇنۇم
اد
ادا
اداش
اداشقان
اداققىچە
ادالاپ
ادالەت
ادالەتسىز
ادالەتسىزلىك
ادالەتسىزلىككە
ادالەتلىك
ادانا
اداۋەت
ادةم
اددى
اددىي
اددىيلا
اددىيلاشتۇرلغان
اددىيلاشتۇرۇلغان
اددىيلاشتۇرۇپ
اددە
ادرىسى
ادرىسىدىن
ادرېسى
ادىتى
ادىتىدە
ادىتىم
ادىتىمۇ
ادىتىنى
ادىتىنىڭ
ادىتىگە
ادىرسى
ادىرىسى
ادىل
ادىلجان
ادىللىق
ادىمى
ادىمىنى
ادىمىيلىك
ادىمىيەت
ادىن
ادۋوكات
ادۋوكاتلىق
ادۋۇكات
ادۋۇكاتلىق
ادە
ادەت
ادەتتصكص
ادەتتىكى
ادەتتىكىچە
ادەتتىن
ادەتتە
ادەتكە
ادەتلىرى
ادەتلىرىدە
ادەتلىرىمىز
ادەتلىرىنى
ادەتلىرىنىڭ
ادەتلىرىگە
ادەتلىنىپ
ادەتلەر
ادەتلەرنى
ادەتلەرنىڭ
ادەتلەرگە
ادەتلەنگەن
ادەتنى
ادەتنىڭ
ادەتچانلىق
ادەم
ادەمدىن
ادەمدە
ادەمدەك
ادەمسىز
ادەملىرى
ادەملىرىنى
ادەملىك
ادەملەر
ادەملەردىن
ادەملەرنى
ادەملەرنىڭ
ادەملەرگە
ادەممۇ
ادەمنى
ادەمنىڭ
ادەمگە
اذ
ار
ارا
اراتۈرك
ارادا
ارادىكى
اراسى
اراسىدا
اراغا
ارال
ارالدا
ارالغا
اراللار
اراللىرى
اراللىرىنى
ارالنى
ارالنىڭ
ارالىق
ارام
اران
ارانلا
ارانىڭ
اراي
ارت
ارتقان
ارتىس
ارتىست
ارتىسلار
ارتىسلارنى
ارتىسى
ارتىپ
ارتۇق
ارتۇقراق
ارتۇقچىلىق
ارتۇقچىلىقلارنى
ارتۇقچىلىقلىرىنى
ارتۇقچىلىقى
ارتۇقچە
ارتۇچ
ارخىي
ارخىپ
ارخىپى
ارخې
ارخېي
ارزۇ
ارزۇسى
ارزۇسىدا
ارزۇسىغا
ارزۇسىنى
ارزۇسىنىڭ
ارزۇغا
ارزۇلىرى
ارزۇنى
ارزۇيۇم
ارسلان
ارسلانخان
ارسىدا
ارسىدىكى
ارشاڭ
ارشىن
ارشىڭى
ارصپ
ارصپص
ارصپصنص
ارغامچا
ارغامچىنى
ارغىماق
ارغۇن
ارقا
ارقار
ارقان
ارقىدا
ارقىدىن
ارقىدىنلا
ارقىسىدا
ارقىسىدىكى
ارقىسىدىن
ارقىسىغا
ارقىغا
ارقىلق
ارقىلىق
ارقىلىقلا
ارقىلىقمۇ
ارقىمۇ
ارلاش
ارلاشتۇرۇپ
ارلىرى
ارلىشىپ
ارلىق
ارلىقتا
ارلىقتىكى
ارلىقى
ارمان
ارمانلىرىنى
ارمىيسى
ارمىيسىنىڭ
ارمىينىڭ
ارمىيىسى
ارمىيىسىنى
ارمىيىسىنىڭ
ارمىيىسىگە
ارمىيىنىڭ
ارمىيە
ارمىيەسى
ارمىيەسىنى
ارمىيەسىنىڭ
ارمىيەسىگە
ارمىيەنىڭ
ارمىيەگە
ارنىڭ
ارى
ارىدا
ارىدىن
ارىستوتىل
ارىستوتېل
ارىسدا
ارىسلانخان
ارىسى
ارىسىدا
ارىسىدىكى
ارىسىدىمۇ
ارىسىدىن
ارىسىغا
ارىسىنى
ارىش
ارىغا
ارىف
ارىق
ارىلاش
ارىلاشتۇرۇلغان
ارىلاشتۇرۇلىدۇ
ارىلاشتۇرۇلۇپ
ارىلاشتۇرۇپ
ارىلاشقان
ارىلاشما
ارىلاشمىغان
ارىلاپ
ارىلى
ارىلىدا
ارىلىدىكى
ارىلىدىن
ارىلىشىش
ارىلىشىشى
ارىلىشىشىغا
ارىلىشىپ
ارىلىغا
ارىلىق
ارىلىقتا
ارىلىقتىكى
ارىلىقتىن
ارىلىققا
ارىلىقنى
ارىلىقى
ارىلىقىدا
ارىلىقىدىكى
ارىلىقىغا
ارىلىقىنى
ارىلىنى
ارىلىنىڭ
ارىمىزدا
ارىمىزدىكى
ارىي
ارىيان
ارىيە
ارىيەت
ارىيەتكە
ارىپ
ارىپتا
ارىپتىكى
ارىپتىن
ارىپقا
ارىپنى
ارىپنىڭ
ارىپى
ارىپىدا
ارىپىغا
ارىپىنى
ارىپىنىڭ
ارىپچى
ارپا
ارپىبەدىيان
ارچا
ارگنتىنا
ارگىنتىنا
ارگېنتىنا
ارۇز
از
ازاب
ازابلىق
ازابى
ازابىدىن
ازابىنى
ازات
ازاتلىق
ازاتلىقى
ازاد
ازادلىق
ازادلىقتىن
ازادلىققا
ازادلىقى
ازادگەردىسى
ازادگەردە
ازادە
ازار
ازاراقى
ازاق
ازايتىدۇ
ازايتىش
ازايتىپ
ازايدى
ازاپ
ازدىن
ازدۇر
ازدۇرۇش
ازراق
ازراقتىن
ازراقلا
ازراقمۇ
ازسانلىق
ازغان
ازغىنە
ازغۇن
ازلاپ
ازلىق
ازلىقى
ازنا
ازوت
ازىراق
ازىرقى
ازىركى
ازىيىپ
ازىيە
ازەربەيجان
ازەرى
اس
اسار
اسارە
اسارەت
اساس
اساستا
اساسسىز
اساسقا
اساسلار
اساسلارنى
اساسلانغان
اساسلانغاندا
اساسلاڭاندا
اساسلىرى
اساسلىق
اساسلىقى
اساسلىنىپ
اساسى
اساسىدا
اساسىدىكى
اساسىدۇر
اساسىغا
اساسىنى
اساسىي
اساسي
اساسچىسى
اساسەن
اسالىق
اسالىقى
اسان
اسانراق
اسانغا
اسانلا
اسانلىق
اسانلىقچە
است
استا
استانە
استرولوگىيە
استرونوم
استرونومىيىلىك
استرونومىيە
استى
استىدا
استىدىكى
استىدىمۇ
استىدىن
استىرتتىن
استىغا
استىلىقى
استىن
استىنقى
استۇر
اسراش
اسساسلىك
اسسىمىلاتسىيە
اسسىمىلياتسىيە
اسلان
اسما
اسمان
اسماندا
اسماندىكى
اسماندىن
اسمانغا
اسماننى
اسماننىڭ
اسمىلاتسىيە
اسمىنىدا
اسمىنىنى
اسى
اسىغا
اسىم
اسىموۋنىڭ
اسىنا
اسىنى
اسىي
اسىيا
اسىيادا
اسىيادىكى
اسىيادىن
اسىياغا
اسىيالىق
اسىيالىقلار
اسىيانى
اسىيانىڭ
اسىيلىق
اسيا
اسپرانت
اسپىرانت
اسپىرانتلار
اسپىرانتلىق
اسپىرانتلىقتا
اسپىرانتلىققا
اسپىرانتورىيىسىنىڭ
اسپىرىن
اش
اشتى
اشتىلىق
اشخانا
اشخانىدا
اشخانىسى
اشخانىسىدا
اشسىز
اشق
اشقا
اشقازان
اشقان
اشقاندا
اشقۇن
اشقۇنلۇق
اشكارا
اشكارىلاش
اشكارىلاپ
اشكارىلىدى
اشكارىلىنىپ
اشكارە
اشلىق
اشماقتا
اشمايدىغان
اشمايدۇ
اشمىغان
اشنا
اشنى
اشنىڭ
اشى
اشىدىغان
اشىدىغانلىقىنى
اشىدىكەن
اشىدۇ
اشىق
اشىقى
اشىنا
اشىنى
اشپەز
اشۇ
اشۇردى
اشۇرغان
اشۇرغىلى
اشۇرىدىغان
اشۇرىدۇ
اشۇرۇش
اشۇرۇشتا
اشۇرۇشتىكى
اشۇرۇشقا
اشۇرۇشنى
اشۇرۇلغان
اشۇرۇپ
اشۇنداق
اشەن
اع
اغا
اغدۇرۇش
اغدۇرۇلۇپ
اغدۇرۇپ
اغرىتىپ
اغرىش
اغرىشنى
اغرىق
اغرىقنى
اغرىقنىڭ
اغرىقى
اغرىقىنى
اغرىنىپ
اغرىيدۇ
اغرىپ
اغزاكى
اغزى
اغزىدا
اغزىدىكى
اغزىدىن
اغزىغا
اغزىنى
اغى
اغىر
اغىز
اغۇ
اف
افرىقا
افرىقىدا
افرىقىدىكى
افرىقىدىن
افرىقىغا
افرىقىلىق
افرىقىلىقلار
افرىقىنى
افرىقىنىڭ
افغان
افغانىستان
افغانىستاندا
افغانىستانغا
افغانىستاننىڭ
اففانلار
افىنا
افۇگاتا
اق
اقار
اقارتىش
اقارى
اقاقىيا
اقتاش
اقتو
اقتى
اقتۇ
اقساراي
اقسارايى
اقساق
اقساقال
اقساقاللىرى
اقساقىلى
اقسىل
اقسىللار
اقسىلنىڭ
اقسۆڭەك
اقسۆڭەكلىرى
اقسۆڭەكلەر
اقسۇ
اقسۇدا
اقسۇدىكى
اقسۇدىن
اقسۇغا
اقسۇنى
اقسۇنىڭ
اقشەھىردىكى
اققان
اققۇ
اقكۆڭۈل
اقلاش
اقما
اقمۇچ
اقىدىغان
اقىدۇ
اقىل
اقىلانە
اقىۋىتى
اقىۋىتىنى
اقىۋەت
اقىۋەتتە
اقىۋەتكە
اقىۋەتلەر
اقىۋەتلەرنى
اقىۋەتنى
اقي
اقيار
اقچى
اك
اكا
اكاد
اكادىمىيىسى
اكادېمىك
اكادېمىكى
اكادېمىيسى
اكادېمىيىسى
اكادېمىيىسىدىن
اكادېمىيىسىدە
اكادېمىيىسىنىڭ
اكادېمىيىسىگە
اكادېمىيە
اكادېمىيەسى
اكادېمىيەسىنىڭ
اكام
اكامنىڭ
اكتىيورلۇق
اكتىپ
اكتىپلىق
اكتىپلىقى
اكتىپلىقىنى
اكسىيىسى
اكسىيە
اكسىيەسى
اكىتىپ
اكىسى
اكىسىنىڭ
اكىلىرى
اكىنىڭ
اكچۇرا
ال
الا
الاتتى
الاتحاد
الادىن
الار
الاغا
الاقصدار
الاقىدار
الاقىدارلار
الاقىدارلاردىن
الاقىدارلارغا
الاقىدارلارنىڭ
الاقىدە
الاقىسى
الاقىسىنى
الاقىلىشىش
الاقىلىشىپ
الاقىنى
الاقىنىڭ
الاقىگە
الاقە
الاقەدار
الالايدىغان
الالايدۇ
الالماي
الالمىغان
الامىتى
الامەت
الامەتلىرى
الامەتلىرىنى
الامەتلەر
الان
الانىڭ
الاي
الايلى
الايلۇق
الاھىدىلىك
الاھىدىلىككە
الاھىدىلىكلىرى
الاھىدىلىكلىرىدىن
الاھىدىلىكلىرىنى
الاھىدىلىكلىرىگە
الاھىدىلىكلەر
الاھىدىلىكلەرگە
الاھىدىلىكنى
الاھىدىلىكى
الاھىدىلىكىدىن
الاھىدىلىكىنى
الاھىدىلىكىگە
الاھىدە
الاھىيدە
الب
البان
البانىي
البانىيە
البېرت
التاي
التايشۇناسلىق
التايلار
التايلارنىڭ
التاينىڭ
التى
التىشەھەر
التىنچى
التي
التۇن
التۇنتاغ
التۇندىن
التۇنغا
التە
الج
الجامع
الجنة
الجواهر
الجىرىيە
الح
الحديث
الخ
الد
الدا
الداش
الدامچى
الدامچىلىق
الداپ
الدول
الدى
الدىدا
الدىدىكى
الدىدىمۇ
الدىدىن
الدىراش
الدىراپ
الدىرىماي
الدىغا
الدىغان
الدىم
الدىمدا
الدىمدىن
الدىمغا
الدىمىزدا
الدىمىزدىكى
الدىمىزغا
الدىن
الدىنقى
الدىنقىسى
الدىنقىلارنىڭ
الدىنى
الدىنىقى
الدىنىپ
الدىني
الدىڭدا
الدىڭغا
الدىڭىزدا
الدىڭىزغا
الدين
الدۇرغان
الدۇرىدۇ
الدۇرۇش
الدۇرۇشنى
الدۇرۇشى
الدۇرۇلغان
الدۇرۇپ
الدۇق
الر
الرحمن
الز
الس
السا
الساق
السام
السنن
السىمۇ
السۇن
الش
الشريعة
الص
الصحيح
الضعيفة
الع
العالم
العزيز
العلم
الغا
الغان
الغاندا
الغاندىن
الغانلار
الغانلىقى
الغانلىقىنى
الغانىدى
الغاچ
الغىلى
الغىن
الغىنى
الغىنىمدەك
الغۇ
الغۇر
الغۇچى
الغۇچىغا
الغۇچىلار
الغۇچىنى
الغۇچىنىڭ
الفا
الفقه
الفېرد
الق
القات
القرا
القرشي
القىش
القىشقا
القىشىغا
الك
الكبير
الل
اللا
اللاتاي
اللار
اللارغا
اللارنى
اللارنىڭ
اللانىڭ
اللاھ
اللاھتاي
اللاھتىن
اللاھدىن
اللاھغا
اللاھقا
اللاھنى
اللاھنىڭ
اللاھۇ
اللاھۇممە
الله
اللىبۇرۇن
اللىرىغا
اللىق
اللىقاچان
اللىقتا
اللىقتىن
اللىققا
اللىقنى
اللىقنىڭ
اللىقى
اللىقىغا
اللىيەي
اللھ
اللە
اللەنىڭ
الم
الما
الماتا
الماس
الماسلىق
الماش
الماشتۇردى
الماشتۇرغان
الماشتۇرغىلى
الماشتۇرىدۇ
الماشتۇرۇش
الماشتۇرۇشتا
الماشتۇرۇشقا
الماشتۇرۇشنى
الماشتۇرۇپ
الماشقان
الماشماس
الماق
الماقتا
الماقچى
المالى
الماي
المايدىغان
المايدۇ
المجلس
المجمع
المختصر
المدخل
المضية
المفوضية
المو
الموضوعات
الموطا
المىدى
المىسا
المىشىدۇ
المىشىش
المىشىشى
المىشىپ
المىغان
المىغاندا
المىلىق
المىنى
المىنىڭ
المۇتا
المۇتىدا
الن
النجوم
النى
النىڭ
الوافي
الوگ
الى
الىدىغان
الىدىغانلىقىنى
الىدىكەن
الىدۇ
الىزم
الىزملىق
الىستىك
الىسىز
الىكتى
الىم
الىمجان
الىمغا
الىملار
الىملاردىن
الىملارغا
الىملارنى
الىملارنىڭ
الىملىرى
الىملىرىدىن
الىملىرىمىز
الىملىرىنىڭ
الىمنى
الىمنىڭ
الىمى
الىمىز
الىمەن
الىي
الىيا
الىيتى
الىيجاناب
الىيىتى
الىيىتىدە
الىيىتىنى
الىيىتىنىڭ
الىيىتىگە
الىيە
الىيەت
الىيەتتۇر
الىيەتتە
الىيەتكە
الىيەتلىرى
الىيەتلىرىدە
الىيەتلىرىنى
الىيەتلىرىنىڭ
الىيەتلىرىگە
الىيەتلەر
الىيەتلەردە
الىيەتلەرنى
الىيەتلەرنىڭ
الىيەتلەرگە
الىيەتنى
الىيەتنىڭ
الىيەتچى
الىپ
الىپتېكىن
اليۇمىن
الپ
الپتېكىن
الپنىڭ
الۋاستى
الۋان
الۋاڭ
الېكساندىر
الېكساندېر
الېكىتى
الەم
الەمدىكى
الەمدىن
الەمدە
الەمشۇمۇل
الەملەرنىڭ
الەمنى
الەمنىڭ
الەمگە
الەي
ام
امازون
امال
امالسىز
امالسىزلىقتىن
اماللار
اماللارنى
امالى
امان
امانلىق
امانلىقىنى
اماننىساخان
امانگۈل
امانەت
امانەتكە
امبار
امبال
امبان
امبروزىيە
امبىروزىيە
امبىرى
امبىرىدىن
امبىرىغا
امبىرىنى
امبىلى
امبىلىنىڭ
امبۇر
امر
امراق
امرىكا
امرىكىدا
امستېردام
املار
املارنى
املىرى
امما
اممار
اممىباب
اممىباپ
اممىسى
اممىسىغا
اممىسىنى
اممىسىنىڭ
اممىغا
اممىنى
اممىنىڭ
اممىۋى
اممىۋىي
امى
امىتىرى
امىر
امىرخان
امىركا
امىركىنىڭ
امىرىكا
امىرىكىدا
امىرىكىدىكى
امىرىكىغا
امىرىكىنىڭ
امىل
امىلدۇر
امىللار
امىللاردىن
امىللارغا
امىللارنى
امىللارنىڭ
امىللىرى
امىلنىڭ
امىلى
امىلىدە
امىلىسى
امىلىنى
امىلىگە
امىلە
امىن
امىنو
امىنە
امۇ
امۇت
امېتىرى
امېركىلىقلارنىڭ
امېرىكا
امېرىكان
امېرىكانو
امېرىكانىڭ
امېرىكدىكى
امېرىكىدا
امېرىكىدىكى
امېرىكىدىمۇ
امېرىكىدىن
امېرىكىسى
امېرىكىغا
امېرىكىلىق
امېرىكىلىقلار
امېرىكىلىقلاردا
امېرىكىلىقلاردىكى
امېرىكىلىقلاردىن
امېرىكىلىقلارغا
امېرىكىلىقلارنىڭ
امېرىكىلىقنىڭ
امېرىكىنى
امېرىكىنىڭ
امېرىكىچە
امەت
ان
انا
اناتولىيىگە
اناتولىيە
انادولۇ
انادولۇدا
انادولۇغا
انادولۇنىڭ
انار
انارخان
اناسى
انالىتىك
انالىز
انالىزى
انالىزچىسى
انام
انامغا
انامنى
انامنىڭ
اناناس
انتاركتىدا
انتانتا
انتروپوتومىيە
انتونىي
اند
اندا
اندوررا
اندىكى
اندىن
انسامبىلى
انغا
انكىتى
انلار
انلارنىڭ
اننا
اننى
اننىڭ
انو
انى
انىدىن
انىسى
انىسىدىن
انىسىغا
انىسىمۇ
انىسىنى
انىسىنىڭ
انىغا
انىلار
انىلاردىن
انىلارغا
انىلارنى
انىلارنىڭ
انىلىرى
انىلىرىنى
انىلىرىنىڭ
انىلىق
انىمىز
انىمىزنىڭ
انىنو
انىنى
انىنىڭ
انىيەس
انىچۇق
انىڭ
انىڭىز
انىڭىزغا
اني
انچۇقنى
انچە
انگولا
انگولانىڭ
انە
اه
او
اي
اياغ
اياغلاشتى
اياغلاشقان
اياغلاشقاندىن
اياغلىشىدۇ
اياق
ايال
ايالدىن
ايالغا
اياللار
اياللاردىن
اياللارغا
اياللارمۇ
اياللارنى
اياللارنىڭ
اياللارنىڭمۇ
اياللىرى
اياللىرىغا
اياللىرىنى
اياللىرىنىڭ
اياللىق
ايالنى
ايالنىڭ
ايالى
ايالىدىن
ايالىغا
ايالىم
ايالىمنىڭ
ايالىنى
ايالىنىڭ
ايالىڭىز
ايالچە
ايان
ايانكى
اياپ
ايتۇرسۇن
ايخان
ايدا
ايدىكى
ايدىن
ايدىڭ
ايدىڭكۆل
ايدىڭلاشتۇرۇش
ايدۇر
ايدەك
ايرودرومى
ايرودۇرۇمى
ايروپورتى
ايروپىلان
ايروپىلاننىڭ
ايروپىلانى
ايرىش
ايرىشتا
ايرىشقا
ايرىغان
ايرىلالمايدۇ
ايرىلدى
ايرىلسا
ايرىلغان
ايرىلغاندا
ايرىلغاندىن
ايرىلماس
ايرىلمايدۇ
ايرىلمىسۇن
ايرىلمىغان
ايرىلىدىغان
ايرىلىدۇ
ايرىلىش
ايرىلىشقا
ايرىلىشى
ايرىلىپ
ايرىم
ايرىماي
ايرىمايدۇ
ايرىمىچىلىق
ايرىمچىلىق
ايرىمچىلىققا
ايرىيدۇ
ايرىپ
ايرىۋېتىلگەن
ايرپوت
ايرۇپىلان
ايشەم
ايغا
ايغىر
ايغىچە
ايكۆل
ايل
ايلا
ايلار
ايلاردا
ايلارنىڭ
ايلاندى
ايلاندۇردى
ايلاندۇرغان
ايلاندۇرىدىغان
ايلاندۇرىدۇ
ايلاندۇرۇش
ايلاندۇرۇشقا
ايلاندۇرۇشنىڭ
ايلاندۇرۇپ
ايلانسا
ايلانغان
ايلانغاندىن
ايلانغانلىقىنى
ايلانما
ايلانمىسى
ايلاپ
ايلىرى
ايلىرىدا
ايلىق
ايلىنالايدۇ
ايلىنىدىغان
ايلىنىدۇ
ايلىنىش
ايلىنىشقا
ايلىنىشنى
ايلىنىشى
ايلىنىشىنى
ايلىنىپ
ايماق
ايمىقى
ايمىقىغا
ايمىقىنىڭ
اينى
اينىڭ
ايىتى
ايىتىدە
ايىدا
ايىغى
ايىقى
ايىم
ايىمخان
ايۇپ
ايۇپنىڭ
ايۋان
ايە
ايەت
ايەتتىكى
ايەتتىن
ايەتتۇر
ايەتتە
ايەتلىرى
ايەتلىرىدە
ايەتلىرىنى
ايەتلەر
ايەتلەردە
ايەتلەرنى
ايەتلەرنىڭ
ايەتنى
ايەتنىڭ
ايەم
اپا
اپاراتى
اپارغان
اپام
اپتاپ
اپتاپتا
اپتاپقا
اپتاپپەرەس
اپتوبۇس
اپتور
اپتورلارنىڭ
اپتورنىڭ
اپتورى
اپتوماتلاشتۇرۇش
اپتوماتىك
اپتوموبىل
اپتوموبىلنىڭ
اپتوموبىلى
اپتونوم
اپتونومىيىلىك
اپتونومىيىنى
اپتونومىيە
اپتونۇم
اپتۇ
اپتۇبۇس
اپتۇر
اپتۇرنىڭ
اپتۇرى
اپتۇنۇم
اپتۇۋا
اپراسىياپ
اپرىل
اپرېل
اپرېلدا
اپىتى
اپىرىدە
اپىرىن
اپىرىپ
اپىسى
اپىسىنى
اپي
اپپارات
اپپاراتقا
اپپاراتلار
اپپاراتلارنى
اپپاراتلارنىڭ
اپپاراتلىرى
اپپاراتلىرىدىن
اپپاراتلىرىنى
اپپاراتلىرىنىڭ
اپپاراتنى
اپپاراتنىڭ
اپپاراتى
اپپاراتىغا
اپپاراتىنى
اپپاراتىنىڭ
اپپاق
اپېلسىن
اپەت
اپەتتىن
اپەتكە
اپەتنىڭ
اچ
اچا
اچارچىلىق
اچال
اچتى
اچتىم
اچسا
اچقان
اچقاندا
اچقىلى
اچقۇچ
اچقۇچلۇق
اچقۇچى
اچقۇچىلار
اچكۆزلۈك
اچلىق
اچما
اچىدىغان
اچىدۇ
اچىسى
اچىسىنىڭ
اچىل
اچىمىز
اچچىق
اچچىقسۇ
اچچىقى
اچچىقىنى
اڧرىقا
اڧغانىستان
اڭ
اڭا
اڭسىز
اڭغا
اڭلا
اڭلاتتى
اڭلاتقان
اڭلاش
اڭلاشقا
اڭلاشنى
اڭلاندى
اڭلايدىغان
اڭلايدۇ
اڭلاپ
اڭلاپمۇ
اڭلىتىدۇ
اڭلىتىش
اڭلىتىشنىڭ
اڭلىتىشى
اڭلىتىلدى
اڭلىتىپ
اڭلىدى
اڭلىدىم
اڭلىسا
اڭلىسام
اڭلىشى
اڭلىشىمچە
اڭلىغان
اڭلىغاندا
اڭلىغاندىن
اڭلىغانىدىم
اڭلىغۇچىلار
اڭلىغۇچىلارنىڭ
اڭلىق
اڭلىمايدۇ
اڭلىمىدىم
اڭلىنىدۇ
اڭلىنىپ
اڭنى
اڭنىڭ
اگاھ
اگاھلاندۇرۇش
اگاھلاندۇرۇپ
اگلوتىنىن
اگلۇتىنۇگېن
اگنوز
اگنۇز
اگېنتلىق
اگېنتلىقى
اھ
اھالىسى
اھالىسىنى
اھالىسىنىڭ
اھالىلىرى
اھالىلىرىنى
اھالىلىرىنىڭ
اھالىلەر
اھالىلەرنى
اھالىلەرنىڭ
اھالىنىڭ
اھالە
اھاڭ
اھاڭداش
اھاڭداشلىق
اھاڭداشلىقى
اھاڭغا
اھاڭى
اھۇ
اۋ
اۋات
اۋاتنىڭ
اۋارە
اۋاز
اۋازدا
اۋازسىز
اۋازغا
اۋازلىرى
اۋازلىق
اۋازنى
اۋازى
اۋازىغا
اۋازىنى
اۋازىنىڭ
اۋال
اۋام
اۋامغا
اۋامنى
اۋامنىڭ
اۋانگارت
اۋايلاپ
اۋسترالىيە
اۋسترىيە
اۋسترىيەنىڭ
اۋستىرالىيە
اۋستىرىيە
اۋغۇست
اۋغۇستتا
اۋغۇستتىكى
اۋمېن
اۋىسترالىيە
اۋىستىرالىيە
اۋىستىرىيە
اۋىن
اۋىنى
اۋىىن
اۋىي
اۋىياتسىيە
اۋىيە
اۋگۇست
اۋۇ
اۋۇت
اۋۇپ
اۋۋال
اۋۋالقى
اۋېللى
ب
با
باب
بابا
بابالاق
بابتا
بابتىكى
بابقا
بابى
بابىدا
بابىل
بابىلون
بابۇر
بابۇرنامە
بابۇرنىڭ
باتارىيە
باتالىيون
باتالىيونى
باتىل
باتۇخان
باتۇر
باتۇرلارچە
باتۇرلۇق
باتۇرلۇقى
باتۇرنىڭ
باج
باجدىن
باجغا
باجنى
باجىلىق
باخشى
باداخشان
بادام
بادامخان
بار
بارا
بارات
باراتتى
باراتنىڭ
باراقسان
باراك
بارالايدۇ
باراي
بارايلى
باراۋەت
باراۋەر
باراۋەرلىك
باراۋەرلىكنى
باراۋەرلىكى
باراۋەرلىكىنى
بارتولد
بارخانلىرى
باردى
باردىم
باردۇر
باردۇق
باردەك
بارس
بارسا
بارسام
بارساڭ
بارسىڭىز
بارغان
بارغاندا
بارغاندىن
بارغانسىرى
بارغانسېرى
بارغانلىقى
بارغانلىقىنى
بارغانچە
بارغىلى
بارغىنىمدا
بارغىچە
بارغۇچى
بارغۇچە
باركى
باركەن
بارلار
بارلارنىڭ
بارلىرى
بارلىق
بارلىققا
بارلىقى
بارلىقىدىن
بارلىقىغا
بارلىقىنى
بارماق
بارماقتا
بارماقلىرى
بارماقنىڭ
بارماقچى
بارمان
بارماي
بارمايدۇ
بارمىدى
بارمىقى
بارمىقىنى
بارمۇ
بارنېس
بارون
بارى
بارىدىغان
بارىدىغانلىقىنى
بارىدۇ
بارىسەن
بارىش
بارىكۆل
بارىمىز
بارىمەن
بارىن
بارىنى
بارىنىڭ
بارىچە
باري
بارچۇق
بارچە
بازا
بازار
بازاردا
بازاردىكى
بازاردىن
بازارغا
بازارلار
بازارلاردا
بازارلاردىكى
بازارلارنى
بازارلىرى
بازارلىرىدا
بازارلىق
بازارنى
بازارنىڭ
بازغان
بازىر
بازىرى
بازىرىدا
بازىرىدىكى
بازىرىدىن
بازىرىغا
بازىرىنى
بازىرىنىڭ
بازىسى
بازىسىغا
بازىسىنى
باس
باسار
باستى
باستۇردى
باستۇرغان
باستۇرۇش
باستۇرۇشقا
باستۇرۇلدى
باستۇرۇلغان
باستۇرۇپ
باسسا
باسقان
باسقاندا
باسقۇنچىلىرىغا
باسقۇنچىلىق
باسقۇچ
باسقۇچتا
باسقۇچتىكى
باسقۇچقا
باسقۇچلار
باسقۇچلىرى
باسقۇچلىرىدا
باسقۇچلىرىنى
باسقۇچلۇق
باسقۇچنى
باسقۇچى
باسقۇچىدا
باسقۇچىدىن
باسقۇچىغا
باسقۇچىنى
باسك
باسما
باسماس
باسمىخانىسى
باسمىسى
باسمىل
باسمىللار
باسىدىغان
باسىدۇ
باش
باشاق
باشاقسىمان
باشبېتى
باشتا
باشتىلا
باشتىن
باشسىمان
باشــقا
باشقا
باشقارما
باشقارمىسى
باشقارمىسىدا
باشقارمىسىنىڭ
باشقىدىن
باشقىسى
باشقىسىنى
باشقىغا
باشقىلار
باشقىلاردىن
باشقىلارغا
باشقىلارغىمۇ
باشقىلارمۇ
باشقىلارنى
باشقىلارنىمۇ
باشقىلارنىڭ
باشقىلىرى
باشقىمۇ
باشقىنى
باشقىچە
باشقۇرتچە
باشقۇردى
باشقۇرغان
باشقۇرغۇچى
باشقۇرغۇچىسى
باشقۇرغۇچىلار
باشقۇرغۇچىلارنىڭ
باشقۇرىدىغان
باشقۇرىدۇ
باشقۇرۇش
باشقۇرۇشتا
باشقۇرۇشتىكى
باشقۇرۇشقا
باشقۇرۇشنى
باشقۇرۇشى
باشقۇرۇشىدا
باشقۇرۇشىدىكى
باشقۇرۇشىغا
باشقۇرۇلغان
باشقۇرۇلىدىغان
باشقۇرۇلىدۇ
باشقۇرۇپ
باشقۇرۇۋاتقان
باشلادى
باشلاش
باشلاشتىن
باشلاشقا
باشلاشنى
باشلامچى
باشلامچىسى
باشلامچىلىق
باشلاندى
باشلانغان
باشلانغاندا
باشلانغاندىن
باشلانغانلىقى
باشلانغانلىقىنى
باشلانغۇچ
باشلانغۇچتا
باشلانغۇچنىڭ
باشلانغۇچى
باشلايدۇ
باشلايمەن
باشلاپ
باشلاپتۇ
باشلاپلا
باشلاڭ
باشلىدى
باشلىدىم
باشلىدۇق
باشلىرى
باشلىرىدا
باشلىرىدىكى
باشلىرىدىن
باشلىرىغا
باشلىرىغىچە
باشلىرىنى
باشلىسا
باشلىشى
باشلىغان
باشلىغاندا
باشلىغاندىن
باشلىغانلىقى
باشلىغانلىقىنى
باشلىغانىدى
باشلىغى
باشلىغۇچى
باشلىق
باشلىقلار
باشلىقلىرى
باشلىقلىرىنى
باشلىقلىرىنىڭ
باشلىقلىق
باشلىقلىقىغا
باشلىقى
باشلىقىغا
باشلىقىنى
باشلىقىنىڭ
باشلىنىدىغان
باشلىنىدۇ
باشلىنىش
باشلىنىشتىن
باشلىنىشى
باشلىنىپ
باشلىۋەتكەن
باشنى
باشنىڭ
باشى
باشىغا
باشىم
باشي
باشچىلىق
باشچىلىقىدا
باشچىلىقىدىكى
باغ
باغا
باغدات
باغداتتا
باغداتقا
باغداد
باغدادتا
باغدادقا
باغدادنى
باغداش
باغراش
باغرى
باغرىدا
باغرىدىكى
باغرىغا
باغرىنى
باغقا
باغلا
باغلار
باغلاردا
باغلاش
باغلام
باغلانغان
باغلايدىغان
باغلايدۇ
باغلاپ
باغلاپتۇ
باغلىدى
باغلىدىم
باغلىغان
باغلىغۇچى
باغلىق
باغلىقتۇر
باغلىنىدۇ
باغلىنىش
باغلىنىشلىق
باغلىنىشى
باغلىنىپ
باغنىڭ
باغى
باغچا
باغچى
باغچىسى
باغچىسىدا
باغچىسىغا
باغچىسىنى
باغچىنى
باغچىنىڭ
باغچە
باغۋەن
باغۋەنچىلىك
باق
باقان
باقاي
باقايلى
باقتى
باقتىم
باقسا
باقساق
باقسام
باققان
باققانلار
باققۇچى
باقماي
باقمىدى
باقمىدىم
باقمىغان
باقمىچىلىق
باقمىچىلىقى
باقى
باقىدىغان
باقىدۇ
باقىي
باكالاۋر
باكتېرىي
باكتېرىيىسى
باكتېرىيە
باكلاۋىر
باكلاۋۇر
باكلاۋۇرلۇق
باكۇ
بال
بالا
بالاساغۇن
بالاساغۇننى
بالاساغۇننىڭ
بالاسىدىن
بالاغا
بالاغەتكە
بالام
بالامغا
بالامنى
بالامنىڭ
بالايى
بالايىي
بالتىق
بالداق
بالدۇر
بالدۇرراق
بالدۇرلا
بالزاك
بالصلار
بالغا
بالقاش
بالقان
بالوفيات
بالىدا
بالىدىن
بالىسى
بالىسىغا
بالىسىمۇ
بالىسىنى
بالىسىنىڭ
بالىغا
بالىق
بالىلار
بالىلاردا
بالىلاردىكى
بالىلاردىن
بالىلارغا
بالىلارمۇ
بالىلارنى
بالىلارنىڭ
بالىلىرى
بالىلىرىغا
بالىلىرىم
بالىلىرىمىز
بالىلىرىمىزغا
بالىلىرىمىزنى
بالىلىرىمۇ
بالىلىرىنى
بالىلىرىنىڭ
بالىلىق
بالىمىز
بالىمىزغا
بالىمىزنى
بالىنى
بالىنىڭ
بالىياتقۇ
بالىچۇق
بالىچۇقنى
بالىڭىز
بالىڭىزدىن
بالىڭىزغا
بالىڭىزنى
بالىڭىزنىڭ
بامبۇك
بامدات
بان
بانا
بانان
بانكا
بانكىسى
بانكىسىنىڭ
بانكىغا
بانكىلار
بانكىنىڭ
بانۇ
باي
بايات
باياز
باياشات
بايان
بايانات
باياناتى
باياناتىدا
باياناتچىسى
بايانلار
بايانلاردىن
بايانلارغا
بايانلارنى
بايانلىرى
بايانلىرىغا
بايانى
بايانىنى
باياۋان
بايتوقاي
بايدىن
بايراق
بايراقدار
بايراقدارى
بايراقنى
بايراقنىڭ
بايرام
بايراملار
بايراملاردا
بايراملىق
بايرامنى
بايرامنىڭ
بايرىقى
بايرىقىنى
بايرىمى
بايرىمىدا
بايرىمىدۇر
بايرىمىغا
بايرىمىنى
بايرىمىنىڭ
بايغا
بايقارا
بايقاش
بايقاشقا
بايقال
بايقالدى
بايقالغان
بايقالغاندىن
بايقايدۇ
بايقايسىز
بايقايمىز
بايقاپ
بايقىدى
بايقىدىم
بايقىسا
بايقىغان
بايقىغاندىن
بايقىلىشى
بايقۇت
بايلار
بايلارنىڭ
بايلىق
بايلىققا
بايلىقلار
بايلىقلاردىن
بايلىقلارنى
بايلىقلىرى
بايلىقلىرىدىن
بايلىقلىرىنى
بايلىقنى
بايلىقنىڭ
بايلىقى
بايلىقىدىن
بايلىقىغا
بايلىقىنى
بايلىقىنىڭ
باينىڭ
بايىنغولىن
بايىنغۇلىن
بايۋەتچە
باپ
باپتا
باچكا
باچكىنى
باڭكوك
باھا
باھادا
باھادىر
باھادىن
باھار
باھاردا
باھارنىڭ
باھاسى
باھاسىغا
باھاسىمۇ
باھاسىنى
باھاسىنىڭ
باھاغا
باھالار
باھالارنى
باھالاش
باھالاشتا
باھالاشقا
باھالاندى
باھالانغان
باھالاپ
باھالىرى
باھالىغان
باھالىغۇچى
باھالىق
باھالىنىدۇ
باھالىنىپ
باھاما
باھانى
باھانىسى
باھانە
باھاي
باھاۋۇدۇن
باھاۋۇدۇنباي
باھنى
باۋۇدۇن
بدت
برازىلىيە
براك
برىتانىيە
برۇنېي
بصلەن
بصۋاستە
بـ
بــۇ
بلايېر
بلوگ
بلوگىدىن
بن
بنت
بو
بوران
بوراندىن
بورانلىق
بورتالا
بوردىي
بورھان
بوز
بوزەك
بوسات
بوستان
بوستانلىق
بوستانلىقتا
بوستانلىقلار
بوستانلىقى
بوستون
بوسنىيە
بوش
بوشاشماي
بوشاپ
بوشراق
بوشلۇق
بوشلۇقتا
بوشلۇقتىكى
بوشلۇققا
بوشلۇقنى
بوشلۇقنىڭ
بوشلۇقى
بوشلۇقىدا
بوشلۇقىغا
بوشىتىدۇ
بوشىتىش
بوشىتىپ
بوشىشىپ
بوغاز
بوغازي
بوغالتىرلىق
بوغدا
بوغما
بوغۇز
بوغۇزى
بوغۇزىغا
بوغۇزىنىڭ
بوغۇلۇپ
بوغۇم
بوغۇمدا
بوغۇمغا
بوغۇملىرى
بوغۇملۇق
بوغۇمنى
بوغۇمى
بوغۇمىدا
بوغۇمىدىكى
بوغۇپ
بوكس
بوكيمون
بول
بولا
بولاتتى
بولاتتىم
بولاتتۇق
بولار
بولارمىش
بولارمۇ
بولاق
بولالايدىغان
بولالايدۇ
بولالايسىز
بولالايمىز
بولالماي
بولالمايدىغان
بولالمايدىغانلىقىنى
بولالمايدۇ
بولالمايمەن
بولالمىدى
بولالمىدىم
بولالمىغان
بولالىشى
بولالىغان
بولامدۇ
بولاي
بولايلى
بولدى
بولدىغان
بولدىكى
بولدىمۇ
بولدۇ
بولدۇق
بولدۇم
بولدۇڭ
بولسا
بولساق
بولساقمۇ
بولسام
بولساممۇ
بولساڭ
بولساڭلار
بولسمۇ
بولسىلا
بولسىمۇ
بولسىڭىز
بولسۇن
بولسۇنكى
بولشېۋىك
بولشېۋىكلار
بولغا
بولغار
بولغارىيە
بولغان
بولغاندا
بولغاندىكىن
بولغاندىلا
بولغاندىمۇ
بولغاندىن
بولغاندۇر
بولغاندەك
بولغانغا
بولغانلار
بولغانلاردىن
بولغانلارغا
بولغانلارنى
بولغانلارنىڭ
بولغانلىرى
بولغانلىرىغا
بولغانلىرىنى
بولغانلىرىنىڭ
بولغانلىغى
بولغانلىق
بولغانلىقتىن
بولغانلىقى
بولغانلىقىدا
بولغانلىقىدىن
بولغانلىقىغا
بولغانلىقىنى
بولغانلىقىنىڭ
بولغانمۇ
بولغانىدى
بولغانىكەن
بولغاي
بولغاچ
بولغاچقا
بولغــان
بولغىدەك
بولغىلى
بولغىن
بولغىنى
بولغىنىدا
بولغىنىدىن
بولغىنىدەك
بولغىنىغا
بولغىنىم
بولغىيدى
بولغىچە
بولغۇدەك
بولغۇسى
بولغۇچى
بولغۇچىلار
بولغۇچىلارنىڭ
بولغۇچىنىڭ
بولغۇچە
بولــۇپ
بولقا
بولكا
بوللىۋودتىكى
بولما
بولماس
بولماستىن
بولماسلىق
بولماسلىقى
بولماسلىقىغا
بولماق
بولماقتا
بولماقچى
بولمامدۇ
بولماي
بولمايتتى
بولمايدىغان
بولمايدىغانلىقى
بولمايدىغانلىقىنى
بولمايدىكەن
بولمايدۇ
بولمايمىز
بولمايۋاتىدۇ
بولماپتۇ
بولمىدى
بولمىسا
بولمىسىمۇ
بولمىسۇن
بولمىش
بولمىغان
بولمىغاندا
بولمىغانلار
بولمىغانلارغا
بولمىغانلىرى
بولمىغانلىقتىن
بولمىغانلىقى
بولمىغانلىقىنى
بولمىغاچقا
بولمىغىنىدەك
بولوپ
بولىدىغان
بولىدىغانلىقى
بولىدىغانلىقىغا
بولىدىغانلىقىنى
بولىدىغىنى
بولىدىكەن
بولىدىكەنسىز
بولىدۇ
بولىدۇكى
بولىسىز
بولىسەن
بولىشى
بولىشىدىن
بولىشىغا
بولىشىمۇ
بولىشىنى
بولىشىچە
بولىشىڭىز
بولىقى
بولىمىز
بولىمەن
بولىۋاتقان
بولىۋاتىدۇ
بولىۋىيە
بولىۋېرىدۇ
بولگان
بولۇ
بولۇر
بولۇش
بولۇشتا
بولۇشتى
بولۇشتىن
بولۇشتەك
بولۇشسىز
بولۇشقا
بولۇشقان
بولۇشلۇق
بولۇشنى
بولۇشنىڭ
بولۇشى
بولۇشىدا
بولۇشىدىكى
بولۇشىدىن
بولۇشىدۇ
بولۇشىدۇر
بولۇشىغا
بولۇشىمىز
بولۇشىمۇ
بولۇشىنى
بولۇشىنىڭ
بولۇشىچە
بولۇشىڭىز
بولۇشۇم
بولۇشۇپ
بولۇمى
بولۇنغان
بولۇپ
بولۇپتۇ
بولۇپلا
بولۇپمۇ
بولۇڭ
بولۇڭلار
بولۇۋاتقان
بولۇۋاتقانلىقىنى
بولۇۋاتىدۇ
بولۇۋېرىدۇ
بولۇۋېلىپ
بوم
بومبا
بومباردىمان
بومباي
بومبىسى
بوي
بوياق
بويالغان
بويامچىلىق
بوياپ
بويتاق
بويسۇندۇردى
بويسۇندۇرغان
بويسۇندۇرۇش
بويسۇندۇرۇلغان
بويسۇندۇرۇپ
بويسۇنىدۇ
بويسۇنۇش
بويسۇنۇپ
بويصچە
بويلاپ
بويلىرى
بويلىرىدا
بويلىرىدىكى
بويلىرىدىن
بويلىرىغا
بويلۇق
بوينى
بوينىغا
بويى
بويىدا
بويىدىكى
بويىدىن
بويىغا
بويىنچە
بويىچىمۇ
بويىچە
بويچە
بويۇم
بويۇملار
بويۇملىرى
بويۇملىرىنى
بويۇن
بوپ
بوپتۇ
بوھران
بوۋا
بوۋاسىر
بوۋاق
بوۋاققا
بوۋاقلار
بوۋاقلارنى
بوۋاقلارنىڭ
بوۋاقنى
بوۋاقنىڭ
بوۋام
بوۋاي
بوۋاينى
بوۋاينىڭ
بوۋىسى
بوۋىسىدىن
بوۋىسىنىڭ
بوۋىلارنىڭ
بوۋىلىرى
بوۋىلىرىمىز
بوۋىلىرىمىزنىڭ
بوۋىمىز
بى
بىباھا
بىت
بىتا
بىتى
بىتىم
بىتچىت
بىتەرەپ
بىجە
بىخ
بىخى
بىخەتەر
بىخەتەرلىك
بىخەتەرلىككە
بىخەتەرلىكى
بىخەتەرلىكىنى
بىخەتەرلىكىگە
بىخەۋەر
بىدي
بىر
بىراز
بىرازىلىيە
بىراق
بىراقلا
بىراۋنىڭ
بىربىرىگە
بىرتەرەپ
بىرخىل
بىردانە
بىردىن
بىردىنبىر
بىردىنلا
بىردەك
بىردەكلىك
بىردەكلىككە
بىردەم
بىردەمدىلا
بىردەمدىن
بىرسى
بىرسىدىن
بىرسىدۇر
بىرسىدە
بىرسىلا
بىرسىمۇ
بىرسىنى
بىرسىنىڭ
بىرسىگە
بىرقاتار
بىرقانچە
بىرقىسمى
بىرقىسىم
بىرقەدەر
بىرك
بىرلا
بىرلىشىش
بىرلىشىشى
بىرلىشىشىدىن
بىرلىشىپ
بىرلىك
بىرلىكتە
بىرلىككە
بىرلىكلىرى
بىرلىكلەر
بىرلىكنى
بىرلىكنىڭ
بىرلىكى
بىرلىكىنى
بىرلىكىنىڭ
بىرلىكىگە
بىرلە
بىرلەشتۈرگەن
بىرلەشتۈرۈش
بىرلەشتۈرۈلگەن
بىرلەشتۈرۈلۈپ
بىرلەشتۈرۈپ
بىرلەشكەن
بىرلەشمىسى
بىرلەشمىسىدىكى
بىرلەشمىسىدە
بىرلەشمىسىنىڭ
بىرلەشمىسىگە
بىرلەشمە
بىرلەپ
بىرما
بىرمۇ
بىرمۇنچە
بىرنى
بىرنىچى
بىرنچى
بىرنەچچە
بىرونېۋىك
بىرى
بىرىتانىيە
بىرىدىغان
بىرىدىن
بىرىدۇ
بىرىدۇر
بىرىدە
بىرىسى
بىرىش
بىرىشتىن
بىرىشكە
بىرىشنى
بىرىشى
بىرىكتۈرۈش
بىرىكتۈرۈپ
بىرىككەن
بىرىكمىسى
بىرىكمىلىرى
بىرىكمىلەر
بىرىكمە
بىرىكىش
بىرىكىشىدىن
بىرىكىپ
بىرىلغان
بىرىلىدىغان
بىرىلىدۇ
بىرىلىپ
بىرىلگەن
بىرىمىز
بىرىمىزنى
بىرىمىزنىڭ
بىرىمىزگە
بىرىمۇ
بىرىنجى
بىرىنجىسى
بىرىنى
بىرىنىڭ
بىرىنچى
بىرىنچىدىن
بىرىنچىسى
بىرىنچىلىككە
بىرىپ
بىرىڭ
بىرىگە
بىرىۋاتقان
بىري
بىرژىسى
بىرگۈل
بىرگە
بىرۇنى
بىرۇنىنىڭ
بىرە
بىرەتتى
بىرەر
بىرەرسى
بىرەيلەن
بىرەيلەننىڭ
بىز
بىزار
بىزدىكى
بىزدىمۇ
بىزدىن
بىزدە
بىزدەك
بىزلەر
بىزلەردە
بىزلەرنى
بىزلەرگە
بىزمۇ
بىزنى
بىزنىڭ
بىزنىڭمۇ
بىزگىمۇ
بىزگىچە
بىزگە
بىسمىللاھ
بىسمىللاھىررەھمانىررەھىم
بىسىم
بىسىمى
بىسىپ
بىشارىتى
بىشارەت
بىشكەك
بىشى
بىشىغا
بىــر
بىكار
بىكارغا
بىكارچى
بىكىتتى
بىكىتكەن
بىكىتىلگەن
بىكەت
بىل
بىلال
بىلالنىڭ
بىلةن
بىلدى
بىلدىم
بىلدۇرىدۇ
بىلدۈردى
بىلدۈرىدىغان
بىلدۈرىدۇ
بىلدۈرىمەن
بىلدۈرگەن
بىلدۈرۈش
بىلدۈرۈشىچە
بىلدۈرۈلگەن
بىلدۈرۈپ
بىلسىمۇ
بىلسىڭىز
بىلسۇن
بىلسە
بىلسەك
بىلـ
بىلــەن
بىلقۇت
بىلكەنت
بىللاھ
بىللە
بىلمىدىم
بىلمىسە
بىلمىگەن
بىلمەسلىك
بىلمەك
بىلمەكچى
بىلمەي
بىلمەيتتى
بىلمەيدىغان
بىلمەيدىغانلار
بىلمەيدىكەن
بىلمەيدىكەنمەن
بىلمەيدۇ
بىلمەيمىز
بىلمەيمەن
بىلوگ
بىلىدىغان
بىلىدىغانلار
بىلىدىغانلىقى
بىلىدىغانلىقىنى
بىلىدىكەن
بىلىدۇ
بىلىسىز
بىلىسەن
بىلىش
بىلىشكە
بىلىشنى
بىلىشنىڭ
بىلىشى
بىلىشىمىز
بىلىشىمچە
بىلىــم
بىلىك
بىلىم
بىلىمخۇمار
بىلىمدىن
بىلىمسىز
بىلىمسىزلىك
بىلىملىرى
بىلىملىرىدىن
بىلىملىرىنى
بىلىملىرىگە
بىلىملىــك
بىلىملىك
بىلىملەر
بىلىملەردىن
بىلىملەرنى
بىلىملەرنىڭ
بىلىملەرگە
بىلىمنى
بىلىمنىڭ
بىلىمى
بىلىمىز
بىلىمىنى
بىلىمىنىڭ
بىلىمگە
بىلىمەن
بىلىندى
بىلىنمەكتە
بىلىنىدۇ
بىلىنىپ
بىلىنگەن
بىلىپ
بىلىگ
بىلىۋال
بىلىۋالالايمىز
بىلىۋېلىش
بىلىۋېلىشقا
بىليون
بىلگىلى
بىلگىيە
بىلگۈچىدۇر
بىلگە
بىلگەن
بىلگەندىن
بىلگەچكە
بىلۇر
بىلە
بىلەت
بىلەتتى
بىلەرمەن
بىلەك
بىلەلمەي
بىلەلەيدۇ
بىلەلەيمىز
بىلەمسىز
بىلەمسەن
بىلەن
بىلەنلا
بىلەنمۇ
بىمار
بىمارلارنىڭ
بىمارنىڭ
بىمالال
بىمەنە
بىن
بىنا
بىناسى
بىناسىنىڭ
بىناغا
بىناكارلىق
بىناكارلىقى
بىنالار
بىنالارنىڭ
بىنانىڭ
بىناي
بىنت
بىنتى
بىننى
بىنورمال
بىنى
بىنەپشە
بىي
بىيجىڭ
بىيو
بىيولوگىيەلىك
بىيۇروسى
بىيۇروسىنىڭ
بىپايان
بىپەرۋا
بىپەرۋالىق
بىچارە
بىڭتۇەن
بىڭتۇەنلىك
بىڭتۇەننى
بىڭتۇەننىڭ
بىڭتۇەنى
بىڭتۇەنىنىڭ
بىگىز
بىگۇناھ
بىھاجەت
بىھۇدە
بىۋاستە
بىۋاسىتە
بي
بيكاتشو
بيۇروسىنىڭ
بۆرتالا
بۆرىنى
بۆرىنىڭ
بۆرە
بۆرەك
بۆرەكنى
بۆسۈش
بۆسۈپ
بۆشۈك
بۆشۈككە
بۆشۈكى
بۆك
بۆكىنى
بۆكە
بۆكەن
بۆلدى
بۆلمىسى
بۆلىدىغان
بۆلىدۇ
بۆلىكى
بۆلىكىدە
بۆلىكىنى
بۆلىكىگە
بۆلىمى
بۆلىمىنىڭ
بۆلىنىدۇ
بۆلگۈنچى
بۆلگۈنچىلىك
بۆلگۈچ
بۆلگەن
بۆلۈش
بۆلۈشكە
بۆلۈشى
بۆلۈك
بۆلۈم
بۆلۈمدە
بۆلۈملەردىن
بۆلۈمنىڭ
بۆلۈمى
بۆلۈمىدىكى
بۆلۈمىدىن
بۆلۈمىدە
بۆلۈمىنى
بۆلۈمىنىڭ
بۆلۈمىگە
بۆلۈمگە
بۆلۈندى
بۆلۈنمە
بۆلۈنىدۇ
بۆلۈنگەن
بۆلۈنۈش
بۆلۈنۈشى
بۆلۈنۈپ
بۆلۈپ
بۆلەك
بۆلەكتىن
بۆلەكتە
بۆلەككە
بۆلەكلىرى
بۆلەكلەر
بۆلەكلەرگە
بۆلەكنىڭ
بۆگۈ
بۇ
بۇت
بۇتان
بۇتخانا
بۇتخانىسى
بۇتقا
بۇتنىڭ
بۇجغۇر
بۇخارا
بۇخارادا
بۇخاراغا
بۇخارى
بۇخارىي
بۇخارىينىڭ
بۇخىل
بۇخەلچەم
بۇددا
بۇددالا
بۇددىزم
بۇددىزىم
بۇددىست
بۇدۇشقاق
بۇرادەر
بۇرادەرلىرى
بۇرادەرلەر
بۇراپ
بۇرجى
بۇرجەك
بۇرجەكلىك
بۇردا
بۇرسا
بۇرمىلانغان
بۇرنى
بۇرنىغا
بۇرنىنى
بۇرچ
بۇرچى
بۇرچىن
بۇرچىنى
بۇرژۇي
بۇرھان
بۇرۇتلۇق
بۇرۇلتوقاي
بۇرۇلۇش
بۇرۇلۇپ
بۇرۇن
بۇرۇندىن
بۇرۇندىنلا
بۇرۇنراق
بۇرۇنغا
بۇرۇنقى
بۇرۇنقىدىن
بۇرۇنقىدەك
بۇرۇنقىدەكلا
بۇرۇنقىغا
بۇرۇنلا
بۇرۇنمۇ
بۇرۇننىڭ
بۇزدى
بۇزغان
بۇزغۇنچىلىق
بۇزغۇنچىلىققا
بۇزىدىغان
بۇزۇش
بۇزۇشقا
بۇزۇق
بۇزۇقچىلىق
بۇزۇلسا
بۇزۇلغان
بۇزۇلىدۇ
بۇزۇلۇش
بۇزۇلۇپ
بۇزۇپ
بۇش
بۇشنىڭ
بۇغا
بۇغدا
بۇغداي
بۇغداينى
بۇغرا
بۇغراخان
بۇغراخاننىڭ
بۇغىسى
بۇغۇم
بۇغۇمدىن
بۇففېت
بۇقا
بۇقىنىڭ
بۇلاتتى
بۇلار
بۇلاردا
بۇلاردىن
بۇلارغا
بۇلارمۇ
بۇلارنى
بۇلارنىڭ
بۇلاق
بۇلاقبېشى
بۇلاپ
بۇلاڭ
بۇلاڭچىلىق
بۇلبۇل
بۇلبۇلى
بۇلتۇر
بۇلتۇرقى
بۇلدى
بۇلسا
بۇلغار
بۇلغارلار
بۇلغارىيە
بۇلغان
بۇلغانغان
بۇلغىنىش
بۇلغۇن
بۇلىدىغان
بۇلىدۇ
بۇلىشى
بۇلىقى
بۇلۇت
بۇلۇتلار
بۇلۇتنىڭ
بۇلۇش
بۇلۇشقا
بۇلۇشى
بۇلۇپ
بۇلۇپمۇ
بۇلۇڭ
بۇلۇڭلۇق
بۇلۇڭنىڭ
بۇلۇڭى
بۇلۇڭىدا
بۇلۇڭىغا
بۇمۇ
بۇنداق
بۇندىن
بۇنى
بۇنىمۇ
بۇنىڭ
بۇنىڭدا
بۇنىڭدىكى
بۇنىڭدىمۇ
بۇنىڭدىن
بۇنىڭدىنمۇ
بۇنىڭغا
بۇنىڭغىمۇ
بۇنىڭلىق
بۇنچىلىك
بۇنچىۋالا
بۇنچە
بۇي
بۇيا
بۇيان
بۇيانقى
بۇيرىدى
بۇيرىغان
بۇيرۇتقۇچى
بۇيرۇتقۇچىنىڭ
بۇيرۇدى
بۇيرۇسا
بۇيرۇش
بۇيرۇغان
بۇيرۇق
بۇيرۇققا
بۇيرۇقلار
بۇيرۇقلارنى
بۇيرۇقنى
بۇيرۇقى
بۇيرۇقىغا
بۇيرۇقىنى
بۇيرۇلغان
بۇيرۇلىدۇ
بۇيرۇيدۇ
بۇيرۇپ
بۇيى
بۇيىچە
بۇيۇك
بۇيۇم
بۇيۇملار
بۇيۇملارنى
بۇيۇملارنىڭ
بۇيۇملىرى
بۇيۇملىرىنى
بۇيۇملىرىنىڭ
بۇيۇمى
بۇيەردە
بۇچا
بۇگۇنكى
بۇگۈن
بۇگۈنكى
بۇھەقتە
بۈبى
بۈركۈت
بۈركۈتى
بۈك
بۈلۈم
بۈلۈمى
بۈلۈمىدە
بۈلەكچە
بۈمەريەم
بۈيۈك
بۈگرى
بۈگۈر
بۈگۈن
بۈگۈندىن
بۈگۈنكى
بۈگۈنكىدەك
بۈگۈنمۇ
بۈگۈننى
بۈگۈنى
بۈگۈنگىچە
بۈگۈنگە
بۈۋى
بې
بېتى
بېتىدىكى
بېتىدىن
بېتىدە
بېتىنى
بېتىنىڭ
بېتىگە
بېجى
بېجىرىدىغان
بېجىرىدۇ
بېجىرىش
بېجىرىشكە
بېجىرىشى
بېجىرىلىدۇ
بېجىرىپ
بېجىرگۈچىسى
بېدىك
بېدە
بېرتانىيە
بېرصدۇ
بېرصشص
بېرصپ
بېرلىن
بېرما
بېرنانكې
بېرى
بېرىتانىيە
بېرىدىغان
بېرىدىغانلىقى
بېرىدىغانلىقىنى
بېرىدىكەن
بېرىدۇ
بېرىسىز
بېرىسەن
بېرىش
بېرىشتى
بېرىشتىكى
بېرىشتىن
بېرىشتە
بېرىشقا
بېرىشكە
بېرىشنى
بېرىشنىڭ
بېرىشى
بېرىشىدىن
بېرىشىغا
بېرىشىمنى
بېرىشىمىز
بېرىشىنى
بېرىشىچە
بېرىشىگە
بېرىلدى
بېرىلدىغان
بېرىلدۇ
بېرىلسا
بېرىلسىمۇ
بېرىلسە
بېرىلغان
بېرىلماقتا
بېرىلمىدى
بېرىلمىگەن
بېرىلمەيدۇ
بېرىلىدىغان
بېرىلىدۇ
بېرىلىش
بېرىلىشى
بېرىلىشىنى
بېرىلىپ
بېرىلىۋاتقان
بېرىلگۈچى
بېرىلگۈچىنى
بېرىلگەن
بېرىلگەندىن
بېرىلگەنلىكى
بېرىلگەنلىكىنى
بېرىلەتتى
بېرىم
بېرىمىز
بېرىمەن
بېرىپ
بېرىپتۇ
بېرىپلا
بېرىچە
بېرىڭ
بېرىڭلار
بېرىۋاتقان
بېرىۋاتقانلىقىنى
بېرىۋاتىدۇ
بېرەتتى
بېرەلمىگەن
بېرەلمەي
بېرەلمەيدۇ
بېرەلىشى
بېرەلەيدىغان
بېرەلەيدۇ
بېرەي
بېزى
بېزەش
بېزەلگەن
بېزەپ
بېسىش
بېسىشقا
بېسىشنى
بېسىشى
بېسىق
بېسىلدى
بېسىلغان
بېسىلىدۇ
بېسىلىپ
بېسىم
بېسىمغا
بېسىملىق
بېسىمنى
بېسىمى
بېسىمىغا
بېسىمىنى
بېسىمىنىڭ
بېسىپ
بېسىۋالدى
بېسىۋالغان
بېسىۋالغاندىن
بېسىۋالىدۇ
بېسىۋېلىنغان
بېسىۋېلىپ
بېشارىتى
بېشارەت
بېشبالىق
بېشكەك
بېشى
بېشىدا
بېشىدىكى
بېشىدىن
بېشىر
بېشىغا
بېشىغىچە
بېشىكتاش
بېشىمدىن
بېشىمغا
بېشىمنى
بېشىمىزغا
بېشىمچىلىق
بېشىنى
بېشىنىڭ
بېغى
بېغىدا
بېغىشلاش
بېغىشلانغان
بېغىشلايدىغان
بېغىشلايدۇ
بېغىشلاپ
بېغىشلىدى
بېغىشلىغان
بېغىغا
بېغىم
بېقىش
بېقىشقا
بېقىشنى
بېقىشى
بېقىشىنى
بېقىلىدۇ
بېقىندى
بېقىندىلىق
بېقىنمايدۇ
بېقىنىپ
بېقىپ
بېقىڭ
بېقىڭلار
بېقىۋالغان
بېقىۋالغۇچى
بېقىۋېلىش
بېقىۋېلىشقا
بېقىۋېلىنغان
بېك
بېكىتتى
بېكىتسە
بېكىتكىلى
بېكىتكەن
بېكىتمە
بېكىتى
بېكىتىدىكى
بېكىتىدۇ
بېكىتىش
بېكىتىشتىن
بېكىتىشتە
بېكىتىشكە
بېكىتىشى
بېكىتىلدى
بېكىتىلمىگەن
بېكىتىلىدۇ
بېكىتىلىپ
بېكىتىلگەن
بېكىتىپ
بېكەت
بېكەتلىرى
بېكەتلەر
بېل
بېلارۇسىيە
بېلى
بېلىتى
بېلىز
بېلىق
بېلىقلار
بېلىقلارنى
بېلىقلارنىڭ
بېلىقنى
بېلىقنىڭ
بېلىقى
بېلىقچى
بېلىقچىلىق
بېلىگە
بېلگىيە
بېلگىيەنىڭ
بېلەت
بېلەك
بېن
بېنگال
بېي
بېيجىڭ
بېيجىڭدا
بېيجىڭدىكى
بېيجىڭدىن
بېيجىڭغا
بېيجىڭنى
بېيجىڭنىڭ
بېيرۇت
بېيىت
بېيىتقان
بېيىتىش
بېيىتىپ
بېيىغان
بېيىپ
بېگى
بېگىم
بېھى
بە
بەت
بەتتىن
بەتتە
بەتتەر
بەتكە
بەتلىرى
بەتلىرىدە
بەتلىرىنىڭ
بەتلىرىگە
بەتلىك
بەتلەر
بەتنى
بەتنىڭ
بەجا
بەخت
بەختسىز
بەختكە
بەختلىك
بەختى
بەختىم
بەختىنى
بەختىيار
بەختىگە
بەخش
بەخىت
بەخىتكە
بەخىتلىك
بەخىش
بەد
بەدر
بەدرە
بەدىلىگە
بەدىنى
بەدىنىدىكى
بەدىنىدە
بەدىنىنى
بەدىنىنىڭ
بەدىنىگە
بەدىي
بەدىيان
بەدي
بەدەخشان
بەدەل
بەدەللەرنى
بەدەن
بەدەندىكى
بەدەندىن
بەدەندە
بەدەننى
بەدەننىڭ
بەدەنگە
بەر
بەرباب
بەربات
بەرداشلىق
بەردى
بەردىم
بەردۇق
بەرسىمۇ
بەرسىڭىز
بەرسۇن
بەرسە
بەرسەك
بەرسەم
بەرسەڭ
بەرق
بەرقى
بەرمىدى
بەرمىسە
بەرمىسەك
بەرمىگەن
بەرمەسلىك
بەرمەسلىكى
بەرمەك
بەرمەكتە
بەرمەكچى
بەرمەي
بەرمەيدىكەن
بەرمەيدۇ
بەرىبىر
بەرىكىتى
بەرىكەت
بەرىكەتلىك
بەرپا
بەرگىلى
بەرگىن
بەرگىنى
بەرگۈچى
بەرگۈچىنىڭ
بەرگۈچىگە
بەرگەن
بەرگەندىن
بەرگەندە
بەرگەنلىكى
بەرگەنلىكىنى
بەرگەنلەر
بەرگەنلەرگە
بەرگەنىدى
بەرھەق
بەرەڭگە
بەز
بەزلىرى
بەزى
بەزىبىر
بەزىدە
بەزىسى
بەزىلىرى
بەزىلىرىدە
بەزىلىرىمىز
بەزىلىرىنى
بەزىلىرىنىڭ
بەزىلەر
بەزىلەرنىڭ
بەزىلەرگە
بەزگەك
بەزەن
بەس
بەستە
بەسرە
بەسرەگە
بەسى
بەسىم
بەسەي
بەش
بەشبالىق
بەشتىن
بەشكېرەم
بەشىر
بەشىنچى
بەشىنچىسى
بەشي
بەقەرە
بەك
بەكتاشى
بەكر
بەكراق
بەكرى
بەكرىنىڭ
بەكرەك
بەكلا
بەكمۇ
بەكە
بەل
بەلباغ
بەلبېغى
بەلخ
بەلغەم
بەلكى
بەلكىم
بەلنى
بەلگصلەنگەن
بەلگىسى
بەلگىسىنى
بەلگىلىدى
بەلگىلىرى
بەلگىلىرىنى
بەلگىلىرىنىڭ
بەلگىلىشى
بەلگىلىك
بەلگىلىمىسى
بەلگىلىمىسىگە
بەلگىلىمىلىرى
بەلگىلىمىلىرىگە
بەلگىلىمىلەر
بەلگىلىمىلەرنى
بەلگىلىمىلەرگە
بەلگىلىمىنى
بەلگىلىمىگە
بەلگىلىمە
بەلگىلىنىدۇ
بەلگىلىنىپ
بەلگىلىگەن
بەلگىلەر
بەلگىلەرنى
بەلگىلەش
بەلگىلەشكە
بەلگىلەنمىگەن
بەلگىلەنگەن
بەلگىلەنگەنلىرى
بەلگىلەيدىغان
بەلگىلەيدۇ
بەلگىلەپ
بەلگىنى
بەلگە
بەلۋاغ
بەلۋاغنىڭ
بەلېي
بەن
بەنت
بەنجاڭ
بەند
بەندىسى
بەندە
بەنى
بەنگۇڭتىڭى
بەنگۇڭتىڭىنىڭ
بەنۇ
بەي
بەيت
بەيتۇل
بەيتۇللاھ
بەيدۇ
بەيدۇللاھ
بەيي
بەيگىسى
بەيگىگە
بەيگە
بەگ
بەگزادە
بەگكە
بەگلىرى
بەگلىرىنىڭ
بەگلىك
بەگلىكلەر
بەگلىكلەرنى
بەگلىكلەرنىڭ
بەگلىكى
بەگلىكىنىڭ
بەگلىكىگە
بەگلەر
بەگلەرنىڭ
بەگنى
بەگنىڭ
بەھرام
بەھرى
بەھرىمان
بەھرىمەن
بەھرىمەنلىك
بەھرەيىن
ة
ةمگةك
ةمگةكچى
ةمگةكچىنىڭ
ت
تا
تابغاچ
تابغاچلار
تابىي
تات
تاتاتوڭي
تاتار
تاتارلار
تاتارلارنىڭ
تاتارىستان
تاتارچە
تاتلىق
تاتلىقياڭيۇ
تاتىلاپ
تاج
تاجاۋۇز
تاجاۋۇزىغا
تاجاۋۇزچى
تاجاۋۇزچىلىرى
تاجاۋۇزچىلىق
تاجاۋۇزچىلىقىغا
تاجسىمان
تاجى
تاجىسمان
تاجىسى
تاجىسىمان
تاجىك
تاجىكلار
تاجىكىستان
تاجىكىستاننىڭ
تاجىكچە
تاجىنى
تاختا
تاختاي
تاختاينىڭ
تاختىسى
تاختىسىنى
تار
تاراتقۇ
تاراتقۇلار
تاراتقۇلاردا
تاراتقۇلاردىكى
تاراتقۇلارغا
تاراتقۇلارنىڭ
تاراتقۇنىڭ
تاراج
تارازا
تارازىسى
تاراش
تارالغان
تارام
تارانچى
تارايتىپ
تارايغان
تاراپ
تارباغاتاي
تارتتى
تارتتىم
تارتسا
تارتقان
تارتقۇزۇپ
تارتىدىغان
تارتىدۇ
تارتىش
تارتىشش
تارتىشقا
تارتىشلار
تارتىشلىرى
تارتىشنى
تارتىشى
تارتىشىش
تارتىشىنى
تارتىشىپ
تارتىلغان
تارتىلىدۇ
تارتىلىپ
تارتىپ
تارتىپلا
تارتىۋالدى
تارتىۋالغان
تارتىۋالىدۇ
تارتىۋېلىش
تارتىۋېلىپ
تارتۇق
تارخان
تاردۇش
تاردۇشلارنىڭ
تارقاتتى
تارقاتسا
تارقاتقان
تارقاتقۇچى
تارقاق
تارقالدى
تارقالغان
تارقالغاندىن
تارقان
تارقاپ
تارقىتىدىغان
تارقىتىدۇ
تارقىتىش
تارقىتىشتا
تارقىتىشتىن
تارقىتىشقا
تارقىتىشنى
تارقىتىشنىڭ
تارقىتىشى
تارقىتىلدى
تارقىتىلغان
تارقىتىلىدىغان
تارقىتىلىدۇ
تارقىتىلىش
تارقىتىلىشقا
تارقىتىلىشى
تارقىتىلىپ
تارقىتىپ
تارقىتىۋېتىش
تارقىلىدۇ
تارقىلىش
تارقىلىشقا
تارقىلىشى
تارقىلىشىغا
تارقىلىشىنى
تارقىلىشچان
تارقىلىپ
تارلىق
تارمار
تارماق
تارماقتا
تارماقتىكى
تارماققا
تارماقلار
تارماقلارغا
تارماقلارنى
تارماقلارنىڭ
تارماقلىرى
تارماقلىرىدا
تارماقلىرىنىڭ
تارماقنىڭ
تارماقچىسىدىكى
تارمصقص
تارمىقى
تارمىقىدا
تارمىقىدىكى
تارمىقىغا
تارمىقىنىڭ
تارى
تارىخ
تارىختا
تارىختىكى
تارىختىن
تارىخدىكى
تارىخشۇناس
تارىخشۇناسلىق
تارىخشۇناسى
تارىخقا
تارىخنى
تارىخنىڭ
تارىخى
تارىخىدا
تارىخىدىكى
تارىخىدىن
تارىخىغا
تارىخىمىزدا
تارىخىمىزدىكى
تارىخىمىزنى
تارىخىنى
تارىخىنىڭ
تارىخىي
تارىخي
تارىخچى
تارىخچىسى
تارىخچىلار
تارىخچىلارنىڭ
تارىخچىلىرى
تارىلىق
تارىم
تارىنى
تاريخ
تازا
تازىلاش
تازىلانغان
تازىلاپ
تازىلىق
تازىلىققا
تازىلىقنى
تازىلىقى
تازىلىقىغا
تازىلىنىدۇ
تازىلىنىپ
تازىم
تاس
تاسادىپى
تاسادىپىي
تاسما
تاش
تاشتىن
تاشتەك
تاشقا
تاشقان
تاشقورغان
تاشقى
تاشقىرى
تاشقىي
تاشكېمىر
تاشكەنت
تاشكەنتتىكى
تاشكەنتتە
تاشكەنتكە
تاشكەنتنىڭ
تاشلار
تاشلارغا
تاشلارنى
تاشلارنىڭ
تاشلاش
تاشلاشتىن
تاشلاشقا
تاشلاشنى
تاشلاندى
تاشلاندۇق
تاشلانغان
تاشلايدىغان
تاشلايدۇ
تاشلاپ
تاشلىدى
تاشلىدۇق
تاشلىرى
تاشلىرىدا
تاشلىشى
تاشلىغان
تاشلىغاندىن
تاشلىغۇچى
تاشلىق
تاشلىنىدۇ
تاشلىنىپ
تاشلىۋېتىپ
تاشمىلىق
تاشنى
تاشنىڭ
تاشي
تاشيول
تاشيولدا
تاشيوللار
تاشيوللىرى
تاشيولى
تاشيولىنىڭ
تاشپاختا
تاشپاقا
تاشپولات
تاغ
تاغا
تاغار
تاغارچى
تاغاق
تاغدا
تاغدىكى
تاغدىن
تاغدەك
تاغقا
تاغلار
تاغلاردىن
تاغلارغا
تاغلارنىڭ
تاغلىرى
تاغلىرىدا
تاغلىرىدىن
تاغلىرىغا
تاغلىرىنىڭ
تاغلىق
تاغلىقلار
تاغلىقلارنىڭ
تاغنىڭ
تاغىسى
تاغىسىنىڭ
تاغۇ
تاق
تاقابىل
تاقاش
تاقاق
تاقاپ
تاققا
تاقلاپ
تاقىر
تاقىلىدۇ
تاقىلىپ
تاقىم
تاقەت
تاكتىكا
تاكتىكىسى
تاكتىكىسىنى
تاكتىكىلىق
تاكسى
تاكى
تاكېشى
تال
تالا
تالات
تالاس
تالاسى
تالاش
تالاشتۇرۇش
تالاغا
تالاق
تالالىق
تالان
تالانت
تالانتقا
تالانتلارنى
تالانتلارنىڭ
تالانتلىق
تالانتنىڭ
تالانتى
تالانتىغا
تالانتىنى
تالانتىڭىز
تالانىت
تالاي
تالاپەت
تالاپەتكە
تالاڭ
تالدىن
تالقان
تالقىنى
تاللا
تاللاش
تاللاشتا
تاللاشقا
تاللاشنى
تاللاشنىڭ
تاللاندى
تاللانغان
تاللانما
تاللانمىلار
تاللايدىغان
تاللايدۇ
تاللاپ
تاللاڭ
تاللىدى
تاللىدىم
تاللىسا
تاللىشى
تاللىشىغا
تاللىشىڭىز
تاللىغان
تاللىغاندا
تاللىنىدۇ
تاللىنىپ
تاللىۋالغان
تالماي
تالون
تالونلارنى
تالونى
تالونىنى
تالىب
تالىبنىڭ
تالىشىدۇ
تالىشىش
تالىشىپ
تالىپ
تالىپلار
تالىپلارغا
تالىپنىڭ
تام
تاما
تاماشا
تاماششا
تاماشىبىن
تاماشىبىنلار
تاماشىبىنلارغا
تاماشىبىنلارنى
تاماشىبىنلارنىڭ
تاماق
تاماقتىن
تاماققا
تاماقلار
تاماقلارنى
تاماقنى
تاماقنىڭ
تاماكا
تاماكىغا
تاماكىنى
تاماكىنىڭ
تامام
تاماملاش
تاماملاندى
تاماملانغان
تاماملانمىغان
تاماملايدۇ
تاماملاپ
تاماملىدى
تاماملىغان
تاماملىغاندىن
تاماملىنىدۇ
تاماملىنىپ
تامامى
تامامىنى
تامامەن
تامان
تامانىدىن
تامتوغراق
تامغا
تامغىسى
تامغىسىنى
تامغىلانغان
تامغىنى
تاملارغا
تاملىرى
تاملىرىغا
تاملىق
تامنى
تامنىڭ
تاموژنا
تاموژنىنىڭ
تامىقى
تامىل
تامچە
تانا
تاناسىپ
تاناي
تاناپ
تانتال
تانزانىيە
تانزىمات
تانكا
تاي
تاياق
تاياقچە
تايانغان
تايانغاندا
تايانچ
تايغان
تايلاند
تايىنى
تايىنىدىغان
تايىنىدۇ
تايىنىش
تايىنىپ
تايىنىپلا
تاييىپ
تاپ
تاپاتتى
تاپالايدۇ
تاپالايسىز
تاپالايمىز
تاپالماي
تاپالمىدىم
تاپالمىسا
تاپالمىغان
تاپان
تاپانچا
تاپاۋىتى
تاپاۋىتىنى
تاپاۋىتىنىڭ
تاپاۋەت
تاپتى
تاپتىم
تاپسا
تاپشۇردى
تاپشۇرسا
تاپشۇرغان
تاپشۇرغاندىن
تاپشۇرغۇچى
تاپشۇرغۇچىنىڭ
تاپشۇرمىسا
تاپشۇرمىغان
تاپشۇرىدىغان
تاپشۇرىدۇ
تاپشۇرۇش
تاپشۇرۇشقا
تاپشۇرۇشنى
تاپشۇرۇشى
تاپشۇرۇق
تاپشۇرۇلغان
تاپشۇرۇپ
تاپشۇرۇۋالغان
تاپشۇرۇۋالغاندىن
تاپشۇرۇۋالغۇچى
تاپشۇرۇۋالغۇچىنىڭ
تاپشۇرۇۋېلىشنى
تاپقان
تاپقاندا
تاپقاندىن
تاپقىلى
تاپقۇزۇش
تاپقۇچى
تاپماق
تاپماقچى
تاپمىغان
تاپىدىغان
تاپىدۇ
تاپىنى
تاڭ
تاڭغۇت
تاڭلاي
تاڭنامە
تاھارەت
تاھىر
تاۋ
تاۋا
تاۋابىي
تاۋار
تاۋارغا
تاۋارلار
تاۋارلارنى
تاۋارلارنىڭ
تاۋارنى
تاۋارنىڭ
تاۋارىخ
تاۋاق
تاۋاپ
تاۋغاچ
تاۋلاش
تاۋلاپ
تاۋىغا
تاۋۇز
تاۋۇش
تاۋۇشتىن
تاۋۇشتۇر
تاۋۇشلار
تاۋۇشلاردىن
تاۋۇشلارنى
تاۋۇشلارنىڭ
تاۋۇشلىرى
تاۋۇشلىرىدىندۇر
تاۋۇشلىرىنى
تاۋۇشلۇق
تاۋۇشنى
تاۋۇشنىڭ
تاۋۇشى
تاۋۇشىدىكى
تاۋۇشىغا
تاۋۇشىنىڭ
تحاد
تخريج
تذكرة
ترامپ
ترامپنىڭ
ترانسكرىپسىيە
ترانسىپورت
ترانسپورت
تراگېدىيىلىك
تراگېدىيە
تروپىك
تصنيف
تـ
تفسير
تلـ
تم
تنىڭ
تو
توتېم
توخار
توختاتقان
توختاش
توختالدى
توختالدىم
توختالغان
توختالغاندا
توختالمايمەن
توختام
توختامدا
توختامدىكى
توختامدۇر
توختامغا
توختامنى
توختامنىڭ
توختامى
توختامىدا
توختامىدىكى
توختامىغا
توختامىنى
توختامىنىڭ
توختايدۇ
توختاپ
توختاۋسىز
توختى
توختىتىدۇ
توختىتىش
توختىتىشقا
توختىتىشنى
توختىتىشى
توختىتىلغان
توختىتىپ
توختىدى
توختىغان
توختىلىدۇ
توختىلىمىز
توختىلىمەن
توختىلىپ
توختىماستىن
توختىماي
توختىمايدۇ
توختىنىڭ
توختۇتۇش
توختۇتۇپ
توختۇلۇپ
توخۇ
توخۇلا
توخۇنى
تور
تورت
توردا
تورداشلار
تورداشلارنىڭ
توردىكى
توردىن
تورسىمان
تورغا
تورغاي
تورلاردا
تورلاشتۇرۇش
تورونتو
تورى
تورىدا
تورىدىن
تورىغا
تورىنى
تورىنىڭ
تورۇسلۇق
تورۇق
توز
توزان
توزۇپ
توساتتىن
توسالغۇ
توسالغۇسىز
توسالغۇغا
توسالغۇلار
توسالغۇلارنى
توسالغۇنى
توستى
توسقان
توسقۇن
توسقۇنلۇق
توسقۇنلۇققا
توسما
توسىدىغان
توسىدۇ
توسۇش
توسۇلۇپ
توسۇپ
توشقان
توشقاندا
توشقاندىن
توشقانلار
توشقاننى
توشقىنى
توشقۇچە
توشمايدىغان
توشمىغان
توشىدىغان
توشۇتقۇچى
توشۇش
توشۇشتا
توشۇشتىن
توشۇشقا
توشۇغان
توشۇغۇچى
توشۇغۇچىنىڭ
توشۇيدىغان
توشۇپ
توغان
توغرا
توغراق
توغراقلىق
توغرالغان
توغراپ
توغرىدا
توغرىدىن
توغرىسدا
توغرىسى
توغرىسىد
توغرىسىدا
توغرىسىدىكى
توغرىسىدىمۇ
توغرىسىغا
توغرىسىنى
توغرىلاش
توغرىلانغان
توغرىلاپ
توغرىلىدۇ
توغرىلىق
توغرىلىقى
توغرىلىقىنى
توغرىلىنىدۇ
توغرۇلۇق
توغلۇق
توغىرسىدا
توغىرىسىدىكى
توغۇرلۇق
توغۇلدى
توغۇلغان
توغۇلۇپ
توق
توقال
توقاي
توقاچ
توقسان
توقسۇ
توقسۇن
توققۇز
توققۇزاق
توققۇزتارا
توققۇزى
توققۇزىنچى
توقماق
توقۇش
توقۇشقا
توقۇلغان
توقۇلما
توقۇمىچىلىق
توقۇمچىلىق
توقۇنۇش
توقۇنۇشلار
توقۇنۇشلارنىڭ
توقۇنۇشۇپ
توقۇپ
توك
توكقا
توكلۇق
توكنى
توكنىڭ
توكى
توكيو
توكيونىڭ
توكەر
تولا
تولاراق
تولدى
تولدۇرغان
تولدۇرۇش
تولدۇرۇپ
تولغاق
تولغان
تولى
تولىدۇ
تولىسى
تولىمۇ
تولۇق
تولۇقسىز
تولۇقسىزنى
تولۇقلاش
تولۇقلانغان
تولۇقلايدۇ
تولۇقلاپ
تولۇقلىما
تولۇن
تولۇپ
توم
توماس
تومدا
توملۇق
توملۇقى
تومى
تومۇر
تومۇرلىرى
تومۇرنى
تومۇرنىڭ
تومۇرى
تومۇرىدىن
تومۇرىنى
تومۇز
تومۇزدا
تومۇزدىن
تون
توننا
توننىدىن
توننىغا
تونى
تونىس
تونۇ
تونۇتقان
تونۇتۇش
تونۇر
تونۇردا
تونۇرغا
تونۇرنى
تونۇرنىڭ
تونۇش
تونۇشتۇردى
تونۇشتۇرغان
تونۇشتۇرىدىغان
تونۇشتۇرىلىدۇ
تونۇشتۇرىمەن
تونۇشتۇرۇش
تونۇشتۇرۇشقا
تونۇشتۇرۇشنى
تونۇشتۇرۇلدى
تونۇشتۇرۇلغان
تونۇشتۇرۇلۇشى
تونۇشتۇرۇپ
تونۇشقا
تونۇشقان
تونۇشلۇق
تونۇشى
تونۇشىدۇ
تونۇشىنى
تونۇشۇش
تونۇشۇم
تونۇشۇپ
تونۇغان
تونۇلدى
تونۇلغان
تونۇلمىغان
تونۇلىدۇ
تونۇلۇشقا
تونۇلۇپ
تونۇمايدىغان
تونۇيدىغان
تونۇيدۇ
تونۇپ
تونېل
توي
تويدا
تويلۇق
تويى
تويىدا
تويۇنغان
توپ
توپا
توپان
توپتوغرا
توپراق
توپقا
توپلار
توپلاش
توپلاشتۇرۇلغان
توپلاشقا
توپلاشقان
توپلام
توپلامغا
توپلاملارغا
توپلاملىرى
توپلانغان
توپلايدۇ
توپلاپ
توپلىدى
توپلىرى
توپلىشىپ
توپلىغان
توپلىمى
توپلىمىدىن
توپلىمىغا
توپلىمىنى
توپلىمىنىڭ
توپلىنىشى
توپلىنىپ
توپلۇشۇپ
توپلۇق
توپلۇم
توپنى
توپنىڭ
توپى
توپىدىن
توپىسى
توپىغا
توپىلاڭ
توپىلاڭنى
توپىلىڭى
توپىلىڭىنى
توپىنى
توپىنىڭ
توپچى
توپچىلار
توپۇق
توپۇقنى
توڭ
توڭلاتقۇ
توڭلاپ
توڭلىتىش
توڭگۇز
توھپە
توۋا
توۋلاپ
تى
تىبابىتى
تىبابىتىدە
تىبابىتىنىڭ
تىبابەت
تىبابەتچىلىك
تىببى
تىببىي
تىبەت
تىبەتكە
تىبەتلىكلەر
تىبەتلىكلەرنىڭ
تىبەتلەر
تىبەتلەرنىڭ
تىبەتنى
تىبەتنىڭ
تىت
تىترەپ
تىتەي
تىجارىتى
تىجارىتىنى
تىجارىتىگە
تىجارىي
تىجارەت
تىجارەتكە
تىجارەتنى
تىجارەتچى
تىجارەتچىسى
تىجارەتچىلىرى
تىجارەتچىلەر
تىجارەتچىلەرنىڭ
تىخنىكا
تىخى
تىخىمۇ
تىرازىي
تىرانسپورت
تىركىشىش
تىركىشىپ
تىرمىزى
تىرناق
تىرناققا
تىرنىقى
تىروپىك
تىرىشتى
تىرىشتىم
تىرىشسا
تىرىشقان
تىرىشماقتا
تىرىشىدۇ
تىرىشىش
تىرىشىشى
تىرىشىمىز
تىرىشىمەن
تىرىشىپ
تىرىشىڭ
تىرىشىۋاتقان
تىرىشچان
تىرىشچانلىق
تىرىشچانلىقلار
تىرىشچانلىقلارنى
تىرىشچانلىقلىرى
تىرىشچانلىقنى
تىرىشچانلىقى
تىرىشچانلىقىدىن
تىرىشچانلىقىغا
تىرىشچانلىقىنى
تىرىك
تىرىكچىلىك
تىرىلىش
تىرىلىشى
تىرىلىپ
تىرىليون
تىرە
تىرەك
تىرەپ
تىز
تىزغان
تىزلا
تىزلىنىپ
تىزما
تىزمىسى
تىزمىسىنىڭ
تىزمىلىرى
تىزناپ
تىزىدۇ
تىزىش
تىزىغا
تىزىق
تىزىلغان
تىزىلىدۇ
تىزىلىپ
تىزىم
تىزىمدىن
تىزىمغا
تىزىملاش
تىزىملانغان
تىزىملىتىش
تىزىملىك
تىزىملىكتىكى
تىزىملىككە
تىزىملىكى
تىزىملىكىدىن
تىزىملىكىدە
تىزىملىكىنى
تىزىملىكىگە
تىزىمىنى
تىزىپ
تىزگىنلەش
تىزگىنلەشكە
تىزگىنلەپ
تىشى
تىغ
تىغلىق
تىقىپ
تىك
تىككۈچى
تىككەن
تىكلىدى
تىكلىگەن
تىكلەر
تىكلەش
تىكلەشتە
تىكلەشكە
تىكلەشنىڭ
تىكلەنگەن
تىكلەيدۇ
تىكلەپ
تىكى
تىكىش
تىكىشكە
تىكىلىدۇ
تىكىلىپ
تىكىلگەن
تىكىن
تىكىپ
تىكەس
تىكەن
تىكەنلىك
تىل
تىلاۋەت
تىلدا
تىلدىكى
تىلدىن
تىلدۇر
تىلسىز
تىلشۇناس
تىلشۇناسلار
تىلشۇناسلىق
تىلشۇناسلىققا
تىلغا
تىللا
تىللار
تىللاردا
تىللاردىكى
تىللاردىن
تىللارغا
تىللارنى
تىللارنىڭ
تىللاش
تىللىرى
تىللىرىدا
تىللىرىدىكى
تىللىرىدىن
تىللىرىغا
تىللىرىنى
تىللىرىنىڭ
تىللىق
تىلماچ
تىلنى
تىلنىڭ
تىلى
تىلىدا
تىلىدىكى
تىلىدىمۇ
تىلىدىن
تىلىدۇر
تىلىدە
تىلىغا
تىلىم
تىلىمىز
تىلىمىزدا
تىلىمىزدىكى
تىلىمىزغا
تىلىمىزنى
تىلىمىزنىڭ
تىلىمۇ
تىلىنى
تىلىنىمۇ
تىلىنىڭ
تىلىپ
تىلىگەن
تىلىۋالدى
تىلىۋىزىيە
تىلىۋۇزۇر
تىلۋىزىيە
تىلەش
تىلەك
تىلەكلەر
تىلەمچى
تىلەيدۇ
تىلەيمىز
تىلەيمەن
تىلەپ
تىم
تىما
تىمور
تىمۇر
تىمۇرىيلار
تىن
تىنجىتىش
تىندۇرغاندىن
تىندۇرۇلىدۇ
تىنسىز
تىنش
تىنغان
تىنما
تىنماي
تىنى
تىنىش
تىنىمسىز
تىنىچ
تىنىچلىق
تىنچ
تىنچلىق
تىنچلىققا
تىنچلىقنى
تىنچلىقى
تىنچلىقىنى
تىي
تىياتىر
تىياتىرخانا
تىياتىرخانىسى
تىياتىرغا
تىياتىرلىرى
تىياتىرنىڭ
تىياتىرى
تىياتىرىدا
تىياتىرىنىڭ
تىياتىرچىلار
تىيانشان
تىيانشاننىڭ
تىيىن
تىيىنى
تىيىپ
تىپ
تىپتىكى
تىپقا
تىپلىرى
تىپلىق
تىپنىڭ
تىپى
تىپىدىكى
تىپىدىكىلەر
تىپىغا
تىپىك
تىپىنى
تىڭتىڭچى
تىگىشلىك
تىگىن
تىگىپ
تىگە
تىۋىت
تىۋىتتېر
تيەنجىن
تيەني
تۆ
تۆت
تۆتتىن
تۆتكە
تۆتى
تۆتىنجى
تۆتىنچى
تۆتىنچىدىن
تۆر
تۆرت
تۆرتىنچى
تۆرىدىن
تۆرىنىڭ
تۆرگە
تۆرە
تۆرەلمىنى
تۆرەلمە
تۆش
تۆشۈك
تۆشۈكتىن
تۆشۈكى
تۆشۈكىگە
تۆكتى
تۆكۈلگەن
تۆكۈلۈپ
تۆكۈن
تۆكۈنلەردە
تۆكۈپ
تۆلىتىۋېلىشقا
تۆلىشى
تۆلىمى
تۆلىمىسە
تۆلىمىگەن
تۆلىگەن
تۆلەش
تۆلەشكە
تۆلەشنى
تۆلەم
تۆلەيدىغان
تۆلەيدۇ
تۆلەپ
تۆمۈر
تۆمۈرخان
تۆمۈرخاننىڭ
تۆمۈردىن
تۆمۈرنى
تۆمۈرنىڭ
تۆمۈريول
تۆمۈريولى
تۆمۈرچى
تۆمۈرچىلىك
تۆمەر
تۆپىدە
تۆپە
تۆگىنى
تۆگىنىڭ
تۆگىگە
تۆگە
تۆھمەت
تۆھپىسى
تۆھپىسىنى
تۆھپىكار
تۆھپىلىرى
تۆھپىلىرىنى
تۆھپىلەرنى
تۆھپە
تۆۋە
تۆۋەن
تۆۋەندىكى
تۆۋەندىكىدەك
تۆۋەندىكىسى
تۆۋەندىكىلەردىن
تۆۋەندىكىلەرنى
تۆۋەندىكىچە
تۆۋەندە
تۆۋەنرەك
تۆۋەنكى
تۆۋەنلىتىش
تۆۋەنلىتىپ
تۆۋەنلىك
تۆۋەنلەيدۇ
تۆۋەنلەپ
تۆۋەنگە
تۇ
تۇتاش
تۇتاشتۇرغان
تۇتاشتۇرىدىغان
تۇتاشتۇرۇلدى
تۇتاشتۇرۇلغان
تۇتاشتۇرۇپ
تۇتاشقان
تۇتتى
تۇتتۇم
تۇتسا
تۇتقان
تۇتقاندا
تۇتقىلى
تۇتقۇزۇپ
تۇتقۇن
تۇتقۇچى
تۇتقۇچىلار
تۇتماق
تۇتماي
تۇتمايدۇ
تۇتمىغان
تۇتىدىغان
تۇتىدۇ
تۇتىشىدىغان
تۇتىشىدۇ
تۇتىشىپ
تۇتىمەن
تۇتۇش
تۇتۇشقا
تۇتۇشنى
تۇتۇشنىڭ
تۇتۇشى
تۇتۇشىدۇ
تۇتۇشۇپ
تۇتۇق
تۇتۇلدى
تۇتۇلسا
تۇتۇلغان
تۇتۇلىدۇ
تۇتۇلۇش
تۇتۇلۇپ
تۇتۇپ
تۇتۇڭ
تۇتۇۋالسا
تۇتۇۋالغان
تۇتۇۋالىدۇ
تۇتۇۋېلىپ
تۇخۇ
تۇخۇم
تۇخۇمدىن
تۇخۇمسىمان
تۇخۇمنى
تۇخۇمنىڭ
تۇخۇمى
تۇر
تۇرا
تۇراتتى
تۇراتتىم
تۇرار
تۇراق
تۇراقسىز
تۇراقلىق
تۇرالايدىغان
تۇرالايدۇ
تۇرالغۇ
تۇرالماي
تۇرالمايدۇ
تۇرالمايمىز
تۇران
تۇرايلى
تۇردى
تۇردىغان
تۇردىنىڭ
تۇردۇق
تۇردۇم
تۇرسا
تۇرساق
تۇرسام
تۇرسىمۇ
تۇرسۇن
تۇرسۇنجان
تۇرسۇننىڭ
تۇرسۇني
تۇرغان
تۇرغاندا
تۇرغاندىن
تۇرغاندەك
تۇرغانلىقى
تۇرغانلىقىنى
تۇرغاچقا
تۇرغىنى
تۇرغىنىدەك
تۇرغۇت
تۇرغۇزغان
تۇرغۇزۇش
تۇرغۇزۇلغان
تۇرغۇزۇلىدۇ
تۇرغۇزۇلۇپ
تۇرغۇزۇپ
تۇرغۇن
تۇرغۇچى
تۇرغۇچىدۇر
تۇرقى
تۇرك
تۇركى
تۇركىستان
تۇركىيە
تۇرلار
تۇرلۇك
تۇرماقتا
تۇرماي
تۇرمايدۇ
تۇرمىغان
تۇرمۇش
تۇرمۇشتا
تۇرمۇشتىكى
تۇرمۇشتىن
تۇرمۇشقا
تۇرمۇشنى
تۇرمۇشنىڭ
تۇرمۇشى
تۇرمۇشىدا
تۇرمۇشىدىكى
تۇرمۇشىدىن
تۇرمۇشىغا
تۇرمۇشىمىزدا
تۇرمۇشىمىزدىكى
تۇرمۇشىمىزغا
تۇرمۇشىنى
تۇرمۇشىنىڭ
تۇرنا
تۇرى
تۇرىدىغان
تۇرىدىغانلىقى
تۇرىدىغانلىقىنى
تۇرىدىكەن
تۇرىدۇ
تۇرىسىز
تۇرىشى
تۇرىمىز
تۇرىمەن
تۇرىۋاتقان
تۇرىۋاتىدۇ
تۇرپان
تۇرپاندا
تۇرپاندىكى
تۇرپاندىن
تۇرپانغا
تۇرپانلىق
تۇرپاننىڭ
تۇرۇبا
تۇرۇش
تۇرۇشتا
تۇرۇشتىن
تۇرۇشقا
تۇرۇشلۇق
تۇرۇشنى
تۇرۇشنىڭ
تۇرۇشى
تۇرۇشىغا
تۇرۇشىنى
تۇرۇشچانلىقى
تۇرۇغلۇق
تۇرۇقلۇق
تۇرۇلغان
تۇرۇلىدۇ
تۇرۇپ
تۇرۇپتىكى
تۇرۇپتۇ
تۇرۇپتۇكى
تۇرۇپلا
تۇرۇپمۇ
تۇرۇچ
تۇرۇڭ
تۇرۇۋاتقان
تۇرۇۋاتىدۇ
تۇرۇۋالدى
تۇرۋاتقان
تۇز
تۇزلۇق
تۇزنى
تۇزى
تۇزچى
تۇزۇلگەن
تۇغ
تۇغانخان
تۇغانخاننىڭ
تۇغدى
تۇغدۇرۇپ
تۇغقان
تۇغقانلار
تۇغقانلارنىڭ
تۇغقانلىرى
تۇغقانلىرىدىن
تۇغقانلىرىغا
تۇغقانلىرىنى
تۇغقانلىرىنىڭ
تۇغقانچىلىق
تۇغقىنى
تۇغلا
تۇغلۇق
تۇغلۇقلار
تۇغما
تۇغى
تۇغىدۇ
تۇغىنى
تۇغۇت
تۇغۇتلۇق
تۇغۇش
تۇغۇلدى
تۇغۇلسا
تۇغۇلغان
تۇغۇلغاندا
تۇغۇلغاندىن
تۇغۇلغانلىقى
تۇغۇلغانلىقىنىڭ
تۇغۇلىدۇ
تۇغۇلۇش
تۇغۇلۇشتىن
تۇغۇلۇپ
تۇغۇپ
تۇققان
تۇققانلار
تۇققانلىرى
تۇققۇز
تۇقۇلما
تۇل
تۇللۇق
تۇلىمۇ
تۇلپار
تۇلۇق
تۇلۇقسىز
تۇلۇقلاپ
تۇلۇم
تۇلۇمنىڭ
تۇماق
تۇمان
تۇمانلىق
تۇمشۇق
تۇمشۇقى
تۇنجى
تۇنجىسى
تۇنىس
تۇنىياز
تۇنيۇقۇق
تۇنچى
تۇنگان
تۇنۇشتۇرغان
تۇنۇشتۇرۇش
تۇنۇلغان
تۇنۇپ
تۇياق
تۇياقلىرى
تۇيغۇ
تۇيغۇدا
تۇيغۇسى
تۇيغۇسىغا
تۇيغۇسىنى
تۇيغۇسىنىڭ
تۇيغۇغا
تۇيغۇلار
تۇيغۇلارغا
تۇيغۇلىرى
تۇيغۇلىرىنى
تۇيغۇن
تۇيغۇنى
تۇيۇق
تۇيۇقسىز
تۇيۇقسىزلا
تۇيۇلاتتى
تۇيۇلدى
تۇيۇلغان
تۇيۇلىدىغان
تۇيۇلىدۇ
تۇيۇلۇپ
تۇپراق
تۇپراقتا
تۇپراقتىن
تۇپراققا
تۇپراقلاردا
تۇپراقنى
تۇپراقنىڭ
تۇپرىقى
تۇپرىقىدا
تۇپەيلىدىن
تۇچ
تۇڭجىنىڭ
تۇڭرا
تۇڭچى
تۇڭگان
تۇڭگانلار
تۇڭگانلارنىڭ
تۇڭگۇزباش
تۇۋا
تۇۋالار
تۇەن
تۇەنجاڭ
تۇەنگىچە
تۈ
تۈبۈت
تۈبۈتلەر
تۈتۈن
تۈتۈنى
تۈتەك
تۈر
تۈرتكىسى
تۈرتكىسىدە
تۈرتكىلىك
تۈرتكە
تۈردىكى
تۈردىن
تۈردە
تۈرك
تۈركلىرى
تۈركلىرىنى
تۈركلىرىنىڭ
تۈركلىرىگە
تۈركلىشىش
تۈركلۈك
تۈركلەر
تۈركلەردىن
تۈركلەردە
تۈركلەرنى
تۈركلەرنىڭ
تۈركلەرگە
تۈركمەن
تۈركمەنلەر
تۈركمەنىستان
تۈركمەنىستاندىكى
تۈركمەنىستاننىڭ
تۈركمەنچە
تۈركنىڭ
تۈركولوگ
تۈركولوگىيە
تۈركى
تۈركىستان
تۈركىستاندا
تۈركىستاندىكى
تۈركىستاندىن
تۈركىستانغا
تۈركىستانلىق
تۈركىستانلىقلار
تۈركىستانلىقلارنىڭ
تۈركىستاننى
تۈركىستاننىڭ
تۈركىستانى
تۈركىستانىي
تۈركىستانىينىڭ
تۈركىي
تۈركىيات
تۈركىيىدىكى
تۈركىيىدە
تۈركىيىلىك
تۈركىيىنىڭ
تۈركىيىگە
تۈركىيە
تۈركىيەدىكى
تۈركىيەدىن
تۈركىيەدە
تۈركىيەلىك
تۈركىيەنى
تۈركىيەنىڭ
تۈركىيەگە
تۈركي
تۈركچىدىكى
تۈركچىدىن
تۈركچىدە
تۈركچىسى
تۈركچىسىدە
تۈركچىسىنى
تۈركچىسىنىڭ
تۈركچىلىك
تۈركچىلىكى
تۈركچىنى
تۈركچىنىڭ
تۈركچىگە
تۈركچە
تۈركچەسى
تۈركۈم
تۈركۈمدىكى
تۈركۈمدە
تۈركۈملىرىنىڭ
تۈركۈملەپ
تۈركۈمى
تۈركۈمىنى
تۈركۈمىنىڭ
تۈركۈمىگە
تۈركەل
تۈرلىرى
تۈرلىرىدىن
تۈرلىرىمۇ
تۈرلىرىنى
تۈرلىرىنىڭ
تۈرلىرىگە
تۈرلىنىش
تۈرلىنىشى
تۈرلىنەلەيدۇ
تۈرلىگۈچى
تۈرلۈك
تۈرلەر
تۈرلەرنى
تۈرلەرنىڭ
تۈرلەرگە
تۈرلەنگەن
تۈرمىدىن
تۈرمىدە
تۈرمىسىدە
تۈرمىسىگە
تۈرمىلەردە
تۈرمىلەرگە
تۈرمىنىڭ
تۈرمىگە
تۈرمە
تۈرنى
تۈرنىڭ
تۈرى
تۈرىدىكى
تۈرىدىكىلەر
تۈرىدىن
تۈرىدۇر
تۈرىدە
تۈرىمۇ
تۈرىنى
تۈرىنىڭ
تۈرىگە
تۈرگە
تۈرۈك
تۈرۈكچە
تۈرۈپ
تۈز
تۈزدى
تۈزسە
تۈزلەڭلىك
تۈزلەڭلىكتىكى
تۈزلەڭلىكتىن
تۈزلەڭلىككە
تۈزلەڭلىكلەر
تۈزلەڭلىكنىڭ
تۈزلەڭلىكى
تۈزىتىش
تۈزىتىشكە
تۈزىتىلدى
تۈزىتىلگەن
تۈزىتىپ
تۈزىدۇ
تۈزىلىشى
تۈزىمى
تۈزىمىنى
تۈزگۈچى
تۈزگەن
تۈزگەندە
تۈزۈتۈش
تۈزۈش
تۈزۈشتە
تۈزۈشكە
تۈزۈشكەن
تۈزۈشنى
تۈزۈشى
تۈزۈك
تۈزۈكرەك
تۈزۈلدى
تۈزۈلمىسى
تۈزۈلمىسىنى
تۈزۈلمە
تۈزۈلىدۇ
تۈزۈلىشى
تۈزۈلگەن
تۈزۈلۈش
تۈزۈلۈشى
تۈزۈلۈشىنى
تۈزۈلۈشىگە
تۈزۈلۈپ
تۈزۈم
تۈزۈمدىكى
تۈزۈمدە
تۈزۈملىرى
تۈزۈملىرىنى
تۈزۈملەر
تۈزۈملەرنى
تۈزۈملەرگە
تۈزۈمنى
تۈزۈمنىڭ
تۈزۈمى
تۈزۈمىدىكى
تۈزۈمىدە
تۈزۈمىنى
تۈزۈمىنىڭ
تۈزۈمىگە
تۈزۈمگە
تۈزۈپ
تۈزەتكۈچىسى
تۈزەش
تۈس
تۈسكە
تۈسنى
تۈسى
تۈسىنى
تۈسىگە
تۈشتى
تۈشكەن
تۈشۈپ
تۈك
تۈكسىز
تۈكلىرى
تۈكلۈك
تۈكى
تۈكچىلىرى
تۈكچىلەر
تۈكۈرۈش
تۈلكىسى
تۈلكە
تۈلىنىشى
تۈلۈك
تۈمۈر
تۈمەن
تۈمەنلىگەن
تۈن
تۈنجى
تۈندە
تۈنىكە
تۈنۈگۈن
تۈپ
تۈپتىن
تۈپتۈز
تۈپتە
تۈپكى
تۈپى
تۈپەيلى
تۈپەيلىدىن
تۈڭلۈك
تۈگمەن
تۈگمەنچى
تۈگىتىدۇ
تۈگىتىش
تۈگىتىشكە
تۈگىتىشى
تۈگىتىپ
تۈگىدى
تۈگىمەس
تۈگىگەن
تۈگىگەندىن
تۈگىگەندە
تۈگۈلگەن
تۈگۈلۈپ
تۈگۈن
تۈگۈنى
تۈگۈنەك
تۈگۈپ
تۈگەتكۈسىز
تۈگەتكەن
تۈگەتكەندىن
تۈگەيدۇ
تۈگەپ
تۈۋرۈك
تۈۋرۈكلۈك
تۈۋرۈكى
تۈۋى
تۈۋىدە
تۈۋىمدە
تۈۋىگە
تۈۋەت
تۈۋەن
تۈۋەندىكى
تۈۋەندىكىدەك
تۈەن
تۋىتتېر
تېبابىتى
تېبابىتىدە
تېبابەت
تېبابەتكە
تېبابەتچىلىك
تېبابەتچىلىكى
تېبابەتچىلىكىنىڭ
تېببىي
تېبەت
تېتىتقۇ
تېتىر
تېتىك
تېتىپ
تېجەش
تېجەپ
تېخمۇ
تېخنولوگىيىلىك
تېخنولوگىيە
تېخنولوگىيەلىك
تېخنىك
تېخنىكا
تېخنىكوم
تېخنىكومى
تېخنىكىدا
تېخنىكىسى
تېخنىكىسىدىن
تېخنىكىسىغا
تېخنىكىسىنى
تېخنىكىسىنىڭ
تېخنىكىغا
تېخنىكىلارنى
تېخنىكىلارنىڭ
تېخنىكىلىرى
تېخنىكىلىق
تېخنىكىنى
تېخنىكىنىڭ
تېخى
تېخىمۇ
تېخىچە
تېرخىن
تېررورلۇق
تېررورلۇققا
تېررورلۇقنىڭ
تېررورىزم
تېررورىزمغا
تېررورچى
تېررىتورىيىسى
تېررىتورىيىلىك
تېرورلۇق
تېرىسى
تېرىسىدىن
تېرىسىنى
تېرىسىنىڭ
تېرىسىگە
تېرىش
تېرىشقا
تېرىشنى
تېرىغان
تېرىق
تېرىقچىلىق
تېرىقچىلىققا
تېرىلغان
تېرىلغۇ
تېرىلغۇكۈلەم
تېرىلىدىغان
تېرىلىدۇ
تېرىم
تېرىنى
تېرىنىڭ
تېرىيدىغان
تېرىپ
تېرىگە
تېرېسا
تېرە
تېرەك
تېز
تېزدىن
تېزراق
تېزرەك
تېزلا
تېزلىتىش
تېزلىتىپ
تېزلىك
تېزلىكتە
تېزلىكى
تېزلىنىشچان
تېزلەتتى
تېستوستېرون
تېستوستېروننى
تېسلا
تېشى
تېشىدا
تېشىغا
تېشىنى
تېشىپ
تېغى
تېغىدا
تېغىدىكى
تېغىدىن
تېغىغا
تېغىنىڭ
تېكساس
تېكستى
تېكىست
تېكىستلىرى
تېكىستنى
تېكىستنىڭ
تېكىستى
تېكىستىنى
تېكىن
تېكىننىڭ
تېكىنگە
تېكەس
تېل
تېلفون
تېلى
تېلىفون
تېلىلار
تېلىپۇندا
تېلىۋىزور
تېلىۋىزىيە
تېلپون
تېلۋىزور
تېلۋىزىيە
تېلېفون
تېلېفوندا
تېلېفونى
تېلېفۇن
تېلېگراف
تېلېگرامما
تېلېۋزىيە
تېلېۋىزور
تېلېۋىزوردا
تېلېۋىزىيە
تېلېۋىزىيەسى
تېما
تېمى
تېمىتىپ
تېمىدا
تېمىدىكى
تېمىسى
تېمىسىدا
تېمىسىدىكى
تېمىسىغا
تېمىسىنى
تېمىغا
تېمىلار
تېمىلاردا
تېمىلارغا
تېمىلارنى
تېمىنى
تېمىنىڭ
تېمىنە
تېمپېراتۇرا
تېمپېراتۇرىسى
تېمپېراتۇرىسىنى
تېمۇر
تېنى
تېنىدىكى
تېنىدىن
تېنىنىڭ
تېنىگە
تېنچ
تېنچلىق
تېي
تېيىز
تېيىلىش
تېيىلىپ
تېيىپ
تېپىش
تېپىشتا
تېپىشقا
تېپىشماق
تېپىشنى
تېپىشنىڭ
تېپىشى
تېپىشىغا
تېپىشىنى
تېپىلدى
تېپىلغان
تېپىلغاندا
تېپىلغۇسىز
تېپىلماس
تېپىلمىدى
تېپىلمىغان
تېپىلىدىغان
تېپىلىدۇ
تېپىلىشى
تېپىپ
تېپىپتۇ
تېپىڭ
تېپىۋالدى
تېپەر
تېڭشۈن
تېڭىرقاپ
تېڭىلغان
تېڭىلىدۇ
تېڭىپ
تېگى
تېگىدىن
تېگىدە
تېگىش
تېگىشلىك
تېگىپ
تېگىگە
تېھران
تېۋىپ
تېۋىپلار
تېۋىپلارنىڭ
تە
تەبرىك
تەبرىكلىنىدۇ
تەبرىكلىگەن
تەبرىكلەش
تەبرىكلەشكە
تەبرىكلەپ
تەبلىغ
تەبىر
تەبىرى
تەبىقە
تەبىي
تەبي
تەبەسسۇم
تەبەسسۇمنى
تەتبىق
تەتبىقلاش
تەتبىقلاشقا
تەتبىقلايدۇ
تەتبىقلىنىدۇ
تەتبىقلىنىشى
تەتقىق
تەتقىقات
تەتقىقاتتا
تەتقىقاتقا
تەتقىقاتلار
تەتقىقاتلاردا
تەتقىقاتلاردىن
تەتقىقاتلارغا
تەتقىقاتلارنى
تەتقىقاتلارنىڭ
تەتقىقاتلىرى
تەتقىقاتلىرىدا
تەتقىقاتنى
تەتقىقاتنىڭ
تەتقىقاتى
تەتقىقاتىدا
تەتقىقاتىدىكى
تەتقىقاتىدىن
تەتقىقاتىغا
تەتقىقاتىنى
تەتقىقاتىنىڭ
تەتقىقاتچى
تەتقىقاتچىسى
تەتقىقاتچىلار
تەتقىقاتچىلارنىڭ
تەتقىقاتچىلىرى
تەتقىقاتچىلىرىنىڭ
تەتقىقاتچىنىڭ
تەتىل
تەتىلدە
تەتۈر
تەجرىبىخانىسى
تەجرىبىخانىسىدا
تەجرىبىخانىسىدىكى
تەجرىبىسى
تەجرىبىسىگە
تەجرىبىلىرى
تەجرىبىلىرىنى
تەجرىبىلىرىگە
تەجرىبىلىك
تەجرىبىلەر
تەجرىبىلەرنى
تەجرىبىگە
تەجرىبە
تەجىربىسى
تەجىربە
تەجىرىبە
تەجۋىد
تەجەللى
تەجەللىنى
تەجەللىنىڭ
تەخت
تەختتىن
تەختتە
تەختكە
تەختنى
تەختىدە
تەختىنى
تەختىگە
تەخرىج
تەخسىلەرگە
تەخسىگە
تەخسە
تەخمىن
تەخمىنىي
تەخمىنەن
تەخىتتە
تەخىتكە
تەخىرسىز
تەخەللۇس
تەخەللۇسى
تەدبىر
تەدبىرلىرى
تەدبىرلىرىنى
تەدبىرلەر
تەدبىرلەرنى
تەدبىرى
تەدبىرىنى
تەدبىقلاش
تەدبىقلاپ
تەدرىجى
تەدرىجىي
تەدىرىجى
تەدىرىجىي
تەر
تەرابۇلۇس
تەربصيە
تەربىيلىنىش
تەربىيلىگەن
تەربىيلەش
تەربىيلەشكە
تەربىيلەشنى
تەربىيلەپ
تەربىيىسى
تەربىيىسىدىن
تەربىيىسىدە
تەربىيىسىنى
تەربىيىسىنىڭ
تەربىيىسىگە
تەربىيىلىگەن
تەربىيىلەش
تەربىيىلەشكە
تەربىيىلەشنى
تەربىيىلەنگەن
تەربىيىلەيدۇ
تەربىيىلەپ
تەربىيىنى
تەربىيىنىڭ
تەربىيىگە
تەربىيىۋى
تەربىيە
تەربىيەسى
تەربىيەلىگەن
تەربىيەلەش
تەربىيەلەنگەن
تەربىيەلەپ
تەربىيەنى
تەربىيەنىڭ
تەرتىپ
تەرتىپتە
تەرتىپسىز
تەرتىپكە
تەرتىپلىك
تەرتىپنى
تەرتىپى
تەرتىپىنى
تەرتىپىگە
تەرجىمان
تەرجىمانلار
تەرجىمانلىق
تەرجىمانى
تەرجىمىدىنمۇ
تەرجىمىدە
تەرجىمىسى
تەرجىمىسىدە
تەرجىمىسىنى
تەرجىمىسىنىڭ
تەرجىمىلىرى
تەرجىمىلەر
تەرجىمىنىڭ
تەرجىمىھال
تەرجىمىھالى
تەرجىمىھالىنى
تەرجىمھالى
تەرجىمە
تەرخەمەك
تەرزدە
تەرس
تەرسا
تەرغىب
تەرغىبات
تەرغىپ
تەرك
تەركىب
تەركىبلىرى
تەركىبلىرىنى
تەركىبلەر
تەركىبلەرنى
تەركىبلەرنىڭ
تەركىبى
تەركىبىدىكى
تەركىبىدە
تەركىبىنى
تەركىبىنىڭ
تەركىبىي
تەركىبىگە
تەركىپ
تەركىپلەر
تەركىۋى
تەرلەش
تەرى
تەرىقىتى
تەرىقىتىنىڭ
تەرىقىدە
تەرىقىسىدە
تەرىقەت
تەرىقەتلەر
تەرىپدىن
تەرىپلىنىدۇ
تەرىپلىگەن
تەرىپلەنگەن
تەرىپلەيدۇ
تەرىپى
تەرىپىدىكى
تەرىپىدىن
تەرىپىدىنمۇ
تەرىپىدە
تەرىپىنى
تەرىپىنىڭ
تەرىپىگە
تەرپىدىن
تەرۇز
تەرۇزغا
تەرۇزگە
تەرەت
تەرەتنى
تەرەفىدىن
تەرەققى
تەرەققىي
تەرەققىيات
تەرەققىياتتا
تەرەققىياتقا
تەرەققىياتلار
تەرەققىياتلارغا
تەرەققىياتنى
تەرەققىياتنىڭ
تەرەققىياتى
تەرەققىياتىدا
تەرەققىياتىدىكى
تەرەققىياتىغا
تەرەققىياتىنى
تەرەققىياتىنىڭ
تەرەققىيپەرۋەر
تەرەققىپەرۋەر
تەرەقىياتىغا
تەرەپ
تەرەپتارى
تەرەپتىكى
تەرەپتىن
تەرەپتە
تەرەپدارلىرى
تەرەپدارى
تەرەپسىز
تەرەپكە
تەرەپلىرى
تەرەپلىرىدە
تەرەپلىرىنى
تەرەپلىرىگە
تەرەپلىك
تەرەپلىمىلىك
تەرەپلىمە
تەرەپلەر
تەرەپلەردىن
تەرەپلەردە
تەرەپلەرنى
تەرەپلەرنىڭ
تەرەپلەرگە
تەرەپنى
تەرەپنىڭ
تەرەپىدىن
تەرەڧىدىن
تەزكىرىسى
تەزكىرە
تەزىم
تەزىيە
تەس
تەسبىھ
تەستىق
تەستىقلاش
تەستىقلاندى
تەستىقلانغان
تەستىقلانغاندىن
تەستىقلايدۇ
تەستىقلاپ
تەستىقلىتىدۇ
تەستىقلىتىش
تەستىقلىتىپ
تەستىقلىدى
تەستىقلىشى
تەستىقلىغان
تەستىقلىنىپ
تەستىقنامىسى
تەستىقى
تەستىقىدىن
تەستىقىنى
تەستە
تەسر
تەسس
تەسسىس
تەسكە
تەسلىكتە
تەسلىم
تەسىر
تەسىرات
تەسىراتلارنى
تەسىراتىنى
تەسىردىن
تەسىرلىرى
تەسىرلىك
تەسىرلىنىپ
تەسىرلەرنى
تەسىرلەندىم
تەسىرلەنگەن
تەسىرنى
تەسىرى
تەسىرىدىن
تەسىرىدە
تەسىرىنى
تەسىرىنىڭ
تەسىرىگە
تەسىرگە
تەسىس
تەسۋىر
تەسۋىرلىنىدۇ
تەسۋىرلىگەن
تەسۋىرلەش
تەسۋىرلەشكە
تەسۋىرلەنگەن
تەسۋىرلەيدۇ
تەسۋىرلەپ
تەسۋىرى
تەسۋىرىي
تەسەللى
تەسەللىي
تەسەۋۋۇر
تەسەۋۋۇردىن
تەسەۋۋۇرى
تەسەۋۋۇپ
تەسەۋۋۇپنىڭ
تەشتەك
تەشتەكتە
تەشكىل
تەشكىلات
تەشكىلاتتىن
تەشكىلاتقا
تەشكىلاتلار
تەشكىلاتلاردا
تەشكىلاتلاردىن
تەشكىلاتلارغا
تەشكىلاتلارنى
تەشكىلاتلارنىڭ
تەشكىلاتلىرى
تەشكىلاتلىرىدىن
تەشكىلاتلىرىغا
تەشكىلاتلىرىنى
تەشكىلاتلىرىنىڭ
تەشكىلاتنى
تەشكىلاتنىڭ
تەشكىلاتى
تەشكىلاتىدا
تەشكىلاتىغا
تەشكىلاتىنى
تەشكىلاتىنىڭ
تەشكىلاتچىلىق
تەشكىللىدى
تەشكىللىشى
تەشكىللىك
تەشكىللىنىش
تەشكىللىنىپ
تەشكىللىگۈچى
تەشكىللىگەن
تەشكىللەش
تەشكىللەشكە
تەشكىللەندى
تەشكىللەنگەن
تەشكىللەيدۇ
تەشكىللەپ
تەشكىلنىڭ
تەشكىلى
تەشكىلىي
تەشنا
تەشنالىقىنى
تەشۋىش
تەشۋىق
تەشۋىقات
تەشۋىقاتنىڭ
تەشۋىقاتى
تەشۋىقاتىنى
تەشەببۇس
تەشەببۇسكار
تەشەببۇسكارلىق
تەشەببۇسلىرى
تەشەببۇسلىرىنى
تەشەببۇسى
تەشەككۈر
تەغدىم
تەفسىر
تەفسىرى
تەقدىر
تەقدىردىمۇ
تەقدىردە
تەقدىرلەش
تەقدىرى
تەقدىرىمىز
تەقدىرىنى
تەقدىرىنىڭ
تەقدىرىگە
تەقدىرگە
تەقدىم
تەقسىم
تەقسىمات
تەقسىماتى
تەقسىملەش
تەقلىد
تەقلىدى
تەقلىدىي
تەقىب
تەقىپ
تەقۋا
تەقۋادار
تەقۋادارلىق
تەقۋالىق
تەقۋىم
تەقۋىمغا
تەقۋىمى
تەقۋىمىدە
تەقۋىمىگە
تەقۋىمگە
تەقەززا
تەقەززاسى
تەك
تەكبىر
تەكتى
تەكتىدىن
تەكرار
تەكرارلاش
تەكرارلانغان
تەكرارلاپ
تەكرارلىنىدىغان
تەكرارلىنىدۇ
تەكرارلىنىشى
تەكرارلىنىپ
تەكشى
تەكشىلىكتىكى
تەكشىلىكتە
تەكشىلىكى
تەكشۇرۇش
تەكشۈرىدۇ
تەكشۈرگۈچى
تەكشۈرگەن
تەكشۈرگەندە
تەكشۈرۈش
تەكشۈرۈشتىن
تەكشۈرۈشتە
تەكشۈرۈشكە
تەكشۈرۈشلەر
تەكشۈرۈشنى
تەكشۈرۈشى
تەكشۈرۈشىگە
تەكشۈرۈپ
تەكلىب
تەكلىماكان
تەكلىپ
تەكلىپكە
تەكلىپلىك
تەكلىپلەرنى
تەكلىپنى
تەكلىپى
تەكلىپىنى
تەكلىپىگە
تەكىتلىدى
تەكىتلىنىدىغان
تەكىتلىنىدۇ
تەكىتلىگەن
تەكىتلەش
تەكىتلەنگەن
تەكىتلەيدۇ
تەكىتلەپ
تەكەللۇپ
تەل
تەلتۆكۈس
تەلىم
تەلىمات
تەلىماتلار
تەلىماتلىرىنى
تەلىماتلىرىنىڭ
تەلىماتى
تەلىماتىنى
تەلىماتىنىڭ
تەلىپى
تەلىپىدە
تەلىپىنى
تەلىپىگە
تەلپۈنۈش
تەلپۈنۈپ
تەلھە
تەلۋە
تەلەي
تەلەيلىك
تەلەپ
تەلەپكە
تەلەپلىرى
تەلەپلىرىنى
تەلەپلەر
تەلەپلەرنى
تەلەپنامىسى
تەلەپنى
تەلەپپۇز
تەلەپپۇزدا
تەلەپپۇزغا
تەلەپپۇزى
تەلەپپۇزىدا
تەلەپپۇزىغا
تەلەپپۇزىنى
تەلەپپۇزىنىڭ
تەلەپچان
تەم
تەمبۇر
تەمبۈر
تەمتىرەپ
تەمرى
تەمسىل
تەمسىللىرى
تەمسىللەر
تەمكىن
تەملىك
تەمى
تەمىم
تەمىن
تەمىنات
تەمىناتى
تەمىنلىدى
تەمىنلىشى
تەمىنلىگەن
تەمىنلەش
تەمىنلەشكە
تەمىنلەشنى
تەمىنلەنگەن
تەمىنلەيدىغان
تەمىنلەيدۇ
تەمىنلەپ
تەمىنى
تەن
تەنبىھ
تەنتەربىيە
تەنتەنىلىك
تەنتەنە
تەندە
تەنقىت
تەنقىد
تەنقىدلىرى
تەنقىدىي
تەنلىك
تەنلىكلەر
تەنلىكلەرنىڭ
تەننى
تەننىڭ
تەننەرخ
تەننەرخى
تەنچىسى
تەنچە
تەنگە
تەنھا
تەنھەركەت
تەنھەركەتچى
تەنھەرىكەت
تەنە
تەي
تەيبېي
تەيجى
تەير
تەيزۇ
تەيزۇڭ
تەيمىيە
تەيىنلىدى
تەيىنلىنىدۇ
تەيىنلىنىپ
تەيىنلىگەن
تەيىنلەش
تەيىنلەندى
تەيىنلەنگەن
تەيىنلەيدۇ
تەيىنلەپ
تەييار
تەييارلاش
تەييارلاشقا
تەييارلاندى
تەييارلانغان
تەييارلايدۇ
تەييارلايمىز
تەييارلاپ
تەييارلىدى
تەييارلىشى
تەييارلىغان
تەييارلىغۇچى
تەييارلىق
تەييارلىقلار
تەييارلىقى
تەييارلىقىنى
تەييارلىنىدىغان
تەييارلىنىدۇ
تەييارلىنىشى
تەييارلىنىپ
تەييارلىۋالغان
تەيۋەن
تەيۋەندە
تەيۋەنلىك
تەيۋەننى
تەيۋەننىڭ
تەيۋەنگە
تەپ
تەپتى
تەپتىش
تەپتىشى
تەپرىقىچىلىك
تەپسىر
تەپسىرى
تەپسىلاتى
تەپسىلاتىنى
تەپسىلى
تەپسىلىي
تەپكۈچ
تەپي
تەپەككۇر
تەپەككۇرغا
تەپەككۇرنى
تەپەككۇرى
تەپەككۇرىنى
تەپەككۇرىنىڭ
تەپەككۈر
تەڧسىر
تەڭ
تەڭداش
تەڭداشسىز
تەڭدىشى
تەڭدىن
تەڭرى
تەڭرىتاغ
تەڭرىتاغنىڭ
تەڭرىتېغىنىڭ
تەڭرىدىن
تەڭرىسى
تەڭرىقۇت
تەڭرىقۇتنىڭ
تەڭرىقۇتى
تەڭرىلىك
تەڭرىنى
تەڭرىنىڭ
تەڭرىگە
تەڭسىز
تەڭسىزلىك
تەڭشىگۈچ
تەڭشەش
تەڭشەشكە
تەڭشەلگەن
تەڭشەيدۇ
تەڭشەپ
تەڭكەش
تەڭلا
تەڭلىمىسى
تەڭلىمىسىدە
تەڭلىمىسىنى
تەڭلىمىنى
تەڭلىمە
تەڭلەشتۈرمە
تەڭنە
تەڭپۇڭ
تەڭپۇڭلۇق
تەڭپۇڭلۇقنى
تەڭپۇڭلۇقىنى
تەڭگىسى
تەڭگىسىمان
تەڭگىنى
تەڭگىگە
تەڭگە
تەگ
تەگدى
تەگسە
تەگكەن
تەگلىك
تەگمىگەن
تەھدىت
تەھدىتكە
تەھدىتنىڭ
تەھدىتى
تەھدىد
تەھرىر
تەھرىرلىك
تەھرىرلىكىنى
تەھرىرلەش
تەھرىرلەپ
تەھرىرى
تەھسىل
تەھلىل
تەۋبە
تەۋرات
تەۋراتتا
تەۋراتنى
تەۋراتنىڭ
تەۋرىتىپ
تەۋرىدى
تەۋرىنىش
تەۋرىنىپ
تەۋرەش
تەۋرەشتىن
تەۋرەشنى
تەۋرەنمەس
تەۋرەپ
تەۋسىيە
تەۋسىيەسى
تەۋپىق
تەۋھىد
تەۋە
تەۋەدۇر
تەۋەرۈك
تەۋەسى
تەۋەسىدىكى
تەۋەسىدىن
تەۋەسىدە
تەۋەسىگە
تەۋەككۇل
تەۋەككۈل
تەۋەككۈلچىلىك
تەۋەلىك
تەۋەلىكى
تەۋەلىكىدىكى
تەۋەلىكىدىن
تەۋەلىكىدە
تەۋەلىكىنى
تەۋەلىكىگە
ث
ج
جا
جابدۇق
جابدۇقلىرى
جابدۇقى
جادۇگەر
جاراڭسىز
جاراڭلىق
جاراھەت
جارى
جارىي
جازا
جازاسى
جازاسىغا
جازاسىنى
جازاغا
جازالاش
جازالاشقا
جازالانغۇچى
جازالايدۇ
جازالاپ
جازالىنىدۇ
جازانى
جازانىڭ
جازىسى
جاسارىتى
جاسارىتىنى
جاسارەت
جاسارەتلىك
جاساق
جاسۇس
جاسۇسلۇق
جافەري
جاق
جاك
جاكارلاش
جاكارلاندى
جاكارلانغان
جاكارلايدۇ
جاكارلاپ
جاكارلىدى
جاكارلىغان
جالالىددىن
جالالىدىــن
جالالىدىن
جاللات
جالۇت
جام
جامادىيەلي
جامال
جامالىدىن
جاماي
جامى
جامىي
جامېس
جامە
جامەسى
جان
جانابى
جانان
جانبازلىق
جاندىن
جانسىز
جانغا
جانلاندۇرىدىغان
جانلاندۇرۇش
جانلاندۇرۇم
جانلانغان
جانلىق
جانلىقلار
جانلىقلارغا
جانلىقلارنىڭ
جانلىقنىڭ
جانلىنىپ
جاننى
جاي
جايدا
جايدىكى
جايدىن
جايغا
جايلاخكان
جايلار
جايلاردا
جايلاردىكى
جايلاردىن
جايلارغا
جايلارنى
جايلارنىڭ
جايلاشقان
جايلاشقانلىقى
جايلىرى
جايلىرىدا
جايلىرىدىكى
جايلىرىدىن
جايلىرىغا
جايلىرىنى
جاينى
جاينىڭ
جايى
جايىدا
جايىدىكى
جايىغا
جايىنى
جايىنىڭ
جاپا
جاپادا
جاپاغا
جاپاكەش
جاپالىق
جاپپار
جاڭ
جاڭجۈن
جاڭيۇ
جاڭگال
جاڭگالغا
جاھالەت
جاھان
جاھانباغ
جاھاندا
جاھاندىكى
جاھانغا
جاھاننى
جاھاننىڭ
جاھاننەما
جاھانگىر
جاھانگىرلىك
جاھانگىرلىككە
جاھىل
جاھىللىق
جاھىلىيەت
جاۋ
جاۋا
جاۋاب
جاۋابقا
جاۋابكار
جاۋابكارلارغا
جاۋابكارلىرىغا
جاۋابكارلىق
جاۋابكارلىققا
جاۋابكارلىقنى
جاۋابكارلىقى
جاۋابكارلىقىنى
جاۋابلار
جاۋابنامە
جاۋابنى
جاۋابى
جاۋابىمىز
جاۋابىنى
جاۋابەن
جاۋاپ
جاۋاپكار
جـ
جو
جواڭزۇ
جوبس
جوبىس
جورج
جورجان
جورجىت
جورجىتلار
جورجىتلارنىڭ
جون
جوڭ
جوڭخۇا
جوڭخۇي
جوڭگو
جوڭگودا
جوڭگودىكى
جوڭگونىڭ
جوڭگۇ
جوڭگۇدا
جوڭگۇدىكى
جوڭگۇغا
جوڭگۇلۇق
جوڭگۇلۇقلار
جوڭگۇنىڭ
جوڭگۇچە
جى
جىبرىي
جىبۇتى
جىددى
جىددىي
جىددىيلىك
جىددە
جىدەل
جىسمانى
جىسمانىي
جىسمى
جىسمىغا
جىسىم
جىسىمغا
جىسىملار
جىسىملارنى
جىسىملارنىڭ
جىسىملىرى
جىسىملىرىنىڭ
جىسىمنى
جىسىمنىڭ
جىغان
جىق
جىلت
جىلتقا
جىلد
جىلدلىق
جىلغا
جىلغىسى
جىلغىسىدا
جىلغىسىدىكى
جىلىت
جىلىن
جىلۋە
جىم
جىمجىت
جىمسار
جىمى
جىمىسار
جىمىنەي
جىن
جىنازا
جىنايى
جىنايىتى
جىنايىتىنى
جىنايىتىگە
جىنايەت
جىنايەتكە
جىنايەتلەرنى
جىنايەتنى
جىنايەتنىڭ
جىنايەتچى
جىنايەتچىسى
جىنايەتچىلەر
جىنايەتچىلەردىن
جىنايەتچىلەرنى
جىنايەتچىلەرنىڭ
جىنايەتچىنىڭ
جىنس
جىنسى
جىنسىي
جىنسىيەت
جىنشەن
جىننىڭ
جىنى
جىنىس
جىنىسسىز
جىنىسلىق
جىنپىڭ
جىنپىڭنىڭ
جىيەن
جىيەنى
جىڭ
جىگدىلىك
جىگدىلىككە
جىگدە
جىگەر
جىھات
جىھاد
جىھادقا
جياڭ
جياڭسۇ
جياڭشى
جياۋتوڭ
جۆر
جۆيلۈش
جۆۋەندە
جۇ
جۇاڭزۇ
جۇدا
جۇداي
جۇش
جۇشقۇن
جۇشقۇنلۇق
جۇغراپىيلىك
جۇغراپىيىسى
جۇغراپىيىلىك
جۇغراپىيە
جۇغراپىيەسى
جۇغراپىيەلىك
جۇغلانما
جۇغلانمىسى
جۇلا
جۇلىيان
جۇملىدىن
جۇملە
جۇمي
جۇمھۇر
جۇمھۇررەي
جۇمھۇرىيتى
جۇمھۇرىيتىنىڭ
جۇمھۇرىيىتى
جۇمھۇرىيىتىدىكى
جۇمھۇرىيىتىدە
جۇمھۇرىيىتىنى
جۇمھۇرىيىتىنىڭ
جۇمھۇرىيىتىگە
جۇمھۇرىيەت
جۇمھۇرىيەتكە
جۇمھۇرىيەتلىرى
جۇمھۇرىيەتلىرىدىكى
جۇمھۇرىيەتلىرىدە
جۇمھۇرىيەتلىرىنىڭ
جۇمھۇرىيەتلەر
جۇمھۇرىيەتلەردە
جۇمھۇرىيەتلەرنىڭ
جۇمھۇرىيەتنى
جۇمھۇرىيەتنىڭ
جۇمھۇرىيەتى
جۇمھۇرىيەتچىلەر
جۇمھۇريىتى
جۇمھۇريىتىنىڭ
جۇمە
جۇي
جۇڭ
جۇڭخۇا
جۇڭشەن
جۇڭغار
جۇڭغارلار
جۇڭغارلارنىڭ
جۇڭغارىيە
جۇڭيى
جۇڭگو
جۇڭگودا
جۇڭگودىكى
جۇڭگودىن
جۇڭگوغا
جۇڭگولۇق
جۇڭگولۇقلار
جۇڭگولۇقلارنىڭ
جۇڭگونى
جۇڭگونىڭ
جۇڭگوچە
جۇڭگۇ
جۇڭگۇدا
جۇڭگۇنىڭ
جۇۋاز
جۇۋان
جۈري
جۈملىدىكى
جۈملىدىن
جۈملىدە
جۈملىسى
جۈملىسىدىن
جۈملىلەر
جۈملىلەرنى
جۈملىلەرنىڭ
جۈملىنى
جۈملىنىڭ
جۈملىگە
جۈملە
جۈمي
جۈمە
جۈمەگە
جۈن
جۈنىنىڭ
جۈپ
جۈپلەپ
جېجياڭ
جېدەل
جېلىل
جېن
جېنسىي
جېنى
جېنىغا
جېنىم
جېنىنى
جېڭ
جېڭى
جېڭىدە
جە
جەبراي
جەبەل
جەدىۋىلى
جەدىۋەل
جەدۋىلى
جەدۋەل
جەرى
جەرىمانە
جەريان
جەرياندا
جەريانلار
جەريانلارنى
جەريانلىرى
جەريانلىرىنى
جەرياننى
جەريانى
جەريانىدا
جەريانىدىكى
جەريانىدىمۇ
جەريانىدىن
جەريانىدۇر
جەريانىغا
جەريانىنى
جەريانىنىڭ
جەرەن
جەزمەن
جەسىتى
جەسىتىنى
جەسۇر
جەسەت
جەسەتلەرنىڭ
جەسەتنى
جەلب
جەلىل
جەلىپ
جەلىپكار
جەلپ
جەم
جەملەنگەن
جەمى
جەمىي
جەمىيىتى
جەمىيىتىنىڭ
جەمىيي
جەمىيەت
جەمىيەتتە
جەمىيەتكە
جەمىيەتنى
جەمىيەتنىڭ
جەمي
جەمەت
جەمەتكە
جەمەتنىڭ
جەمەتى
جەمەتىدىكى
جەمەتىدىكىلەر
جەمەتىدىن
جەمەتىنى
جەمەتىنىڭ
جەمەتىگە
جەننەت
جەننەتتىن
جەننەتتە
جەننەتكە
جەننەتلىك
جەننەتنىڭ
جەنوبى
جەنۇب
جەنۇبتا
جەنۇبتىكى
جەنۇبتىن
جەنۇبقا
جەنۇبى
جەنۇبىدا
جەنۇبىدىكى
جەنۇبىدىن
جەنۇبىغا
جەنۇبىنى
جەنۇبىي
جەنۇپ
جەنۇپتا
جەنۇپقا
جەنۋە
جەنۋەدە
جەي
جەڭ
جەڭدىن
جەڭدە
جەڭلەر
جەڭلەردە
جەڭنى
جەڭچى
جەڭچىسى
جەڭگىۋار
جەڭگە
جەھلى
جەھەتتىكى
جەھەتتىمۇ
جەھەتتىن
جەھەتتىنمۇ
جەھەتتە
جەھەتلەردىكى
جەھەتلەردىن
جەھەتلەردە
جەھەننەم
جەۋلان
جەۋھىرى
جەۋھەر
جەۋھەرلىرى
جەۋھەرلىرىنى
جەۋھەرىي
جەۋھەرىينىڭ
ح
حاديث
حاشية
حمد
حياء
خ
خاتا
خاتالاشقان
خاتالىق
خاتالىقلار
خاتالىقلارنى
خاتالىقلىرى
خاتالىقنى
خاتالىقى
خاتالىقىنى
خاتىرجەم
خاتىرجەملىك
خاتىرلىرى
خاتىرلەش
خاتىرلەنگەن
خاتىرلەيمىز
خاتىرلەپ
خاتىرىجەم
خاتىرىسى
خاتىرىسىدە
خاتىرىسىنى
خاتىرىسىگە
خاتىرىلىرى
خاتىرىلىنىشىچە
خاتىرىلىگەن
خاتىرىلەر
خاتىرىلەردىن
خاتىرىلەردە
خاتىرىلەرگە
خاتىرىلەش
خاتىرىلەنگەن
خاتىرىلەپ
خاتىرىنى
خاتىرىگە
خاتىرە
خاتىمە
خاتىپ
خاتۇن
خادا
خادىم
خادىمغا
خادىملار
خادىملاردىن
خادىملارغا
خادىملارنى
خادىملارنىڭ
خادىملىرى
خادىملىرىدىن
خادىملىرىغا
خادىملىرىنى
خادىملىرىنىڭ
خادىمى
خادىمىغا
خادىمىنىڭ
خار
خاراب
خارابىسى
خارابىسىنى
خارابىلىقى
خارابىنىڭ
خارابە
خارازىمى
خاراكتىر
خاراكتىرلىق
خاراكتىرلىك
خاراكتىرى
خاراكتېر
خاراكتېردىكى
خاراكتېرلىق
خاراكتېرلىك
خاراكتېرى
خاراكتېرىدىكى
خاراكتېرىدىن
خاراكتېرىدە
خاراكتېرىنى
خاراكتېرىنىڭ
خاراكتېرىگە
خاراكتېرگە
خاراپ
خاربىن
خارىكى
خارۋارد
خارەزم
خارەزمى
خارەزىم
خارەكتىرلىك
خاس
خاستۇر
خاسلىق
خاسلىققا
خاسلىقنى
خاسلىقى
خاسلىقىنى
خاسىيىتى
خاسىيەت
خاسىيەتلىك
خاسىڭ
خاشۇقجى
خاقان
خاقانغا
خاقانلار
خاقانلىرى
خاقانلىق
خاقاننىڭ
خاقانى
خاقانىم
خاقانىيە
خاككاسلار
خاكۇ
خال
خالاس
خالايدىغان
خالايدىغانلىقىنى
خالايدۇ
خالايىق
خالاپ
خالتا
خالتىسى
خالتىغا
خالتىنى
خالمۇرات
خالى
خالىد
خالىدە
خالىس
خالىسا
خالىسانە
خالىغان
خالىغانچە
خالىق
خالىقجان
خالىماي
خالىمايدىغان
خالىمايدۇ
خالىمايمەن
خالىمىدى
خالىمىسا
خالىمىغان
خالىي
خام
خامان
خاممۇرابى
خامچوت
خان
خانتەڭرى
خاندانلىقى
خاندانلىقىنى
خاندانلىقىنىڭ
خاندىن
خاندەمىر
خاندەمىرنىڭ
خانغا
خانلار
خانلىرىنىڭ
خانلىق
خانلىققا
خانلىقلار
خانلىقنى
خانلىقنىڭ
خانلىقى
خانلىقىدا
خانلىقىدىكى
خانلىقىدىن
خانلىقىغا
خانلىقىنى
خانلىقىنىڭ
خاننى
خاننىڭ
خانى
خانىدانلىقى
خانىدانلىقىنىڭ
خانىش
خانىشى
خانىغا
خانىقا
خانىقاسى
خانىقاسىنىڭ
خانىلىق
خانىم
خانىملار
خانىمنى
خانىمنىڭ
خانىمى
خانىنىڭ
خاني
خانە
خاي
خاپا
خاڭجوۋ
خاڭجۇ
خاڭگۇڭ
خاھرى
خاھىش
خاھىشى
خاۋكىڭ
خةلق
ختن
خروم
خرى
خرىستىي
خرىستىيان
خرىستىيانلىق
خرۇستال
خصراجصتصنص
خصلاپ
خو
خوت
خوتۇن
خوتۇنلۇق
خوتۇنلۇققا
خوتۇننىڭ
خوتۇنى
خوتۇنىنى
خوتەن
خوتەندىكى
خوتەندىن
خوتەندە
خوتەنلىك
خوتەننى
خوتەننىڭ
خوتەنىي
خوتەنىينى
خوتەنىينىڭ
خوتەنىيگە
خوتەنگە
خوجا
خوجام
خوجانىياز
خوجايىن
خوجايىنى
خوجىغا
خوجىلار
خوجىنى
خوجىنىياز
خوجىنىڭ
خور
خوراز
خوراسان
خورايدىغىنى
خوردىلىق
خورلۇق
خورلۇققا
خورما
خورمىنى
خوش
خوشال
خوشاللىق
خوشاڭ
خوشلىشىپ
خوشنا
خوشىڭى
خوشۇت
خوي
خوپ
خوڭكوڭ
خوڭكوڭلۇقلار
خىتاب
خىتابنامىسى
خىتابنامىسىنى
خىتابنامە
خىتاي
خىتايدا
خىتايدىكى
خىتايدىن
خىتايغا
خىتايلار
خىتايلاردىن
خىتايلارغا
خىتايلارنى
خىتايلارنىڭ
خىتايلاشتۇرۇش
خىتاينى
خىتاينىڭ
خىتايچە
خىتاپ
خىتتاي
خىجىل
خىراجىتى
خىراجىتىنى
خىراجىتىنىڭ
خىراجەت
خىراجەتنى
خىروم
خىرويۇكى
خىرىس
خىرىستىي
خىرىستىيان
خىرىستىيانلار
خىرىستىيانلارنىڭ
خىرىستىيانلىق
خىزمىتى
خىزمىتىدىكى
خىزمىتىدىن
خىزمىتىدە
خىزمىتىنى
خىزمىتىنىڭ
خىزمىتىگە
خىزمەت
خىزمەتتىكى
خىزمەتتىن
خىزمەتتە
خىزمەتكە
خىزمەتلىرى
خىزمەتلىرىنى
خىزمەتلىرىنىڭ
خىزمەتلىرىگە
خىزمەتلەر
خىزمەتلەرنى
خىزمەتلەرنىڭ
خىزمەتلەرگە
خىزمەتنى
خىزمەتنىڭ
خىزمەتچى
خىزمەتچىسى
خىزمەتچىلىرى
خىزمەتچىلىرىنىڭ
خىزمەتچىلەر
خىزمەتچىلەرنى
خىزمەتچىلەرنىڭ
خىزمەتچىلەرگە
خىزىر
خىسلىتى
خىسلەت
خىسلەتلىرى
خىسلەتلىك
خىش
خىل
خىلاپ
خىلاپلىق
خىلدا
خىلدىكى
خىلدىن
خىلغا
خىللا
خىللىقى
خىللىقىنى
خىلمۇ
خىلمۇخىل
خىلى
خىلىت
خىلىتلار
خىلىتلارنىڭ
خىلىتى
خىلىتىنىڭ
خىلۋەت
خىمالىكاڭ
خىمىك
خىمىيىلىك
خىمىيىۋى
خىمىيە
خىمىيەسى
خىمىيەلىك
خىيال
خىيالدىن
خىيالغا
خىياللار
خىياللارنى
خىياللىرى
خىيالنى
خىيالى
خىيالىي
خىيالچان
خىيانەت
خىيانەتچىلىك
خىۋە
خۇ
خۇا
خۇاي
خۇاڭ
خۇاڭخې
خۇبېي
خۇتبە
خۇتەن
خۇجا
خۇدا
خۇدادىن
خۇداسى
خۇداغا
خۇدالىق
خۇدانىڭ
خۇدايىم
خۇددى
خۇدىياريۈزى
خۇراسان
خۇراسانغا
خۇراساننىڭ
خۇرام
خۇراپات
خۇراپاتلىق
خۇراپاتلىقى
خۇراپىي
خۇرجۇن
خۇرسەن
خۇرۇم
خۇرۇچ
خۇرۇچلار
خۇرۇچى
خۇزەيمە
خۇسۇستا
خۇسۇسى
خۇسۇسىدا
خۇسۇسىي
خۇسۇسىيتى
خۇسۇسىيىتى
خۇسۇسىيىتىنى
خۇسۇسىيىتىگە
خۇسۇسىيەت
خۇسۇسىيەتكە
خۇسۇسىيەتلىرى
خۇسۇسىيەتلىرىنى
خۇسۇسەن
خۇش
خۇشال
خۇشاللىق
خۇشاللىقى
خۇشامەت
خۇشبۇي
خۇشتار
خۇشخۇي
خۇشى
خۇشىمىن
خۇشپۇراق
خۇلاسىسى
خۇلاسىلاپ
خۇلاسىلىگەندە
خۇلاسىلەپ
خۇلاسىنى
خۇلاسىگە
خۇلاسە
خۇلقى
خۇلۇداۋ
خۇمار
خۇن
خۇنىڭ
خۇنەن
خۇي
خۇيخۇي
خۇيخۇيلار
خۇيخۇيلارنىڭ
خۇيزۇ
خۇيزۇلار
خۇيزۇلارنىڭ
خۇيى
خۇپسەنلىك
خۇپىيانە
خۇڭ
خې
خېبىي
خېبېي
خېتى
خېتىدە
خېتىنى
خېتىنىڭ
خېتىگە
خېجىڭ
خېرىدار
خېرىدارلار
خېرىدارلارغا
خېرىدارلارنى
خېرىدارلارنىڭ
خېرىدارلىق
خېشى
خېلى
خېلىل
خېلىلا
خېلە
خېمىر
خېمىرتۇرۇچ
خېمىرتۇرۇچلۇق
خېمىرغا
خېمىرنى
خېمىرنىڭ
خېمىرى
خېمىرىدەك
خېمىرىنى
خېمىيە
خېنىم
خېنە
خېنەن
خېيلوڭجياڭ
خېيلۇڭجياڭ
خېيىم
خېڭدا
خەبەر
خەت
خەتتاب
خەتتابنىڭ
خەتتات
خەتتاتلار
خەتتاتلىق
خەتتۇل
خەتتە
خەتكە
خەتلىرىنى
خەتلىك
خەتلەر
خەتلەرنى
خەتمە
خەتنى
خەتنىڭ
خەتنە
خەتىرى
خەتىرىنى
خەتەر
خەتەردىن
خەتەرلىك
خەتەرنى
خەتەرگە
خەجلەپ
خەدىجە
خەدىچە
خەرىتىسى
خەرىتىسىنى
خەرىتىسىگە
خەرىتىلىك
خەرىتە
خەزاي
خەزىنىسى
خەزىنىسىگە
خەزىنىگە
خەزىنە
خەشەك
خەق
خەقتىن
خەققە
خەقلەر
خەقنى
خەقنىڭ
خەلدۇن
خەلق
خەلقارا
خەلقارالىق
خەلقتىن
خەلققە
خەلقكە
خەلقلىرى
خەلقلىرىنىڭ
خەلقلىرىگە
خەلقلەر
خەلقلەردىن
خەلقلەردە
خەلقلەرنى
خەلقلەرنىڭ
خەلقلەرگە
خەلقنى
خەلقنىڭ
خەلقى
خەلقىدىن
خەلقىدە
خەلقىم
خەلقىمىز
خەلقىمىزدە
خەلقىمىزنى
خەلقىمىزنىڭ
خەلقىمىزگە
خەلقىمۇ
خەلقىنى
خەلقىنىڭ
خەلقىي
خەلقىگە
خەلقي
خەلقپەرۋەر
خەلقچىل
خەلىق
خەلىققە
خەلىقلەر
خەلىقلەرنىڭ
خەلىقنى
خەلىقنىڭ
خەلىقى
خەلىقي
خەلىل
خەلىپىسى
خەلىپىلىك
خەلىپىلىككە
خەلىپىلىكى
خەلىپىلىكىنىڭ
خەلىپىلەر
خەلىپىنى
خەلىپىنىڭ
خەلىپە
خەلىڧە
خەلىڧەسى
خەلپىنى
خەلپە
خەلپەت
خەمسە
خەمىت
خەن
خەنجەر
خەندەك
خەنزۇ
خەنزۇلار
خەنزۇلارنىڭ
خەنزۇچىدا
خەنزۇچىدىن
خەنزۇچىغا
خەنزۇچە
خەنزۇۋان
خەنسۇ
خەنسۇلار
خەنسۇلاردىن
خەنسۇلارغا
خەنسۇلارنىڭ
خەنسۇنىڭ
خەنسۇچە
خەنلەر
خەننامە
خەنچە
خەير
خەيرلىك
خەيرى
خەيس
خەينەن
خەۋىرى
خەۋىرىدە
خەۋىرىم
خەۋىرىنى
خەۋىرىگە
خەۋىپسىزلىك
خەۋىپى
خەۋپ
خەۋپتىن
خەۋپسىزلىك
خەۋپسىزلىكى
خەۋپسىزلىكىگە
خەۋپكە
خەۋپلىك
خەۋپى
خەۋپىنى
خەۋپىگە
خەۋەر
خەۋەردار
خەۋەردە
خەۋەرسىز
خەۋەرلىرى
خەۋەرلىشىش
خەۋەرلەر
خەۋەرلەرنى
خەۋەرلەرنىڭ
خەۋەرلەرگە
خەۋەرلەندۈرۈش
خەۋەرنى
خەۋەرنىڭ
خەۋەرچى
د
دا
دات
داخان
داخىل
داخۇا
داد
دادا
دادام
دادامنىڭ
دادىسى
دادىسىدىن
دادىسىغا
دادىسىنى
دادىسىنىڭ
دادىغا
دادىل
دادىلار
دادىللىق
دادىنىڭ
دادۇر
دادۈي
دار
دارا
دارامىتى
دارامەت
دارغا
دارى
دارىلمۇي
دارىلي
دارىن
دارچىن
دارۇل
دارۋازلىق
دارېن
داس
داستان
داستاندا
داستانلار
داستانلىرى
داستانلىرىنى
داستاننى
داستاننىڭ
داستانى
داستانىدا
داستانىدىكى
داستانىنى
داستانىنىڭ
داستىخان
داستىخاندا
داستىخانغا
داستىخاننى
داستىن
داسقا
داسنىڭ
داش
داغ
داغدام
داغدۇغا
داغدۇغىلىق
داغلار
داغلاپ
داغىستان
داغىستاندىكى
داغۇر
داكا
داكار
دالا
دالاسىغا
دالالەت
دالانچە
دالاي
دالىدا
دالىلاردا
داليەن
دام
دامكا
داموللا
داموللام
داموللامغا
داموللامنىڭ
دامىكۇ
دان
دانا
دانكو
دانكونىڭ
دانلىق
دانىدىن
دانىسى
دانىش
دانىشمەن
دانىيال
دانىيە
دانچە
دانە
داود
داىراىقىدا
داي
داپ
داپخاننى
داپنى
داڭ
داڭدار
داڭق
داڭقان
داڭقى
داڭلىق
داھى
داھىسى
داھىي
داھىيسى
داۋا
داۋاسى
داۋاسىغا
داۋاسىنى
داۋاسىنىڭ
داۋاغا
داۋالاش
داۋالاشتا
داۋالاشتىكى
داۋالاشتىن
داۋالاشقا
داۋالاشنى
داۋالاشنىڭ
داۋالايدىغان
داۋالاپ
داۋالغۇش
داۋالىغان
داۋالىنىش
داۋام
داۋاملاشتى
داۋاملاشتۇردى
داۋاملاشتۇرغان
داۋاملاشتۇرماقتا
داۋاملاشتۇرىدۇ
داۋاملاشتۇرۇش
داۋاملاشتۇرۇشقا
داۋاملاشتۇرۇپ
داۋاملاشسا
داۋاملاشقان
داۋاملاشماقتا
داۋاملىشىدىغان
داۋاملىشىدۇ
داۋاملىشىش
داۋاملىشىپ
داۋاملىشىۋاتقان
داۋاملىق
داۋامى
داۋامىدا
داۋامەتنىڭ
داۋان
داۋانىڭ
داۋانچىڭ
داۋايى
داۋىد
داۋىس
داۋگۇاڭ
داۋگۇاڭنىڭ
داۋۇت
داۋۇتي
داۋۇد
دة
در
دراما
درامما
درامىسى
درامىسىدا
درامىلىرىنى
دوتسېنت
دوتسېنتلىق
دوتسېنتى
دوتەي
دوخاپكىدا
دوخاپكىغا
دوختۇر
دوختۇرخانا
دوختۇرخانىدا
دوختۇرخانىسى
دوختۇرخانىسىدا
دوختۇرخانىسىغا
دوختۇرخانىسىنىڭ
دوختۇرخانىغا
دوختۇرخانىلاردا
دوختۇرغا
دوختۇرلار
دوختۇرلارنىڭ
دوختۇرلۇق
دوختۇرنىڭ
دوختۇرى
دودايىف
دورا
دوراپ
دورغا
دوركخيىم
دورىسى
دورىغا
دورىلار
دورىلاردىن
دورىلارنى
دورىلارنىڭ
دورىلىرى
دورىلىرىنى
دورىلىق
دورىنى
دورىنىڭ
دورىگەرلىك
دوزاخ
دوزاختىن
دوزاخقا
دوست
دوستانە
دوستلار
دوستلاردىن
دوستلارغا
دوستلارنىڭ
دوستلىرى
دوستلىرىدىن
دوستلىرىغا
دوستلىرىم
دوستلىرىمىز
دوستلىرىنىڭ
دوستلۇرۇم
دوستلۇرۇمنىڭ
دوستلۇق
دوستلۇقنى
دوستلۇقنىڭ
دوستلۇقى
دوستى
دوستىغا
دوستىمىز
دوستىمىزنىڭ
دوستىنىڭ
دوستۇم
دوستۇمنىڭ
دوغان
دوغاپ
دوغلات
دوكتور
دوكتورلۇق
دوكتورلۇقتا
دوكتورلۇقنى
دوكتورى
دوكتۇر
دوكتۇرلۇق
دوكتۇرلۇقتا
دوكتۇرى
دوكلات
دوكلاتتا
دوكلاتنى
دوكلاتى
دوكلاتىدا
دوكلاتىنى
دوكلاد
دوكىلات
دوكۇمېنتى
دول
دولان
دولانلارنىڭ
دولانلىقلار
دولانلىقلارنىڭ
دولانە
دولة
دولقۇن
دولقۇنسىمان
دولقۇنغا
دولقۇنلىرى
دولقۇنلىرىنى
دولقۇنلۇق
دولقۇنى
دولقۇنىنى
دولقۇنىنىڭ
دوللار
دوللاردىن
دوللارغا
دوللارلىق
دوللىرى
دوللىرىدىن
دوللىرىغا
دوللىرىلىق
دولەت
دون
دونالد
دوناي
دوپىيو
دوپپا
دوڭ
دوڭي
دى
دىتال
دىتاللار
دىتاللارنىڭ
دىتاللىرى
دىتالى
دىخۇا
دىدى
دىدىم
دىرامما
دىرىكتورى
دىرېكتور
دىرېكتورلار
دىرېكتورى
دىرەك
دىسسېرتاتسىيە
دىسسېرتاتسىيەسى
دىسكا
دىسە
دىسەك
دىسەم
دىققىتى
دىققىتىمنى
دىققىتىمىزنى
دىققىتىنى
دىققىتىگە
دىققەت
دىققەتكە
دىققەتنى
دىقماق
دىكابىر
دىكتاتور
دىكتور
دىكتورى
دىكى
دىكىبىخاھار
دىل
دىلبەر
دىلشات
دىلمۇرات
دىلمۇراتنىڭ
دىلناز
دىلى
دىلىدىن
دىلىغا
دىلىنى
دىموكراتىك
دىموكراتىيە
دىمۇ
دىمۇكراتىك
دىمەك
دىمەككى
دىمەكچى
دىن
دىنار
دىندا
دىندار
دىندىكى
دىندىن
دىندۇر
دىنسىز
دىنشۇناسلىق
دىنغا
دىنلار
دىنلاردا
دىنلاردىن
دىنلارغا
دىنلارنىڭ
دىنلىرى
دىنلەر
دىنمۇ
دىننى
دىننىي
دىننىڭ
دىنى
دىنىدا
دىنىدىكى
دىنىدىن
دىنىغا
دىنىمىز
دىنىمىزدا
دىنىمىزنى
دىنىمىزنىڭ
دىنىنى
دىنىنىڭ
دىنىي
دىي
دىيار
دىياردىكى
دىيارى
دىيارىدا
دىيارىدىكى
دىيارىدىن
دىيارىغا
دىيارىمىز
دىيارىمىزدا
دىيارىمىزدىكى
دىيارىمىزغا
دىيارىمىزنىڭ
دىيارىنى
دىيارىنىڭ
دىيالوگ
دىيالېكت
دىيالېكىت
دىيانەت
دىيانەتلىك
دىيلىدۇ
دىيىش
دىيىشكە
دىيىلسە
دىيىلىدۇ
دىيىلگەن
دىپلومات
دىپلوماتىك
دىپلوماتىيە
دىپلومىغا
دىڭ
دىگىنىمىز
دىگۈدەك
دىگەن
دىگەندە
دىگەندەك
دىگەنلىك
دىگەننى
دىگەنگە
دىھقان
دىۋان
دىۋاندا
دىۋانى
دىۋانىدا
دىۋانۇ
دىۋىزىيە
دۆ
دۆت
دۆربىلجىن
دۆلىتى
دۆلىتىدىكى
دۆلىتىدىن
دۆلىتىدۇر
دۆلىتىدە
دۆلىتىمىز
دۆلىتىمىزدىكى
دۆلىتىمىزدە
دۆلىتىمىزنىڭ
دۆلىتىمىزگە
دۆلىتىنى
دۆلىتىنىڭ
دۆلىتىگە
دۆلەت
دۆلەتباغ
دۆلەتتىكى
دۆلەتتىن
دۆلەتتۇر
دۆلەتتە
دۆلەتكە
دۆلەتلىرى
دۆلەتلىرىدىكى
دۆلەتلىرىدىن
دۆلەتلىرىدە
دۆلەتلىرىنى
دۆلەتلىرىنىڭ
دۆلەتلىرىگە
دۆلەتلىك
دۆلەتلەتدە
دۆلەتلەر
دۆلەتلەردىكى
دۆلەتلەردىمۇ
دۆلەتلەردىن
دۆلەتلەردە
دۆلەتلەرمۇ
دۆلەتلەرنى
دۆلەتلەرنىڭ
دۆلەتلەرگە
دۆلەتنصڭ
دۆلەتنى
دۆلەتنىڭ
دۆلەتچىلىك
دۆڭ
دۆڭلۈككە
دۆڭنىڭ
دۆڭي
دۆڭگەپ
دۆۋىسى
دۆۋە
دۇ
دۇب
دۇبۇلغا
دۇبەي
دۇتار
دۇتتار
دۇدنې
دۇر
دۇردۇن
دۇرۇس
دۇشمەن
دۇفۇ
دۇكان
دۇكانلىرى
دۇكىنى
دۇلات
دۇمباق
دۇنخۇاڭ
دۇنيا
دۇنيادا
دۇنيادىكى
دۇنيادىمۇ
دۇنيادىن
دۇنياسى
دۇنياسىدا
دۇنياسىدىكى
دۇنياسىدىن
دۇنياسىغا
دۇنياسىنى
دۇنياسىنىڭ
دۇنياغا
دۇنيالىق
دۇنيانى
دۇنيانىڭ
دۇنياۋى
دۇنياۋىي
دۇي
دۇچ
دۇچار
دۇۋا
دۈشمىنى
دۈشمىنىمىز
دۈشمەن
دۈشمەنلىرى
دۈشمەنلىرىنى
دۈشمەنلىرىنىڭ
دۈشمەنلىرىگە
دۈشمەنلىك
دۈشمەنلىكى
دۈشمەنلەر
دۈشمەنلەرنىڭ
دۈشمەننى
دۈشمەننىڭ
دۈشمەنگە
دۈشەنبە
دۈلەت
دۈم
دۈمبىسى
دۈمبىسىگە
دۈمبە
دۈمبەمەدەك
دۈملىمىسى
دۈملىمە
دۈملەپ
دۈچ
دۈگىلەك
دۋىگاتېل
دې
دېتال
دېتاللىرى
دېتالى
دېتالىغا
دېدى
دېدىكى
دېدىم
دېدۇق
دېرىزە
دېرىكتورى
دېرىكى
دېرەك
دېرەكسىز
دېزىل
دېسكا
دېسنىي
دېسىلا
دېسىمۇ
دېسىڭىز
دېسە
دېسەك
دېسەم
دېسەڭ
دېكابر
دېكابىر
دېكابىردا
دېكار
دېكارت
دېكلاماتسىيە
دېلفىن
دېلفىننىڭ
دېلفىنى
دېلو
دېلودىكى
دېلوسى
دېلوسىنى
دېلوغا
دېلولار
دېلولىرى
دېلولىرىنى
دېلونى
دېلونىڭ
دېموكراتلار
دېموكراتىك
دېموكراتىيىسى
دېموكراتىيىنى
دېموكراتىيە
دېمىسىمۇ
دېمىگەن
دېمۇكراتىك
دېمە
دېمەك
دېمەكتۇر
دېمەككى
دېمەكچى
دېمەي
دېمەيدۇ
دېنى
دېي
دېيىش
دېيىشتى
دېيىشكە
دېيىشنى
دېيىشى
دېيىشىدۇ
دېيىشىپ
دېيىشىچە
دېيىلدى
دېيىلدۇ
دېيىلسە
دېيىلىدىغان
دېيىلىدۇ
دېيىلىشى
دېيىلىشىچە
دېيىلىپ
دېيىلىۋاتقان
دېيىلگەن
دېيىلگەندەك
دېيىلەتتى
دېيەرلىك
دېپلوماتىك
دېپلوماتىيە
دېڭ
دېڭىز
دېڭىزدا
دېڭىزدىكى
دېڭىزدىن
دېڭىزغا
دېڭىزنى
دېڭىزنىڭ
دېڭىزى
دېڭىزىدا
دېڭىزىدىن
دېڭىزىغا
دېڭىزىنىڭ
دېگىدەك
دېگىلى
دېگىنى
دېگىنىدەك
دېگىنىم
دېگىنىمىز
دېگىنىنى
دېگۈدەك
دېگۈم
دېگۈچىلەر
دېگەن
دېگەندىمۇ
دېگەندىن
دېگەندە
دېگەندەك
دېگەنلىرى
دېگەنلىرىنى
دېگەنلىك
دېگەنلىكتۇر
دېگەنلىكى
دېگەنلىكىنى
دېگەنلەر
دېگەنلەردىن
دېگەنلەرمۇ
دېگەنلەرنى
دېگەننى
دېگەننىڭ
دېگەنىدى
دېگەنىكەن
دېگەنگە
دېھقان
دېھقانلار
دېھقانلارغا
دېھقانلارنى
دېھقانلارنىڭ
دېھقانلىرى
دېھقانلىرىنىڭ
دېھقاننىڭ
دېھقانچىلىق
دېھقانچىلىققا
دېھقانچىلىقنى
دېھقانچىلىقنىڭ
دېھلى
دېۋىزىيە
دە
دەخلى
دەخلىسىز
دەخلىسىزدۇر
دەدە
دەر
دەرت
دەرد
دەردى
دەردىمىزنى
دەردىنى
دەردىگە
دەررۇ
دەرس
دەرستىن
دەرستە
دەرسخانىسى
دەرسكە
دەرسلصكنص
دەرسلىرى
دەرسلىرىنى
دەرسلىك
دەرسلىكى
دەرسلىكىگە
دەرسلەر
دەرسلەرنى
دەرسلەرنىڭ
دەرسنى
دەرسنىڭ
دەرسى
دەرسىدە
دەرسىنى
دەرصجصلصك
دەرصجصلصكتصن
دەرصجلصك
دەرمان
دەرىجىدىكى
دەرىجىدىن
دەرىجىدە
دەرىجىسى
دەرىجىسىدىكى
دەرىجىسىدە
دەرىجىسىنى
دەرىجىسىگە
دەرىجىلىك
دەرىجىلىكتىن
دەرىجىلىكلەر
دەرىجىگە
دەرىجە
دەرىخى
دەرىخىدىن
دەرىخىنىڭ
دەرىس
دەرىسلىك
دەريا
دەريادا
دەريادىن
دەرياسى
دەرياسىدا
دەرياسىدىن
دەرياسىغا
دەرياسىغىچە
دەرياسىنى
دەرياسىنىڭ
دەرياغا
دەريالار
دەريالاردىن
دەريالارنىڭ
دەريالىرى
دەريانى
دەريانىڭ
دەرگاھىدا
دەرگاھىغا
دەرھال
دەرھاللا
دەرھەم
دەرۋازا
دەرۋازىسى
دەرۋازىسىدىن
دەرۋازىسىنى
دەرۋازىسىنىڭ
دەرۋازىنىڭ
دەرۋىش
دەرۋەقە
دەرەخ
دەرەختىن
دەرەخكە
دەرەخلىرىنىڭ
دەرەخلەر
دەرەخلەرنى
دەرەخلەرنىڭ
دەرەخنى
دەرەخنىڭ
دەس
دەستلەپ
دەستلەپتە
دەستلەپكى
دەستىدىن
دەستىسى
دەستۇرى
دەستە
دەستەك
دەسسەپ
دەسلىپىدە
دەسلىۋىدە
دەسلەپ
دەسلەپتە
دەسلەپكى
دەشت
دەقىقە
دەك
دەل
دەلىل
دەلىلقان
دەلىللەر
دەلىللەش
دەلىللەپ
دەلىلى
دەلىلىدۇر
دەلىلچىلىك
دەم
دەملىنىدۇ
دەملەپ
دەمىرجان
دەمەشىق
دەنىيـ
دەي
دەيتتى
دەيدىغان
دەيدىكەن
دەيدىكەنمىز
دەيدۇ
دەيدۇكى
دەيزۇ
دەيسەن
دەيلى
دەيمىز
دەيمەن
دەپ
دەپتىرى
دەپتىرىگە
دەپتۇ
دەپتەر
دەپسەندىچىلىكى
دەپسەندىچىلىكىگە
دەپسەندە
دەپلا
دەپمۇ
دەپنە
دەڭ
دەھشەت
دەھشەتلىك
دەۋا
دەۋاتقان
دەۋاتىدۇ
دەۋادا
دەۋادىن
دەۋاسى
دەۋاسىغا
دەۋاسىنى
دەۋاغا
دەۋالار
دەۋالاشقۇچى
دەۋالاشقۇچىلار
دەۋالاشقۇچىلارغا
دەۋالاشقۇچىلارنىڭ
دەۋام
دەۋانى
دەۋانىڭ
دەۋاگەر
دەۋر
دەۋران
دەۋردىكى
دەۋردىن
دەۋردە
دەۋرلىرىدە
دەۋرلەردىكى
دەۋرلەردىن
دەۋرلەردە
دەۋرلەرنىڭ
دەۋرلەرگە
دەۋرنى
دەۋرنىڭ
دەۋرى
دەۋرىدىكى
دەۋرىدىلا
دەۋرىدىمۇ
دەۋرىدىن
دەۋرىدۇر
دەۋرىدە
دەۋرىمىزدە
دەۋرىمىزگە
دەۋرىنى
دەۋرىنىڭ
دەۋرىي
دەۋرىيلىك
دەۋرىگىچە
دەۋرىگە
دەۋرگە
دەۋلەت
دەۋلەتى
دەۋىتى
دەۋىر
دەۋىردىكى
دەۋىردە
دەۋىرلىرىدە
دەۋىرلەردە
دەۋىرنى
دەۋىرنىڭ
دەۋىرىدە
دەۋىرگە
دەۋەت
ذ
ذلك
ذيل
ر
را
رابات
رابىيە
راجو
راجى
راخت
راخمان
رادار
رادلوف
رادىكال
رادىي
رادىيو
رادىيوسى
رادي
رازى
رازىلىق
رازىلىقى
رازىلىقىنى
رازىيە
رازۋېدكا
راس
راسا
راست
راستتىنلا
راستىنلا
راستچىل
راسچوت
راشىد
راشىددىن
راشىدىن
راك
راكقا
راكى
راكىتا
راكېتا
رام
رامازان
رامكا
رامكىسى
رامىزان
رانچو
رانچونىڭ
راي
رايتلار
رايون
رايوندا
رايوندىكى
رايوندىن
رايوندۇر
رايونغا
رايونلار
رايونلاردا
رايونلاردىكى
رايونلاردىن
رايونلارغا
رايونلارنى
رايونلارنىڭ
رايونلىرى
رايونلىرىدا
رايونلىرىدىكى
رايونلىرىغا
رايونلىرىنى
رايونلىرىنىڭ
رايونلۇق
رايونمۇرى
رايوننى
رايوننىڭ
رايونى
رايونىدا
رايونىدىكى
رايونىدىن
رايونىغا
رايونىمىز
رايونىمىزدا
رايونىمىزدىكى
رايونىمىزنىڭ
رايونىنى
رايونىنىڭ
رايونىنڭ
رايى
رايىنى
رايۇن
رايۇندىكى
رايۇنلار
رايۇنلاردا
رايۇنلارغا
رايۇنلارنىڭ
رايۇنلىرى
رايۇنلىرىدا
رايۇنلۇق
رايۇننومۇرى
رايۇننىڭ
رايۇنى
رايۇنىدا
رايۇنىدىكى
رايۇنىغا
رايۇنىمىزدىكى
رايۇنىنى
رايۇنىنىڭ
راڧ
راھىب
راھىلە
راھىپ
راھەت
راۋا
راۋاب
راۋابى
راۋابىنى
راۋاج
راۋاجلاندى
راۋاجلاندۇرغان
راۋاجلاندۇرىدۇ
راۋاجلاندۇرۇش
راۋاجلاندۇرۇشقا
راۋاجلاندۇرۇپ
راۋاجلانغان
راۋاجلىنىش
راۋاجلىنىشى
راۋاجلىنىشىغا
راۋاجلىنىشىنى
راۋاجلىنىپ
راۋان
راۋانلاشتۇرۇش
راۋاپ
راۋىقى
راۋىيلارنىڭ
رد
ردە
رك
ركىي
رل
رلار
رنى
رنىڭ
رو
روبوت
روبوتلار
روبىن
روبېرت
روزا
روزى
روزىباقىيېف
روزىسى
روزىسىنى
روزىنى
روزىنىڭ
روس
روسسىيە
روسلار
روسىيىلىك
روسىيە
روسىيەدە
روسىيەنىڭ
روسىيەگە
روسچە
روسۇل
روشەن
روشەنكى
روك
رول
رولغا
روللارنى
رولنى
رولى
رولىدىن
رولىغا
رولىمۇ
رولىنى
رولىنىڭ
رولچى
روما
روماغا
رومال
رومان
رومانتىك
روماندا
روماندىكى
رومانلارنى
رومانلىرى
روماننى
روماننىڭ
رومانى
رومانىدا
رومانىنى
رومانىنىڭ
رومىنىيە
روناق
رونىك
رويال
روياپقا
رويخەتكە
روگېر
روھ
روھانىي
روھقا
روھلار
روھلۇق
روھنى
روھنىڭ
روھى
روھىدا
روھىدىن
روھىغا
روھىم
روھىمىزنى
روھىنى
روھىنىڭ
روھىي
روھىيەت
رى
رىتىم
رىتىملىق
رىتىمى
رىزا
رىزاسى
رىزىق
رىزۋان
رىسالى
رىسالىسى
رىسالە
رىسچرەتوۋ
رىشات
رىشتە
رىغبەتلەندۈرۈش
رىقابىتى
رىقابىتىگە
رىقابەت
رىقابەتتە
رىقابەتلىشىپ
رىقابەتنىڭ
رىقابەتچىلىكى
رىم
رىمان
رىمدا
رىمغا
رىملىقلار
رىملىقلارنىڭ
رىمنىڭ
رىنتىگىن
رىي
رىياد
رىيازەت
رىياسەتچى
رىياسەتچىسى
رىياسەتچىلىك
رىيال
رىياللىق
رىياللىقتىكى
رىياللىقتىن
رىياللىققا
رىياللىقنى
رىياللىقنىڭ
رىچارت
رىچارد
رىۋايىتى
رىۋايەت
رىۋايەتتە
رىۋايەتكە
رىۋايەتلىرى
رىۋايەتلىرىنى
رىۋايەتلەر
رىۋايەتلەرنى
رىۋايەتلەرگە
رىۋايەتنى
رىۋايەتنىڭ
رگـ
رۇ
رۇباي
رۇخسىتى
رۇخسىتىسىز
رۇخسىتىنى
رۇخسەت
رۇخسەتى
رۇزى
رۇس
رۇسلار
رۇسلارغا
رۇسلارنىڭ
رۇسىيىدە
رۇسىيىسى
رۇسىيىنىڭ
رۇسىيىگە
رۇسىيە
رۇسىيەنىڭ
رۇسىيەگە
رۇسيە
رۇسچىدا
رۇسچىغا
رۇسچە
رۇسۇت
رۇشەن
رۇفۇس
رۇقىيە
رۇقي
رۇم
رۇمــى
رۇمى
رۇمىنىــڭ
رۇمىنىيە
رۇمىنىڭ
رۇنىك
رۇۋۋاد
رېتسېپ
رېتى
رېجىم
رېكلام
رېكورتى
رېكورتىنى
رېمونت
رېمىت
رېمۇنت
رېن
رېناي
رېي
رېيىن
رېپىر
رېژىسسور
رېژىسسورلۇق
رېژىسسورى
رېژىسورلۇق
رېۋىزىيە
رە
رەببىم
رەبىي
رەت
رەتكە
رەتلىك
رەتلىنىپ
رەتلىگەن
رەتلەش
رەتلەپ
رەجەب
رەجەپ
رەخت
رەخمەت
رەد
رەددىيە
رەزىل
رەزىللىك
رەزىيەللاھۇ
رەزىيەللاھۇي
رەسسام
رەسساملار
رەسساملىق
رەسسامنىڭ
رەسمى
رەسمىي
رەسمىيىتى
رەسمىيىتىنى
رەسمىيەت
رەسمىيەتسىز
رەسمىيەتلىرىنى
رەسمىيەتلەرنى
رەسىم
رەسىمدىكى
رەسىمدە
رەسىملىرى
رەسىملىرىنى
رەسىملىك
رەسىملەر
رەسىملەرنى
رەسىمنى
رەسىمى
رەسىمىنى
رەسىمگە
رەسۇل
رەسۇلۇللا
رەسۇلۇللاھ
رەسۇلۇللاھتىن
رەسۇلۇللاھقا
رەسۇلۇللاھنى
رەسۇلۇللاھنىڭ
رەشك
رەشىد
رەشىدى
رەشىدىي
رەشىدە
رەفەھ
رەقىب
رەقىبلىرى
رەقىبى
رەقىمى
رەقەم
رەقەملىك
رەكي
رەنا
رەي
رەيھان
رەپىقىسى
رەڭ
رەڭدار
رەڭدىكى
رەڭدە
رەڭسىز
رەڭلىك
رەڭلىكى
رەڭلەر
رەڭلەردە
رەڭمۇ
رەڭنى
رەڭگارەڭ
رەڭگى
رەڭگىنى
رەڭگە
رەھبىرى
رەھبىرىي
رەھبەر
رەھبەرلىرى
رەھبەرلىرىدىن
رەھبەرلىرىنى
رەھبەرلىرىنىڭ
رەھبەرلىك
رەھبەرلىكى
رەھبەرلىكىدىكى
رەھبەرلىكىدە
رەھبەرلىكىنى
رەھبەرلەر
رەھبەرلەرنىڭ
رەھمىتى
رەھمەت
رەھمەتلىك
رەھمەتۇللا
رەھمەتۇللاھ
رەھىم
رەھىمسىز
رەھىمەھۇللاھ
رەھىمەھۇللاھنىڭ
رەۋاجنىڭ
رەۋىش
رەۋىشتە
رەۋىشداش
رەۋەن
ز
زا
زات
زاتتۇر
زاتقا
زاتلار
زاتلاردىن
زاتلارنىڭ
زاتنىڭ
زادى
زادىلا
زار
زاراڭزا
زارى
زاغرا
زاكات
زاكاز
زاكاس
زاكىر
زال
زالنىڭ
زالى
زالىدا
زالىم
زالىملار
زالىملارغا
زالىملارنىڭ
زامان
زاماندا
زامانداش
زاماندىكى
زاماندىن
زامانغا
زامانغىچە
زامانلار
زامانلاردا
زامانلاردىكى
زامانلاردىن
زامانلارنىڭ
زاماننىڭ
زامانى
زامانىدا
زامانىدىكى
زامانىدىن
زامانىسىدا
زامانىسىدىكى
زامانىسىنىڭ
زامانىمىزدا
زامانىمىزدىكى
زامانىمىزغىچە
زامانىۋى
زامانىۋىلاشتۇرۇش
زامانىۋىلىشىش
زامانىۋىلىق
زامانىۋىي
زامانەۋىي
زامبىيە
زامىن
زايوم
زايومنى
زايومنىڭ
زايومى
زايومىنى
زايومىنىڭ
زاپاس
زاپىسى
زاپىسىنىڭ
زاپچاسلىرى
زاپچاسلىرىنى
زاڭ
زاڭزۇ
زاھا
زاھىد
زاھىر
زاھىرى
زاۋا
زاۋال
زاۋاللىققا
زاۋۇت
زاۋۇتتا
زاۋۇتى
زاۋۇتىدا
زاۋۇتىغا
زاۋۇتىنىڭ
زاۋۇدى
زو
زور
زورايتىش
زورايدى
زوراۋان
زوراۋانلىق
زوراۋانلىققا
زوراۋانلىقنى
زوردۇن
زورلاپ
زورلۇق
زورىيىپ
زوق
زوقلىنىش
زوقلىنىپ
زوي
زوڭلاڭ
زوۋۇلا
زى
زىبۇ
زىت
زىخ
زىخقا
زىددىيەت
زىددىيەتكە
زىددىيەتلىك
زىددىيەتلەر
زىددىيەتنى
زىددىيەتنىڭ
زىدە
زىدەن
زىر
زىراي
زىرە
زىغىر
زىققا
زىكرى
زىكىر
زىل
زىلزىلىگە
زىلزىلە
زىللاندىيە
زىلىگە
زىلۋا
زىممىسىگە
زىمىستان
زىمىن
زىمىندا
زىمىنغا
زىمىننى
زىمىنى
زىمىنىدا
زىمىنىدىن
زىمىنىغا
زىمىنىنى
زىندان
زىنداندا
زىندانغا
زىننىتى
زىننەت
زىننەتلەش
زىننەتلەنگەن
زىي
زىيا
زىياد
زىيادە
زىيارىتى
زىيارىتىنى
زىيارەت
زىيارەتتە
زىيارەتكە
زىيارەتچى
زىيالى
زىيالىلار
زىيالىلارنىڭ
زىيالىلىرى
زىيالىلىرىنىڭ
زىيالىلىق
زىيالىنىڭ
زىيالىي
زىيالىيسى
زىيالىيلار
زىيالىيلاردىن
زىيالىيلارنى
زىيالىيلارنىڭ
زىيالىيلىرى
زىيالىيلىرىنىڭ
زىيالىيلىق
زىيالىينىڭ
زىيان
زىيانداش
زىيانسىز
زىيانغا
زىيانكەشلىك
زىيانكەشلىككە
زىيانلارنى
زىيانلىق
زىياننى
زىياننىڭ
زىياي
زىياپىتى
زىياپەت
زىياپەتكە
زىياۋۇدۇن
زىيىنى
زىيىنىنى
زىچ
زىچلىق
زىچلىقى
زىچلىقىنى
زىۋىدىخان
زۆرۈر
زۆرۈردۇر
زۆرۈركى
زۆرۈرلىكىنى
زۆرۈرلۈكىنى
زۆرۈرىيىتى
زۆرۈرىيەت
زۆھرە
زۇبەير
زۇكام
زۇلقەرنەين
زۇلقەرنەيىن
زۇلقەي
زۇلمى
زۇلمەت
زۇلمەتلىك
زۇلپىقار
زۇلھايات
زۇلھەججە
زۇلۇم
زۇلۇمدىن
زۇلۇمغا
زۇلۇملارنى
زۇلۇمنى
زۇلۇمنىڭ
زۇلۇمى
زۇلۇمىدىن
زۇلۇمىغا
زۇمرەت
زۇنۇن
زۇڭتۇڭ
زۇڭتۇڭلۇق
زۇڭتۇڭى
زۇڭلى
زۇڭلىسى
زۇۋۇلا
زېبىبۇللا
زېدۇڭ
زېرىكمەي
زېرىكىشلىك
زېرەك
زېمىن
زېمىندا
زېمىندىكى
زېمىندىن
زېمىنغا
زېمىنلار
زېمىنلاردا
زېمىنلارنى
زېمىنلىرىنى
زېمىننى
زېمىننىڭ
زېمىنى
زېمىنىدا
زېمىنىدىكى
زېمىنىدىن
زېمىنىغا
زېمىنىنى
زېمىنىنىڭ
زېنىت
زېڭشىن
زېڭشىننىڭ
زېڭى
زېھنى
زېھنىنى
زېھنىي
زېھىن
زە
زەخمەت
زەخىملىنىش
زەدىكى
زەر
زەربىدار
زەربىسىگە
زەربىگە
زەربە
زەردۇشت
زەررىچىلەر
زەررىچە
زەرچىۋە
زەرەت
زەرەتلەش
زەرەپشان
زەكى
زەكەرىيا
زەلىلى
زەمبىرىكى
زەمبىرەك
زەمبۇرۇغ
زەمىن
زەمي
زەمچە
زەن
زەنجىر
زەنجىرسىمان
زەنجىرى
زەنجىرىنىڭ
زەنجىۋىل
زەي
زەيتۇن
زەيد
زەيدىن
زەينىدىن
زەينەب
زەينەپ
زەيىد
زەپەر
زەپەرنامە
زەڭگى
زەھىرى
زەھەبىي
زەھەر
زەھەرلىك
زەھەرلىنىپ
زەھەرلەپ
زەھەرنى
زەۋەرلىك
س
سا
ساباھ
ساباھاتتىن
سابىت
سابىر
سابىرنىڭ
سابىرى
سابىق
سابىي
ساتار
ساتارنى
ساتارنىڭ
ساتتار
ساتسا
ساتقان
ساتقانلار
ساتقانلاردىن
ساتقانلارغا
ساتقۇچى
ساتقۇچىلار
ساتقۇچىلاردىن
ساتقۇچىنىڭ
ساتو
ساتىدىغان
ساتىدۇ
ساتىرىك
ساتۇرن
ساتۇق
ساجىيە
ساخاۋەت
ساخاۋەتلىك
ساختا
ساختىلىق
ساختىپەزلىك
سادا
ساداسى
ساداسىنى
ساداقەت
ساداقەتلىك
ساداقەتمەن
ساداقەتمەنلىك
سادالىرى
سادام
ساددا
سادىر
سادىق
سار
ساراي
سارايدا
سارايغا
سارايلار
ساراڭ
ساراڭلىق
سارت
سارتېرى
سارغايتىپ
سارغايغاندا
سارغىيىپ
سارغۇچ
ساركوزى
ساركوزىنىڭ
سارمادان
سارى
سارىيى
سارىيىدا
سارىيىغا
سارىيىنىڭ
ساز
سازايى
سازاڭ
سازاڭسىمان
سازاۋەر
سازاۋەردۇر
سازلىق
سازنى
سازەندىلەر
سازەندە
ساسانىلار
ساسلىق
ساغان
ساغلام
ساغلاملاشتۇرۇش
ساغلاملىق
ساغلاملىقى
ساغلاملىقىغا
ساغلاملىقىنى
ساغۇنى
ساق
ساقا
ساقال
ساقاللىرى
ساقاللىق
ساقايتقان
ساقلاتقۇچى
ساقلاش
ساقلاشتا
ساقلاشقا
ساقلاشنى
ساقلاشنىڭ
ساقلانغان
ساقلانغىلى
ساقلانماقتا
ساقلانمىنى
ساقلانمىنىڭ
ساقلايدىغان
ساقلايدۇ
ساقلاپ
ساقلاۋاتقان
ساقلىدى
ساقلىسۇن
ساقلىشى
ساقلىغان
ساقلىغىلى
ساقلىغۇچ
ساقلىغۇچنى
ساقلىغۇچى
ساقلىق
ساقلىقنى
ساقلىنىدۇ
ساقلىنىش
ساقلىنىشى
ساقلىنىپ
ساقلىنىۋاتقان
ساقلىنىۋاتىدۇ
ساقى
ساقىت
ساقىلىنى
ساقىيىپ
ساقچى
ساقچىسى
ساقچىغا
ساقچىلار
ساقچىلارنىڭ
ساقچىلىرى
ساقچىلىرىنىڭ
ساك
سال
سالار
سالام
سالامغا
سالاملىشىش
سالامنىڭ
سالامەت
سالامەتلىك
سالامەتلىككە
سالامەتلىكنى
سالامەتلىكى
سالامەتلىكىنى
سالامەتلىكىنىڭ
سالامەتلىكىگە
سالاھىيتى
سالاھىيتىنى
سالاھىيىتى
سالاھىيىتىدە
سالاھىيىتىنى
سالاھىيىتىگە
سالاھىيەت
سالاھىيەتكە
سالاھىيەتلىك
سالاھيىتى
سالجا
سالجىنىڭ
سالجۇق
سالدى
سالدۇرغان
سالسا
سالساق
سالغا
سالغان
سالغاندا
سالغانلار
سالغىلى
سالغۇچى
سالغۇچىلار
سالغۇچىنىڭ
سالقىن
سالماق
سالماقتا
سالماقلىق
سالماقنى
سالمان
سالمانخان
سالماي
سالمىقى
سالمىقىنى
سالى
سالىدىغان
سالىدۇ
سالىپ
سالىھ
سالۇر
سالۇن
سام
ساما
سامان
سامانى
سامانىيلار
ساماۋار
ساماۋىي
ساماۋەر
سامبۇسا
سامسا
سامساق
سامساقنى
سامسىسى
سامسۇڭ
سامسۇڭنىڭ
ساموي
سامى
سامىي
سامپۇل
سامۇراي
سان
سانا
ساناش
ساناق
ساناقسىز
ساناقلىق
سانالغان
ساناي
سانايدۇ
ساناپ
سانت
سانتىمىتىر
سانتىمېتىر
سانتىمېتىردىن
سانتىمېتىرغا
سانتىمېتىرلىق
سانتىياگو
سانتېمىتىر
سانجى
سانجىپ
سانجۇ
ساندا
ساندان
ساندىكى
ساندۇق
ساندۇققا
ساندۇقى
سانسىز
سانسىزلىغان
سانغا
سانغۇن
سانغۇنى
سانلار
سانلارنى
سانلىرى
سانلىق
سانلىقلار
سانلىقلارنىڭ
سانلىقنى
ساننى
ساننىڭ
سانى
سانىخان
سانىدا
سانىدىن
سانىغا
سانىغان
سانىلىدىغان
سانىلىدۇ
سانىمۇ
سانىنى
سانىنىڭ
ساي
ساياھىتى
ساياھەت
ساياھەتكە
ساياھەتچى
ساياھەتچىلىك
ساياھەتچىلىكى
ساياھەتچىلەر
ساياھەتچىلەرنى
ساياھەتچىلەرنىڭ
سايباغ
سايرام
سايرامى
سايرانى
سايراپ
سايلاش
سايلام
سايلامدا
سايلامغا
سايلاندى
سايلانغان
سايلايدۇ
سايلاپ
سايلىغان
سايلىمى
سايلىمىدا
سايلىمىغا
سايلىنىدۇ
سايلىنىش
سايلىنىپ
سايمان
سايمانلار
سايمانلارنى
سايمانلىرى
سايمانلىرىنى
سايمىنى
ساينت
ساينىت
سايىت
سايىد
سايىسى
سايىسىدا
سايىسىدە
سايىم
سايي
سايە
ساپ
ساپا
ساپاسى
ساپاسىز
ساپاسىنى
ساپاسىنىڭ
ساپال
ساپالىق
ساپايى
ساپتۇ
ساپلىق
ساپىقى
ساڭا
ساڭزا
ساڭگىلاپ
ساھابىلارنىڭ
ساھابىلەر
ساھابىلەردىن
ساھابىلەرنىڭ
ساھابىنىڭ
ساھابە
ساھاسىدە
ساھىب
ساھىبجامال
ساھىبجامالنىڭ
ساھىبخان
ساھىبى
ساھىل
ساھىلى
ساھىپ
ساھىپجامال
ساھىپخان
ساھە
ساھەدىكى
ساھەدە
ساھەسى
ساھەسىدىكى
ساھەسىدىكىلەر
ساھەسىدىمۇ
ساھەسىدىن
ساھەسىدە
ساھەسىنى
ساھەسىنىڭ
ساھەسىگە
ساھەلىرى
ساھەلىرىدە
ساھەلىرىنى
ساھەلىرىگە
ساھەلەر
ساھەلەردىكى
ساھەلەردىمۇ
ساھەلەردە
ساھەلەرنى
ساھەلەرنىڭ
ساھەلەرگە
ساھەنى
ساھەنىڭ
ساھەگە
ساۋ
ساۋاب
ساۋابلىق
ساۋات
ساۋاتسىز
ساۋاتلىق
ساۋاتىنى
ساۋادى
ساۋادىنى
ساۋاق
ساۋاقداش
ساۋاقداشلىرى
ساۋاقداشلىرىمنىڭ
ساۋاقداشلىرىنىڭ
ساۋاقدىشى
ساۋاقلار
ساۋاقلارنى
ساۋاپ
ساۋۇت
ساۋەن
ست
ستاتىستىكا
ستاتىستىكىلىق
ستالىن
ستالىننىڭ
ستانبۇل
ستانفورد
ستراي
ستۇدىيسى
ستۇدىيىسى
ستەيىن
سرىلانكا
سس
سسىق
سعود
سـ
سلام
سلامي
سلامية
سلسلة
سلوۋاك
سلوۋاكىيە
سلوۋېنىيە
سلوۋەن
سم
سنن
سوت
سوتتا
سوتسىي
سوتسىيال
سوتسىيالىزم
سوتسىيالىزىم
سوتسىيالىست
سوتسىيالىستلار
سوتسىيالىستىك
سوتقا
سوتكا
سوتنىڭ
سوتى
سوتچى
سوتچىلار
سودا
سودىدا
سودىسى
سودىسىدا
سودىسىغا
سودىسىنى
سودىسىنىڭ
سودىغا
سودىلىشىش
سودىنى
سودىنىڭ
سودىيىلەر
سودىيىلەرنى
سودىيىلەرنىڭ
سودىيە
سودىگىرى
سودىگەر
سودىگەرلىرى
سودىگەرلەر
سودىگەرلەرنىڭ
سودىگەرنى
سودىگەرنىڭ
سوراش
سوراشقا
سوراق
سوراققا
سورالغان
سورالغاندا
سورايتتى
سورايدىغان
سورايدىكەن
سورايدۇ
سورايمىز
سورايمەن
سوراپ
سوراپتۇ
سوراۋاتىدۇ
سوربون
سورة
سورت
سورتلىرى
سورتلىرىنى
سورتى
سورتىنى
سورىدى
سورىدىم
سورىدۇم
سورىسا
سورىسام
سورىشى
سورىغان
سورىغاندا
سورىماي
سورۇدۇم
سورۇسام
سورۇن
سورۇندا
سورۇندىكى
سورۇندىن
سورۇنغا
سورۇنلاردا
سورۇنلارغا
سورۇنلىرى
سورۇنلىرىدا
سورۇنلىرىغا
سورۇننى
سورۇننىڭ
سورۇنى
سورۇنىدا
سورۇنىغا
سوزۇق
سوزۇلغان
سوزۇلما
سوزۇلىدۇ
سوزۇلۇپ
سوزۇپ
سوغا
سوغاق
سوغدى
سوغدىلار
سوغوق
سوغىگۈل
سوغۇق
سوغۇقتىن
سوغۇققا
سوغۇقلۇق
سوفت
سوقا
سوقتى
سوقرات
سوققان
سوقما
سوقماق
سوقىسى
سوقىچاق
سوقۇش
سوقۇشتۇرۇش
سوقۇلغان
سوقۇلۇپ
سوقۇپ
سول
سولانغان
سولاپ
سولدىن
سولغا
سولچىل
سولۇن
سوم
سومالى
سومما
سوممىسى
سوممىسىنى
سوممىسىنىڭ
سوممىلىق
سوي
سويۇپ
سوپاخۇن
سوپى
سوپىزم
سوپىلار
سوپۇن
سوڭ
سوڭرە
سوڭغى
سوڭىغا
سوۋغا
سوۋغات
سوۋغىسى
سوۋىت
سوۋۇتۇلغان
سوۋۇتۇپ
سوۋۇغاندىن
سوۋېت
سوۋېتلەر
سى
سىبىر
سىبىرىيە
سىتاتىستىكا
سىتاتىسكىگا
سىتالىن
سىتالىننىڭ
سىتتە
سىتىۋېن
سىتۇدېنتلار
سىجاڭ
سىجىل
سىدام
سىددىق
سىدنېي
سىدىق
سىدۇر
سىر
سىراجىدىن
سىرت
سىرتتا
سىرتتىن
سىرتقا
سىرتقى
سىرتى
سىرتىدا
سىرتىدىكى
سىرتىدىن
سىرتىغا
سىردىشىش
سىركە
سىرلار
سىرلىرىنى
سىرلىق
سىرنى
سىرى
سىرىت
سىرىتقا
سىرىتقى
سىرىسلار
سىرىسلىقلار
سىرىسلەر
سىرىق
سىرىل
سىرىلمە
سىرىنى
سىز
سىزدىكى
سىزدىن
سىزدە
سىزغان
سىزما
سىزمۇ
سىزنى
سىزنىڭ
سىزىش
سىزىق
سىزىقلار
سىزىقلىرى
سىزىقلىق
سىزىقنى
سىزىقنىڭ
سىزىقى
سىزىقىدىن
سىزىقىنى
سىزىقىنىڭ
سىزىقچە
سىزىلغان
سىزىلىدۇ
سىزىپ
سىزگە
سىستىما
سىستىمىسى
سىستىمىسىنى
سىستىمىسىنىڭ
سىستىمىنىڭ
سىستېما
سىستېمىسى
سىستېمىسىدا
سىستېمىسىدىكى
سىستېمىسىدىن
سىستېمىسىغا
سىستېمىسىنى
سىستېمىسىنىڭ
سىستېمىغا
سىستېمىلىرى
سىستېمىلىرىنى
سىستېمىلىق
سىستېمىنى
سىستېمىنىڭ
سىسىتما
سىسىتمىسى
سىسىتىمىسى
سىغمايدىغان
سىغىدۇ
سىغىمى
سىغىمچانلىقى
سىقماق
سىقىپ
سىكتاي
سىل
سىلاش
سىلام
سىلاپ
سىلاۋىيان
سىلاۋيان
سىلسىيەگىرادۇس
سىلكىپ
سىلى
سىلىق
سىلىكون
سىلىندىر
سىلىنغان
سىلىپ
سىلىگە
سىلەر
سىلەردىن
سىلەردە
سىلەرمۇ
سىلەرنى
سىلەرنىڭ
سىلەرگە
سىم
سىماب
سىماسى
سىمسىز
سىملىق
سىممىتىرىك
سىممېترىك
سىمون
سىمى
سىمىت
سىميا
سىمۋول
سىمۋوللۇق
سىمۋولى
سىن
سىنا
سىنارىيىسىنى
سىناش
سىناق
سىناقتىن
سىناقنى
سىنان
سىنانىڭ
سىناي
سىنايدىغان
سىناپ
سىنتاكسىسلىق
سىنتەبىر
سىنتەبىردە
سىند
سىنك
سىنى
سىنىقى
سىنىك
سىنىپ
سىنىپتا
سىنىپتىكى
سىنىپتىن
سىنىپقا
سىنىپلار
سىنىپلىرى
سىنىپلىق
سىنىپنى
سىنىپنىڭ
سىنىپى
سىنىپىدا
سىنىپىدىن
سىنىپىغا
سىنىپىنى
سىنىپىنىڭ
سىنىپىي
سىنىڭ
سىني
سىنگاپور
سىنۇس
سىي
سىيا
سىيادان
سىياسى
سىياسىتى
سىياسىتىدىن
سىياسىتىدە
سىياسىتىنى
سىياسىتىنىڭ
سىياسىتىگە
سىياسىي
سىياسىيغا
سىياسىيون
سىياسىيونلار
سىياسەت
سىياسەتتە
سىياسەتكە
سىياسەتلىرى
سىياسەتلىرىنى
سىياسەتلىرىنىڭ
سىياسەتلەر
سىياسەتلەرنى
سىياسەتلەرنىڭ
سىياسەتنى
سىياسەتنىڭ
سىياسەتچى
سىياسەتچىلەر
سىياھ
سىيرىلاڭغۇ
سىيرىلما
سىيىت
سىيىش
سىيىپ
سىيەر
سىيەك
سىپايە
سىپتا
سىپرۇس
سىپرۇسنىڭ
سىپىرلىق
سىچۇەن
سىچۈەن
سىڭدۈرمە
سىڭدۈرگەن
سىڭدۈرۈش
سىڭدۈرۈلگەن
سىڭدۈرۈپ
سىڭلىسى
سىڭلىم
سىڭلىمىز
سىڭىرتاش
سىڭىشىپ
سىڭىل
سىڭىپ
سىڭگەن
سىگنال
سىگنالى
سىگىنال
سىگىنالى
سىھاھ
سير
سۆرەپ
سۆز
سۆزدىن
سۆزدۇر
سۆزدە
سۆزلىدى
سۆزلىرى
سۆزلىرىدىن
سۆزلىرىنى
سۆزلىرىنىڭ
سۆزلىرىگە
سۆزلىسەم
سۆزلىشىدىغان
سۆزلىشىدۇ
سۆزلىشىش
سۆزلىشىلىدۇ
سۆزلىشىپ
سۆزلىنىدىغان
سۆزلىنىدۇ
سۆزلىگۈچى
سۆزلىگەن
سۆزلىگەندە
سۆزلۈك
سۆزلۈكلەر
سۆزلۈكلەرنى
سۆزلۈكنى
سۆزلۈكى
سۆزلە
سۆزلەر
سۆزلەردىكى
سۆزلەردىن
سۆزلەردە
سۆزلەرنى
سۆزلەرنىڭ
سۆزلەرگە
سۆزلەش
سۆزلەشتىن
سۆزلەشكە
سۆزلەشكەن
سۆزلەشنى
سۆزلەنگەن
سۆزلەيتتى
سۆزلەيدىغان
سۆزلەيدۇ
سۆزلەپ
سۆزمۇ
سۆزنى
سۆزنىڭ
سۆزى
سۆزىدىن
سۆزىدە
سۆزىمىزنىڭ
سۆزىمۇ
سۆزىنى
سۆزىنىڭ
سۆزىگە
سۆزگە
سۆسۈن
سۆك
سۆيىدىغان
سۆيىمەن
سۆيگۈ
سۆيگۈسى
سۆيگۈم
سۆيگۈن
سۆيگەن
سۆيۈش
سۆيۈملۈك
سۆيۈندۈم
سۆيۈنگەن
سۆيۈنۈپ
سۆيۈپ
سۆيەر
سۆڭىكى
سۆڭەك
سۆڭەكلىك
سۆڭەكنى
سۆگەت
سۆھبىتى
سۆھبەت
سۆھبەتتە
سۆھبەتكە
سۆھبەتلەردە
سۆھبەتنى
سۆھبەتنىڭ
سۇ
سۇبتروپىك
سۇبكىي
سۇبيېكتىپ
سۇتۇق
سۇجى
سۇجۇ
سۇدا
سۇدان
سۇدىن
سۇدەك
سۇر
سۇرىسى
سۇرىنىڭ
سۇرىيە
سۇرىيەنىڭ
سۇري
سۇرە
سۇرەدە
سۇرەسى
سۇرەلەر
سۇزۇق
سۇزۇلغان
سۇس
سۇسلاشتۇرۇپ
سۇسلىشىپ
سۇسلۇق
سۇغا
سۇغىرىش
سۇغىگۈل
سۇغۇر
سۇغۇرتا
سۇغۇرتىسى
سۇغۇرۇش
سۇفيان
سۇلار
سۇلارنى
سۇلالسى
سۇلالىسى
سۇلالىسىدىن
سۇلالىسىغا
سۇلالىسىمۇ
سۇلالىسىنى
سۇلالىسىنىڭ
سۇلالىسىگە
سۇلالىلىرى
سۇلالىلەر
سۇلالىنىڭ
سۇلالە
سۇلايمان
سۇلايماننىڭ
سۇلتان
سۇلتانلىرى
سۇلتانلىق
سۇلتانلىقى
سۇلتانلىقىنىڭ
سۇلتاننىڭ
سۇلتانى
سۇلى
سۇلىرى
سۇلياۋ
سۇلھ
سۇلۇس
سۇلۇق
سۇلەيم
سۇلەيمنىڭ
سۇمبۇل
سۇمۇرغ
سۇمېر
سۇمېرلار
سۇمېرلارنىڭ
سۇن
سۇناي
سۇنبۇلە
سۇندى
سۇندۇرۇش
سۇندۇرۇپ
سۇنسا
سۇنغان
سۇننىي
سۇننە
سۇنى
سۇنىدۇ
سۇنىڭ
سۇني
سۇنۇش
سۇنۇشى
سۇنۇق
سۇنۇلغان
سۇنۇپ
سۇنەن
سۇنەنى
سۇي
سۇيى
سۇيىي
سۇيۇتىي
سۇيۇرغال
سۇيۇرغاللىق
سۇيۇق
سۇيۇقلۇق
سۇيۇقلۇقى
سۇيۇقي
سۇپا
سۇپى
سۇپىتى
سۇپىتىدە
سۇپىسى
سۇپىسىدىن
سۇپىنىڭ
سۇپۇپ
سۇچىلىق
سۇڭ
سۇڭپىياز
سۇڭپىيازنى
سۇۋەيش
سۇۋەيىش
سۈبھى
سۈت
سۈتتىن
سۈتلۈك
سۈتنى
سۈتى
سۈر
سۈرتۈپ
سۈردى
سۈركىلىش
سۈركەپ
سۈرلۈك
سۈرمە
سۈرمەكتە
سۈرىتى
سۈرىتىنى
سۈرىدىغان
سۈرىدۇ
سۈرىسى
سۈرىسىنىڭ
سۈرىنىڭ
سۈرىيە
سۈرىيەدە
سۈرىيەنىڭ
سۈري
سۈرگۈن
سۈرگۈندى
سۈرگۈندە
سۈرگە
سۈرگەن
سۈرۈش
سۈرۈشتۈرۈش
سۈرۈشتۈرۈشكە
سۈرۈشتۈرۈلىدۇ
سۈرۈشتۈرۈپ
سۈرۈشتە
سۈرۈشكە
سۈرۈشنى
سۈرۈشى
سۈرۈك
سۈرۈكى
سۈرۈكىنى
سۈرۈلگەن
سۈرۈلۈپ
سۈرۈپ
سۈرە
سۈرەت
سۈرەتتە
سۈرەتكە
سۈرەتلىرى
سۈرەتلىك
سۈرەتلەر
سۈرەتلەپ
سۈرەتنى
سۈرەن
سۈزگۈچ
سۈزۈش
سۈزۈك
سۈزۈپ
سۈكۈت
سۈكۈتتە
سۈلھى
سۈلۈك
سۈلەيسۈن
سۈمۈرگۈچ
سۈمۈرۈش
سۈمۈرۈپ
سۈن
سۈننى
سۈننىتى
سۈننىي
سۈننەت
سۈننەتكە
سۈني
سۈنەن
سۈنەنۇ
سۈي
سۈيدۈك
سۈيدۈكتىكى
سۈيلەپ
سۈينامە
سۈيى
سۈيىدىن
سۈيىدە
سۈيىنى
سۈيىنىڭ
سۈيىگە
سۈيي
سۈپتىدە
سۈپىتى
سۈپىتىدىكى
سۈپىتىدە
سۈپىتىم
سۈپىتىمىز
سۈپىتىنى
سۈپىتىنىڭ
سۈپىتىگە
سۈپۈرگە
سۈپۈرۈش
سۈپۈرۈپ
سۈپەت
سۈپەتسىز
سۈپەتكە
سۈپەتلىرى
سۈپەتلىك
سۈپەتلىگەن
سۈپەتلەر
سۈپەتنى
سېتىش
سېتىشتىن
سېتىشقا
سېتىشنى
سېتىق
سېتىلغان
سېتىلىدىغان
سېتىلىدۇ
سېتىلىش
سېتىلىپ
سېتىلىۋاتقان
سېتىپ
سېتىۋالدى
سېتىۋالغان
سېتىۋالغىلى
سېتىۋالغۇچى
سېتىۋالماقچى
سېتىۋالىدىغان
سېتىۋالىدۇ
سېتىۋېلىش
سېتىۋېلىشقا
سېتىۋېلىپ
سېخىي
سېخىيلىق
سېربلار
سېربىيە
سېرىق
سېرىقماي
سېرىقى
سېرىن
سېزىش
سېزىم
سېزىمى
سېزىي
سېزىپ
سېسترا
سېستمىسى
سېستىما
سېستىمىسنىڭ
سېستىمىسى
سېستىمىسىدىكى
سېستىمىسىدۇر
سېستىمىسىغا
سېستىمىسىنى
سېستىمىسىنىڭ
سېستىمىلىق
سېسىق
سېغىز
سېغىندىم
سېغىنىش
سېغىنىپ
سېكرىتارى
سېكرېتارى
سېكىرتارى
سېكۇنت
سېكۇنتىغا
سېلسىيە
سېلىش
سېلىشتا
سېلىشتىن
سېلىشتۇرساق
سېلىشتۇرغاندا
سېلىشتۇرغىلى
سېلىشتۇرما
سېلىشتۇرۇش
سېلىشتۇرۇپ
سېلىشقا
سېلىشنى
سېلىشى
سېلىشىغا
سېلىق
سېلىناتتى
سېلىندى
سېلىنسا
سېلىنغان
سېلىنما
سېلىنىدىغان
سېلىنىدۇ
سېلىنىشى
سېلىنىپ
سېلىنگا
سېلىپ
سېلىۋاتقان
سېمانتېك
سېمونت
سېمىز
سېمىزلىك
سېن
سېنت
سېنتىمېنتالىزم
سېنتەبر
سېنتەبىر
سېنتەبىردىكى
سېنتەبىردە
سېنى
سېنىڭ
سېنېگال
سېي
سېيىت
سېپى
سېپىدىن
سېپىدە
سېپىل
سېپىلدىن
سېپىلغا
سېپىلنى
سېپىلنىڭ
سېپىلى
سېپىلىنى
سېپىلىنىڭ
سېپىنىڭ
سېپىپ
سېپىگە
سېگولەن
سېھرى
سېھرىي
سېھىر
سېھىرلىك
سېھىرگەرلىك
سېۋىن
سە
سەبرى
سەبرە
سەبىر
سەبىي
سەبىيلەر
سەبەب
سەبەبى
سەت
سەجدە
سەددىچىن
سەددىچىننىڭ
سەدىقە
سەر
سەرب
سەرخىل
سەرخىللىرى
سەرخىللىرىنىڭ
سەردارى
سەرسان
سەركىسى
سەركەردىسى
سەركەردە
سەرمايىسى
سەرمايە
سەرىپ
سەرپ
سەرپىياتى
سەرگۈزەشتىسى
سەرگۈزەشتىلىرى
سەرگەردان
سەرەڭگە
سەزسە
سەزگۈ
سەزگۈر
سەزگۈرلۈك
سەزگەن
سەفىييە
سەكتىسىنىڭ
سەكرەش
سەكرەپ
سەكسەن
سەككاكى
سەككىز
سەككىزدىن
سەككىزىنچى
سەل
سەلبى
سەلبىي
سەلتەنەت
سەلتەنەتلىك
سەلجۇق
سەلجۇقلار
سەلجۇقىيلار
سەللە
سەللەللاھۇ
سەلىم
سەلىپ
سەلچۇق
سەلچۇقلار
سەلەمە
سەلەمەنىڭ
سەلەي
سەمى
سەمىمىي
سەمىمىيلىك
سەمىمىيەت
سەمىگە
سەمۇد
سەمەت
سەمەدىنىڭ
سەمەدىي
سەمەر
سەمەرقەنت
سەمەرقەند
سەمەن
سەن
سەندىن
سەندە
سەندەل
سەنسىز
سەنشى
سەنمۇ
سەنىمى
سەني
سەنەت
سەنەد
سەنەدى
سەنەم
سەي
سەيدۇللا
سەيشەنبە
سەيلىسى
سەيلە
سەينا
سەيىد
سەيىف
سەييارىلەر
سەييارىلەرنىڭ
سەييارە
سەيياھ
سەييىد
سەيپىدىن
سەيڧىددىن
سەپ
سەپتىكى
سەپتىن
سەپتە
سەپداشلىرى
سەپرا
سەپرانىڭ
سەپكە
سەپلەنگەن
سەپنىڭ
سەپىرى
سەپىرىدە
سەپىرىنى
سەپىرىگە
سەپەر
سەپەردە
سەپەرگە
سەپەرۋەر
سەپەرۋەرلىك
سەڧەر
سەگەك
سەھرا
سەھرايى
سەھل
سەھنىدە
سەھنىسى
سەھنىسىدىن
سەھنىسىدە
سەھنىسىگە
سەھنىلىرىدە
سەھنىلەردە
سەھنىگە
سەھنە
سەھىد
سەھىيە
سەھىپىسى
سەھىپىسىدە
سەھىپىلىرى
سەھىپىلەر
سەھىپە
سەھىھ
سەھىھۇ
سەھىھۇل
سەھىھەين
سەھيە
سەھەر
سەھەردە
سەۋدا
سەۋدالىق
سەۋدە
سەۋر
سەۋرى
سەۋرچان
سەۋرچانلىق
سەۋزىنى
سەۋزە
سەۋىيىدىكى
سەۋىيىدە
سەۋىيىسى
سەۋىيىسىنى
سەۋىيىسىنىڭ
سەۋىيىسىگە
سەۋىيىلىك
سەۋىيىگە
سەۋىيە
سەۋىيەدىكى
سەۋىيەدە
سەۋىيەسى
سەۋىيەسىنى
سەۋىيەسىنىڭ
سەۋىيەسىگە
سەۋىيەلىك
سەۋىيەگە
سەۋەب
سەۋەبتىن
سەۋەبسىز
سەۋەبلىرى
سەۋەبلىرىنى
سەۋەبلىرىنىڭ
سەۋەبلىك
سەۋەبلەر
سەۋەبلەردىن
سەۋەبلەرنى
سەۋەبلەرنىڭ
سەۋەبنى
سەۋەبى
سەۋەبىدىن
سەۋەبىنى
سەۋەبچى
سەۋەنلىك
سەۋەپ
سەۋەپتىن
سەۋەپلىك
سەۋەپلەر
سەۋەپچى
ش
شا
شاتلىق
شاخ
شاخار
شاخلىرى
شاخلىق
شاد
شادلاندى
شادلىق
شادلىققا
شار
شاراب
شاراي
شاردا
شارسىمان
شارى
شارىدا
شارىدىكى
شارىغا
شارىنى
شارىنىڭ
شارچە
شاش
شافىي
شاقۇر
شاكال
شاكراماتال
شاكىر
شاكىلات
شاكىلاتلىق
شال
شالاڭ
شالكې
شالنىڭ
شام
شامال
شامالباغ
شامالدا
شامالدىتىپ
شاماللار
شاماللىرى
شامالنىڭ
شامان
شامدا
شامغا
شامنى
شامىل
شامىلى
شامەخسۇت
شامەخسۇتنىڭ
شان
شانلىق
شاني
شانۇ
شاي
شايار
شايبانى
شايى
شاپاق
شاپاي
شاپتۇل
شاڭ
شاڭخەي
شاڭخەيدە
شاڭخەيگە
شاگىرت
شاگىرتلىرى
شاگىرتلىرىدىن
شاگىرتى
شاگىرىتلىرى
شاھ
شاھادەت
شاھانە
شاھتەررە
شاھزادىسى
شاھزادە
شاھلار
شاھلىق
شاھمات
شاھنامە
شاھى
شاھىت
شاھىتى
شاھىد
شاھىدى
شاۋشىڭ
شاۋقۇن
شاۋۋۇ
شتابى
شتاتلىرى
شتاتى
شتاتىدىكى
شراپنېل
شرح
شـ
شنجاڭ
شوتا
شوتلاندىيە
شوخ
شور
شوراش
شورباغ
شورغا
شورلۇق
شورپا
شورپىسى
شورپىسىنى
شورپىغا
شورپىلىق
شورپىنى
شوغۇللانغان
شوغۇللىنىدۇ
شوغۇللىنىپ
شولان
شولتا
شولىسى
شوي
شويلا
شويلىسى
شوپۇر
شوپۇرلۇق
شى
شىبە
شىبەلەر
شىبەلەرنىڭ
شىتاب
شىتابى
شىتات
شىتاتتا
شىتاتلىرى
شىتاتلىرىنىڭ
شىتاتلىق
شىتاتى
شىتاتىدا
شىتاتىدىكى
شىتاتىغا
شىتاتىنىڭ
شىتۇڭشىجۇ
شىجاي
شىخۇ
شىخەنزە
شىددەت
شىددەتلىك
شىر
شىراز
شىرازى
شىردەك
شىرزات
شىركىتنىڭ
شىركىتى
شىركىتىدىكى
شىركىتىدىن
شىركىتىدە
شىركىتىمىز
شىركىتىمىزدە
شىركىتىمىزنىڭ
شىركىتىنى
شىركىتىنىڭ
شىركىتىگە
شىركەت
شىركەتتىكى
شىركەتتىن
شىركەتتە
شىركەتكە
شىركەتلىرى
شىركەتلىرىنى
شىركەتلىرىنىڭ
شىركەتلىرىگە
شىركەتلەر
شىركەتلەردىن
شىركەتلەرنى
شىركەتلەرنىڭ
شىركەتلەرگە
شىركەتنى
شىركەتنىڭ
شىرنىسى
شىرنىلىك
شىرنە
شىرىسى
شىرىسىنى
شىرىف
شىرىك
شىرىن
شىرىگە
شىرە
شىرەگە
شىزاڭ
شىزۇڭ
شىس
شىسى
شىسىنىڭ
شىسۇقۇتى
شىسەي
شىسەينى
شىسەينىڭ
شىفا
شىفىرلىق
شىك
شىكارغا
شىكايەت
شىكلار
شىللىق
شىلىمشىق
شىمال
شىمالدا
شىمالدىكى
شىمالدىن
شىمالغا
شىمالغىچە
شىمالنى
شىمالنىڭ
شىمالى
شىمالىدا
شىمالىدىكى
شىمالىدىن
شىمالىغا
شىمالىغىچە
شىمالىنى
شىمالىي
شىمىن
شىن
شىنتو
شىنجاڭ
شىنجاڭدا
شىنجاڭدىكى
شىنجاڭدىن
شىنجاڭغا
شىنجاڭلىق
شىنجاڭنى
شىنجاڭنىڭ
شىنخۇا
شىنخەي
شىنىڭ
شىي
شىياڭگاڭ
شىپا
شىپالىق
شىپايى
شىڭ
شىڭشىسەي
شىھابۇددىن
شىۋتسىيە
شىۋىت
شىۋىتسارىيە
شىۋىتسىيە
شىۋىسى
شىۋىسىنى
شىۋىسىنىڭ
شىۋىلىرى
شىۋېتسارىيە
شىۋېتسىيە
شىۋە
شي
شياڭياڭ
شياڭگاڭ
شياۋ
شياۋپىڭ
شۆبىسى
شۆبىسىدە
شۆبىسىنىڭ
شۆبە
شۆپۈكى
شۆھرىتى
شۆھرىتىنى
شۆھرەت
شۆھرەتكە
شۆھرەتلىك
شۇ
شۇجى
شۇجىسى
شۇجىچۇسىنىڭ
شۇدۇر
شۇرا
شۇرېن
شۇغۇللاندى
شۇغۇللانسا
شۇغۇللانغان
شۇغۇللانماقتا
شۇغۇللىنىدىغان
شۇغۇللىنىدىغانلار
شۇغۇللىنىدۇ
شۇغۇللىنىش
شۇغۇللىنىشقا
شۇغۇللىنىشىغا
شۇغۇللىنىپ
شۇغۇللىنىۋاتقان
شۇغۇللىنىۋاتىدۇ
شۇكى
شۇلار
شۇلاردىن
شۇلارغا
شۇلارنى
شۇلارنىڭ
شۇم
شۇنداق
شۇنداقتىمۇ
شۇنداقكەن
شۇنداقلا
شۇنداقمۇ
شۇندىلا
شۇندىن
شۇنى
شۇنىسى
شۇنىمۇ
شۇنىڭ
شۇنىڭدىن
شۇنىڭدەك
شۇنىڭغا
شۇنچىلىك
شۇنچىۋالا
شۇنچە
شۇي
شۇيىلى
شۇچاغدا
شۇڭا
شۇڭغۇپ
شۇڭقار
شۇڭلاشقا
شۇڭىلاشقا
شۈ
شۈبھىسىز
شۈبھىسىزكى
شۈكرى
شۈكۈر
شۈي
شۋېتسارىيە
شۋېتسىيە
شۋېد
شې
شېخى
شېركىتى
شېركەت
شېرمان
شېرىك
شېرىكسىز
شېرىكى
شېرىن
شېرىپ
شېغىل
شېكەر
شېكەرنى
شېن
شېنجېن
شېنياڭ
شېنگېن
شېي
شېڭ
شېڭزۇ
شېھىت
شېھىد
شېۋرون
شېۋىسى
شېۋىسىدە
شەبنەم
شەجەرىسى
شەخس
شەخسكە
شەخسلەر
شەخسلەردىن
شەخسلەرنى
شەخسلەرنىڭ
شەخسلەرگە
شەخسنى
شەخسنىڭ
شەخسى
شەخسىنى
شەخسىنىڭ
شەخسىي
شەخسىيەتچى
شەخسىيەتچىلىك
شەخسەن
شەخىس
شەخىسكە
شەخىسلەر
شەخىسلەرنى
شەخىسلەرنىڭ
شەخىسنىڭ
شەر
شەربىتى
شەربەت
شەرت
شەرتسىز
شەرتكە
شەرتلىرى
شەرتلىك
شەرتلەر
شەرتلەرنى
شەرتلەرنىڭ
شەرتلەرگە
شەرتنامىسى
شەرتنامىسىدىكى
شەرتنامىلەردە
شەرتنامىلەرنى
شەرتنامىگە
شەرتنامە
شەرتنى
شەرتى
شەرتىنى
شەرتىگە
شەررىدىن
شەرق
شەرقتىكى
شەرقتىن
شەرقتە
شەرقشۇناس
شەرقشۇناسلىق
شەرققە
شەرقنىڭ
شەرقى
شەرقىدىكى
شەرقىدىن
شەرقىدە
شەرقىي
شەرقىگە
شەرقي
شەرىت
شەرىف
شەرىق
شەرىقتە
شەرىققە
شەرىقى
شەرىي
شەرىپى
شەرىپىنى
شەرىپىگە
شەرىڧ
شەري
شەرھ
شەرھلەش
شەرھلەپ
شەرھى
شەرەپ
شەرەپكە
شەرەپلىرى
شەرەپلىك
شەرەپلەر
شەرەپلەرگە
شەك
شەكسىز
شەكسىزكى
شەكلى
شەكلىدىكى
شەكلىدىن
شەكلىدۇر
شەكلىدە
شەكلىنى
شەكلىنىڭ
شەكلىگە
شەكىل
شەكىلدىكى
شەكىلدە
شەكىللىرى
شەكىللىرىنى
شەكىللىرىنىڭ
شەكىللىرىگە
شەكىللىك
شەكىللىنىدىغان
شەكىللىنىدۇ
شەكىللىنىش
شەكىللىنىشكە
شەكىللىنىشى
شەكىللىنىشىدە
شەكىللىنىشىنى
شەكىللىنىشىگە
شەكىللىنىپ
شەكىللەر
شەكىللەردە
شەكىللەرنى
شەكىللەرگە
شەكىللەندى
شەكىللەندۇرگەن
شەكىللەندۈردى
شەكىللەندۈرىدىغان
شەكىللەندۈرىدۇ
شەكىللەندۈرگەن
شەكىللەندۈرگەنلىرى
شەكىللەندۈرگەنلەر
شەكىللەندۈرگەنلەرنىڭ
شەكىللەندۈرۈش
شەكىللەندۈرۈپ
شەكىللەنمىگەن
شەكىللەنگەن
شەكىلى
شەكىلىدە
شەكىلگە
شەمسى
شەمسىددىن
شەمسىيە
شەمسۇددىن
شەمشىدىن
شەمشىيە
شەنبە
شەندۇڭ
شەنشى
شەنشىنىڭ
شەنىگە
شەي
شەيبە
شەيتان
شەيتاننىڭ
شەيخ
شەيخلىق
شەيخى
شەيخۇل
شەيخۇلي
شەيدا
شەيىخ
شەيي
شەپقەت
شەپقەتسىز
شەپقەتلىك
شەپكە
شەپەرەڭ
شەپەرەڭنىڭ
شەپەق
شەھرى
شەھرىدىكى
شەھرىدىن
شەھرىدۇر
شەھرىدە
شەھرىنى
شەھرىنىڭ
شەھرىگە
شەھىد
شەھىدى
شەھىدە
شەھىر
شەھىرى
شەھىرىدىكى
شەھىرىدىن
شەھىرىدە
شەھىرىنى
شەھىرىنىڭ
شەھىرىگە
شەھيار
شەھۋانى
شەھۋانىي
شەھەر
شەھەردىكى
شەھەردىن
شەھەردۇر
شەھەردە
شەھەرلىرى
شەھەرلىرىدىكى
شەھەرلىرىدىن
شەھەرلىرىدە
شەھەرلىرىنى
شەھەرلىرىگە
شەھەرلىك
شەھەرلەر
شەھەرلەردىكى
شەھەرلەردىن
شەھەرلەردە
شەھەرلەرنى
شەھەرلەرنىڭ
شەھەرلەرگە
شەھەرنى
شەھەرنىڭ
شەھەرى
شەھەرچىسى
شەھەرگە
شەۋقى
شەۋكەت
شەۋۋال
ص
صحيح
صل
صلاة
صلى
صلگصرص
صول
صي
ض
ضعيف
ط
طبقات
ظ
ع
عام
عبد
عدد
عضاء
علام
علم
على
علي
عليه
عن
غ
غا
غار
غارايىپ
غارى
غاز
غازات
غازاتقا
غازاتلارغا
غازالى
غازالىنىڭ
غازنى
غازى
غازىتى
غازىتىدا
غازىنىڭ
غاسپىرالى
غالتەك
غالجىر
غالدان
غالداننىڭ
غالىب
غالىبىيەت
غالىپ
غالچەك
غان
غايىب
غايىبانە
غايىسى
غايىسىنى
غايىلىرى
غايىلىك
غايىلەر
غايىنى
غايىنىڭ
غايىپ
غايىڭىز
غايىڭىزنى
غايىگە
غايىۋى
غايە
غايەت
غايەم
غايەمنى
غوجا
غوجام
غورا
غورۇچۆل
غوزا
غول
غولام
غولتوغراق
غوللۇق
غولى
غولىنىڭ
غوپۇر
غىجەك
غىدىقلاش
غىدىقلاپ
غىدىقلىغۇچى
غىرىپ
غىزا
غىل
غىياسىدىن
غىچە
غۇرۇر
غۇرۇرى
غۇرۇرىنى
غۇز
غۇسلى
غۇلام
غۇلاچ
غۇلجا
غۇلجىدا
غۇلجىدىكى
غۇلجىغا
غۇلجىلىق
غۇلغۇلا
غۇنچە
غۇنچەم
غۇپۇر
غۇۋا
غېرىب
غېرىپ
غېمى
غېمىنى
غېنى
غېنىنىڭ
غەرب
غەربتىكى
غەربتىن
غەربتە
غەربكىچە
غەربكە
غەربلىك
غەربلىكلەر
غەربنى
غەربنىڭ
غەربى
غەربىدىكى
غەربىدە
غەربىي
غەربىگىچە
غەربىگە
غەرق
غەرىب
غەرىبى
غەرىبىي
غەرىزىدە
غەرىپ
غەرپ
غەرپتىكى
غەرپتە
غەرپكە
غەرپنىڭ
غەرپچە
غەرەز
غەرەزدە
غەرەزلىك
غەززە
غەزنەۋىي
غەزنەۋىيلەر
غەزىنە
غەزىپى
غەزىپىنى
غەزەل
غەزەللىرى
غەزەپ
غەزەپكە
غەزەپلىنىپ
غەزەپلەنگەن
غەلبىسى
غەلبىلىك
غەلبىگە
غەلبە
غەلىبىدىن
غەلىبىسى
غەلىبىسىنى
غەلىبىلىك
غەلىبىگە
غەلىبە
غەلىتە
غەلۋىر
غەم
غەمكىن
غەنى
غەنىمەت
غەنىيمەت
غەيرى
غەيرىتى
غەيرىي
غەيرەت
غەيرەتجان
غەيۋەت
غەپلەت
غەپلەتتە
ـ
ــ
ـــ
ــــ
ـــــ
ــۇ
ف
فابرىكىسى
فابرىكىلاردا
فاتىخ
فاتىمە
فاتىمەنىڭ
فاتىھ
فار
فارابى
فارابىنىڭ
فارابىي
فارخان
فارس
فارسچە
فارىسچە
فازا
فازىل
فاشىست
فاشىستىك
فاشىسىت
فاكسىمىلى
فاكولتىت
فاكولتىتى
فاكولتىتىغا
فاكولتېتىغا
فاكۇلتىتى
فاكۇلتىتىدا
فاكۇلتىتىغا
فاكۇلتىتىنىڭ
فاكۇلتېت
فاكۇلتېتنىڭ
فاكۇلتېتى
فاكۇلتېتىدا
فاكۇلتېتىغا
فاكۇلتېتىنى
فاكۇلتېتىنىڭ
فامىلىسى
فامىلىسىنى
فامىلە
فانتازىيىلىك
فاي
فاڭ
فرانز
فرانسىسكو
فرانسىيىلىك
فرانسىيىنىڭ
فرانسىيىگە
فرانسىيە
فرانسىيەدىكى
فرانسىيەدە
فرانسىيەلىك
فرانسىيەنىڭ
فرانسىيەگە
فرانسۇز
فرانسۇزچە
فرانك
فرانكلىن
فوتو
فوتوسىنتېز
فورد
فورمات
فورمىسى
فورمۇلا
فورمۇلاسى
فوسفور
فولك
فولكلور
فونت
فوند
فوندى
فوندىدىكى
فوندىغا
فوندىنى
فوندىنىڭ
فونېتىك
فونېتىكىلىق
فونېما
فى
فىرانسىيىنىڭ
فىرانسىيە
فىرانسىيەدىكى
فىرانسىيەدە
فىرانسىيەلىك
فىرانسىيەنىڭ
فىرانسىيەگە
فىرانسۇز
فىرانسۇزچە
فىراپېي
فىري
فىزىكا
فىزىكىدا
فىزىكىسى
فىزىكىلىق
فىزىي
فىقىھ
فىقھ
فىقھى
فىقھىدا
فىقھىشۇناس
فىقھىي
فىقھە
فىل
فىلوتى
فىلولوگىيە
فىلىم
فىلىمدا
فىلىمدىكى
فىلىمدە
فىلىملىرى
فىلىملىرىدە
فىلىملەر
فىلىملەردە
فىلىملەرنى
فىلىملەرنىڭ
فىلىمنى
فىلىمنىڭ
فىلىمى
فىلىمىدە
فىلىمىنى
فىلىمگە
فىلىپ
فىلىپپىن
فىنلاندىيە
فىنلاندىيەلىك
فىي
في
فۇ
فۇجيەن
فۇجۇ
فۇدەن
فۇر
فۇرقەت
فۇكاڭ
فۇنكسىيە
فۇنكىسىيىسىنى
فۇي
فېدېراتسىيىسى
فېدېراتسىيە
فېدېراتىپ
فېرمىسى
فېستىۋالى
فېستىۋالىدا
فېي
فېڭ
فېۋرال
فېۋرالدا
فېۋرالدىكى
فەتىھ
فەتھى
فەر
فەرغانە
فەقىھ
فەي
فەھد
ق
قا
قابا
قابىل
قابىلىيىتى
قابىلىيىتىنى
قابىلىيىتىنىڭ
قابىلىيىتىگە
قابىلىيەت
قابىلىيەتكە
قابىلىيەتلىرىنى
قابىلىيەتلىك
قات
قاتار
قاتاردا
قاتاردىكى
قاتاردىن
قاتارغا
قاتارلصق
قاتارلىق
قاتارلىقلار
قاتارلىقلاردا
قاتارلىقلاردىن
قاتارلىقلاردۇر
قاتارلىقلارغا
قاتارلىقلارمۇ
قاتارلىقلارنى
قاتارلىقلارنىمۇ
قاتارلىقلارنىڭ
قاتارىدا
قاتارىدىن
قاتارىغا
قاتالىق
قاتتى
قاتتىق
قاتتىقراق
قاتقان
قاتكۆك
قاتكۆكنى
قاتلام
قاتلامدىكى
قاتلاملار
قاتلاملىرى
قاتلاملىق
قاتلاپ
قاتلىما
قاتلىمى
قاتلىمىدا
قاتلىمىدىكى
قاتلىمىغا
قاتلىمىنى
قاتلىمىنىڭ
قاتما
قاتمۇ
قاتمۇقات
قاتناش
قاتناشتى
قاتناشتىم
قاتناشسا
قاتناشقان
قاتناشقاندا
قاتناشقاندىن
قاتناشقانلار
قاتناشقانلىقى
قاتناشقۇچى
قاتناشقۇچىلار
قاتناشقۇچىلارغا
قاتناشقۇچىلارنىڭ
قاتناشمىغان
قاتنايدىغان
قاتنىشى
قاتنىشىدىغان
قاتنىشىدۇ
قاتنىشىش
قاتنىشىشقا
قاتنىشىشنى
قاتنىشىشى
قاتنىشىشىغا
قاتنىشىشىنى
قاتنىشىپ
قاتىدۇ
قاتىل
قاتىللىق
قاتىلى
قاتۇرۇش
قاتۇرۇپ
قادا
قادالغان
قادىر
قادىرخان
قادىرى
قار
قارا
قاراباغ
قاراتتى
قاراتقان
قاراتما
قاراخان
قاراخانلار
قاراخانىلار
قاراخانىلارنىڭ
قاراخانىيلار
قاراخانىيلارنىڭ
قارادۆڭ
قارار
قاراردا
قاراردىن
قارارغا
قارارلار
قارارلارنى
قارارلىرى
قارارلىرىنى
قارارلىق
قارارنى
قارارنىڭ
قارارى
قارارىغا
قارارىنى
قاراساي
قاراسۇ
قاراش
قاراشتا
قاراشتىكى
قاراشتۇر
قاراشقا
قاراشلار
قاراشلاردىن
قاراشلارغا
قاراشلارنى
قاراشلارنىڭ
قاراشلىرى
قاراشلىرىدىن
قاراشلىرىغا
قاراشلىرىنى
قاراشلىرىنىڭ
قاراشلىق
قاراشنى
قاراشنىڭ
قاراشەھەر
قاراقاش
قاراقاشنىڭ
قاراقالپاقچە
قاراقچى
قاراقۇرۇم
قارالدى
قارالسا
قارالسىمۇ
قارالسۇن
قارالغان
قارالماقتا
قارام
قاراماي
قارامتۇل
قارايتتى
قارايدىغان
قارايدىغانلىقىنى
قارايدىكەن
قارايدۇ
قارايسىز
قارايمىز
قارايمەن
قاراپ
قاراپلا
قاراڭ
قاراڭغۇ
قاراڭغۇلۇق
قاراڭلار
قاراۋۇل
قاراۋۇللۇق
قارشى
قارشىسىدا
قارشىلىق
قارشىلىققا
قارشىلىقنىڭ
قارشىلىقى
قارشىلىقىغا
قارشىلىقىنى
قارغا
قارغۇلارچە
قارلار
قارلىغاچ
قارلىق
قارلۇق
قارلۇقلار
قارلۇقلارنىڭ
قارلەيلىسى
قارمىقىدا
قارمىقىدىكى
قارمۇ
قارنى
قارى
قارىتا
قارىتىلغان
قارىتىپ
قارىدى
قارىدىم
قارىسا
قارىساق
قارىسام
قارىسىڭىز
قارىشى
قارىشىدا
قارىشىغا
قارىشىمچە
قارىشىنى
قارىشىنىڭ
قارىشىپ
قارىشىچە
قارىغا
قارىغان
قارىغاندا
قارىغاي
قارىغىلى
قارىغىنىمىزدا
قارىغۇ
قارىغۇلارچە
قارىلىدىغان
قارىلىدۇ
قارىلىپ
قارىماستىن
قارىماقتا
قارىماققا
قارىماي
قارىمايدۇ
قارىمىقىدا
قارىمىقىدىكى
قارىمۇ
قارىمۇچ
قارىنىڭ
قارىي
قارچىغا
قارچۇغا
قارۇشتى
قاز
قازا
قازاق
قازاقستان
قازاقلار
قازاقلارنىڭ
قازاقىستان
قازاقىستاندا
قازاقىستاندىكى
قازاقىستانغا
قازاقىستانلىق
قازاقىستاننىڭ
قازاقچە
قازان
قازاندا
قازاندى
قازاندىكى
قازانغا
قازانغان
قازاننى
قازاننىڭ
قازانچى
قازى
قازىلىق
قازىنى
قازىنىدۇ
قازىنىش
قازىنىشقا
قازىنىپ
قازىنىڭ
قاسار
قاسساپ
قاسقان
قاسقاندا
قاسقانغا
قاسىم
قاسىمنىڭ
قاسىموف
قاسىمى
قاش
قاشا
قاشتېشى
قاشقوۋۇق
قاغا
قاغان
قاغانغا
قاغانلار
قاغانلىق
قاغانلىقى
قاغانلىقىغا
قاغانلىقىنىڭ
قاغاننى
قاغاننىڭ
قاغانى
قاغىلىق
قاغىلىقتىكى
قاغىلىقتىن
قاغىلىققا
قاغىلىقنىڭ
قاق
قاقاس
قاقاسلىق
قاقاقلاپ
قاقتى
قاقشال
قاقشاپ
قاقلاپ
قال
قالاتتى
قالاتتىم
قالار
قالارلىق
قالارمۇ
قالاق
قالاقلىق
قالالايدۇ
قالالمايدۇ
قالايمىقان
قالايمىقانلىشىپ
قالايمىقانچىلىق
قالاپ
قالتىس
قالدى
قالدىم
قالدىمۇ
قالدۇردى
قالدۇرغان
قالدۇرمىغان
قالدۇرىدىغان
قالدۇرىدۇ
قالدۇرۇش
قالدۇرۇشقا
قالدۇرۇشنى
قالدۇرۇشى
قالدۇرۇلدى
قالدۇرۇلغان
قالدۇرۇلىدۇ
قالدۇرۇلۇپ
قالدۇرۇپ
قالدۇق
قالدۇقلىرى
قالدۇقى
قالسا
قالساق
قالسام
قالساڭ
قالسىلا
قالسىمۇ
قالسىڭىز
قالسۇن
قالغان
قالغانتىم
قالغاندا
قالغاندىن
قالغاندەك
قالغانلار
قالغانلارغا
قالغانلارنىڭ
قالغانلىرى
قالغانلىرىنى
قالغانلىرىنىڭ
قالغانلىقتىن
قالغانلىقى
قالغانلىقىدىن
قالغانلىقىغا
قالغانلىقىنى
قالغانىدى
قالغانىدىم
قالغانىكەن
قالغانىمىز
قالغاچقا
قالغىلى
قالغىنى
قالغىنىغا
قالغىنىم
قالغىنىنى
قالغۇدەك
قالغۇسى
قالغۇچە
قالقان
قالقانبەز
قالما
قالماستىن
قالماسلىق
قالماسلىقى
قالماق
قالماقتا
قالماقلار
قالماي
قالمايتتى
قالمايدىغان
قالمايدۇ
قالماپتۇ
قالماڭ
قالمىدى
قالمىدىم
قالمىسا
قالمىسۇن
قالمىغان
قالىدىغان
قالىدىغانلىقى
قالىدىغانلىقىنى
قالىدىكەن
قالىدۇ
قالىسىز
قالىمىز
قالىمەن
قالپاق
قالپاقى
قالپىقى
قالۇن
قاماق
قاماققا
قامال
قامالغان
قاماپ
قامداش
قامداپ
قامچا
قامۇس
قامۇسى
قان
قانات
قاناتلىرىنى
قاناتلىق
قاناش
قاناشنى
قانال
قاناي
قانايدۇ
قانتېپەر
قانخور
قاندا
قانداش
قانداشلىق
قانداق
قانداقتۇر
قانداقراق
قانداقسىگە
قانداقلا
قانداقمۇ
قاندىكى
قاندىن
قاندۇرىدۇ
قاندۇرۇش
قاندۇرۇشقا
قاندۇرۇپ
قانغا
قانغۇچە
قانلار
قانلىرى
قانلىق
قاننى
قاننىڭ
قانون
قانوندا
قانونغا
قانىتى
قانىتىغا
قانىتىنى
قانىتىنىڭ
قانىلى
قانىلىنىڭ
قانپلازمىسىدا
قانچىسى
قانچىكى
قانچىلىغان
قانچىلىك
قانچىنى
قانچە
قانۇن
قانۇندا
قانۇندىكى
قانۇندىن
قانۇنسىز
قانۇنشۇناس
قانۇنشۇناسلار
قانۇنشۇناسلىق
قانۇنغا
قانۇنلار
قانۇنلاردا
قانۇنلاردىكى
قانۇنلارغا
قانۇنلارنى
قانۇنلارنىڭ
قانۇنلىرى
قانۇنلىرىغا
قانۇنلىرىنى
قانۇنلۇق
قانۇننى
قانۇننىڭ
قانۇنى
قانۇنىدا
قانۇنىدىكى
قانۇنىغا
قانۇنىنى
قانۇنىنىڭ
قانۇنىي
قانۇنىيتىنى
قانۇنىيىتى
قانۇنىيىتىنى
قانۇنىيىتىگە
قانۇنىيەت
قانۇنىيەتكە
قانۇنىيەتلىرى
قانۇنىيەتلىرىنى
قانۇنىيەتلىرىگە
قانۇنىيەتلىك
قانۇنىيەتلەرنىڭ
قانۇنىيەتنى
قانۇنچىلىق
قاي
قايا
قايان
قايانىڭ
قايتا
قايتتى
قايتتۇرۇپ
قايتقان
قايتقاندا
قايتقاندىن
قايتىدىغان
قايتىدىن
قايتىدۇ
قايتىش
قايتىشتىن
قايتىشقا
قايتىشنى
قايتىشى
قايتىشىدا
قايتىپ
قايتىپتۇ
قايتۇردى
قايتۇرغان
قايتۇرما
قايتۇرىدىغان
قايتۇرىدۇ
قايتۇرۇش
قايتۇرۇشقا
قايتۇرۇشنى
قايتۇرۇشى
قايتۇرۇلغان
قايتۇرۇپ
قايتۇرۇۋېلىش
قايرىلىپ
قايرىپ
قايسى
قايسىدۇر
قايسىسى
قايسىسىغا
قايسىسىنى
قايسىسىنىڭ
قايسىلار
قايسىلىرى
قايغۇ
قايغۇرۇپ
قايغۇغا
قايغۇلۇق
قايماق
قايناش
قايناق
قاينام
قاينايدۇ
قايناپ
قايناۋاتقان
قاينىتىلغان
قاينىتىلىدۇ
قاينىتىمىز
قاينىتىپ
قاينىغاندا
قاينىمىغا
قايى
قايىتتى
قايىل
قايىللىق
قايچا
قاپ
قاپارتما
قاپاغان
قاپاق
قاپتىمەن
قاپتۇ
قاپسىلىپ
قاپسەن
قاپقارا
قاپقاق
قاپلاش
قاپلان
قاپلانغان
قاپلايدۇ
قاپلاپ
قاپلىدى
قاپلىغان
قاپلىق
قاپلىنىپ
قاپىيە
قاچ
قاچا
قاچان
قاچانكى
قاچتى
قاچقان
قاچقۇن
قاچىدۇ
قاچىغا
قاچىلار
قاچىلارغا
قاچىلاش
قاچىلانغان
قاچىلاپ
قاچىلىنىدۇ
قاچۇرغان
قاچۇرۇش
قاچۇرۇپ
قاھار
قاھىرە
قاھىرەدىكى
قاھىرەدە
قاھىرەگە
قاۋۇل
قبل
قرالى
قرىم
قصلصدۇ
قصلصش
قصلصشص
قصلصپ
قـ
قوبۇقسار
قوبۇل
قوبۇللاش
قوبۇللىغۇچ
قوبۇللىغۇچلار
قوتاز
قوتان
قوتىنى
قوتۇر
قوجۇ
قورال
قوراللار
قوراللارنى
قوراللاندۇرۇپ
قوراللانغان
قوراللىرى
قوراللىرىنى
قوراللىق
قورالنى
قورالى
قورالىغا
قورالىنى
قورام
قورساق
قورساقنى
قورسىقى
قورسىقىنى
قورشالغان
قورشاپ
قورشاۋ
قورشاۋغا
قورغاس
قورغان
قورغىنى
قورققان
قورقماس
قورقماي
قورقمايدۇ
قورقىدىغان
قورقىدۇ
قورقىمەن
قورقۇت
قورقۇتۇش
قورقۇتۇپ
قورقۇش
قورقۇنچ
قورقۇنچاق
قورقۇنچلۇق
قورقۇنۇچلۇق
قورقۇپ
قورقۇڭلار
قورچاق
قورۇ
قورۇش
قورۇق
قورۇقچى
قورۇقچىبەگ
قورۇلغان
قورۇلىدۇ
قورۇلۇپ
قورۇما
قورۇمىسى
قورۇپ
قوزا
قوزغاش
قوزغاشقا
قوزغالدى
قوزغالغان
قوزغايدىغان
قوزغايدۇ
قوزغاپ
قوزغىتىش
قوزغىدى
قوزغىغان
قوزغىلاڭ
قوزغىلاڭغا
قوزغىلاڭنى
قوزغىلاڭنىڭ
قوزغىلاڭچى
قوزغىلاڭچىلار
قوزغىلاڭچىلارنىڭ
قوزغىلىش
قوزغىلىشى
قوزغىلىپ
قوزغىلىڭى
قوزغىلىڭىغا
قوزغىلىڭىنىڭ
قوزغۇلاڭ
قوزغۇلۇپ
قوزۇق
قوش
قوشاق
قوشاقلار
قوشاقلارنى
قوشاقلىرى
قوشاقنى
قوشاقچى
قوشالايسىز
قوشتاغ
قوشتى
قوشسا
قوشساق
قوشقا
قوشقار
قوشقان
قوشقاندا
قوشكېزەك
قوشما
قوشماق
قوشماقتا
قوشماي
قوشنا
قوشنىدارچىلىق
قوشنىسى
قوشنىلار
قوشنىلىرى
قوشىدىغان
قوشىدۇ
قوشىقى
قوشي
قوشۇش
قوشۇشقا
قوشۇشنى
قوشۇشى
قوشۇق
قوشۇلدى
قوشۇلسا
قوشۇلغان
قوشۇلغاندا
قوشۇلغاندىكى
قوشۇلغاندىن
قوشۇلما
قوشۇلماي
قوشۇلمىغان
قوشۇلىدىغان
قوشۇلىدۇ
قوشۇلىشى
قوشۇلۇش
قوشۇلۇشى
قوشۇلۇشىدىن
قوشۇلۇپ
قوشۇمچىسى
قوشۇمچىلار
قوشۇمچىلارنىڭ
قوشۇمچىلىرى
قوشۇمچە
قوشۇن
قوشۇنغا
قوشۇنلار
قوشۇنلىرى
قوشۇنلىرىغا
قوشۇنلىرىنى
قوشۇنلىرىنىڭ
قوشۇنلېرى
قوشۇننى
قوشۇننىڭ
قوشۇنى
قوشۇنىدىكى
قوشۇنىغا
قوشۇنىنى
قوشۇنىنىڭ
قوشۇپ
قوشۇۋالغان
قوشۇۋېتىش
قوشۇۋېتىلگەن
قوشۇۋېلىپ
قوغان
قوغداش
قوغداشتا
قوغداشقا
قوغداشنى
قوغداشنىڭ
قوغدايدىغان
قوغدايدۇ
قوغداپ
قوغدىدى
قوغدىشى
قوغدىشىغا
قوغدىغان
قوغدىغۇچى
قوغدىغۇچىسى
قوغدىلىدىغان
قوغدىلىدۇ
قوغدىلىش
قوغدىلىشى
قوغدىنىش
قوغشار
قوغلاش
قوغلاندى
قوغلانغان
قوغلايدۇ
قوغلاپ
قوغلىشىش
قوغلىشىپ
قوغۇداش
قوغۇشۇن
قوغۇن
قوغۇننىڭ
قوغۇنى
قوقاسقا
قوقان
قوقەند
قول
قولاي
قولايسىز
قولايلىق
قولتۇق
قولتۇقى
قولتۇقىدىن
قولتۇقىغا
قولتۇقىنىڭ
قولدا
قولدىن
قولدەك
قولغا
قوللار
قوللاش
قوللاشقا
قوللاندى
قوللانسا
قوللانغان
قوللانغاندا
قوللانغۇچىلاردىن
قوللانما
قوللانماقتا
قوللانماي
قوللانمىسى
قوللايدىغان
قوللايدىغانلىقىنى
قوللايدۇ
قوللاپ
قوللىدى
قوللىرى
قوللىرىغا
قوللىرىنى
قوللىرىنىڭ
قوللىشى
قوللىشىغا
قوللىشىنى
قوللىغان
قوللىغۇچىسى
قوللىندۇ
قوللىنىدىغان
قوللىنىدۇ
قوللىنىش
قوللىنىشقا
قوللىنىشنى
قوللىنىشى
قوللىنىشچان
قوللىنىلاتتى
قوللىنىلدى
قوللىنىلدىغان
قوللىنىلسىمۇ
قوللىنىلغان
قوللىنىلماقتا
قوللىنىلىدىغان
قوللىنىلىدۇ
قوللىنىلىش
قوللىنىلىشقا
قوللىنىلىشى
قوللىنىلىپ
قوللىنىلىۋاتقان
قوللىنىلىۋاتىدۇ
قوللىنىپ
قوللىنىۋاتقان
قوللۇق
قوللۇنۇپ
قولنى
قولنىڭ
قولى
قولىدا
قولىدىكى
قولىدىن
قولىغا
قولىمىز
قولىمىزدا
قولىمىزدىكى
قولىمىزدىن
قولىنى
قولىنىڭ
قوليازما
قولۇم
قولۇمدا
قولۇمدىن
قولۇمغا
قولۇمنى
قولۋاق
قوماندان
قوماندانلىرى
قوماندانلىق
قوماندانلىقى
قوماندانلىقىدا
قوماندانلىقىدىكى
قوماندانى
قوماچ
قومىچى
قومۇش
قومۇشلۇق
قومۇل
قومۇلدا
قومۇلغا
قومۇلنىڭ
قوناق
قوناقتەك
قوناقنى
قوندۇرۇپ
قونغان
قونچاق
قونۇش
قونۇپ
قوي
قوياتتى
قوياش
قوياي
قويدى
قويدۇق
قويدۇم
قويسا
قويساق
قويسام
قويسىلا
قويسىمۇ
قويسىڭىز
قويغان
قويغاندا
قويغاندىن
قويغاندەك
قويغانلار
قويغانلىقى
قويغانلىقىنى
قويغانىدى
قويغىلى
قويغۇچى
قويماسلىق
قويماقتا
قويماقچى
قويماي
قويمايدۇ
قويمىدى
قويمىسا
قويمىغان
قوينى
قوينىدا
قوينىغا
قوينىڭ
قويى
قويىدىغان
قويىدىكەن
قويىدۇ
قويىلىدۇ
قويىمىز
قويىمەن
قويۇش
قويۇشتا
قويۇشتى
قويۇشتىن
قويۇشتەك
قويۇشقا
قويۇشنى
قويۇشنىڭ
قويۇشى
قويۇشىغا
قويۇشىنى
قويۇق
قويۇقلۇق
قويۇقلۇقى
قويۇلدى
قويۇلدۇرۇش
قويۇلسا
قويۇلغان
قويۇلغاندىن
قويۇلمايدۇ
قويۇلمىغان
قويۇلىدىغان
قويۇلىدۇ
قويۇلىشى
قويۇلۇش
قويۇلۇشتىن
قويۇلۇشقا
قويۇلۇشى
قويۇلۇشىغا
قويۇلۇپ
قويۇپ
قويۇپتۇ
قويۇڭ
قويۇڭلار
قويۇۋاتقان
قوپ
قوپال
قوپاللىق
قوپۇرۇلغان
قوپۇپ
قوچقار
قوچى
قوچۇ
قوچۇپ
قوڭ
قوڭغۇراق
قوڭغۇراقگۈل
قوڭۇر
قوۋزىقى
قوۋملىرى
قوۋمى
قوۋۇرغا
قوۋۇق
قى
قىبرىس
قىبلىگە
قىبلە
قىتان
قىتانلار
قىتانلارنىڭ
قىتملىق
قىتىم
قىتىمقى
قىتىملىق
قىتي
قىدىرخان
قىدىرىپ
قىر
قىران
قىراي
قىرتاق
قىرغاق
قىرغاقتىكى
قىرغاققا
قىرغاۋۇل
قىرغىز
قىرغىزستان
قىرغىزستاندا
قىرغىزلار
قىرغىزلارغا
قىرغىزلارنىڭ
قىرغىزىستان
قىرغىزىستاندا
قىرغىزىستاندىكى
قىرغىزىستاننىڭ
قىرغىزي
قىرغىزچە
قىرغىقى
قىرغىقىدا
قىرغىقىدىكى
قىرغىقىغا
قىرغىن
قىرغىنچىلىق
قىرغىنچىلىققا
قىرغىنچىلىقنى
قىرغىنچىلىقى
قىرغىنچىلىقىنى
قىرغىنچىلىقىنىڭ
قىرغۇچى
قىرلىق
قىروسىز
قىرى
قىرىق
قىرىم
قىرىمي
قىرىنداشلار
قىرىنداشلىق
قىرىپ
قىز
قىزارتىپ
قىززىق
قىزغا
قىزغىن
قىزغىنلىق
قىزغىنلىقى
قىزغىنلىقىغا
قىزغىنلىقىنى
قىزغىنلىقىنىڭ
قىزغۇچ
قىزلار
قىزلارغا
قىزلارنى
قىزلارنىڭ
قىزلىرى
قىزلىرىغا
قىزلىرىمىز
قىزلىرىنى
قىزلىرىنىڭ
قىزلىق
قىزنى
قىزنىڭ
قىزى
قىزىتما
قىزىتىش
قىزىتىلغان
قىزىتىپ
قىزىدۇر
قىزىرىپ
قىزىش
قىزىغا
قىزىغان
قىزىغاندا
قىزىق
قىزىقارلىق
قىزىقتۇرۇش
قىزىقتۇرۇپ
قىزىققان
قىزىقىدىغان
قىزىقىش
قىزىقىشى
قىزىقىشىغا
قىزىقىشىنى
قىزىقىپ
قىزىقچى
قىزىقچىلىق
قىزىل
قىزىلبۇغداش
قىزىلتاغ
قىزىلسۇ
قىزىلي
قىزىلچا
قىزىلگۈل
قىزىم
قىزىمغا
قىزىمنى
قىزىمنىڭ
قىزىنى
قىزىنىڭ
قىزىپ
قىزچاق
قىزچاقنىڭ
قىس
قىساس
قىستاققا
قىستايدۇ
قىستاپ
قىستاڭ
قىستىشى
قىستۇرما
قىستۇرمىسى
قىستۇرۇلغان
قىستۇرۇپ
قىسسىسى
قىسسە
قىسقا
قىسقارتىش
قىسقارتىلغان
قىسقارتىلما
قىسقارتىلمىسى
قىسقارتىلىپ
قىسقارتىپ
قىسقىسى
قىسقىغىنا
قىسقىغىنە
قىسقىلىقى
قىسقىچە
قىسقۇچ
قىسم
قىسملار
قىسمى
قىسمىتى
قىسمىدا
قىسمىدىكى
قىسمىدىن
قىسمىدۇر
قىسمىغا
قىسمىلا
قىسمىنى
قىسمىنىڭ
قىسمەت
قىسمەتلىرى
قىسمەن
قىسىم
قىسىمدا
قىسىمدىكى
قىسىمدىن
قىسىمغا
قىسىملار
قىسىملاردا
قىسىملارنى
قىسىملارنىڭ
قىسىملىرى
قىسىملىرىدا
قىسىملىرىغا
قىسىملىرىنى
قىسىملىرىنىڭ
قىسىملىق
قىسىمنى
قىسىمنىڭ
قىسىمى
قىسىمىدا
قىسىمىدىكى
قىسىمىغا
قىسىمىنى
قىسىمىنىڭ
قىسىپ
قىش
قىشتا
قىشلاق
قىشلاقلاردا
قىشلىق
قىشنى
قىشنىڭ
قىقاس
قىل
قىلاتتى
قىلاتتىم
قىلاتتۇق
قىلار
قىلارلىق
قىلالايدىغان
قىلالايدىغانلىقىغا
قىلالايدۇ
قىلالايسىز
قىلالايسەن
قىلالايمىز
قىلالايمەن
قىلالماس
قىلالماسلىق
قىلالماي
قىلالمايتتى
قىلالمايدىغان
قىلالمايدۇ
قىلالمايمىز
قىلالمايمەن
قىلالمىدى
قىلالمىدىم
قىلالمىسا
قىلالمىغان
قىلالىدى
قىلالىشى
قىلالىغان
قىلامدۇ
قىلاي
قىلايلى
قىلدى
قىلدىغان
قىلدىم
قىلدىڭ
قىلدۇ
قىلدۇرالايدىغان
قىلدۇردى
قىلدۇرسا
قىلدۇرغان
قىلدۇرىدىغان
قىلدۇرىدۇ
قىلدۇرۇش
قىلدۇرۇشقا
قىلدۇرۇشنى
قىلدۇرۇشنىڭ
قىلدۇرۇشى
قىلدۇرۇلغان
قىلدۇرۇپ
قىلدۇق
قىلسا
قىلساق
قىلساقمۇ
قىلسام
قىلساڭ
قىلساڭلار
قىلسىمۇ
قىلسىڭىز
قىلسىڭىزمۇ
قىلسۇن
قىلش
قىلشقا
قىلشى
قىلغان
قىلغاندا
قىلغاندىلا
قىلغاندىن
قىلغاندۇر
قىلغاندەك
قىلغانغا
قىلغانلار
قىلغانلاردىن
قىلغانلارغا
قىلغانلارنى
قىلغانلارنىڭ
قىلغانلىرى
قىلغانلىرىغا
قىلغانلىرىنى
قىلغانلىق
قىلغانلىقتىن
قىلغانلىقى
قىلغانلىقىغا
قىلغانلىقىنى
قىلغاننى
قىلغانىدى
قىلغانىدىم
قىلغانىكەن
قىلغاي
قىلغاچ
قىلغاچقا
قىلغــان
قىلغىلى
قىلغىن
قىلغىنى
قىلغىنىدا
قىلغىنىغا
قىلغىنىم
قىلغىنىمىزدا
قىلغىنىنى
قىلغىنىڭ
قىلغۇدەك
قىلغۇسى
قىلغۇم
قىلغۇچ
قىلغۇچى
قىلغۇچىدىن
قىلغۇچىدۇر
قىلغۇچىسى
قىلغۇچىغا
قىلغۇچىلار
قىلغۇچىلاردىن
قىلغۇچىلارغا
قىلغۇچىلارنى
قىلغۇچىلارنىڭ
قىلغۇچىنى
قىلغۇچىنىڭ
قىلما
قىلماس
قىلماستىن
قىلماسلىق
قىلماسلىققا
قىلماسلىقنى
قىلماسلىقى
قىلماق
قىلماقتا
قىلماقچى
قىلماي
قىلمايتتى
قىلمايدىغان
قىلمايدىغانلىقىنى
قىلمايدىكەن
قىلمايدۇ
قىلمايسىز
قىلمايلا
قىلمايمىز
قىلمايمەن
قىلماڭ
قىلماڭلار
قىلمىدى
قىلمىدىم
قىلمىسا
قىلمىساق
قىلمىسىمۇ
قىلمىسۇن
قىلمىش
قىلمىشلار
قىلمىشلارغا
قىلمىشلارنى
قىلمىشلارنىڭ
قىلمىشلىرى
قىلمىشلىرىنى
قىلمىشنى
قىلمىشى
قىلمىشىغا
قىلمىشىنى
قىلمىشىنىڭ
قىلمىغان
قىلمىغاندا
قىلمىغانلار
قىلمىغانلارغا
قىلمىغانلىقى
قىلمىغىن
قىلنغان
قىلنىدۇ
قىلىدى
قىلىدىغان
قىلىدىغانلار
قىلىدىغانلىقى
قىلىدىغانلىقىغا
قىلىدىغانلىقىنى
قىلىدىغىنى
قىلىدىكەن
قىلىدۇ
قىلىسىز
قىلىسىلەر
قىلىسەن
قىلىش
قىلىشاتتى
قىلىشتا
قىلىشتى
قىلىشتىكى
قىلىشتىن
قىلىشتۇر
قىلىشتەك
قىلىشغا
قىلىشقا
قىلىشقان
قىلىشقىمۇ
قىلىشلىرى
قىلىشمۇ
قىلىشنى
قىلىشنىڭ
قىلىشى
قىلىشىدا
قىلىشىدىكى
قىلىشىدىن
قىلىشىدۇ
قىلىشىدۇر
قىلىشىغا
قىلىشىم
قىلىشىمنى
قىلىشىمىز
قىلىشىمىزغا
قىلىشىمۇ
قىلىشىنى
قىلىشىنىڭ
قىلىشىپ
قىلىشىچە
قىلىشىڭىز
قىلىغان
قىلىق
قىلىمىز
قىلىمىشى
قىلىمەن
قىلىمەنكى
قىلىناتتى
قىلىندى
قىلىندىغان
قىلىندىم
قىلىندۇ
قىلىنسا
قىلىنسىمۇ
قىلىنشقا
قىلىنغان
قىلىنغاندا
قىلىنغاندىن
قىلىنغاندۇر
قىلىنغاندەك
قىلىنغانلىقى
قىلىنغانلىقىنى
قىلىنغانىدى
قىلىنغاچقا
قىلىنغىنىدەك
قىلىنغۇچى
قىلىنغۇچىغا
قىلىنغۇچىلارنىڭ
قىلىنغۇچىنى
قىلىنغۇچىنىڭ
قىلىنماسلىقى
قىلىنماقتا
قىلىنماقچى
قىلىنماي
قىلىنمايدىغان
قىلىنمايدۇ
قىلىنمىدى
قىلىنمىسا
قىلىنمىغان
قىلىنىدىغان
قىلىنىدىغانلىقى
قىلىنىدىغانلىقىنى
قىلىنىدىكەن
قىلىنىدۇ
قىلىنىش
قىلىنىشتىن
قىلىنىشقا
قىلىنىشنى
قىلىنىشى
قىلىنىشىدا
قىلىنىشىدىن
قىلىنىشىغا
قىلىنىشىنى
قىلىنىشىنىڭ
قىلىنىشىچە
قىلىنىغان
قىلىنىپ
قىلىنىپتۇ
قىلىنىۋاتقان
قىلىنىۋاتىدۇ
قىلىپ
قىلىپتۇ
قىلىپلا
قىلىپلاشقان
قىلىپمۇ
قىلىچ
قىلىچى
قىلىڭ
قىلىڭلار
قىلىۋاتاتتى
قىلىۋاتقان
قىلىۋاتقاندا
قىلىۋاتقانلىقى
قىلىۋاتقانلىقىنى
قىلىۋاتقىنى
قىلىۋاتىدۇ
قىلىۋاتىمىز
قىلىۋاتىمەن
قىلىۋالدى
قىلىۋالغان
قىلىۋالىدۇ
قىلىۋېتىدۇ
قىلىۋېتىش
قىلىۋېتىشكە
قىلىۋېتىلگەن
قىلىۋېتىپ
قىلىۋېتىپتۇ
قىلىۋېلىش
قىلىۋېلىشقا
قىلىۋېلىپ
قىلىۋەتتى
قىلىۋەتكەن
قىلپ
قىلچىمۇ
قىلچە
قىلۇر
قىلۋاتقان
قىمار
قىممىتى
قىممىتىدە
قىممىتىنى
قىممىتىنىڭ
قىممىتىگە
قىممەت
قىممەتكە
قىممەتلىك
قىممەتلەر
قىممەتنى
قىنى
قىي
قىيا
قىياتاش
قىياس
قىيام
قىيامى
قىيامەت
قىيامەتتە
قىياپىتى
قىياپىتىنى
قىياپىتىگە
قىياپەت
قىياپەتتە
قىياپەتكە
قىيسايغان
قىيما
قىيمىسى
قىيمىلىق
قىيمىنى
قىيناپ
قىينىلىپ
قىيىقچا
قىيىن
قىيىنغا
قىيىنلىق
قىيىنچىلىق
قىيىنچىلىققا
قىيىنچىلىقلار
قىيىنچىلىقلارغا
قىيىنچىلىقلارنى
قىيىنچىلىقى
قىيپاش
قىپ
قىپتۇ
قىپقىزىل
قىپچاق
قىپچاقلار
قىچا
قىچىشىش
قىچىپ
قىچە
قۇب
قۇبا
قۇبلاي
قۇبلايخان
قۇبۇل
قۇت
قۇتا
قۇتادغۇ
قۇتادغۇبىلىك
قۇتبىدىن
قۇتراتقۇلۇق
قۇتقۇزدى
قۇتقۇزۇش
قۇتقۇزۇشقا
قۇتقۇزۇپ
قۇتلۇبۇغا
قۇتلۇق
قۇتي
قۇتۇب
قۇتۇبى
قۇتۇز
قۇتۇلدى
قۇتۇلدۇرغان
قۇتۇلدۇرۇش
قۇتۇلدۇرۇپ
قۇتۇلغان
قۇتۇلىدۇ
قۇتۇلۇش
قۇتۇلۇشقا
قۇتۇلۇشنىڭ
قۇتۇلۇپ
قۇتۇپ
قۇتۇپقا
قۇتۇپلۇق
قۇتۇپنىڭ
قۇجۇ
قۇدا
قۇدامە
قۇددۇس
قۇدرىتى
قۇدرىتىنى
قۇدرەت
قۇدرەتكە
قۇدرەتلىك
قۇدۇق
قۇدۇققا
قۇر
قۇراشتۇرۇش
قۇرال
قۇراللارنى
قۇراللىرى
قۇراللىرىنى
قۇراللىق
قۇرالى
قۇرامىغا
قۇران
قۇرايلى
قۇربان
قۇربانجان
قۇربانلار
قۇربانلىق
قۇربانى
قۇربانىغا
قۇربى
قۇرت
قۇرتى
قۇرتۇبىي
قۇرتۇلۇش
قۇردا
قۇردى
قۇرساقلىق
قۇرغاق
قۇرغاقچىلىق
قۇرغاقچىلىققا
قۇرغان
قۇرغاندا
قۇرغاندىن
قۇرغانلىقى
قۇرغۇچى
قۇرغۇچىسى
قۇرغۇچىلىرى
قۇرغۇچىلىرىدىن
قۇرلارنى
قۇرلۇش
قۇرلۇشى
قۇرماقچى
قۇرىدا
قۇرىدۇ
قۇري
قۇرۇت
قۇرۇتى
قۇرۇتىنىڭ
قۇرۇتۇش
قۇرۇتۇلغان
قۇرۇتۇپ
قۇرۇش
قۇرۇشتا
قۇرۇشتىن
قۇرۇشقا
قۇرۇشنى
قۇرۇشى
قۇرۇشىغا
قۇرۇغان
قۇرۇق
قۇرۇقلۇق
قۇرۇقلۇقتا
قۇرۇقلۇقتىكى
قۇرۇقلۇققا
قۇرۇقلۇقنىڭ
قۇرۇقلۇقى
قۇرۇقلۇقىنىڭ
قۇرۇقچى
قۇرۇلتاي
قۇرۇلتايدا
قۇرۇلتايلىرى
قۇرۇلتايلىرىنىڭ
قۇرۇلتاينىڭ
قۇرۇلتىينىڭ
قۇرۇلتىيى
قۇرۇلتىيىدا
قۇرۇلتىيىغا
قۇرۇلتىيىنىڭ
قۇرۇلدى
قۇرۇلغان
قۇرۇلغاندا
قۇرۇلغاندىن
قۇرۇلغانلىقى
قۇرۇلغانلىقىنى
قۇرۇلغانلىقىنىڭ
قۇرۇلما
قۇرۇلمىسى
قۇرۇلمىسىدا
قۇرۇلمىسىغا
قۇرۇلمىسىنى
قۇرۇلمىسىنىڭ
قۇرۇلمىغا
قۇرۇلمىلار
قۇرۇلمىلىرى
قۇرۇلمىلىق
قۇرۇلمىنى
قۇرۇلمىنىڭ
قۇرۇلىدۇ
قۇرۇلىشى
قۇرۇلىشىغا
قۇرۇلۇش
قۇرۇلۇشتا
قۇرۇلۇشتىن
قۇرۇلۇشقا
قۇرۇلۇشلار
قۇرۇلۇشلىرى
قۇرۇلۇشلىرىنىڭ
قۇرۇلۇشنى
قۇرۇلۇشنىڭ
قۇرۇلۇشى
قۇرۇلۇشىدا
قۇرۇلۇشىدىكى
قۇرۇلۇشىدىن
قۇرۇلۇشىغا
قۇرۇلۇشىنى
قۇرۇلۇشىنىڭ
قۇرۇلۇپ
قۇرۇم
قۇرۇپ
قۇرەشىي
قۇرەيزە
قۇرەيش
قۇرەيىش
قۇز
قۇس
قۇسۇش
قۇش
قۇشقاچ
قۇشلار
قۇشلارغا
قۇشلارنى
قۇشلارنىڭ
قۇشلىرى
قۇشنى
قۇشنىڭ
قۇشى
قۇشۇق
قۇشۇلۇپ
قۇشۇمچىسى
قۇشۇمچىلىرى
قۇشۇمچە
قۇشۇن
قۇشۇنلىرى
قۇشۇنى
قۇشۇپ
قۇل
قۇلاق
قۇلاقتىن
قۇلاققا
قۇلان
قۇلاي
قۇلايلىق
قۇلايلىقتىن
قۇلغا
قۇللار
قۇللارنى
قۇللۇق
قۇللۇقتىن
قۇللۇقنى
قۇلماق
قۇلى
قۇلىقى
قۇلىقىغا
قۇلىقىنى
قۇلچىلىق
قۇلۇلىسى
قۇلۇلە
قۇلۇپ
قۇلۇپنى
قۇم
قۇماندان
قۇماندانلىق
قۇماندانلىقىدىكى
قۇماندانى
قۇمباغ
قۇمساڭ
قۇمغا
قۇملۇق
قۇملۇقتىكى
قۇملۇقتىن
قۇملۇققا
قۇملۇقنىڭ
قۇملۇقى
قۇملۇقىنىڭ
قۇمنى
قۇمي
قۇمۇق
قۇمۇقلار
قۇمۇل
قۇمۇلاق
قۇمۇلدا
قۇمۇلدىكى
قۇمۇلدىن
قۇمۇلغا
قۇمۇللۇق
قۇمۇلنىڭ
قۇن
قۇناق
قۇندۇز
قۇي
قۇياش
قۇياشتىن
قۇياشقا
قۇياشنى
قۇياشنىڭ
قۇيرۇق
قۇيرۇقلۇق
قۇيرۇقى
قۇيرۇقىنى
قۇيغان
قۇيماق
قۇيىدۇ
قۇيىمىز
قۇيۇش
قۇيۇق
قۇيۇلدى
قۇيۇلغان
قۇيۇلىدىغان
قۇيۇلىدۇ
قۇيۇلۇپ
قۇيۇن
قۇيۇپ
قۇچا
قۇچاق
قۇچاقلاپ
قۇچاقلىشىپ
قۇچقان
قۇچۇ
قۇچۇپ
قۇۋۇز
قۇۋۇق
قۇۋۇقنىڭ
قۇۋۋىتى
قۇۋۋىتىنى
قۇۋۋەت
قۇۋۋەتكە
قۇۋۋەتلىشى
قۇۋۋەتلىگۈچى
قۇۋۋەتلەش
قېتىرقىنىپ
قېتىش
قېتىق
قېتىلدى
قېتىلغان
قېتىم
قېتىمدا
قېتىمدىلا
قېتىمدىن
قېتىمغا
قېتىمقى
قېتىملا
قېتىملاپ
قېتىملىق
قېتىممۇ
قېتىپ
قېرى
قېرىغاندا
قېرىلىق
قېرىن
قېرىنداش
قېرىنداشلار
قېرىنداشلاردىن
قېرىنداشلارغا
قېرىنداشلارنى
قېرىنداشلارنىڭ
قېرىنداشلىرى
قېرىنداشلىرىمىز
قېرىنداشلىرىمىزنى
قېرىنداشلىرىمىزنىڭ
قېرىنداشلىرىنى
قېرىنداشلىق
قېرىنداشلىقى
قېرىندىشى
قېرىندىشىم
قېرىندىشىمىز
قېرىندىشىمىزنىڭ
قېرىپ
قېزىش
قېزىلغان
قېزىلما
قېزىپ
قېزىۋېلىنغان
قېشىدا
قېشىغا
قېشىمغا
قېقى
قېقىش
قېقىپ
قېلىش
قېلىشتا
قېلىشتىن
قېلىشقا
قېلىشمايدۇ
قېلىشنى
قېلىشنىڭ
قېلىشى
قېلىشىدا
قېلىشىدىن
قېلىشىغا
قېلىشىنى
قېلىشىنىڭ
قېلىشىچە
قېلىن
قېلىندى
قېلىنراق
قېلىنغان
قېلىنلىقتا
قېلىنلىقى
قېلىنىدۇ
قېلىپ
قېلىپقا
قېلىپلاشتۇرۇش
قېلىپلاشتۇرۇپ
قېلىپلاشقان
قېلىپلىردىن
قېلىپلىشىپ
قېلىپى
قېلىچ
قېلىۋاتقان
قېلىۋاتىدۇ
قېلىۋاتىمىز
قېنى
قېنىدا
قېنىغا
قېنىق
قېنىنى
قېيت
قېيىر
قېيىش
قېيىن
قېيىپ
قېيۇم
قېپقالغان
قېپى
قېچىش
قېچىشقا
قېچىپ
قەبرىدىن
قەبرىستانلىق
قەبرىستانلىقتا
قەبرىستانلىقتىن
قەبرىستانلىققا
قەبرىستانلىقنى
قەبرىستانلىقنىڭ
قەبرىستانلىقى
قەبرىستانلىقىغا
قەبرىسى
قەبرىسىنى
قەبرىسىنىڭ
قەبرىلەر
قەبرىلەرنى
قەبرىنى
قەبرىنىڭ
قەبرىگە
قەبرە
قەبىلىدىن
قەبىلىسى
قەبىلىسىدىن
قەبىلىسىنىڭ
قەبىلىسىگە
قەبىلىلىرى
قەبىلىلىرىدىن
قەبىلىلىرىنى
قەبىلىلىرىنىڭ
قەبىلىلېرى
قەبىلىلېرىنىڭ
قەبىلىلەر
قەبىلىلەردىن
قەبىلىلەرنى
قەبىلىلەرنىڭ
قەبىلىنىڭ
قەبىلىگە
قەبىلە
قەبىھ
قەبۇل
قەتل
قەتلى
قەتلىي
قەتىل
قەتي
قەد
قەددىنى
قەدرى
قەدرىنى
قەدىر
قەدىرلىك
قەدىرلەش
قەدىرلەپ
قەدىم
قەدىمدىن
قەدىمدە
قەدىمقى
قەدىمكى
قەدىمى
قەدىمىنى
قەدىمىي
قەدەر
قەدەم
قەدەمدە
قەدەملىك
قەدەملەر
قەدەممۇ
قەدەمنى
قەدەھ
قەرت
قەرز
قەرزدار
قەرزدارنىڭ
قەرزنى
قەرزى
قەرزىنى
قەرزگە
قەرنە
قەرەداۋىي
قەرەلسىز
قەرەللىك
قەرەلى
قەرەلىدە
قەززافى
قەست
قەستكە
قەستلەپ
قەستەن
قەسىدىلەر
قەسىدە
قەسەس
قەسەم
قەسەمكى
قەشقىرى
قەشقىرىنىڭ
قەشقىرىي
قەشقەر
قەشقەردىكى
قەشقەردىن
قەشقەردە
قەشقەرلىق
قەشقەرلىك
قەشقەرنى
قەشقەرنىڭ
قەشقەرى
قەشقەرىنىڭ
قەشقەرىيە
قەشقەرگە
قەغىزى
قەغىزىنى
قەغەز
قەغەزنى
قەغەزچىلىك
قەغەزگە
قەلب
قەلبنى
قەلبنىڭ
قەلبى
قەلبىدىكى
قەلبىدىن
قەلبىدە
قەلبىم
قەلبىمدە
قەلبىنى
قەلبىنىڭ
قەلبىڭ
قەلبىگە
قەلىمى
قەلىمىگە
قەلي
قەلەم
قەلەمدە
قەلەمكەشلەر
قەلەمنى
قەلەمپۇر
قەلەمچە
قەلەمگە
قەلەندەر
قەلەي
قەمبەر
قەمبەرنىسا
قەنت
قەيت
قەيتلەرگە
قەيس
قەيسەر
قەيسەرلىك
قەيسەرى
قەيـسەر
قەيىت
قەييۇم
قەيەردىن
قەيەردە
قەيەرگە
قەپەس
قەھرىتان
قەھرىمان
قەھرىمانلار
قەھرىمانلارغا
قەھرىمانلىق
قەھرىماننىڭ
قەھرىمانى
قەھۋە
قەھۋەدۇر
قەھۋەسى
قەھۋەنى
قەۋم
قەۋملەر
قەۋمنى
قەۋمنىڭ
قەۋمى
قەۋمىم
قەۋمىنى
قەۋمىنىڭ
قەۋمىگە
قەۋمگە
قەۋىتى
قەۋىتىگە
قەۋىم
قەۋىملەر
قەۋەت
قەۋەتتىكى
قەۋەتتىن
قەۋەتتە
قەۋەتكە
قەۋەتلىك
ك
كابىل
كابىلى
كابۇل
كات
كاتالان
كاتتا
كاتتىسى
كاتتىلىرى
كاتو
كاتولىك
كاتىبات
كاتىبى
كاتىپ
كاتىپى
كاتيۇشا
كاتېگورىيىدىكى
كاتېگورىيىسى
كاتېگورىيىسىگە
كاتېگورىيە
كاج
كاجول
كادىر
كادىرلار
كادىرلارنى
كادىرلىرى
كادىرى
كار
كاراخىلو
كارامىتىنى
كارامەت
كارانتىن
كاربون
كارتا
كارتون
كارتىسى
كارتىنىسى
كارخانا
كارخانىدىن
كارخانىسى
كارخانىسىنىڭ
كارخانىغا
كارخانىلار
كارخانىلاردىن
كارخانىلارغا
كارخانىلارنى
كارخانىلارنىڭ
كارخانىلىرى
كارخانىلىرىنى
كارخانىلىرىنىڭ
كارخانىنى
كارخانىنىڭ
كارخانىچى
كارخانىچىلار
كارخانىچىلارنىڭ
كارغا
كارل
كارلوس
كارنىگى
كارى
كارىب
كارىدورى
كارىز
كارىۋات
كارۋات
كارۋان
كارۋانلار
كارۋانلىرى
كارۋاننىڭ
كازىم
كاسا
كاسكا
كاسىنا
كاسىنىچى
كاسىنە
كاسىپ
كاسىپلار
كاسپى
كاسپىي
كاشغەر
كاشغەرى
كاشغەرىي
كاشغەرىينىڭ
كاشكى
كاشىغەر
كاشىغەرى
كاشىغەرىي
كاشىلا
كافكا
كافكانىڭ
كافۇر
كافۇرنى
كاككۇك
كالا
كالام
كالتسىي
كالتىسى
كالتىكى
كالتە
كالتەك
كالتەكنى
كالفورنىيە
كاللا
كاللامدا
كاللىسى
كاللىسىدا
كاللىسىغا
كاللىسىنى
كالى
كالىسى
كالىفورنىيە
كالىفورنىيەدىكى
كالىفورنىيەنىڭ
كالىفورنىيەگە
كالىندار
كالىندارى
كالىنى
كالىنىڭ
كالپۇك
كالگارى
كالېندار
كالېندارى
كام
كامال
كامالنىڭ
كامالوف
كامالەت
كامالەتكە
كامبرىج
كامبودژا
كامبىرىج
كامىل
كامپو
كان
كانادا
كانادادا
كانادادىكى
كانادانىڭ
كاناي
كانت
كاندىدات
كانزاس
كانى
كانچىلىق
كاي
كاپ
كاپالىتى
كاپالەت
كاپالەتكە
كاپالەتلصك
كاپالەتلىك
كاپالەتلەندۈرىدۇ
كاپالەتلەندۈرۈش
كاپور
كاپىتال
كاپىتالنىڭ
كاپىتالى
كاپىتالىزم
كاپىتالىزىم
كاپىتالىزىمنىڭ
كاپىتالىستلار
كاپىتالىستلارنىڭ
كاپىتالىستىك
كاپىتالىنى
كاپىتان
كاپىر
كاپىرلار
كاپىرلارغا
كاپۇچىنو
كاڭ
كاڭشى
كاڭشىنىڭ
كاھىش
كاۋا
كاۋاس
كاۋاك
كاۋاپ
كاۋاپدانغا
كاۋاپنى
كاۋاپنىڭ
كاۋاۋىچىن
كاۋكاز
كاۋىنى
كاۋىنىڭ
كاۋىپى
كبر
كت
كتاب
كثر
كراخمال
كرودىيە
كروران
كرىل
كرېدىت
كرېست
كرېمىل
كـ
كـىيىنكى
ككى
كل
كلاسسىك
كلومېتر
كلون
كلوگرام
كم
كما
كود
كودلاش
كودنى
كودى
كودىنىڭ
كور
كورتادو
كورد
كوردىنات
كوردچە
كورلا
كورلىدا
كورلىنىڭ
كورونا
كورىيە
كورىيەدىكى
كورىيەدە
كورىيەلىك
كورىيەلىكلەر
كورىيەنىڭ
كورىيەچە
كورىيەگە
كورپۇس
كورپۇسنىڭ
كورېيە
كوز
كوزا
كوستارىكا
كوسوۋو
كوسوۋونىڭ
كوكوس
كولاپ
كوللىكتىپ
كوللېكتىپ
كوللېكتىپنىڭ
كوللېگىيە
كولومبىيە
كولىنىدۇ
كولۇمبو
كولۇمبىيە
كوماراجىۋا
كوماندا
كوماندىر
كوماندىرى
كوماندىسى
كوماندىسىدا
كوماندىسىغا
كوماندىسىنىڭ
كوماندىغا
كوماندىنىڭ
كوممۇنىزم
كوممۇنىزىم
كوممۇنىست
كوممۇنىستلار
كوممۇنىستىك
كومىتىتى
كومىتىتىنىڭ
كومىتېت
كومىتېتلار
كومىتېتلىرى
كومىتېتلىرىنىڭ
كومىتېتنىڭ
كومىتېتى
كومىتېتىدا
كومىتېتىغا
كومىتېتىنى
كومىتېتىنىڭ
كومىدىيىسى
كومىدىيە
كومىسارى
كومىسسارى
كومپارتىيىسى
كومپارتىيىسىنىڭ
كومپارتىيىنىڭ
كومپارتىيە
كومپارتىيەسى
كومپارتىيەسىنىڭ
كومپارتىيەسىگە
كومپاس
كومپلېكىس
كومپوزىتور
كومپىيوتىر
كومپىيوتىردا
كومپىيوتىرنىڭ
كومپىيوتېر
كومپىيۇتېر
كومپىيۇتېرنىڭ
كومپيوتېر
كومپيۇتېر
كومپيۇتېردا
كومپيۇتېردىن
كومپيۇتېرغا
كومپيۇتېرلار
كومپيۇتېرنىڭ
كومۇنىستىك
كومېتا
كومېتىتى
كون
كونا
كوناشەھەر
كونترول
كونتروللاش
كونتروللىقىدىكى
كونتروللۇق
كونتروللۇقى
كونتروللۇقىدىكى
كونتروللۇقىنى
كونترولى
كونتىرول
كونتىرۇل
كوندېنساتور
كوندېنساتورنىڭ
كونستانتىنوپول
كونسۇلخانا
كونسۇلى
كونسېرت
كونكرېت
كونكىرىت
كونكېرت
كونىراپ
كونىشەھەر
كونيا
كونگو
كونۇسسىمان
كونۇپكا
كوي
كويىدا
كويىغا
كوپ
كوپىراتىپى
كوچا
كوچىدا
كوچىدىكى
كوچىسى
كوچىسىدا
كوچىسىدىكى
كوچىسىنى
كوچىغا
كوچىلار
كوچىلاردا
كوچىلارغا
كوچىلىرى
كوچىلىرىدا
كوچىنىڭ
كوۋىد
كوۋېي
كوۋەي
كى
كىت
كىتاب
كىتابتا
كىتابتىكى
كىتابتىن
كىتابتۇر
كىتابخانا
كىتابخانلار
كىتابخانلارنىڭ
كىتابخانىسىنىڭ
كىتابقا
كىتابلار
كىتابلاردا
كىتابلاردىكى
كىتابلاردىن
كىتابلارغا
كىتابلارمۇ
كىتابلارنى
كىتابلارنىڭ
كىتابلىرى
كىتابلىرىدا
كىتابلىرىدىن
كىتابلىرىغا
كىتابلىرىنى
كىتابلىرىنىڭ
كىتابنى
كىتابنىڭ
كىتابى
كىتابىدا
كىتابىدىكى
كىتابىدىن
كىتابىغا
كىتابىنى
كىتابىنىڭ
كىتابۇل
كىتاپ
كىتاپتا
كىتاپتىن
كىتاپقا
كىتاپلار
كىتاپلاردا
كىتاپلارنى
كىتاپلىرى
كىتاپلىرىنى
كىتاپنى
كىتاپنىڭ
كىتىدىغان
كىتىدۇ
كىتىش
كىتىشكە
كىتىشى
كىتىپ
كىتىپتۇ
كىتىۋاتقان
كىر
كىرا
كىردى
كىردىم
كىرزىس
كىرسە
كىرمىگەن
كىرمەكچى
كىرمەي
كىرمەيدىغان
كىرمەيدۇ
كىرودىيە
كىرورەن
كىرونا
كىرىدىغان
كىرىدىغانلىقىنى
كىرىدۇ
كىرىزىس
كىرىست
كىرىستال
كىرىش
كىرىشتى
كىرىشتىن
كىرىشتۈرۈلدى
كىرىشتۈرۈلگەن
كىرىشتۈرۈپ
كىرىشتە
كىرىشكە
كىرىشكەن
كىرىشنى
كىرىشى
كىرىشىدۇ
كىرىشىپ
كىرىشىگە
كىرىل
كىرىم
كىرىمنى
كىرىمى
كىرىمىنى
كىرىمىنىڭ
كىرىمگە
كىرىپ
كىرىپتۇ
كىرىۋېلىپ
كىري
كىرپە
كىرگۇزۇش
كىرگۈزدى
كىرگۈزسە
كىرگۈزىدۇ
كىرگۈزگۈچ
كىرگۈزگەن
كىرگۈزۈش
كىرگۈزۈشكە
كىرگۈزۈشنى
كىرگۈزۈشى
كىرگۈزۈلدى
كىرگۈزۈلىدۇ
كىرگۈزۈلگەن
كىرگۈزۈلۈپ
كىرگۈزۈپ
كىرگەن
كىرگەندىن
كىرگەندە
كىرگەنلىكى
كىرگەنلىكىنى
كىرەش
كىرەك
كىرەككى
كىرەكلىك
كىرەكلىكىنى
كىرەلەيدىغان
كىرەلەيدۇ
كىرەي
كىسلاتا
كىسلاتاسى
كىسلاتالىق
كىسىل
كىسىلى
كىسىپ
كىسەل
كىسەللىك
كىسەللىكلەر
كىشلىك
كىشلەر
كىشلەردىن
كىشلەرنى
كىشلەرنىڭ
كىشلەرگە
كىشمىش
كىشنىڭ
كىشى
كىشىدىن
كىشىدۇر
كىشىدە
كىشىلىرى
كىشىلىرىدىن
كىشىلىرىمىز
كىشىلىرىمىزنىڭ
كىشىلىرىنى
كىشىلىرىنىڭ
كىشىلىك
كىشىلەر
كىشىلەردىكى
كىشىلەردىن
كىشىلەردۇر
كىشىلەردە
كىشىلەرلا
كىشىلەرمۇ
كىشىلەرنى
كىشىلەرنىڭ
كىشىلەرگە
كىشىمۇ
كىشىنى
كىشىنىڭ
كىشىگە
كىلاسسىك
كىلو
كىلومىتىر
كىلومېتر
كىلومېتىر
كىلومېتىردىن
كىلومېتىرغا
كىلومېتىرلىق
كىلومەتىر
كىلومەتەر
كىلون
كىلوگرام
كىلوگرامدىن
كىلوگرامغا
كىلوگرامغىچە
كىلوگىرام
كىلوۋات
كىلىدىغان
كىلىدۇ
كىلىش
كىلىشكە
كىلىشى
كىلىشىمى
كىلىمات
كىلىماتقا
كىلىماتى
كىلىماتىغا
كىلىماتىنىڭ
كىلىياڭ
كىلىپ
كىلىۋاتقان
كىلىۋاتىدۇ
كىلەتتى
كىلەلمىگەن
كىم
كىمخاپ
كىمدىن
كىمدە
كىمكى
كىملىك
كىملىككە
كىملىكنى
كىملىكنىڭ
كىملىكى
كىملىكىدىكى
كىملىكىنى
كىملىكىنىڭ
كىملىكىگە
كىملەر
كىملەرنىڭ
كىملەرگە
كىمنى
كىمنىڭ
كىمي
كىمگە
كىنايىلىك
كىنايە
كىندىك
كىندىكى
كىنو
كىنوخانا
كىنودا
كىنوسى
كىنولاردا
كىنولارنى
كىنونى
كىنونىڭ
كىنوچىلىق
كىنوچىلىقى
كىنىشكىسى
كىنىشكىسىنى
كىنگىت
كىنۇ
كىي
كىيانو
كىيدى
كىيدۈرۈپ
كىين
كىينكى
كىيىدىغان
كىيىش
كىيىك
كىيىم
كىيىملىرى
كىيىملىرىنى
كىيىملىك
كىيىملەرنى
كىيىمنى
كىيىمنىڭ
كىيىمى
كىيىمىنى
كىيىن
كىيىنكى
كىيىنمۇ
كىيىنىش
كىيىنىپ
كىيىنچە
كىيىپ
كىيگەن
كىچىك
كىچىكرەك
كىچىككىنە
كىچىكلىكى
كىچىكلىكىگە
كىچىكلەيدۇ
كىچىكلەپ
كىچىكى
كىچىكىدىن
كىچىكىدىنلا
كىچىكىدە
كىچىكىمدىن
كىچىكىمدە
كىچىگىدىن
كىچە
كىچەك
كىڭ
كىڭەش
كىگىز
كىۋادرات
كىۋادىرات
كيوتو
كيۇرى
كۆتىرىپ
كۆتۈردى
كۆتۈرىدىغان
كۆتۈرىدۇ
كۆتۈرگەن
كۆتۈرۈش
كۆتۈرۈشتە
كۆتۈرۈشكە
كۆتۈرۈلدى
كۆتۈرۈلىدۇ
كۆتۈرۈلگەن
كۆتۈرۈلگەندە
كۆتۈرۈلۈشى
كۆتۈرۈلۈپ
كۆتۈرۈپ
كۆتەردى
كۆتەرگەن
كۆتەك
كۆجە
كۆر
كۆردى
كۆردۇق
كۆردۈم
كۆرستىدۇ
كۆرسىتىدىغان
كۆرسىتىدىغانلىقىنى
كۆرسىتىدۇ
كۆرسىتىش
كۆرسىتىشكە
كۆرسىتىشنى
كۆرسىتىشى
كۆرسىتىشىچە
كۆرسىتىلدى
كۆرسىتىلىدۇ
كۆرسىتىلىشىچە
كۆرسىتىلگەن
كۆرسىتىلگەندەك
كۆرسىتىپ
كۆرسىتىۋاتقان
كۆرسىتەتتى
كۆرسىتەلمەيدۇ
كۆرسىتەلەيدىغان
كۆرسىتەلەيدۇ
كۆرسىتەلەيسىز
كۆرسىڭىز
كۆرسۈتۈپ
كۆرسە
كۆرسەتتى
كۆرسەتسە
كۆرسەتكۈچ
كۆرسەتكۈچى
كۆرسەتكۈچىنى
كۆرسەتكەن
كۆرسەتكەندىن
كۆرسەتمىسى
كۆرسەتمە
كۆرسەتمەكتە
كۆرسەتمەيدۇ
كۆرسەك
كۆرسەم
كۆرصدۇ
كۆركى
كۆركەم
كۆرمىدىم
كۆرمىگەن
كۆرمەسلىك
كۆرمەك
كۆرمەي
كۆرمەيدىغان
كۆرمەيدۇ
كۆرنەرلىك
كۆرىدىغان
كۆرىدۇ
كۆرىسىز
كۆرىسەن
كۆرىشى
كۆرىكىدە
كۆرىلىدۇ
كۆرىمىز
كۆرىمەن
كۆرىنىدۇ
كۆرىنىشى
كۆرىنەرلىك
كۆرىۋالغىلى
كۆرىۋىلىشقا
كۆرپە
كۆرگىلى
كۆرگىنىدە
كۆرگىنىمدە
كۆرگۈچ
كۆرگەزمىسى
كۆرگەزمىسىدە
كۆرگەزمىسىگە
كۆرگەزمىگە
كۆرگەزمە
كۆرگەن
كۆرگەندىن
كۆرگەندە
كۆرگەندەك
كۆرگەنلەر
كۆرۇش
كۆرۈدىغان
كۆرۈرمەن
كۆرۈرمەنلەرنىڭ
كۆرۈش
كۆرۈشتى
كۆرۈشتىن
كۆرۈشتۈم
كۆرۈشكە
كۆرۈشكەن
كۆرۈشكەندە
كۆرۈشنى
كۆرۈشى
كۆرۈشىدۇ
كۆرۈشىگە
كۆرۈشۈش
كۆرۈشۈشكە
كۆرۈشۈپ
كۆرۈلدى
كۆرۈلسە
كۆرۈلمىگەن
كۆرۈلمەكتە
كۆرۈلمەيدۇ
كۆرۈلىدىغان
كۆرۈلىدۇ
كۆرۈلگەن
كۆرۈلگەندىن
كۆرۈلگەندە
كۆرۈلۈش
كۆرۈلۈشكە
كۆرۈلۈپ
كۆرۈمسىز
كۆرۈندى
كۆرۈنسىمۇ
كۆرۈنمە
كۆرۈنمەس
كۆرۈنمەيدىغان
كۆرۈنمەيدۇ
كۆرۈنىدىغان
كۆرۈنىدۇ
كۆرۈنىشى
كۆرۈنچ
كۆرۈنگىنى
كۆرۈنگەن
كۆرۈنۈش
كۆرۈنۈشتە
كۆرۈنۈشكە
كۆرۈنۈشلىرى
كۆرۈنۈشلەر
كۆرۈنۈشلەرنى
كۆرۈنۈشنى
كۆرۈنۈشى
كۆرۈنۈشىنى
كۆرۈنۈپ
كۆرۈنەتتى
كۆرۈنەرلىك
كۆرۈپ
كۆرۈپتۇ
كۆرۈپلا
كۆرۈڭ
كۆرۈۋاتقان
كۆرۈۋالالايمىز
كۆرۈۋالغىلى
كۆرۈۋېلىش
كۆرۈۋېلىشقا
كۆرە
كۆرەتتى
كۆرەش
كۆرەلمەسلىك
كۆرەلمەي
كۆرەلمەيدىغان
كۆرەلمەيدۇ
كۆرەلەيدىغان
كۆرەلەيدۇ
كۆرەلەيسىز
كۆرەلەيمىز
كۆز
كۆزدىن
كۆزدە
كۆزقاراش
كۆزلىرى
كۆزلىرىدىن
كۆزلىرىم
كۆزلىرىنى
كۆزلىرىگە
كۆزلىگەن
كۆزلۈك
كۆزلەر
كۆزلەرنى
كۆزلەپ
كۆزنى
كۆزنىكى
كۆزنىڭ
كۆزنەك
كۆزى
كۆزىتىش
كۆزىتىشكە
كۆزىتىشى
كۆزىتىپ
كۆزىدىن
كۆزىمىزگە
كۆزىنى
كۆزىگە
كۆزگە
كۆزۈم
كۆزۈمگە
كۆزۈڭنى
كۆزەتكىلى
كۆزەتكەن
كۆزەتكەندە
كۆسەن
كۆك
كۆكتات
كۆكتاغ
كۆكتوقاي
كۆكتۈرك
كۆكتە
كۆكرەك
كۆكسى
كۆككە
كۆكنى
كۆكنۇر
كۆكى
كۆكىرىپ
كۆكيار
كۆكچى
كۆكەرتىش
كۆل
كۆلتىكىن
كۆلدىن
كۆلدە
كۆللەر
كۆللەردە
كۆللەرنىڭ
كۆلنىڭ
كۆلى
كۆلىمى
كۆلىمىنى
كۆلىمىنىڭ
كۆلىنىڭ
كۆلىگە
كۆلگە
كۆلۈمى
كۆلەم
كۆلەمدىكى
كۆلەمدە
كۆلەملىك
كۆلەمگە
كۆلەڭگە
كۆممىقوناق
كۆممە
كۆمىچى
كۆمۈر
كۆمۈرچىلىك
كۆمۈش
كۆمۈلگەن
كۆمۈلۈپ
كۆمۈپ
كۆمەچ
كۆن
كۆندۈرۈش
كۆندۈرۈلگەن
كۆندۈرۈپ
كۆنچى
كۆنگەن
كۆنۈپ
كۆنەك
كۆيدۈرگەن
كۆيدۈرۈش
كۆيدۈرۈلگەن
كۆيدۈرۈپ
كۆينەك
كۆيگەن
كۆيۈك
كۆيۈمچان
كۆيۈنۈش
كۆيۈپ
كۆپ
كۆپتۇر
كۆپتۈرۈپ
كۆپرۈلۈ
كۆپرۈلۈنىڭ
كۆپرەك
كۆپرەكى
كۆپرەكىنى
كۆپرەكىنىڭ
كۆپرەكىگە
كۆپلىكى
كۆپلىگەن
كۆپلۈك
كۆپلۈكى
كۆپلۈكىگە
كۆپلەپ
كۆپى
كۆپىنچىسى
كۆپىنچىسىدە
كۆپىنچىسىنى
كۆپىنچىسىنىڭ
كۆپىنچە
كۆپىيىدۇ
كۆپىيىش
كۆپىيىشكە
كۆپىيىشى
كۆپىيىشىگە
كۆپىيىپ
كۆپىيىۋاتقان
كۆپچىلىك
كۆپچىلىككە
كۆپچىلىكنىڭ
كۆپچىلىكى
كۆپۈك
كۆپۈنچىسى
كۆپۈنچە
كۆپۈيۈش
كۆپۈپ
كۆپەيتىدۇ
كۆپەيتىش
كۆپەيتىشكە
كۆپەيتىلگەن
كۆپەيتىپ
كۆپەيدى
كۆپەيمەكتە
كۆپەيگەن
كۆچ
كۆچتى
كۆچكەن
كۆچكەندىن
كۆچكەندە
كۆچمە
كۆچمەس
كۆچمەن
كۆچمەنلىرى
كۆچمەنلىك
كۆچمەنلەر
كۆچمەنلەرنى
كۆچمەنلەرنىڭ
كۆچمەنلەرگە
كۆچىدۇ
كۆچۈردى
كۆچۈرمە
كۆچۈرگەن
كۆچۈرۈش
كۆچۈرۈلدى
كۆچۈرۈلگەن
كۆچۈرۈلۈپ
كۆچۈرۈپ
كۆچۈش
كۆچۈشكە
كۆچۈشى
كۆچۈپ
كۆچەت
كۆڭلى
كۆڭلىدىن
كۆڭلىدە
كۆڭلىنى
كۆڭلىنىڭ
كۆڭلىڭىز
كۆڭلىڭىزدىكى
كۆڭلىڭىزدە
كۆڭلىڭىزنى
كۆڭلىڭىزگە
كۆڭلىگە
كۆڭلۈم
كۆڭلۈمدىن
كۆڭلۈمدە
كۆڭلەك
كۆڭۇل
كۆڭۈل
كۆڭۈلدىكى
كۆڭۈلدىكىدەك
كۆڭۈلدە
كۆڭۈللۈك
كۆڭۈلنى
كۆڭۈلنىڭ
كۆڭۈلگە
كۆھنە
كۆۋادىرات
كۆۋرۈك
كۆۋرۈكلۈك
كۆۋرۈكى
كۇب
كۇبا
كۇبرا
كۇتۇبى
كۇتۇبۇ
كۇتۇپخانا
كۇتۇپخانىدا
كۇتۇپخانىسى
كۇتۇپخانىسىدا
كۇتۇپخانىسىنىڭ
كۇتۇپخانىغا
كۇرد
كۇردلار
كۇرس
كۇرستا
كۇرسنى
كۇرسى
كۇرسىدا
كۇرسىغا
كۇرسىنى
كۇرۇس
كۇسەن
كۇسەننىڭ
كۇفى
كۇفە
كۇل
كۇلسۇم
كۇلۇب
كۇلۇبى
كۇلۇچ
كۇماندسى
كۇمىلاچ
كۇمپارتىيە
كۇن
كۇندە
كۇنى
كۇنۇپكا
كۇي
كۇيا
كۇپ
كۇپايە
كۇچ
كۇچا
كۇچادا
كۇچادىكى
كۇچار
كۇچاغا
كۇچالىق
كۇچانىڭ
كۇچلۇك
كۇچى
كۇڭزى
كۇۋادرات
كۇۋادىرات
كۇۋەيت
كۈتكەن
كۈتىدۇ
كۈتۈرۈپ
كۈتۈش
كۈتۈلمىگەن
كۈتۈپ
كۈتۈپخانا
كۈتۈپخانىسى
كۈتۈپخانىسىدا
كۈتۈۋالىدۇ
كۈتۈۋېلىش
كۈدە
كۈرىشى
كۈرىشىدە
كۈرىشىنى
كۈرىشىگە
كۈرۈش
كۈرۈپ
كۈرە
كۈرەش
كۈرەشتە
كۈرەشكە
كۈرەشلىرى
كۈرەشنى
كۈرەشنىڭ
كۈرەشچان
كۈرەشچى
كۈز
كۈزدە
كۈزلۈك
كۈزىتىدۇ
كۈزىتىش
كۈزۈتۈش
كۈسەن
كۈل
كۈلتۈر
كۈلتۈرلەر
كۈلتۈرنىڭ
كۈلتۈرى
كۈلتۈرىنى
كۈلتۈرەل
كۈلدى
كۈلرەڭ
كۈلكىلىك
كۈلكە
كۈلى
كۈلپەت
كۈلۈمى
كۈلۈپ
كۈمۈش
كۈن
كۈنتەرتىپ
كۈنتەرتىپكە
كۈنجۈت
كۈندىكى
كۈندىلىك
كۈندىمۇ
كۈندىن
كۈندۇر
كۈندۈز
كۈندۈزنى
كۈندۈزنىڭ
كۈندۈزى
كۈندۈزگە
كۈندە
كۈندەك
كۈنسايىن
كۈنسىرى
كۈنسېرى
كۈنلىرى
كۈنلىرىدە
كۈنلىرىنى
كۈنلىرىنىڭ
كۈنلۈك
كۈنلۈكى
كۈنلەر
كۈنلەردىن
كۈنلەردە
كۈنلەرنى
كۈنلەرنىڭ
كۈنلەرگە
كۈنلەپ
كۈنمۇ
كۈننى
كۈننىڭ
كۈنى
كۈنىدىكى
كۈنىدىن
كۈنىدۇر
كۈنىدە
كۈنىمىز
كۈنىمىزدىكى
كۈنىمىزدە
كۈنىمىزگىچە
كۈنىنى
كۈنىنىڭ
كۈنىگىچە
كۈنىگە
كۈنپېتىش
كۈنچىقىش
كۈنگىچە
كۈنگە
كۈنەس
كۈنەك
كۈي
كۈيباغ
كۈيتۇن
كۈيتۈن
كۈيى
كۈيي
كۈپ
كۈچ
كۈچتىن
كۈچتۇر
كۈچسىز
كۈچكە
كۈچلىرى
كۈچلىرىنى
كۈچلىرىنىڭ
كۈچلىرىگە
كۈچلۇك
كۈچلۈك
كۈچلۈكرەك
كۈچلۈكلىكى
كۈچلۈكلۈك
كۈچلۈكلەر
كۈچلەر
كۈچلەرنى
كۈچلەرنىڭ
كۈچلەرگە
كۈچلەندۈرۈش
كۈچنى
كۈچنىڭ
كۈچى
كۈچىدىن
كۈچىمىز
كۈچىمىزنى
كۈچىنى
كۈچىنىڭ
كۈچىيىدۇ
كۈچىيىشى
كۈچىيىشىگە
كۈچىيىپ
كۈچىيىۋاتقان
كۈچىڭىز
كۈچىڭىزنى
كۈچىگە
كۈچۈك
كۈچۈكى
كۈچۈپ
كۈچەيتتى
كۈچەيتكەن
كۈچەيتىدۇ
كۈچەيتىش
كۈچەيتىشكە
كۈچەيتىشى
كۈچەيتىلدى
كۈچەيتىپ
كۈچەيدى
كۈچەيگەن
كۈچەپ
كۈڭۈل
كۋادرات
كۋادىرات
كۋادىرانتقا
كۋارتس
كېتىدىغان
كېتىدىغاندەك
كېتىدىغانلىقىنى
كېتىدىكەن
كېتىدۇ
كېتىسىز
كېتىش
كېتىشتى
كېتىشتىن
كېتىشكە
كېتىشنى
كېتىشنىڭ
كېتىشى
كېتىشىدىن
كېتىشىنى
كېتىشىنىڭ
كېتىشىگە
كېتىلگەن
كېتىمىز
كېتىمەن
كېتىپ
كېتىپتۇ
كېتىڭ
كېتىۋاتقان
كېتىۋاتقاندا
كېتىۋاتقانلىقىنى
كېتىۋاتىدۇ
كېتىۋېتىپ
كېتەتتى
كېتەر
كېتەلەيدۇ
كېتەي
كېرىكى
كېرىم
كېرىيە
كېرىپ
كېرەك
كېرەكسىز
كېرەككى
كېرەكلىك
كېرەكلىكى
كېرەكلىكىنى
كېرەكمۇ
كېرەم
كېزىك
كېزىپ
كېسلى
كېسىدىغان
كېسىش
كېسىشكەن
كېسىشىش
كېسىل
كېسىلى
كېسىلىدۇ
كېسىلىنى
كېسىلىنىڭ
كېسىلىپ
كېسىلىگە
كېسىلگەن
كېسىم
كېسىمدە
كېسىمىگە
كېسىمگە
كېسىپ
كېسەك
كېسەل
كېسەلدىن
كېسەللىك
كېسەللىككە
كېسەللىكلىرى
كېسەللىكلىرىنىڭ
كېسەللىكلىرىگە
كېسەللىكلەر
كېسەللىكلەرنى
كېسەللىكلەرنىڭ
كېسەللىكلەرگە
كېسەللىكنى
كېسەللىكنىڭ
كېسەللىكى
كېسەللەر
كېسەللەرنى
كېسەللەرنىڭ
كېسەللەرگە
كېسەلنى
كېسەلنىڭ
كېسەلگە
كېلدىغان
كېلومېتىر
كېلىدىغان
كېلىدىغانلىقى
كېلىدىغانلىقىنى
كېلىدىغىنى
كېلىدىكەن
كېلىدۇ
كېلىش
كېلىشتىن
كېلىشتە
كېلىشكە
كېلىشكەن
كېلىشلەر
كېلىشى
كېلىشىدىن
كېلىشىدە
كېلىشىم
كېلىشىملەر
كېلىشىمنامىسى
كېلىشىمنى
كېلىشىمى
كېلىشىمىنى
كېلىشىمىنىڭ
كېلىشىمىگە
كېلىشىمگە
كېلىشىنى
كېلىشىنىڭ
كېلىشىپ
كېلىشىچە
كېلىشىگە
كېلىمات
كېلىمىز
كېلىمەن
كېلىن
كېلىندى
كېلىنمەكتە
كېلىنىدۇ
كېلىنىپ
كېلىنگەن
كېلىپ
كېلىپتۇ
كېلىپلا
كېلىڭ
كېلىۋاتقان
كېلىۋاتقانلىقىنى
كېلىۋاتىدۇ
كېلىۋاتىمىز
كېلىۋاتىمەن
كېلۇر
كېلەتتى
كېلەر
كېلەلمىگەن
كېلەلمەي
كېلەلمەيدۇ
كېلەلەيدۇ
كېلەچىكى
كېلەچەك
كېلەچەكتە
كېلەچەككە
كېمىر
كېمىسازلىق
كېمىسى
كېمىنىڭ
كېمىيىپ
كېمە
كېمەيتىش
كېن
كېنى
كېنىشكىسى
كېنىيە
كېين
كېينكى
كېينېس
كېينېسنىڭ
كېيىم
كېيىن
كېيىنرەك
كېيىنكى
كېيىنكىسى
كېيىنكىلەر
كېيىنكىلەرگە
كېيىنلا
كېيىنلىك
كېيىنمۇ
كېيىنچە
كېيىپ
كېپىل
كېپىللىك
كېپىللىككە
كېپىنەك
كېپەك
كېچىدىلا
كېچىدۇ
كېچىدە
كېچىسى
كېچىش
كېچىشكە
كېچىك
كېچىكتۈرگەنلىك
كېچىكتۈرۈش
كېچىكتۈرۈپ
كېچىكىپ
كېچىلىرى
كېچىلىك
كېچىلىكى
كېچىلەپ
كېچىنى
كېچىنىڭ
كېچىپ
كېچىچە
كېچە
كېچەك
كېڭىشى
كېڭىشىدە
كېڭىشىش
كېڭىشىنىڭ
كېڭىشىپ
كېڭىشىگە
كېڭىيىدۇ
كېڭىيىش
كېڭىيىشكە
كېڭىيىشى
كېڭىيىشىگە
كېڭىيىپ
كېڭىيىۋاتقان
كېڭەش
كېڭەشمىسى
كېڭەشمە
كېڭەشنىڭ
كېڭەيتتى
كېڭەيتكەن
كېڭەيتىدۇ
كېڭەيتىش
كېڭەيتىشكە
كېڭەيتىلگەن
كېڭەيتىپ
كېڭەيدى
كېڭەيمىچىلىك
كېڭەيگەن
كېگىز
كېۋەز
كە
كەبى
كەبىر
كەبىسە
كەتبۇقا
كەتتى
كەتتىم
كەتتىڭ
كەتتۇق
كەتسىمۇ
كەتسۇن
كەتسە
كەتسەم
كەتكىلى
كەتكىنى
كەتكىنىگە
كەتكۈچە
كەتكەن
كەتكەندىن
كەتكەندە
كەتكەندەك
كەتكەنلىكتىن
كەتكەنلىكى
كەتكەنلىكىدىن
كەتكەنلىكىنى
كەتكەنلەر
كەتكەنىدى
كەتكەنىكەن
كەتكەچكە
كەتمىدى
كەتمىسۇن
كەتمىگەن
كەتمەسلىك
كەتمەسلىكى
كەتمەك
كەتمەكچى
كەتمەن
كەتمەي
كەتمەيدىغان
كەتمەيدىكەن
كەتمەيدۇ
كەتمەيمەن
كەتىرا
كەركىدان
كەرىم
كەرىمدىكى
كەرىمدە
كەرىمنى
كەرىمنىڭ
كەرەملىك
كەرەيلەر
كەرەپشە
كەزگەن
كەس
كەسكىن
كەسكەن
كەسمە
كەسىر
كەسىپ
كەسىپتىكى
كەسىپتىن
كەسىپتە
كەسىپكە
كەسىپلىرى
كەسىپلەر
كەسىپلەردە
كەسىپلەرنى
كەسىپلەرنىڭ
كەسىپلەشكەن
كەسىپنى
كەسىپنىڭ
كەسىپى
كەسپ
كەسپداشلىرىنىڭ
كەسپكە
كەسپى
كەسپىدىن
كەسپىدە
كەسپىم
كەسپىنى
كەسپىنىڭ
كەسپىي
كەسپىگە
كەش
كەشتىلىك
كەشتىلەنگەن
كەشمىر
كەشمىرگە
كەشىپ
كەشپ
كەشپىيات
كەشپىياتى
كەشپىياتچى
كەشپىياتچىلار
كەكلىك
كەكە
كەل
كەلام
كەلتۇرۇش
كەلتۇرۇپ
كەلتۈردى
كەلتۈرمىگەن
كەلتۈرمەكچى
كەلتۈرىدىغان
كەلتۈرىدۇ
كەلتۈرگىلى
كەلتۈرگۈچى
كەلتۈرگەن
كەلتۈرگەندە
كەلتۈرۈش
كەلتۈرۈشتىن
كەلتۈرۈشتە
كەلتۈرۈشكە
كەلتۈرۈشنى
كەلتۈرۈشنىڭ
كەلتۈرۈشى
كەلتۈرۈشىنى
كەلتۈرۈلدى
كەلتۈرۈلىدۇ
كەلتۈرۈلگەن
كەلتۈرۈلگەندىن
كەلتۈرۈلۈپ
كەلتۈرۈپ
كەلتۈرۈڭ
كەلدى
كەلدىم
كەلدىڭ
كەلدۇق
كەلسىلا
كەلسىمۇ
كەلسۇن
كەلسە
كەلسەك
كەلكۈن
كەلمىدى
كەلمىسە
كەلمىگەن
كەلمىگەنلىكى
كەلمەس
كەلمەسلىكى
كەلمەك
كەلمەكتە
كەلمەكچى
كەلمەي
كەلمەيدىغان
كەلمەيدىغانلىقىنى
كەلمەيدىكەن
كەلمەيدۇ
كەلىمىسى
كەلىمىسىدىن
كەلىمىسىنىڭ
كەلىمە
كەلپىن
كەلگىلى
كەلگىنى
كەلگىنىدە
كەلگىنىگە
كەلگىچە
كەلگۈدەك
كەلگۈسى
كەلگۈسىدىكى
كەلگۈسىدە
كەلگۈسىنى
كەلگۈسىنىڭ
كەلگۈسىگە
كەلگۈچە
كەلگەن
كەلگەندىمۇ
كەلگەندىن
كەلگەندۇر
كەلگەندە
كەلگەنلىكى
كەلگەنلىكىدىن
كەلگەنلىكىنى
كەلگەنلىكىنىڭ
كەلگەنلىكىگە
كەلگەنلەر
كەلگەنلەرنى
كەلگەنلەرنىڭ
كەلگەنىدى
كەلگەنگە
كەلگەچكە
كەم
كەمال
كەمالنىڭ
كەمبەغەل
كەمبەغەللەر
كەمتۈك
كەمتەر
كەمتەرلىك
كەمدىن
كەمسىتىدىغان
كەمسىتىش
كەمسىتىشكە
كەمسىتىشنىڭ
كەمسىنىش
كەمسىنىشنىڭ
كەملىكى
كەمىدە
كەمىنە
كەمچىل
كەمچىلىك
كەمچىلىكى
كەمگىچە
كەنت
كەنتتىكى
كەنتكە
كەنتلەر
كەنتلەردە
كەنتنىڭ
كەنتى
كەنتىدىكى
كەنتىدىن
كەنتىدە
كەنتىگە
كەنجى
كەندىر
كەندىرى
كەنىت
كەني
كەي
كەيدۈرۈپ
كەيلانىي
كەينى
كەينىدىكى
كەينىدىن
كەينىدە
كەينىنى
كەينىگە
كەيپىيات
كەيپىياتتا
كەيپىياتقا
كەيپىياتنى
كەيپىياتنىڭ
كەيپىياتى
كەيپىياتىغا
كەيپىياتىنى
كەيگەن
كەپتۇ
كەپتەر
كەپسىز
كەپسەن
كەچ
كەچتى
كەچتە
كەچقۇرۇن
كەچكىچە
كەچكەن
كەچلىرى
كەچلىك
كەچۈردى
كەچۈرمىشلىرى
كەچۈرمىشلىرىنى
كەچۈرمىشى
كەچۈرمەكتە
كەچۈرىدىغان
كەچۈرىدۇ
كەچۈرگىن
كەچۈرگەن
كەچۈرگەندە
كەچۈرۈش
كەچۈرۈشكە
كەچۈرۈم
كەچۈرۈپ
كەچۈرۈۋاتقان
كەڭ
كەڭرى
كەڭرەك
كەڭسۇ
كەڭلىك
كەڭلىكتىكى
كەڭلىكتە
كەڭلىكى
كەھرىۋا
ل
لا
لابن
لاتا
لاتىن
لاتىنچە
لاتۋىيە
لاتەي
لاداق
لار
لاردا
لاردىن
لارغا
لارنى
لارنىڭ
لازا
لازىر
لازىم
لازىمسىز
لازىمكى
لازىملىق
لازىملىقىنى
لازېر
لاسكۇي
لال
لالە
لام
لاما
لامپا
لانكاستېر
لاي
لاياقەتسىز
لاياقەتلىك
لايدىن
لايقا
لايىق
لايىقىدا
لايىھىسى
لايىھىسىنى
لايىھىلىگەن
لايىھىلەش
لايىھىلەنگەن
لايىھىلەپ
لايىھە
لايىھەسى
لايىھەسىنى
لايىھەلەش
لايىھەلەنگەن
لايىھەلەپ
لاپ
لاچىن
لاگاش
لاگىر
لاگىرلارغا
لاگېر
لاگېردا
لاگېرغا
لاگېرلار
لاگېرلاردا
لاگېرلارغا
لاگېرلارنى
لاگېرلىرى
لاگېرلىرىدا
لاگېرلىرىغا
لاگېرلىرىنى
لاگېرلىرىنىڭ
لاگېرى
لاگېرىدا
لاگېرىغا
لاھىيە
لاۋ
لاۋرېنس
لاۋۇلداپ
لباني
لك
للا
لم
له
لو
لوبا
لوتپۇللا
لوتپۇللاھ
لوس
لوغاتىت
لوغەت
لوق
لوقمان
لوك
لوكنىڭ
لولى
لوندون
لوندوندا
لوندوندىكى
لوندۇن
لوي
لوياڭ
لويى
لوپ
لوپنۇر
لوڭ
لوڭقا
لوڭقسى
لوڭقسىدىكى
لوڭقىسى
لوڭقىسىنى
لوڭقىسىنىڭ
لوگىكا
لوگىكىلىق
لى
لىبرا
لىبېرال
لىبېرالىزم
لىبېرالىزمغا
لىبېرالىزىم
لىتىي
لىتىپ
لىتۋا
لىتۋانىيە
لىدىر
لىدىرى
لىدېر
لىراسى
لىرى
لىرىك
لىرىكىسى
لىرىنى
لىق
لىك
لىكسىيە
لىككە
لىكىن
لىم
لىمفا
لىمون
لىن
لىنكولن
لىنىيىسى
لىنىيىسىنى
لىنىيىسىنىڭ
لىنىيە
لىنىيەسى
لىنىيەسىنىڭ
لىنيىسى
لىنۇكس
لىي
لىياۋ
لىيۇ
لىپ
لىپەك
لىۋان
لىۋىيە
لي
لياڭ
لياۋ
لياۋنىڭ
ليۇ
ليۇكسېمبۇرگ
ليەن
لگ
لۆڭگە
لۇ
لۇت
لۇتفى
لۇتفىنىڭ
لۇتىر
لۇتپۇللا
لۇتپۇللانىڭ
لۇتېر
لۇشۈن
لۇشەن
لۇغاتىت
لۇغىتى
لۇغىتىدە
لۇغەت
لۇغەتتىكى
لۇغەتتە
لۇغەتىت
لۇغەتەيىن
لۇق
لۇكاس
لۇم
لۇي
لۇڭبو
لۇڭيەن
لۈكچۈن
لۈچېڭ
لېجى
لېكتور
لېكسىكا
لېكسىكىلىق
لېكسىيە
لېكىن
لېنتىغا
لېنىن
لېنىنىزم
لېنىنگراد
لېي
لېگەن
لېگەنلەرگە
لېگەنگە
لەتىپلىرى
لەتىپىلىرى
لەتىپە
لەختە
لەخمە
لەر
لەردىن
لەردە
لەرزان
لەرزىگە
لەرنى
لەرنىڭ
لەرگە
لەززەت
لەشكىرى
لەشكىرىي
لەشكەر
لەشكەرلىرى
لەشكەرلەر
لەغمەن
لەقىمى
لەقەم
لەقەملىك
لەقەملەر
لەن
لەنجۇ
لەنجۇدا
لەنىتى
لەنەت
لەي
لەيلى
لەيلىسى
لەيلەپ
لەچېي
لەڭمەن
لەڭگەر
لەگلەك
لەھىستان
لەھۇم
لەۋزىدە
لەۋلەشكەن
لەۋلەشمىگەن
لەۋھە
م
ما
مابەينىدە
مات
ماتا
ماتور
ماتورسىز
ماتورلۇق
ماتورى
ماتىرىيال
ماتىرىياللار
ماتىرىياللاردا
ماتىرىياللارنى
ماتىرىياللىرى
ماتىريال
ماتىرياللار
ماتىرياللاردىن
ماتىرياللىرى
ماتىماتىكا
ماتېرىيال
ماتېرىيالغا
ماتېرىياللار
ماتېرىياللاردا
ماتېرىياللاردىن
ماتېرىياللارغا
ماتېرىياللارنى
ماتېرىياللارنىڭ
ماتېرىياللىرى
ماتېرىياللىرىدىن
ماتېرىياللىرىنى
ماتېرىيالنى
ماتېرىيالنىڭ
ماتېرىيالى
ماتېرىيالىغا
ماتېرىيالىنى
ماتېريال
ماتېرياللار
ماتېماتىك
ماتېماتىكا
ماتېماتىكلار
ماتېماتىكىدا
ماتېماتىكىلىق
ماتېماتىكىنى
ماتېماتىكىنىڭ
ماتەم
ماجىرا
ماجىراسى
ماجىرالارنى
ماجۇڭيىڭ
ماجە
ماختاش
ماختاپ
ماختىشىغا
ماخمۇت
ماداغاسقار
ماددا
ماددامىللىي
مادداي
ماددى
ماددىدىن
ماددىسى
ماددىسىدا
ماددىسىدىكى
ماددىسىدىن
ماددىسىنىڭ
ماددىغا
ماددىلار
ماددىلاردا
ماددىلاردىن
ماددىلارغا
ماددىلارنى
ماددىلارنىڭ
ماددىلىرى
ماددىلىرىدا
ماددىلىرىدىكى
ماددىلىرىنى
ماددىلىق
ماددىنى
ماددىنىڭ
ماددىي
ماددە
مادرىد
ماراتخا
ماراكەش
مارالبېشى
ماراپ
مارت
مارتتا
مارتتىن
مارتىن
مارجان
مارس
مارستا
مارش
مارشال
مارشى
مارك
ماركا
ماركس
ماركسىزم
ماركو
ماركىس
ماركىسنىڭ
ماركىسى
ماركىسىزىم
ماركىسىغا
ماركىسىنى
ماركىسىنىڭ
ماركىلىق
ماركىنى
ماركىنىڭ
مارمارا
مارى
مارىنو
مارىي
مارىيا
مارىيە
مازار
مازارنىڭ
مازارى
مازاق
مازىرى
مازىرىنىڭ
ماس
ماسسا
ماسساچۇسېتس
ماسسىسى
ماسسىسىنىڭ
ماسلاشتۇرۇش
ماسلاشتۇرۇپ
ماسلاشقان
ماسلىشىدۇ
ماسلىشىش
ماسلىشىشى
ماسلىشىشچانلىقى
ماسلىشىپ
ماسىك
ماش
ماشىنا
ماشىنسازلىق
ماشىنلىرىنى
ماشىنىدا
ماشىنىسازلىق
ماشىنىسى
ماشىنىسىدىن
ماشىنىسىغا
ماشىنىسىنى
ماشىنىسىنىڭ
ماشىنىغا
ماشىنىلار
ماشىنىلارنىڭ
ماشىنىلاشتۇرۇش
ماشىنىلىرى
ماشىنىلىرىنى
ماشىنىلىرىنىڭ
ماشىنىلىق
ماشىنىنى
ماشىنىنىڭ
ماشۇ
مافۇيۈەن
ماقال
ماقالنى
ماقالىدا
ماقالىدىكى
ماقالىدە
ماقالىسى
ماقالىسىدا
ماقالىسىدە
ماقالىسىنى
ماقالىلار
ماقالىلارنى
ماقالىلىرى
ماقالىلىرىدە
ماقالىلىرىنى
ماقالىلىرىنىڭ
ماقالىلەر
ماقالىلەردىن
ماقالىلەردە
ماقالىلەرنى
ماقالىلەرنىڭ
ماقالىنى
ماقالىنىڭ
ماقالىگە
ماقالە
ماقالەمدە
ماقالەمنى
ماقام
ماقامىغا
ماقۇل
ماقۇللاندى
ماقۇللانغان
ماقۇللاپ
ماقۇللىدى
ماقۇللىغان
ماقۇللىنىپ
ماقۇللۇق
ماقۇللۇقتىن
ماقۇللۇقى
ماقۇللۇقىدىن
ماقۇللۇقىنى
ماكان
ماكاندا
ماكانغا
ماكانلاشقان
ماكانلىرىنى
ماكانى
ماكانىغا
ماكرو
ماكس
ماكسىم
ماكسىۋېل
ماكىس
ماكىي
ماكىياتو
ماكېدونىيە
مال
مالاي
مالايسىيا
مالايسىيادىكى
مالتا
مالدىۋې
مالغا
مالكولم
ماللار
ماللارنى
ماللارنىڭ
ماللىرى
ماللىرىنى
مالنى
مالنىڭ
مالى
مالىك
مالىكنىڭ
مالىكىي
مالىيە
مام
ماماتلىق
مامۇت
مان
مانا
مانات
ماناس
مانتا
مانتىسى
مانتىنى
مانجۇ
مانجۇر
مانجۇلار
مانجۇلارنىڭ
مانجۇچە
ماندا
ماندارىن
ماندىلا
ماندېلا
مانى
مانىي
مانچو
مانچە
مانگان
ماي
مايدا
مايدانى
مايسا
مايكىل
مايكېل
مايلىق
مايلىقدان
مايماق
مايمۇن
مايمۇنلار
ماينى
ماينىڭ
مايور
مايورلۇق
مايىل
مايىللىق
مايىللىقى
مايىللىقىنى
ماچىن
ماڭ
ماڭا
ماڭاتتى
ماڭالايدۇ
ماڭدى
ماڭدىم
ماڭدىڭىز
ماڭدۇرۇش
ماڭدۇرۇپ
ماڭدۇق
ماڭسا
ماڭساق
ماڭسىڭىز
ماڭغان
ماڭغاندا
ماڭغاندىن
ماڭغىلى
ماڭقۇرت
ماڭلاي
ماڭىدىغان
ماڭىدۇ
ماڭىمۇ
ماڭىمەن
ماگما
ماگنىت
ماگنىتلىق
ماگىستىر
ماگىستىرلىق
ماگىستىرلىقتا
ماگىستىرى
ماگىستېر
ماگىستېرلىق
ماگىنىت
ماگىنىتلىق
ماھارىتى
ماھارىتىنى
ماھارىتىگە
ماھارەت
ماھارەتلىرىنى
ماھارەتلىك
ماھى
ماھىر
ماھىرلىرى
ماھىرلىق
ماھىرى
ماھىرە
ماھىنۇر
ماھىيتى
ماھىيىتى
ماھىيىتىنى
ماھىيىتىگە
ماھىيەت
ماھىيەتتە
ماھىيەتلىك
ماۋ
ماۋراي
ماۋرەي
ماۋزۇ
ماۋزۇدا
ماۋزۇسى
ماۋزۇلۇق
ماۋزېدوڭ
ماۋزېدۇڭ
ماۋۇ
ماۋەرا
ماۋەراي
مةدةنىيىتى
مجموعة
محمد
مختصر
مدە
مسند
مع
معجم
مـ
مما
من
مو
موتسىكلىت
مودا
مودىل
مودىن
مودېل
مودېلى
مور
مورا
مورغاپ
مورفولوگىيىلىك
مورفولوگىيە
مورفېما
مورنىڭ
مورى
موزا
موزاي
موزدۇز
موزدۇزلۇق
موسسولىننىڭ
موسكىۋا
موسكۋا
موسكۋادا
موسكۋادىكى
موسكۋادىن
موسكۋاغا
موسكۋانىڭ
موسولمان
موشۇ
موضوع
موغا
موغۇل
موغۇلىستان
موكا
مول
مولتىمىتىر
مولدوۋا
موللا
موللاخۇن
موللاق
موللام
موللۇق
مولېكۇلا
موم
موما
موماي
موماينىڭ
مومكىن
مونوپول
موي
مويۇنچۇر
مويۇنچۈر
موڭغول
موڭغۇل
موڭغۇلكۈرە
موڭغۇللار
موڭغۇللاردىن
موڭغۇللارغا
موڭغۇللارنى
موڭغۇللارنىڭ
موڭغۇللىرىنىڭ
موڭغۇلنىڭ
موڭغۇلىيە
موڭغۇلىيەدىكى
موڭغۇلچە
موگو
موگۇ
موھتاج
موھىت
موھىتتا
موھىتقا
موھىتنىڭ
موھىم
موھىملىقىنى
موھىمى
مىتال
مىتود
مىتىر
مىجىت
مىجەز
مىجەزى
مىجەزىنى
مىخ
مىخانىك
مىخاي
مىدال
مىدالغا
مىدىتسىنا
مىر
مىراب
مىراس
مىراسلارنى
مىراسلىرى
مىراسلىرىغا
مىراسلىرىنى
مىراسى
مىرزا
مىرسۇلتان
مىركامىل
مىري
مىرەخمەتجان
مىرەن
مىزاج
مىزان
مىزانى
مىززىي
مىس
مىسال
مىسالغا
مىساللار
مىساللاردىن
مىساللارنى
مىساللىرى
مىسالى
مىسالىدۇر
مىسالەن
مىستىن
مىسرا
مىسرادىن
مىسرالار
مىسرالىرى
مىسران
مىسقال
مىسكىن
مىسكىنلەرگە
مىسلى
مىسلىسىز
مىسىر
مىسىردا
مىسىردىكى
مىسىردىن
مىسىرغا
مىسىرلىق
مىسىرنى
مىسىرنىڭ
مىش
مىشا
مىق
مىقتاردا
مىقدار
مىقداردا
مىقداردىكى
مىقدارلاشتۇرۇش
مىقدارلىق
مىقدارى
مىقدارىغا
مىقدارىنى
مىقدارىنىڭ
مىقياسىدا
مىقياسىدىكى
مىكرو
مىكروسكوپ
مىكروسوفت
مىكروسوفىت
مىكروفون
مىكسىكا
مىكىر
مىل
مىلاد
مىلادى
مىلادىدىن
مىلادىنىڭ
مىلادىيىدىن
مىلادىيە
مىلادىيەدىن
مىلادىيەنىڭ
مىلان
مىلتىق
مىلتىقى
مىللـ
مىللى
مىللىتى
مىللىتىدىن
مىللىتىم
مىللىتىمىز
مىللىتىمىزنى
مىللىتىمىزنىڭ
مىللىتىنى
مىللىتىنىڭ
مىللىتىگە
مىللىلىتىر
مىللىلىتىردىن
مىللىمېتىر
مىللىمېتىردىن
مىللىمېتىرغىچە
مىللىي
مىللىيلىك
مىللىيچە
مىللىيەتى
مىللىگرام
مىللي
مىللەت
مىللەتتىكى
مىللەتتىن
مىللەتتۇر
مىللەتتە
مىللەتشۇناسلىق
مىللەتكە
مىللەتلار
مىللەتلىرى
مىللەتلىرىدىن
مىللەتلىرىنىڭ
مىللەتلىك
مىللەتلەر
مىللەتلەردىن
مىللەتلەردە
مىللەتلەرمۇ
مىللەتلەرنى
مىللەتلەرنىڭ
مىللەتلەرگە
مىللەتمۇ
مىللەتنى
مىللەتنىڭ
مىللەتپەرۋەر
مىللەتپەرۋەرلىك
مىللەتچى
مىللەتچىلىك
مىللەتچىلىكى
مىلى
مىلىيارد
مىلىيون
مىلىيوندىن
مىلىيۇن
مىليارت
مىليارد
مىلياردېر
مىليون
مىليوندىن
مىليونغا
مىليونغىچە
مىليونلىغان
مىليونېر
مىليۇن
مىليۇندىن
مىن
مىنا
مىندۈرۈپ
مىنلەرنىڭ
مىننەتدار
مىننەتدارلىق
مىنى
مىنىستىر
مىنىستىرلار
مىنىستىرلىرى
مىنىستىرلىق
مىنىستىرلىقى
مىنىستىرلىقىنىڭ
مىنىستىرلىك
مىنىستىرلىكى
مىنىستىرلىكىغا
مىنىستىرلىكىنىڭ
مىنىستىرلىكىگە
مىنىستىرى
مىنىستېر
مىنىستېرلار
مىنىستېرى
مىنىش
مىنىشكە
مىنىپ
مىنىڭ
مىنىڭچە
مىنگو
مىنگونىڭ
مىنگۈچى
مىنگەن
مىنۇت
مىنۇتتا
مىنۇتتىن
مىنۇتقا
مىنۇتقىچە
مىنۇتلۇق
مىنۇن
مىنېرال
مىي
مىيىت
مىيۇنخىن
مىچىگان
مىچۈەن
مىڭ
مىڭدىن
مىڭغا
مىڭغىچە
مىڭلارچە
مىڭلاپ
مىڭلىغان
مىڭنى
مىڭى
مىڭىگە
مىڭي
مىڭە
مىھرىبان
مىھمان
مىھمانغا
مىھمانلار
مىۋىسى
مىۋە
مي
ميدىيا
مۆتىدىل
مۆتىۋەر
مۆجىزىلىك
مۆجىزىلەر
مۆجىزە
مۆلچەر
مۆلچەرلىنىشىچە
مۆلچەرلىگىلى
مۆلچەرلەش
مۆلچەرلەپ
مۆمىن
مۆمىنجان
مۆمىنجاننىڭ
مۆمىنلەر
مۆمىنلەرنىڭ
مۆي
مۆيدىن
مۆچەل
مۆچەلنىڭ
مۆڭكە
مۆھتىرەم
مۆھلىتى
مۆھلىتىنى
مۆھلەت
مۆھلەتتە
مۆھۈر
مۇ
مۇبادا
مۇبارەك
مۇبالىغە
مۇبەششىر
مۇتلەق
مۇتىي
مۇتىۋۇللا
مۇتەخەسسىس
مۇتەخەسسىسلىرى
مۇتەخەسسىسلىرىنىڭ
مۇتەخەسسىسلەر
مۇتەخەسسىسلەرنىڭ
مۇتەخەسسىسى
مۇتەخەسىس
مۇتەخەسىسلەر
مۇتەسەۋۋۇپلار
مۇتەفاي
مۇتەللىپ
مۇتەللىپكە
مۇتەللىپنى
مۇتەللىپنىڭ
مۇتەي
مۇتەپەككۇر
مۇتەپەككۇرى
مۇتەۋاتىر
مۇجاھىتلار
مۇجاھىتلارنىڭ
مۇجاھىد
مۇجتەھىد
مۇجى
مۇجەسسەم
مۇجەسسەملىگەن
مۇجەسسەملەنگەن
مۇجەللى
مۇخالىپ
مۇخبىر
مۇخبىرغا
مۇخبىرلار
مۇخبىرلارنى
مۇخبىرلىق
مۇخبىرنىڭ
مۇخبىرى
مۇختار
مۇختەر
مۇختەرجان
مۇختەرجاننىڭ
مۇخەممەس
مۇداپىي
مۇداپىيە
مۇددىتى
مۇددىتىدە
مۇددىتىنى
مۇددىي
مۇددەت
مۇددەتتىن
مۇددەتتە
مۇددەتسىز
مۇددەتكىچە
مۇددەتكە
مۇددەتلىك
مۇددەرىسلىك
مۇدىر
مۇدىرلار
مۇدىرلارنىڭ
مۇدىرلىرى
مۇدىرلىق
مۇدىرلىقى
مۇدىرلىقىغا
مۇدىرلىقىنى
مۇدىرنىڭ
مۇدىرى
مۇدىرىنىڭ
مۇدىرىيەت
مۇدىرىيەتنىڭ
مۇدھىش
مۇدەررىس
مۇدەررىسلىك
مۇر
مۇراببا
مۇرابباسى
مۇرات
مۇراتنىڭ
مۇراجىي
مۇراجەت
مۇراد
مۇرادىغا
مۇراسىم
مۇراسىمغا
مۇراسىملار
مۇراسىملارنى
مۇراسىملىرى
مۇراسىمى
مۇراسىمىدا
مۇراسىمىغا
مۇرت
مۇرتەزا
مۇرسەل
مۇرىت
مۇرىتلىرى
مۇرىتى
مۇرچىن
مۇرەسسە
مۇرەسسەسىز
مۇرەسسەنامە
مۇرەسسەچىلىرى
مۇرەككەپ
مۇز
مۇزاكىرە
مۇزتاغ
مۇزدەك
مۇزلار
مۇزلۇق
مۇزىكا
مۇزىكانت
مۇزىكانتلار
مۇزىكىسى
مۇزىكىسىنى
مۇزىكىسىنىڭ
مۇزىكىغا
مۇزىكىلار
مۇزىكىلارنى
مۇزىكىلىرى
مۇزىكىلىرىنى
مۇزىكىلىق
مۇزىكىنى
مۇزىكىنىڭ
مۇزىيى
مۇزېي
مۇزېيى
مۇزېيىدا
مۇسا
مۇساباي
مۇسابايوۋ
مۇسابايوۋلار
مۇسابايوۋلارنىڭ
مۇسابىقىدىن
مۇسابىقىدە
مۇسابىقىسدە
مۇسابىقىسى
مۇسابىقىسىدا
مۇسابىقىسىدە
مۇسابىقىسىنى
مۇسابىقىسىنىڭ
مۇسابىقىسىگە
مۇسابىقىلىرى
مۇسابىقىلىشىدۇ
مۇسابىقىلىشىش
مۇسابىقىلەردە
مۇسابىقىلەرگە
مۇسابىقىنىڭ
مۇسابىقىگە
مۇسابىقە
مۇساجان
مۇسادىرە
مۇسانىڭ
مۇساپىر
مۇساپىرلار
مۇساپىرلىق
مۇساپىسى
مۇساپىسىدە
مۇساپىسىنى
مۇساپىلىك
مۇساپىنى
مۇساپە
مۇسبەت
مۇستافا
مۇستاككىل
مۇستاپا
مۇستەبىت
مۇستەسنا
مۇستەفي
مۇستەققىل
مۇستەقىل
مۇستەقىللىق
مۇستەقىللىققا
مۇستەقىللىقنى
مۇستەقىللىقى
مۇستەقىللىقىنى
مۇستەملىكىسى
مۇستەملىكىسىگە
مۇستەملىكىلىرى
مۇستەملىكىچى
مۇستەملىكىچىلىرى
مۇستەملىكىچىلىك
مۇستەملىكىچىلىككە
مۇستەملىكىچىلەر
مۇستەملىكىگە
مۇستەملىكە
مۇستەھكەم
مۇستەھكەملىدى
مۇستەھكەملىگەن
مۇستەھكەملەش
مۇستەھەپ
مۇسكۇل
مۇسكۇللار
مۇسكۇللارنى
مۇسكۇللىرى
مۇسكۇلى
مۇسلىم
مۇسنەد
مۇسنەدۇ
مۇسىبەت
مۇسي
مۇسھىل
مۇسۇلمان
مۇسۇلمانلار
مۇسۇلمانلاردىن
مۇسۇلمانلارغا
مۇسۇلمانلارنى
مۇسۇلمانلارنىڭ
مۇسۇلمانلىرى
مۇسۇلمانلىرىغا
مۇسۇلمانلىرىنى
مۇسۇلمانلىرىنىڭ
مۇسۇلمانلىق
مۇسۇلمانلىقنىڭ
مۇسۇلماننىڭ
مۇسۇلمانچە
مۇسەللەس
مۇش
مۇشت
مۇشتەرى
مۇشرىكلار
مۇشۇ
مۇشۇلارنى
مۇشۇنداق
مۇشۇنىڭ
مۇشۇنىڭدىن
مۇشۇنىڭغا
مۇشەررەپ
مۇشەققەت
مۇشەققەتكە
مۇشەققەتلىك
مۇغلا
مۇفتەي
مۇفەسسىر
مۇقام
مۇقاملىرى
مۇقاملىرىنىڭ
مۇقامنى
مۇقامنىڭ
مۇقامى
مۇقامىنى
مۇقامىنىڭ
مۇقان
مۇقاۋا
مۇقاۋىسىغا
مۇقىم
مۇقىملاشتۇرۇش
مۇقىملىشىپ
مۇقىملىق
مۇقىملىقىنى
مۇقۇم
مۇقەددىمىسى
مۇقەددىمىسىدە
مۇقەددىمىسىنى
مۇقەددىمە
مۇقەددەس
مۇقەددەسلىكى
مۇقەددەم
مۇقەررەر
مۇكاپات
مۇكاپاتقا
مۇكاپاتلارغا
مۇكاپاتلاش
مۇكاپاتلاندى
مۇكاپاتلانغان
مۇكاپاتلايدۇ
مۇكاپاتلىرىغا
مۇكاپاتلىنىدۇ
مۇكاپاتنى
مۇكاپاتى
مۇكاپاتىغا
مۇكاپاتىنى
مۇكاپاتىنىڭ
مۇكەررەمە
مۇكەممەل
مۇكەممەللىشىپ
مۇكەممەللىك
مۇكەممەللىككە
مۇكەممەللىكى
مۇكەممەللەشتۈرىدۇ
مۇكەممەللەشتۈرگەن
مۇكەممەللەشتۈرۈش
مۇكەممەللەشتۈرۈشى
مۇكەممەللەشتۈرۈپ
مۇكەممەللەشمەكتە
مۇلازىملىق
مۇلازىمىتى
مۇلازىمىتىر
مۇلازىمىتىرغا
مۇلازىمىتىنى
مۇلازىمەت
مۇلازىمەتتە
مۇلازىمەتكە
مۇلازىمەتنى
مۇلازىمەتنىڭ
مۇلايىم
مۇلاھىزىلەر
مۇلاھىزە
مۇمكىن
مۇمكىندۇر
مۇمكىنقەدەر
مۇمكىنكى
مۇمكىنلىكىنى
مۇمكىنمۇ
مۇمكىنچىلىكى
مۇن
مۇناجات
مۇنار
مۇنارنى
مۇنارنىڭ
مۇنارى
مۇنارىنىڭ
مۇنازىرىدە
مۇنازىرىسى
مۇنازىرىلىشىش
مۇنازىرىلىشىپ
مۇنازىرىلەر
مۇنازىرىنى
مۇنازىرىنىڭ
مۇنازىرىگە
مۇنازىرە
مۇناسىبەتلىك
مۇناسىپ
مۇناسىۋىتى
مۇناسىۋىتىدە
مۇناسىۋىتىنى
مۇناسىۋىتىنىڭ
مۇناسىۋىتىگە
مۇناسىۋېتى
مۇناسىۋەت
مۇناسىۋەتتىن
مۇناسىۋەتتە
مۇناسىۋەتسىز
مۇناسىۋەتكە
مۇناسىۋەتلىرى
مۇناسىۋەتلىرىنى
مۇناسىۋەتلىك
مۇناسىۋەتلىكتۇر
مۇناسىۋەتلەر
مۇناسىۋەتلەردە
مۇناسىۋەتلەرنى
مۇناسىۋەتلەرنىڭ
مۇناسىۋەتنى
مۇناسىۋەتنىڭ
مۇناقى
مۇناپىق
مۇناپىقلىق
مۇنبىرى
مۇنبىرىدە
مۇنبىرىگە
مۇنبەت
مۇنبەر
مۇنبەردىن
مۇنبەرگە
مۇنتىزىم
مۇنداق
مۇنداقچە
مۇندىن
مۇندەرىجىسى
مۇندەرىجە
مۇنزىر
مۇنزىچىغا
مۇنــداق
مۇنقەرز
مۇنقەرىز
مۇنىر
مۇنىرىدىن
مۇنچا
مۇنچىلىك
مۇنچە
مۇنۇ
مۇنۇلار
مۇنۇلارنى
مۇنەۋۋەر
مۇنەۋەر
مۇي
مۇيۇنچۇر
مۇيەسسەر
مۇپتى
مۇپتىلا
مۇپەتتىش
مۇپەتتىشلىك
مۇپەتتىشى
مۇپەسسەل
مۇچ
مۇڭ
مۇڭغۇل
مۇڭغۇللار
مۇڭغۇللارنىڭ
مۇڭلۇق
مۇھاجىر
مۇھاجىرلار
مۇھاجىرلارنىڭ
مۇھاجىرەت
مۇھاجىرەتتىكى
مۇھاجىرەتتە
مۇھاسىرىگە
مۇھاسىرە
مۇھاكىمە
مۇھاپىزىتى
مۇھاپىزىكار
مۇھاپىزىكارلىق
مۇھاپىزەت
مۇھاپىزەتچى
مۇھاپىزەتچىلەر
مۇھتاج
مۇھىت
مۇھىتتا
مۇھىتتىكى
مۇھىتتىن
مۇھىتقا
مۇھىتنى
مۇھىتنىڭ
مۇھىتى
مۇھىتىدا
مۇھىتىغا
مۇھىتىنى
مۇھىتىنىڭ
مۇھىم
مۇھىمدۇر
مۇھىملىرى
مۇھىملىق
مۇھىملىقى
مۇھىملىقىنى
مۇھىمى
مۇھەببىتى
مۇھەببىتىنى
مۇھەببىتىگە
مۇھەببەت
مۇھەببەتتىن
مۇھەببەتكە
مۇھەببەتلىك
مۇھەببەتنى
مۇھەببەتنىڭ
مۇھەددىس
مۇھەررىر
مۇھەررىردىن
مۇھەررىرلىك
مۇھەررىرلىكىنى
مۇھەررىرى
مۇھەررەم
مۇھەممىدى
مۇھەممەت
مۇھەممەتجان
مۇھەممەتنىڭ
مۇھەممەتي
مۇھەممەد
مۇھەممەدخان
مۇھەممەدكە
مۇھەممەدنى
مۇھەممەدنىڭ
مۇھەممەدىن
مۇھەممەدي
مۇۋاپىق
مۇۋاپىقىيەت
مۇۋاپىقىيەتلىك
مۇۋەتتا
مۇۋەققەت
مۇۋەپپىقىيەت
مۇۋەپپىقىيەتلىك
مۇۋەپپەق
مۇۋەپپەقىيىتى
مۇۋەپپەقىيىتىنى
مۇۋەپپەقىيەت
مۇۋەپپەقىيەتكە
مۇۋەپپەقىيەتلىرى
مۇۋەپپەقىيەتلىرىنى
مۇۋەپپەقىيەتلىك
مۇۋەپپەقىيەتلەر
مۇۋەپپەقىيەتلەرنى
مۇۋەپپەقىيەتنىڭ
مۇەممەد
مۈجمەل
مۈشكۈل
مۈشۈك
مۈلكى
مۈلكىدىن
مۈلكىنى
مۈلكىنىڭ
مۈلكىگە
مۈلۈك
مۈلۈككە
مۈلۈكلەرنى
مۈلۈكنى
مۈلۈكنىڭ
مۈلۈكى
مۈلۈكىنى
مۈلۈكچىلىك
مۈلۈكچىلىكىدىكى
مۈمكىن
مۈڭگۈز
مۈڭگۈزى
مېتال
مېتاللار
مېتان
مېتر
مېترو
مېتود
مېتودى
مېتىر
مېتىردىن
مېتىرغا
مېتىرغىچە
مېتىرلىق
مېتىل
مېتېي
مېخانىزمى
مېخانىزىمى
مېخانىك
مېخانىكا
مېخانىكىلىق
مېدال
مېدالغا
مېدىتسىنا
مېدىي
مېدىيا
مېدىيادا
مېدىيادىن
مېدىياغا
مېدىيانى
مېدىيانىڭ
مېردىي
مېركۇرىي
مېسسوپوتامىيە
مېسوپوتامىيە
مېغىزلىق
مېغىزى
مېغىزىنى
مېغىزىنىڭ
مېكسىكا
مېلىنى
مېنى
مېنىمۇ
مېنىڭ
مېنىڭدىن
مېنىڭمۇ
مېنىڭچە
مېي
مېيى
مېيىت
مېيىتنى
مېيىپ
مېيىپلار
مېيىپلەر
مېيىپلەرنى
مېيىپلەرنىڭ
مېيىپلەرگە
مېڭىسى
مېڭىسىدە
مېڭىسىنى
مېڭىسىنىڭ
مېڭىش
مېڭىشتىن
مېڭىشقا
مېڭىشنى
مېڭىشى
مېڭىشىغا
مېڭىنى
مېڭىنىڭ
مېڭىپ
مېڭىڭىز
مېڭىگە
مېڭىۋاتقان
مېڭىۋاتىدۇ
مېڭە
مېھراب
مېھرابچە
مېھراي
مېھرى
مېھرىبان
مېھرىبانلىق
مېھرىبانۇ
مېھرىگۈل
مېھمان
مېھمانخانا
مېھماندارچىلىق
مېھماندوست
مېھمانغا
مېھمانلار
مېھمانلارغا
مېھمانلارنى
مېھمانلارنىڭ
مېھماننى
مېھنەت
مېھىر
مېۋىسى
مېۋىسىنى
مېۋىسىنىڭ
مېۋىلىرى
مېۋىلىرىنى
مېۋىلىك
مېۋىلەر
مېۋىلەرنى
مېۋىلەرنىڭ
مېۋىلەيدۇ
مېۋە
مە
مەبلىغى
مەبلىغىنى
مەبلەغ
مەبلەغنى
مەبلەغنىڭ
مەبۇد
مەت
مەتبۇخ
مەتبۇخى
مەتبۇي
مەتبەي
مەتتۇرسۇن
مەتقۇربان
مەتنىياز
مەجالىسۇن
مەجبورصيەت
مەجبۇر
مەجبۇرلاش
مەجبۇرلانغان
مەجبۇرلايدۇ
مەجبۇرلاپ
مەجبۇرلىغان
مەجبۇرى
مەجبۇرىي
مەجبۇرىيىتى
مەجبۇرىيىتىنى
مەجبۇرىيەت
مەجبۇرىيەتلىرىنى
مەجبۇرىيەتلەر
مەجبۇرىيەتلەرنى
مەجبۇرىيەتنى
مەجبۇرەن
مەجلىس
مەجلىسى
مەجلىسىنىڭ
مەجلىسىگە
مەجمۇي
مەجنۇن
مەجۇنى
مەجۈجلەر
مەختۇمسۇلا
مەختۇمسۇلاغا
مەختۇمسۇلانى
مەختۇمسۇلانىڭ
مەخدۇم
مەخسۇت
مەخسۇدىيە
مەخسۇس
مەخسۇم
مەخسۇمنىڭ
مەخسەت
مەخلۇق
مەخلۇقلار
مەخمۇت
مەخپى
مەخپىي
مەخپىيىتى
مەخپىيىتىدىن
مەخپىيىتىنى
مەخپىيىتىگە
مەخپىيەتلىك
مەخپىيەتلىكنى
مەخپىيەتلىكىنى
مەددە
مەدرىس
مەدرىستە
مەدرىسكە
مەدرىسلەر
مەدرىسلەردە
مەدرىسى
مەدرىسىدە
مەدرىسە
مەدرىسەسى
مەدرىسەنىڭ
مەدىكى
مەدىنى
مەدىنىدىكى
مەدىنىدىن
مەدىنىدە
مەدىنىيىتى
مەدىنىيەت
مەدىنىگە
مەدىنە
مەدىنەدىكى
مەدىنەدە
مەدىنەنىڭ
مەدىنەگە
مەدھىيە
مەدەت
مەدەن
مەدەنى
مەدەنىي
مەدەنىيتى
مەدەنىيتىنىڭ
مەدەنىيلىك
مەدەنىيىتى
مەدەنىيىتىدىكى
مەدەنىيىتىدىن
مەدەنىيىتىدە
مەدەنىيىتىمىزنىڭ
مەدەنىيىتىنى
مەدەنىيىتىنىڭ
مەدەنىيىتىگە
مەدەنىيەت
مەدەنىيەتتىكى
مەدەنىيەتتىن
مەدەنىيەتتە
مەدەنىيەتكە
مەدەنىيەتلىك
مەدەنىيەتلەر
مەدەنىيەتلەرنى
مەدەنىيەتلەرنىڭ
مەدەنىيەتنى
مەدەنىيەتنىڭ
مەدەنيىتى
مەدەنيەت
مەر
مەرت
مەرتىۋىسى
مەرتىۋىسىگە
مەرتىۋىلىك
مەرتىۋىگە
مەرتىۋە
مەرتە
مەرد
مەردانە
مەردلىك
مەرسىيە
مەرغىلان
مەرفۇ
مەركىزى
مەركىزىدىكى
مەركىزىدىن
مەركىزىدۇر
مەركىزىدە
مەركىزىنى
مەركىزىنىڭ
مەركىزىي
مەركىزىگە
مەركەز
مەركەزدىن
مەركەزدە
مەركەزلىرى
مەركەزلىرىدىن
مەركەزلىرىنىڭ
مەركەزلىك
مەركەزلەشتۈرگەن
مەركەزلەشتۈرۈش
مەركەزلەشتۈرۈلگەن
مەركەزلەشتۈرۈپ
مەركەزلەشكەن
مەركەزنىڭ
مەركەزى
مەركەزگە
مەرمەر
مەرىكە
مەرىپەت
مەرىپەتكە
مەرىپەتلىك
مەرىپەتپەرۋەر
مەرىپەتچىلىك
مەريەم
مەريەمنىڭ
مەرگەن
مەرھابا
مەرھۇم
مەرھۇمنىڭ
مەرھەمەت
مەرۋان
مەرۋايىت
مەرۋايىتنىڭ
مەززىلىك
مەزكۇر
مەزكۈر
مەزلۇم
مەزمۇت
مەزمۇن
مەزمۇندا
مەزمۇندىكى
مەزمۇنغا
مەزمۇنلار
مەزمۇنلاردا
مەزمۇنلاردىن
مەزمۇنلارغا
مەزمۇنلارنى
مەزمۇنلارنىڭ
مەزمۇنلىرى
مەزمۇنلۇق
مەزمۇننى
مەزمۇننىڭ
مەزمۇنى
مەزمۇنىدا
مەزمۇنىدىن
مەزمۇنىغا
مەزمۇنىنى
مەزمۇنىنىڭ
مەزگىل
مەزگىلدىكى
مەزگىلدىكىدىن
مەزگىلدىن
مەزگىلدە
مەزگىللىرىدىكى
مەزگىللىرىدە
مەزگىللىك
مەزگىللەردە
مەزگىلى
مەزگىلىدىكى
مەزگىلىدىن
مەزگىلىدە
مەزگىلىنىڭ
مەزگىلىگە
مەزھىبى
مەزھىبىنى
مەزھىبىنىڭ
مەزھىبىگە
مەزھىپى
مەزھىپىدىكى
مەزھىپىنىڭ
مەزھىپىگە
مەزھەب
مەزھەبلىرى
مەزھەبنىڭ
مەزھەپ
مەزھەپلەر
مەزھەپنىڭ
مەس
مەست
مەستانە
مەستىكى
مەسجىد
مەسجىدتە
مەسجىدكە
مەسجىدنىڭ
مەسجىدى
مەسخىرە
مەسلىسى
مەسلىنى
مەسلىھەت
مەسلىھەتلىشىپ
مەسلىھەتى
مەسلىھەتچى
مەسلىھەتچىسى
مەسلىھەتچىلىك
مەسلىھەتچىلىكى
مەسلىھەتچىلەر
مەسلەك
مەسلەن
مەسلەھەت
مەسنەۋى
مەسىللەرنى
مەسىلىدۇر
مەسىلىدە
مەسىلىسى
مەسىلىسىدە
مەسىلىسىنى
مەسىلىسىنىڭ
مەسىلىسىگە
مەسىلىلىرى
مەسىلىلىرىنى
مەسىلىلىرىگە
مەسىلىلەر
مەسىلىلەردىن
مەسىلىلەردە
مەسىلىلەرنى
مەسىلىلەرنىڭ
مەسىلىلەرگە
مەسىلىنى
مەسىلىنىڭ
مەسىلىگە
مەسىلە
مەسىلەن
مەسىموۋ
مەسىھ
مەسىھنىڭ
مەسي
مەسچىت
مەسچىتتە
مەسچىتكە
مەسچىتلىرىنىڭ
مەسچىتلەر
مەسچىتلەردە
مەسچىتلەرنى
مەسچىتلەرنىڭ
مەسچىتلەرگە
مەسچىتنى
مەسچىتنىڭ
مەسچىتى
مەسچىتىدە
مەسچىتىنىڭ
مەسھود
مەسھى
مەسۇت
مەسۇتنىڭ
مەسەل
مەسەللىرى
مەشخۇلات
مەشرىپى
مەشرىپىدە
مەشرىپىگە
مەشرۇتىيەت
مەشرەپ
مەشرەپتە
مەشرەپكە
مەشرەپلىرى
مەشرەپلەر
مەشرەپنى
مەشرەپنىڭ
مەشغۇل
مەشغۇلات
مەشغۇلاتى
مەشق
مەشىق
مەشي
مەشھۇر
مەشھۇردۇر
مەشۇقلار
مەغرۇر
مەغرۇرلۇق
مەغلۇب
مەغلۇبىيىتى
مەغلۇبىيەت
مەغلۇبىيەتكە
مەغلۇپ
مەغپىرەت
مەفاي
مەقبەرىسى
مەقبەرە
مەقسىتى
مەقسىتىدە
مەقسىتىم
مەقسىتىنى
مەقسىتىنىڭ
مەقسىتىگە
مەقسىدى
مەقسىدىدە
مەقسىدىگە
مەقسەت
مەقسەتتە
مەقسەتكە
مەقسەتلىرى
مەقسەتلىك
مەقسەتلەر
مەقسەتنى
مەقسەد
مەقسەدلىك
مەقي
مەكتىبىدە
مەكتىپى
مەكتىپىدە
مەكتىپىمىزدىكى
مەكتىپىمىزدە
مەكتىپىمىزنىڭ
مەكتىپىنى
مەكتىپىنىڭ
مەكتىپىگە
مەكتىۋىنىڭ
مەكتۇپ
مەكتەب
مەكتەپ
مەكتەپتىكى
مەكتەپتىن
مەكتەپتە
مەكتەپكە
مەكتەپلىرى
مەكتەپلىرىدە
مەكتەپلىرىنىڭ
مەكتەپلىرىگە
مەكتەپلەر
مەكتەپلەردىكى
مەكتەپلەردىن
مەكتەپلەردە
مەكتەپلەرنى
مەكتەپلەرنىڭ
مەكتەپلەرگە
مەكتەپنى
مەكتەپنىڭ
مەككىدىكى
مەككىدىن
مەككىدە
مەككىنى
مەككىنىڭ
مەككىي
مەككىگە
مەككە
مەككەدە
مەككەنىڭ
مەككەگە
مەكىت
مەلىك
مەلىكىسى
مەلىكىنى
مەلىكە
مەلھىمى
مەلھەم
مەلۇم
مەلۇمات
مەلۇماتتىن
مەلۇماتقا
مەلۇماتلار
مەلۇماتلاردا
مەلۇماتلاردىن
مەلۇماتلارغا
مەلۇماتلارنى
مەلۇماتلارنىڭ
مەلۇماتلىرى
مەلۇماتلىرىغا
مەلۇماتلىرىنى
مەلۇماتلىق
مەلۇماتنى
مەلۇماتنىڭ
مەلۇماتى
مەلۇماتىغا
مەلۇماتىنى
مەلۇمدۇر
مەلۇمكى
مەمتاۋلا
مەمتىلى
مەمتىمىن
مەمتېلى
مەملىكىتىمىز
مەملىكىتىمىزدىكى
مەملىكىتىمىزدە
مەملىكىتىمىزنىڭ
مەملىكەت
مەملىكەتتىكى
مەملىكەتتە
مەملىكەتكە
مەملىكەتلىرى
مەملىكەتلىك
مەملىكەتلەر
مەملىكەتنى
مەملىكەتنىڭ
مەملۇك
مەملۇكىيلەر
مەمنۇن
مەمورصي
مەمورىي
مەمۇرى
مەمۇرىي
مەمۇرىيىتى
مەمۇرىيەت
مەمەت
مەن
مەنا
مەنادا
مەناسى
مەنانى
مەنبىي
مەنبي
مەنبە
مەنبەدىن
مەنبەدە
مەنبەسى
مەنبەسىدىن
مەنبەسىدۇر
مەنبەسىنى
مەنبەسىنىڭ
مەنبەسىگە
مەنبەلىرى
مەنبەلىرىدىن
مەنبەلىرىدە
مەنبەلىرىنى
مەنبەلىرىنىڭ
مەنبەلىرىگە
مەنبەلىك
مەنبەلەر
مەنبەلەردىن
مەنبەلەردە
مەنبەلەرنىڭ
مەنبەلەرگە
مەنبەي
مەنبەگە
مەنتىق
مەنتىقىلىق
مەنتىقە
مەندىن
مەندە
مەندەك
مەنزىرىسى
مەنزىرىسىنى
مەنزىرىلىك
مەنزىرىنى
مەنزىرە
مەنزىل
مەنزىلى
مەنزىلىگە
مەنزىلگە
مەنسۇب
مەنسۇر
مەنسۇپ
مەنسۇپتۇر
مەنسەپ
مەنكى
مەنلا
مەنمۇ
مەنى
مەنىداش
مەنىدىكى
مەنىدىن
مەنىدە
مەنىسى
مەنىسىدىكى
مەنىسىدىن
مەنىسىدە
مەنىسىز
مەنىسىنى
مەنىسىگە
مەنىلىرى
مەنىلىرىنى
مەنىلىك
مەنىلەردە
مەنىلەرنى
مەنىلەرگە
مەنىنى
مەنىگە
مەنىۋى
مەنىۋىي
مەني
مەنپىي
مەنپەت
مەنپەتى
مەنپەي
مەنچىڭ
مەنچە
مەنە
مەنەن
مەنەڭگىچ
مەي
مەيدان
مەيداندا
مەيداندىكى
مەيداندىن
مەيدانغا
مەيدانلىرى
مەيدانلىرىدا
مەيدانلىرىنى
مەيداننى
مەيداننىڭ
مەيدانى
مەيدانىدا
مەيدانىدىكى
مەيدانىدىن
مەيدانىغا
مەيدانىنى
مەيدانىنىڭ
مەيدە
مەيلــى
مەيلى
مەيلىچە
مەينەت
مەپتۇن
مەپكۇرىسى
مەپكۇرىسىنى
مەپكۇرىنى
مەپكۇرىنىڭ
مەپكۇرىگە
مەپكۇرە
مەپكۇرەنىڭ
مەڭ
مەڭزىگە
مەڭگۈ
مەڭگۈلۈك
مەڭۈ
مەگەر
مەھبۇس
مەھدى
مەھرۇم
مەھسۇلات
مەھسۇلاتقا
مەھسۇلاتلار
مەھسۇلاتلارنى
مەھسۇلاتلارنىڭ
مەھسۇلاتلىرى
مەھسۇلاتلىرىدىن
مەھسۇلاتلىرىنى
مەھسۇلاتلىرىنىڭ
مەھسۇلاتنى
مەھسۇلاتنىڭ
مەھسۇلاتى
مەھسۇلاتىنى
مەھسۇلاتىنىڭ
مەھسۇلى
مەھكىمىسى
مەھكىمىسىدىن
مەھكىمىسىنى
مەھكىمىسىنىڭ
مەھكىمىسىگە
مەھكىمىلىرى
مەھكىمىلىرىنىڭ
مەھكىمىلىرىگە
مەھكىمىنىڭ
مەھكىمە
مەھكۇم
مەھكەم
مەھلىيا
مەھمۇت
مەھمۇد
مەھمۇدقا
مەھمۇدنىڭ
مەھمەت
مەھمەد
مەھەل
مەھەللىدىكى
مەھەللىدىن
مەھەللىدە
مەھەللىسى
مەھەللىسىدىكى
مەھەللىسىدە
مەھەللىسىگە
مەھەللىلەر
مەھەللىلەردە
مەھەللىلەرنى
مەھەللىمىزدىكى
مەھەللىنى
مەھەللىگە
مەھەللىۋى
مەھەللە
مەھەممەت
مەۋجۇت
مەۋجۇتتۇر
مەۋجۇتلىقى
مەۋجۇتلىقىنى
مەۋجۇتلۇق
مەۋجۇتلۇقنىڭ
مەۋجۇتلۇقى
مەۋجۇتلۇقىنى
مەۋجۇد
مەۋجۇدات
مەۋجۇدلۇق
مەۋجۇدىيىتىنى
مەۋجۇدىيەت
مەۋجۇدىيەتچىلىك
مەۋجۈت
مەۋدۇدى
مەۋسۇم
مەۋسۇملۇق
مەۋسۇمى
مەۋسۈمى
مەۋلا
مەۋلان
مەۋلانا
مەۋلانە
مەۋلانەنىڭ
مەۋلىۋى
مەۋھۇم
ن
نا
نابۇت
ناتايىن
ناتسىست
ناتسىستلار
ناتسىستلارنىڭ
ناتو
ناتوغرا
ناتونىڭ
ناتونۇش
ناتىق
ناتىۋان
ناتۇنۇش
ناخشا
ناخشىسى
ناخشىسىنى
ناخشىلار
ناخشىلارنى
ناخشىلىرى
ناخشىلىرىنى
ناخشىلىرىنىڭ
ناخشىنى
ناخشىنىڭ
ناخشىچى
ناخشىچىسى
ناخشىچىلار
نادامەت
نادان
نادانلىق
نادانلىقتا
نادانلىقتىن
نادانلىقنى
نادانلىقنىڭ
نادىر
نار
نارازى
نارازىلىق
نارازىلىقىنى
ناركوز
نارىن
نارىنبايېف
نارەسىدە
ناز
نازارىتى
نازارىتىدە
نازارىتىنى
نازارىتىنىڭ
نازارىتىگە
نازارەت
نازارەتچى
نازارەتچىسى
نازارەتچىلىك
نازارەتچىلىكى
نازارەتچىلەر
نازىر
نازىرى
نازىل
نازىم
نازۇ
نازۇك
ناسا
ناسداك
ناسساۋ
ناسىر
ناسىروف
ناسىروۋ
ناسىرۇددىن
ناغرا
نالە
نام
ناماز
نامازخانا
نامازخانىنىڭ
نامازدا
نامازدىن
نامازغا
نامازنى
نامازنىڭ
ناماقۇل
ناماقۇللۇق
نامايان
نامايىش
نامايىشقا
نامايىشى
نامايەن
نامايەندىسى
نامايەندىلىرى
نامايەندە
نامدا
نامدىكى
نامرات
نامراتلىق
نامراتلىقتىن
نامزات
نامزاتلىققا
نامزاتى
نامسىز
نامغا
ناملار
ناملاردا
ناملارغا
ناملارنى
ناملارنىڭ
ناملىرى
ناملىرىمۇ
ناملىرىنى
ناملىرىنىڭ
ناملىق
نامنى
نامنىڭ
نامى
نامىدا
نامىدىكى
نامىدىن
نامىدۇر
نامىزى
نامىزىدىن
نامىزىغا
نامىزىنى
نامىزىنىڭ
نامىغا
نامىق
نامىلىق
نامىمىز
نامىمۇ
نامىنى
نامىنىڭ
نامۇۋاپىق
نامە
نامەلۇم
نان
نانغا
ناننى
ناننىڭ
ناي
نايمان
ناپاك
ناپالېي
ناپولىيون
ناپولىيوننىڭ
ناچار
ناچارلىشىپ
ناھايتى
ناھايىتى
ناھايىتىمۇ
ناھصيە
ناھىيسى
ناھىيسىدە
ناھىيسىنىڭ
ناھىيلىك
ناھىيىدىن
ناھىيىدە
ناھىيىسى
ناھىيىسىدىكى
ناھىيىسىدىن
ناھىيىسىدە
ناھىيىسىنى
ناھىيىسىنىڭ
ناھىيىسىگە
ناھىيىلىرى
ناھىيىلىك
ناھىيىلەر
ناھىيىنى
ناھىيىنىڭ
ناھىيىگە
ناھىيە
ناھىيەسى
ناھىيەسىدىكى
ناھىيەسىدە
ناھىيەسىنىڭ
ناھىيەسىگە
ناھىيەلىك
ناھىيەنىڭ
ناھيە
ناھەق
ناۋا
ناۋات
ناۋادا
ناۋاسى
ناۋاي
ناۋايى
ناۋايىنىڭ
نت
ند
نذ
نـ
نك
نوبىل
نوبېل
نوتۇق
نور
نورغۇن
نورمال
نورمالدا
نورمالسىز
نورمالسىزلىق
نورمان
نورماندىغا
نورمىدىن
نورمىسى
نورۇز
نورۇزنى
نورۇزنىڭ
نورۋىگىيە
نورۋېگىيە
نورۋەگ
نوغاي
نوقتا
نوقتىدا
نوقتىدىن
نوقتىسى
نوقتىسىدىن
نوقتىسىغا
نوقتىغا
نوقتىلار
نوقتىلىق
نوقتىنى
نوقۇت
نوقۇل
نوم
نومۇر
نومۇرغا
نومۇرلىرىنى
نومۇرلۇق
نومۇرنى
نومۇرى
نومۇرىنى
نومۇس
نومۇسىنى
نوي
نويابر
نويابىر
نويابىردا
نويابىردىكى
نويان
نوپۇز
نوپۇزغا
نوپۇزلۇق
نوپۇزى
نوپۇزىنى
نوپۇس
نوپۇسقا
نوپۇسلۇق
نوپۇسنى
نوپۇسنىڭ
نوپۇسى
نوپۇسىبار
نوپۇسىغا
نوپۇسىنى
نوپۇسىنىڭ
نوپۇش
نوچى
نوچىغا
نوچىنى
نوچىنىڭ
نى
نىتانىياخو
نىجات
نىجاتلىق
نىجاد
نىدا
نىداي
نىرۋا
نىزا
نىزارى
نىزام
نىزامدىكى
نىزاملار
نىزاملاردا
نىزاملاردىكى
نىزاملارغا
نىزاملارنى
نىزاملارنىڭ
نىزاملىرىغا
نىزامنامىسى
نىزامنامىسىدە
نىزامنامىسىنى
نىزامنامىسىگە
نىزامنىڭ
نىزامى
نىزامىدىن
نىزامىيە
نىسا
نىسبىتى
نىسبىتىنى
نىسبىتىنىڭ
نىسبىتىگە
نىسبىي
نىسبەت
نىسبەتتە
نىسبەتنى
نىسبەتەن
نىسىپ
نىسپىتى
نىسپىتىنىڭ
نىسپىي
نىسپىيلىك
نىسپەتەن
نىشان
نىشانسىز
نىشانغا
نىشانلار
نىشانلارغا
نىشانلارنى
نىشانلىرى
نىشانلىق
نىشاننى
نىشاننىڭ
نىشانى
نىشانىغا
نىشانىمىز
نىشانىنى
نىشانىڭىز
نىشانىڭىزغا
نىشانىڭىزنى
نىغدە
نىكاھ
نىكاھتىن
نىكاھلانغان
نىكاھلىق
نىكاھىغا
نىكوتىن
نىكولا
نىكولاي
نىل
نىلسون
نىلقا
نىمكەش
نىمىس
نىمىشقا
نىمىشكە
نىمىنى
نىمىگە
نىمۇ
نىمە
نىي
نىيا
نىياز
نىيوتۇن
نىيىتى
نىيىتىدە
نىيىتىنى
نىيىتىگە
نىيە
نىيەت
نىيەتتە
نىيەتكە
نىيەتلىك
نىپىز
نىڭ
نىڭشىيا
نىڭشيا
نىڭمۇ
نىگار
نىگېرلار
نىگېرىيە
نىھايەت
ني
نيو
نيۇ
نيۇتون
نيۇتوننىڭ
نيۇيورك
نچى
نۆل
نۆلدىن
نۆلگە
نۆۋىتى
نۆۋىتىدە
نۆۋىتىنى
نۆۋەت
نۆۋەتتىكى
نۆۋەتتە
نۆۋەتلىشىدۇ
نۆۋەتلىشىپ
نۆۋەتلىك
نۆۋەتلەشتۈرۈلمەي
نۆۋەتلەشمەيدۇ
نۇبىل
نۇتقى
نۇتقىدا
نۇتۇق
نۇتۇقتا
نۇجۇم
نۇر
نۇرانىيە
نۇرانە
نۇرخاچ
نۇرخاچقا
نۇرخاچنىڭ
نۇردىن
نۇرسۇلتان
نۇرغۇن
نۇرغۇنلىرى
نۇرغۇنلىغان
نۇرلىرى
نۇرلۇق
نۇرمال
نۇرمۇھەممەت
نۇرنى
نۇرنىڭ
نۇرى
نۇرىددىن
نۇرىدىن
نۇرىغا
نۇرىنى
نۇرىنىڭ
نۇرۇم
نۇزۇكۇم
نۇزۇكۇمنى
نۇزۇكۇمنىڭ
نۇزۇگۇم
نۇسخا
نۇسخاسى
نۇسخسى
نۇسخىدىكى
نۇسخىدىن
نۇسخىدۇر
نۇسخىسى
نۇسخىسىدا
نۇسخىسىدىن
نۇسخىسىدۇر
نۇسخىسىغا
نۇسخىسىمۇ
نۇسخىسىنى
نۇسخىسىنىڭ
نۇسخىلار
نۇسخىلىرى
نۇسخىلىرىغا
نۇسخىلىرىنى
نۇسرەت
نۇسقىسى
نۇقتا
نۇقتىدا
نۇقتىدىن
نۇقتىسى
نۇقتىسىدا
نۇقتىسىدىن
نۇقتىسىغا
نۇقتىغا
نۇقتىلار
نۇقتىلارغا
نۇقتىلارنى
نۇقتىلىرى
نۇقتىلىق
نۇقتىنى
نۇقتىي
نۇقسان
نۇقسانى
نۇقۇل
نۇمۇر
نۇمۇرلۇق
نۇمۇرى
نۇمۇس
نۇي
نۇپۇزلۇق
نۇپۇس
نۇپۇسى
نۇپۇسىنىڭ
نۇھ
نۇھمان
نۇھنىڭ
نېداي
نېرى
نېرىپلارنىڭ
نېرۋا
نېرۋىنىڭ
نېسىپ
نېفىت
نېفىتلىك
نېلسون
نېلۇپەر
نېمىدىن
نېمىدېگەن
نېمىس
نېمىسچە
نېمىشقا
نېمىشكە
نېمىلا
نېمىلىكىنى
نېمىلەر
نېمىلەرنى
نېمىلەرگە
نېمىنى
نېمىنىڭ
نېمىگە
نېمە
نېمەت
نېمەتلەرنى
نېنى
نېي
نېپال
نېپتۇن
نېپىز
نېپىزلىتىپ
نېگىر
نېگىزلىك
نە
نەبىجان
نەبىرەسى
نەتفلىكىس
نەتىجىدە
نەتىجىسدە
نەتىجىسى
نەتىجىسىدىن
نەتىجىسىدۇر
نەتىجىسىدە
نەتىجىسىز
نەتىجىسىنى
نەتىجىسىنىڭ
نەتىجىسىگە
نەتىجىلىرى
نەتىجىلىرىدىن
نەتىجىلىرىنى
نەتىجىلىرىنىڭ
نەتىجىلىرىگە
نەتىجىلىك
نەتىجىلەر
نەتىجىلەرنى
نەتىجىلەرنىڭ
نەتىجىلەرگە
نەتىجىنى
نەتىجىگە
نەتىجە
نەتىجەسىدە
نەجمىدىن
نەجىب
نەجىپ
نەدىن
نەدۋىي
نەدە
نەرسىدىن
نەرسىدۇر
نەرسىدە
نەرسىسى
نەرسىسىنى
نەرسىلىرى
نەرسىلىرىنى
نەرسىلەر
نەرسىلەردىن
نەرسىلەرنى
نەرسىلەرنىڭ
نەرسىلەرگە
نەرسىمۇ
نەرسىنى
نەرسىنىڭ
نەرسىگە
نەرسە
نەزم
نەزمە
نەزىر
نەزىرى
نەزىرىدىكى
نەزىرىدە
نەزىرىيىسى
نەزىرىيە
نەزىرىيەسى
نەزىرىڭىزدە
نەزىريىسى
نەزىريىسىنى
نەزىريىۋى
نەزىريە
نەزىم
نەزەر
نەزەرباغ
نەزەربەند
نەزەردىن
نەزەردە
نەزەرىدە
نەزەرىيىسى
نەزەرىيىسىنى
نەزەرىيىسىنىڭ
نەزەرىيىسىگە
نەزەرىيىنى
نەزەرىيىنىڭ
نەزەرىيىۋى
نەزەرىيىۋىي
نەزەرىيۋى
نەزەرىيە
نەزەرىيەسى
نەزەرىيەسىنى
نەزەرىيەسىنىڭ
نەزەرگە
نەساي
نەسخ
نەسر
نەسرلەر
نەسرىدىن
نەسرىي
نەسلى
نەسلىدىن
نەسلىنى
نەسىر
نەسىردىن
نەسىرلەر
نەسىل
نەسىللىك
نەسىھەت
نەسەب
نەسەبلىك
نەسەبى
نەسەپ
نەشر
نەشردىن
نەشرى
نەشرىدىن
نەشرىدە
نەشرىيات
نەشرىياتى
نەشرىياتىدا
نەشرىياتىغا
نەشرىياتىنىڭ
نەشرىياتچىلىق
نەشرگە
نەشىر
نەشىردىن
نەشىرى
نەشىرىياتى
نەشىرىياتچىلىق
نەشىرياتى
نەشىرگە
نەشپۈت
نەغمە
نەق
نەقىش
نەقىشلىرى
نەقىشلەر
نەقىل
نەقەدەر
نەم
نەملىك
نەملىكنى
نەملىنىشچان
نەمۇنىلىرى
نەمۇنىلەر
نەمۇنە
نەمەنگان
نەنجىڭ
نەنشا
نەي
نەيزە
نەيچە
نەپ
نەپرەت
نەپرەتكە
نەپس
نەپسانى
نەپسانىنىڭ
نەپسانىيەتچىلىك
نەپسى
نەپسىنى
نەپىس
نەپەر
نەپەرگە
نەپەس
نەپەسلىنىش
نەچچىلىك
نەچچىنى
نەچچە
نەگە
نەھل
نەۋا
نەۋاي
نەۋايى
نەۋايىنىڭ
نەۋرىسى
نەۋرىلىرى
نەۋرۇز
نەۋرە
نەۋقىران
نەۋەۋىي
نەۋەۋىينىڭ
ه
هذا
هو
هي
و
وا
واحدة
والا
وب
وباما
وبامانىڭ
وبدان
وبدانراق
وبدانلا
وبراز
وبرازلار
وبرازلىق
وبرازى
وبرازىغا
وبرازىنى
وبزور
وبزورلار
وبزورى
وبلاست
وبلاستلىق
وبلاستنىڭ
وبلاستى
وبلاستىتىگە
وبلاستىغا
وبلاستىنىڭ
وبوروت
وبوروتى
وبىكتى
وبىكتىپ
وبيېكت
وبيېكتى
وبيېكتىپ
وبۇل
وبۇلقاسىم
وت
وتاغ
وتاق
وتتا
وتتو
وتتورا
وتتۇر
وتتۇرا
وتتۇراھال
وتتۇرسىدا
وتتۇرسىدىكى
وتتۇرسىغا
وتتۇرصچە
وتتۇرغا
وتتۇرلىرىدا
وتتۇرلىرىدىن
وتتۇرلىرىغىچە
وتتۇرىدا
وتتۇرىدىكى
وتتۇرىدىن
وتتۇرىسى
وتتۇرىسىدا
وتتۇرىسىدىكى
وتتۇرىسىدىن
وتتۇرىسىغا
وتتۇرىسىنى
وتتۇرىغا
وتتۇرىلىرىدا
وتتۇرىلىرىدىن
وتتۇرىلىرىغىچە
وتتۇرىنى
وتتۇرىچە
وتتۇرچە
وتتۇز
وتتەك
وتقا
وتقاش
وتلاق
وتلىقى
وتلۇق
وتنى
وتنىڭ
وتى
وتىدا
وتىنى
وتۇغات
وتۇن
وخشاتقان
وخشاتما
وخشاش
وخشاشتۇر
وخشاشلا
وخشاشلىق
وخشاشلىقى
وخشاشمايدۇ
وخشاشمىغان
وخشايتتى
وخشايدىغان
وخشايدىكەن
وخشايدۇ
وخشاپ
وخشىتىش
وخشىتىپ
وخشىشىدۇ
وخشىشىپ
وخشىغان
وخشىماسلىق
وخشىماسلىقلار
وخشىماسلىقى
وخشىماسلىقىغا
وخشىمايدىغان
وخشىمايدىغىنى
وخشىمايدۇ
وخشىمىغان
وخشۇتۇپ
ود
ودا
ودال
وداللىق
ودى
ور
وراش
ورال
ورالغان
ورالما
وراپ
وربىتا
وربىتىسى
ورتا
ورتاق
ورتاقلىشىش
ورتاقلىق
ورتاقلىققا
ورتاقلىقى
ورخان
ورخۇن
وردا
وردانىيە
وردو
وردىدا
وردىدىكى
وردىسى
وردىسىدا
وردىسىغا
وردىسىنى
وردىسىنىڭ
وردىغا
وردىنى
وردىنىغا
وردىنىڭ
وردۇ
وردۇسى
وردۇچە
وردېن
وردېنى
ورغاق
ورقۇن
ورما
ورمان
ورمانلار
ورمانلىق
ورمانلىقتا
ورمانلىقى
ورماننى
ورمانچىلىق
ورمىنى
ورناتتى
ورناتقان
ورناپ
ورنى
ورنىتىدۇ
ورنىتىش
ورنىتىشقا
ورنىتىشنى
ورنىتىشى
ورنىتىلدى
ورنىتىلغان
ورنىتىلىدۇ
ورنىتىلىپ
ورنىتىپ
ورنىدا
ورنىدىكى
ورنىدىن
ورنىغا
ورنىمۇ
ورنىنى
ورنىنىڭ
ورنۇمدىن
وروبا
وروبي
وروبية
وروگۋاي
ورىغان
ورىغۇچى
ورىلىپ
ورگان
ورگانغا
ورگانلار
ورگانلاردىن
ورگانلارغا
ورگانلارنى
ورگانلارنىڭ
ورگانلىرى
ورگانلىرىدا
ورگانلىرىدىكى
ورگانلىرىدىن
ورگانلىرىدۇر
ورگانلىرىغا
ورگانلىرىنى
ورگانلىرىنىڭ
ورگاننىڭ
ورگانىزملار
ورگانىك
ورگىنال
ورگىنى
ورگىنىدىن
ورگىنىدۇر
ورگىنىغا
ورگىنىنىڭ
ورھان
ورۇس
ورۇق
ورۇن
ورۇنباسارى
ورۇندا
ورۇنداش
ورۇنداشقا
ورۇندايدۇ
ورۇنداپ
ورۇندىشى
ورۇندىغان
ورۇندىكى
ورۇندىن
ورۇندۇق
ورۇندۇققا
ورۇنسىز
ورۇنغا
ورۇنلار
ورۇنلاردا
ورۇنلاردىكى
ورۇنلاردىن
ورۇنلارغا
ورۇنلارنى
ورۇنلارنىڭ
ورۇنلاش
ورۇنلاشتى
ورۇنلاشتۇردى
ورۇنلاشتۇرغان
ورۇنلاشتۇرىدۇ
ورۇنلاشتۇرىشى
ورۇنلاشتۇرۇش
ورۇنلاشتۇرۇشقا
ورۇنلاشتۇرۇشنى
ورۇنلاشتۇرۇشى
ورۇنلاشتۇرۇلغان
ورۇنلاشتۇرۇلىدۇ
ورۇنلاشتۇرۇلۇشى
ورۇنلاشتۇرۇپ
ورۇنلاشقان
ورۇنلاپ
ورۇنلىرى
ورۇنلىرىدا
ورۇنلىرىدىن
ورۇنلىرىغا
ورۇنلىرىنى
ورۇنلىرىنىڭ
ورۇنلىشىدۇ
ورۇنلىشىش
ورۇنلىشىپ
ورۇنلىغان
ورۇنلۇق
ورۇننى
ورۇننىڭ
ورۇپ
ورەك
ورەككە
وز
وزمۇخ
وزونوسفېرا
وزۇق
وزۇقلاندۇرۇش
وزۇقلىنىدۇ
وزۇقلىنىش
وزۇقلۇق
وزۇن
وس
وساكا
وسكار
وسما
وسمان
وسمانجان
وسمانلى
وسمانلىلار
وسمانلىلارنىڭ
وسمانلىلىق
وسمانلىنىڭ
وسمانلىچىلىق
وسمانلىچە
وسمانلې
وسماننىڭ
وسمانىيلار
وسمانىيە
وسى
وش
وشۇق
وشۇقلارنى
وشۇقنى
وغا
وغرى
وغرىلاپ
وغرىلىغان
وغرىلىقچە
وغلاق
وغلاقنى
وغلان
وغلانغا
وغلانى
وغلى
وغلىدىن
وغلىدۇر
وغلىغا
وغلىنى
وغلىنىڭ
وغلۇ
وغلۇم
وغلۇمغا
وغلۇمنى
وغلۇمنىڭ
وغلۇنىڭ
وغۇت
وغۇز
وغۇزخان
وغۇزخاننىڭ
وغۇزلار
وغۇزلارنىڭ
وغۇزنامە
وغۇل
وغۇلغا
وغۇللار
وغۇللارنىڭ
وغۇللارى
وغۇللىرى
وغۇللىرىدىن
وغۇللىرىغا
وغۇللىرىنىڭ
وغۇلنىڭ
وغۇلچاق
وف
وفىتسېر
وفىزىكا
وفي
وفپرا
وق
وقتەك
وققا
وقلار
وقنى
وقنىڭ
وقى
وقىدا
وقىغان
وقىنى
وقيا
وقياغا
وقيانى
وقيانىڭ
وقياچىلار
وقۇ
وقۇبەت
وقۇتقان
وقۇتقۇچص
وقۇتقۇچصلار
وقۇتقۇچى
وقۇتقۇچىسى
وقۇتقۇچىلار
وقۇتقۇچىلارغا
وقۇتقۇچىلارنى
وقۇتقۇچىلارنىڭ
وقۇتقۇچىلىرى
وقۇتقۇچىلىرىنىڭ
وقۇتقۇچىلىق
وقۇتقۇچىلىققا
وقۇتقۇچىنىڭ
وقۇتقۇچۇم
وقۇتىدۇ
وقۇتۇش
وقۇتۇشنى
وقۇتۇشى
وقۇتۇپ
وقۇدى
وقۇدۇم
وقۇرمەن
وقۇرمەنلىرى
وقۇرمەنلەر
وقۇرمەنلەردىن
وقۇرمەنلەرنى
وقۇرمەنلەرنىڭ
وقۇرمەنلەرگە
وقۇسا
وقۇش
وقۇشتا
وقۇشتىكى
وقۇشتىن
وقۇشقا
وقۇشلۇق
وقۇشلۇقى
وقۇشنى
وقۇشنىڭ
وقۇشى
وقۇشىغا
وقۇشىنى
وقۇغان
وقۇغاندا
وقۇغاندىن
وقۇغانلار
وقۇغانلىقى
وقۇغانلىقىنى
وقۇغۇچصلارنصڭ
وقۇغۇچى
وقۇغۇچىسى
وقۇغۇچىغا
وقۇغۇچىلار
وقۇغۇچىلاردىن
وقۇغۇچىلارغا
وقۇغۇچىلارنى
وقۇغۇچىلارنىڭ
وقۇغۇچىلىرى
وقۇغۇچىلىرىدىن
وقۇغۇچىلىرىغا
وقۇغۇچىلىرىنى
وقۇغۇچىلىرىنىڭ
وقۇغۇچىلىق
وقۇغۇچىنى
وقۇغۇچىنىڭ
وقۇغۇچۇم
وقۇلدى
وقۇلغان
وقۇلىدىغان
وقۇلىدۇ
وقۇلىشى
وقۇلۇشى
وقۇلۇپ
وقۇماق
وقۇماقچى
وقۇماي
وقۇمى
وقۇمىغان
وقۇمۇشلۇق
وقۇيالايدۇ
وقۇيتتى
وقۇيدىغان
وقۇيدىغانلار
وقۇيدۇ
وقۇيمىز
وقۇيمەن
وقۇپ
وقۇڭ
وقۇۋاتقان
وقۇۋاتقاندا
وقۇۋاتىدۇ
وكادا
وكتاۋىي
وكراي
وكسفورد
وكسىد
وكسىدلىنىش
وكسىگېن
وكيان
وكياندا
وكياندىكى
وكيانغا
وكياننى
وكياننىڭ
وكيانىيە
وكۇل
ول
ولا
ولتۇراتتى
ولتۇراق
ولتۇراقلاشتى
ولتۇراقلاشقان
ولتۇراقلىشىش
ولتۇراقلىشىشقا
ولتۇراقلىشىشى
ولتۇراقلىشىپ
ولتۇردى
ولتۇرسا
ولتۇرغان
ولتۇرغاندا
ولتۇرغاندىن
ولتۇرغانلارنىڭ
ولتۇرغۇزدى
ولتۇرغۇزۇپ
ولتۇرىدىغان
ولتۇرىدۇ
ولتۇرۇش
ولتۇرۇشقا
ولتۇرۇشلۇق
ولتۇرۇشى
ولتۇرۇپ
ولتۇرۇپتۇ
ولتۇرۇپلا
ولجا
وللا
ولوگ
ولوگلار
ولوگلىرى
ولوگىيلىك
ولوگىيىسى
ولوگىيىلىك
ولوگىيە
ولوگىيەسى
ولوگىيەلىك
ولى
ولىمپىك
ولۇق
ولېي
وم
وما
وماق
ومان
وماچ
ومومى
ومومىي
ومىچى
ومۇرتقا
ومۇرتقىلىق
ومۇم
ومۇملاشتى
ومۇملاشتۇرۇش
ومۇملاشتۇرۇشقا
ومۇملاشتۇرۇلۇپ
ومۇملاشتۇرۇپ
ومۇملاشقان
ومۇملىشىش
ومۇملىشىشى
ومۇملىشىشىغا
ومۇملىشىپ
ومۇمنىڭ
ومۇمى
ومۇمىي
ومۇمىيۈزلۈك
ومۇميۈزلۈك
ومۇمەن
ومېترىك
ون
ونال
ونالنىڭ
ونبېشى
ونبەش
وندىن
ونسۇ
ونلار
ونلىغان
ونلۇق
وننىڭ
ونى
ونىد
ونىنچى
ونىڭ
وني
وي
ويدۇرما
ويدۇرۇپ
ويرات
ويغا
ويغاتتى
ويغاق
ويغان
ويغاندى
ويغانغان
ويغىتىش
ويغىنىش
ويغىنىشى
ويغىنىپ
ويغۇتۇش
ويغۇر
ويغۇن
ويغۇنۇش
ويلا
ويلار
ويلاش
ويلاشقا
ويلاشقان
ويلايتتى
ويلايتتىم
ويلايدىغان
ويلايدۇ
ويلايمەن
ويلاپ
ويلاپتۇ
ويلاڭ
ويلىدى
ويلىدىم
ويلىسا
ويلىسام
ويلىشىپ
ويلىغان
ويلىغانلىرىم
ويلىغانلىرىنى
ويلىمىغان
ويلىنىش
ويلىنىشقا
ويلىنىپ
ويلۇدۇم
ويلۇنۇپ
ويما
ويمان
ويمانلىق
ويمانلىقنىڭ
ويمانلىقى
ويمانلىقىدا
ويمانلىقىدىكى
ويمانلىقىغا
ويمانلىقىنىڭ
ويمىچىلىق
ويناش
ويناشقا
ويناشنى
وينالغان
وينايتتى
وينايدىغان
وينايدىغانلىقىنى
وينايدۇ
ويناپ
ويناۋاتقان
ويناۋاتىدۇ
وينى
وينىدى
وينىسا
وينىسىمۇ
وينىشى
وينىغان
وينىغاندا
وينىغانلىقىنى
وينىغۇچى
وينىغۇچىلار
وينىلىدىغان
وينىلىدۇ
وينىلىپ
وينىماقتا
وينىيالايدۇ
ويى
ويۇش
ويۇق
ويۇلغان
ويۇن
ويۇندا
ويۇندۇر
ويۇنغا
ويۇنلار
ويۇنلارنى
ويۇنلارنىڭ
ويۇنلىرى
ويۇنلىرىدىن
ويۇنلىرىنى
ويۇنلىرىنىڭ
ويۇننى
ويۇننىڭ
ويۇنى
ويۇنىدا
ويۇنىنى
ويۇنىنىڭ
ويۇنچى
ويۇنچۇق
ويۇنچۇقلارنىڭ
ويۇپ
وپ
وپال
وپالدا
وپتىك
وپتىكا
وپتىكىلىق
وپراتسىيە
وپمۇ
وپىرا
وپىراتسىيە
وپىيە
وپېرا
وپېراتسىيە
وپېرتورلۇق
وپەردىلەر
وپەردىلەرنىڭ
وپەردە
وچاق
وچاققا
وچاقلار
وچاقلىق
وچاقنىڭ
وچىقى
وچۇق
وچۇقتىن
وڭ
وڭاي
وڭايلا
وڭدىن
وڭشاش
وڭغا
وڭچى
وڭۇشسىزلىققا
وڭۇشلۇق
وۋ
وۋغا
وۋلاش
وۋلاشقا
وۋلاپ
وۋچى
وۋچىلىق
ى
ىب
ىبادەت
ىبادەتخانا
ىبادەتخانىسى
ىبادەتكە
ىبادەتلەر
ىبارىسى
ىبارىلەر
ىبارىلەرنى
ىبارىنى
ىبارە
ىبارەت
ىبارەتتۇر
ىبرانى
ىبرانىي
ىبرانىيچە
ىبرانىچە
ىبراھىم
ىبراھىمجان
ىبراھىمغا
ىبراھىمنى
ىبراھىمنىڭ
ىبراھىمىي
ىبرەت
ىبلىس
ىبن
ىبنى
ىبنۇل
ىبىراھىم
ىبىرىيە
ىبىن
ىبېرىيە
ىبەرىلگەن
ىت
ىتالىيان
ىتالىيىدىكى
ىتالىيىدە
ىتالىيىنىڭ
ىتالىيە
ىتالىيەدىكى
ىتالىيەدە
ىتالىيەلىك
ىتالىيەنىڭ
ىتاليان
ىتاليانچە
ىتاي
ىتتا
ىتتىرىپ
ىتتىك
ىتتىن
ىتتىپاق
ىتتىپاقداش
ىتتىپاقداشلار
ىتتىپاققا
ىتتىپاقلاشقان
ىتتىپاقلىشىپ
ىتتىپاقلىق
ىتتىپاقلىققا
ىتتىپاقلىقى
ىتتىپاقلىقىنى
ىتتىپاقنىڭ
ىتتىپاقى
ىتتىپاقىدا
ىتتىپاقىدىكى
ىتتىپاقىدىن
ىتتىپاقىغا
ىتتىپاقىنى
ىتتىپاقىنىڭ
ىتتىڧاقى
ىتتپاقى
ىتتۇر
ىتراپ
ىترىفىل
ىتقا
ىتقاد
ىتلار
ىتلارنى
ىتلارنىڭ
ىتلىرى
ىتنى
ىتنىڭ
ىتى
ىتىبار
ىتىبارغا
ىتىبارى
ىتىبارەن
ىتىدا
ىتىدىكى
ىتىدىن
ىتىدە
ىتىراز
ىتىراپ
ىتىش
ىتىشكە
ىتىغا
ىتىقاد
ىتىقادى
ىتىقادىغا
ىتىقادىي
ىتىقادىچە
ىتىمىز
ىتىمۇ
ىتىنى
ىتىنىڭ
ىتىپ
ىتىپاقى
ىتىپاقىغا
ىتىپاقىنىڭ
ىتىگە
ىتپاقى
ىجابى
ىجابىي
ىجابەت
ىجات
ىجاد
ىجادى
ىجادىي
ىجادىيتى
ىجادىيىتى
ىجادىيىتىدە
ىجادىيىتىنى
ىجادىيىتىنىڭ
ىجادىيىتىگە
ىجادىيەت
ىجادىيەتتە
ىجادىيەتكە
ىجادىيەتلىرى
ىجادچان
ىجادچانلىق
ىجادچىسى
ىجارىگە
ىجارە
ىجازىتى
ىجازە
ىجازەت
ىجازەتنامىسى
ىجازەتنامىسىنى
ىجازەتنامە
ىجتماي
ىجتىماي
ىجتىھات
ىجتىھاد
ىجدىماي
ىجرا
ىجراسى
ىجرانى
ىجراي
ىجراچى
ىجماي
ىجى
ىجىتماي
ىجىتىماي
ىجىرا
ىجىراي
ىختىرا
ىختىساس
ىختىساسلىق
ىختىساسلىقلار
ىختىلاپ
ىختىلاپلار
ىختىلاپلارنىڭ
ىختىيار
ىختىيارسىز
ىختىيارلىقى
ىختىيارى
ىختىيارىي
ىختىيارىيلىق
ىخلاس
ىخلاسمەن
ىخچام
ىد
ىدارى
ىدارىدە
ىدارىسى
ىدارىسىدا
ىدارىسىدە
ىدارىسىغا
ىدارىسىنىڭ
ىدارىسىگە
ىدارىنىڭ
ىدارە
ىدخان
ىدخاننىڭ
ىددىن
ىددىيىسى
ىددىيە
ىدراك
ىدرىس
ىدنىڭ
ىدولوگىيە
ىدولوگىيەنىڭ
ىدى
ىدىسى
ىدىسىنى
ىدىسىگە
ىدىش
ىدىقۇت
ىدىكى
ىدىل
ىدىلوگىيە
ىدىلىرى
ىدىلىرىنى
ىدىلىرىگە
ىدىلىك
ىدىلەر
ىدىلەرنىڭ
ىدىلەرگە
ىدىم
ىدىن
ىدىنى
ىدىنىڭ
ىدىي
ىدىيسى
ىدىيىسى
ىدىيىسىدە
ىدىيىسىنى
ىدىيىسىنىڭ
ىدىيىسىگە
ىدىيىلەر
ىدىيىلەرنى
ىدىيىنى
ىدىيىگە
ىدىيىۋى
ىدىيۋى
ىدىيە
ىدىيەسى
ىدىيەسىنى
ىدىيەلەر
ىدىيەنى
ىدىيەگە
ىدىيەۋى
ىدىڭ
ىدىگە
ىدۇق
ىدۋارد
ىدېي
ىدە
ىر
ىرادىسى
ىرادىسىدىن
ىرادىسىنى
ىرادىسىگە
ىرادىلىك
ىرادىنى
ىرادىگە
ىرادە
ىراق
ىراقتا
ىراققا
ىراقنىڭ
ىران
ىراندا
ىراندىكى
ىراندىن
ىرانغا
ىرانلىق
ىرانلىقلار
ىراننىڭ
ىراي
ىردا
ىردىكى
ىرسى
ىرسىنى
ىرسىي
ىرسىيەت
ىرشاد
ىرغا
ىرق
ىرقى
ىرقىنىڭ
ىرقىي
ىرقچىلىق
ىرلار
ىرلاردىن
ىرلارنى
ىرلارنىڭ
ىرلاندىيە
ىرلىرى
ىرلىرىدا
ىرلىرىدىن
ىرلىرىم
ىرلىرىنى
ىرلىرىنىڭ
ىرلىق
ىرلىك
ىرنى
ىرنىڭ
ىرى
ىرىدا
ىرىدىكى
ىرىدىن
ىرىدە
ىرىسى
ىرىسىدىكى
ىرىسىدىن
ىرىسىدە
ىرىسىنى
ىرىسىنىڭ
ىرىسىگە
ىرىشتى
ىرىشكىلى
ىرىشكەن
ىرىشىدۇ
ىرىشىش
ىرىشىپ
ىرىلىرى
ىرىلىرىنىڭ
ىرىلىك
ىرىنى
ىرىنىڭ
ىرىي
ىرىيىتى
ىرىيىتىدىكى
ىرىيىتىنىڭ
ىرىيەت
ىرىگە
ىرپان
ىرۇر
ىرېلاندىيە
ىرە
ىز
ىزا
ىزاھ
ىزاھات
ىزاھاتلار
ىزاھاتى
ىزاھلار
ىزاھلاش
ىزاھلاشقا
ىزاھلانغان
ىزاھلايدۇ
ىزاھلاپ
ىزاھلىغان
ىزاھلىغۇچى
ىزاھلىق
ىزباسار
ىزدىدى
ىزدىشى
ىزدىنىدۇ
ىزدىنىش
ىزدىنىشكە
ىزدىنىپ
ىزدىنىۋاتقان
ىزدىگەن
ىزدە
ىزدەش
ىزدەشكە
ىزدەشنى
ىزدەندى
ىزدەنمەكتە
ىزدەنگەن
ىزدەيدىغان
ىزدەيدۇ
ىزدەپ
ىزدەڭ
ىزدەۋاتقان
ىززەت
ىززەتبېگوۋىچ
ىزلار
ىزلارنى
ىزلىرى
ىزلىرىدىن
ىزلىرىنى
ىزلەپ
ىزم
ىزمىت
ىزمىر
ىزناسى
ىزنالىرى
ىزنى
ىزوتوپ
ىزوتوپلىرى
ىزى
ىزىدىن
ىزىغا
ىزىنى
ىزچىل
ىزچىللىق
ىزچىللىقى
ىزگۈ
ىزھار
ىس
ىسا
ىسانىڭ
ىستاتىستىكا
ىستاكان
ىستان
ىستانبۇل
ىستانبۇلدا
ىستانبۇلدىكى
ىستانبۇلغا
ىستانبۇلنى
ىستانبۇلنىڭ
ىستانسى
ىستانسىسى
ىستانسىسىدا
ىستانسىسىغا
ىستانسىسىنىڭ
ىستانسىلىرى
ىستانسىلىرىنىڭ
ىستانسىنىڭ
ىستانىسى
ىستراتېگىيىسى
ىستراتېگىيىلىك
ىستراتېگىيە
ىستراتېگىيەلىك
ىستىخبارات
ىستىخباراتنىڭ
ىستىخىيىلىك
ىستىقامەت
ىستىقبال
ىستىقبالى
ىستىقبالىغا
ىستىقبالىنى
ىستىقلال
ىستىكى
ىستىكىڭىزنى
ىستىلا
ىستىلاسى
ىستىلاسىدىن
ىستىلى
ىستىمال
ىستىمالدىن
ىستىمالچى
ىستىمالچىلار
ىستىمالچىلارنىڭ
ىستىمەس
ىستىپا
ىستىگەن
ىستىھسان
ىستېتىك
ىستېداتلىق
ىستېلا
ىستېلاسى
ىستېمال
ىستېمالدىن
ىستېمالچىلار
ىستېمالچىلارغا
ىستېمالچىلارنى
ىستېمالچىلارنىڭ
ىستېپا
ىستەك
ىستەكلىرىنى
ىستەكنى
ىستەكنىڭ
ىستەيدىغان
ىستەيدۇ
ىستەيسىز
ىسرا
ىسراي
ىسراپ
ىسراپچىلىق
ىسرىق
ىسساك
ىسسىق
ىسسىقتىن
ىسسىققا
ىسسىقكۆل
ىسسىقلىق
ىسسىنىش
ىسسىپ
ىسكىرىپكا
ىسكىلات
ىسكىلاتتا
ىسكىلاتى
ىسكەندەر
ىسكەندەرنىڭ
ىسلام
ىسلامدا
ىسلامدىكى
ىسلامدىن
ىسلامغا
ىسلاملىشىش
ىسلامنى
ىسلامنىڭ
ىسلامى
ىسلامىي
ىسلامىيەت
ىسلامىيەتتىن
ىسلامىيەتكە
ىسلامىيەتنى
ىسلامىيەتنىڭ
ىسلامي
ىسلامچىلىق
ىسلاند
ىسلاندىيە
ىسلاھ
ىسلاھات
ىسلاھاتتىن
ىسلاھاتنى
ىسلاھاتى
ىسلاھاتچى
ىسلاھاتچىلىق
ىسلىرى
ىسلىك
ىسلىككە
ىسلىكىگە
ىسماي
ىسمايىل
ىسملىك
ىسمى
ىسمىدىن
ىسمىدۇر
ىسمىغا
ىسمىم
[...]
