!
"
#
##0
##1
##10
##11
##12
##13
##14
##15
##16
##17
##18
##19
##2
##20
##21
##22
##23
##24
##25
##26
##27
##28
##29
##3
##30
##31
##32
##33
##34
##35
##36
##37
##38
##39
##4
##40
##41
##42
##43
##44
##45
##46
##47
##48
##49
##5
##50
##51
##52
##53
##54
##55
##56
##57
##58
##59
##6
##60
##61
##62
##63
##64
##65
##66
##67
##68
##69
##7
##70
##71
##72
##73
##74
##75
##76
##77
##78
##79
##8
##80
##81
##82
##83
##84
##85
##86
##87
##88
##89
##9
##90
##91
##92
##93
##94
##95
##96
##97
##98
##99
$
%
&
'
(
)
*
+
,
-
.
/
0
00
000
001
01
0183
02
03
04
05
06
0632
07
08
09
1
10
100
1000
10000
1006
1008
101
1012
1017
1018
102
1024
103
1031
104
1040
1041
1048
105
1056
1057
1058
106
107
1071
1072
1074
1075
108
1080
1085
109
1090
1095
1096
1097
1099
11
110
1100
1105
111
1111
112
113
114
1147
115
116
1160
117
118
1187
119
12
120
1200
12000
1204
121
1211
1212
1219
122
1220
1225
1226
1227
1228
123
1230
124
1241
1247
125
1250
1251
1258
1259
126
1260
1261
1264
1266
1269
127
1270
1271
1272
1273
1274
1275
1277
1279
128
1285
1286
129
1299
13
130
1300
131
1312
1318
132
1326
133
1330
1334
1335
1336
134
1345
1348
135
1354
136
1360
137
1370
1371
1372
1373
138
1383
139
14
140
1400
1401
1403
1405
141
1416
142
1420
143
144
1442
1448
145
1451
1453
146
147
148
1487
149
1492
15
150
1500
1501
1505
151
1514
1516
1517
152
1520
153
1533
154
155
1550
156
157
1570
158
1582
159
1596
16
160
1600
161
1610
162
163
1636
1638
164
1640
1644
165
166
167
1678
168
169
1696
1697
17
170
1700
1709
171
1711
172
1721
173
1730
174
1740
175
1750
1755
1757
1759
176
1760
1762
177
1770
1773
1775
1776
178
1780
1783
1789
179
1790
1792
1793
1795
1797
1798
1799
18
180
1800
1802
1804
1805
1808
1809
181
1810
1813
1815
1817
1818
182
1820
1821
1822
1823
1825
1826
1827
1828
183
1830
1831
1832
1833
1834
1835
1836
1837
1838
1839
184
1840
1841
1842
1843
1844
1845
1847
1848
1849
185
1850
1851
1852
1853
1854
1855
1856
1857
1859
186
1860
1861
1862
1863
1864
1865
1866
1867
1868
1869
187
1870
1871
1872
1873
1875
1876
1877
1878
1879
188
1880
1881
1882
1883
1884
1885
1886
1887
1888
1889
189
1890
1891
1892
1893
1894
1895
1896
1897
1898
1899
19
190
1900
1901
1902
1903
1904
1905
1906
1907
1908
1909
191
1910
1911
1912
1913
1914
1915
1916
1917
1918
1919
192
1920
1921
1922
1923
1924
1925
1926
1927
1928
1929
193
1930
1931
1932
1933
1934
1935
1936
1937
1938
1939
194
1940
1941
1942
1943
1944
1945
1946
1947
1948
1949
195
1950
1951
1952
1953
1954
1955
1956
1957
1958
1959
196
1960
1961
1962
1963
1964
1965
1966
1967
1968
1969
197
1970
1971
1972
1973
1974
1975
1976
1977
1978
1979
198
1980
1981
1982
1983
1984
1985
1986
1987
1988
1989
199
1990
1991
1992
1993
1994
1995
1996
1997
1998
1999
2
20
200
2000
2001
2002
2003
2004
2005
2006
2007
2008
2009
201
2010
2011
2012
2013
2014
2015
2016
2017
2018
2019
202
2020
2021
2022
203
204
205
206
207
208
209
21
210
2100
211
212
213
214
215
216
217
218
219
22
220
2200
221
222
223
224
225
226
227
228
229
23
230
2300
231
232
233
234
235
236
237
238
239
24
240
2400
241
242
243
244
245
246
247
2479
248
249
25
250
2500
251
252
253
254
255
256
257
258
259
26
260
2600
261
262
263
264
265
266
267
268
269
27
270
2700
271
272
273
274
275
276
277
278
279
28
280
281
282
283
284
285
286
287
288
289
29
290
291
292
293
294
295
296
297
298
299
3
30
300
3000
301
302
303
304
305
306
307
308
309
31
310
311
312
313
314
315
316
3166
317
318
319
32
320
321
322
323
324
325
326
327
328
329
33
330
3300
331
332
333
334
335
336
337
338
339
34
340
341
342
343
344
345
346
347
348
349
35
350
3500
351
352
353
354
355
356
357
358
359
36
360
3600
361
362
363
364
365
366
368
37
370
372
374
375
376
38
380
3800
381
382
383
384
385
386
387
388
389
39
390
392
393
394
395
397
398
399
4
40
400
4000
401
402
403
404
405
406
407
408
41
410
412
413
414
415
416
417
418
42
420
423
424
425
427
429
43
430
431
432
435
437
438
44
440
443
445
447
448
449
45
450
4500
451
452
454
458
46
460
462
466
467
468
47
470
475
476
48
480
4800
484
485
487
488
49
490
492
496
5
50
500
5000
503
504
505
506
508
51
510
512
513
514
516
517
518
519
52
520
521
525
527
53
530
532
534
535
537
538
54
540
541
542
543
544
55
550
552
557
558
56
560
561
562
564
565
567
57
570
571
573
574
575
577
578
58
580
581
583
586
587
59
590
594
595
6
60
600
6000
601
602
603
605
608
609
61
610
612
613
614
615
617
618
619
62
620
621
622
623
624
625
626
627
628
629
63
630
632
633
634
636
637
638
639
64
640
641
642
644
645
646
647
648
649
65
650
651
652
653
654
655
656
657
659
66
660
661
663
664
665
666
667
67
670
671
672
674
676
678
679
68
680
682
685
69
691
693
694
696
697
699
7
70
700
7000
705
71
710
711
712
714
715
716
717
718
719
72
720
721
723
724
725
727
73
731
734
736
737
74
740
742
744
745
747
749
75
750
751
754
755
756
757
758
759
76
762
763
765
766
767
768
77
770
771
776
78
780
788
789
79
790
791
795
798
8
80
800
8000
805
806
808
81
810
812
82
820
821
824
83
830
839
84
840
841
842
846
847
848
85
850
852
853
855
856
857
859
86
8611
87
870
873
88
880
888
89
893
9
90
900
9000
907
91
910
911
92
920
923
924
93
930
932
94
940
945
95
950
955
956
958
96
960
961
962
97
970
971
978
98
980
982
983
985
99
990
992
993
994
995
997
998
999
:
;
<
=
>
?
@
\
^
_
`
a
aa
ab
abc
abd
abdu
abdullah
abidin
ablon
about
abstracts
ac
academy
access
account
activity
ad
adaları
adalet
add
added
address
adds
adem
ademler
adlı
administrative
adı
adını
af
afghanistan
afrika
after
ag
age
agency
ah
ahale
ahalisi
ahmed
ahmet
ai
aip
air
airport
ais
ait
ajax
ak
aksa
al
alahide
alahidiliki
alan
albert
aldi
aldigha
aldinqi
aldı
alem
alex
alexander
alghan
ali
alidighan
alidu
alimi
alimlar
alimliri
aliy
all
allah
alma
almanya
almashturush
alpha
alphabet
already
als
also
alt
altay
altbas
alte
altun
altyazı
altında
alır
alıs
am
ama
amac
amazon
ame
america
american
amerika
amirika
among
an
ana
anabas
ancak
anche
and
andin
android
ang
aniden
ankara
anlamında
announcement
another
any
anın
apet
apple
april
aptonom
aptonum
aq
aqsu
aqsugha
ar
ara
arabic
arap
aras
arasında
archery
archive
archived
are
area
arian
arid
ariliqi
ariliqta
arip
arisida
arisidiki
arm
armenian
armstrong
arqa
arqiliq
ars
art
article
articles
artuq
arxe
as
asas
asasen
asasi
asasida
asasiy
asaslanghanda
asaslinip
asasliq
asasliqi
ashina
ashqan
asia
asiya
asiyadiki
asiyadin
asiyaning
ask
askeri
asman
asp
aspx
assaslik
assisted
association
asta
astida
at
ata
atalghan
atalmish
atatu
ataydu
ates
atighan
atilidu
atlantik
atliq
atum
au
august
authentication
automatic
automatically
autonomous
available
avrupa
awghust
awin
axiri
axirida
axirqi
ay
ayan
ayda
aymiqi
aymiqining
ayning
aynı
ayrilip
ayrim
ayrip
ayrıca
aysajan
az
azirki
b
ba
babel
back
bag
bahasi
baidu
baj
bakınız
bangkok
bar
barat
bardi
barghan
baridighan
baridu
barliq
barliqqa
barıs
bas
based
bash
bashlan
bashlanghan
bashlap
bashlaydu
bashlidi
bashlighan
bashliqi
bashqa
bashqarmisi
bashqurush
basic
baskısı
basturup
batı
baviera
bay
bayan
bayliqi
bayriqi
bazar
bazargha
baziri
bazı
bb
bbc
bbs
be
because
been
before
being
belki
belkim
bell
belli
below
ben
bene
ber
berdi
bergen
berpa
bes
besh
best
bet
beta
betawiki
betler
between
beyet
bezi
bg
bi
bic
bildu
bile
bilen
bilge
bilgi
bilgiler
bilim
bilip
biliwal
bill
bille
bin
bint
biogenic
bir
biraq
birge
biri
biridin
birige
birinchi
birinci
birini
birk
birles
birlig
birlikke
birlikte
birliship
birqeder
bit
biwaste
biz
bizge
bizning
bkz
black
blog
blogbus
bn
bo
bolap
bolatti
boldi
bolgan
bolghachqa
bolghan
bolghanda
bolghandin
bolidu
bolishi
bolmastin
bolmaydu
bolmighan
bolsa
bolsaq
bolsimu
bolsun
bolup
bolupmu
bolush
bolushi
book
books
boran
border
boshluqning
bot
bots
bottom
box
boxes
boyiche
boylap
boyunca
br
brahim
brill
britaniye
britannica
bs
bu
budapest
budda
bug
bugu
bularning
bulidu
bulunan
bulup
bundaq
buni
buning
buningdin
buninggha
bunun
burada
burun
burunqi
but
buxara
buyan
buyiche
by
c
ca
cafe
caffe
california
called
caltech
cambridge
can
capita
capital
caption
carcan
cas
cat
categories
category
cbs
cc
cd
ce
census
center
central
centre
ceo
ch
cha
chaghda
chaghdiki
chaghdin
chaghlarda
chamma
chammadana
change
changes
chaqiliq
chaqirim
charchan
charles
charwichi
chataq
che
check
chemistry
cherchen
chet
chetel
chi
china
chinchi
chinese
ching
chingxey
chini
chining
chip
chiqarghan
chiqidu
chiqip
chiqish
chiqqan
chiqti
chira
chke
chken
chlu
cho
chocolate
chong
chongqur
chu
cia
cicero
cisc
city
click
cloud
cm
cn
cnn
co
coat
code
coffee
cog
col
color
com
commons
community
complete
computer
con
congress
content
convert
cook
coordinates
copy
coronavirus
corporation
correct
cortado
could
council
countries
country
cov
covid
cpu
create
crh
crispr
cs
css
cu
cube
culture
cumhuriyeti
currency
current
currently
cut
cyrillic
d
da
daha
daily
dairaiqida
daki
dan
dane
dangliq
das
data
date
david
davud
dawamliq
day
db
dc
dd
ddd
ddos
de
december
default
deg
dek
del
delivery
dell
den
density
dep
department
deprecated
deputy
der
dergisi
derijide
derya
deryasi
deryasining
des
description
desert
deslep
deslepki
details
development
devleti
devletleri
dewri
dewride
dewridiki
dewrige
dfg
di
dictionary
die
different
dig
digen
digital
diki
dikibixahar
din
dini
dinigha
dinini
diode
discussion
disp
distributed
diyilgen
dna
do
doc
documentation
does
dog
dollar
dolliri
don
donation
done
dos
dosya
dr
dreamland
du
dulat
dunya
dunyada
dunyadiki
dunyagha
dunyaning
durum
dv
dvd
e
each
east
ebu
economic
ed
eden
edilmis
edit
edition
editors
edu
ee
efendi
eg
eger
egiship
egu
ehir
ehri
ehwali
einstein
ejdadle
ek
ekilde
ekles
ekonomik
el
elchi
elchiler
ele
elwette
emes
emevi
emir
emissions
emma
empire
en
enabled
encyclopedia
encyclopædia
end
endu
ene
energiya
eng
enge
english
enning
enver
eo
ependi
er
eratosthenes
erdoghan
ereb
eren
eri
eris
erisinde
erkin
ertesinde
es
esc
eserliri
esir
esirdin
esiride
esirning
esli
eslide
eslige
esposito
espresso
est
established
establishment
estimate
et
etc
ethnic
etik
etiket
etmek
etmis
etrapida
etrapqa
etti
ettig
eu
eur
europe
european
ev
even
event
everland
everyone
ewetip
ex
example
excel
extensions
extra
ey
eyni
eysaning
eza
ezeldin
f
fa
face
facebook
faku
false
faq
fazla
fbi
fe
federal
feminism
festival
ff
fi
file
film
final
find
finland
first
fix
fizika
flag
flash
following
foot
footnote
for
forcetoc
format
foundation
fr
framework
franc
france
francisco
fransa
fransiye
fransuz
frappe
free
freebsd
from
full
function
further
future
g
ga
gandhi
garmin
gb
gdp
ge
gec
gelerek
gelir
gelis
gen
genel
general
genis
genju
genocide
gensu
gensuning
geophysical
george
gerardm
gerc
gerche
geri
german
get
gey
gg
gh
gha
ghan
ghayet
gherb
gherbi
gherbidiki
gherbiy
gherbke
gherpke
ghi
ghining
ghir
ghiz
ghz
gi
gibi
gif
gini
gippert
giris
girmaniye
gives
giz
gje
gliz
global
gmail
gmt
gnu
go
going
good
google
gov
government
gps
gpu
gra
gre
great
gu
gua
guide
guma
guo
h
ha
hac
hakimiyet
hakkında
hal
halak
halda
hale
halife
halifesi
haline
harem
has
hasil
have
hawa
hayat
hazir
hazirghiche
hazirmu
hazirqi
hdi
he
health
hediye
hel
hello
help
hem
hemde
hemme
hemmisi
henry
heqqide
heqqidiki
her
herbiy
here
herket
herketlinish
herkettiki
herkiti
herqandaq
herqaysi
hetta
hey
heyder
heyran
hezriti
hh
hi
hic
high
hindi
hindistan
his
hisaplinidu
hispania
history
ho
holy
home
hon
hong
hope
horatius
house
how
hp
hqanchiliq
hr
hrw
hsb
htm
html
http
https
hu
hujum
hukuk
human
humboldt
hz
i
ia
ibaret
ibm
ibn
ibook
ic
iced
ichide
ichidiki
ichige
ichki
id
ide
idea
idi
idisi
ie
if
ifade
ige
igileydu
igilik
ii
iii
ik
iken
ikenlikini
iki
ikki
ikkinchi
il
ilahi
ilan
ildir
ile
ilghar
ilgili
ilgiri
ilgiriki
ili
iliktir
ilim
ilk
ilmi
ilmiy
im
imac
image
images
imdb
imi
impe
in
inc
inci
including
inde
index
indonesia
ine
info
infobox
infoboxes
information
ini
inin
inirgiye
inisi
inlun
ins
insan
insanlar
insanlarning
institute
instruction
intayin
intel
intelligence
interested
interface
international
interwiki
into
introduction
ios
ipod
ipv
iq
iqtisad
iqtisadi
iqtisadiy
ir
iran
irisi
irpa
is
isbn
ise
ish
ishbara
ishle
ishlepchiqirish
isi
islam
islamic
ismi
iso
ispaniye
issues
istanbul
istiyorsan
it
italiye
itemid
itli
itools
its
ittipaqdash
ittipaqi
ittipaqigha
iv
ix
iy
iyi
izda
j
ja
jacob
jalalidin
james
jan
january
javascript
jay
jayda
jaylar
jaylashqan
jaylaxkan
je
jean
jehette
jehettiki
jehettin
jemiyiti
jenub
jenubi
jenubidiki
jenubiy
jenupqa
jenupta
jerusalem
jin
jisimning
jobis
jobs
john
jose
joseph
jost
journal
jpg
jpl
ju
jughrapiye
july
jumhuriyet
jumhuriyiti
june
jungghar
junggo
junggodiki
junggogha
junggoning
jurja
just
k
ka
kabul
kac
kadar
kala
kalır
kamalov
kamboc
kanada
kapısı
karl
kars
kas
ke
keldi
kelgen
kelgende
kelgu
kelmekte
keltu
kemal
ken
kendi
keng
kennedy
kent
kenya
kes
ketken
ketse
ketti
kg
kgb
ki
kichik
kilidighan
kilidu
kilome
kilometir
kim
kimxap
kin
kinci
king
kingdom
kirek
kirgen
kirgu
kiridu
kirim
kirip
kis
kishi
kishiler
kishilerning
kishilik
kistan
kitabı
kitap
kitik
kiyim
kiyin
kiyinki
kk
km
kning
know
ko
kocha
komite
kompyote
kona
kongo
konya
korea
krallık
kroran
ksek
ksh
ksiz
ktar
ktu
ku
kubbe
kubbetu
kuchar
kudu
kulalchilar
kullanılan
kullanılır
kuni
kus
kutusu
kuwadirat
kuzey
kwadrat
kwe
kıble
kısa
kısmı
l
la
label
ladı
lagash
lait
lan
land
language
languages
lar
lardır
largest
latin
latitude
latte
law
lb
lc
lcd
lchu
ldi
ldu
le
leader
leche
led
lee
left
ler
lerdir
leri
les
let
letis
letler
letlerning
letliri
letning
letter
leyman
lgen
lgendin
lgesi
li
library
lidighan
lidu
life
lik
like
limi
lindi
line
linghan
link
links
linux
lip
liq
lis
lish
lishqa
list
liti
litining
live
lk
lke
lkisi
ll
llu
lo
local
localisation
localised
localising
location
logo
logs
london
longitude
look
lop
louis
lower
loyang
lt
ltesi
ltu
lu
lutpulla
lv
lı
lık
m
ma
mac
macchiato
machine
macintosh
macos
macworld
magazine
mahmud
main
major
make
mal
maliye
mama
mamtimin
man
mana
mangghanda
mani
manlar
manually
many
map
mapsource
maqale
march
margaret
mark
martin
massa
mate
max
may
maydani
mb
mchi
mdin
me
medeniyet
medeniyiti
medeniyitini
media
mediawiki
medine
medya
meghlup
mehmet
meixner
mejbur
mek
mektep
melike
melikisi
melum
melumat
memliketlik
memuriy
men
menbesi
menggu
menidiki
menilik
mer
meripet
merkez
merkizi
merkiziy
mescid
mescidi
mescidin
mescit
meshhur
mesi
mesile
mesilen
message
messagepad
messages
met
meta
metformin
metropole
mewjut
mewlane
meydan
meydani
meyli
mezgil
mezgilde
mezgilide
mezmuni
mhz
mi
michael
microformat
microformats
microsoft
middle
might
mike
mil
miladi
miladidin
miladining
miladiye
miladiyedin
millet
milletler
milletlerning
milli
million
milliy
milyard
milyon
min
ming
mini
miqdari
mirza
mis
mit
miti
mk
mkin
ml
mler
mlu
mm
mn
mo
mocha
mode
model
modern
mohammed
molla
mongghul
more
most
motorola
motto
mottosu
moyunchu
mp
mparatorlug
mr
mranliq
ms
mu
much
muhammad
muhammed
muhim
mumkin
munasiwet
munasiwetlik
munasiwiti
mundaq
munqerz
muqeddes
muqim
musa
mushu
music
muslim
muslims
must
mustafa
mustakkil
musteqil
musteqilliq
musulman
mutleq
muzika
muzikisi
mv
my
mısır
n
na
nahayiti
nahiye
nahiyesi
nahiyisi
nahiyisige
nahiyisining
nam
namaz
name
nami
namining
namlar
namliq
namliri
nasa
nation
national
nations
nature
navigation
nce
ncu
nd
nde
ndeki
ndi
ndin
nds
ndu
ne
nec
nechche
neden
need
nemde
nemi
neminde
nemli
nemo
nen
nepal
nes
neshr
neshri
neshriyati
neshryati
nesridin
net
netflix
netijide
netijisi
new
news
newsletter
newton
next
ney
nezirye
neziryisi
neziryisidiki
neziryisini
ng
ngi
ngiz
nglu
ngu
ni
nihil
nin
ning
niq
nisbeten
nispiylik
nitric
niversitesi
niye
niyotun
niyotunning
nki
nku
nl
nley
nlu
nn
nning
no
nominal
non
nopus
nopusi
nopusibar
north
northern
not
note
notice
now
nsey
nt
nu
number
nun
nuqta
nur
nurghun
nurghunlighan
nusxisi
nya
nyanın
nın
o
oadm
oblasti
oblysy
oc
of
office
official
og
oghli
ok
okyan
ol
olan
olarak
old
oldu
oldug
olla
olmak
olmaz
olmus
olsun
olturaqlashqan
olus
omumi
omumiy
on
one
ong
online
only
onun
oo
openoffice
operator
option
oq
oqush
or
order
org
organization
orientalstudies
original
orni
ornigha
orqun
orta
ortaq
orun
orunda
os
osman
osmanlı
other
ottoman
ottura
otturgha
otturiche
otturigha
otughat
our
out
over
oxford
oxide
oxshash
oxshashla
oxshimighan
oymanliqi
oymanliqining
oz
p
pa
padishah
padishahi
padishahliqi
page
pages
pakistan
pakitlar
palestine
palm
palmos
pamir
pante
papa
para
parameter
parameters
parametre
parametresi
parc
parche
paris
parlame
part
partiyisi
pas
pathoschild
paul
pay
paydilinip
paytahti
paytext
paytexti
pc
pda
pdf
pe
pek
pelsepe
pen
penler
people
peqet
per
peslide
peyda
peygamber
ph
phase
php
pi
pichan
picture
pile
pilghan
pippin
pixar
pizza
pk
pl
place
plantilla
please
pligen
plus
pm
png
policy
politics
polsha
pop
population
poqtamuri
poqtanomuri
possible
post
power
powerbook
powermac
powerpc
powerschool
poyizning
pp
ppp
practice
pre
prek
press
pro
problems
proceedings
prof
program
programming
project
projects
proof
prophet
provide
province
ps
pt
pu
public
publications
pul
purpose
px
pywikipedia
q
qa
qaghan
qaghangha
qaghani
qaghanning
qaldi
qaldurup
qalghan
qan
qanche
qandaq
qanliq
qanuni
qara
qarap
qaraqash
qarar
qaraydu
qarighan
qarighanda
qarishi
qarita
qarluq
qarshi
qasim
qatarliq
qatarliqlar
qatarliqlarning
qatnash
qattiq
qaysi
qayta
qaytip
qayturup
qazaqistan
qe
qebilile
qebilisi
qeder
qedimki
qedimqi
qeshqer
qi
qilatti
qildi
qilghan
qilghanda
qilghandin
qilghuch
qilidighan
qilidu
qilin
qilindi
qilinghan
qilinip
qilip
qilish
qilishi
qilishqa
qiliwatqan
qimmetlik
qin
qinqi
qirghiz
qishta
qisim
qismi
qismigha
qisqa
qisse
qizil
qobul
qoghlap
qolgha
qong
qoral
qori
qosh
qoshma
qoshun
qoshunle
qoydi
qoyghan
qoyidu
qoyulghan
qoyup
qq
quam
quantum
questions
qui
quicktime
quju
qum
qumluq
qumul
quod
qurghan
qurqan
qurulghan
qurup
quruqluq
qurutining
qutluq
quyash
r
ra
rafi
rafya
rafyanın
rain
ram
ran
rank
rayon
rayoni
rayonida
rayonining
rayonmuri
rayunnomuri
rd
rdi
re
read
reading
real
recent
recognized
red
ref
reference
region
regional
regions
rejep
rek
religion
ren
renglik
report
representative
republic
request
required
research
resh
reshidi
resim
resimqis
resistor
resmi
ret
retrieved
review
rfa
rgen
rgezmiside
rgu
rh
ri
richard
ridighan
ridin
ridu
rige
righ
righa
right
rights
rika
rilgen
rim
rimiz
rindashle
rini
rining
rip
riq
risc
rish
rishken
riye
rk
rkc
rki
rkistan
rkistanning
rkiye
rkiyening
rkler
rklerdin
rklerge
rklerning
rku
rlar
rlarning
rlu
rmaniye
rna
rneg
rnek
rning
ro
road
robert
robot
rohan
rol
rom
roma
romagha
roman
ron
rosiye
rp
rpic
rr
rsitidu
rsitip
rsu
rt
rtu
ru
rufus
rule
run
russian
rw
rz
s
sa
sabiq
sablinidu
sadece
sag
sage
sahra
same
samsung
san
sana
sanat
sandiki
sani
sanliq
sapal
sarmadan
sars
sartre
savas
sayahet
sayı
school
science
sciences
scientific
script
sculley
se
sebep
sec
second
section
security
sed
see
selim
sen
senesinde
seplengen
server
set
sh
sha
she
sheher
sheherler
sheherning
shehiri
shehiride
shehirining
shehri
sherq
sherqi
sherqiy
sherqqe
sherqte
sherqtin
shi
shigha
shimal
shimalda
shimaldiki
shimali
shimalida
shimalidiki
shimaliy
shinjang
shinjangning
shirkiti
shirkitining
shitati
shizang
shke
should
show
shtatliri
shtml
shu
shuki
shundaq
shundaqla
shundin
shunga
shunglashqa
shuning
shuningdin
shwe
si
sic
sichu
side
siggraph
sign
significant
simple
sina
sine
single
sip
sir
siri
sirislar
sirisler
sirisliqlar
siste
site
sites
siwalidu
siyaset
siyasi
siyasiy
size
sjabloon
sk
sl
sla
slam
slu
small
smart
so
social
society
sociology
soda
software
sog
soil
some
son
sonra
sosyal
sosyoloji
sotsiyalistik
source
south
southern
sovereignty
soviet
sovyetler
sowe
space
spanya
special
specific
speedy
sq
square
sr
srail
ss
st
stanbul
standard
start
stat
state
states
statistic
ste
stephen
steve
stide
stige
stili
still
stimisi
stiwe
store
story
strength
string
stu
studies
studio
study
su
sub
subpage
such
sulalisi
sulalisige
sulalisigha
sulalisini
sulalisining
sultan
sume
summary
summit
sun
sung
sunt
super
support
surları
sv
svg
svn
swot
symbol
system
sınıf
sırasında
t
ta
tab
tagh
taghle
taki
talk
talya
tam
tamamen
tan
tang
tanrı
tapqan
tapınag
tapınak
tar
tarafından
tari
tarihi
tarihinde
tarim
tarix
tarixi
tarixida
tarixiy
tarixta
tarmiqi
tarnovo
tarqalghan
tartip
tartish
tartishsh
tartıs
tas
tash
tashlap
tashqi
tashqiri
tayyip
tdk
te
team
tebi
tech
technical
technology
tejirbe
tek
teki
teklimakan
tekshu
telep
teleppuz
template
templates
ten
teng
ter
terep
terepke
tereptin
tereqqi
tereqqiy
tereqqiyat
teripi
teripidin
terjime
tes
teshkil
teshkilati
tesir
tesis
teslim
test
tetqiq
tetqiqat
tewe
tewesidiki
texminen
text
textke
tft
th
than
thank
thanks
that
the
their
them
then
theory
there
these
they
things
think
this
thomas
thread
three
through
thumb
thumbnail
ti
tibet
tibetler
tibetlerge
tibetlerning
tid
tidu
tige
til
tilgha
tili
tilida
tilini
till
tillar
tilliri
tim
time
times
timliq
tinich
tip
tir
tirdig
tish
title
tiz
tizliki
tizlikining
tken
tku
tmey
to
today
toghirisidiki
toghra
toghrisida
toluq
top
topilang
toqquz
tor
total
toy
tr
trans
translate
translated
translatewiki
translations
true
trump
ts
tt
tu
tughluq
tun
tunji
tur
turatti
turghan
turidighan
turidu
turk
turkey
turkic
turkish
turpan
tursun
turup
tutishidu
tv
two
type
tır
u
uc
uey
ug
uk
ul
ular
ularni
ularning
ulas
ulugh
uluk
uly
un
undaqta
under
undin
unesco
uni
unicode
uning
uningdin
uninggha
union
united
universal
university
uniwe
unix
unreviewed
unu
up
update
upload
upright
ur
url
urumqi
uruqini
urush
urxun
us
usa
usage
use
used
user
users
using
ustos
usul
ut
utc
utm
uy
uycnr
uyghun
uyghur
uyghurche
uyghurlar
uyghurlarning
uygun
uygur
uz
uzaq
uzun
uzunluk
uzunluqi
v
va
van
var
vardır
varolus
vc
ve
veliko
veri
verir
version
very
vi
via
video
view
viewthread
viii
vis
vo
vol
volkswagen
von
vorlage
vs
vu
vv
w
wa
wang
want
wapat
wapi
waqit
waqitta
waqti
waqtida
war
was
washington
washshehri
watch
water
watt
wavesplitter
way
wayne
we
web
website
weimar
well
wen
wenhua
wetlik
wette
weyran
wezir
what
when
where
which
white
who
why
wi
width
wien
wiki
wikidata
wikimedia
wikipedia
wikipedias
wikis
wilayiti
will
william
windows
with
wo
word
wordpress
work
working
works
world
would
woznik
writing
wrong
wru
wu
www
x
xahri
xan
xani
xanigha
xanliq
xanliqi
xanliqidin
xanliqigha
xanliqini
xanliqining
xanliqning
xariki
xatire
xatirilengen
xatirisi
xatirlep
xe
xelq
xelqara
xelqi
xelqler
xelqlerning
xen
xenzu
xenzuche
xenzular
xeter
xewer
xi
xiii
xil
ximalikang
ximu
xinjiang
xiv
xix
xizmet
xnikomi
xoten
xotenge
xotenning
xu
xuddi
xuyzu
xvi
xx
y
ya
yabghu
yahudilerin
yaki
yaklas
yani
yapılan
yar
yardem
yas
yash
yashaydighan
yashaydu
yashighan
yatliq
yawa
yawropa
yawropadiki
yawrupa
yaxshi
yay
yayınları
yazdıg
yazghan
yazidu
yazma
yazı
ye
year
years
yebu
yene
yeni
yeniden
yenila
yenileme
yenimu
yer
yerde
yerdin
yerge
yerles
yerlik
yeryu
yetken
yetku
yette
ygu
yi
yighinida
yil
yildin
yili
yilidiki
yilidin
yiligha
yilighiche
yilining
yillar
yillarda
yilliq
yilliri
yin
yingi
yinki
yipek
yirmi
yjing
yle
ylenir
ynishtiyin
ynishtiyinning
yo
yok
yol
yolgha
yoli
yoligha
yolini
yolning
yong
yoq
york
yosemite
you
your
youtube
ytqanda
yu
yugoslavya
yumshaq
yunan
yuqiri
yuqirida
yuquri
yurt
yurti
yuruqluq
yusuf
yy
yı
yıl
yılında
z
za
zadi
zaman
zara
zbe
zde
zden
ze
zel
zere
zerinde
zerine
zerk
zgen
zgu
zh
zi
zidin
zige
zilghan
zini
zining
zip
ziq
ziqi
zisi
ziya
zle
zlenglik
zlep
zliri
zlu
zor
zu
zungtung
zyılda
zz
{
|
}
~

¤
§
©
«
­
°
±
²
³
´
µ
·
»
½
×
æ
÷
ø
ı
ık
ın
ına
ında
ını
ŋ
ɑ
ə
ət
ɛ
ɡ
ɨ
ɪ
ʁ
ʃ
ʒ
ʰ
ʲ
ʻ
ʼ
ʾ
ʿ
ˈ
ˌ
ː
˚
ˠ
ˤ
̀
́
̂
̃
̄
̆
̇
̈
̉
̊
̌
̓
̔
̛
̣
̦
̧
̨
̪
͂
͡
α
β
γ
ε
η
θ
ι
λ
μ
ς
φ
χ
ω
а
абләт
адәм
аз
аи
академии
алақә
алаһидилики
алаһидә
алди
алдида
алдини
алдинқи
алдиға
алиду
алии
алими
алимлар
алма
алтаи
алтун
алтә
алған
америка
амирика
ана
андин
анчә
аптоном
аптонум
арилиқи
арисиға
армии
артуқ
арқа
арқилиқ
асас
асаси
асасида
асасии
асасланғанда
асаслиқ
асаслиқи
асасән
асия
асиядики
асман
астида
ат
аталған
ататүрк
атилиду
атилип
атиған
атум
ахири
ахирида
ахиридики
ахирқи
ашина
ашлиқ
ашти
ашқан
аһалә
б
базар
базарға
базири
баи
бар
бариду
барлиқ
барлиққа
барған
бастуруп
баш
башлаи
башлап
башлиди
башлиқи
башқа
башқуруш
баян
бағлиғучи
баҗ
баһаси
беги
беи
бериду
берип
бериш
бесивалиду
бешиға
биз
бизгә
билгә
билип
биллә
билән
бир
бирақ
биргә
бири
биригә
биридин
бирини
биринчи
бирликкә
бирликтә
бои
болатти
болди
болиду
болиши
болмаи
болмиған
болса
болсиму
болсун
болуп
болупму
болуш
болуши
болған
болғанда
болғандин
болғачқа
бош
бошлуқниң
бу
буи
булиду
булуп
буни
буниң
бурун
бурунқи
буян
бүгүнки
бүи
бәзи
бәи
бәлгилири
бәлгиси
бәлгә
бәлки
бәлким
бәргән
бәрди
бәт
бәтләр
бәш
бөкә
в
вапат
вариант
вақит
вақитта
вақиттики
ваң
веи
вилаи
возник
второи
вә
г
гектар
германии
гирмании
гума
гүзәл
гүм
гә
гән
гәнсу
гәнсуниң
гәнҗу
гәрчә
д
да
давамлиқ
даим
даир
даириси
дан
дани
дегән
деи
демәк
деңиз
деһқанчилиқ
ди
дивани
дигән
дики
дилинип
дин
дини
динини
диған
доллар
доллири
ду
дуня
дунядики
дуняниң
дуняға
дә
дәври
дәвригә
дәвридә
дәи
дәл
дәп
дәриҗидә
дәриҗилик
дәря
дәряси
дәсләпки
дөләт
дөләтлири
дөләтләр
дөләтниң
е
егиз
еза
езилған
езиқ
езиқи
езиқида
езиқидики
езиқлар
еи
ел
елан
елик
елиниду
елинған
елип
елиш
ениқ
енсәи
ери
ерим
етип
ечип
ечиш
еғир
еқин
еңи
ж
з
зади
заман
земини
зор
и
ибарәт
игилик
игиләи
игә
иди
иду
из
изниң
икки
иккинчи
икәнликини
ил
илаһи
илгири
илгирики
илгән
илдикидин
илдин
или
илидики
илидикидин
илидин
илиду
илик
иликтир
илим
илиниң
илиға
илиғичә
иллиқ
илми
илмии
илғар
империи
ин
ини
иниргии
иниртсии
иниси
иниң
инки
инниң
инсанлар
инсанларниң
интаи
интонатсии
ип
ипадиләи
ипәк
иси
исигә
исидики
исидин
исидә
исим
исини
исиниң
ислам
исми
ити
итигә
итини
итиниң
иттипақдаш
иттипақи
иттипақиға
ичигә
ичидики
ичидә
ички
ичә
иш
ишбара
ишиң
ишләпчиқириш
ишләш
иҗтимаии
иқтисад
иқтисади
иқтисадии
иңи
к
кашғәрии
квадрат
кеи
келиду
келип
керии
керәк
кетиду
кеңәи
кии
килидиған
килиду
километир
киргән
кириду
кирим
кирими
кирип
кирәк
кичик
киши
кишилик
кишиләр
кишиләрниң
коинлун
комитети
компартии
компи
кона
кроран
күн
күни
күч
күчи
күчини
күчиниң
күчлүк
кәи
кәлгән
кәлгәндә
кәлди
кәлмәктә
кәлсә
кәлтүрүп
кәнт
кәткән
кәтсә
кәтти
кәң
көз
көздә
көктүрк
көл
көли
көлими
көмүр
көп
көплигән
көргәзмисидә
көрситиду
көрситип
көтүрүп
көчкән
көчүп
көчүрмә
л
ла
лагаш
ланди
ланған
лап
лар
латин
лашқан
лекин
ли
лик
линии
лиқ
лиқи
лоп
лояң
м
маарип
маи
мал
малии
мана
мани
манлиқиниң
мас
масса
месопотамии
метир
миз
милади
миладидин
миладии
мили
милли
миллии
милләт
милләтләр
милярд
миқдари
миқи
миқиниң
миң
миңға
мо
моюнчүр
моңғул
моңғулии
муавин
мувапиқии
мувәппәқии
мумкин
мунасивити
мунасивәт
мунасивәтлик
мундақ
мунқәрз
мусаписи
мустәқил
мустәқиллиқ
мутләқ
мушу
муқим
муһим
мәвҗут
мәдәнии
мәзгилидә
мәи
мәктәп
мәликә
мәлум
мәмликәт
мәмликәтлик
мәмурии
мән
мәнбәләр
мәнидики
мәнилик
мәркизи
мәркәз
мәсилә
мәсилән
мәшғулат
мәшһур
мәғлуп
мәңгү
мәһмуд
н
на
нам
намаи
нами
намини
наминиң
намлар
намлири
намлиқ
намни
намниң
наһаи
наһии
немә
нефит
ни
нидин
нии
нисбәтән
ниспии
ништии
ниң
нопус
нопуси
нур
нурғун
нурғунлиған
нусхиси
нәзири
нәтиҗидә
нәтиҗиси
нәччә
нәшри
нәшрияти
нөвәтлик
нөвәттә
о
ои
ол
оли
олниң
олға
омуми
омумии
он
они
онида
онидин
ониниң
орни
орнини
орниға
орун
орунда
орунға
орхун
орқун
осман
от
отер
оттура
оттуричә
оттуриға
оттурға
отун
отунниң
отуғат
охшаи
охшаш
охшашла
охшимиған
оғли
оқ
оқуш
оң
п
паалии
падишаһ
падишаһи
паи
пантекин
парламент
партии
парчә
пичан
по
пои
пул
пүтүн
пүтүнләи
пәи
пән
пәнләр
пәслидә
пәш
пәқәт
р
раи
рилип
рим
рип
рол
роли
роник
росии
россии
руқ
рәиси
рәсми
рәсмии
рәҗәп
с
са
сабиқ
саи
сан
санаәт
сани
санлиқ
сармадан
саяһәт
саәт
селип
си
синтаксислиқ
сир
сири
ситивен
сияси
сиясии
соал
совет
сода
сотсиялистик
су
сулалиси
сулалисигә
сулалисини
сулалисиниң
сулалисиға
сумер
сумерлар
сумерларниң
сүи
сүпитидә
сүргүнди
сәвии
сәи
сән
сәпләнгән
сөз
сөзләр
сөзниң
сөи
т
та
таи
тар
тарим
тарих
тарихи
тарихида
тарихии
тарихта
тармақ
тармиқи
тартип
тартиш
тартишш
таши
ташлап
ташқи
тағлери
таң
тез
текин
техи
техиму
техника
техникоми
теши
теғиниң
ти
тибәт
тибәтләр
тибәтләргә
тибәтләрниң
тизлики
тизликиниң
тил
тили
тилида
тилидики
тилиниң
тиллар
тилға
тин
тинич
тиниш
тип
тирнақ
тирнаққа
толуқ
топ
топилаң
тор
тоғирисидики
тоғра
тоғрисида
транскрипсии
тти
тунҗи
туридиған
туриду
турпан
туруп
турған
тутишиду
туғлуқ
тқанда
түзләңлик
түзүлгән
түпәи
түрдә
түрк
түркии
түркистан
түркләр
түркләрдин
түркләрниң
түрколог
тәбиии
тәвә
тәвәсидә
тәи
тәклимакан
тәкшүрүш
тәләп
тәләппуз
тәрбии
тәрипи
тәрипидин
тәркиб
тәркибләр
тәрҗимә
тәрәп
тәрәпкә
тәрәптин
тәрәққи
тәрәққии
тәрәққият
тәсир
тәсис
тәтқиқ
тәтқиқат
тәтқиқати
тәхминән
тәхт
тәхти
тәхткә
тәшкил
тәҗирбә
тәң
тәңдаш
төвән
төмүр
төт
у
узақ
узун
узунлуқи
уи
улар
уларни
уларниң
улуғ
унверситити
ундақ
ундақта
уни
униң
униңдин
униңға
ур
уруш
урхун
усул
ф
фаи
физика
флаг
флаги
франсии
франсуз
х
хан
ханлиқ
ханлиқи
ханлиқидин
ханлиқини
ханлиқиниң
ханлиқиға
ханлиқниң
хата
хатириләнгән
хатириси
хатирләп
хатирә
хебии
хели
хеши
хизмәт
хил
хиттаи
хотән
хотәнниң
худди
хусусии
хәвәр
хәлқ
хәлқара
хән
хәнзу
хәнзулар
хәнзучә
хәннамә
хәт
хәтәр
ч
чатақ
чағда
чақилиқ
чақирим
чегра
чекит
чира
чиқарған
чиқиду
чиқип
чиқиш
чиқти
чиққан
чиң
чиңхәи
чор
чорчан
чоң
чоңқур
чур
чурчан
чүнки
чүшүп
чәрчән
ш
шаблон
шимал
шималда
шималдики
шимали
шималида
шималидики
шималии
шинҗаң
шинҗаңда
шинҗаңдики
шинҗаңниң
ширкити
ширкитиниң
ширкәт
шу
шундақ
шундақла
шундин
шуни
шуниң
шуниңдин
шуңа
шәрқ
шәрқи
шәрқии
шәрқтә
шәрқшунаслиқ
шәһири
шәһиридә
шәһириниң
шәһәр
ы
ю
юмшақ
юрт
юруқлуқ
юқири
юқириқи
юқури
я
ябғу
ява
явропа
язма
язған
яи
яки
ярдәм
ясалған
ятлиқ
яхши
яшаи
яшиған
і
ғ
ға
ғаи
ған
ғун
ғур
ғурлар
ғурларниң
ғурчә
ғәрби
ғәрбидики
ғәрбии
ғәрбкә
ғәрпкә
җ
җаи
җисимниң
җиң
җобис
җорҗан
җумһурии
җуғрапии
җуңго
җуңгодики
җуңғар
җүмлидин
җүмлидә
җүмлиниң
җүмлә
җәмии
җәнуб
җәнуби
җәнубии
җәнупта
җәнупқа
җәһәттики
җәһәттин
җәһәттә
қ
қазақ
қазақистан
қаи
қаидиси
қалаи
қалди
қалған
қандақ
қанлиқ
қануни
қанчә
қара
қараи
қарап
қарар
қарақаш
қарита
қариши
қариған
қариғанда
қарлуқ
қарши
қатар
қатарлиқ
қатарлиқлар
қатнаш
қаттиқ
қаған
қағани
қағанниң
қағанға
қелип
қетим
қетимлиқ
қизил
қии
қилатти
қилди
қиливатқан
қилидиған
қилиду
қилинди
қилинип
қилинған
қилип
қилиш
қилишқа
қилған
қилғуч
қиммити
қирғиз
қирғизистан
қисим
қисми
қисмиға
қишта
қобул
қои
қоллинилиду
қолға
қорал
қош
қошумчә
қошун
қошунлери
қошунлерини
қошуп
қоюлиду
қоюлмаи
қоюлған
қоюп
қуи
қумлуқ
қурулуш
қурулған
қуруп
қуруқлуқ
қурған
қутлуқ
қуяш
қуҗу
қәбилилери
қәбилилериниң
қәбилиси
қәбилисиниң
қәбилә
қәдимки
қәдәм
қәдәр
қәшқәр
ң
ү
үз
үзлүк
үзлүксиз
үк
үндәш
үп
үрүмчи
үрүш
үстигә
үстидә
үч
үчинчи
үчүн
үән
үәнгә
һ
һава
һазир
һазирғичә
һазирқи
һаи
һакимии
һалак
һалда
һалиң
һасил
һесаблиниду
һисаплиниду
һуҗум
һәдии
һәи
һәл
һәм
һәмдә
һәр
һәрбии
һәркити
һәркәт
һәркәтлиниш
һәркәттики
һәрқаи
һәрқандақ
һәссә
һәтта
һәққидә
һөкүмити
һөкүмранлиқ
һөкүмәт
һөрмәт
ә
әвәтип
әгишип
әгәр
әдики
әдин
әдә
әза
әзаси
әзәлдин
әи
әлвәттә
әлик
әлчи
әлчиләр
әмир
әмма
әмәлии
әмәс
ән
әнгилии
әни
әнила
әниң
әнә
әр
әрдин
әрдоған
әрдә
әрлик
әрәб
әси
әсир
әсирдин
әсирниң
әслигә
әслидә
әт
әткә
әткән
әтлик
әтләр
әтни
әтниң
әтрапида
әтрапқа
әтти
әттә
әҗдадлеримиз
әң
әһвали
әһмии
өгә
өз
өзара
өзгәртиш
өзи
өзигә
өзини
өзиниң
өи
өлкә
өлтүрүп
өлчүгүч
өлүмдин
өткән
өтмәи
өңлүк
ְ
ֲ
ִ
ֵ
ֶ
ַ
ָ
ֹ
ּ
ׁ
ׂ
א
ב
ג
ד
ה
ו
ח
י
ל
ם
מ
ן
נ
ע
ק
ר
ש
ת
،
ؕ
؛
؞
؟
ء
ا
اء
اب
ابابەكرى
اباد
ابباس
ابباسنىڭ
ابباسوف
ابباسىلار
ابباسىي
ابباسىيلار
ابباسىيلەر
ابدال
ابدۇ
ابدۇجېلىل
ابدۇخالىق
ابدۇراخمان
ابدۇراھمان
ابدۇرراھمان
ابدۇررەشىدخاننىڭ
ابدۇرىشىت
ابدۇرۇسۇل
ابدۇرېشىت
ابدۇرېھىم
ابدۇرېھىمجان
ابدۇرەشىد
ابدۇرەشىدخان
ابدۇرەي
ابدۇرەھمان
ابدۇرەھىم
ابدۇسالام
ابدۇسەمەت
ابدۇشۈكۈر
ابدۇشۈكۈرنىڭ
ابدۇغوپۇر
ابدۇغېنى
ابدۇقادىر
ابدۇقەييۇم
ابدۇكېرىم
ابدۇكېرىمجان
ابدۇكېرەم
ابدۇل
ابدۇلباقى
ابدۇلقادىر
ابدۇلكەرىم
ابدۇللا
ابدۇللاخان
ابدۇللانىڭ
ابدۇللاھ
ابدۇلمۇتتەلىب
ابدۇلمەلىك
ابدۇلي
ابدۇلھەكىم
ابدۇلھەمىد
ابدۇلھەمىدخان
ابدۇمىجىت
ابدۇنىياز
ابدۇۋەلى
ابرال
ابراھام
ابروي
ابرويلۇق
ابزاس
ابستراكت
ابلا
ابلاجان
ابلىز
ابلىكىم
ابلىمىت
ابلەت
ابن
ابونت
ابونتى
ابى
ابىت
ابىدىسى
ابىدىلىرى
ابىدىلىرىدىكى
ابىدىلىرىدە
ابىدىلەر
ابىدىن
ابىدە
ابي
ابېت
ات
اتا
اتاتۈرك
اتاتۈركنىڭ
اتاخان
اتار
اتاسى
اتاش
اتاشقا
اتاشنى
اتاغلىق
اتاق
اتاقلىق
اتالاي
اتالدى
اتالسا
اتالغان
اتالغانلىقى
اتالغۇ
اتالغۇسى
اتالغۇسىنى
اتالغۇسىنىڭ
اتالغۇلار
اتالغۇلارغا
اتالغۇلارنى
اتالغۇلارنىڭ
اتالغۇلىرى
اتالغۇلىرىنىڭ
اتالغۇنى
اتالغۇنىڭ
اتالماقتا
اتالمىش
اتام
اتاي
اتايتتى
اتايدىغان
اتايدۇ
اتايمىز
اتايىن
اتاپ
اتتى
اتتىم
اتتىن
اتسا
اتسىيىسى
اتسىيىنىڭ
اتسىيە
اتقا
اتقان
اتقاندا
اتقۇچى
اتلار
اتلاردا
اتلارغا
اتلارنى
اتلارنىڭ
اتلاشتۇرۇش
اتلانتىك
اتلاندى
اتلانغان
اتلاپ
اتلىرى
اتلىرىدا
اتلىرىغا
اتلىرىنى
اتلىرىنىڭ
اتلىشى
اتلىق
اتلىنىدۇ
اتلىنىپ
اتموسفېرا
اتموسفېرادىكى
اتموسفېراغا
اتمىش
اتنى
اتنىڭ
اتوم
اتى
اتىدى
اتىدىغان
اتىدىن
اتىدۇ
اتىسى
اتىسىغا
اتىسىنىڭ
اتىشى
اتىشىدۇ
اتىغا
اتىغان
اتىلاتتى
اتىلار
اتىلدۇ
اتىللا
اتىلىدىغان
اتىلىدىغانلىقى
اتىلىدۇ
اتىلىش
اتىلىشقا
اتىلىشى
اتىلىق
اتىلىپ
اتىلىۋاتقان
اتىنىڭ
اتىۋالغان
اتۇش
اتۇشتا
اتۇشتىكى
اتۇشقا
اتۇشلۇق
اتۇشنىڭ
اتۇم
اتەش
اج
اجايىپ
اجراتقان
اجراتما
اجرالما
اجرىتىش
اجرىتىلغان
اجرىتىلىپ
اجرىتىپ
اجرىشىش
اجرىشىپ
اجىز
اجىزلاپ
اجىزلىشىشى
اجىزلىشىپ
اجىزلىق
اجىزلىقى
اجىزلىقىنى
اح
اخبارات
اخباراتنىڭ
اخباراتچىلار
اخباراتچىلىق
اختۇرۇش
اخرىدا
اخشام
اخشاملىرى
اخشىمى
اخىر
اخىردا
اخىرغىچە
اخىرقى
اخىرقىسى
اخىرلاشتى
اخىرلاشتۇردى
اخىرلاشتۇرۇش
اخىرلاشتۇرۇپ
اخىرلاشقان
اخىرلاشقاندا
اخىرلاشقاندىن
اخىرلىرى
اخىرلىرىدا
اخىرلىرىدىن
اخىرلىشىدۇ
اخىرلىشىش
اخىرلىشىشى
اخىرلىشىپ
اخىرى
اخىرىدا
اخىرىدىكى
اخىرىدىن
اخىرىغا
اخىرىغىچە
اخىرىقى
اخىرىنى
اخىرەت
اخىرەتتە
اخۇن
اخۇننىڭ
اخۇنۇم
اد
ادا
اداش
اداشقان
اداققىچە
ادالاپ
ادالەت
ادالەتسىز
ادالەتسىزلىك
ادالەتسىزلىككە
ادالەتلىك
ادانا
اداۋەت
ادةم
اددى
اددىي
اددىيسى
اددىيلا
اددىيلاشتۇرلغان
اددىيلاشتۇرۇلغان
اددىيلاشتۇرۇپ
اددە
ادرىسى
ادرىسىدىن
ادرېسى
ادىتى
ادىتىدە
ادىتىم
ادىتىمۇ
ادىتىنى
ادىتىنىڭ
ادىتىگە
ادىرسى
ادىرىسى
ادىل
ادىلجان
ادىللىق
ادىمى
ادىمىنى
ادىمىيلىك
ادىمىيەت
ادىن
ادۋوكات
ادۋوكاتلىق
ادۋۇكات
ادۋۇكاتلىق
ادە
ادەت
ادەتتىكى
ادەتتىكىدىن
ادەتتىكىچە
ادەتتىن
ادەتتە
ادەتكە
ادەتلىرى
ادەتلىرىدە
ادەتلىرىنى
ادەتلىرىنىڭ
ادەتلىرىگە
ادەتلىنىپ
ادەتلەر
ادەتلەرنى
ادەتلەرنىڭ
ادەتلەرگە
ادەتلەنگەن
ادەتنى
ادەتنىڭ
ادەتچانلىق
ادەم
ادەمدىن
ادەمدە
ادەمدەك
ادەمسىز
ادەملىرى
ادەملىرىنى
ادەملىك
ادەملەر
ادەملەردىن
ادەملەرنى
ادەملەرنىڭ
ادەملەرگە
ادەممۇ
ادەمنى
ادەمنىڭ
ادەمگە
ار
ارا
اراتا
اراتۈرك
ارادا
ارادىكى
اراسى
اراسىدا
اراغا
ارال
ارالدا
ارالغا
اراللار
اراللىرى
ارالنى
ارالنىڭ
ارالىق
ارام
ارامگاھ
ارامگاھى
اران
ارانلا
ارانىڭ
اراي
اراپتان
ارت
ارتقان
ارتىس
ارتىست
ارتىسلار
ارتىسى
ارتىپ
ارتۇق
ارتۇقراق
ارتۇقچىلىق
ارتۇقچىلىقلارغا
ارتۇقچىلىقلارنى
ارتۇقچىلىقلىرىنى
ارتۇقچىلىقى
ارتۇقچە
ارتۇچ
ارخولوگىيەلىك
ارخىي
ارخىپ
ارخىپى
ارخې
ارخېي
ارزۇ
ارزۇسى
ارزۇسىدا
ارزۇسىغا
ارزۇسىنى
ارزۇلىرى
ارزۇنى
ارزۇيۇم
ارسلان
ارسلانخان
ارسىدا
ارسىدىكى
ارشاڭ
ارشىن
ارشىڭى
ارصپ
ارصپص
ارصپصنص
ارغامچا
ارغامچىنى
ارغىماق
ارغۇن
ارقا
ارقار
ارقان
ارقىدا
ارقىدىن
ارقىدىنلا
ارقىسىدا
ارقىسىدىكى
ارقىسىدىن
ارقىسىغا
ارقىغا
ارقىلق
ارقىلىق
ارقىلىقلا
ارقىلىقمۇ
ارقىمۇ
ارلاش
ارلاشتۇرۇپ
ارلىرى
ارلىشىپ
ارلىق
ارلىقتا
ارلىقتىكى
ارلىقى
ارمان
ارمانلىرىنى
ارمىيسى
ارمىيسىنىڭ
ارمىينىڭ
ارمىيىسى
ارمىيىسىنى
ارمىيىسىنىڭ
ارمىيىسىگە
ارمىيىنىڭ
ارمىيە
ارمىيەسى
ارمىيەسىنى
ارمىيەسىنىڭ
ارمىيەسىگە
ارمىيەنى
ارمىيەنىڭ
ارمىيەگە
ارنىڭ
ارى
ارىدا
ارىدىن
ارىستوتىل
ارىستوتېل
ارىسدا
ارىسلانخان
ارىسى
ارىسىدا
ارىسىدىكى
ارىسىدىمۇ
ارىسىدىن
ارىسىغا
ارىسىنى
ارىش
ارىغا
ارىف
ارىق
ارىلاش
ارىلاشتۇرۇلغان
ارىلاشتۇرۇلىدۇ
ارىلاشتۇرۇلۇپ
ارىلاشتۇرۇپ
ارىلاشقان
ارىلاشما
ارىلاپ
ارىلى
ارىلىدا
ارىلىدىكى
ارىلىدىن
ارىلىشىش
ارىلىشىشى
ارىلىشىشىغا
ارىلىشىپ
ارىلىغا
ارىلىق
ارىلىقتا
ارىلىقتىكى
ارىلىقتىن
ارىلىققا
ارىلىقنى
ارىلىقى
ارىلىقىدا
ارىلىقىدىكى
ارىلىقىغا
ارىلىقىنى
ارىلىنى
ارىلىنىڭ
ارىمىزدا
ارىمىزدىكى
ارىي
ارىيان
ارىيە
ارىيەت
ارىيەتكە
ارىپ
ارىپتا
ارىپتىن
ارىپقا
ارىپنى
ارىپنىڭ
ارىپى
ارىپىدا
ارىپىغا
ارىپىنى
ارىپىنىڭ
ارىپچى
ارپا
ارپىبەدىيان
ارچا
ارگنتىنا
ارگىنتىنا
ارگېنتىنا
ارۇز
از
ازاب
ازابلىق
ازابى
ازابىدىن
ازابىنى
ازات
ازاتلىق
ازاتلىقى
ازاد
ازادلىق
ازادلىقتىن
ازادلىققا
ازادلىقى
ازادگەردىسى
ازادگەردە
ازادە
ازار
ازاق
ازايتىدۇ
ازايتىش
ازايتىپ
ازايدى
ازاپ
ازدىن
ازدۇر
ازراق
ازراقلا
ازراقمۇ
ازسانلىق
ازغان
ازغىنە
ازلاپ
ازلىق
ازلىقى
ازنا
ازوت
ازىركى
ازىيىپ
ازىيە
ازەربەيجان
ازەرى
اس
اسار
اسارە
اسارەت
اساس
اساستا
اساسسىز
اساسقا
اساسلار
اساسلارنى
اساسلانغان
اساسلانغاندا
اساسلاڭاندا
اساسلىرى
اساسلىق
اساسلىقى
اساسلىنىپ
اساسى
اساسىدا
اساسىدىكى
اساسىدۇر
اساسىغا
اساسىنى
اساسىي
اساسچىسى
اساسەن
اسالىق
اسالىقى
اسان
اسانراق
اسانغا
اسانلا
اسانلاشتۇرۇپ
اسانلىق
اسانلىقچە
اسايىشلىق
است
استا
استانە
استرونوم
استرونومىيە
استى
استىدا
استىدىكى
استىدىمۇ
استىدىن
استىغا
استىلىقى
استىن
استىنقى
اسراش
اسساسلىك
اسسىمىلاتسىيە
اسسىمىلياتسىيە
اسما
اسمان
اسماندا
اسماندىكى
اسماندىن
اسمانغا
اسماننى
اسماننىڭ
اسمىنىدا
اسى
اسىغا
اسىم
اسىموۋ
اسىموۋنىڭ
اسىنى
اسىي
اسىيا
اسىيادا
اسىيادىكى
اسىيادىن
اسىياغا
اسىيالىق
اسىيالىقلار
اسىيانى
اسىيانىڭ
اسىيلىق
اسيا
اسپىرانت
اسپىرانتلار
اسپىرانتلىق
اسپىرانتلىقتا
اسپىرانتلىققا
اسپىرىن
اش
اشتى
اشتىلىق
اشخانا
اشخانىدا
اشخانىسى
اشقا
اشقازان
اشقازاندا
اشقازاندىكى
اشقازانغا
اشقازاننى
اشقان
اشقاندا
اشقۇن
اشقۇنلۇق
اشكار
اشكارا
اشكارىلاش
اشكارىلاپ
اشكارىلىدى
اشكارىلىنىپ
اشكارە
اشلىق
اشماقتا
اشمايدۇ
اشمىدى
اشنا
اشنى
اشنىڭ
اشى
اشىدىغان
اشىدىكەن
اشىدۇ
اشىق
اشىقى
اشىنا
اشىنى
اشپەز
اشۇ
اشۇردى
اشۇرغان
اشۇرغىلى
اشۇرىدىغان
اشۇرىدۇ
اشۇرۇش
اشۇرۇشتا
اشۇرۇشتىكى
اشۇرۇشقا
اشۇرۇشنى
اشۇرۇلغان
اشۇرۇپ
اشۇنداق
اشەن
اع
اغا
اغدۇرۇش
اغدۇرۇلۇپ
اغدۇرۇپ
اغرىتىدۇ
اغرىتىپ
اغرىش
اغرىشنى
اغرىق
اغرىقنى
اغرىقى
اغرىقىنى
اغرىيدۇ
اغرىپ
اغزاكى
اغزى
اغزىدا
اغزىدىكى
اغزىدىن
اغزىغا
اغزىنى
اغى
اغىر
اغىنە
اغۇ
اف
افرىقا
افرىقىدا
افرىقىدىكى
افرىقىدىن
افرىقىغا
افرىقىلىق
افرىقىلىقلار
افرىقىنىڭ
افغان
افغانىستان
افغانىستاندا
افغانىستانغا
افغانىستاننىڭ
اففانلار
افىنا
افۇگاتا
اق
اقار
اقارتىش
اقارى
اقاقىيا
اقتو
اقتى
اقتۇ
اقساراي
اقساقال
اقساقىلى
اقسىل
اقسىللار
اقسىلنىڭ
اقسۆڭەك
اقسۆڭەكلىرى
اقسۆڭەكلەر
اقسۇ
اقسۇدا
اقسۇدىكى
اقسۇدىن
اقسۇغا
اقسۇنى
اقسۇنىڭ
اققان
اققۇ
اقكۆڭۈل
اقلاش
اقمۇچ
اقىدىغان
اقىدۇ
اقىل
اقىلانە
اقىۋىتى
اقىۋىتىنى
اقىۋەت
اقىۋەتتە
اقىۋەتكە
اقىۋەتلەر
اقىۋەتلەرنى
اقىۋەتنى
اقي
اقچا
اقچى
اك
اكا
اكاد
اكادىمىيىسى
اكادېمىك
اكادېمىكى
اكادېمىيسى
اكادېمىيىسى
اكادېمىيىسىدىن
اكادېمىيىسىدە
اكادېمىيىسىنىڭ
اكادېمىيىسىگە
اكادېمىيە
اكادېمىيەسى
اكادېمىيەسىنىڭ
اكادېمىيەنىڭ
اكام
اكامنىڭ
اكتىپ
اكتىپلىق
اكتىپلىقى
اكتىپلىقىنى
اكسىيىسى
اكسىيە
اكسىيەسى
اكىتىپ
اكىسى
اكىسىنىڭ
اكىنىڭ
ال
الا
الاتتى
الاتحاد
الار
الاغا
الاقصدار
الاقىدار
الاقىدارلار
الاقىدارلاردىن
الاقىدارلارغا
الاقىدارلارنىڭ
الاقىدە
الاقىسى
الاقىسىنى
الاقىسىنىڭ
الاقىلىرى
الاقىلىشىش
الاقىلىشىپ
الاقىنى
الاقىنىڭ
الاقىگە
الاقە
الاقەدار
الالايدىغان
الالايدۇ
الالماي
الالمىغان
الامىتى
الامەت
الامەتلىرى
الامەتلىرىنى
الامەتلەر
الان
الانىڭ
الاي
الايلى
الايلۇق
الاھىدىلىك
الاھىدىلىككە
الاھىدىلىكلىرى
الاھىدىلىكلىرىدىن
الاھىدىلىكلىرىنى
الاھىدىلىكلىرىگە
الاھىدىلىكلەر
الاھىدىلىكلەرگە
الاھىدىلىكنى
الاھىدىلىكى
الاھىدىلىكىدىن
الاھىدىلىكىنى
الاھىدىلىكىگە
الاھىدە
الاھىيدە
الاھەزەل
الب
البان
البانىي
البانىيە
البخاري
البرلمان
البۇم
البېرت
التاي
التايشۇناسلىق
التايلار
التايلارنىڭ
التاينىڭ
التى
التىنچى
التي
التۇن
التۇنتاغ
التۇندىن
التە
الج
الجامع
الجنة
الجواهر
الجىرىيە
الح
الحديث
الخ
الد
الدا
الداش
الدامچىلىق
الداپ
الدول
الدى
الدىدا
الدىدىكى
الدىدىمۇ
الدىدىن
الدىراش
الدىراپ
الدىرىماي
الدىغا
الدىغان
الدىم
الدىمدا
الدىمدىن
الدىمغا
الدىمىزدا
الدىمىزدىكى
الدىمىزغا
الدىن
الدىنقى
الدىنقىسى
الدىنقىلارنىڭ
الدىنى
الدىنىقى
الدىنىپ
الدىني
الدىڭدا
الدىڭىزدا
الدىڭىزغا
الدين
الدۇرغان
الدۇرىدۇ
الدۇرۇش
الدۇرۇشنى
الدۇرۇشى
الدۇرۇلغان
الدۇرۇپ
الدۇق
الذي
الر
الرحمن
الس
السا
الساق
السام
السنة
السنن
السىمۇ
السۇن
الش
الشريعة
الص
الصحيح
الصغير
الضعيفة
الع
العام
العديد
العلم
الغا
الغان
الغاندا
الغاندىن
الغانلار
الغانلىقى
الغانلىقىنى
الغانىدى
الغاچ
الغىلى
الغىن
الغىنى
الغۇ
الغۇچى
الغۇچىغا
الغۇچىنى
الغۇچىنىڭ
الفا
الفقه
الفېرد
الق
القات
القرا
القىش
القىشقا
القىشىغا
الكبير
الل
اللا
اللار
اللارغا
اللارنى
اللارنىڭ
اللانىڭ
اللاھ
اللاھتاي
اللاھتىن
اللاھدىن
اللاھغا
اللاھقا
اللاھنى
اللاھنىڭ
اللاھۇ
اللاھۇممە
الله
اللىبۇرۇن
اللىرىغا
اللىق
اللىقاچان
اللىقتا
اللىققا
اللىقنى
اللىقنىڭ
اللىقى
اللھ
اللە
اللەنىڭ
الم
الما
الماس
الماسلىق
الماش
الماشتۇردى
الماشتۇرغان
الماشتۇرىدۇ
الماشتۇرۇش
الماشتۇرۇشتا
الماشتۇرۇشقا
الماشتۇرۇشنى
الماشتۇرۇپ
الماشقان
الماشماس
الماق
الماقتا
الماقچى
الماي
المايدىغان
المايدۇ
المجلس
المجمع
المختصر
المدخل
المضية
المفوضية
المو
الموضوعات
الموطا
المىدى
المىسا
المىشىدۇ
المىشىش
المىشىشنى
المىشىشى
المىشىپ
المىغان
المىغاندا
المىنى
المۇتا
المۇتىدا
الن
النجوم
النى
النىڭ
الوافي
الوگ
الوگلارنىڭ
الى
الىدىغان
الىدىغانلىقىنى
الىدىكەن
الىدۇ
الىزم
الىزملىق
الىستىك
الىكتى
الىم
الىمجان
الىمغا
الىملار
الىملاردىن
الىملارغا
الىملارنى
الىملارنىڭ
الىملىرى
الىملىرىدىن
الىملىرىمىز
الىملىرىنىڭ
الىمنى
الىمنىڭ
الىمى
الىمىز
الىمەن
الىي
الىيا
الىيتى
الىيجاناب
الىيىتى
الىيىتىدە
الىيىتىنى
الىيىتىنىڭ
الىيىتىگە
الىيەت
الىيەتتە
الىيەتكە
الىيەتلىرى
الىيەتلىرىدە
الىيەتلىرىنى
الىيەتلىرىنىڭ
الىيەتلىرىگە
الىيەتلەر
الىيەتلەردە
الىيەتلەرنى
الىيەتلەرنىڭ
الىيەتلەرگە
الىيەتنى
الىيەتنىڭ
الىيەتچى
الىپ
الىپتېكىن
اليۇمىن
الپ
الپتېكىن
الپنىڭ
الۋاستى
الۋان
الۋاڭ
الېكساندىر
الېكساندېر
الېكىتى
الەم
الەمدىكى
الەمدىن
الەمدە
الەمشۇمۇل
الەملەرنىڭ
الەمنى
الەمنىڭ
الەمگە
الەي
ام
امازون
امال
امالسىز
امالسىزلىقتىن
اماللارنى
امالى
امان
امانلىق
امانلىقىنى
اماننىساخان
امانگۈل
امانەت
امبار
امباردا
امبال
امبان
امبروزىيە
امبىروزىيە
امبىرى
امبىرىدىن
امبىرىغا
امبىرىنى
امبىلى
امبىلىنىڭ
امبۇر
امر
امراق
امرىكا
امرىكىدا
املار
املارنى
املىرى
امما
اممىباب
اممىباپ
اممىسى
اممىسىغا
اممىسىنى
اممىسىنىڭ
اممىغا
اممىنى
اممىنىڭ
اممىۋى
اممىۋىي
امى
امىتىرى
امىر
امىرخان
امىركا
امىركىنىڭ
امىرىكا
امىرىكىدا
امىرىكىدىكى
امىرىكىغا
امىرىكىنىڭ
امىل
امىللار
امىللاردىن
امىللارغا
امىللارنى
امىللارنىڭ
امىللىرى
امىلنى
امىلنىڭ
امىلى
امىلىدە
امىلىسى
امىلىنى
امىلىگە
امىلە
امىن
امىنو
امىنە
امۇ
امۇت
امېتىرى
امېرىكا
امېرىكادا
امېرىكان
امېرىكانو
امېرىكانىڭ
امېرىكىدا
امېرىكىدىكى
امېرىكىدىمۇ
امېرىكىدىن
امېرىكىسى
امېرىكىغا
امېرىكىلىق
امېرىكىلىقلار
امېرىكىلىقلاردا
امېرىكىلىقلاردىكى
امېرىكىلىقلارغا
امېرىكىلىقلارنىڭ
امېرىكىلىقنىڭ
امېرىكىنى
امېرىكىنىڭ
امېرىكىچە
امەت
ان
انا
اناتولىيە
انادولۇ
انادولۇدا
انادولۇغا
انادولۇنىڭ
انار
انارخان
اناسى
انالىتىك
انالىز
انالىزى
انام
انامغا
انامنىڭ
اناناس
انتاركتىدا
انتانتا
انتروپوتومىيە
انتونىي
اند
اندا
اندوررا
اندىرويىد
اندىكى
اندىن
انسامبىلى
انغا
انكىتى
انلار
انلارنىڭ
اننا
اننى
اننىڭ
انو
انى
انىدىن
انىسى
انىسىدىن
انىسىغا
انىسىمۇ
انىسىنى
انىسىنىڭ
انىغا
انىلار
انىلاردىن
انىلارغا
انىلارنى
انىلارنىڭ
انىلىرى
انىلىرىنى
انىلىرىنىڭ
انىلىق
انىمىز
انىمىزنىڭ
انىنى
انىنىڭ
انىچۇق
انىڭ
انىڭىز
انچۇقنى
انچە
انگولا
انە
اه
او
اي
اياغ
اياغلاشتى
اياغلاشسا
اياغلاشقان
اياغلاشقاندىن
اياغلاشقانلىقىنى
اياق
ايال
ايالدىن
ايالغا
اياللار
اياللاردىن
اياللارغا
اياللارمۇ
اياللارنى
اياللارنىڭ
اياللىرى
اياللىرىغا
اياللىرىنى
اياللىرىنىڭ
اياللىق
ايالنى
ايالنىڭ
ايالى
ايالىدىن
ايالىغا
ايالىم
ايالىمنىڭ
ايالىنى
ايالىنىڭ
ايالىڭىز
ايالچە
ايان
ايانكى
اياپ
ايتۇرسۇن
ايخان
ايدا
ايدىكى
ايدىن
ايدىڭ
ايدىڭكۆل
ايدۇر
ايدەك
ايرودرومى
ايرودۇرۇمى
ايروپورتى
ايروپىلان
ايروپىلاننىڭ
ايروپىلانى
ايرىش
ايرىشتا
ايرىشقا
ايرىغان
ايرىغاندا
ايرىلالمايدۇ
ايرىلدى
ايرىلسا
ايرىلغان
ايرىلغاندا
ايرىلغاندىن
ايرىلماس
ايرىلمايدۇ
ايرىلمىسۇن
ايرىلمىغان
ايرىلىدىغان
ايرىلىدۇ
ايرىلىش
ايرىلىشقا
ايرىلىشى
ايرىلىپ
ايرىم
ايرىماي
ايرىمايدۇ
ايرىمىچىلىق
ايرىمچىلىق
ايرىمچىلىققا
ايرىيدۇ
ايرىپ
ايرىۋېتىلگەن
ايرپوت
ايرۇپىلان
ايشەم
ايغا
ايغىر
ايغىچە
ايكۆل
ايلا
ايلار
ايلاردا
ايلارنىڭ
ايلاندى
ايلاندۇردى
ايلاندۇرغان
ايلاندۇرىدىغان
ايلاندۇرىدۇ
ايلاندۇرۇش
ايلاندۇرۇشقا
ايلاندۇرۇشنىڭ
ايلاندۇرۇپ
ايلانغان
ايلانغاندىن
ايلانغانلىقىنى
ايلانما
ايلانمىسى
ايلاپ
ايلىرى
ايلىرىدا
ايلىق
ايلىنالايدۇ
ايلىنىدىغان
ايلىنىدۇ
ايلىنىش
ايلىنىشقا
ايلىنىشنى
ايلىنىشى
ايلىنىشىنى
ايلىنىپ
ايماق
ايمىقى
ايمىقىغا
ايمىقىنىڭ
اينى
اينىڭ
ايى
ايىتى
ايىتىدە
ايىغى
ايىم
ايۇپ
ايۇپنىڭ
ايۋان
ايە
ايەت
ايەتتىكى
ايەتتىن
ايەتتۇر
ايەتتە
ايەتكىچە
ايەتلىرى
ايەتلىرىدە
ايەتلىرىنى
ايەتلەر
ايەتلەردە
ايەتلەرنى
ايەتلەرنىڭ
ايەتنى
ايەتنىڭ
ايەم
اپا
اپارغان
اپام
اپتاپ
اپتاپتا
اپتاپقا
اپتاپپەرەس
اپتوبۇس
اپتور
اپتورلارنىڭ
اپتورنىڭ
اپتورى
اپتوماتلاشتۇرۇش
اپتوماتىك
اپتوموبىل
اپتوموبىللىرى
اپتوموبىلنىڭ
اپتوموبىلى
اپتونوم
اپتونومىيىلىك
اپتونومىيىنى
اپتونومىيە
اپتونۇم
اپتۇ
اپتۇبۇس
اپتۇر
اپتۇرنىڭ
اپتۇرى
اپتۇنۇم
اپتۇۋا
اپراسىياپ
اپرىل
اپرېل
اپرېلدا
اپىتى
اپىرىدە
اپىرىن
اپىرىپ
اپىسى
اپىسىنى
اپىسىنىڭ
اپىلىق
اپي
اپپارات
اپپاراتلار
اپپاراتلارنى
اپپاراتلارنىڭ
اپپاراتلىرى
اپپاراتلىرىدىن
اپپاراتلىرىنى
اپپاراتلىرىنىڭ
اپپاراتنى
اپپاراتنىڭ
اپپاراتى
اپپاراتىغا
اپپاراتىنى
اپپاراتىنىڭ
اپپاق
اپېلسىن
اپەت
اپەتتىن
اپەتكە
اپەتنىڭ
اچ
اچا
اچارچىلىق
اچال
اچتى
اچتىم
اچسا
اچقان
اچقاندا
اچقىلى
اچقۇچ
اچقۇچلۇق
اچقۇچى
اچقۇچىلار
اچكۆزلۈك
اچلىق
اچما
اچىدىغان
اچىدۇ
اچىسى
اچىسىنىڭ
اچىل
اچىمىز
اچچىق
اچچىقسۇ
اچچىقى
اچچىقىنى
اڧرو
اڧرىقا
اڧغانىستان
اڭ
اڭا
اڭسىز
اڭغا
اڭلا
اڭلاتقان
اڭلاش
اڭلاشقا
اڭلاشنى
اڭلاندى
اڭلايدىغان
اڭلايدۇ
اڭلاپ
اڭلاپتۇ
اڭلاپمۇ
اڭلىتىش
اڭلىتىپ
اڭلىدى
اڭلىدىم
اڭلىسا
اڭلىسام
اڭلىشى
اڭلىشىمچە
اڭلىغان
اڭلىغاندا
اڭلىغاندىن
اڭلىغانىدىم
اڭلىغاچ
اڭلىغۇچى
اڭلىغۇچىلار
اڭلىق
اڭلىمايسەن
اڭلىنىدۇ
اڭلىنىپ
اڭنى
اڭنىڭ
اگاھ
اگاھلاندۇرغۇچى
اگاھلاندۇرىدۇ
اگاھلاندۇرۇش
اگاھلاندۇرۇپ
اگلوتىنىن
اگلۇتىنۇگېن
اگنوز
اگنوزى
اگنۇز
اگېنتلىق
اگېنتلىقى
اھ
اھالىسى
اھالىسىنى
اھالىسىنىڭ
اھالىلىرى
اھالىلىرىنىڭ
اھالىلەر
اھالىلەرنى
اھالىلەرنىڭ
اھالىنىڭ
اھالە
اھاڭ
اھاڭداشلىق
اھاڭداشلىقى
اھاڭغا
اھاڭنىڭ
اھاڭى
اھاڭىدا
اھۇ
اۋ
اۋات
اۋاتنىڭ
اۋار
اۋارىچىلىق
اۋارە
اۋاز
اۋازدا
اۋازسىز
اۋازغا
اۋازلىرى
اۋازلىق
اۋازنى
اۋازنىڭ
اۋازى
اۋازىغا
اۋازىنى
اۋازىنىڭ
اۋال
اۋام
اۋامغا
اۋامنى
اۋامنىڭ
اۋانگارت
اۋايلاپ
اۋسترالىيە
اۋسترىيە
اۋسترىيەنىڭ
اۋستىرالىيە
اۋستىرىيە
اۋغۇست
اۋغۇستتا
اۋغۇستتىكى
اۋمېن
اۋىسترالىيە
اۋىستىرالىيە
اۋىستىرىيە
اۋىن
اۋىىن
اۋىي
اۋىياتسىيە
اۋىيە
اۋۇ
اۋۇت
اۋۇماق
اۋۋال
اۋۋالقى
اۋېللى
ب
با
باب
بابا
بابالاق
بابتا
بابتىكى
بابقا
بابى
بابىدا
بابىل
بابىلون
بابۇر
بابۇرنامە
بابۇرنىڭ
باتارىيە
باتالىيون
باتالىيونى
باتىل
باتۇخان
باتۇر
باتۇرلارچە
باتۇرلۇق
باتۇرنىڭ
باج
باجدىن
باجغا
باجنى
باجىلىق
باخشى
بادام
بادامخان
بار
بارا
بارات
باراتتى
باراتنىڭ
باراقسان
باراك
بارالايدۇ
باراي
بارايلى
باراۋەت
باراۋەر
باراۋەرلىك
باراۋەرلىكنى
باراۋەرلىكى
بارتولد
بارخانلىرى
باردى
باردىم
باردۇر
باردۇق
باردەك
بارس
بارسا
بارساق
بارسام
بارساڭ
بارغان
بارغاندا
بارغاندىن
بارغانسىرى
بارغانسېرى
بارغانلىقى
بارغانچە
بارغىلى
بارغىنىمدا
بارغىچە
بارغۇچە
باركى
باركەن
بارلار
بارلارنى
بارلارنىڭ
بارلىرى
بارلىق
بارلىققا
بارلىقى
بارلىقىدىن
بارلىقىغا
بارلىقىنى
بارماق
بارماقتا
بارماقلىرى
بارماقنىڭ
بارماقچى
بارماي
بارمايدۇ
بارمىدى
بارمىقى
بارمىقىنى
بارمۇ
بارنېس
بارون
بارى
بارىدا
بارىدىغان
بارىدىغانلىقىنى
بارىدۇ
بارىش
بارىكۆل
بارىمىز
بارىمەن
بارىن
بارىنى
بارىنىڭ
بارىچە
باري
بارچۇق
بارچە
باز
بازا
بازار
بازاردا
بازاردىكى
بازاردىن
بازارغا
بازارلار
بازارلاردا
بازارلاردىكى
بازارلارنى
بازارلىرى
بازارلىرىدا
بازارلىق
بازارنى
بازارنىڭ
بازغان
بازىر
بازىرى
بازىرىدا
بازىرىدىكى
بازىرىدىن
بازىرىغا
بازىرىنى
بازىرىنىڭ
بازىسى
بازىسىغا
بازىسىنى
باس
باسار
باستى
باستۇردى
باستۇرغان
باستۇرۇش
باستۇرۇشقا
باستۇرۇلدى
باستۇرۇلغان
باستۇرۇپ
باسسا
باسقان
باسقاندا
باسقۇنچىلىرىغا
باسقۇنچىلىق
باسقۇچ
باسقۇچتا
باسقۇچتىكى
باسقۇچقا
باسقۇچلار
باسقۇچلىرى
باسقۇچلىرىنى
باسقۇچلۇق
باسقۇچنى
باسقۇچى
باسقۇچىدا
باسقۇچىدىن
باسقۇچىغا
باسقۇچىنى
باسما
باسمىسى
باسمىل
باسىدىغان
باسىدۇ
باسىل
باش
باشاق
باشاقسىمان
باشبېتى
باشتا
باشتىلا
باشتىن
باشسىمان
باشقا
باشقارما
باشقارمىسى
باشقارمىسىنىڭ
باشقىدىن
باشقىسى
باشقىغا
باشقىلار
باشقىلاردىن
باشقىلارغا
باشقىلارغىمۇ
باشقىلارمۇ
باشقىلارنى
باشقىلارنىمۇ
باشقىلارنىڭ
باشقىلىرى
باشقىمۇ
باشقىنى
باشقىچە
باشقۇردى
باشقۇرغان
باشقۇرغۇچى
باشقۇرغۇچىسى
باشقۇرغۇچىلار
باشقۇرغۇچىلارنىڭ
باشقۇرىدىغان
باشقۇرىدۇ
باشقۇرۇش
باشقۇرۇشتا
باشقۇرۇشتىكى
باشقۇرۇشقا
باشقۇرۇشنى
باشقۇرۇشى
باشقۇرۇشىدا
باشقۇرۇشىدىكى
باشقۇرۇشىغا
باشقۇرۇلغان
باشقۇرۇلىدىغان
باشقۇرۇلىدۇ
باشقۇرۇپ
باشلادى
باشلاش
باشلاشتىن
باشلاشقا
باشلاشنى
باشلامچى
باشلامچىسى
باشلامچىلىق
باشلاندى
باشلانغان
باشلانغاندا
باشلانغاندىن
باشلانغانلىقى
باشلانغانلىقىنى
باشلانغۇچ
باشلانغۇچتا
باشلانغۇچنىڭ
باشلانغۇچى
باشلايدۇ
باشلايمەن
باشلاپ
باشلاپتۇ
باشلاپلا
باشلاڭ
باشلىدى
باشلىدىم
باشلىدۇق
باشلىرى
باشلىرىدا
باشلىرىدىكى
باشلىرىدىن
باشلىرىغا
باشلىرىغىچە
باشلىرىنى
باشلىسا
باشلىشى
باشلىغان
باشلىغاندا
باشلىغاندىن
باشلىغانلىقى
باشلىغانلىقىنى
باشلىغانىدى
باشلىغى
باشلىغۇچى
باشلىق
باشلىقلار
باشلىقلىرى
باشلىقلىرىدىن
باشلىقلىرىنى
باشلىقلىرىنىڭ
باشلىقلىقىغا
باشلىقى
باشلىقىغا
باشلىقىنىڭ
باشلىنىدۇ
باشلىنىش
باشلىنىشتىن
باشلىنىشى
باشلىنىپ
باشلىۋەتكەن
باشنى
باشنىڭ
باشى
باشىغا
باشىم
باشي
باشچىلىق
باشچىلىقىدا
باشچىلىقىدىكى
باغ
باغا
باغدات
باغداتتا
باغداتقا
باغداد
باغدادتا
باغدادقا
باغدادنى
باغداش
باغراش
باغرى
باغرىدا
باغرىدىكى
باغرىغا
باغرىنى
باغقا
باغلار
باغلاردا
باغلاش
باغلام
باغلانغان
باغلايدىغان
باغلايدۇ
باغلاپ
باغلاپتۇ
باغلىدى
باغلىدىم
باغلىغان
باغلىغۇچى
باغلىغۇچىسى
باغلىغۇچىلار
باغلىق
باغلىقتۇر
باغلىنىدىغان
باغلىنىدۇ
باغلىنىش
باغلىنىشلىق
باغلىنىشى
باغلىنىپ
باغنىڭ
باغچا
باغچى
باغچىسى
باغچىسىدا
باغچىسىغا
باغچىسىنىڭ
باغچىنى
باغچىنىڭ
باغۋەن
باغۋەنچىلىك
باق
باقان
باقانلىرى
باقاي
باقايلى
باقتى
باقتىم
باقتىڭىز
باقسا
باقساق
باقسام
باقسىڭىز
باققان
باققانلار
باققۇچى
باقماي
باقمىدى
باقمىدىم
باقمىغان
باقمىچىلىق
باقمىچىلىقى
باقى
باقىدىغان
باقىدۇ
باكالاۋر
باكتېرىي
باكتېرىيىسى
باكتېرىيىگە
باكتېرىيە
باكلاۋىر
باكلاۋۇر
باكلاۋۇرلۇق
باكۇ
بال
بالا
بالاساغۇن
بالاساغۇندا
بالاساغۇنغا
بالاساغۇننى
بالاغا
بالاغەتكە
بالام
بالامغا
بالامنى
بالامنىڭ
بالايى
بالايىي
بالتىق
بالداق
بالدۇر
بالدۇرراق
بالدۇرلا
بالزاك
بالصلار
بالقاش
بالقان
بالوفيات
بالىدا
بالىدىن
بالىسى
بالىسىغا
بالىسىنى
بالىسىنىڭ
بالىغا
بالىق
بالىلار
بالىلاردا
بالىلاردىكى
بالىلاردىن
بالىلارغا
بالىلارمۇ
بالىلارنى
بالىلارنىڭ
بالىلىرى
بالىلىرىغا
بالىلىرىم
بالىلىرىمىز
بالىلىرىمىزغا
بالىلىرىمۇ
بالىلىرىنى
بالىلىرىنىڭ
بالىلىق
بالىلىقى
بالىمىز
بالىمىزغا
بالىمىزنى
بالىنى
بالىنىڭ
بالىياتقۇ
بالىچۇق
بالىچۇقنى
بالىڭىز
بالىڭىزدىن
بالىڭىزغا
بالىڭىزنى
بالىڭىزنىڭ
بامبۇك
بامدات
بان
بانا
بانان
بانكا
بانكىسى
بانكىسىنىڭ
بانكىغا
بانكىلار
بانكىنىڭ
بانۇ
باي
باياز
باياشات
بايان
بايانات
باياناتى
باياناتىدا
باياناتچىسى
بايانلار
بايانلاردىن
بايانلارغا
بايانلارنى
بايانلىرى
بايانلىرىغا
بايانى
بايانىنى
باياۋان
بايبارس
بايتاش
بايتوقاي
بايدىن
بايراق
بايراقتار
بايراقدار
بايراقدارى
بايراقنى
بايراقنىڭ
بايرام
بايراملار
بايراملاردا
بايراملىق
بايرامنى
بايرامنىڭ
بايرىقى
بايرىقىنى
بايرىمى
بايرىمىدا
بايرىمىدۇر
بايرىمىغا
بايرىمىنى
بايرىمىنىڭ
بايغا
بايقارا
بايقاش
بايقاشقا
بايقال
بايقالدى
بايقالغان
بايقالغاندىن
بايقايدۇ
بايقايسىز
بايقايمىز
بايقاپ
بايقىدى
بايقىدىم
بايقىغان
بايقىغاندىن
بايقىلىشى
بايقۇت
بايلار
بايلارنىڭ
بايلىق
بايلىققا
بايلىقلار
بايلىقلاردىن
بايلىقلارنى
بايلىقلىرى
بايلىقلىرىدىن
بايلىقلىرىنى
بايلىقنى
بايلىقنىڭ
بايلىقى
بايلىقىدىن
بايلىقىغا
بايلىقىنى
بايلىقىنىڭ
باينىڭ
بايىنغولىن
بايىنغۇلىن
بايۋەتچە
باپ
باپتا
باچكا
باچكىنى
باڭكوك
باھا
باھادا
باھادىر
باھار
باھاردا
باھارنىڭ
باھاسى
باھاسىغا
باھاسىمۇ
باھاسىنى
باھاسىنىڭ
باھاغا
باھالار
باھالارنى
باھالاش
باھالاشتا
باھالاندى
باھالانغان
باھالاپ
باھالىرى
باھالىغان
باھالىغۇچى
باھالىق
باھالىنىپ
باھاما
باھانى
باھانىسى
باھانە
باھاي
باھاۋۇدۇنباي
باھنى
باۋۇدۇن
بدت
برازىلىيە
براك
برىتانىيە
برۇنېي
بصلەن
بصۋاستە
بعد
بـ
بــۇ
بلايېر
بلوگ
بلوگىدىن
بما
بن
بنت
بو
بوران
بوراندىن
بورتالا
بوردىي
بورھان
بوز
بوزەك
بوسات
بوستان
بوستانلىق
بوستانلىقلار
بوستانلىقى
بوستون
بوسنىيە
بوش
بوشاشماي
بوشاپ
بوشلۇق
بوشلۇقتا
بوشلۇقتىكى
بوشلۇققا
بوشلۇقنى
بوشلۇقنىڭ
بوشلۇقى
بوشلۇقىدا
بوشلۇقىغا
بوشلۇقىنىڭ
بوشىتىدۇ
بوشىتىش
بوشىتىپ
بوشىشىپ
بوغاز
بوغازي
بوغالتىرلىق
بوغدا
بوغما
بوغۇز
بوغۇزى
بوغۇزىغا
بوغۇلۇپ
بوغۇم
بوغۇمدا
بوغۇمدىن
بوغۇمغا
بوغۇملىرى
بوغۇملىرىدىكى
بوغۇملۇق
بوغۇمنى
بوغۇمى
بوغۇمىدا
بوغۇمىدىكى
بوغۇپ
بوكس
بوكيمون
بول
بولا
بولاتتى
بولاتتىم
بولاتتۇق
بولار
بولارمىش
بولارمۇ
بولاق
بولالايدىغان
بولالايدۇ
بولالايسىز
بولالايمىز
بولالماي
بولالمايدىغان
بولالمايدۇ
بولالمايمەن
بولالمىدى
بولالمىدىم
بولالمىغان
بولالىشى
بولالىغان
بولامدۇ
بولاي
بولايلى
بولدى
بولدىغان
بولدىكى
بولدىمۇ
بولدىڭىز
بولدۇ
بولدۇق
بولدۇم
بولدۇڭ
بولسا
بولساق
بولساقمۇ
بولسام
بولساممۇ
بولساڭ
بولساڭلار
بولسىلا
بولسىمۇ
بولسىڭىز
بولسۇن
بولسۇنكى
بولشېۋىك
بولغا
بولغارىيە
بولغان
بولغاندا
بولغاندىكىن
بولغاندىلا
بولغاندىمۇ
بولغاندىن
بولغاندۇر
بولغاندەك
بولغانغا
بولغانلار
بولغانلاردىن
بولغانلارغا
بولغانلارنى
بولغانلارنىڭ
بولغانلىرى
بولغانلىرىغا
بولغانلىرىنى
بولغانلىرىنىڭ
بولغانلىغى
بولغانلىق
بولغانلىقتىن
بولغانلىقى
بولغانلىقىدىن
بولغانلىقىغا
بولغانلىقىنى
بولغانلىقىنىڭ
بولغانمۇ
بولغانىدى
بولغانىكەن
بولغاي
بولغاچ
بولغاچقا
بولغــان
بولغىدەك
بولغىلى
بولغىن
بولغىنى
بولغىنىدا
بولغىنىدىن
بولغىنىدەك
بولغىنىغا
بولغىنىم
بولغىچە
بولغۇدەك
بولغۇسى
بولغۇچى
بولغۇچىلار
بولغۇچىنىڭ
بولغۇچە
بولــۇپ
بولقا
بولكا
بوللىۋودتىكى
بولما
بولماس
بولماسا
بولماستىن
بولماسلىق
بولماسلىقى
بولماق
بولماقتا
بولماقچى
بولمامدۇ
بولماي
بولمايتتى
بولمايدىغان
بولمايدىغانلىقى
بولمايدىغانلىقىنى
بولمايدىكەن
بولمايدۇ
بولمايمىز
بولماپتۇ
بولمىدى
بولمىسا
بولمىسىمۇ
بولمىسۇن
بولمىش
بولمىغان
بولمىغاندا
بولمىغانلار
بولمىغانلارغا
بولمىغانلىرى
بولمىغانلىقتىن
بولمىغانلىقى
بولمىغانلىقىنى
بولمىغاچقا
بولمىغىنىدەك
بولوپ
بولىدىغان
بولىدىغانلىقى
بولىدىغانلىقىغا
بولىدىغانلىقىنى
بولىدىغىنى
بولىدىكەن
بولىدىكەنسىز
بولىدۇ
بولىدۇكى
بولىسىز
بولىسەن
بولىشى
بولىشىدىن
بولىشىغا
بولىشىمۇ
بولىشىنى
بولىشىچە
بولىشىڭىز
بولىقى
بولىمىز
بولىمەن
بولىۋاتقان
بولىۋاتىدۇ
بولىۋىيە
بولىۋېرىدۇ
بولگان
بولۇ
بولۇر
بولۇش
بولۇشتا
بولۇشتى
بولۇشتىن
بولۇشتەك
بولۇشسىز
بولۇشقا
بولۇشلۇق
بولۇشنى
بولۇشنىڭ
بولۇشى
بولۇشىدا
بولۇشىدىكى
بولۇشىدىن
بولۇشىدۇ
بولۇشىدۇر
بولۇشىغا
بولۇشىمىز
بولۇشىمۇ
بولۇشىنى
بولۇشىنىڭ
بولۇشىچە
بولۇشىڭىز
بولۇشۇم
بولۇشۇپ
بولۇپ
بولۇپتۇ
بولۇپلا
بولۇپمۇ
بولۇڭ
بولۇڭلار
بولۇۋاتقان
بولۇۋاتقانلىقىنى
بولۇۋاتىدۇ
بولۇۋېرىدۇ
بولۇۋېلىپ
بوم
بومبا
بومباردىمان
بومباردىمانچى
بومباي
بومبىسى
بوي
بوياق
بويالغان
بويامچىلىق
بوياپ
بويتاق
بويرۇيدۇ
بويسۇندۇردى
بويسۇندۇرغان
بويسۇندۇرۇش
بويسۇندۇرۇلغان
بويسۇندۇرۇپ
بويسۇنىدىغان
بويسۇنىدۇ
بويسۇنۇش
بويسۇنۇپ
بويصچە
بويلاپ
بويلىرى
بويلىرىدا
بويلىرىدىكى
بويلىرىدىن
بويلىرىغا
بوينى
بوينىغا
بويى
بويىدا
بويىدىكى
بويىدىن
بويىغا
بويىنىڭ
بويىنچە
بويىچىمۇ
بويىچە
بويچە
بويۇم
بويۇملار
بويۇملىرى
بويۇملىرىنى
بويۇن
بوپ
بوپتۇ
بوھران
بوۋا
بوۋاسىر
بوۋاق
بوۋاققا
بوۋاقلار
بوۋاقلارنى
بوۋاقلارنىڭ
بوۋاقنى
بوۋاقنىڭ
بوۋام
بوۋاي
بوۋاينى
بوۋاينىڭ
بوۋىسى
بوۋىسىدىن
بوۋىسىنىڭ
بوۋىلارنىڭ
بوۋىلىرى
بوۋىلىرىمىز
بوۋىلىرىمىزنىڭ
بوۋىمىز
بى
بىباھا
بىت
بىتا
بىتى
بىتىم
بىتچىت
بىتەرەپ
بىخ
بىخى
بىخەتەر
بىخەتەرلىك
بىخەتەرلىككە
بىخەتەرلىكى
بىخەتەرلىكىنى
بىخەتەرلىكىگە
بىخەۋەر
بىدي
بىر
بىراز
بىرازىلىيە
بىراق
بىراقلا
بىراۋنىڭ
بىربىرىگە
بىرتەرەپ
بىرخىل
بىردىن
بىردىنبىر
بىردىنلا
بىردەك
بىردەكلىك
بىردەكلىككە
بىردەكلىكىنى
بىردەم
بىردەمدىن
بىرسى
بىرسىدىن
بىرسىدۇر
بىرسىدە
بىرسىلا
بىرسىمۇ
بىرسىنى
بىرسىنىڭ
بىرسىگە
بىرقاتار
بىرقانچە
بىرقىسمى
بىرقىسىم
بىرقەدەر
بىرك
بىرلا
بىرلىشىش
بىرلىشىشكە
بىرلىشىشى
بىرلىشىشىدىن
بىرلىشىپ
بىرلىك
بىرلىكتە
بىرلىككە
بىرلىكلىرى
بىرلىكلەر
بىرلىكنى
بىرلىكنىڭ
بىرلىكى
بىرلىكىنى
بىرلىكىنىڭ
بىرلىكىگە
بىرلە
بىرلەشتۈرگەن
بىرلەشتۈرۈش
بىرلەشتۈرۈلگەن
بىرلەشتۈرۈلۈپ
بىرلەشتۈرۈپ
بىرلەشكەن
بىرلەشمىسى
بىرلەشمىسىدىكى
بىرلەشمىسىدە
بىرلەشمىسىنىڭ
بىرلەشمىسىگە
بىرلەشمە
بىرلەپ
بىرما
بىرمۇ
بىرمۇنچە
بىرنى
بىرنچى
بىرنەچچە
بىرونېۋىك
بىرى
بىرىتانىيە
بىرىدىغان
بىرىدىن
بىرىدۇ
بىرىدۇر
بىرىدە
بىرىسى
بىرىش
بىرىشتىن
بىرىشكە
بىرىشنى
بىرىشى
بىرىكتۈرۈش
بىرىكتۈرۈپ
بىرىككەن
بىرىكمىسى
بىرىكمىلىرى
بىرىكمىلەر
بىرىكمىلەرنى
بىرىكمە
بىرىكىش
بىرىكىشىدىن
بىرىكىپ
بىرىلغان
بىرىلىدىغان
بىرىلىدۇ
بىرىلىپ
بىرىلگەن
بىرىمىز
بىرىمىزنى
بىرىمىزنىڭ
بىرىمىزگە
بىرىنجى
بىرىنجىسى
بىرىنى
بىرىنىڭ
بىرىنچى
بىرىنچىدىن
بىرىنچىسى
بىرىنچىلىككە
بىرىپ
بىرىگادا
بىرىگادىسى
بىرىگە
بىرىۋاتقان
بىري
بىرژىسى
بىرگە
بىرۇنى
بىرۇنىنىڭ
بىرە
بىرەتتى
بىرەر
بىرەرسى
بىرەيلەن
بىرەيلەننىڭ
بىز
بىزار
بىزدىكى
بىزدىمۇ
بىزدىن
بىزدە
بىزدەك
بىزلەر
بىزلەردە
بىزلەرنى
بىزلەرگە
بىزمۇ
بىزنى
بىزنىڭ
بىزنىڭمۇ
بىزگىمۇ
بىزگىچە
بىزگە
بىستىپايەج
بىسمارك
بىسمىللاھ
بىسمىللاھىررەھمانىررەھىم
بىسىم
بىسىمغا
بىسىمى
بىسىپ
بىشارىتى
بىشارەت
بىشكەك
بىشى
بىشىغا
بىشىنى
بىغەم
بىــر
بىكار
بىكارغا
بىكىتتى
بىكىتكەن
بىكىتىلگەن
بىكەت
بىل
بىلال
بىلالنىڭ
بىلةن
بىلدى
بىلدىم
بىلدۇرىدۇ
بىلدۈردى
بىلدۈردىغان
بىلدۈرسە
بىلدۈرىدىغان
بىلدۈرىدۇ
بىلدۈرىمەن
بىلدۈرگەن
بىلدۈرۈش
بىلدۈرۈشتى
بىلدۈرۈلگەن
بىلدۈرۈپ
بىلسىمۇ
بىلسۇن
بىلسە
بىلسەك
بىلـ
بىلــەن
بىلقۇت
بىلكەنت
بىللاھ
بىللە
بىلمىدىم
بىلمىسە
بىلمىگەن
بىلمەس
بىلمەسلىك
بىلمەكچى
بىلمەي
بىلمەيتتى
بىلمەيتتىم
بىلمەيدىغان
بىلمەيدىغانلار
بىلمەيدىكەن
بىلمەيدىكەنمەن
بىلمەيدۇ
بىلمەيمىز
بىلمەيمەن
بىلىدىغان
بىلىدىغانلار
بىلىدىغانلىقى
بىلىدىغانلىقىنى
بىلىدىكەن
بىلىدۇ
بىلىسىز
بىلىسەن
بىلىش
بىلىشكە
بىلىشنى
بىلىشنىڭ
بىلىشى
بىلىشىمىز
بىلىشىمچە
بىلىــم
بىلىك
بىلىم
بىلىمخۇمار
بىلىمدىن
بىلىمسىز
بىلىمسىزلىك
بىلىملىرى
بىلىملىرىدىن
بىلىملىرىنى
بىلىملىرىگە
بىلىملىــك
بىلىملىك
بىلىملەر
بىلىملەردىن
بىلىملەرنى
بىلىملەرنىڭ
بىلىملەرگە
بىلىمنى
بىلىمنىڭ
بىلىمى
بىلىمىز
بىلىمىنى
بىلىمگە
بىلىمەن
بىلىندى
بىلىنمەكتە
بىلىنىدۇ
بىلىنىپ
بىلىنگەن
بىلىپ
بىلىگ
بىلىۋال
بىلىۋالالايمىز
بىلىۋالغىلى
بىلىۋېلىش
بىلىۋېلىشقا
بىليون
بىلگىلى
بىلگىيە
بىلگۈچىدۇر
بىلگە
بىلگەن
بىلگەندىن
بىلگەچكە
بىلە
بىلەت
بىلەتتى
بىلەك
بىلەلمەي
بىلەلەيدۇ
بىلەلەيمىز
بىلەمسىز
بىلەمسەن
بىلەن
بىلەنلا
بىلەنمۇ
بىمار
بىمارلارنىڭ
بىمارنىڭ
بىمالال
بىن
بىنا
بىناسى
بىناسىنىڭ
بىناغا
بىناكارلىق
بىناكارلىقى
بىنالار
بىنالارنىڭ
بىنانىڭ
بىناي
بىنت
بىنتى
بىننى
بىنورمال
بىنى
بىنەپشە
بىي
بىيو
بىيولوگىيە
بىيولوگىيەلىك
بىيۇروسى
بىيۇروسىنىڭ
بىپايان
بىپەرۋالىق
بىچارە
بىڭتۇەن
بىڭتۇەنلىك
بىڭتۇەننى
بىڭتۇەننىڭ
بىڭتۇەنى
بىگىز
بىگۇناھ
بىھاجەت
بىھۇدە
بىۋاستە
بىۋاسىتە
بي
بيكاتشو
بۆرتالا
بۆرىنى
بۆرىنىڭ
بۆرە
بۆرەك
بۆرەكنى
بۆسۈش
بۆسۈپ
بۆشۈك
بۆشۈككە
بۆشۈكى
بۆك
بۆكىنى
بۆكۈخان
بۆكە
بۆكەن
بۆلدى
بۆلمىسى
بۆلىدىغان
بۆلىدۇ
بۆلىكى
بۆلىكىدە
بۆلىكىنى
بۆلىكىگە
بۆلىمى
بۆلىمىنىڭ
بۆلىنىدۇ
بۆلگۈنچى
بۆلگۈنچىلىك
بۆلگۈچ
بۆلگەن
بۆلۈش
بۆلۈشكە
بۆلۈك
بۆلۈم
بۆلۈمدە
بۆلۈملەردىن
بۆلۈمنىڭ
بۆلۈمى
بۆلۈمىدىكى
بۆلۈمىدىن
بۆلۈمىدە
بۆلۈمىنى
بۆلۈمىنىڭ
بۆلۈمىگە
بۆلۈندى
بۆلۈنمە
بۆلۈنىدۇ
بۆلۈنىشى
بۆلۈنگەن
بۆلۈنۈش
بۆلۈنۈشى
بۆلۈنۈپ
بۆلۈپ
بۆلەك
بۆلەكتىن
بۆلەكتە
بۆلەككە
بۆلەكلىرى
بۆلەكلەر
بۆلەكلەردىن
بۆلەكلەرگە
بۆلەكنىڭ
بۆگۈ
بۇ
بۇت
بۇتا
بۇتان
بۇتخانا
بۇتخانىسى
بۇتخانىسىنى
بۇتقا
بۇجغۇر
بۇخارا
بۇخارادا
بۇخارادىكى
بۇخاراغا
بۇخارانىڭ
بۇخارى
بۇخارىي
بۇخارىينىڭ
بۇخىل
بۇخەلچەم
بۇددا
بۇددالا
بۇددىزم
بۇددىزىم
بۇددىست
بۇدۇشقاق
بۇرادەرلەر
بۇراپ
بۇرجى
بۇرجەك
بۇرجەكلىك
بۇرسا
بۇرمىلانغان
بۇرنى
بۇرنىغا
بۇرنىنى
بۇرچ
بۇرچى
بۇرچىن
بۇرچىنى
بۇرژۇي
بۇرھان
بۇرۇتلۇق
بۇرۇلتوقاي
بۇرۇلۇش
بۇرۇلۇپ
بۇرۇن
بۇرۇندىن
بۇرۇندىنلا
بۇرۇنراق
بۇرۇنغا
بۇرۇنقى
بۇرۇنقىدىن
بۇرۇنقىدەك
بۇرۇنقىدەكلا
بۇرۇنلا
بۇرۇنمۇ
بۇرۇننىڭ
بۇزدى
بۇزغان
بۇزغۇنچىلىق
بۇزغۇنچىلىققا
بۇزىدىغان
بۇزۇش
بۇزۇشقا
بۇزۇق
بۇزۇقچىلىق
بۇزۇلسا
بۇزۇلغان
بۇزۇلىدۇ
بۇزۇلۇش
بۇزۇلۇپ
بۇزۇپ
بۇش
بۇشنىڭ
بۇغا
بۇغدا
بۇغداي
بۇغداينى
بۇغرا
بۇغراخان
بۇغراخاننىڭ
بۇغىسى
بۇغۇم
بۇغۇمدىن
بۇغۇملۇق
بۇففېت
بۇقا
بۇقىنىڭ
بۇلاتتى
بۇلار
بۇلاردا
بۇلاردىن
بۇلارغا
بۇلارمۇ
بۇلارنى
بۇلارنىڭ
بۇلاق
بۇلاپ
بۇلاڭ
بۇلاڭچىلىق
بۇلبۇل
بۇلبۇلى
بۇلتۇر
بۇلتۇرقى
بۇلدى
بۇلسا
بۇلغار
بۇلغارلار
بۇلغارىيە
بۇلغان
بۇلغاندىن
بۇلغانغان
بۇلغىنىش
بۇلغۇن
بۇلىدىغان
بۇلىدۇ
بۇلىشى
بۇلىقى
بۇلۇت
بۇلۇتلار
بۇلۇتنىڭ
بۇلۇش
بۇلۇشقا
بۇلۇشى
بۇلۇپ
بۇلۇپمۇ
بۇلۇڭ
بۇلۇڭلۇق
بۇلۇڭنىڭ
بۇلۇڭى
بۇلۇڭىدا
بۇمۇ
بۇنداق
بۇندىن
بۇنى
بۇنىمۇ
بۇنىڭ
بۇنىڭدا
بۇنىڭدىكى
بۇنىڭدىن
بۇنىڭدىنمۇ
بۇنىڭغا
بۇنىڭلىق
بۇنچىلىك
بۇنچىۋالا
بۇنچە
بۇي
بۇيا
بۇيان
بۇيانقى
بۇيرىدى
بۇيرىغان
بۇيرۇتقۇچى
بۇيرۇتقۇچىنىڭ
بۇيرۇدى
بۇيرۇسا
بۇيرۇش
بۇيرۇغان
بۇيرۇق
بۇيرۇققا
بۇيرۇقلار
بۇيرۇقلارنى
بۇيرۇقلىرىنى
بۇيرۇقنى
بۇيرۇقى
بۇيرۇقىغا
بۇيرۇقىنى
بۇيرۇلغان
بۇيرۇلىدۇ
بۇيرۇيدۇ
بۇيرۇپ
بۇيى
بۇيىغا
بۇيىچە
بۇيۇك
بۇيۇم
بۇيۇملار
بۇيۇملاردىن
بۇيۇملارنى
بۇيۇملارنىڭ
بۇيۇملىرى
بۇيۇملىرىنى
بۇيۇملىرىنىڭ
بۇيۇمى
بۇيەردە
بۇچا
بۇگۇنكى
بۇگۈن
بۇگۈنكى
بۇھەقتە
بۈبى
بۈرجەكلىك
بۈركۈت
بۈركۈتى
بۈك
بۈلۈم
بۈلۈمى
بۈلەكچە
بۈمەريەم
بۈيۈك
بۈگرى
بۈگۈر
بۈگۈن
بۈگۈنكى
بۈگۈنكىدەك
بۈگۈنمۇ
بۈگۈننى
بۈگۈنى
بۈگۈنگىچە
بۈگۈنگە
بۈۋى
بې
بېتى
بېتىدىكى
بېتىدىن
بېتىدە
بېتىنى
بېتىنىڭ
بېتىگە
بېجى
بېجىرىدىغان
بېجىرىدۇ
بېجىرىش
بېجىرىشكە
بېجىرىشى
بېجىرىپ
بېجىرگۈچىسى
بېدىك
بېدە
بېرتانىيە
بېرلىن
بېرما
بېرنانكې
بېرى
بېرىتانىيە
بېرىدىغان
بېرىدىغانلىقى
بېرىدىغانلىقىنى
بېرىدىكەن
بېرىدۇ
بېرىسىز
بېرىسەن
بېرىش
بېرىشتى
بېرىشتىكى
بېرىشتىن
بېرىشتە
بېرىشقا
بېرىشكە
بېرىشنى
بېرىشنىڭ
بېرىشى
بېرىشىغا
بېرىشىمنى
بېرىشىمىز
بېرىشىنى
بېرىشىچە
بېرىشىگە
بېرىلدى
بېرىلدىغان
بېرىلدۇ
بېرىلسىمۇ
بېرىلسە
بېرىلغان
بېرىلماقتا
بېرىلمىدى
بېرىلمىگەن
بېرىلمەيدۇ
بېرىلىدىغان
بېرىلىدۇ
بېرىلىش
بېرىلىشى
بېرىلىشىنى
بېرىلىپ
بېرىلىۋاتقان
بېرىلگۈچى
بېرىلگۈچىنى
بېرىلگەن
بېرىلگەندىن
بېرىلگەنلىكى
بېرىلگەنلىكىنى
بېرىمىز
بېرىمەن
بېرىپ
بېرىپتۇ
بېرىپلا
بېرىچە
بېرىڭ
بېرىڭلار
بېرىۋاتقان
بېرىۋاتقانلىقىنى
بېرىۋاتىدۇ
بېرەتتى
بېرەلمەي
بېرەلمەيدۇ
بېرەلىشى
بېرەلەيدىغان
بېرەلەيدۇ
بېرەي
بېزى
بېزەش
بېزەكچىلىك
بېزەلگەن
بېزەپ
بېسىش
بېسىشقا
بېسىشنى
بېسىشى
بېسىلدى
بېسىلغان
بېسىلىدىغان
بېسىلىدۇ
بېسىلىپ
بېسىم
بېسىمغا
بېسىملىق
بېسىمنى
بېسىمى
بېسىمىنى
بېسىمىنىڭ
بېسىپ
بېسىۋالدى
بېسىۋالغان
بېسىۋالىدۇ
بېسىۋېلىنغان
بېسىۋېلىپ
بېشارىتى
بېشارەت
بېشبالىق
بېشكەك
بېشى
بېشىدا
بېشىدىكى
بېشىدىن
بېشىر
بېشىغا
بېشىغىچە
بېشىكتاش
بېشىمغا
بېشىمنى
بېشىمىزغا
بېشىمچىلىق
بېشىنى
بېشىنىڭ
بېشىڭ
بېغى
بېغىشلاش
بېغىشلانغان
بېغىشلايدىغان
بېغىشلايدۇ
بېغىشلاپ
بېغىشلىدى
بېغىشلىغان
بېغىغا
بېقىش
بېقىشقا
بېقىشنى
بېقىشى
بېقىشىنى
بېقىلىدۇ
بېقىندى
بېقىندىلىق
بېقىندۇرۇش
بېقىنىش
بېقىنىپ
بېقىپ
بېقىڭ
بېقىڭلار
بېقىۋالغان
بېقىۋالغۇچى
بېقىۋېلىش
بېقىۋېلىشقا
بېقىۋېلىنغان
بېك
بېكىتتى
بېكىتسە
بېكىتكىلى
بېكىتكەن
بېكىتمە
بېكىتى
بېكىتىدۇ
بېكىتىش
بېكىتىشتىن
بېكىتىشتە
بېكىتىشكە
بېكىتىشى
بېكىتىلدى
بېكىتىلمىگەن
بېكىتىلىدۇ
بېكىتىلىپ
بېكىتىلگەن
بېكىتىپ
بېكەت
بېكەتلىرى
بېل
بېلارۇسىيە
بېلى
بېلىتى
بېلىز
بېلىق
بېلىقلار
بېلىقلارنى
بېلىقنى
بېلىقنىڭ
بېلىقى
بېلىقچى
بېلىقچىلىق
بېلىگە
بېلگراد
بېلگىيە
بېلگىيەنىڭ
بېلەت
بېلەك
بېن
بېنگال
بېي
بېيجىڭ
بېيجىڭدا
بېيجىڭدىكى
بېيجىڭدىن
بېيجىڭغا
بېيجىڭنىڭ
بېيرۇت
بېيىت
بېيىتقان
بېيىتىش
بېيىتىپ
بېگى
بېگىم
بېھى
بە
بەت
بەتتىن
بەتتە
بەتتەر
بەتكە
بەتلىرى
بەتلىرىدە
بەتلىرىنىڭ
بەتلىرىگە
بەتلىك
بەتلەر
بەتلەرگە
بەتنى
بەتنىڭ
بەجا
بەخت
بەختسىز
بەختكە
بەختلىك
بەختى
بەختىم
بەختىنى
بەختىيار
بەختىگە
بەخش
بەخىت
بەخىتكە
بەخىتلىك
بەخىش
بەد
بەدر
بەدىلىگە
بەدىنى
بەدىنىدىكى
بەدىنىدە
بەدىنىنى
بەدىنىنىڭ
بەدىنىگە
بەدىي
بەدىيان
بەدي
بەدەخشان
بەدەل
بەدەن
بەدەندىكى
بەدەندىن
بەدەندە
بەدەننى
بەدەننىڭ
بەدەنگە
بەر
بەرباب
بەربات
بەرداشلىق
بەردى
بەردىم
بەردۇق
بەرسىمۇ
بەرسىڭىز
بەرسۇن
بەرسە
بەرسەك
بەرسەم
بەرسەڭ
بەرق
بەرقى
بەرمىدى
بەرمىسە
بەرمىگەن
بەرمەسلىك
بەرمەسلىكى
بەرمەكتە
بەرمەكچى
بەرمەي
بەرمەيدىكەن
بەرمەيدۇ
بەرىبىر
بەرىكىتى
بەرىكەت
بەرىكەتلىك
بەرپا
بەرگىلى
بەرگىن
بەرگىنى
بەرگۈچى
بەرگۈچىنىڭ
بەرگۈچىگە
بەرگەن
بەرگەندىن
بەرگەندە
بەرگەنلىكى
بەرگەنلىكىنى
بەرگەنلەر
بەرگەنلەرگە
بەرگەنىدى
بەرھەق
بەرەڭگە
بەز
بەزى
بەزىبىر
بەزىدە
بەزىسى
بەزىلىرى
بەزىلىرىدە
بەزىلىرىمىز
بەزىلىرىنى
بەزىلىرىنىڭ
بەزىلەر
بەزىلەردە
بەزىلەرنىڭ
بەزىلەرگە
بەزگەك
بەزەن
بەس
بەستە
بەسرە
بەسرەگە
بەسى
بەسىم
بەسەي
بەش
بەشبالىق
بەشتىن
بەشكېرەم
بەشكە
بەشىر
بەشىنچى
بەشىنچىدىن
بەشىنچىسى
بەشي
بەقەرە
بەك
بەكر
بەكراق
بەكرى
بەكرىنىڭ
بەكرەك
بەكلا
بەكمۇ
بەل
بەلباغ
بەلبىغى
بەلبېغى
بەلخ
بەلغەم
بەلكى
بەلكىم
بەلنى
بەلگصلەنگەن
بەلگىسى
بەلگىسىدۇر
بەلگىسىنى
بەلگىسىنىڭ
بەلگىلىدى
بەلگىلىرى
بەلگىلىرىنى
بەلگىلىرىنىڭ
بەلگىلىشى
بەلگىلىك
بەلگىلىمىسى
بەلگىلىمىسىگە
بەلگىلىمىلىرى
بەلگىلىمىلىرىگە
بەلگىلىمىلەر
بەلگىلىمىلەرنى
بەلگىلىمىلەرگە
بەلگىلىمىنى
بەلگىلىمىگە
بەلگىلىمە
بەلگىلىنىدۇ
بەلگىلىنىپ
بەلگىلىگەن
بەلگىلەر
بەلگىلەرنى
بەلگىلەش
بەلگىلەشكە
بەلگىلەنمىگەن
بەلگىلەنگەن
بەلگىلەنگەنلىرى
بەلگىلەيدىغان
بەلگىلەيدۇ
بەلگىلەپ
بەلگىنى
بەلگە
بەلۋاغ
بەلۋاغنىڭ
بەن
بەنت
بەنجاڭ
بەند
بەندىسى
بەندە
بەنى
بەنگۇڭتىڭى
بەنگۇڭتىڭىنىڭ
بەنۇ
بەي
بەيت
بەيتۇل
بەيتۇللاھ
بەيدۇ
بەيدۇللاھ
بەيي
بەيگىسى
بەيگە
بەگ
بەگزادىلەر
بەگزادە
بەگكە
بەگلىرى
بەگلىرىنىڭ
بەگلىك
بەگلىكلىرى
بەگلىكلەر
بەگلىكلەرنى
بەگلىكلەرنىڭ
بەگلىكى
بەگلىكىنىڭ
بەگلىكىگە
بەگلەر
بەگلەرنىڭ
بەگنى
بەگنىڭ
بەھرام
بەھرى
بەھرىمان
بەھرىمەن
بەھرەيىن
ة
ةمگةك
ةمگةكچى
ت
تا
تابغاچ
تابىي
تات
تاتاتوڭي
تاتار
تاتارلار
تاتارلارنىڭ
تاتارىستان
تاتارچە
تاتلىق
تاتلىقياڭيۇ
تاتىلاپ
تاج
تاجاۋۇز
تاجاۋۇزىغا
تاجاۋۇزچى
تاجاۋۇزچىلىرى
تاجاۋۇزچىلىق
تاجاۋۇزچىلىقىغا
تاجسىمان
تاجى
تاجىسمان
تاجىسى
تاجىسىمان
تاجىك
تاجىكلار
تاجىكىستان
تاجىكچە
تاجىنى
تاختا
تاختاي
تاختاينىڭ
تاختىسى
تاختىسىنى
تار
تاراتقۇ
تاراتقۇلار
تاراتقۇلاردا
تاراتقۇلاردىكى
تاراتقۇلارغا
تاراتقۇلارنىڭ
تاراج
تارازا
تارازىسى
تاراش
تارالغان
تارانچى
تارايتىپ
تارايغان
تاراپ
تارباغاتاي
تارتتى
تارتتىم
تارتسا
تارتقان
تارتقۇزۇپ
تارتىدىغان
تارتىدۇ
تارتىش
تارتىشتا
تارتىشش
تارتىشقا
تارتىشلار
تارتىشلىرى
تارتىشنى
تارتىشى
تارتىشىش
تارتىشىنى
تارتىشىپ
تارتىلغان
تارتىلىدۇ
تارتىلىپ
تارتىپ
تارتىپلا
تارتىۋالدى
تارتىۋالغان
تارتىۋالىدۇ
تارتىۋېلىش
تارتىۋېلىنغان
تارتىۋېلىپ
تارتۇق
تارخان
تاردۇش
تاردۇشلارنىڭ
تارقاتتى
تارقاتسا
تارقاتقان
تارقاتقۇچى
تارقاق
تارقالدى
تارقالغان
تارقالغاندىن
تارقان
تارقاپ
تارقلىشى
تارقىتىدىغان
تارقىتىدۇ
تارقىتىش
تارقىتىشتا
تارقىتىشقا
تارقىتىشنى
تارقىتىشنىڭ
تارقىتىشى
تارقىتىلدى
تارقىتىلغان
تارقىتىلىدىغان
تارقىتىلىدۇ
تارقىتىلىش
تارقىتىلىشقا
تارقىتىلىشى
تارقىتىلىپ
تارقىتىپ
تارقىتىۋېتىش
تارقىلىدۇ
تارقىلىش
تارقىلىشقا
تارقىلىشى
تارقىلىشىغا
تارقىلىشچان
تارقىلىپ
تارلىق
تارمار
تارماق
تارماقتا
تارماقتىكى
تارماققا
تارماقلار
تارماقلاردىن
تارماقلارغا
تارماقلارنى
تارماقلارنىڭ
تارماقلىرى
تارماقلىرىدا
تارماقلىرىنىڭ
تارماقنىڭ
تارماقچىسىدىكى
تارمصقص
تارمىقى
تارمىقىدا
تارمىقىدىكى
تارمىقىغا
تارمىقىنىڭ
تارى
تارىخ
تارىختا
تارىختىكى
تارىختىن
تارىخدىكى
تارىخشۇناس
تارىخشۇناسلىق
تارىخشۇناسى
تارىخقا
تارىخنى
تارىخنىڭ
تارىخى
تارىخىتۈر
تارىخىدا
تارىخىدىكى
تارىخىدىن
تارىخىغا
تارىخىمىز
تارىخىمىزدا
تارىخىمىزدىكى
تارىخىمىزنى
تارىخىنى
تارىخىنىڭ
تارىخىي
تارىخي
تارىخچى
تارىخچىسى
تارىخچىلار
تارىخچىلارنىڭ
تارىخچىلىرى
تارىلىق
تارىم
تارىنى
تاريخ
تازا
تازىلاش
تازىلانغان
تازىلاپ
تازىلىق
تازىلىققا
تازىلىقى
تازىلىقىغا
تازىلىنىدۇ
تازىم
تاس
تاسادىپى
تاسادىپىي
تاسما
تاش
تاشتا
تاشتىن
تاشقا
تاشقان
تاشقورغان
تاشقى
تاشقىرى
تاشقىي
تاشكېمىر
تاشكەنت
تاشكەنتتىكى
تاشكەنتتە
تاشكەنتكە
تاشكەنتنىڭ
تاشلار
تاشلاردا
تاشلارغا
تاشلارنى
تاشلارنىڭ
تاشلاش
تاشلاشقا
تاشلاشنى
تاشلاندى
تاشلاندۇق
تاشلانغان
تاشلايدىغان
تاشلايدۇ
تاشلاپ
تاشلىدى
تاشلىدۇق
تاشلىرى
تاشلىرىدا
تاشلىشى
تاشلىغان
تاشلىغاندىن
تاشلىغۇچى
تاشلىق
تاشلىنىدۇ
تاشلىنىپ
تاشمىلىق
تاشنى
تاشنىڭ
تاشي
تاشيول
تاشيوللار
تاشيوللىرى
تاشيولى
تاشيولىنىڭ
تاشپاقا
تاشپولات
تاغ
تاغا
تاغار
تاغاق
تاغدا
تاغدىكى
تاغدىن
تاغدەك
تاغقا
تاغلار
تاغلاردىن
تاغلارنىڭ
تاغلىرى
تاغلىرىدا
تاغلىرىدىن
تاغلىرىغا
تاغلىرىنىڭ
تاغلىق
تاغلىقلار
تاغلېرى
تاغلېرىنىڭ
تاغنىڭ
تاغىسى
تاغىسىنىڭ
تاغۇ
تاق
تاقابىل
تاقاش
تاقاق
تاقاپ
تاققا
تاقلاپ
تاقىر
تاقىلىدۇ
تاقىلىپ
تاقىم
تاقەت
تاكتىكا
تاكتىكىسىنى
تاكتىكىلىق
تاكسى
تاكى
تاكېشى
تال
تالا
تالات
تالاس
تالاسى
تالاش
تالاشتۇرۇش
تالاغا
تالاق
تالالىق
تالان
تالانت
تالانتقا
تالانتلارنى
تالانتلارنىڭ
تالانتلىق
تالانتنىڭ
تالانتى
تالانتىغا
تالانتىنى
تالانتىڭىز
تالاي
تالاپەت
تالاپەتكە
تالاڭ
تالدىن
تالقان
تالقىنى
تاللا
تاللاش
تاللاشتا
تاللاشتىكى
تاللاشقا
تاللاشنى
تاللاندى
تاللانغان
تاللانما
تاللايدىغان
تاللايدۇ
تاللايمىز
تاللاپ
تاللاڭ
تاللىدى
تاللىدىم
تاللىسا
تاللىشى
تاللىشىغا
تاللىغان
تاللىغاندا
تاللىنىدۇ
تاللىنىپ
تاللىۋالغان
تالماي
تالون
تالونى
تالونىنى
تالىب
تالىبنىڭ
تالىشىدۇ
تالىشىش
تالىشىپ
تالىشىۋاتقان
تالىپ
تالىپلار
تام
تاما
تاماشا
تاماشىبىن
تاماشىبىنلار
تاماشىبىنلارغا
تاماشىبىنلارنى
تاماشىبىنلارنىڭ
تاماق
تاماقتىن
تاماققا
تاماقلار
تاماقلارنى
تاماقنى
تاماقنىڭ
تاماكا
تاماكىغا
تاماكىنى
تاماكىنىڭ
تامام
تاماملاندى
تاماملانغان
تاماملانمىغان
تاماملايدۇ
تاماملاپ
تاماملىدى
تاماملىغان
تاماملىغاندىن
تاماملىنىدۇ
تاماملىنىپ
تامامى
تامامىنى
تامامەن
تامان
تامانىدىن
تامتوغراق
تامغا
تامغىسى
تامغىسىنى
تامغىلانغان
تاملارغا
تاملىرى
تاملىرىغا
تاملىق
تامنى
تامنىڭ
تاموژنا
تامىقى
تامىل
تامچىلاپ
تامچە
تانا
تاناسىپ
تاناي
تانتال
تانزانىيە
تانزىمات
تانكا
تاي
تاياق
تاياقچە
تايانغان
تايانغاندا
تايانچ
تايغان
تايلاند
تايىنىدىغان
تايىنىدۇ
تايىنىش
تايىنىپ
تاييىپ
تاپ
تاپاتتى
تاپالايدۇ
تاپالايسىز
تاپالماي
تاپالمىدى
تاپالمىدىم
تاپالمىغان
تاپان
تاپانچا
تاپاۋىتى
تاپاۋىتىنى
تاپاۋىتىنىڭ
تاپاۋەت
تاپتى
تاپتىم
تاپسا
تاپشۇردى
تاپشۇرسا
تاپشۇرغان
تاپشۇرغۇچى
تاپشۇرغۇچىنىڭ
تاپشۇرمىسا
تاپشۇرمىغان
تاپشۇرىدىغان
تاپشۇرىدۇ
تاپشۇرۇش
تاپشۇرۇشقا
تاپشۇرۇشنى
تاپشۇرۇشى
تاپشۇرۇق
تاپشۇرۇلغان
تاپشۇرۇپ
تاپشۇرۇۋالغان
تاپشۇرۇۋالغاندىن
تاپشۇرۇۋالغۇچى
تاپشۇرۇۋالغۇچىنىڭ
تاپشۇرۇۋېلىشنى
تاپشۇرۇۋېلىپ
تاپقان
تاپقاندا
تاپقاندىن
تاپقىلى
تاپقۇزۇش
تاپقۇچى
تاپماق
تاپماقچى
تاپىدىغان
تاپىدۇ
تاپىنى
تاڭ
تاڭغۇت
تاڭلاي
تاڭنامە
تاھارەت
تاھىر
تاۋ
تاۋا
تاۋابىي
تاۋار
تاۋارغا
تاۋارلار
تاۋارلارنى
تاۋارلارنىڭ
تاۋارنى
تاۋارنىڭ
تاۋارىخ
تاۋاق
تاۋاپ
تاۋغاچ
تاۋلاش
تاۋلاپ
تاۋىغا
تاۋۇز
تاۋۇش
تاۋۇشتىن
تاۋۇشلار
تاۋۇشلاردىن
تاۋۇشلارنى
تاۋۇشلارنىڭ
تاۋۇشلىرى
تاۋۇشلىرىدىندۇر
تاۋۇشلىرىنى
تاۋۇشلۇق
تاۋۇشنى
تاۋۇشنىڭ
تاۋۇشى
تاۋۇشىدىكى
تاۋۇشىغا
تاۋۇشىنىڭ
تحاد
تخريج
ترامىپ
ترامپ
ترامپنىڭ
ترانسكرىپسىيە
ترانسىپورت
ترانسپورت
تراگېدىيىلىك
تراگېدىيە
تروپىك
ترېنېر
تصنيف
تـ
تفسير
تلـ
تم
تنىڭ
تو
توتېم
توخار
توختاتقان
توختاش
توختالدى
توختالغان
توختالغاندا
توختالمايمەن
توختام
توختامدا
توختامدىكى
توختامدۇر
توختامغا
توختامنى
توختامنىڭ
توختامى
توختامىدا
توختامىدىكى
توختامىغا
توختامىنى
توختامىنىڭ
توختايدۇ
توختاپ
توختاۋسىز
توختى
توختىتىدۇ
توختىتىش
توختىتىشقا
توختىتىشنى
توختىتىشى
توختىتىلغان
توختىتىپ
توختىدى
توختىغان
توختىلىدۇ
توختىلىمىز
توختىلىمەن
توختىلىپ
توختىماستىن
توختىماي
توختىمايدۇ
توختۇتۇش
توختۇتۇپ
توختۇلۇپ
توخۇ
توخۇلا
تور
تورت
توردا
تورداشلار
تورداشلارغا
تورداشلارنىڭ
توردىكى
توردىن
تورسىمان
تورغا
تورغاي
تورلاردا
تورلاشتۇرۇش
تورمۇزلاش
تورمۇزلايدۇ
تورونتو
تورى
تورىدا
تورىغا
تورىنى
تورىنىڭ
تورۇسلۇق
توز
توزان
توزۇپ
توساتتىن
توسالغۇ
توسالغۇسىز
توسالغۇغا
توسالغۇلار
توسالغۇلارنى
توسالغۇنى
توستى
توسقان
توسقۇن
توسقۇنلۇق
توسقۇنلۇققا
توسما
توسىدىغان
توسىدۇ
توسۇش
توسۇلۇش
توسۇلۇپ
توسۇپ
توشقان
توشقاندا
توشقاندىن
توشقاننى
توشقىنى
توشقۇچە
توشمايدىغان
توشمىغان
توشىدىغان
توشۇتقۇچى
توشۇش
توشۇشتىن
توشۇشقا
توشۇغان
توشۇغۇچى
توشۇغۇچىنىڭ
توشۇيدىغان
توشۇپ
توغان
توغانخان
توغرا
توغراق
توغراقلىق
توغرالغان
توغراپ
توغرىدا
توغرىسدا
توغرىسى
توغرىسىد
توغرىسىدا
توغرىسىدىكى
توغرىسىدىمۇ
توغرىسىغا
توغرىسىنى
توغرىلاش
توغرىلانغان
توغرىلاپ
توغرىلىدۇ
توغرىلىق
توغرىلىقى
توغرىلىقىنى
توغرىلىنىدۇ
توغرۇلۇق
توغىرسىدا
توغىرسىدىكى
توغىرىسدا
توغىرىسىدىكى
توغۇرسىدا
توغۇرلۇق
توغۇلدى
توغۇلغان
توغۇلغانلار
توغۇلۇپ
توق
توقال
توقاي
توقاچ
توقسان
توقسۇ
توقسۇن
توققۇز
توققۇزاق
توققۇزتارا
توققۇزى
توققۇزىنچى
توقماق
توقۇش
توقۇشقا
توقۇلغان
توقۇلما
توقۇمىچىلىق
توقۇمچىلىق
توقۇنۇش
توقۇنۇشلار
توقۇنۇشلارنىڭ
توقۇنۇشۇپ
توقۇپ
توك
توكقا
توكلۇق
توكنى
توكنىڭ
توكى
توكيو
توكيونىڭ
توكېن
توكەر
تولا
تولدى
تولدۇرغان
تولدۇرۇش
تولدۇرۇپ
تولغاق
تولغان
تولقۇن
تولى
تولىسى
تولىمۇ
تولۇق
تولۇقسىز
تولۇقسىزنى
تولۇقلاش
تولۇقلانغان
تولۇقلايدۇ
تولۇقلاپ
تولۇقلىما
تولۇن
تولۇپ
توم
توماس
تومدا
توملۇق
توملۇقى
تومى
تومۇر
تومۇرلارنىڭ
تومۇرلىرى
تومۇرنى
تومۇرنىڭ
تومۇرى
تومۇرىدىن
تومۇرىنى
تومۇز
تومۇزدىن
تون
توننا
توننىدىن
توننىغا
تونىس
تونۇ
تونۇتقان
تونۇتۇش
تونۇر
تونۇردا
تونۇرغا
تونۇرنى
تونۇرنىڭ
تونۇش
تونۇشتۇردى
تونۇشتۇرغان
تونۇشتۇرىدىغان
تونۇشتۇرىمەن
تونۇشتۇرۇش
تونۇشتۇرۇشقا
تونۇشتۇرۇشنى
تونۇشتۇرۇلدى
تونۇشتۇرۇلغان
تونۇشتۇرۇلىشى
تونۇشتۇرۇلۇشى
تونۇشتۇرۇپ
تونۇشقا
تونۇشقان
تونۇشلۇق
تونۇشنى
تونۇشى
تونۇشىدۇ
تونۇشىنى
تونۇشۇش
تونۇشۇم
تونۇشۇپ
تونۇغان
تونۇلدى
تونۇلغان
تونۇلىدۇ
تونۇلۇشقا
تونۇلۇپ
تونۇيدىغان
تونۇيدۇ
تونۇپ
تونېل
توي
توياما
تويلۇق
تويى
تويىدا
تويۇنغان
توپ
توپا
توپان
توپتوغرا
توپراق
توپراقلىرىدا
توپراقلىرىغا
توپقا
توپلار
توپلاش
توپلاشتۇرۇلغان
توپلاشقا
توپلاشقان
توپلام
توپلامغا
توپلاملارغا
توپلاملىرى
توپلاندى
توپلانغان
توپلايدۇ
توپلاپ
توپلىدى
توپلىرى
توپلىشىپ
توپلىغان
توپلىمى
توپلىمىغا
توپلىمىنى
توپلىمىنىڭ
توپلىنىشى
توپلىنىپ
توپنى
توپنىڭ
توپى
توپىدىن
توپىسى
توپىغا
توپىلاڭ
توپىلاڭنى
توپىلىڭى
توپىلىڭىنى
توپىنى
توپىنىڭ
توپچى
توپچىلار
توپۇق
توڭلاتقۇ
توڭلاپ
توڭلىتىش
توڭگۇز
توھپە
توۋا
توۋلاپ
تى
تىبابىتى
تىبابىتىدە
تىبابىتىنىڭ
تىبابەت
تىبابەتچىلىك
تىببى
تىببىي
تىبەت
تىبەتكە
تىبەتلىكلەر
تىبەتلىكلەرنىڭ
تىبەتلەر
تىبەتلەرنىڭ
تىبەتلەرگە
تىبەتنىڭ
تىت
تىترەپ
تىتەي
تىجارىتى
تىجارىتىنى
تىجارىتىگە
تىجارىي
تىجارەت
تىجارەتكە
تىجارەتنى
تىجارەتچى
تىجارەتچىسى
تىجارەتچىلىرى
تىجارەتچىلەر
تىجارەتچىلەرنىڭ
تىخنىكا
تىخنىكىلىق
تىخى
تىخىمۇ
تىرازىي
تىرامپ
تىرانسپورت
تىركىشىش
تىركىشىپ
تىرمىزى
تىرناق
تىرناققا
تىرناقنى
تىرنىقى
تىروپىك
تىرىشتى
تىرىشتىم
تىرىشسا
تىرىشقان
تىرىشماقتا
تىرىشىدۇ
تىرىشىش
تىرىشىشى
تىرىشىمىز
تىرىشىمەن
تىرىشىپ
تىرىشىڭ
تىرىشىۋاتقان
تىرىشچان
تىرىشچانلىق
تىرىشچانلىقلار
تىرىشچانلىقلارنى
تىرىشچانلىقلىرى
تىرىشچانلىقنى
تىرىشچانلىقى
تىرىشچانلىقىغا
تىرىك
تىرىكچىلىك
تىرىلىش
تىرىلىشى
تىرىلىپ
تىرىليون
تىرە
تىرەك
تىرەپ
تىز
تىزغان
تىزلا
تىزلىكى
تىزلىكىنىڭ
تىزلىنىپ
تىزما
تىزمىسى
تىزمىلىرى
تىزناپ
تىزىدۇ
تىزىش
تىزىق
تىزىلغان
تىزىلىدۇ
تىزىلىپ
تىزىم
تىزىمدىن
تىزىمغا
تىزىملاش
تىزىملانغان
تىزىملىتىش
تىزىملىك
تىزىملىكتىكى
تىزىملىككە
تىزىملىكى
تىزىملىكىدە
تىزىملىكىگە
تىزىمىنى
تىزىپ
تىزگىنلەش
تىزگىنلەپ
تىشى
تىغ
تىغلىق
تىقىلمىسى
تىقىپ
تىك
تىككۈچى
تىككەن
تىكلىدى
تىكلىگەن
تىكلەش
تىكلەشتە
تىكلەشكە
تىكلەشنىڭ
تىكلەنگەن
تىكلەيدۇ
تىكلەپ
تىكى
تىكىش
تىكىشكە
تىكىلىدۇ
تىكىلىپ
تىكىلگەن
تىكىن
تىكىپ
تىكەس
تىكەن
تىكەنلىك
تىل
تىلاۋەت
تىلدا
تىلدىكى
تىلدىن
تىلدۇر
تىلشۇناس
تىلشۇناسلار
تىلشۇناسلىق
تىلشۇناسلىققا
تىلغا
تىلفون
تىللا
تىللار
تىللاردا
تىللاردىكى
تىللاردىن
تىللارغا
تىللارنى
تىللارنىڭ
تىللىرى
تىللىرىدا
تىللىرىدىكى
تىللىرىدىن
تىللىرىغا
تىللىرىنى
تىللىرىنىڭ
تىللىق
تىلماچ
تىلنى
تىلنىڭ
تىلى
تىلىدا
تىلىدى
تىلىدىكى
تىلىدىمۇ
تىلىدىن
تىلىدۇر
تىلىدە
تىلىغا
تىلىم
تىلىمىز
تىلىمىزدا
تىلىمىزدىكى
تىلىمىزغا
تىلىمىزنى
تىلىمىزنىڭ
تىلىمۇ
تىلىنى
تىلىنىمۇ
تىلىنىڭ
تىلىپ
تىلىگەن
تىلىۋالدى
تىلىۋىزىيە
تىلىۋۇزۇر
تىلۋىزىيە
تىلەش
تىلەك
تىلەكلەر
تىلەيدۇ
تىلەيمىز
تىلەيمەن
تىلەپ
تىما
تىمور
تىمۇر
تىمەن
تىن
تىنجىتىش
تىندۇرغاندىن
تىندۇرۇلىدۇ
تىنسىز
تىنش
تىنغان
تىنما
تىنماي
تىنى
تىنىش
تىنىمسىز
تىنىچ
تىنىچلىق
تىنچ
تىنچلىق
تىنچلىققا
تىنچلىقنى
تىنچلىقىنى
تىي
تىياتىر
تىياتىرخانا
تىياتىرغا
تىياتىرنىڭ
تىياتىرى
تىياتىرىدا
تىياتىرىنىڭ
تىياتىرچىلار
تىيانشان
تىيانشاننىڭ
تىيىن
تىيىنى
تىيىپ
تىپ
تىپتىكى
تىپقا
تىپلىرى
تىپلىق
تىپنىڭ
تىپى
تىپىدىكى
تىپىدىكىلەر
تىپىغا
تىپىك
تىپىنى
تىگى
تىگىشلىك
تىگىپ
تىگە
تىۋىت
تىۋىتتېر
تيەنجىن
تيەني
تۆ
تۆت
تۆتتىن
تۆتكە
تۆتى
تۆتىنجى
تۆتىنچى
تۆر
تۆرت
تۆرتىنچى
تۆرىدىن
تۆرگە
تۆرە
تۆرەلمىنى
تۆرەلمە
تۆش
تۆشۈك
تۆشۈكى
تۆكتى
تۆكۈلگەن
تۆكۈلۈپ
تۆكۈن
تۆكۈپ
تۆلىتىۋېلىشقا
تۆلىشى
تۆلىمى
تۆلىمىسە
تۆلىگەن
تۆلەش
تۆلەشكە
تۆلەشنى
تۆلەم
تۆلەيدىغان
تۆلەيدۇ
تۆلەپ
تۆمۈر
تۆمۈرخان
تۆمۈرخاننىڭ
تۆمۈردىن
تۆمۈرنى
تۆمۈرنىڭ
تۆمۈريول
تۆمۈريولى
تۆمەر
تۆپىدە
تۆپە
تۆگىنى
تۆگىنىڭ
تۆگىگە
تۆگە
تۆھمەت
تۆھپىسى
تۆھپىسىنى
تۆھپىكار
تۆھپىلىرى
تۆھپىلىرىنى
تۆھپىلەرنى
تۆھپە
تۆۋە
تۆۋەن
تۆۋەندىكى
تۆۋەندىكىدەك
تۆۋەندىكىسى
تۆۋەندىكىلەردىن
تۆۋەندىكىلەرنى
تۆۋەندىكىچە
تۆۋەندە
تۆۋەنرەك
تۆۋەنكى
تۆۋەنلىتىدۇ
تۆۋەنلىتىش
تۆۋەنلىتىپ
تۆۋەنلىك
تۆۋەنلەيدۇ
تۆۋەنلەپ
تۆۋەنگە
تۇ
تۇتاش
تۇتاشتۇرغان
تۇتاشتۇرىدىغان
تۇتاشتۇرۇلدى
تۇتاشتۇرۇلغان
تۇتاشتۇرۇپ
تۇتاشقان
تۇتتى
تۇتتۇم
تۇتسا
تۇتقان
تۇتقاندا
تۇتقانلىقى
تۇتقىلى
تۇتقۇزۇپ
تۇتقۇن
تۇتقۇچى
تۇتقۇچىلار
تۇتماي
تۇتمايدۇ
تۇتمىغان
تۇتىدىغان
تۇتىدۇ
تۇتىشىدىغان
تۇتىشىدۇ
تۇتىشىپ
تۇتىمەن
تۇتۇش
تۇتۇشتا
تۇتۇشقا
تۇتۇشنى
تۇتۇشنىڭ
تۇتۇشى
تۇتۇشىدۇ
تۇتۇشۇپ
تۇتۇق
تۇتۇلدى
تۇتۇلسا
تۇتۇلغان
تۇتۇلىدۇ
تۇتۇلۇش
تۇتۇلۇشى
تۇتۇلۇپ
تۇتۇپ
تۇتۇڭ
تۇتۇۋالسا
تۇتۇۋالغان
تۇتۇۋالىدۇ
تۇتۇۋېلىپ
تۇخۇ
تۇخۇم
تۇخۇمدىن
تۇخۇمسىمان
تۇخۇمنى
تۇخۇمنىڭ
تۇخۇمى
تۇر
تۇرا
تۇراتتى
تۇراتتىم
تۇرار
تۇراق
تۇراقسىز
تۇراقلاشتۇرغۇچ
تۇراقلىق
تۇرالايدىغان
تۇرالايدۇ
تۇرالغۇ
تۇرالماي
تۇرالمايدىغان
تۇرالمايدۇ
تۇرالمايمىز
تۇران
تۇرانە
تۇرايلى
تۇردى
تۇردىغان
تۇردىنىڭ
تۇردۇق
تۇردۇم
تۇرسا
تۇرساق
تۇرسام
تۇرسىمۇ
تۇرسۇن
تۇرسۇنجان
تۇرسۇننىڭ
تۇرسۇني
تۇرغان
تۇرغاندا
تۇرغاندىن
تۇرغاندەك
تۇرغانلا
تۇرغانلىقى
تۇرغانلىقىنى
تۇرغاچقا
تۇرغۇت
تۇرغۇزغان
تۇرغۇزۇش
تۇرغۇزۇلغان
تۇرغۇزۇلىدۇ
تۇرغۇزۇلۇپ
تۇرغۇزۇپ
تۇرغۇن
تۇرغۇچى
تۇرغۇچىدۇر
تۇرقى
تۇرك
تۇركى
تۇركۇۋاز
تۇرلار
تۇرلۇك
تۇرماقتا
تۇرماي
تۇرمايدۇ
تۇرمۇش
تۇرمۇشتا
تۇرمۇشتىكى
تۇرمۇشتىن
تۇرمۇشقا
تۇرمۇشنى
تۇرمۇشنىڭ
تۇرمۇشى
تۇرمۇشىدا
تۇرمۇشىدىكى
تۇرمۇشىدىن
تۇرمۇشىغا
تۇرمۇشىمىزدا
تۇرمۇشىمىزدىكى
تۇرمۇشىمىزغا
تۇرمۇشىنى
تۇرمۇشىنىڭ
تۇرنا
تۇرى
تۇرىدىغان
تۇرىدىغانلىقى
تۇرىدىغانلىقىنى
تۇرىدىكەن
تۇرىدۇ
تۇرىسىز
تۇرىشى
تۇرىمىز
تۇرىمەن
تۇرىڭ
تۇرىۋاتقان
تۇرىۋاتىدۇ
تۇرپان
تۇرپاندا
تۇرپاندىكى
تۇرپاندىن
تۇرپانغا
تۇرپانلىق
تۇرپاننىڭ
تۇرۇبا
تۇرۇش
تۇرۇشتا
تۇرۇشتىن
تۇرۇشقا
تۇرۇشلۇق
تۇرۇشنى
تۇرۇشنىڭ
تۇرۇشى
تۇرۇشىغا
تۇرۇشىنى
تۇرۇشچانلىقى
تۇرۇقلۇق
تۇرۇلغان
تۇرۇلىدۇ
تۇرۇپ
تۇرۇپتىكى
تۇرۇپتۇ
تۇرۇپتۇكى
تۇرۇپلا
تۇرۇپمۇ
تۇرۇچ
تۇرۇڭ
تۇرۇۋاتقان
تۇرۇۋاتىدۇ
تۇرۋاتقان
تۇز
تۇزلۇق
تۇزى
تۇسۇپ
تۇغ
تۇغان
تۇغانخان
تۇغانخاننىڭ
تۇغدى
تۇغدۇرغان
تۇغدۇرۇپ
تۇغقان
تۇغقانلار
تۇغقانلارنىڭ
تۇغقانلىرى
تۇغقانلىرىدىن
تۇغقانلىرىنى
تۇغقانلىرىنىڭ
تۇغقانچىلىق
تۇغقىنى
تۇغلا
تۇغلۇق
تۇغلۇقلار
تۇغما
تۇغى
تۇغىدۇ
تۇغۇت
تۇغۇش
تۇغۇلدى
تۇغۇلسا
تۇغۇلغان
تۇغۇلغاندا
تۇغۇلغاندىن
تۇغۇلغانلار
تۇغۇلغانلىقىنىڭ
تۇغۇلىدۇ
تۇغۇلۇش
تۇغۇلۇشتىن
تۇغۇلۇپ
تۇققان
تۇققانلىرى
تۇققۇز
تۇقۇلما
تۇل
تۇللۇق
تۇلىمۇ
تۇلپار
تۇلۇق
تۇلۇم
تۇماق
تۇمان
تۇمانلىق
تۇمشۇق
تۇمشۇقلۇق
تۇمشۇقى
تۇنجى
تۇنجىسى
تۇنىس
تۇنىياز
تۇنيۇقۇق
تۇنچى
تۇنگان
تۇنگۇس
تۇنۇشتۇرغان
تۇنۇشتۇرۇش
تۇنۇلغان
تۇنۇپ
تۇنېل
تۇياق
تۇياقلىرى
تۇيغۇ
تۇيغۇدا
تۇيغۇسى
تۇيغۇسىغا
تۇيغۇسىنى
تۇيغۇسىنىڭ
تۇيغۇغا
تۇيغۇلار
تۇيغۇلارغا
تۇيغۇلىرى
تۇيغۇلىرىنى
تۇيغۇن
تۇيغۇنى
تۇيۇق
تۇيۇقسىز
تۇيۇقسىزلا
تۇيۇلدى
تۇيۇلغان
تۇيۇلىدىغان
تۇيۇلىدۇ
تۇيۇلۇپ
تۇپراق
تۇپراقتا
تۇپراقتىن
تۇپراققا
تۇپراقلاردا
تۇپراقنى
تۇپراقنىڭ
تۇپرىقى
تۇپرىقىدا
تۇپەيلىدىن
تۇچ
تۇڭجىنىڭ
تۇڭرا
تۇڭچى
تۇڭگان
تۇڭگانلار
تۇڭگانلارنىڭ
تۇڭگۇزباش
تۇۋا
تۇۋالار
تۇەن
تۇەنجاڭ
تۇەنگىچە
تۈ
تۈبۈت
تۈبۈتلەر
تۈبۈتلەرنىڭ
تۈتۈن
تۈتۈننىڭ
تۈتۈنى
تۈتەك
تۈر
تۈرتكىسى
تۈرتكىسىدە
تۈرتكىلىك
تۈرتكە
تۈردىكى
تۈردىن
تۈردە
تۈرك
تۈركلىرى
تۈركلىرىنىڭ
تۈركلىرىگە
تۈركلۈك
تۈركلەر
تۈركلەردىن
تۈركلەردە
تۈركلەرنى
تۈركلەرنىڭ
تۈركلەرگە
تۈركمەن
تۈركمەنلەر
تۈركمەنىستان
تۈركمەنىستاندىكى
تۈركمەنىستاننىڭ
تۈركمەنچە
تۈركنىڭ
تۈركولوگ
تۈركولوگىيە
تۈركى
تۈركىستان
تۈركىستاندا
تۈركىستاندىكى
تۈركىستاندىن
تۈركىستانغا
تۈركىستانلىق
تۈركىستانلىقلار
تۈركىستانلىقلارنىڭ
تۈركىستاننى
تۈركىستاننىڭ
تۈركىستانىي
تۈركىستانىينىڭ
تۈركىي
تۈركىيات
تۈركىيىدىكى
تۈركىيىدە
تۈركىيىلىك
تۈركىيىنىڭ
تۈركىيىگە
تۈركىيە
تۈركىيەدىكى
تۈركىيەدىن
تۈركىيەدە
تۈركىيەلىك
تۈركىيەنى
تۈركىيەنىڭ
تۈركىيەگە
تۈركي
تۈركچىدىكى
تۈركچىدىن
تۈركچىدە
تۈركچىسى
تۈركچىسىدە
تۈركچىسىنى
تۈركچىسىنىڭ
تۈركچىلىك
تۈركچىلىكى
تۈركچىنى
تۈركچىنىڭ
تۈركچىگە
تۈركچە
تۈركچەسى
تۈركۈم
تۈركۈمدىكى
تۈركۈمدە
تۈركۈملىرىنىڭ
تۈركۈملەپ
تۈركۈمى
تۈركۈمىنى
تۈركۈمىنىڭ
تۈركۈمىگە
تۈركۈمگە
تۈركەش
تۈركەل
تۈرلىرى
تۈرلىرىدىن
تۈرلىرىمۇ
تۈرلىرىنى
تۈرلىرىنىڭ
تۈرلىرىگە
تۈرلىنىشى
تۈرلۈك
تۈرلەر
تۈرلەرنى
تۈرلەرنىڭ
تۈرلەرگە
تۈرلەنگەن
تۈرمىدىن
تۈرمىدە
تۈرمىسىدە
تۈرمىسىگە
تۈرمىلەرگە
تۈرمىنىڭ
تۈرمىگە
تۈرمە
تۈرنى
تۈرنىڭ
تۈرى
تۈرىدىكى
تۈرىدىكىلەر
تۈرىدىن
تۈرىدۇر
تۈرىدە
تۈرىمۇ
تۈرىنى
تۈرىنىڭ
تۈرىگە
تۈرگە
تۈرۈك
تۈرۈكچە
تۈرۈپ
تۈز
تۈزدى
تۈزسە
تۈزلەڭلىك
تۈزلەڭلىكتىكى
تۈزلەڭلىككە
تۈزلەڭلىكنىڭ
تۈزلەڭلىكى
تۈزىتىش
تۈزىتىشكە
تۈزىتىلگەن
تۈزىتىپ
تۈزىدۇ
تۈزىلىشى
تۈزىمى
تۈزىمىنى
تۈزگۈچى
تۈزگەن
تۈزگەندىن
تۈزگەندە
تۈزۈتۈش
تۈزۈش
تۈزۈشتە
تۈزۈشكە
تۈزۈشكەن
تۈزۈشنى
تۈزۈشى
تۈزۈك
تۈزۈلدى
تۈزۈلمىسى
تۈزۈلمىسىنى
تۈزۈلمە
تۈزۈلىدۇ
تۈزۈلىشى
تۈزۈلگەن
تۈزۈلۈش
تۈزۈلۈشى
تۈزۈلۈشىنى
تۈزۈلۈشىگە
تۈزۈلۈپ
تۈزۈم
تۈزۈمدىكى
تۈزۈمدە
تۈزۈملىرى
تۈزۈملىرىنى
تۈزۈملەر
تۈزۈملەرنى
تۈزۈمنى
تۈزۈمنىڭ
تۈزۈمى
تۈزۈمىدىكى
تۈزۈمىدە
تۈزۈمىنى
تۈزۈمىنىڭ
تۈزۈمىگە
تۈزۈمگە
تۈزۈپ
تۈزەتكۈچىسى
تۈزەش
تۈس
تۈسكە
تۈسنى
تۈسى
تۈسىنى
تۈسىگە
تۈشتى
تۈشكەن
تۈشۈپ
تۈك
تۈكسىز
تۈكلىرى
تۈكلۈك
تۈكى
تۈكچىلىرى
تۈكچىلەر
تۈكۈرۈش
تۈلكىسى
تۈلكە
تۈلۈك
تۈمۈر
تۈمەن
تۈمەنلىگەن
تۈن
تۈنجى
تۈندە
تۈنىكە
تۈنۈگۈن
تۈپ
تۈپتىن
تۈپتۈز
تۈپتە
تۈپى
تۈپەيلى
تۈپەيلىدىن
تۈڭلۈك
تۈگمەن
تۈگمەنچى
تۈگىتىدۇ
تۈگىتىش
تۈگىتىشى
تۈگىتىپ
تۈگىدى
تۈگىمەس
تۈگىگەن
تۈگىگەندىن
تۈگىگەندە
تۈگۈلگەن
تۈگۈلۈپ
تۈگۈن
تۈگۈنى
تۈگۈنەك
تۈگۈپ
تۈگەتكۈسىز
تۈگەتكەن
تۈگەتكەندىن
تۈگەيدۇ
تۈگەپ
تۈۋرۈك
تۈۋرۈكلۈك
تۈۋرۈكى
تۈۋى
تۈۋىدە
تۈۋىمدە
تۈۋىگە
تۈۋەت
تۈۋەن
تۈۋەندىكى
تۈۋەندىكىدەك
تۈەن
تۋىتتېر
تېبابىتى
تېبابىتىدە
تېبابەت
تېبابەتچىلىك
تېبابەتچىلىكى
تېبابەتچىلىكىنىڭ
تېببىي
تېتىتقۇ
تېتىر
تېتىك
تېتىپ
تېجەش
تېجەپ
تېخمۇ
تېخنولوگىيە
تېخنولوگىيەلىك
تېخنىك
تېخنىكا
تېخنىكوم
تېخنىكومى
تېخنىكىدا
تېخنىكىسنىڭ
تېخنىكىسى
تېخنىكىسىدىن
تېخنىكىسىغا
تېخنىكىسىنى
تېخنىكىسىنىڭ
تېخنىكىغا
تېخنىكىلارنى
تېخنىكىلارنىڭ
تېخنىكىلىرى
تېخنىكىلىق
تېخنىكىنى
تېخنىكىنىڭ
تېخى
تېخىمۇ
تېخىچە
تېرخىن
تېررورلۇق
تېررورلۇقنىڭ
تېررورىزم
تېررورىزمغا
تېررورچى
تېررىتورىيىسى
تېررىتورىيىلىك
تېرورلۇق
تېرىتورىيىسى
تېرىسى
تېرىسىدىن
تېرىسىنى
تېرىسىنىڭ
تېرىسىگە
تېرىش
تېرىشقا
تېرىشنى
تېرىغان
تېرىق
تېرىقچىلىق
تېرىقچىلىققا
تېرىلغان
تېرىلغۇ
تېرىلىدىغان
تېرىلىدۇ
تېرىم
تېرىنى
تېرىنىڭ
تېرىيدىغان
تېرىپ
تېرىگە
تېرېسا
تېرە
تېرەك
تېز
تېزدىن
تېزلا
تېزلىتىش
تېزلىتىپ
تېزلىك
تېزلىكتە
تېزلىكى
تېزلىنىش
تېزلىنىشچان
تېزلەتتى
تېستوستېرون
تېستوستېروننى
تېسلا
تېشى
تېشىدا
تېشىغا
تېشىنى
تېشىپ
تېغى
تېغىدا
تېغىدىكى
تېغىدىن
تېغىغا
تېغىنىڭ
تېكساس
تېكستى
تېكىست
تېكىستلىرى
تېكىستنى
تېكىستنىڭ
تېكىستى
تېكىستىدە
تېكىستىنى
تېكىن
تېكىننىڭ
تېكىنگە
تېكەس
تېل
تېلفون
تېلى
تېلىفون
تېلىپۇندا
تېلىۋىزور
تېلىۋىزىيە
تېلپون
تېلۋىزور
تېلۋىزىيە
تېلېفون
تېلېفۇن
تېلېگراف
تېلېگرامما
تېلېۋزىيە
تېلېۋىزور
تېلېۋىزوردا
تېلېۋىزىيە
تېلېۋىزىيەسى
تېما
تېمى
تېمىتىپ
تېمىدا
تېمىدىكى
تېمىسى
تېمىسىدا
تېمىسىدىكى
تېمىسىغا
تېمىسىنى
تېمىغا
تېمىلار
تېمىلاردا
تېمىلارغا
تېمىلارنى
تېمىنى
تېمىنىڭ
تېمىنە
تېمپېراتۇرا
تېمپېراتۇرىسى
تېمپېراتۇرىسىنى
تېمۇر
تېنى
تېنىدىكى
تېنىدىن
تېنىنىڭ
تېنىگە
تېنچ
تېنچلىق
تېي
تېيىز
تېيىلىش
تېيىلىپ
تېيىپ
تېپىش
تېپىشتا
تېپىشقا
تېپىشنى
تېپىشنىڭ
تېپىشى
تېپىشىغا
تېپىلدى
تېپىلغان
تېپىلغاندا
تېپىلمىدى
تېپىلمىغان
تېپىلىدىغان
تېپىلىدۇ
تېپىلىشى
تېپىپ
تېپىۋالدى
تېڭشۈن
تېڭىرقاپ
تېڭىلغان
تېڭىلىدۇ
تېڭىپ
تېگى
تېگىدە
تېگىش
تېگىشلىك
تېگىشىپ
تېگىپ
تېگىگە
تېھران
تېۋىپ
تېۋىپلار
تېۋىپلارنىڭ
تە
تەبرىك
تەبرىكلىنىدۇ
تەبرىكلىگەن
تەبرىكلەش
تەبرىكلەشكە
تەبرىكلەپ
تەبلىغ
تەبىر
تەبىرى
تەبىقە
تەبىي
تەبي
تەبەسسۇم
تەبەسسۇمنى
تەتبىق
تەتبىقلاش
تەتبىقلاشقا
تەتبىقلايدۇ
تەتبىقلىنىدۇ
تەتبىقلىنىشى
تەتقىق
تەتقىقات
تەتقىقاتتا
تەتقىقاتقا
تەتقىقاتلار
تەتقىقاتلاردا
تەتقىقاتلاردىن
تەتقىقاتلارغا
تەتقىقاتلارنى
تەتقىقاتلارنىڭ
تەتقىقاتلىرى
تەتقىقاتلىرىدا
تەتقىقاتنى
تەتقىقاتنىڭ
تەتقىقاتى
تەتقىقاتىدا
تەتقىقاتىدىكى
تەتقىقاتىغا
تەتقىقاتىنى
تەتقىقاتىنىڭ
تەتقىقاتچى
تەتقىقاتچىسى
تەتقىقاتچىلار
تەتقىقاتچىلارنىڭ
تەتقىقاتچىلىرى
تەتقىقاتچىلىرىنىڭ
تەتقىقاتچىنىڭ
تەتىل
تەتىلدە
تەتۈر
تەجرىبىخانىسى
تەجرىبىخانىسىدا
تەجرىبىخانىسىدىكى
تەجرىبىسى
تەجرىبىسىگە
تەجرىبىلىرى
تەجرىبىلىرىنى
تەجرىبىلىرىگە
تەجرىبىلىك
تەجرىبىلەرنى
تەجرىبىگە
تەجرىبە
تەجىربىسى
تەجىربە
تەجىرىبە
تەجۋىد
تەجەللى
تەجەللىنى
تەجەللىنىڭ
تەخت
تەختتىن
تەختتە
تەختكە
تەختنى
تەختىدە
تەختىنى
تەختىگە
تەخرىج
تەخسىلەرگە
تەخسىگە
تەخسە
تەخمىن
تەخمىنىي
تەخمىنەن
تەخىتتە
تەخىتكە
تەخىرسىز
تەخەللۇس
تەخەللۇسى
تەدبىر
تەدبىرلىرى
تەدبىرلىرىنى
تەدبىرلەر
تەدبىرلەرنى
تەدبىرنى
تەدبىرى
تەدبىرىنى
تەدبىقلاش
تەدبىقلاپ
تەدرىجى
تەدرىجىي
تەدىرىجى
تەدىرىجىي
تەر
تەربصيە
تەربىيلىنىش
تەربىيلىگەن
تەربىيلەش
تەربىيلەشنى
تەربىيلەپ
تەربىيىسى
تەربىيىسىدىن
تەربىيىسىدە
تەربىيىسىنى
تەربىيىسىنىڭ
تەربىيىسىگە
تەربىيىلىنىشى
تەربىيىلىگەن
تەربىيىلەش
تەربىيىلەشكە
تەربىيىلەشنى
تەربىيىلەنگەن
تەربىيىلەيدۇ
تەربىيىلەپ
تەربىيىنى
تەربىيىنىڭ
تەربىيىگە
تەربىيىۋى
تەربىيە
تەربىيەسى
تەربىيەلەش
تەربىيەلەنگەن
تەربىيەلەپ
تەربىيەنى
تەرتىپ
تەرتىپتە
تەرتىپسىز
تەرتىپكە
تەرتىپلىك
تەرتىپنى
تەرتىپى
تەرتىپىنى
تەرتىپىگە
تەرج
تەرجىمان
تەرجىمانلار
تەرجىمانلىق
تەرجىمانى
تەرجىمىدىنمۇ
تەرجىمىدە
تەرجىمىسى
تەرجىمىسىدە
تەرجىمىسىنى
تەرجىمىسىنىڭ
تەرجىمىلىرى
تەرجىمىلەر
تەرجىمىنىڭ
تەرجىمىھال
تەرجىمىھالى
تەرجىمىھالىنى
تەرجىمھالى
تەرجىمە
تەرخەمەك
تەرزدە
تەرزىدە
تەرس
تەرسا
تەرغىب
تەرغىپ
تەرك
تەركىب
تەركىبلىرى
تەركىبلىرىنى
تەركىبلىك
تەركىبلەر
تەركىبلەردىن
تەركىبلەرنى
تەركىبلەرنىڭ
تەركىبنىڭ
تەركىبى
تەركىبىدىكى
تەركىبىدە
تەركىبىنى
تەركىبىنىڭ
تەركىبىي
تەركىبىگە
تەركىپ
تەركىپلەر
تەركىۋى
تەرىقىتى
تەرىقىتىنىڭ
تەرىقىدە
تەرىقىسىدە
تەرىقەت
تەرىقەتلەر
تەرىپدىن
تەرىپلىنىدۇ
تەرىپلىگەن
تەرىپلەنگەن
تەرىپلەيدۇ
تەرىپى
تەرىپىدىكى
تەرىپىدىن
تەرىپىدىنمۇ
تەرىپىدە
تەرىپىنى
تەرىپىنىڭ
تەرىپىگە
تەرپىدىن
تەرۇز
تەرۇزغا
تەرۇزگە
تەرەت
تەرەتنى
تەرەفىدىن
تەرەققى
تەرەققىي
تەرەققىيات
تەرەققىياتتا
تەرەققىياتقا
تەرەققىياتلار
تەرەققىياتلارغا
تەرەققىياتنى
تەرەققىياتنىڭ
تەرەققىياتى
تەرەققىياتىدا
تەرەققىياتىدىكى
تەرەققىياتىغا
تەرەققىياتىنى
تەرەققىياتىنىڭ
تەرەققىيپەرۋەر
تەرەققىپەرۋەر
تەرەقىياتىغا
تەرەپ
تەرەپتارى
تەرەپتىكى
تەرەپتىن
تەرەپتە
تەرەپدارلىرى
تەرەپدارى
تەرەپسىز
تەرەپكە
تەرەپلىرى
تەرەپلىرىدە
تەرەپلىرىنى
تەرەپلىرىگە
تەرەپلىك
تەرەپلىمىلىك
تەرەپلىمە
تەرەپلەر
تەرەپلەردىن
تەرەپلەردە
تەرەپلەرنى
تەرەپلەرنىڭ
تەرەپلەرگە
تەرەپنى
تەرەپنىڭ
تەرەپىدىن
تەرەڧلەر
تەرەڧىدىن
تەزكىرىسى
تەزكىرە
تەزىم
تەزىيە
تەس
تەسبىھ
تەستىق
تەستىقلاش
تەستىقلاندى
تەستىقلانغان
تەستىقلانغاندىن
تەستىقلايدۇ
تەستىقلاپ
تەستىقلىتىدۇ
تەستىقلىتىش
تەستىقلىتىپ
تەستىقلىدى
تەستىقلىشى
تەستىقلىغان
تەستىقلىنىپ
تەستىقى
تەستىقىدىن
تەستىقىنى
تەستە
تەسر
تەسس
تەسسىس
تەسكە
تەسلىكتە
تەسلىم
تەسىر
تەسىرات
تەسىرلىرى
تەسىرلىك
تەسىرلىنىپ
تەسىرلەرنى
تەسىرلەندىم
تەسىرلەنگەن
تەسىرنى
تەسىرى
تەسىرىدىن
تەسىرىدە
تەسىرىنى
تەسىرىنىڭ
تەسىرىگە
تەسىرگە
تەسىس
تەسۋىر
تەسۋىرلىنىدۇ
تەسۋىرلىگەن
تەسۋىرلەش
تەسۋىرلەشكە
تەسۋىرلەنگەن
تەسۋىرلەيدۇ
تەسۋىرلەپ
تەسۋىرى
تەسۋىرىي
تەسەللى
تەسەللىي
تەسەۋۋۇر
تەسەۋۋۇردىن
تەسەۋۋۇرى
تەسەۋۋۇپ
تەسەۋۋۇپنىڭ
تەشتەك
تەشتەكتە
تەشكىل
تەشكىلات
تەشكىلاتتىكى
تەشكىلاتتىن
تەشكىلاتقا
تەشكىلاتلار
تەشكىلاتلارغا
تەشكىلاتلارنى
تەشكىلاتلارنىڭ
تەشكىلاتلىرى
تەشكىلاتلىرىدىن
تەشكىلاتلىرىغا
تەشكىلاتلىرىنى
تەشكىلاتلىرىنىڭ
تەشكىلاتنى
تەشكىلاتنىڭ
تەشكىلاتى
تەشكىلاتىدا
تەشكىلاتىغا
تەشكىلاتىنى
تەشكىلاتىنىڭ
تەشكىلاتچىلىق
تەشكىللىدى
تەشكىللىشى
تەشكىللىك
تەشكىللىنىش
تەشكىللىگۈچى
تەشكىللىگەن
تەشكىللەش
تەشكىللەندى
تەشكىللەنگەن
تەشكىللەيدۇ
تەشكىللەپ
تەشكىلنىڭ
تەشكىلى
تەشكىلىي
تەشنا
تەشنالىقىنى
تەشۋىش
تەشۋىق
تەشۋىقات
تەشۋىقاتنىڭ
تەشۋىقاتى
تەشۋىقاتىنى
تەشەببۇس
تەشەببۇسكار
تەشەببۇسكارلىق
تەشەببۇسلىرى
تەشەببۇسى
تەشەككۈر
تەغدىم
تەفسىر
تەفسىرى
تەقدىر
تەقدىردىمۇ
تەقدىردە
تەقدىرلەش
تەقدىرى
تەقدىرىنى
تەقدىرىنىڭ
تەقدىرىگە
تەقدىرگە
تەقدىم
تەقسىم
تەقسىماتى
تەقسىملەش
تەقلىد
تەقلىدى
تەقلىدىي
تەقىب
تەقىپ
تەقۋا
تەقۋادار
تەقۋادارلىق
تەقۋالىق
تەقۋىم
تەقۋىمغا
تەقۋىملەر
تەقۋىمى
تەقۋىمىدە
تەقۋىمىگە
تەقۋىمگە
تەقەززا
تەقەززاسى
تەك
تەكبىر
تەكتى
تەكتىدىن
تەكرار
تەكرارلاش
تەكرارلانغان
تەكرارلانما
تەكرارلاپ
تەكرارلىنىدىغان
تەكرارلىنىپ
تەكشى
تەكشىلىكتىكى
تەكشىلىكتە
تەكشۈرتۈپ
تەكشۈرىدۇ
تەكشۈرگۈچى
تەكشۈرگەن
تەكشۈرگەندە
تەكشۈرۈش
تەكشۈرۈشتىن
تەكشۈرۈشتە
تەكشۈرۈشكە
تەكشۈرۈشلەر
تەكشۈرۈشنى
تەكشۈرۈشى
تەكشۈرۈشىگە
تەكشۈرۈپ
تەكلىب
تەكلىماكان
تەكلىپ
تەكلىپكە
تەكلىپلىك
تەكلىپلەرنى
تەكلىپنى
تەكلىپى
تەكلىپىنى
تەكلىپىگە
تەكىتلىدى
تەكىتلىنىدىغان
تەكىتلىنىدۇ
تەكىتلىگەن
تەكىتلەش
تەكىتلەنگەن
تەكىتلەيدۇ
تەكىتلەپ
تەكچە
تەكەللۇپ
تەل
تەلتۆكۈس
تەلىم
تەلىمات
تەلىماتلار
تەلىماتلىرى
تەلىماتلىرىنى
تەلىماتلىرىنىڭ
تەلىماتى
تەلىماتىنى
تەلىماتىنىڭ
تەلىپى
تەلىپىدە
تەلىپىنى
تەلىپىگە
تەلپۈنۈش
تەلپۈنۈپ
تەلھە
تەلۋە
تەلەي
تەلەپ
تەلەپكە
تەلەپلىرى
تەلەپلىرىنى
تەلەپلەر
تەلەپلەرنى
تەلەپنامىسى
تەلەپنى
تەلەپپۇز
تەلەپپۇزدا
تەلەپپۇزغا
تەلەپپۇزى
تەلەپپۇزىدا
تەلەپپۇزىغا
تەلەپپۇزىنى
تەم
تەمبۇر
تەمبۈر
تەمتىرەپ
تەمرى
تەمسىل
تەمسىللىرى
تەمسىللەر
تەمكىن
تەملىك
تەمى
تەمىن
تەمىنات
تەمىناتى
تەمىنلىدى
تەمىنلىشى
تەمىنلىنىدۇ
تەمىنلىگۈچى
تەمىنلىگەن
تەمىنلەش
تەمىنلەشكە
تەمىنلەشنى
تەمىنلەنگەن
تەمىنلەيدىغان
تەمىنلەيدۇ
تەمىنلەپ
تەمىنى
تەن
تەنبىھ
تەنتەربىيە
تەنتەنىلىك
تەنتەنە
تەندە
تەنقىت
تەنقىد
تەنقىدىي
تەنلىك
تەنلىكلەر
تەنلىكلەرنىڭ
تەننى
تەننىڭ
تەننەرخ
تەننەرخى
تەننەرخىنى
تەنچىسى
تەنچە
تەنگە
تەنھا
تەنھەركەت
تەنھەركەتچى
تەنھەرىكەت
تەنە
تەي
تەيبېي
تەيجى
تەير
تەيزۇ
تەيزۇڭ
تەيمىيە
تەيىنلىدى
تەيىنلىنىدۇ
تەيىنلىنىپ
تەيىنلىگەن
تەيىنلەش
تەيىنلەندى
تەيىنلەنگەن
تەيىنلەيدۇ
تەيىنلەپ
تەييار
تەييارلاش
تەييارلاشقا
تەييارلاندى
تەييارلانغان
تەييارلايدۇ
تەييارلايمىز
تەييارلاپ
تەييارلىدى
تەييارلىشى
تەييارلىغان
تەييارلىغۇچى
تەييارلىق
تەييارلىقلار
تەييارلىقى
تەييارلىقىنى
تەييارلىنىدىغان
تەييارلىنىدۇ
تەييارلىنىشى
تەييارلىنىپ
تەييارلىۋالغان
تەيۋەن
تەيۋەندە
تەيۋەنلىك
تەيۋەننى
تەيۋەننىڭ
تەيۋەنگە
تەپ
تەپتىش
تەپتىشى
تەپرىقىچىلىك
تەپسىر
تەپسىرى
تەپسىلاتى
تەپسىلاتىنى
تەپسىلى
تەپسىلىي
تەپسىلىيرەك
تەپكۈچ
تەپكەن
تەپي
تەپەككۇر
تەپەككۇرغا
تەپەككۇرنى
تەپەككۇرنىڭ
تەپەككۇرى
تەپەككۇرىنى
تەپەككۇرىنىڭ
تەپەككۈر
تەڧسىر
تەڧسىرى
تەڭ
تەڭداش
تەڭداشسىز
تەڭدىشى
تەڭدىن
تەڭرى
تەڭرىتاغ
تەڭرىتاغنىڭ
تەڭرىتېغىنىڭ
تەڭرىدىن
تەڭرىسى
تەڭرىقۇت
تەڭرىقۇتنىڭ
تەڭرىقۇتى
تەڭرىلىك
تەڭرىنى
تەڭرىنىڭ
تەڭرىگە
تەڭسىز
تەڭسىزلىك
تەڭشىلىدىغان
تەڭشىگۈچ
تەڭشەش
تەڭشەشكە
تەڭشەلگەن
تەڭشەيدۇ
تەڭشەپ
تەڭكەش
تەڭلا
تەڭلىمىسى
تەڭلىمىسىدە
تەڭلىمىسىنى
تەڭلىمىنى
تەڭلىمە
تەڭپۇڭ
تەڭپۇڭلۇق
تەڭپۇڭلۇقنى
تەڭپۇڭلۇقىنى
تەڭگىسى
تەڭگىسىمان
تەڭگىنى
تەڭگە
تەگ
تەگدى
تەگسە
تەگكەن
تەگلىك
تەگلىكى
تەگمىگەن
تەھدىت
تەھدىتكە
تەھدىتى
تەھدىد
تەھرىر
تەھرىرلىك
تەھرىرلىكىنى
تەھرىرلەش
تەھرىرلەپ
تەھرىرى
تەھسىل
تەھلىل
تەۋبە
تەۋرات
تەۋراتتا
تەۋراتنى
تەۋراتنىڭ
تەۋرىتىپ
تەۋرىدى
تەۋرىنىش
تەۋرىنىپ
تەۋرەش
تەۋرەشتىن
تەۋرەشنى
تەۋرەنمەس
تەۋرەپ
تەۋسىيىسى
تەۋسىيە
تەۋسىيەسى
تەۋپىق
تەۋھىد
تەۋە
تەۋەدۇر
تەۋەسى
تەۋەسىدىكى
تەۋەسىدىن
تەۋەسىدە
تەۋەسىگە
تەۋەككۇل
تەۋەككۈل
تەۋەككۈلچىلىك
تەۋەلىك
تەۋەلىكى
تەۋەلىكىدىكى
تەۋەلىكىدىن
تەۋەلىكىدە
تەۋەلىكىنى
تەۋەلىكىگە
ث
ثار
ج
جا
جابدۇق
جابدۇقلىرى
جابدۇقى
جاراڭسىز
جاراڭلىق
جاراھەت
جارى
جارىي
جازا
جازاسى
جازاسىغا
جازاسىنى
جازاغا
جازالاش
جازالاشقا
جازالانغۇچى
جازالايدۇ
جازالىنىدۇ
جازانى
جازانىڭ
جاسارىتى
جاسارىتىنى
جاسارەت
جاسارەتلىك
جاساق
جاسۇس
جاسۇسلۇق
جافەري
جاك
جاكارلاش
جاكارلاندى
جاكارلانغان
جاكارلايدۇ
جاكارلاپ
جاكارلىدى
جاكارلىغان
جالال
جالالىددىن
جالالىدىــن
جالالىدىن
جاللات
جالۇت
جام
جامادىيەلي
جامال
جامالىدىن
جاماي
جامى
جامىي
جامېس
جامە
جامەسى
جان
جانابى
جانان
جانبازلىق
جاندىن
جانسىز
جانغا
جانلاندۇرۇش
جانلاندۇرۇم
جانلانغان
جانلىق
جانلىقلار
جانلىقلارغا
جانلىقلارنىڭ
جانلىقنىڭ
جانلىنىپ
جاننى
جاي
جايدا
جايدىكى
جايدىن
جايغا
جايلاخكان
جايلار
جايلاردا
جايلاردىكى
جايلاردىن
جايلارغا
جايلارنى
جايلارنىڭ
جايلاشتى
جايلاشقان
جايلاشقانلىقى
جايلاشماق
جايلىرى
جايلىرىدا
جايلىرىدىكى
جايلىرىدىن
جايلىرىغا
جايلىرىنى
جاينى
جاينىڭ
جايى
جايىدا
جايىدىكى
جايىدىن
جايىغا
جايىنى
جايىنىڭ
جاپا
جاپادا
جاپاغا
جاپاكەش
جاپالىق
جاپپار
جاڭ
جاڭجۈن
جاڭيۇ
جاڭگال
جاھالەت
جاھان
جاھانباغ
جاھاندا
جاھاندىكى
جاھانغا
جاھاننى
جاھاننىڭ
جاھاننەما
جاھانگىر
جاھانگىرلىك
جاھانگىرلىككە
جاھىل
جاھىللىق
جاھىلىيەت
جاۋ
جاۋا
جاۋاب
جاۋابقا
جاۋابكار
جاۋابكارلارغا
جاۋابكارلىرىغا
جاۋابكارلىق
جاۋابكارلىققا
جاۋابكارلىقنى
جاۋابكارلىقى
جاۋابكارلىقىنى
جاۋابلار
جاۋابنامە
جاۋابنى
جاۋابى
جاۋابىمىز
جاۋابىنى
جاۋابەن
جاۋاپ
جاۋاپكار
جـ
جو
جواڭزۇ
جوبس
جوبىس
جورج
جورجان
جورجىت
جورجىتلار
جورجىتلارنىڭ
جوغراپىيىلىك
جون
جوي
جوڭ
جوڭخۇا
جوڭخۇي
جوڭگو
جوڭگودا
جوڭگودىكى
جوڭگونىڭ
جوڭگۇ
جوڭگۇدا
جوڭگۇدىكى
جوڭگۇلۇق
جوڭگۇنىڭ
جوڭگۇچە
جى
جىبرىي
جىبۇتى
جىددى
جىددىي
جىددىيلىك
جىددە
جىدەل
جىسمانى
جىسمانىي
جىسمى
جىسمىغا
جىسىم
جىسىمغا
جىسىملار
جىسىملارنىڭ
جىسىملىرى
جىسىملىرىنىڭ
جىسىمنىڭ
جىغان
جىق
جىلت
جىلتقا
جىلد
جىلدلىق
جىلغا
جىلغىسى
جىلغىسىدا
جىلغىسىدىكى
جىلىت
جىلىن
جىلۋە
جىم
جىمجىت
جىمسار
جىمى
جىمىسار
جىن
جىنازا
جىنايى
جىنايىتى
جىنايىتىنى
جىنايىتىگە
جىنايەت
جىنايەتكە
جىنايەتلىرىنى
جىنايەتلەرنى
جىنايەتنى
جىنايەتنىڭ
جىنايەتچى
جىنايەتچىسى
جىنايەتچىلەر
جىنايەتچىلەردىن
جىنايەتچىلەرنى
جىنايەتچىنىڭ
جىنس
جىنسى
جىنسىي
جىنسىيەت
جىننىڭ
جىنىس
جىنىسسىز
جىنىسلىق
جىنىسىي
جىنپىڭ
جىنپىڭنىڭ
جىيەن
جىيەنى
جىڭ
جىڭخەن
جىڭشۇرىن
جىگدىلىك
جىگدىلىككە
جىگدە
جىگەر
جىھات
جىھاد
جياڭ
جياڭسۇ
جياڭشى
جۆر
جۆيلۈش
جۆۋەندە
جۇ
جۇاڭزۇ
جۇدا
جۇداي
جۇش
جۇشقۇن
جۇشقۇنلۇق
جۇغراپىيلىك
جۇغراپىيىسى
جۇغراپىيىلىك
جۇغراپىيە
جۇغراپىيەسى
جۇغراپىيەلىك
جۇغلانما
جۇغلانمىسى
جۇلا
جۇلىيان
جۇملىدىن
جۇملە
جۇمي
جۇمھۇر
جۇمھۇررەي
جۇمھۇرىيتى
جۇمھۇرىيتىنىڭ
جۇمھۇرىيىتى
جۇمھۇرىيىتىدىكى
جۇمھۇرىيىتىدە
جۇمھۇرىيىتىنى
جۇمھۇرىيىتىنىڭ
جۇمھۇرىيىتىگە
جۇمھۇرىيەت
جۇمھۇرىيەتكە
جۇمھۇرىيەتلىرى
جۇمھۇرىيەتلىرىدىكى
جۇمھۇرىيەتلىرىنىڭ
جۇمھۇرىيەتلەر
جۇمھۇرىيەتلەردە
جۇمھۇرىيەتلەرنىڭ
جۇمھۇرىيەتنىڭ
جۇمھۇرىيەتى
جۇمھۇرىيەتچىلەر
جۇمھۇريىتى
جۇمھۇريىتىنىڭ
جۇمە
جۇي
جۇڭ
جۇڭخۇا
جۇڭشەن
جۇڭغار
جۇڭغارلار
جۇڭغارلارنىڭ
جۇڭغارىيە
جۇڭيى
جۇڭگو
جۇڭگودا
جۇڭگودىكى
جۇڭگودىن
جۇڭگوغا
جۇڭگولۇق
جۇڭگولۇقلار
جۇڭگولۇقلارنىڭ
جۇڭگونى
جۇڭگونىڭ
جۇڭگوچە
جۇڭگۇ
جۇڭگۇدا
جۇڭگۇنىڭ
جۇۋاز
جۇۋان
جۈري
جۈملىدىكى
جۈملىدىن
جۈملىدە
جۈملىسىدىن
جۈملىلىك
جۈملىلەر
جۈملىلەردىن
جۈملىلەردە
جۈملىلەرنى
جۈملىلەرنىڭ
جۈملىنى
جۈملىنىڭ
جۈملىگە
جۈملە
جۈمي
جۈمە
جۈمەگە
جۈن
جۈنىنىڭ
جۈپ
جۈپلەنمە
جۈپلەپ
جېجياڭ
جېدەل
جېلىل
جېن
جېنسىي
جېنى
جېنىغا
جېنىم
جېنىنى
جېڭ
جېڭجۇ
جېڭى
جېڭىدە
جە
جەبراي
جەبەل
جەدىۋىلى
جەدىۋەل
جەدۋىلى
جەدۋەل
جەرى
جەرىمانە
جەريان
جەرياندا
جەريانلار
جەريانلارنى
جەريانلىرى
جەريانلىرىنى
جەرياننى
جەريانى
جەريانىدا
جەريانىدىكى
جەريانىدىمۇ
جەريانىدىن
جەريانىغا
جەريانىنى
جەريانىنىڭ
جەرەن
جەزمەن
جەسىتى
جەسىتىنى
جەسۇر
جەسەت
جەسەتلەرنىڭ
جەسەتنى
جەلب
جەلىل
جەلىپ
جەلپ
جەم
جەملەنگەن
جەمى
جەمىي
جەمىيىتى
جەمىيىتىنىڭ
جەمىيي
جەمىيەت
جەمىيەتتە
جەمىيەتكە
جەمىيەتنى
جەمىيەتنىڭ
جەمي
جەمەت
جەمەتكە
جەمەتنىڭ
جەمەتى
جەمەتىدىكىلەر
جەمەتىدىن
جەمەتىنى
جەمەتىنىڭ
جەمەتىگە
جەننەت
جەننەتتىكى
جەننەتتىن
جەننەتتە
جەننەتكە
جەننەتلىك
جەنوبى
جەنۇب
جەنۇبتا
جەنۇبتىكى
جەنۇبتىن
جەنۇبقا
جەنۇبى
جەنۇبىدا
جەنۇبىدىكى
جەنۇبىدىن
جەنۇبىغا
جەنۇبىنى
جەنۇبىي
جەنۇپ
جەنۇپتا
جەنۇپقا
جەنۋە
جەنۋەدە
جەي
جەڭ
جەڭدىن
جەڭدە
جەڭلەر
جەڭلەردە
جەڭنى
جەڭچى
جەڭچىسى
جەڭگىۋار
جەڭگە
جەھلى
جەھەتتىكى
جەھەتتىمۇ
جەھەتتىن
جەھەتتىنمۇ
جەھەتتە
جەھەتلەردىكى
جەھەتلەردىن
جەھەتلەردە
جەھەننەم
جەۋلان
جەۋھىرى
جەۋھەر
جەۋھەرلىرى
جەۋھەرلىرىنى
جەۋھەرىي
جەۋھەرىينىڭ
ح
حاديث
حاشية
حكام
حمد
حياء
خ
خاتا
خاتالاشقان
خاتالىق
خاتالىقلار
خاتالىقلارنى
خاتالىقلىرى
خاتالىقنى
خاتالىقى
خاتالىقىنى
خاتىرجەم
خاتىرجەملىك
خاتىرلەش
خاتىرلەنگەن
خاتىرلەيمىز
خاتىرلەپ
خاتىرىجەم
خاتىرىسى
خاتىرىسىدە
خاتىرىسىنى
خاتىرىسىگە
خاتىرىلىرى
خاتىرىلىنىشىچە
خاتىرىلىگەن
خاتىرىلەر
خاتىرىلەردىن
خاتىرىلەردە
خاتىرىلەرگە
خاتىرىلەش
خاتىرىلەنگەن
خاتىرىلەپ
خاتىرىنى
خاتىرىگە
خاتىرە
خاتىمە
خاتىپ
خاتۇن
خادا
خادىم
خادىمغا
خادىملار
خادىملاردىن
خادىملارغا
خادىملارنى
خادىملارنىڭ
خادىملىرى
خادىملىرىدىن
خادىملىرىغا
خادىملىرىنى
خادىملىرىنىڭ
خادىمى
خادىمىغا
خار
خاراب
خارابىسى
خارابە
خاراكتىر
خاراكتىرلىق
خاراكتىرلىك
خاراكتىرى
خاراكتېر
خاراكتېردىكى
خاراكتېرلىق
خاراكتېرلىك
خاراكتېرى
خاراكتېرىدىكى
خاراكتېرىدىن
خاراكتېرىدە
خاراكتېرىنى
خاراكتېرىنىڭ
خاراكتېرىگە
خاراكتېرگە
خاراپ
خاربىن
خاررىي
خارىكى
خارۋارد
خارەزم
خارەزمى
خارەزىم
خارەكتىرلىك
خاس
خاستۇر
خاسلىق
خاسلىققا
خاسلىقنى
خاسلىقى
خاسلىقىنى
خاسىيىتى
خاسىيەت
خاسىيەتلىك
خاسىڭ
خاشۇقجى
خاقان
خاقانغا
خاقانلىرى
خاقانلىق
خاقانلىقى
خاقاننىڭ
خاقانى
خاقانىم
خاقانىيە
خاككاسلار
خاكۇ
خال
خالاس
خالاش
خالايدىغان
خالايدىغانلىقىنى
خالايدۇ
خالايىق
خالاپ
خالتا
خالتىسى
خالتىغا
خالتىلىق
خالمۇرات
خالى
خالىد
خالىدە
خالىس
خالىسا
خالىسانە
خالىغان
خالىغانچە
خالىق
خالىقجان
خالىمايتتى
خالىمايدىغان
خالىمايدۇ
خالىمايمەن
خالىمىدى
خالىمىسا
خالىمىغان
خالىي
خام
خامان
خاممۇرابى
خامچوت
خان
خانتەڭرى
خاندانلىقى
خاندانلىقىنى
خاندانلىقىنىڭ
خاندىن
خاندەمىر
خاندەمىرنىڭ
خانغا
خانلىرى
خانلىرىنىڭ
خانلىق
خانلىققا
خانلىقلار
خانلىقنى
خانلىقنىڭ
خانلىقى
خانلىقىدىكى
خانلىقىدىن
خانلىقىغا
خانلىقىنى
خانلىقىنىڭ
خاننى
خاننىڭ
خانى
خانىدانلىقى
خانىدانلىقىنىڭ
خانىسى
خانىش
خانىشى
خانىغا
خانىقا
خانىقاسى
خانىقاسىنىڭ
خانىلىق
خانىم
خانىملار
خانىمنىڭ
خانىمى
خانىنىڭ
خاني
خانە
خاي
خاپا
خاڭجوۋ
خاڭجۇ
خاڭگۇڭ
خاھرى
خاھلىغان
خاھىش
خاھىشى
خاۋكىڭ
ختن
خروم
خرى
خرىستىي
خرىستىيان
خرىستىيانلىق
خرۇستال
خصراجصتصنص
خصلاپ
خو
خوت
خوتۇن
خوتۇنلۇق
خوتۇنلۇققا
خوتۇننىڭ
خوتۇنى
خوتۇنىنى
خوتەن
خوتەندىكى
خوتەندىن
خوتەندە
خوتەنلىك
خوتەننى
خوتەننىڭ
خوتەنىي
خوتەنىينى
خوتەنىينىڭ
خوتەنىيگە
خوتەنگە
خوجا
خوجام
خوجانىياز
خوجايىن
خوجايىنى
خوجىغا
خوجىلار
خوجىنى
خوجىنىياز
خوجىنىڭ
خور
خوراز
خوراسان
خورايدىغىنى
خوردىلىق
خورلۇق
خورلۇققا
خورما
خورمىنى
خوش
خوشال
خوشاللىق
خوشاڭ
خوشلاشتى
خوشلىشىپ
خوشنا
خوشىڭى
خوشۇت
خوندرىي
خوي
خوپ
خوڭكوڭ
خوڭكوڭلۇقلار
خىتاب
خىتابنامىسى
خىتابنامە
خىتاي
خىتايدا
خىتايدىكى
خىتايدىن
خىتايغا
خىتايلار
خىتايلاردىن
خىتايلارغا
خىتايلارنى
خىتايلارنىڭ
خىتاينى
خىتاينىڭ
خىتايچە
خىتاپ
خىتتاي
خىجىل
خىراجىتى
خىراجىتىنى
خىراجىتىنىڭ
خىراجىتىگە
خىراجەت
خىراجەتنى
خىروم
خىرويۇكى
خىرىس
خىرىستىي
خىرىستىيان
خىرىستىيانلار
خىرىستىيانلارنىڭ
خىزمىتى
خىزمىتىدىكى
خىزمىتىدىن
خىزمىتىدە
خىزمىتىنى
خىزمىتىنىڭ
خىزمىتىگە
خىزمەت
خىزمەتتىكى
خىزمەتتىن
خىزمەتتە
خىزمەتكە
خىزمەتلىرى
خىزمەتلىرىنى
خىزمەتلىرىنىڭ
خىزمەتلىرىگە
خىزمەتلەر
خىزمەتلەرنى
خىزمەتلەرنىڭ
خىزمەتلەرگە
خىزمەتنى
خىزمەتنىڭ
خىزمەتچى
خىزمەتچىسى
خىزمەتچىلىرى
خىزمەتچىلىرىنىڭ
خىزمەتچىلەر
خىزمەتچىلەرنى
خىزمەتچىلەرنىڭ
خىزمەتچىلەرگە
خىزىر
خىسلىتى
خىسلەت
خىسلەتلىك
خىش
خىل
خىلاپ
خىلاپلىق
خىلدا
خىلدىكى
خىلدىن
خىلغا
خىللا
خىللىقى
خىللىقىنى
خىلمۇ
خىلمۇخىل
خىلى
خىلىت
خىلىتسىز
خىلىتلار
خىلىتلارنىڭ
خىلىتى
خىلىتىغا
خىلىتىنى
خىلىتىنىڭ
خىلۋەت
خىمالىكاڭ
خىمىك
خىمىيىلىك
خىمىيىۋى
خىمىيە
خىمىيەسى
خىمىيەلىك
خىيال
خىيالغا
خىياللار
خىيالنى
خىيالى
خىيالىي
خىيالچان
خىيانەت
خىيانەتچىلىك
خىۋە
خۇ
خۇا
خۇاشيا
خۇاي
خۇاڭ
خۇاڭخې
خۇبېي
خۇتبە
خۇتەن
خۇجا
خۇدا
خۇدادىن
خۇداغا
خۇدالىق
خۇدانىڭ
خۇدايىم
خۇددى
خۇراسان
خۇراسانغا
خۇرام
خۇراپات
خۇراپاتلىق
خۇراپاتلىقى
خۇراپىي
خۇرجۇن
خۇرسەن
خۇرۇم
خۇرۇچ
خۇرۇچلار
خۇرۇچى
خۇزەيمە
خۇسۇستا
خۇسۇسى
خۇسۇسىدا
خۇسۇسىي
خۇسۇسىيتى
خۇسۇسىيىتى
خۇسۇسىيىتىنى
خۇسۇسىيىتىگە
خۇسۇسىيەت
خۇسۇسىيەتكە
خۇسۇسىيەتلىرى
خۇسۇسىيەتلىرىنى
خۇسۇسىيەتلەرنى
خۇسۇسەن
خۇش
خۇشال
خۇشاللىق
خۇشاللىقى
خۇشامەت
خۇشبۇي
خۇشتار
خۇشخۇي
خۇشخەۋەر
خۇشى
خۇشىمىن
خۇشپۇراق
خۇلاسىسى
خۇلاسىلاپ
خۇلاسىلىگەندە
خۇلاسىلەپ
خۇلاسىنى
خۇلاسىگە
خۇلاسە
خۇلقى
خۇلەڧاي
خۇمار
خۇن
خۇنىڭ
خۇنەن
خۇي
خۇيخۇي
خۇيخۇيلار
خۇيزۇ
خۇيزۇلار
خۇيزۇلارنىڭ
خۇيى
خۇپىيانە
خۇڭ
خۇۋەيلىد
خې
خېبىي
خېبېي
خېتى
خېتىدە
خېتىنى
خېتىنىڭ
خېتىگە
خېجىڭ
خېروي
خېرىدار
خېرىدارلار
خېرىدارلارغا
خېرىدارلارنى
خېرىدارلىق
خېشى
خېلى
خېلىل
خېلىلا
خېلە
خېمىر
خېمىرتۇرۇچ
خېمىرغا
خېمىرنى
خېمىرنىڭ
خېمىرى
خېمىرىدەك
خېمىرىنى
خېمىيە
خېنىم
خېنە
خېنەن
خېيلوڭجياڭ
خېيىم
خېڭدا
خەبەر
خەت
خەتتاب
خەتتابنىڭ
خەتتات
خەتتاتلار
خەتتاتلىق
خەتتە
خەتكە
خەتلىرىنى
خەتلىك
خەتلەر
خەتلەرنى
خەتمە
خەتنى
خەتنىڭ
خەتنە
خەتىرى
خەتىرىنى
خەتەر
خەتەردىن
خەتەرلىك
خەتەرنى
خەتەرگە
خەجلەپ
خەدىجە
خەدىچە
خەرىتىدىكى
خەرىتىسى
خەرىتىسىگە
خەرىتىلىك
خەرىتە
خەزاي
خەزىنىسى
خەزىنىسىنى
خەزىنىسىگە
خەزىنىگە
خەزىنە
خەشەك
خەق
خەققە
خەقلەر
خەقنى
خەقنىڭ
خەلدۇن
خەلق
خەلقارا
خەلقارالىق
خەلقتىن
خەلققە
خەلقكە
خەلقلىرى
خەلقلىرىنىڭ
خەلقلىرىگە
خەلقلەر
خەلقلەردىن
خەلقلەردە
خەلقلەرنى
خەلقلەرنىڭ
خەلقلەرگە
خەلقنى
خەلقنىڭ
خەلقى
خەلقىدىن
خەلقىدە
خەلقىم
خەلقىمىز
خەلقىمىزدە
خەلقىمىزنى
خەلقىمىزنىڭ
خەلقىمىزگە
خەلقىنى
خەلقىنىڭ
خەلقىي
خەلقىگە
خەلقي
خەلقپەرۋەر
خەلىفە
خەلىق
خەلىققە
خەلىقلەر
خەلىقلەرنىڭ
خەلىقنى
خەلىقنىڭ
خەلىقى
خەلىقي
خەلىل
خەلىپىسى
خەلىپىلىك
خەلىپىلىككە
خەلىپىلىكى
خەلىپىلەر
خەلىپىنى
خەلىپىنىڭ
خەلىپە
خەلىڧە
خەلىڧەسى
خەلپە
خەلپەت
خەمسە
خەمىت
خەن
خەنجەر
خەندەك
خەنزۇ
خەنزۇلار
خەنزۇلارغا
خەنزۇلارنىڭ
خەنزۇچىدا
خەنزۇچىدىن
خەنزۇچىغا
خەنزۇچە
خەنزۇۋان
خەنسۇ
خەنسۇلار
خەنسۇلارغا
خەنسۇلارنىڭ
خەنسۇنىڭ
خەنسۇچە
خەنلەر
خەننامە
خەنچە
خەير
خەيرلىك
خەيرى
خەينەن
خەپ
خەۋىرى
خەۋىرىدە
خەۋىرىم
خەۋىرىنى
خەۋىرىنىڭ
خەۋىرىگە
خەۋىپسىزلىك
خەۋىپى
خەۋپ
خەۋپتىن
خەۋپسىزلىك
خەۋپسىزلىكى
خەۋپسىزلىكىگە
خەۋپكە
خەۋپلىك
خەۋپى
خەۋپىنى
خەۋپىگە
خەۋەر
خەۋەردار
خەۋەردە
خەۋەرسىز
خەۋەرلىرى
خەۋەرلىشىش
خەۋەرلىك
خەۋەرلەر
خەۋەرلەرنى
خەۋەرلەرنىڭ
خەۋەرلەرگە
خەۋەرلەندۈرۈش
خەۋەرنى
خەۋەرنىڭ
خەۋەرچى
خەۋەرگە
د
دا
داتۇڭ
داخان
داخىل
داخۇا
دادا
دادام
دادامنىڭ
دادىسى
دادىسىدىن
دادىسىغا
دادىسىنى
دادىسىنىڭ
دادىل
دادىلار
دادىللىق
دادىنىڭ
دادۇر
دادۈي
دار
دارا
دارامىتى
دارامەت
دارغا
دارى
دارىلمۇي
دارىلي
دارىن
دارۇل
دارۋاز
دارۋازلىق
داس
داستان
داستاندا
داستانلار
داستانلىرى
داستانلىرىنى
داستاننى
داستاننىڭ
داستانى
داستانىدا
داستانىدىكى
داستانىنى
داستانىنىڭ
داستىخان
داستىخاندا
داستىخانغا
داستىن
داسقا
داغ
داغدام
داغدۇغىلىق
داغلار
داغلاپ
داغىستان
داغۇر
داكا
داكار
دالا
دالاسىغا
دالالەت
دالانچە
دالاي
دالىدا
دالىلاردا
داليەن
داموللا
داموللام
داموللامنىڭ
داموللىنىڭ
دان
دانا
دانكو
دانلىق
دانىدىن
دانىسىنىڭ
دانىش
دانىشمەن
دانىيال
دانىيە
دانچە
دانە
داود
داىراىقىدا
داي
داپ
داپخاننى
داڭ
داڭدار
داڭق
داڭقان
داڭقى
داڭلىق
داھى
داھىي
داھىيسى
داۋا
داۋاسى
داۋاسىغا
داۋاسىنى
داۋاسىنىڭ
داۋاغا
داۋالاش
داۋالاشتا
داۋالاشتىكى
داۋالاشتىن
داۋالاشقا
داۋالاشنى
داۋالاشنىڭ
داۋالايدىغان
داۋالاپ
داۋالغۇش
داۋالىنىش
داۋام
داۋاملاشتى
داۋاملاشتۇردى
داۋاملاشتۇرغان
داۋاملاشتۇرماقتا
داۋاملاشتۇرىدۇ
داۋاملاشتۇرۇش
داۋاملاشتۇرۇشقا
داۋاملاشتۇرۇپ
داۋاملاشسا
داۋاملاشقان
داۋاملاشماقتا
داۋاملىشىدىغان
داۋاملىشىدۇ
داۋاملىشىش
داۋاملىشىپ
داۋاملىشىۋاتقان
داۋاملىق
داۋامى
داۋامىدا
داۋان
داۋانىڭ
داۋانچىڭ
داۋايى
داۋىد
داۋىس
داۋۇت
داۋۇتي
داۋۇد
دة
در
دراما
درامىسى
درامىسىدا
دوتسېنت
دوتسېنتلىق
دوتسېنتى
دوتەي
دوخاپكىغا
دوختۇر
دوختۇرخانا
دوختۇرخانىدا
دوختۇرخانىسى
دوختۇرخانىسىدا
دوختۇرخانىسىنىڭ
دوختۇرخانىغا
دوختۇرخانىلاردا
دوختۇرغا
دوختۇرلار
دوختۇرلۇق
دوختۇرنىڭ
دوختۇرى
دودايىف
دورا
دوراپ
دورغا
دوركخيىم
دورىسى
دورىغا
دورىلار
دورىلاردىن
دورىلارنى
دورىلارنىڭ
دورىلىرى
دورىلىرىنى
دورىلىق
دورىنى
دورىنىڭ
دورىگەرلىك
دوزاخ
دوزاختىن
دوزاخقا
دوست
دوستانە
دوستلار
دوستلاردىن
دوستلارغا
دوستلارنىڭ
دوستلىرى
دوستلىرىدىن
دوستلىرىغا
دوستلىرىم
دوستلىرىنىڭ
دوستلۇرۇم
دوستلۇرۇمنىڭ
دوستلۇق
دوستلۇقنى
دوستلۇقنىڭ
دوستى
دوستىغا
دوستىمىز
دوستىنىڭ
دوستۇم
دوستۇمنىڭ
دوغان
دوغاپ
دوغلات
دوكتور
دوكتورلۇق
دوكتورلۇقتا
دوكتورلۇقنى
دوكتورى
دوكتۇر
دوكتۇرلىرى
دوكتۇرلۇق
دوكتۇرلۇقتا
دوكتۇرى
دوكلات
دوكلاتتا
دوكلاتنى
دوكلاتى
دوكلاتىدا
دوكلاتىنى
دوكلاد
دوكۇمېنتى
دول
دولان
دولانلارنىڭ
دولانلىقلار
دولانلىقلارنىڭ
دولانە
دولة
دولقۇن
دولقۇنسىمان
دولقۇنغا
دولقۇنلىرى
دولقۇنلۇق
دولقۇنى
دولقۇنىنى
دولقۇنىنىڭ
دوللار
دوللاردىن
دوللارغا
دوللارلىق
دوللىرى
دوللىرىدىن
دوللىرىغا
دوللىرىلىق
دولەت
دومىنىكا
دون
دونالد
دوناي
دوپپا
دوڭ
دى
دىتال
دىتاللار
دىتاللارنى
دىتاللارنىڭ
دىتاللىرى
دىتالى
دىخۇا
دىدى
دىدىم
دىرامما
دىرىكتورى
دىرېكتور
دىرېكتورلار
دىرېكتورى
دىرەك
دىسسېرتاتسىيە
دىسسېرتاتسىيەسى
دىسكا
دىسە
دىسەك
دىسەم
دىققىتى
دىققىتىمنى
دىققىتىمىزنى
دىققىتىنى
دىققىتىگە
دىققەت
دىققەتكە
دىققەتنى
دىكابىر
دىكتاتور
دىكتور
دىكتورى
دىكى
دىكىبىخاھار
دىل
دىلبەر
دىلشات
دىلمۇرات
دىلمۇراتنىڭ
دىلى
دىلىدىن
دىلىغا
دىموكراتىك
دىمۇ
دىمۇكراتىك
دىمەك
دىمەككى
دىمەكچى
دىن
دىنار
دىندا
دىندار
دىندىكى
دىندىن
دىندۇر
دىنسىز
دىنشۇناسلىق
دىنغا
دىنلار
دىنلاردا
دىنلارغا
دىنلارنىڭ
دىنلىرى
دىنلەر
دىنمۇ
دىننى
دىننىي
دىننىڭ
دىنى
دىنىدا
دىنىدىكى
دىنىدىن
دىنىغا
دىنىمىز
دىنىمىزدا
دىنىمىزنى
دىنىنى
دىنىنىڭ
دىنىي
دىي
دىيار
دىياردىكى
دىيارى
دىيارىدا
دىيارىدىكى
دىيارىدىن
دىيارىغا
دىيارىمىز
دىيارىمىزدا
دىيارىمىزدىكى
دىيارىمىزغا
دىيارىمىزنىڭ
دىيارىنى
دىيارىنىڭ
دىيالوگ
دىيالېكت
دىيانەت
دىيانەتلىك
دىيلىدۇ
دىيىش
دىيىشكە
دىيىلسە
دىيىلىدۇ
دىيىلگەن
دىپلومات
دىپلوماتىك
دىپلوماتىيە
دىپلومىغا
دىڭ
دىگىنىمىز
دىگۈدەك
دىگەن
دىگەندە
دىگەندەك
دىگەنلىك
دىگەنلەر
دىگەننى
دىگەنگە
دىھقان
دىۋان
دىۋاندا
دىۋانى
دىۋانىدا
دىۋانۇ
دىۋىزىيە
دۆ
دۆربىلجىن
دۆلىتى
دۆلىتىدىكى
دۆلىتىدىن
دۆلىتىدە
دۆلىتىمىز
دۆلىتىمىزدىكى
دۆلىتىمىزدە
دۆلىتىمىزنىڭ
دۆلىتىمىزگە
دۆلىتىنى
دۆلىتىنىڭ
دۆلىتىگە
دۆلەت
دۆلەتباغ
دۆلەتتىكى
دۆلەتتىن
دۆلەتتۇر
دۆلەتتە
دۆلەتكە
دۆلەتلىرى
دۆلەتلىرىدىكى
دۆلەتلىرىدىن
دۆلەتلىرىدە
دۆلەتلىرىنى
دۆلەتلىرىنىڭ
دۆلەتلىرىگە
دۆلەتلىك
دۆلەتلەتدە
دۆلەتلەر
دۆلەتلەردىكى
دۆلەتلەردىمۇ
دۆلەتلەردىن
دۆلەتلەردە
دۆلەتلەرمۇ
دۆلەتلەرنى
دۆلەتلەرنىڭ
دۆلەتلەرگە
دۆلەتنى
دۆلەتنىڭ
دۆلەتچىلىك
دۆڭ
دۆڭلۈككە
دۆڭنىڭ
دۆڭي
دۆڭگەپ
دۆۋىسى
دۆۋە
دۇ
دۇب
دۇبۇلغا
دۇبەي
دۇتار
دۇتتار
دۇدنې
دۇر
دۇردۇن
دۇرىيان
دۇرۇس
دۇشمەن
دۇفۇ
دۇكان
دۇكانلىرى
دۇكىنى
دۇلات
دۇلەت
دۇمباق
دۇنخۇاڭ
دۇنيا
دۇنيادا
دۇنيادىكى
دۇنيادىمۇ
دۇنيادىن
دۇنياسى
دۇنياسىدا
دۇنياسىدىكى
دۇنياسىدىن
دۇنياسىغا
دۇنياسىنى
دۇنياسىنىڭ
دۇنياغا
دۇنيالىق
دۇنيانى
دۇنيانىڭ
دۇنياۋى
دۇنياۋىي
دۇي
دۇچ
دۇچار
دۇۋا
دۈشمىنى
دۈشمىنىمىز
دۈشمەن
دۈشمەنلىرى
دۈشمەنلىرىنى
دۈشمەنلىك
دۈشمەنلەر
دۈشمەنلەرنىڭ
دۈشمەننى
دۈشمەننىڭ
دۈشمەنگە
دۈشەنبە
دۈلەت
دۈم
دۈمبىسى
دۈمبىسىگە
دۈمبە
دۈمبەمەدەك
دۈملىمىسى
دۈملىمە
دۈملەپ
دۈچ
دۈگىلەك
دۋىگاتېل
دې
دېتال
دېتاللىرى
دېتالى
دېتالىغا
دېدى
دېدىكى
دېدىم
دېدۇق
دېرىزە
دېرىكتورى
دېرىكى
دېرەك
دېرەكسىز
دېزىل
دېسكا
دېسنىي
دېسىلا
دېسىمۇ
دېسىڭىز
دېسە
دېسەك
دېسەم
دېسەڭ
دېكابر
دېكابىر
دېكابىردا
دېكارت
دېكلاماتسىيە
دېكىستېر
دېلفىن
دېلفىنى
دېلو
دېلودىكى
دېلوسى
دېلوسىنى
دېلوغا
دېلولار
دېلولىرى
دېلولىرىنى
دېلونى
دېلونىڭ
دېموكراتلار
دېموكراتىك
دېموكراتىيىسى
دېموكراتىيىنى
دېموكراتىيە
دېمىسىمۇ
دېمىگەن
دېمۇكراتىك
دېمە
دېمەك
دېمەكتۇر
دېمەككى
دېمەكچى
دېمەي
دېمەيدۇ
دېنى
دېي
دېيىش
دېيىشتى
دېيىشكە
دېيىشنى
دېيىشى
دېيىشىدۇ
دېيىشىپ
دېيىشىچە
دېيىلدى
دېيىلدۇ
دېيىلسە
دېيىلىدىغان
دېيىلىدۇ
دېيىلىشى
دېيىلىشىچە
دېيىلىپ
دېيىلگەن
دېيىلگەندەك
دېيىلەتتى
دېيەرلىك
دېپلوماتىيە
دېڭ
دېڭىز
دېڭىزدا
دېڭىزدىكى
دېڭىزدىن
دېڭىزغا
دېڭىزلار
دېڭىزنى
دېڭىزنىڭ
دېڭىزى
دېڭىزىغا
دېڭىزىنىڭ
دېگىدەك
دېگىلى
دېگىنى
دېگىنىم
دېگىنىمىز
دېگىنىنى
دېگۈدەك
دېگۈم
دېگەن
دېگەندىمۇ
دېگەندىن
دېگەندە
دېگەندەك
دېگەنلىرى
دېگەنلىرىنى
دېگەنلىك
دېگەنلىكتۇر
دېگەنلىكى
دېگەنلىكىنى
دېگەنلەر
دېگەنلەرنى
دېگەننى
دېگەننىڭ
دېگەنىدى
دېگەنىكەن
دېگەنچۇ
دېگەنگە
دېھقان
دېھقانلار
دېھقانلارنى
دېھقانلارنىڭ
دېھقانلىرى
دېھقانلىرىنىڭ
دېھقاننىڭ
دېھقانچىلىق
دېھقانچىلىققا
دېھقانچىلىقنى
دېھقانچىلىقنىڭ
دېھلى
دېۋىزىيە
دە
دەخلى
دەدە
دەر
دەرت
دەرد
دەردى
دەردىمىزنى
دەردىنى
دەردىگە
دەررۇ
دەرس
دەرستىن
دەرستە
دەرسكە
دەرسلىرى
دەرسلىرىنى
دەرسلىك
دەرسلىكى
دەرسلىكىگە
دەرسلەر
دەرسلەرنى
دەرسلەرنىڭ
دەرسنى
دەرسنىڭ
دەرسى
دەرسىنى
دەرصجصلصك
دەرصجصلصكتصن
دەرمان
دەرىجىدىكى
دەرىجىدىن
دەرىجىدە
دەرىجىسى
دەرىجىسىدىكى
دەرىجىسىنى
دەرىجىسىگە
دەرىجىلىك
دەرىجىلىكتىن
دەرىجىلىكلەر
دەرىجىگە
دەرىجە
دەرىخى
دەرىخىدىن
دەرىخىنىڭ
دەرىس
دەرىسلىك
دەريا
دەريادا
دەريادىن
دەرياسى
دەرياسىدا
دەرياسىدىن
دەرياسىغا
دەرياسىغىچە
دەرياسىنى
دەرياسىنىڭ
دەرياغا
دەريالار
دەريالارنىڭ
دەريالىرى
دەريانى
دەريانىڭ
دەرگاھىدا
دەرگاھىغا
دەرھال
دەرھاللا
دەرھەم
دەرۋازا
دەرۋازىسى
دەرۋازىسىدىن
دەرۋازىسىنى
دەرۋازىسىنىڭ
دەرۋازىنىڭ
دەرۋىش
دەرۋەقە
دەرەخ
دەرەختىن
دەرەختە
دەرەخكە
دەرەخلىرىنىڭ
دەرەخلەر
دەرەخلەرنى
دەرەخلەرنىڭ
دەرەخنى
دەرەخنىڭ
دەس
دەستلەپكى
دەستىدىن
دەستىسى
دەستۇرى
دەستە
دەستەك
دەسسەپ
دەسلىپىدە
دەسلىۋىدە
دەسلەپ
دەسلەپتە
دەسلەپكى
دەقىقە
دەك
دەل
دەلىل
دەلىلقان
دەلىللىگەن
دەلىللەر
دەلىللەش
دەلىلى
دەلىلىدۇر
دەلىلچىلىك
دەم
دەملىنىدۇ
دەملەپ
دەمىرجان
دەمەشىق
دەن
دەنىيـ
دەي
دەيتتى
دەيدىغان
دەيدىغانلىقى
دەيدىكەن
دەيدىكەنمىز
دەيدۇ
دەيدۇكى
دەيزۇ
دەيسەن
دەيلى
دەيمىز
دەيمەن
دەپ
دەپتىرى
دەپتىرىگە
دەپتۇ
دەپتەر
دەپسەندىچىلىكى
دەپسەندىچىلىكىگە
دەپسەندە
دەپلا
دەپمۇ
دەپنە
دەڭ
دەھشەت
دەھشەتلىك
دەۋا
دەۋاتقان
دەۋاتىدۇ
دەۋاسى
دەۋاسىغا
دەۋاسىنى
دەۋاغا
دەۋالار
دەۋالاشقۇچى
دەۋالاشقۇچىلار
دەۋالاشقۇچىلارغا
دەۋالاشقۇچىلارنىڭ
دەۋام
دەۋانى
دەۋانىڭ
دەۋاگەر
دەۋر
دەۋران
دەۋردىكى
دەۋردىن
دەۋردە
دەۋرلىرىدە
دەۋرلەردىكى
دەۋرلەردىن
دەۋرلەردە
دەۋرلەرنىڭ
دەۋرلەرگە
دەۋرنى
دەۋرنىڭ
دەۋرى
دەۋرىدىكى
دەۋرىدىلا
دەۋرىدىمۇ
دەۋرىدىن
دەۋرىدە
دەۋرىمىزدە
دەۋرىمىزگە
دەۋرىنى
دەۋرىنىڭ
دەۋرىيلىك
دەۋرىگىچە
دەۋرىگە
دەۋرگە
دەۋلەت
دەۋلەتى
دەۋىر
دەۋىردىكى
دەۋىردە
دەۋىرلىرىدە
دەۋىرلەردە
دەۋىرنى
دەۋىرنىڭ
دەۋىرىدە
دەۋىرگە
دەۋەت
ذ
ذلك
ذيل
ر
را
رابات
رابىيە
راجو
راجى
راخت
راخمان
رادار
رادلوف
رادىكال
رادىي
رادىيو
رادىيوسى
رادي
رازى
رازىلىق
رازىلىقى
رازىلىقىنى
رازىيە
رازۋېدكا
راس
راسا
راست
راستتىنلا
راستىنلا
راستچىل
راسچوت
راشىد
راشىددىن
راشىدىن
راك
راكقا
راكى
راكىتا
راكېتا
رام
رامازان
رامكا
رامكىسى
رامىزان
رانچو
رانچونىڭ
راي
رايتلار
رايون
رايوندا
رايوندىكى
رايوندىن
رايونغا
رايونلار
رايونلاردا
رايونلاردىكى
رايونلاردىن
رايونلارغا
رايونلارنى
رايونلارنىڭ
رايونلىرى
رايونلىرىدا
رايونلىرىدىكى
رايونلىرىغا
رايونلىرىنى
رايونلىرىنىڭ
رايونلۇق
رايونمۇرى
رايوننى
رايوننىڭ
رايونى
رايونىدا
رايونىدىكى
رايونىدىن
رايونىغا
رايونىمىز
رايونىمىزدا
رايونىمىزدىكى
رايونىمىزنىڭ
رايونىنى
رايونىنىڭ
رايى
رايىنى
رايۇن
رايۇندىكى
رايۇنلار
رايۇنلاردا
رايۇنلارغا
رايۇنلارنىڭ
رايۇنلىرى
رايۇنلىرىدا
رايۇنلۇق
رايۇننومۇرى
رايۇننىڭ
رايۇنى
رايۇنىدا
رايۇنىدىكى
رايۇنىغا
رايۇنىنى
رايۇنىنىڭ
راڧ
راھىب
راھىلە
راھىپ
راھەت
راۋا
راۋاب
راۋابى
راۋاج
راۋاجلاندى
راۋاجلاندۇرغان
راۋاجلاندۇرىدۇ
راۋاجلاندۇرۇش
راۋاجلاندۇرۇشقا
راۋاجلاندۇرۇپ
راۋاجلانغان
راۋاجلىنىش
راۋاجلىنىشى
راۋاجلىنىشىغا
راۋاجلىنىپ
راۋان
راۋانلاشتۇرۇش
راۋاپ
راۋىقى
راۋىيلارنىڭ
ردە
رك
ركىي
رل
رلار
رنى
رنىڭ
رو
روبوت
روبىن
روبېرت
روتا
روزا
روزى
روزىباقىيېف
روزىسى
روزىنى
روزىنىڭ
روس
روسسىيە
روسلار
روسىيە
روسىيەدە
روسىيەنىڭ
روسىيەگە
روسچە
روسۇل
روشەن
روشەنكى
روك
رول
رولدا
رولغا
روللارنى
رولنى
رولى
رولىدا
رولىدىن
رولىغا
رولىمۇ
رولىنى
رولىنىڭ
رولچى
روما
روماغا
رومال
رومان
رومانتىك
روماندا
روماندىكى
رومانلار
رومانلارنى
رومانلىرى
روماننى
روماننىڭ
رومانى
رومانىدا
رومانىنى
رومانىنىڭ
رومىنىيە
رومەن
روناق
رونىك
رويال
روياپقا
رويخەتكە
روگېر
روھ
روھقا
روھلۇق
روھنى
روھنىڭ
روھى
روھىدا
روھىدىن
روھىغا
روھىم
روھىنى
روھىنىڭ
روھىي
روھىيەت
رى
رىتىملىق
رىتىمى
رىزا
رىزىق
رىزۋان
رىسالە
رىسچرەتوۋ
رىشات
رىشتە
رىغبەتلەندۈرۈش
رىقابىتى
رىقابىتىگە
رىقابەت
رىقابەتلىشىپ
رىقابەتچىلىكى
رىم
رىمان
رىمدا
رىمغا
رىملىقلار
رىملىقلارغا
رىملىقلارنىڭ
رىمنىڭ
رىنتىگىن
رىي
رىياد
رىيازەت
رىياسەتچى
رىياسەتچىسى
رىياسەتچىلىك
رىيال
رىياللىق
رىياللىقتىكى
رىياللىققا
رىياللىقنى
رىياللىقنىڭ
رىچارد
رىۋاندا
رىۋايىتى
رىۋايەت
رىۋايەتتە
رىۋايەتكە
رىۋايەتلىرى
رىۋايەتلەر
رىۋايەتلەرگە
رىۋايەتنى
ري
رگـ
رۇ
رۇباي
رۇخسىتى
رۇخسىتىسىز
رۇخسىتىنى
رۇخسەت
رۇخسەتى
رۇزى
رۇس
رۇسلار
رۇسلارغا
رۇسلارنىڭ
رۇسىيىسى
رۇسىيىنىڭ
رۇسىيىگە
رۇسىيە
رۇسىيەنىڭ
رۇسىيەگە
رۇسيە
رۇسچىغا
رۇسچە
رۇسۇت
رۇشەن
رۇقىيە
رۇقي
رۇم
رۇمــى
رۇمى
رۇمىنىــڭ
رۇمىنىيە
رۇمىنىڭ
رۇنىك
رۇۋۋاد
رېتسىپلار
رېتسېپ
رېتى
رېتىنى
رېجىم
رېشىتەم
رېكلام
رېكورتى
رېكورتىنى
رېلىسنىڭ
رېمونت
رېمىت
رېمۇنت
رېن
رېي
رېيىن
رېپىر
رېژىسسور
رېژىسسورلۇق
رېژىسسورى
رېژىسور
رېگان
رېۋىزىيە
رە
رەببىم
رەبىي
رەت
رەتكە
رەتلىك
رەتلىنىپ
رەتلىگەن
رەتلەش
رەتلەپ
رەجەب
رەجەپ
رەخت
رەخمەت
رەد
رەددىيە
رەزىل
رەزىللىك
رەزىيەللاھۇ
رەسسام
رەسساملار
رەسساملىق
رەسسامنىڭ
رەسمى
رەسمىي
رەسمىيىتى
رەسمىيىتىنى
رەسمىيەت
رەسمىيەتسىز
رەسمىيەتلەرنى
رەسىم
رەسىمدىكى
رەسىمدە
رەسىملىرى
رەسىملىرىنى
رەسىملىك
رەسىملەر
رەسىملەرنى
رەسىمنى
رەسىمى
رەسىمىنى
رەسىمگە
رەسۇل
رەسۇلۇللاھ
رەسۇلۇللاھتىن
رەسۇلۇللاھقا
رەسۇلۇللاھنى
رەسۇلۇللاھنىڭ
رەشك
رەشىد
رەشىدى
رەشىدىي
رەشىدە
رەفەھ
رەقىب
رەقىبلىرى
رەقىبى
رەقىمى
رەقەم
رەقەملىك
رەكي
رەنا
رەي
رەيھان
رەپىقىسى
رەڭ
رەڭدار
رەڭدىكى
رەڭدە
رەڭسىز
رەڭلىك
رەڭلىكى
رەڭلەر
رەڭلەردە
رەڭمۇ
رەڭنى
رەڭگارەڭ
رەڭگى
رەڭگىنى
رەڭگە
رەھبىرى
رەھبىرىي
رەھبەر
رەھبەرلىرى
رەھبەرلىرىدىن
رەھبەرلىرىنى
رەھبەرلىرىنىڭ
رەھبەرلىك
رەھبەرلىكنى
رەھبەرلىكى
رەھبەرلىكىدىكى
رەھبەرلىكىدە
رەھبەرلىكىنى
رەھبەرلەر
رەھبەرلەرنىڭ
رەھمىتى
رەھمەت
رەھمەتلىك
رەھمەتۇللا
رەھمەتۇللاھ
رەھىم
رەھىمسىز
رەھىمەھۇللاھ
رەھىمەھۇللاھنىڭ
رەۋاجنىڭ
رەۋىش
رەۋىشتە
رەۋىشداش
رەۋەن
ز
زا
زات
زاتقا
زاتلار
زاتلاردىن
زاتلارنىڭ
زاتنىڭ
زادى
زادىلا
زار
زاراڭزا
زارى
زاغرا
زاكات
زاكاز
زاكاس
زاكىر
زال
زالنىڭ
زالى
زالىدا
زالىم
زالىملار
زالىملارنىڭ
زامان
زاماندا
زامانداش
زامانداشلىرى
زاماندىكى
زاماندىن
زامانغا
زامانغىچە
زامانلار
زامانلاردا
زامانلاردىكى
زامانلاردىن
زاماننىڭ
زامانى
زامانىدا
زامانىدىكى
زامانىدىن
زامانىسىدا
زامانىسىدىكى
زامانىسىنىڭ
زامانىمىزدا
زامانىمىزدىكى
زامانىۋى
زامانىۋىلاشتۇرۇش
زامانىۋىلىشىش
زامانىۋىلىق
زامانىۋىي
زامانەۋىي
زامبىيە
زامىن
زايوم
زايومنى
زايومنىڭ
زايومى
زايومىنى
زايومىنىڭ
زاپاس
زاپىسى
زاپىسىنىڭ
زاپچاس
زاپچاسلىرى
زاپچاسلىرىنى
زاڭ
زاڭزۇ
زاڭلىق
زاھا
زاھىد
زاھىر
زاھىرى
زاۋا
زاۋال
زاۋاللىققا
زاۋۇت
زاۋۇتى
زاۋۇتىدا
زاۋۇتىغا
زاۋۇتىنىڭ
زاۋۇدى
زو
زور
زوراۋان
زوراۋانلىق
زوراۋانلىققا
زوراۋانلىقنى
زوردۇن
زورلاپ
زورلۇق
زورىيىپ
زوق
زوقلىنىش
زوڭلاڭ
زوۋۇلا
زى
زىبۇ
زىت
زىخ
زىخقا
زىددىيەت
زىددىيەتكە
زىددىيەتلىك
زىددىيەتلەر
زىددىيەتنى
زىددىيەتنىڭ
زىدە
زىدەن
زىر
زىراي
زىرە
زىغىر
زىققا
زىكرى
زىكىر
زىل
زىلزىلىگە
زىلزىلە
زىللاندىيە
زىلىگە
زىمات
زىممىسىگە
زىمىستان
زىمىن
زىمىندا
زىمىننى
زىمىنى
زىمىنىدا
زىمىنىغا
زىمىنىنى
زىنداندا
زىندانغا
زىننىتى
زىننەت
زىننەتلەش
زىننەتلەنگەن
زىي
زىيا
زىياد
زىيادە
زىيارىتى
زىيارىتىنى
زىيارەت
زىيارەتتە
زىيارەتكە
زىيارەتچى
زىيارەتچىلەر
زىيالى
زىيالىلار
زىيالىلارنىڭ
زىيالىلىرى
زىيالىلىرىنىڭ
زىيالىلىق
زىيالىنىڭ
زىيالىي
زىيالىيسى
زىيالىيلار
زىيالىيلارنى
زىيالىيلارنىڭ
زىيالىيلىرى
زىيالىيلىرىنىڭ
زىيالىيلىق
زىيالىينىڭ
زىيان
زىيانداش
زىيانسىز
زىيانغا
زىيانكەشلىك
زىيانكەشلىككە
زىيانكەشلىكىگە
زىيانلارنى
زىيانلىق
زىياننى
زىياننىڭ
زىياي
زىياپەت
زىياپەتكە
زىياۋۇدۇن
زىيىنى
زىيىنىنى
زىچ
زىچلىق
زىچلىقى
زىچلىقىنى
زىۋىدىخان
زۆرۈر
زۆرۈردۇر
زۆرۈركى
زۆرۈرلىكىنى
زۆرۈرلۈكىنى
زۆرۈرىيىتى
زۆرۈرىيەت
زۆھرە
زۇبەير
زۇر
زۇكام
زۇلقەرنەين
زۇلقەرنەيىن
زۇلمى
زۇلمەت
زۇلمەتلىك
زۇلپىقار
زۇلۇم
زۇلۇمدىن
زۇلۇمغا
زۇلۇمنى
زۇلۇمنىڭ
زۇلۇمى
زۇلۇمىغا
زۇم
زۇمرەت
زۇنۇن
زۇڭتۇڭ
زۇڭتۇڭلۇق
زۇڭتۇڭى
زۇڭلى
زۇڭلىسى
زۇۋۇلا
زېبىبۇللا
زېدۇڭ
زېرىكىشلىك
زېرەك
زېلېنىسكىي
زېمىن
زېمىندا
زېمىندىكى
زېمىندىن
زېمىنغا
زېمىنلار
زېمىنلاردا
زېمىنلارنى
زېمىنلىرىنى
زېمىننى
زېمىننىڭ
زېمىنى
زېمىنىدا
زېمىنىدىكى
زېمىنىدىن
زېمىنىغا
زېمىنىنى
زېمىنىنىڭ
زېنىت
زېڭشىن
زېھنى
زېھنىنى
زېھنىي
زېھىن
زە
زەخمەت
زەخىملىنىش
زەدىكى
زەر
زەربىدار
زەربىسىگە
زەربىگە
زەربە
زەردۇشت
زەررىچىلەر
زەررىچە
زەرچىۋە
زەرەت
زەرەتلەش
زەرەپشان
زەكى
زەكەرىيا
زەلىلى
زەمبىرىكى
زەمبىرەك
زەمبۇرۇغ
زەمىن
زەمي
زەمچە
زەن
زەنجىر
زەنجىرسىمان
زەنجىرى
زەنجىرىنىڭ
زەنجىۋىل
زەي
زەيتۇن
زەيد
زەيدىن
زەينەب
زەينەپ
زەيىد
زەپەر
زەپەرنامە
زەھىرى
زەھەبى
زەھەبىي
زەھەر
زەھەرلىك
زەھەرلىنىپ
زەھەرلەپ
زەھەرنى
زەۋەرلىك
س
سا
ساباھ
ساباھاتتىن
سابىت
سابىر
سابىرنىڭ
سابىرى
سابىق
ساتار
ساتارنى
ساتارنىڭ
ساتتار
ساتسا
ساتقان
ساتقانلار
ساتقانلاردىن
ساتقانلارغا
ساتقۇچى
ساتقۇچىلار
ساتو
ساتىدىغان
ساتىدۇ
ساتىرىك
ساتۇرن
ساتۇق
ساجىيە
ساخاۋەت
ساخاۋەتلىك
ساختا
ساختىلىق
ساختىپەزلىك
سادا
ساداسى
ساداسىنى
ساداقەت
ساداقەتلىك
ساداقەتمەن
ساداقەتمەنلىك
سادالىرى
سادام
ساددا
سادىر
سادىق
سار
سارا
ساراي
سارايدا
سارايغا
سارايلار
ساراڭ
ساراڭلىق
سارتېرى
سارغايتىپ
سارغىيىپ
سارغۇچ
ساركوزى
ساركوزىنىڭ
سارمادان
سارى
سارىيى
سارىيىدا
سارىيىغا
سارىيىنىڭ
ساز
سازايى
سازاڭ
سازاڭسىمان
سازاۋەر
سازاۋەردۇر
سازلىق
سازنى
سازەندىلەر
سازەندە
ساسانىلار
ساسلىق
ساغلام
ساغلاملىق
ساغلاملىقى
ساغلاملىقىغا
ساق
ساقا
ساقال
ساقاللىرى
ساقاللىق
ساقايتقان
ساقلا
ساقلاتقۇچى
ساقلاش
ساقلاشتا
ساقلاشقا
ساقلاشنى
ساقلاشنىڭ
ساقلانغان
ساقلانغىلى
ساقلانماقتا
ساقلانمىنى
ساقلانمىنىڭ
ساقلايدىغان
ساقلايدۇ
ساقلاپ
ساقلاۋاتقان
ساقلىدى
ساقلىسۇن
ساقلىشى
ساقلىغان
ساقلىغىلى
ساقلىغۇچ
ساقلىغۇچنى
ساقلىغۇچى
ساقلىق
ساقلىقنى
ساقلىنىدۇ
ساقلىنىش
ساقلىنىشى
ساقلىنىپ
ساقلىنىۋاتقان
ساقلىنىۋاتىدۇ
ساقى
ساقىت
ساقىلىنى
ساقىيىپ
ساقچى
ساقچىسى
ساقچىغا
ساقچىلار
ساقچىلارنىڭ
ساقچىلىرى
ساقچىلىرىنىڭ
ساك
سال
سالار
سالام
سالامغا
سالاملىشىش
سالامنىڭ
سالامەت
سالامەتلىك
سالامەتلىككە
سالامەتلىكنى
سالامەتلىكى
سالامەتلىكىنى
سالامەتلىكىنىڭ
سالامەتلىكىگە
سالاھىيتى
سالاھىيىتى
سالاھىيىتىدە
سالاھىيىتىنى
سالاھىيىتىگە
سالاھىيەت
سالاھىيەتكە
سالاھيىتى
سالجا
سالجىنىڭ
سالدى
سالدۇرغان
سالسا
سالساق
سالغا
سالغان
سالغاندا
سالغانلار
سالغۇچى
سالغۇچىلار
سالغۇچىنىڭ
سالقىن
سالماق
سالماقتا
سالماقلىق
سالماقنى
سالمان
سالمانخان
سالماي
سالى
سالىدىغان
سالىدۇ
سالىھ
سالۇر
سالۋادور
سام
ساما
سامان
سامانىي
سامانىيلار
ساماۋار
ساماۋىي
ساماۋەر
سامبۇسا
سامسا
سامساق
سامساقنى
سامسىسى
سامسۇڭ
سامسۇڭنىڭ
ساموي
سامى
سامىي
سامپۇل
سان
سانا
ساناش
ساناق
ساناقسىز
ساناقلىق
سانالغان
ساناي
سانايدۇ
ساناپ
سانت
سانتىمىتىر
سانتىمېتىر
سانتىمېتىردىن
سانتىمېتىرغا
سانتىمېتىرغىچە
سانتىمېتىرلىق
سانتىياگو
سانتېمىتىر
سانجى
سانجىپ
سانجۇ
ساندا
ساندان
ساندىكى
ساندۇق
ساندۇققا
ساندۇقى
سانسىز
سانسىزلىغان
سانغا
سانغۇن
سانغۇنى
سانلار
سانلاردىن
سانلارنى
سانلارنىڭ
سانلىرى
سانلىق
سانلىقلار
سانلىقلارنىڭ
ساننى
ساننىڭ
سانى
سانىدا
سانىدىن
سانىغا
سانىغان
سانىلىدىغان
سانىلىدۇ
سانىمۇ
سانىنى
سانىنىڭ
ساي
ساياھىتى
ساياھەت
ساياھەتكە
ساياھەتچى
ساياھەتچىلىك
ساياھەتچىلىكى
ساياھەتچىلەر
ساياھەتچىلەرنى
ساياھەتچىلەرنىڭ
سايباغ
سايرام
سايرامى
سايرانى
سايراپ
سايلاش
سايلام
سايلامدا
سايلامغا
سايلاندى
سايلانغان
سايلايدۇ
سايلاپ
سايلىغان
سايلىمى
سايلىمىدا
سايلىمىغا
سايلىنىدۇ
سايلىنىش
سايلىنىپ
سايمان
سايمانلار
سايمانلارنى
سايمانلىرى
سايمانلىرىنى
سايمىنى
ساينت
ساينىت
سايىت
سايىد
سايىسى
سايىسىدا
سايىسىدە
سايي
سايە
ساپ
ساپا
ساپاسى
ساپاسىنى
ساپال
ساپالىق
ساپايى
ساپتۇ
ساپلىق
ساپىقى
ساڭا
ساڭزا
ساڭگىلاپ
ساھابىلارنى
ساھابىلىرى
ساھابىلەر
ساھابىلەردىن
ساھابىلەرنىڭ
ساھابىنىڭ
ساھابە
ساھابەلەر
ساھىب
ساھىبجامال
ساھىبجامالنىڭ
ساھىبخان
ساھىبى
ساھىل
ساھىلى
ساھىپ
ساھىپجامال
ساھىپخان
ساھە
ساھەدىكى
ساھەدە
ساھەسى
ساھەسىدىكى
ساھەسىدىكىلەر
ساھەسىدىمۇ
ساھەسىدىن
ساھەسىدە
ساھەسىنى
ساھەسىنىڭ
ساھەسىگە
ساھەلىرى
ساھەلىرىدە
ساھەلىرىگە
ساھەلەر
ساھەلەردىكى
ساھەلەردە
ساھەلەرنى
ساھەلەرنىڭ
ساھەلەرگە
ساھەنى
ساھەنىڭ
ساھەگە
ساۋ
ساۋاب
ساۋابلىق
ساۋات
ساۋاتسىز
ساۋاتلىق
ساۋاتىنى
ساۋادى
ساۋادىنى
ساۋاق
ساۋاقداش
ساۋاقداشلىرى
ساۋاقدىشى
ساۋاقلار
ساۋاقلارنى
ساۋاپ
ساۋۇت
ساۋەن
ست
ستاتىستىكا
ستاتىستىكىلىق
ستالىن
ستالىننىڭ
ستانفورد
ستۇدىيسى
ستۇدىيىسى
ستەيىن
سرىلانكا
سس
سسىق
سلام
سلامي
سلامية
سلسلة
سلوۋاكىيە
سلوۋېنىيە
سنن
سوت
سوتتا
سوتسىي
سوتسىيال
سوتسىيالىزم
سوتسىيالىزىم
سوتسىيالىست
سوتسىيالىستلار
سوتسىيالىستىك
سوتقا
سوتكا
سوتنىڭ
سوتى
سوتچى
سوتچىلار
سودا
سودىدا
سودىسى
سودىسىدا
سودىسىغا
سودىسىنى
سودىسىنىڭ
سودىغا
سودىلىشىش
سودىنى
سودىنىڭ
سودىيىلەر
سودىيىلەرنى
سودىيىلەرنىڭ
سودىيە
سودىگىرى
سودىگەر
سودىگەرلىرى
سودىگەرلەر
سودىگەرلەردىن
سودىگەرنى
سوراش
سوراشقا
سوراق
سوراققا
سورالغان
سورالغاندا
سورايتتى
سورايدىغان
سورايدىكەن
سورايدۇ
سورايمىز
سورايمەن
سوراپ
سوراپتۇ
سوراۋاتىدۇ
سوربون
سورة
سورت
سورتلىرى
سورتلىرىنى
سورتى
سورتىنى
سورىدى
سورىدىم
سورىدۇق
سورىدۇم
سورىسا
سورىسام
سورىشىدۇ
سورىغان
سورىغاندا
سورىماي
سورۇدۇم
سورۇسام
سورۇن
سورۇندا
سورۇندىكى
سورۇندىن
سورۇنغا
سورۇنلار
سورۇنلاردا
سورۇنلارغا
سورۇنلىرى
سورۇنلىرىدا
سورۇنلىرىغا
سورۇننى
سورۇننىڭ
سورۇنى
سورۇنىدا
سورۇنىغا
سوزۇق
سوزۇلغان
سوزۇلما
سوزۇلۇپ
سوزۇپ
سوغا
سوغاق
سوغدى
سوغدىلار
سوغوق
سوغىگۈل
سوغۇق
سوغۇقتىن
سوغۇققا
سوغۇقلۇق
سوفت
سوفىيە
سوقا
سوقتى
سوقرات
سوققان
سوقما
سوقماق
سوقىسى
سوقىچاق
سوقۇش
سوقۇشتۇرۇش
سوقۇلغان
سوقۇلۇپ
سوقۇپ
سول
سولانغان
سولاپ
سولدىن
سولغا
سولچىل
سوم
سومالى
سوممىسى
سوممىسىنى
سوممىسىنىڭ
سوممىلىق
سوي
سويۇلغان
سويۇپ
سوپاخۇن
سوپى
سوپىزم
سوپىلار
سوپۇن
سوڭ
سوڭرە
سوڭغى
سوڭىغا
سوۋغا
سوۋغات
سوۋغىسى
سوۋىت
سوۋۇتۇلغان
سوۋۇغاندىن
سوۋېت
سوۋېتلەر
سى
سىبىر
سىبىرىيە
سىتاتىستىكا
سىتاتىسكىگا
سىتالىن
سىتالىننىڭ
سىتتە
سىتىۋېن
سىتۇدېنتلار
سىجاڭ
سىجىل
سىدام
سىددىق
سىدىق
سىدۇر
سىر
سىراجىدىن
سىرت
سىرتتا
سىرتتىن
سىرتقا
سىرتقى
سىرتى
سىرتىدا
سىرتىدىكى
سىرتىدىن
سىرتىغا
سىركە
سىرلار
سىرلىرىنى
سىرلىق
سىرنى
سىرى
سىرىت
سىرىتقا
سىرىتقى
سىرىسلار
سىرىسلىقلار
سىرىسلەر
سىرىق
سىرىنى
سىز
سىزدىكى
سىزدىن
سىزدە
سىزغان
سىزما
سىزمۇ
سىزنى
سىزنىڭ
سىزىش
سىزىق
سىزىقلار
سىزىقلىرى
سىزىقلىق
سىزىقنى
سىزىقنىڭ
سىزىقى
سىزىقىدىن
سىزىقىنى
سىزىقىنىڭ
سىزىقچە
سىزىلغان
سىزىلىدۇ
سىزىپ
سىزچە
سىزگە
سىستىما
سىستىمىسى
سىستىمىسىنىڭ
سىستىمىنىڭ
سىستېما
سىستېمىسى
سىستېمىسىدا
سىستېمىسىدىكى
سىستېمىسىدىن
سىستېمىسىغا
سىستېمىسىنى
سىستېمىسىنىڭ
سىستېمىغا
سىستېمىلىرى
سىستېمىلىرىنى
سىستېمىلىق
سىستېمىنى
سىستېمىنىڭ
سىسىتما
سىسىتمىسى
سىسىتمىنىڭ
سىسىتىمىسى
سىغمايدىغان
سىغىدۇ
سىغىمى
سىغىمچانلىقى
سىقىپ
سىكتاي
سىل
سىلاش
سىلام
سىلاپ
سىلاۋىيان
سىلاۋيان
سىلى
سىلىش
سىلىشتىن
سىلىق
سىلىكون
سىلىندىر
سىلىنغان
سىلىپ
سىلەر
سىلەردىن
سىلەردە
سىلەرمۇ
سىلەرنى
سىلەرنىڭ
سىلەرگە
سىم
سىماب
سىماسى
سىمسىز
سىملىق
سىممىتىرىك
سىممېترىك
سىمون
سىمى
سىمىت
سىمۋول
سىمۋوللۇق
سىمۋولى
سىن
سىنا
سىناش
سىناق
سىناقتىن
سىنان
سىنانىڭ
سىناي
سىنايدىغان
سىناپ
سىنبەلگىسى
سىنتاكسىسلىق
سىنتەبىر
سىند
سىنك
سىنى
سىنىقى
سىنىك
سىنىپ
سىنىپتا
سىنىپتىكى
سىنىپتىن
سىنىپقا
سىنىپلار
سىنىپلىرى
سىنىپلىق
سىنىپنى
سىنىپنىڭ
سىنىپى
سىنىپىدا
سىنىپىدىن
سىنىپىغا
سىنىپىنى
سىنىپىنىڭ
سىنىپىي
سىنىڭ
سىني
سىنگاپور
سىنۇس
سىي
سىيا
سىيادان
سىياسى
سىياسىتى
سىياسىتىدىن
سىياسىتىدە
سىياسىتىنى
سىياسىتىنىڭ
سىياسىتىگە
سىياسىي
سىياسىيغا
سىياسىيون
سىياسىيونلار
سىياسەت
سىياسەتتە
سىياسەتكە
سىياسەتلىرى
سىياسەتلىرىنى
سىياسەتلىرىنىڭ
سىياسەتلەر
سىياسەتلەرنى
سىياسەتلەرنىڭ
سىياسەتنى
سىياسەتنىڭ
سىياسەتچى
سىياسەتچىلەر
سىياھ
سىيرىلاڭغۇ
سىيرىلما
سىيىت
سىيىش
سىيىپ
سىيەر
سىيەك
سىپارى
سىپايە
سىپتا
سىپرۇس
سىپرۇسنىڭ
سىپىرلىق
سىچۇەن
سىچۈەن
سىڭدۈرمە
سىڭدۈرگەن
سىڭدۈرۈش
سىڭدۈرۈلگەن
سىڭدۈرۈپ
سىڭلىسى
سىڭلىم
سىڭلىمىز
سىڭىشىپ
سىڭىل
سىڭىپ
سىڭگاپور
سىڭگىم
سىڭگەن
سىگنال
سىگنالى
سىگىنال
سىگىنالى
سىھاھ
سۆرەپ
سۆز
سۆزدىن
سۆزدۇر
سۆزدە
سۆزلىدى
سۆزلىرى
سۆزلىرىدىن
سۆزلىرىنى
سۆزلىرىنىڭ
سۆزلىرىگە
سۆزلىسەم
سۆزلىشىدىغان
سۆزلىشىدۇ
سۆزلىشىش
سۆزلىشىلىدۇ
سۆزلىشىپ
سۆزلىنىدۇ
سۆزلىنىۋاتقان
سۆزلىگۈچى
سۆزلىگۈچىنىڭ
سۆزلىگەن
سۆزلۈك
سۆزلۈكلەر
سۆزلۈكلەرنى
سۆزلۈكنى
سۆزلۈكى
سۆزلە
سۆزلەر
سۆزلەردىكى
سۆزلەردىن
سۆزلەردە
سۆزلەرنى
سۆزلەرنىڭ
سۆزلەرگە
سۆزلەش
سۆزلەشكە
سۆزلەشنى
سۆزلەنگەن
سۆزلەيتتى
سۆزلەيدىغان
سۆزلەيدۇ
سۆزلەپ
سۆزمۇ
سۆزنى
سۆزنىڭ
سۆزى
سۆزىدىن
سۆزىدە
سۆزىمىزنىڭ
سۆزىمۇ
سۆزىنى
سۆزىنىڭ
سۆزىگە
سۆزگە
سۆسۈن
سۆك
سۆيىدىغان
سۆيىدۇ
سۆيىمەن
سۆيگۈ
سۆيگۈسى
سۆيگۈم
سۆيگەن
سۆيۈش
سۆيۈملۈك
سۆيۈنۈپ
سۆيۈپ
سۆيەر
سۆڭىكى
سۆڭەك
سۆڭەكلىك
سۆڭەكنى
سۆگەت
سۆھبىتى
سۆھبەت
سۆھبەتتە
سۆھبەتكە
سۆھبەتلەردە
سۆھبەتنى
سۆھبەتنىڭ
سۇ
سۇبتروپىك
سۇبكىي
سۇبيېكتىپ
سۇتۇق
سۇجى
سۇجۇ
سۇدا
سۇدان
سۇدىن
سۇدەك
سۇر
سۇرىسى
سۇرىيە
سۇري
سۇرگەن
سۇرە
سۇرەدە
سۇرەسى
سۇرەلەر
سۇزۇق
سۇس
سۇسلاشتۇرۇپ
سۇسلىشىپ
سۇسلۇق
سۇغا
سۇغىرىش
سۇغىگۈل
سۇغۇر
سۇغۇرتا
سۇغۇرتىسى
سۇفيان
سۇقۇترى
سۇلار
سۇلارنى
سۇلالسى
سۇلالىسى
سۇلالىسىدىن
سۇلالىسىغا
سۇلالىسىمۇ
سۇلالىسىنى
سۇلالىسىنىڭ
سۇلالىسىگە
سۇلالىلىرى
سۇلالىلەر
سۇلالىنىڭ
سۇلالە
سۇلايمان
سۇلايماننىڭ
سۇلتان
سۇلتانلىقى
سۇلتانلىقىنىڭ
سۇلتاننىڭ
سۇلتانى
سۇلى
سۇلىرى
سۇلياۋ
سۇلھ
سۇلۇس
سۇلۇق
سۇلەيم
سۇلەيمنىڭ
سۇمبۇل
سۇمۇرغ
سۇمېر
سۇمېرلار
سۇمېرلارنىڭ
سۇن
سۇناي
سۇنبۇلە
سۇندى
سۇندۇرۇش
سۇندۇرۇپ
سۇنسا
سۇنغان
سۇننىي
سۇنى
سۇنىدۇ
سۇنىڭ
سۇني
سۇنۇش
سۇنۇشى
سۇنۇق
سۇنۇلغان
سۇنۇپ
سۇنەن
سۇنەنى
سۇي
سۇيى
سۇيىي
سۇيۇتىي
سۇيۇرغال
سۇيۇرغاللىق
سۇيۇق
سۇيۇقلۇق
سۇيۇقلۇقى
سۇيۇقي
سۇپا
سۇپىتى
سۇپىتىدە
سۇپىسى
سۇپىسىدىن
سۇپىنىڭ
سۇپۇپ
سۇچىلىق
سۇڧيان
سۇڭ
سۇڭپىياز
سۇڭپىيازنى
سۇۋەيىش
سۈبھى
سۈت
سۈتتىن
سۈتلۈك
سۈتنى
سۈتى
سۈر
سۈرتۈپ
سۈردى
سۈركىلىش
سۈركەپ
سۈرلۈك
سۈرمە
سۈرمەكتە
سۈرىتى
سۈرىتىنى
سۈرىدىغان
سۈرىدۇ
سۈرىسى
سۈرىسىنىڭ
سۈرىنىڭ
سۈرىيە
سۈرىيەدە
سۈرىيەنىڭ
سۈري
سۈرگۈن
سۈرگۈندى
سۈرگۈندە
سۈرگە
سۈرگەن
سۈرۈش
سۈرۈشتۈرۈش
سۈرۈشتۈرۈشكە
سۈرۈشتۈرۈلىدۇ
سۈرۈشتۈرۈپ
سۈرۈشتە
سۈرۈشكە
سۈرۈشنى
سۈرۈك
سۈرۈكى
سۈرۈكىنى
سۈرۈلگەن
سۈرۈلۈپ
سۈرۈپ
سۈرە
سۈرەت
سۈرەتتە
سۈرەتكە
سۈرەتلىرى
سۈرەتلىك
سۈرەتلەر
سۈرەتلەپ
سۈرەتنى
سۈرەن
سۈزگۈچ
سۈزۈش
سۈزۈك
سۈزۈپ
سۈزۈۋېتىپ
سۈكۈت
سۈكۈتتە
سۈلھى
سۈلەيسۈن
سۈمۈرگۈچ
سۈمۈرۈش
سۈمۈرۈپ
سۈن
سۈننى
سۈننىتى
سۈننىي
سۈننەت
سۈننەتكە
سۈني
سۈنەن
سۈنەنۇ
سۈي
سۈيدۈك
سۈيدۈكتىكى
سۈيلەپ
سۈينامە
سۈيى
سۈيىدىن
سۈيىدە
سۈيىنى
سۈيىنىڭ
سۈيىگە
سۈيي
سۈپتىدە
سۈپىتدە
سۈپىتى
سۈپىتىدىكى
سۈپىتىدە
سۈپىتىم
سۈپىتىمىز
سۈپىتىنى
سۈپىتىنىڭ
سۈپىتىگە
سۈپۈرگە
سۈپۈرۈش
سۈپۈرۈپ
سۈپەت
سۈپەتسىز
سۈپەتكە
سۈپەتلىرى
سۈپەتلىك
سۈپەتلىگەن
سۈپەتلەر
سۈپەتنى
سېتىش
سېتىشتىن
سېتىشقا
سېتىشنى
سېتىق
سېتىلغان
سېتىلىدۇ
سېتىلىش
سېتىلىپ
سېتىلىۋاتقان
سېتىپ
سېتىۋالدى
سېتىۋالغان
سېتىۋالغىلى
سېتىۋالغۇچى
سېتىۋالماقچى
سېتىۋالىدىغان
سېتىۋالىدۇ
سېتىۋېلىش
سېتىۋېلىشقا
سېتىۋېلىپ
سېخىي
سېخىيلىق
سېربلار
سېربىيە
سېرىق
سېرىقماي
سېرىقى
سېزىش
سېزىم
سېزىمى
سېزىمچانلىقى
سېزىمچانلىقىنى
سېزىي
سېزىپ
سېسترا
سېستمىسى
سېستىما
سېستىمىسنىڭ
سېستىمىسى
سېستىمىسىدىكى
سېستىمىسىدۇر
سېستىمىسىغا
سېستىمىسىنى
سېستىمىسىنىڭ
سېستىمىلىق
سېسىق
سېغىز
سېغىنىش
سېغىنىپ
سېكرىتارى
سېكرېتارى
سېكىرتارى
سېكۇنت
سېكۇنتىغا
سېلسىيە
سېلىش
سېلىشتا
سېلىشتىن
سېلىشتۇرغاندا
سېلىشتۇرغىلى
سېلىشتۇرما
سېلىشتۇرۇش
سېلىشتۇرۇپ
سېلىشقا
سېلىشنى
سېلىشى
سېلىشىغا
سېلىق
سېلىندى
سېلىنسا
سېلىنغان
سېلىنما
سېلىنىدىغان
سېلىنىدۇ
سېلىنىشى
سېلىنىپ
سېلىنگا
سېلىپ
سېلىۋاتقان
سېمانتېك
سېممېتىرىك
سېمونت
سېمىز
سېمىزلىك
سېن
سېنت
سېنتەبر
سېنتەبىر
سېنتەبىردىكى
سېنتەبىردە
سېنى
سېنىڭ
سېنېگال
سېي
سېيىت
سېپى
سېپىدىن
سېپىدە
سېپىل
سېپىلدىن
سېپىلغا
سېپىلنى
سېپىلنىڭ
سېپىلى
سېپىلىنى
سېپىلىنىڭ
سېپىپ
سېپىگە
سېگولەن
سېھرى
سېھرىي
سېھىر
سېھىرلىك
سېھىرگەرلىك
سېۋان
سېۋىن
سە
سەبرى
سەبرە
سەبىي
سەبىيلەر
سەبەب
سەبەبى
سەت
سەجدە
سەددىچىن
سەدىقە
سەر
سەرخىل
سەرخىللىرى
سەرخىللىرىنىڭ
سەردارى
سەرسان
سەركىسى
سەركەردىسى
سەركەردە
سەرمايىسى
سەرمايە
سەرىپ
سەرپ
سەرپىياتى
سەرگۈزەشتىسى
سەرگۈزەشتىلىرى
سەرگەردان
سەرەڭگە
سەزسە
سەزگۇر
سەزگۈ
سەزگۈر
سەزگۈرلۈك
سەزگۈرلۈكى
سەزگۈسى
سەزگۈچى
سەزگەن
سەفىييە
سەفەر
سەكتىسىنىڭ
سەكرەش
سەكرەپ
سەكسەن
سەككاكى
سەككىز
سەككىزىنچى
سەل
سەلبى
سەلبىي
سەلتەنەت
سەلتەنەتلىك
سەلجۇق
سەلجۇقلار
سەلجۇقىيلار
سەللە
سەللەللاھۇ
سەلىم
سەلىپ
سەلچۇق
سەلەمە
سەلەي
سەمى
سەمىمىي
سەمىمىيلىك
سەمىمىيەت
سەمىگە
سەمۇد
سەمەت
سەمەدىنىڭ
سەمەدىي
سەمەرقەنت
سەمەرقەند
سەمەرقەندتە
سەمەن
سەن
سەندىن
سەندە
سەندەل
سەنسىز
سەنشى
سەنمۇ
سەني
سەنگۈن
سەنەت
سەنەد
سەنەدى
سەنەم
سەي
سەيدۇللا
سەيشەنبە
سەيلىسى
سەيلە
سەينا
سەيىد
سەيىف
سەييارىلەر
سەييارىلەرنىڭ
سەييارە
سەيياھ
سەييىد
سەيپىدىن
سەيڧىددىن
سەپ
سەپتىن
سەپتە
سەپداشلىرى
سەپرا
سەپرانىڭ
سەپكە
سەپلەنگەن
سەپنىڭ
سەپىرى
سەپىرىدە
سەپىرىنى
سەپىرىگە
سەپەر
سەپەردە
سەپەرگە
سەپەرۋەر
سەپەرۋەرلىك
سەڧەر
سەگەك
سەھرا
سەھرايى
سەھل
سەھنىدە
سەھنىسى
سەھنىسىدىن
سەھنىسىدە
سەھنىسىگە
سەھنىلىرىدە
سەھنىلەردە
سەھنىگە
سەھنە
سەھىد
سەھىيە
سەھىپىسى
سەھىپىسىدە
سەھىپىلىرى
سەھىپىلەر
سەھىپە
سەھىھ
سەھىھۇ
سەھىھۇل
سەھىھۇلبۇخارى
سەھىھەين
سەھيە
سەھەر
سەھەردە
سەۋدا
سەۋدالىق
سەۋدە
سەۋر
سەۋرى
سەۋرچان
سەۋزىنى
سەۋزە
سەۋىيىدىكى
سەۋىيىدە
سەۋىيىسى
سەۋىيىسىنى
سەۋىيىسىنىڭ
سەۋىيىسىگە
سەۋىيىلىك
سەۋىيىگە
سەۋىيە
سەۋىيەدىكى
سەۋىيەدە
سەۋىيەسى
سەۋىيەسىنى
سەۋىيەسىنىڭ
سەۋىيەسىگە
سەۋىيەلىك
سەۋىيەگە
سەۋەب
سەۋەبتىن
سەۋەبسىز
سەۋەبلىرى
سەۋەبلىرىنى
سەۋەبلىرىنىڭ
سەۋەبلىك
سەۋەبلەر
سەۋەبلەردىن
سەۋەبلەرنى
سەۋەبلەرنىڭ
سەۋەبنى
سەۋەبى
سەۋەبىدىن
سەۋەبىنى
سەۋەبچى
سەۋەنلىك
سەۋەپ
سەۋەپتىن
سەۋەپلىك
سەۋەپلەر
سەۋەپچى
ش
شا
شاتلىق
شاجۇ
شاخ
شاخار
شاخلىرى
شاخلىق
شاد
شادلىق
شادلىققا
شار
شاراب
شاراي
شاردا
شارسىمان
شارقىراتمىسى
شارى
شارىدا
شارىدىكى
شارىغا
شارىنى
شارىنىڭ
شارچە
شاش
شافىي
شاقۇر
شاكال
شاكىر
شاكىلات
شال
شالاڭ
شالنىڭ
شام
شامال
شامالباغ
شامالدا
شامالدىتىپ
شاماللار
شامالنىڭ
شامان
شامدا
شامغا
شامنى
شامىل
شامىلى
شامەخسۇت
شامەخسۈت
شان
شانلىق
شاني
شانۇ
شاي
شايار
شايبانى
شايى
شاپاق
شاپاي
شاپتۇل
شاڭ
شاڭخەي
شاڭخەيدە
شاڭخەيگە
شاگىرت
شاگىرتلىرى
شاگىرتلىرىدىن
شاگىرتى
شاگىرىتلىرى
شاھ
شاھادەت
شاھانە
شاھتەررە
شاھزادىسى
شاھزادە
شاھلار
شاھلىق
شاھمات
شاھنامە
شاھى
شاھىت
شاھىتى
شاھىد
شاھىدى
شاۋارما
شاۋشىڭ
شاۋقۇن
شاۋقۇنىنى
شاۋۋۇ
شتابى
شتاتلىرى
شتاتى
شتاتىدىكى
شراپنېل
شرح
شغال
شـ
شنجاڭ
شهر
شوتا
شوتلاندىيە
شوخ
شور
شوراش
شورباغ
شورغا
شورلۇق
شورپا
شورپىسى
شورپىسىنى
شورپىغا
شورپىنى
شوغۇللانغان
شوغۇللىنىدۇ
شولان
شولتا
شولىسى
شوي
شويلا
شويلىسى
شوپۇر
شوپۇرلۇق
شى
شىبە
شىبەلەر
شىتاب
شىتابى
شىتات
شىتاتتا
شىتاتلىرى
شىتاتلىرىنىڭ
شىتاتلىق
شىتاتى
شىتاتىدا
شىتاتىدىكى
شىتاتىغا
شىتاتىنىڭ
شىتۇڭشىجۇ
شىجاي
شىخۇ
شىخەنزە
شىددەت
شىددەتلىك
شىر
شىرازى
شىردەك
شىركىت
شىركىتنىڭ
شىركىتى
شىركىتىدىكى
شىركىتىدىن
شىركىتىدە
شىركىتىمىز
شىركىتىمىزنىڭ
شىركىتىنى
شىركىتىنىڭ
شىركىتىگە
شىركەت
شىركەتتىكى
شىركەتتىن
شىركەتتە
شىركەتكە
شىركەتلىرى
شىركەتلىرىنى
شىركەتلىرىنىڭ
شىركەتلىرىگە
شىركەتلەر
شىركەتلەرنى
شىركەتلەرنىڭ
شىركەتلەرگە
شىركەتنى
شىركەتنىڭ
شىرنىسى
شىرنىلىك
شىرنە
شىرىسى
شىرىف
شىرىك
شىرىن
شىرىگە
شىرە
شىرەگە
شىزاڭ
شىزۇڭ
شىس
شىسى
شىسىنىڭ
شىسۇقۇتى
شىسەي
شىسەينى
شىسەينىڭ
شىفىرلىق
شىك
شىكارغا
شىكايەت
شىكلار
شىللىق
شىلىمشىق
شىمال
شىمالدا
شىمالدىكى
شىمالدىن
شىمالغا
شىمالغىچە
شىمالنى
شىمالنىڭ
شىمالى
شىمالىدا
شىمالىدىكى
شىمالىدىن
شىمالىغا
شىمالىغىچە
شىمالىنى
شىمالىي
شىمىن
شىن
شىنجاڭ
شىنجاڭدا
شىنجاڭدىكى
شىنجاڭدىن
شىنجاڭغا
شىنجاڭلىق
شىنجاڭنى
شىنجاڭنىڭ
شىنخۇا
شىنخەي
شىنىڭ
شىي
شىياڭگاڭ
شىپا
شىپالىق
شىپايى
شىڭ
شىڭشىسەي
شىھابۇددىن
شىۋتسىيە
شىۋىت
شىۋىتسارىيە
شىۋىتسىيە
شىۋىسى
شىۋىسىنى
شىۋىسىنىڭ
شىۋىلىرى
شىۋېتسارىيە
شىۋېتسىيە
شىۋە
شي
شياڭگاڭ
شياۋ
شياۋپىڭ
شۆبىسى
شۆبىسىدە
شۆبىسىنىڭ
شۆبە
شۆپۈكلۈك
شۆپۈكى
شۆھرىتى
شۆھرىتىنى
شۆھرەت
شۆھرەتكە
شۆھرەتلىك
شۇ
شۇجى
شۇجىسى
شۇجىچۇسىنىڭ
شۇدۇر
شۇرا
شۇرېن
شۇغۇللاندى
شۇغۇللانسا
شۇغۇللانغان
شۇغۇللانماقتا
شۇغۇللىنىدىغان
شۇغۇللىنىدىغانلار
شۇغۇللىنىدۇ
شۇغۇللىنىش
شۇغۇللىنىشقا
شۇغۇللىنىشىغا
شۇغۇللىنىپ
شۇغۇللىنىۋاتقان
شۇغۇللىنىۋاتىدۇ
شۇكى
شۇلار
شۇلارغا
شۇلارنى
شۇلارنىڭ
شۇم
شۇمبا
شۇندا
شۇنداق
شۇنداقتىمۇ
شۇنداقكەن
شۇنداقلا
شۇنداقمۇ
شۇندىلا
شۇندىن
شۇنى
شۇنىسى
شۇنىمۇ
شۇنىڭ
شۇنىڭدىن
شۇنىڭدەك
شۇنىڭغا
شۇنچىلىك
شۇنچىۋالا
شۇنچە
شۇي
شۇيىلى
شۇچاغدا
شۇڭا
شۇڭغۇپ
شۇڭقار
شۇڭلاشقا
شۈ
شۈبھىسىز
شۈبھىسىزكى
شۈكرى
شۈكۈر
شۈي
شۋېتسارىيە
شۋېتسىيە
شې
شېخى
شېركىتى
شېركەت
شېرىك
شېرىكسىز
شېرىكى
شېرىن
شېرىپ
شېكەر
شېكەرنى
شېن
شېنجېن
شېنياڭ
شېنگېن
شېي
شېڭ
شېڭزۇ
شېھىت
شېھىد
شېۋرون
شېۋىسى
شېۋىسىدە
شېۋە
شەبنەم
شەجەرىسى
شەخس
شەخسكە
شەخسلەر
شەخسلەرتۈر
شەخسلەردىن
شەخسلەرنى
شەخسلەرنىڭ
شەخسلەرگە
شەخسنى
شەخسنىڭ
شەخسى
شەخسىنىڭ
شەخسىي
شەخسىيەتچى
شەخسىيەتچىلىك
شەخسەن
شەخىس
شەخىسكە
شەخىسلەر
شەخىسلەرنى
شەخىسلەرنىڭ
شەخىسنىڭ
شەر
شەربىتى
شەربەت
شەرت
شەرتسىز
شەرتكە
شەرتلىرى
شەرتلىك
شەرتلەر
شەرتلەرنى
شەرتلەرنىڭ
شەرتلەرگە
شەرتنامىسى
شەرتنامىلەردە
شەرتنامىلەرنى
شەرتنامىگە
شەرتنامە
شەرتنى
شەرتى
شەرتىنى
شەرتىگە
شەررىدىن
شەرق
شەرقتىكى
شەرقتىن
شەرقتە
شەرقشۇناس
شەرقشۇناسلىق
شەرققە
شەرقنىڭ
شەرقى
شەرقىدىكى
شەرقىدىن
شەرقىدە
شەرقىي
شەرقىگە
شەرقي
شەرىت
شەرىف
شەرىفتە
شەرىق
شەرىقتە
شەرىققە
شەرىقى
شەرىي
شەرىپى
شەرىپىنى
شەرىپىگە
شەرىڧ
شەري
شەرھ
شەرھلەش
شەرھلەپ
شەرھى
شەرھىلەپ
شەرەپ
شەرەپكە
شەرەپلىرى
شەرەپلىك
شەرەپلەر
شەرەپلەرگە
شەك
شەكسىز
شەكسىزكى
شەكلى
شەكلىدىكى
شەكلىدىن
شەكلىدۇر
شەكلىدە
شەكلىنى
شەكلىنىڭ
شەكلىگە
شەكىل
شەكىلدىكى
شەكىلدە
شەكىللىرى
شەكىللىرىنى
شەكىللىرىنىڭ
شەكىللىرىگە
شەكىللىك
شەكىللىنىدىغان
شەكىللىنىدۇ
شەكىللىنىش
شەكىللىنىشكە
شەكىللىنىشى
شەكىللىنىشىدە
شەكىللىنىشىنى
شەكىللىنىشىگە
شەكىللىنىپ
شەكىللەر
شەكىللەردە
شەكىللەرنى
شەكىللەرگە
شەكىللەندى
شەكىللەندۇرگەن
شەكىللەندۈردى
شەكىللەندۈرىدىغان
شەكىللەندۈرىدۇ
شەكىللەندۈرگەن
شەكىللەندۈرگەنلىرى
شەكىللەندۈرگەنلەر
شەكىللەندۈرگەنلەرنىڭ
شەكىللەندۈرۈش
شەكىللەندۈرۈپ
شەكىللەنگەن
شەكىللەنگەندىن
شەكىلى
شەكىلىدە
شەكىلگە
شەمسى
شەمسىددىن
شەمسىدىن
شەمسىيە
شەمسۇددىن
شەمشىيە
شەنبە
شەندۇڭ
شەنشى
شەنشىنىڭ
شەي
شەيبە
شەيتان
شەيتاننىڭ
شەيخ
شەيخلىق
شەيخى
شەيخۇل
شەيخۇلي
شەيدا
شەيىخ
شەيي
شەپقەت
شەپقەتسىز
شەپقەتلىك
شەپكە
شەپەرەڭ
شەپەق
شەھرى
شەھرىدىكى
شەھرىدىن
شەھرىدە
شەھرىنى
شەھرىنىڭ
شەھرىگە
شەھىد
شەھىدى
شەھىدە
شەھىر
شەھىرى
شەھىرىدىكى
شەھىرىدىن
شەھىرىدە
شەھىرىنى
شەھىرىنىڭ
شەھىرىگە
شەھيار
شەھۋانىي
شەھەر
شەھەردىكى
شەھەردىن
شەھەردۇر
شەھەردە
شەھەرلىرى
شەھەرلىرىدىكى
شەھەرلىرىدە
شەھەرلىرىنى
شەھەرلىرىگە
شەھەرلىشىش
شەھەرلىك
شەھەرلەر
شەھەرلەردىكى
شەھەرلەردىن
شەھەرلەردە
شەھەرلەرنى
شەھەرلەرنىڭ
شەھەرلەرگە
شەھەرنى
شەھەرنىڭ
شەھەرى
شەھەرچىسى
شەھەرگە
شەۋقى
شەۋكەت
ص
صحيح
صل
صلاة
صلى
صوات
صول
صي
ض
ضعيف
ط
طبقات
ظ
ع
عام
عبد
عدد
عشر
عضاء
علام
علم
علوم
على
عليه
عن
غ
غا
غار
غارايىپ
غارى
غارىقۇن
غاز
غازات
غازاتقا
غازاتلارغا
غازالى
غازالىنىڭ
غازى
غازىتى
غازىتىدا
غازىنىڭ
غاسپىرالى
غالتەك
غالدان
غالداننىڭ
غالىب
غالىبىيەت
غالىپ
غالچەك
غان
غايىب
غايىبانە
غايىسى
غايىسىنى
غايىلىرى
غايىلىك
غايىلەر
غايىنى
غايىنىڭ
غايىپ
غايىڭىز
غايىڭىزنى
غايىگە
غايىۋى
غايە
غايەت
غايەم
غايەمنى
غوجا
غوجام
غورا
غورۇچۆل
غوزا
غول
غولام
غوللۇق
غولى
غولىنىڭ
غوپۇر
غىجەك
غىدىقلاش
غىدىقلاپ
غىدىقلىغۇچى
غىرىپ
غىزا
غىل
غىياسىدىن
غىچە
غۇرۇر
غۇرۇرى
غۇرۇرىنى
غۇز
غۇلام
غۇلاچ
غۇلجا
غۇلجىدا
غۇلجىدىكى
غۇلجىغا
غۇلجىلىق
غۇلغۇلا
غۇنچە
غۇنچەم
غۇژمەك
غۇۋا
غېرىب
غېرىپ
غېمىنى
غېنى
غېنىنىڭ
غەرب
غەربتىكى
غەربتىن
غەربتە
غەربكىچە
غەربكە
غەربلىك
غەربلىكلەر
غەربنى
غەربنىڭ
غەربى
غەربىدىكى
غەربىدە
غەربىي
غەربىگىچە
غەربىگە
غەربي
غەرق
غەرىب
غەرىبى
غەرىبىي
غەرىزىدە
غەرىپ
غەرپ
غەرپتىكى
غەرپتە
غەرپكە
غەرپنىڭ
غەرپچە
غەرەز
غەرەزلىك
غەززە
غەزنەۋىي
غەزنەۋىيلەر
غەزىنە
غەزىپى
غەزىپىنى
غەزەل
غەزەللىرى
غەزەللەر
غەزەپ
غەزەپكە
غەزەپلىنىپ
غەزەپلەنگەن
غەلبىسى
غەلبىلىك
غەلبىگە
غەلبە
غەلىبىسى
غەلىبىسىنى
غەلىبىلىك
غەلىبىگە
غەلىبە
غەلىتە
غەلۋىر
غەم
غەمكىن
غەمگە
غەنى
غەنىمەت
غەنىيمەت
غەيرى
غەيرىتى
غەيرىي
غەيرەت
غەيرەتجان
غەيۋەت
غەپلەت
ـ
ــ
ـــ
ــــ
ـــــ
ــۇ
ف
فابرىكىسى
فاتىخ
فاتىمە
فاتىمەنىڭ
فاتىھ
فار
فاراب
فارابى
فارابىنىڭ
فارخان
فارس
فارسچە
فارماكولوگىيلىك
فارماكولوگىيىلىك
فارىسچە
فازا
فازىل
فاشىست
فاشىسىت
فاكسىمىلى
فاكولتىت
فاكولتىتى
فاكۇلتىتى
فاكۇلتىتىدا
فاكۇلتىتىغا
فاكۇلتىتىنىڭ
فاكۇلتېت
فاكۇلتېتنىڭ
فاكۇلتېتى
فاكۇلتېتىدا
فاكۇلتېتىغا
فاكۇلتېتىنى
فاكۇلتېتىنىڭ
فامىلىسى
فامىلىسىنى
فامىلە
فانتازىيىلىك
فاي
فرانسىسكو
فرانسىيىلىك
فرانسىيىنىڭ
فرانسىيىگە
فرانسىيە
فرانسىيەدىكى
فرانسىيەدە
فرانسىيەلىك
فرانسىيەنىڭ
فرانسىيەگە
فرانسۇز
فرانسۇزلار
فرانسۇزچە
فرانك
فرانكفۇرت
فرانكلىن
فوتو
فوتوسىنتېز
فورد
فورمات
فورمىسى
فورمىسىدا
فورمۇلا
فورمۇلاسى
فورمۇلالار
فوسفور
فولك
فولكلور
فونت
فوند
فوندنىڭ
فوندى
فوندىدىكى
فوندىغا
فوندىنى
فوندىنىڭ
فونولوگىيە
فونېتىك
فونېتىكا
فونېتىكىلىق
فونېما
فى
فىرانسىيە
فىرانسىيەدىكى
فىرانسىيەدە
فىرانسىيەلىك
فىرانسىيەنىڭ
فىرانسىيەگە
فىرانسۇز
فىرانسۇزچە
فىراپېي
فىري
فىزىكا
فىزىكىدا
فىزىكىسى
فىزىكىلىق
فىزىي
فىقىھ
فىقھ
فىقھى
فىقھىسىنى
فىقھىشۇناس
فىقھىي
فىقھە
فىل
فىلوتى
فىلولوگىيە
فىلىم
فىلىمدا
فىلىمدىكى
فىلىمدە
فىلىملىرى
فىلىملەر
فىلىملەردە
فىلىملەرنى
فىلىملەرنىڭ
فىلىمنى
فىلىمنىڭ
فىلىمى
فىلىمىدە
فىلىمگە
فىلىپ
فىلىپپىن
فىنلاندىيە
فىي
في
فۇجيەن
فۇدەن
فۇر
فۇرقەت
فۇكاڭ
فۇنكسىيە
فۇنكسىيەسى
فۇنكىسىيسى
فۇنكىسىيىسىنى
فۇنكىسىيەسى
فۇنكىسيسى
فۇي
فېدېراتسىيىسى
فېدېراتسىيە
فېدېراتىپ
فېرمىسى
فېستىۋالى
فېستىۋالىدا
فېي
فېڭ
فېۋرال
فېۋرالدا
فېۋرالدىكى
فەتتاھ
فەتىھ
فەتھى
فەر
فەرغانە
فەقىھ
فەي
فەھد
ق
قا
قابا
قابىل
قابىلىيىتى
قابىلىيىتىنى
قابىلىيىتىنىڭ
قابىلىيىتىگە
قابىلىيەت
قابىلىيەتكە
قابىلىيەتلىك
قات
قاتار
قاتاردا
قاتاردىكى
قاتارغا
قاتارلصق
قاتارلىشىپ
قاتارلىق
قاتارلىقلار
قاتارلىقلاردا
قاتارلىقلاردىن
قاتارلىقلاردۇر
قاتارلىقلارغا
قاتارلىقلارمۇ
قاتارلىقلارنى
قاتارلىقلارنىمۇ
قاتارلىقلارنىڭ
قاتارىدا
قاتارىدىن
قاتارىغا
قاتالىق
قاتتى
قاتتىق
قاتتىقراق
قاتقان
قاتكۆك
قاتكۆكنى
قاتلام
قاتلامدىكى
قاتلاملار
قاتلاملىرى
قاتلاملىق
قاتلاپ
قاتلىما
قاتلىمى
قاتلىمىدا
قاتلىمىغا
قاتلىمىنى
قاتلىمىنىڭ
قاتما
قاتمۇ
قاتمۇقات
قاتناش
قاتناشتى
قاتناشتىم
قاتناشسا
قاتناشقان
قاتناشقاندىن
قاتناشقانلار
قاتناشقانلىقى
قاتناشقۇچى
قاتناشقۇچىلار
قاتناشقۇچىلارغا
قاتناشقۇچىلارنىڭ
قاتناشمىغان
قاتناشنى
قاتنايدىغان
قاتنىشى
قاتنىشىدىغان
قاتنىشىدۇ
قاتنىشىش
قاتنىشىشقا
قاتنىشىشنى
قاتنىشىشى
قاتنىشىشىغا
قاتنىشىشىنى
قاتنىشىپ
قاتىدۇ
قاتىل
قاتىللىق
قاتىلى
قاتۇرۇش
قاتۇرۇپ
قاتۇن
قادا
قادالغان
قادىر
قادىرخان
قادىرى
قار
قارا
قاراباغ
قاراتتى
قاراتقان
قاراتما
قاراخان
قاراخانلار
قاراخانىلار
قاراخانىلارنىڭ
قاراخانىيلار
قاراخانىيلارنىڭ
قارادۆڭ
قارار
قاراردا
قاراردىن
قارارغا
قارارلار
قارارلارنى
قارارلىرى
قارارلىرىنى
قارارلىق
قارارنى
قارارى
قارارىغا
قارارىنى
قاراساي
قاراسۇ
قاراش
قاراشتا
قاراشتىكى
قاراشقا
قاراشقىمۇ
قاراشلار
قاراشلاردىن
قاراشلارغا
قاراشلارنى
قاراشلارنىڭ
قاراشلىرى
قاراشلىرىدىن
قاراشلىرىغا
قاراشلىرىنى
قاراشلىرىنىڭ
قاراشلىق
قاراشنى
قاراشنىڭ
قاراشەھەر
قاراقاش
قاراقچى
قاراقۇرۇم
قارالدى
قارالسا
قارالسۇن
قارالغان
قارالماقتا
قارام
قاراماي
قارامتۇل
قارايتتى
قارايدىغان
قارايدىكەن
قارايدۇ
قارايسىز
قارايمىز
قارايمەن
قاراپ
قاراپلا
قاراچاي
قاراڭ
قاراڭغۇ
قاراڭغۇلۇق
قاراڭلار
قاراۋۇل
قاراۋۇللۇق
قارشى
قارشىسىدا
قارشىلىق
قارشىلىققا
قارشىلىقنىڭ
قارشىلىقى
قارشىلىقىغا
قارشىلىقىنى
قارغا
قارغۇلارچە
قارلار
قارلىغاچ
قارلىق
قارلۇق
قارلۇقلار
قارلۇقلارنىڭ
قارلەيلىسى
قارمىقىدا
قارمىقىدىكى
قارمۇ
قارنى
قارى
قارىتا
قارىتىلغان
قارىتىپ
قارىدى
قارىدىم
قارىسا
قارىساق
قارىسام
قارىسىڭىز
قارىشى
قارىشىدا
قارىشىغا
قارىشىنى
قارىشىنىڭ
قارىشىپ
قارىشىچە
قارىغا
قارىغان
قارىغاندا
قارىغاي
قارىغىلى
قارىغىنىمىزدا
قارىغۇ
قارىغۇلارچە
قارىلىدىغان
قارىلىدۇ
قارىلىپ
قارىماستىن
قارىماقتا
قارىماققا
قارىماي
قارىمايدۇ
قارىمىقىدا
قارىمىقىدىكى
قارىمۇ
قارىمۇچ
قارىنىڭ
قارىي
قارچىغا
قارچۇغا
قازا
قازاق
قازاقستان
قازاقلار
قازاقلارنىڭ
قازاقىستان
قازاقىستاندا
قازاقىستاندىكى
قازاقىستانغا
قازاقىستانلىق
قازاقىستاننىڭ
قازاقچە
قازان
قازاندا
قازاندى
قازاندىكى
قازانغا
قازانغان
قازاننى
قازاننىڭ
قازى
قازىلىق
قازىنى
قازىنىدۇ
قازىنىش
قازىنىشقا
قازىنىپ
قازىنىڭ
قاسار
قاسقان
قاسقاندا
قاسقانغا
قاسىم
قاسىمنىڭ
قاسىموف
قاسىمى
قاش
قاشا
قاشتېشى
قاشقوۋۇق
قاشقۇۋۇق
قاغا
قاغان
قاغانغا
قاغانلار
قاغانلىق
قاغانلىقى
قاغانلىقىنىڭ
قاغاننىڭ
قاغانى
قاغانىغا
قاغىلىق
قاغىلىقتىكى
قاغىلىقتىن
قاغىلىققا
قاغىلىقنىڭ
قاق
قاقاس
قاقاسلىق
قاقاقلاپ
قاقتى
قاقلاپ
قال
قالاتتى
قالاتتىم
قالار
قالارلىق
قالارمۇ
قالاق
قالاقلىق
قالالايدۇ
قالالمايدۇ
قالاي
قالايمىقان
قالايمىقانلاشتۇرۇپ
قالايمىقانلىشىپ
قالايمىقانچىلىق
قالاپ
قالب
قالتىس
قالدى
قالدىم
قالدىمۇ
قالدۇردى
قالدۇرغان
قالدۇرمىغان
قالدۇرىدىغان
قالدۇرىدۇ
قالدۇرۇش
قالدۇرۇشقا
قالدۇرۇشنى
قالدۇرۇشى
قالدۇرۇلدى
قالدۇرۇلغان
قالدۇرۇلىدۇ
قالدۇرۇلۇپ
قالدۇرۇپ
قالدۇق
قالدۇقلىرى
قالدۇقى
قالسا
قالساق
قالسام
قالسىلا
قالسىمۇ
قالسىڭىز
قالسۇن
قالغان
قالغانتىم
قالغاندا
قالغاندىن
قالغاندەك
قالغانلار
قالغانلارغا
قالغانلارنىڭ
قالغانلىرى
قالغانلىرىنى
قالغانلىق
قالغانلىقتىن
قالغانلىقى
قالغانلىقىغا
قالغانلىقىنى
قالغانىدى
قالغانىدىم
قالغانىكەن
قالغانىمىز
قالغاچقا
قالغىلى
قالغىنى
قالغىنىغا
قالغىنىنى
قالغۇدەك
قالغۇسى
قالغۇچە
قالقان
قالقانبەز
قالقانسىمان
قالما
قالماستىن
قالماسلىق
قالماسلىقى
قالماق
قالماقتا
قالماي
قالمايتتى
قالمايدىغان
قالمايدۇ
قالماڭ
قالمىدى
قالمىسا
قالمىسۇن
قالمىغان
قالىدىغان
قالىدىغانلىقى
قالىدىغانلىقىنى
قالىدىكەن
قالىدۇ
قالىسىز
قالىمىز
قالىمەن
قالپاق
قالپاقى
قالپىقى
قالۇر
قالۇن
قاماق
قاماققا
قامال
قامالغان
قاماپ
قامداش
قامداپ
قامىلىشى
قامچا
قامۇس
قامۇسى
قان
قانات
قاناتلىق
قاناش
قاناشقا
قاناشنى
قانال
قاناي
قانتېپەر
قانخور
قاندا
قانداش
قانداشلىق
قانداق
قانداقتۇر
قانداقراق
قانداقسىگە
قانداقلا
قانداقمۇ
قاندىكى
قاندىن
قاندۇرىدۇ
قاندۇرۇش
قاندۇرۇشقا
قاندۇرۇپ
قانغا
قانلار
قانلىرى
قانلىق
قاننى
قاننىڭ
قانون
قانىتى
قانىتىغا
قانىتىنى
قانىتىنىڭ
قانىلى
قانىلىنىڭ
قانپلازمىسىدا
قانچىسى
قانچىكى
قانچىلىغان
قانچىلىك
قانچىنى
قانچە
قانۇن
قانۇندا
قانۇندىكى
قانۇندىن
قانۇنسىز
قانۇنشۇناس
قانۇنشۇناسلار
قانۇنشۇناسلىق
قانۇنغا
قانۇنلار
قانۇنلاردا
قانۇنلاردىكى
قانۇنلارغا
قانۇنلارنى
قانۇنلارنىڭ
قانۇنلىرى
قانۇنلىرىغا
قانۇنلۇق
قانۇننى
قانۇننىڭ
قانۇنى
قانۇنىدا
قانۇنىدىكى
قانۇنىغا
قانۇنىنى
قانۇنىنىڭ
قانۇنىي
قانۇنىيىتى
قانۇنىيىتىنى
قانۇنىيىتىگە
قانۇنىيەت
قانۇنىيەتكە
قانۇنىيەتلىرى
قانۇنىيەتلىرىدىن
قانۇنىيەتلىرىنى
قانۇنىيەتلىرىگە
قانۇنىيەتلىك
قانۇنىيەتلەرنىڭ
قانۇنىيەتنى
قانۇنچىلىق
قاي
قايا
قايان
قايتا
قايتتى
قايتتۇرۇپ
قايتقان
قايتقاندا
قايتقاندىن
قايتىدىغان
قايتىدىن
قايتىدۇ
قايتىش
قايتىشتىن
قايتىشقا
قايتىشنى
قايتىشى
قايتىشىدا
قايتىپ
قايتىپتۇ
قايتۇردى
قايتۇرغان
قايتۇرما
قايتۇرىدىغان
قايتۇرىدۇ
قايتۇرۇش
قايتۇرۇشقا
قايتۇرۇشنى
قايتۇرۇشى
قايتۇرۇلغان
قايتۇرۇپ
قايتۇرۇۋېلىش
قايدىسەن
قايرىلىپ
قايرىپ
قايسى
قايسىدۇر
قايسىسى
قايسىسىغا
قايسىسىنى
قايسىسىنىڭ
قايسىلار
قايسىلىرى
قايغۇ
قايغۇرۇپ
قايغۇغا
قايغۇلۇق
قايماق
قايناش
قايناق
قاينام
قاينايدۇ
قايناپ
قايناۋاتقان
قاينىتىلغان
قاينىتىلىدۇ
قاينىتىمىز
قاينىتىپ
قاينىغان
قاينىغاندا
قاينىمىغا
قايى
قايىتتى
قايىل
قايىللىق
قايچا
قاپ
قاپارتما
قاپاغان
قاپاق
قاپتىمەن
قاپتۇ
قاپسىلىپ
قاپسەن
قاپقارا
قاپقاق
قاپلاش
قاپلان
قاپلانغان
قاپلايدۇ
قاپلاپ
قاپلىدى
قاپلىغان
قاپلىق
قاپلىنىپ
قاپىيە
قاچا
قاچان
قاچانكى
قاچتى
قاچقان
قاچقۇن
قاچىدۇ
قاچىغا
قاچىلار
قاچىلارغا
قاچىلاش
قاچىلانغان
قاچىلاپ
قاچىلىنىدۇ
قاچۇرۇش
قاچۇرۇپ
قاھار
قاھىرە
قاھىرەدە
قاھىرەگە
قاۋۇل
قبل
قرالى
قصلصش
قصلصشص
قصلصپ
قـ
قوبۇقسار
قوبۇل
قوبۇللاش
قوبۇللىغۇچ
قوبۇللىغۇچلار
قوتاز
قوتان
قوتۇر
قوجۇ
قورال
قوراللار
قوراللارنى
قوراللارنىڭ
قوراللاندۇرۇپ
قوراللانغان
قوراللىرى
قوراللىرىنى
قوراللىق
قوراللىقلار
قورالنى
قورالى
قورالىغا
قورساق
قورساقنى
قورسىقى
قورسىقىنى
قورشالغان
قورشاپ
قورشاۋ
قورشاۋغا
قورغاس
قورغان
قورغىنى
قورققان
قورقماس
قورقماي
قورقىدىغان
قورقىدۇ
قورقىمەن
قورقۇت
قورقۇتۇپ
قورقۇش
قورقۇنچ
قورقۇنچاق
قورقۇنچلۇق
قورقۇنۇچلۇق
قورقۇپ
قورقۇڭلار
قورچاق
قورۇ
قورۇش
قورۇق
قورۇقچى
قورۇقچىبەگ
قورۇلغان
قورۇلىدۇ
قورۇلۇپ
قورۇما
قورۇمىسى
قورۇپ
قوزا
قوزغاش
قوزغالدى
قوزغالغان
قوزغايدىغان
قوزغايدۇ
قوزغاپ
قوزغىتىش
قوزغىدى
قوزغىغان
قوزغىلاڭ
قوزغىلاڭغا
قوزغىلاڭلىرى
قوزغىلاڭنى
قوزغىلاڭنىڭ
قوزغىلاڭچى
قوزغىلاڭچىلار
قوزغىلاڭچىلارنى
قوزغىلاڭچىلارنىڭ
قوزغىلىش
قوزغىلىشى
قوزغىلىپ
قوزغىلىڭى
قوزغىلىڭىغا
قوزغىلىڭىنىڭ
قوزغۇلاڭ
قوزغۇلۇپ
قوزۇق
قوش
قوشاق
قوشاقلار
قوشاقلارنى
قوشاقلىرى
قوشاقنى
قوشاقچى
قوشالايسىز
قوشتاغ
قوشتى
قوشسا
قوشساق
قوشقا
قوشقار
قوشقان
قوشقاندا
قوشما
قوشماق
قوشماقتا
قوشماي
قوشنا
قوشنىدارچىلىق
قوشنىسى
قوشنىلار
قوشنىلىرى
قوشىدىغان
قوشىدۇ
قوشىقى
قوشىلىدۇ
قوشي
قوشۇش
قوشۇشقا
قوشۇشى
قوشۇق
قوشۇلدى
قوشۇلسا
قوشۇلغان
قوشۇلغاندا
قوشۇلغاندىكى
قوشۇلغاندىن
قوشۇلما
قوشۇلماي
قوشۇلمىغان
قوشۇلىدىغان
قوشۇلىدۇ
قوشۇلۇش
قوشۇلۇشى
قوشۇلۇشىدىن
قوشۇلۇپ
قوشۇمچىدىكى
قوشۇمچىسى
قوشۇمچىلار
قوشۇمچىلارنىڭ
قوشۇمچىلىرى
قوشۇمچىلىرىنىڭ
قوشۇمچىنىڭ
قوشۇمچە
قوشۇن
قوشۇنغا
قوشۇنلار
قوشۇنلىرى
قوشۇنلىرىغا
قوشۇنلىرىنى
قوشۇنلىرىنىڭ
قوشۇنلېرى
قوشۇنلېرىنى
قوشۇننى
قوشۇننىڭ
قوشۇنى
قوشۇنىدىكى
قوشۇنىغا
قوشۇنىنى
قوشۇنىنىڭ
قوشۇپ
قوشۇۋالغان
قوشۇۋېتىش
قوشۇۋېتىلگەن
قوشۇۋېلىپ
قوغان
قوغداش
قوغداشتا
قوغداشقا
قوغداشنى
قوغداشنىڭ
قوغدايدىغان
قوغدايدۇ
قوغداپ
قوغدىدى
قوغدىشى
قوغدىشىغا
قوغدىغان
قوغدىغۇچى
قوغدىغۇچىسى
قوغدىلىدىغان
قوغدىلىدۇ
قوغدىلىش
قوغدىلىشى
قوغدىنىش
قوغشار
قوغلاش
قوغلاندى
قوغلانغان
قوغلاپ
قوغلىدى
قوغلىشىش
قوغلىشىپ
قوغلىغان
قوغۇداش
قوغۇشۇن
قوغۇن
قوغۇننىڭ
قوغۇنى
قوقاسقا
قوقان
قوقەند
قول
قولاي
قولايسىز
قولايلىق
قولتۇق
قولتۇقى
قولتۇقىدىن
قولتۇقىغا
قولتۇقىنىڭ
قولدا
قولدىن
قولدەك
قولغا
قوللار
قوللاش
قوللاشقا
قوللاندى
قوللانسا
قوللانغان
قوللانغاندا
قوللانغۇچىلاردىن
قوللانما
قوللانماقتا
قوللانماي
قوللانمىسى
قوللايدىغان
قوللايدىغانلىقىنى
قوللايدۇ
قوللاپ
قوللىدى
قوللىرى
قوللىرىغا
قوللىرىنى
قوللىرىنىڭ
قوللىشى
قوللىشىغا
قوللىشىنى
قوللىغان
قوللىغۇچىسى
قوللىندۇ
قوللىنىدىغان
قوللىنىدۇ
قوللىنىش
قوللىنىشقا
قوللىنىشنى
قوللىنىشى
قوللىنىشچان
قوللىنىلدى
قوللىنىلدىغان
قوللىنىلسىمۇ
قوللىنىلغان
قوللىنىلماقتا
قوللىنىلمايدىغان
قوللىنىلىدىغان
قوللىنىلىدىغانلىقىنى
قوللىنىلىدۇ
قوللىنىلىش
قوللىنىلىشقا
قوللىنىلىشى
قوللىنىلىپ
قوللىنىلىۋاتقان
قوللىنىلىۋاتىدۇ
قوللىنىلۋاتىدۇ
قوللىنىپ
قوللىنىۋاتقان
قوللۇق
قوللۇنۇشى
قوللۇنۇپ
قولنى
قولنىڭ
قولى
قولىدا
قولىدىكى
قولىدىن
قولىغا
قولىمىزدا
قولىمىزدىكى
قولىمىزدىن
قولىنى
قولىنىڭ
قوليازما
قولۇم
قولۇمدىن
قولۇمغا
قولۋاق
قوماندان
قوماندانلىق
قوماندانلىقى
قوماندانلىقىدا
قوماندانلىقىدىكى
قوماندانى
قوماچ
قومىچى
قومۇش
قومۇل
قومۇلدا
قومۇلغا
قومۇلنىڭ
قوناق
قوناقتەك
قوناقنى
قونالغۇ
قوندۇرۇپ
قونچاق
قونۇش
قونۇپ
قوي
قوياتتى
قوياش
قوياي
قويدى
قويدۇق
قويدۇم
قويسا
قويساق
قويسام
قويسىلا
قويسىمۇ
قويسىڭىز
قويغا
قويغان
قويغاندا
قويغاندىن
قويغاندەك
قويغانلار
قويغانلىقى
قويغانلىقىنى
قويغانىدى
قويغىلى
قويغۇچى
قويماسلىق
قويماقچى
قويماي
قويمايدۇ
قويمىدى
قويمىغان
قوينى
قوينىدا
قوينىغا
قوينىڭ
قويى
قويىدىغان
قويىدىكەن
قويىدۇ
قويىلىدۇ
قويىمىز
قويىمەن
قويۇش
قويۇشتا
قويۇشتى
قويۇشتىن
قويۇشقا
قويۇشنى
قويۇشنىڭ
قويۇشى
قويۇشىغا
قويۇشىنى
قويۇق
قويۇقلۇق
قويۇلدى
قويۇلدۇرۇش
قويۇلسا
قويۇلغان
قويۇلغاندىن
قويۇلمايدۇ
قويۇلىدىغان
قويۇلىدۇ
قويۇلىشى
قويۇلۇش
قويۇلۇشتىن
قويۇلۇشى
قويۇلۇشىغا
قويۇلۇپ
قويۇپ
قويۇپتۇ
قويۇڭ
قويۇڭلار
قوپ
قوپال
قوپاللىق
قوپۇرۇش
قوپۇرۇلغان
قوپۇپ
قوچقار
قوچى
قوچۇ
قوچۇپ
قوڭ
قوڭغۇراق
قوڭغۇراقگۈل
قوڭۇر
قوۋزىقى
قوۋملىرى
قوۋۇرغا
قوۋۇق
قى
قىبرىس
قىبلە
قىتان
قىتانلار
قىتانلارنىڭ
قىتملىق
قىتىم
قىتىمقى
قىتىملىق
قىتي
قىدىرخان
قىدىرىپ
قىر
قىران
قىراي
قىرتاق
قىرغاق
قىرغاققا
قىرغاۋۇل
قىرغىز
قىرغىزستان
قىرغىزلار
قىرغىزلارغا
قىرغىزلارنىڭ
قىرغىزىستان
قىرغىزىستاندا
قىرغىزىستاندىكى
قىرغىزىستاننىڭ
قىرغىزي
قىرغىزچە
قىرغىقى
قىرغىقىدا
قىرغىقىدىكى
قىرغىقىغا
قىرغىن
قىرغىنچىلىق
قىرغىنچىلىقتىن
قىرغىنچىلىققا
قىرغىنچىلىقنى
قىرغىنچىلىقى
قىرغىنچىلىقىنى
قىرغىنچىلىقىنىڭ
قىرغۇچى
قىرلىق
قىروسىز
قىرىق
قىرىم
قىرىمي
قىرىنداشلار
قىرىپ
قىز
قىزارتىپ
قىززىق
قىزغا
قىزغىن
قىزغىنلىق
قىزغىنلىقى
قىزغىنلىقىنى
قىزغىنلىقىنىڭ
قىزغۇچ
قىزلار
قىزلارغا
قىزلارنى
قىزلارنىڭ
قىزلىرى
قىزلىرىغا
قىزلىرىمىز
قىزلىرىنى
قىزلىرىنىڭ
قىزنى
قىزنىڭ
قىزى
قىزىتما
قىزىتىش
قىزىتىلغان
قىزىتىپ
قىزىدۇر
قىزىرىپ
قىزىش
قىزىغا
قىزىغاندا
قىزىق
قىزىقارلىق
قىزىقتۇرۇش
قىزىققان
قىزىقىدىغان
قىزىقىش
قىزىقىشى
قىزىقىشىغا
قىزىقىشىنى
قىزىقىپ
قىزىقچىلىق
قىزىل
قىزىلبۇغداش
قىزىلتاغ
قىزىلسۇ
قىزىلي
قىزىلچا
قىزىلگۈل
قىزىم
قىزىمغا
قىزىمنى
قىزىمنىڭ
قىزىنى
قىزىنىڭ
قىزىپ
قىزچاق
قىزچاقنىڭ
قىس
قىساس
قىستاققا
قىستايدۇ
قىستاپ
قىستىشى
قىستۇرما
قىستۇرمىسى
قىستۇرۇش
قىستۇرۇلغان
قىستۇرۇپ
قىسسىسى
قىسسە
قىسقا
قىسقارتىش
قىسقارتىلغان
قىسقارتىلما
قىسقارتىلمىسى
قىسقارتىلىپ
قىسقارتىپ
قىسقىسى
قىسقىغىنا
قىسقىغىنە
قىسقىلىقى
قىسقىچە
قىسقۇچ
قىسم
قىسملار
قىسمى
قىسمىتى
قىسمىدا
قىسمىدىكى
قىسمىدىن
قىسمىدۇر
قىسمىغا
قىسمىنى
قىسمىنىڭ
قىسمەت
قىسمەتلىرى
قىسمەن
قىسىم
قىسىمدا
قىسىمدىكى
قىسىمدىن
قىسىمغا
قىسىملار
قىسىملارنى
قىسىملارنىڭ
قىسىملىرى
قىسىملىرىدا
قىسىملىرىغا
قىسىملىرىنى
قىسىملىرىنىڭ
قىسىملىق
قىسىمنى
قىسىمنىڭ
قىسىمى
قىسىمىدا
قىسىمىغا
قىسىمىنى
قىسىمىنىڭ
قىسىپ
قىش
قىشتا
قىشتىن
قىشلاق
قىشلاقلاردا
قىشلىق
قىشىغا
قىل
قىلاتتى
قىلاتتىم
قىلاتتۇق
قىلار
قىلارلىق
قىلالايدىغان
قىلالايدۇ
قىلالايسىز
قىلالايمىز
قىلالايمەن
قىلالماس
قىلالماسلىق
قىلالماي
قىلالمايتتى
قىلالمايدىغان
قىلالمايدۇ
قىلالمايمەن
قىلالمىدى
قىلالمىدىم
قىلالمىسا
قىلالمىغان
قىلالىدى
قىلالىشى
قىلالىغان
قىلامدۇ
قىلاي
قىلايلى
قىلدى
قىلدىغان
قىلدىم
قىلدىڭ
قىلدۇ
قىلدۇرالايدىغان
قىلدۇردى
قىلدۇرسا
قىلدۇرغان
قىلدۇرىدىغان
قىلدۇرىدۇ
قىلدۇرۇش
قىلدۇرۇشقا
قىلدۇرۇشنى
قىلدۇرۇشنىڭ
قىلدۇرۇشى
قىلدۇرۇلغان
قىلدۇرۇپ
قىلدۇق
قىلسا
قىلساق
قىلسام
قىلساڭ
قىلساڭلار
قىلسىمۇ
قىلسىڭىز
قىلسۇن
قىلش
قىلشقا
قىلشى
قىلغان
قىلغاندا
قىلغاندىلا
قىلغاندىن
قىلغاندۇر
قىلغاندەك
قىلغانغا
قىلغانلار
قىلغانلاردىن
قىلغانلارغا
قىلغانلارنى
قىلغانلارنىڭ
قىلغانلىرى
قىلغانلىرىغا
قىلغانلىرىنى
قىلغانلىق
قىلغانلىقتىن
قىلغانلىقى
قىلغانلىقىغا
قىلغانلىقىنى
قىلغاننى
قىلغانىدى
قىلغانىكەن
قىلغاي
قىلغاچ
قىلغاچقا
قىلغىلى
قىلغىن
قىلغىنى
قىلغىنىدا
قىلغىنىغا
قىلغىنىم
قىلغىنىمىزدا
قىلغىنىنى
قىلغۇدەك
قىلغۇسى
قىلغۇم
قىلغۇچ
قىلغۇچنى
قىلغۇچنىڭ
قىلغۇچى
قىلغۇچىدىن
قىلغۇچىدۇر
قىلغۇچىسى
قىلغۇچىغا
قىلغۇچىلار
قىلغۇچىلاردىن
قىلغۇچىلارغا
قىلغۇچىلارنى
قىلغۇچىلارنىڭ
قىلغۇچىنى
قىلغۇچىنىڭ
قىلما
قىلماس
قىلماستىن
قىلماسلىق
قىلماسلىققا
قىلماسلىقنى
قىلماسلىقى
قىلماق
قىلماقتا
قىلماقچى
قىلماي
قىلمايتتى
قىلمايدىغان
قىلمايدىغانلىقىنى
قىلمايدىكەن
قىلمايدۇ
قىلمايسىز
قىلمايلا
قىلمايمىز
قىلمايمەن
قىلماڭ
قىلماڭلار
قىلمىدى
قىلمىدىم
قىلمىسا
قىلمىساق
قىلمىسىمۇ
قىلمىش
قىلمىشلار
قىلمىشلاردىن
قىلمىشلارغا
قىلمىشلارنى
قىلمىشلارنىڭ
قىلمىشلىرى
قىلمىشلىرىنى
قىلمىشنى
قىلمىشى
قىلمىشىغا
قىلمىشىنى
قىلمىشىنىڭ
قىلمىغان
قىلمىغاندا
قىلمىغانلار
قىلمىغانلىقى
قىلمىغىن
قىلنغان
قىلنىدۇ
قىلىدى
قىلىدىغان
قىلىدىغانلار
قىلىدىغانلىقى
قىلىدىغانلىقىغا
قىلىدىغانلىقىمغا
قىلىدىغانلىقىنى
قىلىدىغىنى
قىلىدىكەن
قىلىدىم
قىلىدۇ
قىلىسىز
قىلىسەن
قىلىش
قىلىشاتتى
قىلىشتا
قىلىشتى
قىلىشتىكى
قىلىشتىن
قىلىشتۇر
قىلىشتەك
قىلىشقا
قىلىشقان
قىلىشقىمۇ
قىلىشلىرى
قىلىشمۇ
قىلىشنى
قىلىشنىڭ
قىلىشى
قىلىشىدا
قىلىشىدىكى
قىلىشىدىن
قىلىشىدۇ
قىلىشىدۇر
قىلىشىغا
قىلىشىم
قىلىشىمنى
قىلىشىمىز
قىلىشىمىزغا
قىلىشىمۇ
قىلىشىنى
قىلىشىنىڭ
قىلىشىپ
قىلىشىچە
قىلىشىڭىز
قىلىغان
قىلىق
قىلىمىز
قىلىمىشى
قىلىمەن
قىلىناتتى
قىلىندى
قىلىندىغان
قىلىندىم
قىلىندۇ
قىلىنسا
قىلىنسىمۇ
قىلىنشقا
قىلىنغان
قىلىنغاندا
قىلىنغاندىن
قىلىنغاندۇر
قىلىنغاندەك
قىلىنغانلىقى
قىلىنغانلىقىنى
قىلىنغانىدى
قىلىنغاچقا
قىلىنغۇچى
قىلىنغۇچىغا
قىلىنغۇچىلارنىڭ
قىلىنغۇچىنى
قىلىنغۇچىنىڭ
قىلىنماقتا
قىلىنماقچى
قىلىنماي
قىلىنمايدىغان
قىلىنمايدۇ
قىلىنمىدى
قىلىنمىسا
قىلىنمىغان
قىلىنىدىغان
قىلىنىدىغانلىقى
قىلىنىدىكەن
قىلىنىدۇ
قىلىنىش
قىلىنىشتىن
قىلىنىشقا
قىلىنىشنى
قىلىنىشى
قىلىنىشىدا
قىلىنىشىدىن
قىلىنىشىغا
قىلىنىشىنى
قىلىنىشىنىڭ
قىلىنىشىچە
قىلىنىغان
قىلىنىپ
قىلىنىپتۇ
قىلىنىۋاتقان
قىلىنىۋاتىدۇ
قىلىپ
قىلىپتۇ
قىلىپلا
قىلىپلاشقان
قىلىپمۇ
قىلىچ
قىلىچى
قىلىڭ
قىلىڭلار
قىلىۋاتاتتى
قىلىۋاتقان
قىلىۋاتقاندا
قىلىۋاتقانلىقى
قىلىۋاتقانلىقىنى
قىلىۋاتىدۇ
قىلىۋاتىمىز
قىلىۋاتىمەن
قىلىۋالدى
قىلىۋالغان
قىلىۋالىدۇ
قىلىۋېتىدۇ
قىلىۋېتىش
قىلىۋېتىشكە
قىلىۋېتىلگەن
قىلىۋېتىپ
قىلىۋېلىش
قىلىۋېلىپ
قىلىۋەتتى
قىلىۋەتكەن
قىلپ
قىلچىمۇ
قىلچە
قىلۇر
قىلۋاتقان
قىمار
قىممىتى
قىممىتىنى
قىممىتىنىڭ
قىممىتىگە
قىممەت
قىممەتكە
قىممەتلىك
قىممەتلەر
قىممەتنى
قىنى
قىي
قىيا
قىياتاش
قىياس
قىيالىق
قىيام
قىيامى
قىيامەت
قىيامەتتە
قىياپىتى
قىياپىتىنى
قىياپىتىگە
قىياپەت
قىياپەتتە
قىياپەتكە
قىيسايغان
قىيما
قىيمىسى
قىيمىلىق
قىيمىنى
قىيناپ
قىينىلىپ
قىيىش
قىيىقچا
قىيىن
قىيىنغا
قىيىنلىق
قىيىنچىلىق
قىيىنچىلىققا
قىيىنچىلىقلار
قىيىنچىلىقلارغا
قىيىنچىلىقلارنى
قىيىنچىلىقى
قىيپاش
قىپ
قىپتۇ
قىپقىزىل
قىپچاق
قىپچاقلار
قىچا
قىچىشىش
قىچىپ
قۇب
قۇبلاي
قۇبلايخان
قۇبۇل
قۇت
قۇتادغۇ
قۇتادغۇبىلىك
قۇتراتقۇلۇق
قۇتقۇزدى
قۇتقۇزۇش
قۇتقۇزۇشقا
قۇتقۇزۇپ
قۇتلۇبۇغا
قۇتلۇغ
قۇتلۇق
قۇتىغا
قۇتۇب
قۇتۇبى
قۇتۇز
قۇتۇلدى
قۇتۇلدۇرۇش
قۇتۇلدۇرۇپ
قۇتۇلغان
قۇتۇلىدۇ
قۇتۇلۇش
قۇتۇلۇشقا
قۇتۇلۇشنىڭ
قۇتۇلۇپ
قۇتۇپ
قۇتۇپقا
قۇتۇپلۇق
قۇتۇپنىڭ
قۇجۇ
قۇدا
قۇدامە
قۇددۇس
قۇدرىتى
قۇدرىتىنى
قۇدرەت
قۇدرەتكە
قۇدرەتلىك
قۇدىرەت
قۇدۇق
قۇدۇققا
قۇر
قۇراشتۇرۇش
قۇراشتۇرۇپ
قۇرال
قۇراللىرى
قۇراللىرىنى
قۇراللىق
قۇرالى
قۇرامىغا
قۇران
قۇربان
قۇربانجان
قۇربانلىق
قۇربانى
قۇربى
قۇرت
قۇرتى
قۇرتۇبىي
قۇرتۇلۇش
قۇردا
قۇردى
قۇرساقلىق
قۇرغا
قۇرغاق
قۇرغاقچىلىق
قۇرغاقچىلىققا
قۇرغان
قۇرغاندا
قۇرغاندىن
قۇرغانلىقى
قۇرغۇچى
قۇرغۇچىسى
قۇرغۇچىلىرى
قۇرلارنى
قۇرلۇش
قۇرلۇشى
قۇرماقچى
قۇرىدا
قۇرىدۇ
قۇرىغار
قۇري
قۇرۇت
قۇرۇتى
قۇرۇتىنىڭ
قۇرۇتۇش
قۇرۇتۇلغان
قۇرۇتۇپ
قۇرۇش
قۇرۇشتا
قۇرۇشتىن
قۇرۇشقا
قۇرۇشنى
قۇرۇشى
قۇرۇشىغا
قۇرۇغان
قۇرۇق
قۇرۇقلۇق
قۇرۇقلۇقتا
قۇرۇقلۇقتىكى
قۇرۇقلۇققا
قۇرۇقلۇقى
قۇرۇقلۇقىنىڭ
قۇرۇقچى
قۇرۇلتاي
قۇرۇلتايدا
قۇرۇلتايلىرى
قۇرۇلتايلىرىنىڭ
قۇرۇلتاينىڭ
قۇرۇلتىيى
قۇرۇلتىيىدا
قۇرۇلتىيىغا
قۇرۇلتىيىنىڭ
قۇرۇلدى
قۇرۇلغان
قۇرۇلغاندا
قۇرۇلغاندىن
قۇرۇلغانلىقى
قۇرۇلغانلىقىنى
قۇرۇلغانلىقىنىڭ
قۇرۇلما
قۇرۇلمىسى
قۇرۇلمىسىدا
قۇرۇلمىسىغا
قۇرۇلمىسىنى
قۇرۇلمىسىنىڭ
قۇرۇلمىغا
قۇرۇلمىلار
قۇرۇلمىلىرى
قۇرۇلمىلىق
قۇرۇلمىنى
قۇرۇلمىنىڭ
قۇرۇلىدۇ
قۇرۇلىشى
قۇرۇلىشىغا
قۇرۇلۇش
قۇرۇلۇشتا
قۇرۇلۇشتىن
قۇرۇلۇشقا
قۇرۇلۇشلار
قۇرۇلۇشلىرى
قۇرۇلۇشلىرىنىڭ
قۇرۇلۇشنى
قۇرۇلۇشنىڭ
قۇرۇلۇشى
قۇرۇلۇشىدا
قۇرۇلۇشىدىكى
قۇرۇلۇشىدىن
قۇرۇلۇشىغا
قۇرۇلۇشىنى
قۇرۇلۇشىنىڭ
قۇرۇلۇپ
قۇرۇم
قۇرۇپ
قۇرەشىي
قۇرەيزە
قۇرەيش
قۇرەيىش
قۇس
قۇسۇش
قۇش
قۇشقاچ
قۇشلار
قۇشلارغا
قۇشلارنى
قۇشلارنىڭ
قۇشلىرى
قۇشنى
قۇشنىڭ
قۇشى
قۇشۇق
قۇشۇلۇپ
قۇشۇمچىسى
قۇشۇمچىلىرى
قۇشۇمچە
قۇشۇن
قۇشۇنلىرى
قۇشۇنى
قۇشۇپ
قۇل
قۇلاق
قۇلاققا
قۇلان
قۇلايلىق
قۇلايلىقتىن
قۇلغا
قۇللار
قۇللارنى
قۇللۇق
قۇللۇقتىن
قۇللۇقنى
قۇلماق
قۇلى
قۇلىقى
قۇلىقىغا
قۇلىقىنى
قۇلچىلىق
قۇلۇلىسى
قۇلۇلە
قۇلۇپ
قۇلۇپنى
قۇم
قۇماندان
قۇماندانلىق
قۇماندانلىقىدىكى
قۇماندانى
قۇمباغ
قۇمساڭ
قۇمغا
قۇملۇق
قۇملۇقتىكى
قۇملۇقتىن
قۇملۇقنىڭ
قۇملۇقى
قۇملۇقىنىڭ
قۇمي
قۇمۇق
قۇمۇقلار
قۇمۇل
قۇمۇلدا
قۇمۇلدىكى
قۇمۇلدىن
قۇمۇلغا
قۇمۇللۇق
قۇمۇلنىڭ
قۇن
قۇناق
قۇندۇز
قۇي
قۇياش
قۇياشتىن
قۇياشقا
قۇياشنى
قۇياشنىڭ
قۇيرۇق
قۇيرۇقلۇق
قۇيرۇقى
قۇيرۇقىنى
قۇيغان
قۇيماق
قۇيىدۇ
قۇيىمىز
قۇيۇش
قۇيۇق
قۇيۇلدى
قۇيۇلغان
قۇيۇلىدۇ
قۇيۇلۇپ
قۇيۇن
قۇيۇپ
قۇچاق
قۇچاقلاپ
قۇچاقلىشىپ
قۇچقان
قۇچۇ
قۇۋۇز
قۇۋۇق
قۇۋۇقنىڭ
قۇۋۋىتى
قۇۋۋىتىنى
قۇۋۋەت
قۇۋۋەتكە
قۇۋۋەتلىشى
قۇۋۋەتلىگۈچى
قۇۋۋەتلەش
قېتىرقىنىپ
قېتىش
قېتىق
قېتىلدى
قېتىلغان
قېتىلىدۇ
قېتىم
قېتىمدا
قېتىمدىلا
قېتىمدىن
قېتىمغا
قېتىمقى
قېتىملاپ
قېتىملىق
قېتىممۇ
قېتىپ
قېرى
قېرىغاندا
قېرىلىق
قېرىن
قېرىنداش
قېرىنداشلار
قېرىنداشلاردىن
قېرىنداشلارغا
قېرىنداشلارنىڭ
قېرىنداشلىرى
قېرىنداشلىرىمىز
قېرىنداشلىرىمىزنىڭ
قېرىنداشلىرىنى
قېرىنداشلىق
قېرىنداشلىقى
قېرىندىشى
قېرىندىشىم
قېرىندىشىمىز
قېرىندىشىمىزنىڭ
قېرىپ
قېزىش
قېزىلغان
قېزىلما
قېزىپ
قېزىۋېلىنغان
قېشىدا
قېشىغا
قېشىمغا
قېقى
قېقىش
قېقىپ
قېلىش
قېلىشتا
قېلىشتىن
قېلىشقا
قېلىشنى
قېلىشنىڭ
قېلىشى
قېلىشىدا
قېلىشىدىن
قېلىشىغا
قېلىشىنى
قېلىشىنىڭ
قېلىشىچە
قېلىن
قېلىندى
قېلىنراق
قېلىنغان
قېلىنلىقتا
قېلىنلىقى
قېلىپ
قېلىپقا
قېلىپلار
قېلىپلاشتۇرۇش
قېلىپلاشقان
قېلىپلىردىن
قېلىپلىرى
قېلىپلىشىپ
قېلىپى
قېلىۋاتقان
قېلىۋاتىدۇ
قېنى
قېنىغا
قېنىق
قېنىنى
قېيىر
قېيىش
قېيىن
قېيىپ
قېيۇم
قېپقالغان
قېپى
قېچىش
قېچىشقا
قېچىپ
قەبرىدىن
قەبرىستانلىق
قەبرىستانلىقتىن
قەبرىستانلىققا
قەبرىستانلىقنى
قەبرىستانلىقنىڭ
قەبرىستانلىقى
قەبرىستانلىقىغا
قەبرىسى
قەبرىسىنى
قەبرىسىنىڭ
قەبرىلەر
قەبرىلەرنى
قەبرىنى
قەبرىنىڭ
قەبرىگە
قەبرە
قەبىلىدىن
قەبىلىسى
قەبىلىسىدىن
قەبىلىسىنىڭ
قەبىلىسىگە
قەبىلىلىرى
قەبىلىلىرىدىن
قەبىلىلىرىنى
قەبىلىلىرىنىڭ
قەبىلىلېرى
قەبىلىلېرىنىڭ
قەبىلىلەر
قەبىلىلەردىن
قەبىلىلەرنى
قەبىلىلەرنىڭ
قەبىلىنىڭ
قەبىلىگە
قەبىلە
قەبىھ
قەبۇل
قەتل
قەتلى
قەتلىي
قەتىران
قەتىل
قەتي
قەد
قەددىنى
قەدرىنى
قەدىر
قەدىرلىك
قەدىرلەش
قەدىرلەپ
قەدىم
قەدىمدىن
قەدىمدە
قەدىمقى
قەدىمكى
قەدىمى
قەدىمىنى
قەدىمىي
قەدەر
قەدەم
قەدەمدە
قەدەملىك
قەدەملەر
قەدەممۇ
قەدەمنى
قەدەھ
قەرت
قەرز
قەرزدار
قەرزدارنىڭ
قەرزنى
قەرزى
قەرزىنى
قەرزگە
قەرنە
قەرەلسىز
قەرەللىك
قەرەلى
قەرەلىدە
قەززافى
قەست
قەستكە
قەستلەپ
قەستەن
قەسىدە
قەسەس
قەسەم
قەسەمكى
قەشقىرى
قەشقىرىنىڭ
قەشقىرىي
قەشقەر
قەشقەردىكى
قەشقەردىن
قەشقەردە
قەشقەرلىق
قەشقەرلىك
قەشقەرنى
قەشقەرنىڭ
قەشقەرى
قەشقەرىنىڭ
قەشقەرىيە
قەشقەرگە
قەغىزى
قەغىزىنى
قەغەز
قەغەزنى
قەغەزگە
قەلب
قەلبنى
قەلبنىڭ
قەلبى
قەلبىدىكى
قەلبىدىن
قەلبىدە
قەلبىم
قەلبىمدە
قەلبىنى
قەلبىنىڭ
قەلبىڭ
قەلبىگە
قەلىمى
قەلىمىگە
قەلي
قەلەم
قەلەمدە
قەلەمكەشلەر
قەلەمنى
قەلەمپۇر
قەلەمچە
قەلەمگە
قەلەندەر
قەلەي
قەمبەر
قەمبەرنىسا
قەنت
قەنىت
قەيت
قەيتلەرگە
قەيس
قەيسەر
قەيسەرلىك
قەيسەرى
قەيـسەر
قەيىت
قەييۇم
قەيەردىن
قەيەردە
قەيەرگە
قەپەس
قەھرىتان
قەھرىمان
قەھرىمانلار
قەھرىمانلارغا
قەھرىمانلىرى
قەھرىمانلىق
قەھرىماننىڭ
قەھرىمانى
قەھۋە
قەھۋەدۇر
قەھۋەسى
قەھۋەنى
قەۋم
قەۋملەر
قەۋمنى
قەۋمنىڭ
قەۋمى
قەۋمىنى
قەۋمىنىڭ
قەۋمىگە
قەۋمگە
قەۋىتى
قەۋىم
قەۋىملەر
قەۋەت
قەۋەتتىكى
قەۋەتتىن
قەۋەتكە
قەۋەتلىك
ك
كابىلى
كابۇل
كاتتا
كاتتىسى
كاتو
كاتولىك
كاتىبات
كاتىبى
كاتىپ
كاتىپى
كاتيۇشا
كاتېگورىيىدىكى
كاتېگورىيىسى
كاتېگورىيىسىگە
كاتېگورىيە
كادىر
كادىرلار
كادىرلارنى
كادىرلىرى
كادىرى
كار
كاراخىلو
كارامىتىنى
كارامەت
كارانتىن
كاربون
كارت
كارتا
كارتون
كارتىسى
كارتىنىسى
كارخانا
كارخانىدىن
كارخانىسى
كارخانىسىنىڭ
كارخانىغا
كارخانىلار
كارخانىلاردىن
كارخانىلارغا
كارخانىلارنى
كارخانىلارنىڭ
كارخانىلىرى
كارخانىلىرىنى
كارخانىلىرىنىڭ
كارخانىنى
كارخانىنىڭ
كارخانىچى
كارخانىچىلار
كارخانىچىلارنىڭ
كارغا
كارل
كارلوس
كارى
كارىب
كارىدورى
كارىز
كارىۋات
كارۋان
كارۋانلار
كارۋانلىرى
كارۋاننىڭ
كازىم
كاسا
كاسكا
كاسكىسى
كاسىنا
كاسىنىچى
كاسىنە
كاسىپلار
كاسپى
كاسپىي
كاشغەر
كاشغەردە
كاشغەرى
كاشغەرىي
كاشغەرىينىڭ
كاشكاپ
كاشكى
كاشىغەر
كاشىغەرى
كاشىغەرىي
كاشىلا
كافكا
كافكانىڭ
كافۇر
كافۇرنى
كاككۇك
كالا
كالام
كالتسىي
كالتىسى
كالتىكى
كالتە
كالتەك
كالفورنىيە
كاللا
كاللىسى
كاللىسىدا
كاللىسىغا
كاللىسىنى
كاللەكلىشىش
كالى
كالىسى
كالىفورنىيە
كالىفورنىيەدىكى
كالىفورنىيەنىڭ
كالىفورنىيەگە
كالىندار
كالىندارى
كالىنى
كالىنىڭ
كالگارى
كالېندار
كالېندارى
كام
كامال
كامالوف
كامالى
كامالەت
كامالەتكە
كامبرىج
كامبودژا
كامبىرىج
كامىل
كامپو
كان
كانادا
كانادادا
كانادادىكى
كانادانىڭ
كاناي
كانت
كاندىدات
كانزاس
كانى
كانچىلىق
كاي
كاپ
كاپالىتى
كاپالەت
كاپالەتكە
كاپالەتلصك
كاپالەتلىك
كاپالەتلەندۈرىدۇ
كاپالەتلەندۈرۈش
كاپور
كاپىتال
كاپىتالنىڭ
كاپىتالى
كاپىتالىزم
كاپىتالىزىم
كاپىتالىزىمنىڭ
كاپىتالىستلار
كاپىتالىستلارنىڭ
كاپىتالىستىك
كاپىتالىنى
كاپىتان
كاپىر
كاپىرلار
كاپىرلارغا
كاپۇچىنو
كاڭ
كاڭشى
كاڭشىنىڭ
كاھىش
كاۋا
كاۋاباتا
كاۋاس
كاۋاك
كاۋاپ
كاۋاپدانغا
كاۋاپنى
كاۋاپنىڭ
كاۋاۋىچىن
كاۋكاز
كاۋىنى
كاۋىنىڭ
كاۋىپى
كبر
كتاب
كثر
كراخمال
كرودىيە
كروران
كرىل
كرېدىت
كرېست
كرېمىل
كـ
كـىيىنكى
ككى
كل
كلاسسىك
كلومېتر
كلون
كلوگرام
كم
كما
كوبى
كود
كودلاش
كودى
كودىنىڭ
كور
كورتادو
كورد
كوردىنات
كوردچە
كورلا
كورلىدا
كورلىنىڭ
كورونا
كورىيە
كورىيەدىكى
كورىيەدە
كورىيەلىك
كورىيەلىكلەر
كورىيەنىڭ
كورىيەچە
كورىيەگە
كورپۇس
كورپۇسنىڭ
كورېيە
كوز
كوزا
كوستارىكا
كوسوۋو
كوسوۋونىڭ
كوشېر
كوكوس
كولاپ
كوللىكتىپ
كوللېكتىپ
كوللېكتىپنىڭ
كوللېگىيە
كولومبىيە
كولىنىدۇ
كولۇمبو
كولۇمبىيە
كوماندا
كوماندىر
كوماندىرى
كوماندىسى
كوماندىسىدا
كوماندىسىغا
كوماندىسىنىڭ
كوماندىغا
كوماندىنىڭ
كوممۇنىزم
كوممۇنىست
كوممۇنىستلار
كوممۇنىستىك
كومىتىتى
كومىتىتىنىڭ
كومىتېت
كومىتېتلار
كومىتېتلارنىڭ
كومىتېتلىرى
كومىتېتلىرىنىڭ
كومىتېتنىڭ
كومىتېتى
كومىتېتىدا
كومىتېتىغا
كومىتېتىنى
كومىتېتىنىڭ
كومىدىيىسى
كومىدىيە
كومىسارى
كومىسسارى
كومپارتىيىسى
كومپارتىيىسىنىڭ
كومپارتىيىنىڭ
كومپارتىيە
كومپارتىيەسى
كومپارتىيەسىنىڭ
كومپاس
كومپلېكىس
كومپوزىتور
كومپىيوتىر
كومپىيوتىردا
كومپىيوتىرغا
كومپىيوتىرنىڭ
كومپىيوتېر
كومپىيۇتېر
كومپىيۇتېرنى
كومپىيۇتېرنىڭ
كومپيوتېر
كومپيۇتېر
كومپيۇتېردا
كومپيۇتېردىن
كومپيۇتېرغا
كومپيۇتېرلار
كومپيۇتېرنىڭ
كومۇنىستىك
كومېتىتى
كونا
كوناشەھەر
كونترول
كونتروللاش
كونتروللىغۇچ
كونتروللىقىدىكى
كونتروللۇق
كونتروللۇقى
كونتروللۇقىدىكى
كونتروللۇقىنى
كونترولى
كونتىرول
كونتىرۇل
كوندېنساتور
كوندېنساتورنىڭ
كونستانتىنوپول
كونسۇلخانا
كونسۇلى
كونسېرت
كونكرېت
كونكىرىت
كونكېرت
كونىراپ
كونىشەھەر
كونيا
كونگو
كونۇسسىمان
كونۇپكا
كوي
كويىدا
كويىغا
كوپ
كوپىراتىپى
كوچا
كوچىدا
كوچىدىكى
كوچىسى
كوچىسىدا
كوچىسىدىكى
كوچىسىنى
كوچىغا
كوچىلار
كوچىلاردا
كوچىلارغا
كوچىلىرى
كوچىلىرىدا
كوچىنىڭ
كوۋىد
كوۋېي
كى
كىت
كىتاب
كىتابتا
كىتابتىكى
كىتابتىن
كىتابتۇر
كىتابخانا
كىتابخانلارنىڭ
كىتابقا
كىتابلار
كىتابلاردا
كىتابلاردىكى
كىتابلاردىن
كىتابلارغا
كىتابلارمۇ
كىتابلارنى
كىتابلارنىڭ
كىتابلىرى
كىتابلىرىدا
كىتابلىرىدىن
كىتابلىرىغا
كىتابلىرىنى
كىتابلىرىنىڭ
كىتابنى
كىتابنىڭ
كىتابى
كىتابىدا
كىتابىدىكى
كىتابىدىن
كىتابىغا
كىتابىنى
كىتابىنىڭ
كىتابۇل
كىتاپ
كىتاپتا
كىتاپتىن
كىتاپقا
كىتاپلار
كىتاپلارنى
كىتاپلىرى
كىتاپلىرىنى
كىتاپنى
كىتاپنىڭ
كىتىدىغان
كىتىدۇ
كىتىش
كىتىشكە
كىتىشى
كىتىپ
كىتىپتۇ
كىتىۋاتقان
كىر
كىرا
كىردى
كىردىم
كىرزىس
كىرسە
كىرمىگەن
كىرمەكچى
كىرمەي
كىرمەيدىغان
كىرمەيدۇ
كىرودىيە
كىروران
كىرونا
كىرىدىغان
كىرىدىغانلىقىنى
كىرىدۇ
كىرىزىس
كىرىست
كىرىستال
كىرىش
كىرىشتى
كىرىشتىن
كىرىشتۈرۈلدى
كىرىشتۈرۈلگەن
كىرىشتۈرۈپ
كىرىشكە
كىرىشكەن
كىرىشنى
كىرىشى
كىرىشىدۇ
كىرىشىپ
كىرىشىگە
كىرىل
كىرىم
كىرىمنى
كىرىمى
كىرىمىنى
كىرىمىنىڭ
كىرىمگە
كىرىپ
كىرىپتۇ
كىري
كىرپە
كىرگۇزۇش
كىرگۈزدى
كىرگۈزىدۇ
كىرگۈزگۈچ
كىرگۈزگەن
كىرگۈزۈش
كىرگۈزۈشكە
كىرگۈزۈشنى
كىرگۈزۈلدى
كىرگۈزۈلىدۇ
كىرگۈزۈلگەن
كىرگۈزۈلۈپ
كىرگۈزۈپ
كىرگەن
كىرگەندىن
كىرگەندە
كىرگەنلىكى
كىرگەنلىكىنى
كىرەش
كىرەك
كىرەككى
كىرەكلىك
كىرەلەيدىغان
كىرەلەيدۇ
كىرەي
كىسلاتا
كىسلاتاسى
كىسلاتالىق
كىسىلى
كىسىپ
كىسەل
كىسەللىك
كىسەللىكلەر
كىشلىك
كىشلەر
كىشلەردىن
كىشلەرنى
كىشلەرنىڭ
كىشلەرگە
كىشنىڭ
كىشى
كىشىدىن
كىشىدۇر
كىشىدە
كىشىلىرى
كىشىلىرىمىز
كىشىلىرىنى
كىشىلىرىنىڭ
كىشىلىك
كىشىلىكى
كىشىلەر
كىشىلەردىكى
كىشىلەردىن
كىشىلەردۇر
كىشىلەردە
كىشىلەرلا
كىشىلەرمۇ
كىشىلەرنى
كىشىلەرنىڭ
كىشىلەرگە
كىشىمۇ
كىشىنى
كىشىنىڭ
كىشىگە
كىلاسسىك
كىلو
كىلومىتىر
كىلومېتر
كىلومېتىر
كىلومېتىردىن
كىلومېتىرغا
كىلومەتىر
كىلومەتەر
كىلون
كىلوگرام
كىلوگرامدىن
كىلوگرامغا
كىلوگرامغىچە
كىلوگىرام
كىلوۋات
كىلىدىغان
كىلىدۇ
كىلىش
كىلىشكە
كىلىشى
كىلىشىمى
كىلىمات
كىلىماتقا
كىلىماتى
كىلىماتىغا
كىلىماتىنىڭ
كىلىياڭ
كىلىپ
كىلىۋاتقان
كىلىۋاتىدۇ
كىلەتتى
كىم
كىمخاپ
كىمدىن
كىمدە
كىمكى
كىملىك
كىملىككە
كىملىكنى
كىملىكنىڭ
كىملىكى
كىملىكىنى
كىملىكىنىڭ
كىملىكىگە
كىملەر
كىملەرنىڭ
كىملەرگە
كىمنى
كىمنىڭ
كىمي
كىمگە
كىنايە
كىندىك
كىندىكى
كىنو
كىنوخانا
كىنودا
كىنولاردا
كىنونى
كىنونىڭ
كىنوچىلىق
كىنوچىلىقى
كىنىشكا
كىنىشكىسى
كىنىشكىسىنى
كىنگىت
كىنۇ
كىي
كىيدۈرۈپ
كىين
كىيىدىغان
كىيىش
كىيىم
كىيىملىرى
كىيىملىرىنى
كىيىملىك
كىيىملەر
كىيىملەرنى
كىيىمنى
كىيىمنىڭ
كىيىمى
كىيىمىنى
كىيىن
كىيىنكى
كىيىنمۇ
كىيىنىش
كىيىنىپ
كىيىنچە
كىيىپ
كىيىۋالغان
كىيگەن
كىچىك
كىچىكرەك
كىچىككىنە
كىچىكلىكى
كىچىكلىكىگە
كىچىكلەيدۇ
كىچىكلەپ
كىچىكى
كىچىكىدىن
كىچىكىدىنلا
كىچىكىدە
كىچىكىمدە
كىچىگىدىن
كىچە
كىچەك
كىڭ
كىڭەش
كىگىز
كىۋادرات
كىۋادىرات
كيوتو
كيۇرى
كۆتىرىپ
كۆتۈردى
كۆتۈرىدىغان
كۆتۈرىدۇ
كۆتۈرگەن
كۆتۈرگەندە
كۆتۈرۈش
كۆتۈرۈشكە
كۆتۈرۈلدى
كۆتۈرۈلىدۇ
كۆتۈرۈلگەن
كۆتۈرۈلگەندە
كۆتۈرۈلۈشى
كۆتۈرۈلۈپ
كۆتۈرۈپ
كۆتەردى
كۆتەرگەن
كۆتەك
كۆجە
كۆر
كۆردى
كۆردۇق
كۆردۈم
كۆرستىدۇ
كۆرسىتىدىغان
كۆرسىتىدىغانلىقىنى
كۆرسىتىدۇ
كۆرسىتىش
كۆرسىتىشكە
كۆرسىتىشنى
كۆرسىتىشى
كۆرسىتىشىچە
كۆرسىتىلدى
كۆرسىتىلىدۇ
كۆرسىتىلىشىچە
كۆرسىتىلگەن
كۆرسىتىلگەندە
كۆرسىتىلگەندەك
كۆرسىتىپ
كۆرسىتىۋاتقان
كۆرسىتەتتى
كۆرسىتەلەيدۇ
كۆرسىڭىز
كۆرسۈتۈپ
كۆرسە
كۆرسەتتى
كۆرسەتسە
كۆرسەتكۈچ
كۆرسەتكۈچى
كۆرسەتكەن
كۆرسەتكەندىن
كۆرسەتمىسى
كۆرسەتمە
كۆرسەتمەكتە
كۆرسەتمەيدۇ
كۆرسەك
كۆرصدۇ
كۆركەم
كۆرمىدىم
كۆرمىگەن
كۆرمەسلىك
كۆرمەي
كۆرمەيدىغان
كۆرمەيدۇ
كۆرنەرلىك
كۆرىدىغان
كۆرىدۇ
كۆرىسىز
كۆرىسەن
كۆرىشى
كۆرىكىدە
كۆرىلىدۇ
كۆرىمىز
كۆرىمەن
كۆرىنىدۇ
كۆرىنەرلىك
كۆرىۋالغىلى
كۆرىۋىلىشقا
كۆرىۋېلىشقا
كۆرپە
كۆرگىلى
كۆرگىنىدە
كۆرگىنىمدە
كۆرگۈچ
كۆرگەزمىسى
كۆرگەزمىسىدە
كۆرگەزمىسىگە
كۆرگەزمىگە
كۆرگەزمە
كۆرگەن
كۆرگەندىن
كۆرگەندە
كۆرگەندەك
كۆرگەنلەر
كۆرۇش
كۆرۈرمەن
كۆرۈرمەنلەرنىڭ
كۆرۈش
كۆرۈشتى
كۆرۈشتىن
كۆرۈشتۈم
كۆرۈشكە
كۆرۈشكەن
كۆرۈشكەندە
كۆرۈشنى
كۆرۈشى
كۆرۈشىدۇ
كۆرۈشىگە
كۆرۈشۈش
كۆرۈشۈشكە
كۆرۈشۈپ
كۆرۈلدى
كۆرۈلسە
كۆرۈلمىگەن
كۆرۈلمەكتە
كۆرۈلمەيدۇ
كۆرۈلىدىغان
كۆرۈلىدۇ
كۆرۈلگەن
كۆرۈلگەندە
كۆرۈلۈش
كۆرۈلۈشكە
كۆرۈلۈپ
كۆرۈندى
كۆرۈنسىمۇ
كۆرۈنمە
كۆرۈنمەس
كۆرۈنمەيدىغان
كۆرۈنمەيدۇ
كۆرۈنىدىغان
كۆرۈنىدۇ
كۆرۈنىشى
كۆرۈنچ
كۆرۈنگىنى
كۆرۈنگەن
كۆرۈنۈش
كۆرۈنۈشتە
كۆرۈنۈشكە
كۆرۈنۈشلىرى
كۆرۈنۈشلەر
كۆرۈنۈشلەرنى
كۆرۈنۈشنى
كۆرۈنۈشى
كۆرۈنۈشىنى
كۆرۈنۈپ
كۆرۈنەتتى
كۆرۈنەرلىك
كۆرۈپ
كۆرۈپتۇ
كۆرۈپلا
كۆرۈڭ
كۆرۈۋاتقان
كۆرۈۋالالايمىز
كۆرۈۋالغىلى
كۆرۈۋېلىش
كۆرۈۋېلىشقا
كۆرە
كۆرەتتى
كۆرەش
كۆرەلمەسلىك
كۆرەلمەي
كۆرەلمەيدىغان
كۆرەلمەيدۇ
كۆرەلەيدىغان
كۆرەلەيدۇ
كۆرەلەيسىز
كۆرەلەيمىز
كۆرەي
كۆز
كۆزدىن
كۆزدە
كۆزقاراش
كۆزلىرى
كۆزلىرىدىن
كۆزلىرىم
كۆزلىرىنى
كۆزلىرىگە
كۆزلىگەن
كۆزلۈك
كۆزلەر
كۆزلەپ
كۆزنى
كۆزنىكى
كۆزنىڭ
كۆزنەك
كۆزى
كۆزىتىش
كۆزىتىشكە
كۆزىتىشى
كۆزىتىپ
كۆزىدىن
كۆزىمىزگە
كۆزىنى
كۆزىگە
كۆزگە
كۆزۈم
كۆزۈمگە
كۆزۈڭنى
كۆزەتكىلى
كۆزەتكۈچ
كۆزەتكەن
كۆزەتكەندە
كۆك
كۆكتات
كۆكتاغ
كۆكتوقاي
كۆكتۈرك
كۆكتە
كۆكرەك
كۆكسى
كۆكسىدىكى
كۆككە
كۆكنى
كۆكنۇر
كۆكى
كۆكىرىپ
كۆكيار
كۆكچى
كۆكەرتىش
كۆل
كۆلتىكىن
كۆلنىڭ
كۆلى
كۆلىمى
كۆلىمىنى
كۆلىمىنىڭ
كۆلىنىڭ
كۆلىگە
كۆلەم
كۆلەمدىكى
كۆلەمدە
كۆلەملىك
كۆلەمگە
كۆممىقوناق
كۆممە
كۆمىچى
كۆمۈر
كۆمۈرچىلىك
كۆمۈش
كۆمۈلگەن
كۆمۈلۈپ
كۆمۈپ
كۆمەچ
كۆن
كۆندۈرۈش
كۆندۈرۈلگەن
كۆنچى
كۆنگەن
كۆنۈپ
كۆنەك
كۆيدۈرۈش
كۆيدۈرۈلگەن
كۆيدۈرۈپ
كۆينەك
كۆيگەن
كۆيۈك
كۆيۈمچان
كۆيۈنۈش
كۆيۈپ
كۆپ
كۆپتۇر
كۆپتۈرۈپ
كۆپرۈلۈ
كۆپرۈلۈنىڭ
كۆپرەك
كۆپرەكى
كۆپرەكىنى
كۆپرەكىنىڭ
كۆپرەكىگە
كۆپلىكى
كۆپلىگەن
كۆپلۈك
كۆپلۈكى
كۆپلۈكىنى
كۆپلۈكىگە
كۆپلەپ
كۆپى
كۆپىنچىسى
كۆپىنچىسىدە
كۆپىنچىسىنىڭ
كۆپىنچە
كۆپىيىدۇ
كۆپىيىش
كۆپىيىشكە
كۆپىيىشى
كۆپىيىشىگە
كۆپىيىپ
كۆپىيىۋاتقان
كۆپچىلىك
كۆپچىلىككە
كۆپچىلىكنىڭ
كۆپچىلىكى
كۆپۈك
كۆپۈنچىسى
كۆپۈنچە
كۆپۈيۈش
كۆپۈپ
كۆپەيتىدۇ
كۆپەيتىش
كۆپەيتىشكە
كۆپەيتىلگەن
كۆپەيتىپ
كۆپەيدى
كۆپەيگەن
كۆچ
كۆچكەن
كۆچكەندىن
كۆچكەندە
كۆچمە
كۆچمەن
كۆچمەنلىرى
كۆچمەنلىك
كۆچمەنلەر
كۆچمەنلەرنى
كۆچمەنلەرنىڭ
كۆچىدۇ
كۆچۈردى
كۆچۈرمە
كۆچۈرگەن
كۆچۈرۈش
كۆچۈرۈلدى
كۆچۈرۈلگەن
كۆچۈرۈلۈپ
كۆچۈرۈپ
كۆچۈش
كۆچۈشكە
كۆچۈشى
كۆچۈپ
كۆچەت
كۆڭلى
كۆڭلىدىن
كۆڭلىدە
كۆڭلىنى
كۆڭلىڭىز
كۆڭلىڭىزدىكى
كۆڭلىڭىزدە
كۆڭلىڭىزنى
كۆڭلىڭىزگە
كۆڭلىگە
كۆڭلۈم
كۆڭلۈمدىن
كۆڭلۈمدە
كۆڭلەك
كۆڭۇل
كۆڭۈل
كۆڭۈلدىكى
كۆڭۈلدىكىدەك
كۆڭۈلدە
كۆڭۈللۈك
كۆڭۈلنى
كۆڭۈلنىڭ
كۆڭۈلگە
كۆھنە
كۆۋادىرات
كۆۋرۈك
كۆۋرۈكلۈك
كۆۋرۈكى
كۇب
كۇبا
كۇبرا
كۇتۇبى
كۇتۇبۇ
كۇتۇپخانا
كۇتۇپخانىدا
كۇتۇپخانىسى
كۇتۇپخانىسىدا
كۇرد
كۇردلار
كۇرس
كۇرستا
كۇرسنى
كۇرسى
كۇرسىدا
كۇرسىغا
كۇرسىنى
كۇسەن
كۇسەننىڭ
كۇفى
كۇفە
كۇل
كۇلسۇم
كۇلۇب
كۇلۇبى
كۇلۇچ
كۇماندسى
كۇمىلاچ
كۇمپارتىيىسى
كۇمپارتىيە
كۇن
كۇندۇر
كۇنى
كۇنۇپكا
كۇي
كۇيا
كۇپ
كۇپايە
كۇچ
كۇچا
كۇچادا
كۇچادىكى
كۇچار
كۇچاغا
كۇچالىق
كۇچانىڭ
كۇچلۇك
كۇچى
كۇڭزى
كۇڭفۇزى
كۇۋادرات
كۇۋادىرات
كۇۋەيت
كۈتكەن
كۈتىدۇ
كۈتۈرۈپ
كۈتۈش
كۈتۈشتىكى
كۈتۈلمىگەن
كۈتۈپ
كۈتۈپخانا
كۈتۈپخانىسى
كۈتۈپخانىسىدا
كۈتۈۋالىدۇ
كۈتۈۋېلىش
كۈدە
كۈرىشى
كۈرىشىدە
كۈرىشىنى
كۈرىشىگە
كۈرۈش
كۈرۈپ
كۈرە
كۈرەش
كۈرەشتە
كۈرەشكە
كۈرەشلىرى
كۈرەشنى
كۈرەشنىڭ
كۈرەشچان
كۈز
كۈزدە
كۈزلۈك
كۈزىتىش
كۈزۈتۈش
كۈسەن
كۈسەنباي
كۈل
كۈلتۈر
كۈلتۈرلەر
كۈلتۈرنىڭ
كۈلتۈرى
كۈلتۈرىنى
كۈلتۈرەل
كۈلدى
كۈلرەڭ
كۈلكىلىك
كۈلكە
كۈلى
كۈلپەت
كۈلۈمى
كۈلۈپ
كۈلۈگ
كۈمۈش
كۈن
كۈنتەرتىپ
كۈنتەرتىپكە
كۈنجۈت
كۈندىكى
كۈندىلىك
كۈندىمۇ
كۈندىن
كۈندۇر
كۈندۈز
كۈندۈزلىرى
كۈندۈزنى
كۈندۈزنىڭ
كۈندۈزى
كۈندە
كۈندەك
كۈنسايىن
كۈنسىرى
كۈنسېرى
كۈنلىرى
كۈنلىرىدە
كۈنلىرىنى
كۈنلىرىنىڭ
كۈنلۈك
كۈنلەر
كۈنلەردىن
كۈنلەردە
كۈنلەرنى
كۈنلەرنىڭ
كۈنلەپ
كۈنمىڭ
كۈنمۇ
كۈننى
كۈننىڭ
كۈنى
كۈنىدىكى
كۈنىدىن
كۈنىدۇر
كۈنىدە
كۈنىمىز
كۈنىمىزدىكى
كۈنىمىزدە
كۈنىنى
كۈنىنىڭ
كۈنىگىچە
كۈنىگە
كۈنپېتىش
كۈنچىقىش
كۈنگىچە
كۈنگە
كۈنگەي
كۈنەس
كۈنەك
كۈي
كۈيباغ
كۈيتۇن
كۈيتۈن
كۈيى
كۈيي
كۈپ
كۈچ
كۈچتىن
كۈچسىز
كۈچكە
كۈچلىرى
كۈچلىرىنى
كۈچلىرىنىڭ
كۈچلىرىگە
كۈچلۇك
كۈچلۈك
كۈچلۈكرەك
كۈچلۈكلىكى
كۈچلۈكلۈك
كۈچلۈكلەر
كۈچلەر
كۈچلەرنى
كۈچلەرنىڭ
كۈچلەرگە
كۈچلەندۈرۈش
كۈچنى
كۈچنىڭ
كۈچى
كۈچىدىن
كۈچىمىز
كۈچىنى
كۈچىنىڭ
كۈچىيىدۇ
كۈچىيىشى
كۈچىيىپ
كۈچىيىۋاتقان
كۈچىڭىز
كۈچىڭىزنى
كۈچىگە
كۈچۈك
كۈچۈپ
كۈچەيتتى
كۈچەيتكەن
كۈچەيتىدۇ
كۈچەيتىش
كۈچەيتىشكە
كۈچەيتىشى
كۈچەيتىپ
كۈچەيدى
كۈچەيگەن
كۈچەپ
كۈڭۈل
كۋادرات
كۋادىرات
كۋادىرانتقا
كۋارتس
كېتىدىغان
كېتىدىغاندەك
كېتىدىغانلىقىنى
كېتىدىكەن
كېتىدۇ
كېتىش
كېتىشتى
كېتىشتىن
كېتىشكە
كېتىشنى
كېتىشنىڭ
كېتىشى
كېتىشىدىن
كېتىشىنى
كېتىشىنىڭ
كېتىشىگە
كېتىلگەن
كېتىمىز
كېتىمەن
كېتىپ
كېتىپتۇ
كېتىڭ
كېتىۋاتقان
كېتىۋاتقاندا
كېتىۋاتقانلىقىنى
كېتىۋاتىدۇ
كېتىۋېتىپ
كېتەتتى
كېتەر
كېتەلەيدۇ
كېتەي
كېرىكى
كېرىم
كېرىيە
كېرىپ
كېرەك
كېرەكسىز
كېرەككى
كېرەكلىك
كېرەكلىكى
كېرەكلىكىنى
كېرەكمۇ
كېرەم
كېزىك
كېزىپ
كېسلى
كېسىش
كېسىشكەن
كېسىشىش
كېسىل
كېسىلى
كېسىلىدۇ
كېسىلىنى
كېسىلىنىڭ
كېسىلىپ
كېسىلىگە
كېسىلگەن
كېسىم
كېسىمدە
كېسىمچى
كېسىمگە
كېسىپ
كېسەك
كېسەل
كېسەلدىن
كېسەللىك
كېسەللىككە
كېسەللىكلىرى
كېسەللىكلىرىنىڭ
كېسەللىكلەر
كېسەللىكلەرنى
كېسەللىكلەرنىڭ
كېسەللىكلەرگە
كېسەللىكنى
كېسەللىكنىڭ
كېسەللىكى
كېسەللىكىنىڭ
كېسەللەر
كېسەللەرنى
كېسەللەرنىڭ
كېسەللەرگە
كېسەلنى
كېسەلنىڭ
كېسەلگە
كېلت
كېلدىغان
كېلومېتىر
كېلىدىغان
كېلىدىغانلىقى
كېلىدىغانلىقىنى
كېلىدىغىنى
كېلىدىكەن
كېلىدۇ
كېلىش
كېلىشتىن
كېلىشتە
كېلىشكە
كېلىشكەن
كېلىشلەر
كېلىشى
كېلىشىدىن
كېلىشىم
كېلىشىملەر
كېلىشىمنامىسى
كېلىشىمنى
كېلىشىمى
كېلىشىمىنى
كېلىشىمىنىڭ
كېلىشىمىگە
كېلىشىمگە
كېلىشىنى
كېلىشىنىڭ
كېلىشىپ
كېلىشىچە
كېلىشىگە
كېلىمات
كېلىمىز
كېلىن
كېلىندى
كېلىنىدۇ
كېلىنگەن
كېلىپ
كېلىپتۇ
كېلىپلا
كېلىڭ
كېلىۋاتقان
كېلىۋاتقانلىقىنى
كېلىۋاتىدۇ
كېلىۋاتىمەن
كېلۇر
كېلەتتى
كېلەر
كېلەلمىگەن
كېلەلمەي
كېلەلمەيدۇ
كېلەلەيدۇ
كېلەچىكى
كېلەچەك
كېلەچەكتە
كېمىر
كېمىسازلىق
كېمىسى
كېمىنىڭ
كېمىيىپ
كېمە
كېمەيتىش
كېنى
كېنىشكىسى
كېنىيە
كېنەزلىك
كېين
كېينكى
كېينېس
كېينېسسىيە
كېينېسنىڭ
كېيىك
كېيىم
كېيىن
كېيىنرەك
كېيىنكى
كېيىنكىسى
كېيىنكىلەر
كېيىنكىلەرگە
كېيىنلا
كېيىنلىك
كېيىنمۇ
كېيىنچە
كېيىپ
كېپىل
كېپىللىك
كېپىنەك
كېپەك
كېچىدىلا
كېچىدۇ
كېچىدە
كېچىسى
كېچىش
كېچىشكە
كېچىك
كېچىكتۈرگەنلىك
كېچىكتۈرۈش
كېچىكتۈرۈپ
كېچىكىپ
كېچىلىرى
كېچىلىك
كېچىلىكى
كېچىلەپ
كېچىنى
كېچىنىڭ
كېچىپ
كېچىچە
كېچە
كېچەك
كېڭىشى
كېڭىشىدە
كېڭىشىش
كېڭىشىنىڭ
كېڭىشىپ
كېڭىشىگە
كېڭىيىدۇ
كېڭىيىشكە
كېڭىيىشى
كېڭىيىشىگە
كېڭىيىپ
كېڭىيىۋاتقان
كېڭەش
كېڭەشمىسى
كېڭەشمىسىنىڭ
كېڭەشمە
كېڭەشنىڭ
كېڭەيتتى
كېڭەيتكەن
كېڭەيتىش
كېڭەيتىشكە
كېڭەيتىلگەن
كېڭەيتىپ
كېڭەيدى
كېڭەيمىچىلىك
كېڭەيگەن
كېۋەز
كە
كەبى
كەبىر
كەبىسە
كەتبۇقا
كەتتى
كەتتىم
كەتتىڭ
كەتتىڭلار
كەتتۇق
كەتسىمۇ
كەتسۇن
كەتسە
كەتسەم
كەتكىلى
كەتكىنى
كەتكىنىگە
كەتكۈزۈپ
كەتكۈچە
كەتكەن
كەتكەندىن
كەتكەندە
كەتكەندەك
كەتكەنلىكتىن
كەتكەنلىكى
كەتكەنلىكىدىن
كەتكەنلىكىنى
كەتكەنلەر
كەتكەنىدى
كەتكەنىكەن
كەتكەچكە
كەتمىدى
كەتمىسۇن
كەتمىگەن
كەتمەسلىك
كەتمەسلىكى
كەتمەكچى
كەتمەن
كەتمەي
كەتمەيدىغان
كەتمەيدىكەن
كەتمەيدۇ
كەتمەيمەن
كەتىرا
كەركىدان
كەرىم
كەرىمدىكى
كەرىمدە
كەرىمنى
كەرىمنىڭ
كەرەيلەر
كەرەپشە
كەزگەن
كەس
كەسكىن
كەسكىنلىشىپ
كەسكەن
كەسمە
كەسىر
كەسىپ
كەسىپتىكى
كەسىپتىكىلەر
كەسىپتىن
كەسىپتە
كەسىپكە
كەسىپلىرى
كەسىپلەر
كەسىپلەردە
كەسىپلەرنى
كەسىپلەرنىڭ
كەسىپلەشكەن
كەسىپنى
كەسىپنىڭ
كەسىپى
كەسپ
كەسپداشلىرىنىڭ
كەسپى
كەسپىدىن
كەسپىدە
كەسپىم
كەسپىنى
كەسپىنىڭ
كەسپىي
كەسپىگە
كەش
كەشتىلىك
كەشتىلەنگەن
كەشمىر
كەشىپ
كەشپ
كەشپىيات
كەشپىياتى
كەشپىياتچى
كەشپىياتچىلار
كەكلىك
كەكە
كەل
كەلام
كەلتۇرۇش
كەلتۇرۇپ
كەلتۈردى
كەلتۈرمەكچى
كەلتۈرىدىغان
كەلتۈرىدۇ
كەلتۈرگىلى
كەلتۈرگۈچى
كەلتۈرگەن
كەلتۈرگەندە
كەلتۈرۈش
كەلتۈرۈشتە
كەلتۈرۈشكە
كەلتۈرۈشنى
كەلتۈرۈشنىڭ
كەلتۈرۈشى
كەلتۈرۈشىنى
كەلتۈرۈلدى
كەلتۈرۈلىدۇ
كەلتۈرۈلگەن
كەلتۈرۈلگەندىن
كەلتۈرۈلۈپ
كەلتۈرۈپ
كەلتۈرۈڭ
كەلدى
كەلدىم
كەلدىڭ
كەلدىڭىز
كەلدۇق
كەلسىمۇ
كەلسۇن
كەلسە
كەلسەك
كەلكۈن
كەلمىدى
كەلمىسە
كەلمىگەن
كەلمەس
كەلمەسلىكى
كەلمەكتە
كەلمەي
كەلمەيدىغان
كەلمەيدىغانلىقىنى
كەلمەيدۇ
كەلىمىسى
كەلىمىسىدىن
كەلىمىسىنىڭ
كەلىمە
كەلپىن
كەلگىلى
كەلگىنىدە
كەلگىنىگە
كەلگىچە
كەلگۈسى
كەلگۈسىدىكى
كەلگۈسىدە
كەلگۈسىنى
كەلگۈسىنىڭ
كەلگۈسىگە
كەلگۈچە
كەلگەن
كەلگەندىمۇ
كەلگەندىن
كەلگەندە
كەلگەنلىكى
كەلگەنلىكىدىن
كەلگەنلىكىنى
كەلگەنلىكىنىڭ
كەلگەنلىكىگە
كەلگەنلەر
كەلگەنلەرنى
كەلگەنلەرنىڭ
كەلگەنىدى
كەلگەنگە
كەلگەچكە
كەم
كەمال
كەمبەغەل
كەمبەغەللەر
كەمتۈك
كەمتەر
كەمتەرلىك
كەمدىن
كەمسىتىدىغان
كەمسىتىش
كەمسىتىشكە
كەمسىنىش
كەمسىنىشنىڭ
كەمىدە
كەمىنە
كەمپۈت
كەمچىل
كەمچىللىكىدىن
كەمچىلىك
كەمچىلىكى
كەمگىچە
كەن
كەنت
كەنتكە
كەنتلەر
كەنتلەردە
كەنتنىڭ
كەنتى
كەنتىدىكى
كەنتىدە
كەنتىگە
كەنجى
كەندىر
كەندىرى
كەنىت
كەني
كەي
كەينى
كەينىدىكى
كەينىدىن
كەينىدە
كەينىنى
كەينىگە
كەيپىيات
كەيپىياتتا
كەيپىياتقا
كەيپىياتنى
كەيپىياتنىڭ
كەيپىياتى
كەيپىياتىغا
كەيپىياتىنى
كەيگەن
كەپتۇ
كەپتەر
كەپسەن
كەچ
كەچتى
كەچتە
كەچقۇرۇن
كەچكىچە
كەچكەن
كەچلىرى
كەچلىك
كەچۈردى
كەچۈرمىشلىرى
كەچۈرمىشلىرىنى
كەچۈرمەكتە
كەچۈرىدۇ
كەچۈرگىن
كەچۈرگەن
كەچۈرۈش
كەچۈرۈشكە
كەچۈرۈم
كەچۈرۈپ
كەڭ
كەڭرى
كەڭرەك
كەڭسۇ
كەڭلىك
كەڭلىكتە
كەڭلىكى
كەھرىبا
كەھرىۋا
كەھف
ل
لا
لابن
لاتا
لاتىن
لاتىنچە
لاتۋىيە
لاتەي
لار
لاردا
لاردىن
لارغا
لارنى
لارنىڭ
لازا
لازىر
لازىم
لازىمسىز
لازىمكى
لازىملىق
لازىملىقىنى
لازېر
لاس
لاسكۇي
لال
لالە
لام
لاما
لامپا
لانكاستېر
لاي
لاياقەتسىز
لاياقەتلىك
لايدىن
لايغا
لايقا
لايىق
لايىقىدا
لايىھىسى
لايىھىسىنى
لايىھىلەش
لايىھىلەنگەن
لايىھىلەپ
لايىھە
لايىھەسى
لايىھەسىنى
لايىھەلەش
لايىھەلەنگەن
لايىھەلەپ
لاپ
لاچىن
لاگاش
لاگىر
لاگېر
لاگېردا
لاگېرغا
لاگېرلار
لاگېرلاردا
لاگېرلىرى
لاگېرلىرىغا
لاگېرلىرىنى
لاگېرلىرىنىڭ
لاگېرى
لاگېرىغا
لاھىيەلەش
لاۋ
لاۋرېنس
لاۋۇلداپ
لكل
للا
للاتحاد
للانضمام
لم
له
لو
لوبا
لوبىن
لوتپۇللا
لوتپۇللاھ
لوس
لوغاتىت
لوغەت
لوق
لوقمان
لوك
لوكنىڭ
لولى
لوندون
لوندوندا
لوندوندىكى
لوندۇن
لوي
لوياڭ
لويى
لوپ
لوپنۇر
لوڭ
لوڭقا
لوڭقسى
لوڭقسىدىكى
لوڭقىسى
لوڭقىسىنى
لوڭقىسىنىڭ
لوگو
لوگوسى
لوگىكا
لوگىكىلىق
لى
لىبرا
لىبېرال
لىبېرالىزم
لىتىپ
لىتۋا
لىتۋانىيە
لىدىر
لىدىرى
لىدېر
لىرا
لىراسى
لىرى
لىرىك
لىرىنى
لىق
لىك
لىكسىيە
لىكىن
لىل
لىم
لىمفا
لىمون
لىن
لىنكولن
لىنىيىسى
لىنىيىسىنى
لىنىيىسىنىڭ
لىنىيە
لىنىيەسى
لىنۇكس
لىي
لىياۋ
لىيۇ
لىپ
لىپەك
لىۋان
لىۋىيە
لي
لياڭ
لياۋ
لياۋنىڭ
ليۇ
ليۇكسېمبۇرگ
ليەن
ليەنجاڭ
لگ
لۆڭگە
لۇ
لۇت
لۇتفى
لۇتپۇللا
لۇتپۇللانىڭ
لۇتېر
لۇشۈن
لۇشەن
لۇغاتىت
لۇغىتى
لۇغىتىدە
لۇغەت
لۇغەتتە
لۇغەتىت
لۇغەتەيىن
لۇق
لۇكاس
لۇم
لۇي
لۇڭبو
لۇڭيەن
لۈكچۈن
لۈچېڭ
لېكتور
لېكسىكا
لېكسىكىلىق
لېكسىيە
لېكىن
لېنتىغا
لېنىن
لېنىنىزم
لېنىنگراد
لېي
لېگەن
لېگەنلەرگە
لېگەنگە
لەتىپلىرى
لەتىپىلىرى
لەتىپە
لەختە
لەر
لەردىن
لەرزان
لەرزىگە
لەرنى
لەرنىڭ
لەرگە
لەززەت
لەشكىرى
لەشكىرىي
لەشكەر
لەشكەرلىرى
لەشكەرلەر
لەغمەن
لەقىمى
لەقەم
لەقەملىرى
لەقەملىك
لەقەملەر
لەن
لەنجۇ
لەنجۇدا
لەنىتى
لەنەت
لەي
لەيلى
لەيلىسى
لەيلەپ
لەچېي
لەڭمەن
لەڭگەر
لەگلەك
لەھىستان
لەھۇم
لەۋزىدە
لەۋلەشكەن
لەۋلەشمىگەن
لەۋھە
م
ما
مابەينىدە
مات
ماتا
ماتورسىز
ماتورلۇق
ماتورى
ماتىرىيال
ماتىرىياللار
ماتىرىياللاردا
ماتىرىياللارغا
ماتىرىياللارنى
ماتىرىياللىرى
ماتىريال
ماتىرياللار
ماتىرياللاردىن
ماتىرياللىرى
ماتىريالى
ماتىماتىكا
ماتېرىيال
ماتېرىياللار
ماتېرىياللاردا
ماتېرىياللاردىن
ماتېرىياللارغا
ماتېرىياللارنى
ماتېرىياللارنىڭ
ماتېرىياللىرى
ماتېرىياللىرىدىن
ماتېرىياللىرىنى
ماتېرىيالنى
ماتېرىيالنىڭ
ماتېرىيالى
ماتېرىيالىغا
ماتېرىيالىنى
ماتېريال
ماتېرياللار
ماتېماتىك
ماتېماتىكا
ماتېماتىكلار
ماتېماتىكىدا
ماتېماتىكىلىق
ماتېماتىكىنى
ماتېماتىكىنىڭ
ماتەم
ماجىرا
ماجىراسى
ماجىرالارنى
ماجۇڭيىڭ
ماجۇڭيىڭنىڭ
ماجە
ماجەنساڭ
ماجەنساڭنىڭ
ماختاش
ماختاپ
ماختىشىغا
ماخمۇت
ماخۇسەن
ماداغاسقار
ماددا
ماددامىللىي
مادداي
ماددى
ماددىدىن
ماددىسى
ماددىسىدا
ماددىسىدىكى
ماددىسىدىن
ماددىسىنىڭ
ماددىغا
ماددىلار
ماددىلاردا
ماددىلارغا
ماددىلارنى
ماددىلارنىڭ
ماددىلىرى
ماددىلىرىدا
ماددىلىرىدىكى
ماددىلىق
ماددىنى
ماددىنىڭ
ماددىي
ماددە
مادرىد
ماراتخا
ماراكەش
مارالبېشى
ماراپ
مارت
مارتتا
مارتتىن
مارتقىچە
مارتىن
مارجان
مارس
مارش
مارشال
مارشى
مارك
ماركا
ماركس
ماركسىزم
ماركو
ماركىس
ماركىسى
ماركىسىزىم
ماركىسىغا
ماركىسىنى
ماركىسىنىڭ
ماركىلىق
مارمارا
مارى
مارىنو
مارىي
مارىيا
مارىيە
مازار
مازارنىڭ
مازارى
مازاق
مازىرى
ماس
ماساكازۇ
ماسسا
ماسساچۇسېتس
ماسسىسى
ماسكا
ماسلاشتۇرۇش
ماسلاشتۇرۇپ
ماسلاشقان
ماسلىشىدۇ
ماسلىشىش
ماسلىشىشى
ماسلىشىشچانلىقى
ماسلىشىپ
ماسىك
ماش
ماشىنا
ماشىنسازلىق
ماشىنلىرىنى
ماشىنىدا
ماشىنىسازلىق
ماشىنىسى
ماشىنىسىغا
ماشىنىسىنى
ماشىنىسىنىڭ
ماشىنىغا
ماشىنىلار
ماشىنىلاشتۇرۇش
ماشىنىلىرى
ماشىنىلىرىنى
ماشىنىلىرىنىڭ
ماشىنىلىق
ماشىنىنى
ماشىنىنىڭ
ماشۇ
مافۇيۈەن
مافۇيۈەننىڭ
ماقال
ماقالنى
ماقالىدا
ماقالىدىكى
ماقالىدە
ماقالىسى
ماقالىسىدا
ماقالىسىدە
ماقالىسىنى
ماقالىلار
ماقالىلارنى
ماقالىلىرى
ماقالىلىرىدە
ماقالىلىرىنى
ماقالىلىرىنىڭ
ماقالىلەر
ماقالىلەردە
ماقالىلەرنى
ماقالىلەرنىڭ
ماقالىنى
ماقالىنىڭ
ماقالىگە
ماقالە
ماقالەمدە
ماقالەمنى
ماقۇل
ماقۇللاندى
ماقۇللانغان
ماقۇللاپ
ماقۇللىدى
ماقۇللىغان
ماقۇللىنىپ
ماقۇللۇقى
ماقۇللۇقىدىن
ماقۇللۇقىنى
ماكان
ماكاندا
ماكانغا
ماكانلاشقان
ماكانلىرىنى
ماكانى
ماكانىغا
ماكرو
ماكسىۋېل
ماكىس
ماكىي
ماكىياتو
ماكېدونىيە
مال
مالاي
مالايسىيا
مالايسىيادىكى
مالايسىيە
مالتا
مالدىۋې
مالغا
مالكولم
ماللار
ماللارنى
ماللىرى
ماللىرىنى
مالنى
مالنىڭ
مالى
مالىك
مالىكنىڭ
مالىكىي
مالىنا
مالىيە
مام
ماماتلىق
مامۇت
مان
مانا
ماناس
مانتا
مانتىسى
مانتىنى
مانجۇ
مانجۇلار
مانجۇلارنىڭ
مانجۇچە
ماندا
ماندارىن
ماندىلا
ماندېلا
مانى
مانىي
مانچە
مانگان
ماي
مايدا
مايدانى
مايسا
مايكىل
مايكېل
مايلىق
مايلىقدان
مايماق
مايمۇن
مايمۇنلار
ماينى
ماينىڭ
مايور
مايورلۇق
مايىل
مايىللىق
مايىللىقى
مايىللىقىنى
ماچىن
ماڭ
ماڭا
ماڭاتتى
ماڭالايدۇ
ماڭدى
ماڭدىم
ماڭدىڭىز
ماڭدۇرۇش
ماڭدۇرۇپ
ماڭدۇق
ماڭسا
ماڭساق
ماڭسىڭىز
ماڭغان
ماڭغاندا
ماڭغاندىن
ماڭغىلى
ماڭقۇرت
ماڭلاي
ماڭىدىغان
ماڭىدۇ
ماڭىمۇ
ماگما
ماگنىت
ماگنىتلىق
ماگىستىر
ماگىستىرلىق
ماگىستىرلىقتا
ماگىستىرى
ماگىستېر
ماگىستېرلىق
ماگىنىت
ماگىنىتلىق
ماھارىتى
ماھارىتىنى
ماھارىتىگە
ماھارەت
ماھارەتلىرىنى
ماھارەتلىك
ماھى
ماھىر
ماھىرلىرى
ماھىرلىق
ماھىرى
ماھىرە
ماھىنۇر
ماھىيتى
ماھىيىتى
ماھىيىتىنى
ماھىيىتىگە
ماھىيەت
ماھىيەتتە
ماھىيەتلىك
ماۋ
ماۋراي
ماۋرەي
ماۋزۇ
ماۋزۇدا
ماۋزۇسى
ماۋزۇلۇق
ماۋزېدوڭ
ماۋزېدۇڭ
ماۋۇ
ماۋەرا
ماۋەراي
مةدةنىيىتى
مجلس
محمد
مختصر
مدە
مسند
مع
معجم
مـ
مما
من
مو
موتسىكلىت
مودا
مودىل
مودىلى
مودىن
مودۇل
مودېل
مودېلى
مور
مورا
مورغاپ
مورفولوگىيىلىك
مورنىڭ
مورى
موزا
موزاي
موزدۇز
موزدۇزلۇق
موسكىۋا
موسكۋا
موسكۋادا
موسكۋادىكى
موسكۋادىن
موسكۋاغا
موسكۋانىڭ
موسولمان
موشۇ
موضوع
موغا
موغۇل
موغۇلىستان
موكا
مول
مولتىمىتىر
مولدوۋا
موللا
موللاخۇن
موللاق
موللام
موللۇق
مولېكۇلا
موم
موما
موماي
موماينىڭ
مومكىن
مونوپول
موي
مويۇنچۇر
مويۇنچۈر
موڭغۇل
موڭغۇلكۈرە
موڭغۇللار
موڭغۇللاردىن
موڭغۇللارغا
موڭغۇللارنى
موڭغۇللارنىڭ
موڭغۇللىرىنىڭ
موڭغۇلنىڭ
موڭغۇلىيە
موڭغۇلىيەدىكى
موڭغۇلچە
موگۇ
موھتاج
موھىت
موھىتتا
موھىتقا
موھىتنىڭ
موھىم
موھىمى
مىتال
مىتود
مىتىر
مىجىت
مىجەز
مىجەزى
مىجەزىنى
مىخ
مىخانىك
مىخاي
مىخلىق
مىدال
مىدىتسىنا
مىدىيەلىك
مىر
مىراب
مىراس
مىراسلارنى
مىراسلىرى
مىراسلىرىغا
مىراسلىرىنى
مىراسى
مىرزا
مىرسۇلتان
مىركامىل
مىري
مىرەخمەتجان
مىرەن
مىزاج
مىزان
مىزانى
مىس
مىسال
مىسالغا
مىساللار
مىساللاردىن
مىساللارنى
مىساللىرى
مىسالى
مىسالىدۇر
مىسالەن
مىسرا
مىسرادىن
مىسرالار
مىسرالىرى
مىسران
مىسقال
مىسكىن
مىسكىنلەرگە
مىسلى
مىسلىسىز
مىسىر
مىسىردا
مىسىردىكى
مىسىردىن
مىسىرغا
مىسىرلىق
مىسىرلىقلار
مىسىرنى
مىسىرنىڭ
مىش
مىشا
مىق
مىقتاردا
مىقدار
مىقداردا
مىقداردىكى
مىقدارلاشتۇرۇش
مىقدارلىق
مىقدارى
مىقدارىدا
مىقدارىغا
مىقدارىنى
مىقدارىنىڭ
مىقياسىدا
مىكرو
مىكروسكوپ
مىكروسوفت
مىكروسوفىت
مىكروفون
مىكسىكا
مىكىر
مىل
مىلاد
مىلادى
مىلادىدىن
مىلادىنىڭ
مىلادىيىدىن
مىلادىيە
مىلادىيەدىن
مىلان
مىلتىق
مىلتىقى
مىللـ
مىللى
مىللىتى
مىللىتىدىن
مىللىتىم
مىللىتىمىز
مىللىتىمىزنى
مىللىتىمىزنىڭ
مىللىتىنى
مىللىتىنىڭ
مىللىتىگە
مىللىلىتىر
مىللىلىتىردىن
مىللىمېتىر
مىللىمېتىردىن
مىللىمېتىرغىچە
مىللىي
مىللىيلىك
مىللىيەتى
مىللىگرام
مىللي
مىللەت
مىللەتتىكى
مىللەتتىن
مىللەتتۇر
مىللەتتە
مىللەتشۇناسلىق
مىللەتكە
مىللەتلار
مىللەتلىرى
مىللەتلىرىدىن
مىللەتلىرىنىڭ
مىللەتلىك
مىللەتلەر
مىللەتلەردىن
مىللەتلەردە
مىللەتلەرمۇ
مىللەتلەرنى
مىللەتلەرنىڭ
مىللەتلەرگە
مىللەتمۇ
مىللەتنى
مىللەتنىڭ
مىللەتپەرۋەر
مىللەتپەرۋەرلىك
مىللەتچى
مىللەتچىلىك
مىللەتچىلىكى
مىلى
مىلىيارد
مىلىيون
مىلىيوندىن
مىلىيۇن
مىليارت
مىليارد
مىلياردېر
مىليون
مىليوندىن
مىليونغا
مىليونغىچە
مىليونلىغان
مىليونېر
مىليۇن
مىليۇندىن
مىن
مىنا
مىندۈرۈپ
مىنلەرنىڭ
مىننەتدار
مىننەتدارلىق
مىنى
مىنىستىر
مىنىستىرلار
مىنىستىرلىرى
مىنىستىرلىق
مىنىستىرلىقى
مىنىستىرلىقىنىڭ
مىنىستىرلىك
مىنىستىرلىكى
مىنىستىرلىكىغا
مىنىستىرلىكىنىڭ
مىنىستىرلىكىگە
مىنىستىرى
مىنىستېر
مىنىستېرلار
مىنىستېرى
مىنىش
مىنىشكە
مىنىپ
مىنىڭ
مىنىڭچە
مىنگو
مىنگونىڭ
مىنگەن
مىنۇت
مىنۇتتا
مىنۇتتىن
مىنۇتقا
مىنۇتقىچە
مىنۇتلۇق
مىنۇس
مىنۇن
مىنېرال
مىي
مىيۇنخىن
مىچىگان
مىچۈەن
مىڭ
مىڭدىن
مىڭغا
مىڭغىچە
مىڭلارچە
مىڭلاپ
مىڭلىغان
مىڭنى
مىڭى
مىڭىگە
مىڭي
مىڭە
مىھرى
مىھرىبان
مىھمان
مىھمانلار
مىۋىسى
مىۋە
ميدىيا
مۆتىدىل
مۆتىۋەر
مۆجىزىلىك
مۆجىزىلەر
مۆجىزە
مۆلچەر
مۆلچەرلىنىشىچە
مۆلچەرلىگىلى
مۆلچەرلەش
مۆلچەرلەپ
مۆمىن
مۆمىنجان
مۆمىنلەر
مۆمىنلەرنىڭ
مۆي
مۆيدىن
مۆچەل
مۆچەلنىڭ
مۆھتىرەم
مۆھلىتى
مۆھلىتىنى
مۆھلەت
مۆھلەتتە
مۆھۈر
مۇ
مۇبادا
مۇبارەك
مۇبالىغە
مۇباھ
مۇبەششىر
مۇتلەق
مۇتىي
مۇتىۋۇللا
مۇتەخەسسىس
مۇتەخەسسىسلىرى
مۇتەخەسسىسلىرىنىڭ
مۇتەخەسسىسلەر
مۇتەخەسسىسلەرنىڭ
مۇتەخەسسىسى
مۇتەخەسىس
مۇتەخەسىسلەر
مۇتەسەۋۋۇپلار
مۇتەفاي
مۇتەللىپ
مۇتەللىپكە
مۇتەللىپنى
مۇتەللىپنىڭ
مۇتەي
مۇتەپەككۇر
مۇتەپەككۇرى
مۇتەھقىق
مۇجاھىتلار
مۇجاھىتلارنىڭ
مۇجاھىد
مۇجتەھىد
مۇجى
مۇجەسسەم
مۇجەسسەملىگەن
مۇجەسسەملەنگەن
مۇجەللى
مۇخالىپ
مۇخبىر
مۇخبىرغا
مۇخبىرلار
مۇخبىرلىق
مۇخبىرنىڭ
مۇخبىرى
مۇختار
مۇختەر
مۇختەرجان
مۇختەسەر
مۇخەممەس
مۇداپىي
مۇداپىيە
مۇددىتى
مۇددىتىدە
مۇددىتىنى
مۇددىي
مۇددەت
مۇددەتتىن
مۇددەتتە
مۇددەتسىز
مۇددەتكىچە
مۇددەتكە
مۇددەتلىك
مۇدىر
مۇدىرلار
مۇدىرلارنىڭ
مۇدىرلىرى
مۇدىرلىق
مۇدىرلىقى
مۇدىرلىقىغا
مۇدىرلىقىنى
مۇدىرنىڭ
مۇدىرى
مۇدىرىنىڭ
مۇدىرىيەت
مۇدىرىيەتنىڭ
مۇدھىش
مۇدەررىس
مۇدەررىسلىك
مۇر
مۇراببا
مۇرابباسى
مۇرات
مۇراتنىڭ
مۇراجىي
مۇراجەت
مۇراد
مۇرادىغا
مۇراسىم
مۇراسىمدا
مۇراسىمغا
مۇراسىملار
مۇراسىملارنى
مۇراسىملىرى
مۇراسىمى
مۇراسىمىدا
مۇراسىمىغا
مۇرت
مۇرتەزا
مۇرسەل
مۇرىت
مۇرىتلىرى
مۇرىتى
مۇرەسسە
مۇرەسسەسىز
مۇرەسسەنامە
مۇرەسسەچىلىرى
مۇرەككەپ
مۇز
مۇزاكىرە
مۇزتاغ
مۇزدەك
مۇزلار
مۇزلۇق
مۇزىكا
مۇزىكانت
مۇزىكانتلار
مۇزىكىسى
مۇزىكىسىنى
مۇزىكىسىنىڭ
مۇزىكىغا
مۇزىكىلار
مۇزىكىلارنى
مۇزىكىلىرى
مۇزىكىلىرىنى
مۇزىكىلىق
مۇزىكىنى
مۇزىكىنىڭ
مۇزىيى
مۇزېي
مۇزېيى
مۇزېيىدا
مۇسا
مۇساباي
مۇسابايوۋ
مۇسابايوۋلارنىڭ
مۇسابىقىدىن
مۇسابىقىدە
مۇسابىقىسدە
مۇسابىقىسى
مۇسابىقىسىدا
مۇسابىقىسىدە
مۇسابىقىسىنى
مۇسابىقىسىنىڭ
مۇسابىقىسىگە
مۇسابىقىلىشىدۇ
مۇسابىقىلەرگە
مۇسابىقىنىڭ
مۇسابىقىگە
مۇسابىقە
مۇساجان
مۇسادىرە
مۇسانىڭ
مۇساپىر
مۇساپىرلار
مۇساپىسى
مۇساپىسىدە
مۇساپىسىنى
مۇساپىلىك
مۇساپىنى
مۇساپە
مۇسبەت
مۇستافا
مۇستاككىل
مۇستاپا
مۇستەبىت
مۇستەسنا
مۇستەفي
مۇستەققىل
مۇستەقىل
مۇستەقىللىق
مۇستەقىللىقتىن
مۇستەقىللىققا
مۇستەقىللىقنى
مۇستەقىللىقى
مۇستەقىللىقىنى
مۇستەملىكىسى
مۇستەملىكىسىگە
مۇستەملىكىلىرى
مۇستەملىكىچى
مۇستەملىكىچىلىك
مۇستەملىكىچىلىككە
مۇستەملىكىچىلەر
مۇستەملىكىگە
مۇستەملىكە
مۇستەھكەم
مۇستەھكەملىدى
مۇستەھكەملىگەن
مۇستەھكەملەش
مۇستەھەپ
مۇسكۇل
مۇسكۇللار
مۇسكۇللارنى
مۇسكۇللىرى
مۇسكۇلى
مۇسلىم
مۇسنەدۇ
مۇسىبەت
مۇسي
مۇسۇلمان
مۇسۇلمانلار
مۇسۇلمانلاردىن
مۇسۇلمانلارغا
مۇسۇلمانلارنى
مۇسۇلمانلارنىڭ
مۇسۇلمانلىرى
مۇسۇلمانلىرىغا
مۇسۇلمانلىرىنى
مۇسۇلمانلىرىنىڭ
مۇسۇلمانلىق
مۇسۇلماننى
مۇسۇلماننىڭ
مۇسۇلمانچە
مۇسەللەس
مۇسەۋىيلىك
مۇش
مۇشت
مۇشتەرى
مۇشرىكلار
مۇشۇ
مۇشۇلارنى
مۇشۇنداق
مۇشۇنىڭ
مۇشۇنىڭغا
مۇشەررەپ
مۇشەققەت
مۇشەققەتكە
مۇشەققەتلىك
مۇغلا
مۇفتەي
مۇفەسسىر
مۇقام
مۇقامشۇناس
مۇقاملىرى
مۇقاملىرىنىڭ
مۇقامنى
مۇقامنىڭ
مۇقامى
مۇقامىنى
مۇقامىنىڭ
مۇقان
مۇقاۋا
مۇقاۋىسى
مۇقاۋىسىغا
مۇقىم
مۇقىملاشتۇرۇش
مۇقىملىقى
مۇقىملىقىنى
مۇقەددىمىسى
مۇقەددىمىسىدە
مۇقەددىمىسىنى
مۇقەددىمە
مۇقەددەس
مۇقەددەسلىكى
مۇقەددەم
مۇقەررەر
مۇكاپات
مۇكاپاتقا
مۇكاپاتلار
مۇكاپاتلارغا
مۇكاپاتلارنى
مۇكاپاتلاش
مۇكاپاتلاندى
مۇكاپاتلانغان
مۇكاپاتلايدۇ
مۇكاپاتلىنىدۇ
مۇكاپاتى
مۇكاپاتىغا
مۇكاپاتىنى
مۇكاپاتىنىڭ
مۇكەررەمە
مۇكەممەل
مۇكەممەللىشىپ
مۇكەممەللىك
مۇكەممەللىككە
مۇكەممەللىكى
مۇكەممەللىكىنى
مۇكەممەللەشتۈرىدۇ
مۇكەممەللەشتۈرگەن
مۇكەممەللەشتۈرۈش
مۇكەممەللەشتۈرۈشى
مۇكەممەللەشتۈرۈپ
مۇكەممەللەشمەكتە
مۇلازىملىق
مۇلازىمىتى
مۇلازىمىتىر
مۇلازىمىتىنى
مۇلازىمىتىگە
مۇلازىمەت
مۇلازىمەتتە
مۇلازىمەتكە
مۇلازىمەتنى
مۇلازىمەتنىڭ
مۇلايىم
مۇلاھىزىلەر
مۇلاھىزە
مۇمكىن
مۇمكىندۇر
مۇمكىنكى
مۇمكىنلىكىنى
مۇمكىنمۇ
مۇمكىنچىلىكى
مۇن
مۇناجات
مۇنار
مۇنارنى
مۇنارنىڭ
مۇنارى
مۇنارىنىڭ
مۇنازىرىدە
مۇنازىرىسى
مۇنازىرىلىشىش
مۇنازىرىلىشىپ
مۇنازىرىلەر
مۇنازىرىنى
مۇنازىرىنىڭ
مۇنازىرىگە
مۇنازىرە
مۇناسىبەتلىك
مۇناسىپ
مۇناسىۋىتى
مۇناسىۋىتىدىكى
مۇناسىۋىتىدە
مۇناسىۋىتىنى
مۇناسىۋىتىنىڭ
مۇناسىۋىتىگە
مۇناسىۋېتى
مۇناسىۋەت
مۇناسىۋەتتىن
مۇناسىۋەتتە
مۇناسىۋەتسىز
مۇناسىۋەتكە
مۇناسىۋەتلىرى
مۇناسىۋەتلىرىنى
مۇناسىۋەتلىك
مۇناسىۋەتلىكتۇر
مۇناسىۋەتلەر
مۇناسىۋەتلەردە
مۇناسىۋەتلەرنى
مۇناسىۋەتلەرنىڭ
مۇناسىۋەتنى
مۇناسىۋەتنىڭ
مۇناسۋەتلىك
مۇناپىق
مۇناپىقلىق
مۇنبىرى
مۇنبىرىدە
مۇنبىرىگە
مۇنبەت
مۇنبەر
مۇنبەرگە
مۇنتىزىم
مۇنداق
مۇنداقچە
مۇندىن
مۇندەرىجىسى
مۇندەرىجە
مۇنزىر
مۇنقەرز
مۇنقەرىز
مۇنىر
مۇنىرىدىن
مۇنچا
مۇنچە
مۇنۇ
مۇنۇلار
مۇنۇلارنى
مۇنەۋۋەر
مۇنەۋەر
مۇي
مۇيۇنچۇر
مۇيەسسەر
مۇپتى
مۇپتىلا
مۇپەتتىش
مۇپەتتىشلىك
مۇپەتتىشى
مۇپەسسەل
مۇچ
مۇڭ
مۇڭغۇل
مۇڭغۇللار
مۇڭغۇللارنىڭ
مۇڭلۇق
مۇھاجىر
مۇھاجىرلار
مۇھاجىرلارنىڭ
مۇھاجىرەتتىكى
مۇھاسىرىگە
مۇھاسىرە
مۇھاكىمە
مۇھاكىمەتۇل
مۇھاپىزىتى
مۇھاپىزىكار
مۇھاپىزىكارلىق
مۇھاپىزەت
مۇھاپىزەتچى
مۇھاپىزەتچىلەر
مۇھتاج
مۇھىت
مۇھىتتا
مۇھىتتىن
مۇھىتقا
مۇھىتنى
مۇھىتنىڭ
مۇھىتى
مۇھىتىدا
مۇھىتىغا
مۇھىتىنى
مۇھىتىنىڭ
مۇھىم
مۇھىملىرى
مۇھىملىرىدىن
مۇھىملىق
مۇھىملىقى
مۇھىملىقىنى
مۇھىمى
مۇھەببىتى
مۇھەببىتىنى
مۇھەببەت
مۇھەببەتكە
مۇھەببەتلىك
مۇھەببەتنى
مۇھەببەتنىڭ
مۇھەددىس
مۇھەررىر
مۇھەررىردىن
مۇھەررىرلىك
مۇھەررىرلىكىنى
مۇھەررىرى
مۇھەررەم
مۇھەممىدى
مۇھەممەت
مۇھەممەتنىڭ
مۇھەممەتي
مۇھەممەد
مۇھەممەدخان
مۇھەممەدشاھ
مۇھەممەدكە
مۇھەممەدنى
مۇھەممەدنىڭ
مۇھەممەدىن
مۇھەممەدي
مۇۋاپىق
مۇۋاپىقىيەت
مۇۋەتتا
مۇۋەققەت
مۇۋەپپىقىيەت
مۇۋەپپىقىيەتلىك
مۇۋەپپەق
مۇۋەپپەقىيىتى
مۇۋەپپەقىيىتىنى
مۇۋەپپەقىيەت
مۇۋەپپەقىيەتكە
مۇۋەپپەقىيەتلىرى
مۇۋەپپەقىيەتلىرىنى
مۇۋەپپەقىيەتلىك
مۇۋەپپەقىيەتلەر
مۇۋەپپەقىيەتلەرنى
مۇۋەپپەقىيەتنىڭ
مۈجمەل
مۈشكۈل
مۈشۈك
مۈلكى
مۈلكىنى
مۈلكىنىڭ
مۈلكىگە
مۈلۈك
مۈلۈككە
مۈلۈكلەرنى
مۈلۈكنى
مۈلۈكنىڭ
مۈلۈكى
مۈلۈكىنى
مۈلۈكچىلىك
مۈلۈكچىلىكىدىكى
مۈمكىن
مۈڭگۈز
مۈڭگۈزى
مېتال
مېتان
مېتر
مېترو
مېتروسى
مېتود
مېتودى
مېتىر
مېتىردىن
مېتىرغا
مېتىرغىچە
مېتىرلىق
مېتىل
مېتېي
مېخانىزمى
مېخانىزىمى
مېخانىك
مېخانىكا
مېخانىكىلىق
مېدال
مېدالغا
مېدىتسىنا
مېدىتسىناسىدا
مېدىي
مېدىيا
مېدىيادا
مېدىيادىن
مېدىياغا
مېدىيانى
مېدىيانىڭ
مېردىي
مېركۇرىي
مېسسوپوتامىيە
مېسوپوتامىيە
مېغىزلىق
مېغىزى
مېغىزىنى
مېغىزىنىڭ
مېكسىكا
مېلىنى
مېنى
مېنىمۇ
مېنىڭ
مېنىڭمۇ
مېنىڭچە
مېي
مېيجى
مېيى
مېيىت
مېيىتنى
مېيىتنىڭ
مېيىپ
مېيىپلار
مېيىپلىك
مېيىپلەر
مېيىپلەردىن
مېيىپلەرنى
مېيىپلەرنىڭ
مېيىپلەرگە
مېڭىسى
مېڭىسىدە
مېڭىسىنى
مېڭىسىنىڭ
مېڭىش
مېڭىشقا
مېڭىشنى
مېڭىشى
مېڭىشىغا
مېڭىنى
مېڭىنىڭ
مېڭىپ
مېڭىگە
مېڭىۋاتقان
مېڭە
مېھراب
مېھرابچە
مېھراي
مېھرى
مېھرىبان
مېھرىبانلىق
مېھرىبانۇ
مېھرىگۈل
مېھمان
مېھمانخانا
مېھماندارچىلىق
مېھماندوست
مېھمانغا
مېھمانلار
مېھمانلارغا
مېھمانلارنى
مېھمانلارنىڭ
مېھماننى
مېھنەت
مېھىر
مېۋىسى
مېۋىسىنى
مېۋىسىنىڭ
مېۋىلىرى
مېۋىلىرىنى
مېۋىلىك
مېۋىلەر
مېۋىلەرنى
مېۋىلەرنىڭ
مېۋىلەيدۇ
مېۋە
مە
مەبلىغى
مەبلىغىنى
مەبلەغ
مەبلەغنى
مەبلەغنىڭ
مەبۇد
مەت
مەتبۇخ
مەتبۇخى
مەتبۇي
مەتبەي
مەتتۇرسۇن
مەتقۇربان
مەتنىياز
مەتىن
مەجالىسۇن
مەجبورصيەت
مەجبۇر
مەجبۇرلاش
مەجبۇرلانغان
مەجبۇرلايدۇ
مەجبۇرلاپ
مەجبۇرلىغان
مەجبۇرى
مەجبۇرىي
مەجبۇرىيىتى
مەجبۇرىيىتىنى
مەجبۇرىيەت
مەجبۇرىيەتلىرىنى
مەجبۇرىيەتلەر
مەجبۇرىيەتلەرنى
مەجبۇرىيەتلەرنىڭ
مەجبۇرىيەتنى
مەجبۇرەن
مەجلىس
مەجلىسى
مەجلىسىنىڭ
مەجلىسىگە
مەجمۇي
مەجنۇن
مەجۇنى
مەجۈج
مەجۈجلەر
مەختۇمسۇلا
مەختۇمسۇلاغا
مەختۇمسۇلانىڭ
مەخسۇت
مەخسۇدىيە
مەخسۇس
مەخسۇم
مەخسۇمنىڭ
مەخسەت
مەخلۇق
مەخلۇقلار
مەخمۇت
مەخپى
مەخپىي
مەخپىيىتى
مەخپىيىتىدىن
مەخپىيىتىنى
مەخپىيەتلىك
مەخپىيەتلىكنى
مەخپىيەتلىكىنى
مەددە
مەدرىس
مەدرىستە
مەدرىسكە
مەدرىسلەر
مەدرىسلەردە
مەدرىسى
مەدرىسىدە
مەدرىسە
مەدرىسەسى
مەدرىسەنىڭ
مەدىنىدىكى
مەدىنىدىن
مەدىنىدە
مەدىنىيىتى
مەدىنىيەت
مەدىنىگە
مەدىنە
مەدىنەدىكى
مەدىنەدە
مەدىنەنىڭ
مەدىنەگە
مەدھىيە
مەدەت
مەدەن
مەدەنى
مەدەنىي
مەدەنىيتى
مەدەنىيتىنىڭ
مەدەنىيلىك
مەدەنىيىتى
مەدەنىيىتىدىكى
مەدەنىيىتىدىن
مەدەنىيىتىدە
مەدەنىيىتىنى
مەدەنىيىتىنىڭ
مەدەنىيىتىگە
مەدەنىيەت
مەدەنىيەتتىكى
مەدەنىيەتتىن
مەدەنىيەتتە
مەدەنىيەتكە
مەدەنىيەتلىرىنىڭ
مەدەنىيەتلىك
مەدەنىيەتلەر
مەدەنىيەتلەردە
مەدەنىيەتلەرنىڭ
مەدەنىيەتنى
مەدەنىيەتنىڭ
مەدەنيىتى
مەدەنيەت
مەر
مەرت
مەرتىۋىسى
مەرتىۋىسىگە
مەرتىۋىگە
مەرتىۋە
مەرتە
مەرد
مەردانە
مەردلىك
مەرسىيە
مەركىزى
مەركىزىدىكى
مەركىزىدىن
مەركىزىدە
مەركىزىنى
مەركىزىنىڭ
مەركىزىي
مەركىزىگە
مەركەز
مەركەزدىن
مەركەزدە
مەركەزلىرى
مەركەزلىرىدىن
مەركەزلىرىنىڭ
مەركەزلىك
مەركەزلەشتۈرۈش
مەركەزلەشتۈرۈلگەن
مەركەزلەشتۈرۈپ
مەركەزلەشكەن
مەركەزنىڭ
مەركەزى
مەركەزگە
مەرمەر
مەرى
مەرىكە
مەرىپەت
مەرىپەتكە
مەرىپەتلىك
مەرىپەتپەرۋەر
مەرىپەتچىلىك
مەريەم
مەرگەن
مەرھابا
مەرھۇم
مەرھۇمنىڭ
مەرھەمەت
مەرۋايىت
مەرۋايىتنىڭ
مەززىلىك
مەزكۇر
مەزكۈر
مەزلۇم
مەزمۇت
مەزمۇن
مەزمۇندا
مەزمۇندىكى
مەزمۇنغا
مەزمۇنلار
مەزمۇنلاردا
مەزمۇنلاردىن
مەزمۇنلارغا
مەزمۇنلارنى
مەزمۇنلارنىڭ
مەزمۇنلىرى
مەزمۇنلىرىنى
مەزمۇنلۇق
مەزمۇننى
مەزمۇنى
مەزمۇنىدا
مەزمۇنىدىن
مەزمۇنىغا
مەزمۇنىنى
مەزمۇنىنىڭ
مەزگىل
مەزگىلدىكى
مەزگىلدىكىدىن
مەزگىلدىن
مەزگىلدە
مەزگىللىرىدىكى
مەزگىللىرىدە
مەزگىللىك
مەزگىللەردە
مەزگىلى
مەزگىلىدىكى
مەزگىلىدىن
مەزگىلىدە
مەزگىلىنىڭ
مەزگىلىگە
مەزھىبى
مەزھىبىنىڭ
مەزھىبىگە
مەزھىپى
مەزھىپىدىكى
مەزھىپىنىڭ
مەزھىپىگە
مەزھەب
مەزھەبلىرى
مەزھەبنىڭ
مەزھەپ
مەزھەپلەر
مەزھەپنىڭ
مەست
مەستانە
مەستىكى
مەسجىد
مەسجىدتە
مەسجىدكە
مەسجىدنىڭ
مەسجىدى
مەسخىرە
مەسلىسى
مەسلىنى
مەسلىھەت
مەسلىھەتلىشىپ
مەسلىھەتى
مەسلىھەتچى
مەسلىھەتچىسى
مەسلىھەتچىلىك
مەسلىھەتچىلەر
مەسلە
مەسلەك
مەسلەن
مەسلەھەت
مەسنەۋى
مەسىللەرنى
مەسىلىدۇر
مەسىلىدە
مەسىلىسى
مەسىلىسىدە
مەسىلىسىنى
مەسىلىسىنىڭ
مەسىلىسىگە
مەسىلىلىرى
مەسىلىلىرىنى
مەسىلىلىرىگە
مەسىلىلەر
مەسىلىلەردە
مەسىلىلەرنى
مەسىلىلەرنىڭ
مەسىلىلەرگە
مەسىلىنى
مەسىلىنىڭ
مەسىلىگە
مەسىلە
مەسىلەن
مەسىموۋ
مەسىھ
مەسىھنى
مەسىھنىڭ
مەسي
مەسچىت
مەسچىتتە
مەسچىتكە
مەسچىتلىرىنىڭ
مەسچىتلەر
مەسچىتلەردە
مەسچىتلەرنى
مەسچىتلەرنىڭ
مەسچىتلەرگە
مەسچىتنى
مەسچىتنىڭ
مەسچىتى
مەسچىتىدە
مەسچىتىنىڭ
مەسۇت
مەسۇتنىڭ
مەسەل
مەسەللىرى
مەشخۇلات
مەشخۇلاتى
مەشرىپى
مەشرۇتىيەت
مەشرەپ
مەشرەپتە
مەشرەپكە
مەشرەپلىرى
مەشرەپلەر
مەشرەپنى
مەشرەپنىڭ
مەشغۇل
مەشغۇلات
مەشغۇلاتى
مەشق
مەشىق
مەشىقى
مەشي
مەشھۇر
مەشھۇردۇر
مەغرۇر
مەغرۇرلۇق
مەغلۇب
مەغلۇبىيىتى
مەغلۇبىيەت
مەغلۇبىيەتكە
مەغلۇپ
مەغپىرەت
مەفاي
مەقبەرىسى
مەقبەرە
مەقسىتى
مەقسىتىدە
مەقسىتىم
مەقسىتىنى
مەقسىتىنىڭ
مەقسىتىگە
مەقسىدى
مەقسىدىدە
مەقسىدىگە
مەقسەت
مەقسەتتە
مەقسەتكە
مەقسەتلىرى
مەقسەتلىك
مەقسەتنى
مەقسەد
مەقسەدلىك
مەقي
مەكتىبىدە
مەكتىپى
مەكتىپىدە
مەكتىپىمىزدىكى
مەكتىپىمىزدە
مەكتىپىمىزنىڭ
مەكتىپىنى
مەكتىپىنىڭ
مەكتىپىگە
مەكتۇپ
مەكتەب
مەكتەپ
مەكتەپتىكى
مەكتەپتىن
مەكتەپتە
مەكتەپداشلار
مەكتەپكە
مەكتەپلىرى
مەكتەپلىرىدە
مەكتەپلىرىنىڭ
مەكتەپلەر
مەكتەپلەردىكى
مەكتەپلەردىن
مەكتەپلەردە
مەكتەپلەرنى
مەكتەپلەرنىڭ
مەكتەپلەرگە
مەكتەپنى
مەكتەپنىڭ
مەككىدىكى
مەككىدىن
مەككىدە
مەككىنى
مەككىنىڭ
مەككىي
مەككىگە
مەككە
مەككەدە
مەككەگە
مەكىت
مەلىكىسى
مەلىكىنى
مەلىكە
مەلھەم
مەلۇم
مەلۇمات
مەلۇماتتىن
مەلۇماتقا
مەلۇماتلار
مەلۇماتلاردا
مەلۇماتلاردىن
مەلۇماتلارغا
مەلۇماتلارنى
مەلۇماتلارنىڭ
مەلۇماتلىرى
مەلۇماتلىرىغا
مەلۇماتلىرىنى
مەلۇماتلىق
مەلۇماتنى
مەلۇماتى
مەلۇماتىغا
مەلۇماتىنى
مەلۇمدۇر
مەلۇمكى
مەلەك
مەمتىلى
مەمتىمىن
مەمتېلى
مەملىكىتىمىز
مەملىكىتىمىزدىكى
مەملىكىتىمىزدە
مەملىكىتىمىزنىڭ
مەملىكەت
مەملىكەتتىكى
مەملىكەتتە
مەملىكەتكە
مەملىكەتلىرى
مەملىكەتلىك
مەملىكەتلەر
مەملىكەتنى
مەملىكەتنىڭ
مەملۇك
مەملۇكىيلەر
مەمنۇن
مەمورصي
مەمورىي
مەمۇرى
مەمۇرىي
مەمۇرىيىتى
مەمۇرىيەت
مەمەت
مەن
مەنا
مەنادا
مەناسى
مەنانى
مەنبىي
مەنبي
مەنبە
مەنبەدىن
مەنبەدە
مەنبەسى
مەنبەسىدىن
مەنبەسىنى
مەنبەسىنىڭ
مەنبەسىگە
مەنبەلىرى
مەنبەلىرىدىن
مەنبەلىرىدە
مەنبەلىرىنى
مەنبەلىرىنىڭ
مەنبەلىرىگە
مەنبەلىك
مەنبەلەر
مەنبەلەردىن
مەنبەلەردە
مەنبەلەرنىڭ
مەنبەلەرگە
مەنبەگە
مەنتىق
مەنتىقە
مەندىن
مەندە
مەندەك
مەنزىرىسى
مەنزىرىسىنى
مەنزىرىلىك
مەنزىرىنى
مەنزىرە
مەنزىل
مەنزىلى
مەنزىلگە
مەنسۇب
مەنسۇر
مەنسۇپ
مەنسۇپتۇر
مەنسەپ
مەنلا
مەنمۇ
مەنى
مەنىداش
مەنىدىكى
مەنىدىن
مەنىدە
مەنىسى
مەنىسىدىكى
مەنىسىدىن
مەنىسىدە
مەنىسىز
مەنىسىنى
مەنىسىگە
مەنىلىرى
مەنىلىرىنى
مەنىلىك
مەنىلەردە
مەنىلەرنى
مەنىلەرگە
مەنىنى
مەنىگە
مەنىۋى
مەنىۋىي
مەني
مەنپىي
مەنپەت
مەنپەي
مەنچىڭ
مەنچە
مەنە
مەنەن
مەنەڭگىچ
مەي
مەيدان
مەيداندا
مەيداندىكى
مەيداندىن
مەيدانغا
مەيدانلىرى
مەيدانلىرىدا
مەيدانلىرىنى
مەيداننى
مەيداننىڭ
مەيدانى
مەيدانىدا
مەيدانىدىكى
مەيدانىدىن
مەيدانىغا
مەيدانىنى
مەيدانىنىڭ
مەيدە
مەيلى
مەيلىچە
مەيمۇنە
مەينەت
مەپتۇن
مەپكۇرىسى
مەپكۇرىسىنى
مەپكۇرىنى
مەپكۇرىنىڭ
مەپكۇرىگە
مەپكۇرە
مەپكۇرەنىڭ
مەڭ
مەڭگۇلۇك
مەڭگۈ
مەڭگۈلۈك
مەڭۈ
مەگەر
مەھبۇب
مەھبۇس
مەھدى
مەھرۇم
مەھسۇلات
مەھسۇلاتقا
مەھسۇلاتلار
مەھسۇلاتلاردىن
مەھسۇلاتلارنى
مەھسۇلاتلارنىڭ
مەھسۇلاتلىرى
مەھسۇلاتلىرىدىن
مەھسۇلاتلىرىنى
مەھسۇلاتلىرىنىڭ
مەھسۇلاتنى
مەھسۇلاتنىڭ
مەھسۇلاتى
مەھسۇلاتىنى
مەھسۇلاتىنىڭ
مەھسۇلى
مەھكىمىسى
مەھكىمىسىدىن
مەھكىمىسىنى
مەھكىمىسىنىڭ
مەھكىمىسىگە
مەھكىمىلىرى
مەھكىمىلىرىنى
مەھكىمىلىرىنىڭ
مەھكىمىلىرىگە
مەھكىمىنىڭ
مەھكىمىگە
مەھكىمە
مەھكۇم
مەھكەم
مەھلىيا
مەھمۇت
مەھمۇد
مەھمۇدقا
مەھمۇدنىڭ
مەھمەت
مەھمەد
مەھەل
مەھەللىدىكى
مەھەللىدىن
مەھەللىدە
مەھەللىسى
مەھەللىسىدىكى
مەھەللىسىدە
مەھەللىسىگە
مەھەللىلەر
مەھەللىلەردە
مەھەللىمىزدىكى
مەھەللىنى
مەھەللىگە
مەھەللىۋى
مەھەللە
مەھەممەت
مەۋجۇت
مەۋجۇتتۇر
مەۋجۇتلىقى
مەۋجۇتلىقىنى
مەۋجۇتلۇق
مەۋجۇتلۇقنىڭ
مەۋجۇتلۇقى
مەۋجۇتلۇقىنى
مەۋجۇد
مەۋجۇدلۇق
مەۋجۇدىيىتىنى
مەۋجۇدىيەت
مەۋجۇدىيەتچىلىك
مەۋجۈت
مەۋسۇم
مەۋسۇملۇق
مەۋسۇمى
مەۋسۈمى
مەۋلا
مەۋلان
مەۋلانا
مەۋلانە
مەۋلانەنىڭ
مەۋلىۋى
مەۋھۇم
ن
نا
نابۇت
ناتايىن
ناتسىست
ناتسىستلار
ناتسىستلارنىڭ
ناتو
ناتوغرا
ناتونىڭ
ناتونۇش
ناتىق
ناتىۋان
ناتۇنۇش
ناخشا
ناخشىسى
ناخشىسىنى
ناخشىلار
ناخشىلارنى
ناخشىلىرى
ناخشىلىرىنى
ناخشىلىرىنىڭ
ناخشىنى
ناخشىنىڭ
ناخشىچى
ناخشىچىسى
ناخشىچىلار
نادامەت
نادان
نادانلىق
نادانلىقتىن
نادانلىقنىڭ
نادىر
نادىرشاھنىڭ
نار
نارازى
نارازىلىق
نارازىلىقىنى
ناركوز
نارىن
نارىنبايېف
ناز
نازارىتى
نازارىتىدە
نازارىتىنى
نازارىتىنىڭ
نازارىتىگە
نازارەت
نازارەتچى
نازارەتچىسى
نازارەتچىلىك
نازارەتچىلىكى
نازارەتچىلەر
نازىر
نازىرى
نازىل
نازۇ
نازۇك
ناسداك
ناسساۋ
ناسىر
ناسىروف
ناسىروۋ
ناسىرۇددىن
ناغرا
نالە
نام
ناماز
نامازخانا
نامازدا
نامازدىن
نامازغا
نامازنى
نامازنىڭ
ناماقۇللۇق
نامايان
نامايىش
نامايىشقا
نامايىشلار
نامايىشى
نامايەن
نامايەندىسى
نامايەندە
نامدا
نامدىكى
نامرات
نامراتلار
نامراتلىق
نامراتلىقتىن
نامزات
نامزاتلىققا
نامزاتى
نامسىز
نامغا
ناملار
ناملاردا
ناملارنى
ناملىرى
ناملىرىمۇ
ناملىرىنى
ناملىرىنىڭ
ناملىق
نامنى
نامنىڭ
نامى
نامىدا
نامىدىكى
نامىدىن
نامىدۇر
نامىزى
نامىزىدىن
نامىزىغا
نامىزىنى
نامىزىنىڭ
نامىغا
نامىق
نامىلىق
نامىمۇ
نامىنى
نامىنىڭ
نامۇۋاپىق
نامە
نامەلۇم
نان
نانغا
ناننى
ناننىڭ
ناي
نايمان
ناپاك
ناپالېي
ناپولىيون
ناپولىيوننىڭ
ناچار
ناچارلىشىپ
ناگويا
ناھايتى
ناھايىتى
ناھايىتىمۇ
ناھصيە
ناھىيسى
ناھىيسىدە
ناھىيسىنىڭ
ناھىيلىك
ناھىيىدىن
ناھىيىدە
ناھىيىسى
ناھىيىسىدىكى
ناھىيىسىدىن
ناھىيىسىدە
ناھىيىسىنى
ناھىيىسىنىڭ
ناھىيىسىگە
ناھىيىلىرى
ناھىيىلىك
ناھىيىلەر
ناھىيىلەردە
ناھىيىلەرنىڭ
ناھىيىنى
ناھىيىنىڭ
ناھىيىگە
ناھىيە
ناھىيەسى
ناھىيەسىدىكى
ناھىيەسىدە
ناھىيەسىنىڭ
ناھىيەسىگە
ناھىيەلىك
ناھىيەلەرى
ناھىيەنىڭ
ناھەق
ناۋا
ناۋات
ناۋادا
ناۋاسى
ناۋاي
ناۋايى
ناۋايىنىڭ
نت
ند
نذ
نـ
نوبىل
نوبېل
نوتۇق
نور
نورغۇن
نورما
نورمال
نورمالدا
نورمالدىن
نورمالسىز
نورمالسىزلىق
نورمالسىزلىقىنىڭ
نورمان
نورماندىغا
نورمىسى
نورمىسىنى
نورۇز
نورۇزنى
نورۇزنىڭ
نورۋىگىيە
نورۋېگىيە
نوغاي
نوقتا
نوقتىدا
نوقتىدىن
نوقتىسى
نوقتىسىدىن
نوقتىسىغا
نوقتىغا
نوقتىلار
نوقتىلىق
نوقتىنى
نوقۇت
نوقۇل
نوم
نومۇر
نومۇرغا
نومۇرلۇق
نومۇرنى
نومۇرى
نومۇرىنى
نومۇس
نومۇسىنى
نويابر
نويابىر
نويابىردا
نويابىردىكى
نويان
نوپۇز
نوپۇزغا
نوپۇزلۇق
نوپۇزى
نوپۇزىنى
نوپۇس
نوپۇسقا
نوپۇسلۇق
نوپۇسنى
نوپۇسنىڭ
نوپۇسى
نوپۇسىبار
نوپۇسىغا
نوپۇسىنى
نوپۇسىنىڭ
نوچى
نوچىنى
نوچىنىڭ
نى
نىتانىياخو
نىجات
نىجاتلىق
نىدا
نىداي
نىرۋا
نىزا
نىزارى
نىزام
نىزامدىكى
نىزاملار
نىزاملاردا
نىزاملاردىكى
نىزاملارغا
نىزاملارنى
نىزاملارنىڭ
نىزاملىرى
نىزاملىرىغا
نىزامنامىسى
نىزامنامىسىدە
نىزامنامىسىگە
نىزامى
نىزامىدىن
نىزامىيە
نىسا
نىسبىتى
نىسبىتىنى
نىسبىتىنىڭ
نىسبىتىگە
نىسبەت
نىسبەتتە
نىسبەتنى
نىسبەتەن
نىسىپ
نىسپىتى
نىسپىتىنىڭ
نىسپىي
نىسپىيلىك
نىسپەتەن
نىشان
نىشانسىز
نىشانغا
نىشانلار
نىشانلارنى
نىشانلىرى
نىشانلىق
نىشاننى
نىشاننىڭ
نىشانى
نىشانىغا
نىشانىنى
نىشانىڭىز
نىشانىڭىزغا
نىشانىڭىزنى
نىغدە
نىكاراگۇي
نىكاھ
نىكاھتىن
نىكاھلانغان
نىكاھى
نىكاھىغا
نىكوتىن
نىكولا
نىكولاي
نىل
نىلسون
نىلقا
نىمكەش
نىمىس
نىمىشقا
نىمىشكە
نىمىنى
نىمىگە
نىمۇ
نىمە
نىي
نىيا
نىياز
نىيوتۇن
نىيوتۇننىڭ
نىيىتى
نىيىتىدە
نىيىتىنى
نىيىتىگە
نىيە
نىيەت
نىيەتتە
نىيەتكە
نىيەتلىك
نىپىز
نىڭ
نىڭبو
نىڭشىيا
نىڭشيا
نىگار
نىگېر
نىگېرىيە
نىھايەت
ني
نيو
نيۇ
نيۇتون
نيۇتوننىڭ
نيۇيورك
نچى
نۆل
نۆلدىن
نۆلگە
نۆۋىتى
نۆۋىتىدە
نۆۋىتىنى
نۆۋەت
نۆۋەتتىكى
نۆۋەتتىن
نۆۋەتتە
نۆۋەتلىشىدىغانلىرى
نۆۋەتلىشىدۇ
نۆۋەتلىشىش
نۆۋەتلىشىپ
نۆۋەتلىك
نۆۋەتلەشتۈرۈلمەي
نۆۋەتلەشمەيدىغانلىرى
نۆۋەتلەشمەيدۇ
نۇبىل
نۇتقى
نۇتۇق
نۇتۇقتا
نۇر
نۇرانىيە
نۇرانە
نۇرخاچ
نۇرخاچنىڭ
نۇردىن
نۇرسۇلتان
نۇرغۇن
نۇرغۇنلىرى
نۇرغۇنلىغان
نۇرلىرى
نۇرلۇق
نۇرمال
نۇرمۇھەممەت
نۇرنى
نۇرنىڭ
نۇرى
نۇرىدىن
نۇرىغا
نۇرىنى
نۇرىنىڭ
نۇري
نۇرگۈل
نۇرۇم
نۇزۇكۇم
نۇزۇكۇمنىڭ
نۇزۇگۇم
نۇسخا
نۇسخاسى
نۇسخسى
نۇسخىدا
نۇسخىدىكى
نۇسخىدىن
نۇسخىدۇر
نۇسخىسى
نۇسخىسىدا
نۇسخىسىدىن
نۇسخىسىدۇر
نۇسخىسىغا
نۇسخىسىمۇ
نۇسخىسىنى
نۇسخىسىنىڭ
نۇسخىلار
نۇسخىلىرى
نۇسخىلىرىغا
نۇسخىلىرىنى
نۇسرەت
نۇسقىسى
نۇقتا
نۇقتىدا
نۇقتىدىن
نۇقتىسى
نۇقتىسىدا
نۇقتىسىدىن
نۇقتىسىغا
نۇقتىغا
نۇقتىلار
نۇقتىلارنى
نۇقتىلىرى
نۇقتىلىق
نۇقتىنى
نۇقتىي
نۇقسان
نۇقسانى
نۇقۇل
نۇمۇر
نۇمۇرلۇق
نۇمۇرى
نۇمۇس
نۇي
نۇپوس
نۇپۇزلۇق
نۇپۇس
نۇپۇسى
نۇپۇسىنىڭ
نۇھ
نۇھمان
نۇھنىڭ
نېداي
نېرى
نېرىپلارنىڭ
نېرۋا
نېرۋىنىڭ
نېسىپ
نېفىت
نېفىتلىك
نېلۇپەر
نېمانچە
نېمىدىن
نېمىدېگەن
نېمىس
نېمىسچە
نېمىشقا
نېمىشقىدۇر
نېمىشكە
نېمىلا
نېمىلىكىنى
نېمىلەر
نېمىلەرنى
نېمىلەرگە
نېمىنى
نېمىنىڭ
نېمىگە
نېمە
نېمەت
نېمەتلەرنى
نېنى
نېي
نېيترون
نېپال
نېپتۇن
نېپىز
نېپىزلىتىپ
نېگىر
نېگىزلىك
نە
نەبىجان
نەبىرەسى
نەتفلىكىس
نەتىجىدە
نەتىجىسدە
نەتىجىسى
نەتىجىسىدىن
نەتىجىسىدۇر
نەتىجىسىدە
نەتىجىسىز
نەتىجىسىنى
نەتىجىسىنىڭ
نەتىجىسىگە
نەتىجىلىرى
نەتىجىلىرىدىن
نەتىجىلىرىنى
نەتىجىلىرىنىڭ
نەتىجىلىرىگە
نەتىجىلىك
نەتىجىلەر
نەتىجىلەرنى
نەتىجىلەرنىڭ
نەتىجىلەرگە
نەتىجىنى
نەتىجىگە
نەتىجە
نەتىجەسىدە
نەجمىدىن
نەجىب
نەدىن
نەدۋىنىڭ
نەدۋىي
نەدە
نەرسىدىن
نەرسىدۇر
نەرسىدە
نەرسىسى
نەرسىسىنى
نەرسىلىرى
نەرسىلىرىنى
نەرسىلەر
نەرسىلەردىن
نەرسىلەرنى
نەرسىلەرنىڭ
نەرسىلەرگە
نەرسىنى
نەرسىنىڭ
نەرسىگە
نەرسە
نەزمە
نەزىر
نەزىرى
نەزىرىدىكى
نەزىرىدە
نەزىرىنى
نەزىرىيىسى
نەزىرىيە
نەزىرىڭىزدە
نەزىريىسى
نەزىريىسىدىكى
نەزىريىسىنى
نەزىريىسىنىڭ
نەزىريىۋى
نەزىريە
نەزىم
نەزەر
نەزەربەند
نەزەردىن
نەزەردە
نەزەرىدە
نەزەرىيىسى
نەزەرىيىسىنى
نەزەرىيىسىنىڭ
نەزەرىيىنى
نەزەرىيىۋى
نەزەرىيىۋىي
نەزەرىيۋى
نەزەرىيە
نەزەرىيەسى
نەزەرىيەسىنى
نەزەرىيەسىنىڭ
نەزەرگە
نەساي
نەسخ
نەسر
نەسرلەر
نەسرىدىن
نەسرىي
نەسلى
نەسلىدىن
نەسىر
نەسىردىن
نەسىل
نەسىللىك
نەسىھەت
نەسەب
نەسەبى
نەسەپ
نەشر
نەشردىن
نەشرى
نەشرىدە
نەشرىيات
نەشرىياتلار
نەشرىياتى
نەشرىياتىدا
نەشرىياتىغا
نەشرىياتىنىڭ
نەشرىياتچىلىق
نەشرگە
نەشىر
نەشىردىن
نەشىرى
نەشىرىياتى
نەشىرىياتچىلىق
نەشىرياتى
نەشىرگە
نەشپۈت
نەغمە
نەق
نەقىش
نەقىشلىرى
نەقىشلىك
نەقىشلەر
نەقىل
نەقەدەر
نەم
نەملىك
نەملىكنى
نەملىنىشچان
نەمۇنىلىرى
نەمۇنە
نەمەنگان
نەنجىڭ
نەنشا
نەنچاڭ
نەي
نەيزە
نەيچىسى
نەيچە
نەپ
نەپرەت
نەپس
نەپسانى
نەپسانىنىڭ
نەپسانىيەتچىلىك
نەپسى
نەپسىنى
نەپىس
نەپىقە
نەپەر
نەپەرگە
نەپەس
نەپەسلىنىش
نەچچىلىك
نەچچىنى
نەچچە
نەگە
نەھل
نەۋا
نەۋاي
نەۋايى
نەۋايىنىڭ
نەۋرىسى
نەۋرىلىرى
نەۋرۇز
نەۋرە
نەۋەۋىي
نەۋەۋىينىڭ
ه
هذا
هو
هي
و
وا
واحدة
والا
وب
وباما
وبامانىڭ
وبدان
وبدانراق
وبراز
وبرازلار
وبرازلىق
وبرازى
وبرازىغا
وبرازىنى
وبزور
وبزورلار
وبزورى
وبلاست
وبلاستلىق
وبلاستنىڭ
وبلاستى
وبلاستىتىگە
وبلاستىدا
وبلاستىغا
وبلاستىنىڭ
وبوروت
وبوروتى
وبىكتى
وبىكتىپ
وبيېكت
وبيېكتى
وبيېكتىپ
وبۇل
وبۇلقاسىم
وت
وتاغ
وتاق
وتتا
وتتو
وتتورا
وتتۇر
وتتۇرا
وتتۇراھال
وتتۇرسىدا
وتتۇرسىدىكى
وتتۇرسىغا
وتتۇرصچە
وتتۇرغا
وتتۇرلىرىدا
وتتۇرلىرىدىن
وتتۇرلىرىغىچە
وتتۇرىدا
وتتۇرىدىكى
وتتۇرىدىن
وتتۇرىسى
وتتۇرىسىدا
وتتۇرىسىدىكى
وتتۇرىسىدىن
وتتۇرىسىغا
وتتۇرىسىنى
وتتۇرىغا
وتتۇرىلىرىدا
وتتۇرىلىرىدىن
وتتۇرىنى
وتتۇرىچە
وتتۇرچە
وتتۇز
وتتەك
وتخور
وتقا
وتقاش
وتلاق
وتلىقى
وتلۇق
وتنى
وتنىڭ
وتى
وتىدا
وتىنى
وتۇغات
وتۇن
وخشاتقان
وخشاش
وخشاشتۇر
وخشاشلا
وخشاشلىق
وخشاشلىقى
وخشاشمايدۇ
وخشاشمىغان
وخشايتتى
وخشايدىغان
وخشايدىكەن
وخشايدۇ
وخشاپ
وخشىتىش
وخشىتىپ
وخشىشىدۇ
وخشىشىپ
وخشىغان
وخشىماسلىق
وخشىماسلىقلار
وخشىماسلىقى
وخشىماسلىقىغا
وخشىمايدىغان
وخشىمايدىغىنى
وخشىمايدۇ
وخشىمىغان
وخشۇتۇپ
ود
ودا
ودال
وداللىق
ودى
ور
وراش
ورال
ورالغان
ورالما
وراپ
وربىتا
وربىتىسى
ورتا
ورتاق
ورتاقلىشىش
ورتاقلىق
ورتاقلىققا
ورتاقلىقى
ورخان
ورخۇن
وردا
وردانىيە
وردىدا
وردىدىكى
وردىسى
وردىسىدا
وردىسىغا
وردىسىنىڭ
وردىغا
وردىنى
وردىنىغا
وردىنىڭ
وردۇ
وردۇس
وردۇسى
وردۇچە
وردېن
وردېنى
ورغاق
ورقۇن
ورما
ورمان
ورمانلىق
ورمانلىقتا
ورمانلىقى
ورماننى
ورمانچىلىق
ورمىنى
ورناتتى
ورناتقان
ورناپ
ورنى
ورنىتىدۇ
ورنىتىش
ورنىتىشقا
ورنىتىشنى
ورنىتىشى
ورنىتىلدى
ورنىتىلغان
ورنىتىلىدۇ
ورنىتىلىپ
ورنىتىپ
ورنىدا
ورنىدىكى
ورنىدىن
ورنىغا
ورنىمۇ
ورنىنى
ورنىنىڭ
ورنۇمدىن
وروبا
وروبي
وروبية
وروگۋاي
ورىغان
ورىغۇچى
ورىلىپ
ورگان
ورگاندىن
ورگانغا
ورگانلار
ورگانلاردىن
ورگانلارغا
ورگانلارنى
ورگانلارنىڭ
ورگانلىرى
ورگانلىرىدا
ورگانلىرىدىكى
ورگانلىرىدىن
ورگانلىرىدۇر
ورگانلىرىغا
ورگانلىرىنى
ورگانلىرىنىڭ
ورگاننىڭ
ورگانىزملار
ورگانىك
ورگىنال
ورگىنى
ورگىنىدىن
ورگىنىدۇر
ورگىنىغا
ورگىنىنىڭ
ورھان
ورۇس
ورۇق
ورۇن
ورۇنباسار
ورۇنباسارى
ورۇندا
ورۇنداش
ورۇنداشقا
ورۇندايدۇ
ورۇنداپ
ورۇندىشى
ورۇندىغان
ورۇندىكى
ورۇندىن
ورۇندۇق
ورۇندۇققا
ورۇنسىز
ورۇنغا
ورۇنلار
ورۇنلاردا
ورۇنلاردىكى
ورۇنلاردىن
ورۇنلارغا
ورۇنلارنى
ورۇنلارنىڭ
ورۇنلاش
ورۇنلاشتى
ورۇنلاشتۇردى
ورۇنلاشتۇرغان
ورۇنلاشتۇرىدۇ
ورۇنلاشتۇرۇش
ورۇنلاشتۇرۇشتا
ورۇنلاشتۇرۇشقا
ورۇنلاشتۇرۇشنى
ورۇنلاشتۇرۇشى
ورۇنلاشتۇرۇلغان
ورۇنلاشتۇرۇلىدۇ
ورۇنلاشتۇرۇلۇشى
ورۇنلاشتۇرۇپ
ورۇنلاشقان
ورۇنلاپ
ورۇنلىرى
ورۇنلىرىدا
ورۇنلىرىدىن
ورۇنلىرىغا
ورۇنلىرىنى
ورۇنلىرىنىڭ
ورۇنلىشىدۇ
ورۇنلىشىش
ورۇنلىشىپ
ورۇنلىغان
ورۇنلۇق
ورۇننى
ورۇننىڭ
ورۇپ
ورەك
ورەككە
وز
وزمۇخ
وزونوسفېرا
وزۇق
وزۇقلاندۇرۇش
وزۇقلىنىدۇ
وزۇقلىنىش
وزۇقلۇق
وزۇن
وس
وساكا
وسكار
وسما
وسمان
وسمانجان
وسمانلى
وسمانلىلار
وسمانلىلارنىڭ
وسمانلىچىلىق
وسمانلىچە
وسمانلې
وسماننىڭ
وسمانىيلار
وسمانىيە
وسوم
وسى
وش
وشۇق
وشۇقلارنى
وشۇقنى
وغا
وغرى
وغرىلاپ
وغرىلىغان
وغرىلىقچە
وغلاق
وغلاقنى
وغلان
وغلانى
وغلى
وغلىدىن
وغلىدۇر
وغلىغا
وغلىنى
وغلىنىڭ
وغلۇ
وغلۇم
وغلۇمنى
وغلۇمنىڭ
وغۇت
وغۇز
وغۇزخان
وغۇزخاننىڭ
وغۇزلار
وغۇزلارنىڭ
وغۇزنامە
وغۇل
وغۇللار
وغۇللارنىڭ
وغۇللىرى
وغۇللىرىدىن
وغۇللىرىغا
وغۇللىرىنىڭ
وغۇلنىڭ
وغۇلچاق
وف
وفىتسېر
وفي
وفپرا
وق
وقتەك
وققا
وقلار
وقنى
وقنىڭ
وقى
وقىدا
وقىغان
وقىنى
وقيا
وقياغا
وقيانى
وقيانىڭ
وقياچى
وقياچىلار
وقۇ
وقۇتقان
وقۇتقۇچصلار
وقۇتقۇچى
وقۇتقۇچىسى
وقۇتقۇچىلار
وقۇتقۇچىلارغا
وقۇتقۇچىلارنى
وقۇتقۇچىلارنىڭ
وقۇتقۇچىلىرى
وقۇتقۇچىلىرىنىڭ
وقۇتقۇچىلىق
وقۇتقۇچىلىققا
وقۇتقۇچىنىڭ
وقۇتقۇچۇم
وقۇتىدۇ
وقۇتۇش
وقۇتۇشنى
وقۇتۇشى
وقۇتۇپ
وقۇدى
وقۇدۇم
وقۇرمەن
وقۇرمەنلەر
وقۇرمەنلەردىن
وقۇرمەنلەرنى
وقۇرمەنلەرنىڭ
وقۇرمەنلەرگە
وقۇسا
وقۇش
وقۇشتا
وقۇشتىكى
وقۇشتىن
وقۇشقا
وقۇشلۇقى
وقۇشنى
وقۇشنىڭ
وقۇشى
وقۇشىغا
وقۇشىنى
وقۇغان
وقۇغاندا
وقۇغاندىن
وقۇغانلار
وقۇغانلىقى
وقۇغانلىقىنى
وقۇغۇچصلارنصڭ
وقۇغۇچى
وقۇغۇچىسى
وقۇغۇچىغا
وقۇغۇچىلار
وقۇغۇچىلاردىن
وقۇغۇچىلارغا
وقۇغۇچىلارنى
وقۇغۇچىلارنىڭ
وقۇغۇچىلىرى
وقۇغۇچىلىرىدىن
وقۇغۇچىلىرىغا
وقۇغۇچىلىرىنى
وقۇغۇچىلىرىنىڭ
وقۇغۇچىلىق
وقۇغۇچىنى
وقۇغۇچىنىڭ
وقۇلدى
وقۇلغان
وقۇلىدىغان
وقۇلىدۇ
وقۇلىشى
وقۇلۇشى
وقۇلۇپ
وقۇماقچى
وقۇماي
وقۇمى
وقۇمىغان
وقۇمۇشلۇق
وقۇيالايدۇ
وقۇيتتى
وقۇيدىغان
وقۇيدىغانلار
وقۇيدۇ
وقۇيمىز
وقۇيمەن
وقۇپ
وقۇۋاتقان
وقۇۋاتقاندا
وقۇۋاتىدۇ
وكادا
وكراي
وكسفورد
وكسىد
وكسىدلىنىش
وكسىگېن
وكيان
وكياندا
وكياندىكى
وكيانغا
وكيانلار
وكياننى
وكياننىڭ
وكيانىيە
وكۇل
ول
ولا
ولتۇراتتى
ولتۇراق
ولتۇراقلاشقان
ولتۇراقلىشىش
ولتۇراقلىشىشقا
ولتۇراقلىشىشى
ولتۇراقلىشىپ
ولتۇردى
ولتۇرسا
ولتۇرغان
ولتۇرغاندا
ولتۇرغاندىن
ولتۇرغۇزۇپ
ولتۇرىدىغان
ولتۇرىدۇ
ولتۇرۇش
ولتۇرۇشقا
ولتۇرۇشلۇق
ولتۇرۇشى
ولتۇرۇپ
ولتۇرۇپتۇ
ولجا
وللا
ولوگ
ولوگلار
ولوگلىرى
ولوگىيلىك
ولوگىيىسى
ولوگىيىلىك
ولوگىيە
ولوگىيەسى
ولوگىيەلىك
ولى
ولىمپىك
ولۇق
ولېي
وم
وما
وماق
ومان
وماچ
ومومى
ومومىي
ومىچى
ومۇرتقا
ومۇرتقىلىق
ومۇم
ومۇملاشتى
ومۇملاشتۇرۇش
ومۇملاشتۇرۇشقا
ومۇملاشتۇرۇلغان
ومۇملاشتۇرۇلۇپ
ومۇملاشتۇرۇپ
ومۇملاشقان
ومۇملىشىش
ومۇملىشىشى
ومۇملىشىشىغا
ومۇملىشىپ
ومۇمنىڭ
ومۇمى
ومۇمىي
ومۇمىيۈزلۈك
ومۇميۈزلۈك
ومۇمەن
ون
ونال
ونبېشى
وندىن
ونسۇ
ونلار
ونلىغان
ونلۇق
وننىڭ
ونى
ونىنچى
ونىڭ
وني
وي
ويدۇرما
ويدۇرۇپ
ويرات
ويغا
ويغاتتى
ويغاق
ويغان
ويغانغان
ويغىتىش
ويغىنىش
ويغىنىشى
ويغىنىپ
ويغۇتۇش
ويغۇر
ويغۇن
ويغۇنۇش
ويلا
ويلار
ويلاش
ويلاشقا
ويلايتتى
ويلايتتىم
ويلايدىغان
ويلايدۇ
ويلايسىز
ويلايمەن
ويلاپ
ويلاڭ
ويلىدى
ويلىدىم
ويلىسا
ويلىسام
ويلىشىپ
ويلىغان
ويلىغانلىرىم
ويلىغانلىرىنى
ويلىمىغان
ويلىنىش
ويلىنىشقا
ويلىنىپ
ويلۇدۇم
ويما
ويمان
ويمانلىق
ويمانلىقى
ويمانلىقىدا
ويمانلىقىدىكى
ويمانلىقىغا
ويمانلىقىنىڭ
ويناش
ويناشقا
ويناشنى
وينالغان
وينايتتى
وينايدىغان
وينايدىغانلىقىنى
وينايدۇ
ويناپ
ويناۋاتقان
وينى
وينىدى
وينىسا
وينىشى
وينىغان
وينىغانلىقىنى
وينىغۇچى
وينىغۇچىلار
وينىلىدىغان
وينىلىدۇ
وينىلىپ
وينىماقتا
ويى
ويۇش
ويۇلغان
ويۇن
ويۇندا
ويۇنغا
ويۇنلار
ويۇنلارنى
ويۇنلارنىڭ
ويۇنلىرى
ويۇنلىرىنى
ويۇنلىرىنىڭ
ويۇننى
ويۇننىڭ
ويۇنى
ويۇنىدا
ويۇنىنى
ويۇنىنىڭ
ويۇنچى
ويۇنچۇق
ويۇنچۇقلارنىڭ
ويۇپ
وپ
وپال
وپالدا
وپتىك
وپتىكا
وپتىكىلىق
وپراتسىيە
وپمۇ
وپىرا
وپىيە
وپچە
وپېرا
وپېراتسىيە
وپەردىلەر
وپەردىلەرنىڭ
وپەردە
وچاق
وچاققا
وچاقلار
وچاقلىق
وچاقنىڭ
وچىقى
وچۇق
وڭ
وڭاي
وڭايلا
وڭدىن
وڭشاش
وڭشاپ
وڭغا
وڭچى
وڭۇشسىزلىققا
وڭۇشلۇق
وۋ
وۋغا
وۋلاش
وۋلاپ
وۋچى
وۋچىلىق
ى
ىب
ىبادەت
ىبادەتخانا
ىبادەتخانىسى
ىبادەتكە
ىبادەتلەر
ىبارىسى
ىبارىلىرى
ىبارىلەر
ىبارىلەرنى
ىبارىنى
ىبارە
ىبارەت
ىبارەتتۇر
ىبرانىي
ىبرانىيچە
ىبرانىچە
ىبراھىم
ىبراھىمجان
ىبراھىمغا
ىبراھىمنى
ىبراھىمنىڭ
ىبراھىمىي
ىبرەت
ىبرەتلەر
ىبلىس
ىبن
ىبنى
ىبنۇل
ىبىراھىم
ىبىرىيە
ىبىن
ىبېرىيە
ىبەرىلگەن
ىت
ىتالىيان
ىتالىيىدە
ىتالىيىنىڭ
ىتالىيە
ىتالىيەدىكى
ىتالىيەدە
ىتالىيەلىك
ىتالىيەنىڭ
ىتاليانلار
ىتاليانچە
ىتاي
ىتتا
ىتتىرىپ
ىتتىك
ىتتىن
ىتتىپاق
ىتتىپاقداش
ىتتىپاقداشلار
ىتتىپاققا
ىتتىپاقلاشقان
ىتتىپاقلىشىپ
ىتتىپاقلىق
ىتتىپاقلىقى
ىتتىپاقلىقىنى
ىتتىپاقنىڭ
ىتتىپاقى
ىتتىپاقىدا
ىتتىپاقىدىكى
ىتتىپاقىدىن
ىتتىپاقىغا
ىتتىپاقىنى
ىتتىپاقىنىڭ
ىتتىڧاقى
ىتتپاقى
ىتتۇر
ىتراپ
ىترىفىل
ىتقا
ىتقاد
ىتلار
ىتلارنى
ىتلارنىڭ
ىتلىرى
ىتنى
ىتنىڭ
ىتى
ىتىبار
ىتىبارغا
ىتىبارى
ىتىبارەن
ىتىدا
ىتىدىكى
ىتىدىن
ىتىدە
ىتىراز
ىتىراپ
ىتىش
ىتىغا
ىتىقاد
ىتىقادى
ىتىقادىغا
ىتىقادىي
ىتىقادىچە
ىتىمىز
ىتىمۇ
ىتىنى
ىتىنىڭ
ىتىپ
ىتىپاقى
ىتىپاقىغا
ىتىپاقىنىڭ
ىتىگە
ىتپاقى
ىجابى
ىجابىي
ىجابەت
ىجات
ىجاد
ىجادى
ىجادىي
ىجادىيتى
ىجادىيىتى
ىجادىيىتىدە
ىجادىيىتىنى
ىجادىيىتىنىڭ
ىجادىيەت
ىجادىيەتتە
ىجادىيەتكە
ىجادىيەتلىرى
ىجادچان
ىجادچىسى
ىجارىگە
ىجارە
ىجازىتى
ىجازە
ىجازەت
ىجازەتنامىسى
ىجازەتنامىسىنى
ىجازەتنامە
ىجتماي
ىجتىماي
ىجتىھات
ىجتىھاد
ىجدىماي
ىجرا
ىجراسى
ىجرانى
ىجراي
ىجراچى
ىجماي
ىجى
ىجىتماي
ىجىرا
ىجىراي
ىختىرا
ىختىساس
ىختىساسلىق
ىختىلاپ
ىختىلاپلار
ىختىيار
ىختىيارسىز
ىختىيارلىق
ىختىيارلىقى
ىختىيارى
ىختىيارىي
ىختىيارىيلىق
ىخلاس
ىخلاسمەن
ىخچام
ىد
ىدارى
ىدارىدە
ىدارىسى
ىدارىسىدا
ىدارىسىدە
ىدارىسىغا
ىدارىسىنىڭ
ىدارىسىگە
ىدارىنىڭ
ىدارىگە
ىدارە
ىدخان
ىدخاننىڭ
ىددىن
ىددىيىسى
ىددىيە
ىدراك
ىدرىس
ىدنىڭ
ىدولوگىيە
ىدولوگىيەنىڭ
ىدى
ىدىراك
ىدىسى
ىدىسىنى
ىدىسىگە
ىدىش
ىدىقۇت
ىدىكى
ىدىل
ىدىلوگىيە
ىدىلىرى
ىدىلىرىنى
ىدىلىرىگە
ىدىلىك
ىدىلەر
ىدىلەرگە
ىدىم
ىدىن
ىدىنى
ىدىنىڭ
ىدىي
ىدىيسى
ىدىيىسى
ىدىيىسىنى
ىدىيىسىنىڭ
ىدىيىسىگە
ىدىيىلەر
ىدىيىلەرنى
ىدىيىنى
ىدىيىگە
ىدىيىۋى
ىدىيۋى
ىدىيە
ىدىيەسى
ىدىيەسىنى
ىدىيەلەر
ىدىيەنى
ىدىيەگە
ىدىڭ
ىدىگە
ىدۇق
ىدۋارد
ىدېي
ىدە
ىر
ىرادىسى
ىرادىسىنى
ىرادىسىگە
ىرادىلىك
ىرادىنى
ىرادىگە
ىرادە
ىراق
ىراقتا
ىراققا
ىراقنىڭ
ىران
ىراندا
ىراندىكى
ىراندىن
ىرانغا
ىرانلىق
ىرانلىقلار
ىراننىڭ
ىراي
ىردا
ىردىكى
ىرسى
ىرسىنى
ىرسىيەت
ىرشاد
ىرغا
ىرق
ىرقى
ىرقىنىڭ
ىرقىي
ىرقچىلىق
ىرلار
ىرلارنى
ىرلارنىڭ
ىرلاندىيە
ىرلىرى
ىرلىرىدا
ىرلىرىدىن
ىرلىرىم
ىرلىرىنى
ىرلىرىنىڭ
ىرنى
ىرنىڭ
ىرى
ىرىدا
ىرىدىكى
ىرىدىن
ىرىدە
ىرىسى
ىرىسىدىكى
ىرىسىدىن
ىرىسىدە
ىرىسىنى
ىرىسىنىڭ
ىرىسىگە
ىرىشتى
ىرىشكەن
ىرىشىدۇ
ىرىشىش
ىرىشىپ
ىرىلىرى
ىرىلىرىنىڭ
ىرىلىك
ىرىنى
ىرىنىڭ
ىرىي
ىرىيىتى
ىرىيىتىدىكى
ىرىيىتىنىڭ
ىرىيەت
ىرىگە
ىرپان
ىرۇر
ىرېلاندىيە
ىرە
ىز
ىزا
ىزاھ
ىزاھات
ىزاھاتلار
ىزاھاتى
ىزاھلار
ىزاھلاش
ىزاھلاشقا
ىزاھلانغان
ىزاھلايدۇ
ىزاھلاپ
ىزاھلىغان
ىزاھلىغۇچى
ىزاھلىق
ىزباسار
ىزباسارلىرى
ىزدىدى
ىزدىشى
ىزدىنىدۇ
ىزدىنىش
ىزدىنىشكە
ىزدىنىشلەر
ىزدىنىپ
ىزدىنىۋاتقان
ىزدىگەن
ىزدە
ىزدەش
ىزدەشكە
ىزدەشنى
ىزدەندى
ىزدەنمەكتە
ىزدەنگەن
ىزدەيدىغان
ىزدەيدۇ
ىزدەپ
ىزدەڭ
ىززىتىنى
ىززەت
ىززەتبېگوۋىچ
ىزلار
ىزلارنى
ىزلىرى
ىزلىرىدىن
ىزلىرىنى
ىزلەپ
ىزم
ىزمىت
ىزمىر
ىزنالىرى
ىزنى
ىزوتوپ
ىزوتوپلىرى
ىزى
ىزىدىن
ىزىنى
ىزچىل
ىزچىللىق
ىزچىللىقى
ىزگۈ
ىزھار
ىس
ىسا
ىسانىڭ
ىستاتىستىكا
ىستاكان
ىستان
ىستانبۇل
ىستانبۇلدا
ىستانبۇلدىكى
ىستانبۇلغا
ىستانبۇلنى
ىستانبۇلنىڭ
ىستانسى
ىستانسىسى
ىستانسىسىدا
ىستانسىسىغا
ىستانسىسىنىڭ
ىستانسىنىڭ
ىستانىسى
ىستراتېگىيىلىك
ىستراتېگىيە
ىستراتېگىيەلىك
ىستىخبارات
ىستىخباراتنىڭ
ىستىخىيىلىك
ىستىقامەت
ىستىقبال
ىستىقبالى
ىستىقبالىغا
ىستىقلال
ىستىكى
ىستىلا
ىستىلاسى
ىستىلاسىدىن
ىستىلى
ىستىمال
ىستىمالدىن
ىستىمالچى
ىستىمالچىلار
ىستىمالچىلارنىڭ
ىستىمەس
ىستىپا
ىستىگەن
ىستېتىك
ىستېداتلىق
ىستېلا
ىستېمال
ىستېمالدىن
ىستېمالچىلار
ىستېمالچىلارغا
ىستېمالچىلارنى
ىستېمالچىلارنىڭ
ىستېپا
ىستەك
ىستەكلىرىنى
ىستەكنى
ىستەيدىغان
ىستەيدۇ
ىستەيسىز
ىسرا
ىسراي
ىسراپ
ىسراپخورلۇق
ىسراپچىلىق
ىسرىق
ىسساك
ىسسىق
ىسسىقتىن
ىسسىققا
ىسسىقكۆل
ىسسىقلىق
ىسسىنىش
ىسسىپ
ىسكىرىپكا
ىسكىلات
ىسكىلاتتا
ىسكىلاتى
ىسكەندەر
ىسكەندەرنىڭ
ىسلام
ىسلامدا
ىسلامدىكى
ىسلامدىن
ىسلامغا
ىسلاملىشىش
ىسلامنى
ىسلامنىڭ
ىسلامى
ىسلامىي
ىسلامىيەت
ىسلامىيەتتىن
ىسلامىيەتكە
ىسلامىيەتنى
ىسلامىيەتنىڭ
ىسلامي
ىسلامچىلىق
ىسلاندىيە
ىسلاھ
ىسلاھات
ىسلاھاتنى
ىسلاھاتى
ىسلاھاتچى
ىسلاھاتچىلىق
ىسلىرى
ىسلىك
ىسلىككە
ىسلىكىگە
ىسلەر
ىسماي
ىسمايىل
ىسمى
ىسمىدىن
ىسمىدۇر
ىسمىغا
ىسمىم
ىسمىمنى
ىسمىنى
ىسمىنىڭ
ىسنىڭ
ىسى
ىسىتمال
ىسىل
ىسىلىك
ىسىم
ىسىمدۇر
ىسىملار
ىسىملارغا
ىسىملارنى
ىسىملارنىڭ
ىسىملىرى
ىسىملىرىنى
ىسىملىرىنىڭ
ىسىملىك
ىسىمنى
ىسىمنىڭ
ىسىمى
ىسىنىڭ
ىسيان
ىسيانى
ىسپات
ىسپاتلار
ىسپاتلارنى
ىسپاتلاش
ىسپاتلاشقا
ىسپاتلاندى
ىسپاتلانغان
ىسپاتلايدىغان
ىسپاتلايدۇ
ىسپاتلاپ
ىسپاتلىدى
ىسپاتلىدىكى
ىسپاتلىشىچە
ىسپاتلىغان
ىسپاتى
ىسپان
ىسپانىيە
ىسپانىيەدىن
ىسپانىيەدە
ىسپانىيەنىڭ
ىسپانىيەگە
ىسپانچە
ىسپىرت
ىسپىغۇل
ىسھاق
ىسە
ىش
ىشارىتى
ىشارىسى
ىشارە
ىشارەت
ىشارەتلەر
ىشان
ىشانلار
ىشبارا
ىشتا
ىشتابى
ىشتات
ىشتاتلىرىنىڭ
ىشتان
ىشتىراك
ىشتىمۇ
ىشتىن
ىشتىياق
ىشتىياقى
ىشتىھا
ىشتىھانى
ىشتۇر
ىشخال
ىشخانا
ىشخانىسى
ىشخانىسىدا
ىشخانىسىغا
ىشخانىسىنىڭ
ىشرەت
ىشسىز
ىشسىزلىق
ىششىق
ىشغال
ىشغالىيەت
ىشق
ىشقا
ىشقى
ىشقىلىپ
ىشلار
ىشلاردا
ىشلاردىمۇ
ىشلاردىن
ىشلارغا
ىشلارمۇ
ىشلارنى
ىشلارنىڭ
ىشلةتكۈچى
ىشلىتىدىغان
ىشلىتىدۇ
ىشلىتىش
ىشلىتىشتىن
ىشلىتىشتە
ىشلىتىشكە
ىشلىتىشنى
ىشلىتىشى
ىشلىتىشىگە
ىشلىتىلدى
ىشلىتىلدىغان
ىشلىتىلدۇ
ىشلىتىلسە
ىشلىتىلمىگەن
ىشلىتىلمەكتە
ىشلىتىلىدىغان
ىشلىتىلىدۇ
ىشلىتىلىش
ىشلىتىلىشكە
ىشلىتىلىشى
ىشلىتىلىشىنى
ىشلىتىلىشچانلىقى
ىشلىتىلىپ
ىشلىتىلىۋاتقان
ىشلىتىلىۋاتىدۇ
ىشلىتىلگەن
ىشلىتىلەتتى
ىشلىتىپ
ىشلىتىۋاتقان
ىشلىتەتتى
ىشلىتەلەيدىغان
ىشلىتەلەيدۇ
ىشلىدى
ىشلىدىم
ىشلىرى
ىشلىرىدا
ىشلىرىدىكى
ىشلىرىدىن
ىشلىرىغا
ىشلىرىغىمۇ
ىشلىرىم
ىشلىرىمىز
ىشلىرىنى
ىشلىرىنىڭ
ىشلىسە
ىشلىشى
ىشلىمەكتە
ىشلىمەيدۇ
ىشلىنىدۇ
ىشلىنىپ
ىشلىگىلى
ىشلىگۈچى
ىشلىگۈچىسى
ىشلىگەن
ىشلىگەندىن
ىشلە
ىشلەتتى
ىشلەتسە
ىشلەتكىلى
ىشلەتكۇچى
ىشلەتكۈچى
ىشلەتكۈچىلەر
ىشلەتكۈچىلەرنىڭ
ىشلەتكۈچىلەرگە
ىشلەتكۈچىنىڭ
ىشلەتكۈچىگە
ىشلەتكەن
ىشلەتكەندە
ىشلەتكەنلىكىنى
ىشلەتمىگەن
ىشلەتمەسلىك
ىشلەتمەكتە
ىشلەتمەي
ىشلەتمەيدۇ
ىشلەش
ىشلەشتە
ىشلەشكە
ىشلەشنى
ىشلەندى
ىشلەنگەن
ىشلەيدىغان
ىشلەيدۇ
ىشلەپ
ىشلەپچىقارغان
ىشلەپچىقارغۇچى
ىشلەپچىقارغۇچىلار
ىشلەپچىقرىش
ىشلەپچىقىرش
ىشلەپچىقىرىدىغان
ىشلەپچىقىرىدۇ
ىشلەپچىقىرىش
ىشلەپچىقىرىشقا
ىشلەپچىقىرىشنى
ىشلەپچىقىرىشنىڭ
ىشلەپچىقىرىشى
ىشلەپچىقىرىشىنى
ىشلەپچىقىرىلغان
ىشلەپچىقىرىلىدىغان
ىشلەپچىقىرىلىشى
ىشلەپچىقىرىپ
ىشلەڭ
ىشلەۋاتقان
ىشلەۋاتىدۇ
ىشنى
ىشنىڭ
ىشى
ىشىدا
ىشىدىن
ىشىغا
ىشىق
ىشىك
ىشىكتىن
ىشىكنى
ىشىكنىڭ
ىشىكى
ىشىكىنى
ىشىم
ىشىمنى
ىشىمىز
ىشىنى
ىشىنىدىغان
ىشىنىدۇ
ىشىنىش
ىشىنىشكە
ىشىنىشى
ىشىنىلىدۇ
ىشىنىمىز
ىشىنىمەن
ىشىنىمەنكى
ىشىنىپ
ىشىنىڭ
ىشىنەتتى
ىشىپ
ىشىڭ
ىشچان
ىشچى
ىشچىسى
ىشچىلار
ىشچىلارنى
ىشە
ىشەت
ىشەك
ىشەندۈرۈش
ىشەنمەسلىك
ىشەنمەيدىغان
ىشەنمەيدۇ
ىشەنىڭ
ىشەنچ
ىشەنچلىك
ىشەنچىسى
ىشەنچىسىنى
ىشەنچىسىگە
ىشەنچىلىك
ىشەنگەن
ىشەگە
ىغا
ىغىر
ىغۋا
ىف
ىقامەت
ىقبال
ىقبالنىڭ
ىقتىدار
ىقتىدارغا
ىقتىدارلىرى
ىقتىدارلىرىنى
ىقتىدارلىق
ىقتىدارنى
ىقتىدارنىڭ
ىقتىدارى
ىقتىدارىدىن
ىقتىدارىغا
ىقتىدارىمۇ
ىقتىدارىنى
ىقتىدارىنىڭ
ىقتىساد
ىقتىسادتا
ىقتىسادشۇناس
ىقتىسادشۇناسلار
ىقتىسادشۇناسلىق
ىقتىسادشۇناسلىقى
ىقتىسادقا
ىقتىسادنى
ىقتىسادنىڭ
ىقتىسادى
ىقتىسادىدا
ىقتىسادىغا
ىقتىسادىنى
ىقتىسادىنىڭ
ىقتىسادىي
ىقرار
ىقلىم
ىقلىمى
ىقلىمىغا
ىقىدا
ىكرام
ىكران
ىككى
ىككىدىن
ىككىسى
ىككىسىدىن
ىككىسىنى
ىككىسىنىڭ
ىككىسىگە
ىككىلا
ىككىلى
ىككىلىسى
ىككىلىسىنىڭ
ىككىلەمچى
ىككىمىز
ىككىنجى
ىككىنى
ىككىنچى
ىككىنچىدىن
ىككىنچىسى
ىككىيلەن
ىككىگە
ىككەيلەن
ىكەن
ىكەندۇق
ىكەنسىز
ىكەنلىكنى
ىكەنلىكى
ىكەنلىكىدىن
ىكەنلىكىدە
ىكەنلىكىمنى
ىكەنلىكىنى
ىكەنلىكىنىمۇ
ىكەنلىكىگە
ىكەنلىگى
ىكەنلىگىنى
ىكەنمىز
ىكەنمەن
ىل
ىلا
ىلاتۇن
ىلاج
ىلان
ىلاھ
ىلاھقا
ىلاھلار
ىلاھنىڭ
ىلاھى
ىلاھىنىڭ
ىلاھىي
ىلاھىيەت
ىلاھە
ىلاۋە
ىلتىجا
ىلتىماس
ىلتىماسنى
ىلتىماسى
ىلتىماسىغا
ىلتىماسىنى
ىلتىپات
ىلتەبىر
ىلدىن
ىلغا
ىلغار
ىلغارلىق
ىلك
ىلكخان
ىلكىدىكى
ىلكىدە
ىلكىگە
ىللا
ىللار
ىللاردا
ىللارغا
ىللارنىڭ
ىللىق
ىللىنوي
ىللەت
ىللەتلىك
ىللەتلەر
ىللەتلەرنى
ىلم
ىلمان
ىلمى
ىلمىدىكى
ىلمىدە
ىلمىنى
ىلمىنىڭ
ىلمىي
ىلمىيلىك
ىلمىيلىكى
ىلمىگە
ىلمېنىت
ىلمەك
ىلنى
ىلنىڭ
ىلى
ىلىدا
ىلىدىكى
ىلىدىن
ىلىدە
ىلىسدە
ىلىسى
ىلىسىدىكى
ىلىسىدىكىلەر
ىلىسىدىكىلەرنى
ىلىسىدىكىلەرنىڭ
ىلىسىدىن
ىلىسىدە
ىلىسىنى
ىلىسىنىڭ
ىلىسىگە
ىلىش
ىلىشقا
ىلىشىش
ىلىغا
ىلىك
ىلىكترونلۇق
ىلىكتىر
ىلىكتىرون
ىلىكخان
ىلىلىرى
ىلىلىك
ىلىلەر
ىلىلەردە
ىلىلەرنى
ىلىلەرنىڭ
ىلىم
ىلىملىرى
ىلىملىرىنى
ىلىملەر
ىلىملەردە
ىلىملەرنى
ىلىمنى
ىلىمنىڭ
ىلىمى
ىلىمىز
ىلىمىزنىڭ
ىلىمىي
ىلىمگە
ىلىندى
ىلىنغان
ىلىنى
ىلىنىڭ
ىلىيە
ىلىيەدە
ىلىيەنىڭ
ىلىيەگە
ىلىپ
ىلىگ
ىلىگە
ىلىۋى
ىلياس
ىلگىر
ىلگىركى
ىلگىرلىگەن
ىلگىرلەش
ىلگىرلەپ
ىلگىرى
ىلگىرىكى
ىلگىرىلا
ىلگىرىلىدى
ىلگىرىلىشى
ىلگىرىلىگەن
ىلگىرىلەش
ىلگىرىلەشكە
ىلگىرىلەپ
ىلھام
ىلھاملاندۇرىدۇ
ىلھاملاندۇرۇش
ىلھاملاندۇرۇپ
ىلھاملىنىپ
ىلھامى
ىلۇن
ىلە
ىلەر
ىلەرنى
ىلەرنىڭ
ىلەرگە
ىلەم
ىم
ىما
ىمارەت
ىمارەتلىرى
ىمارەتلەر
ىمارەتلەرنىڭ
ىمارەتنى
ىمارەتنىڭ
ىمام
ىماملار
ىماملارنىڭ
ىماملىق
ىمامنىڭ
ىمامى
ىمان
ىمانغا
ىماننىڭ
ىمانى
ىمتاھان
ىمتىياز
ىمتىيازغا
ىمتىھان
ىمتىھاندا
ىمتىھاندىن
ىمتىھانغا
ىمتىھانى
ىمتىھانىدا
ىمتىھانىدىن
ىمتىھانىغا
ىمران
ىمزا
ىمزاسى
ىمزالاندى
ىمزالانغان
ىمزالاپ
ىمزالىدى
ىمزالىغان
ىمكان
ىمكانقەدەر
ىمكانى
ىمكانىيىتى
ىمكانىيىتىگە
ىمكانىيەت
ىمكانىيەتلەر
ىمكانىيەتنىڭ
ىملا
ىملادا
ىملاسى
ىملانى
ىملىق
ىممۇنىتېت
ىمى
ىمىر
ىمىش
ىمىن
ىمىنجان
ىمىننىڭ
ىمىنوف
ىمىي
ىمپورت
ىمپىرىيىسى
ىمپىرىيىسىنىڭ
ىمپىرىيىسىگە
ىمپىرىيە
ىمپىرىيەسى
ىمپىرىيەسىنىڭ
ىمپېراتور
ىمپېراتورلۇق
ىمپېراتورى
ىمپېرىيىسى
ىمپېرىيىسىنى
ىمپېرىيىسىنىڭ
ىمپېرىيىسىگە
ىمپېرىيە
ىمپېرىيەسى
ىمپېرىيەسىنىڭ
ىمپېرىيەنىڭ
ىن
ىنا
ىنات
ىناتتىكى
ىناتنىڭ
ىناغا
ىناق
ىناقلىق
ىنانىڭ
ىنانچىخان
ىناۋىتى
ىناۋىتىنى
ىناۋەت
ىناۋەتسىز
ىناۋەتكە
ىناۋەتلىك
ىنتايىن
ىنتوناتسىيە
ىنتىرنىت
ىنتىزار
ىنتىزام
ىنتىزامغا
ىنتىزامى
ىنتىزامىغا
ىنتىقام
ىنتىل
ىنتىلىدىغان
ىنتىلىش
ىنتېرناتسىي
ىنتېرنىت
ىنتېرنېت
ىنتېرنېتتىن
ىنتېل
ىنجىل
ىنجىلدا
ىنجىلدىكى
ىنجىلنىڭ
ىندىي
ىندىۋىدۇي
ىندۇكسىيە
ىنسان
ىنساندا
ىنساندىكى
ىنساندىن
ىنسانشۇناسلىق
ىنسانغا
ىنسانلار
ىنسانلاردا
ىنسانلاردىن
ىنسانلارغا
ىنسانلارنى
ىنسانلارنىڭ
ىنسانلىق
ىنساننى
ىنساننىڭ
ىنسانى
ىنسانىي
ىنسانىيەت
ىنسانىيەتكە
ىنسانىيەتنى
ىنسانىيەتنىڭ
ىنسانپەرۋەر
ىنسانپەرۋەرلىك
ىنساپ
ىنستىتۇت
ىنستىتۇتنىڭ
ىنستىتۇتى
ىنستىتۇتىدا
ىنستىتۇتىغا
ىنستىتۇتىنىڭ
ىنسۇلىن
ىنشا
ىنشاي
ىنفرا
ىنقىلاب
ىنقىلابقا
ىنقىلابنى
ىنقىلابنىڭ
ىنقىلابى
ىنقىلابىدا
ىنقىلابىدىن
ىنقىلابىغا
ىنقىلابىنى
ىنقىلابىنىڭ
ىنقىلابىي
ىنقىلابچى
ىنقىلابچىل
ىنقىلابچىلار
ىنقىلاپ
ىنقىلاپچى
ىنقىلاۋى
ىنكار
[...]
