!
"
#
##0
##1
##10
##11
##12
##13
##14
##15
##16
##17
##18
##19
##2
##20
##21
##22
##23
##24
##25
##26
##27
##28
##29
##3
##30
##31
##32
##33
##34
##35
##36
##37
##38
##39
##4
##40
##41
##42
##43
##44
##45
##46
##47
##48
##49
##5
##50
##51
##52
##53
##54
##55
##56
##57
##58
##59
##6
##60
##61
##62
##63
##64
##65
##66
##67
##68
##69
##7
##70
##71
##72
##73
##74
##75
##76
##77
##78
##79
##8
##80
##81
##82
##83
##84
##85
##86
##87
##88
##89
##9
##90
##91
##92
##93
##94
##95
##96
##97
##98
##99
$
%
&
'
(
)
*
+
,
-
.
/
0
00
000
0000
0001
0002
0003
0004
0006
001
002
0022
003
004
0049
005
006
0067
007
008
009
01
010
0100000
011
012
013
014
0140
015
016
017
018
019
02
020
0261
03
0362
0378
038
04
05
050
06
060
07
08
083
09
1
10
100
1000
10000
100000
1001
1002
1006
1007
101
1016
1017
102
1021
1023
103
1037
1038
104
1046
105
1051
1056
106
1063
107
1073
1074
108
1080
1083
1086
1088
109
1093
1095
1097
1098
1099
11
110
1100
1101
1103
1109
111
1111
1119
112
1126
1128
113
1136
114
1146
115
1159
116
1161
117
1177
118
1186
119
12
120
1200
1207
121
1210
12148
122
1228
123
124
12477932
125
1250
126
127
128
1285
129
13
130
1300
131
132
133
1333154
134
135
1350
1353
136
1365
137
1371
138
1384
1385
139
139241
1395
1399
14
140
1400
1401
1402
1403
1404
1405
1406
1407
1408
1409
141
1410
1411
1412
1413
1414
1415
1416
1417
1418
1419
142
1420
1421
1422
1423
1424
1425
1426
1427
1428
1429
143
1430
1431
1432
1433
1434
14344
1435
1436
1437
1438
144
1440
145
1453
146
14651858
147
1471
148
149
1492
15
150
1500
151
1515
1517
152
1525
153
154
15489334
155
1550
156
157
158
159
16
160
1600
161
162
163
164
165
1650
166
1660
167
168
16899
169
17
170
1700
171
172
173
174
1740
175
1750
1758
176
1760
1763
177
1770
1772
1773
1774
1775
1776
1777
1778
1779
178
1780
1781
1782
1783
1784
1785
1786
1787
1788
1789
179
1790
1791
1792
1793
1794
1795
1796
1797
1798
1799
18
180
1800
1801
1802
1803
1804
1805
1806
1807
1808
1809
181
1810
1811
1812
1813
1814
1815
1816
1817
1818
1819
182
1820
1821
1822
1823
1824
1825
1826
1827
1828
1829
183
1830
1831
1832
1833
1834
1835
1836
1837
1838
1839
184
1840
1841
1842
1843
1844
1845
1846
1847
1848
1849
185
1850
1851
1852
1853
1854
1855
1856
1857
1858
1859
186
1860
1861
1862
1863
1864
1865
1866
1867
1868
1869
187
1870
1871
1872
1873
1874
1875
1876
1877
1878
1879
188
1880
1881
1882
1883
1884
1885
1886
1887
1888
1889
189
1890
1891
1892
1893
1894
1895
1896
1897
1898
1899
19
190
1900
1901
1902
1903
1904
1905
1906
1907
1908
1909
191
1910
1911
1912
1913
1914
1915
1916
1917
1918
1919
192
1920
1921
1922
1923
1924
1925
1926
1927
1928
1929
193
1930
1931
1932
1933
1934
1935
1936
1937
1938
1939
194
1940
1941
1942
1943
1944
1945
1946
1947
1948
1949
195
1950
1951
1952
1953
1954
1955
1956
1957
1958
1959
196
1960
1961
1962
1963
1964
1965
1966
1967
1968
1969
197
1970
1971
1972
1973
1974
1975
1976
1977
1978
1979
198
1980
1981
1982
1983
1984
1985
1986
1987
1988
1989
199
1990
1991
1992
1993
1994
1995
1996
1997
1998
1999
2
20
200
2000
2001
2002
2003
2004
2005
2006
2007
2008
2009
201
2010
2011
2012
2013
2014
2015
2016
2017
2018
2019
202
2020
2021
2022
2023
203
2030
204
205
2050
206
207
208
209
21
210
211
212
2121
213
214
2148
215
216
217
218
219
22
220
221
222
223
224
225
226
227
228
229
23
230
2307
231
232
233
234
235
236
237
238
239
24
240
241
241600000
242
242603899
243
244
245
246
247
248
249
25
250
2500
251
252
253
254
255
256
257
258
259
2596504
26
260
261
262
263
264
265
266
267
268
269
27
270
271
272
273
274
275
276
277
278
279
28
280
281
282
283
284
285
286
287
288
289
29
290
291
292
293
294
295
296
297
298
299
3
30
300
3000
301
302
303
304
305
306
307
3077
308
309
31
310
311
312
313
314
315
316
3166
317
318
319
32
320
321
322
322488
323
324
325
326
327
328
329
33
330
331
332
333
334
335
336
3363419
337
338
339
34
340
341
342
343
344
345
346
347
348
349
35
350
3500
351
352
353
354
355
356
357
358
359
36
360
361
362
363
364
365
366
367
368
369
37
370
371
372
373
374
375
376
377
378
379
38
380
381
382
383
384
385
386
387
388
389
39
390
391
392
393
394
395
396
397
398
399
4
40
400
4000
401
402
403
404
405
406
407
40746926
408
409
41
410
411
412
413
414
415
416
417
418
419
42
420
421
422
423
424
425
426
427
428
429
43
430
431
432
433
4331
434
435
436
437
438
439
44
440
441
442
443
444
445
446
447
448
449
45
450
451
452
453
454
455
456
457
458
459
46
460
461
462
463
4638
464
465
466
467
468
469
47
470
471
4712
472
473
474
475
476
477
478
479
48
480
481
482
483
484
485
486
487
488
489
49
490
491
492
493
494
495
496
497
498
499
5
50
500
5000
501
502
503
504
505
506
507
508
509
51
510
511
512
513
514
515
516
517
518
519
52
520
521
522
523
524
525
526
527
528
528928
529
53
530
531
532
533
534
535
536
537
538
539
54
540
541
542
543
544
545
546
547
548
549
55
550
551
552
553
554
555
556
557
558
559
56
560
561
562
563
564
565
566
567
568
569
57
570
571
572
573
574
575
576
577
578
579
58
580
581
582
583
584
585
586
587
588
589
59
590
591
592
593
594
595
596
597
598
599
6
60
600
6000
601
602
603
604
605
606
607
608
609
61
610
611
612
613
614
615
616
617
618
619
62
620
621
622
623
624
625
626
627
628
629
63
630
631
632
633
634
635
636
6361
637
638
639
64
640
641
642
643
644
645
646
647
648
649
65
650
651
652
653
654
655
656
657
658
659
66
660
661
662
663
664
665
666
667
668
669
67
670
671
672
673
6736
674
675
676
678
679
68
680
681
683
684
685
687
688
69
690
691
694
695
7
70
700
7000
701
702
703
704
705
707
708
71
710
711
712
713
714
715
717
718
719
72
720
7214
722
725
727
729
73
730
731
732
733
737
74
740
741
743
745
746
747
75
750
751
757
76
760
767
77
770
777
78
780
781
786
787
788
79
790
791
792
8
80
800
8000
801
8018
802
805
806
81
810
811
813
82
820
821
8221
83
830
833
84
840
85
850
86
860
87
870
875
87747
88
880
89
890
9
90
900
903
91
910
911
917
92
920
925
93
930
938
94
940
95
950
953
96
960
964
97
970
975
977
977378
978
9780199773787
9781884446054
9796500022918
98
980
981
99
990
99166
9953
999
:
;
<
=
>
?
@
[
\
]
^
_
`
a
aa
aaron
ab
abbott
abc
abcd
abd
abdul
abortion
about
above
abraham
abs
abstract
abu
abuse
ac
acad
academic
academy
acb
access
accessed
accident
according
account
accounts
ace
acid
acids
acm
acquires
across
acs
act
acta
acting
action
activation
active
activist
activists
activities
activity
actor
actors
actress
acts
acute
ad
ada
adam
adams
add
address
adds
adelaide
adj
administration
adolf
adrian
adult
adults
adv
advance
advanced
advances
adventure
advocate
ae
af
afc
affairs
afghan
afghanistan
afl
afltables
afp
africa
african
afrique
after
ag
again
against
age
aged
agency
agent
agents
ages
ago
agree
agreement
agricultural
agriculture
ags
ah
ahead
ahmad
ahmed
ahram
ai
aid
aids
air
aircraft
airlines
airport
ais
aise
aises
aj
ak
akl
al
alabama
alain
alan
alaska
albedos
albert
alberta
alberto
album
albums
alcohol
aleph
aleppo
alessandro
alex
alexander
alexandra
alexandre
alfred
alge
alger
algeria
ali
alice
aligned
alison
aljazeera
all
allan
alle
allen
alliance
allison
allmovie
allmusic
allocine
almaany
almanac
almost
along
alonso
alpha
alpine
alps
already
als
also
alt
alternate
alternative
although
alumni
alumnicard
always
am
amanda
amazon
ambassador
ame
america
american
americans
amid
amnesty
among
ams
amsterdam
amy
an
ana
analysis
anatomy
anb
ancestry
ancienne
ancient
and
anderson
andre
andrea
andreas
andrew
andrews
android
andy
angel
angela
angeles
anglo
animal
animals
animation
anime
ann
anna
annals
anne
annie
anniversary
announce
announced
announcement
announces
annual
annurev
another
ans
answers
anthony
anthropology
anti
antoine
anton
antonio
anu
any
ao
ap
api
apiv
apj
app
appeal
appearances
appendix
apple
application
applications
applied
appointed
appointments
approach
approaches
approves
apps
apr
april
aps
ar
ara
arab
arabia
arabian
arabic
arabs
arch
archaeological
archaeology
archinform
architect
architectural
architecture
archive
archived
archives
are
area
areas
arena
argentina
argument
arizona
ark
arkansas
armed
armenia
armenian
arms
armstrong
army
arnold
around
arrest
arrested
ars
arsenal
art
arthur
article
articles
artist
artiste
artists
artnet
arts
arxiv
as
ashley
asia
asian
ask
asked
asp
aspects
aspx
assad
assault
assembly
assemblylist
assessment
associated
associates
association
associations
asteroid
asteroids
astro
astronomical
astronomy
astrophoto
astrophysical
astrophysics
at
athens
athlete
athletes
athletic
athletics
atlanta
atlantic
atlas
atle
atomic
atp
attack
attacks
attempt
attention
attorney
attribution
au
auckland
audio
auf
aug
august
aus
ausgewa
austin
australia
australian
australianfootball
austria
austrian
aut
auteur
auth
author
authorities
authority
authors
autism
auto
aux
av
available
avec
average
aviation
avril
award
awarded
awards
away
ax
az
azerbaijan
b
ba
babelio
babelnet
baby
back
background
bad
baghdad
baha
bahrain
bailey
baker
baldwin
ball
baltimore
ban
band
bangladesh
bank
banks
bar
barbara
barcelona
barker
barnes
baron
barrett
barry
bartleby
bartlett
barton
bas
base
baseball
based
basic
basis
basketball
battle
bauer
bay
bayern
bb
bbc
bc
bd
bdfa
bdfutbol
be
beach
bear
beat
beautiful
beauty
became
because
beck
becker
become
becomes
beeldengeluid
been
before
begin
beginning
begins
behavior
behavioral
behaviour
behind
bei
beijing
being
beirut
belgium
believe
bell
belt
ben
benezit
benjamin
bennett
benz
ber
berg
berger
berkeley
berlin
bern
bernard
berry
best
beta
better
between
beyond
bf
bg
bi
bibcode
bible
biblical
bibliographisches
bibliography
biblioteca
bid
big
bigenc
biggest
bill
billboard
billion
billy
bin
binding
bio
biochem
biochemical
biochemistry
biodisplay
biodiversity
biodiversitylibrary
biographical
biographie
biographies
biography
bioguide
biol
biological
biology
biophys
bios
biotechnology
bird
birds
birmingham
birth
birthday
bis
bishop
bj
bl
black
blackwell
blair
blake
blast
blica
blind
block
blog
blogs
blogspot
blood
bloomberg
bloomsbury
blue
blues
bm
bmc
bmj
bn
bncf
bne
bnf
bo
board
boats
bob
bobby
bodies
body
boe
boeing
bollywood
bomb
bombing
bond
bone
book
books
border
borders
boris
born
borough
boss
boston
bot
both
boundaries
box
boxer
boxrec
boy
boyd
boys
bp
br
brad
bradley
brain
branch
brand
brandon
brasil
brasileiro
brazil
brazilian
break
breaking
breaks
breast
brett
brian
bridge
brief
brien
bright
brill
bring
brings
brinkster
bristol
britain
britannica
british
broadcast
broadcasting
broadway
brockhaus
brooklyn
brooks
brother
brothers
brown
browse
bruce
bruno
bryan
bryant
bs
bts
bu
bucknell
budget
buffalo
build
building
buildings
built
bulgaria
bull
bulletin
bundesliga
bundestag
bureau
burke
burns
burton
buscar
bush
business
but
butler
buy
by
byzantine
c
ca
cabinet
cable
caf
cagematch
cairo
calcio
caldwell
calendar
calendarhome
california
call
called
calls
cambridge
came
camera
cameron
camp
campaign
campbell
campus
can
canada
canadian
canberra
cancer
candidate
candidates
cannes
canon
cap
cape
capital
capsel
captain
capture
car
carbon
carcinoma
card
cardiovascular
care
career
carey
caribbean
carl
carlo
carlos
carnegie
carol
carolina
caroline
carpenter
carr
carroll
cars
carter
cas
case
cases
casey
cash
cast
castle
castro
cat
catalana
catalog
catalogue
category
catherine
catholic
cause
causes
cave
cb
cbc
cbs
cc
ccl
cd
cdc
cdna
cdnas
cdot
cdp
ce
cedsci
celebrates
celebrity
cell
cells
cellular
celtic
census
center
centers
central
centre
centric
centuries
century
ceo
cerl
certain
cf
cfilm
cfm
cg
cgi
ch
cha
chad
chain
chairman
challenge
challenges
chamber
chambers
champion
champions
championship
championships
chan
chance
chang
change
changed
changes
changing
channel
chapman
chapter
character
characteristics
characterization
characters
charge
charles
charlie
charlotte
chart
charts
chase
che
check
chelsea
chem
chemcalc
chemical
chemie
chemistry
chemspider
chen
cheney
chess
chester
chi
chicago
chief
child
childhood
children
chile
china
chinese
choice
chris
christ
christian
christianity
christians
christie
christina
christine
christmas
christopher
chromosome
chronic
chronicle
chronologie
chronology
chuck
church
churches
churchill
ci
cia
cid
cine
cinema
circle
circuit
cit
citation
cite
cited
cities
citizen
citizens
citizenship
city
civil
civilization
cj
ck
cl
claim
claims
claire
clara
clark
clarke
clash
clashes
class
classes
classic
classical
classics
classification
claude
claudia
clayton
cle
clear
cleveland
client
clifford
climate
clin
clinic
clinical
clinton
clio
cloning
close
closed
cloud
club
clube
clubs
cluster
clusters
cm
cn
cnbc
cnn
co
coach
coaches
coalition
coast
cobiss
cochrane
code
codes
codigo
coding
coe
cognitive
cohen
col
cold
cole
coleman
colin
collection
collections
college
colleges
collins
colombia
colonial
color
colorado
columbia
com
combat
combined
come
comedy
comes
comic
comics
coming
command
commander
commentary
commerce
commercial
commission
commissioner
committee
common
commons
commonwealth
communes
communication
communications
communist
communities
community
como
companies
companion
company
comparative
comparison
competition
complete
complex
composer
composition
compound
compounds
comprehensive
computer
computing
comuni
con
conan
concept
concepts
concert
concise
conditions
confederation
conference
confirmed
confirms
conflict
congo
congreso
congress
congressional
connecticut
connection
connor
conor
conquest
consequences
conservation
conservative
conspiracy
constitution
constitutional
construction
consulates
consulte
consumer
contact
containing
contemporary
content
context
continue
continues
contra
contract
contribution
contributions
control
controlled
controversy
convention
conversation
conversion
convertunits
cook
cooper
cooperation
copa
copy
core
cornell
coronavirus
corporate
corporation
corps
corruption
cos
cost
costa
cote
could
council
count
counties
countries
country
counts
county
coup
courier
course
court
cover
coverage
covid
cox
cp
cqranking
cr
craig
crash
crawford
crc
create
created
creation
creative
creator
credits
crew
cricinfo
cricket
cricketarchive
crime
crimes
criminal
crisis
critical
criticism
critics
croatia
cross
crown
cruz
crystal
cs
csfd
csv
ct
cu
cuba
cultura
cultural
culture
cultures
cup
current
curriculum
curtis
cut
cutri
cv
cycle
cyclebase
cycling
cyclisme
cyprus
cz
czech
d
da
dailey
daily
dakota
dale
dallas
damage
damascus
dame
dan
dana
dance
daniel
danny
dans
dar
dark
darwin
das
data
database
databasefootball
databaseolympics
datasets
date
dates
datos
daughter
dave
david
davidson
davies
davis
dawn
day
days
db
dbe
dc
dd
de
dead
deadline
deadly
deal
dean
death
deaths
debate
debaun
deborah
debut
dec
december
decision
declaration
decline
deeann
deep
default
defaulted
defeat
defence
defender
defense
deficiency
definition
degree
degruyter
del
delarge
delhi
dell
della
delta
dem
demand
democracy
democratic
demographic
demographics
den
denis
denise
denmark
dennis
density
dental
denver
department
departments
dependent
deportista
deportivo
depression
dept
deputy
der
derby
derek
dermatology
des
description
desenvolvimento
desert
design
despite
destruction
det
detail
detailed
details
detection
detective
detroit
deutsche
deutschen
deutschland
dev
developed
developing
development
developmental
df
dfb
dhliz
di
dia
diabetes
diagnosis
diagnostic
diameters
diamond
diana
diane
diario
diccionario
dick
dicte
dictionary
dictionnaire
did
didn
die
died
diego
dies
diet
difference
differences
different
digest
digital
digos
din
diocese
diplomacy
diplomatic
direct
director
directors
directory
dis
disaster
discography
discogs
discover
discovery
discrimination
discussion
disease
diseases
disney
disorder
disorders
display
displaystyle
distance
distribution
district
ditions
diversity
divisa
division
divisions
dixon
dj
dk
dl
dm
dna
dnb
do
doc
docs
doctor
document
documentary
documentation
documents
does
dog
doi
dokumentum
domain
domestic
don
donald
donne
door
dorothy
dorta
dos
dot
double
doug
douglas
dover
down
download
doyle
dp
dq
dr
draft
dragon
drama
draw
dream
dreams
dresden
drew
drive
driver
driverdb
drivers
drug
drugs
ds
dss
dt
du
dubai
dublin
due
duke
duncan
dunn
during
dutch
dvd
dw
dx
dynamic
dynamics
dynasty
dynt
dz
e
ea
each
eagle
earl
earliest
early
earth
earthquake
east
eastern
eb
ebid
ec
echo
eclipse
ecological
ecology
economic
economics
economist
economy
ecs
ed
eddie
edgar
edge
edinburgh
edited
edition
editions
editor
editorial
editors
edmund
eds
edu
eduardo
education
educational
edward
edwards
edwin
ee
ef
effect
effective
effects
efficacy
eg
egypt
egyptian
ei
eight
ein
eine
einstein
eisenhardt
ek
el
elcinema
elected
election
elections
electoral
electric
electronic
elements
elfilm
elite
eliteprospects
elizabeth
ellen
elliott
ellis
elsbury
elsevier
em
embassies
embassy
embassypages
embo
emergency
emerging
emily
emirates
emma
emmanuel
emperor
empire
en
enciclope
enciclopedia
enciklopedija
encoding
ency
encyclopaedia
encyclopedia
encyclopædia
end
ending
ends
energy
eng
engine
engineering
engineers
england
english
enough
enter
enterprise
entertainment
entity
entre
entrez
entry
environment
environmental
enzy
ep
epa
epic
epidemiology
episode
equality
er
era
eric
erik
eris
ernest
ernst
error
es
espan
espn
espncricinfo
esporte
essay
essays
essential
est
estati
estimate
estimated
estimates
estimativas
et
etc
ethics
ethiopia
ethnic
eu
eugene
eur
euro
eurobasket
eurohockey
europa
europarl
europe
european
ev
eva
evaluation
evans
even
evening
event
events
ever
every
everything
evidence
evil
evolution
evolutionary
ex
example
exchange
exclusive
exe
executive
exempt
exercise
exhibition
exp
expansion
expected
experience
experimental
expert
experts
explicit
exploration
explore
exploring
exposure
express
expressed
expression
extended
extends
extension
external
externalid
extra
eye
eyes
ez
f
fa
face
facebook
faces
fact
factbook
factfinder
factor
factors
facts
faculty
fag
failure
fair
faith
fall
falls
false
fame
families
family
famous
fan
fandom
fans
fantasy
faq
far
farm
fashion
fast
father
fb
fbi
fbref
fc
fcgi
fd
fda
fe
fear
feature
features
feb
february
federal
federation
feed
felix
fellows
fellowship
fem
female
fembio
feminism
feminist
ferdinand
ferguson
ferna
fernando
festival
few
ff
fi
fiba
ficha
fiche
fichefilm
fichier
fico
fiction
fid
field
fields
fifa
fifth
fight
fighter
fighters
fightfinder
fighting
figure
figures
file
files
film
filmaffinity
filmdatabas
filmportal
films
final
finale
finally
finals
finance
financial
find
findagrave
finding
finds
fine
finger
finland
finley
fire
firenze
firm
first
fis
fischer
fish
fisher
five
fj
fk
fl
flag
flash
fleet
fleming
fletcher
flight
flora
florence
florida
flow
floyd
flu
fly
flying
fm
fn
fo
focus
folk
follow
following
food
foot
football
footballdatabase
footballers
for
foradejogo
forbes
force
forced
forces
ford
foreign
forest
forgotten
form
format
formation
former
forms
formula
formulas
fort
fortune
forum
forward
foster
found
foundation
foundations
founder
four
fourth
fowler
fox
fr
fra
frac
framework
franc
france
frances
francis
francisco
franco
frank
frankfurt
franklin
franz
fraser
frau
frauendatenbank
fre
fred
frederick
free
freedom
freeman
french
fresh
friday
friedman
friedrich
friend
friends
fritz
from
front
frontier
frontiers
ft
fu
fuel
full
fullcredits
fuller
func
function
functional
functions
fund
further
fussballdaten
futebol
future
g
ga
gabriel
galaxies
galaxy
gale
gales
galex
gallery
game
games
gamespot
gamma
gao
gap
garci
garcia
garden
gardner
gary
gas
gate
gates
gautier
gay
gaza
gazette
gazetteer
gb
gbif
gc
gct
gdp
ge
gec
gemeinde
gemeinden
gemeindeverzeichnis
gen
gender
gene
genealogie
genealogy
geneastar
genera
general
generation
generic
genes
genet
genetic
genetics
geneva
gennaio
geno
genocide
genome
genomics
genus
geo
geoffrey
geografia
geographic
geographical
geography
geological
geology
geonames
georg
george
georges
georgia
ger
gerald
gerard
gerhard
german
germany
geschichte
get
gets
getting
getty
gf
gh
ghana
giant
giants
gibson
gil
gilbert
gill
giovanni
girl
girls
gis
gisserot
github
give
given
gives
glasgow
glass
glen
glenn
global
globe
globo
glory
glossary
gm
gmbh
gn
gnd
gnis
go
goal
goals
god
goes
going
gold
goldberg
golden
goldman
golf
gomillion
gone
gonza
good
goodman
goodreads
google
gordon
got
gouv
gov
governance
government
governor
govt
gp
gr
grace
graduate
graham
gran
grand
grande
grant
grav
grave
gray
great
greater
greatest
greece
greek
green
greene
greenwood
greg
gregory
grey
grid
griffin
gross
ground
group
groups
grove
growing
growth
gru
grup
gs
gt
gu
guard
guardian
guerra
guez
guide
guidelines
guides
guinea
guinness
gulf
gun
gutenberg
guy
h
ha
haaretz
habitants
had
hal
half
hall
hamilton
han
hand
handball
handbook
handicrafts
handle
hands
hannah
hans
hansard
hansen
happened
happy
hard
hardy
harold
harper
harris
harrison
harry
hart
harv
harvard
harvey
has
hasan
hassan
hat
hate
have
haven
hawaii
hawramani
hayes
hayley
hc
hcp
hd
hdl
he
head
heads
health
healthcare
healthy
hearing
heart
hearts
heat
heather
heavy
hebrew
heinrich
heinz
held
helen
hell
help
henderson
henri
henry
her
herald
herbert
here
heritage
herman
hermann
herna
hero
heroes
het
hezbollah
hi
hidden
hide
hierarchy
high
higher
highest
highlights
hill
hills
him
himself
hindu
hip
his
histo
histoire
historia
historian
historians
historic
historical
histories
history
hit
hitler
hits
hiv
hk
hl
hlten
ho
hockey
hockeydb
hoffman
hold
holders
holland
hollywood
holmes
holocaust
holt
holy
home
homepage
hon
hong
honor
honorary
honors
honour
honours
hope
hopkins
horn
horror
horse
hospital
host
hot
hotel
houghton
hour
hours
house
housing
houston
how
howard
however
hp
hr
href
hrvatska
ht
htm
html
http
https
hu
huang
hub
hudson
huffington
hugh
hughes
hugman
hugo
hum
human
humanitarian
humans
hundred
hungary
hunt
hunter
hydrogen
i
ia
iaaf
ian
iata
iau
iba
ibdb
ibge
ibm
ibn
ibrahim
ic
ica
ice
ictv
ictvonline
id
idea
ideas
identifiants
identification
identifie
identified
identifier
identity
idref
ie
ieee
if
ign
iho
ii
iii
il
ilkid
illinois
illustrated
im
image
images
imaging
imdb
immigration
immunology
impact
imperial
implications
important
imslp
in
inc
include
includes
including
incorporated
increase
independence
independent
index
india
indian
indiana
indianapolis
indigenous
individual
indonesia
induced
industrial
industry
ine
inebase
infection
infections
infectious
influence
influenza
info
information
infty
initial
initiative
injured
injury
innovation
inorganic
inquirer
inquiry
insee
inside
insider
instagram
institut
institute
institutes
institution
institutions
instituto
int
integrated
integration
intellectual
intelligence
inter
interaction
interactions
interactive
interest
interior
internal
international
internationale
internet
interpol
intervention
interview
interviews
into
introduction
invasion
investigation
investment
involved
io
ioc
iop
iopscience
iowa
ip
ipac
iphone
ipni
iq
ir
iran
iranian
iraq
iraqi
iras
ireland
irish
iron
irving
is
isaac
isabart
isbn
isfdb
isis
islam
islamic
island
islands
isn
isni
iso
isolation
israel
israeli
issn
issue
issues
ist
istanbul
istat
istituto
isufs
isuresults
it
italia
italian
italiane
italy
item
itf
itis
its
itsrugby
itunes
itv
iucn
iucnredlist
iv
ivan
ix
j
ja
jack
jackson
jacob
jacobs
jacques
jakarta
jake
jama
jamaica
james
jamie
jan
jane
janet
janine
january
janvier
japan
japanese
jason
javier
jay
jazeera
jazirah
jazz
jb
jbc
jc
jd
je
jean
jeff
jefferson
jeffrey
jenkins
jennifer
jensen
jeremy
jerome
jerry
jersey
jerusalem
jesse
jessica
jesus
jet
jewish
jews
ji
jim
jimmy
jin
jk
jl
jm
jn
jo
joachim
joan
job
joe
joel
johan
johann
johannes
john
johnny
johns
johnson
johnston
join
joins
joint
jon
jonathan
jones
jordan
jorge
jose
josef
joseph
josh
joshua
journal
journalism
journalist
journalists
journals
journey
joy
joyce
jp
jpg
jpl
jr
js
jsp
jstor
ju
juan
judge
judicial
judith
jugador
juin
jul
jules
julia
julian
julie
julio
julius
july
jump
jun
june
jung
junior
jupitertrojans
just
justice
justin
justsportsstats
juventus
jw
k
ka
kane
kansas
kaplan
karen
karl
karohat
katalogisering
kate
katherine
kathleen
katie
katz
kay
kb
ke
keep
keith
keller
kelly
ken
kennedy
kenneth
kenny
kent
kentucky
kenya
kevin
key
kg
khan
khw
ki
kicker
kid
kids
kill
killed
killer
killing
kills
kim
kinase
kindred
king
kingdom
kings
kinokalender
kinopoisk
kirk
kit
klaus
klein
klmb
km
knight
know
knowledge
known
ko
koch
kong
kooora
korea
korean
kosovo
kr
ks
ku
kumar
kunnskapsforlaget
kurdish
kurds
kurt
kuwait
kw
kyle
l
la
lab
labor
laboratory
labour
lady
lake
lambda
lambert
lambiek
lance
lancet
land
lands
landscape
lane
lang
language
languages
lanka
large
largest
larry
lars
las
last
late
later
latest
latin
launch
launches
laura
laureates
lauren
laurence
law
lawrence
laws
lawyer
lay
lb
lc
lcnaf
ldlp
le
lead
leader
leaders
leadership
leading
leads
league
learning
least
leave
leaves
lebanese
lebanon
lecture
led
leda
lee
left
leg
legacy
legal
legend
legends
legislation
legislative
legislature
leiden
leigh
leipzig
leksikon
length
leo
leon
leonard
leonardo
les
lesbian
leslie
less
lessons
let
letter
letters
level
levels
levy
lewis
lexikon
lez
lfp
lgbt
lh
li
lib
liban
liberal
liberty
libraries
library
libretexts
libris
libya
licence
license
lie
lieu
life
liga
light
ligue
like
likely
lim
lima
limited
limits
lin
lincoln
linda
lindsay
line
linear
lines
link
linked
linkedin
links
linux
lion
lippincott
lisa
list
liste
listing
lists
literary
literature
little
littlefield
liu
live
liver
liverpool
lives
living
livres
lkerung
ll
llc
ller
lloyd
ln
lo
loan
loc
local
localization
location
log
logic
london
long
longer
look
looking
looks
lop
lopez
lord
los
loser
loss
lost
louis
louise
louisiana
love
low
lowell
lower
lt
ltd
lu
lucas
lucky
lucy
ludwig
luis
luke
luminosity
lunar
lung
ly
lynch
lynn
lyon
lzmk
m
ma
mac
macdonald
machine
mackolik
macmillan
mad
made
madison
madrid
magazine
magic
magnetic
mai
mail
main
maine
mainzer
major
mak
make
makes
making
maktaba
makwww
malaysia
malcolm
male
mali
malta
mammal
mammalian
mammals
man
management
manager
manchester
manga
manhal
mann
manual
manuel
many
map
mapping
maps
mapserver
mar
marc
marca
marcel
march
marco
marcus
margaret
mari
maria
marie
marilyn
marine
mario
marion
maritime
mark
market
marketing
markets
marks
maroc
marriage
married
mars
marsh
marshall
martha
marti
martin
marvel
marx
mary
maryland
masiero
mason
mass
massachusetts
massacre
massive
master
masters
match
matches
material
materials
math
mathbb
mathbf
mathematical
mathematics
mathrm
mathworld
matrix
matt
matter
matters
matthew
matthews
maurice
max
maxwell
may
maya
mayer
mayo
mayor
mb
mbc
mc
mccarthy
mcdonald
mcfarland
mcgraw
mcmillan
md
me
mean
meaning
means
measures
mechanics
mechanism
mechanisms
med
medal
media
mediated
medical
medicine
medieval
mediterranean
meet
meeting
melbourne
melissa
member
memberid
members
membership
membrane
membres
memoir
memoire
memoirs
memorial
memories
memory
men
mental
meps
mercury
merkmalen
merriam
meshb
message
met
meta
metabolism
metacritic
metal
meteorological
method
methods
methuen
metro
metropolitan
mexican
mexico
meyer
mez
mg
mgc
mi
miami
michael
michel
michelle
michigan
microbiology
microsoft
mid
middle
mifflin
might
migration
miguel
mike
mil
milan
miles
militants
military
miller
million
mills
milton
milwaukee
min
mind
mining
minister
ministers
ministry
minnesota
minor
minority
minorplanetcenter
minutes
miroslav
mirror
miss
missile
missing
mission
missions
mississippi
missouri
mit
mitchell
mitochondrial
mixed
mj
mk
ml
mlb
mm
mn
mnras
mo
mobile
mod
mode
model
models
modern
mohamed
mohammad
mohammed
mojo
mol
molecular
moma
mon
monday
monde
money
monitor
monitoring
montana
montero
montgomery
month
monthly
months
montreal
monuments
moon
moore
moral
more
moreno
morgan
morning
morocco
morris
morrison
mort
mortality
morton
moscow
mosque
most
mother
motion
motogp
motor
mount
mountain
mouse
move
movement
movements
moves
movie
movies
moving
mp
mpo
mps
mr
mrs
ms
msl
msw
mt
mtv
mu
mub
much
muhammad
multi
multiple
mun
mundo
munich
munici
municipal
municipalities
municipality
municipios
munzinger
murder
murphy
murray
muscle
muse
museum
music
musical
musicalics
musicbrainz
muslim
muslims
must
mutation
mutations
mw
mx
my
myanmar
myers
mystery
myth
mzk
n
na
nach
nacional
name
named
names
nancy
nasa
nat
natalie
nathan
nation
national
nationale
nationalism
nations
native
natl
nato
natur
natural
nature
naval
naver
navy
nazi
nazionale
nb
nba
nbc
nbn
nc
ncaa
ncbi
nchez
nd
ndez
ndigen
ndl
ne
near
nearly
nebraska
ned
need
needs
neelwafurat
negative
neil
neill
nelson
neo
neowise
net
netflix
netherlands
network
networks
neural
neurology
neuroscience
nevada
never
new
newcastle
newman
news
newsletter
newspaper
newspapers
newton
next
nez
nf
nfl
ng
nga
ngc
ngel
nh
nhl
ni
nicholas
nick
nicola
nicolas
nicole
nid
nielsen
nigel
nigeria
night
nih
nil
nin
nina
nine
nineteenth
nintendo
ninth
nj
nkcr
nkp
nl
nla
nlm
nlp
nm
nmhh
nndb
no
nobel
nobelprize
noble
node
noel
nokia
nom
nomenclature
nomination
nominations
nominees
non
none
noor
noosfere
nord
normal
norman
norsk
norske
north
northern
norton
norway
norwegian
nos
not
note
notes
nothing
notice
notices
noticias
notre
nov
nova
novel
november
novembre
now
npr
nr
ns
nsw
nta
nu
nuclear
nucleic
nuevo
nukat
num
number
numbers
nursing
nutrition
nw
ny
nytimes
nz
o
obama
obituaries
obituary
object
objects
observations
observatory
observer
occupation
ocean
och
oclc
oct
october
octobre
odnb
of
off
offensive
offers
office
officer
officers
official
officially
officials
officiel
officielle
oficial
og
oh
ohio
oil
ois
ok
oklahoma
ol
ola
old
oldest
olid
oliver
olivier
olympedia
olympic
olympics
om
oman
omar
omega
on
once
oncology
one
online
only
ontario
onthisday
op
opac
opc
opcw
open
opening
openlibrary
opens
openstreetmap
opera
operation
operations
operatorname
opinion
opposition
optical
or
oral
orange
orcid
order
orders
oregon
org
organic
organisation
organization
organizations
orient
oriental
origin
original
originally
origins
origmonth
orlando
ort
orthodox
os
oscar
oscars
oslo
osprey
other
others
ottawa
otto
ottobre
ottoman
ou
our
out
outbreak
outfields
outlook
output
outside
over
overview
owen
own
oxford
oz
p
pa
pablo
pacific
padre
page
pages
pai
pain
pakistan
palace
palestine
palestinian
palgrave
palmer
pamela
pan
pandemic
panel
paper
papers
papin
par
para
parameter
parameters
parents
paris
park
parker
parks
parl
parliament
parliamentary
parlinfo
part
partial
parties
partner
partners
partnership
parts
party
pas
pass
passes
passports
passtypes
past
pat
patent
path
pathology
patient
patients
patricia
patrick
patterns
patterson
paul
paula
paulo
pay
payne
pays
pb
pbs
pc
pca
pd
pdf
pe
peace
pearson
pediatric
pediatrics
pedro
pen
penguin
penn
pennsylvania
people
peoples
per
percent
perfect
performance
period
permanent
perry
persian
person
personal
personality
personid
personnes
persons
perspective
perspectives
peru
pete
peter
peters
peterson
pew
pez
pfa
pg
pga
ph
pharmaceutical
pharmacology
phase
phd
phi
phil
philadelphia
philip
philippe
philippine
philippines
phillip
phillips
philosophical
philosophy
phoenix
phone
phosphorylation
photo
photometric
photos
php
phylogeny
phys
physical
physician
physics
physiology
pi
pic
picture
pictures
pid
pierre
pilot
pioneer
pios
pittsburgh
pk
pl
place
places
plan
plane
planet
planetary
planets
planning
plans
plant
plantarum
plants
platform
play
played
player
playerpage
players
playing
playstation
plos
plus
pm
pmc
pmid
pna
pnas
po
poet
poetry
poets
point
points
poland
poli
police
policies
policy
polish
political
politics
politisch
poll
pollution
pone
poor
pop
pope
popolazione
populac
popular
population
populations
por
port
portal
porter
portland
portrait
portugal
portuguese
position
positive
possible
post
postal
postaux
potential
potter
pour
poverty
powell
power
powerful
powers
pp
pr
prabook
practical
practice
practices
pre
prefix
pregnancy
preliminary
premier
premiere
prentice
present
presentation
presented
presidency
president
presidential
presidents
press
presse
presses
pressure
preston
prevalence
prevention
preview
previous
price
pride
primary
prime
primer
primera
prince
princess
princeton
principles
print
printing
prison
private
prix
prize
prizes
pro
probe
problem
problems
proc
proceedings
process
processes
processing
procyclingstats
producer
product
production
productions
products
produkte
prof
professional
professor
profil
profile
profiles
program
programme
programming
programs
progress
progressive
project
projects
proleksis
promotion
proper
properties
property
prospects
protect
protected
protection
protein
proteins
protest
protesters
protests
protocol
province
provinces
provincias
ps
psi
psychiatric
psychiatry
psychological
psychology
pt
pu
pub
pubchem
public
publication
publications
publique
published
publisher
publishers
publishing
pubmed
puerto
pulmonary
punctuation
purl
put
putin
q
qa
qaeda
qamoos
qatar
qc
qualifier
quality
quantum
quartal
quarter
quarterly
que
quebec
queen
queensland
query
quest
question
questions
qui
quinn
quipe
quot
quoted
quotient
r
ra
race
rachel
racing
radiation
radical
radio
rafael
rah
railway
ral
rally
ralph
ramos
randall
random
randy
range
rangers
ranking
rankings
rape
rapid
rard
rare
rat
rate
rates
ratings
ration
raw
ray
raymond
rb
rc
rd
re
reach
reaction
read
reader
reading
ready
real
realgm
reality
really
reason
rebecca
rebel
rebels
rec
receives
recent
receptor
receptors
recipients
recognition
record
recording
records
recovery
red
redirecting
reduction
reed
reeder
ref
refcelebrite
reference
references
reform
refugee
refugees
regime
region
regional
regioni
regions
register
registration
registry
regulation
regulations
regulatory
reich
reid
relacio
related
relation
relations
relationship
relationships
release
released
releases
religion
religions
religious
remains
renaissance
rene
rentiels
rep
replace
report
reported
reporter
reports
representative
representatives
reprint
reproductive
repu
republic
republican
required
requires
res
research
reserve
resident
residente
resistance
resolution
resource
resources
respiratory
response
responses
rest
result
resultados
results
retired
retrieved
return
returns
reuters
rev
reveal
revealed
reveals
review
reviews
revised
revisited
revolution
revolutionary
revue
rey
reynolds
rez
rfc
rg
rgph
rh
rho
rhodes
ri
ria
ric
rica
ricardo
rice
rich
richard
richards
richardson
richmond
rick
rico
rider
riderid
rie
right
rights
rihanna
riley
ring
rio
rise
rising
risk
river
rj
rk
rkd
rkdartists
rkiye
rl
rm
rn
rna
ro
road
rob
robert
roberto
roberts
robertson
robin
robinson
roc
rock
rocket
rodri
rodriguez
roger
rogers
roglo
roland
role
roles
roll
rolling
rollingstone
roma
roman
romania
rome
ron
ronald
ronaldo
room
root
roots
rosa
rose
rosen
ross
roster
roth
rotten
round
route
routledge
row
rowman
roy
royal
royalsociety
rp
rr
rs
rsssf
rt
rte
ru
rubin
rudolf
rugby
rugbyleagueproject
ruiz
rule
rules
run
running
rural
russell
russia
russian
ruth
rw
ryan
s
sa
sacred
safe
safety
sage
sahara
said
saint
saints
sale
sales
sally
salt
salvador
sam
same
sample
samsung
samuel
san
sanctions
sanders
sandra
santa
santiago
santos
sar
sara
sarah
satellite
saturday
saudi
saunders
saur
save
savoy
say
says
sb
sbn
sbs
sc
scale
scarecrow
scene
schedule
schmid
schmidt
schneider
scholar
scholars
school
schools
schuster
schwartz
schweiz
sci
science
sciences
scientific
scientist
scientists
score
scores
scoresway
scotland
scott
scottish
screen
screening
script
scripts
sd
sdss
se
sea
sean
search
season
seat
seattle
sebastian
sec
second
secret
secretary
secrets
section
sector
security
see
seeks
seen
selbsta
select
selected
selection
self
selling
sen
senate
senator
senior
sense
sentinel
sep
sept
september
sequence
sequences
sequencing
ser
serbia
sergio
serie
series
server
service
services
session
set
sets
settlement
seven
seventh
several
severe
sex
sexual
sf
sfd
sg
sh
shadow
shah
shakespeare
shamela
shane
shannon
share
sharon
sharp
shaw
she
sheet
sherdog
sherman
shi
ship
ships
shock
shooting
short
shot
should
show
shows
shtml
si
side
sidney
sie
sierra
sig
sigma
sign
signal
signaling
signed
signing
signs
silent
silva
silver
simbad
simon
simple
simpson
sin
since
singapore
singer
singh
single
singles
sir
sister
site
sites
situation
six
sixth
size
sj
sk
skating
sketch
ski
skin
skrutskie
sky
sl
slam
slave
slavery
sleep
sloan
sm
small
smart
smith
smithsonian
sn
snac
snaccooperative
snl
snow
so
sobre
soc
soccer
soccerbase
soccerdonna
soccerway
social
socialist
socie
societies
society
sociology
software
soil
solar
sold
soldier
soldiers
solid
solomon
solution
solutions
somalia
some
something
son
song
songs
sons
sony
soon
sophie
soul
sound
source
sources
south
southeast
southern
soviet
sp
spa
space
spahr
spain
spanish
speaker
specdata
special
species
specific
spectroscopic
spectrum
speech
speed
spencer
spider
spiegel
spieler
spirit
sport
sporting
sports
spot
spread
spring
springer
spy
sqrt
squad
square
sr
sri
ss
ssd
st
sta
stable
stadium
staff
stage
stammdaten
stand
standard
standards
stanford
stanley
star
stars
start
starts
stat
state
statement
states
static
station
statistica
statistical
statistics
statistik
statistikportal
stats
status
stay
steel
stefan
stein
stem
step
stephanie
stephen
steps
sterling
stern
steve
steven
stevens
stewart
stica
still
stock
stone
stop
stopklatka
storage
store
stories
storm
stortinget
story
strack
straits
strange
strategic
strategies
strategy
streaming
street
stress
strike
strikes
stroke
strong
structural
structure
structures
struggle
sts
stuart
student
students
studies
studio
studios
study
stuff
stuttgart
style
su
sub
subdivision
subject
subjectid
subjects
subscription
subunit
subuser
success
successful
such
sudan
sudoc
sue
suicide
sullivan
sultan
sultats
sum
summary
summer
summit
sun
sunday
super
superficie
suppl
supplement
supply
support
supreme
sur
surface
surgery
surgical
survey
survival
sus
susan
sustainable
suzuki
sv
svensk
sweden
swedish
sweet
swift
swimming
swiss
switch
switzerland
sy
sydney
symposium
symptoms
synchronkartei
syndrome
synthesis
syria
syrian
system
systematic
systems
t
ta
tab
table
tables
tag
taiwan
take
taken
takes
taking
tale
talent
tales
taliban
talk
talks
tan
tarek
target
targets
tarihi
task
tauris
tax
taxonomic
taxonomicon
taxonredirect
taylor
tb
tbol
tc
td
te
teacher
teaching
team
teams
tech
technical
techniques
technologies
technology
ted
teen
tel
telegraph
telescope
television
tell
tells
temperature
temple
ten
tennessee
tennis
teresa
term
terminal
terms
territorial
territories
territory
terror
terrorism
terrorist
terry
test
testament
testing
tests
texas
text
textbook
texts
th
thailand
thames
than
that
the
theater
theatre
thebaseballcube
thefinalball
theguardian
their
thek
them
then
theodore
theories
theory
thepeerage
therapeutic
therapy
there
thes
thesaurus
these
thesis
theta
they
thing
things
think
thinking
third
this
tholen
thomas
thompson
thomson
those
thought
thousand
thousands
threat
threatened
three
thrones
through
thru
thursday
ti
tica
tico
ties
tiger
til
tim
timaticweb
time
timeline
times
timothy
tissue
title
titles
tj
tm
tn
tna
to
today
todd
together
tokyo
told
toll
tom
tomatoes
tomislav
tommy
tony
too
took
tool
toolforge
tools
top
topic
tops
toronto
torres
total
tour
tourism
tournament
toward
towards
tower
town
towns
township
toyota
tr
track
trackfield
tracking
trade
tradingcarddb
tradition
traditional
traffic
trailer
train
training
trans
transactions
transcript
transcription
transfer
transfermarkt
transformation
transition
translated
translation
transmission
transport
transportation
trauma
travel
tre
treatment
treaty
treccani
tree
trends
trevor
trial
trials
tribune
tribute
troops
trophy
tropical
trove
true
trump
trust
truth
ts
tsn
tt
tu
tucker
tuesday
tumor
tunisia
tunisie
turkey
turkish
turn
turner
turns
tv
tvurce
tw
twentieth
twenty
twin
twitter
two
tx
tyler
type
types
u
ua
uae
uboat
uc
uefa
ufc
ufi
uganda
uinted
uk
ukraine
ukrainian
ulan
ulanfulldisplay
ultimate
um
ummulqura
un
una
und
under
underground
understanding
undocs
une
unesco
uni
union
unique
unit
united
units
unity
univ
universal
universalis
universe
universidad
universita
universite
universities
university
unknown
until
unveils
up
update
updated
updates
uploads
upon
upper
urban
url
urn
uruguay
us
usa
use
used
user
users
uses
usgs
using
utah
utc
uuid
v
va
vaccine
vale
valley
value
values
van
vancouver
var
variety
various
vaucouleurs
ve
vec
vegas
vehicle
venezuela
verlag
vermont
version
versus
very
veteran
veterinary
vi
via
viaf
vice
victims
victor
victoria
victory
video
videos
vie
vienna
vietnam
view
views
vii
viii
villa
village
ville
vincent
violence
virgin
virginia
virtual
virus
visa
vision
visit
visual
vitamin
vitro
vivo
vizier
vladimir
vo
vocab
voice
voices
vol
volume
volumes
vom
von
vote
votes
vow
vs
w
wa
wade
wagner
wales
walk
walker
walking
walkover
wall
wallace
walsh
walter
wang
want
wanted
wants
war
ward
warfare
warner
warren
wars
was
washington
watch
water
waters
watson
wave
way
wayback
wayne
ways
wc
wd
we
weapons
weather
web
webb
weber
website
webster
wedding
wednesday
week
weekend
weekly
weeks
weight
weiss
welcome
well
wellington
wells
welsh
went
were
werner
wesley
west
western
westminster
what
wheeler
when
where
which
while
white
whitney
who
whole
whose
why
wi
wide
wife
wiki
wikidata
wikimedia
wikipedia
wikitree
wild
wildlife
wiley
wilhelm
wilkins
wilkinson
will
william
williams
williamson
willis
wilson
win
wind
windows
wing
winner
winners
winning
wins
winter
wire
wired
wisconsin
wise
wissen
with
within
without
wm
wolf
wolfgang
wolfram
woman
women
won
wong
wood
woods
word
wordpress
words
work
worker
workers
working
works
world
worldathletics
worldcat
worldfootball
worldrowing
worlds
worldtimezone
worldwide
worst
worth
would
wp
wr
wrestling
wright
writer
writers
writing
writings
written
wrong
ws
wu
ww
wwe
wwii
www
x
xbox
xi
xico
xii
xiii
xiv
xlsx
xml
xu
xv
xx
y
ya
yah
yahoo
yale
yang
ye
year
yearbook
years
yellow
yemen
yemenna
yes
yet
yo
york
yorkshire
you
young
your
youth
youtube
yu
yves
z
za
zealand
zero
zh
zhang
zimmerman
zip
zipcodezoo
zone
zootaxa
zt
zu
zum
zur
{
|
}
~

¡
£
§
¨
©
ª
«
¬
­
®
¯
°
±
²
³
´
µ
¶
·
º
»
½
¿
×
÷
ø
ı
ʲ
ʻ
ʼ
ʾ
ʿ
˅
ˆ
ˈ
ˌ
ː
˙
̀
́
̂
̃
̄
̆
̇
̈
̉
̊
̋
̌
̓
̔
̛
̣
̦
̧
̨
̮
̱
̲
̸
͂
α
β
γ
δ
ε
ζ
η
θ
ι
κ
λ
μ
ν
ξ
ο
π
ρ
ς
σ
τ
φ
χ
ψ
ω
ϕ
ϵ
а
банк
большая
в
видатних
г
года
д
е
жінок
з
за
и
к
л
м
н
на
населения
о
п
по
про
р
россии
с
скои
советская
т
у
украі
федерации
численность
энциклопедия
я
і
інформаціі
ְ
ִ
ֵ
ֶ
ַ
ָ
ֹ
ּ
ׁ
א
ב
ג
ד
ה
ו
ח
י
כ
ל
מ
ן
נ
ע
ר
ש
ת
،
؛
؟
ء
ا
اء
االله
اب
ابا
ابة
ابتدا
ابتداء
ابتداي
ابتغاء
ابتكار
ابتكر
ابدا
ابراهيم
ابريل
ابطال
ابن
ابنا
ابنة
ابنته
ابنتها
ابنك
ابنه
ابنها
ابني
ابه
ابو
ابي
اة
ات
اتباع
اتباعه
اتبع
اتبعت
اتجاه
اتجاهات
اتجه
اتحاد
اتخاذ
اتخذ
اتخذت
اتخذوا
اتساع
اتش
اتصال
اتصالات
اتصل
اتضح
اتفاق
اتفاقيات
اتفاقية
اتفق
اتفقت
اتفقوا
اتقوا
اته
اتهام
اتهامات
اتهم
اتهمت
اث
اثبات
اثر
اثنا
اثناء
اثنان
اثنتان
اثنتي
اثنتين
اثني
اثنين
اج
اجتماع
اجتماعات
اجتماعي
اجتماعيا
اجتماعية
اجتمع
اجتمعت
اجتمعوا
اجتياز
اجعل
اجل
اح
احب
احتاج
احتج
احتجاج
احتجاجا
احتجاجات
احتجاز
احتراق
احترام
احتساب
احتفال
احتفالات
احتفظ
احتفظت
احتكار
احتل
احتلال
احتلت
احتمال
احتمالات
احتمالية
احتواء
احتوت
احتوى
احتياجات
احتياطي
احد
احداث
احمد
اخ
اخبار
اخت
اختار
اختارت
اختاره
اختبار
اختبارات
اختراع
اختراق
اخترع
اختص
اختصار
اختصارا
اختصاص
اختطاف
اختفاء
اختفت
اختفى
اختلاف
اختلافا
اختلافات
اختلافهم
اختلال
اختلط
اختلف
اختلفت
اختلفوا
اختيار
اختياره
اختيارها
اختير
اختيرت
اخذ
اخر
اخرج
اد
ادع
ادعاء
ادعاءات
ادعت
ادعوا
ادعى
اده
ادي
اذ
اذا
اذهب
ار
ارا
اربع
ارة
ارتباط
ارتباطا
ارتبط
ارتبطت
ارتحل
ارتد
ارتداء
ارتفاع
ارتفاعات
ارتفاعه
ارتفاعها
ارتفع
ارتفعت
ارتكاب
ارتكب
ارتكبت
ارجع
ارض
اريك
ارين
از
ازداد
ازدادت
ازدهار
ازدهرت
ازدياد
اس
اسة
است
استا
استاد
استبدال
استبداله
استبدالها
استبدل
استبعاد
استثمار
استثناء
استثناي
استجاب
استجابة
استحالة
استحداث
استحسان
استحق
استحقاق
استحوذت
استخبارات
استخدام
استخدامات
استخدامه
استخدامها
استخدم
استخدمت
استخدمه
استخدمها
استخدموا
استخراج
استخلاص
استخلف
استدعاء
استدعى
استدل
استراتيجي
استراتيجيات
استراحة
استرجاع
استرداد
استرليني
استسلام
استسلم
استشارات
استشهاد
استشهد
استضاف
استضافة
استضافت
استطاع
استطاعت
استطاعوا
استطعت
استطلاع
استعاد
استعادة
استعادت
استعداد
استعراض
استعمال
استعماله
استعمالها
استعمل
استعملت
استغرق
استغرقت
استغل
استغلال
استفاد
استفتاء
استقال
استقالة
استقالته
استقبال
استقبل
استقر
استقرار
استقرت
استقطاب
استقلال
استقلالها
استكشاف
استكشافية
استكمال
استلام
استلم
استماع
استمر
استمرار
استمرت
استناد
استنادا
استنادي
استنتاج
استند
استه
استهداف
استهدف
استهدفت
استهلاك
استواي
استوديو
استوديوهات
استولت
استولى
استوى
استي
استيراد
استيعاب
استيفاء
استيقظ
استيلاء
اسحاق
اسحق
اسراي
اسطنبول
اسكتلندا
اسكتلندي
اسم
اسما
اسماعيل
اسمك
اسمه
اسمها
اسمي
اسي
اسية
اش
اشت
اشتباكات
اشتد
اشتراط
اشتراك
اشتراكية
اشتراه
اشتراها
اشترت
اشترط
اشترك
اشترى
اشتغل
اشتق
اشتقاق
اشتكى
اشتمل
اشتملت
اشتهر
اشتهرت
اص
اصطدام
اصطلاح
اصطناعي
اصل
اض
اضطر
اضطراب
اضطرابات
اضطرت
اضطهاد
اط
اطلاق
اطلع
اظ
اع
اعت
اعتاد
اعتبار
اعتبارا
اعتباره
اعتبارها
اعتبر
اعتبرت
اعتبره
اعتداء
اعتراض
اعتراف
اعترض
اعترف
اعترفت
اعتزل
اعتقاد
اعتقاده
اعتقال
اعتقاله
اعتقد
اعتقدوا
اعتقل
اعتقلت
اعتلال
اعتماد
اعتمادا
اعتماده
اعتمد
اعتمدت
اعتناق
اعتنق
اعداد
اعظم
اعلم
اغ
اغتصاب
اغتيال
اغتياله
اغتيل
اغفر
اف
افتتاح
افتتاحه
افتتح
افتتحت
افتراض
افتراضي
افتراضية
افترض
افريقيا
اق
اقامة
اقت
اقتباس
اقتحام
اقتراب
اقتراح
اقترب
اقترح
اقترحت
اقتصاد
اقتصادي
اقتصاديا
اقتصادية
اقتصر
اقرا
اقل
اك
اكت
اكتب
اكتساب
اكتسب
اكتسبت
اكتشاف
اكتشافه
اكتشافها
اكتشف
اكتشفت
اكتشفه
اكتشفها
اكتمال
اكتمل
اكثر
اكس
ال
الا
الاب
الابتداء
الابتداي
الابتعاد
الابتكار
الابن
الابنة
الات
الاتجار
الاتجاه
الاتجاهات
الاتحاد
الاتحادات
الاتحادي
الاتحادية
الاتصال
الاتصالات
الاتفاق
الاتفاقيات
الاتفاقية
الاتهام
الاتهامات
الاثنان
الاثنين
الاجتماع
الاجتماعات
الاجتماعي
الاجتماعية
الاجتهاد
الاحتباس
الاحتجاج
الاحتجاجات
الاحترافية
الاحتراق
الاحترام
الاحتفاظ
الاحتفال
الاحتفالات
الاحتكاك
الاحتلال
الاحتمال
الاحتمالات
الاحتياجات
الاحتياط
الاحتياطي
الاحتيال
الاخبار
الاختبار
الاختبارات
الاختراع
الاختصار
الاختصاص
الاختلاف
الاختلافات
الاختيار
الاخر
الاخيرة
الادعاء
الادعاءات
الارتباط
الارتباك
الارتفاع
الارتفاعات
الارتقاء
الارض
الازدهار
الاستاذ
الاستبداد
الاستثمار
الاستثمارات
الاستثمارية
الاستثناء
الاستثناي
الاستجابة
الاستحقاق
الاستحواذ
الاستخبارات
الاستخدام
الاستخدامات
الاستدامة
الاستدلال
الاستراتيجي
الاستراتيجية
الاستسلام
الاستشاري
الاستشارية
الاستشعار
الاستشهاد
الاستطلاع
الاستعانة
الاستعداد
الاستعمار
الاستعماري
الاستعمارية
الاستعمال
الاستغلال
الاستغناء
الاستفادة
الاستفتاء
الاستفهام
الاستقالة
الاستقبال
الاستقرار
الاستقلال
الاستكشاف
الاستماع
الاستمتاع
الاستمرار
الاستنادي
الاستهلاك
الاستهلاكية
الاستواء
الاستواي
الاستوديو
الاستي
الاستيطان
الاستيعاب
الاستيلاء
الاسكتلندي
الاسكتلندية
الاسلام
الاسم
الاشتباك
الاشتباكات
الاشتراك
الاشتراكي
الاشتراكية
الاشتراكيين
الاصدار
الاصطدام
الاصطناعي
الاصطناعية
الاصل
الاضطراب
الاضطرابات
الاضطهاد
الاطلاع
الاعتبار
الاعتداء
الاعتدال
الاعتراض
الاعتراف
الاعتزال
الاعتصام
الاعتقاد
الاعتقال
الاعتلال
الاعتماد
الاعلام
الاعلى
الاغتصاب
الاغتيال
الافتتاح
الافتتاحية
الافتراض
الافتراضي
الافتراضية
الاقتباس
الاقتراب
الاقتراح
الاقتراع
الاقتصاد
الاقتصادي
الاقتصادية
الاقرار
الاكتشاف
الاكتشافات
الاكتفاء
الاكتي
الالتحاق
الالتزام
الالتزامات
الالتهاب
الالكترونية
الام
الامام
الامبراطورية
الامة
الامتثال
الامتحان
الامتصاص
الامتناع
الامتياز
الامتيازات
الامر
الامم
الامور
الانبعاثات
الانبياء
الانتباه
الانتحار
الانتخاب
الانتخابات
الانتخابي
الانتخابية
الانتداب
الانترنت
الانتشار
الانتصار
الانتصارات
الانتظار
الانتفاضة
الانتفاع
الانتقادات
الانتقال
الانتقالات
الانتقالي
الانتقالية
الانتقام
الانتقاي
الانتماء
الانتهاء
الانتهاكات
الانحدار
الانحراف
الانحناء
الانحياز
الانخراط
الانخفاض
الاندماج
الانسان
الانسحاب
الانسداد
الانضباط
الانضمام
الانطلاق
الانفجار
الانفصال
الانقراض
الانقسام
الانقلاب
الانهيار
الاهتمام
الاول
الاولى
الاي
الايام
الايمان
الب
البا
الباء
الباب
البابا
البابطين
البابلي
البابلية
البابوية
الباحة
الباحث
الباحثون
الباحثين
البادي
البادية
البارالمبية
البارد
الباردة
البارز
البارزة
البارزين
البارود
البارودي
البارون
الباري
الباسك
الباشا
الباطل
الباطن
الباطنة
الباطنية
الباقر
الباقون
الباقي
الباقية
الباقين
الباكستاني
الباكستانية
البالغ
البالغة
البالغين
الباليه
الباهلي
الباي
البت
البتة
البترول
البث
البجلي
البحار
البحارة
البحتري
البحث
البحثية
البحر
البحري
البحرية
البحرين
البحريني
البحرينية
البحوث
البحيرات
البحيرة
البخار
البخاري
البخارية
البخل
البدء
البداي
البداية
البدر
البدع
البدعة
البدل
البدن
البدني
البدنية
البدو
البدوي
البدوية
البديع
البديل
البديلة
البذور
البر
البراء
البراءة
البراز
البرازيل
البرازيلي
البرازيلية
البراكين
البرامج
البربر
البربري
البربرية
البرتغال
البرتغالي
البرتغالية
البرتغاليين
البرتقال
البرتقالي
البرج
البرد
البرق
البركان
البركاني
البركانية
البركة
البرلمان
البرلماني
البرلمانية
البرماي
البرمجة
البرمجيات
البرمجية
البرنامج
البرهان
البروتستانت
البروتستانتي
البروتستانتية
البروتوكول
البروتين
البروتينات
البروج
البرودة
البروسية
البروفيسور
البرونز
البرونزي
البرونزية
البري
البرية
البريد
البريدي
البريدية
البريطاني
البريطانية
البريطانيون
البريطانيين
البزار
البساتين
البستان
البسيط
البسيطة
البشر
البشرة
البشري
البشرية
البشير
البصر
البصرة
البصري
البصرية
البصريين
البصل
البصير
البضاي
البطارية
البطاطا
البطاقات
البطاقة
البطالة
البطريرك
البطريق
البطل
البطلة
البطن
البطني
البطولات
البطولة
البطين
البعث
البعثات
البعثة
البعد
البعض
البعلبكي
البعوض
البعيد
البعيدة
البعير
البغدادي
البغوي
البغي
البقاء
البقاع
البقايا
البقر
البقرة
البقعة
البقية
البكاء
البكالوريوس
البكتيريا
البكتيرية
البكر
البكري
البلاء
البلاد
البلاذري
البلازما
البلاستيك
البلاستيكية
البلاط
البلاغ
البلاغة
البلجيكي
البلجيكية
البلخي
البلد
البلدات
البلدان
البلدة
البلدي
البلديات
البلدية
البلدين
البلشفية
البلطيق
البلغاري
البلغارية
البلقان
البلورات
البلوط
البلوغ
البن
البنا
البناء
البنات
البنادق
البناني
البناي
البنت
البنجاب
البند
البندقية
البنزين
البنغال
البنفسجية
البنك
البنكرياس
البنوك
البنى
البني
البنيان
البنية
البنين
البهاي
البو
البوابات
البوابة
البوب
البوتاسيوم
البوذية
البورصة
البوسنة
البوسنية
البوكمول
البول
البولندي
البولندية
البولنديين
البولي
البولية
البوليس
البوم
البوندستاغ
البي
البياض
البيان
البيانات
البيانو
البياني
البيانية
البيت
البيرة
البيزنطي
البيزنطية
البيزنطيين
البيسبول
البيض
البيضاء
البيضاوي
البيضة
البيطري
البيع
البيعة
البين
البينة
البيهقي
البيوت
البيوع
البيولوجي
البيولوجيا
البيولوجية
البيي
الة
الت
التا
التاء
التابع
التابعة
التابعين
التابوت
التاج
التاجر
التاجي
التاريخ
التاريخي
التاريخية
التاسع
التاسعة
التالي
التالية
التام
التامة
التاي
التايمز
التبادل
التبانة
التباين
التبت
التبرع
التبرعات
التبريد
التبشيرية
التبغ
التبني
التتار
التثبيت
التجار
التجارب
التجارة
التجاري
التجارية
التجديد
التجديف
التجربة
التجريبي
التجريبية
التجزي
التجسس
التجمع
التجمعات
التجميع
التجميل
التجنيد
التجول
التجويف
التحالف
التحتية
التحدث
التحدي
التحديات
التحديث
التحديد
التحرر
التحرش
التحرك
التحرير
التحريض
التحريم
التحسينات
التحصيل
التحضير
التحف
التحفة
التحفيز
التحق
التحقت
التحقق
التحقيق
التحقيقات
التحكم
التحكيم
التحلل
التحليل
التحليلية
التحمل
التحميل
التحول
التحولات
التحويل
التحية
التحيز
التخدير
التخرج
التخزين
التخصص
التخصصات
التخصيص
التخطيط
التخفيف
التخلص
التخلي
التدابير
التداخل
التداول
التدبير
التدخل
التدخلات
التدخين
التدريب
التدريبية
التدريجي
التدريس
التدفق
التدقيق
التدمير
التدهور
التدوير
التدوين
التذاكر
التذكاري
التذكارية
التذكير
التراب
الترابط
الترابية
التراث
التراثية
التراجع
التراجم
التربة
التربوي
التربوية
التربية
التربيع
الترتيب
الترجمة
الترجي
الترجيح
الترخيص
التردد
الترددات
الترشح
الترشيح
الترفيه
الترفيهية
الترك
التركي
التركيب
التركيبة
التركية
التركيز
الترمذي
الترميز
الترميم
التروية
الترويج
التزام
التزاوج
التزلج
التزم
التسامح
التسبب
التسجيل
التسجيلات
التسخين
التسعة
التسعينات
التسعينيات
التسلسل
التسلق
التسليم
التسمم
التسميات
التسمية
التسوق
التسوية
التسويق
التشابه
التشبيه
التشخيص
التشخيصي
التشريح
التشريع
التشريعات
التشريعي
التشريعية
التشغيل
التشغيلية
التشفير
التشكيل
التشكيلة
التشكيلي
التشكيلية
التشهد
التشيك
التشيكي
التشيكية
التشيلي
التصاميم
التصانيف
التصدي
التصدير
التصديق
التصرف
التصريح
التصريف
التصفيات
التصلب
التصميم
التصنيع
التصنيف
التصنيفات
التصنيفية
التصور
التصوف
التصويت
التصوير
التصويرية
التضاريس
التضامن
التضحية
التضخم
التطبيق
التطبيقات
التطبيقي
التطبيقية
التطرف
التطعيم
التطهير
التطور
التطورات
التطوري
التطورية
التطوع
التطوير
التعادل
التعافي
التعاقد
التعاليم
التعامل
التعاون
التعاوني
التعاونية
التعب
التعبي
التعبير
التعداد
التعددية
التعديل
التعديلات
التعدين
التعذيب
التعرض
التعرف
التعريف
التعريفات
التعصب
التعقيد
التعلق
التعلم
التعليق
التعليقات
التعليل
التعليم
التعليمات
التعليمي
التعليمية
التعويض
التعين
التعيين
التغذية
التغطية
التغلب
التغير
التغيرات
التغيير
التغييرات
التفاح
التفاصيل
التفاضل
التفاعل
التفاعلات
التفاعلية
التفاهم
التفاوت
التفاوض
التفت
التفتيش
التفجير
التفجيرات
التفرقة
التفريق
التفسير
التفسيرات
التفصيل
التفضيل
التفكير
التفوق
التقاء
التقارب
التقارير
التقاط
التقاعد
التقاليد
التقت
التقدم
التقدمي
التقدمية
التقدير
التقديرات
التقديرية
التقديم
التقريب
التقرير
التقسيم
التقسيمات
التقليد
التقليدي
التقليدية
التقليل
التقني
التقنيات
التقنية
التقوى
التقويم
التقويمات
التقى
التقييم
التكاثر
التكافو
التكاليف
التكامل
التكبير
التكرار
التكلفة
التكليف
التكنولوجي
التكنولوجيا
التكنولوجية
التكوين
التكيف
التل
التلاعب
التلال
التلاميذ
التلاوة
التلف
التلفاز
التلفزيون
التلفزيوني
التلفزيونية
التلقاي
التلقيح
التلميذ
التلوث
التماثيل
التمارين
التماس
التمام
التمتع
التمثال
التمثيل
التمثيلية
التمدد
التمر
التمرد
التمريض
التمسك
التمهيدية
التمويل
التميز
التميمي
التمييز
التنازل
التناسلي
التناسلية
التنافس
التنافسية
التناقض
التنبو
التنبيه
التنزيل
التنس
التنسيق
التنظيف
التنظيم
التنظيمات
التنظيمي
التنظيمية
التنفس
التنفسي
التنفسية
التنفيذ
التنفيذي
التنفيذية
التنفيذيين
التنقل
التنقيب
التنموية
التنمية
التنوع
التنوير
التنين
التهاب
التهابات
التهديد
التهديدات
التهذيب
التهم
التهمة
التهوية
التوا
التوابل
التواجد
التواريخ
التوازن
التواصل
التوافق
التوالي
التواي
التوبة
التوت
التوتر
التوترات
التوجه
التوجيه
التوجيهية
التوحد
التوحيد
التوراة
التوزيع
التوسع
التوصل
التوصيات
التوصيل
التوظيف
التوعية
التوفيق
التوقعات
التوقف
التوقيت
التوقيع
التوليد
التونسي
التونسية
التى
التي
التيار
التيارات
التيمم
التيمي
التين
الث
الثا
الثابت
الثابتة
الثالث
الثالثة
الثالوث
الثامن
الثامنة
الثانوي
الثانوية
الثانى
الثاني
الثانية
الثاي
الثبات
الثدي
الثدييات
الثروة
الثرى
الثريا
الثعبان
الثعلب
الثغر
الثغور
الثقات
الثقافات
الثقافة
الثقافي
الثقافية
الثقب
الثقة
الثقفي
الثقل
الثقوب
الثقيل
الثقيلة
الثلاث
الثلاثاء
الثلاثة
الثلاثي
الثلاثية
الثلاثين
الثلاثينيات
الثلث
الثلثين
الثلج
الثلوج
الثمار
الثمانية
الثمانين
الثمانينات
الثمانينيات
الثمر
الثمرة
الثمن
الثمينة
الثناء
الثناي
الثواب
الثوار
الثوب
الثور
الثورات
الثورة
الثوري
الثورية
الثوم
الثياب
الج
الجابر
الجاحظ
الجاذبية
الجار
الجارديان
الجاري
الجارية
الجاز
الجاسور
الجاف
الجافة
الجالية
الجامع
الجامعات
الجامعة
الجامعي
الجامعية
الجانب
الجانبي
الجانبية
الجانبين
الجاني
الجاهل
الجاهلي
الجاهلية
الجاي
الجبار
الجبال
الجبر
الجبرية
الجبل
الجبلي
الجبلية
الجبن
الجبهة
الجبوري
الجثة
الجثث
الجحيم
الجد
الجدار
الجدارية
الجدال
الجداول
الجدد
الجدران
الجدري
الجدل
الجدول
الجديد
الجديدة
الجدير
الجذب
الجذر
الجذع
الجذعية
الجذور
الجر
الجراثيم
الجراح
الجراحة
الجراحي
الجراحية
الجراد
الجراي
الجرجاني
الجرح
الجرحى
الجرس
الجرعات
الجرعة
الجرف
الجرم
الجرمانية
الجروح
الجري
الجريدة
الجريري
الجريمة
الجزء
الجزاء
الجزار
الجزاي
الجزر
الجزري
الجزي
الجزية
الجزيرة
الجزيي
الجسد
الجسدي
الجسدية
الجسر
الجسم
الجسور
الجسيم
الجسيمات
الجعد
الجعفي
الجغرافي
الجغرافيا
الجغرافية
الجفاف
الجلاء
الجلال
الجلالة
الجلد
الجلدي
الجلدية
الجلسات
الجلسة
الجلود
الجلوس
الجلوكوز
الجليد
الجليدي
الجليدية
الجليل
الجمارك
الجماع
الجماعات
الجماعة
الجماعي
الجماعية
الجمال
الجمالية
الجماهير
الجماهيرية
الجمجمة
الجمحي
الجمرة
الجمركية
الجمع
الجمعة
الجمعيات
الجمعية
الجمل
الجملة
الجملي
الجمهور
الجمهوري
الجمهوريات
الجمهورية
الجمهوريين
الجميع
الجميل
الجميلة
الجن
الجنابة
الجناح
الجنازة
الجنان
الجناي
الجناية
الجنب
الجنة
الجند
الجندرية
الجندي
الجنرال
الجنس
الجنسي
الجنسيات
الجنسية
الجنسين
الجنوب
الجنوبي
الجنوبية
الجنود
الجنون
الجنيد
الجنين
الجهات
الجهاد
الجهاز
الجهة
الجهد
الجهل
الجهم
الجهمية
الجهني
الجهود
الجو
الجواب
الجواد
الجوار
الجوارح
الجواز
الجوامع
الجوانب
الجواهر
الجواي
الجود
الجودة
الجورجية
الجوز
الجوزي
الجوع
الجوف
الجوفية
الجولان
الجولة
الجوهر
الجوهري
الجوهرية
الجوي
الجوية
الجيب
الجيد
الجيدة
الجيران
الجيري
الجيزة
الجيش
الجيعان
الجيل
الجيم
الجين
الجينات
الجينوم
الجيني
الجينية
الجيوب
الجيوش
الجيولوجي
الجيولوجيا
الجيولوجية
الح
الحاء
الحاج
الحاجات
الحاجب
الحاجة
الحاجز
الحاخام
الحاد
الحادة
الحادث
الحادثة
الحادي
الحادية
الحار
الحارة
الحارث
الحارثي
الحارس
الحاسب
الحاسمة
الحاسوب
الحاسوبية
الحاصل
الحاصلة
الحاصلين
الحاضر
الحاضرة
الحاضرين
الحافة
الحافظ
الحافلات
الحافلة
الحاكم
الحاكمة
الحال
الحالات
الحالة
الحالتين
الحالي
الحالية
الحاليين
الحامل
الحاملة
الحامية
الحاي
الحب
الحباب
الحبال
الحبر
الحبس
الحبشة
الحبشي
الحبل
الحبوب
الحبيب
الحج
الحجاب
الحجاج
الحجارة
الحجاز
الحجة
الحجج
الحجر
الحجرات
الحجرة
الحجري
الحجرية
الحجز
الحجم
الحد
الحداثة
الحداد
الحداي
الحدث
الحدوث
الحدود
الحدودي
الحدودية
الحديبية
الحديث
الحديثة
الحديثين
الحديد
الحديدة
الحديدي
الحديدية
الحديقة
الحذاء
الحذر
الحذف
الحر
الحرارة
الحراري
الحرارية
الحراس
الحراسة
الحراك
الحرام
الحراني
الحراي
الحرب
الحربي
الحربية
الحرة
الحرث
الحرج
الحرجة
الحرس
الحرص
الحرف
الحرفية
الحركات
الحركة
الحركي
الحركية
الحرم
الحرمان
الحرمين
الحروب
الحروف
الحريات
الحرية
الحرير
الحريري
الحريق
الحزام
الحزب
الحزبية
الحزم
الحزمة
الحزن
الحزين
الحس
الحساب
الحسابات
الحسابية
الحساسة
الحساسية
الحسد
الحسن
الحسنات
الحسنة
الحسنى
الحسني
الحسي
الحسية
الحسيمة
الحسين
الحسيني
الحسينية
الحشد
الحشر
الحشرات
الحصاد
الحصار
الحصان
الحصر
الحصري
الحصن
الحصول
الحصون
الحصى
الحصين
الحضارات
الحضارة
الحضاري
الحضارية
الحضانة
الحضر
الحضرمي
الحضري
الحضرية
الحضور
الحطام
الحطب
الحظ
الحظر
الحفاظ
الحفر
الحفرة
الحفريات
الحفظ
الحفل
الحفلات
الحفلة
الحق
الحقاي
الحقبة
الحقل
الحقن
الحقوق
الحقول
الحقيقة
الحقيقي
الحقيقية
الحكام
الحكايات
الحكاية
الحكم
الحكماء
الحكمة
الحكومات
الحكومة
الحكومي
الحكومية
الحكوميين
الحكيم
الحل
الحلال
الحلبة
الحلبي
الحلة
الحلف
الحلفاء
الحلق
الحلقات
الحلقة
الحلقي
الحلم
الحلو
الحلواني
الحلوة
الحلول
الحلوى
الحلويات
الحلي
الحليب
الحليفة
الحليم
الحمار
الحمام
الحمامات
الحماية
الحمد
الحمر
الحمراء
الحمصي
الحمض
الحمل
الحملات
الحملة
الحموضة
الحمولة
الحموي
الحمى
الحميد
الحميدي
الحميري
الحنابلة
الحنبلي
الحنجرة
الحنطة
الحنفي
الحنفية
الحنين
الحواجز
الحوادث
الحوار
الحواس
الحواسيب
الحوامل
الحوت
الحوثيين
الحور
الحوز
الحوسبة
الحوض
الحول
الحي
الحياء
الحياة
الحياد
الحية
الحيتان
الحيرة
الحيز
الحيض
الحيل
الحيلة
الحين
الحيوان
الحيوانات
الحيواني
الحيوانية
الحيوي
الحيوية
الخ
الخاتم
الخادم
الخارج
الخارجة
الخارجي
الخارجية
الخارقة
الخاص
الخاصة
الخاصية
الخاضعة
الخاطي
الخالد
الخالدة
الخالدي
الخالص
الخالصة
الخالق
الخالي
الخالية
الخام
الخامس
الخامسة
الخان
الخاي
الخبر
الخبراء
الخبرات
الخبرة
الخبز
الخبيث
الخبيثة
الخبير
الختان
الخداع
الخدري
الخدم
الخدمات
الخدمة
الخديوي
الخراب
الخراج
الخراساني
الخراي
الخرج
الخرسانة
الخرطوم
الخروج
الخريجين
الخريطة
الخريف
الخزاعي
الخزان
الخزانة
الخزر
الخزرج
الخزف
الخسارة
الخساي
الخشب
الخشبية
الخصاي
الخصبة
الخصم
الخصوبة
الخصوص
الخصوصية
الخصوم
الخصومة
الخصيب
الخضار
الخضر
الخضراء
الخضرة
الخضروات
الخضوع
الخط
الخطا
الخطاب
الخطابة
الخطابي
الخطايا
الخطب
الخطبة
الخطة
الخطر
الخطرة
الخطط
الخطوات
الخطوب
الخطوة
الخطورة
الخطوط
الخطي
الخطيب
الخطية
الخطير
الخطيرة
الخطيي
الخفي
الخفية
الخفيف
الخفيفة
الخفين
الخل
الخلاص
الخلاف
الخلافات
الخلافة
الخلال
الخلاي
الخلايا
الخلد
الخلط
الخلع
الخلف
الخلفاء
الخلفي
الخلفية
الخلق
الخلقي
الخلقية
الخلل
الخلود
الخلوي
الخلوية
الخلية
الخليج
الخليجي
الخليجية
الخليط
الخليفة
الخليل
الخليلي
الخمر
الخمس
الخمسة
الخمسين
الخمسينات
الخمسينيات
الخميس
الخميني
الخنازير
الخندق
الخنزير
الخوارج
الخوارزمي
الخوارزمية
الخواص
الخواطر
الخوري
الخوف
الخولاني
الخيار
الخيارات
الخياط
الخيال
الخيالية
الخيام
الخيانة
الخير
الخيرات
الخيري
الخيرية
الخيزران
الخيط
الخيل
الخيمة
الخيوط
الخيول
الد
الداء
الدابة
الداخل
الداخلة
الداخلي
الداخلية
الدار
الدارقطني
الدارمي
الداعمة
الداعي
الداعية
الدافع
الدافعة
الدافي
الدال
الدالة
الدانوب
الداني
الداي
الدب
الدبابات
الدبابة
الدبلوماسي
الدبلوماسية
الدجاج
الدجال
الدجى
الدخان
الدخل
الدخول
الدر
الدراجات
الدراسات
الدراسة
الدراسي
الدراسية
الدرافت
الدراما
الدرامي
الدرامية
الدراهم
الدرب
الدرج
الدرجات
الدرجة
الدرداء
الدرر
الدرس
الدرع
الدرعية
الدرقية
الدرك
الدرهم
الدروز
الدروس
الدروع
الدستور
الدستوري
الدستورية
الدعاء
الدعاة
الدعارة
الدعاوى
الدعاي
الدعاية
الدعم
الدعوات
الدعوة
الدعوى
الدفاع
الدفاعي
الدفاعية
الدفع
الدفعة
الدفن
الدفيي
الدقاي
الدقة
الدقهلية
الدقيق
الدقيقة
الدكتور
الدكتوراة
الدكتوراه
الدكتورة
الدلالة
الدلاي
الدلتا
الدليل
الدم
الدماء
الدمار
الدماغ
الدماغي
الدماغية
الدمام
الدمج
الدمشقي
الدمع
الدموع
الدموي
الدموية
الدمى
الدنا
الدنمارك
الدنماركي
الدنماركية
الدنيا
الدنيوية
الدهر
الدهليز
الدهني
الدهنية
الدهون
الدو
الدواء
الدواب
الدواجن
الدوار
الدوافع
الدوال
الدوام
الدواوين
الدواي
الدوبامين
الدوحة
الدور
الدورات
الدوران
الدورة
الدوري
الدوريات
الدورية
الدوسري
الدوق
الدول
الدولار
الدولارات
الدولة
الدولتين
الدولي
الدولية
الدوليين
الدومينيكان
الدي
الديار
الديانات
الديانة
الدية
الديدان
الدير
الديزل
الديك
الديمقراطي
الديمقراطية
الديمقراطيين
الديموقراطية
الدين
الدينار
الديناصورات
الديناميكي
الديناميكية
الديني
الدينية
الديوان
الديون
الذ
الذات
الذاتي
الذاتية
الذاكرة
الذباب
الذبح
الذخاي
الذخيرة
الذرات
الذراع
الذرة
الذروة
الذري
الذرية
الذريعة
الذعر
الذكاء
الذكر
الذكرى
الذكري
الذكريات
الذكور
الذكي
الذكية
الذل
الذم
الذمة
الذنب
الذنوب
الذهاب
الذهب
الذهبي
الذهبية
الذهن
الذهنية
الذوق
الذى
الذي
الذيل
الذين
الر
الرا
الراء
الراب
الرابط
الرابطة
الرابع
الرابعة
الراجز
الراحة
الراحل
الرادار
الراديو
الرازق
الرازي
الراشدين
الراعي
الرافدين
الرافضة
الرافعي
الراقصة
الراقية
الراكب
الرامية
الراهب
الراهن
الراوي
الراي
الراية
الرايخ
الراين
الرب
الربا
الرباط
الرباعي
الرباعية
الربح
الربحية
الربط
الربع
الربو
الربوبية
الربيع
الرتب
الرتبة
الرجاء
الرجال
الرجبي
الرجعة
الرجل
الرجلين
الرجم
الرجوع
الرحال
الرحالة
الرحل
الرحلات
الرحلة
الرحم
الرحمان
الرحمة
الرحمن
الرحيل
الرحيم
الرخام
الرخصة
الرد
الردة
الردى
الرزاق
الرزق
الرسالة
الرسام
الرساي
الرسل
الرسم
الرسمي
الرسمية
الرسول
الرسولي
الرسوم
الرسومات
الرشد
الرشيد
الرصاص
الرصد
الرضا
الرضاع
الرضاعة
الرضع
الرضى
الرضيع
الرطب
الرطبة
الرطوبة
الرعاة
الرعاية
الرعب
الرعد
الرعي
الرعية
الرغبة
الرغبي
الرغم
الرفاعي
الرفاهية
الرفض
الرفع
الرفيع
الرفيعة
الرق
الرقابة
الرقبة
الرقة
الرقص
الرقم
الرقمي
الرقمية
الرقي
الرقيب
الرقيق
الرقيقة
الركاب
الركب
الركبة
الركعة
الركعتين
الركن
الركود
الركوع
الرماح
الرماد
الرمادي
الرمادية
الرمال
الرمان
الرماية
الرمة
الرمح
الرمز
الرمزي
الرمزية
الرمل
الرملة
الرملي
الرملية
الرموز
الرمي
الرنا
الرنين
الرهاي
الرهبان
الرهن
الرو
الروابط
الرواة
الرواد
الرواسب
الرواي
الروايات
الرواية
الروايتين
الروبوت
الروبوتات
الروح
الروحانية
الروحي
الروحية
الروس
الروسي
الروسية
الروض
الروضة
الروك
الروم
الرومان
الرومانسية
الروماني
الرومانية
الرومي
الري
الرياح
الرياض
الرياضات
الرياضة
الرياضي
الرياضيات
الرياضية
الرياضيين
الريان
الريح
الريحاني
الريش
الريشة
الريف
الريفي
الريفية
الز
الزاني
الزاهد
الزاوي
الزاوية
الزاي
الزبيدي
الزبير
الزبيري
الزجاج
الزجاجي
الزجاجية
الزحف
الزخارف
الزخرفة
الزراعة
الزراعي
الزراعية
الزرع
الزرقاء
الزركلي
الزعانف
الزعماء
الزعيم
الزفاف
الزكاة
الزلازل
الزلزال
الزمالك
الزمان
الزمخشري
الزمر
الزمن
الزمني
الزمنية
الزنا
الزناد
الزنج
الزنك
الزهد
الزهر
الزهراء
الزهرة
الزهري
الزهور
الزواج
الزواحف
الزوار
الزوال
الزواي
الزوايا
الزوج
الزوجات
الزوجان
الزوجة
الزوجي
الزوجية
الزوجين
الزور
الزي
الزيات
الزيادة
الزيارات
الزيارة
الزيت
الزيتون
الزيتونة
الزيدية
الزين
الزينة
الزيوت
الس
السابع
السابعة
السابق
السابقة
السابقون
السابقين
الساجي
الساحة
الساحر
الساحرة
الساحل
الساحلي
الساحلية
الساخن
الساخنة
السادات
السادة
السادس
السادسة
السارق
الساسانية
الساعات
الساعة
الساق
الساقين
الساكن
الساكنة
السالبة
السالفة
السالم
السامة
السامع
السامي
السامية
الساي
السباحة
السباع
السباعي
السباق
السباقات
السبب
السبت
السبع
السبعة
السبعين
السبعينات
السبعينيات
السبق
السبكي
السبل
السبي
السبيعي
السبيل
الست
الستار
الستة
الستين
الستينات
الستينيات
السجاد
السجاي
السجدة
السجستاني
السجل
السجلات
السجن
السجناء
السجود
السجون
السحاب
السحابة
السحب
السحر
السحرة
السحرية
السختياني
السخرية
السد
السداسي
السدس
السدود
السدي
السر
السراج
السرب
السرد
السرطان
السرطانية
السرعة
السرقة
السرور
السري
السريان
السريانية
السرية
السرير
السريري
السريرية
السريع
السريعة
السطح
السطحي
السطحية
السطر
السطوح
السعادة
السعال
السعة
السعد
السعدي
السعر
السعرات
السعود
السعودي
السعودية
السعوديين
السعي
السعيد
السعيدة
السفاح
السفارات
السفارة
السفال
السفر
السفلى
السفلي
السفلية
السفن
السفير
السفينة
السقف
السقوط
السكان
السكاني
السكانية
السكة
السكتة
السكر
السكرتير
السكري
السكك
السكن
السكنى
السكنية
السكوت
السكون
السكيت
السكينة
السل
السلاجقة
السلاح
السلاحف
السلاسل
السلاطين
السلافية
السلالات
السلالة
السلام
السلامة
السلبي
السلبية
السلة
السلسلة
السلطات
السلطان
السلطانية
السلطة
السلطنة
السلع
السلعة
السلف
السلفادور
السلفي
السلفية
السلك
السلكية
السلم
السلمي
السلمية
السلوفاكية
السلوك
السلوكي
السلوكيات
السلوكية
السليم
السليمانية
السليمة
السم
السماء
السمات
السماح
السماع
السمان
السماوات
السماوي
السماوية
السمة
السمرقندي
السمع
السمعاني
السمعة
السمعي
السمعية
السمك
السمكة
السمن
السمنة
السمو
السموات
السموم
السمية
السميع
السن
السنة
السند
السنغال
السنن
السنوات
السنوسي
السنوي
السنوية
السني
السنية
السنين
السهام
السهل
السهم
السهمي
السهو
السهول
السو
السوء
السواء
السواحل
السواد
السواي
السوبر
السود
السوداء
السودان
السوداني
السودانية
السور
السوربون
السورة
السوري
السورية
السوريين
السوفياتي
السوفياتية
السوفيتي
السوفيتية
السوفييت
السوفييتي
السوفييتية
السوق
السوقية
السومرية
السويد
السويداء
السويدي
السويدية
السويس
السويسري
السويسرية
السي
السياح
السياحة
السياحي
السياحية
السيادة
السيارات
السيارة
السياسات
السياسة
السياسي
السياسية
السياسيين
السياق
السيد
السيدات
السيدة
السير
السيرة
السيسي
السيطرة
السيف
السيل
السيليكون
السين
السيناريو
السينما
السينماي
السينية
السيوطي
السيوف
السيي
الش
الشا
الشاب
الشابة
الشاة
الشاذلي
الشارع
الشارقة
الشاشة
الشاطي
الشاعر
الشاعرة
الشافعي
الشافعية
الشاقة
الشام
الشامل
الشاملة
الشامي
الشامية
الشاه
الشاهد
الشاي
الشباب
الشبان
الشبح
الشبكات
الشبكة
الشبكية
الشبه
الشبهات
الشبهة
الشبيهة
الشتاء
الشتات
الشتوية
الشجاع
الشجاعة
الشجر
الشجرة
الشحن
الشحنة
الشخص
الشخصي
الشخصيات
الشخصية
الشد
الشدة
الشديد
الشديدة
الشر
الشراء
الشراب
الشراعية
الشراكة
الشراي
الشرايين
الشرب
الشرح
الشرط
الشرطة
الشرطي
الشرع
الشرعي
الشرعية
الشرف
الشرق
الشرقي
الشرقية
الشرقيين
الشرك
الشركاء
الشركات
الشركة
الشروط
الشروع
الشروق
الشريان
الشرير
الشريرة
الشريط
الشريعة
الشريف
الشريفة
الشريفين
الشريك
الشطر
الشطرنج
الشعاب
الشعار
الشعارات
الشعاع
الشعاي
الشعب
الشعبة
الشعبي
الشعبية
الشعر
الشعراء
الشعري
الشعرية
الشعلة
الشعوب
الشعور
الشعير
الشغب
الشغل
الشفاء
الشفاعة
الشفافية
الشفاه
الشفرة
الشفعة
الشفق
الشفوية
الشق
الشقاء
الشقيق
الشقيقة
الشك
الشكر
الشكل
الشكوك
الشكوى
الشلل
الشم
الشمال
الشمالي
الشمالية
الشمري
الشمس
الشمسي
الشمسية
الشمع
الشهادات
الشهادة
الشهداء
الشهر
الشهرة
الشهري
الشهرية
الشهوات
الشهوة
الشهود
الشهور
الشهية
الشهيد
الشهير
الشهيرة
الشو
الشوارع
الشواطي
الشواهد
الشورى
الشوط
الشوق
الشوك
الشوكي
الشي
الشيء
الشياطين
الشيب
الشيباني
الشيخ
الشيخة
الشيخوخة
الشيرازي
الشيشان
الشيطان
الشيعة
الشيعي
الشيعية
الشين
الشيوخ
الشيوعي
الشيوعية
الشيوعيين
الص
الصابي
الصاحب
الصادر
الصادرات
الصادرة
الصادق
الصادقة
الصارم
الصارمة
الصاروخ
الصاروخية
الصاعقة
الصافي
الصافية
الصالات
الصالة
الصالح
الصالحات
الصالحة
الصالحين
الصامت
الصامتة
الصانع
الصاي
الصب
الصبا
الصباح
الصباغ
الصبح
الصبر
الصبي
الصبيان
الصحابة
الصحابي
الصحاح
الصحافة
الصحة
الصحراء
الصحراوي
الصحراوية
الصحف
الصحفي
الصحفية
الصحفيين
الصحن
الصحي
الصحية
الصحيح
الصحيحة
الصحيحين
الصحيفة
الصخر
الصخرة
الصخري
الصخرية
الصخور
الصدارة
الصداع
الصداق
الصداقة
الصدد
الصدر
الصدرية
الصدغي
الصدفة
الصدق
الصدقات
الصدقة
الصدمات
الصدمة
الصدور
الصدى
الصديق
الصراط
الصراع
الصراعات
الصرب
الصربي
الصربية
الصرع
الصرف
الصريح
الصعب
الصعبة
الصعوبات
الصعوبة
الصعود
الصعيد
الصغار
الصغر
الصغرى
الصغير
الصغيرة
الصف
الصفا
الصفاء
الصفات
الصفار
الصفاي
الصفة
الصفحات
الصفحة
الصفر
الصفراء
الصفقة
الصفوف
الصفوية
الصفيحة
الصقر
الصلاة
الصلاح
الصلاحيات
الصلاحية
الصلب
الصلبة
الصلة
الصلت
الصلح
الصلوات
الصليب
الصليبي
الصليبية
الصليبيين
الصم
الصماء
الصمام
الصمت
الصمد
الصناديق
الصناعات
الصناعة
الصناعي
الصناعية
الصندوق
الصنع
الصنعاني
الصنعة
الصنف
الصنوبر
الصهيوني
الصهيونية
الصواب
الصواريخ
الصوت
الصوتي
الصوتية
الصوديوم
الصور
الصورة
الصوف
الصوفي
الصوفية
الصوم
الصومال
الصومالية
الصويا
الصويرة
الصياد
الصيادين
الصيام
الصيانة
الصيد
الصيدلانية
الصيدلة
الصيغ
الصيغة
الصيف
الصيفي
الصيفية
الصين
الصيني
الصينية
الصينيون
الصينيين
الض
الضابط
الضارة
الضاي
الضباب
الضباط
الضبط
الضبي
الضحاك
الضحايا
الضحك
الضحى
الضحية
الضخم
الضخمة
الضر
الضراي
الضرب
الضربات
الضربة
الضرر
الضرورة
الضروري
الضرورية
الضريبة
الضريبي
الضريبية
الضريح
الضرير
الضعف
الضعفاء
الضعيف
الضعيفة
الضغط
الضغوط
الضفادع
الضفة
الضلال
الضلالة
الضلع
الضم
الضمان
الضمير
الضوء
الضواحي
الضوضاء
الضوي
الضياء
الضيافة
الضيف
الضيق
الضيقة
الضيوف
الط
الطابع
الطابق
الطاري
الطاعة
الطاعون
الطاقة
الطاقم
الطالب
الطاهر
الطاولة
الطاي
الطب
الطباشيري
الطباع
الطباعة
الطبخ
الطبراني
الطبري
الطبع
الطبعة
الطبق
الطبقات
الطبقة
الطبقي
الطبول
الطبي
الطبيب
الطبية
الطبيعة
الطبيعي
الطبيعية
الطحال
الطحالب
الطحاوي
الطراز
الطرب
الطرد
الطرف
الطرفان
الطرفية
الطرفين
الطرق
الطرقات
الطريق
الطريقة
الطعام
الطعم
الطعن
الطفرات
الطفرة
الطفل
الطفلة
الطفولة
الطفيل
الطفيليات
الطقس
الطقوس
الطلاء
الطلاب
الطلابية
الطلاق
الطلاي
الطلب
الطلبات
الطلبة
الطلق
الطليعة
الطماطم
الطمث
الطنطاوي
الطهارة
الطهر
الطهراني
الطهي
الطواري
الطواف
الطوال
الطواي
الطوب
الطور
الطوسي
الطوفان
الطول
الطويل
الطويلة
الطيار
الطيارين
الطيالسي
الطيب
الطيبة
الطير
الطيران
الطيف
الطيفي
الطين
الطيور
الظ
الظالم
الظالمين
الظاهر
الظاهرة
الظاهري
الظاهرية
الظرف
الظروف
الظفر
الظل
الظلال
الظلام
الظلم
الظلمات
الظلمة
الظن
الظنون
الظهار
الظهر
الظهور
الظهير
الظهيرة
الظواهر
الع
العابد
العابدين
العابرة
العاج
العادات
العادة
العادل
العادلة
العادي
العادية
العاديين
العار
العارضة
العارف
العارفين
العارية
العاشر
العاشرة
العاشق
العاص
العاصفة
العاصمة
العاصي
العاطفة
العاطفي
العاطفية
العافية
العاقبة
العاقل
العال
العالم
العالمي
العالمية
العالمين
العالي
العالية
العام
العامة
العامري
العامل
العاملة
العاملون
العاملي
العاملين
العامية
العامين
العاي
العب
العباد
العبادات
العبادة
العبادي
العبارات
العبارة
العباس
العباسي
العباسية
العباسيين
العبث
العبد
العبدي
العبري
العبرية
العبسي
العبودية
العبور
العبيد
العتبة
العتق
العتيق
العتيقة
العثماني
العثمانية
العثمانيون
العثمانيين
العثور
العجاج
العجاي
العجب
العجز
العجل
العجلات
العجلة
العجلي
العجم
العجوز
العجيب
العجيبة
العد
العداء
العدالة
العداوة
العداي
العدة
العدد
العدسات
العدسة
العدل
العدم
العدو
العدوان
العدوى
العدوي
العديد
العديدة
العدين
العذاب
العذب
العذبة
العذر
العذراء
العراق
العراقي
العراقية
العراقيين
العراي
العرب
العربات
العربة
العربي
العربية
العرش
العرض
العرضي
العرضية
العرف
العرفية
العرق
العرقي
العرقية
العروبة
العروس
العروض
العروق
العريان
العريس
العريش
العريض
العريضة
العريقة
العز
العزاء
العزة
العزف
العزل
العزلة
العزم
العزى
العزيز
العساكر
العسقلاني
العسكر
العسكري
العسكرية
العسكريين
العسل
العش
العشاء
العشاي
العشب
العشبية
العشر
العشرات
العشرة
العشرون
العشرين
العشرينات
العشق
العشواي
العشيرة
العصا
العصابات
العصابة
العصب
العصبة
العصبونات
العصبي
العصبية
العصر
العصرية
العصمة
العصور
العصيان
العضلات
العضلة
العضلي
العضلية
العضو
العضوي
العضوية
العطاء
العطار
العطش
العطف
العظام
العظم
العظماء
العظمة
العظمى
العظمي
العظمية
العظيم
العظيمة
العفو
العقاب
العقاد
العقار
العقارات
العقاري
العقارية
العقاقير
العقاي
العقبات
العقبة
العقد
العقدة
العقدي
العقدية
العقرب
العقل
العقلاء
العقلي
العقلية
العقوبات
العقوبة
العقود
العقول
العقيد
العقيدة
العقيلي
العكس
العكسي
العلا
العلاء
العلاج
العلاجات
العلاجية
العلاقات
العلاقة
العلامات
العلامة
العلاي
العلة
العلل
العلم
العلماء
العلمانية
العلمي
العلمية
العلو
العلوم
العلوي
العلوية
العلويين
العلى
العلي
العليا
العلية
العليم
العم
العماد
العمارة
العمال
العمالة
العمالقة
العمالية
العماني
العمانية
العمد
العمدة
العمر
العمران
العمراني
العمرانية
العمرة
العمري
العمرية
العمق
العمل
العملاء
العملات
العملاق
العملاقة
العملة
العملي
العمليات
العملية
العمود
العمودي
العموم
العمومية
العمى
العميد
العميق
العميقة
العميل
العناصر
العناوين
العناية
العنب
العنبر
العنبري
العنزي
العنصر
العنصري
العنصرية
العنف
العنق
العنكبوت
العنوان
العنيف
العنيفة
العهد
العهود
العواصف
العواطف
العواقب
العوالم
العوام
العوامل
العواي
العود
العودة
العوض
العولمة
العون
العيب
العيد
العيش
العين
العينات
العينة
العيني
العينين
العيوب
العيون
الغ
الغاب
الغابات
الغابة
الغابون
الغار
الغارات
الغارة
الغارديان
الغاز
الغازات
الغازي
الغازية
الغاصب
الغال
الغالب
الغالبية
الغالية
الغامض
الغامضة
الغامق
الغاي
الغاية
الغبار
الغد
الغداء
الغداة
الغدة
الغدد
الغدر
الغذاء
الغذاي
الغراء
الغراب
الغرام
الغراي
الغرب
الغرباء
الغربي
الغربية
الغربيين
الغرض
الغرف
الغرفة
الغرق
الغرماء
الغروب
الغرور
الغريب
الغريبة
الغزاة
الغزال
الغزالي
الغزل
الغزلان
الغزو
الغزوات
الغسل
الغشاء
الغضب
الغطاء
الغفار
الغفاري
الغلاف
الغلام
الغلط
الغمام
الغموض
الغناء
الغناي
الغنم
الغنى
الغني
الغنية
الغنيمة
الغواصات
الغواصة
الغوص
الغول
الغيب
الغيبة
الغيث
الغير
الغيرة
الـ
الـم
الف
الفا
الفاء
الفاتح
الفاتحة
الفاتيكان
الفاخرة
الفارابي
الفارس
الفارسي
الفارسية
الفارق
الفاروق
الفاسد
الفاسدة
الفاسق
الفاسي
الفاشلة
الفاشية
الفاصل
الفاصلة
الفاضل
الفاضلة
الفاطمي
الفاطمية
الفاطميين
الفاعل
الفاعلة
الفاكهة
الفاي
الفتاة
الفتاح
الفتاوى
الفتح
الفتحة
الفترات
الفترة
الفتن
الفتنة
الفتوح
الفتوحات
الفتوى
الفتى
الفتيات
الفتيان
الفجر
الفجوة
الفحص
الفحل
الفحم
الفحوصات
الفخار
الفخذ
الفخر
الفخري
الفخرية
الفداء
الفداي
الفدرالي
الفدرالية
الفراء
الفرات
الفرار
الفراش
الفراعنة
الفراغ
الفراق
الفراي
الفرج
الفرح
الفرد
الفردوس
الفردي
الفردية
الفرزدق
الفرس
الفرسان
الفرص
الفرصة
الفرض
الفرضية
الفرع
الفرعون
الفرعي
الفرعية
الفرق
الفرقان
الفرقة
الفرن
الفرنج
الفرنجة
الفرنسي
الفرنسية
الفرنسيون
الفرنسيين
الفروسية
الفروع
الفروق
الفريابي
الفريد
الفريدة
الفريضة
الفريق
الفريقان
الفريقين
الفزاري
الفساد
الفسخ
الفشل
الفص
الفصاي
الفصح
الفصحى
الفصل
الفصول
الفصيح
الفصيلة
الفضاء
الفضاي
الفضة
الفضل
الفضول
الفضي
الفضية
الفضيل
الفضيلة
الفطر
الفطرة
الفطريات
الفطرية
الفعال
الفعالة
الفعاليات
الفعالية
الفعل
الفعلي
الفعلية
الفقار
الفقاريات
الفقر
الفقراء
الفقرات
الفقرة
الفقري
الفقه
الفقهاء
الفقهية
الفقير
الفقيرة
الفقيه
الفك
الفكر
الفكرة
الفكري
الفكرية
الفلاح
الفلاحة
الفلاحين
الفلاسفة
الفلبين
الفلبيني
الفلبينية
الفلسطيني
الفلسطينية
الفلسطينيون
الفلسطينيين
الفلسفة
الفلسفي
الفلسفية
الفلفل
الفلك
الفلكي
الفلكية
الفلم
الفم
الفن
الفناء
الفنادق
الفنان
الفنانة
الفنانين
الفندق
الفنزويلية
الفنلندي
الفنلندية
الفنون
الفني
الفنية
الفهد
الفهرس
الفهرسة
الفهري
الفهم
الفو
الفواكه
الفواي
الفوتوغرافي
الفوج
الفور
الفورمولا
الفوري
الفورية
الفوز
الفوسفات
الفوضى
الفول
الفولاذ
الفي
الفيء
الفيتنامية
الفيحاء
الفيدرالي
الفيدرالية
الفيديو
الفيروس
الفيروسات
الفيروسي
الفيروسية
الفيزياء
الفيزياي
الفيصل
الفيصلي
الفيضانات
الفيفا
الفيل
الفيلة
الفيلسوف
الفيلق
الفيلم
الفيوم
الق
القابضة
القابل
القابلة
القاتل
القاتلة
القادة
القادر
القادرة
القادسية
القادم
القادمة
القادمين
القارات
القارب
القارة
القاري
القارية
القاسم
القاسمي
القاسي
القاسية
القاضى
القاضي
القاضية
القاطع
القاطنين
القاع
القاعة
القاعدة
القاعدية
القاف
القافلة
القالب
القامة
القاموس
القانون
القانوني
القانونية
القاهر
القاهرة
القاي
القباب
القبارصة
القباي
القبة
القبر
القبرصي
القبس
القبض
القبطي
القبطية
القبلة
القبلي
القبلية
القبور
القبول
القبيح
القبيل
القبيلة
القتال
القتالية
القتل
القتلى
القتيل
القد
القدامى
القدح
القدر
القدرات
القدرة
القدرية
القدس
القدم
القدماء
القدمين
القدوس
القدير
القديس
القديسة
القديسين
القديم
القديمة
القذافي
القذف
القرا
القراء
القراءات
القراءة
القرابة
القرار
القرارات
القراصنة
القرامطة
القران
القراي
القرب
القربى
القرد
القردة
القرش
القرشي
القرص
القرصنة
القرض
القرطبي
القرعة
القرم
القرن
القرنية
القرنين
القروض
القرون
القرويين
القرى
القريب
القريبة
القرية
القزويني
القس
القسام
القسري
القسطنطينية
القسم
القسمة
القسوة
القشرة
القشيري
القص
القصاص
القصاي
القصب
القصبة
القصة
القصد
القصر
القصص
القصصية
القصف
القصور
القصوى
القصيدة
القصير
القصيرة
القصيم
القضاء
القضاة
القضاي
القضايا
القضيب
القضية
القط
القطار
القطارات
القطاع
القطاعات
القطان
القطب
القطبي
القطبية
القطر
القطري
القطرية
القطط
القطع
القطعة
القطن
القطيف
القعدة
القعقاع
القفر
القفز
القلاع
القلاي
القلب
القلبي
القلبية
القلة
القلعة
القلق
القلم
القلوب
القليل
القليلة
القليوبية
القماش
القمامة
القمة
القمح
القمر
القمري
القمرية
القمع
القمم
القمي
القميص
القنابل
القناة
القناع
القنبلة
القنصل
القنصلية
القنوات
القنيطرة
القهوة
القو
القوات
القوارب
القواعد
القوافل
القوانين
القواي
القوة
القود
القوس
القوط
القوطية
القوقاز
القول
القولون
القولين
القوم
القومي
القومية
القوميين
القوى
القوي
القوية
القيادات
القيادة
القيادي
القيادية
القياس
القياسات
القياسي
القياسية
القيام
القيامة
القيد
القيروان
القيس
القيسي
القيصر
القيصرية
القيم
القيمة
القيود
الك
الكا
الكابتن
الكاتب
الكاتبة
الكاتدراي
الكاثوليك
الكاثوليكي
الكاثوليكية
الكاذب
الكاذبة
الكارثة
الكاردينال
الكاريبي
الكاف
الكافر
الكافرون
الكافرين
الكافي
الكافية
الكالسيوم
الكامل
الكاملة
الكامنة
الكاميرا
الكاميرون
الكاهن
الكاي
الكبار
الكباي
الكبد
الكبر
الكبرى
الكبريت
الكبير
الكبيرة
الكت
الكتاب
الكتابات
الكتابة
الكتابية
الكتالونية
الكتاي
الكتب
الكتف
الكتل
الكتلة
الكتيبة
الكثافة
الكثرة
الكثير
الكثيرة
الكثيرون
الكثيرين
الكثيف
الكثيفة
الكحول
الكذاب
الكذب
الكرام
الكرامة
الكراهية
الكربون
الكرة
الكرخ
الكردستاني
الكردي
الكردية
الكرسي
الكرك
الكرم
الكرماني
الكرواتي
الكرواتية
الكروم
الكروي
الكروية
الكريات
الكريم
الكريمة
الكساد
الكساي
الكسب
الكسر
الكسندر
الكسوف
الكشافة
الكشف
الكشفية
الكعبة
الكف
الكفاءة
الكفاح
الكفار
الكفارة
الكفالة
الكفاية
الكفر
الكفيل
الكل
الكلاب
الكلابي
الكلاسيكي
الكلاسيكية
الكلام
الكلب
الكلبي
الكلم
الكلمات
الكلمة
الكلور
الكلوي
الكلوية
الكلى
الكلي
الكليات
الكلية
الكم
الكمال
الكمان
الكمبيوتر
الكمومية
الكمي
الكميات
الكمية
الكناري
الكناني
الكناي
الكندي
الكندية
الكنز
الكنسي
الكنسية
الكنيسة
الكنيست
الكهرباء
الكهرباي
الكهربي
الكهربية
الكهرومغناطيسية
الكهف
الكهنة
الكهوف
الكو
الكوارث
الكواكب
الكوبية
الكود
الكوري
الكورية
الكوفة
الكوفي
الكوفيين
الكوكب
الكولومبي
الكوليرا
الكومنولث
الكوميدي
الكوميديا
الكوميدية
الكون
الكونت
الكونجرس
الكونغرس
الكونغو
الكونفدرالية
الكوني
الكونية
الكويت
الكويتي
الكويتية
الكويكب
الكويكبات
الكيان
الكيانات
الكيس
الكيلاني
الكيماوية
الكيمياء
الكيمياي
الل
اللا
اللاا
اللاتي
اللاتيني
اللاتينية
اللاتينيون
اللاجي
اللاحق
اللاحقة
اللاذقية
اللازم
اللازمة
اللاسلكي
اللاسلكية
اللاعب
اللاعبون
اللاعبين
اللام
اللامع
اللاهوت
اللاهوتية
اللاي
اللب
اللباس
اللبن
اللبناني
اللبنانية
اللبنانيين
اللتان
اللتين
اللثة
اللجان
اللجنة
اللجوء
اللحظات
اللحظة
اللحم
اللحن
اللحوم
اللحياني
اللحية
اللذان
اللذة
اللذين
اللسان
اللصوص
اللطيف
اللعب
اللعبة
اللغات
اللغة
اللغتين
اللغوي
اللغويات
اللغوية
اللفظ
اللفظة
اللفظي
اللفظية
اللقاء
اللقاح
اللقاحات
اللقب
اللمس
اللمفاوية
الله
اللهب
اللهجات
اللهجة
اللهم
اللهو
اللو
اللواء
اللواتي
اللواي
اللوثرية
اللوح
اللوحات
اللوحة
اللورد
اللوردات
اللوز
اللوم
اللون
اللي
الليالي
الليبرالي
الليبرالية
الليبراليين
الليبي
الليبية
الليث
الليثي
الليثيوم
الليزر
الليفية
الليل
الليلة
الليلي
الليلية
الليمفاوية
الليمون
اللين
الم
الما
الماء
الماجستير
المادة
المادي
المادية
المارة
الماركسية
المارونية
المازني
الماس
الماشية
الماضي
الماضية
الماعز
المال
المالحة
المالديف
المالك
المالكة
المالكي
المالكية
المالي
المالية
الماليزية
المانع
المانغا
الماي
المايا
المباح
المباحث
المبادرات
المبادرة
المبادي
المباراة
المباراتين
المبارزة
المبارك
المباركة
المباريات
المباشر
المباشرة
المبالغ
المبالغة
المباني
المبتدا
المبتدي
المبدا
المبدي
المبذولة
المبرد
المبرمج
المبشرين
المبكر
المبكرة
المبلغ
المبنى
المبني
المبنية
المبيدات
المبيض
المبيع
المبيعات
المبين
المت
المتا
المتابعة
المتاجر
المتاحة
المتاحف
المتاع
المتبادل
المتبادلة
المتبعة
المتبقي
المتبقية
المتتالية
المتجددة
المتجر
المتحد
المتحدة
المتحدث
المتحدثين
المتحرك
المتحركة
المتحف
المتحولين
المتخذ
المتخصص
المتخصصة
المتخصصين
المتداولة
المترتبة
المترجم
المتزامن
المتزايد
المتزايدة
المتساوية
المتصل
المتصلة
المتضررة
المتطرف
المتطرفة
المتطلبات
المتطورة
المتطوعين
المتظاهرون
المتظاهرين
المتعاقبة
المتعة
المتعدد
المتعددة
المتعلق
المتعلقة
المتعلم
المتعلمين
المتغير
المتغيرات
المتغيرة
المتفق
المتقدم
المتقدمة
المتقدمين
المتقين
المتكامل
المتكاملة
المتكرر
المتكررة
المتكلم
المتكلمين
المتلازمة
المتمثل
المتمثلة
المتمردة
المتمردون
المتمردين
المتمركزة
المتميز
المتميزة
المتن
المتنازع
المتنبي
المتنقلة
المتنوعة
المتهم
المتهمين
المتواجدة
المتوسط
المتوسطة
المتوسطية
المتوفرة
المتوفى
المتوفي
المتوقع
المتوقعة
المتوكل
المثال
المثالي
المثالية
المثانة
المثبتة
المثقفين
المثل
المثلث
المثلى
المثلي
المثلية
المثليين
المثنى
المثير
المثيرة
المجاري
المجاز
المجاعة
المجال
المجالات
المجالس
المجاني
المجانية
المجاهد
المجاهدين
المجاور
المجاورة
المجتمع
المجتمعات
المجتمعي
المجتمعية
المجتهد
المجد
المجر
المجرات
المجرة
المجرد
المجردة
المجرم
المجرمين
المجرى
المجري
المجرية
المجزرة
المجلات
المجلة
المجلد
المجلس
المجمع
المجمعة
المجموع
المجموعات
المجموعة
المجنون
المجهر
المجهود
المجهول
المجهولة
المجوس
المجوهرات
المجيد
المحادثات
المحارب
المحاربين
المحاسبة
المحاسن
المحاصيل
المحاضرات
المحاضرة
المحافظ
المحافظات
المحافظة
المحافظين
المحاكاة
المحاكم
المحاكمة
المحال
المحاماة
المحامي
المحامين
المحاور
المحاولات
المحاولة
المحب
المحبة
المحبوب
المحتجين
المحترفة
المحترفين
المحتل
المحتلة
المحتمل
المحتملة
المحتملين
المحتوى
المحدث
المحدثين
المحدد
المحددة
المحدود
المحدودة
المحراب
المحرر
المحررون
المحرق
المحرقة
المحرك
المحركات
المحرم
المحرمات
المحرمة
المحسن
المحصول
المحض
المحطات
المحطة
المحفوظ
المحفوظة
المحقق
المحققين
المحكم
المحكمة
المحكوم
المحل
المحلات
المحلة
المحلفين
المحلل
المحلول
المحلي
المحلية
المحليون
المحليين
المحمدية
المحمود
المحمول
المحمولة
المحمية
المحنة
المحور
المحوري
المحويت
المحيط
المحيطات
المحيطة
المحيطية
المخ
المخابرات
المخاطب
المخاطر
المخاطي
المخاطية
المخالف
المخالفة
المخالفين
المخاوف
المخبر
المختار
المختارة
المختبر
المختبرات
المخترع
المختص
المختصة
المختصر
المختلط
المختلطة
المختلف
المختلفة
المخدرات
المخرج
المخرجين
المخزن
المخزومي
المخزون
المخصص
المخصصة
المخطط
المخططات
المخطوطات
المخطوطة
المخلص
المخلفات
المخلوق
المخلوقات
المخلوقين
المخيم
المد
المدار
المدارس
المداري
المدارية
المدافع
المدافعين
المداي
المدبر
المدة
المدح
المدخل
المدخلات
المدرب
المدربين
المدرج
المدرجة
المدرس
المدرسة
المدرسي
المدرسية
المدرسين
المدرعة
المدعو
المدعومة
المدعى
المدعي
المدفع
المدفعية
المدمجة
المدمرة
المدن
المدني
المدنية
المدنيين
المدون
المدونة
المدى
المدير
المديرية
المدين
المدينة
المديني
المذاهب
المذكر
المذكور
المذكورة
المذكورين
المذنب
المذهب
المر
المرء
المرا
المرابطين
المرات
المراتب
المراجع
المراجعة
المراحل
المراد
المرارة
المراسلات
المراعي
المرافق
المراقب
المراقبة
المراقبين
المراكب
المراكز
المراهقة
المراهقين
المربع
المرة
المرتبة
المرتبط
المرتبطة
المرتد
المرتزقة
المرتفع
المرتفعات
المرتفعة
المرتهن
المرجانية
المرجح
المرجع
المرجعي
المرجعية
المرحلة
المرحوم
المرسل
المرسلة
المرسلين
المرسوم
المرشح
المرشحين
المرشد
المرصد
المرض
المرضى
المرضي
المرضية
المرغوب
المرفق
المركب
المركبات
المركبة
المركز
المركزة
المركزي
المركزية
المرموقة
المرمى
المرور
المروزي
المرونة
المري
المريء
المريخ
المريض
المريضة
المزاج
المزارع
المزارعين
المزايا
المزدوج
المزدوجة
المزرعة
المزروعة
المزعوم
المزعومة
المزمن
المزمنة
المزني
المزي
المزيد
المسا
المساء
المسابقات
المسابقة
المساجد
المساحات
المساحة
المسار
المسارات
المسارح
المساعد
المساعدات
المساعدة
المسافات
المسافة
المسافر
المسافرين
المساكن
المساكين
المسالك
المساهمة
المساهمون
المساهمين
المساواة
المساي
المسبار
المسبب
المسببة
المسبق
المستا
المستثمرين
المستحق
المستحيل
المستخدم
المستخدمة
المستخدمين
المستدامة
المستشار
المستشارين
المستشرق
المستشرقين
المستشفى
المستشفيات
المستعار
المستعمر
المستعمرات
المستعمرة
المستعمرين
المستعمل
المستعملة
المستقبل
المستقبلات
المستقبلي
المستقبلية
المستقرة
المستقل
المستقلة
المستقلين
المستقيم
المستمر
المستمرة
المستندات
المستنقعات
المستهدف
المستهدفة
المستهلك
المستهلكين
المستوطنات
المستوطنة
المستوطنين
المستوى
المستويات
المسجد
المسجل
المسجلة
المسجلين
المسح
المسرح
المسرحي
المسرحيات
المسرحية
المسعودي
المسك
المسكن
المسكين
المسلح
المسلحة
المسلحين
المسلسل
المسلسلات
المسلم
المسلمة
المسلمون
المسلمين
المسماة
المسموح
المسمى
المسند
المسنين
المسو
المسي
المسيب
المسيح
المسيحي
المسيحية
المسيحيون
المسيحيين
المسير
المسيرة
المسيل
المشابهة
المشاة
المشار
المشارك
المشاركة
المشاركون
المشاركين
المشاريع
المشاع
المشاعر
المشاكل
المشاهد
المشاهدة
المشاهدين
المشاهير
المشايخ
المشبعة
المشتبه
المشترك
المشتركة
المشتركين
المشترى
المشتري
المشتقات
المشتقة
المشرف
المشرفة
المشرق
المشركون
المشركين
المشروبات
المشروط
المشروع
المشروعات
المشروعة
المشعة
المشكلات
المشكلة
المشهد
المشهود
المشهور
المشهورة
المشهورين
المشورة
المشي
المشير
المشيمة
المصاب
المصابة
المصابون
المصابيح
المصابين
المصاحبة
المصاحف
المصادر
المصادقة
المصارع
المصارعة
المصارف
المصالح
المصالحة
المصانع
المصاي
المصباح
المصحف
المصدر
المصرف
المصرفي
المصرفية
المصرى
المصري
المصريات
المصرية
المصريون
المصريين
المصطفى
المصطلح
المصطلحات
المصفوفة
المصلحة
المصلى
المصلي
المصلين
المصمم
المصممة
المصنع
المصنعة
المصنف
المصنفات
المصنفة
المصنوع
المصنوعة
المصور
المصورة
المصورين
المصير
المضاد
المضادات
المضادة
المضارب
المضاربة
المضارع
المضاعفات
المضاف
المضافة
المضرب
المضغوط
المضمار
المضي
المضيف
المضيفة
المضيق
المطار
المطارات
المطاط
المطاعم
المطاف
المطالب
المطالبة
المطبخ
المطبعة
المطبوع
المطبوعات
المطبوعة
المطر
المطران
المطرب
المطعم
المطلب
المطلة
المطلق
المطلقة
المطلوب
المطلوبة
المطيرة
المظالم
المظاهر
المظاهرات
المظفر
المظلم
المظلمة
المظلوم
المظهر
المعابد
المعاد
المعادلات
المعادلة
المعادن
المعادي
المعادية
المعارض
المعارضة
المعارضين
المعارف
المعارك
المعاش
المعاصر
المعاصرة
المعاصرين
المعاصي
المعاكس
المعالج
المعالجات
المعالجة
المعالم
المعالي
المعامل
المعاملات
المعاملة
المعاناة
المعاني
المعاهد
المعاهدات
المعاهدة
المعايير
المعبد
المعبر
المعتاد
المعتادة
المعتدل
المعتدلة
المعترف
المعتز
المعتزلة
المعتصم
المعتضد
المعتقد
المعتقدات
المعتقلين
المعتمد
المعتمدة
المعتمر
المعجبين
المعجزات
المعجزة
المعجم
المعجمة
المعدات
المعدة
المعدل
المعدلة
المعدن
المعدني
المعدنية
المعدية
المعرض
المعرفة
المعرفي
المعرفية
المعركة
المعروضة
المعروف
المعروفة
المعروفين
المعري
المعز
المعسكر
المعصية
المعطيات
المعظم
المعقد
المعقدة
المعقول
المعلق
المعلقة
المعلم
المعلمات
المعلمين
المعلوم
المعلومات
المعلوماتية
المعلومة
المعماري
المعمارية
المعماريين
المعمول
المعنوية
المعنى
المعني
المعنية
المعنيين
المعهد
المعونة
المعوية
المعيار
المعياري
المعيارية
المعيشة
المعيشية
المعين
المعينة
المغادرة
المغاربة
المغازي
المغامرة
المغرب
المغربي
المغربية
المغلقة
المغلوب
المغناطيسي
المغناطيسية
المغني
المغنية
المغول
المغولي
المغولية
المغيرة
المفاتيح
المفاجي
المفاصل
المفاعل
المفاعلات
المفاهيم
المفاوضات
المفتاح
المفترسة
المفترض
المفتش
المفتوح
المفتوحة
المفتي
المفرد
المفردات
المفردة
المفرط
المفرطة
المفروض
المفروضة
المفسرين
المفصل
المفضل
المفضلة
المفعول
المفقود
المفقودة
المفكر
المفكرين
المفهوم
المفوض
المفوضية
المفيد
المفيدة
المقابر
المقابل
المقابلات
المقابلة
المقاتلة
المقاتلين
المقارن
المقارنة
المقاصد
المقاطع
المقاطعات
المقاطعة
المقاعد
المقال
المقالات
المقالة
المقام
المقامات
المقامة
المقاهي
المقاوم
المقاومة
المقاييس
المقبرة
المقبري
المقبل
المقبلة
المقبول
المقبولة
المقتبس
المقتدر
المقترح
المقترحات
المقترحة
المقتول
المقد
المقدار
المقدام
المقدرة
المقدس
المقدسة
المقدسي
المقدم
المقدمات
المقدمة
المقدوني
المقر
المقربين
المقرر
المقررة
المقري
المقريزي
المقصود
المقصورة
المقطع
المقطعي
المقطوعة
المقعد
المقياس
المقيم
المقيمين
المكاتب
المكارم
المكاسب
المكافا
المكافي
المكان
المكانة
المكانية
المكتب
المكتبات
المكتبة
المكتسبة
المكتشفة
المكتوب
المكتوبة
المكثف
المكثفة
المكرمة
المكسيك
المكسيكي
المكسيكية
المكلف
المكون
المكونات
المكونة
المكي
الملا
الملابس
الملاح
الملاحة
الملاحظات
الملاحظة
الملاريا
الملازم
الملاعب
الملاك
الملاكمة
الملاي
الملايو
الملايين
الملة
الملتقى
الملح
الملحق
الملحمة
الملحن
الملحوظة
الملز
الملزمة
الملعب
الملف
الملفات
الملقب
الملك
الملكة
الملكي
الملكية
الملكيين
الملل
الملوثات
الملوثة
الملوك
الملون
الملونة
المليون
المماثلة
الممارسات
الممارسة
الممالك
المماليك
الممتاز
الممتازة
الممتد
الممتدة
الممتلكات
الممثل
الممثلة
الممثلين
الممر
الممرات
الممرضة
الممكن
الممكنة
المملكة
المملوك
المملوكة
المملوكي
الممنوحة
المميز
المميزة
المن
المناجم
المناخ
المناخي
المناخية
المنار
المنارة
المنازعات
المنازل
المناسب
المناسبات
المناسبة
المناصب
المناطق
المناظر
المناظرة
المناعة
المناعي
المناعية
المنافس
المنافسات
المنافسة
المنافسين
المنافع
المنافق
المنافقون
المنافقين
المناقشات
المناقشة
المنام
المنامة
المناهج
المناهضة
المناورة
المنايا
المنبر
المنتج
المنتجات
المنتجة
المنتجين
المنتخب
المنتخبات
المنتخبين
المنتدى
المنتزه
المنتشر
المنتشرة
المنتصر
المنتظر
المنتظم
المنتظمة
المنح
المنحدر
المنحدرات
المنخفض
المنخفضة
المندوب
المندوبية
المنذر
المنزل
المنزلة
المنزلي
المنزلية
المنسوب
المنسوبة
المنشا
المنشور
المنشورات
المنشورة
المنصات
المنصب
المنصة
المنصف
المنصور
المنصورة
المنصوص
المنطق
المنطقة
المنطقي
المنطقية
المنظر
المنظم
المنظمات
المنظمة
المنظور
المنظومة
المنع
المنعم
المنفذ
المنفرد
المنفردة
المنفصلة
المنفعة
المنفى
المنقار
المنقرضة
المنقول
المنقولة
المنكدر
المنكر
المنهال
المنهج
المنهجية
المنورة
المنوفية
المنوية
المنى
المني
المنيا
المنية
المهاجر
المهاجرة
المهاجرون
المهاجرين
المهاجم
المهاجمين
المهارات
المهام
المهبل
المهتمين
المهجر
المهد
المهددة
المهدي
المهدية
المهر
المهرة
المهرجان
المهرجانات
المهلب
المهم
المهمات
المهمة
المهملة
المهن
المهنة
المهندس
المهندسين
المهني
المهنية
المهيمن
المهيمنة
المو
المواجهات
المواجهة
المواد
الموارد
الموارنة
الموازنة
المواسم
المواشي
المواصفات
المواصلات
المواضع
المواضيع
المواطن
المواطنة
المواطنون
المواطنين
الموافق
الموافقة
المواقع
المواقف
الموالي
الموالية
المواليد
الموالين
المواني
المواهب
المواي
الموت
الموتى
الموج
الموجات
الموجب
الموجبة
الموجة
الموجه
الموجهة
الموجود
الموجودات
الموجودة
الموجودين
الموجي
الموحد
الموحدة
الموحدين
المودة
المورد
الموز
الموساد
الموسم
الموسمية
الموسوعة
الموسوي
الموسيقار
الموسيقى
الموسيقي
الموسيقية
الموسيقيين
الموصل
الموصلات
الموصلي
الموصوف
الموصى
الموضة
الموضع
الموضوع
الموضوعات
الموضوعة
الموضوعية
الموطا
الموطن
الموظف
الموظفين
الموعد
الموفق
الموقع
الموقعة
الموقف
الموكل
المولد
المولود
المولى
المولية
الموهوب
المي
الميادين
المياه
الميت
الميتة
الميثاق
الميثان
الميثولوجيا
الميداليات
الميدالية
الميدان
الميداني
الميدانية
الميراث
الميزات
الميزان
الميزانية
الميزة
الميسرة
الميكانيكا
الميكانيكي
الميكانيكية
الميكروبات
الميل
الميلاد
الميلادي
الميليشيات
الميم
الميناء
الميول
الن
النابغة
النابلسي
الناتج
الناتجة
الناتو
الناجح
الناجحة
الناجم
الناجمة
الناجين
الناحية
الناخبين
النادر
النادرة
النادي
النار
النارية
النازي
النازية
النازيين
الناس
الناسخ
الناشر
الناشط
الناشطين
الناشي
الناصر
الناصرة
الناصري
الناصرية
الناطق
الناطقة
الناطقين
الناظر
الناعمة
النافذة
النافع
النافعة
الناقة
الناقد
الناقل
النامية
النانو
النانوية
الناي
النبات
النباتات
النباتي
النباتية
النبالة
النبض
النبطية
النبلاء
النبوة
النبوي
النبوية
النبي
النبيذ
النبيل
النبيلة
النبيين
النتاي
النتيجة
النثر
النجاة
النجاح
النجار
النجاسة
النجاشي
النجف
النجم
النجمة
النجمي
النجمية
النجوم
النحاة
النحاس
النحت
النحر
النحل
النحو
النحوي
النحوية
النخاع
النخامية
النخبة
النخعي
النخل
النخلة
النخيل
النداء
الندوة
الندى
النذر
النرويج
النرويجي
النرويجية
النزاع
النزاعات
النزعة
النزول
النزيف
النساء
النساي
النسب
النسبة
النسبي
النسبية
النسخ
النسخة
النسر
النسق
النسل
النسوة
النسوي
النسوية
النسيان
النسيج
النسيم
النشا
النشاط
النشاطات
النشر
النشرة
النشط
النشطاء
النشطة
النشيد
النص
النصارى
النصب
النصر
النصراني
النصرانية
النصرة
النصف
النصفي
النصوص
النصية
النصيحة
النضال
النضج
النضر
النضير
النطاق
النطاقات
النطق
النظافة
النظام
النظامي
النظامية
النظاي
النظر
النظرة
النظري
النظريات
النظرية
النظم
النظير
النظيفة
النعم
النعمان
النعمة
النعيم
النفاث
النفاق
النفاي
النفايات
النفر
النفس
النفسي
النفسية
النفط
النفطية
النفع
النفق
النفقات
النفقة
النفوذ
النفوس
النفي
النقاب
النقابات
النقابة
النقاد
النقاش
النقاط
النقب
النقد
النقدي
النقدية
النقش
النقص
النقصان
النقض
النقطة
النقل
النقود
النقوش
النقي
النقيب
النقيض
النكاح
النكبة
النماذج
النمر
النمسا
النمساوي
النمساوية
النمط
النمطية
النمل
النمو
النموذج
النموذجي
النموذجية
النهار
النهاي
النهاية
النهج
النهدي
النهر
النهرين
النهضة
النهوض
النهى
النهي
النواب
النواة
النواحي
النوادي
النوافذ
النوبات
النوبة
النور
النوري
النوع
النوعي
النوعية
النوعين
النوم
النون
النووي
النووية
النوى
النيابة
النيابي
النيابية
النية
النيتروجين
النيجر
النيجيرية
النيران
النيسابوري
النيل
النينجا
النيوترونات
النيوزيلندي
النيوزيلندية
اله
الهاء
الهاتف
الهادي
الهاشمي
الهاشمية
الهام
الهامة
الهاي
الهبة
الهبوط
الهجاء
الهجرة
الهجري
الهجمات
الهجوم
الهجومية
الهدايا
الهداية
الهدف
الهدنة
الهدوء
الهدى
الهدي
الهدية
الهذلي
الهذيل
الهرب
الهرم
الهرمون
الهرمونات
الهرمي
الهروب
الهروي
الهزيمة
الهسبانيون
الهضبة
الهضم
الهضمي
الهلاك
الهلال
الهلالي
الهم
الهمداني
الهمزة
الهموم
الهند
الهندسة
الهندسي
الهندسية
الهندوس
الهندوسية
الهندي
الهندية
الهنود
الهواء
الهواة
الهواتف
الهواي
الهوكي
الهول
الهولندي
الهولندية
الهولنديين
الهولوكوست
الهوى
الهوية
الهياكل
الهيثم
الهيدروجين
الهيكل
الهيكلي
الهيكلية
الهيليوم
الهيمنة
الهيي
الو
الواجب
الواجبات
الواجبة
الواجهة
الواحد
الواحدة
الواد
الوادي
الوارث
الوارد
الواردات
الواردة
الواسطي
الواسع
الواسعة
الواضح
الواضحة
الوافدين
الواقدي
الواقع
الواقعة
الواقعي
الواقعية
الواقف
الوالد
الوالدين
الوالي
الواو
الوباء
الوباي
الوتر
الوثاي
الوثنية
الوثيقة
الوجبات
الوجد
الوجه
الوجهة
الوجهين
الوجوب
الوجود
الوجوه
الوحدات
الوحدة
الوحش
الوحشي
الوحشية
الوحوش
الوحي
الوحيد
الوحيدة
الود
الوداد
الوداع
الوديان
الودية
الوراء
الوراثة
الوراثي
الوراثية
الوراق
الورثة
الورد
الوردي
الوردية
الورع
الورق
الورقة
الورقية
الورك
الورم
الورود
الورى
الوريد
الوريدي
الوزارات
الوزارة
الوزاري
الوزراء
الوزن
الوزير
الوسام
الوساي
الوسط
الوسطى
الوسطي
الوسيط
الوسيلة
الوصايا
الوصاية
الوصف
الوصل
الوصلة
الوصول
الوصي
الوصية
الوصيف
الوضع
الوضعية
الوضوء
الوضوح
الوطء
الوطن
الوطني
الوطنية
الوطنيين
الوظاي
الوظيفة
الوظيفي
الوظيفية
الوعاء
الوعاي
الوعد
الوعي
الوعيد
الوغى
الوفاء
الوفاة
الوفاق
الوفد
الوفيات
الوقاي
الوقاية
الوقت
الوقف
الوقود
الوقوع
الوقوف
الوكالات
الوكالة
الوكيل
الولاء
الولاة
الولادة
الولايات
الولاية
الولد
الولوج
الولي
الوليد
الوهاب
الوهم
الويب
الويلزية
الى
الي
اليا
الياء
اليابان
الياباني
اليابانية
اليابانيون
اليابانيين
اليابسة
الياس
اليتيم
اليد
اليدوي
اليدوية
اليدين
اليرموك
اليسار
اليساري
اليسارية
اليسرى
اليسير
اليقظة
اليقين
اليك
اليمامة
اليمان
اليماني
اليمن
اليمنى
اليمني
اليمنية
اليمنيين
اليمين
الينابيع
اليه
اليها
اليهم
اليهود
اليهودي
اليهودية
اليوتيوب
اليود
اليورانيوم
اليورو
اليوسف
اليولياني
اليوم
اليومي
اليومية
اليونان
اليوناني
اليونانية
اليونانيون
اليونانيين
اليونسكو
ام
اما
امام
امة
امتحان
امتد
امتداد
امتدت
امتصاص
امتلا
امتلاك
امتلك
امتناع
امتنع
امتياز
امتيازات
امر
امرا
امرات
امرة
امرو
امري
امه
ان
انا
انبعاثات
انت
انتباه
انتحار
انتخاب
انتخابات
انتخابه
انتخابها
انتخابية
انتخب
انتشار
انتشارا
انتشر
انتشرت
انتصار
انتصارات
انتصر
انتظار
انتظام
انتفاء
انتفاضة
انتقاد
انتقادات
انتقال
انتقاله
انتقالية
انتقام
انتقاي
انتقد
انتقدت
انتقل
انتقلت
انتقلوا
انتهاء
انتهاك
انتهاكات
انتهت
انتهى
انحراف
انحلال
انخرط
انخفاض
انخفض
انخفضت
اند
اندلاع
اندلع
اندلعت
اندماج
اندمجت
انسحاب
انسحب
انسحبت
انسداد
انصرف
انضم
انضمام
انضمت
انطلاق
انطلاقا
انطلق
انطلقت
انظر
انظروا
انعدام
انعقاد
انعقد
انعكاس
انفجار
انفجرت
انفرد
انفصال
انفصل
انفصلت
انقراض
انقسام
انقسمت
انقضاء
انقضت
انقطاع
انقطع
انقطعت
انقلاب
انك
انما
انه
انها
انهار
انهارت
انهم
انهيار
اني
اه
اها
اهتم
اهتمام
اهتماما
اهتمامه
اهتمامها
اهـ
اهل
او
اوپن
اي
ايضا
اين
ايه
ایران
ب
با
باء
باب
بابا
بابك
بابل
بابلو
بابن
بابه
بابها
بابوا
بابيليو
بات
باتباع
باتت
باتجاه
باتخاذ
باترسون
باتريشيا
باتريك
باتفاق
باتفاقيات
باتفاقية
باتل
باتلر
باتمان
باتون
باتي
باتيستا
باث
باح
باحة
باحترام
باحث
باحثون
باحية
باختصار
باختلاف
باختيار
باد
بادة
بادر
بادن
بادي
بادية
بار
بارا
باراغواي
باراك
باربرا
بارت
بارتفاع
بارتكاب
بارتون
بارد
باردة
بارز
بارزا
بارزة
بارسونز
بارع
بارق
بارك
باركر
باركنسون
بارما
بارنز
بارو
بارون
باري
باريت
باريس
باز
بازل
باس
باستثناء
باستخدام
باستعمال
باستقلال
باستمرار
باسكال
باسكت
باسل
باسم
باسمه
باسمها
باش
باشا
باشر
باضطراب
باط
باطرة
باطل
باطلا
باطلة
باطن
باظة
باع
باعت
باعتبار
باعتباره
باعتبارها
باعه
باغ
بافاريا
بافيا
باق
باقر
باقي
باقية
باك
باكستان
باكستاني
باكو
بال
بالا
بالاتحاد
بالاتفاق
بالاس
بالاسم
بالاشتراك
بالاعتماد
بالانتخابات
بالانقراض
بالباطل
بالبحث
بالبرتغالية
بالبشر
بالبصرة
بالبطولة
بالبقاء
بالبلاد
بالبلدة
بالبلدين
بالبلغارية
بالبولندية
بالبيت
بالت
بالتا
بالتاريخ
بالتالي
بالتجارة
بالتجزي
بالتحديد
بالتحقيق
بالتدريس
بالتركية
بالترميز
بالتزامن
بالتساوي
بالتشيكية
بالتعادل
بالتعاون
بالتعليم
بالتفصيل
بالتمثيل
بالتنسيق
بالتهاب
بالتوقيت
بالتيمور
بالثقافة
بالجامعة
بالجاي
بالجزاي
بالجملة
بالجمهورية
بالجنة
بالجنس
بالجيش
بالح
بالحب
بالحبس
بالحج
بالحجارة
بالحجر
بالحديث
بالحرب
بالحركة
بالحروف
بالحرية
بالحصول
بالحق
بالحقوق
بالحقيقة
بالحكم
بالحكومة
بالحياة
بالخارج
بالخروج
بالخط
بالخلافة
بالخيار
بالخير
بالد
بالدار
بالدخول
بالدرجة
بالدم
بالدنماركية
بالدوري
بالدولار
بالدولة
بالدوين
بالدين
بالذات
بالذكر
بالذكرى
بالذنب
بالذهب
بالذي
بالر
بالرا
بالرباط
بالرجال
بالرجل
بالرصاص
بالرغم
بالرمز
بالرنين
بالروسية
بالروماجي
بالرومانية
بالري
بالرياض
بالزراعة
بالزواج
بالس
بالسجن
بالسرطان
بالسفر
بالسكان
بالسلاح
بالسنة
بالسويدية
بالسياسة
بالسيطرة
بالسيف
بالش
بالشام
بالشعر
بالشكل
بالشيء
بالصبر
بالصحة
بالصربية
بالصلاة
بالصور
بالصينية
بالضبط
بالضربة
بالضرورة
بالضغط
بالضم
بالطاقة
بالطاي
بالطبع
بالطرق
بالطريقة
بالطلاق
بالظهور
بالع
بالعاصمة
بالعالم
بالعبرية
بالعدل
بالعديد
بالعراق
بالعربي
بالعربية
بالعقد
بالعقل
بالعكس
بالعلم
بالعلوم
بالعمل
بالعودة
بالعين
بالغ
بالغا
بالغة
بالفارسية
بالفتح
بالفرنسية
بالفشل
بالفعل
بالفن
بالفنلندية
بالفوز
بالفيديو
بالفيروس
بالق
بالقانون
بالقاهرة
بالقبض
بالقتل
بالقدر
بالقدرة
بالقدس
بالقرا
بالقراءة
بالقرب
بالقرية
بالقضاء
بالقلب
بالقوات
بالقوة
بالقول
بالقوي
بالقياس
بالقيام
بالك
بالكا
بالكاد
بالكامل
بالكانا
بالكتاب
بالكتابة
بالكثير
بالكذب
بالكردية
بالكرواتية
بالكسر
بالكفر
بالكلام
بالكلية
بالكورية
بالكوفة
بالكويكبات
بالل
باللاتينية
باللسان
باللعب
باللغات
باللغة
باللغتين
باللقب
بالله
باللهجة
باللون
بالليل
بالم
بالما
بالماء
بالمال
بالماي
بالمثل
بالمجرية
بالمجلس
بالمدارس
بالمدرسة
بالمدينة
بالمر
بالمرا
بالمرحلة
بالمرض
بالمركبات
بالمركز
بالمسجد
بالمشاركة
بالمعروف
بالمعنى
بالمعهد
بالمغرب
بالمقابل
بالمقارنة
بالملك
بالمملكة
بالمنطقة
بالمو
بالموت
بالمي
بالمياه
بالميدالية
بالن
بالنار
بالناس
بالنبي
بالنرويجية
بالنساء
بالنسب
بالنسبة
بالنص
بالنظام
بالنظر
بالنفس
بالنهار
بالنيابة
بالهجوم
بالهند
بالهواء
بالهولندية
بالو
بالوصول
بالوقود
بالوكالة
بالولايات
بالي
بالياء
باليابانية
باليد
باليرمو
باليمن
باليوم
باليونانية
بامتياز
بامرا
بان
بانة
بانتصار
بانتظام
بانزر
بانك
بانكس
بانكوك
بانه
باني
بانياس
باه
باها
باهتمام
باهظة
باو
باور
باول
باولا
باولو
باوند
باي
بايت
بايدن
باير
بايرن
بايرون
بايزيد
بايع
باين
باڤار
بباب
بباريس
ببرنامج
ببساطة
ببطء
ببطولة
ببعض
ببعضها
ببغداد
ببلاد
ببمد
ببناء
ببيان
ببيت
ببيع
بة
بت
بتا
بتاريخ
بتحديد
بتحرير
بتحقيق
بتحليل
بتحويل
بتدريب
بتدريس
بتدمير
بترتيب
بترجمة
بترك
بتسجيل
بتسليم
بتسمية
بتشغيل
بتشكيل
بتصميم
بتصوير
بتطبيق
بتطوير
بتعديل
بتعليم
بتعيين
بتغير
بتغيير
بتقدير
بتقديم
بتقنية
بتكلفة
بتكليف
بتكوين
بتلر
بتلك
بتمويل
بتنظيم
بتنفيذ
بتهمة
بتوجيه
بتوزيع
بتوسيع
بتوفير
بتوقيت
بتوقيع
بتونس
بث
بثقة
بثلاث
بثلاثة
بثمن
بثه
بثها
بجامع
بجامعة
بجانب
بجاي
بجاية
بجبل
بجد
بجدة
بجدية
بجروح
بجسم
بجماعة
بجمع
بجمهورية
بجميع
بجنوب
بجوار
بجولة
بجيش
بح
بحاث
بحاثه
بحاجة
بحار
بحال
بحالة
بحب
بحث
بحثا
بحثه
بحثي
بحثية
بحجة
بحجم
بحد
بحدوث
بحدود
بحديث
بحر
بحرف
بحركة
بحري
بحرية
بحريني
بحساب
بحسب
بحسن
بحضرة
بحضور
بحق
بحقه
بحقوق
بحقيقة
بحكم
بحكومة
بحل
بحلب
بحلول
بحماية
بحمد
بحملة
بحوالي
بحوث
بحي
بحياة
بحيث
بحيرات
بحيرة
بخ
بخار
بخارى
بخاري
بخازيا
بخبر
بخصوص
بخط
بخلاف
بخلق
بخمس
بخمسة
بخير
بد
بدء
بدءا
بدا
بداء
بداخل
بداخلها
بدار
بداع
بداعي
بداعية
بدافع
بدال
بدان
بداي
بدايات
بداياته
بداية
بدايته
بدايتها
بدت
بدخول
بدر
بدرا
بدراسة
بدرجات
بدرجة
بدع
بدعة
بدعم
بدعوة
بدعوى
بدفع
بدقة
بدل
بدلا
بدليل
بدم
بدمشق
بدن
بدنه
بدو
بدوام
بدور
بدوره
بدورها
بدوري
بدورية
بدولة
بدون
بدوي
بدى
بدي
بدية
بدير
بديع
بديعة
بديل
بديلا
بديلة
بدين
بذات
بذاته
بذاتها
بذاك
بذرة
بذكر
بذل
بذلت
بذلك
بذور
بذي
بر
برا
براء
براءات
براءة
برات
براج
براد
برادفورد
برادلي
برار
براز
برازيلي
برازيلية
براغ
برام
برامج
برامجها
براندنبورغ
براندون
براهام
براهيم
براهيمي
براون
براي
برايان
برايتون
برايس
براين
برة
برت
برتبة
برتغالي
برج
برجل
برحلة
برخصة
برد
بردة
بردين
برز
برزت
برزها
برزهم
برس
برسالة
برسم
برسول
برشلونة
برشية
برصيد
برع
برعاية
برغم
برفع
برفقة
برق
برقة
برقم
برقية
برك
بركات
بركان
بركة
بركلات
برلمان
برلماني
برلمانية
برلين
برمجة
برمجيات
برمنغهام
برميل
برن
برنارد
برنامج
برنامجا
برنامجه
برهان
برهة
برو
برواية
بروتوكول
بروتوكولات
بروتين
بروتينات
بروح
بروخروف
برودواي
بروز
بروس
بروسيا
بروفيسور
بروك
بروكس
بروكسل
بروكلين
بروكهوس
بروناي
برونزويك
برونزية
برونو
بري
بريء
برياء
بريان
برية
بريت
بريتانيكا
بريد
بريدة
بريس
بريسا
بريستول
بريستون
بريطاني
بريطانيا
بريطانية
بريق
بريل
بريمن
برينز
برينستون
بريي
بزاوية
بزراعة
بزرگ
بزعامة
بزيادة
بزيارة
بس
بساتين
بسام
بسبب
بسببه
بسبع
بست
بستان
بستة
بسحب
بسر
بسرطان
بسرعة
بسط
بسعة
بسعر
بسلام
بسلسلة
بسم
بسمارك
بسمة
بسن
بسنة
بسند
بسهم
بسهولة
بسوء
بسيط
بسيطة
بش
بشا
بشار
بشارة
بشارع
بشبكة
بشخصية
بشدة
بشر
بشرا
بشراء
بشرط
بشركة
بشرى
بشري
بشرية
بشعبية
بشكل
بشمال
بشهادة
بشو
بشي
بشيء
بشير
بصار
بصارهم
بصحبة
بصحة
بصدد
بصر
بصرف
بصره
بصري
بصرية
بصفات
بصفة
بصفته
بصفتها
بصفحات
بصمة
بصناعة
بصوت
بصورة
بصير
بصيرة
بصيغة
بض
بضاي
بضرب
بضرورة
بضع
بضعة
بضم
بط
بطا
بطاء
بطارية
بطاقات
بطاقة
بطال
بطانة
بطاي
بطبقة
بطبيب
بطبيعة
بطبيعتها
بطرس
بطرسبرغ
بطرق
بطريرك
بطريق
بطريقة
بطل
بطلا
بطلان
بطلب
بطلة
بطلت
بطليموس
بطن
بطنه
بطنها
بطوطة
بطول
بطولات
بطولة
بطوله
بطون
بطيء
بطيي
بظهور
بع
بعاد
بعام
بعامين
بعبارة
بعبد
بعت
بعث
بعثات
بعثة
بعثت
بعثني
بعثه
بعد
بعدا
بعدان
بعدة
بعدد
بعدك
بعدم
بعدما
بعده
بعدها
بعدهم
بعدي
بعرض
بعرفة
بعشر
بعشرة
بعض
بعضا
بعضكم
بعضنا
بعضه
بعضها
بعضهم
بعضهما
بعقد
بعكس
بعلبك
بعلم
بعلمه
بعمر
بعمق
بعمل
بعمله
بعمليات
بعملية
بعناية
بعنوان
بعيد
بعيدا
بعيدة
بعير
بعين
بعينه
بعينها
بغداد
بغرض
بغزة
بغزو
بغض
بغية
بغير
بغيره
بغيرها
بـ
بف
بفارق
بفتح
بفترة
بفرض
بفرنسا
بفضل
بفعالية
بفعل
بفكرة
بفوز
بفيروس
بق
بقاء
بقار
بقاع
بقانون
بقاي
بقايا
بقبول
بقت
بقتل
بقتله
بقدر
بقدرة
بقدرته
بقراءة
بقرار
بقراط
بقرب
بقرة
بقرية
بقسم
بقصد
بقصر
بقضاء
بقضايا
بقطر
بقطع
بقع
بقعة
بقلب
بقلبه
بقلم
بقليل
بقوا
بقوة
بقول
بقوله
بقولهم
بقوم
بقى
بقي
بقيادة
بقياس
بقية
بقيت
بقيمة
بقين
بك
بكا
بكاء
بكار
بكافة
بكالوريوس
بكامل
بكتاب
بكتابة
بكتابه
بكتيريا
بكثافة
بكثرة
بكثير
بكذا
بكر
بكرة
بكسر
بكسل
بكفاءة
بكل
بكلام
بكلمات
بكلمة
بكلية
بكم
بكميات
بكونه
بكونها
بكى
بكي
بكير
بكين
بل
بلا
بلاء
بلاد
بلادنا
بلاده
بلادها
بلادهم
بلادي
بلاط
بلاغ
بلاك
بلاكبيرن
بلال
بلانك
بلاي
بلة
بلجيكا
بلجيكي
بلخ
بلد
بلدا
بلدات
بلدان
بلدة
بلده
بلدي
بلديات
بلدية
بلس
بلسان
بلسانه
بلغ
بلغات
بلغاري
بلغاريا
بلغة
بلغت
بلغراد
بلغنا
بلغني
بلغه
بلغوا
بلفاست
بلفظ
بلقب
بلندن
بلنسية
بله
بلو
بلوتو
بلورات
بلوس
بلوغ
بلوغه
بلوك
بلوم
بلون
بلى
بلي
بليت
بلير
بليز
بليس
بليك
بليموث
بم
بما
بماء
بمال
بماله
بماي
بمبلغ
بمتلازمة
بمتوسط
بمثابة
بمثل
بمثله
بمثلها
بمجرد
بمجلة
بمجلس
بمجموع
بمجموعة
بمحافظة
بمحاولة
بمحتويات
بمحرك
بمحمد
بمختلف
بمدرسة
بمديرية
بمدينة
بمرض
بمركز
بمرور
بمزيد
بمساحة
بمساعدة
بمسافة
بمستشفى
بمستوى
بمشاركة
بمشيي
بمصر
بمعدل
بمعرفة
بمعناه
بمعنى
بمعهد
بمفرده
بمقاطعة
بمقتضى
بمقدار
بمكان
بمكة
بملك
بممارسة
بمن
بمناسبة
بمنح
بمنزلة
بمنصب
بمنطقة
بمنع
بمنى
بمهاجمة
بمهام
بمهمة
بمو
بموافقة
بموت
بموجب
بموجبه
بموجبها
بموسوعة
بموقع
بميدالية
بن
بنا
بناء
بناءه
بنات
بنادي
بنان
بناه
بناها
بناو
بناي
بنة
بنت
بنتاي
بنته
بنتيجة
بنجاح
بنجامين
بنحو
بنحوه
بند
بندار
بندر
بندقية
بنز
بنسب
بنسبة
بنسلفانيا
بنسيلفانيا
بنشاط
بنشر
بنص
بنصف
بنظام
بنغازي
بنغلاديش
بنفس
بنفسك
بنفسه
بنفسها
بنفسي
بنقل
بنك
بنما
بنه
بنهاية
بنو
بنوا
بنود
بنور
بنوع
بنى
بني
بنيامين
بنية
بنيت
بنين
بنيه
بنيويورك
به
بها
بهاء
بهام
بهجة
بهجت
بهجوم
بهدف
بهذا
بهذه
بهر
بهرام
بهز
بهزيمة
بهم
بهما
بهن
بهو
بهيي
بو
بوا
بواب
بوابات
بوابة
بوابها
بواحد
بوادي
بواسطة
بواقع
بوب
بوبكر
بوبي
بوة
بوت
بوتان
بوتر
بوتسوانا
بوتو
بوتين
بوجه
بوجهه
بوجوب
بوجود
بوحدة
بوخارست
بود
بودابست
بوذا
بور
بوربون
بورت
بورتر
بورتسموث
بورتلاند
بورتو
بورتوريكو
بوردو
بورسعيد
بورصة
بورقيبة
بورك
بوركينا
بورما
بورن
بوروسيا
بوروندي
بوري
بوريس
بوزارة
بوزن
بوس
بوساطة
بوساي
بوست
بوسط
بوسطن
بوش
بوصة
بوصف
بوصفه
بوصفها
بوضع
بوضوح
بوظبي
بوفاة
بوفالو
بوقت
بوقف
بوك
بوكر
بوكس
بوكيمون
بول
بولا
بولاية
بولتون
بولز
بولس
بولندا
بولندي
بولو
بولونيا
بولي
بوليفار
بوليفيا
بولين
بوليوود
بوم
بون
بونابرت
بوند
بوني
بوه
بوها
بوهيميا
بوي
بوية
بويد
بويز
بويل
بوين
بوينت
بوينس
بوينغ
بويه
بى
بي
بيا
بيات
بياتريس
بيار
بياض
بيان
بيانا
بيانات
بيانه
بيانو
بيب
بيبرس
بيبي
بيت
بيتا
بيتر
بيترز
بيترسون
بيترو
بيتس
بيتسبرغ
بيتش
بيتك
بيته
بيتها
بيتي
بيث
بيج
بيح
بيد
بيدرو
بيده
بيدي
بيديه
بير
بيرت
بيرد
بيرس
بيرسون
بيرسي
بيرغ
بيرغر
بيرك
بيركلي
بيرل
بيرن
بيرو
بيروت
بيروفي
بيري
بيريرا
بيريز
بيزنس
بيس
بيساو
بيشوب
بيض
بيضاء
بيضة
بيع
بيعة
بيعت
بيعه
بيعها
بيغ
بيفرلي
بيك
بيكر
بيكون
بيل
بيلا
بيلاروسيا
بيلبورد
بيلي
بيمينه
بين
بينا
بينة
بينت
بينتو
بينغ
بينك
بينكم
بينما
بيننا
بينه
بينها
بينهم
بينهما
بينهن
بيني
بينيت
بينيزيت
بيه
بيها
بيهم
بيو
بيوت
بيوتهم
بيوس
بيوم
بيي
بيير
ة
ت
تا
تاء
تاب
تابع
تابعا
تابعة
تابعه
تابعي
تاتورك
تاج
تاجر
تاح
تاحة
تارة
تارك
تاركا
تاركة
تارودانت
تاريخ
تاريخه
تاريخها
تاريخي
تاريخيا
تاريخية
تازة
تافيلالت
تاك
تاكاما
تاكاو
تاكر
تاكسونوميكون
تال
تام
تاما
تامة
تامر
تان
تانا
تانغ
تاني
تاه
تاهم
تاو
تاون
تاونات
تاي
تايلاند
تايلر
تايلور
تايم
تايمز
تايوان
تب
تبادل
تبارك
تباع
تباعه
تباعهم
تباين
تبت
تبث
تبحث
تبدا
تبدل
تبدو
تبديل
تبرز
تبرع
تبري
تبريد
تبريز
تبطل
تبع
تبعا
تبعث
تبعد
تبعه
تبق
تبقى
تبكي
تبلغ
تبن
تبنت
تبنى
تبني
تبوك
تبي
تبيع
تبين
تة
تت
تتا
تتابع
تتبع
تتبعها
تتجاوز
تتجلى
تتجمع
تتجه
تتحدث
تتحرك
تتحقق
تتحكم
تتحمل
تتحول
تتخذ
تتداخل
تتدفق
تتراوح
تترك
تتركز
تتزوج
تتسبب
تتسع
تتسم
تتشابه
تتشارك
تتشكل
تتصل
تتضم
تتضمن
تتطلب
تتطور
تتعارض
تتعامل
تتعدى
تتعرض
تتعلق
تتغذى
تتغير
تتفاعل
تتفق
تتقدم
تتكرر
تتكلم
تتكون
تتلقى
تتلمذ
تتم
تتمة
تتمتع
تتمثل
تتمحور
تتمكن
تتميز
تتناسب
تتنافس
تتناول
تتنوع
تتواجد
تتوافق
تتوزع
تتوفر
تتوقف
تتولى
تتويج
تتيح
تثبت
تثبيت
تثبيط
تثير
تجار
تجارب
تجاربه
تجارة
تجاري
تجاريا
تجارية
تجاه
تجاهل
تجاهله
تجاوز
تجاوزت
تجب
تجتمع
تجد
تجدد
تجده
تجديد
تجديف
تجذب
تجر
تجربة
تجربته
تجرى
تجري
تجريبي
تجريبية
تجريد
تجزي
تجسد
تجسيد
تجعل
تجعله
تجلس
تجلى
تجمع
تجمعات
تجميع
تجنب
تجنيد
تجهيز
تجوز
تجويف
تح
تحاد
تحافظ
تحالف
تحاول
تحب
تحت
تحتاج
تحتفظ
تحتفل
تحتل
تحتمل
تحته
تحتها
تحتوي
تحتية
تحد
تحدث
تحدثت
تحدد
تحدها
تحدي
تحديات
تحديث
تحديد
تحديدا
تحديده
تحديدها
تحذير
تحر
تحرر
تحرك
تحركت
تحرم
تحرير
تحريرها
تحريف
تحريك
تحريم
تحس
تحسب
تحسن
تحسين
تحسينات
تحصل
تحصيل
تحضر
تحضير
تحطم
تحطمت
تحطيم
تحظر
تحظى
تحف
تحفة
تحفظ
تحفيز
تحقق
تحققت
تحقيق
تحقيقا
تحقيقات
تحقيقه
تحقيقها
تحكم
تحكي
تحكيم
تحل
تحلل
تحليل
تحليلية
تحمل
تحمله
تحمي
تحميل
تحو
تحول
تحولت
تحوي
تحويل
تحويله
تحويلها
تحية
تحيط
تخالف
تختار
تختص
تختفي
تختلف
تخدم
تخذ
تخرج
تخرجت
تخرجه
تخريج
تخزين
تخشى
تخص
تخصص
تخصصات
تخصيص
تخضع
تخطط
تخطي
تخطيط
تخفيض
تخفيف
تخل
تخلت
تخلف
تخلق
تخلو
تخلى
تخيل
تد
تدابير
تداخل
تدار
تدافع
تداول
تدبير
تدخل
تدر
تدرب
تدرج
تدرس
تدرك
تدري
تدريب
تدريبية
تدريجي
تدريجيا
تدريس
تدع
تدعم
تدعو
تدعى
تدعي
تدفع
تدفق
تدل
تدمر
تدمير
تدهور
تدور
تدوم
تدوير
تدوين
تدير
تديرها
تدين
تذكاري
تذكر
تذكرة
تذهب
تر
ترا
تراب
تراث
تراجع
تراجعت
تراجم
ترافيس
تراك
تراكم
ترامب
تراه
تراها
تربة
تربط
تربطها
تربية
ترتب
ترتبط
ترتدي
ترتفع
ترتكز
ترتيب
ترجع
ترجم
ترجمة
ترجمت
ترجمته
ترجمتها
ترجمه
ترجيح
ترحيل
ترخيص
ترد
تردد
ترسل
ترشح
ترشيح
ترشيحات
ترشيحه
ترضى
ترعى
ترغب
ترفض
ترفع
ترقى
ترقية
ترقيته
ترك
تركت
تركته
تركز
تركمانستان
تركه
تركها
تركوا
تركي
تركيا
تركيب
تركيبة
تركيبها
تركية
تركيز
ترمز
ترمي
ترميز
ترميم
ترومان
ترون
تروي
ترى
تري
تريبيون
تريد
تريسي
تريفور
تريليون
تريم
ترينيداد
تزال
تزامن
تزايد
تزداد
تزرع
تزعم
تزل
تزن
تزو
تزوج
تزوجت
تزوجها
تزود
تزول
تزويد
تزيد
تسا
تسارع
تساعد
تسافر
تساقط
تساهم
تساو
تساوي
تسبب
تسببت
تسبق
تستا
تستجيب
تستحق
تستخدم
تستخدمها
تستضيف
تستطع
تستطيع
تستعمل
تستغرق
تستفيد
تستقبل
تستقر
تستمر
تستند
تستهدف
تسجل
تسجيل
تسجيلات
تسجيله
تسجيلها
تسخين
تسرب
تسريع
تسع
تسعة
تسعى
تسعين
تسعينيات
تسقط
تسكن
تسل
تسلسل
تسلق
تسلم
تسليط
تسليم
تسليمه
تسم
تسمح
تسمع
تسمم
تسمى
تسمي
تسمية
تسميته
تسميتها
تسهل
تسهم
تسهيل
تسوية
تسويق
تسي
تسير
تسيطر
تسيير
تش
تشاء
تشابه
تشاد
تشارك
تشارلز
تشارلي
تشاك
تشان
تشانغ
تشاو
تشبه
تشبيه
تشترك
تشتمل
تشتهر
تشجع
تشجيع
تشخيص
تشرح
تشرشل
تشرف
تشريح
تشريع
تشريعات
تشريعية
تشرين
تشعر
تشغل
تشغيل
تشغيلها
تشفير
تشك
تشكل
تشكلت
تشكيل
تشكيلات
تشكيلة
تشكيلها
تشمل
تشن
تشهد
تشو
تشونغ
تشوه
تشوهات
تشوي
تشويه
تشي
تشير
تشيس
تشيكوسلوفاكيا
تشيكي
تشيلسي
تشيلي
تشين
تشينغ
تشييد
تصادم
تصاعد
تصال
تصاميم
تصانيف
تصب
تصبح
تصح
تصحيح
تصدر
تصدرت
تصدق
تصدير
تصديق
تصر
تصرف
تصرفات
تصرفه
تصريح
تصريحات
تصريف
تصريفات
تصغير
تصف
تصفح
تصفيات
تصفية
تصل
تصلب
تصلح
تصلي
تصميم
تصميمات
تصميمه
تصميمها
تصنع
تصنف
تصنيع
تصنيعها
تصنيف
تصنيفات
تصنيفها
تصور
تصويت
تصوير
تصويره
تصويرها
تصويرية
تصيب
تصير
تضاعف
تضاف
تضخم
تضر
تضرب
تضع
تضم
تضمن
تضمنت
تضمين
تضيف
تضيق
تطابق
تطالب
تطبق
تطبيق
تطبيقات
تطبيقه
تطبيقها
تطرح
تطل
تطلب
تطلع
تطلق
تطهير
تطو
تطوان
تطور
تطورا
تطورات
تطورت
تطوع
تطوير
تطويره
تطويرها
تطير
تظاهر
تظل
تظن
تظهر
تع
تعادل
تعارض
تعاطي
تعاقب
تعال
تعالج
تعالى
تعاليم
تعامل
تعاني
تعاون
تعاونت
تعاونية
تعب
تعبد
تعبر
تعبي
تعبير
تعتبر
تعترف
تعتقد
تعتمد
تعجب
تعد
تعداد
تعدادي
تعدد
تعدل
تعديل
تعديلات
تعدين
تعذر
تعذيب
تعر
تعرض
تعرضت
تعرضه
تعرضها
تعرضوا
تعرف
تعرفه
تعريب
تعريض
تعريف
تعريفات
تعريفه
تعريفها
تعز
تعزز
تعزيز
تعطل
تعطى
تعطي
تعطيل
تعظيم
تعقب
تعقد
تعقيد
تعقيدا
تعكس
تعل
تعلق
تعلم
تعلمت
تعلمه
تعلموا
تعلمون
تعلن
تعلو
تعليق
تعليقات
تعليم
تعليمات
تعليمه
تعليمها
تعليمي
تعليمية
تعم
تعمد
تعمل
تعميم
تعنى
تعني
تعهد
تعود
تعويض
تعويضات
تعيد
تعيش
تعين
تعيين
تعيينه
تعيينها
تغذية
تغريدة
تغطي
تغطية
تغلب
تغلق
تغني
تغي
تغيب
تغير
تغيرات
تغيرت
تغيير
تغييرات
تفاصيل
تفاعل
تفاعلات
تفاق
تفاقم
تفاقية
تفاهم
تفاوت
تفتح
تفترض
تفتقر
تفتيش
تفجير
تفجيرات
تفر
تفرد
تفرض
تفرق
تفريغ
تفسر
تفسير
تفسيرات
تفسيره
تفسيرها
تفشي
تفصل
تفصيل
تفصيلي
تفضل
تفضيل
تفعل
تفعيل
تفقد
تفكر
تفكك
تفكير
تفكيك
تفهم
تفوز
تفوق
تفويض
تفيد
تقابل
تقاتل
تقارب
تقارير
تقاسم
تقاطع
تقاعد
تقاعده
تقاليد
تقام
تقان
تقانة
تقبل
تقترب
تقترح
تقتصر
تقتضي
تقتل
تقد
تقدر
تقدم
تقدما
تقدمت
تقدمه
تقدمها
تقدير
تقديرا
تقديرات
تقديره
تقديم
تقديمه
تقديمها
تقر
تقرا
تقرب
تقرر
تقريب
تقريبا
تقرير
تقريرا
تقريره
تقسم
تقسيم
تقسيمها
تقصد
تقضي
تقطع
تقع
تقف
تقل
تقلب
تقلد
تقلص
تقلل
تقليد
تقليدي
تقليديا
تقليدية
تقليص
تقليل
تقم
تقمص
تقن
تقني
تقنيات
تقنية
تقود
تقول
تقولوا
تقولون
تقوم
تقوى
تقوية
تقويم
تقي
تقيم
تقييد
تقييم
تقييمات
تك
تكاثر
تكاد
تكافو
تكاليف
تكام
تكامل
تكتب
تكتشف
تكثر
تكرار
تكرر
تكره
تكريم
تكريما
تكساس
تكسير
تكشف
تكفل
تكفي
تكل
تكلف
تكلفة
تكلم
تكليف
تكم
تكمل
تكملة
تكمن
تكن
تكنولوجيا
تكو
تكون
تكونت
تكونوا
تكوين
تكييف
تل
تلا
تلاف
تلال
تلاميذ
تلاميذه
تلانتا
تلاه
تلاوة
تلبث
تلبس
تلبية
تلة
تلت
تلتزم
تلتقي
تلتيك
تلتيكو
تلحق
تلخيص
تلد
تلزم
تلسكوب
تلعب
تلغراف
تلف
تلفاز
تلفت
تلفزيون
تلفزيوني
تلفزيونية
تلفظ
تلق
تلقاء
تلقاي
تلقت
تلقوا
تلقى
تلقي
تلك
تلمسان
تلميذ
تلميذه
تلو
تلوث
تلي
تليها
تم
تماثل
تماثيل
تمارس
تمام
تماما
تمان
تمت
تمتاز
تمتة
تمتد
تمتع
تمتلك
تمثال
تمثل
تمثلت
تمثيل
تمثيلية
تمد
تمدد
تمديد
تمر
تمرا
تمرات
تمرد
تمرير
تمريض
تمزق
تمس
تمسك
تمشي
تمضي
تمك
تمكن
تمكنت
تمكنوا
تمكين
تملا
تملك
تمن
تمنح
تمنع
تمنى
تمهيد
تموت
تموز
تمويل
تميز
تميزت
تميل
تميم
تمييز
تن
تنا
تنازع
تنازل
تناسب
تنافس
تناقش
تناقض
تنال
تنام
تناول
تناولت
تناوله
تناولها
تنبا
تنبت
تنبع
تنبو
تنبيه
تنتج
تنتجها
تنتشر
تنتظر
تنتقل
تنتمي
تنتهي
تنجح
تنحدر
تنخفض
تندرج
تنزانيا
تنزل
تنزيل
تنس
تنسب
تنسى
تنسيق
تنشا
تنشر
تنشط
تنشي
تنشيط
تنص
تنصيب
تنضم
تنطبق
تنطق
تنطلق
تنطوي
تنظر
تنظم
تنظيف
تنظيم
تنظيمه
تنظيمها
تنفذ
تنفس
تنفع
تنفيذ
تنفيذه
تنفيذها
تنفيذي
تنفيذية
تنقسم
تنقطع
تنقل
تنقية
تنكر
تنمو
تنمية
تنوع
تني
ته
تها
تهامة
تهب
تهتم
تهدد
تهدف
تهدي
تهديد
تهديدا
تهديدات
تهذيب
تهريب
تهم
تهمة
تهيي
تو
توا
تواتر
تواجد
تواجه
تواريخ
توازن
تواصل
توافر
توافق
توالت
توب
توبة
توت
توتر
توتنهام
توثيق
توج
توجب
توجد
توجه
توجهت
توجيه
توحيد
تود
توداي
تور
تورط
تورنتو
تورنر
تورونتو
توري
توريس
تورينو
توزع
توزيع
توزيعها
توس
توسع
توسعة
توسعت
توسيع
توصف
توصل
توصلت
توصيات
توصية
توصيل
توضا
توضح
توضع
توضيح
توطين
توظيف
توغو
توف
توفر
توفى
توفي
توفيت
توفير
توفيق
توق
توقع
توقعات
توقف
توقفت
توقيت
توقيع
توك
تول
تولت
تولد
تولوز
تولى
تولي
توليد
توليه
توم
توما
توماس
تومسون
تومي
تون
تونس
تونسي
تونسية
تونغ
توني
توهم
تويتر
تويوتا
تى
تي
تيا
تيار
تيارات
تيان
تية
تيت
تيته
تيد
تيرنر
تيري
تيريزا
تيزنيت
تيزي
تيسر
تيسير
تيك
تيم
تيماتيك
تيموثي
تيمور
تيمية
تين
تينا
تيني
تينيسي
تيه
تيها
تيهم
تيودور
ث
ثا
ثابت
ثابتا
ثابتة
ثاث
ثار
ثارة
ثارت
ثاره
ثارها
ثارهم
ثالث
ثالثا
ثالثة
ثام
ثان
ثانوي
ثانوية
ثاني
ثانيا
ثانية
ثاي
ثبات
ثباته
ثباتها
ثبت
ثبتت
ثبته
ثبتوا
ثبوت
ثدييات
ثر
ثرا
ثراء
ثرات
ثرة
ثرت
ثرم
ثره
ثرها
ثروا
ثروة
ثروت
ثروته
ثري
ثريا
ثرياء
ثرية
ثرين
ثعلب
ثعلبة
ثغر
ثقات
ثقافات
ثقافة
ثقافي
ثقافية
ثقال
ثقب
ثقة
ثقل
ثقيف
ثقيل
ثقيلة
ثل
ثلاث
ثلاثا
ثلاثة
ثلاثماي
ثلاثون
ثلاثي
ثلاثية
ثلاثين
ثلاثينيات
ثلتيك
ثلث
ثلثي
ثم
ثما
ثمار
ثمامة
ثمان
ثماني
ثمانية
ثمانين
ثمانينيات
ثمة
ثمر
ثمرة
ثمن
ثمنا
ثمنه
ثمنها
ثنا
ثناء
ثناو
ثناي
ثنى
ثني
ثنية
ثنين
ثواب
ثوان
ثوب
ثوبا
ثوبان
ثوبه
ثور
ثورات
ثورة
ثورية
ثياب
ثيابه
ثير
ثيرا
ثيرات
ثيره
ثيرها
ثينا
ثيوبي
ثيوبيا
ثيوبية
ثيودور
ج
جا
جاء
جاءت
جاءني
جاءه
جاءهم
جاءوا
جاب
جابات
جابة
جابر
جابه
جاج
جاد
جادة
جادل
جاذبية
جار
جارة
جاره
جاري
جارية
جاز
جازان
جازة
جازه
جاستن
جاسم
جاف
جافا
جافة
جاك
جاكرتا
جاكسون
جاكلين
جاكوب
جاكوبس
جاكي
جال
جالس
جالسا
جالينوس
جام
جامايكا
جامع
جامعات
جامعة
جامعي
جامعية
جان
جانب
جانبا
جانبه
جانبها
جانبي
جانبية
جانفي
جانيت
جانيرو
جاه
جاهزة
جاهل
جاو
جاوة
جاوز
جاي
جايسون
جب
جبار
جباري
جبال
جبر
جبران
جبراي
جبرت
جبريل
جبل
جبلة
جبلي
جبلية
جبهة
جبير
جبيل
جة
جت
جتماعية
جثة
جثث
جثمانه
جحا
جحش
جد
جدا
جداد
جداده
جدار
جدال
جداول
جدة
جدت
جدته
جدد
جدر
جدران
جدل
جدلا
جده
جدها
جدول
جدوى
جدي
جديد
جديدا
جديدة
جدير
جذب
جذبت
جذر
جذري
جذع
جذور
جر
جرا
جراء
جراءات
جراح
جراحة
جراحي
جراحية
جراس
جرام
جرامي
جرامية
جراند
جراه
جراها
جراو
جراي
جرب
جرة
جرت
جرته
جرتها
جرجس
جرح
جرد
جرش
جرعات
جرعة
جرم
جره
جروتر
جرونفيلد
جرى
جري
جريان
جريت
جريج
جريح
جريدة
جرير
جريمة
جرين
جرينلاند
جز
جزء
جزءا
جزا
جزاء
جزاو
جزاي
جزر
جزم
جزي
جزيء
جزيرة
جزيي
جساد
جسام
جسد
جسده
جسدها
جسدي
جسدية
جسر
جسك
جسم
جسما
جسمه
جسمها
جسور
جسيم
جسيمات
جسيمة
جعفر
جعل
جعلت
جعلته
جعلنا
جعله
جعلها
جعلهم
جعلوا
جغرافي
جغرافيا
جغرافية
جـ
جفاف
جل
جلا
جلاء
جلال
جلالة
جلاله
جلب
جلبت
جلة
جلت
جلد
جلده
جلدي
جلدية
جلس
جلسات
جلسة
جلست
جله
جلها
جلود
جلوس
جلي
جليد
جليل
جليلة
جلين
جم
جمادى
جماع
جماعا
جماعات
جماعة
جماعي
جماعية
جمال
جمالا
جمالها
جمالي
جمالية
جماهير
جمباز
جمة
جمرة
جمع
جمعا
جمعة
جمعت
جمعه
جمعها
جمعهم
جمعوا
جمعيات
جمعية
جمعين
جمل
جملة
جمهرة
جمهور
جمهوري
جمهورية
جميع
جميعا
جميعه
جميعها
جميعهم
جميل
جميلا
جميلة
جن
جنات
جناح
جنازة
جنازته
جناس
جناي
جناية
جنب
جنبا
جنبه
جنبي
جنبية
جنة
جنحة
جند
جندب
جندة
جندي
جنديا
جنرال
جنس
جنسن
جنسه
جنسي
جنسيا
جنسية
جنكيز
جنو
جنوب
جنوبا
جنوبي
جنوبية
جنوة
جنود
جنوده
جنون
جنى
جني
جنيف
جنين
جنيه
جنيها
جه
جها
جهات
جهاد
جهاز
جهاض
جهة
جهته
جهد
جهدا
جهده
جهزة
جهل
جهم
جهنم
جهود
جهوده
جهودها
جهينة
جو
جوا
جواء
جواب
جوابا
جوابه
جواد
جوار
جواز
جوازات
جوان
جوانا
جوانب
جواهر
جواو
جواي
جوبة
جوج
جوجل
جود
جودة
جودي
جوديث
جور
جورج
جورجي
جورجيا
جوردان
جوردن
جوردون
جورنال
جوز
جوزيبي
جوزيف
جوزيه
جوستين
جوسون
جوش
جوشوا
جوع
جوف
جوقة
جول
جولات
جولة
جولي
جوليا
جوليان
جون
جوناثان
جوناس
جونز
جونستون
جونسون
جونغ
جوني
جونيور
جوهر
جوهري
جوهرية
جوي
جوية
جويس
جويل
جويلية
جى
جي
جيال
جيان
جيب
جيبسون
جيبوتي
جيت
جيتي
جيجا
جيد
جيدا
جيدة
جير
جيرارد
جيرالد
جيرد
جيرسي
جيرمان
جيروم
جيرون
جيري
جيريمي
جيسون
جيسي
جيسيكا
جيش
جيشا
جيشه
جيف
جيفرسون
جيفري
جيك
جيل
جيلبرت
جيم
جيمس
جيمي
جين
جينا
جينات
جيني
جينيا
جينيفر
جيه
جيوش
جيوفاني
ح
حا
حاب
حات
حاتم
حاج
حاجات
حاجب
حاجة
حاجته
حاجز
حاجي
حاد
حادة
حادث
حادثة
حادي
حادية
حاديث
حاديثه
حار
حارات
حارب
حارة
حارثة
حارس
حاز
حازت
حازم
حاسة
حاسم
حاسمة
حاسوب
حاسيس
حاشية
حاصر
حاصل
حاصلة
حاضر
حاضرا
حاضرة
حاط
حاطب
حاطة
حافة
حافظ
حافظا
حافظة
حافظت
حافلات
حافلة
حافير
حاكم
حاكما
حاكمة
حال
حالا
حالات
حالة
حالت
حالته
حالتها
حاله
حالها
حالهم
حالي
حاليا
حام
حامد
حامل
حاملا
حاملة
حامية
حان
حاول
حاولت
حاولوا
حاوية
حاي
حب
حبا
حباب
حبار
حباط
حبان
حببت
حبة
حبس
حبسه
حبك
حبل
حبه
حبها
حبوب
حبي
حبيب
حبيبة
حبيبي
حبيش
حبيل
حة
حت
حتما
حتمل
حتى
حتي
حث
حج
حجاب
حجاج
حجار
حجارة
حجازي
حجام
حجب
حجة
حجته
حجج
حجر
حجرا
حجرة
حجري
حجرية
حجز
حجم
حجما
حجمه
حجمها
حجه
حد
حدا
حداث
حداثة
حداثه
حداثها
حداثيات
حداد
حداها
حداهما
حداي
حدب
حدة
حدث
حدثا
حدثت
حدثنا
حدثني
حدثه
حدد
حددت
حدكم
حدنا
حده
حدها
حدهم
حدهما
حدوث
حدوثه
حدوثها
حدود
حدودها
حدى
حديث
حديثا
حديثة
حديثه
حديثي
حديد
حديدية
حديقة
حذر
حذف
حذفت
حذية
حذيفة
حر
حرا
حرار
حرارة
حراري
حرارية
حراز
حراس
حراسة
حراق
حرام
حراما
حراي
حرب
حربا
حربي
حربية
حرة
حرج
حرجة
حرز
حرس
حرص
حرف
حرفا
حرفي
حرفيا
حرق
حرقت
حركات
حركة
حركته
حركتها
حركية
حرم
حرمان
حرمة
حرمت
حرملة
حرمه
حروب
حروف
حرى
حرية
حريث
حرير
حريق
حزاب
حزام
حزان
حزب
حزبه
حزبيا
حزم
حزمة
حزن
حزنا
حزيران
حس
حساء
حساب
حسابات
حسابه
حساس
حساسة
حساسية
حسام
حسان
حسانه
حساي
حسب
حسبما
حسبه
حسم
حسن
حسنا
حسنات
حسنة
حسنت
حسنه
حسنها
حسني
حسنين
حسين
حشاء
حشد
حشرات
حص
حصاء
حصاءات
حصاد
حصار
حصان
حصاها
حصاي
حصة
حصته
حصد
حصر
حصري
حصص
حصل
حصلت
حصلوا
حصن
حصول
حصوله
حصولها
حصون
حصى
حصيلة
حصين
حضار
حضارات
حضارة
حضر
حضرة
حضرت
حضرته
حضرموت
حضره
حضروا
حضرية
حضور
حط
حطام
حظ
حظا
حظر
حظرت
حظه
حظي
حظيت
حف
حفاد
حفر
حفرة
حفص
حفصة
حفظ
حفظت
حفظه
حفظها
حفل
حفلات
حفلة
حفوري
حفيد
حق
حقا
حقاي
حقبة
حقق
حققت
حققه
حقل
حقن
حقه
حقها
حقهم
حقوق
حقوقه
حقوقهم
حقول
حقي
حقيبة
حقيقة
حقيقته
حقيقي
حقيقية
حك
حكام
حكامه
حكامها
حكاه
حكايات
حكاية
حكم
حكما
حكمة
حكمت
حكمته
حكمه
حكمها
حكمهم
حكموا
حكومات
حكومة
حكومته
حكومي
حكومية
حكى
حكي
حكيم
حل
حلا
حلال
حلالا
حلام
حلاوة
حلب
حلبة
حلة
حلت
حلف
حلفاء
حلق
حلقات
حلقة
حلقي
حلم
حلمي
حله
حلها
حلو
حلوان
حلوة
حلول
حلوى
حلى
حليب
حلية
حليف
حليم
حليمة
حم
حماة
حماد
حمادة
حمادي
حمار
حماس
حماض
حمال
حمام
حمامة
حماية
حمد
حمدان
حمده
حمدي
حمر
حمراء
حمزة
حمص
حمض
حمق
حمل
حملات
حملة
حملت
حملته
حمله
حملها
حملوا
حمود
حمولة
حمى
حمية
حميد
حميدة
حمير
حن
حنا
حنان
حنبل
حنطة
حنظلة
حنف
حنيف
حنيفة
حنين
حه
حو
حواء
حواجز
حوادث
حوار
حواض
حواف
حوال
حواله
حوالهم
حوالى
حوالي
حواي
حوت
حوج
حور
حوران
حوشب
حوص
حوض
حول
حولت
حوله
حولها
حولي
حى
حي
حيا
حياء
حياة
حياتك
حياتنا
حياته
حياتها
حياتهم
حياتي
حيازة
حيال
حيان
حيانا
حياي
حية
حيت
حيث
حيثما
حيدر
حيرة
حيز
حيض
حيفا
حيل
حيلة
حين
حينا
حينما
حينها
حيني
حيوان
حيوانات
حيوة
حيوي
حيوية
حيي
خ
خا
خاء
خاتم
خاتمة
خاتون
خادم
خارج
خارجا
خارجة
خارجها
خارجي
خارجية
خارطة
خارق
خارقة
خازم
خاسر
خاص
خاصا
خاصة
خاصية
خاض
خاضعة
خاطب
خاطر
خاطي
خاف
خافيير
خاقان
خاك
خال
خالد
خالدا
خالدة
خالص
خالصا
خالصة
خالف
خالفه
خالق
خاله
خالي
خالية
خام
خامس
خان
خانة
خاه
خاي
خب
خبار
خباره
خبارهم
خباري
خبارية
خبث
خبر
خبرا
خبراء
خبرة
خبرت
خبرته
خبرك
خبركم
خبرنا
خبرني
خبره
خبرها
خبرهم
خبز
خبي
خبيث
خبير
خت
ختار
ختام
ختان
ختلفة
ختم
خته
ختها
ختي
خد
خداع
خدعة
خدم
خدمات
خدماتها
خدمة
خدمت
خدمته
خدود
خديج
خديجة
خذ
خذا
خذت
خذته
خذنا
خذه
خذها
خذهم
خذوا
خذون
خذوه
خر
خرا
خراب
خراج
خراجه
خراجها
خراسان
خران
خراي
خربة
خرة
خرت
خرج
خرجت
خرجنا
خرجه
خرجها
خرجوا
خرق
خره
خرها
خرهم
خروج
خروجه
خرون
خرى
خري
خريات
خريج
خريجي
خريطة
خريف
خرين
خزاعة
خزان
خزانة
خزاي
خزيمة
خسارة
خساي
خسر
خسرت
خسرو
خسوف
خشاب
خشب
خشبة
خشبي
خشبية
خشى
خشي
خشية
خشيت
خص
خصال
خصاي
خصب
خصبة
خصص
خصصت
خصم
خصمه
خصوص
خصوصا
خصوصية
خصومه
خصيص
خصيصا
خضاع
خضر
خضراء
خضع
خضعت
خضم
خط
خطا
خطاء
خطاب
خطابا
خطابه
خطار
خطب
خطبة
خطبته
خطة
خطر
خطرا
خطرة
خطط
خطل
خطوات
خطوة
خطورة
خطوط
خطي
خطيب
خطيبا
خطية
خطير
خطيرة
خطيي
خف
خفاء
خفت
خفش
خفض
خفى
خفي
خفية
خفيف
خفيفة
خل
خلا
خلاء
خلاد
خلاص
خلاصة
خلاط
خلاف
خلافا
خلافات
خلافة
خلافته
خلافه
خلاق
خلاقه
خلاقي
خلاقيات
خلاقية
خلال
خلاله
خلالها
خلاي
خلايا
خلت
خلدون
خلص
خلصت
خلط
خلع
خلف
خلفا
خلفاء
خلفت
خلفه
خلفها
خلفي
خلفية
خلق
خلقا
خلقت
خلقه
خلقها
خلقي
خلكان
خلل
خلو
خلية
خليج
خليط
خليفة
خليفته
خليل
خليلا
خليلي
خماد
خمر
خمرا
خمس
خمسا
خمسة
خمسماي
خمسون
خمسين
خمسينيات
خميس
خندق
خنيفرة
خو
خوات
خواتها
خوارزم
خوارزمية
خواص
خواطر
خوان
خواننا
خوانه
خوانهم
خوة
خوته
خوذ
خوذة
خور
خورخي
خوري
خوزستان
خوسيه
خوض
خوف
خوفا
خوليو
خوه
خويلد
خوين
خي
خيار
خيارات
خياط
خيال
خيالي
خيالية
خيانة
خيبر
خيثمة
خير
خيرا
خيرة
خيره
خيري
خيرية
خيسوس
خيط
خيك
خيل
خيمة
خيمينيز
خيه
خيها
خيوط
خيول
د
دا
داء
داب
دابة
دابليو
دابها
داة
دات
داخل
داخله
داخلها
داخلي
داخليا
داخلية
داد
دار
دارا
دارات
دارة
دارت
دارته
دارتها
دارفور
دارك
داره
داروين
داري
داريا
دارية
داريل
دارين
داريين
داع
داعش
داعي
داعيا
داعية
دافع
دافي
دافيد
داكوتا
دال
دالاس
دالة
دالتون
دالي
دام
دامت
دامز
داميان
دان
دانا
دانة
دانت
دانته
دانتي
داني
دانيال
دانييل
داه
داو
داود
داون
داوود
داي
دايفيد
دب
دبا
دباء
دبابات
دبابة
دبر
دبلن
دبلوم
دبلوماسي
دبلوماسية
دبليو
دبه
دبي
دبيات
دبية
دة
دت
دته
دجلة
دخال
دخالها
دخان
دخل
دخلا
دخلت
دخلنا
دخله
دخلها
دخلوا
دخول
دخوله
دخولها
دد
ددلاين
در
دراج
دراجات
دراجة
دراجها
درار
دراسات
دراساته
دراسة
دراسته
دراستها
دراسي
دراسية
دراغون
دراك
دراكه
دراما
درامي
دراهم
دراية
درب
درة
درج
درجات
درجة
درجت
درس
درست
درع
درعا
درعة
درك
دركت
دركه
درمان
درنة
درهم
درهما
درو
دروس
درويش
دري
دريان
دريد
دريس
دريسي
دريك
دريم
دستور
دستوري
دستورية
دسوق
دع
دعا
دعاء
دعاة
دعاه
دعاي
دعاية
دعت
دعم
دعما
دعمت
دعمه
دعمها
دعو
دعوا
دعوات
دعواه
دعوة
دعوت
دعوته
دعوى
دعى
دعي
دعية
دغار
دغال
دغام
دفاع
دفاعي
دفاعية
دفتر
دفع
دفعة
دفعت
دفعه
دفعها
دفن
دفنه
دق
دقاي
دقة
دقيق
دقيقا
دقيقة
دك
دكا
دكتور
دكتوراه
دل
دلاء
دلال
دلالة
دلاي
دلب
دلة
دلت
دلتا
دلر
دلهي
دلى
دليل
دليلا
دم
دما
دماء
دماج
دماغ
دماغية
دمان
دماي
دمت
دمج
دمجها
دمر
دمرت
دمز
دمشق
دمع
دمه
دموع
دموند
دموية
دمي
دمياط
دمية
دميرال
دميين
دن
دنا
دنانير
دناه
دنبرة
دندي
دنفر
دنماركي
دنى
دنيا
دنيس
ده
دها
دهر
دهم
دهن
دو
دوا
دواء
دوات
دوار
دوارد
دواردز
دواردو
دوافع
دوام
دواوير
دواوين
دواي
دوايت
دوبي
دوت
دود
دودلي
دور
دورا
دورات
دوران
دورة
دورتموند
دورته
دوره
دورها
دوروثي
دوري
دورية
دوس
دوغ
دوغلاس
دوق
دوقة
دوقية
دوك
دول
دولار
دولة
دولته
دولتهم
دولف
دولي
دوليا
دولية
دوم
دوما
دومينغو
دومينيك
دون
دونا
دونالد
دونغ
دونكان
دونم
دونما
دونه
دونها
دونهم
دوني
دونيتسك
دوي
دوية
دويتشه
دويل
دوين
دى
دي
ديا
دياب
ديار
ديارهم
دياز
ديالى
ديان
ديانا
ديانة
ديب
ديبا
ديبورتيفو
ديبي
دية
ديترويت
ديث
ديد
دير
ديربي
ديرة
ديريك
ديزني
ديس
ديسكوغس
ديسمبر
ديسون
ديف
ديفيد
ديفيدسون
ديفيز
ديفيس
ديك
ديكارت
ديكسون
ديل
ديلا
ديلان
ديلاوير
ديلايد
ديلي
ديم
ديمتري
ديمقراطي
ديمقراطية
دين
دينا
دينار
دينارا
دينامو
دينك
دينكم
ديننا
دينه
دينهم
ديني
دينية
دينيس
ديه
ديها
ديو
ديوان
ديوانه
ديوك
ديون
دييغو
دييل
ذ
ذا
ذاب
ذات
ذاته
ذاتها
ذاتي
ذاتيا
ذاتية
ذار
ذاع
ذاعات
ذاعة
ذاعي
ذاعية
ذاك
ذاكرة
ذان
ذاهب
ذاي
ذبح
ذر
ذرات
ذراع
ذراعا
ذربيجان
ذربيجاني
ذربيجانية
ذرة
ذرع
ذروة
ذروته
ذروتها
ذرية
ذريته
ذريعة
ذك
ذكاء
ذكار
ذكر
ذكرا
ذكرت
ذكرته
ذكرنا
ذكرناه
ذكره
ذكرها
ذكرهم
ذكروا
ذكروه
ذكرى
ذكريات
ذكوان
ذكور
ذكي
ذكية
ذل
ذلك
ذم
ذمار
ذمة
ذمته
ذن
ذنا
ذنب
ذنبا
ذنبه
ذنة
ذنت
ذنه
ذني
ذنين
ذنيه
ذه
ذهاب
ذهان
ذهب
ذهبا
ذهبت
ذهبوا
ذهبي
ذهبية
ذهنه
ذو
ذوات
ذوق
ذون
ذوو
ذوي
ذى
ذي
ذية
ذيل
ذين
ذيني
ر
را
راء
راب
رابط
رابطة
رابع
رابعة
رات
راتب
راج
راجع
راجعا
راجعون
راح
راحة
راحل
راحلته
راد
رادار
رادة
رادت
رادته
راده
رادوا
رادية
راديو
رار
راس
راسل
راسيل
راش
راشد
راشيل
راض
راضي
راضيها
راضيهم
راع
راعي
راغب
راغون
راف
رافاي
رافاييل
رافع
رافق
راق
راقصة
راك
راكب
راكبا
رالف
رالي
رام
رامزي
رامكو
راموس
رامون
رامي
رامية
راميريز
ران
رانب
راندي
راني
رانيا
راه
راها
راهب
راهويه
راو
راي
رايان
راية
رايت
رايتس
رايدر
رايس
رايلي
رايموند
راين
رب
ربا
رباب
رباح
رباحا
رباط
رباع
رباعي
رباعية
ربة
ربح
ربحية
ربد
ربط
ربطة
ربع
ربعا
ربعاء
ربعة
ربعماي
ربعون
ربعي
ربعين
ربعينيات
ربك
ربكم
ربما
ربنا
ربه
ربها
ربهم
ربى
ربي
ربيع
ربيعة
ربيل
رة
رت
رتب
رتبة
رتس
رته
رتور
رتين
رث
رثر
رثوذكس
رثوذكسي
رثوذكسية
رج
رجا
رجاء
رجاع
رجال
رجالا
رجاله
رجاي
رجب
رجح
رجع
رجعة
رجعت
رجعوا
رجل
رجلا
رجلان
رجله
رجلين
رجليه
رجم
رجنتين
رجنتيني
رجنتينية
رجو
رجواني
رجوع
رح
رحام
رحب
رحت
رحل
رحلات
رحلة
رحلته
رحم
رحمة
رحمته
رحمه
رحمهم
رحمهما
رحيل
رحيم
رخ
رخبيل
رخة
رخص
رخصة
رخون
رخي
رخين
رد
ردا
رداء
ردة
ردت
ردف
ردمك
ردن
ردنا
ردني
ردنية
ردنيين
رده
ردها
ردوا
ردود
ردوغان
ردية
رز
رزاق
رزق
رزقه
رزين
رس
رساء
رسال
رسالة
رسالته
رساله
رسالها
رسام
رسامة
رساي
رست
رستقراطية
رستم
رسطو
رسل
رسلان
رسلت
رسلنا
رسله
رسلها
رسلوا
رسم
رسمت
رسمها
رسمي
رسميا
رسمية
رسنال
رسول
رسولا
رسوله
رسوم
رسومات
رش
رشا
رشاد
رشادات
رشح
رشد
رشدي
رشف
رشفة
رشفته
رشيد
رشيف
رصاد
رصد
رصده
رصفة
رصيف
رض
رضا
رضاء
رضاه
رضت
رضه
رضها
رضهم
رضوان
رضى
رضي
رضية
رضيت
رضين
رط
رطاة
رطب
رطل
رطوبة
رع
رعاة
رعاية
رعب
رعد
رعى
رغب
رغبة
رغبته
رغبي
رغم
رغون
رف
رفاعة
رفاقه
رفت
رفح
رفرنس
رفض
رفضت
رفضه
رفضها
رفضوا
رفع
رفعت
رفعه
رفعها
رفقة
رفيع
رفيعة
رفيق
رق
رقابة
رقام
رقبة
رقبته
رقة
رقص
رقصة
رقعة
رقم
رقما
رقمي
رقمية
رقى
رقي
رقيب
رقية
رقيق
رقيقة
رك
ركاب
ركان
ركايفز
ركب
ركز
ركزت
ركع
ركعات
ركعة
ركعتين
ركلة
ركن
ركنساس
ركوب
رم
رماد
رمادي
رمال
رماية
رمت
رمح
رمز
رمزا
رمزها
رمزي
رمزية
رمسترونغ
رمسيس
رمضان
رمل
رملة
رمن
رمني
رمنية
رموز
رمى
رمي
رميا
رمينيا
رمينية
رن
رنا
رنب
رنست
رنولد
رني
ره
رها
رهاب
رهابي
رهابية
رهابيين
رهاق
رهط
رهم
رهن
رهنا
رو
روا
روابط
رواة
رواتب
رواح
رواحة
رواحهم
رواد
رواسب
روافد
رواق
روان
رواندا
رواه
رواها
رواي
روايات
رواياته
رواية
روايتان
روايته
روايتها
روب
روبرت
روبرتس
روبرتسون
روبرتو
روبن
روبنسون
روبوت
روبي
روبية
روبين
روت
روتانا
روتردام
روتليدج
روث
روج
روجر
روجرز
روح
روحه
روحي
روحية
رود
رودريغو
رودريغيز
رودس
رودولف
رودي
رور
روز
روزا
روزفلت
روس
روسو
روسي
روسيا
روسية
روش
روض
روضة
روع
روعة
روفرز
روقة
روك
روكي
رول
رولاند
رولينغ
روم
روما
رومان
رومانسي
رومانسية
روماني
رومانيا
رومانية
رومة
رومي
رومية
روميرو
روميو
رون
رونالد
رونالدو
روني
روى
روي
رويال
رويت
رويترز
رويدا
رويز
رويس
روين
روينا
رى
ري
ريا
رياح
رياض
رياضة
رياضي
رياضيا
رياضيات
رياضياتي
رياضية
ريال
ريان
ريب
ريبورتر
ريبيكا
رية
ريتا
ريتريا
ريتش
ريتشارد
ريتشاردز
ريتشاردسون
ريتشموند
ريتشي
ريج
ريح
ريحا
ريخ
ريختر
ريد
ريدج
ريزونا
ريس
ريسلينغ
ريش
ريغان
ريف
ريفر
ريفية
ريفيرا
ريفيو
ريق
ريك
ريكا
ريكاردو
ريكس
ريكسون
ريكو
ريكي
ريلجم
ريلد
ريم
ريمون
ريموند
رين
رينا
رينجرز
رينو
رينولدز
رينيه
ريو
ريوس
رييس
ريين
ز
زء
زا
زاء
زاحة
زاد
زادت
زاده
زار
زاره
زاك
زال
زالة
زالت
زالته
زالتها
زالوا
زامبيا
زان
زاهر
زاوية
زاي
زايد
زبيد
زة
زت
زجاج
زحف
زحل
زد
زدي
زر
زرار
زرارة
زراعة
زراعي
زراعية
زرع
زرعة
زرق
زرقاء
زريع
زعم
زعماء
زعمت
زعموا
زعيم
زغرب
زغلول
زفاف
زفر
زق
زكاة
زكريا
زكي
زل
زلت
زلزال
زلي
زلية
زم
زمات
زمالة
زمام
زمان
زمانا
زماننا
زمانه
زمة
زمرة
زمزم
زمعة
زملاء
زملاي
زمن
زمنا
زمنة
زمني
زمنية
زمير
زميل
زميله
زن
زنا
زنجبار
زنى
زهاء
زهار
زهر
زهرة
زهري
زهور
زهير
زو
زواج
زواجه
زواجها
زواجهن
زواحف
زوال
زوايا
زوج
زوجا
زوجات
زوجة
زوجته
زوجه
زوجها
زوجي
زوجين
زور
زون
زي
زياء
زياد
زيادة
زيارة
زيارته
زيان
زيبكودزو
زية
زيت
زيتون
زيد
زيدا
زيدان
زيل
زيلال
زيمبابوي
زين
زينب
زينة
زيورخ
زيوس
س
سا
ساء
ساءة
ساب
سابع
سابق
سابقا
سابقة
سابور
سابيع
ساة
سات
ساتذة
ساتو
ساجدا
ساحات
ساحة
ساحر
ساحل
ساحلية
ساخرة
ساخنة
ساد
سادة
سادس
سار
سارا
سارة
سارت
ساري
سارية
ساس
ساسا
ساسات
ساسها
ساسي
ساسيا
ساسيات
ساسية
ساسيين
ساطير
ساطيل
ساعات
ساعة
ساعتين
ساعد
ساعدة
ساعدت
ساعده
سافر
سافرت
ساق
ساقفة
ساقه
ساكس
ساكسونيا
ساكن
ساكنة
سال
سالبة
سالم
سالما
سالي
ساليب
سام
سامة
سامح
سامر
سامراء
سامسونج
ساموا
سامي
سامية
سان
سانت
سانتا
سانتو
سانتوس
سانتياغو
ساندرا
ساندرز
ساندي
سانشيز
سانيد
ساهم
ساهمت
ساو
ساوث
ساوثهامبتون
ساي
سايكلنج
سايمون
ساينس
سب
سبا
سباب
سبابه
سبابها
سباح
سباحة
سباستيان
سباط
سباق
سباقات
سبان
سباني
سبانيا
سبانية
سباي
سبايس
سبب
سببا
سببه
سببها
سبت
سبتة
سبتمبر
سبحان
سبحانه
سبرنجر
سبرينغ
سبرينغز
سبط
سبع
سبعا
سبعة
سبعماي
سبعون
سبعين
سبعينيات
سبق
سبقت
سبقه
سبل
سبنسر
سبنسكروم
سبوت
سبور
سبورت
سبورتس
سبورتينغ
سبوع
سبوعي
سبوعية
سبوعين
سبي
سبيس
سبيل
سبيلا
سبيله
سة
ست
ستا
ستاد
ستاذ
ستاذا
ستاذة
ستاذه
ستار
ستارك
ستالين
ستان
ستانة
ستانفورد
ستانلي
ستة
ستخد
ستخدم
ستر
ستراتيجي
ستراتيجية
ستراسبورغ
سترالي
ستراليا
سترالية
سترة
سترليني
ستروجين
ستريت
ستصبح
ستطيع
ستعمل
ستكون
ستماي
ستو
ستوديو
ستوك
ستوكهولم
ستون
ستونيا
ستونية
ستي
ستيرلينغ
ستيشن
ستيف
ستيفان
ستيفانو
ستيفاني
ستيفن
ستيفنز
ستيفنسون
ستيل
ستين
ستينيات
ستيوارت
سج
سجد
سجل
سجلات
سجلت
سجن
سجنه
سجود
سجون
سجين
سحاب
سحابة
سحاق
سحب
سحر
سحق
سخط
سد
سداد
سدي
سر
سرا
سراء
سراب
سراج
سراح
سراحه
سرار
سراع
سراف
سراقة
سراي
سرايا
سراييفو
سرب
سرة
سرت
سرته
سرتها
سرح
سرحان
سرد
سردينيا
سرشماری
سرطان
سرع
سرعات
سرعان
سرعة
سرق
سرقة
سرقسطة
سره
سرها
سرهم
سروا
سرور
سرى
سري
سريان
سرية
سريج
سرير
سريرية
سريع
سريعا
سريعة
سريلانكا
سس
سسات
سسة
سست
سسه
سسها
سسوا
سسي
سسية
سسين
سطات
سطح
سطحه
سطحية
سطر
سطنبول
سطوانات
سطوانة
سطورة
سطوري
سطورية
سطول
سطيف
سعاد
سعادة
سعار
سعاف
سعة
سعت
سعد
سعدان
سعر
سعود
سعودي
سعودية
سعى
سعي
سعيد
سعيدا
سعيدة
سف
سفار
سفارات
سفارة
سفح
سفر
سفرت
سفره
سفل
سفله
سفلي
سفن
سفي
سفيان
سفير
سفيرا
سفين
سفينة
سقاط
سقراط
سقط
سقطت
سقف
سقفية
سقوط
سقى
سك
سكان
سكانه
سكانها
سكاني
سكانية
سكاي
سكة
سكت
سكتة
سكتلندا
سكتلندي
سكر
سكرتير
سكروي
سكك
سكن
سكنت
سكندر
سكندرية
سكندنافية
سكني
سكنية
سكوت
سكون
سكوير
سل
سلا
سلاح
سلاسل
سلاطين
سلاف
سلاك
سلالات
سلالة
سلام
سلامة
سلامه
سلامي
سلامية
سلاميين
سلب
سلبي
سلبية
سلة
سلتيك
سلحة
سلسلة
سلط
سلطات
سلطان
سلطانا
سلطانه
سلطة
سلطته
سلطنة
سلع
سلعة
سلف
سلفادور
سلفه
سلك
سلم
سلما
سلمان
سلمة
سلمت
سلمنا
سلموا
سلمون
سلمى
سلمي
سلمية
سلمين
سلوب
سلوبه
سلوفاكيا
سلوفينيا
سلوك
سلوكيات
سلوى
سليم
سليمان
سليمة
سم
سما
سماء
سمات
سماع
سماعه
سماعيل
سماعيلي
سماعيلية
سماك
سمالي
سمالية
سماه
سماها
سماو
سماي
سمة
سمت
سمح
سمحت
سمدة
سمر
سمرة
سمرقند
سمع
سمعان
سمعة
سمعت
سمعته
سمعنا
سمعه
سمعها
سمعوا
سمك
سمكة
سمنت
سمه
سمها
سمو
سموا
سموه
سمى
سمي
سمية
سميت
سميث
سمير
سميرة
سميع
سميكة
سن
سنا
سناء
سناد
سناده
سنان
سنة
سنت
سنتر
سنترال
سنته
سنتي
سنتيمتر
سنتين
سند
سنده
سنغافورة
سنن
سننه
سنه
سنو
سنوات
سنوي
سنويا
سنوية
سني
سنية
سنين
سه
سها
سهال
سهام
سهل
سهلا
سهلة
سهم
سهما
سهول
سهولة
سهير
سهيل
سو
سوء
سوا
سواء
سواحل
سواد
سوار
سوارتز
سواريز
سواق
سوان
سواه
سواها
سواهم
سواي
سوبر
سوة
سود
سوداء
سوداني
سودانية
سور
سورة
سوري
سوريا
سورية
سورينام
سوزا
سوزان
سوزوكي
سوس
سوسة
سوشيتد
سوف
سوفت
سوق
سوكورو
سول
سولت
سوليفان
سومطرة
سون
سونغ
سونورا
سوني
سونيا
سونيك
سوهاج
سوى
سوي
سويا
سويد
سويدي
سويدية
سويسرا
سويسري
سويف
سويفت
سى
سي
سيء
سيا
سياتل
سياحة
سياحي
سياحية
سيادة
سيار
سيارات
سيارة
سيارته
سياسات
سياسة
سياسي
سياسيا
سياسية
سياق
سيان
سيباستيان
سيبويه
سيبيريا
سية
سيتم
سيتي
سيث
سيحدث
سيد
سيدا
سيدات
سيدة
سيدتي
سيدنا
سيدني
سيده
سيدي
سير
سيرا
سيراليون
سيرة
سيرته
سيرجي
سيرجيو
سيرغي
سيرين
سيزار
سيس
سيسه
سيسها
سيسي
سيسية
سيسيل
سيصبح
سيطر
سيطرة
سيطرت
سيطرته
سيطرتها
سيطرتهم
سيف
سيفا
سيفه
سيكون
سيل
سيلفا
سيلفيا
سيم
سيما
سيمباد
سيمبسون
سيمون
سيمونز
سين
سينا
سيناء
سيناريو
سينسيناتي
سينغ
سينما
سينماي
سيو
سيوط
سيول
سيوي
سيوية
سيي
سييرا
ش
شا
شاء
شاءت
شاب
شابا
شابة
شابه
شاة
شاحنات
شاحنة
شاد
شادة
شادي
شاذ
شار
شارات
شارب
شارة
شارت
شارع
شارك
شاركت
شاركوا
شارل
شارلوت
شاروا
شارون
شاسعة
شاشات
شاشة
شاطي
شاع
شاعر
شاعرا
شاعرة
شاكر
شامل
شاملا
شاملة
شان
شانغهاي
شانون
شاه
شاهد
شاهدا
شاهدة
شاهين
شاو
شاي
شاين
شب
شباب
شبابه
شباح
شباط
شباع
شباك
شباه
شبح
شبرا
شبكات
شبكة
شبه
شبهة
شبهه
شبيب
شبيلية
شبيه
شبيهة
شة
شت
شتاء
شتات
شتر
شتهر
شتوتغارت
شتوكة
شتى
شج
شجار
شجاع
شجاعة
شجر
شجرة
شجع
شجعي
شح
شحن
شحنة
شخاص
شخص
شخصا
شخصي
شخصيا
شخصيات
شخصية
شخصيته
شخصين
شد
شداد
شدة
شديد
شديدا
شديدة
شر
شرا
شراء
شراب
شرات
شرار
شرارة
شراف
شراق
شراك
شراكة
شراو
شراي
شرب
شربة
شرت
شرح
شرحبيل
شرحه
شرس
شرط
شرطا
شرطة
شرطي
شرع
شرعا
شرعت
شرعه
شرعي
شرعية
شرف
شرفت
شرق
شرقا
شرقي
شرقية
شرك
شركاء
شركات
شركة
شركته
شرم
شروط
شروق
شريان
شريح
شريحة
شريط
شريطة
شريعة
شريف
شريفة
شريك
شريكا
شريكة
شريكه
شط
شطر
شطرنج
شعار
شعارات
شعاره
شعاع
شعاعي
شعاعية
شعال
شعاي
شعب
شعبان
شعبة
شعبه
شعبي
شعبية
شعة
شعث
شعر
شعرا
شعراء
شعرت
شعره
شعرها
شعري
شعرية
شعوب
شعور
شعيب
شعير
شغال
شغب
شغل
شغلت
شغله
شف
شفاء
شفرة
شفشاون
شفق
شفيق
شق
شقاء
شقاي
شقة
شقر
شقيق
شقيقة
شقيقتها
شقيقه
شقيقها
شك
شكال
شكالها
شكاليات
شكر
شكرا
شكري
شكسبير
شكل
شكلا
شكلت
شكله
شكلها
شكو
شكوى
شل
شلالات
شلل
شلي
شم
شمال
شمالا
شماله
شمالي
شمر
شمس
شمسي
شمسية
شمعون
شمل
شملت
شميت
شميدت
شميل
شن
شنايدر
شنت
شنغهاي
شهاب
شهاد
شهادات
شهادة
شهادته
شهب
شهد
شهداء
شهدت
شهدتها
شهدوا
شهر
شهرا
شهرة
شهرته
شهرزاد
شهرها
شهري
شهرية
شهرين
شهوة
شهود
شهور
شهيد
شهيدا
شهير
شهيرة
شو
شوارع
شواطي
شواك
شوال
شواهد
شور
شورى
شوري
شورية
شوريين
شوق
شوقي
شوك
شوكة
شومان
شون
شوهد
شىء
شي
شيء
شيا
شياء
شياطين
شيب
شيبان
شيبة
شيخ
شيخا
شيخنا
شيخه
شيد
شيدت
شير
شيرات
شيراز
شيرة
شيردوغ
شيرلي
شيرمان
شيري
شيرين
شيشاوة
شيطان
شيع
شيعة
شيعي
شيفيلد
شيك
شيكاغو
شيلي
شين
شيوخ
شيوخه
شيوع
شيوعا
شيوعية
شيي
ص
صا
صاب
صابات
صابة
صابت
صابته
صابتها
صابتهم
صابر
صابع
صابعه
صابه
صابها
صابهم
صابوا
صاح
صاحب
صاحبة
صاحبكم
صاحبنا
صاحبه
صاحبها
صاحبي
صاد
صادر
صادرات
صادرة
صادق
صادقا
صادقة
صار
صارت
صارم
صارمة
صاروا
صاروخ
صاع
صاعا
صاعد
صاغ
صاف
صافي
صافية
صال
صالات
صالة
صالح
صالحا
صالحة
صالون
صام
صامت
صامويل
صانع
صانعي
صاي
صب
صبا
صباح
صباحا
صباغ
صبت
صبح
صبحت
صبحوا
صبحي
صبر
صبرا
صبري
صبع
صبعه
صبغ
صبغة
صبهان
صبهاني
صبي
صبيا
صبيح
صبيحة
صة
صح
صحاء
صحاب
صحابة
صحابك
صحابنا
صحابه
صحابها
صحابي
صحاح
صحافة
صحب
صحبة
صحة
صحت
صحته
صحتها
صحراء
صحف
صحفي
صحفية
صحن
صحي
صحية
صحيح
صحيحا
صحيحة
صحيحه
صحيفة
صخر
صخرة
صخرية
صخور
صد
صدار
صدارات
صداره
صدارها
صداقة
صدام
صدر
صدرت
صدره
صدرها
صدري
صدق
صدقاء
صدقاي
صدقة
صدقت
صدقه
صدقي
صدمة
صدور
صدورهم
صدوق
صدى
صديق
صديقا
صديقة
صديقه
صديقي
صر
صراحة
صرار
صراط
صراع
صراعات
صرامة
صرب
صربي
صربيا
صرت
صرح
صرحت
صرخة
صرف
صريح
صريحة
صطلح
صعب
صعبة
صعد
صعدة
صعصعة
صعوبات
صعوبة
صعود
صعيد
صغار
صغر
صغره
صغير
صغيرا
صغيرة
صـ
صف
صفا
صفاء
صفات
صفاته
صفاقس
صفاي
صفة
صفت
صفته
صفحات
صفحة
صفد
صفر
صفراء
صفقة
صفهان
صفهاني
صفوان
صفوف
صفية
صفيحة
صفين
صقر
صقلية
صل
صلا
صلابة
صلاة
صلات
صلاته
صلاتهم
صلاح
صلاحات
صلاحه
صلاحها
صلاحي
صلاحيات
صلاحية
صلب
صلبة
صلة
صلح
صله
صلها
صلهم
صلوا
صلوات
صلى
صلي
صليب
صلية
صليت
صليون
صليين
صم
صمام
صمت
صمعي
صمم
صممت
صموي
صميم
صن
صناديق
صناع
صناعات
صناعة
صناعي
صناعية
صناف
صنام
صندوق
صنع
صنعاء
صنعة
صنعت
صنعه
صنعها
صنف
صنفت
صنوفة
صه
صها
صهر
صهيب
صو
صواب
صوات
صواتهم
صواريخ
صوب
صوت
صوتا
صوته
صوتها
صوتي
صوتية
صور
صورا
صورة
صورت
صورته
صورتها
صوره
صورها
صوفي
صوفيا
صول
صوله
صولها
صولهم
صولية
صوم
صياد
صياغة
صيام
صيانة
صيب
صيبت
صيبوا
صيد
صيدا
صيدلة
صير
صيغ
صيغة
صيغتها
صيف
صيفا
صيفي
صيل
صيلة
صيني
صينية
ض
ضا
ضاء
ضاءة
ضابط
ضابطا
ضاحية
ضار
ضارة
ضاع
ضاف
ضافات
ضافة
ضافت
ضافي
ضافية
ضاق
ضاقت
ضال
ضامن
ضاي
ضباط
ضبط
ضة
ضت
ضجة
ضحايا
ضحت
ضحك
ضحى
ضحية
ضخ
ضخم
ضخمة
ضد
ضداد
ضده
ضدها
ضدهم
ضر
ضراب
ضرابات
ضرار
ضراي
ضرب
ضربا
ضربات
ضربة
ضربت
ضربه
ضرحة
ضرر
ضررا
ضروب
ضرورة
ضروري
ضروريا
ضرورية
ضريبة
ضريح
ضع
ضعاف
ضعت
ضعف
ضعفت
ضعفه
ضعيف
ضعيفا
ضعيفة
ضغط
ضغوط
ضفاء
ضفاف
ضفة
ضفه
ضل
ضلاع
ضلال
ضلع
ضم
ضمار
ضمان
ضمت
ضمرة
ضمن
ضمنها
ضمنهم
ضمير
ضه
ضوء
ضواء
ضوابط
ضواحي
ضوي
ضى
ضي
ضياء
ضياع
ضيف
ضيفت
ضيق
ضيقة
ط
طا
طاب
طابع
طابق
طابقين
طاجيكستان
طاح
طاحة
طار
طارات
طارق
طاري
طاع
طاعة
طاعته
طاف
طاقة
طاقته
طاقم
طال
طالب
طالبا
طالبان
طالبة
طالبت
طالة
طالت
طالع
طالق
طالما
طان
طاهر
طاوس
طاولة
طاووس
طاي
طب
طباء
طباعة
طباق
طباي
طبع
طبعا
طبعات
طبعة
طبعت
طبعه
طبق
طبقا
طبقات
طبقة
طبي
طبيب
طبيبا
طبيبة
طبية
طبيعة
طبيعته
طبيعتها
طبيعي
طبيعيا
طبيعية
طة
طر
طرا
طرابلس
طراز
طراف
طرافها
طراي
طرح
طرحت
طرحه
طرحها
طرد
طرش
طرطوس
طرف
طرفا
طرفة
طرفه
طرفي
طرق
طروادة
طروحة
طروحته
طريف
طريق
طريقا
طريقة
طريقته
طريقه
طريقها
طريقهم
طع
طعام
طعاما
طعامه
طعم
طعمة
طعمه
طعن
طفاء
طفال
طفالها
طفالهم
طفرات
طفرة
طفل
طفلا
طفلة
طفولته
طفولتها
طفيف
طفيفة
طقس
طقم
طقوس
طل
طلاء
طلاب
طلاع
طلاق
طلاقا
طلاقه
طلاقها
طلال
طلاي
طلب
طلبا
طلبات
طلبة
طلبت
طلبه
طلبها
طلبوا
طلحة
طلس
طلسي
طلع
طلعت
طلق
طلقة
طلقت
طلقه
طلقها
طلقوا
طلوع
طليطلة
طليعة
طمع
طموح
طن
طنجة
طنطا
طه
طهارة
طهر
طهران
طو
طوابق
طوار
طواري
طواف
طوال
طوالها
طواي
طور
طورت
طوعا
طوق
طوكيو
طول
طولا
طولكرم
طوله
طولها
طولون
طومسون
طويل
طويلا
طويلة
طي
طيار
طياف
طيب
طيبا
طيبة
طير
طيران
طيف
طيلة
طين
طيور
ظ
ظافر
ظالم
ظام
ظاهر
ظاهرا
ظاهرة
ظاهره
ظاهري
ظبي
ظر
ظرف
ظروف
ظفار
ظفر
ظل
ظلال
ظلام
ظلت
ظلم
ظلما
ظلمة
ظما
ظن
ظننت
ظنه
ظهار
ظهر
ظهرا
ظهرت
ظهره
ظهرها
ظهروا
ظهور
ظهوره
ظهورها
ظهير
ظواهر
ع
عا
عاء
عاب
عابد
عابدين
عابر
عابرة
عات
عاتق
عاجز
عاجل
عاد
عادات
عادة
عادت
عادته
عادتها
عادل
عادلة
عادوا
عادي
عادية
عار
عارة
عارض
عارضة
عارضت
عارف
عارية
عازب
عازف
عاش
عاشت
عاشق
عاشوا
عاشور
عاشوراء
عاصفة
عاصم
عاصمة
عاصمتها
عاصير
عاطف
عاطفة
عاطفية
عاق
عاقبة
عاقة
عاقل
عال
عالة
عالج
عالم
عالما
عالمة
عالمي
عالميا
عالمية
عالي
عاليا
عالية
عام
عاما
عامة
عامر
عامرة
عامل
عاملا
عاملة
عامه
عامي
عامين
عان
عانات
عانة
عانت
عانى
عاني
عاي
عب
عبء
عباء
عباد
عبادة
عبادته
عباده
عبادي
عبارات
عبارة
عباس
عبد
عبدا
عبدالرحمن
عبدالعزيز
عبدالله
عبدان
عبدة
عبدك
عبده
عبدي
عبر
عبرة
عبرت
عبس
عبقرية
عبود
عبور
عبيد
عبيدة
عبير
عة
عت
عتاب
عتب
عتبة
عتبر
عترف
عتق
عتقد
عتقه
عتمد
عتيبة
عتيق
عثر
عثرت
عثمان
عثماني
عثمانية
عج
عجاب
عجاز
عجاي
عجب
عجبا
عجبت
عجز
عجل
عجلات
عجلان
عجلة
عجم
عجمي
عجوز
عجيب
عجيبة
عد
عدا
عداء
عداد
عدادات
عداده
عدادها
عدادية
عدالة
عدام
عدامه
عداوة
عداي
عدة
عدت
عدتها
عدد
عددا
عددها
عددهم
عددية
عدسة
عدل
عدلا
عدم
عدمه
عدن
عدنان
عده
عدها
عدو
عدوا
عدوان
عدوه
عدوى
عدى
عدي
عديد
عديدة
عديم
عديمة
عذاب
عذابا
عذاري
عذب
عذر
عذراء
عر
عراب
عرابي
عراض
عراف
عراق
عراقي
عراقية
عرب
عربات
عربة
عربت
عربي
عربيا
عربية
عرج
عرس
عرش
عرشه
عرض
عرضا
عرضة
عرضت
عرضه
عرضها
عرضي
عرضية
عرف
عرفات
عرفة
عرفت
عرفته
عرفنا
عرفه
عرفها
عرفوا
عرق
عرقية
عرقين
عروبة
عروة
عروس
عروض
عريض
عريضة
عز
عزاء
عزام
عزبة
عزة
عزت
عزز
عززت
عزف
عزل
عزلة
عزله
عزم
عزمي
عزوجل
عزى
عزيز
عزيزة
عساكر
عسر
عسكر
عسكره
عسكري
عسكريا
عسكرية
عسل
عسى
عسير
عش
عشاء
عشاب
عشاق
عشاي
عشت
عشر
عشرا
عشرات
عشرة
عشرون
عشرية
عشرين
عشرينيات
عشق
عشواي
عشى
عشية
عشيرة
عصا
عصاب
عصابات
عصابة
عصار
عصام
عصب
عصبة
عصبي
عصبية
عصر
عصرنا
عصره
عصفور
عصمة
عصور
عصى
عصير
عض
عضاء
عضاو
عضاي
عضد
عضلات
عضلة
عضو
عضوا
عضوة
عضوي
عضوية
عط
عطا
عطاء
عطارد
عطاني
عطاه
عطاها
عطاهم
عطاي
عطت
عطف
عطلة
عطوا
عطى
عطي
عطية
عطيت
عظام
عظم
عظمة
عظمى
عظمي
عظمية
عظيم
عظيما
عظيمة
عف
عفا
عفاء
عفان
عفو
عفوا
عفيف
عق
عقاب
عقار
عقاي
عقب
عقبة
عقبت
عقبه
عقد
عقدا
عقدة
عقدت
عقده
عقدها
عقل
عقلا
عقله
عقلي
عقلية
عقوبات
عقوبة
عقود
عقول
عقولهم
عقيب
عقيد
عقيدة
عقيل
عكا
عكاظ
عكرمة
عكس
عل
علا
علاء
علاج
علاجات
علاجه
علاجية
علاقات
علاقة
علاقته
علاقتها
علام
علامات
علامة
علامتي
علامي
علامية
علان
علانات
علانية
علاه
علاها
علاوة
علبة
علة
علق
علقت
علقمة
علل
علم
علما
علماء
علماي
علمت
علمك
علمنا
علمه
علمها
علمهم
علموا
علمي
علميا
علمية
علن
علنا
علنت
علنوا
علني
علو
علوا
علوم
علوي
على
علي
عليا
علية
عليك
عليكم
عليم
علينا
عليه
عليها
عليهم
عليهما
عليهن
علی
عم
عما
عماد
عمار
عمارة
عمارهم
عماق
عمال
عمالا
عمالة
عماله
عمالها
عمالهم
عمان
عمة
عمد
عمدا
عمدة
عمر
عمرا
عمران
عمرة
عمره
عمرها
عمرو
عمري
عمش
عمق
عمل
عملا
عملاء
عملات
عملاق
عملاقة
عملة
عملت
عمله
عملها
عملهم
عملوا
عملي
عمليا
عمليات
عملياتها
عملية
عمن
عمه
عمها
عمود
عمودي
عموم
عموما
عمومية
عمى
عمي
عميد
عمير
عميق
عميقة
عميل
عن
عنا
عناء
عنابة
عناصر
عناق
عنان
عناوين
عناية
عند
عندك
عندكم
عندما
عندنا
عنده
عندها
عندهم
عندي
عنصر
عنصرا
عنف
عنق
عنقه
عنك
عنكم
عنه
عنها
عنهم
عنهما
عنوان
عنوانه
عنوانها
عنوة
عنى
عني
عنيف
عنيفة
عه
عها
عهد
عهدا
عهده
عهم
عهود
عو
عوا
عواد
عواطف
عواقب
عوالم
عوام
عوامل
عوان
عوانة
عواي
عود
عودة
عودته
عودتها
عوذ
عور
عوز
عوض
عوضا
عوف
عون
عى
عي
عياد
عيادة
عيار
عياش
عياض
عيال
عيان
عيب
عيد
عيدت
عير
عيسى
عيش
عيشة
عين
عينا
عينات
عيناه
عينة
عينت
عينه
عينها
عينهم
عيني
عينيك
عينيه
عينيها
عيوب
عيون
عيينة
غ
غا
غاب
غابات
غابة
غابت
غابرييل
غاثة
غادة
غادر
غادرت
غار
غارات
غارة
غاردنر
غارسيا
غاري
غاز
غازات
غازي
غال
غالب
غالبا
غالبية
غالي
غاما
غامبيا
غامض
غامضة
غان
غانا
غاندي
غانم
غاني
غانيه
غاي
غاية
غايته
غبار
غة
غد
غدا
غداة
غدت
غدر
غذاء
غذاي
غذية
غر
غراء
غراب
غرار
غراض
غراق
غرام
غرامة
غرامي
غرانت
غراند
غراندي
غراهام
غراي
غرب
غربا
غربي
غربية
غرة
غرس
غرض
غرف
غرفة
غرق
غرقت
غرناطة
غروب
غروف
غريب
غريبا
غريبة
غريس
غريغ
غريغوري
غريق
غريقي
غريقية
غرين
غزا
غزال
غزة
غزت
غزل
غزو
غزوة
غزير
غسان
غسطس
غسل
غسيل
غشاء
غشية
غصان
غصن
غض
غضب
غضبا
غضبه
غضون
غطاء
غطت
غطى
غطية
غفر
غفلة
غل
غلاسكو
غلاف
غلاق
غلال
غلام
غلاما
غلب
غلبت
غلبها
غلبهم
غلبية
غلط
غلطة
غلظ
غلق
غلقت
غلوب
غلى
غليظ
غلين
غم
غمر
غن
غناء
غنام
غناي
غنت
غنم
غنى
غني
غنيا
غنياء
غنيات
غنية
غنيم
غنيمة
غو
غواتيمالا
غوار
غواصة
غوتنبرغ
غور
غوردون
غوستاف
غوستافو
غوغنهايم
غولد
غولدن
غولف
غوميز
غونزاليس
غي
غياب
غياث
غيانا
غيب
غيتس
غيث
غير
غيرة
غيرت
غيرك
غيره
غيرها
غيرهم
غيرهما
غيري
غيل
غيلان
غيلبرت
غيم
غيمز
غينيا
ـ
ـا
ـب
ـت
ـد
ـر
ـع
ــ
ـل
ـم
ـن
ـه
ـو
ـي
ف
فا
فاء
فابيان
فابيو
فات
فاتح
فاتحة
فاتن
فاته
فاجتمع
فاخر
فاد
فادة
فادت
فادحة
فاذا
فار
فارايتي
فارس
فارسي
فارسية
فارع
فارغ
فارغاس
فارغة
فارق
فارقة
فارم
فارو
فاروق
فاز
فازت
فاس
فاسا
فاستا
فاسد
فاسدة
فاسو
فاسيلي
فاشلة
فاصلة
فاض
فاضل
فاضلا
فاطمة
فاع
فاعل
فاعلا
فاعلة
فاعلم
فاعله
فاعلية
فاعي
فاغنر
فاق
فاكهة
فال
فالا
فالتفت
فالجواب
فالذي
فالقول
فالكون
فالله
فالنتين
فالنسيا
فالي
فاليري
فاما
فامتنع
فان
فانصرف
فانطلق
فانظر
فانكوفر
فانما
فانه
فانها
فاني
فاه
فاي
فايز
فايس
فايل
فايمار
فاينل
فبا
فبدا
فبراير
فبطل
فبعث
فبعد
فبقي
فبكى
فبلغ
فبين
فبينا
فبينما
فة
فت
فتا
فتاء
فتاة
فتبين
فتح
فتحات
فتحة
فتحت
فتحها
فتحي
فترات
فترة
فترته
فترض
فترك
فترى
فتقدم
فتقول
فتكون
فتلك
فتم
فتنة
فتوح
فتوضا
فتوى
فتى
فتيات
فتين
فثبت
فج
فجا
فجاء
فجاءت
فجاءه
فجر
فجعل
فجعلت
فجعله
فجعلوا
فجلس
فجمع
فجوة
فجي
فحة
فحدثني
فحسب
فحص
فحصل
فحل
فحمد
فحمل
فحيني
فخ
فخذ
فخر
فخرج
فخرجت
فخرجوا
فخري
فخرية
فداء
فدان
فدخل
فدخلت
فدعا
فدل
فدية
فذاك
فذكر
فذكرت
فذكره
فذلك
فذهب
فذهبت
فر
فرا
فراج
فراح
فراد
فراده
فرادها
فراز
فرازات
فراس
فراسخ
فراش
فراشه
فراط
فراغ
فران
فرانز
فرانس
فرانسوا
فرانسيس
فرانسيسكو
فرانشيسكو
فرانك
فرانكفورت
فرانكلين
فرانكو
فراي
فربما
فرج
فرجع
فرجعت
فرجينيا
فرح
فرحا
فرحات
فرحان
فرد
فردا
فردي
فردية
فرديناند
فرز
فرس
فرسان
فرساي
فرسخ
فرسه
فرص
فرصة
فرض
فرضا
فرضت
فرضه
فرضية
فرط
فرع
فرعا
فرعون
فرعي
فرعية
فرغ
فرغت
فرفع
فرق
فرقا
فرقة
فركب
فرناندو
فرنانديز
فرنج
فرنسا
فرنسي
فرنسية
فرنسيس
فرنسيسكو
فرنك
فرو
فروا
فروة
فروخ
فروع
فروى
فرويد
فري
فريتز
فريد
فريدة
فريدرش
فريدريش
فريدريك
فريدمان
فريدي
فريزر
فريضة
فريق
فريقا
فريقه
فريقي
فريقيا
فريقية
فريقين
فريل
فريمان
فزع
فس
فسا
فساد
فساده
فسار
فسخ
فسد
فسدت
فسر
فسقط
فسكت
فسلم
فسمع
فسمعت
فسوف
فسي
فشل
فشلت
فشيي
فص
فصاح
فصار
فصارت
فصاعد
فصاعدا
فصاي
فصح
فصل
فصلا
فصلت
فصلى
فصول
فصيح
فصيل
فصيلة
فض
فضاء
فضالة
فضاي
فضة
فضت
فضحك
فضرب
فضربه
فضل
فضلا
فضله
فضلية
فضى
فضية
فضيحة
فضيل
فضيلة
فطار
فطر
فطريات
فطلب
فظن
فظهر
فع
فعاد
فعال
فعالا
فعالة
فعاله
فعالهم
فعاليات
فعالية
فعل
فعلا
فعلت
فعلته
فعلم
فعله
فعلها
فعلوا
فعلى
فعلي
فعليا
فعلية
فعليه
فعمل
فعن
فعند
فعندما
فعى
فغان
فغانستان
فغاني
فغانية
فغضب
فـي
ففتح
ففعل
ففي
ففيه
ففيها
فق
فقال
فقالا
فقالت
فقالوا
فقام
فقامت
فقبل
فقتل
فقتله
فقتلوا
فقد
فقدان
فقدت
فقدم
فقدوا
فقر
فقرا
فقراء
فقرات
فقرة
فقرر
فقضى
فقط
فقطع
فقل
فقلت
فقلنا
فقمت
فقه
فقهاء
فقوله
فقي
فقية
فقير
فقيرا
فقيرة
فقيل
فقيه
فقيها
فك
فكا
فكار
فكاره
فكارهم
فكان
فكانت
فكانوا
فكتب
فكتوريا
فكذلك
فكر
فكرة
فكرت
فكره
فكري
فكرية
فكل
فكلما
فكم
فكما
فكنت
فكيف
فل
فلا
فلابد
فلاح
فلاديمير
فلاس
فلاسفة
فلاش
فلاطون
فلاك
فلام
فلامه
فلان
فلانا
فلانة
فلاندرز
فلبيني
فلح
فلذلك
فلس
فلست
فلسطين
فلسطيني
فلسطينية
فلسفة
فلسفية
فلعل
فلقد
فلك
فلكي
فلكية
فلم
فلما
فلماذا
فلن
فله
فلها
فلهذا
فلو
فلورنسا
فلوريد
فلوريدا
فلوريس
فلولا
فلويد
فلي
فليس
فليست
فلين
فم
فما
فمات
فماذا
فمتى
فمثل
فمثلا
فمر
فمضى
فمن
فمنها
فمنهم
فمه
فن
فنا
فناء
فنادق
فنادى
فنان
فنانة
فنانو
فناني
فنانين
فنحن
فندق
فندي
فنزل
فنزلت
فنزويلا
فنزويلي
فنسنت
فنظر
فنظرت
فنقول
فنلندا
فنلندي
فنه
فنون
فني
فنيا
فنية
فه
فها
فهارس
فهام
فهد
فهذا
فهذه
فهرب
فهرس
فهرسة
فهرنهايت
فهل
فهلا
فهم
فهما
فهمه
فهمها
فهمي
فهناك
فهو
فهى
فهي
فو
فوا
فواج
فوالله
فواه
فواي
فوت
فوج
فوجب
فوجد
فوجدت
فوجه
فوجي
فور
فورا
فوربس
فورت
فورد
فورست
فورمولا
فوري
فوز
فوزه
فوزها
فوزي
فوس
فوستر
فوسفات
فوضع
فوضى
فوق
فوقع
فوقف
فوقه
فوقها
فوكس
فول
فولت
فولدت
فولر
فولز
فولفغانغ
فولكس
فولي
فون
فوهة
فى
في
فيا
فيبقى
فية
فيت
فيتامين
فيتم
فيتنام
فيتو
فيجب
فيجوز
فيجي
فيخرج
فيد
فيديريكو
فيديو
فير
فيرا
فيراري
فيرجينيا
فيرغسون
فيرمونت
فيرناندو
فيرنر
فيرنون
فيرو
فيروز
فيروس
فيروسات
فيرونا
فيرى
فيري
فيريرا
فيزياء
فيزياي
فيس
فيسبوك
فيستا
فيسنتي
فيشر
فيصل
فيصير
فيض
فيغاس
فيفا
فيقال
فيقول
فيقولون
فيقوم
فيك
فيكتور
فيكتوريا
فيكم
فيكون
فيل
فيلا
فيلادلفيا
فيلد
فيلزم
فيلسوف
فيلق
فيلم
فيلما
فيلمه
فيلموجرافيا
فيلهلم
فيلي
فيليب
فيليبس
فيليبي
فيليكس
فيم
فيما
فيمبيو
فيمكن
فيمن
فين
فينا
فينبغي
فينس
فينسنت
فينوس
فينيكس
فيه
فيها
فيهم
فيهما
فيهن
فيو
فيون
فيينا
فی
ق
قا
قاء
قاب
قابل
قابلا
قابلة
قابله
قابلية
قابوس
قات
قاتل
قاتلة
قاتلوا
قاد
قادة
قادت
قادر
قادرا
قادرة
قادرين
قادم
قادمة
قادها
قاذفة
قار
قارب
قاربه
قارة
قارن
قاري
قاس
قاسم
قاسية
قاصدا
قاض
قاضي
قاضيا
قاطع
قاع
قاعات
قاعة
قاعد
قاعدا
قاعدة
قافلة
قال
قالا
قالب
قالة
قالت
قالته
قاله
قالها
قالوا
قاليم
قام
قاما
قامة
قامت
قامته
قامتها
قامه
قاموا
قاموس
قانون
قانونا
قانوني
قانونيا
قانونية
قاويل
قاي
قب
قباء
قباط
قبال
قبالة
قباي
قبة
قبح
قبر
قبرص
قبره
قبض
قبضة
قبضه
قبعة
قبل
قبلة
قبلت
قبلتها
قبلك
قبلكم
قبلنا
قبله
قبلها
قبلهم
قبلوا
قبلي
قبور
قبول
قبوله
قبولها
قبيح
قبيصة
قبيل
قبيلة
قة
قت
قتا
قتادة
قتال
قتالا
قتالهم
قتالية
قتباس
قتة
قتل
قتلة
قتلت
قتلته
قتله
قتلها
قتلهم
قتلوا
قتلى
قتيبة
قتيل
قتيلا
قثنا
قحطان
قد
قدار
قدام
قدامة
قدت
قدح
قدر
قدرا
قدرات
قدرة
قدرت
قدرته
قدرتها
قدره
قدرها
قدس
قدم
قدما
قدماء
قدمت
قدمته
قدمتها
قدمنا
قدمه
قدمها
قدموا
قدميه
قدوم
قدير
قديم
قديما
قديمة
قذاي
قذف
قر
قرا
قراء
قراءات
قراءة
قراءته
قراءتها
قرابة
قرار
قرارا
قرارات
قراره
قرارها
قراص
قراصنة
قران
قرانه
قراي
قرب
قرة
قرت
قرد
قرر
قررت
قرروا
قرش
قرص
قرض
قرطاج
قرطبة
قرع
قرعة
قرن
قره
قرون
قروية
قرى
قري
قريب
قريبا
قريبة
قرية
قريته
قريش
قريشا
قريظة
قرينة
قزام
قزح
قزم
قزوين
قس
قسام
قسطنطين
قسم
قسما
قسمة
قسمت
قسمين
قسنطينة
قسوة
قسيس
قشتالة
قشرة
قص
قصاء
قصاص
قصاي
قصب
قصبة
قصة
قصته
قصد
قصده
قصر
قصره
قصص
قصصية
قصف
قصفت
قصور
قصوى
قصى
قصي
قصيدة
قصيدته
قصير
قصيرة
قضاء
قضاة
قضاها
قضاي
قضايا
قضبان
قضت
قضى
قضي
قضيب
قضية
قضيت
قط
قطاب
قطار
قطارات
قطاع
قطاعات
قطاعي
قطاعية
قطب
قطر
قطرات
قطرة
قطره
قطرها
قطري
قطع
قطعا
قطعة
قطعت
قطعه
قطعها
قطن
قع
قعد
قف
قفز
قفص
قفل
قل
قلابة
قلادة
قلاع
قلام
قلاوون
قلاي
قلب
قلبا
قلبك
قلبه
قلبها
قلبي
قلبية
قلة
قلت
قلتم
قلته
قلعة
قلق
قلقه
قلل
قلم
قلما
قلنا
قلوب
قلوبنا
قلوبهم
قليات
قلية
قليل
قليلا
قليلة
قليم
قليمي
قليمية
قم
قمار
قماش
قمة
قمت
قمر
قمشة
قمع
قمم
قمنا
قميص
قنا
قنابل
قناة
قناع
قنبلة
قنديل
قنصلية
قنع
قنعة
قنوات
قه
قها
قهوة
قو
قوا
قوات
قواته
قواتها
قوارب
قواس
قواعد
قوال
قواله
قوالهم
قوام
قوامها
قوانين
قواي
قوة
قوت
قوته
قوتها
قود
قوس
قول
قولا
قولان
قولك
قولكم
قولنا
قوله
قولها
قولهم
قولوا
قولي
قولين
قوم
قوما
قومك
قومه
قومهم
قومي
قومية
قوى
قوي
قويا
قوياء
قوية
قى
قي
قيادات
قيادة
قيادته
قيادي
قياس
قياسا
قياسات
قياسي
قياسية
قيام
قيامه
قية
قيثارة
قيد
قيرغيزستان
قيس
قيصر
قيل
قيم
قيمة
قيمت
قيمته
قيمتها
قين
قيود
ك
كا
كاب
كابتن
كابر
كابل
كابن
كابور
كابول
كات
كاتالونيا
كاتالينا
كاتب
كاتبا
كاتبة
كاتبه
كاتدراي
كاترين
كاترينا
كاتو
كاتي
كاثرين
كاثوليكي
كاثوليكية
كاثي
كاد
كادت
كادير
كاديمي
كاديمية
كاديميين
كاذب
كاذبا
كاذبة
كاذيب
كار
كارا
كارتر
كارثة
كارد
كارديف
كارسون
كارل
كارلسون
كارلو
كارلوس
كارمن
كارول
كارولاينا
كارولوس
كارولين
كارولينا
كاروهات
كاري
كارين
كازاخستان
كاس
كاسترو
كاستيلو
كاسل
كاسيد
كاشف
كاظم
كاف
كافة
كافر
كافرا
كافي
كافيا
كافية
كال
كالا
كالتالي
كالذي
كالي
كاليفورنيا
كاليه
كام
كامب
كامبريدج
كامبل
كامل
كاملا
كاملة
كاميرا
كاميرات
كاميرون
كان
كانا
كانت
كانتا
كانتون
كانساس
كانغ
كانو
كانوا
كانون
كاهن
كاونتي
كاي
كايل
كب
كبار
كباقي
كبد
كبديل
كبر
كبرت
كبرها
كبرى
كبير
كبيرا
كبيرة
كة
كت
كتاب
كتابا
كتابات
كتاباته
كتابة
كتابته
كتابتها
كتابنا
كتابه
كتابها
كتابي
كتالوج
كتالونيا
كتاي
كتب
كتبا
كتبت
كتبه
كتبها
كتبهم
كتبوا
كتشف
كتل
كتلة
كتلتها
كته
كتوبر
كتيب
كتيبة
كث
كثار
كثافة
كثب
كثر
كثرة
كثرت
كثره
كثرها
كثرهم
كثروا
كثرية
كثير
كثيرا
كثيرة
كثيرون
كثيرين
كثيف
كثيفة
كجزء
كجم
كحارس
كحد
كد
كدا
كدة
كدت
كدليل
كده
كدولة
كذا
كذاب
كذب
كذبا
كذبت
كذبه
كذبوا
كذلك
كر
كرا
كرات
كراتشي
كراد
كرام
كرامة
كراه
كراهة
كراهية
كراي
كرايغ
كرب
كربلاء
كربون
كرة
كرت
كرتون
كرد
كردستان
كردي
كرر
كرس
كرسي
كركوك
كركيت
كرم
كرمان
كرمه
كره
كرهت
كرهه
كرو
كرواتي
كرواتيا
كروز
كروس
كروفورد
كروم
كرون
كروية
كري
كريات
كريب
كريت
كريس
كريستال
كريستوف
كريستوفر
كريستي
كريستيان
كريستين
كريستينا
كريغ
كريغسمارينه
كريك
كريكت
كريم
كريما
كريمة
كس
كساي
كسب
كسبت
كسبه
كسجين
كسد
كسدة
كسر
كسرى
كسفورد
كسل
كسوف
كسيد
كشافة
كشف
كشفت
كشمير
كشن
كعامل
كعب
كعضو
كعلاج
كعنوان
كغ
كغم
كـ
كـم
كف
كفاءة
كفار
كفارة
كفاية
كفر
كفرا
كفرهم
كفروا
كفه
كفى
كقاي
كقوة
كقول
كقولك
كقوله
كقولهم
ككل
كل
كلا
كلاب
كلات
كلارا
كلارك
كلارنس
كلاعب
كلام
كلاما
كلامه
كلامهم
كلاهما
كلاوديو
كلاوس
كلاي
كلايتون
كلايد
كلاين
كلب
كلة
كلت
كلتا
كلثوم
كلغة
كلف
كلفة
كلفت
كلفن
كلكتا
كلم
كلما
كلمات
كلماته
كلمة
كلمته
كلميم
كلنا
كله
كلها
كلهم
كلوا
كلوب
كلود
كلوديا
كلوريد
كلون
كلوي
كلي
كليا
كليات
كليب
كلية
كلير
كليف
كليفلاند
كليفورد
كليل
كليمنت
كلينتون
كليهما
كليوباترا
كم
كما
كمادة
كمال
كماله
كمان
كمبوديا
كمبيوتر
كمثال
كمثل
كمحترف
كمدافع
كمدرب
كمدير
كمركز
كمساعد
كمصدر
كمل
كملت
كمله
كملها
كممثل
كمن
كمهاجم
كمو
كميات
كمية
كمين
كن
كنا
كنانة
كناي
كناية
كنت
كنتاكي
كنتم
كنتيجة
كندا
كندة
كندي
كندية
كنز
كنعان
كنوز
كنوع
كنيته
كنيسة
كه
كهذا
كهذه
كهرباء
كهرباي
كهف
كهوف
كهيي
كو
كوا
كواحد
كواحدة
كوادور
كوارث
كواست
كواكب
كوان
كوب
كوبا
كوباياشي
كوبر
كوبنهاغن
كوبي
كوت
كوخ
كود
كور
كورة
كورت
كورتيس
كورنوال
كورنيل
كورونا
كوري
كوريا
كورية
كوستا
كوستاريكا
كوسوفو
كوسيلة
كوش
كوع
كوف
كوفمان
كوفي
كوفيد
كوك
كوكب
كوكبة
كوكس
كوكيمبو
كول
كولا
كولات
كولمان
كولن
كولورادو
كولومبوس
كولومبي
كولومبيا
كولونيا
كولي
كوليدج
كولين
كولينز
كوم
كومار
كوميدي
كوميديا
كوميدية
كون
كونا
كونان
كونت
كونتي
كونج
كونراد
كونغ
كونه
كونها
كونهم
كونور
كوني
كونيتيكت
كوهن
كوهين
كووورة
كويتي
كويتية
كويكب
كويكبات
كوين
كوينز
كوينزلاند
كويني
كي
كياس
كيان
كيب
كيبك
كيبيك
كيت
كيتا
كيث
كيد
كيدا
كير
كيرا
كيرك
كيري
كيس
كيسان
كيسي
كيف
كيفن
كيفية
كيفين
كيك
كيل
كيلا
كيلر
كيلو
كيلوغرام
كيلومتر
كيلومترا
كيلومترات
كيلي
كيم
كيمياء
كيمياي
كين
كينت
كينج
كينغ
كينغستون
كينوبويسك
كيني
كينيا
كينيث
كينيدي
كيه
كيو
كيوتو
كييف
ل
لا
لاء
لاب
لاباما
لابد
لابن
لابنه
لاة
لات
لاتحاد
لاتخاذ
لاتسيو
لاتفيا
لاتهم
لاتينية
لاث
لاجي
لاح
لاحظ
لاحظت
لاحق
لاحقا
لاحقة
لاختبار
لاختلاف
لاختيار
لاد
لادن
لارا
لارتفاع
لارس
لاري
لازم
لازما
لازمة
لاس
لاستخدام
لاستخدامه
لاستخدامها
لاستعادة
لاستقبال
لاستكشاف
لاستكمال
لاسكا
لاسم
لاسيلا
لاسيما
لاعب
لاعبا
لاعبة
لاعبي
لاعبين
لاغرانج
لاف
لافال
لاق
لاقت
لاقى
لاك
لاكتشاف
لال
لالا
لالة
لام
لاما
لامب
لامبرت
لامرا
لان
لانا
لانتخاب
لانتخابات
لانتقادات
لاند
لانس
لانغ
لانه
لانها
لاه
لاهاي
لاهور
لاو
لاوس
لاي
لايبزيغ
لايت
لايف
لاين
لب
لبا
لباب
لباس
لبان
لباني
لبانيا
لبانية
لبث
لبحث
لبدء
لبرامج
لبرت
لبرتا
لبرتو
لبرنامج
لبريطانيا
لبس
لبطولة
لبعض
لبقية
لبلدية
لبن
لبناء
لبنان
لبناني
لبنانية
لبني
لبوم
لبومات
لبومه
لبومها
لبي
لبيان
لبيب
لبيت
لبيد
لبيع
لبيك
لبيون
لة
لت
لتا
لتاريخ
لتبادل
لتجنب
لتحديد
لتحرير
لتحسين
لتحقيق
لتحل
لتحليل
لتحويل
لتخزين
لتخفيف
لتدريب
لتدريس
لتدمير
لتر
لتسجيل
لتسمية
لتسهيل
لتشجيع
لتشخيص
لتشغيل
لتشكل
لتشكيل
لتشمل
لتصبح
لتصل
لتصميم
لتصنيع
لتصنيف
لتصوير
لتطبيق
لتطور
لتطوير
لتعادل
لتعداد
لتعزيز
لتعلم
لتعليم
لتغطية
لتغيير
لتفسير
لتقدم
لتقديم
لتقرير
لتقليل
لتقود
لتقييم
لتكون
لتكوين
لتلبية
لتلقي
لتلك
لتمثيل
لتمكين
لتمويل
لتناول
لتنسيق
لتنظيم
لتنفيذ
لتنمية
لته
لتها
لتو
لتوجيه
لتوزيع
لتوسيع
لتوضيح
لتوفير
لتولي
لتوليد
لتي
لتين
لثلاث
لثلاثة
لج
لجا
لجامعة
لجان
لجاي
لجذب
لجزيرة
لجعل
لجماعة
لجمع
لجمعية
لجمهورية
لجميع
لجنة
لجنوب
لجهاز
لجيش
لح
لحاجة
لحاح
لحاد
لحاق
لحالات
لحالة
لحان
لحج
لحد
لحدوث
لحديث
لحرب
لحركة
لحزب
لحساب
لحسن
لحضور
لحظات
لحظة
لحفظ
لحق
لحقت
لحقه
لحقوق
لحكم
لحكومة
لحل
لحم
لحماية
لحمل
لحملة
لحمه
لحن
لحوالي
لحوم
لحياة
لحيته
لحين
لخ
لخدمات
لخدمة
لخط
لخطر
لخلق
لخمس
لد
لدار
لداي
لدت
لدخول
لدراسات
لدراسة
لدرجة
لدعم
لدفع
لدن
لدور
لدورة
لدوري
لدول
لدولة
لدى
لدي
لديك
لدين
لدينا
لديه
لديها
لديهم
لذ
لذا
لذاته
لذة
لذكرى
لذلك
لذوي
لذي
لر
لرا
لرابطة
لرب
لربط
لرجال
لرجل
لرسول
لرصد
لرعاية
لرفع
لرو
لرواية
لروسيا
لري
لرياضة
لز
لزام
لزامي
لزامية
لزراعة
لزم
لزمه
لزوجته
لزوجها
لزوم
لزيادة
لزيارة
لس
لسان
لسانه
لسانيات
لساي
لسباق
لسباقات
لسبب
لست
لسكان
لسلاح
لسلسلة
لسلطة
لسن
لسنا
لسنة
لسنتهم
لسنوات
لسوء
لسياسة
لسيطرة
لش
لشبكة
لشبونة
لشخص
لشخصية
لشدة
لشراء
لشرح
لشركات
لشركة
لشعب
لشو
لشيء
لص
لصاحب
لصاحبه
لصالح
لصحة
لصحيفة
لصفحة
لصناعة
لصنع
لضعف
لضمان
لطالما
لطان
لطاي
لطب
لطف
لطفي
لطلاب
لطلب
لطيف
لطيفة
لظهور
لع
لعاب
لعالم
لعام
لعاي
لعب
لعباده
لعبة
لعبت
لعبد
لعبه
لعدة
لعدد
لعدم
لعرض
لعزلة
لعضوية
لعقد
لعل
لعلاج
لعلم
لعلماء
لعله
لعلوم
لعلي
لعمر
لعمري
لعمل
لعمله
لعمليات
لعملية
لعن
لعنة
لعنوان
لغاء
لغات
لغاز
لغام
لغاية
لغة
لغت
لغته
لغتهم
لغرض
لغز
لغزو
لغوي
لغوية
لغى
لغي
لغيت
لغير
لغيره
لـ
لف
لفا
لفات
لفاته
لفارو
لفاريز
لفاظ
لفاظه
لفان
لفاي
لفة
لفت
لفتح
لفترات
لفترة
لفحص
لفرد
لفرض
لفرقة
لفرنسا
لفريد
لفريدو
لفريق
لفصل
لفظ
لفظا
لفظة
لفظه
لفظي
لفعل
لفكرة
لفلان
لفلسطين
لفن
لفه
لفها
لفهم
لفون
لفونسو
لفي
لفية
لفيروس
لفيس
لفيلم
لفين
لق
لقاء
لقاءات
لقاب
لقاح
لقاعدة
لقانون
لقاه
لقاها
لقاي
لقب
لقبه
لقبول
لقت
لقتال
لقتل
لقد
لقرية
لقسم
لقضاء
لقطات
لقطاع
لقطع
لقلة
لقمان
لقمة
لقمع
لقناة
لقوا
لقوات
لقواعد
لقوانين
لقوة
لقول
لقوله
لقوم
لقى
لقي
لقيادة
لقياس
لقيت
لقيه
لك
لكا
لكافة
لكان
لكانت
لكبار
لكتاب
لكتابة
لكترون
لكترونات
لكتروني
لكترونيات
لكترونية
لكثرة
لكثير
لكرة
لكساندر
لكسب
لكسر
لكسندر
لكل
لكلا
لكلمة
لكلية
لكم
لكن
لكنه
لكنها
لكنهم
لكنيسة
لكون
لكونه
لكونها
لكي
لل
للا
للاتحاد
للاتصال
للاتصالات
للاجي
للاحتفال
للاستثمار
للاستخدام
للاستفادة
للاستيلاء
للاعب
للاعبين
للاقتصاد
للانتخابات
للانتقال
للانضمام
للاهتمام
للباحثين
للبالغين
للباي
للبترول
للبحث
للبحر
للبحرية
للبحوث
للبرلمان
للبرنامج
للبشر
للبطولة
للبقاء
للبلاد
للبلدة
للبناء
للبنات
للبنك
للبنين
للبوسنة
للبيانات
للبيع
للبيي
للتا
للتاريخ
للتجارة
للتجديف
للتحقق
للتحقيق
للتحكم
للتخطيط
للتخلص
للتدريب
للتدريس
للتراث
للتربية
للترجمة
للترفيه
للتزلج
للتصميم
للتصنيف
للتصوير
للتطبيق
للتعامل
للتعاون
للتعبير
للتعذيب
للتعرف
للتعلم
للتعليم
للتغيير
للتقدم
للتقنية
للتكنولوجيا
للتمييز
للتنمية
للتواصل
للتوثيق
للثقافة
للثورة
للجامعات
للجامعة
للجاي
للجدل
للجزاي
للجزيرة
للجسم
للجماعات
للجماعة
للجمعية
للجمهور
للجمهورية
للجميع
للجنة
للجهاز
للجيش
للحاكم
للحالات
للحج
للحد
للحدود
للحديث
للحرارة
للحرب
للحركة
للحرية
للحزب
للحصول
للحفاظ
للحق
للحقوق
للحكم
للحكومة
للحماية
للحياة
للحيوان
للحيوانات
للخارج
للخدمات
للخدمة
للخروج
للخطر
للخلايا
للداي
للدبابات
للدخول
للدراجات
للدراسات
للدراسة
للدستور
للدفاع
للدكتور
للدلالة
للدم
للدماغ
للدموع
للدور
للدوري
للدول
للدولار
للدولة
للدولتين
للديمقراطية
للدين
للذكور
للذهاب
للذوبان
للذي
للذين
للرا
للرجال
للرجل
للرسول
للرعاية
للرقابة
للرواية
للروم
للري
للرياضة
للزراعة
للزواج
للزوج
للس
للسامية
للساي
للسباحة
للسرطان
للسفر
للسفن
للسكان
للسكك
للسلام
للسلطان
للسلطة
للسماح
للسنة
للسياحة
للسيارات
للسياسة
للسيد
للسيدات
للسيطرة
للسينما
للشاعر
للشباب
للشخص
للشرب
للشرطة
للشركات
للشركة
للشطرنج
للشعب
للشعر
للشمس
للشو
للشيء
للشيخ
للصحافة
للصحة
للصلاة
للصليب
للصناعات
للصناعة
للصور
للصيد
للصين
للضرب
للضغط
للضوء
للطاقة
للطاي
للطب
للطباعة
للطبيعة
للطرق
للطفل
للطلاب
للطلبة
للطيران
للعالم
للعام
للعامة
للعاملين
للعاي
للعب
للعبادة
للعبة
للعبد
للعثور
للعدو
للعديد
للعراق
للعرب
للعرض
للعصر
للعقل
للعلاج
للعلاقات
للعلم
للعلماء
للعلوم
للعمال
للعمل
للعملاء
للعمليات
للعملية
للعنف
للعهد
للعودة
للعيش
للعين
للغات
للغاز
للغاية
للغة
للف
للفترة
للفتيات
للفرد
للفرق
للفرقة
للفريق
للفصل
للفضاء
للفعل
للفقراء
للفكر
للفلسفة
للفن
للفنان
للفنانين
للفنون
للفوز
للفيزياء
للفيفا
للفيلم
للقاء
للقاري
للقانون
للقاي
للقتال
للقتل
للقرا
للقراءة
للقرن
للقرية
للقصة
للقضاء
للقطاع
للقلب
للقمر
للقوات
للقوة
للقيادة
للقياس
للقيام
للكاتب
للكاتبة
للكاي
للكتاب
للكتابة
للكتب
للكتلة
للكثير
للكرة
للكريكت
للكشف
للكلمة
للكلية
للكنيسة
للكهرباء
للكويت
للكويكب
للكويكبات
للكيمياء
للم
للماء
للمادة
للمثليين
للمجتمع
للمجلس
للمجموعة
للمحافظة
للمحترفين
للمحكمة
للمخرج
للمدارس
للمدرسة
للمدينة
للمرء
للمرا
للمرة
للمرجع
للمرحلة
للمرض
للمرضى
للمركز
للمريض
للمزيد
للمساعدة
للمستخدم
للمستخدمين
للمسجد
للمسرح
للمسلسل
للمسلمين
للمسيحية
للمسيحيين
للمشاركة
للمشروع
للمطالبة
للمعايير
للمعرفة
للمعلومات
للمعهد
للمغرب
للمقاومة
للمكتب
للمكتبة
للملاحة
للملايين
للملك
للملكة
للمملكة
للمناطق
للمنتجات
للمنتخب
للمنطقة
للمنظمة
للمو
للمواد
للموارد
للمواطنين
للموت
للموسم
للموسيقى
للموقع
للمياه
للميلاد
للن
للنادي
للناس
للناشي
للنباتات
للنبي
للنساء
للنشاط
للنشر
للنظام
للنظر
للنفس
للنفط
للنقل
للنمو
لله
للهجرة
للهجوم
للهند
للهندسة
للهواء
للهيي
للوثاي
للوحدة
للوزراء
للوزن
للوصول
للوطن
للوقاية
للولايات
للولاية
لليهود
لليوم
لليونسكو
لم
لما
لماء
لمادة
لماذا
لماس
لمام
لمان
لماني
لمانيا
لمانية
لمة
لمتابعة
لمثل
لمجتمع
لمجرد
لمجلة
لمجلس
لمجموعة
لمحاربة
لمحافظة
لمحاولة
لمحة
لمحترفي
لمحمد
لمختلف
لمدارات
لمداره
لمدة
لمدرسة
لمديرية
لمدينة
لمراجعة
لمراقبة
لمرحلة
لمرض
لمرضى
لمركز
لمزيد
لمس
لمسار
لمساعدة
لمسافات
لمسافة
لمسلم
لمشاهدة
لمشروع
لمشيخة
لمصدر
لمصر
لمصلحة
لمع
لمعالجة
لمعرفة
لمعظم
لمعلومات
لمعنى
لمعهد
لمفهوم
لمقاطعة
لمقاومة
لمكافحة
لمكان
لمكتب
لملك
لممارسة
لمملكة
لمن
لمناقشة
لمنتخب
لمنصب
لمنطقة
لمنظمة
لمنع
لمنيوم
لمهاجمة
لمهرجان
لمو
لمواجهة
لمواصلة
لموت
لموسم
لموسى
لموقع
لمي
لن
لنا
لنادي
لنتاي
لنحو
لندن
لنشر
لنظام
لنظرية
لنفس
لنفسك
لنفسه
لنفسها
لنفسي
لنقل
لنكولن
لنهر
لنوع
لني
لنيل
له
لها
لهام
لهب
لهة
لهجات
لهجة
لهجوم
لهذا
لهذه
لهم
لهما
لهن
لهو
لهي
لهية
لهيعة
لهيي
لو
لوا
لواء
لواح
لواحد
لوازم
لوالده
لوان
لواي
لوب
لوبيز
لوثر
لوجه
لوجود
لوح
لوحات
لوحاته
لوحة
لوحدة
لوحظ
لودفيغ
لورا
لوران
لورانس
لورد
لورنس
لوري
لورين
لورينزو
لوزارة
لوزان
لوزير
لوس
لوساي
لوسي
لوسيا
لوصف
لوضع
لوط
لوغان
لوف
لوفة
لوقا
لوقت
لوقف
لوك
لوكا
لوكاس
لوكالة
لوكسمبورغ
لوكهيد
لولا
لولاية
لوم
لومنيوم
لون
لونا
لوند
لوندي
لونسو
لونغ
لونه
لونها
لوني
لوه
لوهية
لوي
لوية
لويجي
لويد
لويز
لويزا
لويزيانا
لويس
لويل
لى
لي
ليا
ليات
لياس
لياف
ليال
ليالي
ليام
ليانور
ليبرالية
ليبي
ليبيا
ليبيريا
لية
ليت
ليتربوكسد
ليتل
ليتم
ليتني
ليتوانيا
ليث
ليحل
ليخاندرو
ليختنشتاين
ليدز
ليدي
ليديا
ليرة
ليز
ليزا
ليزابيث
ليزلي
ليس
ليسا
ليساندرو
ليسانس
ليست
ليستر
ليسوا
ليسون
ليشمل
ليصبح
ليصل
ليعلم
ليعمل
ليعود
ليف
ليفة
ليفربول
ليفه
ليفي
ليفين
ليقوم
ليك
ليكس
ليكساندر
ليكسي
ليكم
ليكون
ليكونوا
ليل
ليلا
ليلة
ليلعب
ليلى
ليلي
ليم
ليما
ليمان
لين
لينا
لينتقل
ليندا
ليندسي
لينكس
لينكولن
لينكون
لينوي
لينين
لينيوس
ليه
ليها
ليهم
ليهما
ليو
ليوبولد
ليوت
ليوم
ليون
ليونارد
ليوناردو
ليونيل
م
ما
ماء
مابين
مات
ماتت
ماتوا
ماتياس
ماتيو
ماثيو
ماثيوز
ماجة
ماجد
ماجدة
ماجستير
ماجه
ماح
ماد
مادة
مادي
مادية
ماديسون
ماذا
مار
مارا
مارات
ماراتي
ماراتية
ماراثون
مارة
مارتن
مارتي
مارتين
مارتينز
مارتينيز
مارثا
مارجريت
مارس
مارسيل
مارسيلو
مارسيليا
مارش
مارشال
مارغريت
مارفل
مارك
ماركت
ماركس
ماركو
ماركوس
ماركيز
مارلين
ماري
ماريا
ماريان
ماريانا
ماريانو
ماريلاند
مارين
مارينا
مارينو
ماريو
ماريوس
ماريون
مازال
مازالت
مازن
مازون
مازيغ
مازيغية
ماس
ماساتشوستس
ماسة
ماستر
ماسون
ماسي
ماض
ماضي
ماغدالينا
ماغنوس
ماك
ماكاو
ماكدونالد
ماكس
ماكسويل
ماكسيميليان
ماكن
ماكنزي
مال
مالا
مالة
مالطا
مالك
مالكا
مالكوم
مالكي
ماله
مالها
مالون
مالي
ماليا
مالية
ماليزيا
مام
ماما
مامة
مامنا
مامه
مامها
مامهم
مامي
مامية
مان
مانا
مانة
ماندا
مانديلا
مانشستر
مانع
مانغا
مانهاتن
مانويل
ماني
مانيلا
ماه
ماهر
ماهية
ماو
ماونت
ماي
مايا
ماير
مايرز
مايك
مايكروسوفت
مايكل
مايلز
ماين
مايو
مباح
مباحث
مبادرات
مبادرة
مبادي
مباراة
مباراته
مباراتين
مبارز
مبارك
مباريات
مبارياته
مباشر
مباشرة
مبالغ
مبالغة
مبان
مباني
مبتدا
مبدا
مبدي
مبراطور
مبراطورة
مبراطوري
مبراطوريات
مبراطورية
مبرر
مبرهنة
مبريالية
مبشر
مبكر
مبكرا
مبكرة
مبلغ
مبنى
مبني
مبنيا
مبنية
مبيدات
مبير
مبيع
مبيعا
مبيعات
مبين
مبينا
مة
مت
متا
متابعة
متاجر
متاح
متاحة
متاحف
متار
متاع
متباينة
متتالية
متجانسة
متجددة
متجر
متجه
متجهة
متحدث
متحرك
متحركة
متحف
متخص
متخصص
متخصصة
متر
مترا
مترجم
مترجمة
مترو
متروك
متزايد
متزايدة
متزلج
متزوج
متزوجة
متسابق
متسابقا
متساوي
متساوية
متشابهة
متصفح
متصل
متصلا
متصلة
متضمنة
متطابقة
متطلبات
متطورة
متعب
متعة
متعدد
متعددة
متعلق
متعلقة
متعمدا
متغير
متغيرات
متغيرة
متفاوتة
متفرج
متفرقة
متفق
متقاربة
متقاعد
متقدم
متقدمة
متك
متكامل
متكاملة
متكرر
متكررة
متكلم
متلازمة
متماثلة
متميز
متميزة
متن
متنا
متناهية
متناول
متنزه
متنها
متنوعة
مته
متها
متهم
متوافقة
متوسط
متوسطة
متوفر
متوفرة
متوقع
متوقعة
متولي
متى
متي
متين
مث
مثال
مثالا
مثاله
مثالها
مثالهم
مثالي
مثالية
مثبت
مثبتة
مثبطات
مثقال
مثل
مثلا
مثلة
مثلت
مثلث
مثلك
مثلما
مثله
مثلها
مثلهم
مثلي
مثلية
مثنى
مثير
مثيرة
مثيل
مج
مجاز
مجال
مجالا
مجالات
مجالس
مجان
مجانا
مجاني
مجانية
مجاهد
مجاورة
مجتمع
مجتمعات
مجتمعة
مجد
مجدد
مجددا
مجدف
مجدي
مجرة
مجرد
مجردة
مجرى
مجري
مجزرة
مجل
مجلات
مجلة
مجلد
مجلدات
مجلس
مجلسا
مجلسه
مجمع
مجمل
مجموع
مجموعات
مجموعة
مجموعته
مجموعتين
مجموعه
مجنون
مجهزة
مجهول
مجهولة
مجيء
مجيد
مجيي
مح
محادثات
محارب
محاربة
محاسبة
محاسن
محاصرة
محاصيل
محاضر
محاضرات
محاضرة
محاط
محاطة
محافظ
محافظات
محافظة
محاكاة
محاكم
محاكمة
محال
محالة
محام
محامي
محامية
محاور
محاولات
محاولة
محاولته
محايدة
محب
محبة
محبته
محبوب
محتاج
محترف
محترفات
محترفة
محترفي
محتمل
محتملة
محتوى
محتويات
محدث
محدثا
محدثة
محدد
محددة
محدود
محدودة
محذوف
محرر
محرز
محرك
محركات
محرم
محرما
محرمة
محسن
محصن
محصول
محض
محط
محطات
محطة
محظور
محظوظ
محفوظ
محفوظة
محقق
محكم
محكمة
محل
محلا
محلات
محلة
محله
محلها
محلول
محلي
محليا
محلية
محم
محمد
محمدا
محمل
محمود
محمول
محمولة
محمي
محمية
محنة
محو
محور
محي
محيط
محيي
مخازن
مخاطر
مخافة
مخالف
مخالفا
مخالفة
مخاوف
مختار
مختارات
مختارة
مختبر
مختبرات
مخترع
مختص
مختصة
مختصر
مختصرة
مختلط
مختلطة
مختلطين
مختلف
مختلفا
مختلفة
مختلفتين
مختلفين
مخرج
مخرجة
مخرمة
مخزن
مخزوم
مخزون
مخصص
مخصصة
مخصوص
مخطط
مخططات
مخطوط
مخطوطات
مخطوطة
مخطي
مخلد
مخلص
مخلوق
مخلوقة
مخنف
مخيم
مخيمات
مد
مداخل
مداد
مدادات
مدار
مدارس
مداره
مدافع
مدام
مداي
مدبولي
مدة
مدته
مدتها
مدح
مدحت
مدخل
مدد
مدر
مدرب
مدربا
مدرج
مدرجة
مدرس
مدرسا
مدرسة
مدرعة
مدرك
مدريد
مدعوم
مدعومة
مدغشقر
مدفع
مدفعية
مدفوعة
مدمجة
مدمرة
مدن
مدني
مدنيا
مدنية
مدنيين
مدونة
مدى
مدي
مدير
مديرا
مديرة
مديريات
مديرية
مدين
مدينة
مدينته
مدينتي
مذ
مذاهب
مذبحة
مذكر
مذكرات
مذكراته
مذكرة
مذكور
مذنب
مذهب
مذهبه
مذهبهم
مذيع
مذيعة
مر
مرا
مراء
مرات
مراتب
مراجع
مراجعات
مراجعة
مراحل
مراد
مراده
مرار
مرارا
مراسل
مراسم
مراض
مراعاة
مرافق
مراقب
مراقبة
مراكز
مراكش
مران
مربع
مربعا
مربعة
مرة
مرت
مرتبة
مرتبط
مرتبطة
مرتضى
مرتفع
مرتفعات
مرتفعة
مرتين
مرثد
مرج
مرجع
مرجعية
مرحبا
مرحلة
مرحلتين
مردود
مردويه
مررت
مرزوق
مرسل
مرسلا
مرسوم
مرسى
مرسي
مرسيدس
مرسيليا
مرشح
مرشد
مرصد
مرض
مرضه
مرضى
مرضي
مرضية
مرغوب
مرفق
مرفوع
مرفوعا
مرقد
مرقس
مرك
مركب
مركبا
مركبات
مركبة
مركز
مركزا
مركزه
مركزها
مركزي
مركزية
مركم
مرمى
مرن
مرنا
مرني
مره
مرها
مرهم
مرو
مروا
مروان
مروحية
مرور
مرورا
مرون
مرونة
مري
مريض
مريضا
مريكا
مريكان
مريكتين
مريكي
مريكية
مريكيتان
مريكيون
مريكيين
مريم
مرين
مرکز
مزاج
مزاحم
مزار
مزارع
مزاعم
مزايا
مزج
مزدوج
مزدوجة
مزرعة
مزود
مزودة
مزيج
مزيد
مزينة
مس
مسا
مساء
مسابقات
مسابقة
مساجد
مساحات
مساحة
مساحته
مساحتها
مسار
مسارات
مسارح
مساعد
مساعدا
مساعدات
مساعدة
مسافات
مسافة
مسافر
مساك
مساكن
مساهمات
مساهمة
مساواة
مساوية
مساي
مسبار
مسببات
مسبق
مسبقا
مسبقة
مسبوق
مست
مستا
مستحيل
مستخدم
مستخدمة
مستخدمي
مستدامة
مستديرة
مستر
مستردام
مستشار
مستشارا
مستشفى
مستشفيات
مستطيل
مستطيلة
مستعار
مستعد
مستعدة
مستعمرات
مستعمرة
مستقبل
مستقبلا
مستقبلات
مستقبلية
مستقر
مستقرة
مستقل
مستقلا
مستقلة
مستقيم
مستقيمة
مستكشف
مستمدة
مستمر
مستمرة
مستند
مستوحاة
مستوحى
مستودع
مستوطنات
مستوطنة
مستوى
مستوي
مستويات
مسجد
مسجدا
مسجل
مسجلة
مسح
مسحوق
مسدد
مسرح
مسرحي
مسرحيات
مسرحية
مسروق
مسطح
مسطحة
مسعر
مسعود
مسقط
مسك
مسكن
مسكين
مسلح
مسلحة
مسلحين
مسلسل
مسلسلات
مسلك
مسلم
مسلما
مسلمة
مسلمون
مسلمي
مسلمين
مسموح
مسمى
مسند
مسنده
مسهر
مسو
مسودة
مسى
مسي
مسيحي
مسيحية
مسيحيين
مسير
مسيرة
مسيرته
مسيرتها
مسيسيبي
مسيلمة
مش
مشابه
مشابهة
مشاة
مشارك
مشاركات
مشاركة
مشاركته
مشاركتها
مشاريع
مشاعر
مشاكل
مشاهد
مشاهدة
مشاهير
مشايخ
مشترك
مشتركا
مشتركة
مشتق
مشتقة
مشجعي
مشرف
مشرق
مشرك
مشروب
مشروبات
مشروع
مشروعا
مشروعات
مشروعة
مشعل
مشغل
مشقة
مشكلات
مشكلة
مشهد
مشهور
مشهورا
مشهورة
مشواره
مشوارها
مشى
مشي
مشيخات
مشيخة
مشير
مشيرا
مشيرة
مشين
مشيي
مصاب
مصابة
مصابيح
مصادر
مصادرة
مصار
مصارع
مصارعة
مصالح
مصانع
مصاي
مصب
مصباح
مصحف
مصحوبة
مصدر
مصدرا
مصدرها
مصدق
مصر
مصراوي
مصرع
مصرف
مصرفي
مصري
مصرية
مصطفى
مصطلح
مصطلحات
مصعب
مصفوفة
مصل
مصلحة
مصلى
مصمم
مصممة
مصنع
مصنف
مصنفة
مصنوع
مصنوعة
مصور
مصورة
مصيبة
مصير
مضاد
مضادات
مضادة
مضاعفات
مضاعفة
مضاف
مضت
مضخة
مضر
مضرب
مضطرب
مضمون
مضى
مضي
مضيف
مضيق
مطابق
مطابقة
مطار
مطارات
مطاردة
مطاعم
مطالب
مطالبة
مطبخ
مطبعة
مطبوع
مطبوعات
مطبوعة
مطر
مطران
مطرف
مطعم
مطلب
مطلع
مطلق
مطلقا
مطلقة
مطلوب
مطلوبة
مطمي
مطيع
مظاهر
مظاهرات
مظاهرة
مظفر
مظلة
مظلم
مظلمة
مظهر
مع
معا
معاء
معابد
معاد
معاداة
معادلات
معادلة
معادن
معادية
معاذ
معارض
معارضة
معارف
معارك
معاصر
معاصرة
معالج
معالجة
معالجتها
معالم
معالي
معامل
معاملات
معاملة
معان
معاناة
معاني
معانيه
معانيها
معاهد
معاهدات
معاهدة
معاوية
معايير
معبد
معبر
معتبر
معتبرة
معتدل
معتدلة
معترف
معتزل
معتقدات
معتقل
معتمد
معتمدا
معتمدة
معجزة
معجم
معد
معدات
معدان
معدة
معدل
معدلات
معدلة
معدن
معدني
معدنية
معرض
معرضة
معرف
معرفة
معرفته
معركة
معروف
معروفا
معروفة
معز
معزولة
معسكر
معسكرات
معشر
معصوم
معصية
معظم
معظمها
معظمهم
معقد
معقدة
معقل
معقول
معقولة
معك
معكم
معلق
معلقة
معلم
معلما
معلمة
معلوم
معلوما
معلومات
معلومة
معماري
معمارية
معمر
معمل
معن
معنا
معناه
معناها
معنى
معني
معه
معها
معهد
معهم
معهما
معي
معيار
معيلات
معيلون
معين
معينا
معينة
مغادرة
مغارة
مغامرات
مغامرة
مغربي
مغربية
مغطاة
مغطى
مغلق
مغلقة
مغن
مغناطيسي
مغناطيسية
مغني
مغنية
مغول
مغيرة
مـا
مـن
مفاتيح
مفاجا
مفاجي
مفادها
مفارقة
مفاعل
مفاهيم
مفاوضات
مفتاح
مفتوح
مفتوحا
مفتوحة
مفتي
مفخخة
مفر
مفرد
مفردات
مفردة
مفرط
مفصل
مفصلة
مفصليات
مفعول
مفقود
مفكر
مفهوم
مفهومة
مفوض
مفوضية
مفيد
مفيدة
مقابر
مقابل
مقابلات
مقابلة
مقاتل
مقاتلة
مقاتلي
مقاربة
مقارنة
مقاصد
مقاطع
مقاطعات
مقاطعة
مقاعد
مقال
مقالا
مقالات
مقالاته
مقالة
مقالته
مقام
مقامه
مقاومة
مقاييس
مقبرة
مقبل
مقبول
مقبولة
مقتبس
مقترح
مقترحات
مقتضى
مقتل
مقتله
مقد
مقدار
مقداره
مقدارها
مقدرة
مقدس
مقدسة
مقدم
مقدما
مقدمات
مقدمة
مقدمته
مقدمي
مقدونيا
مقر
مقرا
مقربة
مقرر
مقرن
مقره
مقرها
مقسم
مقسمة
مقصود
مقصوده
مقصورة
مقطع
مقطوع
مقطوعة
مقعد
مقعدا
مقعده
مقهى
مقياس
مقيد
مقيدة
مقيم
مقيما
مقيمة
مك
مكاتب
مكارثي
مكاسب
مكافا
مكافحة
مكافي
مكان
مكانا
مكانات
مكانة
مكانته
مكانتها
مكانه
مكانها
مكانهم
مكاني
مكانيات
مكانية
مكة
مكتب
مكتبات
مكتبة
مكتبه
مكتملة
مكتوب
مكتوبة
مكتوم
مكث
مكثف
مكثفة
مكحول
مكرم
مكروه
مكسورة
مكسيكو
مكسيكي
مكسيكية
مكعب
مكلف
مكلفة
مكن
مكناس
مكنة
مكنه
مكوك
مكون
مكونات
مكونة
مكي
مل
ملء
ملا
ملاء
ملاءمة
ملابس
ملات
ملاح
ملاحة
ملاحظات
ملاحظة
ملازم
ملاعب
ملاك
ملاكم
ملاكمة
ملال
ملامح
ملاي
ملايين
ملبورن
ملة
ملت
ملتقى
ملجا
ملح
ملحق
ملحمة
ملحن
ملحوظ
ملحوظة
ملخص
ملزمة
ملعب
ملغ
ملف
ملفات
ملك
ملكا
ملكة
ملكت
ملكه
ملكها
ملكهم
ملكي
ملكية
ملم
مله
ملو
ملوك
ملون
ملونة
ملي
مليء
مليار
مليارات
مليكة
مليمتر
مليون
مليونا
مليوني
مليي
مم
مما
مماتي
مماثل
مماثلة
ممارسات
ممارسة
ممالك
ممت
ممتاز
ممتازة
ممتدة
ممتلكات
ممتلي
ممتنع
ممثل
ممثلا
ممثلة
ممثلي
ممثلين
ممدوح
ممر
ممرات
ممرضة
ممفيس
ممكن
ممكنا
ممكنة
مملكة
مملكته
مملوك
مملوكة
ممن
ممنوع
ممية
مميز
مميزات
مميزة
من
منا
مناء
منات
مناجم
مناخ
منارة
منازل
منازلهم
مناسب
مناسبا
مناسبات
مناسبة
مناصب
مناطق
مناظر
مناظرة
مناف
منافذ
منافس
منافسات
منافسة
منافسه
منافع
مناقب
مناقشات
مناقشة
مناهج
مناهضة
مناورات
منبر
منبه
منة
منت
منتج
منتجات
منتجاتها
منتجة
منتجع
منتخب
منتخبات
منتدى
منتديات
منتزه
منتشر
منتشرة
منتصف
منتظم
منتظمة
منتهى
منجم
منح
منحة
منحت
منحدر
منحنى
منحه
منحها
منحوتة
منخفض
منخفضة
منده
مندوب
منذ
منذر
منزل
منزلا
منزلة
منزله
منزلها
منزلي
منسق
منسوب
منسوخ
منشا
منشور
منشورات
منشورة
منشي
منصات
منصب
منصبه
منصة
منصوب
منصور
منطق
منطقة
منطقتي
منطقي
منطقية
منطلق
منظر
منظم
منظمات
منظمة
منظور
منظومة
منع
منعت
منعه
منعها
منغوليا
منفذ
منفرد
منفردا
منفردة
منفصل
منفصلة
منفعة
منقطع
منك
منكر
منكرا
منكم
منه
منها
منهاج
منهج
منهجي
منهجية
منهم
منهما
منهن
منوا
منون
منى
مني
منية
منير
منيع
منين
مه
مها
مهات
مهاجر
مهاجم
مهاجمة
مهارات
مهارة
مهام
مهامه
مهتم
مهد
مهددة
مهدي
مهر
مهران
مهرجان
مهرجانات
مهم
مهما
مهمات
مهمة
مهمته
مهمتها
مهملة
مهنا
مهنة
مهندس
مهندسي
مهني
مهنية
مو
موا
موات
مواج
مواجهات
مواجهة
مواد
موارد
موازنة
مواسم
مواصفات
مواصلة
مواضع
مواضيع
مواطن
مواطني
مواطنين
مواعيد
موافق
موافقة
مواقع
مواقف
موال
موالا
موالكم
مواله
موالهم
موالي
مواليد
مواني
مواهب
مواي
موت
موتا
موته
موتها
موتورز
موثوق
موثوقة
موجات
موجب
موجبا
موجبة
موجة
موجز
موجه
موجهة
موجو
موجود
موجودا
موجودة
موحد
موحدة
مود
مودي
مور
مورا
موراليس
موراي
مورتون
مورد
مورغان
مورنينغ
مورو
موري
موريتانيا
موريس
موريسون
موريشيوس
مورينو
موزع
موزعة
موزمبيق
موس
موسكو
موسم
موسمه
موسمين
موسوعة
موسوليني
موسى
موسيقى
موسيقي
موسيقية
موصل
موصوف
موضة
موضح
موضع
موضعا
موضعه
موضعها
موضوع
موضوعا
موضوعات
موضوعة
موط
موطن
موطنه
موطنها
موظف
موظفا
موظفي
موظفين
موعد
موفي
موقع
موقعا
موقعة
موقعه
موقعها
موقف
موقفه
موقوف
موقوفا
موك
موكب
مول
مولانا
مولاه
مولاهم
مولاي
مولد
مولده
مولدوفا
مولر
مولود
مولى
مولي
موم
مومباي
مومة
مون
موناكو
مونت
مونتاج
مونتانا
مونتريال
مونتي
مونتيفيديو
مونرو
مونستر
مونيا
مونيكا
موهبة
موي
موية
مويين
مى
مي
ميا
ميادين
ميال
ميامي
ميانمار
مياه
مية
ميت
ميتا
ميتاكريتيك
ميتال
ميتة
ميتشل
ميتشيل
ميثاق
ميثولوجيا
ميثيل
ميجا
ميخاي
ميد
ميداليات
ميدالية
ميدان
ميديا
مير
ميرا
ميراث
ميرال
ميراندا
ميرة
ميرزا
ميرفي
ميركا
ميركوري
ميركي
ميركية
ميركيين
ميري
ميريام
ميرية
ميز
ميزات
ميزان
ميزانية
ميزة
ميزوري
ميس
ميسا
ميسرة
ميسوري
ميسي
ميسيسيبي
ميشال
ميشيغان
ميشيل
ميغيل
ميك
ميكانيكا
ميكانيكي
ميكانيكية
ميكاي
ميكي
ميل
ميلا
ميلاد
ميلاده
ميلادي
ميلادية
ميلان
ميلانو
ميلتون
ميلر
ميلز
ميلو
ميلي
ميليا
ميليسا
ميليشيا
ميم
ميمون
ميمونة
مين
مينا
ميناء
مينة
مينغ
ميني
مينية
مينيسوتا
ميوزك
ميوزيك
ميوزيكاليكس
ميونخ
ميونيخ
ن
نا
ناء
ناب
نابة
نابلس
نابليون
نابولي
نابيب
ناة
نات
ناتالي
ناتج
ناتجة
ناث
ناثان
ناجح
ناجحة
ناجي
ناجيل
ناحية
ناخب
ناد
نادال
نادر
نادرا
نادرة
نادى
نادي
نادية
نادين
ناديه
نار
نارا
نارة
ناروتو
ناري
نارية
ناس
ناسا
ناش
ناشر
ناشرون
ناشط
ناشطة
ناشفيل
ناشي
ناشيد
ناشيونال
ناصر
ناضول
ناطق
ناظر
ناظم
ناعم
ناعمة
ناف
نافذة
نافس
نافع
ناقة
ناقد
ناقش
ناقص
ناقصة
ناقل
ناقلات
ناقلة
ناك
نال
نالت
نام
ناميبيا
نان
نانا
نانسي
نانومتر
نانية
ناه
ناهز
ناو
ناي
نايت
نايجل
نايف
نب
نبا
نباء
نبات
نباتات
نباتي
نباتية
نبار
نباري
نبت
نبتة
نبتون
نبذة
نبراسكا
نبض
نبع
نبه
نبوب
نبوة
نبي
نبيا
نبياء
نبياي
نبيذ
نبيل
نبيلة
نبينا
نبيه
نة
نت
نتاج
نتاجه
نتاجها
نتاجية
نتاي
نتایج
نتج
نتجت
نتحدث
نتخب
نتر
نترتينمنت
نترنت
نتفليكس
نتقل
نتل
نتم
نتنياهو
نتوء
نتورك
نتوني
نتونيو
نتويرب
نتيجة
نث
نثروبولوجيا
نثوي
نثوية
نثى
نج
نجا
نجاب
نجابية
نجاة
نجاح
نجاحا
نجاحه
نجاحها
نجاد
نجاز
نجازات
نجازاته
نجب
نجبا
نجبت
نجت
نجح
نجحت
نجد
نجده
نجران
نجز
نجس
نجل
نجلاند
نجلترا
نجلو
نجلوس
نجليز
نجليزي
نجليزية
نجم
نجمة
نجمي
نجو
نجوم
نجوى
نجي
نجيب
نجيح
نجيل
نجيلا
نجيلو
نجيلية
نح
نحاء
نحات
نحاس
نحب
نحت
نحتاج
نحر
نحصل
نحن
نحو
نحوا
نحوه
نحوها
نخبة
نخل
نخلة
نخيل
ند
نداء
ندبندنت
ندر
ندرة
ندرسن
ندرسون
ندرو
ندروز
ندرويد
ندري
ندريا
ندرياس
ندريس
ندريه
ندلس
ندلسي
ندلسية
ندم
ندوة
ندورا
ندونيسي
ندونيسيا
ندونيسية
ندى
ندي
نديانا
نديانابوليس
ندية
نديز
نذ
نذار
نذاك
نذر
نذكر
نذير
نراه
نرويجي
نرى
نريد
نريكي
نز
نزار
نزاع
نزال
نزالا
نزع
نزعة
نزل
نزلت
نزلنا
نزله
نزلوا
نزهة
نزول
نزيف
نزيل
نزيم
نزيمات
نس
نسا
نساء
نساب
نسان
نسانا
نساني
نسانية
نساي
نسب
نسبة
نسبته
نسبه
نسبي
نسبيا
نسبية
نسة
نستطيع
نستغرام
نسجة
نسخ
نسخة
نسر
نسق
نسل
نسلم
نسمة
نسمع
نسوة
نسولين
نسوية
نسى
نسي
نسيان
نسيت
نسيج
نسيستري
نسيم
نش
نشا
نشاء
نشاءات
نشاد
نشاط
نشاطا
نشاطات
نشاطه
نشاطها
نشاو
نشاي
نشبت
نشد
نشدني
نشده
نشر
نشرة
نشرت
نشرته
نشرتها
نشره
نشرها
نشط
نشطاء
نشطة
نشطتها
نشوء
نشوب
نشي
نشيد
نص
نصا
نصار
نصاره
نصارى
نصاري
نصاف
نصب
نصت
نصح
نصر
نصرة
نصف
نصفه
نصفها
نصفي
نصفين
نصل
نصه
نصوص
نصيب
نصيبه
نصيحة
نصير
نضال
نضرة
نضم
نط
نطاق
نطاقات
نطاكية
نطق
نطلق
نطوان
نطون
نطوني
نطونيو
نظ
نظار
نظام
نظاما
نظامي
نظاي
نظر
نظرا
نظرة
نظرت
نظرنا
نظره
نظرهم
نظري
نظريات
نظرية
نظريته
نظم
نظمة
نظمت
نظمتها
نظمه
نظمها
نظير
نظيره
نظيف
نظيفة
نع
نعاش
نعام
نعت
نعتقد
نعرف
نعرفه
نعلم
نعم
نعمان
نعمة
نعمت
نعمل
نعمه
نعيش
نعيم
نعيمة
نغام
نغريد
نغمة
نغولا
نف
نفا
نفاذ
نفاس
نفاق
نفال
نفاي
نفت
نفخ
نفذ
نفذت
نفر
نفس
نفسا
نفسك
نفسكم
نفسنا
نفسه
نفسها
نفسهم
نفسهن
نفسي
نفسية
نفط
نفع
نفعا
نفعل
نفق
نفقات
نفقة
نفقت
نفلونزا
نفه
نفو
نفوذ
نفوذه
نفوذها
نفورم
نفوس
نفوسهم
نفى
نفي
نفية
نفيه
نق
نقابة
نقاد
نقاذ
نقاش
نقاض
نقاط
نقد
نقدا
نقدي
نقدية
نقذ
نقرة
نقش
نقص
نقصان
نقض
نقطة
نقل
نقلا
نقلة
نقلت
نقله
نقلها
نقوش
نقول
نقوم
نقي
نقيب
نقيض
نك
نكا
نكاح
نكار
نكر
نكرت
نكره
نكروا
نكلترا
نكليز
نكليزي
نكليزية
نكم
نكون
نلاحظ
نم
نما
نماء
نماذج
نماط
نماي
نمت
نمر
نمساوي
نمط
نمو
نموا
نموذج
نموذجا
نموذجي
نموذجية
نمي
نمير
ننا
ننسى
ننظر
نني
نه
نها
نهاء
نهار
نهارا
نهاي
نهايات
نهاية
نهايته
نهايتها
نهب
نهت
نهج
نهر
نهري
نهض
نهضة
نهم
نهما
نهن
نهى
نهي
نهيان
نو
نوا
نواب
نواة
نواحي
نوادر
نوار
نواس
نواع
نواعه
نواعها
نواف
نوافذ
نوال
نوبات
نوبة
نوبل
نوح
نور
نورا
نورة
نورث
نورمان
نوره
نوري
نوع
نوعا
نوعان
نوعه
نوعها
نوعي
نوعية
نوعين
نوف
نوفا
نوفل
نوفمبر
نوكيا
نولان
نوم
نومه
نون
نووي
نووية
نوى
نويل
نى
ني
نيا
نياب
نيابة
نيبال
نية
نيت
نيتا
نيتشه
نيته
نيث
نيجيري
نيجيريا
نيد
نير
نيران
نيس
نيسابور
نيسان
نيشان
نيف
نيفادا
نيق
نيك
نيكاراغوا
نيكسون
نيكول
نيكولا
نيكولاس
نيكولاي
نيكي
نيل
نيلسن
نيلسون
نين
نينا
نينة
نينتندو
نينوى
نيو
نيوتن
نيوجيرسي
نيوز
نيوزلندي
نيوزيلندا
نيوزيلندي
نيوزيلندية
نيوساوث
نيوكاسل
نيومان
نيومكسيكو
نيون
نيويورك
ه
ها
هاء
هاب
هابسبورغ
هابل
هات
هاتان
هاتف
هاتين
هاج
هاجر
هاجرت
هاجروا
هاجم
هاجمت
هاد
هادي
هار
هاربر
هارت
هاردي
هارفارد
هارفي
هارلم
هارولد
هارون
هاري
هاريس
هاريسون
هاشم
هافانا
هال
هالة
هالك
هالي
هاليفاكس
هام
هاما
هامبورغ
هامة
هامش
هاملتون
هاميلتون
هان
هانا
هانة
هانت
هانز
هانزارد
هانس
هانسن
هانغل
هانم
هانوفر
هاني
هاهنا
هاو
هاواي
هاوس
هاي
هايتي
هايد
هايدلبرغ
هايدن
هايز
هاينريش
هاينز
هب
هبة
هبت
هبط
هبطت
هبوط
هبيرة
هة
هت
هتلر
هجر
هجرة
هجري
هجرية
هجمات
هجوم
هجوما
هد
هدا
هداء
هداف
هدافه
هدافها
هداه
هدايا
هداية
هدد
هدسون
هدف
هدفا
هدفه
هدفها
هدفين
هدم
هدنة
هدوء
هدى
هدي
هدية
هذ
هذا
هذان
هذة
هذه
هذي
هذين
هر
هرام
هرامات
هرب
هربرت
هرتز
هرقل
هرم
هرمان
هرمز
هرمون
هرنانديز
هروب
هريرة
هز
هزم
هزمت
هزيمة
هشام
هشيم
هضبة
هطول
هـ
هك
هكتار
هكذا
هل
هلا
هلات
هلاك
هلال
هلة
هلت
هلسنكي
هلك
هلكت
هلم
هله
هلها
هلي
هلية
هلين
هم
هما
همال
همام
همة
همدان
همزة
همل
همه
همها
همي
همية
هميته
هميتها
هن
هنا
هناك
هنالك
هنت
هنتر
هند
هندرسون
هندسة
هندسية
هندوراس
هندي
هندية
هنري
هنريك
هه
ههنا
هو
هوا
هواء
هواة
هوارد
هواز
هوازن
هواك
هوال
هوانغ
هواه
هواي
هوب
هوبر
هوبكنز
هوبكينز
هوت
هوتين
هود
هور
هوراس
هورن
هوغو
هوف
هوفمان
هوك
هوكي
هول
هولاكو
هولاند
هولة
هولت
هولمز
هولندا
هولندي
هولندية
هولي
هوليوود
هوم
هون
هوندا
هونغ
هوى
هوي
هوية
هويته
هى
هي
هيا
هياكل
هيبة
هيت
هيثم
هيجمانز
هير
هيرالد
هيرشل
هيرمان
هيروشي
هيروشيما
هيريرا
هيكتور
هيكل
هيكلة
هيل
هيلاري
هيلز
هيلي
هيلية
هيلين
هيلينا
هيمنة
هيهات
هيو
هيوز
هيوستن
هيوم
هيومن
هيون
هيي
و
وء
وا
واء
واب
وابن
وابنة
وابنه
وات
واتباع
واتحاد
واتخاذ
واتخذ
واتسون
واتش
واتفق
واتفقوا
واثنان
واثنين
واج
واجب
واجبا
واجبات
واجبة
واجتماعية
واجتمع
واجه
واجهات
واجهة
واجهت
واح
واحة
واحتج
واحتجوا
واحترام
واحتل
واحد
واحدا
واحدة
واحده
واحدها
واختار
واختبار
واختلاف
واختلف
واختلفوا
واختيار
واخر
واد
وادعى
وادي
واذا
وار
وارتفاع
وارتفع
وارث
وارد
وارسو
وارن
وارنر
واس
واست
واستا
واستخدام
واستخدامها
واستخدم
واستخدمت
واستشهد
واستطاع
واستعادة
واستعمل
واستقر
واستمر
واستمرت
واستولى
واسط
واسطة
واسع
واسعا
واسعة
واسم
واسمه
واسمها
واشتد
واشتغل
واشتهر
واشنطن
واصف
واصل
واصلت
واضح
واضحا
واضحة
واضطر
واضطراب
واضطرابات
واضع
واط
واع
واعتبار
واعتبر
واعتبرت
واعترف
واعلم
واف
وافتتح
وافر
وافق
وافقة
وافقت
واق
واقترح
واقتصادي
واقتصادية
واقد
واقع
واقعة
واقعي
واقعية
واقف
واقفا
واك
وال
والا
والابتكار
والاتحاد
والاتصال
والاتصالات
والاجتماعي
والاجتماعية
والاختلاف
والاس
والاستثمار
والاستقرار
والاستقلال
والاسم
والاضطرابات
والاعتراف
والاعتماد
والاقتصاد
والاقتصادي
والاقتصادية
والاهتمام
والب
والباحثين
والباطل
والباقي
والبحث
والبحر
والبحرية
والبحرين
والبحوث
والبخاري
والبر
والبرازيل
والبرامج
والبرتغال
والبزار
والبصر
والبعثات
والبعض
والبناء
والبنية
والبيان
والبيانات
والبيض
والبيهقي
والبيي
والت
والتا
والتابعين
والتاريخ
والتاريخية
والتاسع
والتجارة
والتجارية
والتحق
والتحقيق
والتحكم
والتحليل
والتخطيط
والتدريب
والتر
والتراث
والتربية
والترجمة
والترفيه
والتركية
والترمذي
والتسويق
والتصميم
والتصوير
والتطور
والتطوير
والتعامل
والتعاون
والتعبير
والتعديل
والتعلم
والتعليم
والتفسير
والتفكير
والتقاليد
والتقدم
والتقدير
والتقنيات
والتقنية
والتقوى
والتقى
والتكنولوجيا
والتلفزيون
والتمثيل
والتمييز
والتنظيم
والتنمية
والتهاب
والتواصل
والتوزيع
والتي
والث
والثالث
والثالثة
والثامن
والثانوية
والثاني
والثانية
والثروة
والثقافة
والثقافي
والثقافية
والثلاثون
والثلاثين
والثناء
والثورة
والثوري
والج
والجامعات
والجبال
والجبل
والجزء
والجزاي
والجزر
والجزيرة
والجزيي
والجسم
والجلد
والجماعات
والجماعة
والجمال
والجمع
والجمعيات
والجمعية
والجمهور
والجن
والجنس
والجنوب
والجنوبية
والجنود
والجهاد
والجهاز
والجهل
والجواب
والجيش
والح
والحاجة
والحارث
والحاكم
والحالة
والحب
والحج
والحجاز
والحجر
والحد
والحداي
والحدود
والحديث
والحديد
والحرام
والحرب
والحرف
والحركات
والحركة
والحروب
والحريات
والحرية
والحزب
والحزن
والحساب
والحسن
والحسين
والحصول
والحضارة
والحفاظ
والحق
والحقوق
والحقيقة
والحكم
والحكمة
والحكومات
والحكومة
والحماية
والحمد
والحوار
والحياة
والحيوان
والحيوانات
والخ
والخارج
والخارجية
والخاص
والخاصة
والخامس
والخبر
والخدمات
والخروج
والخضروات
والخلاصة
والخلايا
والخلق
والخمسون
والخمسين
والخوف
والخيال
والخير
والد
والدة
والدته
والدتها
والدراسات
والدعاء
والدعم
والدعوة
والدفاع
والدكتور
والدكتوراه
والدليل
والدم
والدنيا
والده
والدها
والدواء
والدول
والدولة
والدولية
والدي
والديمقراطية
والدين
والدينية
والديه
والديها
والذكاء
والذكر
والذهب
والذي
والذين
والر
والرا
والرابع
والرابعة
والربيع
والرجال
والرجل
والرحمة
والرد
والرساي
والرسول
والرسوم
والرعاية
والرغبة
والرقص
والرو
والرواية
والروح
والروسية
والروم
والري
والرياضة
والرياضيات
والز
والزبير
والزراعة
والزكاة
والزمان
والزهري
والزواج
والزيتون
والس
والسابع
والسادس
والساي
والسبب
والسبعين
والستون
والستين
والسجود
والسعادة
والسعودية
والسعي
والسفر
والسكان
والسكر
والسكنى
والسلام
والسلامة
والسلطان
والسلطة
والسلوك
والسماء
والسماح
والسنة
والسودان
والسويد
والسياحة
والسياسات
والسياسة
والسياسي
والسياسية
والسيد
والسير
والسيطرة
والسينما
والش
والشاعر
والشافعي
والشام
والشباب
والشجاعة
والشخصيات
والشر
والشراب
والشرب
والشرطة
والشرق
والشرقية
والشركات
والشعب
والشعبي
والشعر
والشعراء
والشعوب
والشعور
والشعير
والشكل
والشمال
والشمس
والشو
والشيخ
والص
والصالحين
والصبر
والصحافة
والصحة
والصحف
والصحيح
والصدق
والصرف
والصفات
والصلاة
والصناعات
والصناعة
والصناعية
والصواب
والصوت
والصور
والصورة
والصيد
والصين
والض
والضرب
والضعف
والضغط
والط
والطاعة
والطاقة
والطاي
والطب
والطبراني
والطبيعة
والطرق
والطريق
والطعام
والطفل
والطلاب
والطلاق
والطيور
والظاهر
والظروف
والظلم
والع
والعادات
والعالم
والعالمية
والعامة
والعاملين
والعاي
والعبادة
والعبد
والعدالة
والعدل
والعديد
والعراق
والعرب
والعربي
والعربية
والعرض
والعروض
والعسكرية
والعشاء
والعشرون
والعشرين
والعصر
والعقاب
والعقد
والعقل
والعكس
والعلاج
والعلاقات
والعلم
والعلماء
والعلمي
والعلمية
والعلوم
والعمارة
والعمال
والعمرة
والعمل
والعمليات
والعناية
والعنف
والعودة
والعين
والغ
والغابات
والغاز
والغرب
والغربية
والغرض
والغضب
والغلاف
والغناء
والف
والفارسية
والفاي
والفتيات
والفرس
والفرق
والفرنسية
والفساد
والفصل
والفضاء
والفضة
والفضل
والفعل
والفقر
والفقه
والفقهاء
والفكر
والفلسفة
والفن
والفنانين
والفنون
والفنية
والفواكه
والفيزياء
والق
والقاسم
والقاضي
والقانون
والقاهرة
والقاي
والقتال
والقتل
والقدر
والقدرة
والقرا
والقراءة
والقرى
والقسم
والقصة
والقصص
والقضاء
والقضايا
والقلب
والقلق
والقمر
والقنصلية
والقوات
والقواعد
والقوانين
والقوة
والقول
والقوى
والقيادة
والقياس
والقيام
والقيم
والك
والكاتب
والكتاب
والكتابة
والكتب
والكثير
والكذب
والكفر
والكلام
والكناي
والكنيسة
والكهرباء
والكواكب
والكويت
والكيمياء
والل
واللام
واللجنة
واللغات
واللغة
واللفظ
والله
والليث
والليل
والم
والما
والماء
والمادة
والمال
والمالية
والمبادي
والمباني
والمتوسطة
والمثليات
والمجتمع
والمجتمعات
والمجر
والمجلات
والمجلس
والمجموعات
والمجوهرات
والمحافظة
والمحبة
والمحيط
والمخرج
والمدارس
والمدرسة
والمدن
والمدنية
والمدير
والمدينة
والمرا
والمراد
والمرافق
والمراكز
والمرض
والمركبات
والمركز
والمروة
والمساجد
والمساعدة
والمساكن
والمساواة
والمستقبل
والمسجد
والمسرح
والمسلمون
والمسلمين
والمسو
والمسيحية
والمسيحيين
والمشاركة
والمطاعم
والمعادن
والمعاهد
والمعتزلة
والمعدات
والمعرفة
والمعروف
والمعروفة
والمعلومات
والمعنى
والمغرب
والمقالات
والمقصود
والمكان
والمكسيك
والملابس
والملاي
والملح
والملك
والملوك
والممارسات
والمملكة
والمناطق
والمنتجات
والمنشا
والمنطق
والمنطقة
والمنظمات
والمهارات
والمو
والمواد
والموارد
والمواقع
والموت
والموسيقى
والموظفين
والمياه
والن
والنار
والناس
والنبات
والنباتات
والنبي
والنتاي
والنجوم
والنحاس
والنحو
والنرويج
والنساء
والنساي
والنشاط
والنشر
والنصارى
والنصف
والنظام
والنظر
والنفس
والنفسية
والنقد
والنقل
والنمسا
والنمو
والنهار
والنهاية
والنهي
والنوع
واله
والهجرة
والهدف
والهرسك
والهند
والهندسة
والهواء
والهوية
والهيي
والو
والواقع
والوثاي
والوجه
والوحدة
والوزراء
والوساي
والوسطى
والوصول
والوطن
والوطنية
والوقاية
والوقت
والولايات
والوليد
والى
والي
واليا
واليابان
واليمن
واليهود
واليوم
واليونان
وام
واما
وامتد
وامر
وامرا
وامره
وان
وانا
وانت
وانتخب
وانتشار
وانتشر
وانتشرت
وانتقل
وانتقلت
وانتهت
وانتهى
وانحراف
وانخفاض
واندررز
وانصرف
وانضم
وانضمت
وانطلق
وانظر
وانغ
وانما
وانه
واني
واه
واو
واي
وايت
وايضا
وايلد
واين
وايومنغ
وب
وبا
وباء
وباب
وبات
وباحث
وباريس
وباقي
وباكستان
وبالا
وبالتالي
وبالتحديد
وبالجملة
وبالرغم
وبالفعل
وبالله
وبالمثل
وبالمركز
وبالنسبة
وباما
وباي
وبحر
وبحسب
وبحلول
وبخاصة
وبدء
وبدا
وبداية
وبدلا
وبدون
وبذل
وبذلك
وبر
وبرا
وبرامج
وبراين
وبرماي
وبرنامج
وبري
وبريت
وبريطانيا
وبسالا
وبسبب
وبشر
وبشكل
وبطل
وبطولة
وبعث
وبعد
وبعده
وبعدها
وبعض
وبعضها
وبعضهم
وبفضل
وبقي
وبقية
وبقيت
وبك
وبكل
وبلاد
وبلاست
وبلجيكا
وبلدية
وبلغ
وبلغت
وبما
وبمجرد
وبموجب
وبن
وبناء
وبنات
وبنت
وبنو
وبنى
وبني
وبه
وبها
وبهذا
وبهذه
وبول
وبولندا
وبي
وبيان
وبيت
وبيع
وبين
وبينك
وبينما
وبينه
وبينها
وبينهم
وبينهما
وبيي
وة
وت
وتا
وتابع
وتار
وتارة
وتاريخ
وتاوا
وتبادل
وتبدا
وتبعد
وتبعه
وتبقى
وتبلغ
وتبين
وتتا
وتتبع
وتتراوح
وتتضمن
وتتكون
وتتم
وتتمثل
وتتميز
وتجمع
وتجنب
وتحت
وتحتل
وتحتوي
وتحدث
وتحديد
وتحديدا
وتحرير
وتحسين
وتحقيق
وتحليل
وتحمل
وتحول
وتحولت
وتحويل
وتحيط
وتختلف
وتخرج
وتخرجت
وتخفيف
وتدخل
وتدريب
وتدمير
وتدور
وتذكر
وتر
وترا
وتربية
وترتبط
وترتفع
وترتيب
وترتيبه
وترخيص
وترك
وتركت
وتركه
وتركوا
وتركيا
وترى
وتزوج
وتزيد
وتسبب
وتستخدم
وتستمر
وتسجيل
وتسعة
وتسعين
وتسمى
وتشتهر
وتشجيع
وتشديد
وتشغيل
وتشكل
وتشكيل
وتشمل
وتشير
وتصبح
وتصدر
وتصل
وتصميم
وتضم
وتضمن
وتضمنت
وتطبيق
وتطور
وتطورت
وتطوير
وتظهر
وتعادل
وتعالى
وتعتبر
وتعتمد
وتعد
وتعديل
وتعرض
وتعرف
وتعزيز
وتعلم
وتعليم
وتعمل
وتعني
وتعود
وتعيش
وتعيين
وتغطي
وتغير
وتغيير
وتفسير
وتقدر
وتقدم
وتقدير
وتقديم
وتقع
وتقليل
وتقنيات
وتقنية
وتقول
وتقوم
وتقييم
وتكرار
وتكلم
وتكنولوجيا
وتكون
وتكوين
وتلقى
وتلك
وتليها
وتم
وتمت
وتمتد
وتمتلك
وتمثل
وتمكن
وتمكنت
وتناول
وتنتج
وتنتشر
وتنتهي
وتنظيم
وتنفيذ
وتنقسم
وتنمية
وتهدف
وتو
وتوا
وتوباغو
وتوجد
وتوجه
وتوجيه
وتوزع
وتوزيع
وتوسيع
وتوفر
وتوفي
وتوفيت
وتوفير
وتوقف
وتولى
وتونس
وتي
وتيرة
وث
وثان
وثاني
وثاي
وثبت
وثق
وثقافة
وثقافية
وثقه
وثلاث
وثلاثة
وثلاثماي
وثلاثون
وثلاثين
وثلث
وثم
وثمانون
وثمانية
وثمانين
وثنا
وثناي
وثيق
وثيقا
وثيقة
وج
وجاء
وجاءت
وجابر
وجامع
وجامعة
وجان
وجاي
وجب
وجبات
وجبال
وجبة
وجبت
وجبل
وجد
وجدة
وجدت
وجدته
وجدنا
وجده
وجدها
وجدوا
وجدي
وجرت
وجرح
وجرى
وجزء
وجزر
وجزيرة
وجع
وجعفر
وجعل
وجعلت
وجعله
وجعلها
وجعلوا
وجل
وجلس
وجماعة
وجمال
وجمع
وجمعه
وجمعها
وجمعية
وجملة
وجمهورية
وجميع
وجنوب
وجه
وجها
وجهات
وجهاز
وجهان
وجهة
وجهت
وجهك
وجهه
وجهها
وجهي
وجهين
وجواب
وجوب
وجود
وجودة
وجوده
وجودها
وجودهم
وجورج
وجون
وجوه
وجوههم
وجي
وجيزة
وجيش
وجيمس
وجين
وجيه
وح
وحاز
وحال
وحالة
وحاليا
وحاول
وحاولت
وحب
وحتى
وحث
وحج
وحجم
وحد
وحدات
وحدة
وحدث
وحدثنا
وحدثني
وحده
وحدها
وحدهم
وحدي
وحديث
وحرب
وحركة
وحرم
وحرية
وحزب
وحسب
وحسن
وحسين
وحش
وحشي
وحشية
وحصل
وحصلت
وحضر
وحضيض
وحفظ
وحق
وحقق
وحققت
وحقوق
وحقيقة
وحكم
وحكومة
وحكى
وحل
وحلفاي
وحماد
وحماية
وحمزة
وحمض
وحمل
وحملت
وحميد
وحوار
وحوالي
وحول
وحى
وحي
وحياة
وحيث
وحيد
وحيدا
وحيدة
وحين
وحينما
وحيني
وخ
وخارج
وخارجها
وخاصة
وخالد
وخبر
وخدم
وخدمات
وخدمة
وخرج
وخرجت
وخسر
وخصاي
وخصوص
وخصوصا
وخط
وخطب
وخطوط
وخفض
وخلاصة
وخلال
وخلع
وخلف
وخلفه
وخلق
وخمس
وخمسة
وخمسماي
وخمسون
وخمسين
وخير
ود
ودا
وداد
ودار
وداع
وداعا
وداود
وداي
ودبلوماسي
ودخل
ودخلت
ودخول
ودر
ودراسات
ودراسة
ودرجة
ودرس
ودع
ودعا
ودعت
ودعم
ودفع
ودفن
ودقة
ودليل
ودمشق
ودور
ودول
ودولة
ودون
ودي
ودية
وديسا
وديفيد
ودين
وذ
وذا
وذات
وذاك
وذكر
وذكرت
وذكره
وذكروا
وذلك
وذهب
وذهبت
وذو
وذوي
وذي
ور
ورا
وراء
وراءه
وراءها
ورابطة
وراثة
وراثي
وراثيا
وراثية
وراح
وراق
وراقه
وراقها
ورام
ورانج
ورانوس
وراي
ورب
وربا
وربما
وربي
وربية
ورة
ورت
ورث
ورثة
ورثته
ورجال
ورجاله
ورجع
ورجل
ورحل
ورحمة
ورحمته
ورد
وردة
وردت
ورده
وردها
ورسالة
ورسام
ورساي
ورسله
ورسم
ورسول
ورسوله
ورش
ورشة
ورشليم
ورعاية
ورغم
ورفض
ورفع
ورق
ورقة
ورقية
وركب
وركسترا
ورلاندو
ورلد
ورلينز
ورم
ورو
ورواه
ورواي
ورواية
وروبا
وروبرت
وروبي
وروبية
وروبيون
وروبيين
وروح
ورود
وروسيا
وروغواي
وروغواياني
وروى
وروي
وروينا
وري
وريال
وريث
وريغون
وز
وزاد
وزادت
وزار
وزارة
وزاعي
وزان
وزاوية
وزبكستان
وزر
وزراء
وزعم
وزعموا
وزعيم
وزملاو
وزن
وزنا
وزنه
وزنها
وزو
وزوجة
وزوجته
وزوجها
وزون
وزيادة
وزيد
وزير
وزيرا
وزيرة
وس
وسا
وسار
وساط
وساعد
وسافر
وساق
وساكا
وسالم
وسام
وسان
وسانت
وساهم
وساي
وسبب
وسبعة
وسبعماي
وسبعون
وسبعين
وسبق
وست
وستة
وستفاليا
وستماي
وستمنستر
وستن
وستون
وستين
وسجل
وسجلت
وسجن
وسر
وسرطان
وسرعان
وسرعة
وسط
وسطه
وسطها
وسع
وسعة
وسعت
وسعد
وسعى
وسعيد
وسفيان
وسقط
وسقوط
وسكار
وسكان
وسكن
وسكون
وسل
وسلامة
وسلامه
وسلسلة
وسلم
وسلو
وسليمان
وسم
وسماه
وسمة
وسمح
وسمع
وسمعت
وسمى
وسمي
وسميت
وسنة
وسنغافورة
وسهل
وسهم
وسهولة
وسو
وسوء
وسواء
وسوريا
وسوف
وسوق
وسويسرا
وسي
وسيا
وسياسة
وسياسي
وسياسية
وسياق
وسيتم
وسيط
وسيكون
وسيلة
وسيناريو
وش
وشا
وشارع
وشارك
وشاركت
وشاعر
وشاعرة
وشبكة
وشبه
وشخصية
وشد
وشدة
وشر
وشرب
وشرح
وشرع
وشرق
وشركات
وشركاه
وشركة
وشعبة
وشعر
وشغل
وشق
وشقيقه
وشك
وشكل
وشكلت
وشمال
وشمل
وشملت
وشن
وشهادة
وشهد
وشهدت
وشو
وشي
وشيخ
وص
وصاحب
وصار
وصارت
وصاف
وصالح
وصاية
وصت
وصح
وصحبه
وصحة
وصححه
وصحفي
وصحفية
وصدر
وصدرت
وصدق
وصرح
وصف
وصفا
وصفات
وصفاته
وصفة
وصفت
وصفته
وصفه
وصفها
وصفي
وصل
وصلاة
وصلاح
وصلة
وصلت
وصلنا
وصله
وصلها
وصلوا
وصلى
وصناعة
وصنع
وصنف
وصوت
وصور
وصورة
وصول
وصولا
وصوله
وصولها
وصولهم
وصى
وصي
وصيانة
وصية
وصيته
وصيف
وض
وضابط
وضاح
وضاع
وضبط
وضح
وضحت
وضد
وضرب
وضع
وضعت
وضعتها
وضعف
وضعفه
وضعه
وضعها
وضعوا
وضعية
وضم
وضمان
وضمن
وضوء
وضوح
وضوحا
وضيق
وط
وطا
وطاعة
وطالب
وطان
وطاي
وطبيب
وطبيعة
وطرد
وطرق
وطريق
وطريقة
وطعام
وطلب
وطلبت
وطلحة
وطن
وطنه
وطني
وطنية
وطول
وطي
وظ
وظاهر
وظاي
وظل
وظلت
وظن
وظهر
وظهرت
وظهور
وظيفة
وظيفته
وظيفتها
وظيفي
وظيفية
وع
وعاء
وعاد
وعادة
وعادت
وعارضة
وعازف
وعاش
وعاصم
وعاصمتها
وعالم
وعام
وعامة
وعاي
وعبادة
وعبد
وعبر
وعبيد
وعثمان
وعد
وعدة
وعدت
وعدد
وعدم
وعده
وعرض
وعرضت
وعرضه
وعرضها
وعرف
وعرفت
وعز
وعزل
وعشرة
وعشرون
وعشرين
وعضو
وعطاء
وعظم
وعقب
وعقد
وعكرمة
وعلا
وعلاج
وعلامة
وعلاوة
وعلق
وعلم
وعلماء
وعلمه
وعلوم
وعلى
وعلي
وعليك
وعليه
وعليها
وعليهم
وعم
وعمر
وعمره
وعمرو
وعمل
وعملت
وعمله
وعملوا
وعمليات
وعملية
وعن
وعند
وعندما
وعنده
وعندها
وعندي
وعنه
وعي
وعية
وعيد
وعيسى
وعين
وغ
وغادر
وغالب
وغالبا
وغرب
وغربا
وغست
وغلو
وغندا
وغير
وغيره
وغيرها
وغيرهم
وغيرهما
وف
وفا
وفاء
وفاة
وفاته
وفاتها
وفارس
وفارغ
وفاز
وفازت
وفاطمة
وفاق
وفاي
وفتح
وفد
وفر
وفرة
وفرت
وفرض
وفرق
وفرقة
وفرنسا
وفريق
وفشل
وفصل
وفضل
وفعل
وفق
وفقا
وفقد
وفقدان
وفقيه
وفلان
وفلسطين
وفن
وفنان
وفهم
وفود
وفوق
وفى
وفي
وفيات
وفيس
وفيلسوف
وفيلم
وفيما
وفيه
وفيها
وفيهم
وق
وقات
وقاتل
وقاد
وقادة
وقاص
وقاضي
وقاعة
وقاعدة
وقاف
وقال
وقالت
وقالوا
وقام
وقامت
وقاموا
وقانون
وقاي
وقباي
وقبرص
وقبض
وقبل
وقبول
وقت
وقتا
وقتادة
وقتل
وقتله
وقتلوا
وقتنا
وقته
وقتها
وقتي
وقد
وقدر
وقدرة
وقدرته
وقدره
وقدم
وقدمت
وقر
وقرا
وقراءة
وقرر
وقررت
وقرى
وقرية
وقسم
وقصة
وقصد
وقصر
وقصص
وقضاء
وقضايا
وقضى
وقطاع
وقطر
وقطع
وقع
وقعة
وقعت
وقعوا
وقف
وقفة
وقفت
وقفوا
وقل
وقلب
وقلبه
وقلة
وقلت
وقليل
وقناة
وقوات
وقواعد
وقوانين
وقوة
وقود
وقوع
وقوعه
وقوعها
وقوف
وقول
وقوله
وقولهم
وقوم
وقومه
وقيادة
وقياس
وقيام
وقيانوسيا
وقية
وقيل
وقيمة
وك
وكا
وكات
وكاتب
وكاتبة
وكاد
وكالات
وكالة
وكان
وكانا
وكانت
وكانوا
وكبار
وكبر
وكتاب
وكتابة
وكتابه
وكتب
وكتبت
وكتبه
وكثافة
وكثر
وكثرة
وكثير
وكثيرا
وكذا
وكذلك
وكراني
وكرانيا
وكرانية
وكرة
وكره
وكسجين
وكسر
وكسفورد
وكشف
وكفر
وكفى
وكل
وكلا
وكلام
وكلاند
وكلاهما
وكلاهوما
وكلما
وكلمة
وكلها
وكلهم
وكلية
وكم
وكما
وكمال
وكن
وكنا
وكنت
وكندا
وكنيسة
وكوريا
وكون
وكونه
وكونور
وكي
وكيع
وكيف
وكيفية
وكيل
وكيلا
ول
ولا
ولاء
ولابد
ولاة
ولاحق
ولاحقا
ولاد
ولادة
ولادته
ولاده
ولادها
ولادهم
ولاسيما
ولاعب
ولان
ولاه
ولاي
ولايات
ولاية
ولايته
ولبنان
ولة
ولت
ولجنة
ولحم
ولد
ولدا
ولدت
ولده
ولدها
ولدوا
ولدى
ولدي
ولديه
ولديها
ولذا
ولذلك
ولست
ولسنا
ولعب
ولعبت
ولعل
ولعله
ولغا
ولغة
ولفظ
ولقب
ولقد
ولك
ولكل
ولكم
ولكن
ولكنا
ولكنك
ولكننا
ولكنني
ولكنه
ولكنها
ولكنهم
ولكني
ولكي
وللا
ولله
ولم
ولما
ولماذا
ولمبي
ولمبياد
ولمبية
ولمبيديا
ولمبيك
ولمدة
ولمن
ولن
ولنا
ولندن
وله
ولها
ولهذا
ولهذه
ولهم
ولهما
ولو
ولوا
ولوج
ولولا
ولون
ولويات
ولوية
ولى
ولي
وليا
ولياء
وليات
وليام
وليامز
ولياي
وليبيا
ولية
وليت
وليته
وليتها
وليد
وليس
وليست
وليفر
وليفيا
وليفيرا
وليلة
وليم
ولين
وليه
وليون
وم
وما
وماء
ومات
وماذا
وماري
ومال
ومالك
وماله
ومالي
وماليزيا
ومانغا
وماي
ومايكل
ومبادي
ومتابعة
ومتحف
ومترجم
ومتصدر
ومتلازمة
ومتى
ومثال
ومثل
ومثله
ومجاهد
ومجلة
ومجلس
ومجموعات
ومجموعة
ومحافظة
ومحامي
ومحاولة
ومحطة
ومحمد
ومحمود
ومختلف
ومخرج
ومد
ومدة
ومدرب
ومدرسة
ومدن
ومدى
ومدير
ومدينة
ومذنبات
ومذهب
ومر
ومراقبة
ومراكز
ومرة
ومرجعية
ومرض
ومركز
ومساحتها
ومساعدة
ومستشار
ومستوى
ومسجد
ومسح
ومسلسل
ومسلم
ومسو
ومشاركة
ومشاكل
ومشروع
ومصر
ومضى
ومع
ومعاذ
ومعالجة
ومعاوية
ومعدات
ومعدل
ومعرفة
ومعركة
ومعظم
ومعلوم
ومعلومات
ومعناه
ومعناها
ومعنى
ومعه
ومعها
ومعهد
ومعهم
ومغني
ومغنية
ومقاطعة
ومقاومة
ومقدم
ومقدمة
ومقر
ومقرها
ومكافحة
ومكان
ومكتب
ومكتبة
وملاي
وملحن
وملك
ومما
وممارسة
وممثل
وممثلة
ومملكة
وممن
ومن
ومناطق
ومنتج
ومنتجات
ومنتخب
ومنح
ومنذ
ومنطقة
ومنظمات
ومنظمة
ومنع
ومنه
ومنها
ومنهم
ومهرجان
ومهما
ومهندس
ومو
ومواد
ومواقع
ومواليد
وموت
وموسى
وموسيقي
وموقع
ومي
ون
ونا
ونادى
ونادي
وناشط
وناشطة
ونافع
وناقد
ونال
وناي
ونة
ونتاريو
ونتاي
ونتيجة
ونجح
ونجد
ونحن
ونحو
ونحوه
ونحوها
ونحوهم
ونحوهما
ونز
ونزل
ونساء
ونسب
ونسبة
ونشا
ونشر
ونشرت
ونشرها
ونص
ونصب
ونصر
ونصف
ونظام
ونظر
ونظرا
ونظرية
ونظم
ونعم
ونفس
ونفي
ونقص
ونقل
ونقلت
ونقله
ونقلها
ونقول
ونلاين
ونه
ونها
ونهاية
ونهر
ونهى
ونو
ونور
ونوع
وني
ونيل
ونيوزيلندا
ونيويورك
وه
وها
وهاجر
وهارون
وهام
وهايو
وهب
وهبي
وهذا
وهذه
وهران
وهرب
وهزم
وهشام
وهكذا
وهل
وهم
وهما
وهمية
وهن
وهنا
وهناك
وهنالك
وهندسة
وهنري
وهو
وهولندا
وهى
وهي
وهيب
وهيي
وو
وواحد
وواحدة
ووادي
وواصل
ووافق
ووالدته
ووالده
ووتش
ووجد
ووجدت
ووجه
ووجود
ووحدات
ووحدة
وود
وودز
وورد
وورلد
ووزارة
ووزير
ووساي
ووسط
ووصف
ووصفت
ووصفه
ووصفها
ووصل
ووصلت
ووضاءته
ووضع
ووضعت
ووضعها
ووفق
ووفقا
ووفيات
ووقت
ووقع
ووقعت
ووقف
ووكر
ووكيع
وول
وولاية
وولد
وولده
وولف
وولى
وولي
وون
ووهان
وويلز
وى
وي
ويا
ويب
ويبدا
ويبدو
ويبر
ويبعد
ويبقى
ويبلغ
ويبين
وية
ويت
ويتا
ويتبع
ويتحدث
ويترك
ويتضمن
ويتكون
ويتم
ويتميز
ويتني
ويجب
ويجري
ويجعل
ويجمع
ويجوز
ويحاول
ويحب
ويحتاج
ويحتمل
ويحتوي
ويحدث
ويحدد
ويحصل
ويحك
ويحكم
ويحمل
ويحيى
ويختلف
ويخرج
ويد
ويدخل
ويدعو
ويدعى
ويدل
ويذكر
ويذهب
وير
ويراقب
ويرتبط
ويرجع
ويرد
ويرفع
ويروى
ويروي
ويرى
ويزومي
ويزيد
ويس
ويسا
ويساعد
ويست
ويستخدم
ويستعمل
ويستمر
ويسعى
ويسكونسن
ويسلي
ويسمح
ويسمى
ويشار
ويشكل
ويشمل
ويشهد
ويشير
ويصبح
ويصف
ويصل
ويضع
ويضم
ويضيف
ويطلب
ويطلق
ويظهر
ويعتبر
ويعتقد
ويعتمد
ويعد
ويعرض
ويعرف
ويعطي
ويعقوب
ويعلم
ويعمل
ويعني
ويعود
ويعيش
ويغور
ويقال
ويقدر
ويقدم
ويقصد
ويقع
ويقول
ويقولون
ويقوم
ويقيم
ويك
ويكتب
ويكثر
ويكلي
ويكون
ويكي
ويكيبيديا
ويل
ويلات
ويلاحظ
ويلر
ويلز
ويلزم
ويلسون
ويلعب
ويلك
ويله
ويلي
ويليام
ويليامز
ويليس
ويلينغتون
ويمبلدون
ويمتد
ويمثل
ويمر
ويمكن
ويمنع
وين
وينبغي
وينتج
وينتقل
وينتمي
وينتهي
ويندوز
وينز
وينظر
ويهدف
ويو
ويوجد
ويوسف
ويوفر
ويوم
ويونس
ى
ي
يء
يا
ياء
ياب
ياباني
يابانية
يات
ياته
ياد
يادي
يار
ياس
ياسر
ياسمين
ياسين
يافا
يافع
ياقوت
ياك
ياكس
ياكم
يال
يالة
يام
ياما
يامه
يان
يانا
يانغ
ياه
ياها
ياهم
ياهو
ياي
يب
يبا
يباع
يبالي
يبث
يبحث
يبحثون
يبدا
يبدو
يبذل
يبرز
يبصر
يبطل
يبعث
يبعد
يبق
يبقى
يبك
يبكي
يبلغ
يبلغه
يبنى
يبني
يبيرية
يبيع
يبين
ية
يت
يتا
يتابع
يتام
يتان
يتبع
يتبعه
يتبعها
يتبعون
يتبين
يتجاوز
يتجزا
يتجلى
يتجه
يتحدث
يتحدثون
يتحرك
يتحقق
يتحكم
يتحمل
يتحول
يتخذ
يتدفق
يتذكر
يترا
يتراوح
يترتب
يترجم
يتردد
يترك
يتزوج
يتسبب
يتسع
يتسم
يتشكل
يتصدق
يتصرف
يتصف
يتصل
يتصور
يتضح
يتضمن
يتطلب
يتطور
يتعارض
يتعامل
يتعدى
يتعذر
يتعرض
يتعرضون
يتعرف
يتعلق
يتعلم
يتعين
يتغير
يتفاعل
يتفق
يتقدم
يتك
يتكرر
يتكلم
يتكلمون
يتكون
يتلقون
يتلقى
يتلو
يتم
يتمتع
يتمتعون
يتمثل
يتمكن
يتمكنوا
يتميز
يتناسب
يتناول
يته
يتها
يتهم
يتو
يتواجد
يتوافق
يتوب
يتوجب
يتوجه
يتوضا
يتوفر
يتوقع
يتوقف
يتولى
يتون
يتوهم
يتيح
يتين
يث
يثار
يثان
يثانول
يثبت
يثرب
يثق
يثير
يج
يجاب
يجابي
يجابية
يجاد
يجادل
يجار
يجاز
يجاوز
يجب
يجبر
يجتمع
يجتمعون
يجد
يجده
يجدوا
يجدون
يجذب
يجر
يجرى
يجري
يجز
يجزي
يجعل
يجعله
يجعلها
يجعلون
يجلب
يجلس
يجمع
يجهل
يجوز
يجي
يجيء
يجيب
يجيد
يح
يحافظ
يحاول
يحاولون
يحب
يحبه
يحبها
يحبون
يحتاج
يحتاجون
يحتج
يحتفظ
يحتفل
يحتل
يحتمل
يحتوي
يحج
يحد
يحدث
يحدد
يحدها
يحرك
يحرم
يحس
يحسب
يحسن
يحصل
يحصلون
يحصى
يحضر
يحظر
يحظى
يحفز
يحفظ
يحق
يحقق
يحكم
يحكمها
يحكي
يحل
يحلف
يحلم
يحمد
يحمل
يحمله
يحملها
يحملون
يحمي
يحنث
يحول
يحوي
يحي
يحيا
يحيط
يحيى
يحيي
يخ
يخاطب
يخاف
يخالف
يخالفه
يخبر
يخبره
يختار
يختص
يختلف
يختلفون
يخدم
يخرج
يخرجه
يخرجون
يخسر
يخشى
يخص
يخضع
يخطب
يخطر
يخطط
يخطي
يخف
يخفف
يخفى
يخفي
يخل
يخلف
يخلق
يخلو
يخوض
يد
يدا
يداع
يدافع
يداه
يداهو
يدة
يدت
يدخل
يدخله
يدخلها
يدخلون
يدر
يدرس
يدرسون
يدرك
يدركه
يدري
يدز
يدع
يدعم
يدعو
يدعون
يدعوه
يدعى
يدعي
يدفع
يدفعه
يدك
يدل
يدن
يده
يدها
يدو
يدور
يدوم
يدون
يدوي
يدوية
يدي
يدير
يديرها
يديك
يديكم
يدين
يدينا
يديه
يديها
يديهم
يديولوجية
يذ
يذاء
يذكر
يذكره
يذكرون
يذهب
يذهبون
ير
يرا
يراد
يرادات
يران
يراني
يرانية
يرانيين
يراه
يراها
يرباص
يربط
يرتبط
يرتدون
يرتدي
يرتفع
يرث
يرجح
يرجع
يرجعون
يرجو
يرجى
يرحم
يرد
يرده
يرس
يرسل
يرسم
يرض
يرضى
يرعى
يرغب
يرغبون
يرفض
يرفع
يرفعه
يركب
يركز
يرل
يرلندا
يرلندي
يرلندية
يرمز
يرمي
يره
يرو
يروا
يرون
يروى
يروي
يرويه
يرى
يري
يريد
يريده
يريدون
يريفان
يريك
يريم
يرين
يز
يزابيل
يزابيلا
يزال
يزالون
يزد
يزداد
يزرع
يزعم
يزعمون
يزل
يزن
يزو
يزور
يزول
يزيد
يزيس
يزيل
يس
يسا
يسار
يساره
يساعد
يسافر
يساهم
يساوي
يسبب
يسبح
يسبق
يسة
يست
يستا
يستجيب
يستحب
يستحق
يستحقه
يستحيل
يستخدم
يستخدمه
يستخدمها
يستخدمون
يستدعي
يستدل
يستر
يستضيف
يستطع
يستطيع
يستطيعون
يستعد
يستعمل
يستغرق
يستفيد
يستقبل
يستقر
يستقيم
يستلزم
يستمر
يستمع
يستند
يستهدف
يستوي
يسجد
يسجل
يسر
يسرد
يسرق
يسري
يسع
يسعون
يسعى
يسقط
يسكن
يسكنها
يسكنون
يسلم
يسلندا
يسلندية
يسم
يسمح
يسمع
يسمعه
يسمعون
يسمون
يسمونه
يسمى
يسمي
يسميه
يسه
يسها
يسهل
يسهم
يسود
يسوع
يسوغ
يسي
يسيا
يسيات
يسية
يسير
يسيرا
يسيرة
يسيطر
يسيل
يسيين
يش
يشا
يشاء
يشار
يشارك
يشاركون
يشاهد
يشبه
يشتبه
يشترط
يشترك
يشتري
يشتغل
يشتمل
يشتهر
يشجع
يشرب
يشرح
يشرع
يشرف
يشرك
يشعر
يشعرون
يشغل
يشفع
يشق
يشك
يشكل
يشكلون
يشكو
يشمل
يشهد
يشير
يشيع
يص
يصاب
يصال
يصب
يصبح
يصبر
يصح
يصدر
يصدق
يصر
يصرح
يصرف
يصعب
يصعد
يصف
يصل
يصلح
يصلوا
يصلون
يصلى
يصلي
يصنع
يصنف
يصور
يصوم
يصيب
يصير
يض
يضا
يضاح
يضاف
يضحك
يضر
يضرب
يضره
يضطر
يضع
يضعف
يضل
يضم
يضمن
يضيع
يضيف
يضيق
يط
يطا
يطالب
يطالي
يطاليا
يطالية
يطاليين
يطبق
يطرح
يطعم
يطل
يطلب
يطلبون
يطلع
يطلق
يطلقها
يطلقون
يطوف
يطول
يطير
يظ
يظل
يظن
يظهر
يظهرون
يع
يعاد
يعادل
يعارض
يعاقب
يعالج
يعانون
يعاني
يعبد
يعبدون
يعبر
يعتبر
يعتبره
يعتبرون
يعتد
يعترض
يعترف
يعتق
يعتقد
يعتقدون
يعتمد
يعتمدون
يعثر
يعجب
يعجز
يعد
يعدل
يعدو
يعذب
يعر
يعرب
يعرض
يعرف
يعرفه
يعرفها
يعرفوا
يعرفون
يعزز
يعطى
يعطي
يعطيه
يعقد
يعقل
يعقوب
يعكس
يعلق
يعلم
يعلمه
يعلموا
يعلمون
يعلن
يعلو
يعلى
يعم
يعمر
يعمل
يعملون
يعنى
يعني
يعود
يعيد
يعيش
يعيشون
يعين
يغ
يغادر
يغتسل
يغسل
يغضب
يغطي
يغفر
يغلب
يغني
يغور
يغيب
يغير
يف
يفا
يفان
يفانجيليون
يفانز
يفتتح
يفتح
يفترض
يفتقد
يفتقر
يفر
يفرتون
يفرض
يفرغ
يفرق
يفز
يفسد
يفسر
يفصل
يفضل
يفضلون
يفضي
يفطر
يفعل
يفعله
يفعلون
يفقد
يفكر
يفل
يفهم
يفوز
يفوق
يفون
يفي
يفيد
يفيض
يق
يقابل
يقاتل
يقاتلون
يقارب
يقاس
يقاع
يقاف
يقال
يقام
يقبض
يقبل
يقبله
يقترب
يقترح
يقتصر
يقتضي
يقتضيه
يقتل
يقتله
يقتلون
يقد
يقدر
يقدرون
يقدم
يقدمه
يقدمها
يقدمون
يقر
يقرا
يقرب
يقرر
يقرو
يقسم
يقصد
يقصر
يقضى
يقضي
يقطع
يقع
يقف
يقل
يقلل
يقم
يقود
يقوده
يقودها
يقول
يقوله
يقولوا
يقولون
يقوم
يقوموا
يقومون
يقونات
يقونة
يقوى
يقيس
يقيم
يقيمون
يقين
يقينا
يك
يكاد
يكبر
يكتب
يكتبون
يكتسب
يكتشف
يكتفي
يكثر
يكذب
يكره
يكسب
يكشف
يكفر
يكفي
يكلف
يكم
يكمل
يكمن
يكن
يكنى
يكو
يكون
يكونا
يكونوا
يكونون
يل
يلا
يلاء
يلاحظ
يلاند
يلاي
يلبث
يلبس
يلة
يلتزم
يلتفت
يلتقي
يلجا
يلحق
يلزم
يلزمه
يلعب
يلعبون
يلق
يلقب
يلقى
يلقي
يلول
يلي
يليا
يلية
يليق
يلين
يلينا
يليه
يليها
يليون
يليين
يم
يما
يماء
يمارس
يمارسون
يمان
يمانا
يمانكم
يمانه
يمانهم
يمانويل
يمت
يمتاز
يمتد
يمتلك
يمتلكون
يمتنع
يمثل
يمثلها
يمثلون
يمد
يمدح
يمر
يمس
يمسح
يمسك
يمشي
يمضي
يمك
يمكن
يمكنك
يمكننا
يمكنه
يمكنها
يمكنهم
يملا
يملك
يملكه
يملكها
يملكون
يملي
يمن
يمنح
يمنع
يمنعه
يمني
يمنية
يموت
يموتون
يمي
يميز
يميل
يميلون
يمين
يمينا
يمينه
ين
ينا
ينادي
يناسب
ينافي
يناقش
يناقض
ينال
ينام
يناهز
يناير
ينبت
ينبع
ينبغي
ينتج
ينتخب
ينتشر
ينتظر
ينتظرون
ينتفع
ينتقد
ينتقل
ينتمون
ينتمي
ينتهي
ينج
ينجح
ينحدر
ينخفض
ينزع
ينزل
ينس
ينسب
ينسى
ينشا
ينشتاين
ينشد
ينشر
ينشط
ينشي
ينص
ينصب
ينصح
ينصرف
ينضم
ينطبق
ينطق
ينطلق
ينطوي
ينظر
ينظرون
ينظم
ينعقد
ينفذ
ينفرد
ينفع
ينفعه
ينفق
ينفي
ينقسم
ينقص
ينقض
ينقطع
ينقل
ينكر
ينكرون
ينما
ينمو
ينه
ينهى
ينهي
ينو
ينوي
يني
يه
يها
يهاب
يهاجم
يهتم
يهدد
يهدف
يهدي
يهر
يهرب
يهلك
يهم
يهما
يهود
يهودا
يهودي
يهوديا
يهودية
يهوذا
يو
يوا
يواء
يواجه
يواجهون
يواصل
يوافق
يوان
يوب
يوبي
يوتا
يوتيوب
يوثق
يوجب
يوجد
يوجه
يوجين
يوحنا
يوحي
يود
يورث
يورغن
يورك
يورو
يوروهوكي
يوري
يوسف
يوصف
يوصل
يوصى
يوصي
يوضح
يوضع
يوغوسلافيا
يوفر
يوفنتوس
يوقع
يوقف
يوكي
يول
يولد
يوليه
يوليو
يوليوس
يوم
يوما
يومنا
يومه
يومها
يومي
يوميا
يوميات
يومية
يومين
يون
يونات
يونان
يوناني
يونانية
يونايتد
يونس
يونغ
يوني
يونية
يونيه
يونيو
يونيون
يوهان
يوهانس
يوهانسون
يي
ييد
ييل
يين
ً
ٌ
ٍ
َ
ُ
ِ
ّ
ْ
ٓ
ٔ
ٕ
١
١٠
٢
٣
٤
٥
٦
٧
٨
٩
٪
٫
٬
ٰ
ٱل
ٱلا
ٱلر
ٱلس
ٱلل
ٱلن
پ
پلیٹ
چاپ
ڈیٹا
ڤ
ک
گ
ھ
ی
۔
ۖ
ۗ
ۚ
۞
ۡ
ۢ
ۤ
ۥ
ۦ
۱
۲
۳
ަ
ް
ࣰ
ࣱ
ࣲ
ं
क
ज
त
द
न
प
म
य
र
ल
व
श
स
ह
ा
ि
ी
ु
े
ो
्
ক
জ
ত
দ
ন
প
ব
ম
য
র
ল
শ
স
হ
়
া
ি
ী
ু
ে
্
ா
ி
ு
்
ാ
ി
്
น
ั
ิ
ี
ื
ุ
ู
่
้
์
င
ာ
ု
ေ
း
်
​
‌
‍
‎
‏
‐
–
—
―
‖
‘
’
‚
“
”
„
†
‡
•
…
′
″
‹
›
⁄
⁡
€
ℏ
ℓ
ℕ
№
™
←
↑
→
↔
↷
∀
∂
∇
∈
∑
−
∗
∘
√
∞
∧
∨
∩
∪
∫
≈
≡
≤
≥
⋅
⋯
③
④
⑦
▪
►
●
★
☆
⟨
⟩
⟶
ⴰ
ⵉ
ⵎ
ⵏ
ⵜ
⺀
⺄
⺆
⺈
⺊
⺌
⺕
⺝
⺸
⺼
⿰
⿱
⿲
⿳
⿴
⿵
⿶
⿷
⿸
⿹
⿺
⿻
、
。
々
《
》
「
」
『
』
【
】
〜
〢
あ
い
う
え
お
か
き
く
け
こ
さ
し
す
せ
そ
た
ち
っ
つ
て
と
な
に
の
は
ひ
ふ
へ
ほ
ま
み
む
め
も
ゃ
や
ゆ
よ
ら
り
る
れ
ろ
わ
を
ん
゙
゚
ァ
ア
ィ
イ
ウ
ェ
エ
ォ
オ
カ
キ
ク
ケ
コ
サ
シ
ス
セ
ソ
タ
チ
ッ
ツ
テ
ト
ナ
ニ
ネ
ノ
ハ
ヒ
フ
ヘ
ホ
マ
ミ
ム
メ
モ
ャ
ヤ
ュ
ユ
ョ
ラ
リ
ル
レ
ロ
ワ
ン
・
ー
㇁
㇂
㇄
㇇
㇈
㇉
㇓
㐁
㐄
㐅
㐌
㐫
㐬
㐭
㐮
㐱
㑒
㒵
㒸
㒼
㓁
㓞
㔾
㕛
㕣
㖾
㘝
㚅
㚇
㚔
㚘
㝉
㝡
㝴
㝵
㞋
㞢
㞷
㠩
㠭
㠯
㡀
㡭
㡿
㢲
㢴
㣇
㣺
㥯
㪅
㫄
㫐
㫒
㫺
㬅
㬎
㬥
㬰
㲋
㳄
㷠
㸒
㸚
㸦
㼌
㼲
㽞
㿟
䀠
䂞
䍃
䏍
䒑
䖍
䖒
䖝
䖵
䙴
䚻
䜌
䝿
䡛
䧹
䪞
一
丁
丂
七
丄
丅
丆
万
丈
三
上
下
丌
不
与
丏
丐
丑
专
且
丕
世
丘
丙
业
东
丞
丢
丣
两
严
並
丨
丩
个
丫
丬
中
丮
丰
丱
串
丵
丶
丷
丸
丹
为
主
丽
丿
乀
乂
乃
久
乆
乇
么
义
之
乌
乍
乎
乏
乐
乑
乔
乖
乗
乘
乙
乚
乛
乜
九
乞
也
习
乡
乳
乾
亀
亅
了
亇
予
争
事
二
亍
于
亏
亐
云
互
亓
五
井
亘
亚
亜
亞
亟
亠
亡
亢
交
亥
亦
产
亨
亩
享
京
亭
亮
亯
亰
亲
亳
亶
亷
人
亻
亼
亾
仁
今
介
仌
从
仐
仑
仒
仓
仕
他
付
仝
代
令
以
件
任
企
伊
伏
伐
休
会
伝
伯
但
位
佐
体
何
佘
余
作
佥
使
來
侈
例
侌
侖
侯
侵
便
俊
保
俞
信
修
倉
倍
候
倠
健
偵
備
僉
僕
優
儿
兀
允
兂
元
兄
充
兆
兇
先
光
兊
克
兌
免
兑
兒
兓
兔
党
兜
兟
入
全
兩
兪
八
公
六
兮
兰
共
关
兵
其
具
典
兹
兼
冀
冂
冃
冄
内
冈
冉
冊
冋
册
再
冎
冏
冐
冒
冓
冖
冗
冘
军
农
冝
冠
冡
冥
冫
冬
冷
几
凡
凢
凵
凶
凷
凸
凹
出
函
凾
刀
刁
刂
刃
刄
刅
分
切
刍
刑
刕
刖
列
刘
则
初
別
利
别
到
制
刺
則
削
剌
前
剡
剽
劇
劉
力
功
加
劦
动
助
劫
劳
劵
勃
勇
勉
勒
動
務
勝
勞
勤
勹
勺
勻
勾
勿
匀
匂
包
匆
匈
匊
匋
匍
匕
化
北
匚
匝
匡
匪
匱
匸
匹
区
医
匽
匿
區
十
卂
千
卄
卅
卆
升
午
卉
半
卌
华
卑
卒
卓
单
卖
南
博
卜
卝
卞
占
卡
卢
卣
卤
卦
卩
卪
卬
卯
印
危
即
却
卵
卷
卸
卻
厂
厃
厄
历
厈
厉
厌
厓
厘
厚
原
厤
厥
厨
厭
厲
厶
厷
厸
去
厼
厽
叀
参
參
叅
又
叉
及
友
双
反
叐
发
叒
叔
叕
取
受
叚
叜
叟
口
古
句
另
叩
只
召
可
台
叱
史
右
叵
号
司
叹
吂
各
吅
合
吉
吊
吋
同
名
后
吏
向
吕
君
吝
吞
否
含
启
吳
吴
吹
吾
呂
呆
呈
告
员
呙
周
命
咅
和
咎
咠
咢
咨
咸
咼
哀
品
哉
員
哥
哲
唐
商
啇
問
啚
啬
啻
善
喜
喬
單
喿
嗇
噩
嚴
囊
囗
囘
囙
囚
四
回
囟
因
団
囧
囬
困
囱
囷
固
国
圂
圅
國
圍
園
圓
土
圡
圣
圥
在
圭
地
圶
场
圼
坂
坐
坒
坚
坴
垂
型
垔
垚
埀
埋
城
埶
執
基
堂
堅
堆
堇
堯
報
場
塞
墨
壘
士
壬
壯
声
売
壳
壴
壹
壺
壽
夂
处
夅
夆
备
夊
夋
夌
复
夏
夒
夕
外
夗
夘
多
夜
夢
大
夨
天
太
夫
夬
夭
央
失
夲
头
夷
夸
夹
夻
夾
奂
奄
奇
奈
奉
奎
奏
奐
契
奓
奔
奚
奞
奠
奢
奥
奭
女
奴
奻
好
如
妄
妙
妟
妥
妻
妾
始
姑
委
姜
威
娄
婁
婴
嬰
嬴
子
孑
孔
孕
孖
字
存
孚
孛
孝
孟
季
孤
学
孫
孱
學
宀
宁
宂
它
宅
宇
守
安
宋
完
宏
宓
宗
官
定
宛
宜
宝
実
客
宣
室
宮
宰
害
家
容
宾
宿
寄
寅
密
富
寒
察
寧
審
寫
寬
寮
寸
对
寺
寻
寽
対
寿
封
尃
射
将
將
專
尉
尊
尋
尌
對
小
少
尒
尓
尔
尖
尗
尚
尞
尢
尣
尤
尧
尨
尭
就
尸
尹
尺
尻
尼
尽
尾
尿
局
居
屈
屋
屎
屏
屑
展
屖
屚
属
屠
屡
屬
屮
屯
屰
山
屵
屾
岁
岂
岑
岡
岩
岳
岸
峯
島
崇
崎
崑
崔
崖
崙
崩
嵬
嶲
巂
巛
川
州
巟
巠
巢
巤
工
左
巧
巨
巩
巫
差
己
已
巳
巴
巷
巸
巻
巽
巾
巿
帀
市
布
希
帚
帛
帝
带
師
席
帯
帶
常
干
平
年
幵
并
幷
幸
幺
幻
幼
幽
幾
广
広
庄
床
底
店
庚
府
度
庫
庭
庶
康
庸
廉
廌
廛
廣
廩
廴
延
廷
建
廾
廿
开
弁
弃
弄
弇
弋
式
弓
弔
引
弗
弘
弜
弟
张
弥
弦
弱
張
強
强
彊
彌
彎
彐
彑
当
彔
录
彖
彗
彡
形
彥
彦
彧
彭
影
彳
役
彼
往
待
律
後
徒
得
徙
從
復
微
徵
德
心
忄
必
忌
忍
志
忝
忠
忩
快
念
忽
忿
思
怠
急
性
怱
恆
恒
恩
恭
息
恵
悉
患
悤
悲
悶
情
惠
惡
惢
愁
愈
意
愛
感
慈
慧
慮
憂
憲
應
戀
戈
戉
戊
戋
戌
戍
戎
成
我
戒
戔
或
战
戚
戠
戢
戦
截
戲
戶
户
戸
戹
戼
戾
房
所
扁
扇
手
扌
才
打
托
执
承
折
报
拉
拜
拿
掌
探
推
提
摩
撃
支
攴
攵
收
攸
改
放
政
敄
敏
敕
敖
敗
教
敝
敞
敢
散
敦
敫
敬
数
敷
數
斂
文
斉
斊
斗
料
斤
斥
斩
斬
斯
新
方
於
施
斿
旁
旋
族
无
旡
既
旣
日
旦
旧
旨
早
旬
旱
旲
时
旾
昆
昇
昌
昍
明
昏
易
昔
昗
昜
星
映
春
昬
是
昱
昴
昷
時
晃
晋
晏
普
景
晶
智
暑
暴
曇
曩
曰
曲
曳
更
曷
書
曹
曼
曾
替
最
朁
會
月
有
朋
服
朔
朕
朗
望
朝
期
木
朩
未
末
本
札
朮
术
朱
朵
朶
机
朿
杀
李
杏
村
杜
束
条
来
東
杲
杳
松
析
林
枚
果
枝
枲
枼
某
柔
查
柬
柰
柴
栗
校
株
桀
桑
桼
梁
條
梟
梨
棘
棠
棥
森
楚
業
楽
榮
樂
樊
樹
橋
機
欠
次
欣
欮
欲
欶
欽
款
歆
歇
歌
歛
止
正
此
步
武
歨
歪
歮
歯
歰
歲
歴
歷
歸
歹
歺
死
殳
段
殷
殸
殹
殺
殻
殿
毋
毌
母
每
毒
比
毕
毚
毛
毳
氏
氐
民
气
気
氣
水
氵
氶
氷
永
氺
氾
求
汉
汝
汞
江
決
沃
沓
沙
沝
沢
河
治
泉
法
波
泣
泥
泰
洋
洛
津
洪
活
派
流
浦
浪
浮
海
淡
淮
深
清
渚
渠
港
湯
滿
演
漸
瀬
火
灬
灭
灰
灵
灷
炅
炎
炏
炗
炙
炭
為
烈
烏
烝
焉
無
焦
焱
然
煞
熊
熏
燕
營
燮
爪
爫
爭
爯
爰
爱
爲
爵
父
爻
爽
爾
爿
片
版
牙
牚
牛
牜
牟
牢
牧
物
牪
特
牽
犀
犬
犭
犮
狂
狄
狊
独
狺
猋
猒
猪
献
獻
玄
率
玉
王
玟
玨
珎
班
球
理
琴
瑟
瑩
瓜
瓦
甘
甚
生
産
用
甫
甬
田
由
甲
申
电
甶
男
甸
甹
町
画
甾
畀
界
畏
畐
留
畜
畟
畢
畧
畨
番
畫
異
畱
當
畺
畾
疊
疋
疌
疑
疒
疾
病
癶
癸
癹
発
登
發
白
百
皀
皃
的
皆
皇
皋
皐
皕
皮
皷
皿
盃
盆
盇
盈
益
盍
盎
监
盒
盖
盛
盡
監
盤
盧
目
直
相
盾
省
眇
眉
看
県
眔
眞
真
眷
眼
眾
着
睘
睪
睿
瞏
瞢
瞿
矍
矛
矞
矢
矣
知
矦
短
石
研
破
碎
磊
磨
示
礻
礼
社
神
祟
票
祭
禀
禁
福
禸
禹
禺
离
禽
禾
禿
秀
秃
秉
秋
科
秝
秦
移
稟
種
穀
穌
穴
究
穹
空
穿
突
窄
窒
立
竒
竜
竝
竟
章
童
竹
笑
笠
第
筆
等
答
箕
算
箴
節
篇
篤
篭
米
粉
粛
粟
粤
粦
粲
糞
糸
糹
系
紀
約
納
素
索
紫
累
細
組
結
絜
絫
絲
維
綿
編
縣
繇
纍
纟
缶
网
罒
罔
罕
罗
罙
罡
罢
罪
署
罷
羅
羊
羌
羍
美
羔
羕
羗
羞
羡
羣
群
義
羲
羸
羽
翁
翏
習
翕
翟
翠
翼
老
耂
考
者
耆
而
耎
耑
耒
耳
耴
耶
耷
聂
聊
联
聖
聚
聞
聴
聶
聿
肀
肃
肅
肉
肖
肙
肥
肩
肯
育
肴
肺
胃
背
胡
胥
能
脊
脩
膚
臣
臤
臧
自
臬
臭
臯
臱
至
致
臺
臼
臽
臾
臿
舀
舂
舄
與
興
舉
舌
舍
舛
舜
舞
舟
般
艮
良
色
艸
艹
艾
芒
芔
芬
芮
花
芳
芺
芻
苔
苗
苟
若
苦
英
茶
茸
荅
草
荒
荣
荼
莆
莧
莫
莽
菆
菊
菐
華
萬
落
葉
著
葛
董
葵
蒙
蒦
蒼
蓋
蓬
蓺
蔑
蔡
蕉
蕭
薄
薛
薦
薰
藍
藏
藤
藥
蘭
虍
虎
虐
虒
虔
處
虖
虗
虘
虚
虛
虜
虞
虫
虽
蚤
蚩
蜀
蜜
蟲
蠡
血
行
衍
術
衛
衣
衤
表
衮
衰
袁
袞
被
裕
褭
褱
襄
襾
西
覀
要
覃
見
規
覓
視
覧
親
覽
见
角
解
言
訁
訇
計
記
話
詹
語
誩
諸
讠
谷
豆
豈
豊
豐
豕
豖
豙
象
豦
豩
豪
豸
貇
貝
貞
貟
負
貢
貧
貪
貫
責
貳
貴
買
費
賁
資
賈
賏
賓
賔
賛
賞
賢
賣
質
賴
贊
贝
贡
责
贯
贲
贵
赖
赛
赞
赤
赦
走
超
越
足
路
蹇
身
躬
車
軍
軎
軟
輦
车
辛
辜
辟
辥
辰
辱
農
辵
辶
边
达
过
近
连
迷
追
退
送
逆
逐
通
速
造
逢
連
逮
進
遀
遂
過
道
達
遣
適
遷
選
遺
邊
邑
邕
那
邦
邪
郎
部
郭
都
鄉
酉
酋
配
酓
釆
采
里
重
野
量
金
釒
鈴
錢
鑑
钅
長
镸
长
門
閃
閉
開
閏
閑
閒
間
閔
関
閵
閻
闌
门
间
闷
闻
阑
阜
阝
队
阿
陈
降
限
院
陳
隆
隊
隋
隡
隨
隱
隶
隹
隺
隻
隼
隽
难
雀
雁
雄
集
雈
雋
雍
雐
雔
雙
雚
雜
雝
離
難
雨
雩
雪
雲
零
雷
電
需
霍
霜
霝
霞
霸
靈
靑
青
非
靡
面
靣
革
韋
韦
韭
韯
韱
音
頁
頃
項
須
頗
頡
頻
顛
页
風
风
飛
飞
食
飠
養
館
饣
首
香
馬
馮
駦
马
骨
高
髟
鬥
鬯
鬲
鬼
魔
魚
魯
鮮
鱼
鲁
鳥
鳳
鸟
鹵
鹿
麃
麗
麥
麦
麻
黃
黄
黍
黎
黑
黒
黨
黹
黽
黾
鼎
鼓
鼠
鼻
齊
齋
齐
齒
齿
龍
龙
龜
龟
龠
龰
龱
龴
龵
龶
龷
龸
龹
者
艹
﴾
﴿
ﷺ
﻿
！
＆
（
）
，
－
／
０
１
２
：
？
ｊ
｜
～
�
🖕
𠀁
𠀃
𠀆
𠀉
𠀎
𠀐
𠁁
𠁣
𠂆
𠂇
𠂈
𠂉
𠂊
𠂋
𠂎
𠂒
𠂔
𠂛
𠂡
𠂢
𠂤
𠂬
𠂭
𠂹
𠃊
𠃋
𠃌
𠃍
𠃎
𠃑
𠃓
𠃔
𠃜
𠄌
𠄎
𠄠
𠄢
𠆢
𠆥
𠇍
𠈌
𠌵
𠓜
𠔉
𠔥
𠔼
𠔽
𠔿
𠕀
𠕁
𠕋
𠘧
𠘨
𠙻
𠙼
𠚏
𠚒
𠚤
𠚪
𠣏
𠤎
𠤕
𠥓
𠦄
𠦑
𠦝
𠧒
𠧗
𠧪
𠩺
𠪚
𠫓
𠫔
𠫤
𠬛
𠬝
𠬞
𠬢
𠬤
𠬶
𠮛
𠮦
𠮷
𠯑
𠱠
𠳮
𠷎
𡈼
𡉀
𡉵
𡌥
𡍮
𡏳
𡕒
𡕩
𡕰
𡖅
𡗗
𡗜
𡘆
𡘤
𡧱
𡨄
𡩧
𡬠
𡭽
𡰣
𡰥
𡰪
𡰯
𡰱
𡷈
𡸁
𡿨
𡿩
𡿪
𡿺
𢀖
𢀛
𢀩
𢁙
𢆉
𢆰
𢆶
𢇁
𢇇
𢉖
𢌬
𢌿
𢏚
𢑑
𢑚
𢖻
𢙣
𢛳
𢦏
𢦒
𢧵
𢼄
𢾕
𣁋
𣄼
𣅀
𣅽
𣍘
𣎳
𣎵
𣏋
𣏼
𣗥
𣥂
𣥖
𣦵
𣦼
𣧄
𣪊
𣪠
𣬉
𣳾
𣶒
𤇾
𤊽
𤐫
𤓰
𤔔
𤕨
𤣩
𤰇
𤰔
𤰞
𤴓
𤴔
𤽄
𥁑
𥁕
𥃦
𥃩
𥃭
𥇡
𥑟
𥘅
𥘈
𥝢
𥫗
𥱡
𦈢
𦉪
𦉬
𦉼
𦍌
𦍒
𦎧
𦐇
𦓔
𦔮
𦘒
𦙃
𦚏
𦣝
𦣞
𦣻
𦥑
𦥔
𦥯
𦨉
𦭝
𦰩
𧆞
𧈧
𧘇
𧰨
𧴪
𧴮
𧵩
𧾷
𨸏
𨾴
𩙿
𩠐
𩫏
𩵋
𪉷
𪜀
𪟽
𪠲
𪩲
𫇦
𫔭
𫜸
𫝀
𫠣
𫠩
𫢉
𫥞
𫩏
𫩠
𫪡
𫲽
𫶧
𬀷
𬐘
𬗌
𬙙
𬛸
𬜯
𬟩
𬯁
𬴘
𬺻
𬼉
𬼖
𭀰
𭁈
𭁨
𭅰
𭑈
𭕄
𭗼
𭤨
𭥫
𭻾
𮅕
𮊿
𮍌
𮍏
𮓗
𮥼
𮧮
廾
𰀁
𰀄
𰀈
𰀉
𰀕
𰀠
𰀡
𰀢
𰀪
𰁜
𰃮
𰆊
𰆘
𰋙
𰕎
𰢴
𰧭
𰯲
000--
001--
002--
003--
004--
010--
02--
020--
03--
04--
05--
06--
07--
08--
09--
101--
112--
113--
114--
116--
117--
118--
119--
120--
121--
122--
123--
124--
125--
129--
130--
133--
134--
135--
147--
166--
358--
68--
69--
70--
72--
73--
74--
75--
76--
77--
78--
79--
80--
81--
82--
83--
84--
85--
86--
87--
88--
89--
90--
91--
92--
93--
94--
95--
96--
97--
978--
978019--
98--
99--
a--
aa--
ab--
abgeord--
ac--
acce--
accu--
achi--
ad--
add--
adel--
admin--
adol--
adop--
adv--
adverti--
ae--
aero--
af--
affe--
ag--
agu--
ah--
ai--
air--
aj--
ak--
al--
ale--
algo--
ali--
all--
alt--
am--
amend--
an--
ana--
anarc--
ander--
ang--
angio--
anim--
anth--
anti--
any--
ao--
ap--
app--
appo--
aqua--
ar--
ara--
arch--
art--
as--
ash--
asse--
assemb--
assi--
at--
athe--
atmosp--
atp--
attach--
attr--
au--
aus--
auto--
av--
avo--
awa--
ax--
ay--
az--
b--
ba--
back--
bact--
bad--
bal--
ban--
bapt--
bar--
bas--
batt--
bb--
bc--
bd--
be--
beau--
bel--
belg--
ben--
benef--
ber--
bern--
bi--
biblio--
bin--
bio--
bird--
bl--
blan--
blo--
bm--
bo--
bol--
boli--
bon--
boo--
bot--
botan--
bou--
bow--
box--
br--
brad--
bre--
bree--
bri--
brig--
bro--
bru--
bry--
bu--
budd--
bundes--
by--
c--
ca--
cal--
calcu--
can--
cap--
car--
cas--
cat--
cau--
cc--
cd--
ce--
cele--
cen--
cer--
cere--
certif--
ch--
cha--
che--
chi--
cho--
ci--
circu--
circum--
cl--
cle--
clim--
clo--
cm--
cn--
co--
col--
com--
compl--
con--
constitu--
coor--
corn--
corr--
corres--
cos--
cou--
cow--
cr--
crea--
crist--
crit--
cro--
cru--
crusa--
cs--
ct--
cu--
cun--
cy--
cycl--
cyto--
d--
da--
dan--
dar--
de--
dec--
decla--
defe--
defi--
del--
demonst--
der--
des--
deter--
deu--
dev--
dha--
di--
dia--
diff--
dig--
dipl--
dis--
dj--
dm--
do--
doc--
dol--
domin--
don--
doz--
dr--
dro--
du--
dw--
dy--
dyna--
e--
ea--
eb--
ec--
ed--
edu--
ee--
ef--
eg--
ei--
ek--
el--
elec--
eli--
elis--
em--
emer--
emis--
emo--
en--
eng--
enri--
ep--
epid--
epil--
eq--
equa--
equi--
er--
es--
espe--
est--
establi--
establish--
et--
ethno--
eu--
eur--
euro--
ev--
eva--
ex--
exam--
exce--
exe--
exp--
expla--
ez--
f--
fa--
fair--
family--
fan--
far--
fau--
fc--
fe--
fein--
fel--
ferr--
fi--
film--
fin--
fire--
fitz--
fl--
flash--
flo--
flor--
fo--
fol--
foot--
for--
fr--
fra--
fre--
fred--
free--
fru--
fu--
fune--
g--
ga--
gala--
gali--
gall--
gar--
gastro--
gau--
gaz--
ge--
gen--
geo--
ger--
get--
gh--
gi--
gil--
gin--
gio--
gir--
gla--
gli--
glo--
glu--
gn--
go--
god--
gold--
gr--
gram--
green--
grif--
gro--
gs--
gu--
guan--
guer--
guil--
gun--
gyne--
h--
ha--
hal--
han--
hard--
harr--
hart--
hat--
hau--
haw--
hay--
haz--
he--
head--
hei--
heidel--
hel--
heli--
hen--
her--
hi--
high--
his--
hit--
hl--
ho--
hod--
hol--
holi--
home--
homo--
horm--
hou--
hr--
hu--
humph--
hunga--
hutc--
hy--
hybr--
hydr--
hyper--
hypo--
i--
ia--
ic--
ice--
id--
if--
il--
illu--
illust--
im--
imag--
implem--
in--
inaugu--
inc--
incor--
indi--
india--
indu--
indust--
infe--
infl--
infra--
inhi--
insp--
inst--
instru--
insu--
int--
integ--
inter--
inva--
inve--
inven--
investi--
invi--
io--
ip--
ir--
is--
iso--
it--
iv--
j--
ja--
jan--
je--
jen--
ji--
jo--
jou--
jp--
ju--
k--
ka--
kan--
kara--
ke--
key--
kha--
ki--
kim--
kit--
klu--
kne--
ko--
kr--
krist--
ku--
kw--
ky--
l--
la--
lanc--
land--
lau--
law--
lc--
le--
len--
let--
li--
lib--
life--
lin--
lingu--
lite--
lith--
ll--
lo--
lock--
long--
lou--
lt--
lu--
ly--
lymp--
m--
ma--
mac--
mad--
mag--
magn--
mah--
mai--
mal--
mala--
man--
manif--
map--
mar--
mate--
matr--
mau--
mauri--
maz--
mb--
mc--
me--
measure--
med--
meh--
mel--
mela--
memo--
men--
merc--
mess--
met--
meta--
mi--
micr--
micro--
mid--
mik--
mil--
min--
mira--
mist--
mit--
ml--
mo--
mon--
morpho--
motor--
mou--
mp--
mr--
ms--
mt--
mu--
multi--
mun--
my--
myst--
n--
na--
naka--
narr--
nat--
nau--
nc--
nd--
ne--
neder--
neo--
ner--
net--
neu--
neuro--
new--
news--
ng--
ngu--
ni--
nik--
no--
non--
north--
nou--
ns--
nu--
num--
ny--
o--
obe--
obs--
obser--
obste--
occ--
of--
off--
og--
oh--
ok--
ol--
olim--
oliv--
oly--
om--
on--
onco--
one--
onto--
op--
ophthal--
opport--
or--
os--
osci--
ou--
out--
over--
oxy--
oz--
p--
pa--
pack--
pal--
pala--
pan--
par--
para--
pass--
pat--
pay--
pc--
pe--
pen--
per--
petr--
ph--
phar--
phen--
phos--
phy--
pi--
pin--
pl--
plat--
play--
plu--
pm--
po--
pol--
poli--
poly--
post--
pou--
pr--
prae--
pre--
prim--
pro--
provi--
ps--
psy--
psych--
pt--
pu--
pul--
purc--
py--
q--
qa--
qu--
qua--
quali--
quanti--
quick--
r--
ra--
radio--
rah--
ran--
rat--
rc--
re--
rec--
recense--
recom--
red--
ref--
refer--
reg--
rega--
regu--
rein--
rela--
rele--
ren--
rep--
require--
res--
reta--
reti--
retr--
rev--
rg--
rh--
rhy--
ri--
rl--
ro--
rob--
rock--
rod--
rou--
row--
rs--
ru--
rut--
ry--
s--
sa--
sal--
sam--
san--
sar--
sc--
scar--
sch--
scha--
sche--
schi--
schizop--
schl--
scho--
sco--
scul--
se--
sea--
sec--
see--
sei--
sel--
sen--
sep--
ser--
sey--
sf--
sh--
she--
shi--
sho--
show--
shu--
si--
sie--
sil--
sili--
simu--
sin--
sk--
sky--
sl--
slo--
sm--
sn--
so--
socio--
sol--
some--
son--
song--
sou--
sovere--
sp--
spea--
spec--
speed--
spu--
squa--
sr--
ss--
st--
sta--
star--
ster--
stimu--
sto--
stra--
stre--
stu--
su--
sub--
suff--
sugge--
sul--
sun--
super--
supp--
sur--
sus--
sv--
swa--
swe--
sy--
syl--
symb--
syn--
t--
ta--
taka--
tan--
tau--
te--
temp--
ten--
terr--
th--
the--
thor--
thri--
thu--
thy--
ti--
to--
tou--
tr--
trans--
tri--
tro--
tru--
try--
ts--
tt--
tu--
tv--
tw--
ty--
u--
uc--
uk--
ul--
ult--
ultra--
um--
un--
under--
uni--
up--
urg--
[...]
