!
"
#
##0
##1
##10
##11
##12
##13
##14
##15
##16
##17
##18
##19
##2
##20
##21
##22
##23
##24
##25
##26
##27
##28
##29
##3
##30
##31
##32
##33
##34
##35
##36
##37
##38
##39
##4
##40
##41
##42
##43
##44
##45
##46
##47
##48
##49
##5
##50
##51
##52
##53
##54
##55
##56
##57
##58
##59
##6
##60
##61
##62
##63
##64
##65
##66
##67
##68
##69
##7
##70
##71
##72
##73
##74
##75
##76
##77
##78
##79
##8
##80
##81
##82
##83
##84
##85
##86
##87
##88
##89
##9
##90
##91
##92
##93
##94
##95
##96
##97
##98
##99
$
%
&
'
(
)
*
+
,
-
.
/
0
00
000
0000
000000
001
002
003
007
01
010
02
03
04
05
06
063
07
08
083
09
1
10
100
1000
10000
100000
101
1016
102
103
104
105
106
107
108
1080
109
11
110
1100
111
1111
112
113
114
115
116
117
118
119
12
120
1200
12000
121
122
1228
123
124
125
1250
126
1260
127
128
129
13
130
1300
131
132
1320
133
1330
134
1340
1346
1348
135
1350
136
1360
1365
1368
137
1370
1371
1372
1373
1375
1377
138
1380
1381
1382
1383
1384
1385
1386
1387
1388
1389
139
1390
1391
1392
1393
1394
1395
1396
1397
1398
1399
14
140
1400
1401
1402
1403
1404
1405
1406
1407
1408
1409
141
1410
1411
1412
1413
1414
1415
1416
1417
1418
1419
142
1420
1421
1422
1423
1424
1425
1426
1427
1428
1429
143
1430
1431
1432
1433
1434
1435
1436
1437
1438
1439
144
1440
1441
1442
1443
145
1450
1453
146
147
148
149
1492
15
150
1500
15000
151
1510
1516
1517
152
1520
1521
153
1530
154
1540
155
1550
156
1560
157
1570
158
1580
159
1590
16
160
1600
1603
161
1610
162
1620
163
1630
164
1640
1648
165
1650
166
1660
167
1670
168
1680
1688
1689
169
1690
17
170
1700
1707
171
1710
1714
172
1720
173
1730
174
1740
1745
175
1750
1753
1754
1755
1757
1758
1759
176
1760
1761
1762
1763
1764
1765
1766
1767
1768
1769
177
1770
1771
1772
1773
1774
1775
1776
1777
1778
1779
178
1780
1781
1782
1783
1784
1785
1786
1787
1788
1789
179
1790
1791
1792
1793
1794
1795
1796
1797
1798
1799
18
180
1800
1801
1802
1803
1804
1805
1806
1807
1808
1809
181
1810
1811
1812
1813
1814
1815
1816
1817
1818
1819
182
1820
1821
1822
1823
1824
1825
1826
1827
1828
1829
183
1830
1831
1832
1833
1834
1835
1836
1837
1838
1839
184
1840
1841
1842
1843
1844
1845
1846
1847
1848
1849
185
1850
1851
1852
1853
1854
1855
1856
1857
1858
1859
186
1860
1861
1862
1863
1864
1865
1866
1867
1868
1869
187
1870
1871
1872
1873
1874
1875
1876
1877
1878
1879
188
1880
1881
1882
1883
1884
1885
1886
1887
1888
1889
189
1890
1891
1892
1893
1894
1895
1896
1897
1898
1899
19
190
1900
1901
1902
1903
1904
1905
1906
1907
1908
1909
191
1910
1911
1912
1913
1914
1915
1916
1917
1918
1919
192
1920
1921
1922
1923
1924
1925
1926
1927
1928
1929
193
1930
1931
1932
1933
1934
1935
1936
1937
1938
1939
194
1940
1941
1942
1943
1944
1945
1946
1947
1948
1949
195
1950
1951
1952
1953
1954
1955
1956
1957
1958
1959
196
1960
1961
1962
1963
1964
1965
1966
1967
1968
1969
197
1970
1971
1972
1973
1974
1975
1976
1977
1978
1979
198
1980
1981
1982
1983
1984
1985
1986
1987
1988
1989
199
1990
1991
1992
1993
1994
1995
1996
1997
1998
1999
2
20
200
2000
20000
2001
2002
2003
2004
2005
2006
2007
2008
2009
201
2010
2011
2012
2013
2014
2015
2016
2017
2018
2019
202
2020
2021
2022
2023
2024
2025
203
2030
204
205
2050
206
207
208
209
21
210
211
212
213
214
215
216
217
218
219
22
220
221
222
223
224
225
226
227
228
229
23
230
231
232
233
234
235
236
237
238
239
24
240
241
242
243
244
245
246
247
248
249
25
250
2500
251
252
253
254
255
256
257
258
259
26
260
261
262
263
264
265
266
267
268
269
27
270
271
272
273
274
275
276
277
278
279
28
280
281
282
283
284
285
286
287
288
289
29
290
291
292
293
294
295
296
297
298
299
3
30
300
3000
301
302
303
304
305
306
307
308
309
31
310
311
312
313
314
315
316
3166
317
318
319
32
320
321
322
323
324
325
326
327
328
329
33
330
331
332
333
334
335
336
337
338
339
34
340
341
342
343
344
345
346
347
348
349
35
350
3500
351
352
353
354
355
356
357
358
359
36
360
361
362
363
364
365
366
367
368
369
37
370
371
372
373
374
375
376
377
378
379
38
380
381
382
383
384
385
386
387
388
389
39
390
391
392
393
394
395
396
397
398
399
4
40
400
4000
401
402
403
404
405
406
407
408
409
41
410
411
412
413
414
415
416
417
418
419
42
420
421
422
423
424
425
426
427
428
429
43
430
431
432
433
434
435
436
437
438
439
44
440
441
442
443
444
445
446
447
448
449
45
450
451
452
453
454
455
456
457
458
459
46
460
461
462
463
464
465
466
467
468
469
47
470
471
472
473
474
475
476
477
478
479
48
480
481
482
483
484
485
486
487
488
489
49
490
491
492
493
494
495
496
497
498
499
5
50
500
5000
50000
501
502
503
504
505
506
507
508
509
51
510
511
512
513
514
515
516
517
518
519
52
520
521
522
523
524
525
526
527
528
529
53
530
531
532
533
534
535
536
537
538
539
54
540
541
542
543
544
545
546
547
548
549
55
550
551
552
553
554
555
556
557
558
559
56
560
561
562
563
564
565
566
567
568
569
57
570
571
572
573
574
575
576
577
578
579
58
580
581
582
583
584
585
586
587
588
589
59
590
591
592
593
594
595
596
597
598
599
6
60
600
6000
601
602
603
604
605
606
607
608
609
61
610
611
612
613
614
615
616
617
618
619
62
620
621
622
623
624
625
626
627
628
629
63
630
631
632
633
634
635
636
637
638
639
64
640
641
642
643
644
645
646
647
648
65
650
651
653
654
655
656
657
658
659
66
660
661
662
664
666
667
668
67
670
672
674
675
678
679
68
680
681
682
683
684
685
688
69
690
691
692
694
696
699
7
70
700
7000
701
702
705
707
708
71
710
711
712
714
715
717
718
719
72
720
722
725
727
73
730
731
732
733
737
74
740
741
745
747
75
750
751
757
76
760
767
768
77
770
776
777
778
78
780
781
786
787
79
790
792
8
80
800
8000
801
802
806
81
810
813
815
82
820
821
824
827
83
830
833
84
840
842
844
85
850
855
857
86
860
861
87
870
875
88
880
89
890
893
9
90
900
9000
909
91
910
911
917
92
920
929
93
930
938
94
940
945
95
950
958
96
960
964
969
97
970
975
977
978
98
980
99
990
999
:
;
<
=
>
?
@
\
^
_
`
a
aa
aamir
ab
abanima
abbrev
abc
about
above
abstract
abu
ac
academic
academy
access
accessed
according
account
acid
across
act
action
actions
active
ad
adam
adams
add
administration
advanced
ae
af
affairs
afghanistan
africa
african
after
ag
again
against
age
agency
agriculture
ah
ahmed
ai
air
aircraft
airport
ajwaan
al
alan
albert
album
alex
alexander
alfred
alge
alger
ali
aliases
align
all
allen
alliance
alpha
alps
also
alt
alternative
alumnicard
am
amazon
america
american
among
an
analysis
ancient
and
anderson
andre
andrew
angeles
animal
ann
anna
anne
annual
another
anthony
anti
antonio
any
ap
api
apple
application
applications
approach
apr
april
ar
arab
arabia
arabic
archaeology
architecture
archive
archived
archives
are
area
argentina
args
armenia
armenian
arms
army
arnold
around
array
art
arthur
article
articles
artist
arts
as
asia
asian
asp
aspx
assembly
assessment
associated
association
at
athletics
atlantic
atlas
atp
attack
attr
au
auf
aug
august
australia
australian
austrian
author
authority
authors
auto
available
aviation
avicenno
award
awards
away
b
ba
back
background
bad
baker
bakni
band
bank
bar
barbara
barcelona
base
baseball
based
basic
battle
bay
bbc
bc
bce
bd
be
beach
because
been
before
begin
behavior
behind
being
bell
below
ben
benjamin
ber
berkeley
berlin
bernard
best
beta
between
beyond
bi
bible
big
bill
billboard
bin
bio
biographical
biography
biology
bird
birds
birth
births
black
blackwell
block
blog
blood
blue
bmatrix
bo
board
boats
bob
body
bold
book
books
border
born
boston
bot
both
bottom
box
boy
br
brain
brazil
break
breezeicons
brian
bridge
brief
brill
britain
britannica
british
brown
bruce
bu
building
bulletin
bureau
bus
business
but
by
c
ca
cairo
california
call
called
cambridge
camp
campaign
campbell
can
canada
canadian
cancer
canon
capital
caption
car
care
career
carl
carlos
carolina
case
cases
castle
cat
catalina
category
catholic
cbs
cc
cd
cdot
cdots
ce
cell
census
center
central
centre
century
cf
cfg
ch
champions
championship
championships
change
changes
channel
chapter
character
charles
chart
che
check
chemcalc
chemical
chemistry
chemspider
chess
chicago
chief
child
children
chile
china
chinese
chris
christian
christianity
christians
christopher
chronicle
church
cia
circle
cit
citation
cite
cited
cities
city
civil
civilization
cl
claim
claims
clark
class
classic
classical
classification
climate
clinical
close
club
cm
cn
cnn
co
coach
code
col
cold
collection
college
colleges
collins
colonial
color
columbia
column
com
come
command
comment
commission
committee
common
commons
communication
community
companion
company
comparative
complete
complex
computer
con
conference
config
conflict
congress
conservation
constitution
construction
contemporary
content
context
control
convertunits
copy
core
coronavirus
corporation
cos
could
council
count
countries
country
county
court
covid
cr
create
crime
crisis
critical
cross
cs
css
ct
cultural
culture
cuneiform
cup
current
d
da
daily
dan
daniel
dans
dark
das
data
database
datavalue
date
dates
david
davis
day
days
db
dc
dd
de
dead
deal
death
deaths
dec
december
default
defense
definition
del
della
delta
democracy
democratic
den
department
der
des
description
desert
design
detail
details
deutsche
deutschland
development
di
dictionary
did
die
diego
dies
different
digital
director
directory
discovery
discussion
disease
disney
disorders
display
district
div
division
dna
do
doc
document
documentation
documents
does
doi
domain
don
donald
done
dos
dot
double
douglas
down
dr
draft
dresden
drug
drugs
ds
dt
du
due
dur
during
dutch
dvd
dx
e
each
eagle
early
earth
east
eastern
ec
eclipse
economic
economics
economy
ed
edinburgh
edit
edited
edition
editor
editors
eds
edu
education
edward
ee
effect
effects
eg
egypt
egyptian
ein
el
election
elections
electronic
element
elements
elizabeth
elph
else
elseif
elst
em
embassy
empire
empty
en
encyclopaedia
encyclopedia
encyclopædia
end
energy
engine
engineering
england
english
entertainment
entity
entry
environment
environmental
er
era
eric
eris
error
es
espan
espn
essays
est
et
etc
eu
europa
europe
european
even
event
events
every
evidence
evolution
ex
example
executive
experience
express
external
eye
f
fa
face
facebook
fact
factor
facts
faculty
faith
fall
falls
false
fame
families
family
far
father
fb
fc
fda
fe
features
feb
february
federal
federation
female
festival
ff
ffffff
fi
fiction
field
fifa
fight
file
files
film
filmdatabas
films
final
financial
find
fire
first
five
flag
flight
flo
florida
flow
fm
fo
following
font
fontsize
food
football
for
force
forces
ford
foreign
form
format
formation
former
forum
found
foundation
four
fourth
fox
fr
frac
frame
franc
france
francis
francisco
frank
frederick
free
freedom
french
from
front
ft
fu
full
function
future
g
ga
gallery
gam
game
games
gamma
garden
gary
gas
gay
gazette
gazetteer
ge
gehrels
gender
gene
general
generation
genocide
george
georgia
german
germany
geschichte
get
gets
gif
girl
girls
give
given
global
globe
glory
go
goal
god
gold
golden
good
google
gordon
gov
government
governor
graham
grand
grant
gray
great
greece
greek
green
greenwood
groeneveld
group
groups
growth
gsub
gu
guardian
guide
h
ha
had
half
hall
hand
handbook
hans
harper
harris
harry
harvard
has
hat
have
hd
he
head
header
health
heart
height
held
helmoony
help
henry
her
herald
here
heritage
hieroglyph
high
higher
hill
him
his
histoire
historia
historic
historical
history
hitler
ho
hollywood
holy
home
hong
hospital
hotel
house
houten
how
howard
however
htm
html
http
https
hu
hudson
human
i
ian
iau
ibm
ibn
ibrahim
ic
ice
icon
id
identity
ieee
if
ii
iii
il
illinois
illustrated
im
image
images
imdb
img
impact
imperial
important
in
inc
include
including
independence
independent
index
india
indian
indiana
indonesia
industrial
industry
influence
info
infobox
information
infty
input
insert
inside
institute
int
intelligence
international
internet
interview
into
introduction
ip
ir
iran
iraq
iraqi
ireland
irish
is
isbn
islam
islamic
island
islands
iso
israel
israeli
issn
issue
issues
it
italian
italy
item
items
its
itv
iv
ix
j
ja
jack
jackson
jacques
james
jan
jane
january
japan
japanese
je
jean
jersey
jerusalem
jesus
jewish
jews
jim
jo
joe
john
johnson
join
jonathan
jones
jordan
jose
joseph
journal
jpeg
jpg
jr
js
jstor
ju
juan
jul
july
jump
jun
june
jupitertrojans
just
justice
k
ka
kadour
kansas
karl
kennedy
kenneth
kevin
key
kg
kh
khan
killed
kim
king
kingdom
kinokalender
kitt
km
knight
know
knowledge
known
ko
kong
korea
korean
ku
l
la
lab
label
labor
labour
lady
lake
lambda
land
lang
language
languages
large
las
last
lat
late
later
latin
law
lawrence
laws
le
leader
leaders
league
learning
lebanon
led
lee
left
legacy
legal
legend
length
leo
les
let
letter
letters
level
lewis
li
library
life
light
like
limited
line
linear
link
linked
links
list
lists
literary
literature
little
live
lives
living
ll
ln
lo
loc
local
location
log
logo
london
loneos
long
look
lord
los
lost
louis
love
low
lower
ltd
lu
m
ma
mac
machine
macmillan
made
madrid
mag
magazine
magic
mai
mail
main
major
make
making
male
man
management
manual
many
map
maps
mar
march
margaret
mari
maria
marie
marine
mark
market
marksize
marriage
mars
marshall
martin
marx
mary
mass
massachusetts
master
match
matches
math
mathbf
mathematical
mathrm
matthew
max
may
mbc
mbox
mcgraw
md
me
med
medal
media
mediawiki
medical
medicine
medieval
meeting
mem
member
members
memorial
memory
men
meno
mervat
mesa
message
method
methods
mexico
mg
mi
michael
michel
michelbakni
michigan
microsoft
middle
mike
mil
military
miller
million
min
mind
minister
ministry
minnesota
minor
minorplanetcenter
miss
missing
mission
mit
mk
mm
mn
mo
mobile
mode
model
modern
module
mohamed
mohammed
mojo
molecular
money
month
monthly
moon
moore
more
morning
morocco
morris
moscow
mosque
most
mother
mount
mountain
move
movement
movie
mp
mpo
mr
ms
mu
much
muhends
multiple
murray
museum
music
musical
muslim
must
mw
my
n
na
nacional
nam
name
named
names
namespace
nasa
nation
national
nations
natural
nature
naval
navy
ncbi
nd
ne
near
neat
need
nelson
net
netherlands
network
never
new
news
newspaper
next
ng
ngc
nh
ni
night
nil
nj
nl
no
node
noeditsection
non
none
norman
north
northern
not
note
notes
notice
notoc
nov
novel
november
now
nr
ns
nu
nuclear
null
num
number
numbers
ny
nys
o
obituary
obj
object
observatory
oclc
oct
october
of
off
office
official
oh
ohio
oil
old
olympic
olympics
omar
omega
on
one
online
only
onthisday
op
open
operation
operations
operatorname
option
options
or
oral
order
org
organization
origin
original
origins
os
other
others
ottoman
ou
our
out
output
over
overview
own
oxford
p
pa
pacific
padding
page
pages
pairs
pakistan
palace
palestine
palestinian
palomar
pan
paper
papers
par
para
param
parameter
parameters
params
paris
park
parliament
part
partial
party
pas
past
patrick
pattern
paul
pc
pdf
pe
peace
peak
penguin
pennsylvania
people
per
performance
period
persian
person
personal
perspective
perspectives
peter
pg
ph
phab
phase
phcap
phi
philadelphia
philip
philosophy
photo
photos
php
physical
physics
pi
pictures
pierre
pl
place
places
plain
plan
planet
plant
play
played
player
players
please
plus
pm
pmc
pmid
png
po
poetry
point
points
poland
police
policy
polish
political
politics
pop
popular
population
por
port
portal
portrait
portuguese
position
possible
post
pour
power
pp
pr
practice
pre
prefix
present
president
presidential
press
price
primary
prime
prince
princeton
principles
print
private
prize
pro
problem
problems
proceedings
process
production
professional
professor
profile
program
progress
project
projects
prop
properties
property
proposals
protection
protein
province
ps
psi
psychology
pt
pubchem
public
publication
publications
published
publisher
publishers
publishing
px
q
qid
quad
quality
quarterly
que
queen
query
question
questions
quoted
r
ra
race
radical
radio
random
range
raw
ray
rd
re
read
reading
real
reason
recent
record
records
red
ref
reference
references
reform
region
regional
register
related
relations
release
religion
religious
replace
report
reports
republic
request
require
required
res
research
resolution
resource
resources
response
result
results
ret
retrieved
return
returns
reuters
rev
review
reviews
revised
revolution
rfc
rgb
rho
ri
rich
richard
rie
right
rights
rio
rise
risk
river
rk
rm
rna
ro
road
robert
roberts
robinson
rock
roger
rolabel
role
roma
roman
rome
root
rose
round
route
routledge
row
roy
royal
rs
rsssf
rt
ru
rugby
rule
rules
run
rural
russell
russia
russian
s
sa
safety
said
saint
sam
same
sami
samuel
san
santa
sarah
saros
saudi
say
says
sc
scale
school
schools
science
sciences
scientific
scotland
scott
script
sdf
se
sea
search
season
sec
second
secret
secretary
section
security
see
select
selected
self
senate
sep
september
series
service
services
set
settings
seven
sex
sexual
sf
she
shift
short
shortname
should
show
si
side
siding
sie
sigma
sign
signs
silla
simon
sin
since
singapore
single
sir
site
sites
six
size
sky
sm
small
smith
so
soccer
soccerway
social
socialist
society
socorro
software
solar
solid
some
son
song
sons
source
sources
south
southern
soviet
sp
space
spacewatch
spain
span
spanish
special
species
speech
speed
split
sport
sports
spring
springer
sqrt
squad
square
sr
ss
st
stable
staff
stage
standard
stanford
star
stars
start
state
statement
states
station
statistics
stats
status
stephen
steve
steven
still
stone
stop
stories
story
str
strategy
street
string
structure
students
studies
study
style
su
sub
such
sudan
sum
summary
summer
sun
sunday
super
support
sur
survey
susan
svensk
svg
swedish
sydney
syllable
symbol
syndrome
syria
syrian
system
systems
t
ta
tab
table
tables
tag
taher
take
takes
talk
tan
tarawneh
target
tarihi
taxonomicon
taylor
td
te
team
teams
tech
technical
technology
telegraph
television
template
templates
temple
ten
tennessee
term
terms
test
texas
text
th
than
that
the
theatre
their
them
then
theory
therapy
there
these
theta
they
things
third
this
thomas
thompson
those
thought
three
through
thumb
ti
tig
till
tim
time
times
tipb
tipe
titb
tite
title
to
today
tokyo
tom
tonumber
too
tool
top
toronto
total
tour
tower
town
towns
tr
trade
tradition
training
trans
translate
translated
translation
travel
tre
treatment
tree
trial
tribune
true
trump
trust
tt
tu
turkey
turkish
turner
tv
twilight
twinkle
twitter
two
ty
type
u
uefa
uk
ukraine
un
una
und
under
understanding
undocs
une
unesco
union
unit
united
universal
universe
university
unknown
until
up
update
updated
upload
upper
upright
urban
url
us
usa
use
used
user
users
uses
using
ustring
utc
v
va
val
valley
value
values
van
var
ve
vec
verlag
version
vertical
very
vi
via
victoria
video
view
vii
village
violence
virginia
virtual
vision
visual
voice
vol
volume
volumes
von
vs
w
wa
wales
walker
wall
walter
want
war
wars
was
washington
watch
water
way
wd
we
web
website
week
weekly
welcome
well
were
west
western
what
when
where
which
while
white
who
why
wid
width
wiki
wikibase
wikidata
wikimedia
wikipedia
wikitext
wild
wiley
will
william
williams
wilson
win
window
windows
winner
winners
wins
winter
wisconsin
wise
with
within
without
woman
women
won
wood
word
words
work
workers
workflow
working
works
world
would
wright
writing
written
wwe
wwii
www
x
xa
xi
xs
xx
y
yale
year
years
yemen
yi
york
you
young
your
youth
youtube
yu
z
za
zaher
zealand
zero
zipcodezoo
zone
zu
zur
{
|
}
~
¡
£
§
¨
©
ª
«
­
®
°
±
²
³
´
µ
¶
·
º
»
½
¿
×
÷
ø
ı
ʻ
ʼ
ʿ
ˆ
ˈ
ː
ˑ
̀
́
̂
̃
̄
̆
̇
̈
̉
̊
̋
̌
̓
̔
̛
̣
̦
̧
̨
̮
͂
͡
α
β
γ
δ
ε
η
θ
ι
λ
μ
ν
ο
π
ρ
ς
σ
τ
φ
ω
а
в
г
з
и
к
м
н
на
о
п
с
т
у
ְ
ִ
ֶ
ַ
ָ
ֹ
ּ
א
ב
ה
ו
י
ל
מ
ע
ר
ש
ת
،
؛
؟
ء
ا
اء
اا
االله
اب
ابا
ابة
ابتدا
ابتداء
ابتداي
ابتغاء
ابتكار
ابتكر
ابدا
ابراهيم
ابريل
ابطال
ابن
ابنا
ابنة
ابنته
ابنتها
ابنك
ابنه
ابنها
ابني
ابه
ابو
ابي
اة
ات
اتباع
اتباعه
اتبع
اتبعت
اتبعه
اتجاه
اتجاهات
اتجه
اتجهت
اتحاد
اتحادات
اتحادية
اتخاذ
اتخذ
اتخذت
اتخذها
اتخذوا
اتساع
اتسمت
اتش
اتصال
اتصالات
اتصل
اتضح
اتفاق
اتفاقا
اتفاقات
اتفاقيات
اتفاقية
اتفق
اتفقت
اتفقوا
اتقوا
اته
اتهام
اتهامات
اتهم
اتهمت
اتي
اث
اثبات
اثر
اثنا
اثناء
اثنان
اثنتان
اثنتي
اثنتين
اثني
اثنين
اج
اجتماع
اجتماعات
اجتماعي
اجتماعيا
اجتماعية
اجتماعيون
اجتمع
اجتمعت
اجتمعوا
اجتهاد
اجتياز
اجعل
اجل
اح
احب
احت
احتاج
احتج
احتجاج
احتجاجا
احتجاجات
احتجاز
احتراق
احترام
احتساب
احتفال
احتفالات
احتفظ
احتفظت
احتكار
احتل
احتلال
احتلالها
احتلت
احتمال
احتمالات
احتمالية
احتواء
احتوت
احتوى
احتياجات
احتياطي
احتياطيات
احد
احداث
احمد
اخ
اخت
اختار
اختارت
اختاره
اختاروا
اختبار
اختبارات
اختراع
اختراعات
اختراق
اخترع
اخترعت
اختزال
اختص
اختصار
اختصارا
اختصاص
اختصاصات
اختطاف
اختفاء
اختفت
اختفى
اختلاط
اختلاف
اختلافا
اختلافات
اختلافهم
اختلال
اختلط
اختلف
اختلفت
اختلفوا
اختيار
اختياره
اختيارها
اختيارهم
اختياري
اختيارية
اختير
اختيرت
اخذ
اخر
اخرج
اخرى
اد
ادخل
ادع
ادعاء
ادعاءات
ادعت
ادعوا
ادعى
اده
ادى
ادي
اذ
اذا
اذهب
ار
ارا
ارات
اربع
ارة
ارتباط
ارتباطا
ارتبط
ارتبطت
ارتحل
ارتد
ارتداء
ارتفاع
ارتفاعات
ارتفاعه
ارتفاعها
ارتفع
ارتفعت
ارتكاب
ارتكب
ارتكبت
ارتكبها
ارجع
ارجو
ارض
ارفع
اريد
اريك
از
ازداد
ازدادت
ازدهار
ازدهرت
ازدياد
اس
اسبانيا
اسة
است
استا
استاد
استبدال
استبداله
استبدالها
استبدل
استبدلت
استبعاد
استثمار
استثمارات
استثناء
استثناءات
استثناي
استجاب
استجابة
استحالة
استحباب
استحداث
استحداثات
استحدثت
استحسان
استحق
استحقاق
استحوذ
استحوذت
استخبارات
استخدام
استخداما
استخدامات
استخدامه
استخدامها
استخدم
استخدمت
استخدمه
استخدمها
استخدموا
استخراج
استخلاص
استخلف
استدامة
استدعاء
استدعى
استدل
استراتيجي
استراتيجيات
استراتيجية
استراحة
استرجاع
استرداد
استرليني
استسلام
استسلم
استسلمت
استشارة
استشاري
استشارية
استشعار
استشهاد
استشهد
استضاف
استضافة
استضافت
استضافتها
استطاع
استطاعت
استطاعوا
استطعت
استطلاع
استطلاعات
استعاد
استعادة
استعادت
استعان
استعداد
استعدادا
استعراض
استعمار
استعمال
استعماله
استعمالها
استعمل
استعملت
استغرق
استغرقت
استغل
استغلال
استفاد
استفتاء
استقال
استقالة
استقالته
استقبال
استقبل
استقبلت
استقر
استقرار
استقرت
استقروا
استقصاي
استقطاب
استقلال
استقلالها
استكشاف
استكشافية
استكمال
استلام
استلم
استماع
استمر
استمرار
استمرارية
استمرت
استناد
استنادا
استنتاج
استند
استندت
استه
استهداف
استهدف
استهدفت
استهلاك
استواي
استوديو
استوديوهات
استولت
استولوا
استولى
استوى
استي
استيراد
استيعاب
استيفاء
استيفاي
استيقظ
استيلاء
اسحاق
اسحق
اسراي
اسطنبول
اسكتلندا
اسكتلندي
اسكتلنديات
اسكتلندية
اسكتلنديون
اسم
اسما
اسماعيل
اسمع
اسمك
اسمه
اسمها
اسمي
اسمية
اسي
اسية
اش
اشت
اشتباك
اشتباكات
اشتد
اشتراط
اشتراك
اشتراكية
اشتراكيون
اشتراه
اشتراها
اشترت
اشترط
اشترك
اشتركت
اشترى
اشتغل
اشتق
اشتقاق
اشتكى
اشتمل
اشتملت
اشتهر
اشتهرت
اص
اصطدام
اصطلاح
اصطناعي
اصطناعية
اصل
اض
اضافة
اضطر
اضطراب
اضطرابات
اضطرت
اضطهاد
اضغط
اط
اطلاق
اطلع
اظ
اع
اعت
اعتاد
اعتبار
اعتبارا
اعتباره
اعتبارها
اعتبر
اعتبرت
اعتبره
اعتبرها
اعتبروا
اعتداء
اعتذر
اعتراض
اعتراف
اعترض
اعترف
اعترفت
اعتزاله
اعتزل
اعتقاد
اعتقاده
اعتقال
اعتقاله
اعتقد
اعتقدت
اعتقدوا
اعتقل
اعتقلت
اعتلال
اعتماد
اعتمادا
اعتماده
اعتمادها
اعتمد
اعتمدت
اعتناق
اعتنق
اعتنقوا
اعداد
اعرف
اعظم
اعلان
اعلم
اعلى
اغ
اغتصاب
اغتيال
اغتياله
اغتيل
اغفر
اف
افت
افتتاح
افتتاحه
افتتاحها
افتتاحية
افتتح
افتتحت
افتراض
افتراضي
افتراضية
افترض
افراد
افريقيا
افعل
اق
اقامة
اقت
اقتباس
اقتباسات
اقتحام
اقتحم
اقتراب
اقتراح
اقتراحات
اقتران
اقترب
اقتربت
اقترح
اقترحت
اقتصاد
اقتصادات
اقتصادي
اقتصاديا
اقتصاديات
اقتصادية
اقتصاديون
اقتصر
اقتضى
اقرا
اقل
اقليم
اك
اكت
اكتب
اكتساب
اكتسب
اكتسبت
اكتشاف
اكتشافات
اكتشافه
اكتشافها
اكتشف
اكتشفت
اكتشفه
اكتشفها
اكتمال
اكتمل
اكتملت
اكتي
اكثر
اكس
ال
الا
الاب
الابتداء
الابتداي
الابتعاد
الابتكار
الابن
الابنة
الات
الاتجار
الاتجاه
الاتجاهات
الاتحاد
الاتحادات
الاتحادي
الاتحادية
الاتصال
الاتصالات
الاتفاق
الاتفاقات
الاتفاقيات
الاتفاقية
الاتهام
الاتهامات
الاثنان
الاثنين
الاجتماع
الاجتماعات
الاجتماعي
الاجتماعية
الاجتهاد
الاحتباس
الاحتجاج
الاحتجاجات
الاحتجاز
الاحترافية
الاحتراق
الاحترام
الاحتفاظ
الاحتفال
الاحتفالات
الاحتكار
الاحتكاك
الاحتلال
الاحتمال
الاحتمالات
الاحتياجات
الاحتياط
الاحتياطي
الاحتيال
الاحداث
الاخبار
الاختبار
الاختبارات
الاختراع
الاختراق
الاختصار
الاختصاص
الاختصاصات
الاختطاف
الاختفاء
الاختلاط
الاختلاف
الاختلافات
الاختيار
الاختيارية
الاخر
الاخرى
الاخير
الاخيرة
الادارية
الادعاء
الادعاءات
الارتباط
الارتفاع
الارتفاعات
الارتقاء
الارض
الازدهار
الاستاذ
الاستبداد
الاستبدال
الاستثمار
الاستثمارات
الاستثمارية
الاستثناء
الاستثناءات
الاستثناي
الاستجابات
الاستجابة
الاستجواب
الاستحقاق
الاستحواذ
الاستخبارات
الاستخدام
الاستخدامات
الاستدامة
الاستدلال
الاستراتيجي
الاستراتيجيات
الاستراتيجية
الاسترجاع
الاسترداد
الاستسقاء
الاستسلام
الاستشارات
الاستشاري
الاستشارية
الاستشعار
الاستشهاد
الاستطلاع
الاستعانة
الاستعداد
الاستعدادات
الاستعمار
الاستعماري
الاستعمارية
الاستعمال
الاستغلال
الاستغناء
الاستفادة
الاستفتاء
الاستفهام
الاستقالة
الاستقبال
الاستقرار
الاستقصاي
الاستقطاب
الاستقلال
الاستقلالية
الاستكشاف
الاستكشافية
الاستماع
الاستمتاع
الاستمرار
الاستنتاج
الاستهلاك
الاستهلاكية
الاستواء
الاستواي
الاستوديو
الاستي
الاستيراد
الاستيطان
الاستيعاب
الاستيلاء
الاسكتلندي
الاسكتلندية
الاسلام
الاسم
الاشتباك
الاشتباكات
الاشتراك
الاشتراكي
الاشتراكية
الاشتراكيين
الاشتغال
الاشخاص
الاشياء
الاصطدام
الاصطلاح
الاصطناعي
الاصطناعية
الاصل
الاضطراب
الاضطرابات
الاضطهاد
الاطلاع
الاعتبار
الاعتبارات
الاعتداء
الاعتداءات
الاعتدال
الاعتراض
الاعتراف
الاعتزال
الاعتصام
الاعتقاد
الاعتقال
الاعتقالات
الاعتلال
الاعتماد
الاعتيادي
الاعضاء
الاعلام
الاعلى
الاغتصاب
الاغتيال
الافتتاح
الافتتاحي
الافتتاحية
الافتراض
الافتراضات
الافتراضي
الافتراضية
الافتقار
الاقتباس
الاقتراب
الاقتراح
الاقتراحات
الاقتراع
الاقتصاد
الاقتصادي
الاقتصادية
الاقتصاديين
الاقتضاء
الاقرار
الاقل
الاكتشاف
الاكتشافات
الاكتفاء
الاكتمال
الاكتي
الالتحاق
الالتزام
الالتزامات
الالتهاب
الالتهابات
الالكترونية
الام
الامام
الامبراطورية
الامة
الامتثال
الامتحان
الامتحانات
الامتداد
الامتصاص
الامتناع
الامتياز
الامتيازات
الامر
الامم
الامور
الامير
الاميركي
الان
الانبعاثات
الانبياء
الانتباه
الانتحار
الانتخاب
الانتخابات
الانتخابي
الانتخابية
الانتداب
الانترنت
الانتشار
الانتصار
الانتصارات
الانتظار
الانتفاضة
الانتفاع
الانتقاء
الانتقادات
الانتقال
الانتقالي
الانتقالية
الانتقام
الانتقاي
الانتماء
الانتهاء
الانتهاكات
الانجليزية
الانحدار
الانحراف
الانحلال
الانحناء
الانحياز
الانخراط
الانخفاض
الاندماج
الانزلاق
الانسان
الانسحاب
الانسداد
الانشقاق
الانضباط
الانضمام
الانطلاق
الانفتاح
الانفجار
الانفصال
الانفصالية
الانقراض
الانقسام
الانقطاع
الانقلاب
الانكسار
الانهيار
الاهتمام
الاول
الاولى
الاي
الايام
الايمان
الب
البا
الباء
الباب
البابا
البابطين
البابلي
البابلية
البابوي
البابوية
الباجي
الباحة
الباحث
الباحثون
الباحثين
البادي
البادية
البارالمبية
البارحة
البارد
الباردة
البارز
البارزة
البارزين
البارقي
البارود
البارودي
الباروك
البارون
الباري
الباسك
الباشا
الباطل
الباطن
الباطنة
الباطني
الباطنية
الباعث
الباقر
الباقون
الباقي
الباقية
الباقين
الباكر
الباكستاني
الباكستانية
البالغ
البالغة
البالغين
الباليه
الباهلي
الباي
البت
البتة
البتراء
البترول
البترولية
البث
البجلي
البحار
البحارة
البحتري
البحث
البحثي
البحثية
البحر
البحري
البحرية
البحرين
البحريني
البحرينية
البحوث
البحيرات
البحيرة
البخار
البخاري
البخارية
البدء
البداي
البدايات
البداية
البدر
البدري
البدع
البدعة
البدل
البدلة
البدن
البدني
البدنية
البدو
البدوي
البدوية
البديع
البديل
البديلة
البذرة
البذور
البر
البراء
البراءة
البراز
البرازيل
البرازيلي
البرازيلية
البراق
البراكين
البرامج
البراهين
البربر
البربري
البربرية
البرتغال
البرتغالي
البرتغالية
البرتغاليون
البرتغاليين
البرتقال
البرتقالي
البرج
البرجوازية
البرد
البرق
البركات
البركان
البركاني
البركانية
البركة
البرلمان
البرلماني
البرلمانية
البرماي
البرمجة
البرمجيات
البرمجية
البرنامج
البرهان
البروتستانت
البروتستانتي
البروتستانتية
البروتوكول
البروتوكولات
البروتين
البروتينات
البروج
البرودة
البروستات
البروستاتا
البروسي
البروسية
البروفيسور
البرونز
البرونزي
البرونزية
البري
البرية
البريد
البريدي
البريدية
البريطاني
البريطانية
البريطانيون
البريطانيين
البزار
البزاز
البساتين
البستان
البسيط
البسيطة
البشارة
البشر
البشرة
البشري
البشرية
البشير
البصر
البصرة
البصري
البصريات
البصرية
البصريين
البصل
البصير
البضاي
البط
البطاريات
البطارية
البطاطا
البطاطس
البطاقات
البطاقة
البطالة
البطريرك
البطريركية
البطريق
البطل
البطلة
البطن
البطني
البطولات
البطولة
البطيء
البطين
البطيي
البعث
البعثات
البعثة
البعد
البعض
البعلبكي
البعوض
البعيد
البعيدة
البعير
البغدادي
البغوي
البغي
البقاء
البقاع
البقايا
البقر
البقرة
البقع
البقعة
البقية
البكاء
البكالوريا
البكالوريوس
البكتريا
البكتيريا
البكتيرية
البكر
البكري
البلاء
البلاد
البلاذري
البلازما
البلاستيك
البلاستيكية
البلاشفة
البلاط
البلاغ
البلاغة
البلجيكي
البلجيكية
البلخي
البلد
البلدات
البلدان
البلدة
البلدي
البلديات
البلدية
البلدين
البلشفية
البلطيق
البلغار
البلغاري
البلغارية
البلقان
البلورات
البلوط
البلوغ
البليدة
البن
البنا
البناء
البنات
البنادق
البناني
البناي
البنت
البنجاب
البند
البندقية
البنزين
البنغال
البنغالية
البنفسجية
البنك
البنكرياس
البنود
البنوك
البنى
البني
البنيان
البنية
البنين
البنيوية
البهاي
البو
البوابات
البوابة
البوب
البوت
البوتات
البوتاسيوم
البوذي
البوذية
البورصة
البوسنة
البوسنية
البول
البولندي
البولندية
البولنديين
البولي
البولية
البوليس
البوليفية
البوم
البوندستاغ
البويضة
البي
البياض
البيان
البيانات
البيانو
البياني
البيانية
البيت
البيرة
البيرو
البيروفي
البيروفية
البيزنطي
البيزنطية
البيزنطيين
البيسبول
البيض
البيضاء
البيضاوي
البيضة
البيطار
البيطري
البيع
البيعة
البيلاروسية
البين
البينة
البيهقي
البيوت
البيوع
البيولوجي
البيولوجيا
البيولوجية
البيي
الة
الت
التا
التاء
التابع
التابعة
التابعين
التابوت
التاج
التاجر
التاجي
التاجية
التاريخ
التاريخي
التاريخية
التاسع
التاسعة
التالي
التالية
التاليين
التام
التامة
التاي
التايلاندي
التايلاندية
التايمز
التبادل
التباعد
التبانة
التباين
التبت
التبديل
التبرع
التبرعات
التبريد
التبشير
التبشيرية
التبعية
التبغ
التبني
التتار
التتويج
التثبيت
التثنية
التجار
التجارب
التجارة
التجاري
التجارية
التجديد
التجديف
التجربة
التجريبي
التجريبية
التجريد
التجزي
التجسس
التجمع
التجمعات
التجميع
التجميل
التجنيد
التجول
التجويف
التحالف
التحتية
التحدث
التحدي
التحديات
التحديث
التحديد
التحذير
التحرر
التحرش
التحرك
التحرير
التحريرية
التحريض
التحريم
التحسين
التحسينات
التحصيل
التحصينات
التحضير
التحضيرية
التحف
التحفة
التحفيز
التحق
التحقت
التحقق
التحقيق
التحقيقات
التحكم
التحكيم
التحلل
التحليق
التحليل
التحليلات
التحليلية
التحمل
التحميل
التحول
التحولات
التحويل
التحويلات
التحية
التحيز
التخثر
التخدير
التخرج
التخريب
التخزين
التخصص
التخصصات
التخصيص
التخطيط
التخفيف
التخلص
التخلف
التخلي
التدابير
التداخل
التداول
التدبير
التدخل
التدخلات
التدخين
التدرج
التدريب
التدريبات
التدريبية
التدريجي
التدريس
التدفق
التدفي
التدقيق
التدمير
التدهور
التدوير
التدوين
التذاكر
التذكاري
التذكارية
التذكير
التراب
الترابط
الترابية
التراث
التراثية
التراجع
التراجم
التربة
التربوي
التربوية
التربية
التربيع
الترتيب
الترتيبات
الترجمات
الترجمة
الترجي
الترجيح
الترحيب
الترحيل
الترخيص
التردد
الترددات
الترشح
الترشيح
الترشيحات
الترفيه
الترفيهية
الترقيم
الترك
التركة
التركمان
التركي
التركيب
التركيبة
التركية
التركيز
الترمذي
الترميز
الترميم
التروية
الترويج
التزام
التزامات
التزاوج
التزلج
التزم
التسارع
التسامح
التساو
التسبب
التستوستيرون
التسجيل
التسجيلات
التسخين
التسرب
التسع
التسعة
التسعين
التسعينات
التسعينيات
التسلح
التسلسل
التسلق
التسلل
التسليح
التسليم
التسمم
التسميات
التسمية
التسوق
التسوية
التسويق
التشابه
التشاور
التشبيه
التشخيص
التشخيصي
التشخيصية
التشريح
التشريحي
التشريحية
التشريع
التشريعات
التشريعي
التشريعية
التشغيل
التشغيلية
التشفير
التشكيك
التشكيل
التشكيلات
التشكيلة
التشكيلي
التشكيلية
التشهد
التشهير
التشوهات
التشيك
التشيكي
التشيكية
التشيلي
التشيلية
التصادم
التصاميم
التصانيف
التصحيح
التصدي
التصدير
التصديق
التصرف
التصرفات
التصريح
التصريحات
التصريف
التصفيات
التصلب
التصميم
التصميمات
التصنيع
التصنيف
التصنيفات
التصور
التصوف
التصويت
التصوير
التصويرية
التضاريس
التضامن
التضحية
التضخم
التطبيق
التطبيقات
التطبيقي
التطبيقية
التطرف
التطعيم
التطهير
التطور
التطورات
التطوري
التطورية
التطوع
التطوعي
التطوير
التعادل
التعاطف
التعافي
التعاقد
التعاليم
التعامل
التعاون
التعاوني
التعاونية
التعايش
التعب
التعبي
التعبير
التعداد
التعددية
التعديل
التعديلات
التعدين
التعذيب
التعرض
التعرف
التعريب
التعريف
التعريفات
التعصب
التعقيد
التعقيم
التعلق
التعلم
التعليق
التعليقات
التعليل
التعليم
التعليمات
التعليمي
التعليمية
التعويض
التعويضات
التعين
التعيين
التغذية
التغطية
التغلب
التغير
التغيرات
التغيير
التغييرات
التفاح
التفاصيل
التفاضل
التفاضلية
التفاعل
التفاعلات
التفاعلية
التفاهم
التفاوت
التفاوض
التفت
التفتيش
التفجير
التفجيرات
التفرقة
التفريغ
التفريق
التفسير
التفسيرات
التفصيل
التفضيل
التفكير
التفوق
التقاء
التقارب
التقارير
التقاط
التقاعد
التقاليد
التقانة
التقت
التقدم
التقدمي
التقدمية
التقدير
التقديرات
التقديرية
التقديم
التقريب
التقرير
التقسيم
التقسيمات
التقليد
التقليدي
التقليدية
التقليل
التقني
التقنيات
التقنية
التقوى
التقويم
التقى
التقييم
التقييمات
التكاثر
التكافو
التكاليف
التكامل
التكبير
التكرار
التكريم
التكفير
التكلفة
التكلم
التكليف
التكنولوجي
التكنولوجيا
التكنولوجية
التكوين
التكيف
التل
التلاعب
التلال
التلاميذ
التلاوة
التلغراف
التلف
التلفاز
التلفزة
التلفزيون
التلفزيوني
التلفزيونية
التلقاي
التلقيح
التلميذ
التلوث
التليفزيون
التماثل
التماثيل
التمارين
التماس
التمام
التمتع
التمثال
التمثيل
التمثيلية
التمدد
التمر
التمرد
التمريض
التمرين
التمسك
التمهيدي
التمهيدية
التمويل
التميز
التميمي
التمييز
التنازل
التناسلي
التناسلية
التنافس
التنافسية
التناقض
التنبو
التنبيه
التنجيم
التنزيل
التنس
التنسج
التنسيق
التنشيط
التنظيف
التنظيم
التنظيمات
التنظيمي
التنظيمية
التنفس
التنفسي
التنفسية
التنفيذ
التنفيذي
التنفيذية
التنفيذيين
التنقل
التنقيب
التنموي
التنموية
التنمية
التنوع
التنوير
التنوين
التنين
التهاب
التهابات
التهديد
التهديدات
التهذيب
التهم
التهمة
التهوية
التوا
التوابل
التواتر
التواجد
التواريخ
التوازن
التواصل
التوافق
التوالي
التواي
التوبة
التوت
التوتر
التوترات
التوثيق
التوجه
التوجيه
التوجيهية
التوحد
التوحيد
التوراة
التوزيع
التوسع
التوسعة
التوصل
التوصيات
التوصيل
التوضيح
التوضيحية
التوظيف
التوعية
التوفيق
التوقعات
التوقف
التوقيت
التوقيع
التوليد
التونسي
التونسية
التونسيين
التى
التي
التيار
التيارات
التيتانيوم
التيمم
التيمي
التين
الث
الثا
الثابت
الثابتة
الثالث
الثالثة
الثالوث
الثامن
الثامنة
الثانوي
الثانوية
الثانى
الثاني
الثانية
الثاي
الثبات
الثدي
الثدييات
الثروات
الثروة
الثرى
الثعابين
الثعبان
الثعلب
الثغور
الثقات
الثقافات
الثقافة
الثقافي
الثقافية
الثقب
الثقة
الثقفي
الثقل
الثقوب
الثقيل
الثقيلة
الثلاث
الثلاثاء
الثلاثة
الثلاثي
الثلاثية
الثلاثين
الثلاثينات
الثلاثينيات
الثلث
الثلثين
الثلج
الثلجية
الثلوج
الثمار
الثماني
الثمانية
الثمانين
الثمانينات
الثمانينيات
الثمر
الثمرة
الثمن
الثمينة
الثناء
الثناي
الثواب
الثوار
الثوب
الثور
الثورات
الثورة
الثوري
الثورية
الثوم
الثياب
الثيران
الج
الجابر
الجاحظ
الجادة
الجاذبية
الجار
الجارود
الجاري
الجارية
الجاز
الجاف
الجافة
الجالية
الجامع
الجامعات
الجامعة
الجامعي
الجامعية
الجامعيين
الجانب
الجانبي
الجانبية
الجانبين
الجاني
الجاهزة
الجاهل
الجاهلي
الجاهلية
الجاي
الجبار
الجبال
الجبر
الجبرية
الجبل
الجبلي
الجبلية
الجبن
الجبهة
الجبهي
الجثة
الجثث
الجحيم
الجد
الجدار
الجدارية
الجدال
الجداول
الجدة
الجدد
الجدران
الجدري
الجدل
الجدول
الجدي
الجديد
الجديدة
الجدير
الجذب
الجذر
الجذع
الجذعية
الجذور
الجر
الجراثيم
الجراح
الجراحة
الجراحي
الجراحية
الجراد
الجراند
الجرانيت
الجراي
الجرجاني
الجرح
الجرحى
الجرس
الجرعات
الجرعة
الجرف
الجرم
الجرمانية
الجروح
الجري
الجريان
الجريدة
الجريري
الجريمة
الجزء
الجزاء
الجزار
الجزاي
الجزر
الجزري
الجزي
الجزيء
الجزية
الجزيرة
الجزيي
الجسد
الجسدي
الجسدية
الجسر
الجسم
الجسور
الجسيم
الجسيمات
الجعد
الجعفي
الجغرافي
الجغرافيا
الجغرافية
الجفاف
الجلاء
الجلال
الجلالة
الجلد
الجلدي
الجلدية
الجلسات
الجلسة
الجلود
الجلوس
الجلوكوز
الجليد
الجليدي
الجليدية
الجليل
الجمارك
الجماع
الجماعات
الجماعة
الجماعي
الجماعية
الجمال
الجمالية
الجماهير
الجماهيرية
الجمباز
الجمجمة
الجمحي
الجمرة
الجمركية
الجمع
الجمعة
الجمعيات
الجمعية
الجمل
الجملة
الجملي
الجمهور
الجمهوري
الجمهوريات
الجمهورية
الجمهوريون
الجمهوريين
الجميع
الجميل
الجميلة
الجن
الجنابة
الجناة
الجناح
الجناحين
الجنازة
الجنان
الجناي
الجناية
الجنب
الجنة
الجند
الجندرية
الجندي
الجنرال
الجنرالات
الجنس
الجنسانية
الجنسي
الجنسيات
الجنسية
الجنسين
الجنوب
الجنوبي
الجنوبية
الجنوبيين
الجنود
الجنون
الجنيد
الجنين
الجنيني
الجنينية
الجهات
الجهاد
الجهاز
الجهال
الجهة
الجهد
الجهر
الجهل
الجهم
الجهمية
الجهني
الجهود
الجهوية
الجو
الجواب
الجواد
الجوار
الجوارح
الجواز
الجوال
الجوامع
الجوانب
الجواهر
الجواي
الجودة
الجوراسي
الجورجي
الجورجية
الجوز
الجوزي
الجوع
الجوف
الجوفية
الجولات
الجولان
الجولة
الجوهر
الجوهرة
الجوهري
الجوهرية
الجوي
الجوية
الجيب
الجيتار
الجيد
الجيدة
الجيران
الجيري
الجيزة
الجيش
الجيعان
الجيل
الجيم
الجين
الجينات
الجينوم
الجيني
الجينية
الجيوب
الجيوش
الجيولوجي
الجيولوجيا
الجيولوجية
الح
الحاء
الحاج
الحاجات
الحاجب
الحاجة
الحاجز
الحاخام
الحاد
الحادة
الحادث
الحادثة
الحادي
الحادية
الحار
الحارة
الحارث
الحارثي
الحارس
الحاسب
الحاسمة
الحاسوب
الحاسوبية
الحاصل
الحاصلة
الحاصلون
الحاصلين
الحاضر
الحاضرة
الحاضرين
الحافة
الحافظ
الحافلات
الحافلة
الحاكم
الحاكمة
الحال
الحالات
الحالة
الحالتين
الحالي
الحالية
الحاليين
الحامل
الحاملة
الحامية
الحاويات
الحاوية
الحاي
الحب
الحباب
الحبال
الحبر
الحبس
الحبشة
الحبشي
الحبكة
الحبل
الحبوب
الحبيب
الحبيبات
الحث
الحج
الحجاب
الحجاج
الحجارة
الحجاز
الحجة
الحجج
الحجر
الحجرات
الحجرة
الحجري
الحجرية
الحجز
الحجم
الحد
الحداثة
الحداد
الحداي
الحدث
الحدوث
الحدود
الحدودي
الحدودية
الحديبية
الحديث
الحديثة
الحديثين
الحديد
الحديدة
الحديدي
الحديدية
الحديقة
الحذاء
الحذر
الحذف
الحر
الحرارة
الحراري
الحرارية
الحراس
الحراسة
الحراك
الحرام
الحراني
الحراي
الحرب
الحربي
الحربية
الحربين
الحرة
الحرث
الحرج
الحرجة
الحرس
الحرص
الحرف
الحرفي
الحرفية
الحركات
الحركة
الحركي
الحركية
الحرم
الحرمان
الحرمين
الحروب
الحروف
الحريات
الحرية
الحرير
الحريري
الحريق
الحزام
الحزب
الحزبية
الحزبين
الحزم
الحزمة
الحزن
الحزين
الحس
الحساب
الحسابات
الحسابية
الحساسة
الحساسية
الحسد
الحسكة
الحسن
الحسنات
الحسنة
الحسنى
الحسني
الحسي
الحسية
الحسيمة
الحسين
الحسيني
الحسينية
الحشد
الحشر
الحشرات
الحشرية
الحشود
الحصاد
الحصار
الحصان
الحصبة
الحصة
الحصر
الحصري
الحصرية
الحصن
الحصول
الحصون
الحصى
الحصين
الحضارات
الحضارة
الحضاري
الحضارية
الحضانة
الحضر
الحضرمي
الحضري
الحضرية
الحضور
الحطام
الحطب
الحظ
الحظر
الحفاظ
الحفر
الحفرة
الحفريات
الحفظ
الحفل
الحفلات
الحفلة
الحق
الحقاي
الحقبة
الحقل
الحقن
الحقوق
الحقول
الحقيبة
الحقيقة
الحقيقي
الحقيقية
الحكام
الحكايات
الحكاية
الحكم
الحكماء
الحكمة
الحكومات
الحكومة
الحكومي
الحكومية
الحكوميين
الحكيم
الحل
الحلال
الحلبة
الحلبي
الحلة
الحلف
الحلفاء
الحلق
الحلقات
الحلقة
الحلقي
الحلم
الحلو
الحلواني
الحلوة
الحلول
الحلوى
الحلويات
الحلي
الحليب
الحليفة
الحليم
الحمار
الحمام
الحمامات
الحماية
الحمد
الحمداني
الحمر
الحمراء
الحمرة
الحمصي
الحمض
الحمل
الحملات
الحملة
الحمم
الحموضة
الحمولة
الحموي
الحمى
الحمية
الحميد
الحميدة
الحميدي
الحميري
الحنابلة
الحنبلي
الحنجرة
الحنطة
الحنفي
الحنفية
الحواجز
الحوادث
الحوار
الحواس
الحواسيب
الحواشي
الحواف
الحوامل
الحوت
الحوثي
الحوثيون
الحوثيين
الحور
الحوز
الحوسبة
الحوض
الحول
الحي
الحياء
الحياة
الحياد
الحية
الحيتان
الحيرة
الحيز
الحيض
الحيل
الحيلة
الحين
الحيوان
الحيوانات
الحيواني
الحيوانية
الحيوي
الحيوية
الخ
الخاتم
الخادم
الخارج
الخارجة
الخارجي
الخارجية
الخارق
الخارقة
الخاص
الخاصة
الخاصية
الخاضعة
الخاطي
الخالد
الخالدة
الخالدي
الخالص
الخالصة
الخالق
الخالي
الخالية
الخام
الخامس
الخامسة
الخان
الخاي
الخبر
الخبراء
الخبرات
الخبرة
الخبز
الخبيث
الخبيثة
الخبير
الختان
الختم
الخداع
الخدري
الخدم
الخدمات
الخدمة
الخديوي
الخراب
الخراج
الخراساني
الخرافات
الخراي
الخرج
الخرسانة
الخرطوم
الخروج
الخريجين
الخريطة
الخريف
الخزاعي
الخزان
الخزانة
الخزر
الخزرج
الخزف
الخسارة
الخساي
الخشب
الخشبي
الخشبية
الخصاي
الخصبة
الخصر
الخصم
الخصوبة
الخصوص
الخصوصية
الخصوم
الخصومة
الخصيب
الخصية
الخضار
الخضر
الخضراء
الخضرة
الخضروات
الخضوع
الخط
الخطا
الخطاب
الخطابة
الخطابي
الخطايا
الخطب
الخطبة
الخطة
الخطر
الخطرة
الخطط
الخطوات
الخطوة
الخطورة
الخطوط
الخطي
الخطيب
الخطية
الخطير
الخطيرة
الخطيي
الخف
الخفافيش
الخفي
الخفية
الخفيف
الخفيفة
الخفين
الخل
الخلاء
الخلابة
الخلاص
الخلاصة
الخلاف
الخلافات
الخلافة
الخلال
الخلاي
الخلايا
الخلد
الخلط
الخلع
الخلف
الخلفاء
الخلفي
الخلفية
الخلق
الخلقي
الخلقية
الخلل
الخلود
الخلوي
الخلوية
الخلية
الخليج
الخليجي
الخليجية
الخليط
الخليفة
الخليل
الخليلي
الخمر
الخمس
الخمسة
الخمسين
الخمسينات
الخمسينيات
الخمور
الخميس
الخميني
الخنادق
الخنازير
الخندق
الخنزير
الخوارج
الخوارزمي
الخوارزميات
الخوارزمية
الخواص
الخواطر
الخوري
الخوض
الخوف
الخولاني
الخيار
الخيارات
الخياط
الخياطة
الخيال
الخيالة
الخيالي
الخيالية
الخيام
الخيانة
الخير
الخيرات
الخيري
الخيرية
الخيزران
الخيط
الخيل
الخيمة
الخيوط
الخيول
الد
الداء
الدابة
الداخل
الداخلة
الداخلي
الداخلية
الدار
الدارقطني
الدارمي
الداعمة
الداعي
الداعية
الدافع
الدافعة
الدافي
الداكن
الدال
الدالة
الدانوب
الداني
الداي
الدب
الدبابات
الدبابة
الدباغ
الدببة
الدبلجة
الدبلوم
الدبلوماسي
الدبلوماسية
الدجاج
الدجاجة
الدجال
الدخان
الدخل
الدخول
الدر
الدراجات
الدراجة
الدراسات
الدراسة
الدراسي
الدراسية
الدرافت
الدراما
الدرامي
الدرامية
الدراهم
الدرب
الدرج
الدرجات
الدرجة
الدرداء
الدردشة
الدرر
الدرزية
الدرس
الدرع
الدرعية
الدرقية
الدرك
الدرهم
الدروز
الدروس
الدروع
الدستور
الدستوري
الدستورية
الدعاء
الدعاة
الدعارة
الدعاوى
الدعاي
الدعاية
الدعم
الدعوات
الدعوة
الدعوى
الدفاع
الدفاعات
الدفاعي
الدفاعية
الدفع
الدفعة
الدفن
الدفيي
الدقاي
الدقة
الدقهلية
الدقيق
الدقيقة
الدكتور
الدكتوراة
الدكتوراه
الدكتورة
الدلالة
الدلاي
الدلتا
الدليل
الدم
الدماء
الدمار
الدماغ
الدماغي
الدماغية
الدمام
الدمج
الدمشقي
الدمع
الدموع
الدموي
الدموية
الدمى
الدنا
الدنمارك
الدنماركي
الدنماركية
الدنيا
الدنيوية
الدهر
الدهني
الدهنية
الدهون
الدو
الدواء
الدواب
الدواجن
الدوار
الدوارة
الدوافع
الدوال
الدوام
الدواوين
الدواي
الدوبامين
الدوحة
الدور
الدورات
الدوران
الدورة
الدوري
الدوريات
الدورية
الدوسري
الدوق
الدول
الدولار
الدولارات
الدولة
الدولتين
الدولي
الدولية
الدوليين
الدومينيكان
الدون
الدي
الديار
الديانات
الديانة
الدية
الديدان
الدير
الديزل
الديك
الديلمي
الديمقراطي
الديمقراطية
الديمقراطيون
الديمقراطيين
الديموغرافيا
الديموقراطي
الديموقراطية
الدين
الدينار
الديناصورات
الديناميكا
الديناميكي
الديناميكية
الديني
الدينية
الديوان
الديون
الذ
الذات
الذاتي
الذاتية
الذاكرة
الذاي
الذباب
الذبابة
الذبح
الذخاي
الذخيرة
الذرات
الذراع
الذرة
الذروة
الذري
الذرية
الذريعة
الذعر
الذكاء
الذكر
الذكرى
الذكري
الذكريات
الذكور
الذكي
الذكية
الذل
الذم
الذمة
الذنب
الذنوب
الذهاب
الذهان
الذهب
الذهبي
الذهبية
الذهلي
الذهن
الذهني
الذهنية
الذوق
الذى
الذي
الذيل
الذين
الر
الرا
الراء
الراب
الرابط
الرابطة
الرابع
الرابعة
الراحة
الراحل
الرادار
الراديكالي
الراديكالية
الراديو
الراديوية
الرازق
الرازي
الراشد
الراشدين
الراعي
الراغبين
الرافدين
الرافضة
الرافعي
الراقصة
الراقية
الراكب
الرامي
الرامية
الراهب
الراهن
الراوي
الراي
الراية
الرايخ
الراين
الرب
الربا
الرباط
الرباعي
الرباعية
الربح
الربحية
الربط
الربع
الربو
الربوبية
الربيع
الربيعي
الرتب
الرتبة
الرجاء
الرجال
الرجبي
الرجعة
الرجل
الرجلان
الرجلين
الرجم
الرجوع
الرحال
الرحالة
الرحل
الرحلات
الرحلة
الرحم
الرحمان
الرحمة
الرحمن
الرحيل
الرحيلي
الرحيم
الرخاء
الرخام
الرخصة
الرد
الردة
الرزاق
الرزق
الرس
الرسالة
الرسام
الرسامين
الرساي
الرسل
الرسم
الرسمي
الرسمية
الرسول
الرسولي
الرسولية
الرسوم
الرسومات
الرشد
الرشيد
الرصاص
الرصافة
الرصد
الرصيف
الرضا
الرضاع
الرضاعة
الرضع
الرضي
الرضيع
الرطب
الرطبة
الرطوبة
الرعاة
الرعايا
الرعاية
الرعب
الرعد
الرعي
الرعية
الرغبة
الرغبي
الرغم
الرفاع
الرفاعي
الرفاهية
الرفض
الرفع
الرفيع
الرفيعة
الرق
الرقابة
الرقاشي
الرقبة
الرقة
الرقص
الرقعة
الرقم
الرقمي
الرقمية
الرقي
الرقيب
الرقيق
الرقيقة
الركاب
الركب
الركبة
الركعة
الركعتين
الركن
الركود
الركوع
الرماح
الرماد
الرمادي
الرمادية
الرمال
الرمان
الرماية
الرمة
الرمح
الرمز
الرمزي
الرمزية
الرمل
الرملة
الرملي
الرملية
الرموز
الرمي
الرنا
الرنين
الرها
الرهاي
الرهبان
الرهبانية
الرهن
الرو
الروابط
الرواة
الرواتب
الرواد
الرواسب
الرواق
الرواندية
الرواي
الروايات
الرواية
الروايتين
الروبوت
الروبوتات
الروح
الروحانية
الروحي
الروحية
الروس
الروسي
الروسية
الروض
الروضة
الروك
الروم
الرومان
الرومانسي
الرومانسية
الروماني
الرومانية
الرومي
الري
الرياح
الرياض
الرياضات
الرياضة
الرياضي
الرياضيات
الرياضية
الرياضيين
الريان
الريبوزي
الريبي
الريح
الريحاني
الريش
الريشة
الريف
الريفي
الريفية
الز
الزاني
الزاهد
الزاوي
الزاوية
الزاي
الزباي
الزبدة
الزبيدي
الزبير
الزبيري
الزجاج
الزجاجي
الزجاجية
الزحف
الزخارف
الزخرفة
الزخم
الزراعة
الزراعي
الزراعية
الزرع
الزرقاء
الزركلي
الزرنيخ
الزعانف
الزعفران
الزعماء
الزعيم
الزفاف
الزقازيق
الزكاة
الزلازل
الزلزال
الزمالك
الزمان
الزمخشري
الزمر
الزملاء
الزمن
الزمني
الزمنية
الزميل
الزنا
الزناد
الزنج
الزنك
الزهد
الزهر
الزهراء
الزهراني
الزهرة
الزهري
الزهور
الزواج
الزواحف
الزوار
الزوال
الزواي
الزوايا
الزوج
الزوجات
الزوجان
الزوجة
الزوجي
الزوجية
الزوجين
الزور
الزي
الزيات
الزيادة
الزيارات
الزيارة
الزيت
الزيتون
الزيتونة
الزيدية
الزين
الزينة
الزيوت
الس
السابع
السابعة
السابق
السابقة
السابقون
السابقين
الساجي
الساحة
الساحر
الساحرة
الساحل
الساحلي
الساحلية
الساخن
الساخنة
السادات
السادة
السادس
السادسة
السارق
الساسانية
الساعات
الساعة
الساعدي
الساق
الساقين
الساكن
الساكنة
السالب
السالبة
السالفة
السالم
السالمية
السام
السامة
السامع
السامي
السامية
الساي
السباحة
السباع
السباعي
السباق
السباقات
السبب
السببية
السبت
السبع
السبعة
السبعين
السبعينات
السبعينيات
السبكي
السبل
السبي
السبيعي
السبيل
الست
الستار
الستة
الستين
الستينات
الستينيات
السجاد
السجاي
السجدة
السجستاني
السجل
السجلات
السجن
السجناء
السجود
السجون
السحاب
السحابة
السحايا
السحب
السحر
السحرة
السحري
السحرية
السخاوي
السختياني
السخرية
السد
السدس
السدود
السدي
السر
السراج
السراي
السرايا
السرب
السرد
السرطان
السرطانات
السرطانية
السرعات
السرعة
السرقة
السرور
السري
السريان
السرياني
السريانية
السرية
السرير
السريري
السريرية
السريع
السريعة
السريلانكية
السطح
السطحي
السطحية
السطر
السطوح
السطور
السعادة
السعال
السعة
السعدي
السعر
السعرات
السعود
السعودي
السعودية
السعوديين
السعي
السعيد
السعيدة
السفاح
السفارات
السفارة
السفر
السفراء
السفلى
السفلي
السفلية
السفن
السفير
السفينة
السقف
السقوط
السكان
السكاني
السكانية
السكة
السكتة
السكر
السكرتير
السكري
السكريات
السكك
السكن
السكني
السكنية
السكوت
السكون
السكيت
السكينة
السل
السلاجقة
السلاح
السلاحف
السلاسل
السلاطين
السلافية
السلالات
السلالة
السلام
السلامة
السلبي
السلبية
السلة
السلسلة
السلطات
السلطان
السلطانية
السلطة
السلطنة
السلع
السلعة
السلف
السلفادور
السلفي
السلفية
السلك
السلكية
السلم
السلمون
السلمي
السلمية
السلوفاكي
السلوفاكية
السلوفيني
السلوفينية
السلوك
السلوكي
السلوكيات
السلوكية
السليم
السليمانية
السليمة
السم
السماء
السمات
السماح
السماع
السمان
السماوات
السماوي
السماوية
السمة
السمرقندي
السمع
السمعاني
السمعة
السمعي
السمعية
السمك
السمكة
السمن
السمنة
السمو
السموات
السموم
السمية
السميع
السن
السنة
السنتين
السند
السندات
السنسكريتية
السنغافورية
السنغال
السنغالية
السنن
السنوات
السنوسي
السنوي
السنوية
السني
السنية
السنين
السهام
السهل
السهم
السهمي
السهو
السهول
السو
السوء
السواء
السواحل
السواد
السواي
السوبر
السود
السوداء
السودان
السوداني
السودانية
السور
السوربون
السورة
السوري
السورية
السوريين
السوفياتي
السوفياتية
السوفيت
السوفيتي
السوفيتية
السوفييت
السوفييتي
السوفييتية
السوق
السوقية
السومرية
السويد
السويداء
السويدي
السويدية
السويس
السويسري
السويسرية
السي
السياح
السياحة
السياحي
السياحية
السيادة
السيارات
السيارة
السياسات
السياسة
السياسي
السياسية
السياسيون
السياسيين
السياق
السيخ
السيد
السيدات
السيدة
السير
السيرة
السيروتونين
السيسي
السيطرة
السيف
السيل
السيليكون
السين
السيناتور
السيناريو
السينما
السينماي
السينية
السيوطي
السيوف
السيي
الش
الشا
الشاب
الشابة
الشاة
الشاحنات
الشاذلي
الشارة
الشارع
الشارقة
الشاسعة
الشاشة
الشاطي
الشاعر
الشاعرة
الشافعي
الشافعية
الشاقة
الشام
الشامل
الشاملة
الشامي
الشامية
الشاه
الشاهد
الشاي
الشباب
الشبابية
الشباك
الشبان
الشبح
الشبكات
الشبكة
الشبكية
الشبه
الشبهات
الشبهة
الشبيهة
الشتاء
الشتات
الشتوي
الشتوية
الشجاع
الشجاعة
الشجر
الشجرة
الشحن
الشحنات
الشحنة
الشخص
الشخصي
الشخصيات
الشخصية
الشد
الشدة
الشديد
الشديدة
الشذوذ
الشر
الشراء
الشراب
الشراعية
الشراكات
الشراكة
الشراي
الشرايين
الشرب
الشرح
الشرط
الشرطة
الشرطي
الشرع
الشرعي
الشرعية
الشرعيين
الشرف
الشرق
الشرقي
الشرقية
الشرقيين
الشرك
الشركاء
الشركات
الشركة
الشروط
الشروع
الشروق
الشريان
الشرير
الشريرة
الشريط
الشريعة
الشريف
الشريفة
الشريفين
الشريك
الشطر
الشطرنج
الشعاب
الشعار
الشعاع
الشعاعي
الشعاعية
الشعاي
الشعب
الشعبة
الشعبي
الشعبية
الشعر
الشعراء
الشعري
الشعرية
الشعلة
الشعوب
الشعور
الشعير
الشعيرات
الشغب
الشغل
الشفاء
الشفاعة
الشفافية
الشفاه
الشفة
الشفرة
الشفعة
الشفق
الشفوية
الشق
الشقاء
الشقة
الشقوق
الشقيق
الشقيقة
الشك
الشكاوى
الشكر
الشكل
الشكوك
الشكوى
الشلل
الشم
الشمال
الشمالي
الشمالية
الشمري
الشمس
الشمسي
الشمسية
الشمع
الشناوي
الشهادات
الشهادة
الشهداء
الشهر
الشهرة
الشهري
الشهرية
الشهوات
الشهوة
الشهود
الشهور
الشهية
الشهيد
الشهير
الشهيرة
الشو
الشوارع
الشواطي
الشواهد
الشواي
الشورى
الشوط
الشوق
الشوك
الشوكة
الشوكولاتة
الشوكي
الشي
الشيء
الشياطين
الشيباني
الشيخ
الشيخة
الشيخوخة
الشيرازي
الشيش
الشيشان
الشيطان
الشيعة
الشيعي
الشيعية
الشين
الشيوخ
الشيوعي
الشيوعية
الشيوعيين
الص
الصابون
الصابي
الصاحب
الصادر
الصادرات
الصادرة
الصادق
الصادقة
الصارم
الصارمة
الصاروخ
الصاروخية
الصاعد
الصاعدة
الصاعقة
الصافي
الصافية
الصالات
الصالة
الصالح
الصالحات
الصالحة
الصالحين
الصامت
الصامتة
الصانع
الصاي
الصب
الصبا
الصباح
الصباغ
الصبح
الصبر
الصبغة
الصبغي
الصبي
الصبيان
الصحابة
الصحابي
الصحاح
الصحافة
الصحة
الصحراء
الصحراوي
الصحراوية
الصحف
الصحفي
الصحفية
الصحفيين
الصحن
الصحي
الصحية
الصحيح
الصحيحة
الصحيحين
الصحيفة
الصخر
الصخرة
الصخري
الصخرية
الصخور
الصدارة
الصداع
الصداق
الصداقة
الصدد
الصدر
الصدري
الصدرية
الصدغي
الصدفة
الصدق
الصدقات
الصدقة
الصدمات
الصدمة
الصدور
الصدى
الصديق
الصديقة
الصراط
الصراع
الصراعات
الصرب
الصربي
الصربية
الصرع
الصرف
الصريح
الصريحة
الصعب
الصعبة
الصعوبات
الصعوبة
الصعود
الصعيد
الصغار
الصغر
الصغرى
الصغير
الصغيرة
الصف
الصفا
الصفاء
الصفات
الصفار
الصفاي
الصفة
الصفحات
الصفحة
الصفر
الصفراء
الصفراوية
الصفقة
الصفوف
الصفوي
الصفوية
الصفيحة
الصقر
الصقلي
الصقور
الصلاة
الصلاح
الصلاحيات
الصلاحية
الصلب
الصلبة
الصلة
الصلت
الصلح
الصلوات
الصليب
الصليبي
الصليبية
الصليبيون
الصليبيين
الصم
الصماء
الصمام
الصمامات
الصمت
الصمد
الصمود
الصناديق
الصناعات
الصناعة
الصناعي
الصناعية
الصندوق
الصنع
الصنعاني
الصنعة
الصنف
الصنوبر
الصهيوني
الصهيونية
الصواب
الصواريخ
الصوت
الصوتي
الصوتية
الصوديوم
الصور
الصورة
الصوري
الصوف
الصوفي
الصوفية
الصوم
الصومال
الصومالي
الصومالية
الصويا
الصويرة
الصياد
الصيادين
الصياغة
الصيام
الصيانة
الصيد
الصيدلانية
الصيدلة
الصيرفي
الصيغ
الصيغة
الصيف
الصيفي
الصيفية
الصين
الصيني
الصينية
الصينيون
الصينيين
الض
الضا
الضابط
الضارة
الضاي
الضباب
الضباط
الضبط
الضبي
الضحاك
الضحايا
الضحك
الضحلة
الضحى
الضحية
الضخم
الضخمة
الضر
الضراي
الضرب
الضربات
الضربة
الضرر
الضرورة
الضروري
الضرورية
الضريبة
الضريبي
الضريبية
الضريح
الضرير
الضعف
الضعفاء
الضعيف
الضعيفة
الضغط
الضغوط
الضفادع
الضفة
الضلال
الضلالة
الضلع
الضم
الضمان
الضمانات
الضمير
الضوء
الضوابط
الضواحي
الضوضاء
الضوي
الضي
الضياء
الضياع
الضيافة
الضيف
الضيق
الضيقة
الضيوف
الط
الطابع
الطابق
الطاري
الطاعة
الطاعون
الطاقة
الطاقم
الطالب
الطاهر
الطاولة
الطاي
الطب
الطباشيري
الطباع
الطباعة
الطبخ
الطبراني
الطبري
الطبع
الطبعة
الطبق
الطبقات
الطبقة
الطبقي
الطبوغرافية
الطبول
الطبي
الطبيب
الطبية
الطبيعة
الطبيعي
الطبيعية
الطحال
الطحالب
الطحاوي
الطرابلسي
الطراد
الطراز
الطراي
الطرح
الطرد
الطرف
الطرفان
الطرفية
الطرفين
الطرق
الطرقات
الطريق
الطريقة
الطعام
الطعم
الطعن
الطفرات
الطفرة
الطفل
الطفلة
الطفولة
الطفيل
الطفيليات
الطقس
الطقوس
الطلاء
الطلاب
الطلابية
الطلاق
الطلاي
الطلب
الطلبات
الطلبة
الطلق
الطليعة
الطماطم
الطمث
الطنطاوي
الطهارة
الطهر
الطهراني
الطهي
الطوابع
الطوابق
الطواري
الطواف
الطوال
الطواي
الطوب
الطور
الطوسي
الطوفان
الطول
الطويل
الطويلة
الطي
الطيار
الطيارين
الطيالسي
الطيب
الطيبة
الطير
الطيران
الطيف
الطيفي
الطين
الطينية
الطيور
الظ
الظالم
الظالمين
الظاهر
الظاهرة
الظاهري
الظاهرية
الظرف
الظروف
الظفر
الظل
الظلال
الظلام
الظلم
الظلمات
الظلمة
الظن
الظنون
الظهار
الظهر
الظهور
الظهير
الظهيرة
الظواهر
الع
العابد
العابدين
العابرة
العاج
العاجلة
العادات
العادة
العادل
العادلة
العادي
العادية
العاديين
العار
العارضة
العارف
العارفين
العارية
العاشر
العاشرة
العاشق
العاص
العاصفة
العاصمة
العاصي
العاطفة
العاطفي
العاطفية
العافية
العاقبة
العاقل
العال
العالم
العالمي
العالمية
العالمين
العالي
العالية
العام
العامة
العامري
العامل
العاملات
العاملة
العاملون
العاملي
العاملين
العامي
العامية
العامين
العاي
العب
العباد
العبادات
العبادة
العبادي
العبارات
العبارة
العباس
العباسي
العباسية
العباسيين
العبث
العبد
العبدي
العبري
العبرية
العبسي
العبودية
العبور
العبيد
العتاد
العتبة
العتق
العتيق
العتيقة
العثماني
العثمانية
العثمانيون
العثمانيين
العثور
العجاج
العجاي
العجب
العجز
العجل
العجلات
العجلة
العجلي
العجم
العجمي
العجوز
العجيب
العجيبة
العد
العداء
العدالة
العداوة
العداي
العدة
العدد
العددية
العدسات
العدسة
العدل
العدم
العدو
العدوان
العدوانية
العدوى
العدوي
العديد
العديدة
العدين
العذاب
العذب
العذبة
العذر
العذراء
العراق
العراقي
العراقية
العراقيين
العراي
العرب
العربات
العربة
العربي
العربية
العرش
العرض
العرضي
العرضية
العرف
العرفية
العرق
العرقي
العرقية
العروبة
العروس
العروش
العروض
العروق
العريان
العريس
العريش
العريض
العريضة
العريقة
العز
العزاء
العزة
العزف
العزل
العزلة
العزم
العزى
العزيز
العساكر
العسقلاني
العسكر
العسكري
العسكرية
العسكريين
العسل
العش
العشاء
العشاي
العشب
العشبية
العشر
العشرات
العشرة
العشرون
العشرين
العشرينات
العشرينيات
العشق
العشواي
العشيرة
العصا
العصابات
العصابة
العصب
العصبة
العصبونات
العصبي
العصبية
العصر
العصرية
العصمة
العصور
العصيان
العضد
العضل
العضلات
العضلة
العضلي
العضلية
العضو
العضوي
العضوية
العطاء
العطار
العطش
العطف
العطلة
العظام
العظم
العظماء
العظمة
العظمى
العظمي
العظمية
العظيم
العظيمة
العفو
العقاب
العقاد
العقار
العقارات
العقاري
العقارية
العقاقير
العقاي
العقبات
العقبة
العقد
العقدة
العقدي
العقدية
العقرب
العقل
العقلاء
العقلانية
العقلي
العقلية
العقوبات
العقوبة
العقود
العقول
العقيد
العقيدة
العقيلي
العكس
العكسي
العكسية
العلا
العلاء
العلاج
العلاجات
العلاجي
العلاجية
العلاقات
العلاقة
العلامات
العلامة
العلاي
العلة
العلل
العلم
العلماء
العلمانية
العلمي
العلمية
العلني
العلو
العلوم
العلوي
العلوية
العلويين
العلي
العليا
العلية
العليم
العم
العماد
العمارة
العمال
العمالة
العمالقة
العمالية
العمامة
العماني
العمانية
العمد
العمدة
العمر
العمران
العمراني
العمرانية
العمرة
العمري
العمرية
العمق
العمل
العملاء
العملات
العملاق
العملاقة
العملة
العملي
العمليات
العملية
العمود
العمودي
العمودية
العموم
العمومية
العمى
العميد
العميق
العميقة
العميل
العناصر
العناوين
العناية
العنب
العنبر
العنبري
العنزي
العنصر
العنصري
العنصرية
العنف
العنق
العنقودية
العنكبوت
العنكبوتية
العنوان
العنيف
العنيفة
العهد
العهود
العواصف
العواصم
العواطف
العواقب
العوالم
العوام
العوامل
العواي
العود
العودة
العوض
العولمة
العون
العيادات
العيب
العيد
العيش
العين
العينات
العينة
العيني
العينين
العيوب
العيون
الغ
الغابات
الغابة
الغابون
الغار
الغارات
الغارة
الغارديان
الغاز
الغازات
الغازي
الغازية
الغاصب
الغال
الغالب
الغالبية
الغالية
الغامدي
الغامض
الغامضة
الغاي
الغاية
الغبار
الغجر
الغد
الغداء
الغداة
الغدة
الغدد
الغذاء
الغذاي
الغراء
الغراب
الغرام
الغراي
الغرب
الغرباء
الغربي
الغربية
الغربيين
الغرض
الغرف
الغرفة
الغرق
الغرماء
الغروب
الغرور
الغريب
الغريبة
الغزاة
الغزال
الغزالي
الغزل
الغزلان
الغزو
الغزوات
الغزيرة
الغساني
الغسل
الغسيل
الغش
الغشاء
الغشاي
الغضب
الغضروف
الغطاء
الغطس
الغفار
الغفاري
الغفران
الغفور
الغلاف
الغلام
الغلط
الغموض
الغناء
الغناي
الغنم
الغنى
الغني
الغنية
الغنيمة
الغواصات
الغواصة
الغوص
الغول
الغولف
الغيب
الغيبة
الغيث
الغير
الغيرة
الـ
الـم
الف
الفا
الفاء
الفاتح
الفاتحة
الفاتيكان
الفاحشة
الفاخرة
الفارابي
الفارس
الفارسي
الفارسية
الفارغة
الفارق
الفاروق
الفاسد
الفاسدة
الفاسق
الفاسي
الفاشلة
الفاشية
الفاصل
الفاصلة
الفاضل
الفاضلة
الفاطمي
الفاطمية
الفاطميين
الفاعل
الفاعلة
الفاكهة
الفاي
الفتاة
الفتاح
الفتاوى
الفتح
الفتحة
الفترات
الفترة
الفتن
الفتنة
الفتوح
الفتوحات
الفتوى
الفتى
الفتيات
الفتيان
الفجر
الفجوة
الفجيرة
الفحص
الفحل
الفحم
الفحوصات
الفخار
الفخذ
الفخر
الفخري
الفخرية
الفداء
الفداي
الفدرالي
الفدرالية
الفراء
الفرات
الفرار
الفراش
الفراعنة
الفراغ
الفراي
الفرج
الفرح
الفرد
الفردوس
الفردي
الفردية
الفرزدق
الفرس
الفرسان
الفرص
الفرصة
الفرض
الفرضيات
الفرضية
الفرع
الفرعون
الفرعونية
الفرعي
الفرعية
الفرق
الفرقان
الفرقة
الفرن
الفرنج
الفرنجة
الفرنسي
الفرنسية
الفرنسيون
الفرنسيين
الفروسية
الفروع
الفروق
الفريابي
الفريد
الفريدة
الفريضة
الفريق
الفريقان
الفريقين
الفزاري
الفساد
الفسخ
الفسطاط
الفسيفساء
الفسيولوجية
الفشل
الفص
الفصاي
الفصح
الفصحى
الفصل
الفصول
الفصيح
الفصيلة
الفضاء
الفضاي
الفضة
الفضل
الفضول
الفضي
الفضية
الفضيحة
الفضيل
الفضيلة
الفطر
الفطرة
الفطري
الفطريات
الفطرية
الفعال
الفعالة
الفعاليات
الفعالية
الفعل
الفعلي
الفعلية
الفقار
الفقاريات
الفقر
الفقراء
الفقرات
الفقرة
الفقري
الفقه
الفقهاء
الفقهية
الفقير
الفقيرة
الفقيه
الفك
الفكاهة
الفكر
الفكرة
الفكري
الفكرية
الفلاح
الفلاحة
الفلاحية
الفلاحين
الفلاسفة
الفلبين
الفلبيني
الفلبينية
الفلزات
الفلسطيني
الفلسطينية
الفلسطينيون
الفلسطينيين
الفلسفة
الفلسفي
الفلسفية
الفلفل
الفلك
الفلكي
الفلكية
الفلم
الفلوجة
الفم
الفموي
الفن
الفناء
الفنادق
الفنان
الفنانة
الفنانون
الفنانين
الفندق
الفنزويلي
الفنزويلية
الفنلندي
الفنلندية
الفنون
الفني
الفنية
الفهد
الفهرس
الفهري
الفهم
الفو
الفواكه
الفواي
الفوتوغرافي
الفوتوغرافية
الفوج
الفور
الفورمولا
الفوري
الفورية
الفوز
الفوسفات
الفوسفور
الفوضى
الفول
الفولاذ
الفوهة
الفي
الفيء
الفيتامينات
الفيتنامي
الفيتنامية
الفيدرالي
الفيدرالية
الفيديو
الفيرماخت
الفيروس
الفيروسات
الفيروسي
الفيروسية
الفيزياء
الفيزياي
الفيسبوك
الفيصل
الفيصلي
الفيض
الفيضان
الفيضانات
الفيفا
الفيكتوري
الفيل
الفيلة
الفيلسوف
الفيلق
الفيلم
الفينيقية
الفيوم
الق
القابضة
القابل
القابلة
القاتل
القاتلة
القادة
القادر
القادرة
القادسية
القادم
القادمة
القادمين
القارات
القارب
القارة
القاري
القارية
القاسم
القاسمي
القاسي
القاسية
القاضى
القاضي
القاضية
القاطع
القاطنين
القاع
القاعة
القاعدة
القاعدي
القاعدية
القاف
القافلة
القالب
القامة
القاموس
القانون
القانوني
القانونية
القاهر
القاهرة
القاي
القباب
القبارصة
القباي
القبة
القبر
القبرصي
القبرصية
القبض
القبطان
القبطي
القبطية
القبلة
القبلي
القبلية
القبور
القبول
القبيح
القبيل
القبيلة
القتال
القتالية
القتل
القتلة
القتلى
القتيل
القحطاني
القحف
القد
القداس
القدامى
القدح
القدر
القدرات
القدرة
القدرية
القدس
القدم
القدماء
القدمين
القدوس
القدير
القديس
القديسة
القديسين
القديم
القديمة
القذافي
القذاي
القذف
القرا
القراء
القراءات
القراءة
القرابة
القرابين
القرار
القرارات
القراصنة
القرامطة
القران
القراي
القرب
القربى
القرد
القردة
القرش
القرشي
القرص
القرصنة
القرض
القرطبي
القرعة
القرم
القرن
القرنية
القرنين
القرود
القروض
القرون
القروية
القرويين
القرى
القريب
القريبة
القرية
القزم
القزويني
القس
القسام
القسري
القسطنطينية
القسم
القسمة
القسوة
القش
القشرة
القشرية
القشيري
القص
القصاص
القصاي
القصب
القصبة
القصة
القصد
القصدير
القصر
القصص
القصصي
القصصية
القصف
القصور
القصوى
القصيدة
القصير
القصيرة
القصيم
القضاء
القضاة
القضاي
القضايا
القضيب
القضية
القط
القطار
القطارات
القطاع
القطاعات
القطان
القطب
القطبي
القطبية
القطر
القطري
القطرية
القطط
القطع
القطعة
القطن
القطنية
القطيع
القطيف
القعدة
القعقاع
القعنبي
القفر
القفز
القلاع
القلاي
القلب
القلبي
القلبية
القلة
القلعة
القلق
القلم
القلوب
القليل
القليلة
القليوبية
القمار
القماش
القمامة
القمة
القمح
القمر
القمري
القمرية
القمع
القمم
القمي
القميص
القنابل
القناة
القناع
القنب
القنبلة
القنصل
القنصلية
القنطرة
القنوات
القنيطرة
القهري
القهوة
القو
القوات
القواد
القوارب
القوارض
القواسم
القواعد
القوافل
القوالب
القوانين
القواي
القوة
القود
القوس
القوط
القوطي
القوطية
القوقاز
القول
القولون
القولين
القوم
القومى
القومي
القومية
القوميين
القوى
القوي
القوية
القيء
القيادات
القيادة
القيادي
القيادية
القياس
القياسات
القياسي
القياسية
القيام
القيامة
القيد
القيروان
القيس
القيسي
القيصر
القيصرية
القيم
القيمة
القيود
الك
الكا
الكابتن
الكابيتول
الكاتب
الكاتبة
الكاتدراي
الكاثوليك
الكاثوليكي
الكاثوليكية
الكاذب
الكاذبة
الكارثة
الكاردينال
الكاريبي
الكازاخستانية
الكاظم
الكاف
الكافر
الكافرون
الكافرين
الكافي
الكافية
الكافيين
الكاكاو
الكالسيوم
الكامل
الكاملة
الكامنة
الكاميرا
الكاميرات
الكاميرون
الكانوي
الكاهن
الكاي
الكبار
الكباي
الكبد
الكبدي
الكبر
الكبرى
الكبريت
الكبير
الكبيرة
الكت
الكتاب
الكتابات
الكتابة
الكتابية
الكتان
الكتاي
الكتب
الكتف
الكتل
الكتلة
الكتيبة
الكثافة
الكثرة
الكثير
الكثيرة
الكثيرون
الكثيرين
الكثيف
الكثيفة
الكحول
الكحولية
الكذاب
الكذب
الكرات
الكراسي
الكرام
الكرامة
الكراهية
الكرب
الكربون
الكربونية
الكربوهيدرات
الكرة
الكرخ
الكرد
الكردستاني
الكردي
الكردية
الكرسي
الكرك
الكرم
الكرماني
الكرمل
الكروات
الكرواتي
الكرواتية
الكروم
الكروموسوم
الكروموسومات
الكروي
الكروية
الكريات
الكريكت
الكريكيت
الكريم
الكريمة
الكساد
الكساي
الكسب
الكسر
الكسندر
الكسور
الكسوف
الكشافة
الكشف
الكشفية
الكظرية
الكعبة
الكف
الكفاءة
الكفاح
الكفار
الكفارة
الكفالة
الكفاية
الكفر
الكفيل
الكل
الكلاب
الكلابي
الكلاسيكي
الكلاسيكية
الكلام
الكلب
الكلبي
الكلم
الكلمات
الكلمة
الكلور
الكلوي
الكلوية
الكلى
الكلي
الكليات
الكلية
الكم
الكمال
الكمان
الكمبودية
الكمبيوتر
الكمومية
الكمي
الكميات
الكمية
الكناري
الكناني
الكناي
الكندي
الكندية
الكنديين
الكنز
الكنسي
الكنسية
الكنوز
الكنى
الكنيسة
الكنيست
الكهرباء
الكهرباي
الكهربي
الكهربية
الكهروماي
الكهرومغناطيسي
الكهرومغناطيسية
الكهف
الكهنة
الكهوف
الكو
الكوارث
الكواكب
الكوبية
الكود
الكوري
الكورية
الكوريين
الكوفة
الكوفي
الكوفيين
الكوكب
الكولومبي
الكولومبية
الكولونيل
الكوليرا
الكوليسترول
الكومنولث
الكوميدي
الكوميديا
الكوميدية
الكون
الكونت
الكونجرس
الكونغرس
الكونغو
الكونفدرالية
الكونكاكاف
الكوني
الكونية
الكويت
الكويتي
الكويتية
الكويكب
الكويكبات
الكي
الكيان
الكيانات
الكيس
الكيفية
الكيلاني
الكيماوية
الكيمياء
الكيمياي
الكينية
الل
اللا
اللاا
اللاتفية
اللاتي
اللاتيني
اللاتينية
اللاتينيون
اللاجي
اللاحق
اللاحقة
اللاذقية
اللازم
اللازمة
اللاسلطوية
اللاسلكي
اللاسلكية
اللاعب
اللاعبون
اللاعبين
اللام
اللامع
اللاهوت
اللاهوتية
اللاي
اللب
اللباس
اللبن
اللبناني
اللبنانية
اللبنانيين
اللتان
اللتين
اللثة
اللجان
اللجنة
اللجوء
اللحام
اللحظات
اللحظة
اللحم
اللحن
اللحوم
اللحياني
اللحية
اللذان
اللذة
اللذين
اللسان
اللصوص
اللطيف
اللعب
اللعبة
اللعنة
اللغات
اللغة
اللغتين
اللغوي
اللغويات
اللغوية
اللفظ
اللفظة
اللفظي
اللفظية
اللقاء
اللقاءات
اللقاح
اللقاحات
اللقب
اللقطات
اللمس
اللمفاوية
الله
اللهب
اللهجات
اللهجة
اللهم
اللهو
اللو
اللواء
اللواتي
اللواي
اللوثرية
اللوجستية
اللوح
اللوحات
اللوحة
اللورد
اللوردات
اللوز
اللوفر
اللوم
اللون
اللي
اللياقة
الليالي
الليبرالي
الليبرالية
الليبراليين
الليبي
الليبية
الليتواني
الليتوانية
الليث
الليثي
الليثيوم
الليزر
الليفي
الليفية
الليل
الليلة
الليلي
الليلية
الليمفاوية
الليمون
اللين
اللينة
الم
الما
الماء
الماجستير
المادة
المادي
المادية
المارة
المارشال
الماركسي
الماركسية
المارونية
المازني
الماس
الماسونية
الماشية
الماضي
الماضية
الماعز
المال
المالحة
المالديف
المالطية
المالك
المالكة
المالكي
المالكية
المالي
المالية
الماليزي
الماليزية
المانع
المانغا
الماوري
الماي
المايا
المباح
المباحث
المبادرات
المبادرة
المبادي
المباراة
المباراتين
المبارزة
المبارك
المباركة
المباريات
المباشر
المباشرة
المبالغ
المبالغة
المباني
المبتدا
المبتدي
المبتكرة
المبدا
المبدي
المبذولة
المبرد
المبرمج
المبشرين
المبعوث
المبكر
المبكرة
المبلغ
المبنى
المبني
المبنية
المبيدات
المبيض
المبيع
المبيعات
المبين
المبينة
المت
المتا
المتابعة
المتاجر
المتاح
المتاحة
المتاحف
المتاع
المتبادل
المتبادلة
المتبع
المتبعة
المتبقي
المتبقية
المتتالية
المتجددة
المتجر
المتجهة
المتحالفة
المتحد
المتحدة
المتحدث
المتحدثين
المتحرك
المتحركة
المتحف
المتحولين
المتخذ
المتخصص
المتخصصة
المتخصصين
المتداولة
المترتبة
المترجم
المترجمة
المتزامنة
المتزايد
المتزايدة
المتساوية
المتسلسل
المتشابهة
المتصدر
المتصفح
المتصل
المتصلة
المتضررة
المتطرف
المتطرفة
المتطلبات
المتطورة
المتطوعين
المتظاهرون
المتظاهرين
المتعارف
المتعاقبة
المتعة
المتعدد
المتعددة
المتعلق
المتعلقة
المتعلم
المتعلمين
المتعمد
المتغير
المتغيرات
المتغيرة
المتفجرات
المتفجرة
المتفق
المتقدم
المتقدمة
المتقدمين
المتقين
المتكامل
المتكاملة
المتكرر
المتكررة
المتكلم
المتكلمين
المتلازمة
المتمثل
المتمثلة
المتمردة
المتمردون
المتمردين
المتمركزة
المتميز
المتميزة
المتن
المتنازع
المتنافسة
المتنبي
المتنقلة
المتنوعة
المتهم
المتهمين
المتواجدة
المتواصل
المتوسط
المتوسطة
المتوسطية
المتوفرة
المتوفى
المتوفي
المتوقع
المتوقعة
المتوكل
المثال
المثالي
المثالية
المثانة
المثبتة
المثقفين
المثل
المثلث
المثلى
المثلي
المثلية
المثليين
المثنى
المثير
المثيرة
المجاري
المجاز
المجازر
المجاعة
المجال
المجالات
المجالس
المجامع
المجاني
المجانية
المجاهد
المجاهدين
المجاور
المجاورة
المجتمع
المجتمعات
المجتمعي
المجتمعية
المجتهد
المجتهدين
المجد
المجر
المجرات
المجرة
المجرد
المجردة
المجرم
المجرمين
المجرى
المجري
المجرية
المجزرة
المجلات
المجلة
المجلد
المجلس
المجلسين
المجمع
المجمعة
المجموع
المجموعات
المجموعة
المجموعتين
المجندين
المجنون
المجهر
المجهري
المجهرية
المجهود
المجهول
المجهولة
المجوس
المجوهرات
المجيد
المحادثات
المحادثة
المحارب
المحاربي
المحاربين
المحارم
المحاسبة
المحاسن
المحاصيل
المحاضرات
المحاضرة
المحافظ
المحافظات
المحافظة
المحافظون
المحافظين
المحافل
المحاكاة
المحاكم
المحاكمات
المحاكمة
المحال
المحاماة
المحامي
المحامين
المحاور
المحاولات
المحاولة
المحايدة
المحب
المحبة
المحبوب
المحتجين
المحترفة
المحترفين
المحتل
المحتلة
المحتمل
المحتملة
المحتملين
المحتوى
المحتويات
المحدث
المحدثة
المحدثين
المحدد
المحددة
المحدود
المحدودة
المحراب
المحرر
المحررين
المحرق
المحرقة
المحرك
المحركات
المحرم
المحرمات
المحرمة
المحسن
المحصنة
المحصول
المحض
المحطات
المحطة
المحظورة
المحفوظ
المحفوظة
المحقق
المحققين
المحكم
المحكمة
المحكوم
المحل
المحلات
المحلة
المحلفين
المحلل
المحلول
المحلي
المحلية
المحليون
المحليين
المحمدية
المحمود
المحمول
المحمولة
المحميات
المحمية
المحنة
المحور
المحوري
المحول
المحويت
المحيط
المحيطات
المحيطة
المحيطي
المحيطية
المخ
المخابرات
المخازن
المخاطب
المخاطر
المخاطرة
المخاطي
المخاطية
المخالف
المخالفات
المخالفة
المخالفين
المخاوف
المخبر
المختار
المختارة
المختبر
المختبرات
المختص
المختصة
المختصر
المختصين
المختلط
المختلطة
المختلف
المختلفة
المخدرات
المخرج
المخرجين
المخزن
المخزنة
المخزومي
المخزون
المخصص
المخصصة
المخطط
المخططات
المخطوطات
المخطوطة
المخلص
المخلصين
المخلفات
المخلوق
المخلوقات
المخلوقين
المخية
المخيم
المخيمات
المد
المدار
المدارس
المداري
المدارية
المدافع
المدافعين
المداي
المدبر
المدة
المدح
المدخل
المدخلات
المدرب
المدربين
المدرج
المدرجة
المدرس
المدرسة
المدرسي
المدرسية
المدرسين
المدرعة
المدعو
المدعومة
المدعى
المدعي
المدفع
المدفعية
المدفوعات
المدفوعة
المدمجة
المدمرة
المدن
المدني
المدنية
المدنيين
المدونة
المدى
المدية
المدير
المديرية
المديرين
المدينة
المديني
المذابح
المذاهب
المذبح
المذبحة
المذكر
المذكرة
المذكور
المذكورة
المذكورين
المذنب
المذهب
المر
المرء
المرا
المرابطين
المرات
المراتب
المراجع
المراجعات
المراجعة
المراحل
المراد
المرادي
المرارة
المراسلات
المراسيم
المراعي
المرافق
المرافقة
المراقب
المراقبة
المراقبين
المراكب
المراكز
المراهقة
المراهقين
المرايا
المربع
المرة
المرتبة
المرتبط
المرتبطة
المرتد
المرتزقة
المرتضى
المرتفع
المرتفعات
المرتفعة
المرتهن
المرج
المرجان
المرجانية
المرجح
المرجع
المرجعي
المرجعية
المرح
المرحلة
المرحوم
المرزوقي
المرسل
المرسلة
المرسلين
المرسوم
المرشح
المرشحة
المرشحين
المرشد
المرصد
المرض
المرضى
المرضي
المرضية
المرغوب
المرفق
المرك
المركب
المركبات
المركبة
المركز
المركزة
المركزي
المركزية
المرموقة
المرمى
المرنة
المروج
المروحية
المرور
المروزي
المرونة
المري
المريء
المريخ
المريض
المريضة
المزاج
المزارع
المزارعون
المزارعين
المزاعم
المزايا
المزدوج
المزدوجة
المزرعة
المزروعة
المزعوم
المزعومة
المزمن
المزمنة
المزني
المزي
المزيج
المزيد
المسا
المساء
المسابقات
المسابقة
المساجد
المساحات
المساحة
المسار
المسارات
المسارح
المساعد
المساعدات
المساعدة
المسافات
المسافة
المسافر
المسافرين
المساكن
المساكين
المسالك
المساهمات
المساهمة
المساهمين
المساواة
المساي
المسبار
المسبب
المسببة
المسبق
المسبقة
المستا
المستثمرين
المستجد
المستحق
المستحيل
المستخدم
المستخدمة
المستخدمون
المستخدمين
المستدامة
المستدرك
المستديرة
المستشار
المستشارين
المستشرق
المستشرقين
المستشفى
المستشفيات
المستعار
المستعمر
المستعمرات
المستعمرة
المستعمرين
المستعمل
المستعملة
المستقبل
المستقبلات
المستقبلي
المستقبلية
المستقر
المستقرة
المستقل
المستقلة
المستقلين
المستقيم
المستقيمة
المستكشف
المستمدة
المستمر
المستمرة
المستند
المستندات
المستندة
المستنصر
المستنقعات
المستهدف
المستهدفة
المستهلك
المستهلكين
المستوردة
المستوطنات
المستوطنة
المستوطنين
المستوى
المستوي
المستويات
المسجد
المسجل
المسجلة
المسجلين
المسح
المسرح
المسرحي
المسرحيات
المسرحية
المسطحة
المسعودي
المسك
المسكن
المسكين
المسلح
المسلحة
المسلحين
المسلسل
المسلسلات
المسلك
المسلم
المسلمات
المسلمة
المسلمون
المسلمين
المسماة
المسموح
المسمى
المسند
المسنين
المسو
المسودة
المسي
المسيب
المسيح
المسيحي
المسيحية
المسيحيون
المسيحيين
المسير
المسيرة
المسيسيبي
المسيل
المسيلة
المشابهة
المشاة
المشار
المشارك
المشاركات
المشاركة
المشاركون
المشاركين
المشاريع
المشاعر
المشاكل
المشاهد
المشاهدات
المشاهدة
المشاهدين
المشاهير
المشايخ
المشبعة
المشتبه
المشترك
المشتركة
المشتركين
المشترى
المشتري
المشتقة
المشرف
المشرفة
المشرق
المشرقية
المشركون
المشركين
المشروبات
المشروط
المشروع
المشروعات
المشروعة
المشع
المشعة
المشغل
المشفرة
المشفى
المشكل
المشكلات
المشكلة
المشهد
المشهود
المشهور
المشهورة
المشهورين
المشورة
المشي
المشيخية
المشير
المشيمة
المصاب
المصابة
المصابون
المصابيح
المصابين
المصاحبة
المصاحف
المصادر
المصادقة
المصارع
المصارعة
المصارف
المصالح
المصالحة
المصانع
المصاي
المصباح
المصحف
المصدر
المصر
المصرف
المصرفي
المصرفية
المصرى
المصري
المصريات
المصرية
المصريون
المصريين
المصطفى
المصطلح
المصطلحات
المصغرة
المصفوفة
المصل
المصلحة
المصلى
المصلي
المصلين
المصمم
المصممة
المصنع
المصنعة
المصنف
المصنفات
المصنفة
المصنوع
المصنوعة
المصور
المصورة
المصير
المضاد
المضادات
المضادة
المضارب
المضاربة
المضاعفات
المضاف
المضافة
المضخة
المضرب
المضغوط
المضمار
المضمون
المضي
المضيف
المضيفة
المضيق
المطابقة
المطار
المطارات
المطاط
المطاعم
المطاف
المطالب
المطالبات
المطالبة
المطبخ
المطبعة
المطبقة
المطبوع
المطبوعات
المطبوعة
المطر
المطران
المطرب
المطروحة
المطعم
المطلب
المطلة
المطلق
المطلقة
المطلوب
المطلوبة
المطورة
المطورين
المطيرة
المظالم
المظاهر
المظاهرات
المظفر
المظلم
المظلمة
المظلوم
المظهر
المعابد
المعاجم
المعاد
المعادلات
المعادلة
المعادن
المعادي
المعادية
المعارض
المعارضة
المعارضين
المعارف
المعارك
المعاش
المعاصر
المعاصرة
المعاصرين
المعاصي
المعاقين
المعاكس
المعالج
المعالجات
المعالجة
المعالم
المعالي
المعامل
المعاملات
المعاملة
المعاناة
المعاني
المعاهد
المعاهدات
المعاهدة
المعايير
المعبد
المعبر
المعبود
المعتاد
المعتادة
المعتدل
المعتدلة
المعترض
المعترف
المعتز
المعتزلة
المعتصم
المعتضد
المعتقد
المعتقدات
المعتقل
المعتقلين
المعتمد
المعتمدة
المعتمر
المعجبين
المعجزات
المعجزة
المعجم
المعجمة
المعد
المعدات
المعدة
المعدل
المعدلات
المعدلة
المعدن
المعدني
المعدنية
المعدي
المعدية
المعرض
المعرضة
المعرفة
المعرفي
المعرفية
المعركة
المعروضة
المعروف
المعروفة
المعروفين
المعري
المعز
المعزز
المعزولة
المعسكر
المعسكرات
المعصية
المعطيات
المعظم
المعقد
المعقدة
المعقول
المعلق
المعلقة
المعلم
المعلمين
المعلن
المعلنة
المعلوم
المعلومات
المعلوماتية
المعلومة
المعماري
المعمارية
المعماريين
المعمدانية
المعمول
المعنوية
المعنى
المعني
المعنية
المعنيين
المعهد
المعونة
المعوي
المعوية
المعيار
المعياري
المعيارية
المعيشة
المعيشية
المعين
المعينة
المغادرة
المغاربة
المغازي
المغامرة
المغايرين
المغتربين
المغذيات
المغرب
المغربي
المغربية
المغفرة
المغلق
المغلقة
المغلوب
المغناطيسي
المغناطيسية
المغني
المغنية
المغنيسيوم
المغول
المغولي
المغولية
المغيرة
المفاتيح
المفاجا
المفاجي
المفاصل
المفاعل
المفاعلات
المفاهيم
المفاوضات
المفتاح
المفترسة
المفترض
المفتش
المفتوح
المفتوحة
المفتي
المفرد
المفردات
المفردة
المفرط
المفرطة
المفروض
المفروضة
المفسرين
المفصل
المفضل
المفضلة
المفعول
المفقود
المفقودة
المفقودين
المفكر
المفكرين
المفهوم
المفوض
المفوضية
المفيد
المفيدة
المقابر
المقابل
المقابلات
المقابلة
المقاتل
المقاتلة
المقاتلين
المقارن
المقارنة
المقاصد
المقاطع
المقاطعات
المقاطعة
المقاعد
المقال
المقالات
المقالة
المقام
المقامات
المقامة
المقاهي
المقاوم
المقاومة
المقاييس
المقبرة
المقبري
المقبل
المقبلة
المقبول
المقبولة
المقتبس
المقتدر
المقترح
المقترحات
المقترحة
المقتول
المقد
المقداد
المقدار
المقدام
المقدر
المقدرة
المقدس
المقدسة
المقدسي
المقدم
المقدمات
المقدمة
المقدوني
المقدونية
المقر
المقربين
المقرر
المقررة
المقري
المقريزي
المقصد
المقصود
المقصودة
المقصورة
المقطع
المقطعي
المقطوعة
المقعد
المقهى
المقياس
المقيد
المقيم
المقيمين
المكاتب
المكاسب
المكافا
المكافي
المكالمات
المكان
المكانة
المكاني
المكانية
المكتب
المكتبات
المكتبة
المكتسب
المكتسبة
المكتشفة
المكتوب
المكتوبة
المكثف
المكثفة
المكرمة
المكروه
المكسيك
المكسيكي
المكسيكية
المكلا
المكلف
المكلفة
المكون
المكونات
المكونة
المكي
الملا
الملابس
الملاح
الملاحة
الملاحظات
الملاحظة
الملاريا
الملازم
الملاعب
الملاك
الملاكمة
الملاي
الملايو
الملايين
الملة
الملتقى
الملح
الملحق
الملحمة
الملحن
الملحوظية
الملعب
الملف
الملفات
الملقب
الملك
الملكة
الملكي
الملكية
الملكيين
الملل
الملوثات
الملوثة
الملوك
الملون
الملونة
المليجي
المليون
المماثلة
الممارسات
الممارسة
الممالك
المماليك
الممتاز
الممتازة
الممتد
الممتدة
الممتلكات
الممثل
الممثلة
الممثلون
الممثلين
الممر
الممرات
الممرضات
الممرضة
الممكن
الممكنة
المملكة
المملوك
المملوكة
المملوكي
المملوكية
الممنوحة
المميتة
المميز
المميزات
المميزة
المن
المناجم
المناخ
المناخي
المناخية
المنار
المنارة
المنازعات
المنازل
المناسب
المناسبات
المناسبة
المناصب
المناطق
المناظر
المناظرة
المناعة
المناعي
المناعية
المنافذ
المنافس
المنافسات
المنافسة
المنافسين
المنافع
المنافق
المنافقون
المنافقين
المناقشات
المناقشة
المنام
المنامة
المناهج
المناهض
المناهضة
المناورة
المنبر
المنتج
المنتجات
المنتجة
المنتجين
المنتخب
المنتخبات
المنتخبين
المنتدى
المنتزه
المنتسبين
المنتشر
المنتشرة
المنتصر
المنتصف
المنتظر
المنتظم
المنتظمة
المنتمين
المنتهية
المنجم
المنح
المنحدر
المنحدرات
المنحنى
المنخفض
المنخفضة
المندوب
المندوبية
المنذر
المنزل
المنزلة
المنزلي
المنزلية
المنسق
المنسوب
المنسوبة
المنسوجات
المنشا
المنشطات
المنشور
المنشورات
المنشورة
المنصات
المنصب
المنصة
المنصف
المنصور
المنصورة
المنصوص
المنطق
المنطقة
المنطقي
المنطقية
المنظر
المنظم
المنظمات
المنظمة
المنظور
المنظومة
المنع
المنعم
المنغولية
المنفذ
المنفرد
المنفردة
المنفصل
المنفصلة
المنفعة
المنفى
المنقار
المنقرضة
المنقول
المنقولة
المنكدر
المنكر
المنهاج
المنهال
المنهج
المنهجية
المنورة
المنوفية
المنوي
المنوية
المني
المنيا
المنية
المهاجر
المهاجرة
المهاجرون
المهاجرين
المهاجم
المهاجمين
المهاد
المهارات
المهارة
المهام
المهبل
المهتمين
المهجر
المهد
المهددة
المهدي
المهدية
المهر
المهرة
المهرجان
المهرجانات
المهلب
المهم
المهمات
المهمة
المهملة
المهن
المهنة
المهندس
المهندسون
المهندسين
المهني
المهنية
المهنيين
المهيمن
المهيمنة
المو
المواجهات
المواجهة
المواد
الموارد
الموارنة
الموازنة
المواسم
المواشي
المواصفات
المواصلات
المواضع
المواضيع
المواطن
المواطنة
المواطنون
المواطنين
الموافق
الموافقة
المواقع
المواقف
الموالي
الموالية
المواليد
الموالين
المواني
المواهب
المواي
الموت
الموتى
الموثوقة
الموج
الموجات
الموجب
الموجبة
الموجة
الموجه
الموجهة
الموجود
الموجودات
الموجودة
الموجودين
الموجي
الموجية
الموحد
الموحدة
الموحدين
المودة
المورد
الموروث
الموروثة
الموريتانية
الموز
الموزعة
الموساد
الموسم
الموسمية
الموسوعات
الموسوعة
الموسوي
الموسيقار
الموسيقى
الموسيقي
الموسيقية
الموسيقيين
الموصل
الموصلات
الموصلي
الموصوف
الموصوفة
الموصى
الموضة
الموضع
الموضعي
الموضوع
الموضوعات
الموضوعة
الموضوعية
الموطا
الموطن
الموظف
الموظفون
الموظفين
الموعد
الموفق
الموقع
الموقعة
الموقف
الموكب
الموكل
المولد
المولود
المولودين
المولى
المولية
الموهوب
الموي
المي
الميادين
المياه
الميت
الميتة
الميثاق
الميثان
الميثودية
الميثولوجيا
الميداليات
الميدالية
الميدان
الميداني
الميدانية
الميراث
الميزات
الميزان
الميزانية
الميزة
الميسرة
الميكانيكا
الميكانيكي
الميكانيكية
الميكروبات
الميل
الميلاد
الميلادي
الميلادية
الميليشيات
الميم
الميناء
الميول
الن
النابغة
النابلسي
النابليونية
الناتج
الناتجة
الناتو
الناجح
الناجحة
الناجم
الناجمة
الناجي
الناجين
الناحية
الناخبين
النادر
النادرة
النادي
النار
النارية
النازي
النازية
النازيون
النازيين
الناس
الناسخ
الناشر
الناشط
الناشطين
الناشي
الناصر
الناصرة
الناصري
الناصرية
الناضجة
الناطق
الناطقة
الناطقين
الناظر
الناعم
الناعمة
النافذة
النافع
النافعة
الناقة
الناقد
الناقص
الناقل
الناقلة
النامي
النامية
النانو
النانوية
الناي
النبات
النباتات
النباتي
النباتية
النبالة
النبض
النبطية
النبلاء
النبوة
النبوي
النبوية
النبي
النبيذ
النبيل
النبيلة
النبيين
النتاي
النتيجة
النثر
النجاة
النجاح
النجار
النجاسة
النجاشي
النجف
النجم
النجمة
النجمي
النجمية
النجوم
النحاة
النحاس
النحاسية
النحت
النحر
النحل
النحو
النحوي
النحوية
النخاع
النخاعي
النخامية
النخبة
النخعي
النخل
النخلة
النخيل
النداء
الندم
الندوات
الندوة
الندى
النذر
النرويج
النرويجي
النرويجية
النزاع
النزاعات
النزال
النزعة
النزف
النزول
النزيف
النساء
النساي
النسب
النسبة
النسبي
النسبية
النسخ
النسخة
النسر
النسق
النسل
النسوة
النسوي
النسوية
النسيان
النسيج
النسيم
النشا
النشاط
النشاطات
النشر
النشرة
النشط
النشطاء
النشطة
النشيد
النص
النصاب
النصارى
النصب
النصر
النصراني
النصرانية
النصرة
النصف
النصفي
النصوص
النصية
النصيحة
النضال
النضج
النضر
النضير
النطاق
النطاقات
النطق
النظافة
النظام
النظامي
النظامية
النظاي
النظر
النظرة
النظري
النظريات
النظرية
النظم
النظير
النظيفة
النعم
النعمان
النعمة
النعيم
النفاث
النفاثة
النفاق
النفايات
النفر
النفس
النفسي
النفسية
النفط
النفطي
النفطية
النفع
النفق
النفقات
النفقة
النفوذ
النفوس
النفي
النقاب
النقابات
النقابة
النقابية
النقاد
النقاش
النقاشات
النقاط
النقب
النقد
النقدي
النقدية
النقش
النقص
النقصان
النقض
النقطة
النقل
النقود
النقوش
النقي
النقيب
النقية
النقيض
النكاح
النكبة
النماذج
النمذجة
النمر
النمسا
النمساوي
النمساوية
النمط
النمطية
النمل
النمو
النموذج
النموذجي
النموذجية
النهار
النهاي
النهاية
النهج
النهدي
النهر
النهرين
النهضة
النهوض
النهي
النواب
النواة
النواحي
النوادي
النوافذ
النوبات
النوبة
النور
النوري
النوع
النوعي
النوعية
النوعين
النوم
النون
النووي
النووية
النوى
النيابة
النيابي
النيابية
النيبالية
النية
النيتروجين
النيجر
النيجيري
النيجيرية
النيران
النيسابوري
النيكل
النيل
النينجا
النيوترونات
النيوزيلندي
النيوزيلندية
اله
الهاء
الهاتف
الهاتفية
الهادفة
الهادي
الهاشمي
الهاشمية
الهام
الهامة
الهامش
الهاون
الهاي
الهايتية
الهبة
الهبوط
الهجاء
الهجرة
الهجري
الهجمات
الهجوم
الهجومية
الهدافين
الهدايا
الهداية
الهدف
الهدم
الهدنة
الهدوء
الهدى
الهدي
الهدية
الهذلي
الهذيل
الهرب
الهرم
الهرمون
الهرمونات
الهرمي
الهروب
الهروي
الهزلية
الهزيمة
الهسبانيون
الهضبة
الهضم
الهضمي
الهضمية
الهلاك
الهلال
الهلالي
الهم
الهمداني
الهمذاني
الهمزة
الهند
الهندسة
الهندسي
الهندسية
الهندوس
الهندوسية
الهندي
الهندية
الهنود
الهواء
الهواة
الهواتف
الهوامش
الهواي
الهوكي
الهول
الهولندي
الهولندية
الهولنديون
الهولنديين
الهولوكوست
الهوى
الهوية
الهياكل
الهيثم
الهيدروجين
الهيدروجيني
الهيكل
الهيكلي
الهيكلية
الهيليوم
الهيمنة
الهيي
الو
الواثق
الواجب
الواجبات
الواجبة
الواجهة
الواحات
الواحد
الواحدة
الواد
الوادي
الوارث
الوارد
الواردات
الواردة
الواسطي
الواسع
الواسعة
الواضح
الواضحة
الواعظ
الوافدين
الواقدي
الواقع
الواقعة
الواقعي
الواقعية
الواقف
الواقي
الوالد
الوالدين
الوالي
الواو
الوباء
الوباي
الوتر
الوثاي
الوثنية
الوثيقة
الوجبات
الوجه
الوجهة
الوجهين
الوجوب
الوجود
الوجودية
الوجوه
الوحدات
الوحدة
الوحش
الوحشي
الوحشية
الوحوش
الوحي
الوحيد
الوحيدة
الوداد
الوداع
الودي
الوديان
الودية
الوراء
الوراثة
الوراثي
الوراثية
الوراق
الورثة
الورد
الوردي
الوردية
الورع
الورق
الورقة
الورقية
الورك
الورم
الورود
الوريد
الوريدي
الوريدية
الوزارات
الوزارة
الوزاري
الوزارية
الوزراء
الوزن
الوزير
الوساطة
الوسام
الوساي
الوسط
الوسطى
الوسطي
الوسم
الوسيط
الوسيطة
الوسيلة
الوشم
الوصافة
الوصايا
الوصاية
الوصف
الوصفية
الوصل
الوصلات
الوصلة
الوصول
الوصي
الوصية
الوصيف
الوضع
الوضعية
الوضوء
الوضوح
الوطء
الوطن
الوطني
الوطنية
الوطنيين
الوطواط
الوظاي
الوظيفة
الوظيفي
الوظيفية
الوعاء
الوعاي
الوعد
الوعرة
الوعظ
الوعي
الوعيد
الوفاء
الوفاة
الوفاق
الوفد
الوفود
الوفيات
الوقاي
الوقاية
الوقت
الوقعة
الوقف
الوقود
الوقوع
الوقوف
الوكالات
الوكالة
الوكيل
الولاء
الولاة
الولادة
الولاي
الولايات
الولاية
الولد
الولوج
الولي
الوليد
الوهاب
الوهم
الويب
الويكي
الويكيبيديا
الويلزي
الويلزية
الى
الي
اليا
الياء
اليابان
الياباني
اليابانية
اليابانيون
اليابانيين
اليابسة
الياس
الياقوت
اليتيم
اليد
اليدوي
اليدوية
اليدين
اليرموك
اليسار
اليساري
اليسارية
اليسرى
اليسوعيين
اليسير
اليقظة
اليقين
اليك
اليمامة
اليمان
اليماني
اليمن
اليمنى
اليمني
اليمنية
اليمنيين
اليمين
اليميني
اليمينية
الينابيع
اليه
اليها
اليهم
اليهود
اليهودي
اليهودية
اليوتيوب
اليود
اليورانيوم
اليورو
اليوغوسلافي
اليوغوسلافية
اليولياني
اليوم
اليومي
اليومية
اليونان
اليوناني
اليونانية
اليونانيون
اليونانيين
اليونسكو
ام
اما
امام
امبارك
امة
امتحان
امتد
امتداد
امتدت
امتصاص
امتلا
امتلاك
امتلك
امتلكت
امتناع
امتنع
امتياز
امتيازات
امحمد
امر
امرا
امرات
امرة
امرو
امري
امه
امين
ان
انا
انبعاث
انبعاثات
انت
انتباه
انتحار
انتحاري
انتحارية
انتخاب
انتخابات
انتخابه
انتخابها
انتخابية
انتخب
انتزاع
انتشار
انتشارا
انتشارها
انتشر
انتشرت
انتصار
انتصارات
انتصر
انتظار
انتظام
انتفاء
انتفاضة
انتقاد
انتقادات
انتقال
انتقاله
انتقالية
انتقام
انتقاي
انتقد
انتقدت
انتقل
انتقلت
انتقلوا
انتهاء
انتهاك
انتهاكات
انتهت
انتهى
انحدار
انحراف
انحلال
انحلالات
انحلت
انحناء
انحياز
انخرط
انخفاض
انخفض
انخفضت
اند
اندلاع
اندلع
اندلعت
اندماج
اندمجت
انسان
انسحاب
انسحب
انسحبت
انسداد
انشا
انشاء
انشق
انشقاق
انصرف
انضم
انضمام
انضمامه
انضمت
انطباع
انطلاق
انطلاقا
انطلق
انطلقت
انظر
انظروا
انعدام
انعقاد
انعقد
انعكاس
انفجار
انفجارات
انفجرت
انفرد
انفصال
انفصل
انفصلت
انقراض
انقرضت
انقسام
انقسم
انقسمت
انقضاء
انقضت
انقطاع
انقطع
انقطعت
انقلاب
انقلب
انك
انكلترا
انما
انه
انها
انهار
انهارت
انهزم
انهم
انهيار
اني
اه
اها
اهتم
اهتمام
اهتماما
اهتمامات
اهتمامه
اهتمامها
اهـ
اهل
او
اول
اولا
اى
اي
ايضا
اين
ايه
ب
با
باء
باب
بابا
بابك
بابل
بابلو
بابن
بابه
بابها
بابوا
بابي
بات
باتباع
باتت
باتجاه
باتخاذ
باترسون
باتريشيا
باتريك
باتشي
باتفاق
باتفاقيات
باتفاقية
باتل
باتمان
باتنة
باتون
باتي
باتيستا
باث
باح
باحة
باحترام
باحتلال
باحث
باحثون
باحية
باختصار
باختلاف
باختيار
باد
بادة
بادر
بادن
بادي
بادية
باديس
بار
بارا
باراغواي
باراغوايانيون
باراك
باراماونت
بارانا
باربادوس
باربارا
باربرا
بارت
بارتفاع
بارتكاب
بارتون
بارتيزان
بارد
باردة
بارز
بارزا
بارزة
بارسونز
بارع
بارق
بارك
باركر
باركنسون
بارما
بارنز
بارنسلي
بارو
بارون
باري
باريت
باريس
باز
بازل
باس
باستثناء
باستخدام
باستعمال
باستقلال
باستمرار
باسكال
باسكت
باسل
باسم
باسمراسلني
باسمه
باسمها
باسو
باش
باشا
باشر
باضطراب
باط
باطرة
باطل
باطلا
باطلة
باطن
باظة
باع
باعت
باعتبار
باعتباره
باعتبارها
باعه
باغ
بافاريا
بافيا
باق
باقر
باقي
باقية
باك
باكز
باكستان
باكستاني
باكستانية
باكستانيون
باكو
بال
بالا
بالاتحاد
بالاتصال
بالاتفاق
بالاتينات
بالاس
بالاستيلاء
بالاسم
بالاشتراك
بالاعتماد
بالانتخابات
بالانتقال
بالانسحاب
بالانضمام
بالانقراض
بالاو
بالباطل
بالبحث
بالبحر
بالبشر
بالبصرة
بالبطولة
بالبقاء
بالبلاد
بالبلدة
بالبلدين
بالبيت
بالبيي
بالت
بالتا
بالتاريخ
بالتالي
بالتبني
بالتجارة
بالتجزي
بالتحديد
بالتحقيق
بالتدريس
بالترتيب
بالتركية
بالتزامن
بالتساوي
بالتصويت
بالتعادل
بالتعاون
بالتعليم
بالتفصيل
بالتقدم
بالتمثيل
بالتنسيق
بالتهاب
بالتوازي
بالتوفيق
بالتوقيت
بالتيمور
بالثقافة
بالجامعة
بالجاي
بالجزاي
بالجملة
بالجمهورية
بالجنة
بالجنس
بالجيش
بالحب
بالحبس
بالحج
بالحجارة
بالحجر
بالحد
بالحديث
بالحرب
بالحرف
بالحركة
بالحروف
بالحصول
بالحفاظ
بالحق
بالحقوق
بالحقيقة
بالحكم
بالحكومة
بالحواسيب
بالحياة
بالخارج
بالخبر
بالخدمة
بالخروج
بالخط
بالخطا
بالخلافة
بالخيار
بالخير
بالدار
بالدخول
بالدرجة
بالدفاع
بالدم
بالدوري
بالدولة
بالدوين
بالدين
بالذات
بالذكر
بالذكرى
بالذنب
بالذهاب
بالذهب
بالذي
بالر
بالرا
بالرباط
بالرجال
بالرجل
بالرجوع
بالرد
بالرصاص
بالرغم
بالرمز
بالرنين
بالروسية
بالري
بالرياض
بالزراعة
بالزواج
بالس
بالسجن
بالسرطان
بالسفر
بالسكان
بالسكك
بالسلاح
بالسلام
بالسلطة
بالسماح
بالسنة
بالسودان
بالسياسة
بالسيطرة
بالسيف
بالشام
بالشراكة
بالشعر
بالشكل
بالشيء
بالصبر
بالصحة
بالصلاة
بالصور
بالصينية
بالضبط
بالضربة
بالضرورة
بالضغط
بالضم
بالطاقة
بالطاي
بالطبع
بالطرق
بالطريق
بالطريقة
بالطعام
بالطلاق
بالظهور
بالعاصمة
بالعالم
بالعبرية
بالعدل
بالعديد
بالعراق
بالعربية
بالعقد
بالعقل
بالعكس
بالعلاقات
بالعلم
بالعلوم
بالعمل
بالعنف
بالعودة
بالعين
بالغ
بالغا
بالغاز
بالغة
بالغيب
بالفارسية
بالفتح
بالفرنسية
بالفشل
بالفعل
بالفن
بالفوز
بالفيروس
بالق
بالقانون
بالقاهرة
بالقبض
بالقتال
بالقتل
بالقدر
بالقدرة
بالقدس
بالقرا
بالقراءة
بالقرب
بالقرية
بالقضاء
بالقلب
بالقلق
بالقوات
بالقوة
بالقول
بالقوي
بالقياس
بالقيام
بالك
بالكا
بالكاد
بالكامل
بالكانا
بالكتاب
بالكتابة
بالكثير
بالكذب
بالكسر
بالكفر
بالكلام
بالكلية
بالكهرباء
بالكوفة
بالكويكبات
بالل
باللاتينية
باللسان
باللعب
باللغات
باللغة
باللغتين
باللقب
بالله
باللهجة
باللوم
باللون
بالليل
بالم
بالما
بالماء
بالماس
بالمال
بالماي
بالمباراة
بالمثل
بالمجتمع
بالمجلس
بالمخدرات
بالمدارس
بالمدرسة
بالمدينة
بالمر
بالمرا
بالمرحلة
بالمرض
بالمركز
بالمسجد
بالمسلمين
بالمشاركة
بالمصادر
بالمعروف
بالمعلومات
بالمعنى
بالمعهد
بالمغرب
بالمقابل
بالمقارنة
بالمكان
بالملك
بالمملكة
بالمناطق
بالمنطقة
بالمو
بالمواد
بالموافقة
بالموت
بالموسيقى
بالموضوع
بالمي
بالمياه
بالميدالية
بالن
بالنار
بالناس
بالنبي
بالنساء
بالنسبة
بالنص
بالنظام
بالنظر
بالنفس
بالنقل
بالنهار
بالنيابة
بالهجوم
بالهند
بالهواء
بالو
بالوحدة
بالوصول
بالوقود
بالوكالة
بالولايات
بالولاية
بالومار
بالي
بالياء
باليابانية
باليد
باليرمو
باليمن
باليمين
باليه
باليوم
باليونانية
بامتياز
بامرا
بان
بانة
بانتصار
بانتظار
بانتظام
بانخفاض
بانزر
بانك
بانكس
بانكوك
بانه
بانها
باني
بانياس
باه
باها
باهاماس
باهتمام
باهظة
باهيا
باو
باور
باول
باولا
باولو
باوند
باي
بايت
بايثون
بايدن
باير
بايرتس
بايرن
بايرون
بايزيد
بايع
باين
باڤار
بباب
بباريس
ببرنامج
ببساطة
ببطء
ببطولة
ببعض
ببعضها
ببغداد
ببلاد
ببناء
ببني
ببيان
ببيت
ببيع
بة
بت
بتا
بتاريخ
بتجميع
بتحديد
بتحرير
بتحسين
بتحقيق
بتحليل
بتحويل
بتدريب
بتدريس
بتدمير
بترتيب
بترجمات
بترجمة
بترك
بتسجيل
بتسليم
بتسمية
بتشغيل
بتشكيل
بتصميم
بتصوير
بتطبيق
بتطوير
بتعديل
بتعليم
بتعيين
بتغطية
بتغير
بتغيير
بتقدير
بتقديم
بتقسيم
بتقنية
بتقييم
بتكلفة
بتكليف
بتكوين
بتلر
بتلك
بتمثيل
بتمويل
بتنسيق
بتنظيم
بتنفيذ
بتهمة
بتوجيه
بتوزيع
بتوسيع
بتوفير
بتوقيت
بتوقيع
بتونس
بث
بثت
بثقة
بثلاث
بثلاثة
بثمن
بثه
بثها
بجامع
بجامعة
بجانب
بجاي
بجاية
بجبل
بجد
بجدة
بجدية
بجراي
بجروح
بجزء
بجزيرة
بجسم
بجعل
بجماعة
بجمع
بجمهورية
بجميع
بجنوب
بجهاز
بجوار
بجودة
بجولة
بجيش
بجيشه
بح
بحاث
بحاثه
بحاجة
بحار
بحارة
بحال
بحالة
بحب
بحت
بحتة
بحث
بحثا
بحثت
بحثه
بحثي
بحثية
بحجة
بحجر
بحجم
بحد
بحدوث
بحدود
بحديث
بحذف
بحر
بحرب
بحرف
بحركة
بحري
بحرية
بحرين
بحريني
بحرينيون
بحساب
بحسب
بحسن
بحضرة
بحضور
بحفظ
بحق
بحقه
بحقوق
بحقيقة
بحكم
بحكومة
بحل
بحلب
بحلول
بحماية
بحمد
بحمل
بحملة
بحوالي
بحوث
بحي
بحياة
بحيث
بحيرات
بحيرة
بخ
بخار
بخارى
بخاري
بخازيا
بخبر
بخدمة
بخراسان
بخصوص
بخط
بخطه
بخلاف
بخلق
بخمس
بخمسة
بخير
بد
بدء
بدءا
بدا
بداء
بداخل
بداخله
بداخلها
بدار
بدارين
بداع
بداعي
بداعية
بدافع
بدال
بدان
بداي
بدايات
بداياته
بداية
بدايته
بدايتها
بدت
بدخول
بدر
بدرا
بدراسة
بدرجات
بدرجة
بدع
بدعة
بدعم
بدعوة
بدعوى
بدفع
بدقة
بدل
بدلا
بدلالة
بدلت
بدليل
بدم
بدمج
بدمشق
بدن
بدنة
بدنه
بدو
بدوام
بدور
بدوره
بدورها
بدوري
بدولة
بدون
بدوي
بدوية
بدى
بدي
بدية
بدير
بديع
بديعة
بديل
بديلا
بديلة
بدين
بذات
بذاته
بذاتها
بذاك
بذرة
بذكر
بذل
بذلت
بذلك
بذور
بذي
بر
برا
براء
براءات
براءة
برات
براتيسلافا
براج
براد
برادفورد
برادلي
براديش
براذرز
برار
براز
برازيل
برازيلي
برازيليات
برازيلية
برازيليون
براغ
براغا
براكين
برام
برامج
برامجها
براندنبورغ
براندون
براهام
براهيـمـ
براهيم
براهيمي
براون
براونشفايغ
براي
برايان
برايتون
برايس
برايم
براين
برة
برت
برتبة
برتغال
برتغالي
برتغالية
برتغاليون
برج
برجل
برحلة
برد
بردة
برديش
بردين
برذرز
برز
برزة
برزت
برزها
برزهم
برس
برسالة
برسم
برسول
برشلونة
برشيات
برشية
برص
برصيد
برع
برعاية
برغش
برغم
برفض
برفع
برفقة
برق
برقة
برقم
برقية
برك
بركات
بركان
بركانية
بركة
بركلات
بركلي
برلمان
برلماني
برلمانية
برلين
برم
برماي
برمت
برمجة
برمجيات
برمجية
برمنغهام
برمودا
برميل
برن
برنارد
برنامج
برنامجا
برنامجه
برنامجها
برنستون
برهان
برهة
برو
برواية
بروتستانت
بروتستانتية
بروتوكول
بروتوكولات
بروتون
بروتين
بروتينات
بروج
بروح
برودة
برودواي
بروز
بروس
بروسيا
بروفيدنس
بروفيسور
بروك
بروكس
بروكسل
بروكلين
بروميتش
بروناي
برونزويك
برونزية
برونكس
برونو
بري
بريء
برياء
بريان
برية
بريت
بريتاني
بريد
بريدة
بريزبان
بريس
بريست
بريستول
بريستون
بريشة
بريطاني
بريطانيا
بريطانيات
بريطانية
بريطانيون
بريفز
بريق
بريك
بريل
بريمن
بريمو
برين
برينتفورد
برينس
برينستون
بريي
بزاوية
بزراعة
بزعامة
بزواج
بزيادة
بزيارة
بس
بساتين
بساطة
بسام
بساي
بسبب
بسببه
بسببها
بسبع
بست
بستان
بستة
بسحب
بسر
بسرطان
بسرعة
بسط
بسعة
بسعر
بسقوط
بسلام
بسلسلة
بسلطة
بسم
بسمارك
بسمة
بسن
بسنة
بسند
بسهم
بسهولة
بسوء
بسيط
بسيطة
بشا
بشار
بشارة
بشارع
بشبكة
بشخصية
بشدة
بشر
بشرا
بشراء
بشرح
بشرط
بشركة
بشروط
بشري
بشرية
بشعبية
بشكل
بشمال
بشن
بشهادة
بشهر
بشو
بشي
بشيء
بشير
بصار
بصارهم
بصحبة
بصحة
بصدد
بصر
بصراحة
بصرف
بصره
بصري
بصرية
بصعوبة
بصفات
بصفة
بصفته
بصفتها
بصمة
بصناعة
بصوت
بصورة
بصير
بصيرا
بصيرة
بصيغة
بض
بضاي
بضرب
بضرورة
بضع
بضعة
بضم
بط
بطا
بطاء
بطاريات
بطارية
بطاقات
بطاقة
بطال
بطانة
بطاي
بطبقة
بطبيعة
بطبيعتها
بطرد
بطرس
بطرسبرغ
بطرق
بطريرك
بطريركية
بطريق
بطريقة
بطل
بطلا
بطلان
بطلب
بطلة
بطلت
بطليموس
بطليوس
بطن
بطنه
بطنها
بطوطة
بطول
بطولات
بطولة
بطوله
بطون
بطي
بطيء
بطيي
بظهور
بع
بعاد
بعاده
بعام
بعامين
بعبارة
بعبد
بعت
بعث
بعثات
بعثة
بعثت
بعثني
بعثه
بعد
بعدا
بعدة
بعدد
بعدك
بعدم
بعدما
بعده
بعدها
بعدهم
بعدي
بعرض
بعرفة
بعشر
بعشرة
بعض
بعضا
بعضكم
بعضنا
بعضه
بعضها
بعضهم
بعضهما
بعقد
بعكس
بعلبك
بعلم
بعلمه
بعمر
بعمرة
بعمق
بعمل
بعمله
بعمليات
بعملية
بعناية
بعنف
بعنوان
بعودة
بعيد
بعيدا
بعيدة
بعير
بعين
بعينه
بعينها
بغا
بغداد
بغرض
بغزو
بغض
بغية
بغير
بغيره
بغيرها
بـ
بــندر
بفارق
بفتح
بفترة
بفحص
بفرض
بفرنسا
بفصل
بفضل
بفعالية
بفعل
بفكرة
بفوز
بفوزه
بفيروس
بق
بقاء
بقار
بقاع
بقانون
بقاي
بقايا
بقبول
بقت
بقتل
بقتله
بقدر
بقدرة
بقدرته
بقراءة
بقرار
بقراط
بقرب
بقرة
بقرية
بقسم
بقصد
بقصر
بقصف
بقضاء
بقضايا
بقضية
بقطر
بقطع
بقع
بقعة
بقلب
بقلبه
بقلم
بقليل
بقوا
بقوات
بقوة
بقول
بقوله
بقولهم
بقوم
بقى
بقي
بقيادة
بقياس
بقية
بقيت
بقيمة
بقين
بك
بكا
بكاء
بكار
بكافة
بكالوريوس
بكامل
بكتاب
بكتابة
بكتابه
بكتيريا
بكثافة
بكثرة
بكثير
بكذا
بكر
بكرة
بكسر
بكسل
بكفاءة
بكل
بكلام
بكلمات
بكلمة
بكلية
بكم
بكميات
بكندا
بكوفيد
بكون
بكونه
بكونها
بكى
بكي
بكير
بكيفية
بكين
بل
بلا
بلاء
بلاتا
بلاد
بلادنا
بلاده
بلادها
بلادهم
بلادي
بلازا
بلازما
بلاط
بلاغ
بلاك
بلاكبول
بلاكبيرن
بلال
بلالا
بلانك
بلاي
بلة
بلجيكا
بلجيكي
بلجيكية
بلجيكيون
بلخ
بلد
بلدا
بلدات
بلدان
بلدة
بلده
بلدي
بلديات
بلدية
بلس
بلسان
بلسانه
بلغ
بلغات
بلغاري
بلغاريا
بلغاريون
بلغة
بلغت
بلغته
بلغراد
بلغنا
بلغني
بلغه
بلغوا
بلفاست
بلفظ
بلفور
بلقب
بلندن
بلنسية
بله
بلو
بلوتو
بلورات
بلوز
بلوس
بلوغ
بلوغه
بلوك
بلوم
بلون
بلى
بلي
بليت
بلير
بليز
بليس
بليغ
بليك
بليموث
بم
بما
بماء
بمال
بماله
بماي
بمبادرة
بمبلغ
بمتلازمة
بمتوسط
بمثابة
بمثل
بمثله
بمثلها
بمجال
بمجرد
بمجلس
بمجموع
بمجموعة
بمحافظة
بمحاولة
بمحرك
بمحركات
بمحمد
بمختلف
بمدرسة
بمدى
بمديرية
بمدينة
بمراجعة
بمراقبة
بمرسوم
بمرض
بمركز
بمرور
بمزيد
بمساحة
بمساعدة
بمسافة
بمستوى
بمسجد
بمشاركة
بمشروع
بمشيي
بمصادر
بمصر
بمعدل
بمعرفة
بمعناه
بمعنى
بمعهد
بمغادرة
بمفرده
بمفردها
بمقاطعة
بمقتضى
بمقتل
بمقدار
بمكان
بمكة
بملك
بممارسة
بمن
بمناسبة
بمنح
بمنزلة
بمنصب
بمنطقة
بمنع
بمنى
بمهاجمة
بمهام
بمهمة
بمو
بموافقة
بموت
بموجب
بموجبه
بموجبها
بموضوع
بموقع
بمي
بميداليات
بميدالية
بن
بنا
بناء
بناءا
بناءه
بناءها
بنات
بناته
بنادق
بنادي
بناه
بناها
بناو
بناي
بنة
بنت
بنتاي
بنته
بنتيجة
بنجاح
بنجامين
بنحو
بنحوه
بند
بندار
بندر
بندقية
بنز
بنزين
بنسب
بنسبة
بنسلفانيا
بنسيلفانيا
بنشاط
بنشر
بنص
بنصف
بنظام
بنظرية
بنغازي
بنغال
بنغلاديش
بنفس
بنفسك
بنفسه
بنفسها
بنفسي
بنفي
بنفيكا
بنقص
بنقل
بنك
بنما
بنميون
بنه
بنهاية
بنو
بنوا
بنود
بنور
بنوع
بنوك
بنى
بني
بنيامين
بنية
بنيت
بنين
بنيه
بنيويورك
به
بها
بهاء
بهام
بهجة
بهجت
بهجوم
بهدف
بهدفين
بهدوء
بهذا
بهذه
بهر
بهرام
بهري
بهز
بهزيمة
بهلول
بهلوي
بهم
بهما
بهن
بهو
بهيي
بو
بوا
بواب
بوابات
بوابة
بوابه
بوابها
بواحد
بواحدة
بوادي
بواسطة
بواقع
بوب
بوبكر
بوبي
بوة
بوت
بوتان
بوتر
بوتسوانا
بوتو
بوتين
بوجه
بوجهه
بوجوب
بوجود
بوحدة
بوخارست
بود
بودابست
بوذا
بوذية
بور
بوربون
بورت
بورتر
بورتريه
بورتسموث
بورتلاند
بورتو
بورتوريكو
بورتوريكيون
بوردو
بورسعيد
بورصة
بورقيبة
بورك
بوركينا
بورما
بورن
بورنموث
بورنيو
بوروسيا
بوروندي
بوري
بوريس
بوزارة
بوزن
بوزيد
بوس
بوساطة
بوسان
بوساي
بوست
بوسط
بوسطن
بوسني
بوسنيون
بوش
بوصات
بوصة
بوصف
بوصفه
بوصفها
بوضع
بوضوح
بوظبي
بوغوتا
بوفاة
بوفالو
بوفون
بوق
بوقت
بوقف
بوك
بوكا
بوكر
بوكس
بوكيمون
بول
بولا
بولاية
بولتون
بولز
بولس
بولندا
بولندي
بولندية
بولنديون
بولو
بولونيا
بولي
بوليا
بوليتزر
بوليفار
بوليفيا
بوليفيون
بولين
بوليوود
بوم
بومباي
بومرداس
بون
بونا
بونابرت
بوند
بوندستاغ
بوني
بوه
بوها
بوهيميا
بوي
بويبلا
بوية
بويد
بوير
بويز
بويل
بوين
بوينت
بوينس
بوينغ
بويه
بى
بي
بيا
بيات
بياتريس
بيار
بياض
بيان
بيانا
بيانات
بيانه
بيانو
بياني
بيب
بيبرس
بيبي
بية
بيت
بيتا
بيتر
بيترز
بيترسون
بيترو
بيتس
بيتسبرغ
بيتش
بيتك
بيته
بيتها
بيتي
بيث
بيج
بيجو
بيح
بيد
بيدرو
بيده
بيدي
بيديه
بير
بيرت
بيرث
بيرد
بيرز
بيرس
بيرسون
بيرسي
بيرغ
بيرك
بيركلي
بيرل
بيرم
بيرن
بيرنلي
بيرو
بيروت
بيروفي
بيروفيون
بيرون
بيري
بيريرا
بيريز
بيزا
بيزنطيون
بيس
بيساو
بيستونز
بيشوب
بيض
بيضاء
بيضة
بيع
بيعة
بيعت
بيعه
بيعها
بيغ
بيفرلي
بيك
بيكتشرز
بيكر
بيكو
بيكون
بيل
بيلا
بيلاروسيا
بيلاروسيون
بيلباو
بيلبورد
بيلو
بيلي
بيمينه
بين
بينا
بينة
بينت
بينغ
بينك
بينكم
بينما
بيننا
بينه
بينها
بينهم
بينهما
بينهن
بيني
بينيت
بيه
بيها
بيهار
بيهم
بيو
بيوت
بيوتهم
بيوس
بيولوجي
بيولوجية
بيوم
بيي
بيير
بييمونتي
ة
ت
تا
تاء
تاب
تابع
تابعا
تابعة
تابعه
تابعي
تابوت
تاتورك
تاج
تاجر
تاح
تاحة
تارة
تارك
تاركا
تاركة
تارودانت
تاري
تاريخ
تاريخه
تاريخها
تاريخي
تاريخيا
تاريخية
تازة
تاشفين
تافيلالت
تاك
تاكاما
تاكاو
تاكر
تاكسونوميكون
تال
تالين
تام
تاما
تامبا
تامة
تامر
تاميل
تان
تانا
تانغ
تاني
تاه
تاهم
تاو
تاون
تاونات
تاي
تايب
تايبيه
تايجرز
تايكوندو
تايلاند
تايلر
تايلور
تايم
تايمز
تاين
تايوان
تايوانيون
تب
تبادل
تبارك
تباع
تباعه
تباعها
تباعهم
تباين
تبة
تبت
تبث
تبحث
تبدا
تبدل
تبدو
تبديل
تبرا
تبرز
تبرع
تبري
تبريد
تبرير
تبريز
تبسيط
تبطل
تبع
تبعا
تبعت
تبعث
تبعد
تبعه
تبعها
تبق
تبقى
تبكي
تبلغ
تبليسي
تبن
تبنت
تبنى
تبني
تبوك
تبي
تبيع
تبين
تة
تت
تتا
تتابع
تتبع
تتبعها
تتبنى
تتجاوز
تتجلى
تتجمع
تتجه
تتحدث
تتحرك
تتحقق
تتحكم
تتحمل
تتحول
تتخذ
تتداخل
تتدخل
تتدفق
تتراوح
تترجم
تتردد
تترك
تتركز
تتزوج
تتسبب
تتسع
تتسم
تتشابه
تتشكل
تتصرف
تتصل
تتضمن
تتطلب
تتطور
تتعارض
تتعامل
تتعدى
تتعرض
تتعلق
تتغذى
تتغير
تتفاعل
تتفق
تتقدم
تتكرر
تتكلم
تتكون
تتلقى
تتلمذ
تتم
تتمة
تتمتع
تتمثل
تتمحور
تتمكن
تتميز
تتناسب
تتنافس
تتناول
تتنوع
تتواجد
تتوافر
تتوافق
تتوزع
تتوفر
تتوقع
تتوقف
تتولى
تتويج
تتيح
تثبت
تثبيت
تثبيط
تثير
تجار
تجارب
تجاربه
تجارة
تجاري
تجاريا
تجارية
تجاه
تجاهل
تجاوز
تجاوزت
تجب
تجتمع
تجد
تجدد
تجده
تجديد
تجذب
تجر
تجربة
تجربته
تجرى
تجري
تجريبي
تجريبية
تجريد
تجريم
تجزي
تجسد
تجسس
تجسيد
تجعل
تجعله
تجعلها
تجلب
تجلس
تجلى
تجمع
تجمعات
تجميد
تجميع
تجميعها
تجميل
تجنب
تجنيد
تجهيز
تجوز
تجويف
تح
تحاد
تحافظ
تحالف
تحالفات
تحاول
تحب
تحت
تحتاج
تحتفظ
تحتفل
تحتل
تحتمل
تحته
تحتها
تحتوى
تحتوي
تحتية
تحد
تحدث
تحدثت
تحدد
تحدها
تحدى
تحدي
تحديات
تحديث
تحديد
تحديدا
تحديده
تحديدها
تحذف
تحذير
تحر
تحرر
تحرك
تحركات
تحركت
تحرم
تحرير
تحريرها
تحريض
تحريف
تحريك
تحريم
تحس
تحسب
تحسن
تحسنت
تحسين
تحسينات
تحصل
تحصى
تحصيل
تحصينات
تحضر
تحضير
تحطم
تحطمت
تحطيم
تحظر
تحظى
تحف
تحفة
تحفز
تحفظ
تحفيز
تحقق
تحققت
تحقيق
تحقيقا
تحقيقات
تحقيقه
تحقيقها
تحكم
تحكي
تحكيم
تحل
تحلق
تحلل
تحليل
تحليلية
تحمل
تحمله
تحملها
تحمي
تحميل
تحو
تحول
تحولت
تحولوا
تحوي
تحويل
تحويلات
تحويلة
تحويله
تحويلها
تحي
تحياتي
تحية
تحيز
تحيط
تخالف
تخبر
تختار
تختص
تختفي
تختلف
تخدم
تخذ
تخرج
تخرجت
تخرجه
تخريب
تخريج
تخزين
تخشى
تخص
تخصص
تخصصات
تخصيص
تخضع
تخطط
تخطي
تخطيط
تخفيض
تخفيف
تخل
تخلت
تخلص
تخلف
تخلق
تخلو
تخلى
تخليق
تخيل
تد
تدابير
تداخل
تدار
تداعيات
تدافع
تداول
تدبر
تدبير
تدخل
تدر
تدرب
تدرج
تدرس
تدرك
تدرون
تدري
تدريب
تدريبات
تدريبه
تدريبية
تدريجي
تدريجيا
تدريس
تدع
تدعم
تدعو
تدعى
تدعي
تدفع
تدفق
تدقيق
تدل
تدمر
تدمير
تدهور
تدهورت
تدور
تدوم
تدوير
تدوين
تدير
تديرها
تدين
تذاكر
تذكاري
تذكارية
تذكر
تذكرة
تذهب
تر
ترا
تراب
ترابط
تراث
تراجع
تراجعت
تراجم
تراخيص
تراقب
تراك
تراكم
ترامب
تراه
تراها
ترايل
تربة
تربط
تربطها
تربية
ترتب
ترتبط
ترتدي
ترتفع
ترتكز
ترتيب
ترتيبات
ترتيبها
ترجع
ترجم
ترجمات
ترجمة
ترجمت
ترجمته
ترجمتها
ترجمه
ترجمها
ترجيح
ترحيل
ترخيص
ترد
تردد
ترددات
ترسل
ترسيخ
ترسيم
ترشح
ترشيح
ترشيحات
ترشيحه
ترشيحها
ترضى
ترعى
ترغب
ترفض
ترفع
ترفيه
ترفيهية
ترفيهيون
ترقى
ترقية
ترقيته
ترك
تركت
تركته
تركز
تركزت
تركستان
تركمانستان
تركنا
تركه
تركها
تركوا
تركي
تركيا
تركيات
تركيب
تركيبة
تركيبها
تركية
تركيز
تركيزات
ترمز
ترمي
ترميز
ترميم
تروا
ترومان
ترون
تروي
ترويج
ترى
تري
تريد
تريدون
تريفور
تريليون
تريم
ترينت
ترينيتي
ترينيداد
تزال
تزامن
تزايد
تزداد
تزرع
تزعم
تزل
تزلج
تزن
تزو
تزوج
تزوجت
تزوجها
تزود
تزول
تزويد
تزوير
تزيد
تزيين
تسا
تسارع
تساعد
تسافر
تساقط
تساهم
تساو
تساوي
تسب
تسبب
تسببت
تسببها
تسبق
تستا
تستجيب
تستحق
تستخدم
تستخدمه
تستخدمها
تستدعي
تستضيف
تستضيفها
تستطع
تستطيع
تستعمل
تستغرق
تستفيد
تستقبل
تستقر
تستلزم
تستمد
تستمر
تستند
تستهدف
تستهلك
تستوفي
تسجل
تسجيل
تسجيلات
تسجيله
تسجيلها
تسخين
تسرب
تسريع
تسع
تسعة
تسعى
تسعين
تسعينيات
تسقط
تسكن
تسل
تسلا
تسلسل
تسلق
تسلل
تسلم
تسليط
تسليم
تسليمه
تسليمها
تسم
تسمانيا
تسمح
تسمع
تسمم
تسمى
تسمي
تسميات
تسمية
تسميته
تسميتها
تسهل
تسهم
تسهيل
تسود
تسوق
تسوية
تسويق
تسي
تسير
تسيطر
تسيير
تش
تشاء
تشابل
تشابلن
تشابه
تشاد
تشارك
تشارلتون
تشارلز
تشارلستون
تشارلي
تشاك
تشان
تشانغ
تشاو
تشبه
تشبيه
تشتت
تشترك
تشتمل
تشتهر
تشجع
تشجيع
تشخيص
تشرح
تشرشل
تشرف
تشريح
تشريع
تشريعات
تشريعية
تشرين
تشستر
تشعر
تشغل
تشغيل
تشغيله
تشغيلها
تشفير
تشك
تشكل
تشكلت
تشكيل
تشكيلات
تشكيلة
تشكيله
تشكيلها
تشمل
تشن
تشهد
تشو
تشونغ
تشوه
تشوهات
تشوي
تشويه
تشي
تشيبا
تشير
تشيس
تشيستر
تشيسترفيلد
تشيك
تشيكوسلوفاكيا
تشيكي
تشيكيون
تشيلسي
تشيلي
تشيليون
تشين
تشيناي
تشينغ
تشيه
تشييد
تصادم
تصاعد
تصال
تصاميم
تصانيف
تصب
تصبح
تصح
تصحيح
تصدر
تصدرت
تصدرها
تصدق
تصدير
تصديق
تصر
تصرف
تصرفات
تصرفه
تصريح
تصريحات
تصريف
تصغير
تصف
تصفح
تصفيات
تصفية
تصل
تصلب
تصلح
تصلي
تصميم
تصميمات
تصميمه
تصميمها
تصنع
تصنف
تصنيع
تصنيعها
تصنيف
تصنيفات
تصنيفه
تصنيفها
تصور
تصوره
تصويب
تصويت
تصوير
تصويره
تصويرها
تصويرية
تصيب
تصير
تضارب
تضاريس
تضاعف
تضاف
تضخم
تضر
تضرب
تضرر
تضررت
تضع
تضعف
تضم
تضمن
تضمنت
تضمين
تضيف
تضيق
تطابق
تطالب
تطبق
تطبيق
تطبيقات
تطبيقه
تطبيقها
تطرح
تطل
تطلب
تطلع
تطلق
تطهر
تطهير
تطو
تطوان
تطور
تطورا
تطورات
تطورت
تطورها
تطوع
تطوير
تطويره
تطويرها
تطير
تظاهر
تظل
تظن
تظهر
تعادل
تعارض
تعاطي
تعافى
تعاقب
تعال
تعالج
تعالى
تعاليم
تعامل
تعاني
تعاون
تعاونت
تعاونية
تعب
تعبد
تعبر
تعبي
تعبير
تعتبر
تعترف
تعتقد
تعتمد
تعجب
تعد
تعداد
تعدادي
تعدد
تعدل
تعديل
تعديلات
تعديله
تعديلها
تعدين
تعذر
تعذيب
تعر
تعرض
تعرضت
تعرضه
تعرضها
تعرضوا
تعرف
تعرفه
تعريب
تعريض
تعريف
تعريفات
تعريفه
تعريفها
تعز
تعزز
تعزيز
تعزيزات
تعطل
تعطى
تعطي
تعطيل
تعظيم
تعقب
تعقد
تعقيد
تعقيدا
تعكس
تعل
تعلق
تعلم
تعلمت
تعلمه
تعلموا
تعلمون
تعلن
تعلو
تعليق
تعليقات
تعليل
تعليم
تعليمات
تعليمه
تعليمها
تعليمهم
تعليمي
تعليمية
تعم
تعمد
تعمل
تعملون
تعميم
تعنى
تعني
تعهد
تعود
تعويض
تعويضات
تعيد
تعيش
تعين
تعيين
تعيينه
تعيينها
تغادر
تغذية
تغطي
تغطية
تغلب
تغلق
تغني
تغي
تغيب
تغير
تغيرات
تغيرت
تغيير
تغييرات
تغييره
تفاصيل
تفاعل
تفاعلات
تفاعلية
تفاق
تفاقم
تفاقية
تفاهم
تفاوت
تفتح
تفترض
تفتقر
تفتيش
تفجير
تفجيرات
تفر
تفرد
تفرز
تفرض
تفرغ
تفرق
تفريغ
تفريق
تفسد
تفسر
تفسير
تفسيرا
تفسيرات
تفسيره
تفسيرها
تفشل
تفشي
تفصل
تفصيل
تفصيلا
تفضل
تفضيل
تفعل
تفعله
تفعيل
تفق
تفقد
تفكر
تفكك
تفكير
تفكيك
تفهم
تفوز
تفوق
تفويض
تفي
تفيد
تقابل
تقاتل
تقارب
تقارير
تقاس
تقاسم
تقاطع
تقاعد
تقاعده
تقاليد
تقام
تقان
تقانة
تقبل
تقترب
تقترح
تقتصر
تقتضي
تقتل
تقد
تقدر
تقدم
تقدما
تقدمت
تقدمه
تقدمها
تقدموا
تقدير
تقديرا
تقديرات
تقديره
تقديم
تقديمه
تقديمها
تقر
تقرا
تقرب
تقرر
تقريب
تقريبا
تقرير
تقريرا
تقريره
تقريرها
تقسم
تقسيم
تقسيمات
تقسيمها
تقصد
تقصير
تقضي
تقطع
تقطن
تقطيع
تقع
تقف
تقل
تقلب
تقلد
تقلص
تقلل
تقليد
تقليدي
تقليديا
تقليدية
تقليص
تقليل
تقم
تقمص
تقن
تقني
تقنيات
تقنية
تقنين
تقود
تقول
تقولوا
تقولون
تقوم
تقوى
تقوية
تقويم
تقي
تقيد
تقيم
تقييد
تقييم
تقييمات
تقييمها
تك
تكاثر
تكاد
تكافو
تكاليف
تكامل
تكبير
تكتب
تكتسب
تكتشف
تكتل
تكتمل
تكتيكات
تكثر
تكذيب
تكرار
تكرر
تكره
تكريت
تكريم
تكريما
تكريمه
تكساس
تكشف
تكفل
تكفي
تكفير
تكلف
تكلفة
تكلم
تكليف
تكم
تكمل
تكملة
تكمن
تكن
تكنولوجيا
تكو
تكون
تكونت
تكونوا
تكوين
تكوينها
تكييف
تل
تلا
تلاف
تلال
تلاميذ
تلاميذه
تلانتا
تلاه
تلاها
تلاوة
تلبث
تلبس
تلبي
تلبية
تلة
تلت
تلتزم
تلتقي
تلتها
تلتيك
تلتيكو
تلحق
تلخيص
تلد
تلزم
تلسكوب
تلعب
تلغراف
تلف
تلفاز
تلفت
تلفزيون
تلفزيوني
تلفزيونية
تلفظ
تلق
تلقاء
تلقاي
تلقت
تلقوا
تلقى
تلقي
تلك
تلمسان
تلميذ
تلميذه
تلو
تلوا
تلوث
تلي
تليتيكو
تليها
تم
تماثل
تماثيل
تمارس
تمام
تماما
تمان
تمت
تمتاز
تمتة
تمتد
تمتص
تمتع
تمتعت
تمتلك
تمث
تمثال
تمثل
تمثلت
تمثيل
تمثيلية
تمد
تمدد
تمديد
تمر
تمرا
تمرات
تمرد
تمردات
تمركز
تمرير
تمرين
تمزق
تمس
تمسك
تمشي
تمضي
تمك
تمكن
تمكنت
تمكنه
تمكنوا
تمكين
تملا
تملك
تملكها
تمن
تمنح
تمنع
تمنى
تمهيد
تموت
تموز
تمويل
تمي
تميز
تميزت
تميل
تميم
تمييز
تن
تنا
تنازع
تنازل
تناسب
تنافس
تنافسية
تناقش
تناقص
تناقض
تنال
تنام
تناول
تناولت
تناوله
تناولها
تنبا
تنبت
تنبع
تنبو
تنبيه
تنتج
تنتجها
تنتشر
تنتظر
تنتقد
تنتقل
تنتمي
تنتهك
تنتهي
تنجح
تنحدر
تنخفض
تندرج
تنزانيا
تنزل
تنزيل
تنس
تنسب
تنسى
تنسيق
تنشا
تنشر
تنشط
تنشي
تنشيط
تنص
تنصيب
تنضم
تنطبق
تنطق
تنطلق
تنطوي
تنظر
تنظم
تنظيف
تنظيم
تنظيمه
تنظيمها
تنظيمية
تنفذ
تنفس
تنفع
تنفق
تنفي
تنفيذ
تنفيذه
تنفيذها
تنفيذي
تنفيذية
تنفيذيون
تنقسم
تنقص
تنقطع
تنقل
تنقية
تنقيح
تنكح
تنكر
تنمو
تنمية
تنوع
تني
ته
تها
تهاجم
تهامة
تهب
تهتم
تهدد
تهدف
تهدي
تهديد
تهديدا
تهديدات
تهذيب
تهريب
تهم
تهمة
تهيمن
تهيي
تو
توا
تواتر
تواجد
تواجده
تواجه
تواريخ
توازن
تواصل
توافر
توافق
توالت
تواي
توب
توبة
توت
توتر
توتنهام
توثيق
توج
توجب
توجت
توجد
توجه
توجهت
توجيه
توجيهات
توحي
توحيد
تود
تور
تورط
تورنتو
تورنر
تورو
تورونتو
توري
توريس
تورينو
توزع
توزيع
توزيعها
توس
توسع
توسعة
توسعت
توسكانا
توسيع
توصف
توصل
توصلت
توصي
توصيات
توصية
توصيل
توضا
توضح
توضع
توضيح
توضيحي
توضيحية
توضيحيون
توطين
توظيف
توغو
توف
توفالو
توفر
توفرها
توفوا
توفى
توفي
توفيت
توفير
توفيق
توق
توقع
توقعات
توقف
توقفت
توقيت
توقيع
توك
تول
تولت
تولد
تولوا
تولوز
تولى
تولي
توليد
توليدو
توليه
توم
توما
توماس
تومسون
تومي
تون
تونس
تونسي
تونسية
تونسيون
تونغ
تونغا
توني
توه
توهم
تويتر
تويوتا
تى
تي
تيا
تيار
تيارات
تيان
تيانجين
تية
تيت
تيتان
تيته
تيتو
تيد
تيرا
تيرانا
تيرنر
تيري
تيريزا
تيزنيت
تيزي
تيسر
تيسير
تيك
تيم
تيموثي
تيمور
تيمورلنك
تيمية
تين
تينا
تيني
تينيسي
تيه
تيها
تيهم
تيودور
ث
ثا
ثابت
ثابتا
ثابتة
ثاث
ثار
ثارة
ثارت
ثاره
ثارها
ثارهم
ثالث
ثالثا
ثالثة
ثام
ثامن
ثان
ثانوي
ثانوية
ثاني
ثانيا
ثانية
ثاي
ثب
ثبات
ثباته
ثباتها
ثبت
ثبتت
ثبته
ثبتوا
ثبوت
ثدييات
ثر
ثرا
ثراء
ثرات
ثرة
ثرت
ثرم
ثره
ثرها
ثروا
ثروة
ثروت
ثروته
ثرون
ثري
ثريا
ثرياء
ثرية
ثرين
ثعبان
ثعلب
ثعلبة
ثقات
ثقافات
ثقافة
ثقافي
ثقافيا
ثقافية
ثقال
ثقب
ثقة
ثقل
ثقوب
ثقيف
ثقيل
ثقيلة
ثل
ثلاث
ثلاثا
ثلاثة
ثلاثماي
ثلاثون
ثلاثي
ثلاثية
ثلاثين
ثلاثينيات
ثلتيك
ثلث
ثلثي
ثلجية
ثليتيك
ثم
ثما
ثمار
ثمامة
ثمان
ثماني
ثمانية
ثمانين
ثمانينيات
ثمانيين
ثمة
ثمر
ثمرة
ثمن
ثمنا
ثمنه
ثمنها
ثنا
ثناء
ثناو
ثناي
ثنتين
ثنى
ثني
ثنية
ثنين
ثواب
ثوار
ثوان
ثوب
ثوبا
ثوبان
ثوبه
ثور
ثورات
ثورة
ثورية
ثوم
ثياب
ثيابه
ثير
ثيرا
ثيرات
ثيره
ثيرها
ثينا
ثيوبي
ثيوبيا
ثيوبية
ثيودور
ج
جا
جاء
جاءت
جاءك
جاءكم
جاءنا
جاءني
جاءه
جاءهم
جاءوا
جاب
جابات
جابة
جابر
جابه
جاد
جادة
جادل
جاذبية
جار
جارة
جاره
جاري
جارية
جاز
جازات
جازان
جازة
جازت
جازه
جاستن
جاسم
جاف
جافا
جافة
جاك
جاكرتا
جاكسون
جاكسونفيل
جاكلين
جاكوب
جاكي
جال
جالس
جالسا
جالوت
جالينوس
جام
جاما
جامايكا
جامايكي
جامايكيون
جامع
جامعات
جامعة
جامعي
جامعية
جامو
جان
جانب
جانبا
جانبه
جانبها
جانبي
جانبية
جاندام
جانفي
جانيت
جانيرو
جاه
جاهد
جاهز
جاهزة
جاهل
جاو
جاوة
جاوز
جاي
جايسون
جاينتس
جب
جبار
جباري
جبال
جبر
جبران
جبراي
جبرت
جبروا
جبريل
جبل
جبلة
جبلي
جبلية
جبن
جبهة
جبير
جبيل
جة
جت
جتماعي
جتماعية
جتمع
جثة
جثته
جثث
جثمانه
جحا
جحش
جد
جدا
جداد
جداده
جدار
جدال
جداول
جدة
جدت
جدته
جدد
جدر
جدران
جدل
جدلا
جده
جدها
جدول
جدوى
جدي
جدية
جديد
جديدا
جديدة
جدير
جديرة
جذابة
جذب
جذبت
جذر
جذري
جذرية
جذع
جذور
جذورها
جر
جرا
جراء
جراءات
جراح
جراحة
جراحي
جراحية
جرار
جراس
جرام
جرامي
جرامية
جرانت
جراند
جراه
جراها
جراو
جراي
جرب
جربة
جرة
جرت
جرته
جرتها
جرجس
جرح
جرد
جرش
جرعات
جرعة
جرم
جره
جرها
جرهم
جروا
جرونفيلد
جرى
جري
جريان
جريت
جريج
جريح
جريدة
جرير
جريمة
جرين
جرينلاند
جريي
جز
جزء
جزءا
جزا
جزاء
جزاو
جزاي
جزر
جزم
جزي
جزيء
جزيرة
جزيل
جزيلا
جزيي
جساد
جسام
جسد
جسده
جسدها
جسدي
جسدية
جسر
جسم
جسما
جسمه
جسمها
جسور
جسيم
جسيمات
جسيمة
جعفر
جعل
جعلت
جعلته
جعلنا
جعله
جعلها
جعلهم
جعلوا
جغرافي
جغرافيا
جغرافية
جـ
جفاف
جل
جلا
جلاء
جلال
جلالة
جلاله
جلب
جلبت
جلة
جلت
جلجامش
جلد
جلدة
جلده
جلدي
جلدية
جلس
جلسات
جلسة
جلست
جله
جلها
جلود
جلوس
جلي
جليا
جليد
جليل
جليلة
جم
جمادى
جماع
جماعا
جماعات
جماعة
جماعي
جماعية
جمال
جمالا
جمالها
جمالي
جمالية
جماهير
جماهيري
جمباز
جمة
جمجمة
جمرة
جمع
جمعا
جمعة
جمعت
جمعه
جمعها
جمعهم
جمعوا
جمعيات
جمعية
جمعين
جمل
جملة
جمهرة
جمهور
جمهوري
جمهوريات
جمهورية
جمهوريون
جموع
جميع
جميعا
جميعه
جميعها
جميعهم
جميل
جميلا
جميلة
جن
جنات
جناح
جناد
جنادة
جنازة
جنازته
جناس
جناي
جناية
جنب
جنبا
جنبه
جنبي
جنبية
جنة
جنحة
جند
جندب
جندة
جنده
جندي
جنديا
جنرال
جنرالات
جنس
جنسه
جنسي
جنسيا
جنسية
جنكيز
جنو
جنوب
جنوبا
جنوبي
جنوبيات
جنوبية
جنوبيون
جنوة
جنود
جنوده
جنون
جنوى
جنى
جني
جنيف
جنين
جنيه
جه
جها
جهات
جهاد
جهاز
جهاض
جهة
جهته
جهد
جهدا
جهده
جهز
جهزة
جهل
جهله
جهم
جهنم
جهود
جهوده
جهودها
جهينة
جو
جوا
جواء
جواب
جوابا
جوابه
جواد
جوار
جواز
جوازات
جواسيس
جوان
جوانا
جوانب
جواهر
جواو
جواي
جوبة
جوج
جوجل
جود
جودة
جودو
جودي
جوديث
جور
جورا
جورج
جورجتاون
جورجي
جورجيا
جوردان
جوردن
جوردون
جورنال
جوز
جوزيبي
جوزيف
جوزيه
جوسون
جوش
جوشوا
جوع
جوف
جوقة
جول
جولات
جولة
جولد
جولي
جوليا
جوليان
جون
جوناثان
جونز
جونستون
جونسون
جونغ
جوني
جونيور
جونيورز
جوهانس
جوهانسبرغ
جوهر
جوهري
جوهرية
جوي
جوية
جويرية
جويس
جويل
جويلية
جي
جيء
جيال
جيان
جيب
جيبسون
جيبوتي
جيت
جيجا
جيد
جيدا
جيدة
جير
جيرارد
جيرالد
جيرسي
جيرليز
جيرمان
جيروم
جيري
جيريمي
جيسون
جيسي
جيسيكا
جيش
جيشا
جيشه
جيف
جيفرسون
جيفري
جيفيرسون
جيك
جيل
جيلبرت
جيم
جيمس
جيمي
جين
جينا
جينات
جينوم
جيني
جينية
جينيفر
جيه
جيهان
جيوش
جيوفاني
جيولوجي
جيولوجيا
جيولوجية
جيولوجيون
ح
حا
حاب
حات
حاتم
حاج
حاجات
حاجب
حاجة
حاجته
حاجز
حاجي
حاخامات
حاد
حادة
حادث
حادثة
حادي
حادية
حاديث
حاديثه
حار
حارات
حارب
حارة
حارثة
حارس
حاز
حازت
حازم
حازوا
حاسة
حاسم
حاسمة
حاسوب
حاسوبية
حاسيس
حاشية
حاصر
حاصل
حاصلة
حاصلون
حاضر
حاضرا
حاضرة
حاط
حاطب
حاطة
حاطت
حافة
حافظ
حافظا
حافظة
حافظت
حافلات
حافلة
حافير
حاكم
حاكما
حاكمة
حال
حالا
حالات
حالة
حالت
حالته
حالتها
حالتين
حاله
حالها
حالهم
حالي
حاليا
حام
حامد
حامض
حامل
حاملا
حاملات
حاملة
حاملي
حامية
حان
حانة
حاول
حاولت
حاولوا
حاويات
حاوية
حاي
حب
حبا
حباب
حبار
حباط
حبان
حببت
حبة
حبس
حبسه
حبك
حبل
حبه
حبها
حبوب
حبي
حبيب
حبيبات
حبيبة
حبيبته
حبيبي
حبيش
حبيل
حة
حت
حتفهم
حتما
حتمل
حتى
حتي
حث
حج
حجاب
حجاج
حجار
حجارة
حجازي
حجام
حجب
حجة
حجته
حجج
حجر
حجرا
حجرة
حجري
حجرية
حجز
حجم
حجما
حجمه
حجمها
حد
حدا
حداث
حداثة
حداثه
حداثها
حداثيات
حداد
حداها
حداهما
حداي
حدب
حدة
حدث
حدثا
حدثت
حدثك
حدثنا
حدثناه
حدثني
حدثه
حدثهم
حدد
حددت
حدكم
حدنا
حده
حدها
حدهم
حدهما
حدوث
حدوثه
حدوثها
حدود
حدوده
حدودها
حدودية
حدى
حدي
حديث
حديثا
حديثة
حديثه
حديثي
حديد
حديدية
حديقة
حذر
حذف
حذفت
حذفه
حذفها
حذية
حذيفة
حر
حرا
حراج
حرار
حرارة
حراري
حرارية
حراز
حراس
حراسة
حراق
حرام
حراما
حرامه
حران
حراي
حرب
حربا
حربي
حربية
حرة
حرج
حرجة
حرر
حرز
حرس
حرص
حرف
حرفا
حرفة
حرفي
حرفيا
حرق
حرقت
حركات
حركة
حركته
حركتها
حركية
حرم
حرمان
حرمة
حرمت
حرملة
حرمه
حروب
حروف
حرى
حرية
حريث
حرير
حريق
حزاب
حزام
حزان
حزب
حزبه
حزبيا
حزقيال
حزم
حزمة
حزن
حزيران
حس
حساء
حساب
حسابات
حسابه
حسابها
حساس
حساسة
حساسية
حسام
حسان
حسانه
حساي
حسب
حسبما
حسبه
حسم
حسن
حسنا
حسنات
حسنة
حسنت
حسنه
حسنها
حسنوا
حسني
حسنين
حسون
حسين
حشاء
حشد
حشرات
حشرة
حص
حصاء
حصاءات
حصاد
حصار
حصان
حصانا
حصاها
حصاي
حصة
حصته
حصد
حصر
حصري
حصرية
حصص
حصل
حصلت
حصلوا
حصن
حصنة
حصول
حصوله
حصولها
حصون
حصى
حصيلة
حصين
حضار
حضارات
حضارة
حضانة
حضر
حضرة
حضرت
حضرته
حضرموت
حضره
حضرها
حضروا
حضرية
حضور
حضوره
حط
حطام
حظ
حظا
حظر
حظرت
حظه
حظي
حظيت
حظيرة
حف
حفاد
حفاظ
حفر
حفرة
حفريات
حفص
حفصة
حفظ
حفظت
حفظه
حفظها
حفل
حفلات
حفلة
حفوري
حفورية
حفيد
حفيده
حق
حقا
حقاي
حقبة
حقق
حققت
حققه
حققها
حقل
حقن
حقه
حقها
حقهم
حقوق
حقوقه
حقوقها
حقوقهم
حقوقيون
حقول
حقي
حقيبة
حقيقة
حقيقته
حقيقي
حقيقيا
حقيقية
حك
حكام
حكامه
حكامها
حكاه
حكايات
حكاية
حكم
حكما
حكمة
حكمت
حكمته
حكمه
حكمها
حكمهم
حكموا
حكومات
حكومة
حكومته
حكومي
حكومية
حكى
حكي
حكيم
حل
حلا
حلال
حلالا
حلام
حلاوة
حلب
حلبة
حلة
حلت
حلزونية
حلف
حلفاء
حلفاي
حلق
حلقات
حلقة
حلقت
حلقي
حلقية
حلم
حلمي
حله
حلها
حلو
حلوان
حلوة
حلول
حلوى
حلى
حليب
حليف
حليل
حليم
حليمة
حم
حماة
حماد
حمادة
حمادي
حمار
حماس
حماض
حمال
حمام
حمامات
حمامة
حماية
حمايتها
حمد
حمدان
حمده
حمدي
حمدية
حمر
حمراء
حمزة
حمص
حمض
حمق
حمل
حملات
حملة
حملت
حملته
حمله
حملها
حملوا
حمو
حمود
حمودة
حمولة
حمى
حمية
حميد
حميدة
حمير
حن
حنا
حنان
حنبعل
حنبل
حنث
حنطة
حنظلة
حنف
حنيف
حنيفة
حنين
حه
حو
حواء
حواجز
حوادث
حوار
حواسيب
حواض
حواف
حوال
حواله
حوالهم
حوالى
حوالي
حواي
حوت
حوج
حور
حوران
حورس
حوسبة
حوشب
حوص
حوض
حول
حولت
حوله
حولها
حولهم
حولي
حى
حي
حيا
حياء
حياة
حياتك
حياتنا
حياته
حياتها
حياتهم
حياتي
حيادية
حيازة
حيال
حيان
حيانا
حياي
حية
حيت
حيث
حيثما
حيدر
حيرة
حيز
حيض
حيط
حيفا
حيل
حيلة
حين
حينا
حينذاك
حينما
حينها
حيني
حيوان
حيوانات
حيوانية
حيوة
حيوي
حيويات
حيوية
حيي
خ
خا
خاء
خاتم
خاتمة
خاتون
خادم
خادمة
خارج
خارجا
خارجة
خارجها
خارجي
خارجية
خارطة
خارق
خارقة
خاركيف
خازم
خاص
خاصا
خاصة
خاصية
خاض
خاضت
خاضع
خاضعة
خاطب
خاطر
خاطي
خاف
خافيير
خاقان
خاك
خال
خالد
خالدا
خالدة
خالص
خالصا
خالصة
خالف
خالفه
خالق
خاله
خالي
خاليا
خالية
خام
خامس
خان
خانات
خانة
خاه
خاي
خب
خباب
خبار
خباره
خبارهم
خباري
خبارية
خبث
خبر
خبرا
خبراء
خبرة
خبرت
خبرته
خبرك
خبركم
خبرنا
خبرني
خبره
خبرها
خبرهم
خبروه
خبز
خبي
خبيث
خبيثة
خبير
خت
ختار
ختام
ختان
ختلف
ختلفة
ختم
خته
ختها
ختي
ختيار
خد
خداع
خدعة
خدم
خدمات
خدماتها
خدمة
خدمت
خدمته
خدمية
خدود
خديج
خديجة
خذ
خذا
خذت
خذته
خذنا
خذه
خذها
خذهم
خذوا
خذون
خذوه
خر
خرا
خراب
خراج
خراجه
خراجها
خراسان
خراش
خران
خراي
خربة
خرة
خرت
خرج
خرجا
خرجاه
خرجت
خرجنا
خرجه
خرجها
خرجوا
خرس
خرق
خره
خرها
خرهم
خروج
خروجه
خرون
خرى
خري
خريات
خريج
خريجو
خريجون
خريجي
خريطة
خريف
خرين
خريين
خزاعة
خزان
خزانات
خزانة
خزاي
خزيمة
خسارة
خساي
خسر
خسرت
خسرو
خسروا
خسوف
خشاب
خشب
خشبة
خشبي
خشبية
خشن
خشى
خشي
خشية
خشيت
خص
خصاب
خصال
خصاي
خصب
خصبة
خصص
خصصت
خصم
خصمه
خصوص
خصوصا
خصوصية
خصومه
خصيص
خصيصا
خضاع
خضر
خضراء
خضع
خضعت
خضم
خط
خطا
خطاء
خطاب
خطابا
خطابات
خطابه
خطار
خطب
خطبة
خطبته
خطة
خطته
خطر
خطرا
خطرة
خطط
خططت
خطف
خطل
خطوات
خطوة
خطورة
خطوط
خطي
خطيب
خطيبا
خطية
خطير
خطيرة
خطيي
خف
خفاء
خفاق
خفاو
خفت
خفش
خفض
خفضت
خفف
خفى
خفي
خفية
خفيف
خفيفة
خل
خلا
خلاء
خلاد
خلاص
خلاصة
خلاط
خلاف
خلافا
خلافات
خلافة
خلافته
خلافه
خلاق
خلاقه
خلاقي
خلاقيات
خلاقية
خلال
خلاله
خلالها
خلايا
خلت
خلدون
خلص
خلصت
خلط
خلع
خلف
خلفا
خلفاء
خلفت
خلفه
خلفها
خلفهم
خلفي
خلفية
خلفيون
خلق
خلقا
خلقت
خلقك
خلقه
خلقها
خلقي
خلقية
خلكان
خلل
خلو
خلية
خليج
خليط
خليفة
خليفته
خليل
خليلا
خماد
خماس
خماسي
خمر
خمس
خمسا
خمسة
خمسماي
خمسون
خمسين
خمسينيات
خميس
خندق
خنزير
خنيفرة
خو
خوات
خواتها
خوارزم
خوارزميات
خوارزمية
خواص
خواطر
خوان
خواننا
خوانه
خوانهم
خوة
خوته
خوذ
خوذة
خور
خورخي
خوري
خوزستان
خوسيه
خوض
خوف
خوفا
خولة
خوليو
خوه
خوها
خوي
خوية
خويلد
خوين
خي
خيار
خيارات
خياط
خيال
خيالي
خيالية
خياليون
خيانة
خيبة
خيبر
خيثمة
خيخون
خير
خيرا
خيرة
خيره
خيري
خيرية
خيسوس
خيط
خيك
خيل
خيمة
خيه
خيها
خيوط
خيول
د
دا
داء
داب
دابة
دابليو
دابها
داة
دات
داخل
داخلة
داخله
داخلها
داخلي
داخليا
داخلية
داد
دار
دارا
دارات
دارة
دارت
دارتموث
دارته
دارتها
دارسون
دارفور
دارك
داره
داروين
داري
داريا
دارية
دارين
داريون
داريين
داع
داعش
داعمة
داعي
داعيا
داعية
داغستان
دافع
دافي
دافيد
داكار
داكن
داكنة
داكوتا
دال
دالاس
دالة
دالتون
دالي
دام
دامت
دامز
داميان
دان
دانا
دانة
دانت
دانته
دانتي
داني
دانيال
دانييل
داه
داو
داود
داون
داوود
داي
دايتون
دايفيد
دب
دبا
دباء
دبابات
دبابة
دبة
دبر
دبلن
دبلوم
دبلوماسي
دبلوماسية
دبلوماسيون
دبليو
دبه
دبي
دبيات
دبية
دة
دت
دته
دج
دجاج
دجلة
دخال
دخاله
دخالها
دخان
دخل
دخلا
دخلت
دخلنا
دخله
دخلها
دخلوا
دخول
دخوله
دخولها
دخولهم
دخيل
دد
در
دراج
دراجات
دراجة
دراجه
دراجها
دراجو
دراجون
درار
دراسات
دراساته
دراسة
دراسته
دراستها
دراسي
دراسية
دراغون
دراك
دراكه
دراكي
دراكية
دراما
درامي
درامية
دراهم
دراية
درايف
درب
درة
درج
درجات
درجة
درجت
درس
درست
درسدن
درع
درعا
درعة
درك
دركت
دركه
درمان
درنة
درهم
درهما
درو
دروس
درويش
دري
درياتيكي
دريان
دريد
دريس
دريسي
دريك
دريم
دستور
دستوري
دستورية
دسوق
دع
دعا
دعاء
دعاة
دعامة
دعاه
دعاوى
دعاي
دعاية
دعت
دعم
دعما
دعمت
دعمه
دعمها
دعو
دعوا
دعوات
دعواه
دعوة
دعوت
دعوته
دعوى
دعى
دعي
دعية
دغار
دغال
دغام
دفاع
دفاعي
دفاعية
دفتر
دفع
دفعة
دفعت
دفعه
دفعها
دفن
دفنه
دق
دقاي
دقة
دقيق
دقيقا
دقيقة
دك
دكا
دكتور
دكتوراه
دل
دلاء
دلال
دلالات
دلالة
دلاي
دلب
دلة
دلت
دلتا
دلر
دلهي
دلى
دليل
دليلا
دم
دما
دماء
دماج
دمار
دماغ
دماغي
دماغية
دمان
دماي
دمت
دمج
دمجها
دمر
دمرت
دمز
دمشق
دمه
دموع
دمونتون
دموند
دموي
دموية
دمى
دمي
دمياط
دمية
دميرال
دميين
دن
دنا
دنانير
دناه
دنبرة
دندي
دنفر
دنمارك
دنماركي
دنماركية
دنماركيون
دنى
دنيا
دنيس
ده
دها
دهم
دهن
دو
دوا
دواء
دوات
دوار
دوارد
دواردز
دواردو
دواره
دوارها
دوافع
دوال
دوام
دواوير
دواوين
دواي
دوايت
دوبي
دوت
دود
دودة
دور
دورا
دورات
دوران
دورة
دورتموند
دورته
دوره
دورها
دورهام
دورهم
دوروثي
دوري
دوريات
دورية
دوس
دوسلدورف
دوغ
دوغلاس
دوق
دوقات
دوقة
دوقية
دوك
دول
دولار
دولارا
دولة
دولته
دولتهم
دولف
دولي
دوليا
دولية
دوليون
دوم
دوما
دومينغو
دومينيك
دومينيكا
دومينيكانيون
دون
دونا
دونالد
دونغ
دونكاستر
دونم
دونما
دونه
دونها
دونهم
دوني
دونيتسك
دوي
دوية
دويتشه
دويل
دوين
دى
دي
ديا
دياب
ديار
ديارهم
دياز
ديالى
ديان
ديانا
ديانة
ديب
ديبا
ديبهون
ديبورتيفو
ديبي
ديبية
دية
ديت
ديترويت
ديث
ديد
دير
ديربي
ديرة
ديريك
ديزل
ديزني
ديس
ديسمبر
ديسون
ديغول
ديف
ديفون
ديفي
ديفيد
ديفيدسون
ديفيز
ديفيس
ديك
ديكارت
ديكسون
ديل
ديلا
ديلان
ديلاوير
ديلايد
ديلي
ديم
ديمتري
ديمقراطي
ديمقراطية
ديمقراطيون
دين
دينا
دينار
دينارا
دينامو
ديناميكية
دينك
دينكم
ديننا
دينه
دينهم
دينوا
ديني
دينية
دينيس
دينيون
ديه
ديها
ديو
ديوان
ديوانه
ديوك
ديون
دييغو
دييل
ذ
ذا
ذاب
ذات
ذاته
ذاتها
ذاتي
ذاتيا
ذاتية
ذار
ذاع
ذاعات
ذاعة
ذاعي
ذاعية
ذاك
ذاكرة
ذان
ذاهب
ذاي
ذباب
ذبابة
ذبح
ذخيرة
ذر
ذرات
ذراع
ذراعا
ذربيجان
ذربيجاني
ذربيجانية
ذربيجانيون
ذرة
ذرع
ذروة
ذروته
ذروتها
ذرية
ذريته
ذريعة
ذك
ذكاء
ذكار
ذكر
ذكرا
ذكرت
ذكرته
ذكرتها
ذكرنا
ذكرناه
ذكره
ذكرها
ذكرهم
ذكروا
ذكروه
ذكرى
ذكريات
ذكوان
ذكور
ذكي
ذكية
ذل
ذلك
ذم
ذمار
ذمة
ذمته
ذن
ذنا
ذنب
ذنبا
ذنبه
ذنة
ذنت
ذنه
ذني
ذنين
ذنيه
ذهاب
ذهان
ذهب
ذهبا
ذهبت
ذهبوا
ذهبي
ذهبية
ذهنه
ذو
ذوات
ذواق
ذوق
ذون
ذوو
ذوي
ذى
ذي
ذية
ذيل
ذين
ذيني
ر
را
راء
راب
رابح
رابط
رابطة
رابع
رابعا
رابعة
رابيد
رابيدز
رات
راتب
راج
راجع
راجعا
راجعة
راجعون
راح
راحة
راحل
راحلته
راد
رادار
رادة
رادت
رادته
راده
رادوا
رادي
رادية
راديو
رار
راس
راسخة
راسل
راسلني
راسيل
راسينغ
راش
راشد
راشيل
راض
راضي
راضيه
راضيها
راضيهم
راع
راعي
راغب
راغون
راف
رافاي
رافاييل
رافع
رافق
راق
راقصات
راقصة
راقصون
راك
راكب
راكبا
راكضون
رالف
رالي
رام
راما
رامز
رامكو
رامل
راموس
رامون
رامي
رامية
راميريز
ران
رانب
راندولف
راندي
راني
رانيا
راه
راها
راهب
راهويه
راو
راوي
راي
رايان
راية
رايت
رايتس
رايدر
رايس
رايلي
رايموند
راين
رب
ربا
رباب
رباح
رباحا
رباط
رباع
رباعون
رباعي
رباعيات
رباعية
رباعيون
ربة
ربح
ربحية
ربد
ربط
ربطة
ربطت
ربطها
ربع
ربعا
ربعاء
ربعة
ربعماي
ربعون
ربعي
ربعين
ربعينات
ربعينيات
ربك
ربكم
ربما
ربنا
ربه
ربها
ربهم
ربى
ربي
ربيع
ربيعة
ربيل
رة
رت
رتب
رتبة
رتس
رته
رتين
رث
رثر
رثوذكس
رثوذكسي
رثوذكسية
رج
رجا
رجاء
رجاع
رجال
رجالا
رجاله
رجالية
رجاي
رجب
رجح
رجع
رجعة
رجعت
رجعوا
رجعي
رجل
رجلا
رجلان
رجله
رجلين
رجليه
رجم
رجنتين
رجنتيني
رجنتينيات
رجنتينية
رجنتينيون
رجو
رجواني
رجوع
رجوعه
رجون
رجى
رح
رحام
رحب
رحت
رحل
رحلات
رحلاته
رحلة
رحلته
رحم
رحمة
رحمته
رحمه
رحمهم
رحمهما
رحيل
رحيم
رخ
رخبيل
رخة
رخص
رخصة
رخو
رخون
رخين
رد
ردا
رداء
ردبيل
ردة
ردت
ردف
ردمك
ردن
ردنا
ردني
ردنية
ردنيون
ردنيين
رده
ردها
ردوا
ردود
ردوغان
ردي
ردية
رديي
رز
رزاق
رزق
رزقه
رزين
رس
رساء
رسال
رسالة
رسالته
رساله
رسالها
رسام
رسامات
رسامة
رسامو
رسامون
رساي
رست
رستقراطية
رستم
رسطو
رسل
رسلان
رسلت
رسلنا
رسله
رسلها
رسلوا
رسم
رسمت
رسمها
رسمي
رسميا
رسمية
رسنال
رسول
رسولا
رسوله
رسوم
رسومات
رش
رشاد
رشادات
رشادية
رشاش
رشح
رشحت
رشد
رشدي
رشف
رشفة
رشيد
رشيف
رصاد
رصد
رصده
رصفة
رصيد
رصيف
رض
رضا
رضاء
رضاع
رضاه
رضت
رضه
رضها
رضهم
رضوان
رضى
رضي
رضيات
رضية
رضيت
رضين
رطاة
رطب
رطبة
رطل
رطلا
رطوبة
رع
رعاة
رعاية
رعب
رعد
رغب
رغبات
رغبة
رغبته
رغبي
رغم
رغون
رف
رفات
رفاعة
رفاق
رفاقه
رفت
رفح
رفض
رفضت
رفضه
رفضها
رفضوا
رفع
رفعت
رفعه
رفعها
رفق
رفقة
رفيع
رفيعة
رفيق
رق
رقابة
رقام
رقاي
رقبة
رقبته
رقة
رقص
رقصة
رقعة
رقم
رقما
رقمي
رقمية
رقى
رقي
رقيب
رقية
رقيق
رقيقة
رك
ركاب
ركان
ركاي
ركب
ركز
ركزت
ركع
ركعات
ركعة
ركعتين
ركلات
ركلة
ركن
ركنساس
ركوب
ركي
رلينغتون
رم
رماة
رماد
رمادي
رمال
رماية
رمح
رمز
رمزا
رمزها
رمزي
رمزية
رمسترونغ
رمسيس
رمضان
رمل
رملة
رملية
رمن
رمني
رمنية
رموز
رمى
رمي
رميا
رميني
رمينيا
رمينية
رن
رنا
رنب
رنست
رنولد
رني
ره
رها
رهاب
رهابي
رهابية
رهابيين
رهاق
رهبان
رهط
رهم
رهن
رهنا
رو
روا
روابط
رواة
رواتب
رواح
رواحة
رواحهم
رواد
رواسب
روافد
رواق
روان
رواندا
رواه
رواها
رواي
روايات
رواياته
رواية
روايتان
روايته
روايتها
روب
روبا
روبرت
روبرتس
روبرتسون
روبرتو
روبن
روبنسون
روبوت
روبي
روبية
روبين
روت
روتانا
روتردام
روتشستر
روتيني
روث
روج
روجر
روجرز
روح
روحه
روحي
روحية
رود
رودريغو
رودريغيز
رودس
رودولف
روز
روزا
روزفلت
روس
روسا
روستوف
روسو
روسي
روسيا
روسيات
روسية
روش
روضة
روع
روعة
روفرز
روقة
روك
روكتس
روكي
رول
رولان
رولاند
رولز
روم
روما
رومان
رومانسي
رومانسية
روماني
رومانيا
رومانية
رومانيون
رومة
رومي
رومية
روميو
رون
رونالد
رونالدو
روني
روى
روي
رويال
رويت
رويترز
رويدا
رويس
روين
روينا
رى
ري
ريا
رياح
ريادة
رياض
رياضات
رياضة
رياضي
رياضيا
رياضيات
رياضياتي
رياضياتيون
رياضية
رياضيو
رياضيون
رياف
ريال
ريان
ريانا
ريب
ريبيكا
رية
ريتا
ريتريا
ريترية
ريتش
ريتشارد
ريتشاردز
ريتشاردسون
ريتشموند
ريتشي
ريج
ريجينا
ريح
ريحا
ريخ
ريختر
ريد
ريدج
ريدز
ريدينغ
ريزونا
ريس
ريسلينغ
ريش
ريشة
ريغا
ريغان
ريف
ريفر
ريفي
ريفية
ريفيرا
ريفيون
ريق
ريك
ريكا
ريكاردو
ريكسهام
ريكسون
ريكو
ريكي
ريل
ريم
ريمون
ريموند
رين
رينا
رينجرز
رينو
رينولدز
رينيه
ريو
ريوس
ريون
رييس
ريين
ز
زء
زا
زاء
زات
زاحة
زاد
زادت
زاده
زار
زارت
زاره
زاز
زاك
زال
زالة
زالت
زالته
زالتها
زالوا
زامبيا
زان
زاهر
زاوية
زاي
زايد
زبيد
زبيدة
زة
زت
زجاج
زجاجة
زجاجية
زحف
زحل
زخارف
زخرفة
زد
زدي
زر
زرار
زرارة
زراعة
زراعي
زراعية
زرع
زرعة
زرق
زرقاء
زريع
زريق
زعاج
زعم
زعماء
زعمت
زعموا
زعيم
زغرب
زغلول
زفاف
زفر
زق
زكاة
زكريا
زكي
زل
زلازل
زلت
زلزال
زلي
زلية
زم
زمات
زمالة
زمام
زمان
زمانا
زماننا
زمانه
زمة
زمرة
زمزم
زمعة
زملاء
زملاي
زمن
زمنا
زمنة
زمني
زمنية
زمير
زميل
زميله
زنا
زنجبار
زنى
زه
زها
زهاء
زهار
زهر
زهرة
زهري
زهرية
زهور
زهير
زو
زواج
زواجه
زواجها
زواجهما
زواجهن
زواحف
زوار
زوال
زوايا
زوج
زوجا
زوجات
زوجة
زوجته
زوجه
زوجها
زوجي
زوجين
زور
زورق
زول
زون
زي
زياء
زياد
زيادة
زيارات
زيارة
زيارته
زيان
زيبكودزو
زية
زيت
زيتا
زيتون
زيد
زيدا
زيدان
زيرو
زيل
زيلال
زيلت
زيمبابوي
زيمبابويون
زين
زينب
زينة
زيورخ
زيوس
س
سا
ساء
ساءة
ساءت
ساب
سابع
سابق
سابقا
سابقة
سابقون
سابقين
سابور
سابيع
ساة
سات
ساتذة
ساتو
ساجدا
ساحات
ساحة
ساحر
ساحرة
ساحقة
ساحل
ساحلية
ساخر
ساخرة
ساخن
ساخنة
ساد
سادة
سادت
سادس
سار
سارا
سارة
سارت
ساروس
سارى
ساري
سارية
ساس
ساسا
ساسات
ساسة
ساسكاتشوان
ساسكس
ساسه
ساسها
ساسي
ساسيا
ساسيات
ساسية
ساسيين
ساطير
ساطيل
ساعات
ساعة
ساعتين
ساعد
ساعدة
ساعدت
ساعده
سافر
سافرت
سافوي
ساق
ساقفة
ساقه
ساكرامنتو
ساكس
ساكسونيا
ساكن
ساكنة
سال
سالبة
سالزبورغ
سالم
سالما
سالونيك
سالي
ساليب
سام
سامبدوريا
سامة
سامح
سامر
سامراء
سامسونج
ساموا
سامي
سامية
سان
سانت
سانتا
سانتو
سانتوس
سانتياغو
ساندرا
ساندرز
ساندي
سانشيز
سانيد
ساهم
ساهمت
ساو
ساوث
ساوثهامبتون
ساي
سايتاما
سايفرز
سايمون
سب
سبا
سباب
سبابه
سبابها
سباح
سباحة
سباحون
سبارتا
سبارتاك
سباستيان
سباط
سباعيات
سباق
سباقات
سبان
سباني
سبانيا
سبانيات
سبانية
سبانيول
سباي
سبايس
سبب
سببا
سببت
سببه
سببها
سبت
سبتة
سبتمبر
سبحان
سبحانك
سبحانه
سبرة
سبرطة
سبرين
سبرينغ
سبرينغز
سبرينغس
سبرينغفيلد
سبط
سبع
سبعا
سبعة
سبعماي
سبعون
سبعين
سبعينيات
سبق
سبقت
سبقه
سبل
سبليت
سبنسر
سبور
سبورت
سبورتس
سبورتينغ
سبوع
سبوعا
سبوعي
سبوعيا
سبوعية
سبوعين
سبي
سبيرز
سبيس
سبيل
سبيلا
سبيله
سة
ست
ستا
ستاد
ستاذ
ستاذا
ستاذة
ستاذه
ستار
ستارز
ستارك
ستالين
ستان
ستانة
ستانفورد
ستانلي
ستايت
ستة
ستجد
ستخد
ستخدام
ستخدم
ستديو
ستر
سترا
ستراتيجي
ستراتيجية
ستراسبورغ
سترالي
ستراليا
ستراليات
سترالية
ستراليون
ستراليين
سترة
سترليني
ستروجين
ستريت
ستصبح
ستطيع
ستعمل
ستقوم
ستكون
ستماي
ستمر
ستو
ستوديو
ستوديوز
ستور
ستورم
ستورياس
ستوك
ستوكهولم
ستون
ستوني
ستونيا
ستونية
ستونيون
ستي
ستيت
ستيرلينغ
ستيرن
ستيشن
ستيف
ستيفان
ستيفانو
ستيفاني
ستيفن
ستيفنز
ستيفنسون
ستيل
ستين
ستينيات
ستيوارت
سج
سجد
سجل
سجلات
سجلت
سجله
سجلها
سجن
سجناء
سجنه
سجود
سجون
سجين
سحاب
سحابة
سحاق
سحب
سحبت
سحر
سحرية
سحق
سخر
سخط
سد
سداد
سداسي
سدود
سدي
سديم
سر
سرا
سراء
سراب
سراج
سراح
سراحه
سرار
سراع
سراف
سراقة
سراي
سرايا
سراييفو
سرب
سرة
سرت
سرته
سرتها
سرح
سرحان
سرد
سردينيا
سرطان
سرطانات
سرع
سرعات
سرعان
سرعة
سرعتها
سرق
سرقة
سرقسطة
سره
سرها
سرهم
سروا
سرور
سرى
سري
سريان
سرية
سريج
سرير
سريري
سريرية
سريع
سريعا
سريعة
سريعون
سريلانكا
سس
سسات
سسة
سست
سسه
سسها
سسو
سسوا
سسي
سسية
سسين
سطات
سطح
سطحه
سطحها
سطحي
سطحية
سطر
سطنبول
سطوانات
سطوانة
سطوانية
سطورة
سطوري
سطورية
سطول
سطيف
سعاد
سعادة
سعار
سعاف
سعة
سعت
سعد
سعدان
سعدون
سعر
سعود
سعودي
سعودية
سعوديون
سعى
سعي
سعيد
سعيدا
سعيدة
سف
سفار
سفارات
سفارة
سفح
سفر
سفراء
سفرت
سفره
سفل
سفله
سفلي
سفلية
سفن
سفنتي
سفه
سفوح
سفي
سفيان
سفير
سفيرا
سفينة
سقاط
سقراط
سقز
سقط
سقطت
سقطرى
سقطوا
سقف
سقفية
سقوط
سك
سكان
سكانه
سكانها
سكاني
سكانية
سكاي
سكة
سكت
سكتة
سكتلندي
سكر
سكرامنتو
سكرتير
سكريبت
سكس
سكسفون
سكسونيا
سكك
سكن
سكنت
سكندر
سكندري
سكندرية
سكندنافية
سكني
سكنية
سكوت
سكوشا
سكول
سكون
سكوير
سكين
سكينة
سل
سلا
سلاح
سلاسل
سلاطين
سلاف
سلافه
سلافهم
سلاك
سلالات
سلالة
سلام
سلامة
سلامنقاش
سلامه
سلامي
سلامية
سلاميون
سلاميين
سلب
سلبا
سلبي
سلبية
سلة
سلتيك
سلحة
سلحتهم
سلس
سلسة
سلسلة
سلط
سلطات
سلطان
سلطانا
سلطانه
سلطة
سلطته
سلطنة
سلع
سلعة
سلف
سلفا
سلفادور
سلفه
سلك
سلم
سلما
سلمان
سلمة
سلمت
سلمنا
سلموا
سلمون
سلمى
سلمي
سلمية
سلمين
سلوب
سلوبه
سلوبها
سلوفاكيا
سلوفاكيون
سلوفينيا
سلوفينيون
سلوك
سلوكه
سلوكيات
سلوى
سليم
سليمان
سليمة
سم
سما
سماء
سمات
سماع
سماعه
سماعيل
سماعيلي
سماعيلية
سماك
سمالي
سمالية
سماه
سماها
سماو
سماي
سمة
سمت
سمح
سمحت
سمدة
سمر
سمرة
سمرقند
سمع
سمعان
سمعة
سمعت
سمعته
سمعنا
سمعه
سمعها
سمعوا
سمك
سمكة
سمنت
سمه
سمها
سمو
سموا
سموه
سمى
سمي
سمية
سميت
سميث
سمير
سميرة
سميع
سميكة
سن
سنا
سناء
سناد
سناده
سنان
سنة
سنت
سنتر
سنترال
سنته
سنتي
سنتيمتر
سنتين
سنجر
سند
سندات
سندرلاند
سنده
سنغافورة
سنغافوريون
سنغالي
سنغاليون
سنن
سننه
سنه
سنو
سنوات
سنواته
سنوي
سنويا
سنوية
سني
سنية
سنين
سه
سها
سهال
سهام
سهامات
سهرة
سهل
سهلا
سهلة
سهم
سهما
سهول
سهولة
سهير
سهيل
سو
سوء
سوءا
سوا
سواء
سواتيني
سواحل
سواد
سوار
سواريز
سواق
سوان
سوانزي
سواه
سواها
سواهم
سواي
سوب
سوبر
سوة
سود
سوداء
سودان
سوداني
سودانية
سودانيون
سودة
سور
سورا
سورة
سوري
سوريا
سوريات
سورية
سورينام
سوريون
سوزا
سوزان
سوزوكي
سوس
سوسة
سوسن
سوسيداد
سوشيتد
سوف
سوفت
سوفولك
سوفيت
سوفيتي
سوفيتية
سوق
سوكس
سوكورو
سول
سولت
سوليفان
سومر
سومرست
سومطرة
سون
سونسيون
سونغ
سونورا
سوني
سونيا
سونيك
سوهاج
سوى
سوي
سويا
سوية
سويتش
سويد
سويدي
سويديات
سويدية
سويديون
سويسرا
سويسري
سويسرية
سويسريون
سويف
سويفت
سى
سي
سيء
سيا
سيات
سياتل
سياحة
سياحي
سياحية
سياد
سيادة
سيار
سيارات
سيارة
سيارته
سياسات
سياسة
سياسته
سياسي
سياسيا
سياسيات
سياسية
سياسيو
سياسيون
سياسيين
سياق
سيان
سيباستيان
سيبويه
سيبيريا
سية
سيتات
سيتم
سيتي
سيتيل
سيث
سيجا
سيجي
سيحدث
سيد
سيدا
سيدات
سيدان
سيدة
سيدتي
سيدنا
سيدني
سيده
سيدي
سير
سيرا
سيراكيوز
سيراليون
سيرة
سيرته
سيرتها
سيرجي
سيرجيو
سيره
سيرو
سيريس
سيرين
سيزار
سيس
سيسات
سيستم
سيسه
سيسها
سيسي
سيسية
سيسيل
سيشل
سيصبح
سيطر
سيطرة
سيطرت
سيطرته
سيطرتها
سيطرتهم
سيظهر
سيف
سيفا
سيفه
سيقوم
سيكسرز
سيكون
سيل
سيلان
سيلتكس
سيلفا
سيلفر
سيلفيا
سيليزيا
سيم
سيما
سيمبسون
سيمون
سين
سينا
سيناء
سيناتورز
سيناريو
سينت
سينسيناتي
سينغ
سينما
سينماي
سيو
سيوط
سيول
سيوي
سيوية
سيويون
سيويين
سيي
سييرا
سيينا
ش
شا
شاء
شاءت
شاب
شابا
شابة
شابه
شاة
شاحنات
شاحنة
شاد
شادة
شادي
شاذ
شاذان
شار
شارات
شارب
شارة
شارت
شارع
شارك
شاركت
شاركوا
شارل
شارلمان
شارلوت
شاروا
شارون
شاسعة
شاشات
شاشة
شاطي
شاع
شاعة
شاعر
شاعرا
شاعرات
شاعرة
شاكر
شامل
شاملا
شاملة
شان
شانغهاي
شانون
شاه
شاهد
شاهدا
شاهين
شاو
شاي
شب
شباب
شبابه
شبابية
شباح
شباط
شباع
شباك
شباه
شبة
شبح
شبرا
شبكات
شبكة
شبكية
شبل
شبه
شبهة
شبهه
شبيب
شبيبة
شبيلية
شبيه
شبيهة
شة
شت
شتاء
شتات
شتر
شتهر
شتوتغارت
شتوكة
شتى
شج
شجار
شجاع
شجاعة
شجر
شجرة
شجع
شجعت
شجعي
شح
شحن
شحنة
شخاص
شخص
شخصا
شخصي
شخصيا
شخصيات
شخصية
شخصيته
شخصيتها
شخصين
شد
شداد
شدة
شدد
شديد
شديدا
شديدة
شذوذ
شر
شرا
شراء
شراب
شرات
شرار
شرارة
شراف
شراق
شراك
شراكة
شراو
شراي
شرب
شربة
شرت
شرح
شرحبيل
شرحه
شرس
شرسة
شرط
شرطا
شرطة
شرطه
شرطي
شرع
شرعا
شرعت
شرعه
شرعي
شرعية
شرف
شرفة
شرفت
شرفية
شرق
شرقا
شرقي
شرقية
شرقيون
شرك
شركاء
شركات
شركاي
شركة
شركته
شرم
شره
شروط
شروق
شريان
شريح
شريحة
شرير
شريط
شريطة
شريعة
شريف
شريفة
شريك
شريكا
شريكة
شريكه
شط
شطب
شطر
شطرنج
شعار
شعارات
شعاره
شعاع
شعاعات
شعاعي
شعاعية
شعال
شعاي
شعب
شعبان
شعبة
شعبه
شعبي
شعبية
شعة
شعث
شعر
شعرا
شعراء
شعرت
شعره
شعرها
شعروا
شعري
شعرية
شعل
شعوب
شعور
شعيب
شعير
شغال
شغب
شغل
شغلت
شغله
شغلهم
شف
شفاء
شفاعة
شفافة
شفت
شفرة
شفشاون
شفيق
شفيلد
شق
شقاء
شقاي
شقة
شقر
شقيق
شقيقة
شقيقتها
شقيقه
شقيقها
شك
شكال
شكاله
شكالها
شكالية
شكر
شكرا
شكري
شكسبير
شكل
شكلا
شكلت
شكله
شكلها
شكوك
شكوى
شكيب
شل
شلال
شلالات
شلبي
شلل
شلي
شم
شمال
شمالا
شماله
شمالي
شمالية
شماليون
شمر
شمس
شمسي
شمسية
شمعون
شمل
شملت
شميت
شميدت
شميل
شن
شنايدر
شنت
شنغهاي
شني
شهاب
شهاد
شهادات
شهادة
شهادته
شهب
شهد
شهداء
شهدت
شهدتها
شهدوا
شهر
شهرا
شهرة
شهرته
شهرزاد
شهرها
شهري
شهريا
شهرية
شهرين
شهوة
شهود
شهور
شهيد
شهيدا
شهير
شهيرة
شو
شوارع
شواط
شواطي
شواك
شوال
شواهد
شوب
شور
شورى
شوري
شورية
شوريون
شوريين
شوقي
شوك
شوكة
شومان
شون
شوهد
شوهدت
شىء
شي
شيء
شيا
شياء
شياطين
شيب
شيبان
شيبة
شيخ
شيخا
شيخنا
شيخه
شيد
شيدت
شير
شيرات
شيراز
شيرة
شيرلي
شيرمان
شيري
شيرين
شيزوكا
شيشاوة
شيطان
شيع
شيعة
شيعي
شيعية
شيفيلد
شيك
شيكاغو
شيلت
شيلي
شين
شيوخ
شيوخه
شيوع
شيوعا
شيوعية
شيوعيون
شيي
ص
صاب
صابات
صابة
صابت
صابته
صابتها
صابتهم
صابر
صابع
صابعه
صابه
صابها
صابهم
صابوا
صاح
صاحب
صاحبة
صاحبك
صاحبكم
صاحبنا
صاحبه
صاحبها
صاحبي
صاد
صادر
صادرات
صادرة
صادق
صادقا
صادقة
صار
صارت
صارم
صارمة
صاروا
صاروخ
صاع
صاعا
صاعد
صاغ
صافي
صافية
صال
صالات
صالة
صالح
صالحا
صالحة
صالون
صام
صامت
صامتة
صامويل
صانع
صانعو
صانعي
صاي
صب
صبا
صباح
صباحا
صباغ
صبت
صبح
صبحت
صبحوا
صبحي
صبر
صبرا
صبري
صبع
صبعه
صبغ
صبغة
صبهان
صبهاني
صبي
صبيا
صبيح
صبيحة
صة
صح
صحاء
صحاب
صحابة
صحابك
صحابنا
صحابه
صحابها
صحابي
صحاح
صحافة
صحب
صحبة
صحبته
صحة
صحت
صحته
صحتها
صحراء
صحف
صحفي
صحفيات
صحفية
صحفيو
صحفيون
صحن
صحي
صحية
صحيح
صحيحا
صحيحة
صحيحه
صحيفة
صخر
صخرة
صخري
صخرية
صخور
صد
صداء
صدار
صدارات
صدارة
صداره
صدارها
صداقة
صدام
صدر
صدرت
صدره
صدرها
صدري
صدفة
صدق
صدقاء
صدقاي
صدقة
صدقت
صدقه
صدقي
صدمة
صدور
صدورهم
صدوق
صدى
صديق
صديقا
صديقة
صديقه
صديقي
صر
صراحة
صرار
صراط
صراع
صراعات
صرامة
صرب
صربي
صربيا
صربية
صرت
صرح
صرحت
صرخة
صرف
صريح
صريحا
صريحة
صعب
صعبا
صعبة
صعد
صعدة
صعصعة
صعوبات
صعوبة
صعود
صعيد
صغار
صغر
صغره
صغير
صغيرا
صغيرة
صـ
صف
صفا
صفاء
صفات
صفاته
صفاقس
صفاي
صفة
صفت
صفته
صفحات
صفحة
صفحته
صفد
صفر
صفراء
صفقة
صفهان
صفهاني
صفوان
صفوف
صفي
صفية
صفيحة
صفين
صقر
صقلية
صك
صل
صلا
صلابة
صلاة
صلات
صلاته
صلاتهم
صلاح
صلاحات
صلاحه
صلاحها
صلاحي
صلاحيات
صلاحية
صلالة
صلب
صلبة
صلة
صلت
صلح
صلصة
صله
صلها
صلهم
صلوا
صلوات
صلى
صلي
صليب
صلية
صليت
صليون
صليين
صم
صمام
صمت
صمعي
صمم
صممت
صممه
صموي
صميم
صن
صناديق
صناع
صناعات
صناعة
صناعي
صناعية
صناف
صنام
صندوق
صنز
صنع
صنعاء
صنعة
صنعت
صنعه
صنعها
صنعوا
صنف
صنفت
صنوفات
صه
صها
صهر
صهيب
صهيون
صو
صواب
صوات
صواتهم
صواريخ
صوب
صوت
صوتا
صوتت
صوته
صوتها
صوتي
صوتية
صور
صورا
صورة
صورت
صورته
صورتها
صوره
صورها
صوف
صوفي
صوفيا
صوفية
صوفيون
صول
صوله
صولها
صولهم
صولية
صوم
صياد
صياغة
صيام
صيانة
صيب
صيبت
صيبوا
صيد
صيدا
صير
صيغ
صيغة
صيف
صيفا
صيفي
صيفية
صيل
صيلة
صين
صيني
صينيات
صينية
صينيون
ض
ضا
ضاء
ضاءة
ضابط
ضابطا
ضاحية
ضار
ضارة
ضاع
ضاعة
ضاف
ضافات
ضافة
ضافت
ضافته
ضافتها
ضافي
ضافية
ضاق
ضال
ضامن
ضاي
ضباط
ضبط
ضة
ضت
ضجة
ضحايا
ضحت
ضحك
ضحى
ضحية
ضخ
ضخم
ضخمة
ضد
ضداد
ضده
ضدها
ضدهم
ضر
ضراب
ضرابات
ضرار
ضراي
ضرب
ضربا
ضربات
ضربة
ضربت
ضربه
ضرحة
ضرر
ضررا
ضروب
ضرورة
ضروري
ضروريا
ضرورية
ضريبة
ضريح
ضع
ضعاف
ضعت
ضعف
ضعفا
ضعفت
ضعفه
ضعيف
ضعيفا
ضعيفة
ضغط
ضغوط
ضف
ضفاء
ضفاف
ضفة
ضفت
ضفدع
ضل
ضلاع
ضلال
ضلالة
ضلع
ضلعية
ضم
ضمار
ضمان
ضمانات
ضمت
ضمرة
ضمن
ضمنت
ضمنه
ضمنها
ضمنهم
ضمني
ضمها
ضمير
ضنة
ضه
ضوء
ضواء
ضوابط
ضواحي
ضوي
ضي
ضياء
ضياع
ضيافة
ضيف
ضيفت
ضيق
ضيقة
ضيوف
ط
طا
طاب
طابع
طابق
طابقين
طاجيكستان
طاح
طاحة
طار
طارات
طارق
طاري
طاش
طاع
طاعة
طاعته
طاف
طاقة
طاقته
طاقتها
طاقم
طال
طالب
طالبا
طالبان
طالبة
طالبت
طالة
طالت
طالع
طالق
طالما
طان
طاهر
طاوس
طاولة
طاووس
طاي
طب
طباء
طباعة
طباق
طبالون
طباي
طبخ
طبع
طبعا
طبعات
طبعة
طبعت
طبعه
طبق
طبقا
طبقات
طبقة
طبقت
طبي
طبيب
طبيبا
طبيبات
طبيبة
طبية
طبيعة
طبيعته
طبيعتها
طبيعي
طبيعيا
طبيعية
طة
طر
طرا
طرابزون
طرابلس
طراز
طرازات
طراف
طرافها
طراي
طرح
طرحت
طرحه
طرحها
طرد
طرده
طرش
طرطوس
طرف
طرفا
طرفة
طرفه
طرفي
طرق
طروادة
طروحات
طروحة
طروحته
طريف
طريق
طريقا
طريقة
طريقته
طريقه
طريقها
طريقهم
طعام
طعاما
طعامه
طعم
طعمة
طعمه
طعن
طفاء
طفال
طفالها
طفالهم
طفرات
طفرة
طفل
طفلا
طفلة
طفولة
طفولته
طفولتها
طفيف
طفيفة
طقس
طقم
طقوس
طل
طلاء
طلاب
طلابه
طلاع
طلاق
طلاقا
طلاقه
طلاقها
طلال
طلاي
طلب
طلبا
طلبات
طلبة
طلبت
طلبه
طلبها
طلبوا
طلحة
طلس
طلسي
طلع
طلعت
طلق
طلقة
طلقت
طلقه
طلقها
طلقوا
طلوع
طليطلة
طليعة
طمع
طموح
طن
طنجة
طنطا
طه
طهارة
طهر
طهران
طو
طوابق
طوار
طواري
طواف
طوال
طوالها
طواي
طور
طورت
طوق
طوكيو
طول
طولا
طولكرم
طوله
طولها
طولون
طومسون
طويل
طويلا
طويلة
طي
طيار
طيارون
طياف
طيب
طيبا
طيبة
طير
طيران
طيف
طيلة
طين
طيور
ظ
ظافر
ظالم
ظاهر
ظاهرا
ظاهرة
ظاهره
ظاهرها
ظاهري
ظبي
ظر
ظرف
ظروف
ظفار
ظفر
ظل
ظلال
ظلام
ظلت
ظلم
ظلما
ظلمات
ظلمة
ظلموا
ظن
ظننت
ظنه
ظنوا
ظهار
ظهر
ظهرا
ظهرة
ظهرت
ظهره
ظهرها
ظهروا
ظهور
ظهوره
ظهورها
ظهورهم
ظهير
ظواهر
ع
عا
عاء
عاب
عابد
عابدين
عابر
عابرة
عات
عاتق
عاتقه
عاجز
عاجل
عاد
عادات
عادة
عادت
عادته
عادتها
عادتهم
عادل
عادلة
عاده
عادوا
عادي
عادية
عار
عارة
عارض
عارضات
عارضة
عارضت
عارضو
عارف
عارية
عازب
عازف
عازفات
عازفو
عاش
عاشت
عاشق
عاشوا
عاشور
عاشوراء
عاصر
عاصفة
عاصم
عاصمة
عاصمتها
عاصير
عاطف
عاطفة
عاطفي
عاطفية
عاق
عاقات
عاقبة
عاقة
عاقل
عال
عالة
عالج
عالم
عالما
عالمات
عالمة
عالمي
عالميا
عالمية
عالي
عاليا
عالية
عام
عاما
عامة
عامر
عامرة
عامل
عاملا
عاملة
عاملون
عامه
عامي
عامين
عان
عانات
عانة
عانت
عانوا
عانى
عاني
عاي
عايدة
عب
عبء
عباء
عباد
عبادة
عبادته
عباده
عبادي
عبارات
عبارة
عباس
عبث
عبد
عبدا
عبدالرحمن
عبدالعزيز
عبدالله
عبدان
عبدة
عبدك
عبده
عبدي
عبر
عبرة
عبرت
عبس
عبقرية
عبلة
عبود
عبور
عبي
عبيد
عبيدة
عبير
عة
عت
عتاب
عتاد
عتب
عتبة
عتبر
عتذر
عترف
عتق
عتقد
عتقه
عتقها
عتمد
عتيبة
عتيق
عثر
عثرت
عثمان
عثماني
عثمانية
عثمانيون
عجاب
عجاز
عجاي
عجب
عجبا
عجبت
عجز
عجل
عجلات
عجلان
عجلة
عجلون
عجمي
عجوز
عجيب
عجيبة
عد
عدا
عداء
عداءات
عداد
عدادات
عداده
عدادها
عدادهم
عدادية
عدالة
عدام
عدامات
عدامه
عداو
عداوة
عداي
عدة
عدت
عدتها
عدد
عددا
عددها
عددهم
عدسة
عدل
عدلا
عدلت
عدلي
عدم
عدمه
عدموا
عدن
عدنان
عده
عدها
عدو
عدوا
عدوان
عدوانية
عدوه
عدوهم
عدوى
عدى
عدي
عديد
عديدة
عديم
عديمة
عذاب
عذابا
عذب
عذر
عذرا
عذراء
عر
عراب
عرابي
عراض
عراف
عراق
عراقي
عراقية
عراقيون
عرب
عربات
عربة
عربت
عربي
عربيا
عربية
عرج
عرس
عرش
عرشه
عرض
عرضا
عرضة
عرضت
عرضه
عرضها
عرضوا
عرضي
عرضية
عرف
عرفات
عرفة
عرفت
عرفته
عرفنا
عرفه
عرفها
عرفهم
عرفوا
عرق
عرقلة
عرقي
عرقية
عرقين
عروبة
عروة
عروس
عروض
عريض
عريضة
عريقة
عز
عزاء
عزام
عزبة
عزة
عزت
عزز
عززت
عزف
عزل
عزلة
عزله
عزم
عزمي
عزوجل
عزى
عزيز
عزيزة
عزيزي
عساكر
عسر
عسكر
عسكره
عسكري
عسكريا
عسكرية
عسكريون
عسكريين
عسل
عسى
عسير
عش
عشاء
عشاب
عشاش
عشاق
عشاي
عشب
عشر
عشرا
عشرات
عشرة
عشرون
عشري
عشرية
عشرين
عشرينيات
عشق
عشواي
عشى
عشية
عشيرة
عصا
عصاب
عصابات
عصابة
عصار
عصام
عصب
عصبة
عصبي
عصبية
عصر
عصرنا
عصره
عصفور
عصمة
عصمت
عصور
عصى
عصير
عض
عضاء
عضاو
عضاي
عضد
عضلات
عضلة
عضلي
عضو
عضوا
عضوة
عضوي
عضوية
عط
عطا
عطاء
عطارد
عطاني
عطاه
عطاها
عطاهم
عطاو
عطاي
عطت
عطف
عطل
عطلة
عطوا
عطى
عطي
عطية
عطيت
عطيته
عظام
عظم
عظماء
عظمة
عظمى
عظمي
عظمية
عظيم
عظيما
عظيمة
عفا
عفاء
عفان
عفرين
عفو
عفوا
عفيف
عق
عقاب
عقار
عقارب
عقاقير
عقاي
عقب
عقبة
عقبت
عقبه
عقد
عقدا
عقدة
عقدت
عقده
عقدها
عقل
عقلا
عقله
عقلي
عقلية
عقوبات
عقوبة
عقود
عقول
عقولهم
عقيب
عقيد
عقيدة
عقيل
عكا
عكاشة
عكاظ
عكرمة
عكس
عكسي
عكسية
عل
علا
علاء
علاج
علاجات
علاجه
علاجها
علاجية
علاقات
علاقاته
علاقاتها
علاقة
علاقته
علاقتها
علام
علامات
علامة
علامي
علامية
علاميون
علان
علانات
علانية
علاه
علاها
علاوة
علبة
علة
علق
علقت
علقمة
علل
علم
علما
علماء
علمانية
علماي
علمت
علمك
علمنا
علمه
علمها
علمهم
علموا
علمي
علميا
علمية
علن
علنا
علنت
علنوا
علني
علنية
علو
علوا
علوان
علوم
علوي
علوية
على
علي
عليا
علية
عليك
عليكم
عليم
علينا
عليه
عليها
عليهم
عليهما
عليهن
علييف
علی
عم
عما
عماد
عمار
عمارة
عمارهم
عماق
عمال
عمالا
عمالة
عمالكم
عماله
عمالها
عمالهم
عمالية
عمان
عمة
عمته
عمد
عمدا
عمدات
عمدة
عمر
عمرا
عمران
عمرة
عمره
عمرها
عمرو
عمري
عمش
عمق
عمل
عملا
عملاء
عملات
عملاق
عملاقة
عملة
عملت
عملك
عمله
عملها
عملهم
عملوا
عملي
عمليا
عمليات
عملياتها
عملية
عمن
عمه
عمها
عمود
عمودي
عمودية
عموم
عموما
عمومية
عمى
عمي
عميد
عمير
عميرة
عميق
عميقة
عميل
عن
عنا
عناء
عنابة
عناصر
عناق
عناقيد
عنان
عناوين
عناية
عنبر
عنبسة
عنتر
عنترة
عنخ
عند
عندك
عندكم
عندما
عندنا
عنده
عندها
عندهم
عندي
عنصر
عنصرا
عنصري
عنصرية
عنف
عنق
عنقه
عنقود
عنك
عنكم
عنه
عنها
عنهم
عنهما
عنوان
عنوانه
عنوانها
عنوة
عنى
عني
عنيزة
عنيف
عنيفة
عه
عها
عهد
عهدا
عهده
عهم
عهود
عوا
عواد
عواصم
عواطف
عواقب
عوالم
عوام
عوامل
عوان
عوانة
عواي
عود
عودة
عودته
عودتها
عودتهم
عوذ
عور
عوز
عوض
عوضا
عوف
عون
عى
عي
عياء
عياد
عيادة
عيار
عياش
عياض
عيال
عيان
عيب
عيد
عيدت
عير
عيسى
عيش
عين
عينا
عينات
عيناه
عينة
عينت
عينه
عينها
عينهم
عيني
عينيه
عينيها
عيوب
عيون
عيينة
غ
غا
غاب
غابات
غابة
غابت
غابرييل
غاثة
غادة
غادر
غادرت
غار
غارات
غارة
غاردنر
غارسيا
غاري
غاز
غازات
غازي
غال
غالب
غالبا
غالبية
غالي
غاليسيا
غاما
غامبيا
غامض
غامضة
غان
غانا
غاندي
غانم
غاني
غانيه
غانيون
غاي
غاية
غايته
غبار
غة
غد
غدا
غداة
غدر
غذاء
غذاي
غذية
غر
غراء
غراب
غرابة
غرار
غراض
غراق
غرام
غرامة
غرامي
غران
غرانت
غراند
غراندي
غراهام
غراي
غرب
غربا
غربي
غربية
غرة
غرس
غرض
غرف
غرفة
غرق
غرقت
غرناطة
غروب
غروف
غري
غريب
غريبا
غريبة
غريس
غريغ
غريغوري
غريق
غريقي
غريقية
غرين
غرينادا
غرينتش
غزا
غزال
غزة
غزت
غزل
غزو
غزوات
غزوان
غزوة
غزير
غزيرة
غسان
غسطس
غسل
غسله
غسيل
غشاء
غشاي
غشية
غصان
غصن
غضب
غضبا
غضبه
غضون
غطاء
غطت
غطفان
غطى
غطية
غفر
غفلة
غل
غلاسكو
غلاف
غلاق
غلاقها
غلال
غلام
غلاما
غلب
غلبة
غلبت
غلبها
غلبهم
غلبية
غلط
غلطة
غلظ
غلفة
غلق
غلقت
غلوب
غلى
غليظ
غلين
غم
غمار
غمر
غموض
غن
غناء
غنام
غناي
غنت
غنم
غنى
غني
غنيا
غنياء
غنيات
غنية
غنيته
غنيس
غنيم
غنيمة
غو
غوا
غواتيمالا
غواتيماليون
غوادالاخارا
غوار
غواصات
غواصة
غواط
غوام
غوانتانامو
غوتنبرغ
غوته
غود
غور
غوردون
غوستاف
غوغل
غوغنهايم
غول
غولد
غولدن
غولف
غوميز
غون
غونزاليس
غونما
غويانا
غي
غياب
غيابه
غياث
غيانا
غيتار
غير
غيرة
غيرت
غيرك
غيره
غيرها
غيرهم
غيرهما
غيري
غيل
غيلان
غيلبرت
غيم
غيمز
غينيا
غينيون
ـ
ـب
ـر
ــ
ـل
ـم
ـن
ـه
ـي
ف
فا
فاء
فابيان
فابيو
فات
فاتح
فاتحة
فاتن
فاته
فاجا
فاجتمع
فاجن
فاختار
فاخر
فاخرة
فاد
فادة
فادت
فادحة
فادي
فاذا
فار
فارس
فارسي
فارسية
فارغ
فارغة
فارق
فارقة
فارو
فاروق
فاز
فازت
فازوا
فاس
فاسا
فاستا
فاسد
فاسدة
فاسكو
فاسو
فاسيلي
فاشلة
فاصل
فاصلة
فاض
فاضطر
فاضل
فاضلا
فاطمة
فاعل
فاعلا
فاعلة
فاعلم
فاعله
فاعلو
فاعلية
فاعي
فاغنر
فاق
فاكهة
فال
فالا
فالتفت
فالجواب
فالذي
فالقول
فالكون
فالله
فالنسيا
فالي
فاليري
فاما
فامتنع
فان
فانتازيا
فانتسي
فانصرف
فانطلق
فانطلقت
فانظر
فانكوفر
فانما
فانه
فانها
فانواتو
فاني
فاه
فاي
فاير
فايز
فايس
فايف
فايل
فايمار
فاينل
فبا
فبدا
فبراير
فبطل
فبعث
فبعد
فبقي
فبكى
فبلغ
فبين
فبينا
فبينما
فة
فت
فتا
فتاء
فتاة
فتاوى
فتبين
فتح
فتحات
فتحة
فتحت
فتحه
فتحها
فتحي
فترات
فترة
فترته
فترض
فترك
فترى
فتقدم
فتقول
فتكون
فتلك
فتم
فتنة
فتوح
فتوضا
فتوى
فتى
فتيات
فتيان
فتين
فثبت
فج
فجا
فجاء
فجاءت
فجاءه
فجر
فجعل
فجعلت
فجعله
فجعلوا
فجلس
فجمع
فجوة
فجي
فحة
فحدثني
فحسب
فحص
فحصل
فحل
فحم
فحمد
فحمل
فحوصات
فحيني
فخ
فخذ
فخر
فخرج
فخرجت
فخرجوا
فخري
فخرية
فداء
فدان
فدخل
فدخلت
فدعا
فدل
فدية
فذاك
فذكر
فذكرت
فذكره
فذلك
فذهب
فذهبت
فر
فرا
فراج
فراح
فراد
فراده
فرادها
فراز
فرازات
فراس
فراسخ
فراش
فراشه
فراط
فراغ
فرام
فران
فرانز
فرانس
فرانسوا
فرانسيس
فرانسيسكو
فرانشيسكو
فرانك
فرانكفورت
فرانكلين
فرانكو
فراي
فرايبورغ
فربما
فرج
فرجع
فرجعت
فرجينيا
فرح
فرحا
فرحات
فرحان
فرد
فردا
فرده
فردي
فردية
فرديناند
فرز
فرس
فرسا
فرسان
فرساي
فرسخ
فرسه
فرص
فرصة
فرض
فرضا
فرضت
فرضه
فرضها
فرضية
فرط
فرع
فرعا
فرعون
فرعي
فرعية
فرغ
فرغت
فرفع
فرق
فرقا
فرقة
فركب
فرن
فرناندو
فرنانديز
فرنج
فرنسا
فرنسي
فرنسيات
فرنسية
فرنسيس
فرنسيسكو
فرنسيون
فرنك
فرو
فروا
فروة
فروخ
فروع
فروى
فرويد
فري
فريتز
فريد
فريدا
فريدة
فريدرش
فريدريش
فريدريك
فريدمان
فريدي
فريزر
فريضة
فريق
فريقا
فريقه
فريقي
فريقيا
فريقيات
فريقية
فريقين
فريقيون
فريل
فريمان
فزع
فس
فسا
فساد
فسادا
فساده
فسار
فسخ
فسد
فسدت
فسر
فسقط
فسكت
فسلم
فسمع
فسمعت
فسوف
فسي
فشل
فشلت
فشين
فشيي
فص
فصاح
فصار
فصارت
فصاعد
فصاعدا
فصاي
فصح
فصل
فصلا
فصلت
فصله
فصلوا
فصلى
فصول
فصيح
فصيل
فصيلة
فض
فضاء
فضالة
فضاي
فضة
فضت
فضحك
فضرب
فضربه
فضل
فضلا
فضلت
فضلك
فضله
فضلية
فضى
فضي
فضية
فضيحة
فضيل
فضيلة
فطار
فطر
فطريات
فطلب
فظن
فظهر
فع
فعاد
فعال
فعالا
فعالة
فعاله
فعالهم
فعاليات
فعالية
فعرض
فعل
فعلا
فعلت
فعلته
فعلم
فعله
فعلها
فعلوا
فعلى
فعلي
فعليا
فعلية
فعليه
فعمل
فعن
فعند
فعندما
فعى
فغان
فغانستان
فغاني
فغانية
فغضب
فغير
فـي
ففتح
ففعل
ففعلوا
ففي
ففيه
ففيها
فق
فقاريات
فقال
فقالا
فقالت
فقالوا
فقام
فقامت
فقبل
فقتل
فقتله
فقتلوا
فقد
فقدان
فقدت
فقدم
فقدوا
فقر
فقرا
فقراء
فقرات
فقرة
فقرر
فقضى
فقط
فقطع
فقل
فقلت
فقلنا
فقمت
فقه
فقهاء
فقوله
فقولوا
فقي
فقية
فقير
فقيرا
فقيرة
فقيل
فقيه
فقيها
فك
فكا
فكار
فكاره
فكارهم
فكان
فكانت
فكانوا
فكتب
فكتوريا
فكذلك
فكر
فكرة
فكرت
فكرته
فكره
فكري
فكرية
فكل
فكلما
فكم
فكما
فكنت
فكيف
فل
فلا
فلابد
فلات
فلاح
فلاديمير
فلاس
فلاسفة
فلاش
فلاطون
فلاطونية
فلاك
فلام
فلامه
فلان
فلانا
فلانة
فلاندرز
فلبين
فلبيني
فلبينية
فلبينيون
فلح
فلذلك
فلس
فلست
فلسطين
فلسطيني
فلسطينية
فلسطينيون
فلسفة
فلسفي
فلسفية
فلعل
فلقد
فلك
فلكلور
فلكي
فلكية
فلكيون
فلم
فلما
فلماذا
فلن
فله
فلها
فلهذا
فلو
فلورنس
فلورنسا
فلوريد
فلوريدا
فلوريس
فلولا
فلويد
فلي
فليا
فليس
فليست
فليكن
فلين
فم
فما
فمات
فماذا
فمتى
فمثل
فمثلا
فمر
فمضى
فمن
فمنها
فمنهم
فمه
فن
فنا
فناء
فنادق
فنادى
فنان
فنانات
فنانة
فنانو
فنانون
فناني
فنانين
فنتازيا
فنحن
فندق
فندي
فنزل
فنزلت
فنزويلا
فنزويلي
فنزويليون
فنسنت
فنظر
فنظرت
فنقول
فنلندا
فنلندي
فنلندية
فنلنديون
فنه
فنون
فني
فنيا
فنية
فنيون
فه
فها
فهام
فهد
فهذا
فهذه
فهر
فهرب
فهرس
فهرنهايت
فهل
فهلا
فهم
فهما
فهمت
فهمه
فهمها
فهمي
فهنا
فهناك
فهو
فهى
فهي
فو
فوا
فوات
فواج
فوافق
فوالله
فواه
فواي
فوت
فوتبول
فوج
فوجب
فوجد
فوجدت
فوجه
فوجي
فور
فورا
فوربس
فورت
فورتمبيرغ
فورد
فورست
فورمولا
فوري
فورية
فوز
فوزا
فوزه
فوزها
فوزي
فوس
فوستر
فوسفات
فوضع
فوضى
فوق
فوقع
فوقعت
فوقف
فوقه
فوقها
فوكس
فوكلاند
فوكوكا
فول
فولت
فولتا
فولتير
فولدت
فولر
فولز
فولفغانغ
فولك
فولكس
فولهام
فولي
فون
فوهة
فى
في
فيا
فيات
فياريال
فيبر
فيبقى
فية
فيت
فيتا
فيتامين
فيتم
فيتنام
فيتوريا
فيجب
فيجوز
فيجي
فيخرج
فيد
فيدخل
فيدرالية
فيدرير
فيدل
فيديريكو
فيديو
فيديوهات
فير
فيرا
فيراري
فيرجينيا
فيرغسون
فيرمونت
فيرناندو
فيرنر
فيرنون
فيروز
فيروس
فيروسات
فيرونا
فيرى
فيري
فيريرا
فيزياء
فيزياي
فيس
فيسبوك
فيستا
فيسنتي
فيشر
فيشنجان
فيصل
فيصلي
فيصير
فيض
فيضان
فيضانات
فيغاس
فيغو
فيفا
فيقال
فيقول
فيقولون
فيقوم
فيك
فيكتور
فيكتوريا
فيكم
فيكون
فيل
فيلا
فيلادلفيا
فيلد
فيلزم
فيلسوف
فيلق
فيلم
فيلما
فيلمه
فيلنيوس
فيلهلم
فيلي
فيليب
فيليبس
فيليبي
فيليز
فيليكس
فيم
فيما
فيمكن
فيمن
فين
فينا
فينبغي
فينس
فينسنت
فينوس
فينيكس
فينيل
فيه
فيها
فيهم
فيهما
فيهن
فيو
فيورنتينا
فيون
فيونية
فيينا
فی
ق
قا
قاء
قاب
قابضة
قابل
قابلا
قابلة
قابلت
قابله
قابلية
قابوس
قابيل
قات
قاتل
قاتلة
قاتلت
قاتله
قاتلوا
قاد
قادة
قادت
قادته
قادتها
قادر
قادرا
قادرة
قادرين
قادس
قادم
قادمة
قاده
قادها
قاذفات
قاذفة
قار
قارات
قارب
قاربه
قارة
قارن
قاري
قازان
قاس
قاسم
قاسية
قاصدا
قاض
قاضي
قاضيا
قاطع
قاطعة
قاع
قاعات
قاعة
قاعدا
قاعدة
قافلة
قال
قالا
قالب
قالة
قالت
قالته
قاله
قالها
قالوا
قالوه
قاليم
قام
قاما
قامة
قامت
قامته
قامتها
قامه
قاموا
قاموس
قانون
قانونا
قانوني
قانونيا
قانونية
قاويل
قاي
قب
قباء
قباب
قباط
قبال
قبالة
قباي
قبة
قبح
قبر
قبرص
قبره
قبض
قبضة
قبضه
قبعة
قبل
قبلة
قبلت
قبلك
قبلكم
قبلنا
قبله
قبلها
قبلهم
قبلوا
قبلي
قبور
قبورهم
قبول
قبوله
قبولها
قبيح
قبيصة
قبيل
قبيلة
قة
قت
قتا
قتادة
قتال
قتالا
قتالهم
قتالية
قتة
قترح
قتل
قتلا
قتلة
قتلت
قتلته
قتله
قتلها
قتلهم
قتلوا
قتلى
قتيبة
قتيل
قتيلا
قثنا
قحطان
قد
قدار
قداس
قدام
قدامة
قدامى
قدت
قدح
قدر
قدرا
قدرات
قدرة
قدرت
قدرته
قدرتها
قدرتهم
قدره
قدرها
قدس
قدم
قدما
قدماء
قدمت
قدمته
قدمتها
قدمنا
قدمه
قدمها
قدموا
قدمين
قدميه
قدوم
قدير
قديسون
قديم
قديما
قديمة
قذاي
قذف
قذيفة
قر
قرا
قراء
قراءات
قراءة
قراءته
قراءتها
قرابة
قرار
قرارا
قرارات
قراره
قرارها
قراص
قراصنة
قراض
قران
قرانه
قراي
قرب
قربة
قربها
قرة
قرت
قرد
قرر
قررت
قرروا
قرش
قرص
قرض
قرطاج
قرطاجنة
قرطبة
قرع
قرعة
قرن
قره
قروا
قروض
قرون
قروية
قرى
قري
قريب
قريبا
قريبة
قرية
قريته
قريش
قريشا
قريظة
قرينة
قزام
قزح
قزم
قزوين
قس
قسام
قسط
قسطنطين
قسم
قسما
قسمة
قسمت
قسمين
قسنطينة
قسوة
قسيس
قشتالة
قشرة
قص
قصاء
قصاص
قصاي
قصب
قصبة
قصة
قصته
قصد
قصده
قصر
قصره
قصص
قصصه
قصصية
قصف
قصفت
قصور
قصوى
قصى
قصي
قصيدة
قصيدته
قصير
قصيرة
قضاء
قضاة
قضاعة
قضاها
قضاي
قضايا
قضبان
قضت
قضى
قضي
قضيب
قضية
قضيت
قط
قطاب
قطار
قطارات
قطاع
قطاعات
قطاعي
قطاعية
قطب
قطبي
قطة
قطر
قطرات
قطرة
قطره
قطرها
قطري
قطرية
قطريون
قطع
قطعا
قطعة
قطعت
قطعه
قطعها
قطن
قع
قعد
قف
قفال
قفز
قفل
قل
قلابة
قلادة
قلاع
قلام
قلاوون
قلاي
قلب
قلبك
قلبه
قلبها
قلبي
قلبية
قلة
قلت
قلتم
قلته
قلعة
قلق
قلقه
قلل
قلم
قلما
قلنا
قلوب
قلوبنا
قلوبهم
قليات
قلية
قليل
قليلا
قليلة
قليم
قليمي
قليمية
قم
قمار
قماش
قمة
قمت
قمر
قمشة
قمع
قمم
قمنا
قميص
قنا
قنابل
قناة
قناع
قنبلة
قنديل
قنصلية
قنع
قنعة
قنوات
قه
قها
قهوة
قو
قوا
قوات
قواته
قواتها
قواتهم
قوارب
قواس
قواعد
قوال
قوالب
قواله
قوالهم
قوام
قوامه
قوامها
قوانين
قواي
قوبل
قوة
قوت
قوته
قوتها
قوتهم
قود
قوس
قوسين
قول
قولا
قولان
قولك
قولكم
قولنا
قوله
قولها
قولهم
قولوا
قولي
قولين
قوم
قوما
قومك
قومه
قومهم
قومي
قومية
قوميون
قونية
قوى
قوي
قويا
قوياء
قوية
قى
قي
قيادات
قيادة
قيادته
قيادي
قياس
قياسا
قياسات
قياسه
قياسها
قياسي
قياسيا
قياسية
قيام
قيامه
قيامها
قية
قيثارة
قيد
قيرغيزستان
قيس
قيصر
قيل
قيم
قيمة
قيمت
قيمته
قيمتها
قين
قيود
ك
كا
كاب
كابتن
كابر
كابز
كابل
كابن
كابور
كابول
كات
كاتالونيا
كاتالينا
كاتب
كاتبا
كاتبات
كاتبة
كاتبه
كاتدراي
كاترين
كاترينا
كاتس
كاتو
كاتي
كاثرين
كاثوليك
كاثوليكي
كاثوليكية
كاد
كادت
كادير
كاديمي
كاديميات
كاديمية
كاديميو
كاديميون
كاديميين
كاذب
كاذبا
كاذبة
كاذيب
كار
كارا
كاراكاس
كارتر
كارتون
كارثة
كارد
كارديف
كارسون
كارل
كارلايل
كارلتون
كارلسروه
كارلسون
كارلو
كارلوس
كارمن
كارناتاكا
كارنيجي
كارول
كارولاينا
كارولوس
كارولين
كارولينا
كاري
كارين
كاريوكا
كازاخستان
كازاخستانيون
كاس
كاسترو
كاستيلو
كاسل
كاسيد
كاش
كاشف
كاظم
كاف
كافالييرز
كافة
كافر
كافرا
كافي
كافيا
كافية
كال
كالا
كالتالي
كالذي
كالغاري
كالي
كالياري
كاليدونيا
كاليفورنيا
كاليه
كام
كامب
كامبانيا
كامبريج
كامبريدج
كامبل
كامبو
كامل
كاملا
كاملة
كاميرا
كاميرات
كاميرون
كاميرونيون
كان
كانا
كاناغاوا
كانت
كانتا
كانتربري
كانتري
كانتون
كانزاس
كانساس
كانغ
كانو
كانوا
كانون
كانيدا
كاهن
كاونتي
كاي
كايل
كاين
كب
كبار
كباقي
كبد
كبديل
كبر
كبرت
كبرها
كبرى
كبريتات
كبريتيد
كبير
كبيرا
كبيرة
كة
كت
كتاب
كتابا
كتابات
كتاباته
كتابة
كتابته
كتابتها
كتابنا
كتابه
كتابها
كتابي
كتالونيا
كتاي
كتب
كتبا
كتبت
كتبته
كتبتها
كتبه
كتبها
كتبهم
كتبوا
كتشف
كتل
كتلة
كتلتها
كته
كتوبر
كتيب
كتيبة
كث
كثار
كثافة
كثب
كثر
كثرة
كثرت
كثره
كثرها
كثرهم
كثروا
كثرية
كثير
كثيرا
كثيرة
كثيرون
كثيرين
كثيف
كثيفة
كجزء
كجم
كحارس
كحد
كحل
كد
كدا
كدة
كدت
كدليل
كده
كدوا
كدولة
كدين
كذا
كذاب
كذب
كذبا
كذبت
كذبه
كذبوا
كذلك
كر
كرا
كرات
كراتشي
كراد
كراكوف
كرام
كرامة
كراه
كراهة
كراهية
كراي
كرايغ
كرب
كربلاء
كربون
كربونات
كرة
كرت
كرتون
كرجل
كرد
كردستان
كردي
كردية
كرر
كرس
كرسي
كركوك
كرم
كرمان
كرمز
كرمه
كره
كرهت
كرهه
كرو
كروات
كرواتي
كرواتيا
كرواتيون
كروز
كروس
كروفورد
كروم
كروموسوم
كرون
كروي
كروية
كري
كريات
كريب
كريت
كريس
كريستال
كريستوف
كريستوفر
كريستي
كريستيان
كريستيانو
كريستين
كريستينا
كريغسمارينه
كريك
كريكت
كريم
كريما
كريمة
كس
كساي
كسب
كسبت
كسبه
كستر
كسجين
كسد
كسدة
كسر
كسرى
كسفورد
كسل
كسور
كسوف
كسيد
كشافة
كشركة
كشف
كشفت
كشمير
كشن
كعامل
كعب
كعضو
كعلاج
كغ
كغم
كـ
كف
كفاء
كفاءة
كفار
كفارة
كفاية
كفر
كفرا
كفره
كفرهم
كفروا
كفه
كفى
كقاعدة
كقاي
كقوة
كقول
كقولك
كقوله
كقولهم
ككل
كل
كلا
كلاب
كلات
كلارا
كلارك
كلارنس
كلاسيكي
كلاسيكية
كلاسيكيون
كلاعب
كلام
كلاما
كلامك
كلامه
كلامهم
كلامي
كلاهما
كلاوس
كلاي
كلايتون
كلايد
كلاين
كلب
كلة
كلت
كلتا
كلثوم
كلغة
كلف
كلفة
كلفت
كلفن
كلكتا
كلم
كلما
كلمات
كلماته
كلمة
كلمته
كلمه
كلميم
كلنا
كله
كلها
كلهم
كلوا
كلوب
كلود
كلوريد
كلون
كلوي
كلي
كليا
كليات
كليب
كليبرز
كلية
كلير
كليف
كليفلاند
كليل
كليمنت
كلينتون
كليهما
كليوباترا
كم
كما
كمادة
كمال
كماله
كمان
كمبوديا
كمبيوتر
كمثال
كمثل
كمجموعة
كمحترف
كمختارة
كمدافع
كمدرب
كمدير
كمركز
كمساعد
كمستشار
كمصدر
كمل
كملت
كمله
كملها
كممثل
كمن
كمهاجم
كمو
كموقع
كمي
كميات
كمية
كمين
كن
كنا
كنانة
كناي
كناية
كنت
كنتاكي
كنتري
كنتم
كنتيجة
كندا
كندة
كندي
كنديات
كندية
كنديون
كنز
كنساس
كنسبة
كنعان
كنوز
كنوع
كنية
كنيته
كنيس
كنيسة
كه
كهذا
كهذه
كهرباء
كهرباي
كهف
كهنة
كهوف
كهيي
كو
كوا
كواحد
كواحدة
كوادور
كوادوري
كوادورية
كوادوريون
كوارث
كواكب
كوالالمبور
كوان
كوب
كوبا
كوباياشي
كوبر
كوبنهاغن
كوبي
كوبيون
كوت
كوخ
كود
كور
كورة
كورت
كورتيس
كورك
كورنوال
كورنيل
كورنيليس
كورونا
كوري
كوريا
كوريات
كورية
كوريون
كوزير
كوست
كوستا
كوستاريكا
كوستاريكيون
كوسوفو
كوسيلة
كوش
كوع
كوف
كوفمان
كوفنتري
كوفي
كوفيد
كوك
كوكا
كوكب
كوكبة
كوكس
كوكو
كوكيمبو
كول
كولا
كولات
كولمان
كولن
كولورادو
كولومبوس
كولومبي
كولومبيا
كولومبيون
كولون
كولونيا
كولي
كوليج
كوليدج
كولين
كولينز
كوم
كومار
كومة
كومكس
كومنز
كومو
كوميدي
كوميديا
كوميدية
كوميديون
كون
كونا
كونان
كونت
كونتي
كونج
كونراد
كونغ
كونغرس
كونغوليون
كونغيون
كونكاكاف
كونكورد
كونه
كونها
كونهم
كوني
كونيتيكت
كوهن
كوهين
كووورة
كوي
كويت
كويتي
كويتية
كويتيون
كويكب
كويكبات
كوين
كوينز
كوينزلاند
كي
كياس
كيان
كيانات
كيب
كيبك
كيبلر
كيبيك
كيت
كيتا
كيتس
كيتو
كيث
كيد
كيدا
كير
كيرا
كيربي
كيرك
كيرلا
كيرلنغ
كيري
كيريباتي
كيس
كيسان
كيسي
كيف
كيفن
كيفية
كيفين
كيك
كيل
كيلا
كيلر
كيلو
كيلوغرام
كيلومتر
كيلومترا
كيلومترات
كيلوواط
كيلي
كيم
كيمياء
كيمياي
كين
كينت
كينج
كينز
كينغ
كينغز
كينغستون
كيني
كينيا
كينيث
كينيدي
كينيون
كيه
كيو
كيوتو
كييف
ل
لا
لاء
لاا
لاب
لاباما
لابد
لابن
لابنه
لاة
لات
لاتحاد
لاتحريرقسم
لاتخاذ
لاتسيو
لاتفاقية
لاتفيا
لاتفيون
لاتهم
لاتيني
لاتينية
لاتينيون
لاجي
لاح
لاحتلال
لاحظ
لاحظت
لاحق
لاحقا
لاحقة
لاختبار
لاختلاف
لاختيار
لاد
لادن
لارا
لارتفاع
لارس
لاري
لازم
لازما
لازمة
لاس
لاستخدام
لاستخدامه
لاستخدامها
لاستخراج
لاستضافة
لاستعادة
لاستقبال
لاستكشاف
لاستكمال
لاستي
لاستيعاب
لاسكا
لاسم
لاسيلا
لاسيما
لاعب
لاعبا
لاعبات
لاعبة
لاعبو
لاعبون
لاعبي
لاعبين
لاغرانج
لاغوس
لاف
لافال
لافاييت
لافتة
لافهرس
لاق
لاقت
لاقى
لاك
لاكتشاف
لال
لالة
لام
لاما
لامبرت
لامرا
لان
لانا
لانتخاب
لانتخابات
لانتقادات
لانج
لاند
لانغ
لانكستر
لانه
لانها
لاه
لاهاي
لاهوتيون
لاهور
لاو
لاوس
لاي
لايبزيغ
لايت
لايف
لاين
لايوجد
لب
لبا
لباب
لباس
لبان
لباني
لبانيا
لبانية
لبث
لبثت
لبحث
لبدء
لبرامج
لبرت
لبرتا
لبرتو
لبرنامج
لبريطانيا
لبس
لبطولة
لبعض
لبعضهم
لبقية
لبلاد
لبلدية
لبن
لبناء
لبنان
لبناني
لبنانيات
لبنانية
لبنانيون
لبني
لبوم
لبومات
لبومه
لبومها
لبي
لبيان
لبيب
لبيت
لبيد
لبيع
لبيك
لبيون
لة
لت
لتا
لتاريخ
لتبادل
لتبرير
لتجارة
لتجنب
لتحديد
لتحرير
لتحسين
لتحقيق
لتحل
لتحليل
لتحويل
لتخزين
لتخفيف
لتدريب
لتدريس
لتدمير
لتر
لتركيا
لتزويد
لتسجيل
لتسمية
لتسهيل
لتسوية
لتشجيع
لتشخيص
لتشغيل
لتشكل
لتشكيل
لتشمل
لتصبح
لتصحيح
لتصل
لتصميم
لتصنيع
لتصنيف
لتصوير
لتطبيق
لتطور
لتطوير
لتعداد
لتعديل
لتعريف
لتعزيز
لتعلم
لتعليم
لتغطية
لتغير
لتغيير
لتفادي
لتفسير
لتقدم
لتقدير
لتقديم
لتقرير
لتقليل
لتقييم
لتك
لتكريم
لتكون
لتكوين
لتلبية
لتلقي
لتلك
لتمثيل
لتمكين
لتمويل
لتناول
لتنسيق
لتنظيم
لتنفيذ
لتنمية
لته
لتها
لتو
لتوجيه
لتوحيد
لتوزيع
لتوسيع
لتوضيح
لتوفير
لتولي
لتوليد
لتي
لتين
لثلاث
لثلاثة
لج
لجا
لجامعة
لجان
لجاي
لجذب
لجزيرة
لجعل
لجلب
لجماعة
لجمع
لجمعية
لجمهورية
لجميع
لجنة
لجنوب
لجهاز
لجهة
لجون
لجيش
لح
لحاجة
لحاح
لحاد
لحاق
لحالات
لحالة
لحام
لحان
لحج
لحجم
لحد
لحدوث
لحديث
لحذف
لحرب
لحركة
لحرية
لحزب
لحساب
لحسن
لحضور
لحظات
لحظة
لحفظ
لحق
لحقت
لحقه
لحقوق
لحكم
لحكومة
لحل
لحم
لحماية
لحمل
لحملة
لحمه
لحن
لحوالي
لحوم
لحياة
لحيته
لحين
لخ
لخدمات
لخدمة
لخط
لخطر
لخفض
لخلق
لخمس
لد
لدار
لداي
لدت
لدخول
لدراسات
لدراسة
لدرجة
لدعم
لدفع
لدن
لدور
لدورة
لدوري
لدول
لدولة
لدى
لدي
لديك
لدين
لدينا
لديه
لديها
لديهم
لديهن
لذ
لذا
لذات
لذاته
لذة
لذكر
لذكرى
لذلك
لذوي
لذي
لر
لرا
لرابطة
لرب
لربط
لرجال
لرجل
لرسم
لرسول
لرصد
لرعاية
لرفع
لرو
لرواية
لروسيا
لري
لرياضة
لزاس
لزام
لزامي
لزامية
لزراعة
لزم
لزمه
لزهايمر
لزوجته
لزوجها
لزوم
لزيادة
لزيارة
لس
لسان
لسانه
لساي
لسباق
لسباقات
لسبب
لست
لسحب
لسكان
لسلاح
لسلسلة
لسلطة
لسن
لسنا
لسنة
لسنتهم
لسنوات
لسوء
لسياسات
لسياسة
لسيطرة
لش
لشبكة
لشبه
لشبونة
لشخص
لشخصية
لشدة
لشراء
لشرح
لشركات
لشركة
لشعب
لشمال
لشن
لشهر
لشو
لشي
لشيء
لص
لصاحب
لصاحبه
لصالح
لصالحه
لصحة
لصحيفة
لصفحة
لصناعة
لصندوق
لصنع
لضحايا
لضعف
لضمان
لطالما
لطان
لطاي
لطب
لطبيعة
لطة
لطريقة
لطف
لطفي
لطلاب
لطلب
لطلبة
لطول
لطيف
لطيفة
لظهور
لع
لعاب
لعالم
لعام
لعاي
لعب
لعباده
لعبة
لعبت
لعبد
لعبه
لعبها
لعبوا
لعثمان
لعدة
لعدد
لعدم
لعرض
لعزلة
لعضوية
لعقد
لعقود
لعل
لعلاج
لعلم
لعلماء
لعله
لعلوم
لعلي
لعمر
لعمرو
لعمري
لعمل
لعمله
لعمليات
لعملية
لعموم
لعن
لعنة
لعنه
لغاء
لغات
لغاز
لغام
لغاو
لغاي
لغاية
لغة
لغت
لغته
لغتهم
لغرض
لغز
لغزو
لغوي
لغوية
لغويون
لغى
لغي
لغيت
لغير
لغيره
لـ
لف
لفا
لفات
لفاته
لفارو
لفاريز
لفاظ
لفاظه
لفان
لفاي
لفة
لفت
لفتح
لفترات
لفترة
لفحص
لفرد
لفرض
لفرق
لفرقة
لفرنسا
لفريد
لفريدو
لفريق
لفصل
لفظ
لفظا
لفظة
لفظه
لفظي
لفعل
لفكرة
لفلان
لفلسطين
لفن
لفه
لفها
لفهم
لفو
لفون
لفونسو
لفي
لفيات
لفية
لفيروس
لفيس
لفيف
لفيلم
لفين
لق
لقاء
لقاءات
لقاب
لقاح
لقاحات
لقاعدة
لقانون
لقاه
لقاها
لقاي
لقب
لقبه
لقبول
لقبيلة
لقت
لقتال
لقتل
لقد
لقراءة
لقرار
لقرية
لقسم
لقضاء
لقطات
لقطاع
لقطة
لقطع
لقلة
لقمان
لقمة
لقمع
لقناة
لقوا
لقوات
لقواعد
لقوانين
لقوة
لقول
لقوله
لقوم
لقى
لقي
لقيادة
لقياس
لقيام
لقيت
لقيه
لك
لكا
لكافة
لكان
لكانت
لكبار
لكتاب
لكتابة
لكترون
لكترونات
لكتروني
لكترونيات
لكترونية
لكتريك
لكثرة
لكثير
لكرة
لكساندر
لكساندرا
لكسب
لكسر
لكسندر
لكشف
لكل
لكلا
لكلمة
لكلية
لكم
لكما
لكن
لكنني
لكنه
لكنها
لكنهم
لكنهما
لكني
لكنيسة
لكوريا
لكوكب
لكون
لكونه
لكونها
لكي
لكيفية
لل
للا
للاتحاد
للاتصال
للاتصالات
للاجي
للاحتفال
للاحتلال
للاختبار
للاستثمار
للاستخدام
للاستفادة
للاستيلاء
للاسم
للاضطرابات
للاعب
للاعبين
للاقتصاد
للانتخابات
للانتقال
للانضمام
للاهتمام
للباحثين
للبالغين
للباي
للبترول
للبحث
للبحر
للبحرية
للبحوث
للبرقوقي
للبرلمان
للبرنامج
للبشر
للبطولة
للبقاء
للبلاد
للبلد
للبلدان
للبلدة
للبناء
للبنات
للبنك
للبنين
للبيانات
للبيع
للبيي
للتا
للتاريخ
للتجارة
للتحالف
للتحرير
للتحقق
للتحقيق
للتحكم
للتخطيط
للتخفيف
للتخلص
للتدخل
للتدريب
للتدريس
للتراث
للتربية
للترجمة
للترفيه
للترويج
للتزلج
للتصميم
للتصويت
للتصوير
للتطبيق
للتطور
للتطوير
للتعامل
للتعاون
للتعبير
للتعديل
للتعذيب
للتعرف
للتعريف
للتعلم
للتعليم
للتغلب
للتغيير
للتفاوض
للتقدم
للتقنية
للتكنولوجيا
للتلفزيون
للتمييز
للتنس
للتنظيم
للتنمية
للتو
للتواصل
للتوسع
للثقافة
للثورة
للجامعات
للجامعة
للجاي
للجبهة
للجدل
للجزء
للجزاي
للجزيرة
للجسم
للجماعات
للجماعة
للجمعية
للجمهور
للجمهورية
للجميع
للجنة
للجنس
للجنود
للجهاز
للجيش
للحاجة
للحاكم
للحالات
للحالة
للحج
للحد
للحدود
للحديث
للحذف
للحرارة
للحرب
للحرس
للحركة
للحرية
للحزب
للحساب
للحصول
للحفاظ
للحق
للحقوق
للحكم
للحكومة
للحماية
للحوار
للحياة
للحيوانات
للخارج
للخارجية
للخدمات
للخدمة
للخروج
للخطر
للخطوط
للخلايا
للخلف
للخليفة
للداي
للدبابات
للدخول
للدراجات
للدراسات
للدراسة
للدرجة
للدستور
للدعوة
للدفاع
للدكتور
للدلالة
للدم
للدماغ
للدموع
للدور
للدوري
للدول
للدولة
للدولتين
للديمقراطية
للدين
للذكور
للذهاب
للذوبان
للذي
للذين
للرا
للرابطة
للرجال
للرجل
للرد
للرسم
للرسول
للرسوم
للرعاية
للرقابة
للركاب
للرو
للرواية
للروم
للري
للرياضة
للزراعة
للزواج
للزوار
للزوج
للسامية
للساي
للسباحة
للسرطان
للسفر
للسفن
للسكان
للسكك
للسكن
للسلام
للسلطات
للسلطان
للسلطة
للسماح
للسنة
للسوق
للسياحة
للسيارات
للسياسات
للسياسة
للسيد
للسيدات
للسيطرة
للسينما
للشاعر
للشباب
للشبكة
للشخص
للشخصية
للشرب
للشرطة
للشرق
للشركات
للشركة
للشروط
للشطرنج
للشعب
للشعر
للشفاء
للشمس
للشو
للشيء
للشيخ
للشيوعية
للصحافة
للصحة
للصحفيين
للصلاة
للصليب
للصناعات
للصناعة
للصور
للصورة
للصيد
للصين
للضرب
للضغط
للضوء
للطاقة
للطالب
للطاي
للطب
للطباعة
للطبقة
للطبيعة
للطرق
للطعام
للطفل
للطلاب
للطلبة
للطيران
للعالم
للعام
للعامة
للعاملين
للعاي
للعب
للعبادة
للعبة
للعبد
للعبودية
للعثور
للعدالة
للعدو
للعديد
للعراق
للعرب
للعربية
للعرض
للعصر
للعقل
للعلاج
للعلاقات
للعلامة
للعلم
للعلماء
للعلوم
للعمال
للعمل
للعملاء
للعمليات
للعملية
للعناصر
للعنف
للعهد
للعودة
للعيش
للعين
للغات
للغاز
للغاية
للغة
للغزو
للـ
للفترة
للفتيات
للفرد
للفرق
للفرقة
للفريق
للفصل
للفضاء
للفقراء
للفكر
للفلسفة
للفن
للفنان
للفنون
للفوز
للفي
للفيروس
للفيزياء
للفيلم
للقاء
للقاري
للقاضي
للقانون
للقاي
للقتال
للقتل
للقرا
للقراءة
للقرن
للقرية
للقسم
للقصة
للقضاء
للقطاع
للقلب
للقلق
للقمر
للقناة
للقوات
للقواعد
للقوانين
للقوة
للقيادة
للقياس
للقيام
للكاتب
للكاتبة
للكاي
للكبار
للكتاب
للكتابة
للكتب
للكتلة
للكثير
للكرة
للكريكت
للكشف
للكلمة
للكلية
للكنيسة
للكهرباء
للكون
للكويت
للكويكب
للكويكبات
للكيمياء
للم
للماء
للمادة
للمبنى
للمثليين
للمجتمع
للمجلس
للمجموعة
للمحافظة
للمحاكمة
للمحترفين
للمحكمة
للمحليين
للمخرج
للمدارس
للمدرسة
للمدن
للمدينة
للمرء
للمرا
للمراقبة
للمرة
للمرحلة
للمرض
للمرضى
للمركبات
للمركز
للمريض
للمزيد
للمساعدة
للمساهمة
للمستخدم
للمستخدمين
للمستقبل
للمسجد
للمسرح
للمسلسل
للمسلمين
للمسيح
للمسيحية
للمسيحيين
للمشاركة
للمشتري
للمشروع
للمصارعة
للمطالبة
للمعايير
للمعرفة
للمعلومات
للمعهد
للمغرب
للمقالات
للمقالة
للمقاومة
للمكتب
للملاحة
للملاكمة
للملايين
للملك
للملكة
للملكية
للمملكة
للمناطق
للمنافسة
للمنتجات
للمنتخب
للمنطقة
للمنظمات
للمنظمة
للمهاجرين
للمو
للمواد
للموارد
للمواطنين
للموت
للموسم
للموسوعة
للموسيقى
للموضوع
للموظفين
للموقع
للمياه
للميلاد
للن
للنادي
للناس
للناشي
للنباتات
للنبي
للنساء
للنشاط
للنشر
للنص
للنظام
للنظر
للنفس
للنفط
للنقاش
للنقل
للنمو
لله
للهجرة
للهجوم
للهند
للهندسة
للهواء
للهواة
للهيي
للواقع
للوحدة
للوزراء
للوزن
للوصول
للوطن
للوقاية
للوقت
للولايات
للولاية
لليابان
لليهود
لليوم
لليونسكو
لم
لما
لماء
لمادة
لماذا
لماس
لمالك
لمام
لمان
لماني
لمانيا
لمانيات
لمانية
لمانيون
لمبدا
لمة
لمتابعة
لمثل
لمجتمع
لمجرد
لمجلة
لمجلس
لمجموعة
لمح
لمحاربة
لمحافظة
لمحاولة
لمحة
لمحمد
لمختلف
لمدارات
لمداره
لمدة
لمدرسة
لمديرية
لمدينة
لمراجعة
لمراقبة
لمرة
لمرحلة
لمرض
لمرضى
لمركز
لمزيد
لمس
لمسار
لمساعدة
لمسافات
لمسافة
لمستوى
لمسلسل
لمسلم
لمشاهدة
لمشروع
لمشيخة
لمصادر
لمصدر
لمصر
لمصطلح
لمصلحة
لمع
لمعالجة
لمعايير
لمعرفة
لمعظم
لمعلومات
لمعنى
لمعهد
لمغير
لمفهوم
لمقابلة
لمقاطعة
لمقالة
لمقاومة
لمكافحة
لمكان
لمكتب
لملك
لممارسة
لمملكة
لمن
لمناقشة
لمنتخب
لمنح
لمنصب
لمنطقة
لمنظمة
لمنع
لمنيوم
لمهاجمة
لمهرجان
لمو
لمواجهة
لمواصلة
لمواقع
لموت
لموسم
لموسى
لموسيقى
لموقع
لمي
لن
لنا
لنادي
لنتاي
لنحو
لندن
لنشر
لنظام
لنظرية
لنفس
لنفسك
لنفسه
لنفسها
لنفسي
لنقاش
لنقص
لنقل
لنكولن
لنمو
لنموذج
لنهاي
لنهر
لنوع
لني
لنيل
له
لها
لهات
لهام
لهب
لهة
لهتهم
لهجات
لهجة
لهجوم
لهذا
لهذه
لهزيمة
لهم
لهما
لهمت
لهن
لهو
لهوكي
لهي
لهية
لهيعة
لهيي
لو
لوا
لواء
لواح
لواحد
لوازم
لوالده
لوان
لوانها
لواي
لوبيز
لوثر
لوجه
لوجود
لوح
لوحات
لوحاته
لوحة
لوحدة
لوحظ
لوحظت
لودفيج
لودفيغ
لورا
لوران
لورانس
لورد
لورنس
لوري
لورين
لورينزو
لوزارة
لوزان
لوزير
لوس
لوساي
لوسي
لوسيا
لوسيان
لوصف
لوضع
لوط
لوغان
لوف
لوفة
لوفي
لوقا
لوقت
لوقف
لوك
لوكا
لوكاس
لوكالة
لوكسمبورغ
لوكسمبورغيون
لوكهيد
لوكوموتيف
لولا
لولاية
لوم
لومبارديا
لومنيوم
لون
لونا
لونسو
لونغ
لونه
لونها
لوني
لوه
لوهية
لوي
لوية
لويجي
لويد
لويز
لويزا
لويزيانا
لويس
لويفيل
لويكيبيديا
لويل
لى
لي
ليا
ليات
لياس
لياف
ليال
ليالي
ليانور
ليبدا
ليبرالية
ليبرتادوريس
ليبرتي
ليبي
ليبيا
ليبية
ليبيريا
ليبيون
لية
ليت
ليتا
ليتل
ليتم
ليتوانيا
ليتوانيون
ليتون
ليث
ليحصل
ليحل
ليخاندرو
ليختنشتاين
ليخرج
ليدز
ليدن
ليدي
ليديا
ليرة
ليرتفع
ليز
ليزا
ليزابيث
ليزر
ليزلي
ليس
ليسا
ليساندرو
ليسانس
ليست
ليستر
ليسوا
ليسوتو
ليسون
ليشمل
ليصبح
ليصل
ليعلم
ليعمل
ليعود
ليف
ليفة
ليفربول
ليفه
ليفي
ليفين
ليفينغستون
ليقوم
ليك
ليكرز
ليكس
ليكسي
ليكم
ليكون
ليكونوا
ليل
ليلا
ليلة
ليلعب
ليلى
ليلي
ليلية
ليم
ليما
ليمان
لين
لينا
لينة
لينتقل
ليندا
ليندسي
لينش
لينكس
لينكولن
لينكون
لينوي
لينين
لينينغراد
لينيوس
ليه
ليها
ليهم
ليهما
ليو
ليوبولد
ليوت
ليوغوسلافيا
ليوم
ليون
ليونارد
ليوناردو
ليونز
ليونيل
لييج
م
ما
ماء
مابين
مات
ماتت
ماتوا
ماتياس
ماتيو
ماثيو
ماثيوز
ماجة
ماجد
ماجدة
ماجستير
ماجلان
ماجه
ماجيك
ماد
مادبا
مادة
مادونا
مادي
ماديا
مادية
ماديرا
ماديسون
ماذا
مار
مارا
مارات
ماراتي
ماراتية
ماراتيون
ماراثون
مارة
مارت
مارتن
مارتي
مارتين
مارتينيز
مارثا
مارجريت
مارس
مارسيل
مارسيلو
مارسيليا
مارش
مارشال
مارغريت
مارفل
مارك
ماركت
ماركس
ماركو
ماركوس
ماركيز
مارلين
ماري
ماريا
ماريان
ماريانا
ماريلاند
ماريلند
مارين
مارينا
مارينو
ماريو
ماريون
مازال
مازالت
مازن
مازون
مازيغ
مازيغي
مازيغية
ماس
ماساتشوستس
ماسة
ماستر
ماسح
ماسون
ماض
ماضي
ماغدالينا
ماغنوس
ماك
ماكاو
ماكدونالد
ماكدونالدز
ماكس
ماكسويل
ماكسيميليان
ماكلين
ماكميلان
ماكن
ماكنزي
مال
مالا
مالاوي
مالة
مالطا
مالقة
مالك
مالكا
مالكوم
مالكي
مالم
مالمو
ماله
مالها
مالي
ماليا
مالية
ماليزي
ماليزيا
ماليزيون
ماليون
مام
ماما
مامة
مامنا
مامه
مامها
مامهم
مامي
مامية
مان
مانا
مانة
ماندا
مانديلا
مانسفيلد
مانشستر
مانع
مانغا
مانهاتن
مانويل
ماني
مانيتوبا
مانيلا
ماهاراشترا
ماهر
ماهو
ماهي
ماهية
ماو
ماوات
ماونت
ماي
مايا
ماير
مايرز
مايك
مايكروسوفت
مايكل
مايلز
ماين
مايو
مايوركا
مباح
مباحث
مبادرات
مبادرة
مبادي
مباراة
مباراته
مباراتين
مبارز
مبارزة
مبارزون
مبارك
مباريات
مبارياته
مباشر
مباشرا
مباشرة
مباكت
مبالغ
مبالغة
مبان
مباني
مبتدا
مبتدي
مبتكر
مبتكرة
مبدا
مبدي
مبراطور
مبراطورة
مبراطوري
مبراطوريات
مبراطورية
مبرر
مبرهنة
مبريالية
مبشر
مبعوث
مبكر
مبكرا
مبكرة
مبلغ
مبنى
مبني
مبنيا
مبنية
مبيدات
مبير
مبيع
مبيعا
مبيعات
مبين
مبينا
مة
مت
متا
متابعة
متاجر
متاح
متاحة
متاحف
متار
متاع
متبادل
متباينة
متتالية
متجانسة
متجددة
متجر
متجنسون
متجه
متجهة
متحدة
متحدث
متحرك
متحركة
متحف
متخصص
متخصصة
متداخلة
متر
مترا
مترابطة
مترجم
مترجمة
مترجمو
مترجمون
مترو
متروبوليتان
متروك
متري
متزامن
متزايد
متزايدة
متزحلقون
متزلج
متزلجو
متزلجون
متزوج
متزوجة
متسابق
متسابقا
متسابقة
متسابقو
متساو
متساوي
متساوية
متسلسلة
متشابه
متشابهة
متصدر
متصفح
متصل
متصلا
متصلة
متضمنة
متطابقة
متطرفة
متطلبات
متطورة
متطوع
متعب
متعة
متعد
متعدد
متعددة
متعلق
متعلقة
متعلمون
متعمد
متعمدا
متعمقة
متغير
متغيرات
متغيرة
متفاوتة
متفرج
متفرقة
متفق
متفقون
متقاربة
متقاعد
متقدم
متقدمة
متقطع
متقطعة
متك
متكافي
متكامل
متكاملة
متكرر
متكررة
متكلم
متكلما
متلازمات
متلازمة
متلفزة
متماثلة
متممة
متميز
متميزة
متن
متنا
متناهية
متناول
متنزه
متنزهات
متنها
متنوع
متنوعة
مته
متها
متهم
متوا
متواصلة
متواضعة
متوافق
متوافقة
متوسط
متوسطة
متوطنة
متوفر
متوفرة
متوقع
متوقعة
متولي
متى
متي
متين
مث
مثال
مثالا
مثاله
مثالها
مثالهم
مثالي
مثالية
مثبت
مثبتة
مثبط
مثبطات
مثقال
مثل
مثلا
مثلة
مثلت
مثلث
مثلك
مثلما
مثله
مثلها
مثلهم
مثلي
مثلية
مثليون
مثنى
مثير
مثيرة
مثيل
مج
مجاز
مجازر
مجاعة
مجال
مجالا
مجالات
مجالد
مجالس
مجان
مجانا
مجاني
مجانية
مجاهد
مجاورة
مجتمع
مجتمعات
مجتمعة
مجتمعية
مجتمعين
مجتهد
مجد
مجدد
مجددا
مجدف
مجدفون
مجدي
مجر
مجرات
مجرة
مجرد
مجردة
مجرم
مجرمون
مجرى
مجري
مجريات
مجرية
مجريون
مجزرة
مجل
مجلات
مجلة
مجلد
مجلدات
مجلدين
مجلس
مجلسا
مجلسه
مجلسي
مجمع
مجمل
مجموع
مجموعات
مجموعة
مجموعته
مجموعتين
مجموعه
مجموعها
مجنون
مجهزة
مجهود
مجهول
مجهولة
مجيء
مجيد
مجيي
مح
محادثات
محادثة
محارب
محاربة
محاسبة
محاسن
محاصرة
محاصيل
محاضر
محاضرات
محاضرة
محاط
محاطة
محافظ
محافظات
محافظة
محاكاة
محاكم
محاكمات
محاكمة
محاكمته
محال
محالة
محام
محامون
محامي
محاميات
محامية
محاور
محاولات
محاولة
محاولته
محايد
محايدة
محب
محبة
محبته
محبوب
محتاج
محترف
محترفات
محترفة
محترفون
محترفي
محتمل
محتملة
محتواها
محتوى
محتويات
محدبة
محدث
محدثا
محدثة
محدد
محددة
محدود
محدودا
محدودة
محذوف
محراب
محرر
محررو
محرز
محرك
محركات
محرم
محرما
محرمة
محسن
محصن
محصنة
محصورة
محصول
محض
محط
محطات
محطة
محظور
محظورة
محفوظ
محفوظة
محقق
محكم
محكمة
محل
محلا
محلات
محلة
محلل
محله
محلها
محلول
محلي
محليا
محلية
محم
محمد
محمدا
محمل
محملة
محمود
محمول
محمولة
محمي
محميات
محمية
محنة
محو
محور
محوري
محول
محي
محيط
محيي
مخابرات
مخازن
مخاطر
مخافة
مخالف
مخالفا
مخالفة
مخاوف
مخبا
مخبر
مختار
مختارات
مختارة
مختبر
مختبرات
مخترع
مخترعون
مختص
مختصة
مختصر
مختصرة
مختصون
مختلط
مختلطة
مختلطين
مختلف
مختلفا
مختلفة
مختلفتين
مختلفين
مخدرات
مخرج
مخرجات
مخرجة
مخرجو
مخرجون
مخرمة
مخزن
مخزوم
مخزون
مخصص
مخصصة
مخصوص
مخطط
مخططات
مخططة
مخطوط
مخطوطات
مخطوطة
مخطي
مخلد
مخلص
مخلفات
مخلوق
مخلوقات
مخلوقة
مخنف
مخيم
مخيمات
مد
مداخل
مداد
مدادات
مدار
مدارات
مدارس
مداره
مدارية
مدافع
مدافعو
مدافعون
مدافن
مدام
مداي
مدة
مدته
مدتها
مدح
مدحت
مدخل
مدخلات
مدد
مدر
مدراء
مدرب
مدربا
مدربو
مدربون
مدربي
مدرج
مدرجات
مدرجة
مدرس
مدرسا
مدرسة
مدرسية
مدرع
مدرعة
مدرك
مدريد
مدعوم
مدعومة
مدعي
مدغشقر
مدفع
مدفعية
مدفوع
مدفوعة
مدفونون
مدمجة
مدمرة
مدن
مدني
مدنيا
مدنية
مدنيين
مدونة
مدونون
مدى
مدي
مدير
مديرا
مديرة
مديري
مديريات
مديرية
مدين
مدينة
مدينته
مدينتي
مذ
مذابح
مذاهب
مذبحة
مذكر
مذكرات
مذكراته
مذكرة
مذكور
مذكورة
مذنب
مذهب
مذهبه
مذهبهم
مذيع
مذيعات
مذيعة
مذيعو
مذيعون
مر
مرا
مراء
مرات
مراتب
مراجع
مراجعات
مراجعة
مراجعتها
مراحل
مراد
مراده
مرار
مرارا
مرارة
مراسل
مراسلة
مراسلون
مراسم
مراسيم
مراض
مراعاة
مرافق
مرافقة
مراقب
مراقبة
مراكز
مراكش
مران
مراهقة
مراي
مربع
مربعا
مربعة
مربون
مرة
مرت
مرتبة
مرتبط
مرتبطا
مرتبطة
مرتبطون
مرتضى
مرتفع
مرتفعات
مرتفعة
مرتكب
مرته
مرتين
مرثد
مرج
مرجع
مرجعية
مرحب
مرحبا
مرحلة
مرحلتين
مرداس
مردوخ
مردود
مردويه
مررت
مرزوق
مرسل
مرسلا
مرسوم
مرسى
مرسي
مرسية
مرسيدس
مرسيليا
مرشح
مرشحة
مرشحو
مرشحون
مرشحين
مرشد
مرصد
مرض
مرضه
مرضى
مرضي
مرضية
مرغوب
مرفا
مرفق
مرفوع
مرفوعا
مرقد
مرقس
مرك
مركب
مركبا
مركبات
مركبة
مركز
مركزا
مركزه
مركزها
مركزي
مركزية
مركم
مرموقة
مرمى
مرن
مرنا
مرنة
مرني
مره
مرها
مرهم
مرهما
مرو
مروا
مروان
مروحيات
مروحية
مرور
مرورا
مرون
مرونة
مروي
مري
مريض
مريضا
مريكا
مريكان
مريكانا
مريكتين
مريكي
مريكيات
مريكية
مريكيتين
مريكيون
مريكيين
مريم
مرين
مزاج
مزاحم
مزار
مزارع
مزاعم
مزايا
مزج
مزدوج
مزدوجة
مزرعة
مزمن
مزود
مزودة
مزيج
مزيد
مزينة
مس
مسا
مساء
مسابقات
مسابقة
مساجد
مساحات
مساحة
مساحته
مساحتها
مسار
مسارات
مسارح
مساره
مسارها
مساعد
مساعدا
مساعدات
مساعدة
مساعدته
مسافات
مسافة
مسافر
مساك
مساكن
مساهم
مساهمات
مساهماته
مساهمة
مساواة
مساوي
مساويا
مساوية
مساي
مسبار
مسبب
مسببات
مسببة
مسبق
مسبقا
مسبقة
مسبوق
مسبوقة
مست
مستا
مستحب
مستحضرات
مستحق
مستحيل
مستخدم
مستخدما
مستخدمة
مستخدمو
مستخدمي
مستخدمين
مستدامة
مستديرة
مستر
مستردام
مستشار
مستشارا
مستشفى
مستشفيات
مستطيل
مستطيلة
مستعار
مستعد
مستعدة
مستعمرات
مستعمرة
مستقبل
مستقبلا
مستقبلات
مستقبلون
مستقبلية
مستقر
مستقرة
مستقل
مستقلا
مستقلة
مستقيم
مستقيمة
مستكشف
مستكشفون
مستمدة
مستمر
مستمرا
مستمرة
مستند
مستندة
مستوحاة
مستوحى
مستودع
مستوطنات
مستوطنة
مستوى
مستوي
مستويات
مستوية
مسجد
مسجدا
مسجده
مسجل
مسجلا
مسجلة
مسح
مسحوق
مسدد
مسددون
مسدس
مسرح
مسرحي
مسرحيات
مسرحية
مسرحيون
مسروق
مسطح
مسطحات
مسطحة
مسعر
مسعود
مسقط
مسك
مسكر
مسكن
مسكين
مسلح
مسلحة
مسلحين
مسلسل
مسلسلات
مسلك
مسلم
مسلما
مسلمة
مسلمون
مسلمي
مسلمين
مسماة
مسموح
مسمى
مسند
مسنده
مسهر
مسو
مسودة
مسى
مسي
مسيحي
مسيحية
مسيحيون
مسيحيي
مسيحيين
مسير
مسيرات
مسيرة
مسيرته
مسيرتها
مسيسيبي
مسيلمة
مسيي
مسييه
مش
مشابه
مشابهة
مشاة
مشارف
مشارك
مشاركات
مشاركة
مشاركته
مشاركتها
مشاركون
مشاريع
مشاعر
مشاكل
مشاهد
مشاهدة
مشاهير
مشايخ
مشتبه
مشترك
مشتركا
مشتركة
مشتق
مشتقات
مشتقة
مشددة
مشرف
مشرق
مشرك
مشروب
مشروبات
مشروع
مشروعا
مشروعات
مشروعة
مشعل
مشغل
مشقة
مشكل
مشكلات
مشكلة
مشكوك
مشهد
مشهور
مشهورا
مشهورة
مشواره
مشوارها
مشى
مشي
مشيخات
مشيخة
مشير
مشيرا
مشيرة
مشيي
مصاب
مصابة
مصابون
مصابيح
مصابين
مصادر
مصادرة
مصار
مصارع
مصارعة
مصارعون
مصالح
مصانع
مصاي
مصب
مصباح
مصحف
مصحوبة
مصداقية
مصدر
مصدرا
مصدره
مصدرها
مصدق
مصر
مصرع
مصرف
مصرفي
مصري
مصريات
مصرية
مصريون
مصطدمو
مصطفى
مصطلح
مصطلحات
مصعب
مصغرة
مصفاة
مصفوفة
مصل
مصلحة
مصلى
مصمم
مصممة
مصممو
مصنع
مصنعة
مصنف
مصنفات
مصنفة
مصنوع
مصنوعة
مصور
مصورات
مصورة
مصورون
مصيبة
مصير
مضاد
مضادات
مضادة
مضاعفات
مضاعفة
مضاف
مضافة
مضت
مضخة
مضر
مضرب
مضطرب
مضغوط
مضمار
مضمون
مضى
مضي
مضيف
مضيق
مطابق
مطابقة
مطار
مطارات
مطاردة
مطاعم
مطالب
مطالبات
مطالبة
مطالعة
مطبخ
مطبعة
مطبوع
مطبوعات
مطبوعة
مطر
مطران
مطرب
مطرف
مطروح
مطعم
مطلب
مطلع
مطلق
مطلقا
مطلقة
مطلوب
مطلوبة
مطمي
مطور
مطورة
مطولة
مطيع
مظاهر
مظاهرات
مظاهرة
مظفر
مظلة
مظلم
مظلمة
مظهر
مظهرها
مع
معا
معاء
معابد
معاد
معاداة
معادلات
معادلة
معادن
معادية
معاذ
معارض
معارضة
معارضته
معارف
معارك
معاصر
معاصرة
معاصرون
معاقبة
معالج
معالجات
معالجة
معالجتها
معالم
معالي
معامل
معاملات
معاملة
معان
معاناة
معاني
معانيه
معانيها
معاهد
معاهدات
معاهدة
معاوية
معايير
معبد
معبر
معت
معتاد
معتبر
معتبرة
معتدل
معتدلة
معترف
معتزل
معتقد
معتقدات
معتقل
معتمد
معتمدا
معتمدة
معتمر
معجزة
معجم
معد
معدات
معدان
معدة
معدل
معدلات
معدلة
معدن
معدني
معدنية
معدودة
معدول
معدومة
معدومون
معدي
معدية
معر
معرض
معرضة
معرف
معرفة
معرفته
معرفتها
معرفية
معركة
معروضة
معروف
معروفا
معروفة
معروفين
معز
معزولة
معسكر
معسكرات
معشر
معصوم
معصية
معطيات
معظم
معظمها
معظمهم
معقد
معقدة
معقل
معقول
معقولة
معك
معكم
معلق
معلقة
معلم
معلما
معلمة
معلمو
معلمون
معلوم
معلوما
معلومات
معلومة
معماري
معمارية
معماريون
معمر
معمل
معن
معنا
معناه
معناها
معنى
معني
معه
معها
معهد
معهم
معهما
معي
معيار
معيشة
معيلات
معيلون
معين
معينا
معينة
مغادرة
مغادرته
مغاربة
مغارة
مغامرات
مغامرة
مغتالون
مغتربات
مغتربون
مغرب
مغربي
مغربيات
مغربية
مغطاة
مغطى
مغلق
مغلقة
مغن
مغناطيسي
مغناطيسية
مغنو
مغنون
مغني
مغنيات
مغنية
مغول
مغيرة
مـن
مفاتيح
مفاجا
مفاجي
مفاده
مفادها
مفارقة
مفاعل
مفاهيم
مفاوضات
مفتاح
مفتوح
مفتوحا
مفتوحة
مفتي
مفخخة
مفر
مفرد
مفردات
مفردة
مفرط
مفرطة
مفسدة
مفصل
مفصلة
مفعول
مفقود
مفقودة
مفكر
مفهوم
مفهومة
مفوض
مفوضية
مفيد
مفيدا
مفيدة
مقابر
مقابل
مقابلات
مقابلة
مقاتل
مقاتلة
مقاتلو
مقاتلي
مقاربة
مقارنة
مقاس
مقاصد
مقاطع
مقاطعات
مقاطعة
مقاعد
مقال
مقالا
مقالات
مقالاته
مقالة
مقالته
مقاله
مقاليد
مقام
مقامات
مقامه
مقاومة
مقاييس
مقبرة
مقبل
مقبول
مقبولا
مقبولة
مقتبس
مقتبسة
مقترح
مقترحات
مقترحة
مقتضى
مقتطفات
مقتل
مقتله
مقتنيات
مقد
مقدار
مقداره
مقدارها
مقدرة
مقدس
مقدسة
مقدم
مقدما
مقدمات
مقدمة
مقدمته
مقدمو
مقدمي
مقدونيا
مقدونيون
مقديشو
مقر
مقرا
مقرات
مقربة
مقرر
مقرن
مقره
مقرها
مقسم
مقسمة
مقصود
مقصودة
مقصوده
مقصورة
مقطع
مقطوع
مقطوعة
مقعد
مقعدا
مقعده
مقنع
مقهى
مقولة
مقياس
مقيد
مقيدة
مقيم
مقيما
مقيمة
مك
مكابي
مكاتب
مكارثي
مكاسب
مكافا
مكافحة
مكافي
مكالمة
مكان
مكانا
مكانات
مكانة
مكانته
مكانتها
مكانك
مكانه
مكانها
مكانهم
مكاني
مكانيات
مكانية
مكاي
مكة
مكتب
مكتبات
مكتبة
مكتبه
مكتمل
مكتملة
مكتوب
مكتوبا
مكتوبة
مكتوم
مكث
مكثف
مكثفة
مكحول
مكرر
مكررة
مكرم
مكروه
مكسورة
مكسيك
مكسيكو
مكسيكي
مكسيكيات
مكسيكية
مكسيكيون
مكعب
مكلف
مكلفة
مكن
مكناس
مكنة
مكنك
مكنه
مكو
مكوك
مكون
مكونات
مكونة
مكي
مكية
مل
ملء
ملا
ملاء
ملاءمة
ملابس
ملات
ملاح
ملاحظات
ملاحظة
ملازم
ملاعب
ملاك
ملاكم
ملاكمو
ملاكمون
ملال
ملامح
ملاي
ملايين
ملبورن
ملة
ملت
ملتقى
ملجا
ملح
ملحدون
ملحق
ملحمة
ملحن
ملحنو
ملحنون
ملحوظ
ملحوظا
ملحوظة
ملحوظية
ملخص
ملزم
ملزمة
ملس
ملصق
ملعب
ملعبه
ملعقة
ملغ
ملف
ملفات
ملقا
ملك
ملكا
ملكات
ملكة
ملكت
ملكه
ملكها
ملكهم
ملكي
ملكية
ملكيون
ملم
مله
ملو
ملوك
ملون
ملونة
ملي
مليء
مليار
مليارات
مليكة
مليون
مليونا
مليوني
مليي
مم
مما
مماتي
مماثل
مماثلة
ممارسات
ممارسة
ممارسو
ممالك
ممت
ممتاز
ممتازة
ممتدة
ممتلكات
ممتلي
ممتنع
ممثل
ممثلا
ممثلات
ممثلة
ممثلو
ممثلون
ممثلي
ممثلين
ممدوح
ممر
ممرات
ممرضة
ممفيس
ممكن
ممكنا
ممكنة
مملكة
مملكته
مملوءة
مملوك
مملوكة
ممن
ممنوع
ممية
مميز
مميزات
مميزة
من
منا
مناء
منات
مناجم
مناخ
منارة
منازل
منازلهم
مناسب
مناسبا
مناسبات
مناسبة
مناصب
مناطق
مناظر
مناظرة
مناعة
مناف
منافذ
منافس
منافسات
منافسة
منافسه
منافسون
منافع
منافق
مناقب
مناقشات
مناقشة
مناكير
مناهج
مناهضة
مناهضون
مناورات
مناورة
منبج
منبر
منبه
منة
منت
منتج
منتجات
منتجاتها
منتجة
منتجع
منتجو
منتجون
منتحرون
منتخب
منتخبات
منتدى
منتديات
منتزه
منتشر
منتشرة
منتصف
منتظم
منتظمة
منتهى
منجم
منح
منحة
منحت
منحدر
منحدرات
منحنى
منحه
منحها
منحوتات
منحوتة
منخفض
منخفضة
منده
مندوب
منذ
منذر
منزل
منزلا
منزلة
منزله
منزلها
منزلي
منزلية
منسق
منسوب
منسوبة
منسوخ
منشا
منشطات
منشور
منشورات
منشورة
منشوريا
منشي
منصات
منصب
منصبه
منصة
منصور
منصوص
منطق
منطقة
منطقتي
منطقي
منطقية
منطلق
منظر
منظرون
منظم
منظمات
منظمة
منظور
منظومة
منع
منعت
منعك
منعه
منعها
منعهم
منغوليا
منفذ
منفرد
منفردا
منفردة
منفصل
منفصلة
منفصلين
منفعة
منقذ
منقرضة
منقطع
منقوص
منقول
منقولة
منك
منكر
منكرا
منكم
منه
منها
منهاج
منهج
منهجي
منهجية
منهم
منهما
منهن
منوا
منون
منى
مني
منيابولس
منية
منير
منيع
منين
مه
مها
مهات
مهاجر
مهاجرون
مهاجم
مهاجمة
مهاجمو
مهارات
مهارة
مهام
مهامه
مهامها
مهتم
مهتمة
مهجورة
مهد
مهددة
مهدي
مهر
مهران
مهرجان
مهرجانات
مهلة
مهم
مهما
مهمات
مهمة
مهمته
مهمتها
مهملة
مهن
مهنا
مهنة
مهنته
مهندس
مهندسو
مهندسون
مهندسي
مهني
مهنية
مو
موا
موات
مواج
مواجهات
مواجهة
مواد
موارد
موازنة
مواسم
مواصفات
مواصلة
مواضع
مواضيع
مواطن
مواطني
مواطنين
مواعيد
موافق
موافقة
مواقع
مواقعها
مواقف
موال
موالا
موالكم
مواله
موالهم
موالي
موالية
مواليد
موانع
مواني
مواهب
مواي
موبايل
موبيل
موت
موته
موتها
موتو
موتور
موتورز
موثق
موثقة
موثوق
موثوقة
موثوقية
موجات
موجب
موجبا
موجبة
موجة
موجز
موجزة
موجه
موجهة
موجود
موجودا
موجودة
موجودين
موحد
موحدة
مود
مودي
موديل
مور
مورا
موراي
مورتون
مورد
مورغان
مورهم
مورو
موري
موريتانيا
موريس
موريسون
موريشيوس
مورينو
موزع
موزعة
موزمبيق
موس
موسكو
موسم
موسمه
موسمين
موسوعات
موسوعة
موسوعي
موسوعية
موسوليني
موسى
موسي
موسيقى
موسيقي
موسيقيات
موسيقية
موسيقيو
موسيقيون
موصل
موصوف
موضح
موضع
موضعا
موضعه
موضعها
موضعي
موضوع
موضوعا
موضوعات
موضوعة
موضوعه
موضوعها
موضوعي
موضوعية
موطن
موطنه
موطنها
موظف
موظفا
موظفو
موظفي
موظفين
موعد
موفق
موقع
موقعا
موقعة
موقعه
موقعها
موقف
موقفا
موقفه
موقفها
موقوف
موقوفا
موكب
مول
مولانا
مولاه
مولاهم
مولاي
مولد
مولده
مولدوفا
مولر
مولود
مولودية
مولى
مولي
موم
مومباي
مومة
مون
موناكو
مونبلييه
مونت
مونتاج
مونتانا
مونتريال
مونتفيدو
مونتي
مونتيري
مونتيفيديو
مونرو
مونستر
موني
مونيا
مونيكا
مونيوم
موهبة
موي
موية
مويون
مويين
مى
مي
ميا
ميادين
ميال
ميامي
ميانمار
مياه
مية
ميت
ميتا
ميتاكريتيك
ميتال
ميتة
ميتسوبيشي
ميتشل
ميتشيغان
ميتشيل
ميثاق
ميثوديون
ميثولوجيا
ميثيل
ميج
ميجا
ميجاوات
ميخاي
ميد
ميداليات
ميدالية
ميدان
ميدانية
ميدلزبره
ميديا
ميدياويكي
مير
ميرا
ميرات
ميراث
ميرال
ميراندا
ميرة
ميرزا
ميرفي
ميركا
ميركل
ميركوري
ميركي
ميركية
ميركيون
ميركيين
ميري
ميريام
ميرية
ميريكانز
ميريلاند
ميرين
ميز
ميزات
ميزان
ميزانية
ميزة
ميزوري
ميس
ميسا
ميسان
ميسرة
ميسوري
ميسي
ميسيسيبي
ميشال
ميشيغان
ميشيل
ميغا
ميغاواط
ميغيل
ميك
ميكانيكا
ميكانيكي
ميكانيكية
ميكاي
ميكي
ميل
ميلا
ميلاد
ميلاده
ميلادي
ميلادية
ميلان
ميلانو
ميلتون
ميلر
ميلز
ميلو
ميلون
ميلووكي
ميلوول
ميلي
ميليا
ميليشيا
ميليشيات
ميم
ميمون
ميمونة
ميمي
مين
مينا
ميناء
مينات
ميناس
مينة
مينسك
مينغ
مينه
مينو
ميني
مينيابوليس
مينية
مينيسوتا
ميونخ
ميونيخ
ميين
ن
نا
ناء
ناب
نابة
نابلس
نابليون
نابولي
نابيب
ناة
نات
ناتالي
ناتج
ناتجة
ناث
ناثان
ناجح
ناجحة
ناجمة
ناجون
ناجي
ناجيل
ناحية
ناخب
ناد
نادال
نادر
نادرا
نادرة
نادو
نادى
نادي
نادية
نادين
ناديه
نار
نارا
نارة
ناركية
ناروتو
ناري
نارية
ناس
ناسا
ناسفة
ناسيونال
ناش
ناشر
ناشرو
ناشرون
ناشط
ناشطات
ناشطة
ناشطو
ناشطون
ناشفيل
ناشي
ناشيد
ناشيونال
ناصر
ناضول
ناطحات
ناطق
ناطقة
ناظر
ناظم
ناعم
ناعمة
ناغويا
ناف
نافارا
نافذة
نافس
نافع
نافعة
نافورة
ناق
ناقة
ناقته
ناقد
ناقش
ناقشني
ناقص
ناقصة
ناقل
ناقلات
ناقلة
ناك
ناكامورا
نال
نالت
نام
ناميبيا
نان
نانا
نانت
نانسي
نانومتر
نانية
ناه
ناهد
ناهز
ناهيك
ناورو
ناي
نايت
نايف
نب
نبا
نباء
نبات
نباتات
نباتة
نباتي
نباتية
نبار
نباري
نباط
نبت
نبتة
نبتون
نبذة
نبراسكا
نبض
نبضات
نبع
نبلاء
نبه
نبوب
نبوة
نبوته
نبي
نبيا
نبياء
نبياي
نبيذ
نبيكم
نبيل
نبيلة
نبينا
نبيه
نبيهم
نة
نت
نتاج
نتاجه
نتاجها
نتاجية
نتاركتيكا
نتاي
نتج
نتجت
نتجها
نتحدث
نتخابات
نتخب
نتر
نترتينمنت
نترنت
نتس
نتظر
نتفليكس
نتقل
نتل
نتم
نتنياهو
نتهت
نتوء
نتورك
نتوني
نتونيو
نتويرب
نتيجة
نتيغوا
نتيل
نث
نثروبولوجيا
نثوي
نثوية
نثى
نج
نجا
نجاب
نجابية
نجاة
نجاح
نجاحا
نجاحه
نجاحها
نجاد
نجاز
نجازات
نجازاته
نجاسة
نجب
نجبا
نجبت
نجت
نجح
نجحت
نجد
نجدة
نجده
نجران
نجز
نجس
نجعل
نجل
نجلاند
نجلترا
نجلز
نجلس
نجلو
نجلوس
نجليز
نجليزي
نجليزيات
نجليزية
نجليكانية
نجم
نجمة
نجمي
نجمية
نجو
نجوم
نجوى
نجي
نجيب
نجيح
نجيل
نجيلا
نجيلو
نجيلي
نجيلية
نح
نحاء
نحات
نحاتون
نحاس
نحب
نحت
نحتاج
نحر
نحصل
نحل
نحن
نحو
نحوا
نحوه
نحوها
نخاع
نخبة
نخل
نخلة
نخيل
ند
ندا
نداء
ندر
ندرا
ندرة
ندرسن
ندرسون
ندرو
ندروز
ندرويد
ندري
ندريا
ندرياس
ندريس
ندريه
ندل
ندلس
ندلسي
ندلسية
ندلسيون
ندم
ندوة
ندورا
ندونيسي
ندونيسيا
ندونيسية
ندونيسيون
ندى
ندي
نديانا
نديانابوليس
نديانز
ندية
نديز
نذ
نذار
نذاك
نذر
نذكر
نذير
نراه
نرجو
نرويج
نرويجي
نرويجية
نرويجيون
نرى
نريد
نريكي
نز
نزار
نزاع
نزاعات
نزال
نزالا
نزع
نزعة
نزف
نزل
نزلت
نزلنا
نزله
نزلوا
نزهة
نزول
نزيف
نزيل
نزيم
نزيمات
نس
نسا
نساء
نساب
نسان
نسانا
نساني
نسانية
نساي
نسب
نسبة
نسبته
نسبه
نسبي
نسبيا
نسبية
نسة
نستطيع
نسجة
نسخ
نسخة
نسخه
نسر
نسق
نسل
نسلم
نسمة
نسمع
نسوة
نسولين
نسوية
نسويون
نسى
نسي
نسيان
نسيب
نسيت
نسيج
نسيم
نش
نشا
نشاء
نشاءات
نشاد
نشاط
نشاطا
نشاطات
نشاطه
نشاطها
نشاو
نشاي
نشبت
نشد
نشدني
نشده
نشر
نشرة
نشرت
نشرته
نشرتها
نشره
نشرها
نشط
نشطاء
نشطة
نشطتها
نشوء
نشوب
نشي
نشيد
نشيط
نص
نصا
نصاب
نصار
نصاره
نصارى
نصاري
نصاف
نصاي
نصب
نصت
نصح
نصر
نصرة
نصف
نصفه
نصفها
نصفي
نصفين
نصل
نصلي
نصه
نصها
نصوص
نصوصا
نصيب
نصيبه
نصيحة
نصير
نضال
نضج
نضرة
نضع
نضم
نط
نطاق
نطاقات
نطاكي
نطاكية
نطاليا
نطق
نطلق
نطوان
نطون
نطوني
نطونيو
نطونيوس
نظ
نظار
نظافة
نظام
نظاما
نظامه
نظامها
نظامي
نظامية
نظاي
نظر
نظرا
نظراي
نظرة
نظرت
نظرنا
نظره
نظرهم
نظري
نظريا
نظريات
نظرية
نظريته
نظم
نظمة
نظمت
نظمتها
نظمه
نظمها
نظير
نظيره
نظيف
نظيفة
نع
نعاش
نعام
نعبد
نعت
نعتقد
نعرف
نعرفه
نعلم
نعم
نعمان
نعمة
نعمت
نعمل
نعمه
نعيش
نعيم
نعيمة
نغام
نغريد
نغلاند
نغمة
نغولا
نغولية
نغوليون
نف
نفا
نفاثة
نفاذ
نفاس
نفاق
نفال
نفايات
نفت
نفخ
نفذ
نفذت
نفر
نفس
نفسا
نفسك
نفسكم
نفسنا
نفسه
نفسها
نفسهم
نفسهن
نفسي
نفسية
نفط
نفع
نفعا
نفعل
نفق
نفقات
نفقة
نفقت
نفقته
نفلونزا
نفه
نفهم
نفوذ
نفوذه
نفوذها
نفوس
نفوسهم
نفى
نفي
نفية
نفيه
نق
نقابات
نقابة
نقاد
نقاذ
نقاش
نقاشات
نقاشي
نقاض
نقاط
نقد
نقدا
نقدي
نقدية
نقذ
نقرا
نقرة
نقش
نقص
نقصان
نقض
نقطة
نقطتين
نقل
نقلا
نقلة
نقلت
نقله
نقلها
نقلهم
نقلوا
نقود
نقوش
نقول
نقوم
نقي
نقيب
نقية
نقيض
نك
نكا
نكاح
نكار
نكتب
نكر
نكرة
نكرت
نكره
نكروا
نكلترا
نكليز
نكليزي
نكليزية
نكم
نكون
نلاحظ
نم
نما
نماء
نماذج
نماط
نماي
نمت
نمذجة
نمر
نمسا
نمساوي
نمساوية
نمساويون
نمط
نمو
نموا
نموذج
نموذجا
نموذجي
نموذجية
نموها
نمي
نمير
ننا
ننظر
نني
نه
نها
نهاء
نهار
نهارا
نهالت
نهاي
نهايات
نهاية
نهايته
نهايتها
نهب
نهت
نهج
نهر
نهري
نهض
نهضة
نهم
نهما
نهن
نهى
نهي
نهيان
نو
نوا
نواب
نواة
نواحي
نوادر
نوادي
نوار
نواس
نواع
نواعا
نواعه
نواعها
نواف
نوافذ
نوال
نوبات
نوبة
نوبل
نوت
نوتنغهام
نوثة
نوح
نود
نور
نورا
نورة
نورث
نورثامبتون
نورفولك
نورمان
نورماندي
نورمبرغ
نوره
نورويتش
نوري
نوع
نوعا
نوعان
نوعه
نوعها
نوعي
نوعية
نوعين
نوف
نوفا
نوفغورود
نوفل
نوفمبر
نوفي
نوكس
نوكيا
نولان
نوم
نومه
نون
نووي
نووية
نوى
نوي
نويل
نى
ني
نيا
نياب
نيابة
نيبال
نية
نيت
نيتا
نيتشه
نيته
نيث
نيجيري
نيجيريا
نيجيريون
نيد
نير
نيران
نيروبي
نيس
نيسابور
نيسان
نيشان
نيف
نيفادا
نيق
نيقة
نيقية
نيك
نيكاراغوا
نيكس
نيكسون
نيكول
نيكولا
نيكولاس
نيكولاي
نيكي
نيل
نيلسن
نيلسون
نيميشن
نين
نينا
نينة
نينتندو
نينجا
نينوى
نيو
نيوا
نيوبورت
نيوتن
نيوجيرسي
نيودلهي
نيوز
نيوزلندي
نيوزلنديات
نيوزلنديون
نيوزيلندا
نيوزيلندي
نيوزيلندية
نيوساوث
نيوفاوندلاند
نيوكاسل
نيومان
نيومكسيكو
نيون
نيوهامشير
نيويورك
ه
ها
هاء
هاب
هابسبورغ
هابل
هات
هاتان
هاتريك
هاتف
هاته
هاتين
هاج
هاجر
هاجرت
هاجروا
هاجم
هاجمت
هاد
هادي
هار
هاربر
هاربور
هارت
هارتفورد
هاردي
هارفارد
هارفي
هارلم
هارولد
هارون
هاري
هاريس
هاريسون
هاشم
هافانا
هال
هالة
هالي
هاليفاكس
هاليكالا
هام
هاما
هامبتون
هامبشاير
هامبورغ
هامة
هامش
هاملتون
هاميلتون
هان
هانا
هانة
هانت
هانز
هانس
هانسن
هانكوك
هانم
هانوفر
هاني
هاهنا
هاو
هاواي
هاوس
هاي
هايتس
هايتي
هايتيون
هايد
هايدلبرغ
هايدن
هايز
هاينريش
هاينز
هب
هبة
هبت
هبط
هبطت
هبوط
هبيرة
هة
هت
هتلر
هجر
هجرة
هجري
هجرية
هجمات
هجوم
هجوما
هجومية
هجين
هد
هدا
هداء
هداب
هداف
هدافه
هدافها
هداه
هدايا
هداية
هدد
هدرسفيلد
هدسون
هدف
هدفا
هدفه
هدفها
هدفين
هدم
هدنة
هدوء
هدى
هدي
هدية
هذ
هذا
هذان
هذة
هذه
هذيل
هذين
هر
هرام
هرامات
هرب
هربا
هربت
هربرت
هرتز
هرقل
هرم
هرمان
هرمز
هرمون
هرمونات
هرمي
هروب
هريرة
هز
هزم
هزمت
هزيم
هزيمة
هزيمته
هسن
هشام
هشيم
هضبة
هطول
هـ
هك
هكتار
هكذا
هل
هلا
هلات
هلاك
هلال
هلة
هلت
هلسنكي
هلك
هلكت
هلم
هله
هلها
هلي
هلية
هليكوبتر
هليلجية
هلين
هم
هما
همال
همام
همة
همدان
همزة
همل
همه
همها
همي
همية
هميته
هميتها
هن
هنا
هناك
هنالك
هنتر
هند
هندرسون
هندسة
هندسي
هندسية
هندوراس
هندوراسيون
هندوسية
هندي
هنديات
هندية
هنري
هنريك
هنود
هه
ههنا
هو
هوا
هواء
هواة
هواتف
هوار
هوارد
هواز
هوازن
هوال
هوامش
هوانغ
هواه
هواي
هوب
هوبر
هوبكنز
هوبكينز
هوت
هوتن
هوتين
هود
هور
هوراس
هورن
هوغو
هوف
هوفر
هوفمان
هوك
هوكايدو
هوكس
هوكي
هول
هولاكو
هولاند
هولة
هولت
هولشتاين
هولمز
هولندا
هولندي
هولنديات
هولندية
هولنديون
هولي
هوليوود
هوم
هومبولت
هوميروس
هون
هونج
هوندا
هونغ
هونولولو
هوى
هوي
هوية
هويته
هويتهم
هى
هي
هيا
هياكل
هيب
هيبة
هيت
هيثم
هيد
هيدروجين
هيدروكسي
هير
هيرالد
هيرشل
هيرمان
هيرو
هيرودوت
هيروشي
هيروشيما
هيس
هيفن
هيكتور
هيكل
هيكلة
هيكلية
هيل
هيلاري
هيلتون
هيلز
هيلي
هيلية
هيلين
هيلينا
هيمنة
هيهات
هيو
هيوز
هيوستن
هيوم
هيومن
هيون
هيونداي
هيي
و
وء
وا
واء
واب
وابن
وابنة
وابنه
وات
واتباع
واتحاد
واتخاذ
واتخذ
واتسون
واتش
واتفق
واتفقوا
واتفورد
واتهم
واثلة
واثنان
واثنين
واجب
واجبا
واجبات
واجبة
واجتماعية
واجتمع
واجه
واجهات
واجهة
واجهت
واح
واحة
واحتج
واحتجوا
واحترام
واحتل
واحتلت
واحد
واحدا
واحدة
واحده
واحدها
واختار
واختبار
واختلاف
واختلف
واختلفوا
واختيار
واخر
واد
وادعى
وادي
واذا
وار
وارتفاع
وارتفع
وارتفعت
وارث
وارد
وارسو
وارن
وارنر
وارين
وازداد
واس
واست
واستا
واستخدام
واستخدامها
واستخدم
واستخدمت
واستدل
واستشهد
واستطاع
واستطاعت
واستعادة
واستعمال
واستعمل
واستقر
واستمر
واستمرت
واستولت
واستولوا
واستولى
واسط
واسطة
واسع
واسعا
واسعة
واسعون
واسم
واسمه
واسمها
واشتد
واشتغل
واشتهر
واشتهرت
واشنطن
واصف
واصفا
واصل
واصلت
واضح
واضحا
واضحة
واضطر
واضطراب
واضطرابات
واضع
واط
واع
واعتبار
واعتبر
واعتبرت
واعترف
واعتقد
واعتماد
واعتمد
واعلم
واف
وافتتح
وافر
وافق
وافقة
وافقت
واق
واقترح
واقتصادي
واقتصادية
واقد
واقع
واقعة
واقعي
واقعية
واقف
واقفا
وال
والا
والابتكار
والابن
والاتحاد
والاتصال
والاتصالات
والاجتماع
والاجتماعي
والاجتماعية
والاختلاف
والاس
والاستثمار
والاستجابة
والاستحواذ
والاستخدام
والاستفادة
والاستقرار
والاستقلال
والاستيلاء
والاسم
والاضطرابات
والاعتداء
والاعتراف
والاعتماد
والاقتصاد
والاقتصادي
والاقتصادية
والاكتي
والالتزام
والانتشار
والانتقال
والاهتمام
والب
والباحثين
والباطل
والباقي
والبحث
والبحر
والبحرية
والبحرين
والبحوث
والبخاري
والبر
والبرازيل
والبرامج
والبرتغال
والبرد
والبزار
والبشر
والبصر
والبصرة
والبعض
والبقاء
والبلد
والبلدات
والبلدان
والبناء
والبنية
والبيان
والبيانات
والبيض
والبيع
والبيهقي
والبيي
والت
والتا
والتابعين
والتاريخ
والتاريخية
والتاسع
والتجار
والتجارة
والتجارية
والتحق
والتحقيق
والتحكم
والتحليل
والتخطيط
والتخلص
والتدريب
والتدريس
والتر
والتراث
والتربية
والترجمة
والترشيحات
والترفيه
والترقي
والتركية
والتركيز
والترمذي
والتسويق
والتصميم
والتصوير
والتطور
والتطوير
والتعامل
والتعاون
والتعبير
والتعديل
والتعذيب
والتعريف
والتعلم
والتعليم
والتعليمية
والتغذية
والتغيير
والتفاعل
والتفسير
والتفكير
والتقاليد
والتقدم
والتقدير
والتقنيات
والتقنية
والتقوى
والتقى
والتكامل
والتكنولوجيا
والتلفزيون
والتمثيل
والتمر
والتمويل
والتمييز
والتنسيق
والتنظيم
والتنمية
والتهاب
والتواصل
والتوجيه
والتوزيع
والتوسع
والتي
والثالث
والثالثة
والثامن
والثانوية
والثاني
والثانية
والثروة
والثقافة
والثقافي
والثقافية
والثلاثون
والثلاثين
والثناء
والثورة
والثوري
والج
والجامعات
والجامعة
والجبال
والجبل
والجدير
والجراحة
والجراي
والجزء
والجزاي
والجزر
والجزيرة
والجسم
والجغرافيا
والجلد
والجماعات
والجماعة
والجمال
والجمع
والجمعيات
والجمعية
والجمهور
والجن
والجنس
والجنسية
والجنوب
والجنوبية
والجنود
والجهات
والجهاد
والجهاز
والجهل
والجواب
والجواي
والجيش
والح
والحاجة
والحارث
والحاضر
والحاكم
والحالة
والحب
والحبوب
والحج
والحجاز
والحجر
والحد
والحداي
والحدود
والحديث
والحديد
والحرارة
والحرام
والحرب
والحرف
والحركات
والحركة
والحروب
والحريات
والحرية
والحزب
والحزن
والحساب
والحسن
والحسين
والحشرات
والحصول
والحضارة
والحفاظ
والحق
والحقوق
والحقيقة
والحكم
والحكمة
والحكومات
والحكومة
والحماية
والحمد
والحوار
والحياة
والحيوان
والحيوانات
والخ
والخارج
والخارجية
والخاص
والخاصة
والخامس
والخبر
والخبرة
والخدمات
والخدمة
والخروج
والخضروات
والخط
والخطا
والخلاصة
والخلايا
والخلف
والخلق
والخمسون
والخمسين
والخوف
والخيال
والخير
والد
والدار
والدارقطني
والدة
والدته
والدتها
والدخول
والدراسات
والدراسة
والدراما
والدعاء
والدعم
والدعوة
والدفاع
والدكتور
والدكتوراه
والدليل
والدم
والدنمارك
والدنيا
والده
والدها
والدواء
والدول
والدولة
والدولي
والدولية
والدي
والديمقراطية
والدين
والدينية
والديه
والديها
والذاكرة
والذرة
والذكاء
والذكر
والذهب
والذي
والذين
والر
والرا
والرابع
والرابعة
والربيع
والرجال
والرجل
والرحمة
والرد
والرساي
والرسم
والرسول
والرسوم
والرعاية
والرغبة
والرقابة
والرقص
والرو
والرواية
والروح
والروسية
والروم
والرومان
والرومانية
والري
والرياضة
والرياضيات
والز
والزبير
والزراعة
والزكاة
والزمان
والزهري
والزواج
والزيتون
والس
والسابع
والسادس
والساي
والسبب
والسبعون
والسبعين
والستون
والستين
والسجود
والسعادة
والسعودية
والسعي
والسفر
والسفن
والسكان
والسكر
والسكنى
والسلاح
والسلام
والسلامة
والسلطات
والسلطان
والسلطة
والسلوك
والسماء
والسماح
والسنة
والسودان
والسويد
والسياحة
والسيارات
والسياسات
والسياسة
والسياسي
والسياسية
والسيد
والسيدة
والسير
والسيطرة
والسينما
والش
والشاعر
والشافعي
والشام
والشباب
والشجاعة
والشخصيات
والشخصية
والشر
والشراب
والشرب
والشرطة
والشرق
والشرقية
والشركات
والشعب
والشعبي
والشعر
والشعراء
والشعوب
والشعور
والشعير
والشكل
والشمال
والشمس
والشهادة
والشو
والشيخ
والشيعة
والص
والصالحين
والصبر
والصحافة
والصحة
والصحف
والصحيح
والصدق
والصراع
والصرف
والصفات
والصلاة
والصلب
والصناعات
والصناعة
والصناعية
والصواب
والصوت
والصور
والصورة
والصيام
والصيد
والصين
والض
والضراي
والضرب
والضعف
والضغط
والط
والطاعة
والطاقة
والطاي
والطب
والطبراني
والطبقة
والطبيعة
والطرق
والطريق
والطعام
والطفل
والطلاب
والطلاق
والطلب
والطين
والطيور
والظاهر
والظروف
والظلم
والع
والعادات
والعالم
والعالمية
والعام
والعامة
والعاملين
والعاي
والعبادة
والعبد
والعجز
والعدالة
والعدد
والعدل
والعدوان
والعديد
والعراق
والعرب
والعربي
والعربية
والعرض
والعروض
والعسكرية
والعشاء
والعشرون
والعشرين
والعصر
والعقاب
والعقد
والعقل
والعكس
والعلاج
والعلاقات
والعلامات
والعلم
والعلماء
والعلمية
والعلوم
والعمارة
والعمال
والعمرة
والعمل
والعمليات
والعملية
والعناصر
والعناية
والعنف
والعوامل
والعودة
والعين
والغ
والغابات
والغاز
والغرب
والغربية
والغرض
والغضب
والغناء
والف
والفارسية
والفاي
والفتيات
والفرس
والفرق
والفرقة
والفرنسية
والفريق
والفساد
والفصل
والفضاء
والفضة
والفضل
والفعل
والفقر
والفقه
والفقهاء
والفكر
والفكرية
والفلاسفة
والفلبين
والفلسفة
والفن
والفنانين
والفنون
والفنية
والفواكه
والفيديو
والفيزياء
والق
والقارة
والقاسم
والقاضي
والقانون
والقانونية
والقاهرة
والقاي
والقباي
والقتال
والقتل
والقدر
والقدرة
والقديس
والقرا
والقراءة
والقرن
والقرى
والقسم
والقصة
والقصر
والقصص
والقضاء
والقضاة
والقضايا
والقلب
والقلق
والقمر
والقوات
والقواعد
والقوانين
والقوة
والقول
والقومية
والقوى
والقيادة
والقياس
والقيام
والقيم
والك
والكاتب
والكاريبي
والكاي
والكبير
والكتاب
والكتابة
والكتب
والكثير
والكذب
والكرامة
والكساي
والكفر
والكلام
والكليات
والكناي
والكنيسة
والكهرباء
والكواكب
والكويت
والكيمياء
والل
واللاسلكية
واللام
واللجنة
واللغات
واللغة
واللفظ
والله
واللواي
واللون
والليث
والليل
والم
والما
والماء
والمادة
والمال
والمالية
والمبادي
والمباني
والمتوسطة
والمثليات
والمجتمع
والمجتمعات
والمجر
والمجلات
والمجلس
والمجموعات
والمحافظة
والمحبة
والمحلية
والمحيط
والمخرج
والمدارس
والمدرسة
والمدن
والمدنية
والمدير
والمدينة
والمرا
والمراجع
والمراد
والمرافق
والمراقبة
والمراكز
والمرض
والمركبات
والمركز
والمروة
والمزيد
والمساجد
والمساعدة
والمساكين
والمساهمة
والمساواة
والمستشفيات
والمستقبل
والمسجد
والمسرح
والمسلمون
والمسلمين
والمسو
والمسيحية
والمسيحيين
والمشاركة
والمشاريع
والمشاكل
والمشروبات
والمصادر
والمصالح
والمضمار
والمطاعم
والمعادن
والمعارضة
والمعارف
والمعاهد
والمعايير
والمعتزلة
والمعتقدات
والمعدات
والمعرفة
والمعروف
والمعروفة
والمعلومات
والمعنى
والمغرب
والمقالات
والمقصود
والمكان
والمكسيك
والملابس
والملاي
والملح
والملك
والملكة
والملوك
والممارسات
والمملكة
والمناطق
والمنتجات
والمنشا
والمنطق
والمنطقة
والمنظمات
والمهارات
والمهنة
والمو
والمواد
والموارد
والمواصلات
والمواقع
والموت
والموسيقى
والموظفين
والمياه
والميدان
والن
والنار
والناس
والناي
والنبات
والنباتات
والنبي
والنتاي
والنتيجة
والنجوم
والنحاس
والنحل
والنحو
والندوات
والنرويج
والنساء
والنساي
والنسيج
والنشاط
والنشر
والنصارى
والنصف
والنظام
والنظر
والنظم
والنفس
والنفسية
والنقد
والنقل
والنمسا
والنمو
والنهار
والنهاية
والنهي
والنوع
والنون
واله
والهجرة
والهدف
والهرسك
والهند
والهندسة
والهواء
والهوية
والهيي
والو
والواجبات
والواقع
والوثاي
والوجه
والوحدة
والوزراء
والوساي
والوسطى
والوصول
والوطن
والوطنية
والوظاي
والوفيات
والوقاية
والوقت
والوقوف
والولادة
والولايات
والوليد
والى
والي
واليا
واليابان
واليد
واليمن
واليهود
واليهودية
واليوم
واليونان
واليونانية
وام
واما
وامتد
وامتدت
وامر
وامرا
وامره
وان
وانا
وانت
وانتخب
وانتشار
وانتشر
وانتشرت
وانتقد
وانتقل
وانتقلت
وانتهاء
وانتهت
وانتهى
وانحراف
وانخفاض
واندررز
وانصرف
وانضم
وانضمت
وانطلق
وانظر
وانغ
وانما
وانه
واني
واه
واو
واي
وايت
وايضا
وايلد
واين
وايومنغ
وب
وبا
وباء
وباب
وبات
وباحث
وباريس
وباقي
وباكستان
وبالا
وبالتالي
وبالتحديد
وبالجملة
وبالرغم
وبالفعل
وبالله
وبالمثل
وبالمركز
وبالنسبة
وباما
وباي
وبحر
وبحسب
وبحلول
وبخاصة
وبدء
وبدا
وبداية
وبدل
وبدلا
وبدون
وبذل
وبذلك
وبر
وبرا
وبرامج
وبراين
وبرج
وبركاته
وبرلين
وبرنامج
وبري
وبريت
وبريطانيا
وبسالا
وبسبب
وبسط
وبشر
وبشكل
وبصورة
وبطل
وبطولة
وبعث
وبعد
وبعده
وبعدها
وبعض
وبعضها
وبعضهم
وبغداد
وبفضل
وبقي
وبقية
وبقيت
وبك
وبكل
وبلاد
وبلاست
وبلجيكا
وبلدات
وبلدية
وبلغ
وبلغاريا
وبلغت
وبما
وبمجرد
وبموجب
وبن
وبناء
وبنات
وبنت
وبنفس
وبنو
وبنى
وبني
وبه
وبها
وبهذا
وبهذه
وبول
وبولندا
وبي
وبيان
وبيت
وبيتر
وبيع
وبين
وبينك
وبينما
وبينه
وبينها
وبينهم
وبينهما
وبيي
وة
وت
وتا
وتابع
وتار
وتارة
وتاريخ
وتاوا
وتبادل
وتبدا
وتبعد
وتبعه
وتبقى
وتبلغ
وتبين
وتتا
وتتبع
وتتراوح
وتتضمن
وتتطلب
وتتكون
وتتم
وتتمثل
وتتميز
وتجارة
وتجدر
وتجمع
وتجنب
وتحاول
وتحت
وتحتاج
وتحتل
وتحتوي
وتحدث
وتحدد
وتحديد
وتحديدا
وتحرير
وتحسين
وتحقيق
وتحليل
وتحمل
وتحول
وتحولت
وتحويل
وتحيط
وتختلف
وتخرج
وتخرجت
وتخفيف
وتدخل
وتدريب
وتدمير
وتدور
وتذكر
وتر
وترا
وتراجع
وتربية
وترتبط
وترتفع
وترتيب
وترتيبه
وترجع
وترجم
وترجمة
وترخت
وترك
وتركت
وتركز
وتركه
وتركوا
وتركيا
وترى
وتزداد
وتزوج
وتزيد
وتساعد
وتسبب
وتستخدم
وتستمر
وتسجيل
وتسعة
وتسعون
وتسعى
وتسعين
وتسمح
وتسمى
وتشتهر
وتشجيع
وتشديد
وتشغيل
وتشكل
وتشكيل
وتشكيلات
وتشمل
وتشير
وتصبح
وتصدر
وتصل
وتصميم
وتصنيع
وتضع
وتضم
وتضمن
وتضمنت
وتطبيق
وتطلب
وتطور
وتطورت
وتطوير
وتطويرها
وتظهر
وتعادل
وتعالى
وتعتبر
وتعتمد
وتعد
وتعديل
وتعرض
وتعرضت
وتعرف
وتعزيز
وتعلم
وتعليق
وتعليم
وتعليمه
وتعمل
وتعني
وتعود
وتعيش
وتعيين
وتغطي
وتغير
وتغيير
وتفسير
وتقدر
وتقدم
وتقدير
وتقديم
وتقرر
وتقع
وتقليل
وتقنيات
وتقنية
وتقول
وتقوم
وتقييم
وتكرار
وتكلم
وتكنولوجيا
وتكون
وتكوين
وتلفزيون
وتلقى
وتلك
وتليها
وتم
وتمت
وتمتد
وتمتلك
وتمثل
وتمكن
وتمكنت
وتناول
وتنتج
وتنتشر
وتنتهي
وتنسيق
وتنظيم
وتنفيذ
وتنقسم
وتنمية
وتهدف
وتو
وتوا
وتوباغو
وتوج
وتوجد
وتوجه
وتوجيه
وتوحيد
وتوزع
وتوزيع
وتوسيع
وتوفر
وتوفي
وتوفيت
وتوفير
وتوقف
وتولى
وتوماس
وتونس
وتي
وتيرة
وث
وثالث
وثان
وثاني
وثاي
وثب
وثبت
وثق
وثقافة
وثقافية
وثقه
وثلاث
وثلاثة
وثلاثماي
وثلاثون
وثلاثين
وثلث
وثم
وثمانون
وثمانية
وثمانين
وثنا
وثناي
وثيق
وثيقا
وثيقة
وج
وجاء
وجاءت
وجابر
وجامع
وجامعة
وجان
وجاي
وجب
وجبات
وجبال
وجبة
وجبت
وجبل
وجبه
وجد
وجدة
وجدت
وجدته
وجدنا
وجده
وجدها
وجدوا
وجدي
وجراي
وجرت
وجرح
وجرى
وجزء
وجزر
وجزيرة
وجع
وجعفر
وجعل
وجعلت
وجعلنا
وجعله
وجعلها
وجعلوا
وجل
وجلس
وجماعة
وجماعية
وجمال
وجمع
وجمعه
وجمعها
وجمعية
وجملة
وجمهور
وجمهورية
وجميع
وجنوب
وجه
وجها
وجهات
وجهاز
وجهان
وجهة
وجهت
وجهك
وجهه
وجهها
وجهي
وجهين
وجواي
وجوب
وجود
وجودة
وجوده
وجودها
وجودهم
وجورج
وجورجيا
وجون
وجوه
وجوههم
وجي
وجيزة
وجيش
وجيمس
وجين
وجيه
وح
وحاز
وحافظ
وحال
وحالات
وحالة
وحاليا
وحاول
وحاولت
وحب
وحتى
وحث
وحج
وحجة
وحجم
وحد
وحدات
وحدة
وحدث
وحدثت
وحدثنا
وحدثني
وحده
وحدها
وحدهم
وحدي
وحديث
وحديثا
وحديثه
وحذف
وحرب
وحركة
وحرم
وحرية
وحزب
وحسب
وحسن
وحسين
وحش
وحشي
وحشية
وحصل
وحصلت
وحضر
وحضيض
وحظر
وحفص
وحفظ
وحق
وحقق
وحققت
وحقوق
وحقيقة
وحكم
وحكومة
وحكى
وحكي
وحل
وحلب
وحلفاي
وحماد
وحماية
وحمزة
وحمض
وحمل
وحملت
وحميد
وحوار
وحوالي
وحوش
وحول
وحى
وحي
وحياة
وحياته
وحيث
وحيد
وحيدا
وحيدة
وحين
وحينما
وحيني
وخ
وخارج
وخارجها
وخاص
وخاصة
وخالد
وخبر
وخدم
وخدمات
وخدمة
وخرج
وخرجت
وخرجوا
وخروج
وخسر
وخصاي
وخصوص
وخصوصا
وخط
وخطب
وخطوط
وخفض
وخلاصة
وخلال
وخلايا
وخلص
وخلع
وخلف
وخلفه
وخلق
وخمس
وخمسة
وخمسماي
وخمسون
وخمسين
وخير
ود
ودا
وداد
ودار
وداع
وداعا
وداود
وداي
ودبلوماسي
ودخل
ودخلت
ودخول
ودر
ودراسات
ودراسة
ودرجة
ودرس
ودع
ودعا
ودعت
ودعم
ودعوا
ودفع
ودفن
ودقة
ودل
ودليل
ودمشق
ودور
ودورة
ودول
ودولة
ودون
ودي
ودية
ودير
وديسا
وديفيد
ودين
وذ
وذا
وذات
وذاك
وذكر
وذكرت
وذكره
وذكروا
وذلك
وذهب
وذهبت
وذو
وذوي
وذي
ور
ورا
وراء
وراءه
وراءها
ورابطة
وراثة
وراثي
وراثيا
وراثية
وراح
وراس
وراسيا
وراق
وراقه
وراقها
ورال
ورام
ورانج
ورانوس
وراي
ورب
وربا
وربط
وربما
وربي
وربية
وربيين
ورة
ورت
ورث
ورثة
ورثته
ورجال
ورجاله
ورجع
ورجل
ورحل
ورحمة
ورحمته
ورخان
ورد
وردا
وردة
وردت
ورده
وردها
وردي
وردية
ورسالة
ورسام
ورساي
ورسله
ورسم
ورسول
ورسوله
ورش
ورشة
ورشليم
ورعاية
ورغم
ورغن
ورفض
ورفضت
ورفع
ورق
ورقاء
ورقة
ورقم
ورقية
وركب
وركسترا
ورلاندو
ورلد
ورليان
ورلينز
ورم
ورو
وروابط
ورواه
ورواي
ورواية
وروبا
وروبرت
وروبي
وروبية
وروبيون
وروبيين
وروح
ورود
ورورا
وروسيا
وروغواي
وروغواياني
وروغويانيون
وروما
ورومانيا
وروى
وروي
وروينا
وري
وريال
وريتشارد
وريث
وريغن
وريغون
ورينت
وز
وزاد
وزادت
وزار
وزارات
وزارة
وزاعي
وزان
وزاوية
وزبكستان
وزر
وزراء
وزعم
وزعموا
وزعيم
وزملاو
وزن
وزنا
وزنه
وزنها
وزهير
وزو
وزوج
وزوجة
وزوجته
وزوجها
وزون
وزياد
وزيادة
وزيت
وزيد
وزير
وزيرا
وزيرة
وس
وسا
وسار
وساط
وساعد
وسافر
وساق
وساكا
وسالم
وسام
وسان
وسانت
وساهم
وساي
وسبب
وسبع
وسبعة
وسبعماي
وسبعون
وسبعين
وسبق
وست
وستة
وسترن
وستفاليا
وستكون
وستماي
وستمنستر
وستن
وستون
وستين
وسجل
وسجلت
وسجن
وسحب
وسد
وسر
وسرطان
وسرعان
وسرعة
وسط
وسطه
وسطها
وسطي
وسطية
وسع
وسعة
وسعت
وسعد
وسعى
وسعيد
وسفيان
وسقط
وسقطت
وسقوط
وسكار
وسكان
وسكن
وسكون
وسل
وسلامة
وسلامه
وسلسلة
وسلم
وسلو
وسليمان
وسم
وسماه
وسمة
وسمت
وسمح
وسمع
وسمعت
وسمى
وسمي
وسميت
وسن
وسنة
وسنغافورة
وسهل
وسهم
وسهولة
وسو
وسوء
وسواء
وسوريا
وسوف
وسوق
وسويسرا
وسي
وسيا
وسياسة
وسياسي
وسياسية
وسيتم
وسيتيا
وسيط
وسيكون
وسيلة
وسيم
وسيناريو
وش
وشا
وشارع
وشارك
وشاركت
وشاعر
وشاعرات
وشاعرة
وشبكات
وشبكة
وشبه
وشخصيات
وشخصية
وشد
وشدة
وشدد
وشر
وشراء
وشراي
وشرب
وشرح
وشرط
وشرع
وشرق
وشركات
وشركاه
وشركة
وشعبة
وشعر
وشغل
وشق
وشقيقه
وشك
وشكر
وشكرا
وشكل
وشكلت
وشمال
وشمل
وشملت
وشن
وشهادة
وشهد
وشهدت
وشو
وشي
وشيخ
وص
وصاحب
وصار
وصارت
وصاروا
وصاف
وصالح
وصاية
وصت
وصح
وصحبه
وصحة
وصححه
وصحفي
وصحفية
وصحية
وصدر
وصدرت
وصدق
وصرح
وصعوبة
وصف
وصفا
وصفات
وصفاته
وصفة
وصفت
وصفته
وصفه
وصفها
وصفهم
وصفي
وصل
وصلاة
وصلات
وصلاح
وصلة
وصلت
وصلنا
وصله
وصلها
وصلوا
وصلى
وصناعة
وصندوق
وصنع
وصنف
وصوت
وصور
وصورة
وصول
وصولا
وصوله
وصولها
وصولهم
وصى
وصي
وصيانة
وصية
وصيته
وصيد
وصيف
وض
وضابط
وضاح
وضاع
وضبط
وضح
وضحت
وضد
وضرب
وضع
وضعت
وضعته
وضعتها
وضعف
وضعفه
وضعه
وضعها
وضعهم
وضعوا
وضعية
وضغط
وضم
وضمان
وضمت
وضمن
وضوء
وضوح
وضوحا
وضيق
وط
وطا
وطاعة
وطالب
وطالبت
وطاي
وطب
وطبع
وطبقا
وطبيب
وطبيعة
وطرح
وطرد
وطرق
وطريق
وطريقة
وطلب
وطلبت
وطلحة
وطن
وطنه
وطنهم
وطني
وطنيا
وطنية
وطول
وطي
وظ
وظاهر
وظاي
وظروف
وظل
وظلت
وظن
وظهر
وظهرت
وظهور
وظيفة
وظيفته
وظيفتها
وظيفي
وظيفية
وع
وعاء
وعاد
وعادة
وعادت
وعارضة
وعازف
وعاش
وعاشت
وعاصم
وعاصمتها
وعالم
وعام
وعامة
وعامر
وعاي
وعبادة
وعبارات
وعبد
وعبر
وعبيد
وعثمان
وعد
وعدة
وعدت
وعدد
وعددها
وعدم
وعده
وعرض
وعرضت
وعرضه
وعرضها
وعرف
وعرفت
وعز
وعزل
وعشرة
وعشرون
وعشرين
وعضو
وعطاء
وعظم
وعقب
وعقد
وعكرمة
وعلا
وعلاج
وعلامات
وعلامة
وعلاوة
وعلق
وعلم
وعلماء
وعلمه
وعلوم
وعلى
وعلي
وعليك
وعليكم
وعليه
وعليها
وعليهم
وعم
وعمر
وعمره
وعمرو
وعمل
وعملت
وعمله
وعملوا
وعمليات
وعملية
وعن
وعناصر
وعند
وعندما
وعنده
وعندها
وعندي
وعنه
وعنوان
وعهد
وعوامل
وعودة
وعي
وعية
وعيد
وعيسى
وعين
وغ
وغادر
وغالب
وغالبا
وغاية
وغرب
وغربا
وغرف
وغرفة
وغست
وغسطين
وغسل
وغلو
وغندا
وغندية
وغنديون
وغير
وغيره
وغيرها
وغيرهم
وغيرهما
وف
وفا
وفاء
وفاة
وفاته
وفاتها
وفارس
وفاز
وفازت
وفاطمة
وفاق
وفاي
وفتح
وفتحت
وفد
وفر
وفرة
وفرت
وفرض
وفرط
وفرق
وفرقة
وفرنسا
وفريق
وفساد
وفشل
وفصل
وفضل
وفعل
وفق
وفقا
وفقد
وفقدان
وفقيه
وفلان
وفلسطين
وفلسفة
وفن
وفنان
وفنانات
وفهم
وفود
وفوق
وفى
وفي
وفيات
وفيتنام
وفيس
وفيلسوف
وفيلم
وفيما
وفيه
وفيها
وفيهم
وفييدو
وق
وقات
وقاتل
وقاد
وقادة
وقاص
وقاضي
وقاعة
وقاعدة
وقاف
وقال
وقالت
وقالوا
وقام
وقامت
وقاموا
وقانون
وقاي
وقاية
وقباي
وقبرص
وقبض
وقبل
وقبول
وقت
وقتا
وقتادة
وقتل
وقتلت
وقتله
وقتلوا
وقتنا
وقته
وقتها
وقتي
وقد
وقدر
وقدرة
وقدرته
وقدره
وقدم
وقدمت
وقر
وقرا
وقراءة
وقرر
وقررت
وقرى
وقرية
وقسم
وقصة
وقصد
وقصر
وقصص
وقضاء
وقضايا
وقضى
وقطاع
وقطر
وقطع
وقع
وقعة
وقعت
وقعوا
وقف
وقفة
وقفت
وقفوا
وقل
وقلب
وقلبه
وقلة
وقلت
وقلعة
وقلنا
وقليل
وقمت
وقناة
وقوات
وقواعد
وقوانين
وقوة
وقوته
وقود
وقوع
وقوعه
وقوعها
وقوف
وقول
وقوله
وقولهم
وقوم
وقومه
وقيادة
وقياس
وقيام
وقيانوسيا
وقيانوسية
وقية
وقيس
وقيل
وقيمة
وك
وكا
وكات
وكاتب
وكاتبات
وكاتبة
وكاد
وكالات
وكالة
وكان
وكانا
وكانت
وكانوا
وكبار
وكبر
وكبير
وكتاب
وكتابة
وكتابه
وكتب
وكتبت
وكتبه
وكثافة
وكثر
وكثرة
وكثير
وكثيرا
وكذا
وكذلك
وكراني
وكرانيا
وكرانية
وكرانيون
وكرانيين
وكرة
وكره
وكس
وكسجين
وكسر
وكسفورد
وكشف
وكشمير
وكفر
وكفى
وكل
وكلا
وكلاء
وكلام
وكلاند
وكلاهما
وكلاهوما
وكلما
وكلمة
وكلها
وكلهم
وكليات
وكلية
وكم
وكما
وكمال
وكمية
وكن
وكنا
وكنت
وكندا
وكنيسة
وكوريا
وكون
وكونه
وكي
وكيع
وكيف
وكيفية
وكيل
وكيلا
وكيناوا
ول
ولا
ولاء
ولابد
ولاة
ولاحق
ولاحقا
ولاد
ولادة
ولادته
ولاده
ولادها
ولادهم
ولاسيما
ولاعب
ولاعبات
ولان
ولاه
ولاي
ولايات
ولاية
ولايته
ولايتي
ولبس
ولبنان
ولة
ولت
ولجنة
ولحم
ولد
ولدا
ولدت
ولده
ولدها
ولدهام
ولدوا
ولدى
ولدي
ولديه
ولديها
ولديهم
ولذا
ولذلك
ولسان
ولست
ولسنا
ولعب
ولعبت
ولعل
ولعله
ولغا
ولغة
ولفظ
ولقب
ولقد
ولك
ولكل
ولكم
ولكن
ولكنا
ولكنك
ولكننا
ولكنني
ولكنه
ولكنها
ولكنهم
ولكنهما
ولكني
ولكي
وللا
ولله
ولم
ولما
ولماذا
ولمبي
ولمبيا
ولمبياد
ولمبياكوس
ولمبية
ولمبيك
ولمبيون
ولمدة
ولمن
ولن
ولنا
ولندن
وله
ولها
ولهذا
ولهذه
ولهم
ولهما
ولو
ولوا
ولوج
ولولا
ولون
ولويات
ولوية
ولويس
ولى
ولي
وليا
ولياء
وليات
وليام
وليامز
ولياي
وليبيا
ولية
وليت
وليته
وليتها
وليد
وليس
وليست
وليفر
وليفيرا
وليكن
وليلة
وليم
وليمبيا
ولين
وليه
وليها
وليون
وم
وما
وماء
ومات
وماذا
ومارس
وماري
ومال
ومالك
وماله
ومالي
وماليزيا
ومانغا
وماها
وماي
ومايكل
ومبادي
ومبنى
ومتابعة
ومتحف
ومترجم
ومتصدر
ومتلازمة
ومتنوعة
ومتوسط
ومتى
ومثال
ومثل
ومثله
ومجاهد
ومجلة
ومجلس
ومجموعات
ومجموعة
ومحافظة
ومحامي
ومحاولة
ومحطات
ومحطة
ومحمد
ومحمود
ومختلف
ومخرج
ومد
ومدارس
ومدة
ومدرب
ومدرسة
ومدن
ومدى
ومدير
ومدينة
ومذهب
ومر
ومراجع
ومراجعة
ومرافق
ومراقبة
ومراكز
ومرة
ومرجعية
ومرض
ومركز
ومروان
ومزدوجي
ومساحة
ومساحتها
ومساعدة
ومستشار
ومستشفى
ومستوى
ومسجد
ومسح
ومسرح
ومسلسل
ومسلم
ومسو
ومشاركة
ومشاكل
ومشروبات
ومشروع
ومصادر
ومصدر
ومصر
ومضى
ومع
ومعاذ
ومعارض
ومعالجة
ومعاوية
ومعتقلون
ومعدات
ومعدل
ومعرفة
ومعركة
ومعظم
ومعظمها
ومعظمهم
ومعلوم
ومعلومات
ومعناه
ومعناها
ومعنى
ومعه
ومعها
ومعهد
ومعهم
ومغني
ومغنيات
ومغنية
ومقاطعة
ومقالات
ومقاومة
ومقتل
ومقدم
ومقدمة
ومقر
ومقره
ومقرها
ومكافحة
ومكان
ومكتب
ومكتبة
وملاي
وملحن
وملحنات
وملك
ومما
وممارسات
وممارسة
وممثل
وممثلات
وممثلة
ومملكة
وممن
ومن
ومناطق
ومنتج
ومنتجات
ومنتخب
ومنح
ومنذ
ومنشا
ومنصور
ومنطقة
ومنظمات
ومنظمة
ومنع
ومنه
ومنها
ومنهم
ومهرجان
ومهما
ومهندس
ومو
ومواد
ومواقع
ومواليد
وموت
وموسى
وموسيقى
وموسيقي
وموقع
ومي
ون
ونا
ونادرا
ونادى
ونادي
وناشط
وناشطة
ونافع
وناقد
ونال
وناي
ونة
ونتاريو
ونتاي
ونتج
ونتيجة
ونجح
ونجحت
ونجد
ونحن
ونحو
ونحوه
ونحوها
ونحوهم
ونحوهما
وندسور
ونزل
ونزلت
ونساء
ونسب
ونسبة
ونسبه
ونستون
ونشا
ونشر
ونشرت
ونشرها
ونص
ونصب
ونصر
ونصف
ونظام
ونظر
ونظرا
ونظرية
ونظم
ونعم
ونفس
ونفى
ونفي
ونقص
ونقل
ونقلت
ونقله
ونقلها
ونقول
ونلاين
ونمو
ونه
ونها
ونهاية
ونهب
ونهر
ونهى
ونو
ونور
ونوع
وني
ونيفرسيداد
ونيل
ونيو
ونيوزيلندا
ونيويورك
وه
وها
وهاجر
وهارون
وهام
وهايو
وهب
وهبة
وهبي
وهذا
وهذان
وهذه
وهران
وهراني
وهرب
وهزم
وهشام
وهكذا
وهل
وهم
وهما
وهمية
وهن
وهنا
وهناك
وهنالك
وهندسة
وهنري
وهو
وهولندا
وهى
وهي
وهيب
وهيي
وو
وواحد
وواحدة
ووادي
وواصل
ووافق
ووالدته
ووالده
ووتش
ووثقه
ووجد
ووجدت
ووجه
ووجود
ووحدات
ووحدة
وود
وودز
وورث
وورد
وورلد
ووريورز
ووزارة
ووزير
ووساي
ووسط
ووصف
ووصفت
ووصفه
ووصفها
ووصل
ووصلت
ووضاءته
ووضع
ووضعت
ووضعه
ووضعها
ووظاي
ووعد
ووفق
ووفقا
ووفيات
ووقت
ووقع
ووقعت
ووقف
ووكالة
ووكر
ووكيع
وول
وولاية
وولد
وولده
وولف
وولفرهامبتون
وولى
وولي
وون
ووهان
وويلز
وويليام
وى
وي
ويا
ويب
ويبدا
ويبدو
ويبر
ويبعد
ويبقى
ويبلغ
ويبين
وية
ويت
ويتا
ويتبع
ويتحدث
ويتراوح
ويترك
ويتضمن
ويتطلب
ويتكون
ويتم
ويتميز
ويتني
ويتولى
ويثبت
ويجب
ويجري
ويجعل
ويجمع
ويجوز
ويحاول
ويحب
ويحتاج
ويحتمل
ويحتوي
ويحدث
ويحدد
ويحصل
ويحك
ويحكم
ويحمل
ويحيط
ويحيى
ويختلف
ويخرج
ويد
ويدا
ويدخل
ويدعو
ويدعى
ويدفع
ويدل
ويذكر
ويذهب
وير
ويرا
ويراقب
ويرتبط
ويرجع
ويرد
ويرفع
ويرمز
ويروى
ويروي
ويرى
ويريد
ويزداد
ويزعم
ويزومي
ويزيد
ويس
ويسا
ويساعد
ويست
ويستخدم
ويسترن
ويستطيع
ويستعمل
ويستمر
ويسعى
ويسكونسن
ويسمح
ويسمى
ويشار
ويشارك
ويشبه
ويشرب
ويشغل
ويشكل
ويشمل
ويشهد
ويشير
ويصبح
ويصف
ويصل
ويصلي
ويضع
ويضم
ويضيف
ويطلب
ويطلق
ويظهر
ويعتبر
ويعتقد
ويعتمد
ويعد
ويعرض
ويعرف
ويعطي
ويعقوب
ويعلم
ويعمل
ويعني
ويعود
ويعيش
ويغور
ويفضل
ويقال
ويقتل
ويقدر
ويقدم
ويقرا
ويقصد
ويقع
ويقول
ويقولون
ويقوم
ويقيم
ويك
ويكتب
ويكثر
ويكون
ويكي
ويكيبيديا
ويكيبيديون
ويكيميديا
ويل
ويلات
ويلاحظ
ويلر
ويلز
ويلزم
ويلزي
ويلزيون
ويلسون
ويلعب
ويلك
ويله
ويلهلم
ويلي
ويليام
ويليامز
ويليس
ويلينغتون
ويمبلدون
ويمتد
ويمثل
ويمر
ويمكن
ويمنع
وين
وينبغي
وينتج
وينتقل
وينتمي
وينتهي
ويندوز
وينز
وينزداي
وينص
وينظر
وينظم
وينقسم
وينيبيغ
ويهدف
ويو
ويوجد
ويوسف
ويوفر
ويوم
ويون
ويونس
ى
ي
يء
يا
ياء
ياب
يابان
ياباني
يابانيات
يابانية
يابانيون
يات
ياتنا
ياته
ياد
يادي
يار
ياردة
ياس
ياسر
ياسمين
ياسين
يافا
يافع
ياقوت
ياك
ياكس
ياكم
يالة
يام
ياما
يامه
يان
يانغ
يانكيز
ياه
ياها
ياهم
ياهو
ياي
يب
يباح
يباع
يبالي
يبث
يبحث
يبحثون
يبدا
يبدو
يبدي
يبذل
يبرز
يبصر
يبطل
يبعث
يبعد
يبق
يبقى
يبقي
يبك
يبكي
يبلغ
يبلغه
يبنى
يبني
يبولا
يبي
يبيريا
يبيرية
يبيع
يبين
ية
يت
يتا
يتابع
يتام
يتان
يتبع
يتبعه
يتبعها
يتبعون
يتبين
يتجاوز
يتجزا
يتجلى
يتجه
يتحدث
يتحدثون
يتحرك
يتحقق
يتحكم
يتحمل
يتحول
يتخذ
يتدخل
يتدفق
يتذكر
يترا
يتراوح
يترتب
يترجم
يتردد
يترك
يتركز
يتزوج
يتسبب
يتسع
يتسم
يتسنى
يتشكل
يتشي
يتصدق
يتصرف
يتصف
يتصل
يتصور
يتضح
يتضمن
يتطلب
يتطور
يتعارض
يتعامل
يتعدى
يتعذر
يتعرض
يتعرضون
يتعرف
يتعلق
يتعلم
يتعين
يتغير
يتفاعل
يتفق
يتقدم
يتك
يتكرر
يتكلم
يتكلمون
يتكون
يتلقون
يتلقى
يتلو
يتم
يتمتع
يتمتعون
يتمثل
يتمكن
يتمكنوا
يتمنى
يتميز
يتناسب
يتنافس
يتناقض
يتناول
يته
يتها
يتهم
يتو
يتواجد
يتوافق
يتوب
يتوجب
يتوجه
يتوضا
يتوفر
يتوقع
يتوقف
يتولى
يتون
يتوهم
يتيح
يتيم
يتيمة
يتين
يث
يثار
يثان
يثانول
يثبت
يثرب
يثق
يثير
يثيل
يثيلين
يج
يجاب
يجابي
يجابية
يجاد
يجادل
يجار
يجاز
يجاوز
يجب
يجبر
يجة
يجتمع
يجتمعون
يجد
يجده
يجدوا
يجدون
يجذب
يجر
يجرى
يجري
يجز
يجزي
يجعل
يجعله
يجعلها
يجعلون
يجلب
يجلس
يجمع
يجهل
يجوز
يجي
يجيء
يجيب
يجيد
يجيز
يح
يحارب
يحافظ
يحاول
يحاولون
يحب
يحبه
يحبها
يحبون
يحتاج
يحتاجون
يحتج
يحتفظ
يحتفل
يحتل
يحتمل
يحتوي
يحث
يحج
يحجب
يحد
يحدث
يحدد
يحددها
يحدها
يحذر
يحرك
يحرم
يحس
يحسب
يحسن
يحصل
يحصلون
يحصى
يحضر
يحظر
يحظى
يحفز
يحفظ
يحق
يحقق
يحكم
يحكمها
يحكي
يحل
يحلف
يحلم
يحمد
يحمل
يحمله
يحملها
يحملون
يحمي
يحنث
يحول
يحوي
يحي
يحيا
يحيط
يحيى
يحيي
يخ
يخاطب
يخاف
يخالف
يخالفه
يخبر
يخبره
يختار
يختص
يختفي
يختلف
يختلفون
يخدم
يخرج
يخرجه
يخرجوا
يخرجون
يخسر
يخشى
يخص
يخضع
يخطب
يخطر
يخطط
يخطي
يخف
يخفف
يخفى
يخفي
يخل
يخلص
يخلف
يخلق
يخلو
يخوض
يد
يدا
يداع
يدافع
يداهو
يدة
يدت
يدخل
يدخله
يدخلها
يدخلون
يدر
يدرس
يدرسون
يدرك
يدركه
يدرى
يدري
يدز
يدع
يدعم
يدعو
يدعون
يدعوه
يدعوهم
يدعى
يدعي
يدفع
يدفعه
يدفعون
يدك
يدل
يدن
يده
يدها
يدو
يدور
يدوم
يدون
يدوي
يدويا
يدوية
يدي
يدير
يديرها
يديك
يديكم
يدين
يدينا
يديه
يديها
يديهم
يديولوجي
يديولوجيات
يديولوجية
يذاء
يذكر
يذكره
يذكرون
يذهب
يذهبون
ير
يرا
يراد
يرادات
يراقب
يران
يراني
يرانية
يرانيون
يرانيين
يراه
يراها
يرباص
يربط
يرتبط
يرتدون
يرتدي
يرتفع
يرتكز
يرث
يرجح
يرجع
يرجعون
يرجو
يرجى
يرحم
يرد
يرده
يرس
يرسل
يرسم
يرض
يرضى
يرعى
يرغب
يرغبون
يرفض
يرفضون
يرفع
يرفعه
يركب
يركز
يرل
يرلندا
يرلندي
يرلنديات
يرلندية
يرلنديون
يرلنديين
يرمز
يرمي
يره
يرو
يروا
يرون
يروى
يروي
يرويه
يرى
يري
يريد
يريده
يريدون
يريس
يريفان
يريك
يريم
يرين
يز
يزابيل
يزابيلا
يزال
يزالون
يزد
يزداد
يزرع
يزعم
يزعمون
يزل
يزن
يزنهاور
يزو
يزور
يزول
يزيد
يزيس
يزيل
يس
يسا
يسار
يساره
يسارية
يساعد
يسافر
يساهم
يساوي
يسب
يسبب
يسبح
يسبق
يسة
يست
يستا
يستجيب
يستحب
يستحق
يستحقه
يستحيل
يستخدم
يستخدمه
يستخدمها
يستخدمون
يستخرج
يستدعي
يستدل
يستر
يستشهد
يستضيف
يستطع
يستطيع
يستطيعوا
يستطيعون
يستعد
يستعمل
يستعين
يستغرق
يستفيد
يستقبل
يستقر
يستقيم
يستلزم
يستمد
يستمر
يستمع
يستند
يستهدف
يستوي
يسجد
يسجل
يسر
يسرد
يسرق
يسري
يسع
يسعون
يسعى
يسقط
يسكن
يسكنها
يسكنون
يسلط
يسلك
يسلم
يسلندا
يسلندي
يسلندية
يسلنديون
يسم
يسمح
يسمع
يسمعه
يسمعون
يسمون
يسمونه
يسمى
يسمي
يسميه
يسن
يسه
يسها
يسهل
يسهم
يسود
يسوع
يسوغ
يسى
يسي
يسيا
يسيات
يسيان
يسية
يسيتين
يسير
يسيرا
يسيرة
يسيطر
يسيل
يسين
يسيين
يش
يشا
يشاء
يشار
يشارك
يشاركون
يشاهد
يشبه
يشتبه
يشتد
يشترط
يشترك
يشتري
يشتغل
يشتمل
يشتهر
يشجع
يشرب
يشرح
يشرع
يشرف
يشرك
يشعر
يشعرون
يشغل
يشفع
يشق
يشك
يشكل
يشكلون
يشكو
يشمل
يشهد
يشير
يشيع
يص
يصاب
يصال
يصب
يصبح
يصبحوا
يصبر
يصح
يصدر
يصدق
يصر
يصرح
يصرف
يصعب
يصعد
يصف
يصل
يصلح
يصلوا
يصلون
يصلى
يصلي
يصنع
يصنف
يصور
يصوم
يصيب
يصير
يض
يضا
يضاح
يضاف
يضحك
يضر
يضرب
يضره
يضطر
يضع
يضعف
يضعها
يضل
يضم
يضمن
يضيع
يضيف
يضيق
يط
يطا
يطالب
يطالي
يطاليا
يطاليات
يطالية
يطاليون
يطاليين
يطبق
يطرح
يطعم
يطل
يطلب
يطلبون
يطلع
يطلق
يطلقها
يطلقون
يطوف
يطول
يطير
يظ
يظل
يظلم
يظن
يظنون
يظهر
يظهرون
يع
يعاد
يعادل
يعارض
يعاقب
يعالج
يعامل
يعانون
يعاني
يعبد
يعبدون
يعبر
يعتبر
يعتبره
يعتبرها
يعتبرون
يعتد
يعترض
يعترف
يعتق
يعتقد
يعتقدون
يعتمد
يعتمدون
يعثر
يعجب
يعجز
يعد
يعدل
يعذب
يعر
يعرب
يعرض
يعرف
يعرفه
يعرفها
يعرفوا
يعرفون
يعزز
يعزى
يعطى
يعطي
يعطيه
يعقد
يعقل
يعقوب
يعكس
يعلق
يعلم
يعلمه
يعلموا
يعلمون
يعلن
يعلو
يعلى
يعم
يعمر
يعمل
يعملون
يعنون
يعنى
يعني
يعنيه
يعود
يعودوا
يعودون
يعيد
يعيش
يعيشون
يعين
يغ
يغادر
يغتسل
يغزو
يغسل
يغضب
يغطي
يغفر
يغل
يغلب
يغني
يغور
يغيب
يغير
يف
يفا
يفان
يفانجيليون
يفانز
يفتح
يفترض
يفتقر
يفتي
يفر
يفرتون
يفرض
يفرغ
يفرق
يفز
يفسد
يفسر
يفشل
يفصل
يفضل
يفضلون
يفضي
يفطر
يفعل
يفعله
يفعلوا
يفعلون
يفقد
يفكر
يفل
يفهم
يفواريون
يفوز
يفوق
يفون
يفي
يفيد
يفيض
يق
يقابل
يقاتل
يقاتلون
يقارب
يقاس
يقاع
يقاف
يقال
يقام
يقبض
يقبل
يقبله
يقترب
يقترح
يقترن
يقتصر
يقتضي
يقتضيه
يقتل
يقتله
يقتلون
يقد
يقدر
يقدرون
يقدم
يقدمه
يقدمها
يقدمون
يقر
يقرا
يقرب
يقرر
يقرو
يقسم
يقصد
يقصر
يقضى
يقضي
يقطع
يقطن
يقع
يقف
يقل
يقلل
يقم
يقنع
يقود
يقوده
يقودها
يقول
يقوله
يقولوا
يقولون
يقوم
يقوموا
يقومون
يقونات
يقونة
يقوى
يقيس
يقيم
يقيمون
يقين
يقينا
يك
يكاد
يكبر
يكتب
يكتبون
يكتسب
يكتشف
يكتفي
يكتمل
يكثر
يكذب
يكره
يكرهون
يكسب
يكسر
يكشف
يكفر
يكفل
يكفي
يكلف
يكلم
يكم
يكمل
يكمن
يكن
يكنى
يكو
يكولوجية
يكون
يكونا
يكونوا
يكونون
يل
يلا
يلاء
يلاحظ
يلاند
يلاي
يلبث
يلبس
يلبي
يلة
يلتزم
يلتفت
يلتقي
يلجا
يلحق
يلزم
يلزمه
يلعب
يلعبون
يلق
يلقب
يلقى
يلقي
يلول
يلي
يليا
يليات
يلية
يليق
يلين
يلينا
يليه
يليها
يليون
يليين
يم
يما
يماء
يمارس
يمارسون
يمان
يمانا
يمانكم
يمانه
يمانهم
يمانويل
يمت
يمتاز
يمتد
يمتلك
يمتلكون
يمتنع
يمثل
يمثلها
يمثلون
يمد
يمدح
يمر
يمس
يمسح
يمسك
يمشي
يمضي
يمك
يمكن
يمكنك
يمكننا
يمكنني
يمكنه
يمكنها
يمكنهم
يملا
يملك
يملكه
يملكها
يملكون
يمن
يمنح
يمنع
يمنعه
يمني
يمنية
يمنيون
يموت
يموتون
يمي
يميز
يميل
يميلون
يمين
يمينا
يمينه
يميني
يمينية
ين
ينا
ينابيع
ينادي
يناسب
ينافي
يناقش
يناقض
ينال
ينام
يناهز
يناير
ينبت
ينبع
ينبغي
ينة
ينتج
ينتخب
ينتشر
ينتظر
ينتظرون
ينتفع
ينتقد
ينتقل
ينتمون
ينتمي
ينتهي
ينجح
ينجو
ينحدر
ينخفض
يندرج
يندهوفن
ينزع
ينزل
ينس
ينسب
ينسى
ينشا
ينشتاين
ينشد
ينشر
ينشط
ينشي
ينص
ينصب
ينصح
ينصرف
ينضم
ينطبق
ينطق
ينطلق
ينطوي
ينظر
ينظرون
ينظم
ينعقد
ينعكس
ينفذ
ينفرد
ينفصل
ينفع
ينفعه
ينفق
ينفي
ينقسم
ينقص
ينقض
ينقطع
ينقل
ينكح
ينكر
ينكرون
ينما
ينمو
ينه
ينهى
ينهي
ينو
ينوي
يني
يه
يها
يهاب
يهاجم
يهبط
يهتم
يهدد
يهدف
يهدي
يهرب
يهزم
يهلك
يهم
يهما
يهود
يهودا
يهودي
يهوديا
يهودية
يهوذا
يهوه
يهيمن
يو
يوا
يواء
يواجه
يواجهها
يواجهون
يواصل
يوافق
يوان
يوب
يوبي
يوتا
يوتيوب
يوثق
يوجب
يوجد
يوجه
يوجين
يوحنا
يوحي
يود
يور
يورث
يورغن
يورك
يوركشاير
يورو
يوري
يوسف
يوشع
يوشك
يوصف
يوصل
يوصى
يوصي
يوضح
يوضع
يوغسلافيا
يوغوسلافيا
يوغوسلافيون
يوفر
يوفنتوس
يوقع
يوقف
يوكوهاما
يوكي
يول
يولد
يوليه
يوليو
يوليوس
يوم
يوما
يومنا
يومه
يومها
يومي
يوميا
يوميات
يومية
يومين
يون
يونات
يونان
يوناني
يونانية
يونانيون
يونايتد
يونس
يونغ
يونكس
يوني
يونية
يونيفرسال
يونيه
يونيو
يونيون
يوهان
يوهانس
يي
ييد
ييده
ييل
يين
ً
ٌ
ٍ
َ
ُ
ِ
ّ
ْ
ٓ
ٔ
ٕ
ٖ
ٗ
ٞ
١
١٠
٢
٣
٤
٥
٦
٧
٨
٩
٪
٫
٬
ٰ
ٱت
ٱس
ٱل
ٱلا
ٱلد
ٱلر
ٱلس
ٱلش
ٱلص
ٱلل
ٱلن
پ
چاپ
ڤ
ک
گ
ھ
ی
۔
ۖ
ۗ
ۚ
۞
۠
ۡ
ۢ
ۤ
ۥ
ۦ
ۧ
ۭ
۱
۲
۳
۷
ࣰ
ࣱ
ࣲ
ं
क
त
द
न
म
र
स
ा
ि
ी
ु
े
्
া
ি
ে
্
்
്
ั
ิ
ี
ุ
่
้
๛
‌
‍
‎
‏
‐
–
—
‘
’
‚
“
”
„
†
‡
•
…
‧
′
″
‹
›
⁄
€
№
™
←
↑
→
↔
↷
⇌
−
∞
≈
≡
≤
≥
③
④
⑦
─
▪
◀
◊
●
★
☆
☎
☜
☞
☢
✉
✪
⟨
⟩
ⴰ
ⵉ
⺀
⺄
⺆
⺈
⺊
⺌
⺕
⺝
⺸
⺼
⿰
⿱
⿲
⿳
⿴
⿵
⿶
⿷
⿸
⿹
⿺
⿻
、
。
《
》
「
」
〜
〢
あ
い
う
え
お
か
き
く
け
こ
さ
し
す
た
ち
つ
て
と
な
に
の
は
ひ
ふ
ま
み
む
も
や
ゆ
よ
ら
り
る
ろ
わ
を
ん
゙
゚
ア
ィ
イ
ウ
オ
カ
キ
ク
コ
サ
シ
ス
タ
ッ
テ
ト
ナ
ニ
ハ
ヒ
フ
ヘ
ホ
マ
ム
ャ
ュ
ユ
ラ
リ
ル
レ
ロ
ン
・
ー
㇁
㇂
㇄
㇇
㇈
㇉
㇓
㐁
㐄
㐅
㐌
㐫
㐬
㐭
㐮
㐱
㑒
㒵
㒸
㒼
㓁
㓞
㔾
㕛
㕣
㖾
㘝
㚅
㚇
㚔
㚘
㝉
㝡
㝴
㝵
㞋
㞢
㞷
㠩
㠭
㠯
㡀
㡭
㡿
㢲
㢴
㣇
㣺
㥯
㪅
㫄
㫐
㫒
㫺
㬅
㬎
㬥
㬰
㲋
㳄
㷠
㸒
㸚
㸦
㼌
㼲
㽞
㿟
䀠
䂞
䍃
䏍
䒑
䖍
䖒
䖝
䖵
䙴
䚻
䜌
䝿
䡛
䧹
䪞
一
丁
丂
七
丄
丅
丆
万
丈
三
上
下
丌
不
与
丏
丐
丑
专
且
丕
世
丘
丙
业
东
丞
丢
丣
两
严
並
丨
丩
个
丫
丬
中
丮
丰
丱
串
丵
丶
丷
丸
丹
为
主
丽
丿
乀
乂
乃
久
乆
乇
么
义
之
乌
乍
乎
乏
乐
乑
乔
乖
乗
乘
乙
乚
乛
乜
九
乞
也
习
乡
乳
乾
亀
亅
了
亇
予
争
事
二
亍
于
亏
亐
云
互
亓
五
井
亘
亚
亜
亞
亟
亠
亡
亢
交
亥
亦
产
亨
亩
享
京
亭
亮
亯
亰
亲
亳
亶
亷
人
亻
亼
亾
仁
今
介
仌
从
仐
仑
仒
仓
仕
他
付
仝
代
令
以
任
企
伊
伏
伐
休
会
伯
但
位
何
佘
余
作
佥
使
來
侈
侌
侖
侯
侵
便
保
俞
信
修
倉
倍
候
倠
備
僉
僕
儿
兀
允
兂
元
兄
充
兆
兇
先
光
兊
克
兌
免
兑
兒
兓
兔
党
兜
兟
入
全
兩
兪
八
公
六
兮
兰
共
关
兵
其
具
典
兹
兼
冀
冂
冃
冄
内
冈
冉
冊
冋
册
再
冎
冏
冐
冒
冓
冖
冗
冘
军
农
冝
冡
冥
冫
冬
冷
几
凡
凢
凵
凶
凷
凸
凹
出
函
凾
刀
刁
刂
刃
刄
刅
分
切
刍
刑
刕
刖
列
刘
则
初
別
利
别
到
制
刺
則
削
剌
前
剡
剽
劉
力
功
加
劦
助
劫
劳
劵
勃
勇
勉
勒
動
務
勞
勤
勹
勺
勻
勾
勿
匀
匂
包
匆
匈
匊
匋
匍
匕
化
北
匚
匝
匡
匪
匱
匸
匹
区
医
匽
匿
區
十
卂
千
卄
卅
卆
升
午
卉
半
卌
华
卑
卒
卓
单
卖
南
卜
卝
卞
占
卡
卢
卣
卤
卦
卩
卪
卬
卯
印
危
即
却
卵
卷
卸
卻
厂
厃
厄
历
厈
厉
厌
厓
厘
厚
原
厤
厥
厨
厭
厲
厶
厷
厸
去
厼
厽
叀
参
參
叅
又
叉
及
友
双
反
叐
发
叒
叔
叕
取
受
叚
叜
叟
口
古
句
另
叩
只
召
可
台
叱
史
右
叵
号
司
叹
吂
各
吅
合
吉
吊
吋
同
名
后
吏
向
吕
君
吝
吞
否
含
启
吳
吴
吹
吾
呂
呆
呈
告
员
呙
周
命
咅
和
咎
咠
咢
咨
咸
咼
哀
品
哉
員
哥
哲
唐
商
啇
問
啚
啬
啻
善
喜
喬
單
喿
嗇
噩
嚴
囊
囗
囘
囙
囚
四
回
囟
因
囧
囬
困
囱
囷
固
国
圂
圅
國
圍
圓
土
圡
圣
圥
在
圭
地
圶
圼
坐
坒
坚
坴
垂
垔
垚
埀
埋
城
埶
執
基
堂
堅
堆
堇
堯
塞
墨
壘
士
壬
壯
声
壳
壴
壹
壺
壽
夂
处
夅
夆
备
夊
夋
夌
复
夏
夒
夕
外
夗
夘
多
夜
夢
大
夨
天
太
夫
夬
夭
央
失
夲
头
夷
夸
夹
夻
夾
奂
奄
奇
奈
奉
奎
奏
奐
契
奓
奔
奚
奞
奠
奢
奥
奭
女
奴
奻
好
如
妄
妙
妟
妥
妻
妾
姑
委
姜
威
娄
婁
婴
嬰
嬴
子
孑
孔
孕
孖
字
存
孚
孛
孝
孟
季
孤
学
孫
孱
學
宀
宁
宂
它
宅
宇
守
安
宋
完
宏
宓
宗
官
定
宛
宜
宝
客
宣
室
宮
宰
害
家
容
宾
宿
寄
寅
密
富
寒
察
寧
審
寫
寬
寮
寸
对
寺
寻
寽
対
寿
封
尃
射
将
將
專
尉
尊
尋
尌
對
小
少
尒
尓
尔
尖
尗
尚
尞
尢
尣
尤
尧
尨
尭
就
尸
尹
尺
尻
尼
尽
尾
尿
局
居
屈
屋
屎
屏
屑
展
屖
屚
属
屠
屡
屬
屮
屯
屰
山
屵
屾
岁
岂
岑
岡
岩
岳
岸
峯
島
崇
崑
崔
崖
崙
崩
嵬
嶲
巂
巛
川
州
巟
巠
巢
巤
工
左
巧
巨
巩
巫
差
己
已
巳
巴
巷
巸
巽
巾
巿
帀
市
布
希
帚
帛
帝
带
師
席
帶
常
干
平
年
幵
并
幷
幸
幺
幻
幼
幽
幾
广
広
庄
床
底
店
庚
府
度
庫
庭
庶
康
庸
廉
廌
廛
廣
廩
廴
延
廷
建
廾
廿
开
弁
弃
弄
弇
弋
式
弓
弔
引
弗
弘
弜
弟
弥
弦
弱
張
強
强
彊
彌
彎
彐
彑
当
彔
录
彖
彗
彡
形
彥
彦
彧
彭
彳
役
彼
往
待
律
徒
得
徙
從
復
微
徵
心
忄
必
忌
忍
志
忝
忠
忩
快
念
忽
忿
思
怠
急
怱
恆
恒
恩
恭
息
悉
患
悤
悲
悶
惠
惡
惢
愁
愈
意
愛
感
慈
慧
慮
憂
憲
應
戀
戈
戉
戊
戋
戌
戍
戎
成
我
戒
戔
或
戚
戠
戢
截
戲
戶
户
戹
戼
戾
房
所
扁
扇
手
扌
才
打
托
执
承
折
拉
拜
拿
掌
推
提
摩
支
攴
攵
收
攸
改
放
政
敄
敏
敕
敖
敗
教
敝
敞
敢
散
敦
敫
敬
数
敷
數
斂
文
斉
斊
斗
斤
斥
斩
斬
斯
新
方
於
施
斿
旁
旋
族
无
旡
既
旣
日
旦
旧
旨
早
旬
旱
旲
时
旾
昆
昇
昌
昍
明
昏
易
昔
昗
昜
星
春
昬
是
昱
昴
昷
時
晃
晋
晏
普
景
晶
智
暑
暴
曇
曩
曰
曲
曳
更
曷
書
曹
曼
曾
替
最
朁
會
月
有
朋
服
朔
朕
朗
望
朝
木
朩
未
末
本
札
朮
术
朱
朵
朶
朿
杀
李
杏
村
杜
束
条
来
東
杲
杳
松
析
林
枚
果
枝
枲
枼
某
柔
查
柬
柰
柴
栗
桀
桑
桼
梁
條
梟
梨
棘
棠
棥
森
楚
業
楽
榮
樂
樊
欠
次
欣
欮
欲
欶
欽
款
歆
歇
歛
止
正
此
步
武
歨
歪
歮
歯
歰
歲
歴
歷
歸
歹
歺
死
殳
段
殷
殸
殹
殺
殻
殿
毋
毌
母
每
毒
比
毕
毚
毛
毳
氏
氐
民
气
氣
水
氵
氶
氷
永
氺
氾
求
汝
汞
江
沃
沓
沙
沝
泉
法
波
泣
泥
泰
洛
洪
活
派
流
浦
浪
浮
海
淡
淮
清
渚
渠
湯
滿
漸
火
灬
灭
灰
灵
灷
炅
炎
炏
炗
炙
炭
為
烈
烏
烝
焉
無
焦
焱
然
煞
熊
熏
燕
營
燮
爪
爫
爭
爯
爰
爱
爲
爵
父
爻
爽
爾
爿
片
版
牙
牚
牛
牜
牟
牢
牧
牪
牽
犀
犬
犭
犮
狂
狄
狊
独
狺
猋
猒
猪
献
獻
玄
率
玉
王
玟
玨
珎
班
球
琴
瑟
瑩
瓜
瓦
甘
甚
生
産
用
甫
甬
田
由
甲
申
电
甶
男
甸
甹
画
甾
畀
界
畏
畐
留
畜
畟
畢
畧
畨
番
畫
異
畱
當
畺
畾
疊
疋
疌
疑
疒
疾
癶
癸
癹
登
發
白
百
皀
皃
的
皆
皇
皋
皐
皕
皮
皷
皿
盃
盆
盇
盈
益
盍
盎
监
盒
盖
盛
盡
監
盤
盧
目
直
相
盾
省
眇
眉
看
眔
眞
真
眷
眼
眾
着
睘
睪
睿
瞏
瞢
瞿
矍
矛
矞
矢
矣
知
矦
短
石
破
碎
磊
磨
示
礻
礼
社
神
祟
票
祭
禀
禁
禸
禹
禺
离
禽
禾
禿
秀
秃
秉
秋
科
秝
秦
移
稟
穀
穌
穴
究
穹
空
穿
突
窄
窒
立
竒
竜
竝
竟
章
童
竹
笑
笠
第
筆
等
答
箕
算
箴
節
篤
篭
米
粉
粛
粟
粤
粦
粲
糞
糸
糹
系
約
納
素
索
紫
累
細
絜
絫
絲
維
綿
縣
繇
纍
纟
缶
网
罒
罔
罕
罗
罙
罡
罢
罪
署
罷
羅
羊
羌
羍
美
羔
羕
羗
羞
羡
羣
群
義
羲
羸
羽
翁
翏
習
翕
翟
翠
翼
老
耂
考
者
耆
而
耎
耑
耒
耳
耴
耶
耷
聂
聊
聖
聚
聶
聿
肀
肃
肅
肉
肖
肙
肥
肩
肯
育
肴
胃
背
胡
胥
能
脊
脩
膚
臣
臤
臧
自
臬
臭
臯
臱
至
致
臺
臼
臽
臾
臿
舀
舂
舄
與
興
舉
舌
舍
舛
舜
舞
舟
般
艮
良
色
艸
艹
艾
芒
芔
芬
芮
花
芳
芺
芻
苔
苗
苟
若
苦
英
茶
茸
荅
草
荒
荣
荼
莆
莧
莫
莽
菆
菊
菐
華
萬
落
葉
著
葛
董
葵
蒙
蒦
蒼
蓋
蓬
蓺
蔑
蔡
蕉
蕭
薄
薛
薦
薰
藍
藏
藤
藥
蘭
虍
虎
虐
虒
虔
處
虖
虗
虘
虚
虛
虜
虞
虫
虽
蚤
蚩
蜀
蜜
蟲
蠡
血
行
衍
衛
衣
衤
表
衮
衰
袁
袞
褭
褱
襄
襾
西
覀
要
覃
見
規
覓
覧
親
覽
见
角
解
言
訁
訇
計
詹
誩
諸
讠
语
谷
豆
豈
豊
豐
豕
豖
豙
象
豦
豩
豪
豸
貇
貝
貞
貟
負
貢
貧
貪
貫
責
貳
貴
買
費
賁
資
賈
賏
賓
賔
賛
賞
賢
賣
質
賴
贊
贝
贡
责
贯
贲
贵
赖
赞
赤
赦
走
越
足
路
蹇
身
躬
車
軍
軎
軟
輦
车
辛
辜
辟
辥
辰
辱
農
辵
辶
边
达
过
近
连
迷
追
退
送
逆
逐
通
速
造
逢
連
逮
進
遀
遂
過
道
達
遣
適
遷
選
遺
邊
邑
邕
那
邦
邪
郎
部
郭
都
鄉
酉
酋
配
酓
釆
采
里
重
野
量
金
釒
錢
鑑
钅
長
镸
长
門
閃
閉
開
閏
閑
閒
間
閔
閵
閻
闌
门
间
闷
阑
阜
阝
阿
降
陳
隆
隊
隋
隡
隨
隱
隶
隹
隺
隻
隼
隽
难
雀
雁
集
雈
雋
雍
雐
雔
雙
雚
雜
雝
離
難
雨
雩
雪
雲
零
雷
需
霍
霜
霝
霞
霸
靈
靑
青
非
靡
面
靣
革
韋
韦
韭
韯
韱
音
頁
頃
項
須
頗
頡
頻
顛
页
風
风
飛
飞
食
飠
養
饣
首
香
馬
馮
駦
马
骨
高
髟
鬥
鬯
鬲
鬼
魚
魯
鮮
鱼
鲁
鳥
鳳
鸟
鹵
鹿
麃
麗
麥
麦
麻
黃
黄
黍
黎
黑
黒
黨
黹
黽
黾
鼎
鼓
鼠
鼻
齊
齋
齐
齒
齿
龍
龙
龜
龟
龠
龰
龱
龴
龵
龶
龷
龸
龹
者
艹
﴾
﴿
︎
️
（
）
，
：
？
📞
𠀁
𠀃
𠀆
𠀉
𠀎
𠀐
𠁁
𠁣
𠂆
𠂇
𠂈
𠂉
𠂊
𠂋
𠂎
𠂒
𠂔
𠂛
𠂡
𠂢
𠂤
𠂬
𠂭
𠂹
𠃊
𠃋
𠃌
𠃍
𠃎
𠃑
𠃓
𠃔
𠃜
𠄌
𠄎
𠄠
𠄢
𠆢
𠆥
𠇍
𠈌
𠌵
𠓜
𠔉
𠔥
𠔼
𠔽
𠔿
𠕀
𠕁
𠕋
𠘧
𠘨
𠙻
𠙼
𠚏
𠚒
𠚤
𠚪
𠣏
𠤎
𠤕
𠥓
𠦄
𠦑
𠦝
𠧒
𠧗
𠧪
𠩺
𠪚
𠫓
𠫔
𠫤
𠬛
𠬝
𠬞
𠬢
𠬤
𠬶
𠮛
𠮦
𠮷
𠯑
𠱠
𠳮
𠷎
𡈼
𡉀
𡉵
𡌥
𡍮
𡏳
𡕒
𡕩
𡕰
𡖅
𡗗
𡗜
𡘆
𡘤
𡧱
𡨄
𡩧
𡬠
𡭽
𡰣
𡰥
𡰪
𡰯
𡰱
𡷈
𡸁
𡿨
𡿩
𡿪
𡿺
𢀖
𢀛
𢀩
𢁙
𢆉
𢆰
𢆶
𢇁
𢇇
𢉖
𢌬
𢌿
𢏚
𢑑
𢑚
𢖻
𢙣
𢛳
𢦏
𢦒
𢧵
𢼄
𢾕
𣁋
𣄼
𣅀
𣅽
𣍘
𣎳
𣎵
𣏋
𣏼
𣗥
𣥂
𣥖
𣦵
𣦼
𣧄
𣪊
𣪠
𣬉
𣳾
𣶒
𤇾
𤊽
𤐫
𤓰
𤔔
𤕨
𤣩
𤰇
𤰔
𤰞
𤴓
𤴔
𤽄
𥁑
𥁕
𥃦
𥃩
𥃭
𥇡
𥑟
𥘅
𥘈
𥝢
𥫗
𥱡
𦈢
𦉪
𦉬
𦉼
𦍌
𦍒
𦎧
𦐇
𦓔
𦔮
𦘒
𦙃
𦚏
𦣝
𦣞
𦣻
𦥑
𦥔
𦥯
𦨉
𦭝
𦰩
𧆞
𧈧
𧘇
𧰨
𧴪
𧴮
𧵩
𧾷
𨸏
𨾴
𩙿
𩠐
𩫏
𩵋
𪉷
𪜀
𪟽
𪠲
𪩲
𫇦
𫔭
𫜸
𫝀
𫠣
𫠩
𫢉
𫥞
𫩏
𫩠
𫪡
𫲽
𫶧
𬀷
𬐘
𬗌
𬙙
𬛸
𬜯
𬟩
𬯁
𬴘
𬺻
𬼉
𬼖
𭀰
𭁈
𭁨
𭅰
𭑈
𭕄
𭗼
𭤨
𭥫
𭻾
𮅕
𮊿
𮍌
𮍏
𮓗
𮥼
𮧮
廾
𰀁
𰀄
𰀈
𰀉
𰀕
𰀠
𰀡
𰀢
𰀪
𰁜
𰃮
𰆊
𰆘
𰋙
𰕎
𰢴
𰧭
𰯲
00--
000--
001--
002--
003--
007--
01--
010--
02--
03--
04--
05--
06--
07--
08--
09--
100--
67--
69--
70--
72--
73--
74--
75--
76--
77--
78--
79--
80--
806--
81--
82--
83--
84--
85--
850--
86--
860--
87--
870--
88--
89--
90--
91--
92--
93--
94--
95--
96--
97--
98--
99--
a--
aa--
ab--
ac--
acc--
ad--
add--
ae--
aero--
af--
ag--
ah--
ai--
air--
ak--
al--
ale--
all--
alu--
am--
an--
ance--
ang--
anim--
anthropo--
ap--
apo--
appe--
ar--
arch--
argu--
as--
ash--
assi--
astr--
at--
ath--
au--
auto--
ave--
avo--
ay--
az--
azerbai--
b--
ba--
bag--
bah--
bal--
ban--
bar--
be--
bel--
ben--
ber--
bi--
bib--
biblio--
bio--
biogra--
bis--
bla--
bli--
bo--
bom--
boo--
bou--
br--
bre--
bri--
bro--
broad--
bry--
bu--
bund--
bur--
by--
c--
ca--
cal--
calcu--
cale--
can--
car--
cat--
cau--
cc--
ce--
cele--
cen--
cer--
ch--
cha--
cham--
char--
che--
cho--
chrono--
cin--
circu--
cl--
cle--
co--
cogni--
col--
com--
con--
const--
contr--
contri--
cor--
cou--
cr--
cre--
cricket--
crim--
cro--
cru--
cs--
cu--
cur--
curs--
curt--
cus--
cy--
cycl--
d--
da--
dar--
data--
date--
de--
dec--
defe--
deg--
demo--
dete--
deve--
di--
diag--
diff--
dig--
dio--
diplo--
dire--
disa--
disc--
disp--
dist--
distri--
do--
dr--
dre--
du--
dy--
dyna--
e--
ear--
ec--
eco--
ed--
eff--
eg--
ei--
el--
ele--
elec--
em--
en--
epi--
equ--
er--
es--
et--
eth--
ethi--
eu--
euro--
ex--
expe--
expl--
extr--
f--
fa--
fal--
fan--
far--
fe--
fer--
fi--
fla--
fo--
foc--
for--
fr--
fre--
fri--
fried--
fu--
g--
ga--
gar--
ge--
gen--
geo--
geog--
geogra--
ger--
get--
gha--
gi--
gil--
glo--
go--
gon--
gra--
gre--
gri--
gro--
gu--
h--
ha--
ham--
han--
happ--
har--
hard--
has--
hay--
he--
hel--
her--
hi--
hid--
hil--
hin--
hir--
histo--
ho--
hol--
holl--
home--
homo--
hor--
hou--
hu--
hun--
hy--
i--
ic--
id--
ide--
iden--
if--
ig--
ih--
il--
illu--
im--
impl--
in--
incre--
indi--
indu--
infe--
influ--
ing--
initi--
inst--
int--
inter--
inva--
inve--
investi--
io--
ip--
ir--
is--
iso--
it--
iv--
j--
ja--
je--
jen--
jo--
jour--
ju--
k--
ka--
ke--
kee--
kel--
ken--
ker--
kh--
ki--
kil--
kin--
kir--
kit--
kle--
ko--
kra--
ku--
l--
la--
lan--
lau--
le--
lea--
legis--
lg--
li--
libr--
lin--
liv--
ll--
lo--
long--
lu--
ly--
m--
ma--
mac--
mah--
mal--
man--
mar--
mate--
mau--
mc--
mcc--
me--
mech--
mel--
mer--
meta--
mey--
mi--
micr--
micro--
min--
mir--
mit--
mix--
mo--
mon--
mor--
mou--
mr--
mu--
muha--
mul--
multi--
municip--
my--
n--
na--
nav--
nd--
ne--
neu--
neuro--
new--
news--
ng--
ni--
nicho--
no--
nor--
nou--
ns--
nu--
num--
ny--
o--
oba--
obser--
occup--
oce--
of--
ol--
on--
op--
or--
ori--
orien--
os--
ou--
out--
over--
p--
pa--
page--
pal--
pan--
par--
pas--
pay--
pe--
pen--
per--
ph--
phar--
[...]
