!
"
#
##0
##1
##10
##11
##12
##13
##14
##15
##16
##17
##18
##19
##2
##20
##21
##22
##23
##24
##25
##26
##27
##28
##29
##3
##30
##31
##32
##33
##34
##35
##36
##37
##38
##39
##4
##40
##41
##42
##43
##44
##45
##46
##47
##48
##49
##5
##50
##51
##52
##53
##54
##55
##56
##57
##58
##59
##6
##60
##61
##62
##63
##64
##65
##66
##67
##68
##69
##7
##70
##71
##72
##73
##74
##75
##76
##77
##78
##79
##8
##80
##81
##82
##83
##84
##85
##86
##87
##88
##89
##9
##90
##91
##92
##93
##94
##95
##96
##97
##98
##99
$
%
&
'
(
)
*
+
,
-
.
/
0
00
000
0004
001
002
003
004
005
007
01
02
03
04
05
06
07
0708
08
0806
09
09365
1
10
100
1000
1007
101
102
103
104
105
1050
1051
106
1063773712050015
107
108
1086
1088
109
1093
11
110
1100
1101
1103
1108
111
1111
112
113
1134
114
115
116
117
118
119
12
120
1200
1208
121
122
123
124
125
1250
126
127
128
129
13
130
1300
131
132
133
134
135
1350
13596
136
1365
137
138
139
14
140
1400
141
142
143
14344
144
145
1450
146
147
148
149
15
150
1500
1501
151
1517
152
1520
1521
1523
1524
1525
1526
1527
1529
153
1530
1534
1535
1536
1538
1539
154
1540
1541
1542
1543
1545
1547
155
1550
1553
1554
1555
1556
1558
1559
156
1560
1561
1562
1563
1564
1565
1566
1567
1568
1569
157
1570
1571
1572
1573
1575
1578
158
1580
1581
1582
1583
1584
1585
1586
1587
1588
1589
159
1590
1591
1592
1593
1594
1595
1596
1597
1598
1599
16
160
1600
1601
1602
1603
1604
1605
1606
1607
1608
1609
161
1610
1611
1612
1613
1614
1615
1616
1617
1618
1619
162
1620
1621
1622
1623
1624
1625
1626
1627
1628
1629
163
1630
1631
1632
1633
1634
1635
1636
1637
1638
1639
164
1640
1641
1642
1643
1644
1645
1646
1647
1648
1649
165
1650
1651
1652
1653
1654
1655
1656
1657
1658
1659
166
1660
1661
1662
1663
1664
1665
1666
1667
1668
1669
167
1670
1671
1672
1673
1674
1675
1676
1677
1678
1679
168
1680
1681
1682
1683
1684
1685
1686
1687
1688
1689
169
1690
1691
1692
1693
1694
1695
1696
1697
1698
1699
17
170
1700
1701
1702
1703
1704
1705
1706
1707
1708
1709
171
1710
1711
1712
1713
1714
1715
1716
1717
1718
1719
172
1720
1721
1722
1723
1724
1725
1726
1727
1728
1729
173
1730
1731
1732
1733
1734
1735
1736
1737
1738
1739
174
1740
1741
1742
1743
1744
1745
1746
1747
1748
1749
175
1750
1751
1752
1753
1754
1755
1756
1757
1758
1759
176
1760
1761
1762
1763
1764
1765
1766
1767
1768
1769
177
1770
1771
1772
1773
1774
1775
1776
1777
1778
1779
178
1780
1781
1782
1783
1784
1785
1786
1787
1788
1789
179
1790
1791
1792
1793
1794
1795
1796
1797
1798
1799
18
180
1800
1801
1802
1803
1804
1805
1806
1807
1808
1809
181
1810
1811
1812
1813
1814
1815
1816
1817
1818
1819
182
1820
1821
1822
1823
1824
1825
1826
1827
1828
1829
183
1830
1831
1832
1833
1834
1835
1836
1837
1838
1839
184
1840
1841
1842
1843
1844
1845
1846
1847
1848
1849
185
1850
1851
1852
1853
1854
1855
1856
1857
1858
1859
186
1860
1861
1862
1863
1864
1865
1866
1867
1868
1869
187
1870
1871
1872
1873
1874
1875
1876
1877
1878
1879
188
1880
1881
1882
1883
1884
1885
1886
1887
1888
1889
189
1890
1891
1892
1893
1894
1895
1896
1897
1898
1899
19
190
1900
1901
1902
1903
1904
1905
1906
1907
1908
1909
191
1910
1911
1912
1913
1914
1915
1916
1917
1918
1919
192
1920
1921
1922
1923
1924
1925
1926
1927
1928
1929
193
1930
1931
1932
1933
1934
1935
1936
1937
1938
1939
194
1940
1941
1942
1943
1944
1945
1946
1947
1948
1949
195
1950
1951
1952
1953
1954
1955
1956
1957
1958
1959
196
1960
1961
1962
1963
1964
1965
1966
1967
1968
1969
197
1970
1971
1972
1973
1974
1975
1976
1977
1978
1979
198
1980
1981
1982
1983
1984
1985
1986
1987
1988
1989
199
1990
1991
1992
1993
1994
1995
1996
1997
1998
1999
2
20
200
2000
2001
2002
2003
2004
2005
2006
2007
20078357
2008
2009
201
2010
2011
2012
2013
2014
2015
2016
2017
2018
201833051
2019
202
2020
2021
2022
2023
2024
2025
203
204
205
206
207
208
209
21
210
211
212
213
214
215
216
217
2173
218
219
22
220
221
222
223
224
225
226
227
228
229
23
230
231
232
233
234
235
236
237
238
239
24
240
241
242
243
244
245
246
247
248
249
25
250
2500
251
252
253
254
255
256
257
258
259
26
260
261
262
263
264
265
266
2669
267
268
269
27
270
271
272
273
274
275
276
277
278
279
28
280
281
282
283
284
285
286
287
2878
288
289
29
290
2905
291
292
293
294
295
296
2966
297
298
2988
299
3
30
300
3000
301
302
303
304
305
306
307
308
309
31
310
311
312
313
314
315
316
317
318
319
32
320
321
322
323
324
325
326
327
328
329
33
330
331
332
333
334
335
336
337
338
339
34
340
341
342
343
344
345
346
347
348
349
35
350
351
352
353
354
355
356
357
358
359
36
360
361
362
363
364
365
366
367
368
369
37
370
371
372
373
374
375
376
377
378
379
38
380
381
382
383
384
385
386
387
388
389
39
390
391
392
393
394
395
396
397
398
399
4
40
400
4000
401
402
403
404
405
406
407
408
409
41
410
411
412
413
414
415
416
417
418
419
42
420
421
422
423
424
425
426
427
428
429
43
430
431
432
433
434
435
436
437
438
439
44
440
441
442
443
444
445
446
447
448
449
45
450
451
452
453
454
455
456
457
458
459
46
460
461
462
463
464
465
466
467
468
469
47
470
471
472
473
474
475
476
477
478
479
48
480
481
482
483
484
485
486
487
488
489
49
490
491
492
493
494
495
496
497
4971
498
499
5
50
500
5000
501
502
503
504
505
506
507
508
509
51
510
511
512
513
514
515
516
517
518
519
52
520
521
522
523
524
525
526
527
528
529
53
530
531
532
533
534
535
536
537
538
539
54
540
541
542
543
544
545
546
547
548
549
55
550
551
552
553
554
555
556
557
558
559
56
560
561
562
563
564
565
566
567
568
569
57
570
571
572
573
574
575
576
577
578
579
58
580
581
583
584
585
586
587
588
589
59
590
591
592
593
594
595
596
597
598
599
6
60
600
6000
601
602
603
604
605
607
608
609
61
610
611
612
613
614
615
616
617
618
619
62
620
621
622
623
624
625
6256
627
628
629
63
630
631
632
633
635
636
6361
637
638
639
64
640
644
646
648
649
65
650
651
653
654
655
656
658
66
660
661
664
665
666
667
67
670
671
672
673
674
675
68
680
682
686
687
69
690
693
7
70
700
7000
702
704
705
706
707
71
710
715
72
720
727
73
730
732
737
74
740
747
749
75
750
755
757
759
76
760
761
763
765
768
77
770
771
775
777
78
780
784
79
792
8
80
800
802
804
81
810
82
83
832
833
84
845
85
850
86
860
869
87
879
88
880
89
9
90
900
908
91
910
911
92
93
930
94
95
950
96
960
97
978
98
99
:
;
<
=
>
?
@
\
^
_
`
a
aa
aachen
aargau
aaron
ab
abajo
abba
abbas
abbey
abborrartade
abborre
abborrtja
abbott
abc
abd
abdominalis
abdul
abdullah
abe
abeba
abel
abele
aberdeen
aberrans
abh
abhandlungen
abort
about
abraham
abrahamsson
abraxas
absolut
absoluta
absolute
abstract
abstrakt
abstrakta
abt
abteilung
abu
ac
acacia
acad
acade
academia
academic
academie
academy
acalolepta
acalypha
acantholimon
acari
acarida
acarina
accademia
accepted
acceptera
accepterade
accepterar
accepterat
access
accessed
account
ace
aceh
acer
achetidae
achille
achterberg
acianthera
acid
ack
ackord
ackumulerade
aconitum
acontia
acraea
acrididae
acridiens
acridiidae
acridoidea
acridomorpha
acrocercops
acrolophus
acronicta
act
acta
actiniaria
action
actionfilmer
aculeata
acuminata
acuta
ad
ada
adam
adams
adansonia
addis
addison
additional
additions
ade
adel
adelaide
adeln
adelns
adelsa
adelsma
adelsman
adelsvapen
adiantum
adiectis
adjacent
adjektiv
adjunkt
adjutant
adlad
adlades
adler
adlig
adliga
administration
administrationen
administrativ
administrativa
administrativt
admiral
adolf
adolfo
adolfs
adolph
adolphe
adolphson
adoretus
adress
adressen
adrian
adriatiska
adrien
adult
adulta
advance
advanced
advent
adventure
adventures
advokat
advokaten
advokater
ae
aechmea
aedes
aero
af
afc
afd
aff
affa
affairs
affinis
afghanistan
afghanska
afr
africa
africaines
africains
african
africana
africanus
afrika
afrikanische
afrikansk
afrikanska
afrikas
afrique
afrotropical
after
afton
aftonbladet
aftonbladets
afzelius
ag
aga
again
against
agaricomycetes
agatha
agave
age
agency
agenda
agent
agenter
agera
agerade
agerande
agerar
ages
aggressiva
agne
agnes
agneta
agraria
agrias
agric
agricultura
agricultural
agriculture
agrotis
agua
agusti
ah
ahl
ahlberg
ahlstro
ahmad
ahmed
ahrens
ai
aid
aids
aif
aik
aime
ain
air
airbus
aircraft
aires
airlines
airport
airways
airy
ais
aise
aisne
aix
aj
ajax
ajg
ak
aka
akacior
akad
akademi
akademie
akademien
akademiens
akademii
akademiker
akademin
akademisk
akademiska
akantusva
akira
akt
akten
akter
aktiea
aktiebolag
aktiebolaget
aktier
aktierna
aktig
aktion
aktiv
aktiva
aktivist
aktivister
aktivitet
aktiviteter
aktivt
akto
aktuell
aktuella
aktuellt
akustisk
akut
akvarell
al
ala
alabama
alain
alan
alaska
alata
alba
albanien
albaniens
albansk
albanska
albany
albatross
albert
alberta
alberto
albescens
albida
albin
albion
albrecht
albrekt
album
albumen
albumet
albumets
albumlistan
albums
alchemilla
alcis
aldrich
aldrig
ale
alec
alegre
aleiodes
alejandro
aleksandr
aleksej
aleocharinae
alessandro
alex
alexander
alexandra
alexandre
alexandria
alexis
alf
alfa
alfabetet
alfabetisk
alfons
alfonso
alfred
alfredo
alfredson
algebra
alger
algeriet
algot
ali
alias
alicante
alice
alicia
alien
align
alignbars
alingsa
alison
alive
alkohol
all
alla
allan
allas
alldeles
alle
allegro
allehanda
allen
allena
allenast
allende
allgemeine
allhems
alliance
allians
alliansen
allied
allier
allierade
allierades
allies
allison
allium
allma
allmogen
allmusic
allra
alls
allsa
allsvensk
allsvenska
allsvenskan
allt
alltfo
alltid
allting
alltja
alltmer
alltsa
alltsedan
allvar
allvarlig
allvarliga
allvarligt
alm
alma
almanackan
almeida
almgren
almquist
almqvist
alnar
aloe
alone
alonso
alperna
alpes
alpha
alpin
alpina
als
alsace
also
alster
alstro
alt
alta
altare
altaret
altarska
altartavla
altartavlan
altaruppsatsen
alter
alternativ
alternativa
alternative
alternativet
alternativt
alticola
alto
aluminium
alumner
alva
alvar
alves
alvesta
alvin
always
alysiinae
am
amabilis
amadeus
amalia
amanda
amanuens
amarantva
amaryllisva
amata
amateur
amato
amazing
amazon
amazonas
amazonica
ambassad
ambassaden
ambassado
amber
ambigua
ambique
ambitio
ambitioner
amblyseius
ame
amegilla
amelia
amer
america
american
americana
americans
americanus
americas
amerika
amerikanen
amerikaner
amerikanerna
amerikansk
amerikanska
amerikanske
amerikanskt
amerikas
ames
amiga
amiral
ammophila
ammunition
amnesty
amoena
among
amor
amore
amos
amour
amphibian
amphibians
amsterdam
amt
amy
an
ana
anacroneuria
anagyrus
anaheim
anales
analoga
analys
analyser
analysera
analysis
anaphes
anareolatae
anatomi
anatomy
ancient
and
anda
andalusien
andar
andas
ande
andel
andelen
anden
anderna
anders
andersen
anderson
andersson
anderssons
andes
andlig
andliga
andorra
andra
andraplats
andraplatsen
andraplatser
andras
andre
andrea
andreas
andrei
andrej
andrena
andres
andrew
andrews
android
andrzej
andy
anette
anfall
anfalla
anfallare
anfaller
anfallet
anfo
anga
angav
angavs
ange
angel
angela
angeles
angelica
angelo
angels
anger
anges
angiven
angivna
anglikanska
anglo
angola
angolensis
angra
angraecum
angrep
angrepp
angripa
angulata
angus
angusta
angustifolia
anha
anhalt
anho
anhui
ani
animal
animalia
animals
animation
animato
animaux
anime
animerad
animerade
aning
anisodes
anita
anja
anjou
anka
anklagad
anklagade
anklagades
anklagelser
anklagelserna
anknytning
ankomst
ankomsten
anla
anlade
anlades
anlagd
anledning
anledningar
anledningen
anlitade
anlitades
anlo
anma
ann
anna
annalen
annales
annali
annals
annan
annars
annas
annat
anne
annelida
annelids
annexfo
anni
annie
annika
annls
anno
annonaceae
annonbase
annorlunda
annotated
annual
annulata
anomala
anonym
anonyma
anonymt
anopheles
anor
anordnade
anordnades
anordnar
anordnas
anordning
another
anpassa
anpassad
anpassade
anpassat
anpassning
anrep
ans
ansa
anse
ansedd
anseende
anser
anses
ansetts
ansikte
ansikten
ansiktet
anslag
anslo
ansluta
ansluten
ansluter
anslutna
anslutning
anso
anspelar
anspra
ansta
anstalt
anstalten
anstra
ansvar
ansvarade
ansvarar
ansvaret
ansvarig
ansvariga
ant
anta
antagandet
antagen
antagit
antagits
antagligen
antal
antalet
antar
antarctic
antarctica
antarktis
antarktisfo
antas
anteckningar
anthony
anthrax
anthurium
anti
antik
antika
antiken
antikens
antikvarisk
antill
antilocust
antingen
antiochos
antisemitism
anto
antog
antogs
antoine
antoinette
antologi
antologin
anton
antoni
antonia
antonio
antonius
antti
antwerpen
antyder
anva
any
anz
anzeiger
ao
ap
apamea
apanteles
apatura
aphelinidae
aphid
aphididae
aphids
aphidsf
aphis
aphodiidae
apicalis
apj
apjs
apocephalus
apogonia
apoidea
apollo
apor
aposteln
apotek
apotekare
apoteket
app
apparater
appendix
apple
applied
april
aprostocetus
aquatic
aquila
aquitaine
ar
ara
arab
arabemiraten
araber
arabia
arabisk
arabiska
arachnid
arachnida
arachniden
arachnides
arachnol
aragonien
araigne
araignees
araliava
araneae
aranei
araneida
araneidae
araneus
arb
arbeiten
arbeta
arbetade
arbetande
arbetar
arbetare
arbetarna
arbetarnas
arbetarro
arbetat
arbete
arbeten
arbetena
arbetet
arbetets
arbetsfo
arbetsgivare
arbetsgivaren
arbetskraft
arbetslo
arbetsmarknaden
arbetsmiljo
arbetsplats
arbetsplatser
arbetsuppgifter
arboga
arbor
arbra
arc
arch
archer
archibald
archipelago
architecture
archiv
archive
archives
arctia
arctic
arctica
arctoa
arcuata
arde
ardenne
ardennes
ardisia
are
area
areal
arean
areas
arecaceae
arena
arenan
arenaria
arenor
arg
argentea
argentina
argentinas
argentinsk
argentinska
argoviensis
argument
arhopala
ari
aria
arida
arie
ariel
aristida
aristolochia
aristoteles
arizona
arjeplogs
ark
arkansas
arkeolog
arkeologen
arkeologer
arkeologi
arkeologisk
arkeologiska
arkitekt
arkitekten
arkitekter
arkitekterna
arkitektkontor
arkitektoniska
arkitektur
arkitektura
arkitekturen
arkiv
arkivdatabasen
arkiverad
arkivet
arktis
arktiska
arlanda
arm
armand
armar
armata
arme
armen
armenien
armeniska
armor
armored
arms
armstrong
army
arn
arna
arnas
arne
arno
arnold
arnott
aron
around
arr
arrangemang
arrangera
arrangerad
arrangerade
arrangerades
arrangerar
arrangeras
arrangerat
arrango
arresterades
arriba
arrondissement
arrondissementet
arrow
arrows
arroyo
arsenal
art
arte
arteaga
arten
artens
arter
arterna
artfaktablad
arthropod
arthropoda
arthur
artibus
article
articles
artikel
artikeln
artiklar
artiklarna
artilleri
artilleriet
artilleriregemente
artist
artisten
artister
artisterna
artistnamn
artistnamnet
artists
artnamn
artois
arton
arts
artur
arturo
arv
arvet
arvid
arvidsjaurs
arvidsson
arvika
arvingar
arvinge
arvtagare
arxiv
as
asa
ascher
ascomycetes
asea
ash
ashley
ashmead
ashton
asia
asian
asiat
asiatic
asiatica
asiatisk
asiatiska
asien
ask
aska
askersunds
asp
aspalathus
aspekter
aspera
asphondylia
aspilota
asplenium
asplund
aspo
aspx
ass
assam
assessment
assessor
assimilis
assist
assistent
assisterande
assistpoa
assists
associated
association
associations
assyrien
assyriska
astana
asterix
asteroid
asteroidea
asteroiden
asteroider
asteroidgruppen
astl
aston
astra
astragalus
astrid
astro
astrofysiska
astronaut
astronom
astronomen
astronomer
astronomerna
astronomi
astronomical
astronomiques
astronomiska
astronomy
astrophysical
astrophysics
asura
asyl
asylso
at
ataenius
atari
atelje
aten
ater
athena
atherigona
atheta
athetis
athletic
athletics
athyrium
atlanta
atlanten
atlantic
atlantica
atlantique
atlantiques
atlantis
atlas
atle
atmosfa
atoll
atomer
atp
atra
atrichopogon
att
attack
attacken
attacker
attackera
attackerade
attackerna
attems
attentat
attentatet
attenuata
atti
attidae
attika
attila
attityd
attribut
au
aube
aubert
auchenorrhyncha
auckland
auct
aude
audenaerde
audi
audinet
audio
auf
aug
augsburg
august
augusta
auguste
augusti
augustin
augusto
augustus
auk
auktion
auktorita
auktoritet
auktoriteter
auktorsfo
aura
aurantiaca
aurea
aurivillius
aurora
aus
auschwitz
aust
austin
austral
australasian
australia
australian
australien
australienfo
australiens
australiensis
australis
australisk
australiska
austria
austurland
authority
autism
auto
automatisk
automatiskt
automeris
autonoma
autonomi
auvergne
aux
av
available
avalanche
avancemang
avancerad
avancerade
avbildade
avbildar
avbildas
avbildning
avbildningar
avbo
avbro
avbrott
avbryta
avdelning
avdelningar
avdelningen
avdelningschef
ave
avec
avelshingst
avenue
aves
avesta
aveyron
avfa
avfall
avfo
avga
avger
avgick
avgift
avgifter
avgiftsfri
avgjorde
avgjordes
avgo
avgra
avha
avhandling
avhandlingar
avhandlingen
avian
aviation
aviv
avkomma
avla
avlade
avled
avliden
avlider
avlidit
avlidna
avlo
avra
avrinningsomra
avsa
avsade
avsaknad
avsatt
avsatte
avsattes
avse
avsedd
avsedda
avseende
avseglade
avser
avses
avsett
avseva
avsikt
avsikten
avsiktligt
avskaffa
avskaffade
avskaffades
avskaffande
avsked
avskedades
avskra
avslo
avsluta
avslutad
avslutade
avslutades
avslutande
avslutar
avslutas
avslutat
avslutning
avsnitt
avsnitten
avsnittet
avsta
avstod
avta
avtal
avtalet
avtja
avtra
avulsos
avva
avvattnar
avvattnas
avvecklades
avvecklas
avveckling
avvikande
avviker
avvisade
award
awards
away
ax
axel
axeln
axelsson
axlar
ay
az
azerbajdzjan
azul
azur
b
ba
babs
baby
babylon
bach
back
backa
backar
backe
backen
backhoppare
backhoppning
backman
bacon
bactrocera
bad
baden
badet
badminton
bagdad
bagge
baha
bahamas
bahi
bahia
bahn
bahnhof
bahrain
bailey
baillon
baja
bak
baka
baker
bakeri
bakfo
bakgrund
bakgrunden
bakgrundssa
bakha
bakhjulsdrivna
bakkroppen
bakom
bakre
baksida
baksidan
bakterien
bakterier
baku
bal
balans
baldwin
balearerna
balett
baletten
bali
balkan
balkema
ball
ballad
balladen
ballader
balogh
balsaminer
balsaminva
balthasar
baltic
baltikum
baltimore
baltiska
bamse
ban
bana
banan
banans
banbrytande
banco
band
banddubbelfotingar
banden
bandet
bandets
bandmedlemmar
bandmedlemmarna
bandy
bandyspelare
bane
bang
banga
bangkok
bangladesh
banjo
bank
bankdirekto
banken
banker
banks
bankva
banor
banorna
banten
baptist
baptiste
bar
bara
barack
barangayer
barat
barbados
barbara
barbarossa
barbata
barbro
barbus
barcelona
barend
bark
barken
barker
barleria
barmha
barn
barna
barnard
barnbarn
barnbo
barnbok
barnboksfo
barndom
barndomen
barneby
barnen
barnens
barnes
barnet
barnets
barney
barnhem
barnlo
barnprogram
barns
barnska
baron
barr
barra
barre
barrett
barria
barrio
barrskog
barrtra
barry
bars
bart
barthe
barton
bartram
baryton
bas
basalis
basartiklar
base
baseball
baseboll
basebollspelare
based
basel
basen
baser
baserad
baserade
baserades
baserar
baseras
baserat
basgitarr
basic
basidiesvampar
basin
basis
basist
basisten
basket
basketball
basketspelare
baskien
baskiska
bass
bassa
bastien
bat
bataljon
bataljonen
bataljoner
bates
bath
batman
batracomorphus
batteri
batterier
battista
battle
bauer
bauhinia
baxter
bay
bayan
bayer
bayern
bayerobjekt
bayerska
bb
bbad
bbar
bbc
bben
bbmo
bc
bd
be
beach
bean
bear
bearbetad
bearbetade
bearbetning
bears
beast
beat
beata
beatles
beatrice
beaufort
beaumont
beautiful
beauty
beaux
bebodd
beboddes
bebyggdes
bebyggelse
bebyggelsen
bebyggelseregister
bebyggelseregistret
bec
because
beccaloni
beccari
beck
becker
beckman
bed
bedford
bedo
bedra
bedrev
bedrevs
bedriva
bedriver
bedrivit
bedrivs
bee
been
beer
bees
beethoven
beetle
beetles
befa
befallning
befann
befattning
befattningar
befattningen
befinna
befinner
befintliga
befogenheter
befolkad
befolkade
befolkning
befolkningen
befolkningsta
befolkningsutveckling
befordrad
befordrades
before
befria
bega
begav
beger
begick
begin
begra
begravd
begravda
begravdes
begraven
begravning
begravningen
begravningsplats
begravningsplatsen
begrepp
begreppen
begreppet
beha
behandla
behandlade
behandlades
behandlar
behandlas
behandling
behandlingen
behavior
behind
beho
behov
behovet
bei
beier
beige
beih
beijer
beijing
beilschmiedia
being
beirut
beitr
beitra
beitrag
beitrage
beka
bekannte
bekannten
bekant
bekanta
bekla
bekostnad
bekra
bekva
bekymmer
bel
bela
belagd
belagt
belarus
belarusiska
belfast
belg
belge
belgien
belgiens
belgique
belgisk
belgiska
belgiske
belgium
belgrad
believe
belize
bell
bella
bellamy
bellan
belle
bellman
belo
belokobylskij
belonging
belopp
belysning
bema
bembidion
bemerkungen
bemo
ben
bena
bender
benedict
benedictus
benen
benet
benfica
bengal
bengt
bengtsfors
bengtsson
beni
benin
benito
benjamin
bennett
benny
benoist
benoit
bensin
benson
benth
bentham
benthic
bentley
benvedsva
benz
beordrade
ber
bera
berberis
berberisar
berberisva
beredd
beredskap
berg
berga
bergamo
bergarter
bergen
bergens
berger
berget
berggren
berggrunden
bergh
bergig
berglund
bergman
bergmans
bergquist
bergqvist
bergs
bergsjo
bergskedja
bergskedjan
bergskedjor
bergslag
bergslagen
bergsomra
bergspass
bergsskogar
bergstopp
bergstrakter
bergstro
berichte
berio
berit
berk
berkeley
berkshire
berlese
berlin
berliner
berlins
bermuda
bern
bernadotte
bernard
bernardino
bernardo
berndt
bernhard
bernie
berns
bernt
bero
berodde
beroende
beror
berry
bert
bertha
bertil
bertolani
bertrand
bertus
besa
besatt
bescherelle
beschreibung
besegra
besegrad
besegrade
besegrades
besegrar
besegras
besegrat
besittning
besittningar
beska
besked
beskow
beskrev
beskrevs
beskrifning
beskriva
beskrivas
beskriven
beskriver
beskrivit
beskrivits
beskrivna
beskrivning
beskrivningar
beskrivningen
beskrivs
beskydd
beskyddare
besla
beslag
beslo
beslut
besluta
beslutade
beslutades
beslutande
beslutar
beslutat
besluten
beslutet
beso
besonderer
best
besta
bestod
besva
besvikelse
bet
beta
betala
betalade
betalar
betalas
betalning
betalt
bete
beteckna
betecknade
betecknar
betecknas
beteckning
beteckningar
beteckningen
beteende
beteenden
betesmarker
beth
bethune
betja
betonade
betonar
betong
betoning
betra
betrakta
betraktade
betraktades
betraktar
betraktas
bett
better
betty
between
betyda
betydande
betydde
betydelse
betydelsefull
betydelsefulla
betydelsen
betydelser
betyder
betydligt
betyg
betyget
beva
bevaka
bevara
bevarad
bevarade
bevarande
bevaras
bevarat
bevarats
beverly
beviljades
bevis
bevisa
beyond
bezirk
bezzi
bezzia
bf
bhutan
bi
bianca
bianchi
biart
bibcode
bibeha
bibel
bibeln
bibio
bible
bibliografi
bibliography
bibliotek
bibliotekarie
biblioteket
biblioth
bibliska
bicolor
bidra
bidrag
bidragande
bidragen
bidraget
bidragit
bidrar
bidrog
bielke
bienko
biflo
biflod
big
bigot
bih
bihang
bil
bilaga
bilar
bilarna
bild
bilda
bildad
bildade
bildades
bildande
bildanden
bildandet
bildar
bildas
bildat
bildats
bilden
bilder
bilderna
bildgalleri
bildhuggare
bildkonstna
bildning
bildt
bilen
biljetter
bill
billboard
billie
billiga
billigare
billy
bilma
bilolycka
biltillverkaren
bimaculata
bin
bina
binary
binda
bindande
binder
bing
bingen
bingham
bio
biodiversity
biogeography
biograf
biografen
biografer
biografi
biografier
biografisk
biografiska
biografiskt
biographical
biography
biol
biologi
biologia
biologica
biological
biologie
biologisk
biologiska
biology
biopremia
bird
birdlife
birds
birger
birgit
birgitta
birkaland
birmingham
biroll
birthday
bis
bishop
biskop
biskopar
biskoparna
biskopen
bismarck
bista
bit
bitar
bitra
bitter
biverkningar
bja
bjo
bjuda
bjuder
bjurholms
bjørn
bk
bl
bla
blaberoidea
black
blackburn
blackhawks
blackwelder
blackwell
blad
bladbaggar
blade
bladen
bladet
bladhorningar
bladmossart
bladmossor
bladsteklar
blaesoxipha
blair
blake
blanc
blanca
blanchard
blanche
blanco
bland
blanda
blandad
blandade
blandar
blandas
blandat
blandning
blandskog
blasonering
blattaria
blattariae
blattellidae
blattidae
blattodea
blattodeasf
bleeker
blef
blek
blekinge
bler
blev
bli
blick
blind
blinda
blindklokrypare
blir
bliva
blivande
bliver
blivit
blixt
blo
block
blod
blodet
blodiga
blodka
blog
blogg
blom
blomberg
blomflugor
blomma
blomman
blommande
blommar
blommor
blommorna
blomqvist
blomsterflugor
blomva
blood
bloom
blott
blotta
blu
blue
blues
bluff
blume
blumea
bly
bm
bmw
bner
bnp
bo
board
boarmia
boat
bob
boba
bobby
boberg
boca
bock
bockka
boda
bodar
bodde
boden
bodens
bodil
body
boe
boeing
boende
boet
bofors
bogan
bogota
bogserba
boheman
bohlin
bohman
bohus
bohusla
bois
boisduval
boiss
boissier
bok
boken
bokens
bokfo
bokform
bokhandel
bokma
boksta
bokstav
bokstaven
bokstavsordning
boktryckare
boktryckeri
bokva
bol
bola
bolag
bolagen
bolaget
bolagets
boland
boleti
boletim
boli
bolin
bolivar
bolivia
boliviana
boll
bollar
bollebygds
bollen
bollettino
bollna
bologna
boltic
bolton
bolus
bom
boman
bomb
bombay
bomben
bomber
bombus
bombylius
bomull
bon
bona
bonaparte
bond
bonde
bonden
bondesta
bondga
bone
bones
bonita
bonn
bonnie
bonnier
bonniers
bonus
bonusspa
boo
boogie
book
books
boom
booth
boplats
boplatser
bor
bora
bord
borde
bordeaux
border
bordet
bordtennis
bordtennisspelare
boreala
borealis
borg
borga
borgare
borgarsta
borgen
borgerlig
borgerliga
borgholms
borgma
borgmeier
borgs
borgstro
borhidi
boris
borla
born
borneensis
borneo
bornholm
borough
borrflugor
bort
borta
bortaplan
bortfo
bortga
bortom
bortsett
borussia
bos
bosa
bosatt
bosatta
bosatte
bosch
boskap
bosnien
bosniska
boss
bosse
bosta
bostad
bostadshus
bostadsomra
bostadsra
boston
bostro
bot
bota
botanical
botanik
botaniker
botanique
botanischen
botaniska
botanophila
botany
bothalia
botkyrka
botswana
bott
botten
bottenhavet
bottenva
bottenviken
bottom
boucek
boulenger
boulevard
bound
bourbon
bourgogne
bourgoin
bow
bowell
bowie
bowl
box
boxare
boxholms
boxning
boy
boyd
boye
boyko
boys
bp
br
bra
brabant
brabham
brachiopoda
brachymeria
bracksteklar
bracon
braconidae
braconiden
brad
bradford
bradley
brady
bradysia
brage
bragg
brahe
brain
brakvedsva
branch
brand
branden
brandenburg
brandfo
brandka
brandon
brandstation
brandt
brandy
brann
branschen
brant
branta
branting
bras
brasi
brasil
brasileira
brasileiro
brasiliansk
brasilianska
brasilien
brasilienfo
brasiliens
brasiliensis
brassicaceae
bratislava
bratt
braun
braunschweig
bravo
braxen
braxton
brazil
brazilian
brazzaville
bre
break
breaking
bred
breda
bredare
bredd
bredden
bredla
bredmunsflugor
bredvid
breeders
bremekamp
bremen
bremer
brenske
brent
brescia
breslau
brest
bretagne
brett
breuning
brev
breven
brevet
brevicornis
brevipalpus
brevipes
brevis
brevva
brian
bridel
bridge
bridges
brief
brien
brigad
brigaden
briggs
bright
brighton
brigitte
brill
bring
brink
brinnande
brinner
brisbane
brist
bristande
bristen
brister
bristfa
bristol
brit
brita
britain
britannica
british
britishlistedbuildings
britt
britta
britten
britterna
brittisk
brittiska
brittiske
brittiskt
britton
brittonia
brm
brno
bro
broadcasting
broadway
broar
broberg
brock
broder
brodern
broken
brokparasitsteklar
broman
bromeliaceae
bromma
brommapojkarna
bromsar
bromwich
bron
brons
bronsa
bronsmatch
bronsmedalj
bronsmedaljo
brook
brooke
brooklyn
brooks
broome
bror
brorson
bros
brother
brothers
brotherus
brott
brottare
brottet
brottning
brottslighet
brottslingar
brown
browne
bru
bruce
bruch
bruchinae
brud
brues
bruins
bruk
brukade
brukar
brukas
bruket
bruks
bruksa
brukspatron
brulle
brun
bruna
brunaktig
bruner
brunetti
brunius
brunn
brunnea
brunnen
brunner
brunneus
bruno
brunswick
brunt
brussels
brutit
bruxelles
bryaceae
bryan
bryant
brygga
bryggan
bryggeri
bryggeriet
bryk
bryna
bryol
bryologist
bryozoa
bryssel
bryta
bryter
brytning
bryts
bryum
bryummossor
bs
bt
btk
bu
buchanan
buck
buckingham
buckinghamshire
bud
budapest
buddha
buddhism
buddhismen
buddhistiska
buddy
budget
budskap
budskapet
buena
buenavista
buenos
buffalo
bugs
building
buitenzorg
bujumbura
buk
bukarest
buken
bukha
bukit
buksamlarbin
bukten
bukter
bulbophyllum
bulgarien
bulgariens
bulgariska
bull
bulletin
bulls
bunden
bundesliga
bundna
bundsfo
bunge
bupleurum
bur
burbank
bure
burea
bureau
burgess
burgos
burgund
burit
burits
burke
burkina
burks
burma
burman
burmeister
burn
burni
burning
burns
burr
burt
burton
burtt
burundi
bus
busch
bush
business
buskar
buske
busklandskap
buss
bussar
bussen
but
butik
butiken
butiker
butler
butterflies
butterfly
bv
by
bya
byar
byarna
bye
bygden
bygg
bygga
byggande
byggandet
byggas
byggd
byggda
byggde
byggdes
bygger
bygget
byggherre
byggma
byggnad
byggnaden
byggnadens
byggnader
byggnaderna
byggnadsminne
byggnadsminnen
byggnadsverk
byggs
byggt
byggts
byn
byns
byra
byron
bysantinsk
bysantinska
byskea
byst
byta
bytas
byte
byten
byter
bytet
bytt
bytte
byttes
byxor
c
ca
cab
cabo
cachoplistinae
caelifera
caen
caesar
cafe
cahiers
cai
cain
caladenia
calais
calamus
calcio
calcutta
caldwell
cale
caledonia
calgary
calif
california
californica
californicus
call
calle
called
caloptilia
calvados
calvin
calyptranthes
cambridge
cambridgeshire
came
cameron
camicas
camilla
camille
camillo
camp
campanula
campbell
campeonato
campo
camponotus
campoplex
campos
campsicnemus
campus
campylopus
camus
can
canada
canadensis
canadian
canadiens
canal
canberra
cancer
candida
candolle
candollea
candy
canescens
cannabis
cannes
cannon
cantal
canterbury
canto
canton
canucks
canyon
cao
cap
cape
capensis
capital
capitals
capitata
capitol
caporiacco
cappella
captain
car
carbonell
card
cardiff
cardot
care
carex
carey
caribbean
carin
carina
carinata
carinatus
carl
carlberg
carlgren
carlisle
carlo
carlos
carlquist
carlsen
carlson
carlsson
carlyle
carmen
carnegie
carol
carola
caroli
carolina
caroline
carolus
carolyn
carpenter
carr
carranza
carrie
carroll
cars
carson
carter
cartoon
carvalho
cas
casa
casas
case
casent
cases
casey
cash
casimir
casino
caspar
casper
castanea
castello
castilho
castillo
castle
castro
cat
cata
catalog
catalogue
catalogus
catalunya
catarina
catfishes
catharina
cathedral
catherine
catholic
cato
catocala
caudata
caudell
cave
cbs
cc
ccw
cd
cdot
cdots
cdu
ce
ceara
cecidomyia
cecil
cecilia
cederstro
celama
celastraceae
cell
cellen
celler
cellerna
cello
celsius
celtic
cement
cemetery
census
cent
center
centern
centerpartiet
centimeter
centipedes
central
centrala
centralafrikanska
centralamerika
centralasien
centralbl
centralbyra
centrale
centraleuropa
centrali
centralis
centralkommitte
centralort
centralorten
centralstation
centralt
centre
centro
centrum
century
cephalopoda
cephalopods
cephalotes
cerambycidae
cerambycidarum
cerambyciden
cerambycidæ
cerambycinae
ceratina
cercopoidea
ceremoni
ceremonier
ceremonin
ceres
cerodontha
cerro
certain
ces
cet
cetoniidae
ceylon
cf
ch
cha
chad
chalcid
chalcididae
chalcidoidea
challenge
challenger
chalmers
cham
chamaecrista
chamberlain
chamberlin
chambers
champ
champagne
champion
champions
championship
championships
chan
chance
chandler
chang
change
changes
changsha
channel
chans
chansen
chao
chaos
chapel
chapelle
chaplin
chapman
chapter
characidae
characters
charaxes
charente
charles
charlie
charlotta
charlotte
charlton
chart
charts
chase
chassi
che
check
checklist
checklists
chef
chefen
chefer
chefredakto
cheilosia
chelonus
chelsea
chemical
chemsak
chen
cheng
chengdu
cher
cherbourg
cherry
cheshire
chester
cheumatopsyche
chevalier
chevrolat
chevrolet
chi
chiang
chiapas
chiba
chicago
chico
chief
chiefly
chihuahua
child
children
chile
chilena
chilensis
chilenska
chiles
chili
chilobase
chilopoda
chimarra
china
chine
chinensis
chinese
ching
chionaema
chip
chironomus
chloroclystis
chlorops
cho
choice
choklad
chongqing
chopard
chorebus
chorthippus
chou
chr
chris
christ
christen
christensen
christer
christi
christiaan
christian
christiansen
christidis
christie
christina
christine
christmas
christoffer
christoph
christophe
christopher
chron
chronicle
chronicles
chrysler
chrysomelidae
chrysopilus
chrysops
chrysosoma
chrysotus
chu
chuck
chun
chungcheong
church
churchill
ci
cia
cicadellidae
cicadellinae
cichlidae
cid
cie
ciencias
cies
cigliano
ciliata
cinara
cincinnati
cinema
cinerea
cinnamomum
circle
circuit
circus
cirka
cirkel
cirkula
cirkus
citat
cites
cities
citroe
citronbin
city
citys
ciudad
civ
civico
civil
civila
civilekonom
civilfo
civilingenjo
civilra
cixius
cj
ck
cka
ckade
ckan
ckande
ckar
ckare
ckarna
ckart
ckas
cke
cken
ckens
cker
ckerna
ckers
ckesla
cket
ckeva
ckfilmer
ckfiskar
ckflugor
ckig
cklig
ckliga
ckligt
cklo
ckman
ckning
ckningen
ckor
cks
cksla
ckspindlar
ckspinnare
ckstro
cksvampar
ckt
ckta
ckte
ckten
ckter
cktes
ckts
cktsresande
ckva
ckvidd
cl
cladonia
claes
claesson
claire
clara
clare
clarence
clark
clarke
clas
class
classe
classes
classic
classification
clathria
claude
claudia
claudio
claudius
claus
clavata
clay
clayton
cle
clematis
clemens
clement
clements
clementschecklist
cleora
clermont
cleveland
cliff
clifford
climate
climax
clinton
clive
clofeta
cloffa
close
cloud
club
clubiona
clyde
cm
cnn
co
coach
coahuila
coan
coast
coastal
cobar
coburg
coca
coccidae
coccinea
coccoidea
coccophagus
cockerell
code
codex
coelioxys
coenonympha
coenosia
cogn
cogniaux
cohen
col
cola
cold
cole
coleman
coleoptera
coleopterists
coleopterorum
coleopterous
colin
coll
collaboration
collar
collaris
collected
collection
collections
college
collembola
colletes
colletinae
collin
collins
colo
colombia
colombianska
colombo
colonia
color
colorada
colorado
colors
colour
columbia
columbus
com
combat
combretum
come
comeback
comedy
comes
comic
comics
coming
command
commander
comments
commission
commissioner
committee
commodore
common
commons
commonwealth
commune
communication
communications
communities
community
como
comp
compacta
companion
company
comparative
compilation
complete
complex
computer
comte
con
conan
concacaf
concepcio
concert
concinna
concolor
concordia
conde
condylostylus
confederations
conference
confusa
congo
congress
connaissance
connecticut
connor
conny
conrad
conservation
constance
constant
contarinia
contemporary
content
contents
contest
continental
continued
contr
contrib
contribuic
contribution
contributions
control
convention
cook
cooke
cool
coop
cooper
copa
cope
copeia
copeland
copelatus
copenhagen
copestylum
copris
coquillett
coral
cordata
cordia
core
coriacea
cork
cornelis
cornelius
cornell
corner
cornuta
cornwall
corona
corporation
corps
corpus
corre
corrections
corse
corte
cortinarius
corydalis
corynoptera
cos
costa
costaricensis
costata
costello
cot
cotesia
could
council
countries
country
county
countyhuvudort
countyn
countyt
coupe
course
court
cove
coventry
cover
covers
covid
cox
coyotes
cr
cracoviensia
craib
craig
crambidae
cramer
cramerandstoll
crane
craneflies
crash
crassa
crassipes
crataegus
craven
crawford
crazy
cre
creek
crematogaster
crepidium
cresson
creuse
crew
cricket
crickets
cricotopus
crime
crisis
cristata
cristina
cristo
critical
critique
crits
croat
croix
cromwell
cropped
crosby
cross
crotalaria
croton
crous
crown
crum
crustacea
crustaceans
cruz
cry
cryptocarya
crystal
cs
csiro
cska
ctenus
ctor
cu
cuaro
cuba
cucullia
cuenca
culex
culicoides
cult
cultural
culture
cum
cumacea
cumberland
cumbria
cunningham
cup
cupen
cupido
cupma
cupvinnarcupen
curculio
curling
curran
current
curt
curtis
cushman
custodian
cut
cutler
cuvier
cv
cyathea
cyber
cycling
cyclocephala
cykel
cyklar
cykling
cyklist
cyklister
cymothoe
cynthia
cypern
cyperus
cyprinidae
cyril
cyrtandra
cyrus
czerepanov
d
da
dad
dade
dades
dag
dagar
dagarna
dagars
dagblad
dagbladet
dagbladets
dagbo
dagbok
dagen
dagens
daget
dagfja
daggflugor
daggka
daglig
dagliga
dagligen
dagligt
dagmar
dags
dagsla
dagstidning
dagstidningar
dagstidningen
dahl
dahlberg
dahlem
dahlgren
dahlin
dahlstro
dai
daily
daisy
dakar
dakota
dal
dala
dalar
dalarna
dalarnas
dalaro
dalbergia
dalby
dale
dalen
daler
dalga
dall
dalla
dallas
dallerspindlar
dalman
dalmatien
dals
dalsland
dalton
dam
damallsvenskan
damaskus
dame
damen
damer
damerna
damernas
damlag
damlaget
damlandslag
damm
dammar
dammen
dammflicksla
damon
damsidan
dan
dana
dance
dancing
dande
danden
danderyds
dandet
daniel
daniels
danielsson
danish
danmark
danmarks
dannebrogorden
danny
dans
dansa
dansar
dansare
dansband
dansbandet
dansen
danser
dansflugor
dansk
danska
danskarna
danske
danskspra
danskt
danso
dansspindlar
dant
dante
danzig
daphne
dar
dare
daren
dark
darkness
darling
darmstadt
darna
darreh
darrel
darwin
das
dasch
dasineura
dasychira
dasyhelea
dat
data
databas
databasdump
database
databasen
databases
date
dateformat
daterad
daterade
dateras
daterat
datering
dator
datorer
datorn
datorprogram
datorspel
dats
datum
datumet
dave
davenport
david
davids
davidson
davies
davis
dawn
dawson
day
days
db
dbarn
dbok
dbrun
dbruna
dc
dd
dda
ddade
ddades
ddar
ddare
ddas
ddat
dde
ddes
ddning
ddningstja
ddr
de
dea
dead
deal
dean
dear
death
debatt
debatten
debatto
debilis
deborah
debut
debutalbum
debutalbumet
debuten
debuterade
debutsa
dec
decapod
decapoda
december
decennier
decennierna
decenniet
decennium
decipiens
deckare
dee
deeann
deep
defense
definiera
definierad
definierade
definierar
definieras
definition
definitionen
definitioner
definitivt
degerfors
degli
deh
dei
dej
dekorationsma
dekorativa
dekorerad
dekorerade
del
dela
delad
delade
delades
delaktig
delar
delarna
delas
delat
delats
delavrinningsomra
delaware
delegation
delegationen
delen
delhi
delia
delias
dell
della
delle
dello
delma
delning
delong
delphacodes
delphinium
dels
delsbo
delse
delsea
delsedag
delsen
delstat
delstaten
delstatens
delstater
delstaterna
delstatshuvudstaden
delta
deltaga
deltagande
deltagare
deltagarna
deltagit
deltar
deltog
deluxe
delvis
dem
demo
democracy
democratic
demografi
demokrat
demokraten
demokrater
demokraterna
demokraternas
demokrati
demokratin
demokratisk
demokratiska
demokratiskt
demon
demonax
demoner
demonstranter
demonstration
demonstrationer
demospongiae
den
dena
dendal
dendrobium
dendrochilum
dendronephthya
dendy
deng
denheter
denis
denna
dennas
denne
dennes
dennis
dens
densamma
densitet
dentata
denticulata
denver
depa
departamento
departement
departementet
department
deportivo
depressa
depression
depressionen
dept
der
dera
deras
derberg
derbidae
derblom
derby
derbyshire
derdra
derek
derfo
derhamn
derhamns
deri
derko
derlund
dermalm
dermanland
dermanlands
dermaptera
dermyggor
dern
derna
dernas
derort
ders
derstro
derta
dertiere
derto
derut
des
desa
descamps
described
description
descriptionibus
descriptions
descriptive
descriptorum
desert
desho
design
designade
designades
designen
designer
desmet
desmodium
desmond
desordning
despel
despelare
despelaren
despelarna
despelerska
despelerskan
dess
dessa
dessfo
dessutom
destination
destinationer
desto
desvis
desvoidy
det
detail
detailed
detalj
detaljer
detaljerad
detaljerade
detaljplan
detroit
dets
detsamma
detta
deus
deutsch
deutsche
deutschen
deutscher
deutsches
deutschland
deutschlands
deux
development
devil
devils
devon
dewalt
dfa
dff
dfo
dga
dgivande
dgivare
dgivning
dh
dha
dhaka
dhus
dhuset
dhusinventeringen
dhusra
di
dia
diabetes
diagn
diagnos
diagnosen
diagnoses
diagram
dialekt
dialekten
dialekter
dialekterna
dialog
diamant
diamanter
diameter
diamond
diana
diane
dianthus
diapheromeridae
diaphorus
dias
diaspididae
dichaetomyia
dick
dickens
dickinson
dickson
dicranaceae
dicranomyia
dictionary
did
didier
die
diego
diels
dies
diesel
diet
dieter
dietrich
dif
different
diffusa
dig
diga
digital
digitala
digitalt
digonogastra
digt
dikt
diktare
diktatur
dikten
dikter
dikterna
diktning
diktsamling
diktsamlingar
diktsamlingen
dillon
dimension
dimensional
dimensioner
dimma
dimos
din
dina
dinamo
ding
dinge
dino
dinosaurier
dinotrema
dio
dion
dioscorea
diospyros
diplazium
diplomat
diplomater
diplomatiska
diplopoda
diplopodorum
diplotaxis
dipt
diptera
dipterorum
dique
dir
director
directory
direkt
direkta
direktiv
direkto
direktsa
dirigent
dirigenter
dirsh
dirty
disa
disc
disciplin
disco
discogs
discolor
discovery
disease
disk
diskografi
diskriminering
disksvampar
diskus
diskuskastning
diskussion
diskussioner
diskutera
diskuterade
diskuterades
diskuterar
diskuteras
disney
disneys
dispar
disponent
disposition
disputerade
dissimilis
distans
distansen
distant
disteniidae
distincta
distinkt
distinkta
distribution
distributions
district
distrikt
distrikten
distriktet
distriktets
dit
ditt
dittills
div
diva
diverse
diversification
diversity
divisio
division
divisionen
divisioner
dixon
dj
dja
dje
djer
djup
djupa
djupare
djupet
djupga
djupt
djur
djurart
djuren
djurens
djuret
djurets
djurga
djursholm
djursholms
dk
dla
dleart
dlig
dliga
dlighet
dligt
dling
dlista
dlistan
dlo
dlor
dm
dma
dman
dmitriev
dmitrij
dmytro
dn
dna
dnad
dning
do
doc
docent
dock
doctor
dod
dodd
dodge
dodson
does
doft
dog
dognin
dogs
doi
doktor
doktorn
doktorsavhandling
doktorsexamen
dokument
dokumenta
dokumentation
dokumenterade
dokumenterat
dokumentet
dokusa
dold
dolda
dolichopeza
dolichopus
dollar
dolly
dolni
dolores
dom
doma
domar
domare
domaren
domarna
domedagsboken
domen
domenico
domesday
dominans
dominera
dominerade
dominerades
dominerande
dominerar
domineras
domingo
dominica
dominikanska
dominique
domkyrka
domkyrkan
domkyrkofo
domsaga
domsagas
domsagohistorik
domsagor
domslut
domstol
domstolar
domstolen
don
donald
donation
donationer
donau
done
donerade
donetsk
dong
donna
donne
donnell
donner
donovan
donsker
doo
doom
door
dop
dopet
dopfunt
dopfunten
dor
dora
dorcadion
dordningen
dordogne
doria
doris
dorkeld
dormstja
dorotea
dorothea
dorothy
dorsal
dorsalis
dorset
dortmund
dos
doso
dothideomycetes
dotter
dotterbolag
dotterbolaget
dottern
dottertaxa
douard
double
doubs
doug
douglas
dov
dover
down
download
downs
doyle
dr
dra
draa
draba
drabbade
drabbades
drabbar
drabbas
drabbats
dracula
draft
draftad
draftades
draften
draftval
drag
draga
dragen
dragit
dragon
dragons
dragspel
drakar
drake
draken
drama
dramafilm
dramafilmer
dramaserien
dramat
dramaten
dramatens
dramatik
dramatiker
dramatisk
dramatiska
dramatiskt
dramer
drar
drarna
dras
drastiskt
draudt
dream
dreams
drei
dresden
dressyr
dret
drev
drevs
drew
dricka
dricker
drift
driften
driva
drivande
drive
driven
driver
drivit
drivs
dro
drog
droger
drogs
drosophila
drott
drottning
drottningar
drottningen
drottningens
drottninggatan
drottningholms
druce
dryck
drycker
drygt
dryopteridaceae
dryopteris
ds
dsa
dsannons
dsc
dsegro
dsel
dseln
dsfall
dsla
dsomra
dsordningen
dsstraff
dsva
dt
du
dub
dubai
dubbel
dubbelfotingar
dubbelmo
dubbelspa
dubbelstja
dubbelt
dubbla
dubia
dubius
dublin
dubrovnik
duck
ducke
ducks
duda
dudley
due
duell
duett
duk
duke
duktig
dume
dumont
dun
duncan
dundee
dunn
duno
duo
duon
dur
durango
durch
durham
during
dusona
dust
dutch
duty
duva
duvor
duzee
dva
dvd
dvs
dwarf
dwight
dworakowska
dx
dy
dyar
dyer
dygn
dygnet
dyka
dykare
dyker
dylan
dylikt
dynamics
dynamo
dynasti
dynastidae
dynastin
dyntaxa
dyntaxadyntaxa
dyr
dyra
dyrare
dyraste
dyrt
dysdera
dytiscidae
dz
e
ea
eades
eagle
eagles
earl
earle
early
earth
east
eastbourne
eastern
easy
eb
ebba
ebbe
ebenaceae
eberhard
ebird
ebr
ebu
ec
echo
ecnomus
ecological
ecology
economic
economics
ecuador
ed
eda
edda
eddie
eddy
eden
eder
edets
edgar
edge
edicions
edinburgh
edipucrs
edit
edith
edition
editions
editor
editors
edlund
edmond
edmonton
edmund
edra
eds
edsbyns
edstro
edu
eduard
eduardo
education
edvard
edvin
edward
edwards
edwin
ee
een
ef
effect
effects
effekt
effekten
effekter
effekterna
effektiv
effektiva
effektivare
effektivitet
effektivt
efs
efter
eftera
efterfo
efterfra
efterhand
efterkrigstiden
efterla
efterleden
efterma
eftermiddagen
efternamn
efternamnet
eftersom
efterstra
eftertra
efterva
eg
egen
egendom
egendomar
egendomen
egenskap
egenskaper
egenskaperna
egentlig
egentliga
egentligen
eget
egg
eggen
eggleton
egil
egmont
egna
egon
egypt
egypten
egyptens
egyptisk
egyptiska
ehf
ehlers
ehrensva
ehrmann
ei
eight
eilema
ein
einar
eindhoven
eine
einer
einige
einiger
einstein
ej
ejido
ek
ekar
ekberg
ekeby
ekelo
ekelund
ekena
ekero
ekholm
eklo
eklund
ekman
eko
ekologi
ekologiska
ekonom
ekonomi
ekonomibyggnader
ekonomin
ekonomisk
ekonomiska
ekonomiskt
eksjo
ekstro
ekvation
ekvationen
el
ela
elaeocarpus
elaphoglossum
elatostema
elbas
elbe
eld
elden
eldro
eldsva
eleanor
electric
electronic
elefanten
elefanter
elegans
elegant
elektra
elektricitet
elektrisk
elektriska
elektriskt
elektroner
elektronik
elektronisk
elektroniska
element
elementen
elena
eleonora
elev
eleven
elever
eleverna
elevskola
elfenbenskusten
elfsborg
elfte
elgenstierna
elgitarr
eli
elias
eliasson
elin
eliot
eliott
elis
elisa
elisabet
elisabeth
elise
elit
elite
eliten
elitloppet
elitserien
elix
eliza
elizabeth
ella
ellen
eller
elliot
elliott
elliptica
ellis
ellsworth
elmer
elna
elof
elongata
elongatus
elsa
else
elst
elton
elva
elvira
elvis
elymnias
em
ema
emanuel
emarginata
emblem
emblikava
embrik
emedan
emellan
emellana
emellertid
emeritus
emerson
emery
emi
emigrerade
emil
emile
emilia
emiliano
emilie
emilio
emily
emma
emmaboda
emmanuel
emmy
emot
emperor
empire
empis
empoasca
en
ena
enades
enare
enas
enasta
enbart
encarsia
encyclopaedia
encyclope
encyclopedia
encyclopædia
encyrtidae
end
enda
endangered
endast
ende
endemisk
endemiska
enden
enderlein
endet
endro
ene
enemy
eneopterinae
energi
energifo
energin
energy
eng
enga
engagemang
engagera
engagerad
engagerade
engagerades
engberg
engel
engelmann
engelsk
engelska
engelskan
engelskans
engelske
engelskspra
engelskt
engelsma
engineering
engl
england
englands
engler
english
englund
engstro
enha
enhet
enheten
enheter
enhetlig
enhja
enho
enicospilus
enighet
enkel
enkelt
enkla
enklare
enklaste
enko
enlighet
enligt
enne
enontekis
enorm
enorma
enormt
enough
enrico
enrique
ens
ensam
ensamma
ensamt
ensemble
ensemblen
ensifera
ensign
enskede
enskild
enskilda
enskilt
enspelarla
enstaka
ent
enterprise
entertainment
entiteten
entoloma
entom
entomol
entomolo
entomolog
entomologi
entomologia
entomologica
entomologicae
entomological
entomologicheskoe
entomologie
entomologique
entomologiques
entomologische
entomologischen
entomologist
entomology
entomotaxonomia
entre
entrepreno
entry
enum
enva
environment
environmental
enwiki
enzymer
eois
eos
eosentomon
ep
eparchi
ephraim
epic
epidendrum
epilamproidea
epiplema
epirus
episod
episode
episoder
epodunk
epok
epoken
epsilon
er
era
eragrostis
eran
erasmus
erbjo
erbjuda
erbjudande
erbjuder
erbjuds
erebia
eredivisie
eremophila
erfarenhet
erfarenheter
ergebnisse
erha
erho
eria
eric
erica
erich
erichson
ericson
ericsson
erik
erika
eriks
eriksdotter
eriksen
erikson
eriksson
erikssons
eriocaulaceae
eriocaulon
eriococcus
eriogonum
erioptera
eritrea
erka
erland
erling
erna
ernas
ernest
ernst
ero
ers
ersa
ersatt
ersatte
ersattes
ersatts
erwin
eryngium
erythroxylum
es
esa
esaias
esbo
esc
escape
eschmeyer
escobar
esenbeck
eskil
eskilstuna
eslo
esp
espan
espe
especes
especies
esperanza
espi
ess
essa
essai
essays
essen
essex
est
estacio
estado
este
ester
estetik
estetiska
esther
estla
estland
estlands
estniska
estudios
estudo
eswiki
et
eta
etablera
etablerad
etablerade
etablerades
etablerat
etapp
etappen
etapper
etc
ethiopian
etik
etiopien
etiopiska
etiska
etnicitet
etnisk
etniska
etnografiska
ett
etta
ettan
etude
etudes
etymologi
eu
eublemma
eucalyptus
eudorylas
euge
eugen
eugene
eugenia
eulophidae
eumastacidae
eumenidae
eunice
eunidia
eunomia
eupelmus
euphaedra
euphorbia
euphyia
eupithecia
euploea
euproctis
eur
eure
euro
euron
europa
europacupen
europaea
europama
europaparlamentet
europaparlamentsvalet
europara
europas
europava
europe
european
europeisk
europeiska
europeiskt
eurovision
eurytoma
eurytomidae
euselasia
euthalia
euxoa
ev
eva
evangelisk
evangeliska
evans
eve
evelyn
even
evenemang
evenemanget
evening
event
eventuell
eventuella
eventuellt
ever
everett
evert
everton
every
everybody
everything
evic
evidence
evig
eviga
evigt
evil
evol
evolution
evolutionary
ewa
ewald
ex
exakt
exakta
examen
exchange
excluding
executive
exekutiv
exempel
exempelvis
exemplar
exemplen
exemplet
exeter
exigua
exil
exilis
existens
existera
existerade
existerande
existerar
exklusiva
exocentrus
exochus
exoplanet
exoplaneter
exoprosopa
exotic
expandera
expanderade
expansion
expansionen
exped
expedition
expeditionen
expeditioner
expeditions
experience
experiment
experimental
experimentell
experimentella
expert
experter
explor
exploration
explorer
explosion
expo
exponering
export
expose
express
expressen
extended
exterio
extern
externa
extra
extrem
extrema
extremadura
extreme
extremt
ey
eye
eyes
eystra
ez
f
fa
faber
fabian
fabricius
fabrik
fabriken
fabriker
fabriko
face
facebook
fackboksfo
fackelblomsva
fackfo
fackliga
facklitteratur
facto
factor
factory
facts
faculty
fader
fadern
faderns
faders
fagersta
fair
fairfield
fairmaire
faith
fakta
faktiska
faktiskt
faktor
faktorer
faktum
fakulteten
falcata
falck
falcon
falk
falkenberg
falkenbergs
falklandso
falko
fall
falla
fallande
fallax
fallen
faller
fallet
falling
fallit
falls
fallska
false
falsk
falska
falskt
falu
falun
fam
fame
familia
familiarum
familie
families
familj
familjebok
familjefo
familjemedlemmar
familjen
familjens
familjer
familjerna
familjetillho
famille
family
famn
fan
fana
fang
fann
fannia
fanns
fanny
fans
fansen
fantasi
fantastiska
fantasy
fantomen
fao
far
fara
farao
farbror
farfar
farfars
farkosten
farlig
farliga
farligt
farm
farmor
farmors
fars
farsta
fart
farten
fartyg
fartygen
fartyget
fartygets
farva
fas
fasad
fasaden
fasader
fasaderna
fasc
fasciata
fasciatus
fascicule
fasen
faser
faso
fast
fasta
faster
fastighet
fastigheten
fastigheter
fastigheterna
fastighetsa
fastlandet
faststa
fat
father
fatta
fattade
fattades
fattar
fattas
fattig
fattiga
fattigdom
fattigva
fauchald
fauna
faunal
faune
faust
fauvel
favorit
favoriter
favret
fbi
fc
fd
fe
fear
feat
featuring
feb
feber
februari
february
fed
fedde
federal
federala
federation
federationen
federer
federico
feel
feeling
fel
felaktig
felaktiga
felaktigt
felder
felipe
felix
fellow
felt
fem
fema
female
feminism
feminist
feminister
feministisk
feministiska
femkamp
femma
femte
femteplats
femtio
femton
femtonde
feng
fenn
fennah
fennica
fenomen
fenomenet
fer
ferdinand
ferguson
fern
ferna
fernandez
fernando
ferns
ferrara
ferrari
ferraris
ferreira
ferris
ferruginea
ferry
fersen
fest
festen
fester
festival
festivalen
festivaler
festivali
festschrift
festuca
fet
fetbladsva
fetma
fett
ff
ffa
ffad
ffade
ffades
ffande
ffar
ffas
ffat
ffats
ffer
ffle
fgren
fi
fia
fiat
fick
fickmossor
fiction
ficus
fideikommiss
fieber
field
fieldiana
fields
fiende
fienden
fiendens
fiender
fientliga
fifa
fig
figaro
fight
fighter
fighting
figs
figur
figure
figuren
figurer
figurerna
figures
fiji
fikonsla
fikonsteklar
fiktion
fiktiv
fiktiva
fil
file
filer
files
filial
filiformis
filip
filippinerna
filippo
filipstad
filipstads
film
filma
filmades
filmatiserades
filmatisering
filmatiseringar
filmdatabas
filmdebuterade
filmen
filmens
filmer
filmerna
filmfestival
filmfestivalen
filmmanus
filmmusik
filmografi
filmproducent
filmproducenter
filmregisso
films
filnedladdningstja
filolog
filologer
filologi
filosof
filosofen
filosofer
filosofi
filosofie
filosofin
filosofisk
filosofiska
filter
filtsko
fimbriata
fimbristylis
fin
fina
final
finalen
finaler
finalseger
finalserien
finalsla
financial
finansiell
finansiella
finansiera
finansierade
finansierades
finansieras
finansiering
finansminister
finare
finaste
find
fine
finger
fingero
finglanssteklar
fingrar
finiste
finla
finland
finlandfo
finlandia
finlands
finlandssvensk
finlandssvenska
finn
finna
finnas
finner
finnes
finnmark
finns
finsk
finska
finskspra
finskt
finspa
fint
fiol
fiorentina
fira
firade
firades
firandet
firar
firas
fire
firma
firman
firmino
first
fis
fisch
fischer
fish
fishbase
fisher
fisheries
fishery
fishes
fisk
fiskar
fiskare
fiskarna
fiskart
fiske
fiskela
fisken
fissidens
fitzgerald
five
fja
fjeldsa
fjord
fjorton
fjortonde
fk
fl
fla
fladdermo
fladdermus
flag
flagga
flaggan
flaggor
flames
flamla
flamsteed
flamsteedobjekt
flandern
flash
flat
flatidae
flava
flavescens
flavipes
fleas
fleet
fleetwood
fleischer
fleming
fleno
flens
flensburg
fler
flera
flerbostadshus
flerspelarla
flertal
flertalet
flest
flesta
fletcher
flicka
flickan
flickor
flickorna
flickr
flickskola
flickva
flies
flight
flinkspindlar
flint
flitig
flitigt
flo
flock
flockar
flockblommig
flockblommiga
flod
floden
flodens
floder
floderna
flodtrollsla
flor
flora
floran
flore
florence
florens
flores
florett
florida
florsla
flotta
flottan
flottans
flottiljen
flow
flower
flowers
floyd
flugor
flugsnappare
fly
flydde
flyers
flyg
flyga
flygande
flygare
flygbolag
flygbolaget
flygel
flygeln
flyger
flygfa
flygflottilj
flygfo
flyglar
flygning
flygningar
flygningen
flygplan
flygplanen
flygplanet
flygplats
flygplatsen
flygplatser
flygvapen
flygvapnet
flygvapnets
flying
flykt
flykten
flyktingar
flyr
flytande
flyter
flytt
flytta
flyttade
flyttades
flyttar
flyttas
flyttat
flyttats
flytten
flyttfa
fm
fmis
fn
fo
focus
foder
foerster
fokus
fokusera
fokuserade
fokuserar
folia
folk
folkbokfo
folkdra
folke
folken
folkeparti
folket
folketinget
folkets
folkgrupp
folkgrupper
folkha
folkho
folklig
folkliga
folkma
folkmun
folkmusik
folkomro
folkpartiet
folkra
folkrepubliken
folkro
folksa
folkskola
folkskolan
folkskolla
folkslag
folktro
fond
fonden
fonta
fontaine
fontana
fontsize
food
fool
foot
football
for
forbes
force
forces
forcipomyia
ford
fordon
fordonet
fore
foreign
forel
forest
forestry
forests
forever
form
forma
formad
formade
formar
format
formatet
formation
formel
formell
formella
formellt
formeln
formen
former
formerna
formes
formgivare
formgivning
formica
formosa
formosana
forms
formula
forna
fornborg
fornborgar
fornfynd
fornla
fornminnen
fornminnesregister
fornminnesregistret
fornnordiska
forntida
forntiden
forrest
fors
forsa
forsberg
forskare
forskaren
forskarna
forskning
forskningen
forskningsinstitut
forsman
forssell
forster
fort
fortet
fortfarande
fortplantning
fortsa
fortsatt
fortsatta
fortsatte
fortsetzung
fortuna
fortune
forum
forward
fossil
fossila
foster
fot
fotboll
fotbollen
fotbollfo
fotbolls
fotbollsa
fotbollsallsvenskan
fotbollsfo
fotbollskarria
fotbollsklubb
fotbollsklubbar
fotbollsklubben
fotbollslag
fotbollslandslag
fotbollsma
fotbollssa
fotbollsspelare
fotbollstra
foten
fotingar
fotnoter
foto
fotograf
fotografen
fotografer
fotografi
fotografier
fotografiska
fotomodell
fotomodeller
foton
fotosfa
fots
fotspa
found
foundation
four
fourth
fowler
fox
fp
fr
fra
frac
fraccionamiento
fragilis
fragm
fragment
frahm
fram
frama
framfo
framga
framha
framho
framkom
framme
framsidan
framsta
framsteg
framtid
framtida
framtiden
framtra
framva
franc
francaise
france
frances
francesco
franche
franchet
francis
francisco
franciskus
franck
franco
francois
frank
frankfurt
frankie
franklin
frankrike
frankrikes
frans
fransk
franska
franske
franskspra
franskt
fransma
fransmannen
fransson
franz
franze
frasen
fraser
fre
fred
fredag
fredagen
freddie
freddy
freden
frederic
frederick
fredericks
frederik
fredric
fredrik
fredrika
fredriks
fredrikshamn
fredriksson
fredsfo
fredspris
free
freedom
freeman
freestyle
freiburg
frej
freja
frekvens
frekvensen
french
fresh
freshwat
freshwater
freud
frey
freycinetia
fri
fria
friare
friberg
fribourg
frid
frida
friedrich
friend
friends
fries
friese
frigavs
frigo
friherrar
friherre
friherrinnan
friherrliga
frihet
friheten
frihetskriget
frihetstiden
friidrott
friidrottare
friis
frika
frima
fris
frisim
frisinnade
frisk
friska
frisla
frista
fristil
fritflugor
frithiof
fritid
fritiof
fritt
fritz
friuli
frivillig
frivilliga
frivilligt
fro
froeschner
froese
from
frond
front
frontalis
fronten
frost
fru
fruhstorfer
fruit
frukt
frukta
fruktade
fruktan
fruktansva
frukten
frukter
frun
frwiki
fryxell
fs
ft
fta
ftade
ftades
ftar
ftas
ftat
ftdjur
ftdjursart
fte
ften
ftet
ftor
fu
fuchs
fuentes
fuga
fujian
fuktig
fuktiga
fuktigt
fukuoka
fulgoroidea
fulgoromorpha
fulham
full
fulla
fullblod
fuller
fullfo
fullma
fullsta
fullt
fulltext
fulva
fun
fund
fundamental
funeral
fung
fungera
fungerade
fungerande
fungerar
fungerat
fungi
fungorum
funk
funktion
funktionen
funktioner
funktionsnedsa
funna
funnit
funnits
fur
furcata
furst
furstar
furste
fursten
furstendo
further
fusca
fuscipennis
fuscus
fusion
futsal
future
fuzhou
fußball
fven
fver
fversigt
fwer
fylke
fylla
fylld
fyllda
fyllde
fylldes
fyller
fyllt
fylumet
fyn
fynd
fynden
fyndet
fyr
fyra
fyraa
fyren
fyrtio
fysik
fysikaliska
fysiker
fysikern
fysiografiska
fysiologi
fysisk
fysiska
fysiskt
g
ga
gabon
gabriel
gabriella
gabrielsson
gad
gade
gades
gaga
gagnefs
gahan
gaia
gais
gal
gala
galan
galaxer
galaxy
galen
galerie
galiano
galicien
galileo
galium
gallen
galleri
galleriet
gallery
gallglanssteklar
gallischen
gallmyggesteklar
gallmyggor
gallo
gama
gamba
gambia
gamble
game
gamecube
games
gamla
gamle
gamma
gammal
gammalt
gan
gana
gande
gandera
gandhi
gang
ganska
gansu
gao
gap
gar
garage
garay
garci
garcia
garcinia
gard
garde
garden
gardenology
gardens
gardie
gardiner
gardner
gare
garen
garn
garna
garnas
garnison
garnisonen
garonne
garrett
gart
gary
gas
gasa
gasatt
gasen
gaser
gaston
gat
gata
gatan
gate
gates
gator
gatorna
gattung
gattungen
gatunamn
gauld
gav
gavs
gay
gayle
gaz
gaza
gazette
gb
gberg
gbin
gd
gda
gde
gderi
gderier
gdes
ge
gear
geber
geburtstage
geckoo
geer
gefle
gehrels
geijer
gel
gelabert
gelarter
gelbin
gele
gelis
geln
gelns
gelse
gelsla
gelsna
gelspindlar
gelsspinnare
gema
gemensam
gemensamma
gemensamt
gemenskap
gemenskapen
gemminger
gen
genast
gene
gener
genera
general
generaldirekto
generalen
generaler
generalfo
generalguverno
generallo
generalmajor
generalsekreterare
generalstaben
generation
generationen
generationens
generationer
generell
generella
generellt
genererar
generic
genero
generum
genesis
genetik
genetisk
genetiska
genetiskt
geneva
geneve
genga
genhet
genheten
genheter
genheterna
geni
genitiv
genom
genombrott
genombrottet
genomfo
genomga
genomgick
genomgripande
genomkorsas
genomslag
genomsnitt
genomsnittlig
genomsnittliga
genova
genre
genren
genrer
genres
gens
gent
gentemot
gentiana
gentianava
genua
genus
geobot
geoffrey
geografi
geografisk
geografiska
geografiskt
geographic
geographical
geolog
geologer
geologi
geological
geologiska
geology
geometri
geometriska
geonames
georg
george
georges
georgetown
georgia
georgien
georgiens
georgiska
geoscience
ger
gerais
gerald
geranium
geranomyia
gerard
gerd
gerda
gerha
gerhard
geri
germain
german
germanska
germany
germar
gern
gerry
gers
gerstaecker
gert
gertrud
gertsch
ges
gesa
gesammelt
gesammelten
geschichte
gesellsch
gesellschaft
gesneriaceae
gesta
gestalt
gestalter
gestapo
get
getingar
getingart
gets
gett
getts
geva
gfa
gfo
gg
gga
ggande
ggandet
ggar
ggare
ggaren
ggarna
ggas
ggdjur
ggdjursart
gge
ggen
gger
gget
ggla
gglund
ggma
ggning
ggningar
ggningarna
ggningen
ggs
gh
gha
ghana
ghet
ghost
ghus
gi
giacomo
giant
giants
gibbs
gibraltar
gibson
gica
gick
gidea
giesbert
gif
gift
gifta
gifte
gifter
gifterma
giftet
giftiga
giga
gigantea
gigas
giglio
gil
gilan
gilbert
gilberto
giles
gilg
gill
gillade
gillar
gilles
gillett
gilmour
gina
gingo
gion
giordani
giorgio
gios
giovanni
girault
girl
girls
giro
girona
gironde
gislaveds
gisslan
gitarr
gitarrer
gitarrist
gitarristen
gitarrister
giulia
giuseppe
giv
giva
give
given
givet
givit
givits
givna
gjord
gjorda
gjorde
gjordes
gjort
gjorts
gjuten
gjutja
gk
gkommen
gkrypare
gkvarter
gkvarteret
gla
glabra
glacia
glacier
glad
glada
glade
glades
gladiolus
gland
glandet
glandsklimat
glans
glar
glarna
glas
glasbruk
glasgow
glasma
glaso
glass
glat
glattmaskar
glauca
gle
gleason
gledning
glen
glenea
glenn
glesbefolkat
glest
glimmar
glo
global
globala
globalt
globe
globen
globis
glochidion
gloria
glory
gloucestershire
glu
glund
glypta
gm
gma
gmbh
gmelin
gn
gna
gnad
gnade
gnades
gnagare
gnaphosidae
gnar
gnat
gne
gnen
gner
gnesta
gning
gnophos
gnosjo
gnu
go
god
goda
gode
godfrey
godka
godman
gods
godsa
godset
godsta
godt
goes
goethe
goia
goif
going
gold
goldblatt
golden
goldman
golf
golfen
golfklubb
golfspelare
golovatch
golv
golvet
gomez
gon
gonblick
gonbrynsstreck
gone
gonen
gonfa
gonflugor
gonna
gonomyia
gonsin
gonsla
gonspindlar
gonstans
gonting
gonza
gonzalez
good
goodbye
google
gor
gora
gordon
gore
gorlunda
gorna
gorochov
gospel
gosse
got
gotha
gotiska
gotla
gotland
gotlands
gott
gottfrid
gottfried
gottlieb
gottorp
goulburn
gould
gov
government
governor
governors
gp
gps
gr
gra
grabbars
grace
gracilipes
gracilis
gracillariidae
grad
grade
graden
grader
gradvis
graf
grafik
grafiker
grafisk
grafiska
graham
gram
grammatik
grammis
grammy
gran
granada
granater
grand
grande
grandiflora
grandis
granger
granit
grannar
granne
grannla
granska
granskning
granskog
grant
grar
grass
grasshopper
grasshoppers
grat
gratis
graubu
grav
gravar
gravarna
grave
graven
gravenhage
gravenhorst
graveyard
gravfa
gravho
gravid
graviditet
gravo
gravro
gravsatt
gravsatta
gravsattes
gravsten
gray
graz
gre
great
greater
greatest
greece
greek
green
greene
greenwich
greenwood
greg
gregor
gregorianska
gregorius
gregory
greifswald
greker
grekerna
grekisk
grekiska
grekiskans
grekland
greklandfo
greklands
gren
grenada
grenadja
grenar
grenarna
grenen
grenoble
grepp
greps
gressitt
gret
greta
greuter
grevar
greve
greven
grevillea
grevinna
grevinnan
grevskap
grevskapet
grewia
grey
gridcolor
griffin
griffith
griffiths
grill
gring
gringen
grip
gripa
gripen
gris
grisea
grisebach
gro
grobladsva
groddjur
groddjursart
grodor
groningen
gross
grosshandlare
grosshandlaren
grosso
grote
grotta
grottan
grottor
grottva
ground
group
groupe
groups
grov
grova
grove
grovt
gru
grube
grums
grund
grunda
grundad
grundade
grundades
grundande
grundandet
grundar
grundare
grundaren
grundarna
grundas
grundat
grundats
grunden
grunder
grundfa
grundla
grundlag
grundlagen
grundseriematcher
grundserien
grundskola
grundskolan
grundval
grupp
gruppe
gruppen
gruppens
grupper
grupperna
gruppledare
gruppspel
gruppspelet
grus
gruva
gruvan
gruvor
gryllacrididae
gryllidae
gryllides
gryllinae
grylloidea
gryllotalpidae
gryningen
gryon
gs
gsa
gsater
gsby
gsd
gsds
gsekunder
gsen
gsenhet
gset
gsfo
gsjo
gskola
gskolan
gskolans
gskolor
gskytte
gsla
gslinjen
gslinjer
gsna
gspinnare
gsstation
gsstationen
gsstationer
gst
gsta
gste
gt
gtider
gu
guadalajara
guadalupe
guadeloupe
guam
guanajuato
guangdong
guangxi
guangzhou
guard
guardian
guatemala
guatteria
gubben
gud
gudar
gudarna
guden
gudh
gudinna
gudinnan
gudomliga
gudrun
guds
gudstja
gudz
gue
guene
guerrero
guez
gui
guiana
guide
guides
guidetti
guido
guild
guillaume
guillaumin
guillermo
guinea
guinness
guitar
guizhou
gul
gula
gulaktig
guld
gulda
guldet
guldmedalj
guldmedaljer
guldmedaljo
guldo
gulf
gull
gullberg
gullsva
gult
gummi
gun
gunhild
gunilla
gunnar
gunnarsson
gunnel
guns
gunung
gupta
gurkva
gus
gusenleitner
gustaf
gustafs
gustafson
gustafsson
gustav
gustave
gustavianska
gustavo
gustavs
gustavsson
guvernement
guvernementet
guverno
guy
guyana
gva
gverk
gverket
gvisare
gyeonggi
gyeongsang
gyllene
gyllenstierna
gym
gymnasieskola
gymnasieskolor
gymnasiet
gymnasium
gymnast
gymnaster
gymnastik
gynoplistia
gyo
gypona
h
ha
haag
haas
habenaria
habitat
habitatet
habitatfo
habo
habsburg
hackspett
hackspettar
had
hade
hadena
haematopota
haft
hafva
hafwa
hafwer
haga
hagberg
hage
hagen
hagfors
haglund
hagman
hagstro
hague
hahn
hainan
hainanensis
haines
haiti
hajar
hakmaskar
hal
hale
half
haliclona
haliday
halifax
hall
halla
halland
hallands
hallberg
halle
hallen
hallsbergs
hallstro
halmstad
halmstads
halo
hals
halsen
halt
halv
halva
halvan
halvbror
halvgra
halvklotet
halvlek
halvo
halvt
halvva
halvvingar
ham
hamburg
hamburger
hamilton
hamlet
hammar
hammarberg
hammarby
hammare
hammarskjo
hammer
hammond
hamn
hamna
hamnade
hamnar
hamnat
hamnen
hamngatan
hampe
hampshire
hampson
hampton
hamra
hamsterartade
han
hanar
hanarna
hancock
hand
handbok
handboll
handbollsspelare
handbook
handbuch
handel
handeln
handels
handelsbanken
handelsfo
handelsho
handelsma
handen
handfull
handl
handla
handlade
handlande
handlar
handlexikon
handling
handlingar
handlingen
hands
handskrifter
hane
hanen
hangarfartyg
hango
hangul
hangzhou
haninge
hank
hann
hanna
hannah
hannar
hanne
hannes
hannibal
hannover
hanoi
hans
hansen
hanson
hansson
hantera
hanterar
hanteras
hantering
hantverk
hantverkare
haparanda
haplochromis
happy
har
hara
harald
harbin
harbor
harbour
hard
hardcore
harding
hardy
hare
harkrankar
harms
haro
harold
harpa
harper
harriet
harris
harrison
harry
harsyreordningen
harsyreva
hart
hartford
hartley
hartman
hartmann
harv
harvard
harvey
harz
has
hassan
hasse
hastighet
hastigheten
hastigheter
hastighetsa
hastigt
hastings
hat
hatch
hate
hatt
hatten
hattori
haukivesi
haus
haut
haute
hautes
hauts
hav
hava
havanna
have
haven
havererade
havet
havets
havre
havs
havsabborrfiskar
havsanemoner
havsborstmaskar
havsniva
havsomra
havsspindelart
havsspindlar
havsytan
hawaii
hawaiian
hawaiiensis
hawk
hawkins
hawks
hay
hayashi
hayat
hayden
hayes
hayward
hb
hbtq
hbw
hc
hd
he
head
health
heard
heart
hearts
heat
heath
heather
heaven
heavy
hebard
hebei
hebreiska
heby
hector
hed
hedberg
hede
hedemora
heden
heder
hedersdoktor
hedersdoktorer
hedersledamo
hedersledamot
hederslegionen
hedin
hedlund
hedman
hedqvist
hedra
hedrar
hedstro
hedvig
hedwigia
heemstra
heft
heidelberg
heidenstam
heidi
height
heights
heikki
heilongjiang
heina
heinrich
heinz
hej
hektar
hel
hela
helan
helen
helena
helene
helga
helgad
helge
helgon
helgonet
helhet
heliconius
helig
heliga
helige
helikopter
helikoptrar
helin
helina
heliocentrisk
heliotropium
helium
hell
hellas
hellberg
heller
hellman
hello
hellre
hellstro
helm
helmer
helmut
help
helpla
helsingborg
helsingborgs
helsingfors
helsingforskonventionens
helsingo
helsinki
helst
helt
heltal
heltid
helvetet
hem
hembitra
hembygdsfo
hembygdsga
hemiboreala
hemiptera
hemisphere
hemkomsten
hemland
hemlandet
hemlig
hemliga
hemlighet
hemligheter
hemligt
hemlo
hemma
hemmaarena
hemmamatcher
hemman
hemmansa
hemmaplan
hemmet
hemsida
hemslo
hemso
hemstad
hemstaden
hemva
hemvist
hen
henan
hendel
henderson
hendrik
hendrix
henne
hennes
henning
henri
henric
henrietta
henriette
henrik
henrikson
henriksson
henry
her
herald
heraldiska
herausgegeben
herb
herbert
hercegovina
hercostomus
hercules
herde
here
hering
heritage
herman
hermann
hermansson
hermes
hermosa
herna
hero
heroes
herr
herrar
herrarnas
herre
herren
herrens
herrera
herrga
herrich
herrlaget
herrlandslag
herrljunga
herrn
herrsidan
hertfordshire
hertha
hertig
hertigar
hertigdo
hertigen
hertiginna
herzog
hess
hesse
hessen
het
heta
heter
heteronyx
heteroptera
hett
hette
hewitson
hexatoma
hey
hf
hi
hibbertia
hibiscus
hidalgo
hieracium
hieronymus
hierta
higgins
high
higher
highland
highway
hilara
hilda
hildebrand
hilding
hill
hille
hilliard
hills
hilton
him
himalaya
himlen
himlens
himmel
himmelen
himmelsblomsva
himmelska
himmler
hinder
hindra
hindrade
hindrar
hinna
hinner
hip
hiphop
hipparchia
hipparcos
hipparcosuppdraget
hippolyte
hiroshi
hiroshima
hirsuta
hirta
hirtz
his
hisingen
hispida
hist
histeridae
histeroidea
histoire
historia
historic
historical
historico
historie
historien
historiens
historier
historik
historiker
historikern
historisk
historiska
historiskt
history
hit
hitchcock
hitis
hitla
hitler
hitlers
hits
hitta
hittade
hittades
hittar
hittas
hittat
hittats
hittills
hiv
hja
hjalmar
hjelm
hjerta
hjo
hjort
hjul
hjuldjur
hjuldjursart
hjulspindlar
hk
hl
hle
hler
hm
hman
hmen
hms
hn
ho
hob
hobart
hobbs
hochberg
hockey
hockeyallsvenskan
hockeydb
hockeyettan
hof
hoffman
hoffmann
hofors
hohenzollern
hohhot
hok
hokkaido
hold
holden
holding
hole
holger
holiday
holla
holland
holloway
holly
hollywood
holm
holmberg
holme
holmen
holmes
holmgren
holmquist
holmqvist
holms
holmstro
holotrichia
holst
holstein
holt
holtt
holy
holzschuh
home
homer
homeruns
homo
homoneura
homoptera
homopterous
homosexualitet
homosexuell
homosexuella
hon
hona
honan
honans
honda
honduras
honey
hong
hongkong
honolulu
honom
honor
honorna
honung
hood
hook
hooker
hooper
hop
hope
hopkins
hoplia
hoplitis
hopp
hoppa
hoppade
hoppades
hoppar
hoppas
hopper
hoppet
hoppflugor
hoppglanssteklar
hoppkra
hoppra
hoppspindlar
hoppstja
hora
horace
horae
horak
horisontella
horn
horni
horns
hornstritar
horror
horse
horst
hort
horton
hos
hospital
host
hosts
hot
hotad
hotade
hotar
hotas
hotel
hotell
hotellet
hotet
hotspur
houghton
hour
house
housing
houston
houten
houtska
hov
hovdam
hovdamer
hove
hovet
hovkapellet
hovma
hovore
hovra
hovstaterna
how
howard
howden
howe
howell
hoya
hoyo
hp
hr
hradec
hren
hrer
hs
hsb
hsia
ht
htm
html
http
https
hu
hua
huang
hubbard
hubei
huber
hubert
hucusque
hud
huddinge
huden
hudiksvall
hudiksvalls
hudson
hugh
hughes
hugo
hui
hull
hult
hultsfreds
human
humanistiska
humanita
humbert
humboldt
humeralis
humilis
humo
humor
hunan
hund
hundar
hunden
hundra
hundraa
hundraser
hundratal
hundratals
hundred
hung
hungarica
hungarici
hunger
hunnit
hunt
hunter
hur
hurd
hureau
hurricanes
huru
huruvida
hus
husa
husby
husdjur
husen
huset
husets
husflugor
husfo
husha
huskvarna
husmasknattsla
husnr
husqvarna
hussein
hustru
hustrun
hustrur
hutchinson
hutton
huvud
huvuda
huvudartikel
huvudba
huvudbyggnad
huvudbyggnaden
huvuddelen
huvuden
huvudentre
huvudet
huvudfo
huvudkarakta
huvudkontor
huvudkontoret
huvudman
huvudo
huvudort
huvudorten
huvudperson
huvudpersonen
huvudpersoner
huvudredakto
huvudroll
huvudrollen
huvudroller
huvudrollerna
huvudsa
huvudsak
huvudsakliga
huvudsakligen
huvudserien
huvudseriestja
huvudsta
huvudstad
huvudstaden
huvudtra
huvudva
hv
hvad
hvar
hvilken
hwad
hwar
hybomitra
hybrid
hyde
hydraena
hydraenidae
hydrellia
hydriomena
hydrobiologica
hydropsyche
hydroptila
hydrozoer
hylaeus
hyles
hyllade
hyllades
hyllning
hylte
hym
hymenophyllum
hymenoptera
hymenopteres
hymenopterorum
hymenopterous
hymn
hypena
hypericum
hypnaceae
hypolimnas
hypotes
hypotesen
hyra
hyrde
hyresga
hyser
hz
i
ia
iaaf
iagh
ian
iau
ib
iberica
iberiska
ibk
ibland
ibm
ibn
ibrahim
ibsen
ic
ica
ice
ich
ichneumon
ichneumonidae
ichneumoniden
ichneumonides
ichneumoninae
ichneumonoidea
ichneumonologia
ichthyol
ici
icke
icon
id
ida
idaea
idag
idaho
ide
idea
ideal
ideell
ideella
identification
identifiera
identifierade
identifieras
identifierbara
identisk
identiska
identitet
identity
ideologi
ideologiska
idol
idris
idrott
idrottare
idrottaren
idrottsfo
idrottsledare
idun
ies
if
ifall
ifan
ifk
ifra
ig
iga
igen
igenka
igenom
ignacio
ignatov
ignatz
ignaz
igor
iha
ihja
ihop
ihre
ii
iihf
iii
ija
ik
ike
ikea
ikko
ikla
il
ildis
ile
ilex
ilha
iliff
ill
illa
ille
illies
illinois
illustr
illustrated
illustration
illustrationer
illustrations
illustrato
illustrerad
illustrerade
im
image
imagesize
imago
imatra
imdb
img
immanuel
immunfo
imp
impact
impatiens
impe
imperial
imperiale
imperiet
imponerande
import
importance
importerade
impressum
in
ina
inaequalis
inba
inbjudan
inbjuden
inbjudna
inblandad
inblandade
inblandning
inbo
inbyggd
inbyggda
inbytt
inc
incl
including
inconspicua
increment
ind
indalsa
indelad
indelade
indelas
indelat
indelning
indelningar
indelningen
indelta
independent
index
india
indian
indiana
indianapolis
indianer
indianerna
indians
indica
indicus
indien
indiens
indies
indigofera
indigosla
indikerar
indirekt
indisk
indiska
individ
individen
individens
individer
individerna
individual
individuell
individuella
individuellt
indo
indoeuropeiska
indonesia
indonesien
indonesienfo
indonesiska
indre
industri
industrial
industriell
industriella
industrier
industrifo
industriman
industrin
industriomra
industry
indycar
ine
inen
inermis
infa
infaller
infanteri
infanterie
infanteriet
infanteriregemente
infanteriregementet
infektion
infektioner
influenser
influerad
influerade
inflytande
inflytandet
inflytelserik
inflytelserika
info
inform
information
informationen
informationstavla
infraro
infrastruktur
infty
ing
inga
inge
ingeborg
ingegerd
ingela
ingemar
ingen
ingenjo
ingenting
inger
inget
ingick
ingmar
ingrepp
ingrid
ingripa
ingripande
ingrisch
ingvar
inha
inhemsk
inhemska
inhopp
inifra
initialt
initiativ
initiativet
initiativtagare
inkludera
inkluderade
inkluderades
inkluderar
inkluderas
inkluderat
inklusive
inko
inkommande
inkomst
inkomster
inkorporerades
inkra
inla
inland
inlandet
inlandsklimat
inleda
inledande
inledde
inleddes
inleder
inledning
inledningen
inledningsvis
inleds
inlett
inloppet
inn
innan
innanfo
inne
inneba
innebandy
innebar
innebo
inneburit
innefattade
innefattar
inneha
innehade
innehaft
innehar
innehav
innehavare
inneho
inner
innerga
innersta
innerstad
innerstaden
innovation
innsbruck
ino
inofficiell
inofficiella
inom
inomhus
inornata
inoue
inra
inre
inreddes
inredning
inredningen
inrikes
inrikesminister
inriktad
inriktade
inriktat
inriktning
inriktningar
inriktningen
inrymmer
ins
insa
insamlade
insamling
insats
insatsen
insatser
insect
insecta
insecten
insectes
insectorum
insectos
insects
inseechiffres
insektenfamilie
insekter
insektsart
inseln
inser
insidan
inside
insignis
insikt
insjo
insjuknade
inskipp
inskra
inskrift
inskriften
inskription
inskriptionen
inskrivna
insla
inslag
inspekto
inspektor
inspelad
inspelade
inspelat
inspelning
inspelningar
inspelningarna
inspelningen
inspiration
inspirationska
inspirerad
inspirerade
inspirerades
inspirerat
inspirerats
inst
insta
instagram
installation
installerades
instiftade
instiftades
institut
instituta
institute
institutet
institutets
institution
institutionen
institutioner
instituto
instruktion
instruktioner
instrument
instrumental
instrumentet
insufficient
insufficiently
insularis
int
inta
intar
inte
integrated
integration
integrerad
integrerade
intel
intellektuella
intelligence
intelligens
intelligent
intendent
intensiv
intensiva
intensivt
inter
interactive
interaktiva
interesting
interio
interior
intermedia
intermedius
intern
interna
international
internationale
internationalen
internationell
internationella
internationellt
internet
internt
interrupta
intervall
interview
intervju
intervjuer
intet
intill
intilliggande
into
intog
intogs
intra
intressant
intressanta
intresse
intressen
intressera
intresserad
intresserade
intresset
intro
introducerad
introducerade
introducerades
introduceras
introduction
introduktion
intryck
inuti
inva
invaderade
invald
invalda
invaldes
invandrade
invandrare
invandring
invasion
invasionen
inventarier
inventering
inventory
inverkan
invertebrata
invertebrate
invertebrates
investerare
investeringar
invid
invigd
invigda
invigdes
invigning
invigningen
invigs
invigt
involverad
involverade
io
ioc
iok
iopi
ios
iowa
ip
iphiaulax
ipomoea
ir
ira
irak
irakiska
iran
iranfo
irans
iransk
iranska
ireland
irena
irene
irina
iris
irish
iriska
irisva
irla
irland
irlands
irma
iron
irving
irwin
is
isa
isaac
isabel
isabella
isabelle
isak
isaksson
isbn
ischen
ise
isen
isformationer
ishavet
ishockey
ishockeyfo
ishockeyklubbar
ishockeyma
ishockeysa
ishockeyspelare
ishockeyta
ishockeytra
isidro
isis
iska
isla
islam
islamisk
islamiska
island
islanders
islands
isle
isles
isnb
iso
isolerad
isolerade
isolering
isopod
isopoda
isopods
israel
israelisk
israeliska
israels
iss
issn
issue
ist
ista
istanbul
istiden
it
ita
ital
italia
italian
italiana
italiano
italien
italienfo
italiens
italiensk
italienska
italienske
italienskspra
italienskt
italy
ithaca
itis
its
itu
itunes
iucn
iv
iva
ivan
ivanovich
ivar
ivie
ivo
ivrig
iwatsuki
ix
ixodes
ixodida
ixora
iyat
iz
j
ja
jabal
jack
jackets
jackie
jackson
jacob
jacobi
jacobs
jacobsen
jacobson
jacobsson
jacobus
jacqueline
jacques
jade
jades
jaeger
jag
jaga
jagade
jagar
jagare
jagas
jagh
jago
jaguar
jahrb
jahrbu
jahre
jahren
jakarta
jake
jakob
jakobs
jakobsson
jakobstad
jakt
jakten
jaktflygplan
jaktplan
jaktstart
jalisco
jam
jamaica
jamaicanska
jamaicensis
james
jamie
jan
jana
jande
jane
janeiro
janet
janne
janson
jansson
januari
january
jap
japan
japanerna
japanese
japans
japansk
japanska
japanskt
japonica
japonicus
jar
jard
jari
jarl
jarlsgatan
jaroslav
jas
jason
java
javanica
javier
jawa
jay
jazz
jazzmusiker
jd
jda
jde
jden
jder
jdes
jdfo
jdhopp
jdpunkt
je
jean
jeanette
jeanne
jeekel
jeff
jefferson
jeffrey
jeg
jelena
jemen
jen
jena
jenkins
jennifer
jennings
jenny
jens
jensen
jeolla
jer
jeremy
jerevan
jerome
jerry
jersey
jerusalem
jerzy
jes
jesper
jesse
jessica
jesu
jesus
jet
jets
jewish
jfr
ji
jiang
jiangsu
jiangxi
jill
jim
jime
jimmy
jin
jinan
jlig
jliga
jligen
jliggjorde
jliggo
jlighet
jligheten
jligheter
jligheterna
jligt
jligtvis
jnict
jning
jningen
jo
joa
joachim
joakim
joan
joanna
job
jobb
jobba
jobbade
jobbar
jobbat
jobbet
jobling
jobs
joe
joel
joensuu
joet
joey
joh
johan
johann
johanna
johannes
johannesburg
johanneso
johannis
johans
johansen
johanson
johansson
johanssons
john
johnny
johns
johnson
johnsons
johnsson
johnston
joint
joki
jokkmokks
jon
jonas
jonathan
jones
jong
joniska
jonny
jonsson
jonva
jor
jord
jorda
jordan
jordanien
jordba
jordbruk
jordbrukare
jordbruket
jordbruksmark
jorden
jordens
jordlo
jorge
jos
jose
josef
josefin
josefina
josefus
joseph
josephine
josephson
josh
joshua
jour
jourbook
journ
journal
journalist
journalisten
journalister
journalistik
journey
joutsa
joy
joyce
jpeg
jpg
jr
js
jt
jtnant
jtnanten
ju
jua
juan
juana
juda
judar
judarna
judas
judd
jude
judendomen
judisk
judiska
judith
judo
judouto
judson
judy
jugoslavien
jugoslaviska
jukkasja
jul
julafton
julen
jules
juli
julia
julian
juliana
julianska
julie
julien
julio
julius
julkalender
julsa
july
jumping
jun
juncus
june
jung
jungfru
jungfrulinssla
jungfrulinsva
jungfrun
juni
junior
juniorer
juniorva
junk
juno
junonia
jupiter
jupiters
jura
juridik
juridisk
juridiska
juridiskt
jurij
juris
jurisdiktion
jurist
jurister
juristexamen
jury
juryn
juryns
jusqu
jussi
just
justice
justicia
justin
justitieminister
justitiera
justus
juvelvingar
juventus
jvm
jylland
jyva
jørgen
jørgensen
k
ka
kabel
kabul
kabupaten
kackerlackor
kackerlacksart
kad
kade
kades
kafe
kaffe
kai
kainuu
kairo
kaiser
kaiserlich
kaj
kajana
kajanaland
kajsa
kaktusva
kala
kalabrien
kaledonien
kalender
kalendern
kalfja
kaliber
kalifornien
kalix
kalixa
kalk
kalkma
kalksten
kall
kalla
kallad
kallade
kallades
kallar
kallas
kallaste
kallat
kallats
kallava
kallavesi
kalle
kallt
kalmar
kalyptorhynchia
kambodja
kamera
kameran
kameror
kamerun
kammare
kammaren
kammarens
kammarherre
kammarmusik
kammarra
kammarriksdagen
kamp
kampanien
kampanj
kampanjen
kampanjer
kampen
kamrater
kan
kanada
kanadafo
kanadas
kanadensisk
kanadensiska
kanagawa
kanal
kanalen
kanaler
kanalerna
kanarieo
kand
kande
kandet
kandidat
kandidater
kandidatexamen
kandidatur
kandiderade
kane
kang
kanon
kanonen
kanoner
kanonerna
kanotist
kanotister
kanotsport
kansas
kanske
kansler
kansli
kansson
kant
kantbra
kanten
kanter
kanton
kantonen
kaos
kap
kapacitet
kapell
kapellen
kapellet
kapellma
kapital
kapitel
kapitlet
kapitulation
kapitulerade
kaplan
kappa
kaprifolva
kaprisva
kapstaden
kapten
kaptenen
kapuschongbaggar
kar
kara
karakta
karakteristiska
karakteristiskt
karate
kardarspindlar
kardinal
kare
karel
karelen
karelska
karen
karesuando
kari
karibien
karibiska
karin
karl
karlberg
karleby
karls
karlsborg
karlsborgs
karlshamn
karlshamns
karlskoga
karlskrona
karlsruhe
karlsson
karlstad
karlstads
karna
karnataka
karny
karolina
karolinska
kaross
karpfiskar
karrer
karria
karsch
karsten
karta
kartan
kartla
kartnamnen
kartor
kas
kashmir
kasparyan
kasper
kassel
kast
kasta
kastade
kastar
kastas
kastilien
kasus
kat
katalanska
katalog
katalonien
kataloniens
katarina
katastrof
katastrofen
kate
katedral
katedralen
kategori
kategorier
kategorierna
kategorin
kategoriserar
kategoriseras
katherine
kato
katolicismen
katolik
katoliker
katolsk
katolska
katrineholm
katrineholms
kats
katt
katten
katter
katydids
kaukasus
kavalleri
kavalleriet
kawasaki
kay
kazakstan
kazan
kb
kbin
kd
ke
kecamatan
kedja
kedjan
keep
kehys
keith
kejsar
kejsardo
kejsardubbelfotingar
kejsare
kejsaren
kejsarens
kejsarinna
kejsarinnan
kejserliga
keller
kelly
keltiska
kelurahan
kemedel
kemi
kemikalier
kemisk
kemiska
kemiskt
kemist
kemister
kempe
ken
kenklimat
kennedy
kenneth
kenntnis
kenntniss
kenny
kennzeichnung
kens
kensley
kent
kentucky
kenva
kenya
ker
kerala
keramik
keramiker
kerhet
kerheten
kerhetsra
kerhetstja
kerlund
kerman
kermanshah
kern
kerr
kers
kersta
kerstin
kerstro
kert
kesson
ket
kets
kevan
kevin
kew
key
keyboard
keyboards
keys
keyserling
kf
kfa
kforskare
kfum
kg
kha
khan
khl
khorasan
khuzestan
ki
kid
kids
kieffer
kiel
kiev
kig
kiga
kigt
kikki
kill
killer
killing
kilo
kilogram
kilometer
kils
kilstritar
kim
kimitoo
kin
kina
kinabalu
kinafo
kinas
kinberg
kind
kinda
kindberg
kindpansrade
kinds
kinesisk
kinesiska
kinesiskt
kinestra
king
kingdom
kings
kingston
kinshasa
kirby
kirgizistan
kiriakoff
kirimojava
kirk
kirkaldy
kirke
kirsten
kiruna
kirurg
kirurgi
kirurgiska
kirwan
kiselsvampar
kiss
kista
kit
kitty
kivija
kjell
kjellberg
kk
kka
kklokrypare
kkvartett
kl
kla
kladogram
klagare
klagaren
klagoma
klan
klanen
klang
klar
klara
klarade
klarar
klarat
klare
klarinett
klart
klas
klass
klassades
klassas
klasse
klassen
klasser
klasserna
klassificeras
klassificering
klassiker
klassisk
klassiska
klassiskt
klaus
klaviatur
klein
klicka
kliga
klimat
klimatet
klimatfo
klimatzonen
kliniken
klinisk
klint
klintberg
klipp
klippa
klippan
klippiga
klippor
klo
klocka
klockan
klockare
klockljungssla
klockor
klockorna
klockstapel
klockstapeln
klockva
klokrypare
klor
kloster
klosters
klostret
klostrets
klotkra
klotspindlar
klovedlar
klubb
klubbar
klubbarna
klubben
klubbens
klubbkarria
klubblag
kluwer
km
kmb
kna
knad
knade
knades
knapp
knappast
knappt
knar
knas
knat
knats
knen
kneord
knight
knights
kning
kningar
kningarna
kningen
kniv
knivsta
kno
knop
knott
know
knowledge
known
knox
knud
knut
knuten
knuth
knutna
knutsson
knyta
ko
koalition
koalitionen
kobayashi
kobe
koch
kock
kod
koden
koillismaa
kol
kola
kolbe
koldioxid
kolibrier
kolka
kollapsade
kollega
kollegor
kollektiv
kollektivtrafik
kollision
koloni
koloniala
kolonier
kolonierna
kolonin
kolonner
kolva
kom
koma
kombination
kombinationen
kombinationer
kombinera
kombinerad
kombinerade
kombinerar
kombineras
kombinerat
komedi
komedier
komedifilm
komedifilmer
komedin
komediserien
komet
kometen
komiker
komiska
komma
kommakra
kommande
kommando
kommen
kommendant
kommendo
kommentar
kommentarer
kommenterade
kommer
kommersiell
kommersiella
kommersiellt
komminister
kommissarie
kommission
kommissiona
kommissionen
kommissionens
kommit
kommitte
kommo
kommun
kommunal
kommunala
kommunalfo
kommunalpolitiker
kommunalra
kommunalt
kommunen
kommunens
kommuner
kommunerna
kommunfullma
kommunhuvudort
kommunicera
kommunikation
kommunikationer
kommunister
kommunisterna
kommunistisk
kommunistiska
kommunistpartiet
kommunreformen
kommuns
kommunstyrelsen
kommunstyrelsens
kommunvapen
kompakt
kompani
kompanier
kompaniet
kompetens
kompis
komplement
komplett
kompletta
kompletterades
kompletteras
komplex
komplexa
komplexet
komplicerad
komplicerade
komplikationer
komponent
komponenter
komponera
komponerad
komponerade
komponerades
komponerat
komposition
kompositioner
komposito
komuna
kon
koncentration
koncentrationsla
koncentrerad
koncentrerade
koncept
konceptet
koncernen
konferens
konferensen
konferenser
konflikt
konflikten
konflikter
kong
kongelige
kongl
kongliga
kongo
kongress
kongressen
kongressledamot
kongressvalet
konkret
konkreta
konkurrens
konkurrensen
konkurrent
konkurrenten
konkurrenter
konkurrera
konkurrerande
konkurs
konrad
konsekvens
konsekvenser
konsekvenserna
konsekvent
konsert
konserten
konserter
konserthus
konsertturne
konservativ
konservativa
konsonant
konsonanter
konspirato
konst
konsta
konstakademien
konstant
konstantin
konstantinopel
konstatera
konstaterade
konstaterar
konsten
konstens
konstfack
konstfo
konstgjorda
konsthall
konsthantverk
konsthantverkare
konsthistoria
konsthistoriker
konstho
konstitution
konstitutionella
konstitutionen
konstmuseum
konstna
konstruera
konstruerad
konstruerade
konstruerades
konstruerat
konstruktion
konstruktionen
konstruktioner
konstrukto
konstskola
konstutsta
konstverk
konsul
konsult
konsumenter
konsumtion
kontakt
kontaktade
kontakten
kontakter
kontinentala
kontinenten
kontinuerlig
kontinuerligt
kontor
kontoret
kontrabas
kontrakt
kontrakterad
kontraktet
kontraktsprost
kontrast
kontroll
kontrollbehov
kontrollen
kontrollera
kontrollerad
kontrollerade
kontrollerar
kontrolleras
kontroverser
kontroversiell
kontroversiella
konung
konungen
konungens
konventionella
konventionen
konverterade
kooperativa
koordinater
koordinaterna
kopia
kopior
koppar
kopparbergs
koppla
kopplad
kopplade
kopplas
kopplat
koppling
kopplingar
kopplingen
kor
korallart
koralldjur
koranen
korea
korean
koreanska
koreograf
koret
korets
korgblommiga
korkester
korn
koronis
kororgel
korpo
korrekt
korrekta
korruption
kors
korsa
korsade
korsar
korsblommig
korsblommiga
korset
korsets
korsfa
korsholm
korsika
korsna
korsning
korsningen
korsta
kort
korta
kortare
kortdistanslo
kortet
kortfilm
kortfilmen
kortfilmer
kortspel
korttungebin
kortvingar
kos
kosovo
kost
kosta
kostade
kostar
koste
kostermans
kostnad
kostnaden
kostnader
kostnaderna
kostym
kota
kotka
kottelat
kouvola
kova
koza
kr
kra
kraatz
krabbe
krabbspindlar
krade
kraft
kraften
krafter
krafterna
kraftfull
kraftfulla
kraftig
kraftiga
kraftigare
kraftigt
kraftverk
kraftverket
kragglanssteklar
krako
kramer
kramfors
kransblommiga
krantz
krar
kraschade
krater
kratern
kratrar
kraus
krause
krav
kraven
kravet
kreativa
krediterad
kreis
kremlor
kreta
krets
kretsar
kretsen
kreuger
krig
krigare
krigen
kriget
krigets
krigfo
krigsa
krigsbrott
krigsfa
krigsfo
krigsho
krigsmakten
krigsmateriel
krigsskolan
krigsslutet
krigsutbrottet
krigsvetenskapsakademien
krim
kriminalva
kriminella
krims
kring
kringar
kringliggande
kris
krisen
krishna
kristallen
kristdemokraterna
kristen
kristendom
kristendomen
kristendomens
krister
kristet
kristi
kristian
kristiania
kristianstad
kristianstads
kristin
kristina
kristinas
kristine
kristinehamn
kristinehamns
kristna
kristofer
kristoffer
kristus
krita
kriterier
kritik
kritiken
kritiker
kritikerna
kritiserade
kritiserades
kritiserat
kritiserats
kritisk
kritiska
kritiskt
kro
kroatien
kroatiens
kroatisk
kroatiska
krog
krokoms
kroksjo
kroktja
krombein
krona
kronan
kronans
kronisk
kronobergs
kronologisk
kronor
kronorden
kronprins
kronprinsen
kronprinsessan
kropp
kroppar
kroppen
kroppens
kroppsla
krossa
kru
krucifix
krukva
krupp
kryddor
kryssare
kryssba
ks
ksheat
kskra
kspindlar
kt
kta
ktad
ktade
ktare
ktaren
ktat
kte
kten
ktena
ktens
ktenskap
ktenskapet
kter
kterna
ktes
ktestillho
ktet
ktetsom
ktforskarfo
kth
ktig
ktiga
ktigaste
ktige
ktiges
ktigheten
kting
ktingar
ktnamnet
ktning
ktskap
ku
kuba
kubanska
kubikmeter
kula
kull
kulla
kullander
kullar
kulle
kullen
kulminerade
kulo
kulor
kulsprutor
kulsto
kultur
kulturarv
kulturell
kulturella
kulturellt
kulturen
kulturer
kulturfo
kulturhistorisk
kulturhistoriska
kulturhistoriskt
kulturhus
kulturhuset
kulturma
kulturmiljo
kulturpris
kulturstipendium
kulturva
kumla
kund
kunde
kunden
kunder
kunderna
kung
kunga
kungado
kungafamiljen
kungahuset
kungar
kungarike
kungariket
kungarna
kungen
kungens
kungl
kunglig
kungliga
kungligheter
kungligt
kungo
kungsa
kungsbacka
kungsga
kungsgatan
kungsholmen
kungsholms
kungsljus
kungso
kungstra
kunming
kunna
kunnat
kunskap
kunskapen
kunskaper
kunst
kunth
kuntze
kuopio
kuperad
kur
kurator
kurdiska
kurdistan
kuriosa
kuriren
kurs
kursen
kurser
kurt
kurva
kurz
kusin
kust
kusten
kuster
kustklimat
kustna
kustomra
kuusamo
kuwait
kv
kva
kvadratkilometer
kvadratmeter
kval
kvala
kvalade
kvalet
kvalificera
kvalificerad
kvalificerade
kvalificerat
kvalite
kvalitet
kvaliteten
kvalomga
kvalserien
kvalspel
kvalspelet
kvalster
kvalsterart
kvar
kvarken
kvarlevor
kvarn
kvarnar
kvarnen
kvarsta
kvarstod
kvarter
kvarteren
kvarteret
kvarts
kvartsfinal
kvartsfinalen
kvartsfinaler
kvarvarande
kvinna
kvinnan
kvinnans
kvinnlig
kvinnliga
kvinnofo
kvinnohistoria
kvinnonamn
kvinnor
kvinnorna
kvinnornas
kvinnoro
kvinnors
kvistar
kw
ky
kyla
kyle
kymmenedalen
kyo
kyoto
kyrilliska
kyrka
kyrkan
kyrkans
kyrkas
kyrkby
kyrkbyn
kyrklig
kyrkliga
kyrkligt
kyrkobokfo
kyrkobyggnad
kyrkobyggnaden
kyrkobyggnader
kyrkoga
kyrkoherde
kyrkoherden
kyrkomo
kyrkor
kyrkora
kyrkorna
kyrkorummet
kyrksla
københavn
l
la
lab
label
labem
laboratorio
laboratorium
laboratory
labour
labrador
lac
laccophilus
lacordaire
lacroix
lad
lada
ladda
laddade
laddas
laddning
lade
lades
ladies
laduga
lady
laevis
lag
laga
lagar
lagarna
lagen
lagens
lager
lagercrantz
lagerkvist
lagerlo
lagerva
laget
lagets
lagfo
lagkapten
lagligt
lagma
lagman
lago
lagom
lagos
lagra
lagras
lagring
lagsaga
lagstiftande
lagstiftning
lagstiftningen
lagt
lagta
lagts
laguna
laholms
lahtis
laila
lake
lakers
lakes
lallemand
lam
lama
lamarck
lamb
lambda
lambers
lambert
lameere
lamellicornia
lamiaires
lamiinae
lamm
lan
lancashire
lancaster
lance
lanceolata
lancia
land
landa
landade
landarea
lande
lander
landes
landet
landets
landho
landhockey
landhockeyspelare
landkreis
landlungsna
landma
landomra
lands
landsbygd
landsbygden
landsfiskalsdistrikt
landsflykt
landsfo
landsho
landskamp
landskamper
landskap
landskapen
landskapet
landskapsma
landskommun
landskommunen
landskommuner
landskrona
landslag
landslaget
landslagskarria
landslagsspelare
landsma
landsmannen
landsteg
landsting
landstinget
landsva
lane
lang
lange
langes
language
languages
lanka
lanserade
lanserades
lanseras
lanseringen
lantbrukare
lantbruksakademien
lantbruksuniversitet
lantma
lantmannapartiet
laos
laporte
lappland
lapplands
lappmark
lar
lara
lare
laren
large
larna
larry
lars
larsen
larskola
larson
larsson
larssons
larva
larven
larver
larverna
las
lasarett
laser
lasioglossum
lasse
last
lastbil
lastbilar
lat
lata
late
lateralis
latifolia
latifrons
latin
latinamerika
latinets
latinsk
latinska
lato
latreille
laura
lauren
laurence
laurent
laurentii
laurentius
lauri
laurie
lausanne
lava
laval
lavar
lavart
law
lawrence
laws
lax
laxa
layer
lazio
lb
lba
lbevarade
lby
lc
ld
lda
ldar
lde
lden
lder
ldern
ldes
ldet
ldiga
ldigt
ldjur
ldl
ldlo
ldlussteklar
ldpaddor
ldpaddorna
ldralo
ldrar
ldrarna
ldrarnas
ldre
lds
ldsam
ldsamma
ldsamt
ldsta
ldste
ldstritar
ldsvik
ldsviks
ldta
le
lea
leach
lead
leader
leaf
leafl
leafs
league
leagues
leander
leandra
learning
leave
leaves
leben
lecanora
leconte
led
leda
ledamo
ledamot
ledande
ledare
ledaren
ledarna
ledarskap
ledd
ledda
ledde
leddes
leddjur
leden
leder
ledes
ledning
ledningen
leds
ledsna
lee
leech
leeds
leende
leeuwen
leffler
left
legacy
legal
legat
legend
legendariska
legenden
legender
legends
legumes
leguminosae
leh
lehmann
lei
leicester
leicestershire
leiden
leif
leigh
leijonhufvud
leioproctus
leipzig
leipzigs
leita
leitao
lejon
lejonet
lek
leka
leken
leker
lekma
leksaker
leksand
leksands
leksikon
lektor
lempke
lemy
len
lena
lenin
leningrad
lennart
lennon
lens
leo
leon
leonard
leonardo
leone
leonhard
leopard
leopold
leotiomycetes
lepage
lepanthes
lepeletier
lepidoptera
lepindex
leppa
leptogaster
leptogenys
leptotarsus
leptothorax
ler
lera
leri
leriet
leroy
lerums
les
leslie
lester
lestin
let
leta
letade
letar
lethe
lets
lett
letter
letters
lettiska
lettland
lettlands
lettres
leucania
leur
lev
leva
levande
levde
level
lever
leveranto
leverera
levererade
levererades
levereras
levi
levin
levnad
levnadssa
levt
levy
lewenhaupt
lewis
lex
lexikon
lexington
leyden
lez
lfa
lfeniga
lft
lften
lg
lga
lgo
lhasa
lhavare
lhavaren
li
lia
liam
liang
liaoning
lias
liaslight
liasnames
lib
libanon
liber
liberal
liberala
liberaler
liberalerna
liberec
liberia
libertad
libertadores
liberty
libnotes
librairie
library
libre
libretto
librettot
libris
libyen
lice
licens
licentiat
lich
lichenized
lichenol
lida
lidande
lider
lides
lidingo
lidit
lidko
lie
liechtenstein
lied
lieftinck
lies
lif
life
lifespecies
lig
liga
ligacupen
ligama
ligamatcher
ligan
ligans
ligga
liggande
ligger
ligheter
light
lightning
lights
ligier
ligt
ligue
lik
lika
likaledes
likasa
like
likhet
likheter
likna
liknade
liknande
liknar
liknas
liksom
likt
likva
lil
lila
lilian
lilja
liljeholmen
liljeva
liljevalchs
lill
lilla
lille
lillehammer
lillieho
lillsjo
lilly
lily
lim
lima
limburg
limenitis
limited
limnophila
limnophora
limo
lin
lina
lincoln
lincolnshire
lind
linda
lindahl
lindau
lindberg
lindbergia
lindblad
lindblom
linde
lindegren
linden
linder
lindesbergs
lindfors
lindgren
lindgrens
lindh
lindholm
lindl
lindley
lindleyana
lindman
lindqvist
lindroth
lindsay
lindsey
lindstedt
lindstro
line
linear
linearis
lineata
lineatus
linegrey
lines
ling
linge
lingvister
linja
linje
linjelopp
linjen
linjer
linjerna
link
linko
linn
linnaea
linnaeus
linnavuori
linne
linnea
linnean
linsley
linus
linux
linyphiidae
linz
lio
lion
lionel
lions
liparetrus
liparis
lipotriches
lipsiae
liriomyza
lis
lisa
lisbeth
lisbon
lise
liseberg
lissabon
lissonota
list
lista
listade
listades
listan
listar
listas
liste
listor
listorna
listplaceringar
lists
lita
litauen
litauiska
lite
liten
liter
literary
literature
liters
litet
lithobius
lithocarpus
litsea
littera
litteratur
litteraturen
litteraturhistoria
litteraturkritiker
litteraturpris
litteratursa
litteraturvetare
litteraturvetenskap
litteris
little
littoralis
liu
liv
livba
live
livealbum
liverpool
lives
livet
livets
livgarde
livgardet
livgrenadja
living
livland
livlig
livna
livorno
livregementets
livskraftig
livsla
livsmedel
livsmiljo
livsstil
livstid
livstids
lix
lizards
lj
lja
ljaktligen
ljande
ljare
ljaren
ljarna
ljas
ljd
ljda
ljde
ljden
ljder
ljdes
ljdskriget
lje
ljelse
ljer
ljeslagare
ljning
ljningen
ljs
ljt
ljubljana
ljud
ljudet
ljudmix
ljudtekniker
ljung
ljungans
ljungberg
ljungby
ljunggren
ljungordningen
ljungstro
ljungva
ljus
ljusa
ljusare
ljusdal
ljusdals
ljuset
ljusets
ljusfo
ljusgra
ljuska
ljusnans
ljusnarsbergs
ljusstyrka
ljust
ljuva
lk
lka
lkar
lken
lkommen
ll
lla
llan
lland
llande
llanden
llandena
llandet
llandevis
llano
llans
llar
llare
llaren
llarna
llas
llba
llbar
llbara
llbart
llby
lld
llda
llde
lldes
lldhet
lle
llefors
lleida
llen
llena
llens
ller
lles
llet
llets
llfo
llha
llig
lliga
llighet
lligt
llingby
llinge
llit
llits
llivare
llkod
llna
llning
llningar
llningarna
llningen
llningssa
llo
llop
llopet
llor
llorna
lloyd
llplats
lls
llsfo
llsjo
llskap
llskapet
llskapets
llstillsta
llstro
llsynt
llsynta
llt
llts
lm
lma
lmb
lmp
ln
lndal
lndals
lning
lningar
lningarna
lningen
lns
lo
lobanov
lobata
lobelia
local
localities
loch
locis
lock
locka
lockade
lockar
lockheed
locustidae
locusts
lodge
loew
log
logan
logik
logiska
logo
logotyp
logunov
loi
loir
loire
loiret
lojalitet
lojo
lok
lokal
lokala
lokalbefolkningen
lokalen
lokaler
lokalerna
lokalt
loken
loket
lokomotiv
lola
loma
lomas
lombardiet
lomma
lomtja
lond
london
londons
lonely
long
longchamps
longicauda
longico
longicorn
longicornes
longicornia
longicornis
longifolia
longipennis
longipes
longirostris
look
looking
lopes
lopez
lopp
loppart
loppet
lor
loranthaceae
lord
lorentz
lorenz
lorenzo
lorestan
loricariidae
lorraine
los
loss
lost
lot
lothringen
lotta
lottning
lotus
lou
louis
louise
louisiana
lov
lova
lovade
lovande
lovar
lovat
love
lover
lovers
lovisa
lovsa
low
lowe
lowell
lower
lp
lpa
lpare
lpen
lper
lpga
lpmedel
lpt
lpte
ls
lsa
lsan
lsare
lse
lsen
lsinge
lsingland
lsinglands
lsjo
lska
lskad
lskade
lskar
lskare
lskarinna
lskillnad
lsko
lskytt
lsning
lsningsarme
lso
lsova
lsson
lsta
lstra
lsvampar
lt
lta
ltar
ltare
ltd
lte
lten
lter
ltesasteroider
ltet
ltid
ltja
ltmarskalk
lts
ltta
lu
luc
luca
lucas
lucena
lucia
lucida
lucien
lucius
luck
lucky
lucy
ludvig
ludvika
ludwig
luer
luft
luften
luftfo
lufttemperatur
luftva
luftwaffe
lugi
lugn
lugna
lugnt
lugubris
lui
luigi
luis
luka
lukas
luke
lukt
lulea
lulesamiska
luna
lunar
lund
lunda
lundberg
lundby
lunde
lundell
lundgren
lundh
lundin
lundkvist
lundquist
lundqvist
lunds
lundstro
lunginflammation
lupiner
lupinus
lusflugor
lust
lutea
luther
luthers
luthersk
lutherska
lutning
lutzomyia
luxemburg
luz
luzern
luzon
lv
lva
lvakt
lvakten
lvakter
lvarez
lvbetitlade
lvbiografi
lvbiografiska
lvdalens
lven
lvens
lvfo
lvklart
lvmord
lvportra
lvs
lvsborg
lvsborgs
lvsbyns
lvsjo
lvsta
lvstyre
lvt
ly
lyangouzov
lycaena
lycka
lyckad
lyckade
lyckades
lyckan
lyckas
lyckats
lycklig
lyckliga
lyckligt
lycksele
lycophytes
lycosa
lycosidae
lyda
lydde
lyder
lydia
lyft
lyfta
lyfte
lyfter
lyfts
lyktstritar
lyman
lynch
lynn
lynne
lynx
lyon
lyons
lyrik
lyriska
lysande
lysandra
lyser
lyssna
lyssnade
lyssnar
m
ma
maas
mac
macaranga
macdonald
machimus
machine
macintosh
mack
mackenzie
macleay
macmillan
macquart
macrocarpa
macromitrium
macrophylla
macropsis
maculata
maculatus
maculipennis
mad
madagascar
madagascariensis
madagaskar
madame
made
madeira
madeleine
madero
madhya
madison
madness
madonna
madrid
madsen
mag
magasin
magasinet
magazine
magdalena
magdeburg
mage
magen
maggie
magi
magic
magiska
magister
magisterexamen
magna
magnetfa
magnetiska
magnifica
magnitud
magnolia
magnum
magnus
magnusson
maguire
mah
maharashtra
mahunka
mai
maiden
mail
main
maine
mainz
maj
maja
majesta
major
majoren
majoritet
majoriteten
majs
maka
makarna
make
makedonien
makedonska
maken
makens
makes
making
makt
makten
makter
makto
mal
mala
malabarba
malackahalvo
maladera
malar
malartade
malawi
malax
malay
malayan
malayana
malaysia
malcolm
male
malgache
mali
malicky
malin
malloch
mallorca
malm
malmberg
malmen
malmga
malmo
malmsjo
malmstro
malo
malpighiaceae
malpigiaordningen
malta
malte
malung
malvava
mama
mamma
mammal
mammals
man
management
manager
mancha
manche
manchester
mandat
mandatfo
mandatperiod
mandatperioden
mande
mandolin
manfred
manga
mangan
manhattan
mani
manifest
manila
manitoba
mankho
manlig
manliga
mann
manna
mannen
mannens
mannerheim
mannheim
manning
mano
mans
manskap
mansko
mansnamn
manson
mantal
mantel
mantidae
mantodea
mantodeasf
manual
manualer
manuel
manuell
manuellt
manus
manuscript
manuset
manusfo
manuskript
many
mao
map
maple
mapp
maps
mar
mara
maranha
marathon
maraton
marc
marcel
march
marche
marco
marcos
marcus
mare
margaret
margareta
margaretha
margarita
marge
marginal
marginata
marginatus
margit
margot
marguerite
mari
maria
mariae
marian
mariana
marianne
mariano
marias
marie
mariehamn
mariestad
mariestads
marika
marilyn
marin
marina
marine
marinen
marinens
marinka
marino
marinos
mario
marion
marit
maritima
maritime
marius
mark
marka
markant
marken
marker
markera
markerad
markerade
markerar
markeras
market
markis
marklund
marknad
marknaden
marknader
marknadsfo
marko
marks
marktemperatur
markus
markytans
marlborough
marley
marmor
marmorata
marne
maroc
marocko
marrakech
mars
marsch
marschen
marscherade
marsdenia
marseille
marsh
marshall
marshallo
marskalk
marstrand
mart
marta
martens
martha
marti
martial
martin
martina
martinez
martini
martinique
martins
martinson
martius
marty
martyr
marusik
marvel
marvin
marx
mary
maryland
mas
masdevallia
maserati
mask
maskin
maskinen
maskiner
mason
mass
massa
massachusetts
massakern
massan
massiv
massiva
massmedia
massor
mast
master
mastering
masters
masugn
mat
mata
matas
match
matchen
matchens
matcher
matcherna
mate
matelea
matematik
matematiken
matematiker
matematikern
matematisk
matematiska
maten
mateo
mater
materia
material
materialet
materiel
materiella
math
mathbb
mathbf
mathcal
mathias
mathilda
mathrm
matilda
matlagning
mato
matra
matrikel
matris
matrix
mats
matsal
matsumura
matsumurana
matt
matter
matteus
matthew
matthews
matthias
matti
mattias
matts
mattsson
maud
mauretanien
maurice
mauritius
mauritz
max
maxi
maxillaria
maxim
maxima
maximal
maximala
maximalt
maximilian
maximum
maximus
maxwell
may
maya
mayenne
mayer
mayo
mayor
mayr
mazandaran
mazur
mazz
mb
mberg
mbete
mbeten
mbetet
mbetets
mbetsma
mbetsman
mc
mccarthy
mccartney
mccoy
mcdiarmid
mcdonald
mcdunnough
mcintosh
mckamey
mckenzie
mclachlan
mclaren
mcmurtry
md
mda
mde
mdes
me
mea
mealybugs
mean
mecklenburg
mecoptera
med
medal
medalj
medaljen
medaljer
medaljfo
medaljo
medaljtabell
medan
medarbetare
medborgare
medborgarna
medborgarra
medborgarskap
meddela
meddelade
meddelades
meddelande
meddelanden
meddelar
mededelingen
medeiros
medel
medela
medeldistanslo
medelhavet
medelhavsklimat
medelho
medelpad
medelstor
medelstora
medeltemperaturen
medeltid
medeltida
medeltiden
medeltidens
medelva
medetera
medfo
medgav
medger
medgrundare
medh
medhja
media
medical
medici
medicin
medicine
medicinsk
medicinska
mediedatabas
medier
medierna
medieval
medina
meditation
mediterranean
medium
medlem
medlemmar
medlemmarna
medlemmen
medlemskap
medlemsla
medlemsstat
medlemsstater
medlemsstaterna
medley
medvedev
medverka
medverkade
medverkan
medverkande
medverkar
medverkat
medvetande
medvetandet
medveten
medvetet
medvetna
meet
meg
mega
megachile
megalopodidae
megaselia
meigen
meijere
mein
mej
mekanik
mekanisk
mekaniska
mekaniskt
mel
melaleuca
melanagromyza
melanargia
melander
melanoplus
melastomataceae
melbourne
melichar
melin
melissa
melitaea
mellan
mellankrigstiden
mellano
mellanrum
mellanvikt
mellersta
mellicta
mello
melo
melodi
melodier
melodifestivalen
melodin
melolonthidae
melolonthiden
mem
members
membracoidea
memecylon
memoarer
memoir
memoires
memoirs
memorial
memorie
memory
memphis
men
mena
menade
menar
menas
mendoza
mening
meningar
meningen
mens
ment
mental
mentala
mentor
mer
mera
mercedes
mercury
merely
meridionalis
merit
meriter
merkurius
merparten
merr
merrill
mes
mesa
mesnil
mesochorus
mesopotamien
mesosemia
messias
messier
messina
mest
mesta
mestadels
met
meta
metal
metall
metaller
metallica
metallum
metaphycus
metcalf
meteorolog
meteorus
meter
meters
metod
metoden
metoder
metro
metropolitan
mets
metz
meurthe
meuse
mex
mexican
mexicana
mexicanus
mexico
mexikansk
mexikanska
mexiko
mexikofo
mexikos
mey
meyer
meyers
meyrick
mez
mezzosopran
mfa
mff
mfo
mg
mgm
mhnt
mhz
mi
mia
miami
mich
michael
michail
michel
michele
michelle
michigan
michoaca
mick
micke
mickey
miconia
micrantha
microlepidoptera
microphylla
microsoft
mid
middag
middle
midga
midland
midnatt
midnight
mie
mifflin
mig
migeon
migh
mighty
migration
miguel
mika
mikael
mike
mikhail
mil
milan
milano
mild
milda
mile
miles
milita
military
miljard
miljarda
miljarder
miljo
miljon
miljoner
milk
mill
millennium
miller
milles
millidge
millimeter
million
millipedes
mills
milne
milo
milos
milton
milwaukee
mimosa
mimosaceae
mimosor
min
mina
minardi
minas
mind
mindanao
minde
mindera
mindre
mine
minelli
mineral
minerarflugor
ming
mini
miniatyr
minima
minimum
minimus
miniserie
minista
minister
ministern
ministrar
ministry
minna
minne
minneapolis
minnen
minner
minneslunden
minnesma
minnesota
minnessten
minnesva
minnet
minns
minor
minoritet
minoriteter
minsk
minska
minskad
minskade
minskades
minskar
minskas
minskat
minskning
minsks
minst
minsta
minus
minut
minuta
minuten
minuter
minuters
minutus
mio
miq
miquel
mir
mira
mirabilis
mirador
miranda
miriam
mirror
misc
miscellaneous
mishchenko
miss
missa
missade
missbruk
missfo
misshandel
missing
mission
missiona
missionsfo
mississippi
misslyckade
misslyckades
misslyckande
misslyckas
misslyckat
misslyckats
missno
missouri
missta
misstag
misstankar
miste
mister
mit
mitchell
mites
mitt
mitteilungen
mittemot
mitten
mittfa
mix
mixed
mixning
miyazaki
mja
mjande
mjandet
mjo
mjuk
mjuka
mjukare
mjukt
mjukvara
mk
ml
mlb
mligen
mlikhet
mling
mm
mma
mmade
mman
mmande
mmar
mmare
mmarna
mmas
mme
mmelse
mmelser
mmelserna
mmen
mmenattsla
mmens
mmer
mmig
mmor
mn
mna
mnad
mnade
mnades
mnande
mnar
mnare
mnas
mnat
mnats
mnd
mnda
mnde
mnden
mndens
mnder
mndes
mne
mnen
mnena
mner
mnet
mning
mningar
mningarna
mningen
mningstyper
mnras
mns
mnt
mnts
mnva
mo
moa
moberg
mobil
mobila
mobile
mobiltelefoner
moc
mod
mode
model
modell
modellen
modeller
modellerna
modena
moder
moderat
moderata
moderaterna
moderfo
moderklubb
moderklubben
modern
moderna
modernare
moderne
moderniserades
modernisering
moderns
modernt
modersma
modesta
modestus
modet
modifierad
modifierade
modo
moe
mogenhetsexamen
mogoplistinae
mohamed
mohammad
mohammed
moire
moires
mol
molander
moldavien
molecular
molekyla
molekyler
molin
molina
moll
mollis
mollusca
mollusks
molly
moln
molophilus
moluckerna
moment
mon
mona
monachii
monaco
monark
monarken
monarki
monarkin
monde
money
mongolerna
mongolia
mongoliet
mongoliska
monica
monika
monkey
monne
mono
monogr
monografieen
monograph
monographia
monographie
monographs
monomorium
monopol
monotypisk
monroe
monrovia
mons
monster
monsters
monsunklimat
mont
montagne
montana
montanus
monte
montenegro
monterad
monterade
monterades
monteras
montes
montevideo
montgomery
monthly
monti
monticola
montpellier
montre
montreal
monument
monumentet
moon
moore
mor
mora
moraes
moral
morales
moraliska
moran
morbihan
morbror
mord
morden
mordet
mordfo
more
morel
morelos
moreno
morfar
morfars
morgan
morgon
morgonen
mori
moritz
morley
mormor
mormors
morning
moro
morpho
morphological
morphology
morris
morrison
morro
mors
morse
morten
mortensen
morton
mos
mosaik
mosaiktrollsla
moscou
moscow
mose
moselle
moser
moses
moske
moskva
moskvas
moss
mossa
mossdjur
mossdjursart
mosse
mosses
mosslummerva
mosslumrar
most
moster
mot
motala
motga
mother
motion
motiv
motiven
motivering
motiveringen
motivet
moto
motogp
motor
motorcykel
motorcyklar
motorer
motorerna
motorn
motors
motorsport
motorsportevenemang
motorva
motsa
motsats
motsatsen
motsatt
motsatta
motsatte
motsta
motsvarade
motsvarande
motsvarar
motsvaras
motsvarighet
motsvarigheten
motsvarigheter
mott
motta
mottagande
mottagare
mottagaren
mottagit
mottog
mottogs
motverka
mound
mount
mountain
mountains
mouse
move
movement
movie
mowd
moyle
mozart
mp
mpa
mpad
mpade
mpades
mpande
mpar
mpas
mpat
mpe
mplig
mpliga
mpligt
mpning
mpningar
mpningen
mr
mrac
mrades
mre
mrs
ms
msa
mska
mst
msta
mstad
mstads
mste
mstedt
msunds
mt
mta
mtad
mtade
mtades
mtar
mtat
mte
mtland
mtlands
mtning
mts
mtv
mu
much
muell
mueller
muelleri
muesebeck
muhammad
muhammed
muir
mullba
muller
mullvadsloppor
multi
multiflora
multimedia
multiplicity
mun
mundi
munich
municipal
municipalities
municipality
municipalsamha
municipio
munk
munkar
munkedals
munnen
munro
munspel
munthe
mur
murar
murarna
murcia
murder
muren
murphy
murray
mus
musa
musc
musca
musci
muscicapidae
muscol
muscorum
muse
museer
museet
museetmoderna
museets
musei
museo
museu
museum
museums
music
musica
musical
musik
musika
musikal
musikalbum
musikalen
musikaler
musikalisk
musikaliska
musikaliskt
musikdirekto
musiken
musiker
musikern
musikfo
musikgrupp
musikgruppen
musikgrupper
musikho
musikinstrument
musikka
musikla
musikproducent
musikproducenter
musiksinglar
musikvideo
musikvideon
musikvideor
muskler
musko
muslim
muslimer
muslimsk
muslimska
musse
musselart
musselkra
musslor
mussolini
must
mustafa
mutant
mw
my
myanmar
mycalesis
mycetophila
mycken
mycket
mycol
mycologia
mycomya
mycosphaerella
mycosphaerellaceae
mycotaxon
myeon
myers
myllflugor
mymaridae
myndighet
myndigheten
myndigheter
myndigheterna
mynnar
mynning
mynningen
mynt
myntades
myrart
myrcia
myrdal
myriapod
myriapoda
myrlejonsla
myrmarachne
myrmecophilinae
myror
myrsine
myrtenordningen
myrtenva
mysida
mysidae
myspace
mystery
mystisk
mystiska
myten
myter
mytologi
mytologin
mytologiska
møller
n
na
nac
nach
nachrichten
nacional
nacka
nacke
nacken
nad
nade
naden
nader
naderna
naders
nades
nadu
nagano
nagoya
nagu
nagy
nairobi
nakai
naken
nakna
nalle
nam
name
names
namibia
namn
namna
namnen
namnet
namngav
namngavs
namngiven
namngivna
namnsdag
nan
nana
nanchang
nancy
nande
nanjing
nanning
nantes
nanus
napoleon
napoleonkrigen
napoleons
napoli
nar
narantal
narantalet
nare
naren
narendran
narita
narkotika
narna
narva
nas
nasa
nascar
nash
nashville
nassau
nat
natal
natalensis
natalia
natalie
nathan
nathaniel
nation
national
nationale
nationalekonom
nationalekonomer
nationalekonomi
nationalencyklopedin
nationalfo
nationalis
nationalism
nationalistiska
nationalitet
nationalmuseum
nationalmuseumnationalmuseum
nationalpark
nationalparken
nationalparker
nationalsa
nationalsocialistiska
nationell
nationella
nationellt
nationen
nationens
nationer
nationerna
nationernas
nations
nationsma
native
natl
natn
nato
nats
natt
natten
nattens
nattetid
nattflyn
nattsla
nattvarden
natur
natura
naturae
natural
naturale
naturales
naturalist
naturaliste
nature
naturelle
naturelles
naturels
naturen
naturens
naturforschenden
naturforskare
naturgas
naturgeschichte
naturhist
naturhistorischen
naturhistoriska
naturkunde
naturlig
naturliga
naturligt
naturligtvis
naturreservat
naturreservatet
naturskydd
naturskyddat
naturskyddsomra
naturva
naturvetenskap
naturvetenskapliga
naturw
naturwiss
naturwissenschaftlichen
nauk
nauka
nava
naval
navarra
navy
naxos
nayarit
nazisterna
nazistiska
nazityskland
nba
nbc
nberg
ncaa
nchen
nchens
nchez
ncia
nd
nda
ndag
ndagar
ndagen
ndal
ndama
ndan
ndande
ndandet
ndar
ndare
ndaren
ndarens
ndarna
ndas
ndbar
ndbara
nde
ndeart
ndebud
ndelse
ndelsen
ndelser
ndelserna
nden
nder
nderna
ndernas
nders
ndes
ndet
ndets
ndez
ndido
ndig
ndiga
ndighet
ndigheten
ndigheter
ndigheterna
ndigt
ndigtvis
ndlig
ndliga
ndligt
ndning
ndningar
ndningarna
ndningen
ndningsomra
ndo
ndor
ndpunkt
ndra
ndrad
ndrade
ndrades
ndrar
ndras
ndrat
ndrats
ndring
ndringar
ndringarna
ndringen
nds
ndsk
ndska
ndske
ndskt
ndsro
ne
nea
neal
neapel
near
nearby
nearctic
nearktiska
neavtal
nebraska
nebst
nebulosa
ned
neda
nedan
nedanfo
nedansta
nederbo
nederla
nederlag
nederlaget
nederlandse
nedflyttade
nedflyttning
nedga
nedla
nedladdning
nedlagd
nedlagda
nedre
nedsa
nedsatt
nedstro
need
nees
negativ
negativa
negativt
neglecta
negro
neh
neighbourhood
neil
neill
nej
nejlikva
nekoski
nektar
nel
nelson
nemertea
nemertina
nen
nens
neo
neolophonotus
neon
neoperla
neoseiulus
neotrop
neotropical
neotropiska
nepal
nepalensis
nephrotoma
neptis
neptune
neptunus
ner
nera
nere
nereididae
nereis
nerikes
nerladdad
nern
nerna
nero
ners
nersborg
nersborgs
nervosa
nervsystemet
nes
net
netelia
netflix
netherlands
nets
network
neu
neucha
neue
neuen
neuer
neumann
neuroptera
neuropterida
neuropteroidea
neustadt
neutral
neutrala
neutralitet
nevada
never
neville
new
newcastle
newfoundland
newman
newport
news
newton
next
nez
nf
nfl
nfo
ng
nga
ngad
ngade
ngades
ngan
ngande
ngar
ngare
ngaren
ngarna
ngas
ngatagen
ngatogs
ngats
ngba
ngbok
ngbro
ngby
ngc
ngd
ngda
ngde
ngden
ngder
ngdes
ngdhopp
ngdistanslo
ngdskida
nge
ngel
ngelholm
ngelholms
ngeln
ngelse
ngelser
ngelsestraff
ngelset
ngen
ngens
ngenskap
nger
ngermana
ngermanland
ngerna
ngers
ngersa
ngerska
ngerskan
nges
ngest
nget
ngfa
ngfald
ngfartyg
ngfilm
ngfilmen
ngfilmer
ngfo
ngfotingar
ngfotingart
nggatan
nghorningar
nghornssla
nghus
nghuset
nghusets
ngja
ngkamp
ngkarta
ngla
nglar
nglig
ngliga
ngligan
nglighet
ngligt
nglo
nglok
ngma
ngna
ngning
ngningar
ngningen
ngo
ngor
ngre
ngro
ngs
ngsa
ngsam
ngsamma
ngsammare
ngsamt
ngsfo
ngsga
ngsjo
ngsla
ngslad
ngslade
ngslades
ngspunkt
ngsrik
ngsrika
ngsrikt
ngsskinnbaggar
ngst
ngsta
ngstna
ngstra
ngstro
ngsva
ngt
ngtabell
ngtan
ngtar
ngtexter
ngtextfo
ngtja
ngts
ngtungebin
nguyen
ngva
ngvarig
ngvariga
nh
nhet
nheten
nhetens
nhl
nhm
ni
nia
nica
nicaragua
nice
nicholas
nichols
nick
nicklas
niclas
nico
nicola
nicolai
nicolas
nicolaus
nicole
nie
niedero
niedersachsen
niels
nielsen
niem
nien
niens
nig
nigel
niger
nigeria
nigerianska
night
nights
niglichen
nigra
nigrescens
nigricans
nigriceps
nigricornis
nigripes
nigsberg
nika
nikan
niklas
niko
nikola
nikolai
nikolaj
nikolaus
nikor
nils
nilson
nilsson
nilssons
nin
nina
nine
ning
ningar
ningarna
ningen
ningom
nings
ninja
nintendo
nio
nionde
nippon
nirvana
nis
nishida
nisi
nissan
nisse
nitens
nitida
nitidus
niva
nixon
nja
njuta
nk
nka
nkan
nkande
nkar
nkare
nkarna
nkas
nkbara
nken
nker
nkning
nkningar
nko
nks
nkt
nkta
nkte
nktes
nky
nl
nla
nland
nlig
nliga
nligt
nlingsfiskar
nlittera
nlitteratur
nm
nma
nn
nna
nnagav
nnagavs
nnande
nnare
nnas
nne
nnedom
nnelse
nnen
nnens
nner
nnerfors
nnerna
nnetecken
nnetecknande
nnetecknas
nning
nningar
nningarna
nninge
nningen
nniska
nniskan
nniskans
nniskor
nniskora
nniskorna
nniskors
nnkyrka
nnroth
nns
nnu
no
noah
nobel
nobelpriset
nobelpristagare
nobelprize
nobels
nobilis
noble
nobody
nodc
node
noe
noel
nog
noga
noggrant
noguera
noir
noire
noise
nokia
nola
noll
nollan
nom
noma
nomada
nomenclator
nomenclatural
nomenclature
nomina
nominatformen
nominerad
nominerade
nominerades
nominering
nomineringar
nomo
non
nor
nora
norberg
norbergs
nord
nordafrika
nordamerika
nordamerikanska
nordanstigs
norden
nordens
nordenskio
nordic
nordin
nordirland
nordisk
nordiska
nordiskt
nordkorea
nordland
nordlig
nordliga
nordligaste
nordmakedonien
nordmalings
nordo
nordost
nordrhein
nordsamiska
nordsjo
nordstja
nordstro
nordva
nore
norenburg
norfolk
norge
norges
norm
norma
normal
normala
normalspa
normalt
norman
normandie
normer
norr
norra
norrbotten
norrbottens
norrby
norris
norrko
norrla
norrland
norrlands
norrma
norrmalm
norrstro
norrta
norrut
norsjo
norsk
norska
norske
norskspra
norskt
norstedt
norstedts
norte
norter
north
northamptonshire
northeastern
northern
northumberland
northwest
northwestern
norton
norway
norwich
norðurland
nos
nosen
not
notas
note
noter
notera
noterade
noterades
noterar
noteras
noterat
noterats
notering
noteringar
notes
nothing
notices
notizbl
notoc
notre
nottingham
nottinghamshire
nouveau
nouveaux
nouvelle
nouvelles
nov
nova
novads
novae
novas
novel
novell
novellen
noveller
novellfo
novellsamling
novellsamlingen
november
novgorod
novi
novit
novitates
novo
novon
novos
now
nowak
noyes
nr
nrik
nrk
ns
nsa
nsaari
nsad
nsade
nsades
nsaker
nsande
nsar
nsas
nsat
nsdap
nseende
nsen
nser
nserna
nsfo
nsk
nska
nskade
nskan
nskap
nskar
nskema
nsklig
nskliga
nskligheten
nskligt
nskva
nsla
nslan
nsle
nslen
nslig
nsliga
nslighet
nsloma
nslor
nsmogna
nsning
nsningar
nsningen
nso
nssnitt
nsson
nsstyrelsen
nst
nstema
nsteman
nsten
nster
nstera
nstern
nsterna
nsterpartiet
nstgjorde
nstgjort
nstgo
nstorden
nstra
nstren
nstret
nsva
nsveriges
nsyn
nsynslo
nsyrseart
nsyrsor
nt
nta
ntade
ntades
ntan
ntar
ntas
ntat
nte
nter
ntes
nther
ntligen
nts
nu
nuclear
nueva
nuevas
nuevo
nuevos
number
numer
numera
nummer
numret
nunatak
nunavut
nunna
nunneo
nuovo
nusa
nutid
nutida
nuvarande
nuytsia
nvall
nvaro
nvisade
nvisar
nvisning
nvisningar
nwards
ny
nya
nyanser
nyare
nyberg
nybildade
nybo
nybro
nybyggare
nybyggda
nyckel
nyckeln
nyckelpigor
nycklar
nyctemera
nye
nyfo
nygatan
nygren
nyheten
nyheter
nyheterna
nyinspelning
nykarleby
nyko
nykomling
nyland
nylander
nylands
nyligen
nyman
nymphon
nyna
nyo
nysa
nyslott
nyslotts
nyss
nystad
nystadsregionen
nystartade
nystro
nytt
nytta
nyttjas
nyutga
nyzeela
nzib
o
oa
oak
oakes
oakland
oavgjorda
oavgjort
oavsett
oaxaca
ob
obadiah
obama
obefolkad
oberea
obero
oberoende
oberonia
oberthu
obesta
objekt
objektet
objektiv
oblast
obligatorisk
obligatoriska
obliqua
oboe
obozrenie
obs
obscura
obscurus
observation
observationer
observationibus
observations
observato
observatoriet
observatorium
observatory
observera
observerade
observerades
observeras
observerats
obsjtina
obsoleta
obtusa
oc
ocampo
occasional
occidentale
occidentalis
occitanien
ocean
oceanen
oceanien
oceaniska
oceanogr
och
ochoa
ochracea
ochthebius
ock
ockelbo
ocksa
ockupation
ockupationen
ockuperade
ockuperades
ocotea
oct
octave
october
ocyptamus
odd
ode
oden
odense
oder
odessa
odla
odlad
odlade
odlas
odling
odo
odonata
odore
oecanthidae
oecetis
oerho
of
off
offenbach
offensiv
offensiven
offentlig
offentliga
offentliggjorde
offentliggjordes
offentligt
offer
office
officer
officerare
officersexamen
official
officiell
officiella
officiellt
offra
offren
offret
ofo
ofruktbar
ofta
oftare
oftast
ofullsta
og
ogift
ogifta
ogillade
ogra
oh
oha
ohaus
ohio
ohlmarks
ohlson
ohlsson
oil
oilers
ois
oise
oja
ojo
ok
oka
okinawa
oklahoma
oklar
oklart
oksvampar
okt
oktober
ol
ola
olaf
olagligt
olai
olaus
olav
olavs
old
oldenburg
oldenlandia
ole
oleanderva
oleg
olga
oliarus
oligochaeta
olika
olin
olios
olivacea
oliveira
oliver
olivgro
olivia
olivier
olja
oljan
oljema
olle
olo
olof
olofs
olofsson
olofstro
olomouc
olov
olsen
olson
olsson
olssons
olycka
olyckan
olyckor
olympia
olympic
olympics
olympique
olympisk
olympiska
olympiskt
om
oma
omaha
oman
omar
ombildades
ombord
ombud
ombudsman
ombyggd
ombyggda
ombyggnad
ombyggnaden
ombyggnader
omdo
omedelbar
omedelbart
omega
omfa
omfatta
omfattade
omfattande
omfattar
omfattas
omfattning
omga
omger
omges
omgivande
omgiven
omgivning
omgivningar
omgivningarna
omgivningen
omha
omkom
omkommer
omkommit
omkring
omkringliggande
omloppsbana
ommatius
omna
omnejd
omnes
omo
omorganisation
omorganiserades
omphale
omra
omro
omsa
omslag
omslaget
omslagsdesign
omsorg
omsta
omtalad
omtalade
omtalas
omtyckt
omva
omval
omvaldes
omvandlades
omvandlas
omvandling
on
ona
once
oncidium
ond
onda
one
online
only
ono
onosma
onsdag
ont
ontario
onthophagus
oo
oosterbroek
op
opa
ope
opel
open
opera
operan
operans
operasa
operation
operationen
operationer
operativa
operativsystem
operativsystemet
operato
operett
operetten
operetter
operor
ophiomyia
ophiorrhiza
ophiuroidea
opiinae
opinion
opius
opp
oppiidae
opposition
oppositionen
ops
opte
option
optisk
optiska
opus
opuscula
or
ora
orange
orangea
orangeridubbelfotingar
oranien
orbigny
orchard
orchestra
orchi
orchid
ord
ordbok
orden
ordens
ordentligt
order
orders
ordet
ordfo
ordfront
ordinarie
ordines
ordna
ordnade
ordnar
ordning
ordningen
ordre
oregon
org
organ
organisation
organisationen
organisationens
organisationer
organised
organisera
organiserad
organiserade
organiserades
organiserar
organiseras
organiserat
organisk
organiska
organismer
organisms
organist
organister
organization
orgel
orgelbyggare
orgelbyggeri
orgelinventering
orgella
orgeln
orgilus
orglar
oribatida
orient
oriental
orientale
orientales
orientalis
orientaliska
orientation
orienterare
orientering
origin
original
originalcitat
originalet
originaltitel
origins
orion
orivesi
orkanen
orkester
orkesterledare
orkestern
orkesterverk
orkide
orlando
orle
orleans
orm
ormar
ormart
ormbunkeart
ormen
ormosia
ormstja
orna
ornata
ornatus
orne
ornithology
ornitologiska
oro
oroligheter
orrell
orsa
orsak
orsaka
orsakad
orsakade
orsakar
orsakas
orsakat
orsaken
orsaker
orsakerna
orsodacnidae
orstom
ort
ortega
orten
ortens
orter
orterna
orth
orthocladius
orthopte
orthoptera
orthopterasf
orthopteren
orthopterists
orthopteroid
orthopterorum
orthotrichaceae
ortiz
ortnamn
ortnamnet
ortodox
ortodoxa
os
osa
osaka
osborn
osby
oscar
oscars
oscarsgalan
oskar
oskarshamn
oskarshamns
oslo
osmanerna
osmanska
oss
ossian
ost
osten
ostindiska
osv
oswald
ota
otaliga
other
others
otillra
otiorrhynchus
ottawa
otte
otter
otto
ou
ouest
our
ouratea
out
ouvrard
ov
ova
oval
ovalis
ovan
ovana
ovanfo
ovanlig
ovanliga
ovanligt
ovanna
ovanpa
ovansida
ovansidan
ovansta
ovata
ove
over
overline
ovice
owe
owen
own
oxalis
oxalisar
oxelo
oxenstierna
oxford
oxfords
oxfordshire
oxyopes
oxytropis
oy
oz
ozarba
ozero
p
pa
paavo
pablo
pac
pachycondyla
pacific
pacifica
pacificus
pack
packard
paddor
paepalanthus
page
pages
pain
pajala
paket
pakistan
pal
palace
palaearctic
palaearktischen
palais
palats
palatset
palazzo
pale
palearktiska
palermo
palestina
palestinska
palicourea
pallas
palle
pallens
pallescens
pallida
pallidus
pallipes
pallplatser
palm
palma
palmas
palme
palmer
palo
palomar
palomarobservatoriet
palpomyia
palustris
pamela
pan
panama
panamensis
pandanaceae
pandanus
pande
pandemin
panel
paniculata
panicum
panna
pannan
panorama
pansar
pansarsko
pansarva
panthers
panzer
paolo
pap
papa
pape
paper
papers
papilio
papp
pappa
papper
pappersbruk
papua
papuana
papyrusar
par
para
parade
paradis
paradise
paradiset
paradoxa
paraguay
parai
parallax
parallaxma
parallell
parallella
parallellt
paralympiska
parameters
paramount
parana
pararge
parasites
parasitflugor
parasitic
parasitoids
parc
pardosa
pardubice
pare
paren
parent
parentes
paret
parets
pargas
parhost
paris
parish
parishes
park
parken
parkens
parker
parks
parlament
parlamentariska
parlamentet
parlamentets
parlamentsledamo
parlamentsledamot
parlamentsval
parlamentsvalet
parma
parmeliaceae
parningen
parningstiden
parodi
parque
parris
pars
parsek
parsons
parspindlar
part
parte
parter
parterna
parti
partial
partido
partie
partier
partierna
partiet
partiets
partiklar
partiledare
partille
partiordfo
partisekreterare
partner
partners
parton
parts
party
parva
parviflora
parvifolia
parvula
parvulus
parvus
pas
pascal
pascoe
paso
paspalum
pass
passa
passade
passage
passagen
passagerare
passagerarfartyg
passagerarna
passande
passar
passera
passerade
passerar
passerat
passeriformes
passiflora
passion
passionsblommor
passionsblomsva
passiv
past
pastor
pastorat
pastoratet
pat
patent
path
patient
patienten
patienter
patriark
patricia
patrick
patrik
patrimoines
patriotiska
patterns
patterson
pau
pauciflora
paul
paula
pauli
paulian
pauline
paulista
paulo
paulus
pauly
paus
pav
pavel
pavetta
paviljongen
pavonia
pax
paxton
payne
pays
paz
pb
pc
pcentrum
pdf
pe
peace
peak
peaks
pearl
pearson
peck
peckham
pectinata
pedagog
pedagogik
pedagogiska
pedal
peder
pedersen
pedicularis
pedro
peer
peggy
pegomya
pehr
peka
pekade
pekar
peking
pekka
pelare
pelle
peloponnesos
pen
pendant
pendelta
peng
pengar
pengarna
penguin
penguins
penhamn
penhamns
peninsula
penn
pennsylvania
penny
pension
pensiona
pensionerade
pensionering
penstemon
pentacentrinae
people
peperomia
peperomior
pepparva
per
perciformes
percussion
percy
perdita
pereira
perez
perfect
perfekt
perfekta
performance
period
perioden
perioder
periodiska
periodiskt
periodvis
perizoma
perkins
perlidae
permanent
permanenta
pernambuco
pernilla
pero
perrier
perrieri
perry
pers
perserna
persien
persisk
persiska
person
persona
personal
personalen
personen
personens
personer
personerna
personlig
personliga
personligen
personlighet
personligheter
personligt
persons
persoonia
perspektiv
persson
perth
peru
peruviana
pest
pesten
pet
peta
pete
peter
peters
petersburg
petersen
peterson
petersson
petit
petite
petr
petra
petre
petri
petroleum
petrovich
petrovitz
petrus
petter
petterson
pettersson
peu
peugeot
pez
pfalz
pflanzenfam
pflanzenr
pg
pga
ph
phaenocarpa
phalangopsinae
phan
phaneropterinae
phantom
phaonia
phasgonuridae
phasmatidae
phasmatodea
phasmida
phasmidae
phasmidasf
phasmiden
pheidole
phi
phil
philad
philadelphia
philip
philipp
philippe
philippi
philippine
philippinensis
philippines
philips
phillip
phillips
philodendron
philodromus
philosophical
philosophy
phoebe
phoenix
phoradendron
photo
photometric
photometry
php
phyllachora
phyllachoraceae
phyllachorales
phyllanthus
phyllonorycter
phyllophaga
phylogenet
phylogenetic
phylogenetics
phylogeny
phys
physical
physics
physis
phytocoris
phytologia
phytomyza
phytoseiidae
phytoseiidbase
phytotax
pi
pia
pianist
pianisten
pianister
piano
piaui
piazza
pic
picasso
pickard
pico
picta
picture
pictures
pictus
pie
piedra
pieksa
pielisja
piemonte
pieni
pier
pierce
pierre
pieter
pietro
pigg
pigment
pihlajavesi
pike
pikku
pil
pilar
pilea
pileor
pilosa
pilosus
pilot
piloten
piloter
pimpla
pin
pine
ping
pingar
pinge
pingen
pinghuvudort
pings
pingsa
pingstro
pink
pinto
pinus
pinyin
pio
pionja
piotr
piper
pipla
pippi
piprankeva
pirater
pirates
pisa
pisces
pistol
pitcairnia
pitcher
pitea
pitka
pitkin
pitt
pittsburgh
pius
piz
pja
pl
pla
place
placera
placerad
placerade
placerades
placerar
placeras
placerat
placerats
placering
placeringar
placeringen
places
plagg
plains
plan
plana
planen
planer
planera
planerad
planerade
planerades
planerar
planeras
planerat
planering
planeringen
planerna
planet
planetary
planeten
planeter
planets
plant
plants
plast
plata
plate
plateau
platen
plates
platina
platnick
platon
plats
platsen
platser
platserna
platt
platta
plattan
plattbuksspindlar
plattform
plattformar
plattformen
plattformsspel
platthornsmyggor
plattmalar
plattmaskar
plattmaskart
platygaster
platypalpus
platz
play
playa
player
players
playoff
plays
playstation
plaza
please
plebejus
plecia
plecoptera
plecopterasf
plectris
plenum
pleosporales
pleurothallis
plikt
plisterordningen
plo
plocka
plotarea
plotdata
pls
plural
plus
pluto
plymouth
plzen
pm
pma
pman
pmannen
pmatrix
pnad
pnade
png
pning
pningen
po
poa
pockenholtsva
pocket
pocock
podlech
poe
poems
poesi
poet
poeten
poeter
poetiska
poetry
point
pojkar
pojkarna
pojke
pojken
pojkva
poke
poker
pol
pola
polacker
polar
pole
polen
polens
polhill
police
policy
polis
polisen
polisens
poliser
polisma
polita
political
politics
politik
politika
politiken
politiker
politikern
politischer
politisk
politiska
politiskt
polka
polkinghorne
pollen
polo
polsk
polska
poltava
polychaeta
polychaete
polychaeten
polychaetous
polyche
polydesmus
polygala
polygon
polynoidae
polyommatus
polypedilum
polypodiaceae
polyrhachis
polystachya
polystichum
pommern
ponder
pont
ponte
pontus
pool
poore
pop
pope
popgruppen
popillia
popov
popsa
popula
popular
popularitet
population
populationen
populationer
por
porcellio
porifera
pornografi
porrska
porsche
porslin
port
portable
portal
portalen
portar
porten
porter
portici
portland
porto
portra
portrait
portsmouth
portugal
portugals
portugisisk
portugisiska
porvenir
position
positionen
positioner
positiv
positiva
positivt
posse
post
posten
poster
postumt
potatis
potatissla
potatisva
potential
potentiella
potentiellt
potentilla
potosi
potsdam
potter
pottiaceae
poul
pour
pouteria
povel
powell
power
powers
powiat
poznan
pp
ppa
ppar
pparna
ppas
ppen
pper
ppet
ppfiskar
ppflugor
ppklimat
pple
pplen
pplet
ppna
ppnade
ppnades
ppnande
ppnar
ppnas
ppnat
ppning
ppningar
ppningen
pps
ppt
ppta
ppte
pptes
ppts
pr
pra
pradesh
prado
prag
praktbaggar
praktfja
praktik
praktiken
praktisk
praktiska
praktiskt
praktmalar
praktvindor
prantl
prata
pratar
pratt
praxis
pre
precis
precision
predators
predikan
predikant
predikstol
predikstolen
prefektur
prefekturen
prefekturniva
prelimina
preliminary
premia
premie
premier
premio
preparat
present
presentation
presentera
presenterade
presenterades
presenterar
presenteras
preses
president
presidenten
presidentens
presidenter
presidentkandidat
presidentval
presidentvalet
presl
presley
press
pressen
presskonferens
pressmeddelande
prestanda
prestation
prestationer
prestigefyllda
preston
pretty
preussen
preussens
preussisk
preussiska
pri
price
prickar
pride
priest
prima
primary
prime
primeira
primera
primitiva
primtal
primula
primus
prince
princess
princeton
princip
principen
principer
princis
prins
prinsen
prinsessa
prinsessan
prinsessor
print
printing
prioninae
pris
prisbelo
priser
priserna
priset
prisma
pristagare
pristimantis
privat
privata
private
privatliv
privatpersoner
privilegier
prix
prize
pro
problem
problemen
problemet
problems
proc
proceedings
procent
process
processen
processer
processor
prod
prodr
prodromus
producent
producenten
producenter
producenterna
producera
producerad
producerade
producerades
producerar
produceras
producerat
producerats
production
productions
produkt
produkten
produkter
produkterna
produktion
produktionen
produktioner
produktiv
prof
professional
professionell
professionella
professionellt
professor
professorer
professorn
professors
professur
professuren
profeten
proffs
profil
profile
profiler
program
programledare
programme
programmen
programmering
programmet
programmets
programspra
programvara
progreso
progress
progressiv
progressiva
project
projekt
projektarkivet
projektet
projektledare
promachus
promo
promoverades
pronomen
propaganda
properties
proposition
prosa
proseriata
prosopocera
prost
prosten
prostituerade
prostitution
prot
protaetia
proteaceae
proteaordningen
protection
protein
proteiner
protest
protestantiska
protester
protesterade
protesterna
protokoll
protokollet
prototyp
prototypen
protura
prout
prov
prova
provancher
provence
provfiske
provi
providence
province
provincia
provincial
provins
provinsen
provinser
provinserna
provinshuvudstaden
provinsi
provisorisk
provisoriska
proxima
pru
prunus
ps
psalm
psalmbok
psalmboken
psalmen
psalmer
psalmfo
pseudococcidae
pseudonym
pseudonymen
pseudonymer
pseudophyllinae
psi
psyche
psychoda
psychotria
psykiatri
psykisk
psykiska
psykiskt
psykolog
psykologi
psykologisk
psykologiska
psyl
psyllaephagus
psyllidae
psylloidea
pt
pta
pte
pteridaceae
pteris
pterolophia
pteromalidae
pteromalus
pteroplistinae
pteros
pterostichus
ptes
ptolemaios
pts
pu
pub
pubescens
publ
public
publication
publications
publicera
publicerad
publicerade
publicerades
publicerar
publiceras
publicerat
publicerats
publicering
publiceringen
publicist
publik
publikation
publikationer
publiken
published
publishers
publishing
puccinia
puckeldansflugor
puckelflugor
puebla
pueblo
puente
puerto
pulau
pulchella
pulcher
pulchra
pulmonata
pulserande
pumila
punctata
punctatus
pund
pungar
pungra
pungsart
punjab
punk
punkband
punkt
punkten
punkter
punta
puppglanssteklar
pure
purple
purposes
purpurascens
purpurea
pusilla
pusillus
put
putin
putoidae
puumala
puy
puya
px
pygmaea
pygmaeus
pyha
pyramica
pyramid
pyre
pyrgomorphidae
q
qa
qatar
qi
qin
qinghai
qu
quad
quartet
quartier
que
quebec
queen
queens
queensland
quelques
quentin
quercus
quere
quero
quest
qui
quick
quickfacts
quinn
quintana
quorum
qv
r
ra
raa
rabat
rabe
race
racerfo
racet
rachel
racing
racingkarria
rad
radar
radcliffe
rade
raden
rader
raderna
rades
radet
radhus
radial
radialhastighet
radiata
radiation
radie
radikal
radikala
radikalt
radio
radion
radioprogram
radioprogrammet
radios
radiostationer
rads
radsho
raf
rafael
raffles
ragge
ragnar
ragnhild
ragni
ragunda
rail
railway
rain
rainbow
rainer
rak
raka
raket
raketer
rakt
ral
rale
raleigh
ralf
rallt
rally
ralph
ram
rama
ramar
ramb
rambold
rambycides
ramel
ramen
rami
ramlo
ramme
ramo
ramon
ramos
ramsay
ran
rana
rancho
rand
randall
rande
randen
randet
randy
rang
range
ranger
rangers
rankad
rankade
rankades
ranking
ranledde
rans
ransson
ranta
rantasalmi
ranunculus
ranunkelva
ranunkler
rao
raoul
rap
rapids
rappare
rapparen
rapport
rapporten
rapporter
rapporterade
rapporterades
rapporterats
rar
rard
rare
raren
rarma
rarna
ras
rasade
rasande
raseborg
rasen
raser
rasism
rasmus
rasmussen
rast
raste
rat
ration
rats
ratsit
ratzeburg
rault
raumo
rauno
rav
raven
ravenna
ray
raymond
rayonu
rays
rb
rba
rband
rbanden
rbandet
rbar
rbara
rbeha
rbela
rbereda
rberedande
rberedde
rberedelser
rberg
rbesla
rbg
rbi
rbindelse
rbindelsebryggan
rbindelsen
rbindelser
rbindelserna
rbinder
rbjo
rbjuda
rbjuden
rbjuder
rbjudet
rbjudna
rblev
rbli
rblir
rbo
rbra
rbrukning
rbrytare
rbrytelser
rbud
rbudet
rbultsfiskar
rbund
rbunden
rbundet
rbundets
rbunds
rbundskapten
rbundslandet
rbundsordfo
rbundsrepubliken
rby
rbyla
rc
rca
rchb
rck
rd
rda
rdad
rdade
rdades
rdag
rdagen
rdar
rdare
rdaren
rdarna
rdas
rdat
rdats
rde
rdedel
rdefull
rdefulla
rdel
rdelade
rdelar
rdelas
rdelat
rdelen
rdelning
rdelningen
rden
rdena
rdenas
rdens
rdeplats
rder
rdera
rdering
rderingar
rdes
rdeskrig
rdeskriget
rdet
rdh
rdhet
rdheter
rdig
rdiga
rdighet
rdigheter
rdigsta
rdigt
rdna
rdnad
rdo
rdoba
rdomar
rdrag
rdraget
rdro
rds
rdsfo
rdsgatan
rdshavet
rdshus
rdshuset
rdsjo
rdsma
rdsomra
rdsorden
rdssidan
rdsunionen
rdsva
rdva
re
rea
read
reading
ready
reagan
reagerar
reaktion
reaktionen
reaktioner
real
realism
realistiska
reality
really
rebecca
rebecka
rebel
rebild
rebilder
reboda
rebro
rebygga
rebyggande
rec
recension
recensioner
recent
recept
rechinger
reclassification
record
recorded
recording
recordings
records
recueil
recueillis
red
reda
redaktion
redaktionen
redakto
redan
rederi
rederiet
redescription
redhawks
redhead
redigerad
redigerade
redo
redogo
redovisas
redrag
redrar
redrog
reds
redskap
redtenbacher
reduceras
reducta
reduction
reed
reeder
reef
reella
reese
refaller
reference
referens
referenser
refererad
refererar
reform
reforma
reformationen
reformen
reformer
reformerta
refra
refter
reg
rega
regan
regel
regelbunden
regelbundet
regelbundna
regeln
regelverk
regemente
regementen
regementet
regementets
regementschefer
regent
regenter
regerade
regerande
regering
regeringar
regeringen
regeringens
regeringschef
regeringschefer
regeringsform
regeringstid
reggae
reggio
regi
regierungsbezirk
regim
regimen
regiment
regina
reginald
regio
region
regional
regionala
regionalt
regionen
regionens
regioner
regionerna
regionhuvudstaden
regions
regisserad
regisserade
regisserades
regisserat
regisso
register
registrera
registrerade
registrerades
registreras
registrerat
registrering
regler
reglera
reglerar
regleras
reglering
reglerna
regn
regna
regnba
regni
regnigaste
regnskog
regnskogar
regnskogsklimat
regulja
reh
rehn
reich
reichenbach
reichenbachia
reid
reims
reine
reinfeldt
reinhard
reinhold
reinwardtia
reip
reis
reise
reitter
reja
reka
reklam
rekom
rekomma
rekommande
rekommendation
rekommendationer
rekommenderad
rekommenderade
rekommenderar
rekommenderas
rekommer
rekommit
rekomst
rekomsten
rekonstruktion
rekord
rekordet
rekryterades
rektangula
rektor
rektorer
rela
related
relaterad
relaterade
relation
relationen
relationer
relationerna
relations
relationships
relativa
relativt
release
relief
reliefer
religger
religio
religion
religionen
religioner
relisted
relse
relsen
relsens
relser
relserna
relsevis
relva
rema
remarks
remaudie
remellan
remember
remix
remot
remsen
ren
rena
renade
renades
renar
renas
renaud
renauld
renault
rende
renden
rendet
rene
rengo
renhet
rening
reningar
reningarna
reningen
reningens
renings
renklad
renoverades
renovering
renoveringen
rens
rensko
rent
renta
rentz
rep
reparation
reparationer
reparera
repens
repert
repertoar
report
reportage
reporter
reports
representant
representanter
representanthus
representanthuset
representation
representera
representerad
representerade
representerar
representeras
representerat
repris
reproducerande
reproducerar
reptile
reptiles
reptilia
republic
republik
republika
republikan
republikanen
republikaner
republikanerna
republikanernas
republikansk
republikanska
republiken
republikens
requiem
rer
rerna
rernas
rers
res
resa
resan
resande
rescue
research
resena
reser
reserv
reservat
reservatet
reserve
reservoar
residens
resident
reskrifter
resla
reslagit
reslagits
reslagna
reslog
reslogs
resolution
resor
resource
resources
resp
respekt
respektive
respons
respra
rest
resta
restaurang
restaurangen
restauranger
restaurerades
restaurering
restaureringen
reste
resten
rester
resterande
resterna
restes
restriktioner
resultat
resultaten
resultatet
resultattabell
resulterade
resulterar
resulterat
results
resume
resund
resurser
ret
retag
retagare
retagen
retaget
retagets
retagsekonomi
retagsledare
reteelser
reticulata
reticulatus
retog
retorik
retra
retrieved
rets
return
reuter
rev
reva
reval
reveals
revenge
reviderad
revidering
review
revir
revised
revision
revista
revolt
revolution
revolutiona
revolutionen
revolutionens
revs
revta
revue
revy
revyer
rex
rey
reyes
reykjavi
reykjavik
reynolds
rez
rezenten
rf
rfa
rfall
rfar
rfarande
rfarandet
rfattad
rfattade
rfattare
rfattaren
rfattarens
rfattarna
rfattarskap
rfattat
rfattning
rfattningen
rfattningssamling
rfilm
rfilmer
rflutna
rflytta
rflyttades
rflyttning
rfo
rfogande
rfra
rg
rga
rgad
rgade
rgar
rgat
rgb
rgelanda
rgen
rger
rgerna
rgiftning
rglo
rgning
rgo
rgreningar
rgrunden
rgryte
rgsa
rgsteklar
rgstritar
rha
rhamphomyia
rhandla
rhandlingar
rhandlingarna
rhein
rheinland
rhen
rhet
rheten
rhin
rhindra
rhindrar
rhistoria
rhistorisk
rhistoriska
rho
rhode
rhodes
rhododendron
rhundraden
rhundradena
rhundradet
rhus
rhyacophila
rhynchosia
rhynchospora
rhynchota
rhythm
ri
ria
riaux
ribbing
ribeira
ribeiro
ribland
ric
rica
ricardo
riccardo
rice
rich
richard
richards
richardson
richelieu
richie
richmond
richter
rick
rickard
ricky
rico
rida
riddare
riddaren
riddarfja
riddarhuset
ridderskapet
ride
rider
ridge
riding
ridl
ridley
ridsport
rie
rien
rietz
rifra
rig
riga
rige
rigenom
righet
righeten
righeter
right
rightarrow
rights
rigida
rigt
rijeka
rik
rika
rikard
rikaste
rike
rikedom
riken
riket
rikets
rikligt
riksantikvariea
riksarkivet
riksdag
riksdagen
riksdagens
riksdags
riksdagsledamo
riksdagsledamot
riksdagsman
riksdagsmannavalen
riksdagsmannen
riksdagsvalet
riksdaler
riksdelen
riksfo
riksmo
riksmuseet
riksra
riksteatern
riksutsta
riksva
rikt
riktad
riktade
riktades
riktar
riktat
riktig
riktiga
riktigt
riktlinjer
riktning
riktningar
riktningen
ril
rilar
riley
rilsart
rilsmyggor
rim
rin
rinco
ring
ringa
ringar
ringarna
ringen
ringens
ringer
ringmaskar
ringmaskart
ringo
rings
ringsliv
ringslivet
ringslivspersoner
ringuey
ringva
rinnan
rinner
rintelsen
rio
riodinidae
rioja
rione
riot
rique
ris
risbec
rise
riseras
rising
risk
riska
risken
risker
riskerar
ristiska
rit
rita
ritad
ritade
ritades
ritat
ritning
ritningar
ritningarna
rito
ritter
ritualer
riva
rival
rivas
riven
river
rivera
rivers
rivie
rivna
rivning
rja
rjad
rjade
rjades
rjan
rjande
rjar
rjare
rjas
rjat
rjats
rjde
rje
rjedalen
rjedalens
rjer
rjesson
rjestad
rjestads
rjning
rjningen
rjor
rjungar
rjunge
rk
rka
rkan
rkande
rkapten
rkare
rkas
rkbla
rkbrun
rke
rkebiskop
rkebiskopen
rkelse
rkelsen
rkelser
rken
rkena
rker
rkerspindlar
rkes
rket
rkgra
rkla
rklara
rklarad
rklarade
rklarades
rklarar
rklaras
rklarat
rklaring
rklaringar
rklaringen
rkliga
rkligt
rklo
rklund
rkman
rkning
rkningar
rkningsva
rknippad
rknippas
rko
rkomst
rkortad
rkortas
rkortat
rkortning
rkortningar
rkortningen
rkret
rks
rksamhet
rksamma
rksammad
rksammade
rksammades
rksammat
rksammats
rkt
rkta
rkte
rktes
rkultur
rkva
rl
rla
rlades
rlag
rlaga
rlagd
rlaget
rlar
rld
rldar
rlden
rldens
rldsarv
rldsarvslista
rldscupen
rldskriget
rldskrigets
rldsliga
rldsma
rldspopulationen
rldspremia
rldsrekord
rldsrekordet
rldsutsta
rledas
rleden
rlek
rleken
rlekens
rlig
rliga
rligen
rliggande
rlighet
rligt
rlin
rling
rlivades
rlkra
rlo
rlogsfartyg
rlogsmannasa
rlopp
rloppet
rlor
rlora
rlorad
rlorade
rlorades
rlorar
rloraren
rlorat
rlust
rlusten
rluster
rlusterna
rlva
rm
rma
rmade
rman
rmar
rmare
rmast
rmaste
rmdo
rme
rmed
rmedla
rmedling
rmen
rminister
rministern
rministrar
rmla
rmland
rmlands
rmning
rmo
rmodligen
rms
rmsta
rmusik
rmyggor
rmyndare
rn
rna
rnamn
rnamnet
rnamo
rnan
rnans
rnar
rnarna
rnba
rnberg
rnbild
rnbilden
rnbruk
rne
rneart
rnebo
rneborg
rneborgs
rnekade
rnekar
rneksva
rnen
rneorden
rneos
rner
rnet
rning
rningar
rningarna
rningen
rnkorset
rnkraftverk
rno
rnor
rnorna
rnornas
rnplikt
rnpliktiga
rnqvist
rns
rnska
rnsko
rnspinnare
rnsson
rnsvampar
rnten
rnva
rnvapen
rnyelse
ro
road
roadracing
roadracingfo
rob
robbie
robbins
roberson
robert
roberto
roberts
robertsfors
robertson
robin
robineau
robins
robinson
robo
robok
robot
robotar
roboten
robotjusterad
robotskapade
robson
robusta
robustus
rocha
roche
rochester
rock
rockband
rockbandet
rocket
rockgruppen
rockgrupper
rockmusiker
rockor
rocks
rocksa
rocky
rod
rodd
roddare
roddta
rodney
rododendron
rodolfo
rodri
rodrigo
rodrigues
rodriguez
roewer
roger
rogers
roi
rojas
rola
roland
role
rolf
rolfe
roligt
roll
rollen
roller
rollerna
rollfigur
rollfigurer
rolling
rollista
rolls
rollspel
rom
roma
romagna
romaleidae
roman
romance
romanen
romaner
romanerna
romanfo
romani
romans
romansk
romanska
romantiken
romantisk
romantiska
romarna
romarriket
rome
romeo
romer
romero
romersk
romerska
romerske
romra
roms
ron
ronald
rond
ronden
rondo
ronen
ronneby
ronnie
ronny
rookie
room
roos
roosevelt
roots
ropade
ropar
roper
ror
rord
rordnad
rordnades
rordning
rordningar
rordningen
roreningar
roret
rort
rorten
rorter
ros
rosa
rosario
rosberg
rose
rosea
rosen
rosenberg
rosenborg
rosenga
rosengren
roses
roskilde
roslags
rosor
ross
rossi
rossica
rostock
rostrata
rosva
rot
rotation
rotational
rotatoria
rote
roten
roterande
roterar
roth
rothschild
rotifera
rotterdam
rouen
rouge
round
rousseau
route
routledge
roux
rovaniemi
rovdjur
roverk
roverket
rovers
rovfa
rovflugor
rovnattsla
row
rowland
roy
royal
royale
royce
rpa
rpes
rr
rra
rran
rrar
rrarna
rrbra
rre
rregementet
rren
rrflugor
rro
rrva
rryda
rs
rsa
rsamling
rsamlingar
rsamlingarna
rsamlingen
rsamlingens
rsamlings
rsamlingskyrka
rsavtal
rsba
rsbladlo
rsbok
rsboken
rsdag
rsdagen
rsdjur
rse
rsedd
rsedda
rsel
rsen
rser
rses
rsett
rsfo
rsjo
rsjubileet
rsjubileum
rska
rskade
rskande
rskap
rskare
rskild
rskilda
rskilt
rsko
rskola
rskolan
rskontrakt
rskra
rskriget
rskurs
rsla
rslag
rslaget
rslexikon
rslo
rsma
rsman
rsmannen
rsmedeltemperaturen
rsmo
rsna
rsnattsla
rsnederbo
rso
rson
rsperiod
rsskiftet
rsskrift
rssla
rsssf
rst
rsta
rstammade
rstammar
rstamning
rstaplatsen
rste
rsteklar
rster
rstja
rstna
rsto
rstod
rstrimsteklar
rsva
rsvalet
rsvann
rsvar
rsvara
rsvarade
rsvarar
rsvarare
rsvaret
rsvarets
rsvarsbeslutet
rsvarsho
rsvarsmakten
rsvarsmaktens
rsvarsminister
rsvarsomra
rsvetenskapsakademien
rsvinna
rsvinner
rsvunna
rsvunnen
rsvunnit
rt
rta
rtad
rtade
rtal
rtalet
rtan
rtar
rtas
rtat
rtats
rtbitare
rtbladig
rtbladiga
rtblomflugor
rteckning
rten
rtensson
rter
rtflugor
rtid
rtill
rtionden
rtja
rtlar
rtlo
rtlopp
rto
rtom
rtor
rtra
rtroende
rtryck
rts
rtssla
rtsva
rttemberg
rttja
rtva
ru
ruben
rubens
rubin
rubra
rubriken
rubus
rubusar
ruby
rudbeck
rudolf
rudolph
rudy
rue
ruellia
rufa
rufescens
rufipes
rufus
rugby
ruggero
ruggiero
rugosa
ruin
ruiner
ruinerna
ruiz
rule
rullar
rum
ruma
rummet
run
rund
runda
rundade
rundan
rundba
rundbladloppor
runder
runderso
rundmaskar
rundmaskart
rundschau
rune
runeberg
runinskrifter
running
runor
runsten
runstenar
runstenen
runt
runtextdatabas
runtom
rupert
rupestris
rurale
rus
rush
russell
russia
russian
rut
ruta
rutan
rutelidae
ruteliden
rutger
ruth
rutherford
ruto
rutom
rutor
rutsa
rutspa
rutten
rv
rva
rvade
rvades
rvagn
rvagnar
rvaltare
rvaltas
rvaltning
rvaltningen
rvaltningsra
rvandlades
rvandlas
rvar
rvara
rvarade
rvarades
rvarande
rvaras
rvaring
rvaro
rvaron
rvat
rvde
rvdes
rvet
rvi
rvid
rvirring
rvisades
rviwiki
rvning
rvra
rvso
rvt
rwanda
ry
ryan
ryckte
ryd
rydberg
ryde
ryder
ryds
rygg
ryggen
ryggradsdjur
ryggradslo
rykte
rykten
ryktet
rymde
rymden
rymdfa
rymdfarkoster
rymdfartsa
rymdprogram
rymdsonden
rymdstationen
rymma
rymmer
rysk
ryska
ryske
ryskspra
ryskt
ryssar
ryssarna
ryssjenattsla
ryssland
rysslands
rytmgitarr
ryttare
ryttma
ryu
ryvarden
rzburg
rður
s
sa
saab
saale
saari
saarija
sabah
sabel
sabina
sabres
saccardo
saccharomycetes
sachs
sachsen
sachsiska
sad
sade
sadeltak
sades
sadhe
safety
saga
sagan
sagor
sagt
sahara
sahlgrenska
sahlin
sai
said
saimen
saint
sainte
saints
sak
saken
saker
sakkunnig
saknade
saknades
saknar
saknas
sakristia
sakristian
sakta
sal
sala
salamanca
salamandrar
salazar
saldanha
sale
salem
salen
salisbury
salix
sally
salmonsens
salo
salomon
salomono
salong
salongen
salt
salta
saltatoria
salter
salticidae
salticiddb
salto
saltsjo
salvador
salvin
salzburg
sam
sama
samarbeta
samarbetade
samarbetar
samarbetat
samarbete
samarbeten
samarbetet
samband
sambandet
sambo
same
sameby
samer
samerna
samfa
samfund
samfundet
samha
sami
samisk
samiska
samko
samla
samlad
samlade
samlades
samlag
samlar
samlare
samlas
samlat
samlats
samling
samlingar
samlingarna
samlingen
samlingsalbum
samlingsalbumet
samlingsnamn
samlingspartiet
samlingsutsta
samma
samman
sammanfaller
sammanfattning
sammanfo
sammanha
sammanhang
sammanhanget
sammanla
sammanlagd
sammanlagda
sammanlagt
sammansa
sammansatt
sammansatta
sammanslagning
sammanslagningen
sammanslogs
sammanslutning
sammansta
sammantra
sammlung
sammlungen
samnordisk
samoa
sample
samra
samson
samt
samtal
samtid
samtida
samtiden
samtidens
samtidigt
samtliga
samtycke
samuel
samuelsson
samus
samva
samverkan
san
sanatorium
sand
sandberg
sandbin
sande
sandell
sandeltra
sanden
sanders
sando
sandra
sands
sandsjo
sandsten
sandstro
sandviken
sandvikens
sandy
sang
sanjappa
sankmarker
sankt
sankta
sann
sanna
sanning
sanningen
sannolikhet
sannolikheten
sannolikt
sans
sanskrit
sant
santa
santana
santander
santi
santiago
santis
santo
santos
sao
saocat
sapotaceae
sapporo
sapromyza
sar
sara
sarah
sarajevo
sarawak
sarcophaga
sardinien
sare
saren
sargatal
sarna
sars
sart
sarthe
sas
saskatchewan
satakunta
satan
satellit
satelliter
satellitma
satir
sats
satsa
satsade
satsen
satser
satsning
satsningar
satt
satta
satte
sattes
satts
saturday
saturn
saturnus
satyrus
sauber
saudi
saudiarabien
saul
saunders
saurauia
saussure
savage
savann
savannklimat
savannskog
save
savoie
savojen
savolax
saw
sawyer
saxifraga
saxofon
say
sb
sbo
sby
sc
scale
scalemajor
scalenet
scales
scandinavia
scandinavian
scandinavica
scania
scaptodrosophila
scaptomyza
scarabaeidae
scarabs
scb
scelio
scelionidae
scen
scene
scenen
scener
scenerna
scenografi
scenska
scha
schack
schaus
schefflera
schenkling
schildt
schiller
schimper
schizofreni
schizonycha
schlechter
schlesien
schleswig
schloss
schltr
schmid
schmidt
schmitz
schneider
scho
schockaert
school
schoolmeesters
schott
schotte
schro
schu
schubert
schulenberg
schult
schultz
schulz
schumacher
schumann
schuster
schwartz
schwarz
schweiz
schweizisk
schweiziska
schwerin
sci
sciara
science
sciences
scientiarum
scientific
scientifique
scientifiques
scienze
scleria
scleropterinae
scoble
scopula
scotia
scotland
scott
scottish
scout
scouting
scream
scripta
scudder
scutellaris
sd
sdb
se
sea
seal
sean
search
seas
season
seat
seattle
sebastia
sebastian
sec
seccio
second
secret
secretary
sect
section
secundum
security
sed
sedan
sedd
sedda
seder
sedermera
sedlar
sedum
see
seeno
sega
segel
segelba
segeltrollsla
seger
segern
segers
segertoner
segla
seglade
seglare
segling
segment
segovia
segrade
segrande
segrar
segrare
segraren
segrarna
segrat
segunda
sei
seine
sek
sekel
sekelskiftet
sekreterare
sektion
sektionen
sektioner
sektor
sektorn
sekula
sekund
sekunda
sekunder
sel
sela
selaginella
selatan
sele
selecta
selected
selena
self
selka
selma
selys
sem
sematophyllaceae
semester
semic
semifinal
semifinalen
semifinaler
semifinalerna
semiothisa
sen
sena
senare
senast
senaste
senat
senaten
senator
senators
sende
sendet
senecio
senegal
senior
senna
sens
sensu
sent
sentida
sentlig
sentligt
seoul
sep
separat
separata
separation
separatutsta
separerade
sept
september
septentrionalis
ser
serafimerorden
serber
serbien
serbiens
serbisk
serbiska
serena
serge
sergeant
sergei
sergej
sergentomyia
sergey
sergio
sergius
serica
sericea
serie
seriealbum
serieavslutningar
seriefigurer
seriemo
serien
seriens
serier
serierna
series
serieskapare
seriespel
seriestarter
serietecknare
serietidningar
serietidningen
serio
serjania
serna
serpulidae
serra
serrata
server
serveras
service
services
serville
servir
ses
session
sessions
set
seth
setosa
sett
setts
seva
seven
several
severin
sevilla
sex
sexa
sexton
sexual
sexualitet
sexuell
sexuella
sexuellt
seychellerna
seymour
sf
sfa
sfiskar
sfs
sg
sh
sha
shaanxi
shadow
shadows
shah
shakespeare
shakespeares
shamn
shamns
shan
shandong
shanghai
shannon
shanxi
shao
shape
sharks
sharon
sharp
shaw
shawn
she
sheffield
sheldon
shell
shelley
sheng
sherdog
sheriff
sherlock
sherman
shet
sheten
shi
shield
shift
shilling
shimizu
shin
ship
shire
shirley
shl
sho
shoemaker
shop
shoppor
shore
short
should
show
showen
shrimps
shropshire
shu
shuiku
si
sia
siamensis
sibbo
sibelius
sibirien
sic
sichuan
sicilien
sid
sida
sidan
side
sidi
sidney
sidor
sidorna
sie
siegfried
siemens
siena
sierra
siffra
siffran
siffror
siffrorna
sig
sigfrid
sigge
sigh
sigill
sigismund
sigma
sigmund
sign
signal
signalen
signaler
signata
signatur
signaturen
signe
signerade
signum
sigrid
sigtuna
sigurd
sigvard
sik
sikt
sikten
sikter
sil
silence
silene
silent
silkesspinnare
silla
siluriformes
silva
silver
silvermedalj
silvermedaljo
silvermynt
silvestri
silvia
sim
sima
simbad
simhopp
similis
simma
simmar
simmare
simmons
simning
simo
simon
simone
simonsson
simple
simplex
simpson
simpsons
simrishamn
simrishamns
sims
simulans
simulium
sin
sina
sinaloa
since
sinclair
sinensis
sing
singapore
singel
singelettor
singellistan
singeln
singer
singh
singlar
singlarna
single
singles
singular
singularis
sinica
sinicae
sinne
sinstrument
sint
sio
sion
sions
sionstoner
siphonaptera
sir
sire
siri
sirius
sis
sist
sista
siste
sister
sisters
sistna
site
sites
sitt
sitta
sittande
sitter
sittplatser
situation
situationen
situationer
siv
six
sixten
sj
sja
sjelf
sjo
sju
sjua
sjuk
sjuka
sjukdom
sjukdomar
sjukdomen
sjukhus
sjukhuset
sjuksko
sjukva
sjunde
sjundea
sjung
sjunga
sjunger
sjungit
sjungs
sjunker
sjunkit
sjutton
sk
ska
skada
skadad
skadade
skadades
skadan
skadar
skadas
skadat
skadesta
skador
skadorna
skaffa
skaffade
skal
skala
skalan
skalbaggar
skalbaggsart
skald
skalden
skall
skam
skandal
skandinavien
skandinaviens
skandinavisk
skandinaviska
skans
skansen
skapa
skapad
skapade
skapades
skapande
skapandet
skapar
skapare
skapas
skapat
skapats
skapelse
skar
skara
skaraborgs
skarp
skarpa
skarpna
skarpt
skatt
skatten
skatter
ske
skedde
skede
skelett
skelleftea
sken
skenbar
skepp
skeppen
skeppet
skeppsbron
sker
sket
skett
skf
ski
skick
skicka
skickade
skickades
skickar
skickas
skickat
skicklig
skicklighet
skid
skida
skidor
skidskytte
skidsport
skiftande
skikt
skild
skilda
skilde
skildes
skildra
skildrade
skildrar
skildras
skildring
skildringar
skilja
skiljas
skiljer
skiljs
skillnad
skillnaden
skillnader
skillnaderna
skilsma
skin
skinkar
skinn
skinner
skinnskattebergs
skiss
skisser
skiva
skivan
skivans
skivbolag
skivbolaget
skivinspelningar
skivkontrakt
skivma
skivor
skivorna
skjuta
skjuten
skjuter
skjutfa
skjuts
sko
skog
skogar
skogarna
skogen
skogens
skoglund
skogs
skogsbruk
skogsbygd
skogskyrkoga
skogslandskap
skogsomra
skogssa
skola
skolan
skolans
skolen
skolga
skolledare
skolman
skolor
skolorna
skopje
skor
skorpionspindlar
skotsk
skotska
skott
skotta
skottland
skottlands
skra
skrev
skrevs
skribent
skridflugor
skridskoa
skridskor
skrift
skriften
skrifter
skriftliga
skriftspra
skriftsta
skriva
skrivande
skrivas
skriven
skriver
skrivet
skrivit
skrivits
skrivna
skrivs
skrotades
skrovet
sks
skugga
skuggan
skuggor
skuld
skulden
skulder
skull
skulle
skulpto
skulptur
skulpturen
skulpturer
skvadron
sky
skydd
skydda
skyddad
skyddade
skyddande
skyddar
skyddas
skyddat
skyddet
skyla
skyldig
skyldiga
skyldighet
skylt
skyltar
skylten
skynda
skytte
skyttekung
skytteliga
skytteligan
sl
sla
slag
slagen
slaget
slagfa
slaggenomsnitt
slagit
slags
slagskepp
slagsma
slagverk
slalom
slam
slav
slavar
slaveri
slaveriet
slavhandeln
slaviska
slawomir
sleep
slemmaskar
slesvig
slideva
slippa
slk
slo
slog
slogs
slott
slottet
slottets
slovakien
slovakiska
slovenien
slovenska
slow
slu
slumpma
slund
slussen
slut
sluta
slutade
slutar
slutat
sluten
sluter
slutet
slutfo
slutgiltiga
slutgiltigt
slutliga
slutligen
slutna
slutresultat
slutresultatet
slutsatsen
slutsatser
slutspel
slutspelet
slutspelstra
slutsta
sluttabell
sluttar
sluttningar
sly
sm
sma
smak
smaken
smal
smala
smalare
smalbin
small
smaller
smalspa
smalt
smarker
smart
smash
smedjebackens
smedsla
smeknamn
smeknamnet
smf
smhi
smile
smith
smithii
smiths
smithson
smithsonian
smittade
smo
sms
smycken
sn
sna
snabb
snabba
snabbare
snabbast
snabbaste
snabblo
snabbt
snake
snakes
snarare
snart
snickare
snigelspinnare
sning
sningar
sningen
snitt
sno
snokar
snooker
snorre
snow
snurrade
snyder
snyltrotsva
so
sobre
soc
soccer
social
sociala
socialdemokrat
socialdemokrater
socialdemokraterna
socialdemokraternas
socialdemokratisk
socialdemokratiska
socialfo
socialism
socialist
socialistisk
socialistiska
socialstyrelsen
socialt
socie
sociedad
sociedade
societa
societatis
societe
societeten
society
sociologi
socken
sockenhuvudort
sockenkyrkan
socker
socknar
socknarna
socknen
socknens
soest
sofia
sofie
sofla
soft
software
soika
sojuz
sok
sokn
sol
sola
solanaceae
solanum
solar
solberg
solberga
soldat
soldaten
soldater
soldaterna
soldier
soledad
solen
solens
solfja
soli
solid
solidaritet
solist
solita
solleftea
sollentuna
solmassor
solna
solo
soloalbum
soloartist
sologitarr
solokarria
solomon
solradier
solsystemet
solva
solvalla
solveig
som
somalia
some
somebody
somerset
something
somliga
sommar
sommaren
sommaro
sommarspelen
sommartid
sommarva
somme
sommer
somrarna
son
sonat
sonen
sonens
song
songen
songens
songer
songerna
songs
sonic
sonja
sonny
sonora
sons
sonson
sony
soo
sophia
sophie
sophronica
sopran
sor
sorbus
sordariomycetes
sordida
sordningen
sorg
sorgmyggor
sorsele
sort
sorter
sorters
sorts
sos
sotji
soto
sou
soul
soulier
sound
sounds
soundtrack
soundtracket
source
sources
sous
south
southampton
southeast
southern
southwest
southwestern
sov
sova
sover
soviet
sovjet
sovjetisk
sovjetiska
sovjetiske
sovjetunionen
sovjetunionens
sovrum
sox
sp
spa
space
spain
spalt
spanien
spanienfo
spaniens
spanish
spanjorerna
spannma
spansk
spanska
spanskspra
spanskt
spara
sparbank
sparbanken
sparken
sparre
sparrisva
sparsamt
sparta
spathius
spd
spe
spearman
spears
spec
special
specialiserad
specialiserade
specialiserat
specialist
specie
speciell
speciella
speciellt
species
specifik
specifika
specifikt
specimen
specimens
speciosa
spectabilis
spectral
spectroscopic
spectrum
speed
speedway
spegel
spegeln
speglar
spektakula
spektralklass
spektrum
spekulationer
spel
spela
spelad
spelade
spelades
spelande
spelar
spelare
spelaren
spelarens
spelarkarria
spelarna
spelartrupp
spelas
spelat
spelats
spelda
spelen
spelet
spelets
spelma
spelning
spelningar
speltid
spencer
spermacoce
spets
spetsar
spetsbladloppor
spetsen
spetsiga
sphagnum
sphecidae
spidcat
spider
spiders
spiegel
spilogona
spilosoma
spin
spindelart
spindeldjur
spindeldjursart
spindlar
spinnen
spinola
spinosa
spinosus
spion
spionidae
spira
spirit
spiror
spirostreptidae
spirostreptus
spjut
spjutkastning
splendens
split
splittrades
splittring
spmweb
spo
sponges
sporadiskt
sporrstritar
sporsa
sport
sporta
sportanla
sportchef
sporten
sporter
sportevenemang
sporting
sportklubbar
sports
spotify
spottstritar
spp
spra
sprang
spred
spreds
spreng
sprida
spridas
spridd
spridda
sprider
spridning
spridningen
sprids
spring
springa
springer
springfield
springs
springsteen
sprint
sprit
spro
spyflugor
sqrt
squadron
squamata
square
sr
sri
srpska
ss
ssa
ssan
ssans
ssansen
sse
sselby
sseldjursart
sseldorf
sselva
ssen
ssig
ssiga
ssigt
ssing
ssjo
ssla
ssleholm
ssleholms
ssor
ssp
ssr
sssr
ssu
st
sta
stab
staben
stabil
stabila
stabilitet
stabilt
stabschef
stack
stad
stade
staden
stadens
stades
stadfa
stadga
stadgar
stadigt
stadion
stadium
stadkomma
stads
stadsarkitekt
stadsbibliotek
stadsdel
stadsdelar
stadsdelarna
stadsdelen
stadsdelsomra
stadsdistrikt
stadsdistriktet
stadsfo
stadsfullma
stadshus
stadshuset
stadska
stadsmuseet
stadsmuseets
stadsmuseum
stadsomra
stadsplan
stadsplanen
stadsplanering
stadsra
stadsteater
stadt
stafett
stafettlo
staff
staffan
staffordshire
stafrika
stage
stages
stakes
stal
stalin
stalins
stall
stallet
stam
stambanan
stamfader
stammar
stammarna
stammen
stan
stand
standard
standarden
standarder
stande
standl
standley
stanford
stanley
stanna
stannade
stannar
stannfa
stantarktis
stapeln
stapf
staphylinidae
star
stare
staren
stark
starka
starkare
starkaste
starkt
starna
starr
starrar
stars
start
starta
startade
startades
startar
startas
startat
starten
starter
stas
stat
state
staten
statens
stater
staterna
staternas
states
station
stationen
stationer
stationerna
stationshus
stationshuset
statistical
statistics
statistik
statistiken
statistisk
statistiska
statistiskt
statlig
statliga
statligt
stats
statschef
statsfo
statskalender
statskupp
statsman
statsminister
statsministern
statsra
statssekreterare
statsvetare
statsvetenskap
status
staty
statyer
statyn
staudinger
stav
stavanger
stavas
stavat
stavhopp
stavning
stavningen
stay
stazarbaijan
stbengalen
stbera
stberg
stberlin
stbo
ste
stedt
steel
steen
stefan
stefano
steg
steget
steiermark
stein
steiner
stekelart
stekelflugor
steklar
stelis
stella
stellan
stellar
sten
stena
stenar
stenarna
stenberg
stenbock
stenbra
stenen
stengo
stenhammar
stenhus
stenhusnattsla
stenkoraller
stenkrypare
stenkyrka
stens
stensa
stensjo
stenso
stenungsunds
stenus
step
stephan
stephanie
stephen
stephens
ster
stera
sterbotten
sterbottens
stergo
sterhaninge
sterla
sterling
stermalm
stern
sterna
sternorrlands
sterreich
sterrike
sterrikes
sterrikisk
sterrikiska
sters
stersjo
sterskap
sterskapen
sterskapens
sterskapet
stersund
stersunds
sterut
sterverk
stervik
sterviks
stes
stesta
stet
stettin
stettiner
steudel
steuropa
steuropeiska
steve
steven
stevens
stevenson
stevie
stewart
steyerm
steyermark
stfjordarna
stfo
stfronten
stga
stgo
sthammars
sthlm
sti
stick
sticker
stickmyggor
stiewe
stift
stiftelse
stiftelsen
stiftelser
stiftet
stifts
stig
stiga
stigande
stiger
stil
stilar
stilen
stilettflugor
still
stilla
stilleben
stillesta
stilobezzia
stina
stindien
stingar
stipendiat
stipendier
stipendiet
stipendium
stirling
stja
stkommande
stkrafter
stkust
stkusten
stla
stlig
stliga
stligaste
stlund
stman
stmanland
stmanlands
stmo
stmyror
stning
stningar
stningarna
stningen
sto
stock
stockholm
stockholms
stockholmsbo
stockholmska
stockholmsveriges
stod
stoft
stoke
stol
stolar
stolen
stoll
stolpe
stolt
stone
stones
stop
stopp
stoppa
stoppade
stoppades
stor
stora
storbritannien
storbritannienfo
storbritanniens
store
stores
storgatan
storharkrankar
storhetstid
storia
stories
storjordkrypare
storkackerlackor
storklockan
storkorset
storlek
storlekar
storleken
storm
storma
stormaktstiden
stormar
stormen
storps
storsjo
storslalom
storsta
storstadsomra
storstadsregionen
stort
stortinget
stortja
stortorget
storumans
story
str
stra
straff
straffar
straffet
straffla
straffra
straight
straits
stralsund
strand
stranda
strandberg
stranden
strandlinjen
strandva
strange
stranger
strasbg
strasbourg
strategi
strategisk
strategiska
strategiskt
strauss
strax
streck
stred
street
strejk
stress
striata
striatus
strid
strida
stridande
striden
strider
striderna
stridigheter
stridsflygplan
stridsvagn
stridsvagnar
strike
strikeouts
strikland
strikt
strimbladsva
strindberg
strindbergs
string
stro
strobilanthes
strobl
stroke
stroll
stroller
strong
structure
struktur
strukturen
strukturer
strupe
strupen
sts
stsa
stsim
stska
stspel
sttysk
sttyska
sttyskland
sttysklands
stu
stuart
stud
student
studenten
studenter
studenterna
studentexamen
studentfo
studentka
studentlitteratur
studera
studerad
studerade
studerande
studerar
studeras
studerat
studi
studia
studie
studiefo
studien
studier
studieresa
studieresor
studierna
studies
studiet
studietiden
studio
studioalbum
studioalbumet
studion
studios
studium
study
stueber
stuga
stugan
stumfilmer
stumpbaggar
stund
stundom
stupade
stupat
sture
sturm
stuttgart
stva
stvigdes
stycke
stycken
stycket
style
styltflugor
styltmalar
styr
styra
styrande
styrde
styrdes
styre
styrelse
styrelseledamot
styrelsen
styrelseordfo
styret
styrka
styrkan
styrkor
styrkorna
styrman
styrning
styrs
su
sua
sub
subfam
subfamilies
subfamily
subgenus
subi
subjekt
subordo
subsp
subspecies
substantiv
subtilis
subtropiskt
suc
succe
successivt
sucre
sud
sudamericana
sudan
sudden
sue
suffolk
sugar
suggor
sugmaskar
sui
suicide
suisse
suite
sul
sulawesi
sullivan
sultan
sultanen
sum
sumakva
sumatera
sumatra
sumatrana
summa
summan
summary
summer
summit
sumptu
sun
sund
sunda
sunday
sundberg
sundby
sundbyberg
sundbybergs
sunderland
sundet
sundin
sunds
sundstro
sundsvall
sundsvalls
sune
sung
sunne
sunnhampor
sunshine
suomen
supe
super
superba
supercupen
superettan
superfamily
superhja
superior
superligaen
superligan
suppl
supple
suppleant
supplement
supplementary
support
supportrar
sur
sura
surinam
surrey
surv
survey
sus
susan
susanna
susanne
sussex
sutherland
suttit
sutton
suvera
suzanne
suzuki
suðurland
sv
sva
svag
svaga
svagare
svagt
svalbard
svalo
svamp
svampar
svampart
svampartp
svampdjursart
svampen
svampmyggor
svan
svanberg
svanen
svans
svansen
svansla
svante
svar
svara
svarade
svarar
svaret
svart
svarta
svarte
svartsjo
svarttja
svartvit
svartvita
svd
svea
svealand
sveava
svedala
svedberg
sven
svenljunga
svensk
svenska
svenskagravar
svenskan
svenskar
svenskarna
svenske
svensken
svenskfotboll
svenskspra
svenskt
svensktoppen
svensktoppsmelodier
svensson
sverige
sverigedemokraterna
sveriges
sverigesradio
sverker
sverre
svetlana
svg
svidknott
svinglar
svit
svt
swa
swan
swansea
swartz
swedbank
sweden
swedish
sweeney
sweet
swift
swing
swinhoe
sy
sybra
syd
sydafrika
sydafrikansk
sydafrikanska
sydafrikas
sydamerika
sydamerikanska
syddanmark
sydgeorgien
sydkorea
sydkoreansk
sydkoreanska
sydkoreas
sydlig
sydliga
sydligaste
sydney
sydo
sydost
sydostasien
sydow
sydowia
sydsandwicho
sydshetlandso
sydsudan
sydsvenska
sydsvenskan
sydtyrolen
sydva
syfta
syftade
syftande
syftar
syfte
syften
syftet
syke
syll
syllidae
sylvain
sylvia
symb
symbol
symbolen
symboler
symboliserar
symfoni
symfonier
symfoniorkester
symphony
symplocos
symposium
symptom
sympycnus
symtom
syn
synas
synd
synder
syndrom
synen
synes
synlig
synliga
synligt
synnerhet
synnerligen
synonym
synonymer
synonymic
synonymicus
synonymie
synonymis
synonymt
synonymy
synop
synopsis
synpunkt
synpunkter
syns
synsa
syntes
synthesizer
synvinkel
syra
syre
syrianska
syrien
syriska
syrsor
syskon
syskonen
sysmyr
sysselsa
sysselsatte
sysslade
syst
syste
system
systema
systematic
systematics
systematicus
systematik
systematisk
systematiska
systematiskt
systemet
systems
syster
systern
systerson
systrar
systrarna
syzygium
szepligeti
szlo
szynski
søren
sørensen
t
ta
tab
tabanus
tabasco
tabell
tabellen
tabeller
tabla
table
tables
tachina
tacitus
tack
tacka
tackade
tadzjikistan
taekwondo
taenaris
taflor
tag
taga
tage
tagen
taget
taggar
tagit
tagits
tagligt
tagna
tai
taiti
taiwan
tak
takagi
takahashi
takao
take
taken
takes
taket
takiya
takma
takt
taktik
taktiska
tal
tala
talade
talades
talan
taland
talands
talang
talanger
talar
talare
talas
talat
talbot
tale
talen
tales
talesperson
talet
talets
talk
tall
tallar
tallinn
tallskog
talma
talman
talrika
tals
talsfilmer
tama
tamaulipas
tamerlan
tamil
tamm
tammerfors
tampa
tan
tande
tandla
tandspinnare
tang
tangara
tangaror
tango
tank
tankar
tankarna
tanke
tanken
tant
tanums
tanytarsus
tanzania
tao
tapetserarbin
tappade
tappar
tappat
tar
taraxacum
tardigrada
tardigrade
tare
taren
tarn
tarna
taro
tartu
tas
tasmanien
taste
tat
tate
tau
taube
tavakilian
tavastehus
tavastland
tavla
tavlan
tavlor
taxa
taxapad
taxi
taxon
taxonomi
taxonomic
taxonomiska
taxonomy
taylor
tbebyggt
tbefolkat
tbilisi
tchad
tdjur
tdjursart
te
tea
team
teamet
teams
tears
teater
teatera
teaterchef
teaterchefer
teaterfo
teaterho
teatern
teaterns
teaterpja
teaterregisso
teatersa
teatrar
teatro
teau
teborg
teborgs
teborgspsalmboken
tech
technical
technology
tecken
teckenspra
teckna
tecknad
tecknade
tecknare
tecknen
tecknet
teckning
teckningar
teckningsla
tectaria
ted
teddy
teen
teenage
tegel
tegelbruk
tegne
tegucigalpa
teheran
teil
teknik
tekniken
tekniker
teknisk
tekniska
tekniskt
teknologi
tel
tele
telefon
telegram
telegraph
teleostei
teleskop
television
telia
tell
telopea
telse
tema
teman
temat
tempel
temperatur
temperaturen
temperaturer
temperaturuppgifter
tempererade
tempererat
temple
templet
tempo
tempolopp
tempora
ten
tena
tendens
tenderar
tene
tenella
tengah
tenggara
tenn
tennessee
tennis
tennisspelare
tenor
tens
tensta
tentativa
tenuipalpidae
tenuipalpus
tenuis
teodor
teolog
teologer
teologi
teologie
teologisk
teologiska
teoretisk
teoretiska
teoretiskt
teori
teorier
teorin
tephrosia
ter
teranva
terapi
terbera
terero
teresa
terfa
terfanns
terfick
terfinns
terfo
terfunnits
terga
terger
terges
tergick
terha
teri
teriet
terigen
terinfo
teriverket
teriverkets
terkom
terkommande
terkommer
terkomst
terkomsten
terkval
terla
term
termen
termer
terminal
terminalia
terminologi
terna
terra
terre
terrestrial
territoriella
territorier
territories
territoriet
territorium
territory
terror
terrorism
terry
ters
terska
terskor
tersmeden
tersta
terstod
terstoden
terta
tertog
teruppbyggdes
teruppra
teruppta
terupptog
terupptogs
terva
tervuren
tes
tesga
tesla
tesplats
tessin
test
testa
testacea
testades
testament
testamente
testamentet
tester
tet
tetragnatha
tetramorium
tetranychidae
tetrastichus
tetrigidae
tetrigoidea
tets
tettigoniidae
tettigonioidea
teucholabis
teugels
teva
tex
texana
texas
text
textcolor
texten
texter
texterna
textfo
textil
textilier
textilkonstna
tf
tfo
tga
th
tha
thai
thaila
thailand
than
that
thatcher
thatigk
the
theater
theatre
thebe
thecla
theft
their
theischinger
thelypteridaceae
thelypteris
them
theme
themis
then
theo
theobald
theodor
theodore
theory
ther
there
therese
theridiidae
theridion
these
thessalien
thet
theta
theten
they
thie
thierry
thing
things
think
third
this
tho
thodique
thomas
thompson
thomson
thor
thore
thorell
thorsten
those
thought
thoughts
thousand
thrakien
three
thriller
thrillerfilmer
thrips
through
thu
thulin
thumb
thunberg
thunder
thure
thys
thysanoptera
ti
tia
tianjin
tibastva
tibet
tibetanska
tibialis
tica
ticino
ticks
tico
tid
tida
tiden
tidens
tider
tidera
tiderna
tiders
tidig
tidiga
tidigare
tidigast
tidigaste
tidigt
tidlo
tidning
tidningar
tidningarna
tidningen
tidningens
tidningsman
tidpunkt
tidpunkten
tids
tidskrift
tidskriften
tidskrifter
tidsperiod
tidvis
tie
tienne
tierformen
tierkunde
tierps
tierra
tierreich
tif
tiger
tigers
tigh
tigr
tijdschrift
til
till
tilla
tillandsia
tillbaka
tillbaks
tillbeho
tillbringa
tillbringade
tillbringar
tillbyggnad
tilldelad
tilldelade
tilldelades
tilldelas
tilldelats
tillfa
tillflykt
tillfo
tillfra
tillfredssta
tillga
tillhandaha
tillho
tillika
tillka
tillkom
tillkommer
tillkommit
tillkomst
tillkomsten
tillra
tills
tillsa
tillsammans
tillsatte
tillsattes
tillskrivs
tillsta
tillsyn
tillta
tilltalsnamn
tilltra
tillva
tillvaro
tillverka
tillverkad
tillverkade
tillverkades
tillverkar
tillverkare
tillverkaren
tillverkas
tillverkat
tillverkats
tillverkning
tillverkningen
tim
timberlake
time
timeaxis
times
timm
timmar
timmars
timme
timmen
timmer
timo
timothy
timra
timur
tin
tina
tineidae
ting
tings
tingslag
tingslaget
tingsra
tingsryds
tintin
tio
tioa
tiofotade
tiokamp
tionde
tiotal
tipos
tippeligaen
tips
tipula
tirana
tis
tisdag
tit
titan
titanic
titel
titeln
titelrollen
titelspa
titlar
titlarna
title
tito
tits
titta
tittar
tittare
tittarna
tittarro
titus
tivoli
tja
tjeckien
tjeckienfo
tjeckisk
tjeckiska
tjeckoslovakien
tjeckoslovakiska
tjej
tjejers
tjernych
tjo
tjock
tjocka
tjockare
tjockhuvuden
tjockt
tjugo
tjugotal
tklokrypare
tko
tkomst
tland
tlands
tlista
tma
tmarker
tmesisternus
tminstone
tna
tnattsla
tning
tningar
tningen
tnjo
to
tobago
tobak
tobias
tocantins
today
todd
tofs
tofsspinnare
tog
together
togo
togs
tokai
tokovinin
tokyo
tol
toledo
tolfte
tolka
tolkade
tolkar
tolkas
tolkats
tolkien
tolkning
tolkningar
tolkningen
toll
tolv
tom
toma
tomas
tome
tomelilla
tomentosa
tomma
tommy
tomorrow
tomosvaryella
tomt
tomten
tomter
ton
tona
tonen
toner
tong
tonga
tongivande
toni
tonight
tonsa
tony
too
top
topelius
topografisk
topp
toppade
toppar
toppen
topsent
tor
tora
torbjo
tord
torde
tore
torg
torget
torgny
torino
torka
torn
torne
tornea
tornen
tornet
tornets
torngra
toro
toronto
torp
torpa
torpedba
torpet
torr
torra
torraste
torre
torres
torrey
torrt
torsa
torsby
torsdag
torsha
torsten
tort
torten
torter
tortsgraden
tortyr
torymidae
torymus
tos
toscana
total
totala
totalfo
totalt
tottenham
touch
toulouse
tour
touren
touring
tournament
tours
tous
tove
towards
tower
town
townes
townsend
township
toy
toyota
tp
tr
tra
track
tracks
tracy
trad
trade
tradition
traditionell
traditionella
traditionellt
traditionen
traditioner
trafik
trafiken
trafikerade
trafikerar
trafikeras
trafikplats
trafikverket
tragedi
trail
train
trakten
trakter
tran
trana
tranemo
trans
transactions
transfer
transfermarkt
translated
translation
transmission
transport
transporter
transportera
transporterades
transporteras
transvaal
trappa
trappan
trappor
trav
travel
travha
travis
travlopp
travsport
tre
trea
trean
treated
tredje
tredjedel
tredjedelar
tredjeplats
tredjeplatser
tree
trees
treho
trek
trel
trelleborg
trelleborgs
trend
trent
trentepohlia
trentino
tres
tresteg
trettio
trettioa
tretton
trettonde
treubia
trevor
tri
trial
triana
triangel
triangeln
triangularis
tribe
tribes
tribu
tribus
tribute
trichogramma
trichogrammatidae
trichoptera
trick
tricolor
trier
trieste
trifolium
triftva
trigonidiinae
trilogi
trilogin
trinidad
trinity
trio
trion
trioza
triple
tristan
tristis
triumfba
trivs
trjapitzin
tro
trodde
troende
trofe
trogen
trogna
trohet
trois
troja
troligen
troligt
troligtvis
troll
trolldom
trolle
trollha
trollkarlen
trollsla
trombon
troms
tromsø
tron
trondheim
tronen
tronfo
trop
trophy
tropical
tropicos
tropisk
tropiska
tropiskt
tror
tros
trosa
trossamfund
trots
trott
trouble
trova
troy
trudy
true
truman
trummis
trummisen
trummor
trump
trumpet
trumslagare
truncata
trupp
truppen
trupper
trupperna
trust
trustees
truth
try
tryck
trycka
tryckeri
trycket
tryckningar
tryckt
tryckta
trycktes
trygg
trygghet
trøndelag
ts
tsai
tsar
tsaren
tsas
tsel
tseln
tska
tskan
tskilda
tskilliga
tskrivare
tsligt
tsma
tsmanskompani
tsspindlar
tt
tta
ttad
ttade
ttades
ttan
ttande
ttandet
ttans
ttar
ttare
ttaren
ttarna
ttartavlor
ttas
ttat
ttats
ttdjur
tte
tteba
ttega
ttekackerlackor
ttekrabbspindlar
ttelse
ttelsen
ttelser
ttelserna
ttelsetja
tten
ttens
tter
ttern
tterna
ttes
ttestja
ttet
ttfa
ttflugor
ttha
tthet
ttho
ttigade
ttigheter
ttigheterna
tting
ttingar
ttingen
ttir
ttka
ttling
ttlingar
ttma
ttning
ttningar
ttningarna
ttningen
ttningskriget
ttonde
ttondelsfinal
ttor
ttra
ttrad
ttrade
ttrades
ttrar
ttrarna
ttras
ttre
ttring
ttringar
tts
ttsfo
ttsla
ttslig
ttsliga
ttsligt
ttsra
ttsva
ttvik
ttviks
ttvikt
ttvis
ttvisa
tu
tuberculata
tuberculatus
tuberkulos
tucker
tude
tudes
tuff
tull
tum
tumba
tumo
tuna
tung
tunga
tungt
tungvikt
tunisien
tunn
tunna
tunnel
tunnelbana
tunnelbanan
tunnelbanestation
tunnelbanestationer
tunneln
tunnlar
tunt
tur
turbellaria
turbo
turbonilla
ture
turer
turgeon
turin
turism
turismen
turister
turkarna
turkey
turkiet
turkiets
turkisk
turkiska
turkmenistan
turn
turne
turner
turnera
turnerade
turnerande
turnerat
turnering
turneringar
turneringen
turneringens
turtles
tusen
tusentals
tutzing
tv
tva
tvatten
tvekan
tverk
tverket
tvidabergs
tvillingar
tvillingarna
tvinga
tvingade
tvingades
tvingar
tvingas
tvingats
tvist
tvivel
tvungen
tvungna
twa
twenty
twilight
twin
twins
twist
twitter
two
ty
tycho
tycker
tycks
tyckte
tycktes
tyder
tydlig
tydliga
tydligare
tydligen
tydligt
tyg
tyler
tyne
tyngdlyftare
tyngdlyftning
tyngre
typ
type
typen
typer
typerna
types
typhlocybinae
typhlodromus
typisk
typiska
typiskt
tyranner
tyreso
tyrolen
tyrrell
tysk
tyska
tyskar
tyskarna
tyske
tyskland
tysklands
tyskspra
tyskt
tyst
tysta
tystnad
tyva
tz
u
uba
uber
ubirajara
ubv
uc
ucd
uchida
uci
ud
udda
udde
udden
uddevalla
ueber
ueda
uefa
uetz
ufc
uganda
uggla
ugglan
ugglor
uitlandsche
uk
ukraina
ukrainas
ukraine
ukrainsk
ukrainska
ulea
ulf
ull
ulla
ullevi
ullsko
ulrica
ulricehamn
ulricehamns
ulrich
ulrik
ulrika
ulriksdals
ulster
ultimate
ultra
ulvaeus
ulvsunda
um
uma
umbellifer
umbellifers
umea
umga
un
una
und
undan
undantag
undantaget
under
underart
underarten
underarter
underbara
underdistrikt
underfamilj
underfamiljen
underga
underground
underha
underhuset
underja
underjordiska
underka
underla
underlag
underliggande
underlo
underra
undersa
undersida
undersidan
underso
understa
understanding
understo
undertecknade
undertecknades
undervisa
undervisade
undervisning
undervisningen
undga
undkomma
undre
undsa
undulata
undvika
undviker
une
unesco
unescos
ung
unga
ungar
ungarischen
ungarna
ungdjur
ungdom
ungdomar
ungdomen
ungdoms
ungdomsfo
ungdomslitteratur
unge
ungefa
ungen
ungern
ungerns
ungersk
ungerska
ungfa
unicode
unicolor
uniform
uniformer
uniformis
unik
unika
unikt
unio
union
unionen
unionens
unit
united
univ
universal
universe
universeguide
universidad
universita
universite
universitet
universiteten
universitetet
universitetets
universitets
universitetsbibliotek
university
universum
unix
unknown
uno
unter
untersuchungen
up
update
updated
upon
upp
uppa
uppba
uppbyggd
uppbyggda
uppbyggnad
uppdaterad
uppdelad
uppdelade
uppdelat
uppdelning
uppdrag
uppdraget
uppe
uppeha
uppeho
uppemot
uppenbarelse
uppenbarligen
uppenbart
upper
uppfann
uppfanns
uppfattade
uppfattades
uppfattar
uppfattas
uppfattning
uppfattningar
uppfattningen
uppfinnare
uppfinning
uppfinningar
uppflyttade
uppfo
uppfostrades
uppfostran
uppfylla
uppfyller
uppga
uppgav
uppgavs
uppger
uppges
uppgick
uppgift
uppgiften
uppgifter
uppgifterna
uppgo
uppha
uppho
upphov
upphovsman
upphovsra
uppkallad
uppkallade
uppkallat
uppko
uppkom
uppkommer
uppkommit
uppkomst
uppkomsten
uppl
uppla
upplaga
upplagan
upplagor
uppland
upplands
uppleva
upplevde
upplevelse
upplevelser
upplever
upplo
upplopp
upplysning
uppma
uppmanade
uppmanar
uppmaning
uppmuntra
uppmuntrade
uppna
uppra
upprepade
upprepas
uppro
uppror
upproret
upprustning
uppsa
uppsala
uppsats
uppsatser
uppsatt
uppsatta
uppskattad
uppskattade
uppskattades
uppskattar
uppskattas
uppskattats
uppskattning
uppskattningsvis
uppslagsbok
uppslagsord
uppslagsverk
uppso
uppsta
uppstod
uppstro
uppsving
uppta
upptagen
upptar
upptas
upptill
upptog
upptogs
upptra
uppva
uppvidinge
uppvisar
uppvuxen
upright
upsala
ur
ura
uran
uranotaenia
urb
urban
urbana
urinsektsart
urmo
uroleucon
urpremia
ursa
urskiljs
ursprung
ursprunget
ursprunglig
ursprungliga
ursprungligen
ursprungligt
urss
ursula
uruguay
uruppfo
urval
us
usa
usafo
usb
usd
use
used
user
using
uss
ussr
ut
uta
utah
utan
utanfo
utara
utarbetade
utbilda
utbildad
utbildade
utbildades
utbildning
utbildningar
utbildningen
utbildningsinstitutioner
utbredd
utbredning
utbredningsomra
utbro
utbrott
utbrottet
utbryter
utbrytning
utbud
utbyggnad
utbyggnaden
utbyte
utc
utdelas
utdo
utdrag
ute
uteblev
utefter
uteslo
uteslutande
utexaminerades
utfa
utfall
utflo
utfo
utformad
utformade
utformades
utformat
utformning
utformningen
utforska
utg
utga
utgav
utgavs
utges
utgick
utgifter
utgivare
utgiven
utgivet
utgivna
utgivning
utgivningen
utgjorde
utgjordes
utgjort
utgo
utgra
utha
uti
utifra
utja
utka
utkanten
utkast
utkom
utkommer
utla
utlandet
utlo
utlopp
utloppet
utma
utmanade
utmaning
utmaningar
utmed
utna
utnyttja
utnyttjade
utnyttjar
utnyttjas
uto
utom
utoma
utomhus
utomlands
utpla
utpra
utra
utrecht
utreda
utredning
utredningar
utredningen
utrikes
utrikesdepartementet
utrikesminister
utrikesministern
utrikesministrar
utrikespolitik
utrikespolitiska
utro
utropade
utropades
utrustad
utrustade
utrustades
utrustning
utrustningen
utrymme
utrymmen
utsa
utsatt
utsatta
utsattes
utsatts
utse
utsedd
utseende
utseendet
utser
utses
utsetts
utsidan
utsikt
utskott
utskottet
utsla
utslagen
utslagna
utsmyckning
utsmyckningar
utso
utspelade
utspelar
utspelas
utspridda
utsta
utstra
uttagen
uttagning
uttagningen
uttal
uttalade
uttalande
uttalanden
uttalas
uttalat
uttalet
uttar
uttra
uttryck
uttrycka
uttrycker
uttrycket
uttryckligen
uttrycks
uttryckt
uttryckte
utva
utvalda
utveckla
utvecklad
utvecklade
utvecklades
utvecklar
utvecklas
utvecklat
utvecklats
utveckling
utvecklingen
utvidgade
utvidgades
utvidgning
utvisningsminuter
uv
uvarov
uzbekistan
v
va
vaccin
vaccinium
vacker
vackert
vackra
vackraste
vad
vade
vades
vadstena
vaggeryds
vagn
vagnar
vagnarna
vagnen
vakant
vaknar
vakt
vaktma
val
valais
valbo
vald
valda
valde
valdeltagande
valdeltagandet
valdemar
valdes
vale
valen
valencia
valenciennes
valentin
valentine
valeriana
valet
valeton
validation
valkrets
valkretsar
valkretsen
vall
valla
valladolid
valle
vallen
vallentuna
valley
vallgraven
vallmova
vallonien
valo
valresultat
vals
valsen
valt
valts
value
valuta
valutan
valv
vampire
van
vana
vancouver
vanda
vande
vanden
vandra
vandrar
vandring
vanessa
vanlig
vanliga
vanligare
vanligast
vanligaste
vanligen
vanligt
vanligtvis
vann
vanns
vanor
vansbro
vapen
vapenflugor
vapenhus
vapenhuset
vapensko
vapenstillesta
vapnen
vapnet
var
vara
varade
varaktigt
varande
varandra
varandras
varannan
varar
varav
varberg
varbergs
vardag
vardagliga
vardera
vare
varefter
varelse
varelser
varen
varfo
varg
vargar
vargas
vargen
vargspindlar
vari
varia
variabel
variabilis
variable
variabler
varians
variant
varianten
varianter
varianterna
variation
variationer
variegata
variegatus
variera
varierad
varierade
varierande
varierar
varierat
varifra
varigenom
varit
varje
varkaus
varken
varm
varma
varmare
varmaste
varmed
varmt
varna
varnade
varnar
varning
varor
varpa
vars
varsin
varspindlar
vart
vartannat
varuhus
varuhuset
varuma
varv
varvet
varvid
vary
vas
vasa
vasaloppet
vasaorden
vasas
vasc
vascular
vasilij
vasiljevitj
vassa
vat
vatten
vattenbrynsbaggar
vattenbyggnadsingenjo
vattendrag
vattendraget
vattenfall
vattenflugor
vattenfo
vattenkraft
vattenkraftverk
vattenpolo
vattenpolospelare
vattentorn
vattenva
vattenytan
vattenytor
vattnet
vaud
vaxholm
vaxholms
vaxsla
vb
vbin
vbladig
vbladiga
vd
vda
vdade
vdar
vdat
vde
vdes
vding
vdingar
vdingen
ve
vecka
veckan
veckans
vecklare
veckor
veckors
ved
vederbo
vedlar
vedstritar
veg
vega
vegas
vegetation
vehof
vel
velat
vellinge
velocities
velutina
vem
ven
vende
venedig
veneto
venezia
venezuela
vens
venstre
ventyr
ventyret
ventyrsfilmer
venus
venusta
ver
vera
veracruz
verallt
verb
verbandsgemeinde
verbascum
verbefa
verbet
verdcourt
verde
verdi
vereins
vereniging
verens
verenskommelse
verenskommelsen
verenssta
verfamiljen
verflo
verfo
verga
vergav
vergavs
verge
vergick
vergivna
vergrepp
vergripande
verh
verhandelingen
verhandlungen
verho
verhoeff
verhuset
verhuvud
verhuvudtaget
veri
verity
verk
verka
verkad
verkade
verkades
verkalix
verkan
verkar
verkas
verkat
verken
verket
verklig
verkliga
verkligen
verklighet
verkligheten
verkligt
verksam
verksamhet
verksamheten
verksamheter
verksamma
verksamt
verksta
verkstad
verktyg
verla
verlag
verleva
verlevande
verlevde
verlever
verlevnad
verlevt
verma
vermont
vern
verna
vernaturliga
verner
vernon
vero
verona
veronica
verraskande
verrill
verrucosa
vers
versa
versailles
versatt
versatta
versatte
versattes
versatts
versen
verser
versicolor
versikt
version
versionen
versioner
versionerna
verskott
verskridande
verst
versta
verstar
verste
verstelo
versten
verstiger
versva
vert
verta
vertagande
vertala
vertebrates
verteneuil
vertical
vertikala
vertog
vertogs
vertornea
vertra
vertyga
vertygad
vertygade
verva
vervaka
vervakning
vervintrar
very
ves
vesi
vespoidea
vesta
vet
veta
vete
vetensk
vetenskap
vetenskapen
vetenskaplig
vetenskapliga
vetenskapligt
vetenskaps
vetenskapsakademien
vetenskapsakademiens
vetenskapsma
vetenskapsman
vetenskapssocieteten
veterina
vetlanda
veva
vfa
vflugor
vg
vgrodor
vhs
vi
via
viborg
viborgs
viby
vic
vice
viceguverno
vicente
vicepresident
victor
victoria
victory
vid
vida
vidal
vidare
vidareutveckling
viden
video
videon
videor
videva
vidstra
vie
viejo
vienna
vienne
viereck
vietnam
vietnamesiska
vietnamkriget
viette
view
viewer
vigseln
vii
viii
viitasaari
vik
vika
viken
viking
vikingarna
vikingatida
vikingatiden
vikings
viksjo
vikt
vikten
viktig
viktiga
viktigare
viktigaste
viktigt
viktor
viktoria
vila
vilaine
vilande
vilar
vild
vilda
vilhelm
vilhelmina
vilja
viljan
vilka
vilkas
vilken
vilket
vill
villa
village
villan
villanueva
villaomra
villastad
ville
villeneuve
villiers
villkor
villkoren
villmanstrand
villmanstrands
villor
villosa
vilnius
vilt
vimmerby
vin
vincent
vincenzo
vinci
vind
vindar
vindelns
vinden
vindeva
viner
vinet
vinga
vingar
vingarna
vinge
vingeart
vingen
vinkel
vinkeln
vinna
vinnande
vinnare
vinnaren
vinnarna
vinner
vinns
vinruteva
vinst
vinsten
vinster
vinter
vintergatan
vinterkriget
vintern
vinterspelen
vintertid
vinva
vinyl
viola
violacea
violer
violin
violiner
violinist
violinister
violva
virescens
virgata
virgin
virginia
viridis
virke
virta
virtual
virtuella
virus
viruset
virvelmaskar
vis
visa
visade
visades
visan
visar
visas
visat
visats
visby
viscount
vise
vision
visningar
visor
viss
vissa
visserligen
visst
visste
vista
vistades
vistas
vistelse
visual
visuell
visuella
vit
vita
vitaktig
vitamin
vitfja
vito
vitryska
vitryssland
vitsebsks
vitt
vittata
vitterhets
vitterhetsakademien
vitterhetssamha
vittnar
vittne
vittnen
vittnesbo
vittnesma
vittorio
viva
viveva
vivlar
vivor
vizier
vk
vla
vlade
vladimir
vladivostok
vlan
vlande
vlar
vlat
vle
vleborgs
vliga
vling
vlingar
vlingarna
vlinge
vlingen
vlingens
vlingscyklist
vlingscyklister
vlingskarria
vm
vmalar
vnad
vnader
vning
vningar
vningarna
vningen
vo
voblasc
voblast
voblasten
vocal
vogel
voice
voices
vojvodskap
vokal
vokaler
vol
volca
volkswagen
volley
volleyboll
volleybollspelare
volonta
vols
volta
volume
volumes
volution
volvo
volym
volymen
volymer
volymnummer
vom
von
voor
vor
vore
vorna
voro
vorpommern
vosges
voss
voyage
vp
vr
vra
vrade
vrades
vraket
vrar
vrat
vre
vrede
vreeswijk
vres
vreta
vri
vriesea
vrig
vriga
vrigt
vring
vringen
vrre
vs
vsa
vsjo
vskog
vsla
vsta
vsteklar
vt
vtra
vts
vu
vuelta
vulen
vulgaris
vulkan
vulkanen
vulkaner
vunna
vunnit
vuxen
vuxit
vuxna
vy
vykort
vysoc
w
wa
wachtmeister
wade
waffen
wagner
wagners
wahl
wahlberg
wahlenbergia
wahlgren
wahlstro
waiting
wake
waldemar
wales
walesiska
walk
walker
walkeri
walking
wall
wallace
wallander
walle
wallenberg
wallich
wallin
wallis
walsh
walt
walter
walters
walther
walton
wan
wanderers
wang
wanna
want
war
wara
warburg
ward
ware
warner
warren
warrior
warriors
wars
warszawa
warwick
warwickshire
was
wasa
wash
washington
wasp
wasps
watanabe
watch
water
waterhouse
waterloo
waters
watford
watling
watson
watt
wattenwyl
watts
wave
way
wayne
wcsp
wd
we
weaver
web
webb
webbka
webbla
webbplats
webbplatsen
webbplatser
webbsida
webbsidor
weber
website
webster
wedding
week
weekly
wei
weimar
weiss
welcome
well
wellington
wells
welsh
welt
wembley
wen
wendell
wendy
wenig
were
werner
wesley
wesmael
wesolowska
west
westerberg
westerlund
western
westfalen
westin
westman
westminster
weston
westwood
what
wheeler
when
where
which
white
whitney
who
why
wi
wiberg
wickman
wid
wide
widmark
widstrand
width
wie
wiedemann
wien
wiener
wiens
wiesbaden
wight
wii
wij
wiki
wikila
wikipedia
wikipedias
wiklund
wiksell
wikstro
wil
wild
wilde
wilder
wildlife
wiley
wilhelm
wilhelmina
wilkes
wilkinson
will
willard
willdenow
wille
willem
willemse
willi
william
williams
williamson
willie
willis
willy
wilson
wilton
wiltshire
wimbledon
wimbledonma
win
winchester
wind
windows
windsor
wine
wing
wings
winnipeg
winston
winter
wire
wirth
wisconsin
wise
wish
wiss
wissenschaften
wissenschaftliche
wissenschaftlichen
with
within
without
witte
wittenberg
wo
wojciech
wolf
wolff
wolfgang
wolfsburg
wolfsgarden
wolverhampton
wolves
woman
women
womens
won
wonder
wong
woo
wood
woods
woody
worcester
word
words
work
workers
working
works
world
worlds
worms
worth
would
wp
wq
wrangel
wrede
wright
wrong
wta
wu
wuhan
wulp
wunderlich
wurdack
www
wyoming
wytsman
x
xa
xan
xande
xanthoparmelia
xanthopimpla
xanthorhoe
xaver
xavier
xbox
xel
xella
xenia
xeno
xer
xeri
xhip
xi
xia
xian
xiang
xico
xii
xiii
xinjiang
xiv
xix
xjo
xl
xla
xlade
xlande
xlar
xlas
xling
xor
xt
xta
xtart
xtdatabas
xtdelar
xte
xten
xter
xterna
xtindex
xtlighet
xtligheten
xtlussteklar
xu
xv
xvi
xvii
xviii
xx
xxi
xxiv
xyleborus
xylocopa
xyris
xysticus
y
ya
yale
yamaha
yan
yang
yankees
yards
ycat
ydre
ye
year
years
yeh
yellow
yes
yi
yin
ying
yla
yle
ylo
ylva
yngre
yngsta
yngste
yngve
yo
yoga
yogyakarta
yokohama
yonne
york
yorks
yorkshire
you
young
your
youth
youtube
ypthima
yrjo
yrke
yrken
yrket
ystad
ystads
yta
ytan
ytor
ytterligare
ytterst
yttersta
ytterva
yttre
yu
yuan
yucata
yukon
yunck
yunnan
yunnanensis
yuzhong
yvelines
yves
yvonne
yyyy
z
za
zacatecas
zacharias
zagreb
zagrebs
zaire
zajciw
zamarada
zambia
zamora
zander
zanzibar
zapata
zaragoza
zaro
ze
zealand
zeeland
zeelands
zeit
zeitschr
zeitschrift
zeitung
zelda
zelotes
zeppelin
zero
zeta
zethus
zetterberg
zetterlund
zetterstedt
zeus
zhang
zhao
zhejiang
zhen
zheng
zhengzhou
zhou
zhu
zhurnal
zi
zimbabwe
zingiberaceae
zink
zli
zobodat
zodariidae
zompro
zon
zone
zonen
zoo
zoogeography
zool
zoolog
zoologer
zoologi
zoologia
zoologica
zoologicae
zoological
zoologicheskii
zoologicheskogo
zoologici
zoologie
zoologique
zoologiques
zoologisch
zoologische
zoologischen
zoologischer
zoologiska
zoology
zoosystematica
zootaxa
zootaxonomica
zorn
zquez
zu
zum
zur
zusammenstellung
zwei
zwick
zygaena
{
|
}
~
¡
£
¦
§
¨
©
ª
«
­
®
°
±
²
³
´
µ
·
¹
º
»
¼
½
×
ß
æ
ællæ
ð
ø
þ
þa
þo
ı
ƒ
ʹ
ʻ
ʿ
ˈ
ː
̀
́
̂
̃
̄
̆
̇
̈
̉
̊
̋
̌
̓
̔
̛
̣
̦
̧
̨
̱
̸
͂
α
β
γ
δ
ε
ζ
η
θ
ι
κ
λ
μ
ν
ξ
ο
π
ρ
ς
σ
τ
υ
φ
χ
ψ
ω
а
в
г
е
и
к
л
м
н
на
о
с
т
у
х
я
і
ָ
ּ
ا
ب
باد
ت
ج
ح
خ
د
ر
ز
س
ش
ق
ك
ل
م
ن
ه
و
ى
ي
َ
ُ
ِ
ّ
ْ
ٓ
ٔ
ٕ
پ
چ
گ
ە
र
ा
ि
ी
्
া
ா
்
്
ั
ิ
ี
ุ
่
้
་
᛫
᛬
‌
‐
‑
‒
–
—
‘
’
“
”
„
†
•
…
′
″
€
№
→
↔
↷
∈
−
∞
≈
≤
≥
⋅
③
④
⑦
─
━
│
└
├
△
●
★
♀
♂
♭
⟨
⟩
⺀
⺄
⺆
⺈
⺊
⺌
⺕
⺝
⺸
⺼
⿰
⿱
⿲
⿳
⿴
⿵
⿶
⿷
⿸
⿹
⿺
⿻
、
。
〢
い
う
か
き
く
こ
さ
し
た
ち
て
と
な
に
の
は
ま
ら
り
る
を
ん
゙
゚
ア
イ
ウ
オ
カ
キ
ク
コ
サ
シ
ス
タ
ッ
テ
ト
ニ
ハ
ヒ
フ
ホ
マ
ミ
ユ
ラ
リ
ル
レ
ロ
ン
・
ー
㇁
㇂
㇄
㇇
㇈
㇉
㇓
㐁
㐄
㐅
㐌
㐫
㐬
㐭
㐮
㐱
㑒
㒵
㒸
㒼
㓁
㓞
㔾
㕛
㕣
㖾
㘝
㚅
㚇
㚔
㚘
㝉
㝡
㝴
㝵
㞋
㞢
㞷
㠩
㠭
㠯
㡀
㡭
㡿
㢲
㢴
㣇
㣺
㥯
㪅
㫄
㫐
㫒
㫺
㬅
㬎
㬥
㬰
㲋
㳄
㷠
㸒
㸚
㸦
㼌
㼲
㽞
㿟
䀠
䂞
䍃
䏍
䒑
䖍
䖒
䖝
䖵
䙴
䚻
䜌
䝿
䡛
䧹
䪞
一
丁
丂
七
丄
丅
丆
万
丈
三
上
下
丌
不
与
丏
丐
丑
专
且
丕
世
丘
丙
业
东
丞
丢
丣
两
严
並
丨
丩
个
丫
丬
中
丮
丰
丱
串
丵
丶
丷
丸
丹
为
主
丽
丿
乀
乂
乃
久
乆
乇
么
义
之
乌
乍
乎
乏
乐
乑
乔
乖
乗
乘
乙
乚
乛
乜
九
乞
也
习
乡
乳
乾
亀
亅
了
亇
予
争
事
二
亍
于
亏
亐
云
互
亓
五
井
亘
亚
亜
亞
亟
亠
亡
亢
交
亥
亦
产
亨
亩
享
京
亭
亮
亯
亰
亲
亳
亶
亷
人
亻
亼
亾
仁
今
介
仌
从
仐
仑
仒
仓
仕
他
付
仝
代
令
以
任
企
伊
伏
伐
休
会
伯
但
位
何
佘
余
作
佥
使
來
侈
侌
侖
侯
侵
便
保
俞
信
修
倉
倍
候
倠
備
僉
僕
儿
兀
允
兂
元
兄
充
兆
兇
先
光
兊
克
兌
免
兑
兒
兓
兔
党
兜
兟
入
全
兩
兪
八
公
六
兮
兰
共
关
兴
兵
其
具
典
兹
兼
冀
冂
冃
冄
内
冈
冉
冊
冋
册
再
冎
冏
冐
冒
冓
冖
冗
冘
军
农
冝
冡
冥
冫
冬
冷
几
凡
凢
凵
凶
凷
凸
凹
出
函
凾
刀
刁
刂
刃
刄
刅
分
切
刍
刑
刕
刖
列
刘
则
初
別
利
别
到
制
刺
則
削
剌
前
剡
剽
劉
力
功
加
劦
助
劫
劳
劵
勃
勇
勉
勒
動
務
勞
勤
勹
勺
勻
勾
勿
匀
匂
包
匆
匈
匊
匋
匍
匕
化
北
匚
匝
匡
匪
匱
匸
匹
区
医
匽
匿
區
十
卂
千
卄
卅
卆
升
午
卉
半
卌
华
卑
卒
卓
单
卖
南
卜
卝
卞
占
卡
卢
卣
卤
卦
卩
卪
卬
卯
印
危
即
却
卵
卷
卸
卻
厂
厃
厄
历
厈
厉
厌
厓
厘
厚
原
厤
厥
厨
厭
厲
厶
厷
厸
去
厼
厽
县
叀
参
參
叅
又
叉
及
友
双
反
叐
发
叒
叔
叕
取
受
叚
叜
叟
口
古
句
另
叩
只
召
可
台
叱
史
右
叵
号
司
叹
吂
各
吅
合
吉
吊
吋
同
名
后
吏
向
吕
君
吝
吞
否
含
启
吳
吴
吹
吾
呂
呆
呈
告
员
呙
周
命
咅
和
咎
咠
咢
咨
咸
咼
哀
品
哉
員
哥
哲
唐
商
啇
問
啚
啬
啻
善
喜
喬
單
喿
嗇
噩
嚴
囊
囗
囘
囙
囚
四
回
囟
因
囧
囬
园
困
囱
囷
固
国
图
圂
圅
國
圍
圓
土
圡
圣
圥
在
圭
地
圶
场
圼
坐
坒
坚
坝
坪
坴
垂
垔
垚
埀
埋
城
埶
執
基
堂
堅
堆
堇
堯
塔
塘
塞
墨
壘
士
壬
壯
声
壳
壴
壹
壺
壽
夂
处
夅
夆
备
夊
夋
夌
复
夏
夒
夕
外
夗
夘
多
夜
夢
大
夨
天
太
夫
夬
夭
央
失
夲
头
夷
夸
夹
夻
夾
奂
奄
奇
奈
奉
奎
奏
奐
契
奓
奔
奚
奞
奠
奢
奥
奭
女
奴
奻
好
如
妄
妙
妟
妥
妻
妾
姑
委
姜
威
娄
婁
婴
嬰
嬴
子
孑
孔
孕
孖
字
存
孚
孛
孝
孟
季
孤
学
孫
孱
學
宀
宁
宂
它
宅
宇
守
安
宋
完
宏
宓
宗
官
定
宛
宜
宝
客
宣
室
宮
宰
害
家
容
宾
宿
寄
寅
密
富
寒
察
寧
寨
審
寫
寬
寮
寸
对
寺
寻
寽
対
寿
封
尃
射
将
將
專
尉
尊
尋
尌
對
小
少
尒
尓
尔
尖
尗
尚
尞
尢
尣
尤
尧
尨
尭
就
尸
尹
尺
尻
尼
尽
尾
尿
局
居
屈
屋
屎
屏
屑
展
屖
屚
属
屠
屡
屬
屮
屯
屰
山
屵
屾
岁
岂
岑
岗
岡
岩
岭
岳
岸
峯
峰
島
崇
崑
崔
崖
崙
崩
嵬
嶲
巂
巛
川
州
巟
巠
巢
巤
工
左
巧
巨
巩
巫
差
己
已
巳
巴
巷
巸
巽
巾
巿
帀
市
布
希
帚
帛
帝
带
師
席
帶
常
干
平
年
幵
并
幷
幸
幺
幻
幼
幽
幾
广
広
庄
床
库
底
店
庙
庚
府
度
庫
庭
庶
康
庸
廉
廌
廛
廣
廩
廴
延
廷
建
廾
廿
开
弁
弃
弄
弇
弋
式
弓
弔
引
弗
弘
弜
弟
张
弥
弦
弱
張
強
强
彊
彌
彎
彐
彑
当
彔
录
彖
彗
彡
形
彥
彦
彧
彭
彳
役
彼
往
待
律
徒
得
徙
從
復
微
徵
德
心
忄
必
忌
忍
志
忝
忠
忩
快
念
忽
忿
思
怠
急
怱
恆
恒
恩
恭
息
悉
患
悤
悲
悶
惠
惡
惢
愁
愈
意
愛
感
慈
慧
慮
憂
憲
應
戀
戈
戉
戊
戋
戌
戍
戎
成
我
戒
戔
或
戚
戠
戢
截
戲
戶
户
戹
戼
戾
房
所
扁
扇
手
扌
才
打
托
执
承
折
拉
拜
拿
掌
推
提
摩
支
攴
攵
收
攸
改
放
政
敄
敏
敕
敖
敗
敝
敞
敢
散
敦
敫
敬
数
敷
數
斂
文
斉
斊
斗
斤
斥
斩
斬
斯
新
方
於
施
斿
旁
旋
族
无
旡
既
旣
日
旦
旧
旨
早
旬
旱
旲
时
旾
昆
昇
昌
昍
明
昏
易
昔
昗
昜
星
春
昬
是
昱
昴
昷
時
晃
晋
晏
普
景
晶
智
暑
暴
曇
曩
曰
曲
曳
更
曷
書
曹
曼
曾
替
最
朁
會
月
有
朋
服
朔
朕
朗
望
朝
木
朩
未
末
本
札
朮
术
朱
朵
朶
朿
杀
李
杏
村
杜
束
条
来
杨
東
杲
杳
松
析
林
枚
果
枝
枲
枼
某
柔
查
柬
柰
柴
栗
格
桀
桑
桥
桼
梁
條
梟
梨
棘
棠
棥
森
楚
業
楼
楽
榮
樂
樊
欠
次
欣
欮
欲
欶
欽
款
歆
歇
歛
止
正
此
步
武
歨
歪
歮
歯
歰
歲
歴
歷
歸
歹
歺
死
殳
段
殷
殸
殹
殺
殻
殿
毋
毌
母
每
毒
比
毕
毚
毛
毳
氏
氐
民
气
氣
水
氵
氶
氷
永
氺
氾
求
汝
汞
江
沃
沓
沙
沝
沟
河
治
泉
法
波
泣
泥
泰
洋
洛
洞
洪
洲
活
派
流
浦
浪
浮
海
淡
淮
清
渚
渠
湖
湯
湾
源
溪
滿
漸
火
灬
灭
灰
灵
灷
炅
炎
炏
炗
炙
炭
為
烈
烏
烝
焉
無
焦
焱
然
煞
熊
熏
燕
營
燮
爪
爫
爭
爯
爰
爱
爲
爵
父
爻
爽
爾
爿
片
牙
牚
牛
牜
牟
牢
牧
牪
牽
犀
犬
犭
犮
狂
狄
狊
独
狺
猋
猒
猪
献
獻
玄
率
玉
王
玟
玨
珎
班
琴
瑟
瑩
瓜
瓦
甘
甚
生
産
用
甫
甬
田
由
甲
申
电
甶
男
甸
甹
画
甾
畀
界
畏
畐
留
畜
畟
畢
畧
畨
番
畫
異
畱
當
畺
畾
疊
疋
疌
疑
疒
疾
癶
癸
癹
登
發
白
百
皀
皃
的
皆
皇
皋
皐
皕
皮
皷
皿
盃
盆
盇
盈
益
盍
盎
监
盒
盖
盛
盡
監
盤
盧
目
直
相
盾
省
眇
眉
看
眔
眞
真
眷
眼
眾
着
睘
睪
睿
瞏
瞢
瞿
矍
矛
矞
矢
矣
知
矦
短
石
破
碎
磊
磨
示
礻
礼
社
神
祟
票
祭
禀
禁
福
禸
禹
禺
离
禽
禾
禿
秀
秃
秉
秋
科
秝
秦
移
稟
穀
穌
穴
究
穹
空
穿
突
窄
窒
立
竒
竜
竝
竟
章
童
竹
笑
笠
筆
等
答
箕
算
箴
節
篤
篭
米
粉
粛
粟
粤
粦
粲
糞
糸
糹
系
約
納
素
索
紫
累
細
絜
絫
絲
維
綿
縣
繇
纍
纟
红
缶
网
罒
罔
罕
罗
罙
罡
罢
罪
署
罷
羅
羊
羌
羍
美
羔
羕
羗
羞
羡
羣
群
義
羲
羸
羽
翁
翏
習
翕
翟
翠
翼
老
耂
考
者
耆
而
耎
耑
耒
耳
耴
耶
耷
聂
聊
聖
聚
聶
聿
肀
肃
肅
肉
肖
肙
肥
肩
肯
育
肴
胃
背
胡
胥
能
脊
脩
膚
臣
臤
臧
自
臬
臭
臯
臱
至
致
臺
臼
臽
臾
臿
舀
舂
舄
與
興
舉
舌
舍
舛
舜
舞
舟
般
艮
良
色
艸
艹
艾
芒
芔
芬
芮
花
芳
芺
芻
苏
苔
苗
苟
若
苦
英
茶
茸
荅
草
荒
荣
荼
莆
莧
莫
莽
菆
菊
菐
華
营
萬
落
葉
著
葛
董
葵
蒙
蒦
蒼
蓋
蓬
蓺
蔑
蔡
蕉
蕭
薄
薛
薦
薰
藍
藏
藥
蘭
虍
虎
虐
虒
虔
處
虖
虗
虘
虚
虛
虜
虞
虫
虽
蚤
蚩
蜀
蜜
蟲
蠡
血
行
衍
街
衛
衣
衤
表
衮
衰
袁
袞
褭
褱
襄
襾
西
覀
要
覃
見
規
覓
覧
親
覽
见
角
解
言
訁
訇
計
詹
誩
諸
讠
谷
豆
豈
豊
豐
豕
豖
豙
象
豦
豩
豪
豸
貇
貝
貞
貟
負
貢
貧
貪
貫
責
貳
貴
買
費
賁
資
賈
賏
賓
賔
賛
賞
賢
賣
質
賴
贊
贝
贡
责
贯
贲
贵
赖
赞
赤
赦
走
越
足
路
蹇
身
躬
車
軍
軎
軟
輦
车
辛
辜
辟
辥
辰
辱
農
辵
辶
边
达
过
近
连
迷
追
退
送
逆
逐
通
速
造
逢
連
逮
進
遀
遂
過
道
達
遣
適
遷
遺
邊
邑
邕
那
邦
邪
郎
郡
部
郭
都
鄉
酉
酋
配
酓
釆
采
里
重
野
量
金
釒
錢
钅
错
镇
長
镸
长
門
閃
閉
開
閏
閑
閒
間
閔
閵
閻
闌
门
间
闷
阑
阜
阝
阳
阿
陈
降
陳
隆
隊
隋
隡
隨
隱
隶
隹
隺
隻
隼
隽
难
雀
雁
集
雈
雋
雍
雐
雔
雙
雚
雜
雝
離
難
雨
雩
雪
雲
零
雷
需
霍
霜
霝
霞
霸
靈
靑
青
非
靡
面
靣
革
韋
韦
韭
韯
韱
音
頁
頃
項
須
頗
頡
頻
顛
页
風
风
飛
飞
食
飠
養
饣
首
香
馬
馮
駦
马
骨
高
髟
鬥
鬯
鬲
鬼
魚
魯
鮮
鱼
鲁
鳥
鳳
鸟
鹵
鹿
麃
麗
麥
麦
麻
黃
黄
黍
黎
黑
黒
黨
黹
黽
黾
鼎
鼓
鼠
鼻
齊
齋
齐
齒
齿
龍
龙
龜
龟
龠
龰
龱
龴
龵
龶
龷
龸
龹
者
艹
）
？
～
�
𠀁
𠀃
𠀆
𠀉
𠀎
𠀐
𠁁
𠁣
𠂆
𠂇
𠂈
𠂉
𠂊
𠂋
𠂎
𠂒
𠂔
𠂛
𠂡
𠂢
𠂤
𠂬
𠂭
𠂹
𠃊
𠃋
𠃌
𠃍
𠃎
𠃑
𠃓
𠃔
𠃜
𠄌
𠄎
𠄠
𠄢
𠆢
𠆥
𠇍
𠈌
𠌵
𠓜
𠔉
𠔥
𠔼
𠔽
𠔿
𠕀
𠕁
𠕋
𠘧
𠘨
𠙻
𠙼
𠚏
𠚒
𠚤
𠚪
𠣏
𠤎
𠤕
𠥓
𠦄
𠦑
𠦝
𠧒
𠧗
𠧪
𠩺
𠪚
𠫓
𠫔
𠫤
𠬛
𠬝
𠬞
𠬢
𠬤
𠬶
𠮛
𠮦
𠮷
𠯑
𠱠
𠳮
𠷎
𡈼
𡉀
𡉵
𡌥
𡍮
𡏳
𡕒
𡕩
𡕰
𡖅
𡗗
𡗜
𡘆
𡘤
𡧱
𡨄
𡩧
𡬠
𡭽
𡰣
𡰥
𡰪
𡰯
𡰱
𡷈
𡸁
𡿨
𡿩
𡿪
𡿺
𢀖
𢀛
𢀩
𢁙
𢆉
𢆰
𢆶
𢇁
𢇇
𢉖
𢌬
𢌿
𢏚
𢑑
𢑚
𢖻
𢙣
𢛳
𢦏
𢦒
𢧵
𢼄
𢾕
𣁋
𣄼
𣅀
𣅽
𣍘
𣎳
𣎵
𣏋
𣏼
𣗥
𣥂
𣥖
𣦵
𣦼
𣧄
𣪊
𣪠
𣬉
𣳾
𣶒
𤇾
𤊽
𤐫
𤓰
𤔔
𤕨
𤣩
𤰇
𤰔
𤰞
𤴓
𤴔
𤽄
𥁑
𥁕
𥃦
𥃩
𥃭
𥇡
𥑟
𥘅
𥘈
𥝢
𥫗
𥱡
𦈢
𦉪
𦉬
𦉼
𦍌
𦍒
𦎧
𦐇
𦓔
𦔮
𦘒
𦙃
𦚏
𦣝
𦣞
𦣻
𦥑
𦥔
𦥯
𦨉
𦭝
𦰩
𧆞
𧈧
𧘇
𧰨
𧴪
𧴮
𧵩
𧾷
𨸏
𨾴
𩙿
𩠐
𩫏
𩵋
𪉷
𪜀
𪟽
𪠲
𪩲
𫇦
𫔭
𫜸
𫝀
𫠣
𫠩
𫢉
𫥞
𫩏
𫩠
𫪡
𫲽
𫶧
𬀷
𬐘
𬗌
𬙙
𬛸
𬜯
𬟩
𬯁
𬴘
𬺻
𬼉
𬼖
𭀰
𭁈
𭁨
𭅰
𭑈
𭕄
𭗼
𭤨
𭥫
𭻾
𮅕
𮊿
𮍌
𮍏
𮓗
𮥼
𮧮
廾
𰀁
𰀄
𰀈
𰀉
𰀕
𰀠
𰀡
𰀢
𰀪
𰁜
𰃮
𰆊
𰆘
𰋙
𰕎
𰢴
𰧭
𰯲
00--
000--
001--
01--
02--
03--
04--
05--
06--
07--
08--
09--
119--
143--
144--
145--
146--
147--
148--
151--
64--
65--
66--
67--
68--
69--
70--
71--
72--
73--
74--
75--
80--
82--
87--
90--
99--
a--
aa--
ab--
abbed--
abd--
abe--
absor--
abu--
aby--
ac--
acant--
acantho--
acar--
acce--
acceler--
accipi--
ace--
acicu--
ack--
ackom--
acou--
acri--
acro--
act--
actino--
action--
acu--
acuti--
ad--
ada--
ade--
adel--
admini--
adon--
adopte--
ae--
aegypt--
aequ--
aero--
aeth--
af--
aff--
afgha--
afr--
afro--
afroa--
afton--
ag--
aga--
age--
agita--
agro--
agros--
agu--
agy--
ah--
ahl--
ai--
air--
aj--
ak--
aka--
akers--
akt--
akti--
al--
ala--
alba--
albi--
albo--
albomacu--
album--
ale--
aleks--
alf--
alfa--
algorit--
ali--
alkohol--
all--
alle--
allo--
allt--
alm--
alph--
als--
alt--
alta--
alten--
aly--
am--
amau--
ambi--
ambly--
ambu--
ame--
amfi--
ami--
amo--
ampe--
amphi--
ampl--
ampu--
amur--
amy--
an--
ana--
analy--
anark--
anci--
and--
anda--
ande--
andra--
anem--
ang--
ani--
aniso--
ankla--
anna--
anne--
anni--
anno--
annu--
ano--
anop--
ans--
anse--
ansikts--
anska--
anslu--
anspe--
ant--
anta--
antec--
anten--
antho--
anthop--
anti--
antik--
antisem--
antro--
anty--
anu--
any--
ao--
ap--
apat--
apel--
aper--
aphan--
apho--
aphy--
apo--
apoc--
apost--
app--
appli--
approxi--
apu--
aqu--
aqui--
ar--
ara--
arab--
arach--
arachno--
arb--
arbet--
arbetar--
arbetsmark--
arbetsta--
arc--
arch--
arda--
are--
arg--
argy--
ari--
aristo--
ark--
arkad--
arkitekt--
arkiv--
arm--
armad--
arn--
aroma--
arr--
arrende--
art--
artdata--
articu--
artif--
arv--
as--
asa--
asce--
asel--
ash--
ask--
asp--
asper--
ass--
assem--
associ--
assy--
aster--
astro--
asty--
asy--
asyl--
asymme--
at--
ather--
athy--
atkin--
atom--
atri--
atro--
att--
attack--
atter--
attra--
aty--
au--
auf--
aug--
august--
auk--
aulac--
aure--
auri--
auricu--
aus--
aust--
austro--
auten--
auto--
automat--
av--
avan--
avance--
ave--
avels--
avig--
avkast--
avla--
avlopps--
avveck--
avvik--
ax--
axel--
ay--
az--
azor--
b--
ba--
babb--
bac--
bacc--
back--
backhoppar--
bad--
bae--
baj--
bak--
bal--
balett--
ball--
bamb--
ban--
band--
bandy--
bank--
bantu--
bar--
bark--
barn--
barock--
barr--
bart--
bas--
basil--
basket--
bastu--
bat--
batra--
bau--
baud--
bay--
bayer--
bb--
be--
beach--
bear--
beau--
bec--
beck--
bed--
bedri--
bee--
befa--
befo--
befri--
befrielse--
bega--
begy--
bei--
bel--
bela--
bell--
bely--
ben--
bensin--
beord--
bequ--
ber--
bered--
berg--
bergs--
bern--
bert--
bery--
beska--
besky--
besty--
besv--
bet--
beta--
betong--
beund--
beva--
bey--
bi--
bibel--
bibli--
bico--
big--
bil--
bild--
bill--
bin--
bio--
biodiv--
bis--
bit--
bja--
bjer--
bju--
bl--
bla--
black--
blad--
blec--
blek--
blen--
blep--
bli--
blo--
blod--
blom--
blu--
blue--
blues--
bly--
bm--
bo--
bob--
bock--
boe--
bohem--
bojko--
bok--
bol--
bolboce--
boll--
bolsjev--
bom--
bomb--
bon--
bond--
bonde--
boo--
bopy--
bor--
borch--
borg--
bort--
borta--
bos--
bot--
botten--
bou--
bouc--
bougain--
bour--
bous--
bow--
box--
boy--
br--
bra--
brac--
brach--
brachy--
brad--
brand--
bre--
bred--
brev--
bri--
bric--
brid--
brig--
brigad--
bris--
bro--
broad--
broms--
brons--
bru--
brud--
bruk--
bruks--
brun--
brunke--
bry--
bryo--
brø--
bu--
bubb--
bucc--
buccu--
buch--
buck--
bud--
buddh--
budget--
buk--
bulb--
bulga--
bull--
bundes--
bunk--
bunt--
bur--
burgen--
bus--
buss--
but--
buz--
by--
bygg--
bæ--
bø--
c--
ca--
cab--
caer--
caeru--
cai--
cal--
calab--
calan--
calc--
cale--
cali--
call--
calo--
caly--
camb--
camp--
can--
cancer--
cap--
car--
carl--
carpe--
cart--
cas--
casa--
cat--
cata--
cater--
cau--
cauc--
caud--
cay--
cc--
ce--
ceder--
cele--
cell--
cent--
central--
ceph--
cephal--
cerat--
cerc--
cercop--
cere--
cero--
cert--
certifi--
ces--
cet--
ceton--
ch--
cha--
chaet--
chan--
charac--
che--
chef--
cheil--
chelo--
chemi--
chi--
chlor--
cho--
chond--
choris--
chr--
chry--
chryso--
chu--
chy--
ci--
cica--
cin--
cinc--
cingu--
circ--
circu--
circum--
cirku--
cirkus--
cita--
city--
civil--
ck--
cke--
cks--
cl--
clad--
clap--
clari--
clav--
cle--
clin--
clit--
clo--
clus--
cly--
clype--
cne--
co--
cocc--
coel--
coelo--
coen--
col--
cole--
colo--
colpo--
colum--
com--
comi--
comp--
con--
conce--
conci--
confi--
conflu--
confu--
conio--
connec--
cono--
conocep--
coord--
copi--
copro--
coproph--
copt--
cor--
corb--
cord--
corn--
corne--
coronavirus--
corr--
cort--
cory--
coryd--
cos--
cot--
cou--
coun--
country--
cour--
cous--
cover--
cow--
cox--
cr--
cran--
crass--
crat--
cre--
crenu--
crib--
crim--
crin--
cris--
crist--
crit--
cro--
croc--
cron--
crow--
cru--
cruci--
cry--
crypt--
cryptop--
cs--
cten--
cu--
cuatrec--
cuben--
cucu--
cum--
cuna--
cup--
curvi--
cusp--
cut--
cy--
cya--
cyan--
cycl--
cyclop--
cykel--
cykl--
cylind--
cymb--
cynan--
cyph--
cyphost--
cyrto--
cze--
d--
da--
dacty--
dag--
dags--
dahl--
dai--
dal--
dala--
dam--
damm--
dan--
danne--
dans--
dar--
dark--
das--
dasy--
dat--
data--
dator--
dau--
daugh--
day--
db--
dd--
de--
dead--
debatt--
debut--
dec--
decim--
dee--
defe--
deh--
dei--
dekor--
dekoratio--
del--
dela--
deleg--
dels--
delse--
dem--
demo--
den--
dendro--
depo--
der--
derla--
dernes--
des--
design--
desmo--
destruc--
det--
detac--
detalj--
detek--
deter--
dh--
dha--
di--
dia--
dic--
dicho--
dichr--
dicr--
dicran--
dicty--
did--
didy--
die--
diesel--
dif--
dig--
dikt--
din--
dio--
diplo--
diplopo--
dir--
direc--
direkt--
dirig--
diskvalifice--
disor--
disp--
dispe--
dispo--
diss--
disse--
disti--
distrib--
distribu--
dit--
div--
diva--
diver--
dj--
dja--
dje--
djib--
djup--
djur--
dk--
dla--
dm--
dn--
do--
doc--
dock--
docum--
dod--
dog--
dokt--
dolo--
dom--
domar--
domkyrko--
don--
dong--
dop--
dor--
doryc--
dos--
dotter--
dou--
down--
dr--
dra--
drag--
dragon--
drama--
drepan--
dress--
dricks--
drift--
driv--
dro--
drog--
dru--
drum--
drun--
druv--
dry--
ds--
dt--
du--
dub--
dubb--
dubbel--
dun--
duo--
dupl--
dur--
duv--
dy--
dynam--
dyr--
dyss--
dz--
e--
ea--
east--
eb--
ebu--
ec--
eccle--
eche--
echi--
echino--
ed--
edel--
eds--
ee--
ef--
efter--
eg--
egen--
egg--
ehr--
ehren--
ei--
eich--
eigen--
ein--
einsatz--
eisen--
ej--
ek--
ekip--
eko--
ekonomi--
ekumen--
el--
ela--
elasmo--
eld--
elec--
elef--
elek--
elektrifi--
elektro--
elep--
eleu--
elev--
elf--
eli--
elit--
elite--
elli--
elon--
ely--
em--
ema--
emer--
emi--
empi--
en--
ena--
ency--
end--
ene--
energi--
eng--
enon--
ens--
ensam--
ent--
entusia--
enzy--
ep--
epide--
epil--
epim--
epip--
epis--
epit--
equ--
equi--
er--
era--
erec--
erem--
erig--
eriks--
erio--
erios--
ero--
ers--
ery--
eryth--
erythro--
erythron--
es--
esb--
esc--
escu--
esp--
ess--
est--
et--
eta--
eter--
etno--
etnog--
ett--
eu--
euce--
eucha--
eule--
eulo--
euph--
eupl--
eupte--
eur--
eurip--
euro--
europa--
eury--
euse--
ev--
eva--
evaku--
ever--
ewe--
ex--
exam--
exca--
exce--
exci--
excl--
exhi--
exil--
exkl--
exo--
exor--
expert--
expl--
explo--
expo--
export--
extra--
ey--
ez--
f--
fa--
fabr--
faci--
fack--
fager--
fahl--
fair--
fakta--
faku--
falc--
falk--
fals--
fan--
far--
fas--
fasad--
fascist--
fast--
fat--
fau--
faun--
faw--
fd--
fe--
fed--
feed--
fel--
fem--
femin--
fenes--
fer--
ferrugi--
fest--
fet--
fett--
feu--
ff--
fi--
fia--
fient--
figur--
fil--
film--
fin--
fina--
final--
finans--
finansk--
finger--
finn--
fire--
fis--
fisk--
fiske--
fit--
fitz--
fje--
fjo--
fl--
fla--
flag--
flat--
flavi--
flavo--
fler--
flex--
flexu--
flic--
flo--
flod--
flor--
flott--
flu--
flug--
fly--
flycat--
flyg--
flykting--
flytt--
fn--
fo--
fogel--
folk--
fono--
for--
ford--
fore--
form--
formu--
fornm--
forns--
fors--
forschungs--
forskar--
forst--
fort--
foster--
fot--
fotbolls--
foto--
fou--
fouc--
fove--
fox--
fr--
fra--
frakt--
fraktio--
fram--
framry--
frang--
frans--
fre--
fred--
free--
fri--
frid--
fried--
fris--
fro--
front--
frost--
fru--
frukt--
fry--
fs--
ft--
fte--
fu--
fuji--
fuku--
fulg--
fulgo--
fulig--
full--
fullkom--
fulv--
fumi--
fun--
func--
fur--
furci--
furst--
furu--
fusci--
fver--
fy--
fyllna--
fynd--
fyr--
fyra--
fysio--
fø--
g--
ga--
gad--
gagne--
gai--
gal--
gale--
galli--
gamb--
game--
gammal--
gamme--
gan--
gang--
gar--
gas--
gat--
gatu--
gau--
gav--
gay--
gaz--
gb--
ge--
gel--
gen--
general--
genom--
genu--
genus--
geo--
geop--
ger--
geri--
gerilla--
gers--
ges--
get--
gg--
gge--
ggs--
gh--
gha--
gi--
gian--
gibb--
gif--
gift--
gil--
gill--
giu--
gju--
gk--
gla--
glad--
glans--
glas--
glauc--
gle--
glen--
gli--
glid--
glim--
glo--
globu--
glouc--
glu--
gly--
gm--
gn--
gna--
gnu--
go--
gobi--
god--
gods--
godty--
godzi--
gold--
golf--
gomp--
gon--
gonio--
good--
gor--
got--
gott--
gou--
gp--
gr--
gra--
graci--
grad--
graf--
gram--
gran--
granat--
granu--
grav--
gre--
green--
gren--
gri--
grim--
grind--
grip--
gris--
gro--
groen--
gru--
grund--
grupp--
grus--
gry--
gryllo--
grø--
gs--
gskol--
gst--
gsta--
gt--
gtid--
gty--
gu--
guatema--
gud--
gudom--
guds--
gue--
gui--
guian--
gul--
guld--
guldbagge--
gull--
gun--
gus--
guth--
guz--
gva--
gy--
gyll--
gyllen--
gym--
gymno--
gyne--
h--
ha--
habro--
hacie--
had--
haema--
haf--
haga--
hal--
hall--
halo--
hals--
halshu--
halv--
ham--
hamn--
han--
hand--
handels--
hans--
haplo--
har--
hard--
hart--
has--
hat--
hatt--
hau--
hav--
havs--
haw--
hay--
he--
head--
heart--
hed--
hede--
hedy--
heil--
heim--
heine--
hej--
hel--
helge--
helic--
helio--
hell--
hem--
hemero--
hemip--
hemma--
hen--
hepta--
her--
herak--
hercu--
herdam--
herku--
herpetolo--
herr--
herre--
hersc--
hespe--
het--
hexa--
hey--
hi--
high--
hilde--
hill--
him--
himla--
hin--
hind--
hip--
hiphop--
hippo--
hirs--
hirt--
his--
historie--
hit--
hje--
hjo--
hjul--
hl--
hm--
hn--
ho--
hob--
hoch--
hockey--
hod--
hof--
hohen--
holb--
holl--
holm--
holo--
home--
homo--
hon--
hop--
hopp--
hori--
horis--
hormo--
horn--
horns--
horr--
hors--
hos--
hot--
hotell--
hou--
hov--
how--
hr--
hs--
hu--
hua--
hud--
hugg--
hui--
hult--
humor--
hump--
hund--
hung--
hunger--
hur--
hus--
husa--
hut--
huvud--
huy--
hv--
hwil--
hy--
hya--
hydrau--
hydro--
hye--
hygi--
hygro--
hyla--
hyll--
hylo--
hym--
hymen--
hyo--
hyp--
hyper--
hyph--
hypo--
hypop--
hyres--
hæ--
hø--
i--
ia--
iakt--
ib--
ic--
ice--
ich--
id--
ide--
idio--
if--
ig--
igu--
ii--
ik--
il--
ill--
illusio--
illy--
im--
imag--
imita--
immig--
immun--
imp--
imple--
impone--
impres--
impro--
impu--
in--
ina--
inbe--
inc--
ind--
indep--
indian--
indo--
indra--
industri--
ine--
infa--
infe--
infla--
influ--
info--
infra--
ing--
inga--
inge--
inhy--
initi--
initia--
inle--
inn--
inne--
inner--
innoc--
ino--
inrikes--
ins--
insats--
insek--
insekts--
insol--
inspe--
inspi--
insu--
int--
inte--
inter--
internet--
intresse--
inva--
inven--
inves--
investi--
investment--
invol--
io--
ip--
ir--
irregu--
irrit--
is--
isa--
isce--
isch--
ischno--
ishi--
ishockey--
iso--
iss--
ist--
it--
ita--
iv--
iwa--
ix--
iz--
j--
ja--
jac--
jacque--
jag--
jakt--
jam--
jan--
jap--
jar--
jas--
jazz--
jd--
je--
jen--
jer--
jes--
jesuit--
jet--
ji--
jim--
jin--
jo--
joa--
joc--
jon--
jor--
jord--
jou--
js--
jt--
ju--
jubileums--
jugo--
jul--
jun--
jung--
juni--
junior--
jury--
justitiedep--
juven--
jy--
jø--
k--
ka--
kabin--
kad--
kaffe--
kai--
kaj--
kake--
kala--
kalk--
kall--
kalmar--
kalten--
kammar--
kamp--
kamr--
kan--
kanal--
kano--
kanon--
kansli--
kant--
kap--
kapitu--
kar--
kara--
karl--
karls--
karne--
kas--
kaser--
kasernetab--
kast--
kat--
katt--
kau--
kauk--
kavalleri--
kay--
kb--
kd--
ke--
kejsar--
kejser--
kell--
kemed--
kemi--
ken--
ker--
kers--
kess--
ket--
key--
kf--
kha--
kho--
ki--
kidna--
kihl--
kim--
kin--
kinne--
kirc--
kiri--
kirk--
kit--
kk--
kl--
kla--
klar--
klara--
klass--
klem--
kleopa--
kli--
klimat--
klin--
kling--
klipp--
klo--
klock--
klot--
klu--
klubb--
klum--
klus--
kly--
km--
kna--
kne--
kni--
kno--
knu--
knut--
kny--
ko--
kod--
koe--
kogn--
kol--
kola--
kolum--
kom--
komedi--
kommun--
kompl--
kompro--
kon--
koncern--
konces--
konci--
kongo--
konsert--
konst--
konsument--
konter--
kontinental--
kontra--
kontro--
konven--
koord--
koppar--
kor--
koral--
korea--
korn--
korri--
kors--
kort--
kos--
kost--
kou--
koz--
kr--
kra--
kraen--
kraft--
krav--
krea--
kredit--
kreuz--
kri--
krig--
krim--
krimina--
kriminal--
kring--
kris--
krist--
kristall--
krit--
kro--
krog--
kron--
krono--
kru--
kry--
krypt--
krypte--
kryss--
ks--
kt--
kta--
ku--
kul--
kull--
kuls--
kult--
kultur--
kun--
kund--
kung--
kunga--
kunst--
kur--
kurs--
kust--
kustbeva--
kuz--
kv--
kva--
kval--
kvalifice--
kvant--
kvar--
kvarn--
kvicksil--
kvinn--
kvit--
kw--
ky--
kyck--
kyrk--
kyrko--
kyrks--
kyrkt--
l--
la--
lab--
laby--
lac--
lacer--
lacus--
lad--
lag--
lager--
lam--
lamia--
lan--
land--
landnings--
lands--
landsti--
lang--
lant--
lantbruks--
lao--
lapp--
lar--
lars--
las--
lasio--
last--
lat--
late--
lau--
laur--
laute--
law--
lax--
laxif--
laza--
lb--
lbeva--
ld--
lde--
lder--
ldpa--
ldre--
lds--
le--
lea--
leaf--
lec--
lecan--
lecto--
led--
legi--
lego--
leh--
lei--
lejon--
lek--
len--
leo--
lepi--
lepidop--
lepidos--
lept--
lepta--
lepto--
leptoc--
leptur--
ler--
les--
leso--
let--
leuc--
leuco--
leucoc--
leucop--
lev--
lever--
lex--
ley--
lg--
li--
lia--
lib--
liberal--
liby--
licens--
lich--
lie--
lif--
life--
lig--
liga--
lik--
lika--
lil--
lilje--
lill--
lim--
lin--
lind--
linje--
liny--
lio--
lis--
list--
lit--
litho--
litog--
litteratur--
liv--
live--
lj--
lja--
lje--
lju--
ljud--
ljus--
lk--
lka--
ll--
lla--
llar--
lle--
llris--
lls--
lm--
lma--
ln--
lo--
lobo--
lock--
log--
lok--
lokal--
lomb--
lon--
loncho--
long--
loph--
lor--
lord--
los--
lot--
lou--
lov--
low--
lp--
ls--
lse--
lsig--
lsing--
lso--
lt--
lta--
lte--
lts--
lu--
luc--
luft--
lumb--
lun--
lund--
luo--
lust--
lute--
lv--
lva--
lvs--
lvsty--
ly--
lyck--
lyx--
læ--
lø--
m--
ma--
mac--
macbr--
macro--
macu--
mad--
mag--
mage--
magi--
magni--
mah--
mai--
main--
maj--
makro--
makt--
mal--
mala--
maldiv--
malm--
mamm--
man--
mani--
manipu--
mans--
mao--
map--
mar--
margi--
mari--
maria--
marie--
marin--
mark--
mars--
mas--
mask--
maskin--
mass--
master--
mat--
mata--
match--
mau--
maur--
maus--
max--
maxi--
may--
maya--
maz--
maza--
mb--
mbet--
mc--
md--
me--
mea--
med--
medalj--
medel--
medelhavs--
media--
[...]
