!
"
#
##0
##1
##10
##11
##12
##13
##14
##15
##16
##17
##18
##19
##2
##20
##21
##22
##23
##24
##25
##26
##27
##28
##29
##3
##30
##31
##32
##33
##34
##35
##36
##37
##38
##39
##4
##40
##41
##42
##43
##44
##45
##46
##47
##48
##49
##5
##50
##51
##52
##53
##54
##55
##56
##57
##58
##59
##6
##60
##61
##62
##63
##64
##65
##66
##67
##68
##69
##7
##70
##71
##72
##73
##74
##75
##76
##77
##78
##79
##8
##80
##81
##82
##83
##84
##85
##86
##87
##88
##89
##9
##90
##91
##92
##93
##94
##95
##96
##97
##98
##99
$
%
&
'
(
)
*
+
,
-
.
/
0
00
000
0004
001
002
003
004
0047972
005
006
007
008
008388
01
010
0101
012
015
018
02
020
0282
03
034
0347
0348
04
05
052
06
07
0708
08
0810
08333
09
1
10
100
1000
1001
1002
1003
1004
1007
101
1016
102
103
10334
1038
104
105
1051
106
107
108
1080
1086
1088
109
1093
11
110
1100
1101
1103
1108
111
1111
112
113
1134
11384
114
115
116
117
1175717
1177
118
11818177
119
12
120
1200
121
12130085
122
1225
123
124
125
126
127
128
129
13
130
1300
131
132
133
134
135
136
1365
137
138
139
14
140
1400
141
142
143
14344
144
145
146
147
148
149
15
150
1500
151
152
1520
153
1536
154
1540
155
1550
156
1560
157
1570
158
159
1590
16
160
1600
1603
1605
1606
1609
161
1610
1611
1612
1617
1618
1619
162
1620
1621
1622
1623
1624
1625
1626
1627
1628
1629
163
1630
1631
1632
1633
1634
1635
1636
1637
1638
1639
164
1640
1641
1642
1643
1644
1645
1646
1647
1648
1649
165
1650
1651
1652
1653
1654
1655
1656
1657
1658
1659
166
1660
1661
1662
1663
1664
1665
1666
16667
1667
1668
1669
167
1670
1671
1672
1673
1674
1675
1676
1677
1678
1679
168
1680
1681
1682
1683
1684
1685
1686
1687
1688
1689
169
1690
1691
1692
1693
1694
1695
1696
1697
1698
1699
17
170
1700
1701
1702
1703
1704
1705
1706
1707
1708
1709
171
1710
1711
1712
1713
1714
1715
1716
1717
1718
1719
172
1720
1721
1722
1723
1724
1725
1726
1727
1728
1729
173
1730
1731
1732
1733
1734
1735
1736
1737
1738
1739
174
1740
1741
1742
1743
1744
1745
1746
1747
1748
1749
175
1750
1751
1752
1753
1754
1755
1756
1757
1758
1759
176
1760
1761
1762
1763
1764
1765
1766
1767
1768
1769
177
1770
1771
1772
1773
1774
1775
1776
1777
1778
1779
178
1780
1781
1782
1783
1784
1785
1786
1787
1788
1789
179
1790
1791
1792
1793
1794
1795
1796
1797
1798
1799
18
180
1800
1801
1802
1803
1804
1805
1806
1807
1808
1809
181
1810
1811
1812
1813
1814
1815
1816
1817
1818
1819
182
1820
1821
1822
1823
1824
1825
1826
1827
1828
1829
183
1830
1831
1832
1833
1834
1835
1836
1837
1838
1839
184
1840
1841
1842
1843
1844
1845
1846
1847
1848
1849
185
1850
1851
1852
1853
1854
1855
1856
1857
1858
1859
186
1860
1861
1862
1863
1864
1865
1866
1867
1868
1869
187
1870
1871
1872
1873
1874
1875
1876
1877
1878
1879
188
1880
1881
1882
1883
1884
1885
1886
1887
1888
1889
189
1890
1891
1892
1893
1894
1895
1896
1897
1898
1899
19
190
1900
1901
1902
1903
1904
1905
1906
1907
1908
1909
191
1910
1911
1912
1913
1914
1915
1916
1917
1918
1919
192
1920
1921
1922
1923
1924
1925
1926
1927
1928
1929
193
1930
1931
1932
1933
1934
1935
1936
1937
1938
1939
194
1940
1941
1942
1943
1944
1945
1946
1947
1948
1949
195
1950
1951
1952
1953
1954
1955
1956
1957
1958
1959
196
1960
1961
1962
1963
1964
1965
1966
1967
1968
1969
197
1970
1971
1972
1973
1974
1975
1976
1977
1978
1979
198
1980
19805706
1981
1982
1983
1984
1985
1986
1987
1988
1989
199
1990
1991
1992
1993
1994
1995
1996
1997
1998
1999
2
20
200
2000
2001
2002
2003
2004
2005
2006
2007
20078357
2008
2009
201
2010
2011
2012
20120618223324
2013
20130806035941
2014
2015
2016
20160203154449
20160209064446
20160228161657
20161009115736
2017
20170613011648
20171128214629
2018
20180114115045
20180716065929
20181008105012
2019
20190407091601
20190419091014
20190516211155
202
2020
20200413164725
20200426054225
20200510015436
20200510015442
20200511075534
20200511075542
20200601165802
2021
20210610101843
2022
2023
203
204
205
206
207
20768
2077
208
209
21
210
211
212
213
214
215
216
217
218
219
22
220
22092
221
222
223
224
225
226
227
228
229
23
230
23064893
231
232
233
234
235
236
237
238
239
24
240
241
2412
242
243
244
24469
245
246
247
248
249
25
250
251
252
253
254
255
2553664090
256
257
258
2580
2581
2584
2586
2587
2588
259
2593
2595
2596
2597
2599
26
260
261
262
263
264
265
266
267
268
269
27
270
271
272
273
274
275
276
277
278
279
28
280
281
282
283
284
284709
285
286
287
288
289
29
290
2905
291
292
2922733136
293
294
295
296
2966
297
298
299
29925
3
30
300
3000
301
302
303
304
305
306
307
308
309
31
310
311
31148
312
313
314
315
316
317
318
319
32
320
321
322
323
324
325
326
327
328
329
33
330
331
332
333
33333
334
335
336
337
338
339
34
340
341
342
343
344
345
346
347
34711
348
349
35
350
351
352
353
354
355
356
357
358
359
36
360
361
362
363
364
365
366
367
368
369
37
370
371
372
373
374
375
376
377
378
379
38
380
3805
381
382
383
384
385
386
387
388
389
39
390
391
392
393
394
395
396
397
398
399
4
40
400
4000
401
402
403
404
405
406
407
408
409
41
410
4108784
411
412
413
414
415
416
41667
417
418
419
42
420
421
422
423
424
425
426
427
428
429
43
430
431
432
433
434
435
436
437
438
439
44
440
441
442
443
444
445
446
447
448
449
45
450
451
452
453
454
455
456
457
458
459
46
460
461
462
463
464
465
466
467
468
469
47
470
471
472
47260
473
474
475
476
477
478
479
48
480
481
482
483
484
485
486
487
488
489
49
490
491
492
493
494
495
496
497
4971
498
499
5
50
500
5000
501
502
503
504
505
506
507
508
509
51
510
511
512
513
514
515
516
517
518
519
5194
52
520
521
522
523
524
525
526
527
528
529
53
530
531
532
533
534
535
536
537
538
539
54
540
541
542
543
543556
544
545
546
547
548
549
55
550
551
552
553
554
555
556
557
558
559
56
560
5600
561
562
563
564
565
566
567
568
569
57
570
571
572
573
574
575
576
577
578
579
58
580
58086
581
582
583
58333
584
585
586
587
588
589
59
590
591
592
593
594
595
596
597
598
599
6
60
600
601
602
603
604
605
606
607
608
609
61
610
611
612
613
614
615
616
617
618
619
62
620
621
622
623
624
625
626
627
628
629
63
630
631
632
633
634
635
636
6361
637
638
639
64
640
641
642
643
644
645
646
647
648
649
65
650
653
654
655
656
658
659
66
660
661
662
664
665
666
66667
667
668
67
670
671
672
673
674
675
676
678
679
68
680
681
682
683
684
686
687
688
69
690
691
692
693
694
695
697
698
699
7
70
700
701
702
703
704
705
706
707
709
71
710
711
714
716
718
72
720
7229
723
724
725
727
729
73
730
732
7345
735
737
74
740
742
744
746
747
748
749
75
750
752
753
754
755
756
757
759
76
760
761
762
763
765
766
767
768
77
770
771
775
776
7766806
777
779
78
780
783
784
79
790
791
792
8
80
800
80003999
801
8018
802
804
805
8080
81
810
813
814
819
82
824
83
832
833
83333
8390293
8390296
84
840
842
845
849
85
850
852
857
86
860
867
869
87
870
87504
876
87784
879
88
880
88506
885850
89
890
896
897
8998039
9
90
900
907
908
91
911
913
915
916
92
920
93
930
9309
9337075
937
939
94
941
95
950
951
952
9565
96
960
97
970
971561
978
98
982
99
996
999
:
;
<
=
>
?
@
[
\
]
^
_
`
a
aa
aar
aaron
aavso
ab
abart
abba
abbey
abborre
abborrtja
abc
abdwxxbq
abel
abele
abellini
abh
abhandlungen
abort
about
abraham
abrahamsson
abraxas
abs
absolut
absoluta
abstract
abstrakt
abt
abteilung
abu
abucay
ac
acacia
acad
acade
academia
academic
academie
academy
acari
acarida
acarina
accademia
accepted
acceptera
accepterade
access
account
accounts
ace
aceh
achetidae
achille
achterberg
ack
ackumulerade
acraea
acrididae
acridiidae
acridoidea
acridomorpha
acrocercops
acronicta
act
acta
actiniaria
action
actor
aculeata
acuminata
ad
ada
adam
adams
adansonia
adapt
add
addison
additional
additions
ade
adel
adelaide
adeln
adelns
adelsa
adelsma
adelsman
adelsvapen
adjacent
adjektiv
adjektivet
adjunkt
adjutant
adlad
adlades
adler
adlig
adliga
admin
administration
administrativ
administrativa
administrative
administrativt
adolf
adolfs
adolph
adoretus
adress
adressen
adrian
adrien
adult
advanced
adventure
adventures
advokat
advokaten
ae
aedes
aenderung
af
afc
afd
aff
affa
affairs
affinis
afghanistan
afla
afr
africa
africaines
africains
african
africana
africanus
afrika
afrikaans
afrikansk
afrikanska
afrikas
afrique
afrotropical
afseende
afsta
after
afton
aftonbladet
aftonen
ag
again
against
agaricomycetes
age
agency
agent
agera
agerade
ages
agnes
agneta
agraria
agrias
agric
agricultural
agriculture
agrotis
agua
ah
ahl
ahmad
ahmed
ai
aid
aids
aif
aik
aime
ain
air
airbus
aircraft
aires
airlines
airport
airways
airy
ais
aise
aisne
aj
ajankohtaista
ajax
ak
akacior
akad
akademi
akademie
akademien
akademiens
akademii
akademin
akademisk
akademiska
akantusva
akt
akta
akten
akter
aktiebolag
aktiebolaget
aktier
aktiv
aktiva
aktivist
aktivitet
aktiviteter
aktivt
akto
aktuell
aktuella
aktuellt
akustisk
akut
akvarell
al
ala
alabama
alain
alan
alaska
alba
albania
albanien
albansk
albanska
albany
albatross
albert
alberta
alberto
albin
albrecht
albrekt
album
albumen
albumet
albumets
albumlistan
albums
alchemilla
aldrig
ale
alec
alegre
aleiodes
aleksandr
alessandro
alex
alexander
alexandra
alexandre
alexandria
alexis
alf
alfa
alfabetet
alfabetisk
alfons
alfred
algebra
alger
algeriet
algoritmen
algoritmer
ali
alias
alice
alingsa
alive
alkohol
all
alla
allabolag
allan
allas
alldeles
alle
allehanda
allen
allena
allenast
allende
allhems
alliance
allians
alliansen
allied
allierade
allies
allison
allium
allkpop
allma
allmogen
allmovie
allmusic
allra
alls
allsvenska
allsvenskan
allt
alltfo
alltid
allting
alltja
alltmer
alltsa
alltsammans
allvar
allvarlig
allvarliga
allvarligt
alm
alma
almanakka
almquist
almqvist
alnar
aloe
alone
alonso
alperna
alpes
alpha
alpin
alpina
alpine
als
alsace
also
alster
alstro
alt
alta
altare
altaret
altartavla
altartavlan
alternativ
alternativa
alternativt
alto
aluminium
alvar
alvin
always
alysiinae
am
amadeus
amalia
amanda
amanuens
amarantva
amaryllisva
amata
amateur
amato
amazon
amazonas
amazonica
ambassad
ambassaden
ambassado
ambique
amblyseius
ame
amer
america
american
americana
americas
amerika
amerikanen
amerikansk
amerikanska
amerikanske
amerikanskt
amerikas
ames
amiral
ammunition
among
amos
amphibian
amsterdam
amt
amy
an
ana
anacroneuria
anales
analys
analyser
analysera
analysis
anaphes
anatomi
ancient
and
anda
andalusien
andar
andas
ande
andel
andelen
anden
anderna
anders
andersen
anderson
andersson
anderssons
andes
andlig
andliga
andorra
andra
andraplats
andras
andre
andrea
andreas
andrej
andrena
andrew
andrews
android
andrzej
andy
anfall
anfalla
anfallare
anfallet
anfo
anga
angav
ange
angel
angela
angeles
angelica
angelo
angels
angena
anger
anges
angivna
anglo
angola
angra
angrepp
angustifolia
anha
anhalt
anho
anhui
animal
animals
animation
anime
animerad
animerade
aning
anisodes
anita
anka
anklagade
anklagades
anklagelser
anknytning
ankomst
anla
anlade
anlades
anledning
anledningen
anlitades
anma
ann
anna
annalen
annales
annali
annals
annan
annans
annars
annat
anne
annelida
annelids
annex
annexfo
annie
annika
anniversary
annls
anno
annonaceae
annonbase
annorlunda
annotated
announced
announces
annual
annulata
anomala
anonym
anopheles
anor
anordnade
anordnades
anordnas
anordning
another
anpassa
anpassad
anpassade
anra
anrep
ans
ansa
anse
ansedd
anseende
ansenlig
anser
anses
ansett
ansetts
ansigte
ansikte
ansikten
ansiktet
anslag
anslo
ansluta
ansluter
anslutning
anso
anspra
ansta
anstra
ansvar
ansvarade
ansvarar
ansvaret
ansvarig
ansvariga
ant
anta
antaga
antagen
antagit
antagligen
antal
antalet
antar
antarctic
antarctica
antarktis
antas
anteckningar
anthony
anthophora
anthrax
anthurium
anti
antika
antiken
antikens
antikvarisk
antingen
anto
antog
antogs
antoine
antoinette
antologi
anton
antonio
antonius
antonymer
antti
antwerpen
antyder
anva
any
anzeiger
ao
ap
apamea
apanteles
aphelinidae
aphid
aphididae
aphids
aphidsf
aphis
aphodiidae
api
apicalis
apj
apocephalus
apogonia
apoidea
apollo
aposteln
apotek
apoteket
app
appendix
apple
applied
apps
apr
april
aprostocetus
aquarapport
aquatic
aquitaine
ar
ara
arab
arabia
arabisk
arabiska
arachnid
arachnida
arachniden
arachnides
aragonien
araigne
araliava
araneae
aranei
araneus
arb
arbeiten
arbeta
arbetade
arbetar
arbetare
arbetarna
arbetarro
arbetat
arbete
arbeten
arbetet
arbetsfo
arbetsgivare
arbetskraft
arbetslo
arbetsmiljo
arboga
arbor
arc
arch
archaeology
archer
archipelago
architecture
archiv
archive
archives
arctia
arctic
ardenne
ardisia
are
area
areal
arealstatistik
arean
areas
arecaceae
arena
arenan
arets
arf
arg
argentina
argentinsk
argoviensis
argument
arhopala
ari
aria
arida
aristolochia
aristoteles
arizona
arjeplogs
ark
arkansas
arkeolog
arkeologi
arkeologiska
arkitekt
arkitekten
arkitekter
arkitekterna
arkitektkontor
arkitektur
arkitekturen
arkiv
arkivdatabas
arkivdatabasen
arkiverad
arkiverade
arkivet
arlanda
arm
arma
armand
armar
armarna
arme
armen
armenien
armeniska
arms
armstrong
army
arn
arna
arnas
arne
arnold
aro
aron
around
arrangemang
arrangera
arrangerade
arrangerades
arrangerar
arrangeras
arrango
arresterades
arrondissement
arrondissementet
arrow
arroyo
ars
arsenal
art
artagnan
artdatabanken
arten
artens
arter
arterna
artfakta
artfaktablad
artfo
arthropoda
arthur
article
articleid
articles
artikel
artikeln
artiklar
artilleri
artilleriet
artilleriregemente
artist
artisten
artister
artisterna
artistnamn
artistnamnet
artists
artnamn
arts
artur
arv
arvet
arvid
arvidsjaurs
arvidsson
arvika
arxiv
as
asa
ascher
ascomycetes
ash
ashley
ashmead
asia
asian
asiatic
asiatisk
asiatiska
asien
ask
aska
askersunds
asp
aspekter
asphondylia
aspilota
asplenium
asplund
aspo
aspx
assessment
assessor
assets
assist
assistent
assisterande
associated
association
associations
assyriska
astana
astdys
asteroid
asteroidea
asteroiden
asteroidgruppen
astl
aston
astragalus
astrid
astro
astronom
astronomen
astronomerna
astronomi
astronomical
astronomiques
astronomiska
astronomy
astrophysical
astrophysics
asura
at
ataenius
atelje
aten
ater
atheta
athetis
athlete
athletes
athletic
athletics
athos
atlanta
atlanten
atlantic
atlantis
atlas
atle
atmosfa
atom
atp
atrichopogon
att
attachmentcolhold
attack
attacken
attacker
attems
atti
au
aube
aubert
auchenorrhyncha
auckland
auct
audenaerde
audi
audio
auf
aug
august
augusta
auguste
augusti
augustin
augustus
auk
auktion
auktoritet
auktorsfo
auktorsnamnet
aurea
aurivillius
aurora
aus
auschwitz
ausgewa
aust
austin
austral
australasian
australia
australian
australien
australiens
australis
australisk
australiska
austria
auszuggv
author
authority
auto
automatiskt
automeris
autonoma
auvergne
aux
av
available
avalanche
avancerad
avancerade
avbildning
avbo
avbro
avbrott
avbryta
avdelning
avdelningar
avdelningen
avec
avenue
aves
avesta
avfa
avfo
avga
avgick
avgift
avgiftsfri
avgjordes
avgo
avgra
avha
avhandling
avhandlingar
avhandlingen
aviation
avla
avlade
avled
avledning
avlidit
avlo
avra
avrinningsomra
avsa
avsattes
avse
avsedd
avsedda
avseende
avser
avses
avsett
avseva
avsikt
avskaffades
avsked
avslo
avsluta
avslutad
avslutade
avslutades
avslutande
avslutar
avslutas
avslutat
avsnitt
avsnitten
avsnittet
avsta
avta
avtal
avtalet
avva
avvattnar
avvattnas
avvecklades
avvecklas
avvikande
award
awards
away
ax
axel
axeln
axelsson
ay
az
azerbajdzjan
azerbajdzjanska
b
ba
baby
babylon
bach
back
backa
backar
backe
backen
bactrocera
bad
baden
bagdad
bagge
baha
bahamas
bahia
baidu
bailey
baillargeon
bailly
baja
bak
baka
baker
bakeri
bakfo
bakgrund
bakgrunden
bakgrundssa
bakom
bakre
baksidan
bakterier
baku
bal
baldwin
balett
bali
balkan
ball
ballad
balsaminva
balthasar
baltic
baltimore
baltiska
ban
bana
banan
banbrytande
band
banden
bandet
bandets
bandy
bane
bang
bangladesh
bank
banken
banker
banks
banor
banten
baptist
baptiste
bar
bara
barangayer
barat
barbara
barbro
barbus
barcelona
barend
bark
barker
barmha
barn
barnard
barnbarn
barnbo
barndom
barneby
barnen
barnens
barnes
barnet
barnets
barnlo
barns
baron
barr
barrio
barrskog
barry
bars
bart
barton
bartram
baryton
bas
basalis
base
baseball
based
basel
basen
baserad
baserade
baserades
baseras
baserat
basgitarr
basic
basidiesvampar
basin
basis
basist
basisten
basket
basketball
basketspelare
baskiska
bass
bassa
bat
bates
bath
batman
batracomorphus
battle
bauer
bauhinia
bay
bayan
bayer
bayern
bb
bbad
bbc
bben
bc
bd
be
beach
bean
bear
bearbetning
beast
beat
beata
beatles
beatrice
beautiful
beauty
bebyggelse
bebyggelsen
bebyggelseregistret
bebyggelseregistrets
bec
because
beccaloni
beck
becker
beckman
bed
bedja
bedo
bedra
bedrev
bedrevs
bedriva
bedriver
bedrivs
bedro
bee
been
beer
bees
beethoven
beetles
befa
befallning
befann
befattning
befinna
befinner
befintliga
befolkad
befolkade
befolkning
befolkningen
befolkningens
befolkningsstatistik
befolkningsta
befordrades
before
befria
bega
begagna
begagnade
begav
begge
begick
begin
begra
begravd
begravda
begravdes
begravning
begravningsplats
begravningsplatsen
begrepp
begreppet
begynte
beha
behag
behandla
behandlade
behandlades
behandlar
behandlas
behandling
behandlingen
behind
beho
behof
behov
behovet
bei
beier
beih
beijing
being
beitr
beitra
beitrag
beitrage
beka
bekannte
bekant
bekanta
bekantskap
bekla
bekostnad
bekra
bekva
bekymmer
bel
bela
belagt
belarus
belarusiska
belg
belge
belgien
belgique
belgisk
belgiska
belgiske
belgium
belgrad
believe
belize
bell
bella
bellan
belle
bellman
belo
belokobylskij
belonging
belopp
belysning
bema
bembidion
bemo
ben
bena
benen
benet
benezit
bengt
bengtsfors
bengtsson
benin
benito
benjamin
bennett
benny
benson
benth
bentham
benthic
benvedsva
benz
beordrade
ber
bera
bereda
beredd
beredskap
berg
berga
bergen
berger
berget
berggren
bergh
bergig
berglund
bergman
bergqvist
bergs
bergskedja
bergslagen
bergspass
bergstopp
bergstrakter
bergstro
berichte
berit
berk
berkeley
berlin
berliner
berlins
bermuda
bern
bernadotte
bernard
berndt
bernhard
bernt
bero
berodde
beroende
beror
berry
bert
bertil
bertrand
besa
besatt
bescherelle
beschreibung
besegra
besegrade
besegrades
besegrar
besegrat
besittning
beska
beskaffenhet
besked
beskow
beskrev
beskrevs
beskrifning
beskriva
beskrivas
beskriver
beskrivit
beskrivits
beskrivning
beskrivningar
beskrivs
beskydd
beskyddare
besla
beslo
beslut
besluta
beslutade
beslutades
beslutar
beslutat
beslutet
beso
best
besta
bestod
besva
bet
beta
betala
betalade
betalar
betalas
betalning
bete
beteckna
betecknar
betecknas
beteckning
beteckningen
beteende
bethune
betja
betong
betra
betrakta
betraktade
betraktades
betraktar
betraktas
bett
better
betty
between
betyda
betydande
betydde
betydelse
betydelsefull
betydelsefulla
betydelsen
betydelser
betyder
betydligt
betyg
beundran
beva
bevara
bevarad
bevarade
bevaras
bevarat
bevarats
beviljades
bevis
bevisa
beyond
bezirk
bezirken
bezzi
bezzia
bf
bfs
bg
bhutan
bi
biart
bib
bibcode
bibeha
bibel
bibeln
bibliographisches
bibliography
bibliotek
bibliotekarie
biblioteket
biblioth
bibliothe
bibliska
bicolor
bidra
bidrag
bidragande
bidraget
bidragit
bidrar
bidrog
bielke
bienko
bifall
biflo
big
bih
bihang
bil
bilaga
bilanz
bilar
bilarna
bild
bilda
bildad
bildade
bildades
bildande
bildandet
bildar
bildas
bildat
bildats
bilden
bilder
bilderna
bildid
bildkonstna
bildligt
bildning
bilen
bill
billboard
billie
billigare
billy
bilmens
biltillverkaren
bin
bina
binary
binda
binder
bingham
bio
biodiversity
biogeography
biograf
biografen
biografer
biografi
biografier
biografisk
biografiska
biografiskt
biographical
biographie
biography
biol
biologi
biologia
biologica
biological
biologie
biologisk
biologiska
biology
biopremia
bird
birdlife
birds
birger
birgit
birgitta
birkaland
birmingham
biroll
birthday
bis
bisby
bishop
biskop
biskopar
biskopen
bista
bit
bitar
bitra
bitter
bja
bjo
bjuda
bjuder
bk
bl
bla
black
blackburn
blackhawks
blackwelder
blad
bladbaggar
bladen
bladet
bladhorningar
bladmossart
bladmossor
blaesoxipha
blair
blake
blanc
blanca
blanchard
blanche
blanco
bland
blanda
blandad
blandade
blandar
blandas
blandat
blandning
blandskog
blattariae
blattellidae
blattidae
blattodea
blattodeasf
blef
blefvo
blek
bleka
blekinge
bler
blev
blevo
bli
blick
blickar
blicken
blifva
blifvit
blifwa
blifwer
blifwit
blind
blinda
blir
bliva
blivande
blivit
blixt
blo
blob
block
blod
blodet
blodiga
blog
blogg
blogs
blogspot
blom
blomberg
blomflugor
blomma
blomman
blommar
blommor
blommorna
blomqvist
blomsterflugor
blood
bloomberg
blott
blotta
blu
blue
blues
blume
blumea
bly
bmw
bner
bnf
bnp
bo
board
bob
bobby
boberg
bock
bocker
bodde
boden
bodens
body
boe
boeing
boende
boet
bofors
bogan
bogota
bohus
bohusla
bois
boisduval
boiss
boissier
bok
boken
bokens
bokfo
bokhandel
bokma
boksta
bokstav
bokstaven
boktryckeri
bokva
bol
bolag
bolaget
bolagets
boland
boleti
boletim
boli
bolivar
bolivia
boll
bollen
bollettino
bollna
bologna
bolton
bom
bomb
bombay
bomber
bombus
bombylius
bon
bonaparte
bond
bonde
bonden
boning
bonn
bonnie
bonnier
bonniers
bonus
bonusspa
boo
book
books
booth
boplatser
bor
bora
bord
borde
bordeaux
bordet
bordtennis
boreala
borealis
borg
borga
borgare
borgen
borgerliga
borgma
borgs
boris
borla
born
borneensis
borneo
borough
borrflugor
bort
borta
bortfo
bortga
bortom
bortsett
bosa
bosatt
bosatta
bosatte
boskap
bosnien
bosniska
boss
bosse
bosta
bostad
bostadshus
bostadsomra
bostadsra
boston
bostro
bot
bota
botanical
botanik
botaniken
botaniker
botanique
botanischen
botanischestaatssammlung
botaniska
botany
botkyrka
botswana
bott
botten
bottenhavet
bottenva
boucek
boulenger
bourbon
bourgogne
bourgoin
bow
bowie
bowl
box
boxare
boxing
boxning
boy
boyko
boys
bp
br
bra
brabham
bracksteklar
bracon
braconidae
braconiden
brad
bradford
bradley
bradysia
brahe
brain
brakvedsva
branch
brand
branden
brandenburg
brandon
brandt
brandy
brann
brant
branta
bras
brasi
brasil
brasileira
brasiliansk
brasilianska
brasilien
brasiliens
brasiliensis
brassicaceae
bratt
braun
braunschweig
bravo
braxen
braxton
brazil
bre
break
breaking
bred
breda
bredare
bredd
bredden
bredvid
bref
bremen
bremer
brenske
breslau
bretagne
brett
breuning
brev
brevet
brevicornis
brevipalpus
brevis
brevva
brian
bridel
bridge
brief
brien
brigaden
bright
brighton
brigitte
bring
bringa
brinnande
brinner
brisbane
brist
bristande
bristen
brister
bristol
brit
brita
britain
britannica
british
britishlistedbuildings
britt
britta
britterna
brittisk
brittiska
brittiske
brittiskt
britton
brittonia
bro
broadcasting
broadway
broar
broberg
brock
brockhaus
broder
brodern
broken
brokparasitsteklar
bromeliaceae
bromma
bromsar
bron
brons
bronsa
bronsmedalj
bronsmedaljo
brooklyn
brooks
broome
bror
brorson
bros
brother
brothers
brotherus
brott
brottare
brottet
brottning
brottslighet
brown
browse
browser
bru
bruce
bruchinae
brud
bruins
bruk
bruka
brukade
brukar
brukas
bruket
brulle
brun
bruna
bruner
brunn
brunnea
brunner
bruno
brunt
brussels
brutit
bruxelles
bryan
bryant
brygga
bryggeri
bryna
bryol
bryologist
bryozoa
bryr
bryssel
bryta
bryter
brytning
bryts
bryum
bs
bt
bu
buchanan
buck
bud
budapest
budget
budskap
buenavista
buenos
buffalo
bugs
building
built
buitenzorg
bujumbura
buk
buken
buksamlarbin
bulbophyllum
bulgarien
bulgariska
bull
buller
bulletin
bunden
bundesamt
bundesliga
bunge
bur
burbank
bure
bureau
burgess
burgos
burit
burits
burke
burkina
burks
burma
burman
burmeister
burni
burning
burns
burton
burundi
bus
bush
business
buskar
busklandskap
buss
bussar
but
butik
butiken
butiker
butler
butterfly
bxls
by
byar
byarna
bye
bygd
bygden
bygga
byggandet
byggas
byggd
byggda
byggde
byggdes
bygger
bygget
byggma
byggnad
byggnaden
byggnadens
byggnader
byggnaderna
byggnadsminne
byggs
byggt
byggts
byn
byns
byra
byron
bysantinska
byta
byte
byten
byter
bytt
bytte
byttes
byxor
c
ca
cabi
caelifera
caesar
cafe
calacademy
calais
calamus
calcutta
caldwell
caledonia
calgary
calif
california
californica
call
calle
called
calmview
caloptilia
calvados
cambridge
cameron
camilla
camille
camp
campaign
campanula
campbell
camping
campo
camponotus
campos
campsicnemus
campus
camus
can
canada
canadensis
canadian
canadiens
canal
canberra
cancer
candida
candolle
cannes
cannon
canterbury
canto
canucks
canyon
cap
cape
capensis
capfriendly
capital
capitals
caporiacco
cappella
captain
car
card
cardot
care
career
carex
carey
caribbean
carin
carina
carinata
carl
carlberg
carlgren
carlo
carlos
carlquist
carlsen
carlson
carlsons
carlsson
carlyle
carmen
carnegie
carol
carola
carolina
caroline
carolus
carpenter
carr
carrie
carroll
cars
carter
carvalho
casa
casas
case
cases
casey
cash
casimir
casino
cast
castilho
castillo
castle
castro
cat
cata
catalog
catalogue
catalogueoflife
catalogus
catarina
category
catfishes
catharina
catherine
catholic
catocala
cave
cb
cbc
cbs
cc
ccc
ccw
cd
cdot
cdp
ce
cecil
cecilia
celastraceae
celex
cell
celler
cello
celtic
cemetery
census
cent
center
centerpartiet
centimeter
centipedes
central
centrala
centralamerika
centralbyra
centrale
centrali
centralort
centralorten
centralt
centre
centro
centrum
centrumbildningar
century
cephalopoda
cephalopods
cerambycidae
cerambycidarum
cerambycidæ
cerambycinae
ceratina
cercopoidea
ceres
cerodontha
cerro
certain
ces
cet
cetoniidae
cev
ceylon
cf
cfm
cgi
ch
cha
chalcid
chalcididae
chalcidoidea
challenge
challenger
chalmers
chamberlin
chambers
champagne
champion
champions
championship
championships
chan
chandler
chang
change
changes
changsha
channel
chans
chansen
chao
chapelle
chapman
chapter
characidae
characteristics
characters
charaxes
charente
charles
charlie
charlotta
charlotte
chart
charts
chase
che
check
checklist
checklists
chef
chefen
chefer
chefredakto
cheilosia
chelonus
chelsea
chemical
chemistry
chemsak
chen
cheng
chengdu
cher
cherry
chess
chester
chi
chiapas
chicago
chico
chief
chiese
chiffres
chihuahua
child
children
chile
chilensis
chilobase
chilopoda
chimarra
china
chinensis
chinese
ching
chironomus
chloroclystis
chlorops
cho
choice
chongqing
chopard
chorebus
chr
chris
christ
christensen
christer
christi
christian
christie
christina
christine
christmas
christoffer
christoph
christophe
christopher
christus
chro
chronicle
chrysomelidae
chrysopilus
chrysops
chrysosoma
chrysotus
chu
chuck
chun
church
churchill
ci
cia
cicadellidae
cicadellinae
cichlidae
cid
cie
ciencias
cies
cigliano
cinara
cincinnati
cinema
cinerea
circle
circuit
circus
cirka
cirkel
cirkus
citat
cites
cities
city
citypopulation
ciudad
civ
civico
civil
civila
civilingenjo
cixius
ck
cka
ckan
ckande
ckar
ckare
ckarna
ckart
ckas
cke
ckelse
cken
cker
ckerna
ckers
cket
ckeva
cklig
ckliga
ckligt
ckning
ckningen
ckor
cks
cksla
ckspinnare
ckstro
cksvampar
ckt
ckta
ckte
ckten
ckter
cktes
ckts
cktsresande
ckva
ckvidd
cl
claes
claesson
claire
clara
clarence
clark
clarke
clas
class
classes
classic
classical
classification
clathria
claude
claudia
claudio
claudius
claus
clave
clay
clayton
cle
clemens
clement
clements
clementschecklist
cleora
cleveland
clifford
climate
clinical
clinton
cloffa
close
cloud
club
clubiona
cm
cn
cnn
co
coach
coan
coast
coastal
coca
coccidae
coccoidea
cockerell
code
coenonympha
coenosia
cohen
col
cola
cold
cole
coleoptera
coleopterists
coleopterorum
coleopterous
colin
coll
collaboration
collected
collection
collections
college
colletes
collin
collins
colo
colombia
colombo
colonia
color
colorado
columbia
columbus
com
come
comeback
comedy
comes
comic
comics
coming
command
commentary
comments
commission
committee
common
commons
commonwealth
commune
communes
communications
community
comp
companion
company
comparative
compare
competition
competitions
compilation
complete
complex
compton
computer
comte
comune
con
concepcio
concert
concolor
condylostylus
conference
confirmed
confusa
congo
congress
connecticut
connor
conomiques
conrad
conservation
contarinia
contemporary
content
contentassets
contents
contest
continental
contr
contract
contrib
contribution
contributions
control
convention
cook
cooke
cool
coop
cooper
copa
cope
copelatus
copenhagen
copestylum
cor
coral
core
cornelis
cornelius
cornell
corner
cornwall
corona
coronavirus
corporation
corps
cortinarius
corydalis
corynoptera
cos
costa
costello
cot
could
council
counties
countries
country
county
countyn
countyt
coupe
course
court
cover
covid
cox
cp
cr
craig
crambidae
craneflies
crash
crawford
crazy
cre
creative
creek
crematogaster
cresson
cricket
crickets
crime
crisis
cristo
critical
critique
crocidura
crosby
cross
crotalaria
crous
crown
crum
crustacea
crustaceans
cruz
cry
crystal
cs
csiro
csv
ct
cu
cuba
cube
culex
culham
culicoides
cult
cultural
culture
cum
cumacea
cunningham
cup
cupen
curculio
curran
current
curt
curtis
custodian
cut
cuvier
cv
cy
cyathea
cycling
cyclocephala
cykel
cykling
cymothoe
cypern
cyperus
cyrtandra
cyrus
cz
d
da
dad
dade
dades
dag
dagar
dagarna
dagars
dagblad
dagbladet
dagbladets
dagbok
dagen
dagens
daget
daggflugor
dagliga
dagligen
dagligt
dagmar
dags
dagsla
dagstidning
dahl
dahlberg
dahlem
dahlgren
dahlstro
daily
dakota
dal
dala
dalar
dalarna
dalarnas
dale
dalen
daler
dalga
dall
dalla
dallas
dals
dalsland
dalton
dam
damallsvenskan
damaskus
dame
damen
damer
damerna
damernas
damlandslag
damm
dammen
dan
dana
dance
dancing
dande
danden
danderyds
dandet
dane
daniel
daniels
danielsson
danish
danmark
danmarks
danny
dans
dansa
dansade
dansar
dansare
dansen
danser
dansflugor
dansk
danska
danskarna
danske
danskt
dant
dante
danzig
dar
dare
daren
dark
darkness
darmstadt
darna
darrel
darryl
darwin
das
dasch
dasineura
dasychira
dasyhelea
dat
data
databas
databasdump
database
databasen
databases
dataplattform
dataset
datasetid
date
dateras
dati
dator
datorer
datorn
datorspel
datum
dave
david
davids
davidson
davies
davis
davy
dawn
dawson
day
days
db
dbegin
dbok
dbrun
dc
dd
dda
ddade
ddar
ddare
ddas
dde
dden
ddes
ddning
ddr
de
dead
deadline
deal
dean
death
debatt
debatten
debilis
deborah
debut
debutalbum
debutalbumet
debuten
debuterade
dec
decapod
decapoda
december
decennier
decennium
decipiens
decock
dee
deeann
deep
default
defense
definierar
definieras
definition
definitionen
definitivt
degerfors
degli
deh
dei
dej
del
dela
delad
delade
delades
delar
delarna
delas
delat
delavrinningsomra
delaware
delen
delhi
delia
delias
dell
della
delle
delning
delong
dels
delse
delsedag
delsen
delstat
delstaten
delstatens
delstater
delstaterna
delstatshuvudstaden
delta
deltaga
deltagande
deltagare
deltagarna
deltagit
deltar
deltog
delvis
dem
demo
democracy
democratic
demografiche
demokrat
demokraten
demokrati
demokratisk
demokratiska
demon
den
dena
dendrobium
denis
denmark
denna
denne
dennes
dennis
dens
densamma
density
dentata
denver
depa
departamento
departement
departementet
department
depression
dept
der
dera
deraf
deras
derberg
derbidae
derblom
derby
derdra
derefter
derek
deremot
derfo
derhamn
derhamns
deri
derifra
derigenom
derko
dermalm
dermanland
dermanlands
dermaptera
dermed
dermyggor
dern
derna
dernas
dero
derom
derpa
ders
derstro
derta
dertill
derto
derut
deruti
dervid
des
desa
descamps
described
description
descriptionibus
descriptions
descriptive
descriptorum
desert
design
designer
desmet
desmodium
desmond
desordning
despel
despelare
despelaren
despelarna
despelerska
despelerskan
dess
dessa
desse
dessfo
dessutom
destatis
desto
desvis
desvoidy
det
detail
detailed
details
detalj
detaljer
detroit
dets
detsamma
detta
deutsch
deutsche
deutschen
deutschland
deux
development
devil
devils
devon
dewalt
df
dfalse
dga
dgivare
dh
dha
dhe
dhus
dhuset
dhusra
di
dia
diabetes
diagnosen
diagnoses
diagram
dialekt
dialekter
dialog
diameter
diamond
diana
diane
dianthus
diapheromeridae
diaphorus
diaspididae
dick
dickinson
dickson
dicranaceae
dicranomyia
dictionary
did
didz
die
diego
diels
dies
dieter
dietrich
dif
different
dig
diga
digital
digitala
digitalt
digt
dikt
diktare
dikten
dikter
diktning
diktsamling
diktsamlingen
dillon
dimension
dimensioner
dimos
din
dina
ding
dinotrema
dio
dioscorea
diospyros
diplazium
diplomat
diplomatiska
diplopoda
diplopodorum
diplotaxis
dipt
diptera
dipterorum
dique
dir
direct
director
directory
direkt
direkta
direktiv
direkto
direktsa
dirigent
dirsh
dirty
disc
disco
discography
discogs
discolor
discover
discovery
disease
diskografi
diskriminering
diskussion
diskussioner
diskutera
disney
dispar
display
displaystyle
disponent
disputerade
dissemination
distance
distans
distant
disteniidae
distribution
district
distrikt
distrikten
distriktet
dit
dito
ditt
dittills
div
diva
diverse
diversity
divisio
division
divisionen
divisioner
dixon
dj
dja
dje
djen
djer
djup
djupa
djupare
djupet
djupt
djur
djurart
djuren
djurens
djuret
djurga
djursholm
djvu
dk
dl
dla
dleart
dlig
dliga
dligt
dling
dlista
dlistade
dlistan
dlo
dlor
dm
dma
dman
dmitriev
dmytro
dn
dna
dnad
dning
do
doc
docent
doch
dock
docs
doctor
document
documents
dod
dodge
dodson
does
doft
dog
dognin
dogs
doi
doktor
doktorn
doktorsavhandling
doktorsexamen
dokument
dokumenta
dokumentation
dokumenterade
dolda
dolichopeza
dolichopus
dollar
dolly
dolores
dom
doma
domare
domaren
domen
domesday
dominerade
dominerande
dominerar
domineras
domingo
dominikanska
dominique
domkyrka
domkyrkan
domkyrkofo
domsaga
domsagas
domsagohistorik
domsagor
domstol
domstolen
don
donald
donau
donerade
dong
donna
donne
donner
donsker
door
dop
dopbo
dopbok
dopfunt
dopfunten
dor
dora
dorcadion
dordogne
doria
doris
dorotea
dorothy
dorsalis
dos
doso
dothideomycetes
dotter
dotterbolag
dottern
douard
double
doubles
doubs
doug
douglas
dov
dover
down
download
dp
dq
dr
dra
drabbade
drabbades
drabbar
drabbas
drabbats
drack
dracula
draft
draftades
drag
draga
dragen
dragit
dragon
dragspel
drake
draken
draking
drama
dramafilm
dramat
dramaten
dramatens
dramatik
dramatiker
dramatisk
dramatiska
drar
dras
draudt
dream
dreams
dresden
dret
drev
drevs
drew
dricka
dricker
drift
driften
driva
drivande
drive
driver
drivs
dro
drog
droger
drogo
drogs
drosophila
drottning
drottningen
drottningens
drottninggatan
druce
drug
dryck
drygt
dryopteridaceae
dryopteris
ds
dsannons
dsegro
dsel
dseln
dsfall
dsla
dsomra
dsv
dsva
dt
du
dubai
dubbel
dubbelstja
dubbelt
dubbla
dubia
dublin
ducks
dudley
due
duett
duk
duke
duktig
dum
dume
dumont
dun
duncan
dunn
duno
duo
duon
dur
durango
durham
during
dusona
dutch
dutchcharts
duty
duzee
dva
dvd
dvs
dworakowska
dx
dy
dyar
dyer
dygn
dygnet
dykare
dyker
dylan
dylik
dylika
dylikt
dynamics
dynamo
dynastidae
dynastin
dynasty
dyntaxa
dyra
dyrbara
dyrt
dytiscidae
dz
e
ea
eades
eagle
earl
earle
early
earth
east
eastern
easy
eb
ebba
ebbe
ebc
ebe
eberhard
ebird
ebr
ebu
ec
ecb
ece
ecology
economic
economics
economy
ecuador
ed
eda
eddie
eden
eder
edgar
edge
edicions
edinburgh
edipucrs
edit
edith
edition
editor
editors
edlund
edmond
edmonton
edmund
edn
edra
eds
edu
eduard
eduardo
education
edvard
edvin
edward
edwards
edwin
ee
een
ef
effect
effects
effekt
effekten
effekter
effektiv
effektiva
effektivt
effter
efter
eftera
efterfo
efterfra
efterhand
efterla
efterleden
eftermiddagen
efternamn
efternamnet
eftersom
efterstra
eftertra
eg
egen
egendom
egendomar
egendomen
egenskap
egenskaper
egentlig
egentliga
egentligen
eget
egg
egna
egypt
egypten
egyptens
egyptisk
egyptiska
ehf
ehuru
ei
eight
eij
eilema
ein
einar
eine
einer
einige
eivy
ej
ejido
ek
ekar
ekeby
ekelund
ekero
eklund
ekman
ekonom
ekonomi
ekonomin
ekonomisk
ekonomiska
ekonomiskt
eksjo
ekstro
el
ela
elaeocarpus
elaphoglossum
elatostema
elbas
eld
elden
eleanor
election
elections
electric
electronic
elegans
elegant
elektricitet
elektrisk
elektriska
elektronik
elektronisk
elektroniska
element
elena
eleonora
elev
elevation
eleven
elever
eleverna
elfenbenskusten
elfsborg
elfte
elgitarr
eli
elias
eliasson
elin
eliott
elis
elisabet
elisabeth
elise
elite
eliteprospects
elitloppet
elitserien
elix
eliza
elizabeth
eljest
ella
elle
ellen
eller
elliot
elliott
ellis
elmer
elof
elongata
elongatus
elpt
elsa
else
elton
elva
elvis
em
ema
emanuel
emblikava
embrik
emedan
emellan
emellana
emellertid
emeritus
emerson
emery
emi
emigrerade
emil
emile
emilia
emiliano
emilie
emilio
emily
emma
emmanuel
emmy
emot
empire
empis
empoasca
en
ena
enare
enbart
encarsia
encyclopaedia
encyclope
encyclopedia
encyclopædia
encyklopedi
encyklopedin
encyrtidae
end
enda
endast
ende
endemisk
enderlein
endet
ene
eneopterinae
energi
energy
eng
engagemang
engagerad
engagerade
engel
engelmann
engelsk
engelska
engelskans
engelske
engelskspra
engelskt
engelsma
engineering
engl
england
englands
engler
english
englund
engstro
enha
enhet
enheten
enheter
enhetlig
enhja
enicospilus
enkel
enkelt
enkla
enklare
enko
enlighet
enligt
enorm
enorma
enrico
enrique
ens
ensam
ensamma
ensamt
ensemble
enskede
enskild
enskilda
enskilt
enstaka
ent
enterprise
entertainment
entiteten
entoloma
entom
entomol
entomolo
entomologi
entomologia
entomologica
entomological
entomologicheskoe
entomologie
entomologique
entomologiques
entomologische
entomologischen
entomologist
entomology
entre
entrepreno
entry
enum
enva
environment
environmental
enwiki
enzyklopa
eo
eois
eos
eosentomon
ep
ephraim
epidendrum
epilamproidea
epiplema
epirus
episod
episode
epodunk
epsilon
epslanguage
er
era
erbjo
erbjuda
erbjuder
erebia
erfarenhet
erfarenheter
ergebnisse
erha
erho
eric
erica
erich
erichson
ericson
ericsson
erik
erika
eriks
erikson
eriksson
erillisjulkaisut
eriocaulon
eriococcus
eritrea
erka
erland
erling
erna
ernas
ernest
ernst
ero
ers
ersa
ersatt
ersatte
ersattes
ersatts
ert
es
esa
esbo
esc
escape
eschmeyer
escobar
esctoday
esenbeck
eskil
eskilstuna
eslo
espan
espe
especes
especies
esperanto
esperanza
espn
esri
ess
essa
essai
essays
essen
essex
est
estado
ester
esther
estimates
estland
estlands
estniska
eswiki
et
eta
etablera
etablerade
etablerades
etablerat
etapp
etappen
etapper
etc
etiopien
etnisk
etniska
ett
etta
etude
etymologi
eu
eucalyptus
eudorylas
euge
eugen
eugene
eugenia
eulophidae
eumenidae
eunice
eunidia
eup
euphaedra
euphorbia
euphyia
eupithecia
euploea
euproctis
eur
eure
euro
eurogamer
europa
europaea
europama
europaparlamentet
europas
europava
europe
european
europeisk
europeiska
europeiskt
eurovision
eurytoma
euselasia
eut
euthalia
euxoa
ev
eva
evangelisk
evangeliska
evangelium
evans
even
evenemang
event
events
eventuell
eventuella
eventuellt
ever
evert
everton
every
everything
evic
evidence
evig
eviga
evigt
evil
evo
evol
evolution
ew
ex
exakt
exakta
examen
excel
exchange
excluding
exclusive
executive
exempel
exempelvis
exemplar
exemplet
exil
existens
existerade
existerande
existerar
exocentrus
exochus
exoprosopa
exotic
expansion
expedition
expeditionen
expeditions
experience
experiment
expert
experter
explor
exploration
explosion
expo
export
expose
express
expressen
extended
exterio
externa
extgroup
extra
extrema
extremadura
extremt
ey
eye
eyes
ez
f
fa
fabian
fabricius
fabrik
fabriken
fabriker
fabriko
face
facebook
faces
fackelblomsva
fackfo
fact
factbook
factory
facts
faculty
fad
fader
fadern
faderns
faders
fagersta
fair
fairmaire
faith
fakta
faktiskt
faktor
faktorer
faktum
fakulteten
falck
falk
falkenberg
falkenbergs
falko
fall
falla
fallande
fallax
fallen
faller
fallet
fallit
falls
fallska
false
falsk
falska
falskt
falu
falun
fam
fame
familiarum
familie
families
familj
familjebok
familjen
familjens
familjer
familjerna
famille
family
famn
fan
fang
fann
fannia
fanns
fanny
fans
fantasi
fantastiska
fantasy
fao
far
fara
faran
farao
farbror
farfar
farfars
farkosten
farlig
farliga
farligt
farm
farmor
fars
fart
farten
fartyg
fartygen
fartyget
fartygets
farva
fas
fasad
fasaden
fasader
fasaderna
fasciata
fasciatus
fascicule
fashion
faso
fast
fasta
faster
fastighet
fastigheten
fastigheter
fastlandet
faststa
fat
father
fatta
fattade
fattas
fattig
fattiga
fattigdom
fauchald
fauna
faunal
faune
faust
favorit
favret
fb
fbi
fc
fd
fde
fdingen
fe
fear
feat
feature
features
feb
feber
februari
february
fedde
federal
federala
federation
federationen
feel
fel
felaktigt
felder
felipe
felix
fellow
felt
fem
fema
female
feminist
femma
femte
femtio
femton
fenn
fenomen
fenomenet
fer
ferdinand
ferguson
fern
ferna
fernando
ferns
ferrari
ferraris
ferris
ferruginea
fest
festen
fester
festival
festivalen
festuca
fet
fetbladsva
fett
ff
ffa
ffade
ffades
ffande
ffar
ffas
ffat
ffats
ffer
ffle
fgren
fi
fia
fiat
fick
fiction
ficus
fid
fide
field
fieldiana
fields
fiende
fienden
fiendens
fiender
fientliga
fifa
fig
fight
fighter
fighting
figs
figur
figuren
figurer
figurerna
figures
fiji
fiktiv
fiktiva
fil
file
filer
files
filip
filippinerna
filippo
filipstads
film
filmdatabas
filmen
filmens
filmer
filmerna
filmfestival
filmfestivalen
filminstitutet
filmportal
filmproducent
filmregisso
films
filnedladdningstja
filolog
filosof
filosofen
filosofi
filosofie
filosofisk
filosofiska
filter
fin
fina
final
finalen
finals
financial
finansiella
finansiera
finansiering
finansminister
find
fine
finge
finger
finglanssteklar
fingo
fingrar
finla
finland
finlands
finlandssvensk
finlandssvenska
finlayson
finn
finna
finnas
finner
finnes
finnish
finns
finsk
finska
finskspra
finspa
fint
fiol
fira
firade
firades
firar
firas
fire
firma
firman
first
fis
fischer
fish
fishbase
fisher
fisheries
fishery
fishes
fisk
fiskar
fiskare
fiskart
fiske
fisken
fissidens
fitzgerald
five
fja
fjord
fjorton
fk
fl
fla
flag
flagga
flaggan
flames
flamla
flandern
flash
flat
flatidae
flava
flavescens
flavipes
fleas
fleet
fleischer
fleming
fleno
fler
flera
flere
flertal
flertalet
flest
flesta
fletcher
flicka
flickan
flickor
flickorna
flickva
flies
flight
flint
flitig
flitigt
flo
flock
flockar
flockblommig
flockblommiga
flod
floden
floder
floderna
flor
flora
floran
flore
florence
florens
flores
florida
flotta
flottan
flottans
flow
floyd
fly
flydde
flyers
flyg
flyga
flygande
flygare
flygbolag
flygeln
flyger
flygfa
flygflottilj
flygning
flygplan
flygplanen
flygplanet
flygplats
flygplatsen
flygvapen
flygvapnet
flygvapnets
flying
flykt
flykten
flyktingar
flyr
flytande
flyter
flytt
flytta
flyttade
flyttades
flyttar
flyttas
flyttat
flyttats
flytten
fm
fmis
fn
fning
fo
focus
foerster
fokus
fokusera
fokuserade
fokuserar
folia
folk
folkbokfo
folkbokforing
folkbokforingigaridag
folke
folken
folket
folkets
folkha
folkho
folkliga
folkma
folkmangddistrikt
folkminnen
folkmun
folkmusik
folkomro
folkpartiet
folkra
folkrakningen
folkrepubliken
folks
folkskola
folkskolla
fond
fonden
fonta
fontana
food
football
for
forbes
force
forces
forcipomyia
ford
fordom
fordon
fordras
fore
foreign
forel
forest
forestie
forever
forfattare
form
formade
format
formatet
formation
formel
formell
formella
formellt
formeln
formen
former
formerna
formgivare
formica
formosa
formosana
forms
formula
forna
fornla
fornminnen
fornminnesregistret
fornnordiska
fornsvenska
forntida
fornva
forrest
fors
forsamlingar
forsberg
forskare
forskarna
forskning
forskningen
forssell
forsta
forster
forsvarsmakten
fort
forteckning
fortet
fortfarande
fortfor
fortsa
fortsatt
fortsatta
fortsatte
forum
forward
fossil
fossila
foster
fot
fotboll
fotbollen
fotbollfo
fotbolls
fotbollsfo
fotbollskanalen
fotbollsklubb
fotbollsma
fotbollsperson
fotbollsspelare
fotbolltransfers
foten
foto
fotograf
fotografen
fotografi
fotografier
fotomodell
fotosfa
fots
found
foundation
four
fourth
fowler
fox
fp
fr
fra
frac
fraccionamiento
fragilis
fragm
fragment
fram
frama
framfo
framga
framha
framme
framra
framsta
framsteg
framtid
framtida
framtiden
framtra
framva
fran
franc
france
frances
francesco
franche
francis
francisco
franco
frank
frankfurt
franklin
frankrike
frankrikes
frans
fransk
franska
franske
franskspra
franskt
fransma
franz
franze
fraser
fre
fred
fredag
fredagen
freddie
freden
frederic
frederick
fredericks
frederik
fredric
fredrik
fredrika
fredriks
fredrikshamn
fredriksson
fredsfo
free
freedom
freeman
freestyle
freiburg
frej
frekvens
french
fresh
freshwater
frey
fri
fria
friberg
fricke
frid
frida
friedrich
friend
friends
fries
friese
friga
frigo
frigt
friherre
friherrinnan
frihet
friheten
friidrott
friidrottare
frika
frima
frisim
frisiska
frisk
friska
frista
fritflugor
frithiof
fritid
fritt
fritz
frivillig
frivilliga
frivilligt
frldr
fro
froeschner
froese
from
front
fronten
frost
fru
fruhstorfer
frukost
frukt
frukta
fruktade
fruktan
fruktansva
fruktar
frukten
frukter
frun
fruntimmer
frwiki
fs
ft
fta
ftade
ftades
ftdjur
ftdjursart
fte
ften
ftet
ftig
ftiga
ftigt
ftor
ftw
fu
fuchs
fujian
fuktiga
fuktigt
fulgoroidea
fulgoromorpha
full
fulla
fuller
fullfo
fullkomligt
fullma
fullsta
fullt
fulltext
fun
fund
fundamental
fung
fungera
fungerade
fungerande
fungerar
fungi
fungorum
funk
funktion
funktionen
funktioner
funna
funnit
funnits
funno
funnos
fur
furst
furste
furstendo
further
fusca
fusion
future
fva
fvade
fven
fvensom
fver
fverga
fverla
fversa
fves
fwa
fwen
fwer
fy
fylke
fylla
fylld
fyllda
fyllde
fyller
fyllt
fylumet
fynd
fynden
fyr
fyra
fyraa
fyren
fyrtio
fysik
fysiker
fysiologi
fysisk
fysiska
fysiskt
g
ga
gabon
gabriel
gabriella
gad
gade
gaf
gaga
gahan
gaia
gais
gal
gala
galan
galaxy
galen
gales
galicien
galiciska
galileo
galium
galleri
gallery
gallischen
gallmyggesteklar
gallmyggor
gambia
gamble
game
gamerankings
games
gamespot
gaming
gamla
gamle
gamma
gammal
gammalt
gan
gana
gande
gandera
gang
ganska
gaon
gap
gar
garay
garci
garcia
garcinia
gard
garden
gardens
gardie
gardiner
gardner
gare
garen
garna
garnison
garonne
gart
gary
gas
gasa
gasatt
gat
gata
gatan
gate
gates
gator
gatorna
gattung
gattungen
gatunamn
gauld
gav
gavarande
gavs
gay
gaz
gazette
gazetteer
gb
gbin
gc
gd
gda
gde
gderi
gderier
gdes
ge
gear
geber
gebietsa
geer
gefle
geiger
geijer
gel
gelarter
gelis
geln
gelns
gelse
gelsspinnare
gema
gemeinden
gemeindeverzeichnis
gemeinsame
gemensam
gemensamma
gemensamt
gemenskap
gemminger
gen
genast
gender
gene
genealogi
genealogics
genera
general
generaldirekto
generalen
generalguverno
generallo
generalmajor
generalsekreterare
generation
generationen
generationer
generellt
generic
genero
generum
genesis
genetiska
geneve
genga
genhet
genheten
genheter
geni
genom
genombrott
genomfo
genomga
genomgick
genomsnitt
genomsnittlig
genova
genre
genren
genres
gens
gent
gentemot
gentiana
gentianava
genuki
genus
geo
geobot
geoffrey
geografi
geografiartikel
geografisk
geografiska
geografiskt
geographic
geographical
geography
geogratis
geolog
geologi
geological
geologiska
geology
geometri
geomorphological
geonames
georg
george
georges
georgia
georgien
georgiska
geoscience
ger
gerais
gerald
geranium
geranomyia
gerard
gerd
gerda
gerhard
geri
germain
german
germanska
germany
gern
gerna
gers
gert
gertrud
gertsch
ges
gesa
gesammelt
geschichte
gesellsch
gesellschaft
gesneriaceae
gestalt
get
getingar
gets
gett
geva
gfa
gfo
gg
gga
ggande
ggar
ggare
ggarna
ggas
ggdjur
ggdjursart
gge
ggen
gger
gges
gget
ggma
ggning
ggningar
ggningen
ggs
gh
gha
ghana
ghet
ghost
gi
gia
giacomo
giant
giants
gibbs
gibraltar
gibson
gica
gick
giesbert
gif
gift
gifta
gifte
gifter
gifterma
giftiga
gifva
gifvit
gifwa
gifwer
gigantea
gigas
giglio
gil
gilbert
gill
gillar
gilmour
gingo
gio
gion
giordani
giorgio
giovanni
girault
girl
girls
giro
gironde
gis
gislaveds
gisslan
gitarr
gitarrist
gitarristen
giuseppe
giv
giva
give
given
givet
givit
givits
gjord
gjorda
gjorde
gjordes
gjort
gjorts
gk
gkvarter
gkvarteret
gl
gla
glabra
glacia
glacier
glad
glada
glade
glades
glandet
glandsklimat
glans
glar
glarna
glas
glasbruk
glasgow
glasma
glaso
glass
glat
glatt
gle
glen
glenea
glenn
gles
glesbefolkat
glest
glo
global
globala
globalassets
globalt
globe
globen
globis
gloria
glory
glund
glypta
gm
gma
gmbh
gn
gna
gnad
gnade
gnagare
gnar
gnat
gne
gnen
gner
gning
gnophos
gnu
go
goal
gob
god
goda
gode
godfrey
godhet
godka
gods
godsa
godset
godt
goes
goethe
going
gold
golden
golf
golv
golvet
gomez
gon
gonblick
gonblicket
gone
gonen
gonflugor
gonna
gonomyia
gonsin
gonsla
gonstans
gonting
gonza
good
goodbye
google
gor
gora
gordon
gorlunda
gorna
gorochov
gosse
gossen
got
goteborg
gotiska
gotla
gotland
gotlands
gott
gottfrid
gottfried
gottlieb
gould
gov
government
governor
governors
gp
gr
gra
grace
gracilis
gracillariidae
grad
grade
graden
grader
gradvis
graf
grafik
grafiker
grafisk
grafiska
graham
gram
grammatik
grammis
grammy
gran
granada
grand
grande
grandiflora
grandis
granit
grannar
granne
granska
granskning
grant
grar
grasshoppers
gratis
grav
gravar
grave
graven
gravenhage
gravenhorst
graveyard
gravfa
gravho
gravid
gravsatt
gravsattes
gray
graz
gre
great
greater
greatest
greece
greek
green
greene
greenwood
grefve
greg
gregorianska
gregorius
gregory
greifswald
grekerna
grekisk
grekiska
grekland
greklands
gren
grenadja
grenar
grenen
grenz
grep
grepp
greps
gressitt
gret
greta
greve
greven
grevillea
grevinnan
grevskapet
grey
griffin
griffiths
gring
gringen
grip
gripa
gripen
gris
grisea
gro
grobladsva
groddjur
groddjursart
gross
grosshandlare
grosshandlaren
grosso
grote
grotta
grottan
grottor
ground
group
groups
grov
grova
grove
grovt
gru
grube
grund
grunda
grundad
grundade
grundades
grundande
grundandet
grundar
grundare
grundaren
grundarna
grundas
grundat
grunden
grunder
grundla
grundserien
grundskola
grupp
gruppen
gruppens
grupper
grupperna
gruppspel
gruppspelet
grus
gruva
gruvan
gruvor
gruyter
gryllacrididae
gryllidae
grylloidea
gryllotalpidae
gryon
gs
gsa
gsd
gsds
gsen
gset
gsfc
gskola
gskolan
gskolans
gskolor
gsna
gspinnare
gsstation
gsstationen
gst
gsta
gste
gt
gte
gtyska
gu
guadalajara
guadalupe
guanajuato
guangdong
guangxi
guangzhou
guardian
guatemala
gubben
gud
gudar
gudarna
guden
gudh
gudinna
gudomliga
gudrun
guds
gudstja
gudz
gue
guene
guerrero
guez
guide
guides
guido
guillaume
guinea
guitar
guizhou
gul
gula
guld
guldet
guldmedalj
guldmedaljo
guldo
gulf
gull
gult
gummi
gun
gunilla
gunnar
gunnarsson
gunnel
guns
gunung
gupta
gurkva
gusenleitner
gustaf
gustafs
gustafson
gustafsson
gustav
gustave
gustavo
gustavs
gustavsson
guvernementet
guverno
guy
guyana
gva
gvauszugq
gverk
gvuxen
gyllene
gym
gymnasiet
gymnasium
gymnast
gymnastik
gynoplistia
gyo
gypona
h
ha
haag
haas
habenaria
habitat
habitatet
habitatfo
had
hade
hadena
haematopota
haf
haffuer
haft
hafva
hafvet
hafwa
hafwer
haga
hagberg
hagen
hagfors
hagstro
hahn
hainan
haiti
hal
hale
half
halft
haliclona
haliday
hall
halla
halland
hallands
hallberg
halle
hallen
hallstro
halmstad
halmstads
halo
hals
halsen
halt
halv
halva
halvan
halvbror
halvgra
halvklotet
halvo
halvt
ham
hamburg
hamburger
hamilton
hamlet
hammar
hammarby
hammare
hammer
hamn
hamna
hamnade
hamnar
hamnat
hamnen
hamngatan
hampshire
hampson
han
hanar
hanarna
hancock
hand
handball
handbok
handboll
handbollsspelare
handbook
handbuch
handel
handeln
handels
handelsho
handen
handl
handla
handlade
handlande
handlar
handle
handlexikon
handling
handlingar
handlingen
hands
hane
hanen
hango
haninge
hann
hanna
hannah
hannar
hannes
hannover
hans
hansen
hanson
hansson
hantera
hantverk
hantverkare
haparanda
haplochromis
happy
har
hara
harald
harbin
hard
hardy
hare
harkrankar
harle
harms
harold
harper
harriet
harris
harrison
harry
hart
hartman
hartmann
harv
harvard
harvey
has
hassan
hasse
hast
hastighet
hastigheten
hastigt
hat
hate
hatt
hatten
hattori
hauptbereichen
haut
haute
hautes
hauts
hav
hava
have
haven
havet
havets
havs
havsytan
hawaii
hawaiian
hawk
hawkins
hayashi
hayat
hayes
hayward
hb
hbw
hc
hd
hdl
he
head
health
heart
hearts
heat
heath
heaven
heavy
hebard
hebei
hebreiska
hector
hedberg
hede
hedemora
heder
hedersdoktor
hedersledamot
hedin
hedlund
hedniska
hedra
hedrar
hedvig
hedwigia
heemstra
heidelberg
heights
heikki
heilongjiang
heina
heinrich
heinz
hej
hektar
hel
hela
helen
helena
helene
helga
helge
helgon
helhet
heliconius
helig
heliga
helige
helikopter
helina
heliocentrisk
hell
hellberg
heller
hello
hellre
hellstro
helm
helmer
helmut
help
helsingborg
helsingborgs
helsingfors
helsingforskonventionens
helsingin
helsinki
helst
helt
heltal
heltid
hem
hembygdsfo
hemiboreala
hemiptera
hemisphere
hemland
hemlandet
hemlig
hemliga
hemlighet
hemligheter
hemligt
hemlo
hemma
hemmaarena
hemmamatcher
hemman
hemmansa
hemmaplan
hemmet
hemsida
hemso
hemstad
hemva
hen
henan
henderson
hendrik
henne
hennes
henning
henri
henric
henriette
henrik
henriksson
henry
her
herald
herb
herbert
hercegovina
hercostomus
herdaminne
here
hering
heritage
herman
hermann
hermansson
hermes
herna
hernandez
hero
heroes
herr
herran
herrans
herrar
herrarna
herrarnas
herre
herren
herrens
herrga
herrlandslag
herrn
hertig
hertigdo
hertigen
hertiginna
herzog
hes
hess
hessen
het
heta
heter
heteroptera
hett
hette
hewitson
hexatoma
hey
hf
hi
hibiscus
hidalgo
hieracium
higgins
high
higher
highland
highway
hilara
hilda
hilde
hildebrand
hilding
hill
hills
him
himalaya
himlen
himlens
himmel
himmelen
himmelsblomsva
himmelska
hinder
hindra
hindrade
hindrar
hinna
hinner
hip
hiphop
hipparchia
hipparcos
hipparcosuppdraget
hiroshi
hirsuta
his
hist
histeridae
histeroidea
histoire
historia
historic
historical
historie
historien
historier
historik
historiker
historikern
historisk
historiska
historiskt
history
hit
hitler
hitlers
hits
hitta
hittade
hittades
hittar
hittas
hittat
hittats
hittills
hiv
hja
hjalmar
hjelp
hjerta
hjertat
hjo
hjort
hjul
hjuldjursart
hjulspindlar
hk
hl
hle
hler
hlten
hm
hman
hmen
hms
hn
ho
hobart
hobbs
hochberg
hockey
hockeyallsvenskan
hockeydb
hockeyettan
hockeysverige
hof
hoffman
hoffmann
hokkaido
hold
hole
holger
holiday
holla
holland
hollywood
hollywoodreporter
holm
holmberg
holme
holmen
holmes
holmgren
holmqvist
holmstro
holocaust
holotrichia
holst
holstein
holt
holtt
holy
holzschuh
home
homer
homo
homoneura
homoptera
homosexuella
hon
hona
honan
honda
honduras
hong
hongkong
honolulu
honom
honor
honorna
hood
hook
hooker
hooper
hop
hope
hopkins
hoplia
hopp
hoppa
hoppade
hoppades
hoppar
hoppas
hoppet
hoppflugor
hoppspindlar
hora
horace
horae
horak
horisonten
horn
hornstritar
horror
horse
horst
hort
hos
hospital
host
hosts
hot
hotad
hotade
hotar
hotas
hotel
hotell
hotellet
hotet
houghton
hour
house
households
housing
houston
houten
hov
hovet
hovma
hovra
hovstaterna
how
howard
hoya
hoyo
hp
hr
hren
hrer
hs
ht
htm
html
http
https
hu
hua
huang
hub
hubei
huber
hubert
hucusque
hud
huddinge
huden
hudiksvall
hudiksvalls
hudson
hufvud
hufvudet
hugga
hugh
hughes
hugo
hull
hult
hultsfreds
human
humanistiska
humboldt
humilis
humo
humor
hunan
hund
hundar
hunden
hundra
hundrade
hundratals
hung
hungarica
hungarici
hungary
hunger
hunnit
hunt
hunter
hur
hurd
huru
huruvida
hus
husby
husen
huset
husets
husflugor
husfo
husha
hustru
hustrun
hustrur
huvud
huvudartikel
huvudavrinningsomra
huvudba
huvudbyggnad
huvudbyggnaden
huvuddelen
huvudet
huvudkontor
huvudkontoret
huvudo
huvudort
huvudorten
huvudperson
huvudpersonen
huvudroll
huvudrollen
huvudrollerna
huvudsak
huvudsaklig
huvudsakliga
huvudsakligen
huvudserien
huvudstad
huvudstaden
huvudtra
huvudva
hv
hvad
hvar
hvaraf
hvarandra
hvarefter
hvarest
hvarfo
hvari
hvarje
hvarken
hvarmed
hvarpa
hvars
hvart
hvem
hvila
hvilka
hvilkas
hvilken
hvilket
hvita
hwad
hwar
hwarfo
hwarje
hwilka
hwilken
hwilket
hy
hyde
hydraena
hydraenidae
hydrol
hydrologi
hydrology
hydroptila
hylaeus
hyllade
hyllning
hylte
hym
hymenoptera
hype
hypena
hyperonymer
hyponymer
hyra
hyresga
hyser
hyste
i
ia
iaaf
iagh
ian
iau
ib
ibk
ibland
ibm
ibn
ibrahim
ic
ica
ice
ich
ichneumon
ichneumonidae
ichneumoniden
ichneumonides
ichneumoninae
ichneumonoidea
ichthyol
icke
icon
id
ida
idaea
idag
idaho
ide
ideal
ideell
ideella
ident
identification
identifiera
identisk
identiska
identitet
identity
ideologi
idg
idiomatiskt
idol
idrott
idrottare
idrottonline
idrottsfo
idun
ie
if
ifall
ifk
ifra
ig
iga
igen
igenka
igenom
ign
ignacio
ignatz
igor
iha
ihja
ihop
ii
iihf
iii
ija
ik
ikla
il
ildis
ilex
iliff
ill
illa
illies
illinois
illustr
illustrated
illustrationer
illustrations
illustrato
illustrerad
illustrerade
im
image
images
imdb
imp
impact
impatiens
imperial
imperiet
impf
imponerande
import
importance
impressum
in
ina
inb
inblandad
inblandade
inblandning
inbo
inc
incl
including
incorporated
ind
indalsa
indelad
indelade
indelas
indelat
indelning
indelningar
indelningen
indelta
independent
index
india
indian
indiana
indianapolis
indianerna
indica
indicus
indien
indiens
indies
indigofera
indikerar
indirekt
indisk
indiska
individ
individen
individer
individerna
individual
individuell
individuella
individuellt
indo
indonesia
indonesien
indonesiska
indre
industri
industrial
industriell
industriella
industrier
industriman
industrin
industriomra
industry
ine
inegi
inen
inermis
infa
infaller
infanteriet
infektion
influenser
inflytande
inflytelserika
info
inform
information
informationen
infrastruktur
infty
ing
inga
ingalunda
inge
ingeborg
ingemar
ingen
ingenjo
ingenting
inger
inget
ingick
ingmar
ingrid
ingvar
inha
inhemska
initiativ
initiativet
initiativtagare
inkluderade
inkluderar
inkluderas
inklusive
inko
inkomst
inkomster
inkorporerades
inla
inland
inlandsklimat
inleda
inledande
inledde
inleddes
inleder
inledning
inledningen
inledningsvis
inleds
inloggning
inloppet
inn
innan
innanfo
inne
inneba
innebandy
innebar
innebo
innefattar
inneha
innehade
innehar
innehavare
inneho
innersta
innerstaden
innovation
innsbruck
ino
inom
inomhus
inra
inre
inredning
inrikes
inrikesminister
inriktad
inriktade
inriktning
ins
insa
insats
insatser
inse
insect
insecta
insectes
insectorum
insectos
insects
insee
insektenfamilie
insekter
insektsart
inser
insidan
inside
insignis
insjo
inskra
inskriften
insla
inslag
inspekto
inspektor
inspelad
inspelade
inspelning
inspelningar
inspelningarna
inspelningen
inspiration
inspirerad
inspirerade
inspirerades
inspirerat
inst
insta
instagram
installerades
instiftades
institut
instituta
institute
institutet
institution
institutionen
institutioner
instituto
instruktioner
instrument
instrumental
instrumentet
insufficient
insufficiently
insularis
int
inta
intar
inte
integrated
integration
intellektuella
intelligence
intelligens
intelligent
intensiv
intensivt
inter
interactive
interio
intermedia
intermedius
interna
international
internationale
internationell
internationella
internationellt
internet
interpret
interview
intervju
intervjuer
intet
intill
intilliggande
into
intog
intogs
intra
intressant
intressanta
intresse
intressen
intresserad
intresserade
intresset
introducerade
introducerades
introduction
introduktion
intryck
inuti
inv
inva
invald
invaldes
invandrare
invasion
invasionen
inventarium
inventering
inventory
inverkan
invertebrate
invertebrates
investeringar
invid
invigd
invigdes
invigningen
io
ioc
iopi
iowa
ip
iphiaulax
ipomoea
ir
ira
irak
iran
iranska
iraq
ireland
irena
irene
iris
irish
iriska
irisva
irla
irland
iron
irving
irwin
is
isa
isaac
isabel
isabella
isak
isaksson
isbn
ischen
ise
isen
ishockey
ishockeyfo
ishockeyspelare
isidro
iska
isla
islam
islamic
islamiska
island
islands
isle
isles
isnb
iso
isof
isolerade
isopod
isopoda
israel
israeliska
israels
issn
issue
ist
ista
istanbul
istat
istituto
isynnerhet
it
ita
ital
italia
italian
italiana
italiano
italien
italiens
italiensk
italienska
italienskspra
italy
item
itemid
ithaca
itis
its
itunes
iucn
iucnredlist
iulis
iv
iva
ivan
ivanovich
ivar
ivrigt
iwatsuki
ix
ixodida
ixora
j
ja
jabal
jack
jackie
jackson
jacob
jacobi
jacobs
jacobsen
jacobson
jacobsson
jacobus
jacques
jade
jaeger
jag
jaga
jagar
jahrb
jak
jakarta
jake
jakob
jakobs
jakobsson
jakt
jakten
jalisco
jam
jamaica
james
jamie
jan
jande
jane
janeiro
janet
janne
janson
jansson
januar
januari
january
jap
japan
japanese
japans
japansk
japanska
japonica
japonicus
jar
jard
jarl
jas
jason
java
javier
jawa
jay
jazz
jb
jd
jda
jddata
jde
jden
jder
jdes
jdhopp
jdkurva
jduppgifter
je
jean
jeanette
jeanne
jeekel
jeff
jefferson
jeffrey
jeg
jemfo
jemte
jen
jena
jenkins
jennifer
jenny
jens
jensen
jer
jeremy
jerevan
jerry
jersey
jerusalem
jes
jesper
jesse
jessica
jesu
jesus
jet
jets
jewish
jfr
ji
jiang
jiangsu
jiangxi
jiddisch
jill
jim
jimmy
jin
jinan
jl
jlig
jliga
jligen
jliggjorde
jliggo
jlighet
jligheten
jligheter
jligheterna
jligt
jligtvis
jning
jningen
jningsform
jningsformer
jningstabellen
jo
joa
joachim
joakim
joan
job
jobb
jobba
jobbade
jobbar
jobbet
jobling
joe
joel
joensuu
joey
joh
johan
johann
johanna
johannes
johanneso
johans
johansen
johansson
john
johnny
johns
johnson
johnsson
johnston
join
joins
joint
jokkmokks
jon
jonas
jonathan
jones
jong
jonsson
jonva
jor
jord
jorda
jordan
jordanien
jordba
jordbruk
jordbruket
jordbruksmark
jorden
jordens
jordlo
jordma
jorge
jos
jose
josef
joseph
josephine
josephson
josh
joshua
jour
jourbook
journ
journal
journalist
journalisten
journalister
journalistik
journals
journey
joy
joyce
jp
jpg
jpl
jr
js
jsp
jt
jtnant
jtnanten
ju
jua
juan
juana
juda
judar
judarna
judas
jude
judisk
judiska
judith
judo
judy
jugoslavien
jukkasja
jul
julen
jules
juli
julia
julian
julianska
julie
julien
julius
julkaisut
july
jump
jumping
jun
june
jung
jungfru
jungfrulinsva
jungfrun
juni
junior
junk
jupiter
jura
juridik
juridisk
juridiska
jurij
juris
jurist
juristexamen
jury
juryn
jusqu
just
justerad
justice
justicia
justin
justitieminister
juvelvingar
juventus
jylland
jyva
jørgen
k
ka
kabul
kabupaten
kackerlackor
kackerlacksart
kad
kade
kades
kafe
kaffe
kai
kairo
kaiserlich
kaj
kajanaland
kajsa
kaktusva
kala
kaledonien
kalender
kalendern
kalfja
kalifornien
kalix
kalixa
kalk
kalksten
kall
kalla
kallad
kallade
kallades
kallar
kallas
kallaste
kallat
kallats
kallava
kalle
kallt
kalmar
kalyptorhynchia
kambodja
kamera
kameran
kamerun
kammar
kammare
kammaren
kammarherre
kammarra
kammarriksdagen
kamp
kampanj
kampanjen
kampen
kamrat
kamrater
kan
kanada
kanadas
kanadensisk
kanadensiska
kanal
kanalen
kanaler
kanarieo
kand
kande
kandidat
kandidater
kandidatexamen
kandiderade
kane
kanon
kanoner
kanotist
kansas
kanske
kansli
kansson
kant
kanten
kanter
kantonen
kaos
kap
kapacitet
kapell
kapellet
kapellma
kapital
kapitel
kapitlet
kappa
kaprifolva
kapten
kaptenen
kar
kara
karakta
kardinal
kare
karel
karelen
karen
kari
karin
karl
karleby
karls
karlshamn
karlshamns
karlskoga
karlskrona
karlsruhe
karlsson
karlstad
karlstads
karna
karny
karolina
karolinska
karpfiskar
karria
karsch
karsten
karta
kartan
kartdata
kartla
kartnamnen
kartor
kartplatsen
kas
kassel
kast
kasta
kastade
kastar
kastilien
kat
katalanska
katalog
katalonien
katarina
kate
katedralen
kategori
kategorier
kategorin
kategoriserar
katherine
katoliker
katolsk
katolska
katrineholm
katrineholms
katt
katten
katydids
kaukasus
kavalleriet
kay
kazakstan
kb
kd
ke
kecamatan
kedja
keep
keith
kejsar
kejsardo
kejsare
kejsaren
kejsarens
kejsarinna
kejsarinnan
kejserliga
keller
kelly
kelurahan
kemedel
kemi
kemisk
kemiska
kemist
ken
kenklimat
kennedy
kenneth
kenntnis
kenntniss
kenny
kennzeichnung
kensley
kent
kentucky
kenva
kenya
ker
keramik
kerhet
kerheten
kerligen
kerlund
kerman
kern
kers
kersta
kerstin
kert
kesson
ket
kets
kevan
kevin
kew
key
keyboard
keyboards
keys
keyserling
kf
kg
kha
khan
khl
khorasan
ki
kia
kid
kids
kieffer
kiel
kiev
kig
kiga
kigt
kill
killer
killing
kilo
kilogram
kilometer
kilometers
kilstritar
kim
kimitoo
kina
kinas
kind
kinda
kinder
kindred
kinesisk
kinesiska
kinestra
king
kingdom
kings
kingston
kinshasa
kio
kir
kirby
kirimojava
kirk
kirke
kiruna
kiss
kista
kit
kitty
kivija
kjell
kjellander
kjellberg
kka
kkvartett
kl
kla
kladogram
klagare
klagaren
klan
klang
klar
klara
klarade
klarar
klarinett
klart
klas
klass
klassas
klassen
klasser
klasserna
klassiker
klassisk
klassiska
klassiskt
klaus
klee
klein
klicka
kliga
klimat
klimatet
klimatfo
klimatzonen
klipp
klippa
klippan
klippor
klo
klocka
klockan
klockor
klockstapel
klockva
klok
klor
kloster
klostret
klotspindlar
klubb
klubbar
klubbarna
klubben
klubbens
kluwer
km
kmotor
kna
knad
knade
knades
knapp
knappast
knappt
knar
knas
knat
knen
knight
knights
kning
kningar
kningarna
kningen
kniv
kno
knop
knott
know
knowledge
known
knut
knuten
knutna
knutsson
ko
koch
kock
kod
koden
kodnyckel
kodsystem
koka
kokas
kol
kola
kolbe
koldioxid
kollega
koloni
kolonier
kolonierna
kolonin
kom
kombination
kombinationer
kombinerad
kombinerade
komedi
komedifilm
komiker
komma
kommande
komme
kommen
kommendo
kommentar
kommentarer
kommenterade
kommentus
kommer
kommersiell
kommersiella
kommersiellt
komminister
kommissarie
kommission
kommissionen
kommit
kommitte
kommo
kommun
kommunal
kommunala
kommunalfo
kommunalra
kommunalt
kommune
kommunen
kommunens
kommuner
kommunerna
kommunfullma
kommunhuvudort
kommunikation
kommunindelning
kommunistiska
kommunistpartiet
kommunreformen
kommuns
kompani
kompaniet
kompetens
komplett
komplex
komplexa
komponenter
komponerad
komponerade
komposition
kompositioner
komposito
kon
koncentrationsla
koncept
konceptet
koncernen
konferens
konferensen
konflikt
konflikten
konflikter
kong
kongelige
kongl
kongliga
kongo
kongress
kongressen
kongressledamot
konkreta
konkurrens
konkurs
konrad
konsekvens
konsekvenser
konsert
konserten
konserter
konservativ
konservativa
konst
konsta
konstakademien
konstant
konstantin
konstantinopel
konstaterade
konsten
konstfo
konsthall
konstho
konstitution
konstitutionen
konstmuseum
konstna
konstruerade
konstruerades
konstruktion
konstruktionen
konstruktioner
konstrukto
konstverk
konsul
konsult
kontakt
kontakten
kontakter
kontinenten
kontinuerligt
kontor
kontoret
kontrakt
kontraktet
kontrast
kontroll
kontrollen
kontrollera
kontrollerade
kontroversiella
konung
konungar
konungen
konungens
konventionen
konversationsleksikon
kooperativa
kopia
kopian
kopior
koppar
kopparbergs
kopplade
kopplas
koppling
kopplingar
kor
korallart
koranen
korea
korean
koreanska
koret
korgblommiga
korn
korpo
korrekt
korrigerad
korruption
kors
korsar
korsblommig
korsblommiga
korset
korsets
korsfa
korsholm
korsning
korsningen
korsta
kort
korta
kortare
kortfilm
korttungebin
kortvingar
kos
kosovo
kost
kosta
kostade
kostar
kostermans
kostnad
kostnaden
kostnader
kostnaderna
kotka
kottelat
kr
kra
krabbspindlar
krade
kraft
kraften
krafter
kraftig
kraftiga
kraftigare
kraftigt
kraftverk
krako
kramer
kramfors
krar
kraus
krause
krav
kraven
kravet
krediterad
kreis
kreta
krets
kretsar
kretsen
krig
krigare
krigen
kriget
krigets
krigfo
krigsfa
krigsfo
krigsslutet
krigsvetenskapsakademien
krim
kriminella
krims
kring
kris
krisen
kristdemokraterna
kristen
kristendom
kristendomen
krister
kristi
kristian
kristiania
kristianstad
kristianstads
kristianstadsbladet
kristin
kristina
kristinehamn
kristna
kristoffer
kristus
kriterier
kritik
kritiken
kritiker
kritiserade
kritiserades
kritiserats
kritisk
kritiska
kro
kroatien
kroatisk
kroatiska
krog
krokoms
kroktja
krona
kronan
kronans
kronobergs
kronor
kronprins
kronprinsen
kropp
kroppar
kroppen
kroppens
kroppsla
kru
ks
kspindlar
kt
kta
ktad
ktade
ktare
ktaren
ktat
kte
kten
ktenskap
ktenskapet
kter
kterna
ktes
ktet
ktforskarfo
kth
ktig
ktiga
ktigaste
ktige
ktigt
kting
ktingar
ktning
ktskap
ku
kuba
kul
kula
kull
kulla
kullander
kullar
kulle
kullen
kulo
kulor
kultur
kulturarv
kulturell
kulturella
kulturellt
kulturen
kulturer
kulturhistorisk
kulturhistoriska
kulturhistoriskt
kulturhuset
kulturmiljo
kulturnav
kulturpris
kulturva
kumla
kunde
kunder
kung
kunga
kungado
kungahuset
kungar
kungariket
kungen
kungens
kungl
kunglig
kungliga
kungligt
kungo
kungsbacka
kungsga
kungsgatan
kungsholmen
kunna
kunnat
kunskap
kunskapen
kunskaper
kunst
kunth
kuntze
kunze
kuopio
kuperad
kur
kurdiska
kurdistan
kuriren
kurs
kursen
kurser
kurt
kusin
kust
kusten
kustklimat
kustomra
kv
kva
kvadratkilometer
kvadratmeter
kval
kvalade
kvalet
kvalificerad
kvalificerade
kvalitet
kvalserien
kvalspelet
kvalsterart
kvar
kvarken
kvarn
kvarnen
kvarsta
kvarstod
kvartal
kvarter
kvarteret
kvartsfinal
kvartsfinalen
kvarvarande
kvinna
kvinnan
kvinnans
kvinnlig
kvinnliga
kvinnobiografiskt
kvinnonamn
kvinnor
kvinnorna
kvinnors
kw
ky
kyla
kyle
kymmene
kymmenedalen
kyoto
kyrka
kyrkan
kyrkans
kyrkas
kyrkby
kyrkbyn
kyrkliga
kyrkligt
kyrkoarkiv
kyrkobyggnad
kyrkoga
kyrkoherde
kyrkoherden
kyrkomo
kyrkor
kyrkorna
kyrkorummet
kyss
københavn
l
la
lab
laboratorium
laboratory
labour
labrador
lac
lad
ladda
lade
lades
ladies
laduga
lady
laender
laevis
lag
laga
lagar
lagen
lagens
lager
lagercrantz
lagerlo
lagerva
laget
lagets
lagfo
lagkapten
lagman
lago
lagom
lagra
lagstiftande
lagstiftning
lagstiftningen
lagt
lagta
lagts
laguna
lahtis
lajien
lake
lakes
lallemand
lam
lama
lamarck
lamb
lambda
lambert
lameere
lamellicornia
lamiaires
lamiinae
lamm
lamnar
lamod
lan
lancaster
lance
lanceolata
land
landa
landade
landarea
landareal
landarealtatort
lande
lander
landet
landets
landkreis
landomra
lands
landsbygd
landsbygden
landsdel
landsfiskalsdistrikt
landsfo
landsho
landskamp
landskamper
landskap
landskapet
landskapsma
landskommun
landskommunen
landskommuner
landskrona
landslag
landslaget
landsma
landsting
landstinget
landsva
lane
lang
lange
language
languages
lanka
lanserade
lanserades
lansstyrelsen
lantbrukare
lantbruksuniversitet
lantma
laos
lappland
lar
lare
laren
large
larna
larry
lars
larsen
larskola
larson
larsson
larven
larver
las
lasioglossum
lasse
last
lat
lata
late
lateralis
latest
latimes
latin
latinamerika
latinets
latinska
lato
latreille
launch
laura
laurence
laurent
laurentius
laurie
lausanne
lava
laval
lavar
lavart
law
lawrence
lax
laxa
layers
lazio
lb
lba
lby
lc
ld
lda
lde
lden
lder
lderdomligt
ldern
ldes
ldet
ldig
ldiga
ldigt
ldl
ldlo
ldlussteklar
ldrar
ldrarna
ldre
lds
ldsam
ldsamma
ldsamt
ldsta
ldste
ldsvik
ldsviks
ldta
le
lea
leach
lead
leader
leaders
leaf
leafs
league
leander
learning
leave
leben
lecanora
leconte
led
leda
ledamo
ledamot
ledamoter
ledande
ledare
ledaren
ledarna
ledarskap
ledd
ledda
ledde
leddes
leddjur
leden
leder
ledes
ledning
ledningen
leds
ledsen
lee
leech
leeds
leende
leeuwen
lefde
left
lefva
lefvande
legacy
legal
legat
legend
legenden
legumes
leguminosae
leicester
leiden
leif
leioproctus
leipzig
leitao
lejon
lejonet
lek
leka
leken
lekma
leksand
leksands
leksikon
lektor
lemna
lemnade
lempke
len
lena
leningrad
lennart
lennon
lens
leo
leon
leonard
leonardo
leone
leopard
leopold
leotiomycetes
lepanthes
lepidoptera
lepindex
leppa
leptogaster
leptotarsus
ler
lera
leri
leriet
les
leslie
lestin
let
leta
letar
lethe
lets
lett
letter
letters
lettiska
lettland
leucania
leur
lev
leva
levande
levde
level
lever
leveranto
leverera
levererade
levererades
levi
levin
levnadssa
levt
lewenhaupt
lewis
lex
lexikon
lez
lf
lfa
lft
lften
lfva
lg
lga
lgo
lhavare
lhavaren
lhc
li
lia
liang
lias
liaslight
liasnames
lib
libanon
liber
liberal
liberala
liberalerna
liberia
libertad
libertadores
liberty
librairie
library
libretto
libris
libyen
licens
licentiat
lich
lichenized
lida
lidande
lider
lides
lidingo
lidit
lidko
lie
liechtenstein
lif
life
lifvet
lifvets
lig
liga
ligamatcher
ligan
ligga
liggande
ligger
light
lightning
lights
ligt
ligue
lik
lika
likaledes
likasa
likasom
like
likhet
likheter
likna
liknade
liknande
liknar
liksom
likt
likva
lil
lila
lilja
liljeva
liljevalchs
lill
lilla
lille
lillsjo
lily
lim
lima
limburg
limenitis
limited
limnophora
lin
lina
lincoln
lind
linda
lindahl
lindberg
lindblad
lindblom
linde
linden
linder
lindgren
lindh
lindholm
lindl
lindley
lindleyana
lindman
lindqvist
lindsay
lindstro
line
lineata
lines
ling
lingvistik
linja
linje
linjen
linjer
linjerna
link
linko
linn
linnaea
linnaeus
linne
linnean
linsley
linus
linux
linyphiidae
lion
lionel
liparis
liriomyza
lis
lisa
lisbeth
liseberg
lissabon
lissonota
list
lista
listade
listan
listar
listas
liste
listor
listplacering
lists
lit
lita
litauen
litauiska
lite
liten
liter
literary
literature
litet
lithobius
litsea
littera
litteratur
litteraturbanken
litteraturen
litteraturpris
litteratursa
little
liu
liv
live
livealbum
liverpool
lives
livet
livets
living
livland
livlig
livna
livregementets
livskraftig
livsla
livsmedel
livsmiljo
livsstil
livstid
lix
lizards
lj
lja
ljaktligen
ljande
ljare
ljaren
ljas
ljd
ljde
ljden
ljder
ljdes
lje
ljelse
ljer
ljes
ljeslagare
ljning
ljningen
ljo
ljs
ljt
ljud
ljudet
ljudtekniker
ljung
ljungans
ljungberg
ljungby
ljunggren
ljungstro
ljungva
ljus
ljusa
ljusare
ljusdals
ljuset
ljusets
ljusfo
ljusgra
ljusnans
ljust
lk
lka
lken
lkerung
lkommen
ll
lla
llan
lland
llande
llanden
llandena
llandet
llandevis
llano
llar
llare
llaren
llarna
llas
llbar
llby
lld
llda
llde
lldes
lle
llefors
llelse
llen
llena
ller
lles
llet
llets
llfo
llig
lliga
llighet
lligt
llingby
llit
llits
llivare
llna
llning
llningar
llningarna
llningen
llningssa
llo
llop
llopet
llor
llorna
lloyd
llplats
lls
llsjo
llskap
llskapet
llskapets
llstro
llsynt
llsynta
llt
llts
lm
lma
ln
lndal
lndals
lning
lningar
lningarna
lningen
lo
loan
lobanov
lobelia
loc
local
localarea
localidades
loch
locis
lock
locka
lockade
lockar
locustidae
locusts
lod
loew
lof
log
logik
logo
logunov
loi
loir
loire
lok
lokal
lokala
lokalen
lokaler
lokalerna
lokalt
loma
lombardiet
lond
london
londons
lonely
long
longico
longicorn
longicornes
longicornia
longicornis
longipes
look
lopez
lopp
loppart
loppet
lor
lord
lorentz
lorenz
lorenzo
loricariidae
lorraine
los
loss
lost
lot
lott
lotta
lotus
lou
louis
louise
louisiana
lov
lova
lovade
lovar
lovat
love
lovisa
low
lower
lp
lpa
lpare
lpen
lper
lpg
lpmedel
lpt
lpte
ls
lsa
lse
lsen
lsignelse
lsingland
lsjbot
lsjo
lska
lskad
lskade
lskar
lskare
lskarinna
lskat
lskva
lsning
lsningsarme
lso
lsova
lst
lsta
lt
lta
ltar
ltare
ltd
lte
lten
lter
ltet
ltid
ltja
ltmarskalk
lts
ltta
lu
luc
lucas
lucia
lucien
lucius
lucky
lucy
ludvig
ludvika
ludwig
luer
luft
luften
lufttemperatur
luftva
lugn
lugna
lugnt
lui
luigi
luis
luk
lukas
luke
lukt
lulea
luna
lunar
lund
lunda
lundberg
lundby
lundell
lundgren
lundin
lundkvist
lundquist
lundqvist
lunds
lundstro
lundy
lupinus
lust
lutea
luther
lutherska
lutz
lutzomyia
luxemburg
luz
lv
lva
lvakt
lvakten
lvbiografi
lvdalens
lven
lvens
lvfo
lvmord
lvs
lvsborgs
lvsta
lvt
ly
lyangouzov
lycaena
lycka
lyckad
lyckade
lyckades
lyckan
lyckas
lyckats
lycklig
lyckliga
lyckligt
lycksele
lycophytes
lycosa
lyda
lydde
lyder
lydia
lyfta
lyfte
lyfter
lyftet
lyman
lynch
lynn
lynne
lynx
lyon
lyons
lyrik
lysa
lysande
lysandra
lyser
lyssna
lyssnade
lyste
lyx
m
ma
mac
macdonald
machine
mack
macmillan
macquart
macromitrium
maculata
maculatus
mad
madagascar
madagascariensis
madagaskar
madame
made
madeira
madeleine
madison
madonna
madrid
mag
magasin
magasinet
magazine
magdalena
magen
maggie
magi
magic
magiska
magister
magna
magnitud
magnolia
magnus
magnusson
mah
mahunka
mai
maiden
mail
main
maincol
maine
mainz
maire
maj
maja
majesta
major
majoren
majoritet
majoriteten
maka
makarna
make
makedonien
makedonska
maken
makens
makes
making
makt
makten
mal
mala
maladera
malar
malawi
malay
malayan
malaysia
malcolm
male
mali
malin
mall
malloch
malm
malmberg
malmen
malmo
malmstro
malpighiaceae
malta
malung
malvava
mama
mamma
mammal
mammals
man
management
manager
mancha
manche
manchester
mandat
mandatperiod
mandatperioden
manfred
manga
manhattan
manitoba
manlig
manliga
mann
manna
mannen
mannens
manning
mano
mans
mansnamn
mantal
mantidae
mantodea
mantodeasf
manual
manuel
manus
manuscript
manuset
manusfo
manuskript
many
mao
map
maple
maps
mar
mara
marathon
maraton
marc
marcel
march
marco
marcos
marcus
mare
margaret
margareta
margaretha
marge
marginal
marginata
margit
marguerite
mari
maria
marianne
mariano
marias
marie
mariehamn
mariestad
marilyn
marin
marina
marine
marinen
marinens
marino
mario
marion
marit
maritima
maritime
marius
mark
marka
marken
marker
markera
markerade
markerar
market
markis
marklund
marknad
marknaden
marknader
marknadsfo
marko
marks
marktemperatur
markus
markytans
marley
marmor
marne
marocko
mars
marsch
marseille
marsh
marshall
mart
marta
martha
marti
martin
martina
martinez
martini
martins
martius
marvel
marx
mary
maryland
mas
masahiro
masdevallia
mask
maskin
maskinen
maskiner
mason
mass
massa
massachusetts
massan
massor
master
mastering
masters
mat
mata
match
matchen
matcher
matcherna
matches
mate
matematik
matematiken
matematiker
matematisk
matematiska
maten
materia
material
materialet
math
mathbb
mathbf
mathematics
mathias
mathilda
mathrm
matilda
mato
matra
matrikel
mats
matsumura
matsumurana
matt
matth
matthew
matthews
matthias
matti
mattias
mattsson
maud
maurice
mauritius
mauritz
max
maximalt
maximilian
maxwell
may
maya
mayer
mayo
mayor
mayr
mazur
mb
mberg
mbete
mbetet
mbetets
mbetsma
mbetsman
mc
mccarthy
mccartney
mcd
mcdonald
mckamey
mckenzie
mclaren
mcmahon
mcmurtry
md
mda
mde
mdes
mdt
me
mealybugs
mecklenburg
mecoptera
med
medal
medalj
medaljen
medaljer
medan
medarbetare
medborgare
medborgarskap
meddela
meddelade
meddelades
meddelande
meddelanden
meddelar
mededelingen
medel
medelhavet
medelhavsklimat
medelhavsomra
medelho
medelpad
medelst
medelstor
medeltemperaturen
medeltid
medeltida
medeltiden
medeltidens
medelva
medetera
medfo
medh
medhja
media
medical
medicin
medicine
medicinsk
medicinska
mediedatabas
medien
medier
medieval
medina
mediterranean
medium
medlem
medlemmar
medlemmarna
medlemmen
medlemskap
medlemsstater
medley
medvedev
medverka
medverkade
medverkan
medverkande
medverkar
medverkat
medveten
medvetet
meet
mega
megachile
megalopodidae
megaselia
meigen
mej
mekanisk
mekaniska
mel
melaleuca
melanagromyza
melanargia
melander
melastomataceae
melbourne
melichar
melin
melitaea
mellan
mellano
mellanrum
mellersta
mellicta
mello
melnet
melodi
melodier
melodifestivalen
melodin
melolonthidae
melolonthiden
melon
mem
member
members
membracoidea
memoarer
memoir
memoires
memoirs
memorial
memorie
memory
men
mena
menade
menar
menas
mening
meningar
meningen
menniska
menniskan
menniskor
mens
ment
mental
menu
mer
mera
mercedes
mercury
merely
meridionalis
merit
meriter
merkmalen
merparten
merr
merrill
mes
mesa
mesochorus
messier
mest
mesta
mestadels
met
meta
metacritic
metal
metall
metaller
metallica
metallum
metaphycus
metcalf
meteorus
meter
meters
method
metod
metoden
metoder
metres
metria
metro
metropolitan
mets
meurling
meurthe
meuse
mexican
mexicana
mexicanus
mexico
mexikansk
mexikanska
mexiko
meyer
meyrick
mez
mf
mfa
mff
mfo
mg
mhz
mi
mia
miami
michael
michail
michel
michele
michelle
michigan
michoaca
mick
mickey
miconia
microsoft
mid
middag
middagen
middle
midnight
midt
mie
mifflin
mig
migh
miguel
mika
mikael
mike
mil
milan
milano
mild
milda
mile
miles
milita
military
miljarder
miljo
miljon
miljoner
mill
millennium
miller
millimeter
million
millipedes
mills
milne
milton
milwaukee
mimosa
min
mina
minas
mind
minde
mindre
mine
minelli
mineral
minerarflugor
mini
minima
minista
minister
ministerio
ministry
minna
minnas
minne
minneapolis
minnelse
minnen
minner
minnesma
minnesota
minnet
minns
minor
minoritet
minorplanetcenter
minsk
minska
minskad
minskade
minskar
minskat
minskning
minst
minsta
minus
minut
minuta
minuten
minuter
minutus
mio
miquel
mir
mira
mirabilis
miranda
mirror
misc
miscellaneous
mishchenko
miss
missade
missbruk
missfo
misshandel
mission
missiona
missionsfo
mississippi
misslyckade
misslyckades
misslyckas
misslyckats
missno
missouri
missta
misstag
miste
mit
mitchell
mites
mitt
mitteilungen
mitten
mittfa
mix
mixed
mja
mjande
mjandet
mjo
mjuk
mjuka
mjukt
mk
ml
mlb
mligen
mling
mm
mma
mmade
mman
mmande
mmar
mmas
mmelse
mmelsen
mmelser
mmelserna
mmen
mmens
mmer
mmor
mn
mna
mnad
mnade
mnades
mnande
mnar
mnas
mnat
mnd
mnda
mnde
mnden
mndens
mndes
mne
mnen
mnena
mner
mnes
mnet
mning
mningar
mningarna
mningen
mningstyper
mnras
mns
mnt
mnts
mo
moa
moberg
mobil
mobile
moby
moc
mod
mode
model
modell
modellen
modeller
modellerna
moder
moderat
moderata
moderaterna
moderfo
moderklubb
modern
moderna
modernare
moderns
modernt
modersma
modesta
modet
modis
modo
mogoplistinae
mohamed
mohammad
mohammed
moire
moires
mojo
mol
moldavien
molecular
molekyla
molekyler
molin
moll
mollis
mollusks
molly
moln
molophilus
moment
mon
mona
monaco
monark
monde
money
mongolia
mongoliet
mongoliska
monica
monitoring
monne
monogr
monografieen
monografier
monograph
monographia
monographie
monographs
monomorium
monotypisk
monroe
monster
monsunklimat
mont
montana
montanus
monte
montenegro
montgomery
month
monthly
monticola
montre
montreal
monument
moon
moore
mor
mora
moraes
moral
morales
moraliska
morbror
mord
morden
mordet
more
morelos
moreno
morfar
morgan
morgon
morgonen
moritz
morley
mormor
morning
moro
morpho
morphology
morris
morrison
mors
morse
morton
mos
mosaik
moscow
mose
moselle
moser
moses
moske
moskva
moss
mossdjursart
mosses
most
moster
mot
motala
motga
mother
motion
motiv
motiveras
motiveringen
motivet
moto
motogp
motor
motorer
motorn
motorsport
motorva
motsa
motsats
motsatsen
motsatt
motsatta
motsatte
motsta
motsvarade
motsvarande
motsvarar
motsvarighet
mott
mottagande
mottagare
mottog
mottogs
motverka
mount
mountain
mountains
move
movement
movie
movies
moviezine
mowd
mozart
mp
mpa
mpad
mpade
mpades
mpande
mpar
mpas
mpat
mpe
mplig
mpliga
mpligt
mpning
mr
mrac
mre
mrs
ms
msa
mska
mst
msta
mste
msunds
mt
mta
mtad
mtade
mtar
mtas
mtat
mte
mtland
mtlands
mts
mtv
mu
much
mueller
muhammad
muhammed
muir
mullba
muller
multimedia
mumlade
mun
mundi
munich
municipal
municipalities
municipality
municipalsamha
municipio
munk
munkar
munnen
munspel
munzinger
mur
murar
murarna
murder
muren
murphy
murray
mus
musca
musci
muscorum
muse
museer
museet
museets
musei
museo
museu
museum
museums
music
musical
musik
musikal
musikalbum
musikalen
musikalisk
musikaliska
musikaliskt
musiken
musiker
musikern
musikfo
musikgrupp
musikgruppen
musikho
musikla
musikproducent
musikverk
musikverket
musikvideo
musikvideon
muslim
muslimer
muslimska
musse
musselart
must
mutant
mv
mva
mw
mx
my
myanmar
mycalesis
mycetophila
mycken
mycket
mycol
mycologia
mycomya
mycosphaerella
mycosphaerellaceae
mycotaxon
myeon
myers
myndighet
myndigheten
myndigheter
myndigheterna
mynewsdesk
mynnar
mynning
mynt
myrart
myrcia
myriapod
myriapoda
myrlejonsla
myror
myrtenva
myspace
mystery
mystiska
mytologi
mytologin
møller
n
na
nac
nach
nachrichten
nacional
nacka
nacken
nad
nade
naden
nader
naderna
naders
nades
nagu
naken
nakna
nam
name
named
namens
names
namibia
namn
namna
namnen
namnet
namngavs
namngiven
namnsdag
nan
nana
nancy
nande
nanjing
napoleon
napoli
nar
narantal
narantalet
nare
naren
narendran
narita
narna
nas
nasa
nascar
nash
nashville
nassau
nat
natal
natalensis
nathan
nathaniel
nation
national
nationalbibliotekets
nationale
nationalekonom
nationalekonomi
nationalencyklopedin
nationalencyklopedins
nationalfo
nationalis
nationalmuseum
nationalpark
nationalparken
nationell
nationella
nationellt
nationen
nationens
nationer
nationerna
nationernas
nations
native
natl
natn
nato
nats
natt
natten
nattens
nattflyn
nattsla
natur
natura
naturae
natural
naturale
naturales
naturalis
naturalist
nature
naturelle
naturelles
naturels
naturen
naturens
naturforschenden
naturgeschichte
naturhist
naturhistorischen
naturhistoriska
naturkunde
naturlig
naturliga
naturligt
naturligtvis
naturreservat
naturreservatet
naturskyddat
naturva
naturvetenskap
naturw
naturwiss
nauk
nava
naval
navarra
navy
naxos
nazionale
nazisterna
nazistiska
nazityskland
nb
nba
nbc
nberg
nbn
ncbi
nchen
nchez
ncia
nd
nda
ndag
ndagen
ndama
ndan
ndande
ndandet
ndare
ndaren
ndarna
ndas
nde
ndeart
ndebud
ndelse
ndelsen
ndelser
ndelserna
nden
nder
nderna
ndernas
nders
nderungen
ndes
ndet
ndets
ndez
ndig
ndiga
ndigen
ndighet
ndigheten
ndigheter
ndigheterna
ndigt
ndigtvis
ndlig
ndliga
ndligt
ndning
ndningar
ndningarna
ndningen
ndningsomra
ndo
ndor
ndpunkt
ndra
ndrad
ndrade
ndrades
ndrar
ndras
ndrat
ndrats
ndring
ndringar
ndringarna
ndringen
nds
ndsk
ndska
ndske
ndskt
ndsro
ndt
ne
nea
neal
neapel
near
nearctic
nebraska
ned
neda
nedan
nedanfo
neder
nederbo
nederla
nederlag
nederlandse
nedga
nedla
nedlagd
nedlagda
nedre
nedsa
need
nees
negativ
negativa
negativt
negro
neh
neighbourhood
neil
neill
nej
nejlikva
nel
nelson
nemertea
nemligen
nen
nens
neo
neoseiulus
neotropical
nepal
nephrotoma
neptis
ner
nere
nerladdad
nern
nerna
nero
ners
nersborg
nersborgs
nes
net
netelia
netflix
netherlands
nets
network
neu
neue
neuen
neuer
neuroptera
neuropterida
neutral
nevada
never
neville
new
newcastle
newfoundland
newman
newport
news
newsid
newton
next
nez
nf
nfl
nfo
ng
nga
ngad
ngade
ngan
ngande
ngar
ngare
ngaren
ngarna
ngas
ngats
ngba
ngbok
ngc
ngd
ngda
ngde
ngden
ngder
ngdes
ngdhopp
ngdskida
nge
ngel
ngelholm
ngeln
ngelse
ngelset
ngen
ngens
ngenskap
nger
ngermana
ngermanland
ngerna
ngers
ngerska
ngerskan
nges
ngest
nget
ngfald
ngfilm
ngfotingar
ngfotingart
nghorningar
nghornssla
nghus
nghuset
nghusets
ngja
ngkarta
ngla
nglar
nglig
ngliga
ngligt
ngna
ngning
ngningar
ngningen
ngo
ngor
ngre
ngro
ngs
ngsa
ngsam
ngsamt
ngsel
ngsjo
ngslad
ngslades
ngspunkt
ngsrik
ngsrika
ngsrikt
ngsskinnbaggar
ngst
ngsta
ngstra
ngsund
ngt
ngtan
ngtja
ngtungebin
nguyen
ngva
ngvarig
nh
nhet
nheten
nhetens
nhl
nhm
ni
nia
nicaragua
nice
nicholas
nick
niclas
nico
nicola
nicolai
nicolas
nicolaus
nicole
nicolson
nie
niedero
niedersachsen
niels
nielsen
nien
nig
nigel
niger
nigeria
night
niglichen
nigra
nigrescens
nigricans
nigripes
nih
nika
nikan
niklas
niko
nikolai
nikolaj
nikolaus
nils
nilson
nilsson
nina
nine
ning
ningar
ningen
ningom
ninja
nintendo
nio
nionde
nirvana
nisse
nit
nitida
niva
nixon
nja
njuta
nk
nka
nkan
nkande
nkar
nkas
nkc
nken
nker
nkning
nkningar
nko
nks
nkt
nkta
nkte
nktes
nl
nla
nland
nlc
nlig
nliga
nligt
nlittera
nlm
nm
nn
nna
nnagav
nnande
nnare
nnas
nne
nnedom
nnelse
nnen
nnens
nner
nnerfors
nnerna
nnetecken
nnetecknas
nning
nningar
nningarna
nninge
nningen
nniska
nniskan
nniskans
nniskor
nniskorna
nniskors
nnroth
nns
nnu
no
noah
nobel
nobelpriset
nobelpristagare
nobelprize
nobels
nobelstiftelsen
noble
nodc
node
noel
nog
noga
noggrant
noir
noire
noje
nojesbladet
nokia
nola
noll
nom
nomada
nomenclator
nomenclature
nominatformen
nominerad
nominerade
nominerades
nomisweb
nomo
non
nor
nora
norberg
nord
nordafrika
nordamerika
nordamerikanska
norden
nordens
nordic
nordin
nordirland
nordisk
nordiska
nordiskt
nordkorea
nordlig
nordliga
nordligaste
nordmakedonien
nordo
nordost
nordsamiska
nordsjo
nordstja
nordstro
nordva
nore
norfolk
norge
norges
norma
normal
normala
normalt
norman
normandie
normdatei
norr
norra
norrbotten
norrbottens
norrby
norris
norrko
norrla
norrland
norrlands
norrma
norrmalm
norrstro
norrta
norrut
norsjo
norsk
norska
norske
norskt
norstedt
norstedts
norte
north
northeastern
northern
northumberland
northwest
norton
norway
nos
nosen
not
notarie
notas
note
noter
notera
noterade
noterades
notes
nothing
notices
notizbl
notre
nottingham
noulzi
nouveau
nouveaux
nouvelle
nouvelles
nov
nova
novae
novas
novel
novell
novellen
noveller
november
novi
novit
novitates
novo
novon
novos
now
nowak
noyes
nr
nrcan
nrik
nrk
ns
nsa
nsaari
nsad
nsade
nsaker
nsande
nsar
nsas
nsat
nseende
nsen
nser
nserna
nsf
nsk
nska
nskade
nskan
nskap
nskar
nskema
nsklig
nskliga
nskligheten
nskligt
nskva
nsla
nslan
nsle
nslig
nsliga
nslor
nsning
nsningar
nso
nsson
nsstyrelsen
nst
nstema
nsteman
nsten
nster
nsterpartiet
nstgjorde
nstgo
nstra
nstren
nstret
nsva
nsyn
nsyrseart
nt
nta
ntade
ntan
ntar
ntas
ntat
nte
nter
nther
ntligen
nts
nu
nuclear
nueva
nuevo
nuevos
number
numbers
numera
nummer
nummerordning
numret
nunatak
nunavut
nuovo
nusa
nutid
nutida
nuvarande
nv
nvaro
nvfeed
nvisar
nvisning
nw
nwards
ny
nya
nyare
nyberg
nybildade
nybro
nybyggda
nyckel
nyckeln
nyctemera
nye
nyfo
nygren
nyhet
nyheter
nyko
nyland
nylander
nyligen
nyman
nyna
nynorska
nyo
nyslott
nyslotts
nyss
nystadsregionen
nystro
nytimes
nytt
nytta
nyttjas
nyutga
nyzeela
nz
nzib
o
oa
oak
oaktadt
oavgjorda
oavgjort
oavsett
oaxaca
ob
obadiah
obama
obefolkad
oberea
obero
oberoende
oberthu
obesta
obetydlig
obituary
object
objekt
oblast
obozrenie
obscura
obscurus
observationer
observationibus
observations
observatoriet
observatorium
observatory
observera
observeras
observerats
observers
obsjtina
oc
ocampo
occasional
occidentale
occidentalis
occitanien
ocean
oceanen
och
ochthebius
ock
ockelbo
ocksa
ockupationen
ockuperade
oclc
ocotea
oct
october
odd
ode
oden
odense
oder
odlade
odlas
odling
odo
odonata
odore
oecetis
oerho
of
off
offensiv
offentlig
offentliga
offentligt
offer
office
officer
officerare
official
officialcharts
officiell
officiella
officiellt
offra
offren
offspring
ofo
ofruktbar
ofta
oftare
oftast
ofullsta
ofvan
og
ogift
ographique
oh
oha
ohaus
ohio
ohlsson
oi
oid
oil
oilers
ois
oise
oj
oja
ojo
ok
oka
oklahoma
oklar
oklart
okt
oktober
ol
ola
olaus
olav
old
oldest
ole
oleanderva
olga
oliarus
oligochaeta
olika
oliver
olivia
olivier
olja
oljema
olle
olof
olofsson
olov
olsen
olson
olsson
olycka
olyckan
olycklig
olyckliga
olyckor
olympedia
olympia
olympic
olympics
olympisk
olympiska
om
oma
oman
omar
ombildades
ombord
ombud
ombudsman
ombyggnad
ombyggnaden
omdo
omedelbar
omedelbart
omega
omfa
omfatta
omfattade
omfattande
omfattar
omfattas
omfattning
omfolkbokforing
omga
omges
omgivande
omgiven
omgivning
omgivningarna
omgivningen
omkom
omkommer
omkr
omkring
omloppsbana
ommatius
omna
omo
omphale
omra
omro
omsa
omslag
omslaget
omsorg
omsta
omtalade
omtalas
omtyckt
omva
omval
omvaldes
omvandlades
omvandlas
on
once
ond
onda
ondt
one
onepage
onkel
online
onlinela
only
ono
onsdag
ont
ontario
onthophagus
oo
oosterbroek
op
ope
open
opera
operan
operasa
operation
operationen
operationer
operativsystem
operato
operett
operetten
operor
ophiuroidea
opiinae
opinion
opius
opp
opposition
oppositionen
opte
option
opus
opuscula
or
ora
orange
orbigny
orchard
orchestra
orchid
ord
ordbok
orden
ordens
ordentligt
order
orders
ordet
ordfo
ordfront
ordgrupp
ordinarie
ordines
ordna
ordnade
ordnar
ordning
ordningen
ordre
ords
oregon
org
organ
organisation
organisationen
organisationens
organisationer
organised
organisera
organiserad
organiserade
organiserades
organisk
organiska
organismer
organisms
organist
organization
orgel
orgelbyggeri
orgeln
orgilus
orglar
oribatida
orient
oriental
orientale
orientalis
orientering
origin
original
originalet
originaltitel
originalverk
origins
orion
orkester
orkestern
orkide
orlando
orle
orleans
orm
ormar
ormart
ormbunkeart
ormen
ormosia
ormstja
ornata
ornatus
orne
ornithology
ornitologiska
oro
orolig
orrell
orsa
orsak
orsaka
orsakade
orsakar
orsakas
orsakat
orsaken
orsaker
orsakerna
orsodacnidae
orstom
ort
orten
ortens
orter
orterna
orternas
orth
orthocladius
orthopte
orthoptera
orthopterasf
orthopteren
orthopterists
orthopterorum
ortnamn
ortnamnslexikon
ortodoxa
os
osa
osaka
oscar
oscars
oskar
oskarshamn
oskarshamns
oskyldig
oslo
osm
osmanska
oss
ossian
ost
osten
ostindiska
osv
oswald
ota
otaliga
other
others
otillra
otiorrhynchus
ots
ottawa
otte
otto
ou
ouest
ouppho
our
out
ouvrard
ov
ova
ovan
ovana
ovanfo
ovanlig
ovanliga
ovanligt
ovanpa
ovansida
ovansidan
ovansta
ove
over
overview
ovice
owen
own
oxalis
oxenstierna
oxford
oxyopes
oxytropis
oy
oz
ozero
p
pa
paa
pablo
pacific
pacifica
pack
paepalanthus
page
pages
paglinawan
pain
pajala
paket
pakistan
palace
palaearctic
palats
palatset
palestina
pallida
pallidus
palm
palma
palmas
palme
palmer
palo
pan
panama
pandanus
pande
pandemin
panel
panicum
panna
pannan
panoramas
pansarsko
panzer
paolo
pap
papa
pape
paper
papers
papilio
papp
pappa
papper
papua
par
para
paradis
paradise
paradiset
paragraf
paraguay
parai
parallaxma
parallella
parallellt
parameters
parana
pararge
parasites
parasitflugor
parasitic
parc
pardosa
pare
paren
parent
parentes
paret
pargas
parhost
paris
parish
park
parken
parker
parks
parlament
parlamentet
parlamentsledamot
parlamentsvalet
parliament
parma
parmeliaceae
parmotrema
parodi
parque
pars
parsek
part
parte
parter
parterna
parti
partial
partido
partie
partier
partierna
partiet
partiets
partiklar
partiledare
partille
partner
partners
parts
party
parva
parvula
pas
pascal
pascoe
paso
pass
passa
passade
passage
passagerare
passande
passar
passera
passerade
passerar
passerat
passiflora
passion
passionsblomsva
passiv
past
pastor
pastorat
pastoratet
pat
patent
path
patient
patienten
patienter
patricia
patrick
patrik
patrimoines
paul
paula
pauli
paulian
pauline
paulista
paulo
paulus
pauly
paus
pavel
pavetta
pax
paxton
pays
paz
pc
pdf
pe
peace
peak
peaks
pearl
pearson
peck
peckham
pedagog
pedagogik
pedagogiska
pedal
peder
pedersen
pedicularis
pedro
peel
peer
peerage
pegomya
pehr
pekade
pekar
peking
pekka
pelare
pelle
pen
pendelta
pengar
pengarna
penguin
penguins
penhamn
penhamns
peninsula
penningar
pennsylvania
penny
pension
pensiona
pensionering
people
peperomia
pepparva
per
percussion
percy
perdita
pereira
perez
perf
perfect
perfekt
perfektparticip
performance
period
perioden
perioder
periodiskt
perizoma
perkins
permanent
permanenta
pernilla
pero
perrier
perry
pers
persien
persiska
person
persona
personal
personalen
personen
personer
personerna
personlig
personliga
personligen
personlighet
personligt
persons
persoonia
perspektiv
persson
perth
pertoire
peru
pest
pet
peta
pete
peter
peters
petersburg
petersen
peterson
petersson
petit
petr
petra
petri
petrus
petter
pettersson
pez
pf
pfalz
pflanzenfam
pflanzenr
pg
pga
ph
phalangopsinae
phaonia
phasgonuridae
phasmatidae
phasmatodea
phasmida
phasmidae
phasmidasf
phasmiden
pheidole
phi
phil
philad
philadelphia
philip
philipp
philippe
philippi
philippine
philippines
philips
phillip
phillips
philodendron
philosophical
philosophy
phoenix
photo
photos
php
phyllachora
phyllachorales
phyllanthus
phyllonorycter
phyllophaga
phylogenet
phylogenetic
phylogenetics
phylogeny
phys
physical
physics
phytocoris
phytologia
phytomyza
phytoseiidae
phytoseiidbase
phytotax
pi
pia
pianist
piano
piazza
pic
pickard
pickwick
pico
picta
picture
pictures
pid
pie
piedra
pieksa
piemonte
pieni
pier
pierce
pierre
pieter
pietro
pigg
pigment
pilar
pilea
pilosa
pilot
pin
pine
ping
pingar
pingen
pinghuvudort
pings
pink
pinto
pinyin
pio
pionja
piper
pippi
pisces
pitcairnia
pitea
pitka
pitkin
pittsburgh
pius
piz
pja
pk
pl
pla
place
placera
placerad
placerade
placerades
placerar
placeras
placerat
placering
placeringar
places
plan
plana
planen
planer
planerad
planerade
planerades
planerar
planeras
planerat
planering
planerna
planet
planetary
planeten
planeter
planets
plant
plants
plast
plata
plate
plates
platina
platinum
platnick
plats
platsen
platser
platserna
platt
platta
plattbuksspindlar
plattform
plattmaskart
platygaster
platypalpus
play
playa
player
players
playoff
playstation
plaza
please
plebejus
plecoptera
plecopterasf
plectris
plenum
pleurothallis
plikt
plo
plocka
pls
plural
plus
pluto
pm
pma
pman
pmannen
pmc
pmid
pnad
pnade
pning
po
poa
poblacio
pocket
pocock
poe
poesi
poet
poeten
poetiska
point
pojkar
pojkarna
pojke
pojken
poke
pol
poland
polar
pole
polen
polens
polhill
polho
police
policy
polis
polisen
polisens
poliser
political
politics
politik
politiken
politiker
politikern
politisch
politischer
politisk
politiska
politiskt
polka
polkinghorne
polly
polo
polopoly
polsk
polska
polychaeta
polychaetous
polygala
polygon
polynoidae
polypedilum
polypodiaceae
polyrhachis
polystichum
pommern
pont
ponte
pontus
poore
pop
pope
popest
popillia
popula
popular
popularitet
populated
population
populationen
populationer
populations
por
porcellio
porifera
porsche
port
portal
portar
porten
porter
porthos
portland
porto
portra
portrait
portugal
portugisisk
portugisiska
pos
position
positionen
positioner
positiv
positiva
positivt
posse
post
posten
poster
postumt
potatis
potatisva
potential
potentilla
potosi
potter
pottiaceae
poul
pour
powell
power
powers
powiat
pp
ppa
ppar
pparna
ppas
ppen
pper
ppet
ppklimat
pple
pplen
ppna
ppnade
ppnades
ppnar
ppnas
ppnat
ppning
ppningar
ppningen
pps
ppt
ppta
ppte
pptes
ppts
pr
pra
pradesh
prag
praktfja
praktik
praktiken
praktisk
praktiska
praktiskt
prata
pratar
pratt
praxis
pre
precis
predikan
predikant
predikstol
predikstolen
prefektur
prefekturen
prefekturniva
prelimina
preliminary
premia
premier
presensparticip
presensparticipet
present
presentation
presentera
presenterade
presenterades
presenterar
presenteras
president
presidenten
presidential
presidentvalet
press
pressen
pressmeddelande
pressmeddelanden
pressreleases
preston
pretty
preussen
preussiska
pri
price
pride
prima
primary
prime
primera
primula
prince
princess
princeton
princip
principen
principer
princis
prins
prinsen
prinsessa
prinsessan
print
printing
pris
prisbelo
priser
priset
prisma
prison
pristagare
pristimantis
privat
privata
private
privatpersoner
privilegier
prix
prize
prizes
pro
problem
problemen
problemet
problems
proc
proceedings
procent
process
processen
processer
prochorov
prod
prodr
producent
producenten
producera
producerad
producerade
producerades
producerar
produceras
producerat
product
production
productions
products
produkt
produkten
produkter
produktion
produktionen
produktioner
prof
professional
professionell
professionella
professor
professorn
professors
professur
profeten
profil
profile
profiles
program
programid
programledare
programme
programmen
programmering
programmet
programvara
progreso
progress
project
projects
projekt
projektet
prom
promoverades
pronomen
propaganda
properties
proposition
proprieta
propulsion
prosa
proseriata
prost
prosten
protaetia
proteaceae
protection
protein
proteiner
protest
protestantiska
protester
protokoll
prout
prov
provence
provfiske
provi
province
provinces
provincia
provincial
provins
provinsen
provinser
provinserna
provinshuvudstaden
prunus
prv
ps
psalm
psalmbok
psalmboken
psalmen
psalmer
pseudococcidae
pseudonym
pseudonymen
pseudophyllinae
psi
psyche
psychoda
psychology
psychotria
psykisk
psykiska
psykologi
psykologiska
psyl
psylloidea
pt
pta
pte
pteridaceae
pterolophia
pteromalidae
pteromalus
pteroplistinae
pteros
ptes
pts
pu
pub
pubescens
publ
public
publication
publicationfile
publications
publicera
publicerad
publicerade
publicerades
publiceras
publicerat
publicerats
publicist
publik
publikationer
publiken
published
publishers
publishing
puccinia
puckeldansflugor
puckelflugor
puebla
pueblo
puerto
pulau
pulchella
pulchra
pulmonata
punainen
punctata
punctatus
pund
pungsart
punk
punkt
punkten
punkter
punta
puppglanssteklar
pure
purple
pusilla
pusillus
put
putin
putoidae
puy
px
pxweb
pygmaea
pyha
pyre
pyrgomorphidae
q
qa
qaktuell
qatar
qfd
qi
qu
quartal
que
quebec
queen
queens
queensland
quelques
quentin
quercus
quere
queries
query
queryid
quest
qui
quick
quickfacts
quinn
qv
qva
qvar
r
ra
raa
rabat
rabe
race
racerfo
races
rachel
racing
rad
radar
radcliffe
rade
raden
rader
rades
radet
radial
radialhastighet
radie
radikal
radikala
radio
radioprogrammet
radios
rads
radsho
raf
rafael
ragnar
ragunda
railway
rain
rainbow
rainer
rainfall
rak
raka
rakt
ral
rale
ralf
rallt
rally
ralph
ram
rama
ramb
rambold
rambycides
ramel
ramen
rami
ramme
ramo
ramos
ramsele
ran
rancho
rand
randall
rande
randen
randet
randy
rang
range
rangers
rankade
rankades
ranking
ranledde
rans
ransson
ranta
ranunculus
ranunkelva
ranunkler
rao
raoul
rap
rapport
rapporten
rapporter
rapporterade
rapporterades
rar
rare
raren
rarna
ras
raseborg
rasen
raser
rasism
rasmus
rasmussen
rast
raste
rat
ratings
ration
ratsit
rav
raven
ravenna
ray
raymond
rayonu
rb
rba
rband
rbanden
rbandet
rbar
rbara
rbeha
rbela
rbereda
rberg
rbesla
rbi
rbindelse
rbindelsen
rbindelser
rbinder
rbjo
rbjuden
rbjudet
rbjudna
rblev
rblir
rbo
rbra
rbud
rbudet
rbultsfiskar
rbund
rbunden
rbundet
rbundets
rbunds
rbundskapten
rbundslandet
rby
rc
rchb
rck
rd
rda
rdad
rdade
rdades
rdag
rdagen
rdar
rdare
rdaren
rdarna
rdas
rdat
rdats
rde
rdefull
rdefulla
rdel
rdelade
rdelar
rdelen
rdeles
rdelning
rdelningen
rden
rdenas
rdenfors
rdens
rder
rdering
rderingar
rdes
rdeskrig
rdeskriget
rdet
rdh
rdhet
rdig
rdiga
rdige
rdighet
rdigheter
rdigsta
rdigt
rdjupning
rdnad
rdo
rdoba
rdom
rdrag
rdraget
rdro
rds
rdsfo
rdshavet
rdshus
rdshuset
rdslo
rdsma
rdsorden
rdsunionen
rdsverket
rdsverkets
rdt
re
rea
read
reading
ready
reaktion
reaktioner
real
reality
really
rebecca
rebecka
rebel
rebild
rebra
rebro
rebyggande
rec
recension
recensioner
recent
recentitem
recept
rechinger
reclassification
record
recorded
recording
recordings
records
recueillis
red
reda
redaktion
redaktionen
redakto
redan
rederi
rederiet
redigera
redigerade
redo
redogo
redrag
redrar
redrog
reds
redskap
redtenbacher
reduction
reed
reeder
reef
ref
refaller
reference
referenceworkentry
referens
referenser
referenskod
refererar
reflexivt
refo
reform
reforma
reformationen
reformer
refra
refter
reg
rega
regel
regelbundet
regelbundna
regeln
regemente
regementen
regementet
regementets
regent
regerade
regerande
regering
regeringen
regeringens
regeringskansliet
regeringstid
regi
regierungsbezirk
regimen
regina
regio
region
regional
regionala
regionales
regionalt
regionen
regionens
regioner
regionerna
regionhuvudstaden
regions
regisserad
regisserade
regisserades
regisso
register
registrerade
registrerades
registret
regler
regleras
reglerna
regn
regna
regnba
regni
regnigaste
regnskogsklimat
regulja
rehn
reich
reichenbach
reid
reinhard
reinhold
reis
reise
reklam
rekom
rekomma
rekommande
rekommer
rekommit
rekomst
rekomsten
rekord
rekordet
rektangula
rektor
rel
rela
related
relaterad
relaterade
relation
relationen
relationer
relations
relationship
relationships
relativt
release
releases
relief
religger
religio
religion
religionen
religioner
relisted
relse
relsen
relsens
relser
relserna
relsevis
relva
rema
remarks
remaudie
remember
remix
remot
remsen
ren
rena
renade
renades
renar
renas
renault
rende
renden
rene
renhet
rening
reningar
reningarna
reningen
reningens
renings
renoverades
renovering
rens
rent
renta
rentz
rep
repert
repertoar
report
reportage
reporter
reports
representant
representanter
representanthus
representanthuset
representation
representera
representerad
representerade
representerar
representeras
representerat
reproducerande
reptile
reptiles
reptilia
republic
republik
republikansk
republikanska
republiken
republikens
rer
rerna
rernas
rers
res
resa
resan
resande
rescue
research
resena
reser
reserv
reservat
reservatet
reserve
reservoar
residens
resident
reskrifter
resla
reslagit
reslagits
reslagna
reslog
reslogs
resolution
resolve
resor
resource
resources
respekt
respektive
respra
rest
resta
restaurang
restaurangen
restauranger
restaurerades
restaurering
reste
resten
rester
resterande
resterna
restes
result
resultat
resultaten
resultatet
resulterade
resulterar
results
resume
resund
resurs
resurser
ret
retag
retagare
retagen
retaget
retagets
retagsledare
reticulata
retog
retra
retrieved
rets
return
returns
reuter
reuters
rev
reva
revealed
reveals
review
reviews
revir
revis
revised
revision
revista
revolution
revolutiona
revolutionen
revs
revta
revue
revy
rex
rey
reyes
reykjavi
reynolds
rez
rezenten
rf
rfa
rfaktor
rfaktorn
rfall
rfarande
rfattade
rfattar
rfattare
rfattaren
rfattarens
rfattarna
rfattarskap
rfattning
rfattningssamling
rfilm
rflutna
rflyttades
rfo
rfogande
rfra
rg
rga
rgad
rgade
rgat
rgen
rger
rgerna
rgiftning
rglo
rgo
rgryte
rgstritar
rha
rhamphomyia
rhand
rhandlingar
rhandlingarna
rheinland
rhen
rhet
rheten
rhin
rhindra
rho
rhode
rhododendron
rhoppningar
rhundraden
rhundradet
rhus
rhyacophila
ri
ria
riaux
ribbing
ribeiro
ribland
ric
rica
ricardo
rice
rich
richard
richards
richardson
richmond
richter
rick
rickard
rico
rida
riddare
riddaren
riddarhuset
ride
rider
ridge
ridley
ridsport
rie
rietz
rifra
rig
riga
rige
rigenom
righet
righeten
righeter
right
rightarrow
rights
rigt
rijeka
rik
rika
rikard
rikaste
rike
rikedom
riken
rikes
riket
rikets
riksantikvariea
riksarkivet
riksdag
riksdagen
riksdagens
riksdags
riksdagsledamot
riksdagsman
riksdagsmannavalen
riksdagsvalet
riksdaler
riksdelen
riksfo
riksma
riksra
riksteatern
riksutsta
riksva
rikt
riktad
riktade
riktar
riktig
riktiga
riktigt
riktlinjer
riktning
riktningar
riktningen
ril
rilar
riley
rilsart
rilsmyggor
rim
rin
rinco
ring
ringa
ringar
ringen
ringer
ringmaskar
ringmaskart
ringo
rings
ringsliv
ringslivet
ringuey
rinnan
rinner
rintelsen
rio
riodinidae
rioja
riot
rique
ris
rise
rising
risk
risken
riskerar
risto
rita
ritad
ritade
ritades
ritat
ritningar
ritter
riva
rival
rivas
river
rivie
rja
rjade
rjades
rjan
rjande
rjar
rjas
rjat
rjde
rje
rjedalen
rjedalens
rjer
rjning
rjor
rjungar
rjunge
rk
rka
rkan
rkande
rkare
rkas
rkbrun
rkdartists
rke
rkebiskop
rkebiskopen
rkelse
rkelsen
rkelser
rken
rker
rkes
rket
rkla
rklara
rklarade
rklarades
rklarar
rklaras
rklarat
rklaring
rklaringar
rklaringen
rkliga
rklund
rkman
rkning
rkningar
rkningsva
rknippas
rko
rkomst
rkortat
rkortning
rkortningar
rkret
rks
rksamhet
rksammad
rksammade
rksammades
rkt
rkta
rkte
rktes
rkva
rl
rla
rlades
rlag
rlaga
rlagd
rlaget
rlar
rld
rldar
rlden
rldens
rldsarv
rldscupen
rldskriget
rldskrigets
rldsma
rldspopulationen
rldsrekord
rldsutsta
rleden
rlek
rleken
rlekens
rlig
rliga
rligen
rliggande
rlighet
rligt
rling
rlivades
rlo
rlogsfartyg
rlopp
rlor
rlora
rlorad
rlorade
rlorar
rlorat
rlust
rlusten
rluster
rm
rma
rmade
rmar
rmare
rmast
rmaste
rmdo
rme
rmed
rmen
rminister
rministern
rmla
rmland
rmlands
rmning
rmo
rmodligen
rmyndare
rn
rna
rnamn
rnamo
rnan
rnans
rnar
rnarna
rnba
rnberg
rnbild
rnbilden
rncan
rne
rneart
rneborg
rneborgs
rneksva
rnen
rneorden
rner
rnet
rning
rningar
rningen
rno
rnor
rnorna
rnqvist
rns
rnsko
rnspinnare
rnsvampar
rnuft
rnva
rnvapen
ro
roa
road
rob
roberson
robert
roberto
roberts
robertson
robin
robineau
robins
robinson
robo
robok
robot
robotar
robson
robusta
robustus
rocha
rochester
rock
rockband
rockbandet
rockgruppen
rocks
rocky
rod
rodd
roddare
rodlistade
rodney
rodri
rodrigo
rodriguez
roewer
roger
rogers
roi
rola
roland
role
rolf
rolfe
roligt
roll
rollen
roller
rollerna
rolling
rom
roma
roman
romanen
romaner
romani
romantisk
romantiska
romarna
rome
romeo
romero
romersk
romerska
romra
roms
ron
ronald
ronden
ronen
ronneby
ronnie
room
roos
roosevelt
roots
rop
ropa
ropade
ropar
ror
rord
rordnad
rordning
rordningar
rordningen
roreningar
roret
rort
ros
rosa
rosario
rose
rosea
rosen
rosenberg
roses
roskov
rosor
ross
rossi
rossica
rostock
rosva
rot
rotation
rotational
roten
roterande
roth
rothschild
rotifera
rotten
rotterdam
rouge
round
route
routledge
rovaniemi
rovdjur
roverk
roverket
rovflugor
row
rowing
rowland
roy
royal
royale
rpa
rpm
rr
rra
rran
rrar
rrarna
rre
rren
rro
rs
rsa
rsamling
rsamlingar
rsamlingarna
rsamlingen
rsamlingens
rsamlings
rsamlingskyrka
rsamlingsposten
rsba
rsbera
rsbladlo
rsbok
rsdag
rsdagen
rse
rsedd
rsedda
rsel
rsen
rsfo
rsjo
rsjubileum
rska
rskade
rskap
rskare
rskild
rskilda
rskildt
rskilt
rsko
rskola
rskontrakt
rskra
rskurs
rsla
rslag
rslaget
rslexikon
rslo
rsma
rsman
rsmedeltemperaturen
rsnederbo
rso
rsskiftet
rsskrift
rsssf
rst
rsta
rstammade
rstammar
rste
rstja
rstna
rsto
rstod
rsva
rsvann
rsvar
rsvara
rsvarade
rsvarare
rsvaret
rsvarets
rsvarsbeslutet
rsvarsmakten
rsvarsmaktens
rsvarsminister
rsvarsomra
rsvinna
rsvinner
rsvunna
rsvunnen
rsvunnit
rt
rta
rtad
rtade
rtal
rtan
rtar
rtas
rtat
rtats
rtbitare
rtbladig
rtbladiga
rteckning
rten
rtensson
rter
rtill
rtionden
rtja
rtjust
rto
rtom
rtor
rtra
rtro
rtroende
rtryck
rts
rtsva
rttemberg
rttja
rtva
rtydliga
ru
ruben
rubens
rubra
rubriken
rubus
rubusar
rudolf
rudolph
rue
ruellia
rufa
rufescens
rufipes
rufus
rugby
ruggiero
ruin
ruiner
ruiz
rule
rules
rulla
rum
ruma
rummen
rummet
run
rund
runda
rundan
rundba
runder
rundmaskart
rundt
rune
runeberg
runinskrifter
running
runor
runsten
runstenar
runt
runtextdatabas
runtom
rupert
rus
rusade
rush
russell
russia
russian
rut
ruta
rutan
rutelidae
ruth
ruto
rutom
rutsa
rv
rva
rvade
rvades
rvaltare
rvaltas
rvaltning
rvaltningen
rvaltningsomra
rvandlas
rvar
rvara
rvarade
rvarande
rvaras
rvaro
rvat
rvde
rvet
rvi
rvid
rvirring
rvisades
rviwiki
rwa
rwanda
rxid
ry
ryan
ryckte
rydberg
ryde
rygg
ryggen
ryggradslo
rykte
rykten
rymde
rymden
rymdfa
rymdstationen
rymma
rymmer
rysk
ryska
ryske
ryskspra
ryskt
ryssarna
ryssjenattsla
ryssland
rysslands
ryttare
ryttma
ryvarden
s
sa
saab
saari
saarija
sacc
saccardo
sachsen
sade
sades
safety
saga
sagan
sagdt
sagor
sagt
sahara
sahlin
sai
said
saimen
saint
sainte
saints
sak
saken
saker
sakkunnig
sakna
saknade
saknades
saknar
saknas
sakristia
sakristian
sakta
sal
sala
salamanca
sale
salem
salen
sales
salig
salix
sally
salmonsens
salo
salomon
salong
salongen
salt
salta
saltatoria
salticidae
salticiddb
salto
saltsjo
salu
salvador
salvin
salzburg
sam
samarbeta
samarbetade
samarbetar
samarbetat
samarbete
samarbetet
samband
same
samer
samfa
samfund
samfundet
samha
samisk
samiska
samla
samlad
samlade
samlades
samlar
samlare
samlas
samlat
samling
samlingar
samlingarna
samlingen
samlingsalbum
samlingsutsta
samma
samman
sammanfattning
sammanfo
sammanha
sammanhang
sammanhanget
sammanla
sammanlagda
sammanlagt
sammansa
sammansatt
sammanslagning
sammansta
sammantra
samme
sammlung
sammlungen
samnordisk
samoa
samt
samtal
samtalet
samtid
samtida
samtiden
samtidigt
samtliga
samtycke
samuel
samuelsson
samva
samverkan
samvete
san
sand
sandberg
sandbin
sande
sandeltra
sanden
sanders
sando
sandra
sands
sandsten
sandstro
sandviken
sandvikens
sandy
sankmarker
sankt
sankta
sann
sanna
sannerligen
sanning
sanningen
sannolikhet
sannolikt
sans
sanskrit
sant
santa
santana
santi
santiago
santo
santos
sao
saob
saocat
sapporo
sapromyza
sar
sara
sarah
sarajevo
sarawak
sarcophaga
sardinien
sare
saren
sargatal
sarna
sars
sart
sas
saskatchewan
satakunta
satan
satellitma
sats
satsa
satsade
satsen
satsning
satt
satte
sattes
saturday
satyrus
saudi
saudiarabien
saul
saunders
saussure
savann
savannas
savannklimat
savannskog
save
savoie
savolax
saxifraga
saxofon
say
says
sb
sbdb
sbu
sby
sc
scale
scalenet
scandinavian
scandinavica
scania
scaptodrosophila
scarabaeidae
scarabs
scb
scelionidae
scen
scene
scenen
scener
scha
schack
schaus
schedule
schefflera
schenkling
schizonycha
schlechter
schlesien
schleswig
schloss
schltr
schmadel
schmid
schmidt
schneider
scho
school
schoolmeesters
schotte
schro
schu
schulenberg
schultz
schulz
schumacher
schumann
schuster
schwartz
schwarz
schweiz
schweizisk
schweiziska
schwerin
sci
sciara
science
sciences
scientific
scientifique
scienze
scmsom
scoble
scopula
score
scotia
scotland
scott
scottish
scout
scripta
scudder
sd
se
sea
sean
search
searchword
seas
season
seat
seattle
sebastia
sebastian
sec
seccio
second
secret
secretary
section
secundum
security
sed
sedac
sedan
sedd
seder
sedermera
sedlar
sednare
sedum
see
seeno
sega
segel
seger
segern
segers
segertoner
segla
seglade
seglare
segling
segrade
segrande
segrar
segrare
sei
seine
sek
sekel
sekelskiftet
sekreterare
sektion
sektionen
sektioner
sektorn
sekund
sekunda
sekunder
sel
sela
selaginella
selbsta
sele
selected
self
selka
selma
selys
semester
semi
semifinal
semifinalen
semiothisa
sen
sena
senare
senast
senaste
senat
senate
senaten
senator
senators
sende
sendet
senecio
senegal
senior
sens
sensu
sent
sentlig
sentligt
sentralbyra
seoul
sep
separat
separata
separatutsta
sept
september
sequence
ser
serbien
serbisk
serbiska
sergeant
sergei
sergej
sergentomyia
sergey
sergio
serica
serie
serien
seriens
serier
serierna
series
serieskapare
serio
serpulidae
serra
serrata
server
serveras
service
services
serville
ses
session
set
seth
sets
sett
setterdahl
setts
seva
seven
sevilla
sex
sexa
sexton
sexual
sexuell
sexuella
sexuellt
seymour
sf
sfa
sfi
sfs
sg
sh
sha
shaanxi
shadow
shah
shakespeare
shakespeares
shan
shandong
shanghai
shannon
shape
share
shareid
sharks
sharon
sharp
shaw
shawn
she
sheffield
shelley
sherlock
shet
sheten
shi
shilling
shin
ship
shirley
shl
sho
shop
shopping
shoppor
short
shot
should
show
showitem
shows
shtml
shu
shuiku
si
sia
sibirien
sic
sich
sichuan
sicilien
sid
sida
sidan
side
sidney
sidor
sidorna
sie
sierra
siffra
siffran
siffror
siffrorna
sig
sigfrid
sigge
sigh
sigill
sigismund
sigma
sign
signal
signaler
signe
signs
sigrid
sigtuna
sigurd
sik
sikt
sikter
silence
silene
silent
silla
siluriformes
silva
silver
silvermedalj
silvermedaljo
silvestri
silvia
sim
sima
simbad
similis
simma
simmare
simmons
simning
simo
simon
simone
simple
simplex
simpson
simpsons
simulium
sin
sina
sinaloa
since
sinclair
sine
sinensis
sing
singapore
singel
singellistan
singeln
singer
singh
singlar
single
singlerpt
singles
singular
singularis
sinica
sinn
sinne
sinnen
sinnet
sio
siphonaptera
sir
sire
sirius
sis
sist
sista
siste
sister
sistna
sit
site
sites
sitt
sitta
sittande
sitter
sittplatser
situation
situationen
situationer
six
sixten
size
sj
sja
sjelf
sjelfva
sjo
sjoar
sjoareal
sjodjup
sjolista
sju
sjua
sjuk
sjuka
sjukdom
sjukdomar
sjukdomen
sjukhus
sjukhuset
sjuksko
sjukva
sjunde
sjunga
sjunger
sjunker
sjutton
sk
ska
skada
skadad
skadade
skadades
skadan
skadas
skadesta
skador
skaffa
skaffade
skakade
skal
skala
skalbaggar
skalbaggsart
skald
skalden
skall
skam
skandal
skandinavien
skandinaviska
skansen
skapa
skapad
skapade
skapades
skapande
skapandet
skapar
skapare
skapas
skapat
skapats
skar
skara
skaraborgs
skarp
skarpa
skarpt
skatt
skatten
skatter
skatteverket
ske
skedde
skede
skelett
skelleftea
sken
skenbar
skepp
skeppet
sker
sket
skett
ski
skia
skick
skicka
skickade
skickades
skickar
skickas
skickat
skicklig
skicklighet
skida
skidfo
skidor
skidskytte
skild
skilda
skilde
skildes
skildrade
skildrar
skildras
skildring
skildringar
skilja
skiljas
skiljer
skillnad
skillnaden
skillnader
skilsma
skinkar
skinn
skiva
skivan
skivbolag
skivbolaget
skivkontrakt
skivor
skjuta
skjuter
skjutfa
sko
skog
skogar
skogarna
skogen
skogens
skoglund
skogs
skogsbruk
skogsbygd
skogsomra
skola
skolan
skolans
skolen
skolga
skolor
skolorna
skopje
skor
skotsk
skotska
skott
skotta
skottland
skr
skra
skratt
skratta
skrattade
skref
skrek
skrev
skrevs
skribent
skrift
skriften
skrifter
skriftliga
skriftserie
skriftsta
skriva
skrivas
skriven
skriver
skrivet
skrivit
skrivits
skrivna
skrivs
skugga
skuggan
skuggor
skuld
skulden
skulder
skull
skulle
skulpto
skulptur
skulpturen
skulpturer
sky
skydd
skydda
skyddad
skyddade
skyddar
skyddas
skyddat
skyla
skyldig
skyldighet
skylt
skynda
skyndade
skytte
sl
sla
slag
slagen
slaget
slagfa
slagit
slags
slagsma
slagverk
slalom
slam
slang
slav
slavar
slaviska
slawomir
slemmaskar
slideva
slippa
slo
slog
slogs
slott
slottet
slottets
slovakien
slovakiska
slovenien
slovenska
slow
sls
slu
slund
slussen
slut
sluta
slutade
slutar
slutat
sluten
slutet
slutfo
slutgiltiga
slutliga
slutligen
slutna
slutsatsen
slutsatser
slutspel
slutspelet
sluttar
sm
sma
smak
smaken
smal
smala
smalare
smalbin
small
smaller
smarker
smart
smash
smdb
smeknamn
smeknamnet
smhi
smith
smiths
smithsonian
smo
sms
smula
smycken
sn
sna
snabb
snabba
snabbare
snabbaste
snabbt
snac
snake
snakes
snarare
snart
sning
sningar
sningen
snitt
snl
sno
snokar
snooker
snorre
snow
snyltrotsva
so
sobre
soc
soccer
soccerbase
soccerway
social
sociala
socialdemokrat
socialdemokraterna
socialdemokratisk
socialdemokratiska
socialism
socialistisk
socialistiska
socialstyrelsen
socialt
socie
sociedad
sociedade
societa
societe
society
sociologi
socken
sockenhuvudort
sockenkyrkan
sockennamn
socker
socknar
socknen
socknens
soest
sofia
sofie
sofla
soft
software
soika
sojuz
sok
sokn
soknar
soknen
sol
solanum
solar
soldat
soldaten
soldater
soldaterna
soledad
solen
solens
solid
solleftea
sollentuna
solmassor
solna
solo
soloalbum
sologitarr
solomon
solva
solvalla
som
somalia
some
somerset
something
somliga
sommar
sommaren
sommarspelen
sommartid
somme
son
sonen
song
songen
songens
songer
songerna
songs
sonic
sonja
sonora
sons
sonson
sony
sophia
sophie
sopran
sor
sordariomycetes
sorg
sorgmyggor
sorsele
sort
sorter
sorters
sorts
sos
soto
sou
soul
soulier
sound
soundtrack
source
sous
south
southampton
southeast
southern
sov
sova
sover
soviet
sovjet
sovjetisk
sovjetiska
sovjetunionen
sovjetunionens
sp
spa
space
spacecraft
spacedys
spain
spanien
spaniens
spanish
spannma
spansk
spanska
spara
sparbank
sparbanken
sparken
sparre
sparrisva
sparta
spathius
spearman
spec
special
specialiserade
specie
speciell
speciella
speciellt
species
speciesfungorum
specifik
specifika
specifikt
specimens
speciosa
spectral
speed
speedway
speg
spegel
speglar
spektralklass
spektrum
spel
spela
spelad
spelade
spelades
spelar
spelare
spelaren
spelarkarria
spelarna
spelarprofil
spelas
spelat
spelats
spelda
spelen
spelet
spelets
spelningar
speltid
spencer
spets
spetsar
spetsen
spidcat
spider
spiders
spiegel
spilogona
spilosoma
spin
spindelart
spindeldjur
spindeldjursart
spindlar
spinnen
spinosa
spira
spirit
spirostreptus
spjut
splendens
split
splittrades
spo
sponges
sporrstritar
sporsa
sport
sportbladet
sporten
sporter
sportperson
sports
spotify
spottstritar
spra
sprang
spred
spreds
sprida
spridda
sprider
spridning
sprids
spring
springa
springer
springfield
springs
sprint
spy
spyflugor
sqrt
squad
square
sr
src
sri
ss
ssa
ssan
ssans
ssansen
ssb
ssd
sse
sseldjursart
sseldorf
sselva
ssen
ssig
ssiga
ssigt
ssjo
ssla
ssor
ssr
sssr
sst
sstr
st
sta
stab
staben
stabil
stabilt
stabschef
stack
stackars
stad
stade
staden
stadens
stades
stadfa
stadga
stadgar
stadigt
stadion
stadium
stadkomma
stads
stadsdel
stadsdelar
stadsdelarna
stadsdelen
stadsdistrikt
stadsdistriktet
stadsfo
stadsfullma
stadshus
stadshuset
stadska
stadsmuseet
stadsmuseum
stadsplan
stadsra
stadsteater
stadt
stafett
staff
staffan
stafrika
stage
stages
stakes
stal
stalin
stall
stallet
stam
stambanan
stamfader
stammar
stammen
stan
stand
standard
standarden
standley
stanford
stanley
stanna
stannade
stannar
stantarktis
stapeln
stapf
staphylinidae
star
stare
staren
stark
starka
starkare
starkaste
starkt
starna
starr
starrar
stars
start
starta
startade
startades
startar
startat
starten
starter
stas
stat
state
statement
staten
statens
stater
staterna
states
statesmen
statfin
station
stationen
stationer
statistica
statistical
statistiche
statistics
statistik
statistikdatabasen
statistique
statistisches
statistisk
statistiska
statistiskt
statlig
statliga
statligt
stats
statskalender
statsman
statsminister
statsra
statssekreterare
statsvetenskap
status
staty
statyn
staudinger
stavat
stavning
stavningen
stay
stazarbaijan
stberg
stberlin
ste
stedt
steel
steen
stefan
stefano
steg
steget
steiermark
stein
steiner
stekelart
steklar
stelis
stella
stellan
stellar
sten
stena
stenar
stenarna
stenberg
stenbock
stenbra
stenen
stenhus
stens
stensa
stensjo
stenso
step
stephan
stephen
stephens
ster
stera
sterbotten
sterbottens
stergo
sterla
sterling
stermalm
stern
sterna
sternorrlands
sterreich
sterrike
sterrikes
sterrikisk
sterrikiska
stersjo
sterskap
sterskapen
sterskapet
stersund
stersunds
sterut
stervik
sterviks
stes
stet
stettin
stettiner
steuropa
steve
steven
stevens
stewart
steyermark
stfo
stfronten
stga
stgo
sthlm
sti
stica
stick
sticka
sticker
stickmyggor
stiewe
stift
stiftelse
stiftelsen
stifts
stig
stiga
stigande
stiger
stigit
stil
stilen
still
stilla
stilleben
stilobezzia
stina
stindien
stipendiet
stipendium
stja
stkust
stkusten
stlig
stliga
stligaste
stm
stman
stmanland
stmanlands
stmo
stning
stningar
stningen
sto
stock
stockholm
stockholms
stockholmska
stod
stodo
stoke
stol
stolen
stolpe
stolt
stolta
stolthet
stone
stones
stop
stopp
stoppa
stoppade
stor
stora
storbritannien
storbritanniens
store
stores
storgatan
storharkrankar
storhetstid
storia
stories
storlek
storleken
storm
storma
stormen
storsjo
storsta
storstadsomra
storstadsregionen
stort
stortinget
stortja
storumans
story
str
stra
straff
straffa
straffarbete
straffas
straffet
straight
straits
strand
strandberg
stranden
strandlinjen
strange
stranger
strasbg
strasbourg
strategi
strategiska
strauss
strax
straxt
stream
streck
stred
street
stress
striata
strid
strida
stridande
striden
strider
striderna
stridsvagn
stridsvagnar
strike
strikland
strikt
strindberg
strindbergs
string
stro
strobilanthes
strong
structure
struktur
strukturer
strupe
strupen
sts
stsa
stska
sttysk
sttyska
sttyskland
stu
stuart
stud
student
studenten
studenter
studenterna
studentexamen
studentfo
studentka
studentlitteratur
studera
studerad
studerade
studerande
studerar
studerat
studia
studie
studien
studier
studieresor
studierna
studies
studiet
studio
studioalbum
studioalbumet
studion
studios
studium
study
stueber
stuga
stugan
stumpbaggar
stund
stunden
stunder
stundom
stupade
sture
stuttgart
stva
stvigdes
stycke
stycken
stycket
style
styltflugor
styltmalar
styr
styra
styrande
styrde
styrdes
styre
styrelse
styrelseledamot
styrelsen
styrelseordfo
styret
styrka
styrkan
styrkor
styrkorna
styrman
styrs
su
sua
sub
subarktisk
subfam
subfamilies
subfamily
subgenus
subi
submit
subordo
subsp
substantiv
substantiveringen
subtropisk
subtropiskt
suc
succe
successivt
suck
sud
sudan
sudden
sue
suffolk
sugar
sui
suicide
suisse
suite
sul
sulawesi
sullivan
sultan
sum
sumakva
sumatra
summa
summan
summary
summer
sun
sund
sunda
sunday
sundberg
sundbyberg
sundet
sundin
sundstro
sundsvall
sundsvalls
sune
sunne
suomen
supe
super
superettan
superfamily
superhja
suppl
suppleant
supplement
support
sur
surv
survey
sus
susan
susanna
susanne
sussex
suttit
sutto
sutton
suvera
suzanne
suzuki
sv
sva
svag
svaga
svagare
svagt
svalbard
svampar
svampart
svampdjursart
svampmyggor
svans
svansen
svansla
svante
svar
svara
svarade
svarar
svaret
svaro
svart
svarta
svarte
svarttja
svd
svea
svealand
svedberg
sven
svenljunga
svensk
svenska
svenskafans
svenskagravar
svenskakyrkan
svenskan
svenskar
svenskarna
svenske
svensken
svenskfilmdatabas
svenskfotboll
svenskspra
svenskt
svensktoppen
svensson
sverige
sverigedemokraterna
sveriges
sverigesforsamlingargenomtiderna
sverigesradio
sverigetopplistan
sverker
svidknott
svit
svt
sw
swa
swan
swartz
sweden
swedish
swedishcharts
sweeney
sweet
swehockey
swift
swimming
swinhoe
swiss
sy
sybra
syd
sydafrika
sydamerika
sydkorea
sydkoreansk
sydlig
sydliga
sydligaste
sydney
sydo
sydost
sydostasien
sydow
sydowia
sydshetlandso
sydsvenska
sydsvenskan
sydva
syfta
syftade
syftar
syfte
syftet
syke
syll
syllidae
sylvain
sylvia
symb
symbol
symbolen
symboler
symboliserar
symfoni
symfoniorkester
symphony
symplocos
symptom
sympycnus
symtom
syn
synas
synd
synden
synder
syndrom
synen
synes
synlig
synliga
synnerhet
synnerligen
synonym
synonymer
synonymic
synonymicus
synonymis
synopsis
synpunkt
synpunkter
syns
syntes
synthesizer
syre
syrien
syriska
syrsor
syskon
sysmyr
sysselsa
sysselsatt
syst
system
systema
systematic
systematics
systematicus
systematik
systemet
systems
syster
systern
systrar
systrarna
syzygium
szepligeti
szynski
sørensen
t
ta
tab
tabanus
tabell
tabellen
table
tables
tabulation
tachina
tack
tacka
tackade
tackar
tacksamhet
taflor
tag
taga
tagalog
tagas
tage
tagen
tager
tages
taget
tagit
tagits
tagna
tai
taiti
taiwan
tak
takahashi
take
taken
takes
taket
takiya
takt
tal
tala
talade
talades
talan
taland
talands
talang
talar
talare
talas
talat
talbot
tale
talen
tales
talet
talets
talk
talks
tall
tallinn
talman
talrika
tamil
tammerfors
tampa
tan
tande
tandla
tandspinnare
tang
tango
tank
tankar
tankarna
tanke
tanken
tant
tanums
tanytarsus
tanzania
tao
tapetserarbin
tappade
tar
taraxacum
tare
tarn
tarna
taro
tartu
tas
tasmanien
taste
tat
tate
tau
taube
tavakilian
tavastehus
tavastland
tavla
tavlan
tavlor
taxa
taxapad
taxi
taxon
taxonomic
taxonomiskt
taxonomy
taylor
tbebyggt
tbefolkat
tbilisi
tbo
tdjursart
te
team
teams
tears
teater
teaterannons
teatern
teaterns
teatrar
teatro
teau
teborg
teborgs
tech
technical
technology
tecken
tecknad
tecknade
tecknare
tecknet
teckning
teckningar
ted
teen
teenage
tegel
tegelbruk
tegne
teheran
teil
teknik
tekniken
tekniker
teknisk
tekniska
tekniskt
teknologi
tel
telefon
telegram
telegraph
teleostei
television
tell
telse
tema
teman
temat
tempel
temperatur
temperaturen
temperaturer
temperaturuppgifter
tempererat
templates
temple
templet
tempo
ten
tena
tendens
tenderar
tengah
tenggara
tenhet
tennessee
tennis
tennisspelare
tenor
tens
tenuipalpidae
tenuipalpus
tenuis
teodor
teolog
teologi
teologie
teologisk
teologiska
teoretisk
teoretiska
teori
teorier
teorin
tephrosia
ter
teranva
teresa
terfa
terfanns
terfick
terfinns
terfo
terga
tergick
terha
teri
teriet
terigen
terinfo
teriverket
teriverkets
terkom
terkommande
terkommer
terkomst
terkomsten
term
termen
termer
terminal
terna
terra
terrestrial
territorial
territories
territoriet
territorium
territory
terror
terrorism
terry
ters
terska
tersta
terstod
terstoden
terta
tertog
teruppra
teruppta
terupptogs
terva
tervuren
tes
tesga
tessin
test
testa
testamente
testamentet
tester
tet
tetragnatha
tetramorium
tetranychidae
tetrastichus
tetrigidae
tetrigoidea
tettigoniidae
tettigonioidea
teucholabis
teugels
teva
texas
text
texten
texter
texterna
textfo
textograf
tf
tfo
tga
th
tha
thai
thaila
thailand
than
that
thatigk
the
theater
theatre
thecla
theft
theguardian
their
thelypteris
them
themen
then
thenna
theodor
theodore
theory
ther
theras
there
therese
theridion
thes
these
thet
theta
thetta
they
thierry
thing
things
think
third
this
tho
thomas
thompson
thomson
thor
thore
thorell
those
threatened
three
through
thu
thulin
thunberg
thunder
thure
thy
thys
ti
tia
tibastva
tibet
tibialis
ticks
tico
tid
tida
tiden
tidens
tider
tiderna
tiders
tidig
tidiga
tidigare
tidigast
tidigaste
tidigt
tidning
tidningar
tidningarna
tidningen
tidningens
tidpunkt
tidpunkten
tids
tidskrift
tidskriften
tidskrifter
tidvis
tie
tienne
tierformen
tierra
tierreich
tiger
tigh
tigr
tijdschrift
til
till
tilla
tillade
tillandsia
tillbaka
tillbeho
tillbringa
tillbringade
tillbyggnad
tilldelad
tilldelades
tilldelas
tilldelats
tillfa
tillfo
tillfredssta
tillga
tillhandaha
tillho
tillika
tillka
tillkom
tillkommer
tillkommit
tillkomst
tillra
tills
tillsa
tillsammans
tillsattes
tillsta
tilltalade
tilltalsnamn
tilltra
tillva
tillvaro
tillverka
tillverkad
tillverkade
tillverkades
tillverkar
tillverkare
tillverkas
tillverkat
tillverkning
tillverkningen
tim
timberlake
time
timeline
times
timmar
timmars
timme
timmen
timmer
timo
timothy
timra
timur
tin
tina
tineidae
ting
tings
tingslag
tingsra
tintin
tio
tionde
tiotal
tipo
tips
tipula
tirana
tit
titan
titanic
titel
titeln
titelrollen
titlar
title
titta
tittade
tittar
tittare
tittarna
tja
tjeckien
tjeckisk
tjeckiska
tjeckoslovakien
tjena
tjenare
tjenst
tjo
tjock
tjocka
tjockt
tjugo
tjugu
tkomst
tland
tlands
tlig
tliga
tmarker
tminstone
tn
tna
tning
tningar
to
tobak
tobias
today
todd
todor
tofsspinnare
tog
together
togo
togs
tokyo
tol
toledo
tolf
tolfte
tolka
tolkas
tolkning
tolkningar
toll
tolv
tom
toma
tomas
tomatoes
tome
tomma
tommy
tomorrow
tomt
tomten
tomter
ton
tona
tonen
toner
toni
tonight
tonsa
tony
too
top
topic
topp
toppade
toppar
toppen
tor
torbjo
tord
torde
tore
torg
torget
torgny
torino
torka
torn
torne
tornea
tornet
torngra
toro
toronto
torp
torpet
torr
torra
torraste
torre
torres
torrey
torrt
torsa
torsby
torsdag
torsten
tort
torten
torter
tortyr
torymus
tos
toscana
tostared
tot
total
totala
totalfo
totals
totalt
tottenham
touch
toulouse
tour
touren
touring
tournament
tous
tove
tower
town
townes
townsend
toyota
tr
tra
track
trackandfield
tracks
trad
trade
tradition
traditionell
traditionella
traditionellt
traditionen
traditioner
trafik
trafiken
trafikeras
trafikplats
trafikverket
trailer
train
trakten
trakter
trana
trans
transactions
transfer
transfermarkt
transitivt
translation
transport
transporter
transportera
transvaal
trappa
trappan
trappor
trav
travel
travsport
tre
trea
treated
treatment
tredje
tredjedel
tredjeplats
tree
trees
treho
trek
trel
trelleborg
trelleborgs
trentepohlia
tres
trettio
trettioa
tretton
trevor
trial
triana
tribe
tribes
tribu
tribune
tribus
tribute
trichoptera
tricolor
trinidad
trio
trioza
triple
tristis
trivs
trmm
tro
trodde
troende
trogen
trogna
trohet
trois
troligen
troligt
troligtvis
troll
trolle
trollha
trollsla
tron
trondheim
tronen
tronfo
trop
trophy
tropical
tropicos
tropiska
tropiskt
tror
tros
trots
trott
trova
troy
trudy
true
truman
trummis
trummisen
trummor
trump
trumpet
truncata
trupp
truppen
trupper
trupperna
trust
truth
tryck
trycka
tryckeri
trycket
tryckt
tryckta
tryckte
trycktes
trygg
trygghet
ts
tsar
tsaren
tsel
tska
tskilliga
tskrivare
tsligt
tsn
tt
tta
ttad
ttade
ttades
ttan
ttande
ttandet
ttar
ttare
ttaren
ttarkiv
ttas
ttat
ttats
tte
ttega
ttelse
ttelsen
ttelser
ttelserna
tten
ttens
tter
ttern
tterna
ttes
ttestja
ttet
ttfa
ttflugor
ttgalleri
ttha
tthet
ttigade
ttighet
ttigheter
ttigheterna
ttingar
ttingen
ttir
ttlingar
ttma
ttning
ttningar
ttningarna
ttningen
tto
ttonde
ttor
ttra
ttrad
ttrade
ttrar
ttre
ttring
ttringar
tts
ttsfo
ttslig
ttsliga
ttviks
ttvisa
tu
tuberculata
tuberkulos
tucker
tude
tudes
tull
tum
tumo
tuna
tung
tunga
tungt
tungvikt
tunisien
tunn
tunna
tunnel
tunnelbana
tunnelbanestation
tunneln
tunnor
tunnors
tunt
tupplaga
tur
ture
turgeon
turin
turism
turister
turkey
turkiet
turkisk
turkiska
turkmenistan
turn
turne
turner
turnera
turnerade
turnering
turneringar
turneringen
turtles
tusen
tusentals
tuttitalia
tutzing
tv
tva
tvenne
tverk
tverket
tvidabergs
tvifvel
tvinga
tvingade
tvingades
tvingar
tvingas
tvingats
tvivel
tvungen
tvungna
twa
twenty
twin
twitter
two
txt
ty
tycka
tycker
tyckes
tycks
tyckte
tycktes
tyder
tydlig
tydliga
tydligare
tydligen
tydligt
tyg
tyler
tyngre
typ
type
typen
typer
types
typhlocybinae
typhlodromus
typisk
typiska
typiskt
tyreso
tyrolen
tysk
tyska
tyskar
tyskarna
tyske
tyskland
tysklands
tyskspra
tyskt
tyst
tysta
tystnad
tyva
tz
u
ua
ub
uba
uber
ubirajara
ucd
uchida
ud
udda
udde
udden
uddevalla
ueber
uefa
uetz
ufc
uganda
uggla
ugnen
uhanalaisuus
uk
ukraina
ukrainas
ukraine
ukrainsk
ukrainska
ulea
ulf
ulla
ullsko
ulrich
ulrik
ulrika
ultimate
ultratop
um
umbellifer
umbellifers
umea
umga
un
una
und
undan
undantag
undantaget
under
underart
underarten
underarter
underbara
underda
underfamiljen
underga
underground
underha
underhuset
underjordiska
underla
underlag
underligt
underlo
underra
undersa
undersida
undersidan
underso
understa
understanding
understo
undertecknade
undervisa
undervisade
undervisning
undervisningen
undga
undre
undvika
une
unesco
unescos
ung
unga
ungar
ungarna
ungdom
ungdomar
ungdomen
ungdoms
ungdomsfo
unge
ungefa
ungern
ungerns
ungersk
ungerska
unicolor
uniform
uniformis
unik
unika
unikt
unio
union
unionen
unionens
unit
united
univ
universal
universe
universeguide
universidad
universita
universite
universitet
universiteten
universitetet
universitetets
universitets
universitetsbibliotek
university
universum
unknown
uno
unt
unter
up
update
updated
upload
uploads
upon
upp
uppa
uppba
uppbyggd
uppbyggnad
uppdaterad
uppdelad
uppdelade
uppdelat
uppdelning
uppdrag
uppdraget
uppe
uppeha
uppeho
uppenbarligen
uppenbart
upper
uppfann
uppfattas
uppfattning
uppfattningen
uppfinnare
uppfo
uppfostran
uppfylla
uppfyller
uppga
uppgav
uppger
uppges
uppgick
uppgift
uppgiften
uppgifter
uppgifterna
uppgo
uppha
uppho
upphov
upphovsman
upphovsra
uppkallad
uppkallade
uppkallat
uppko
uppkom
uppkommer
uppkommit
uppkomst
uppl
uppla
upplaga
upplagan
upplagans
upplagor
uppland
upplands
uppleva
upplevde
upplevelser
upplever
upplo
upplysning
upplysningar
uppma
uppmanade
uppmaning
uppna
uppra
upprepade
uppro
uppror
upproret
uppsa
uppsala
uppsats
uppsatser
uppsatt
uppskattad
uppskattade
uppskattades
uppskattas
uppskattats
uppskattningsvis
uppslag
uppslaget
uppslagsbok
uppslagsord
uppslagsordet
uppslagsverk
uppslagsverket
uppso
uppsta
uppstod
uppstro
uppta
upptagen
upptagna
upptar
upptog
upptogs
upptra
uppva
uppvisar
uppvuxen
upsala
ur
ura
urb
urban
urgermanska
uri
urinsektsart
url
urmo
urn
urpremia
ursa
urskiljs
ursprung
ursprunget
ursprunglig
ursprungliga
ursprungligen
urss
uruguay
uruppfo
urval
us
usa
usatoday
usb
use
used
user
using
uss
ussr
ut
uta
utaf
utah
utan
utanfo
utarbetade
utbilda
utbildad
utbildade
utbildades
utbildning
utbildningar
utbildningen
utbrast
utbredd
utbredning
utbredningsomra
utbro
utbrott
utbrytning
utbyggnad
utbyte
utc
utdelas
utdo
utdrag
ute
utefter
uteslutande
utexaminerades
utfa
utflo
utfo
utformad
utformade
utformning
utformningen
utforska
utg
utga
utgav
utgavs
utgick
utgivare
utgiven
utgivet
utgivna
utgivning
utgivningen
utgjorde
utgjordes
utgo
utgra
utha
uthan
uthi
uti
utifra
utka
utkanten
utkast
utkom
utla
utlandet
utlo
utlopp
utloppet
utma
utmed
utna
utnyttja
utnyttjas
uto
utom
utomhus
utomlands
utpla
utpra
utra
utrecht
utreda
utredning
utredningar
utredningen
utrikes
utrikesdepartementet
utrikesminister
utropade
utrustad
utrustade
utrustning
utrymme
utsa
utsatt
utsatta
utsattes
utse
utsedd
utseende
utseendet
utses
utsikt
utskott
utskottet
utsla
utslag
utslagen
utslagna
utso
utspelar
utspelas
utsta
utstra
uttagen
uttal
uttalade
uttalande
uttalanden
uttalas
uttalat
uttra
uttryck
uttrycka
uttrycker
uttrycket
uttryckligen
uttryckt
uttryckte
utur
utva
utvalda
utveckla
utvecklad
utvecklade
utvecklades
utvecklar
utvecklas
utvecklat
utvecklats
utveckling
utvecklingen
utvidgade
utvidgades
uu
uvarov
uzbekistan
v
va
vaccinium
vacker
vackert
vackra
vackraste
vad
vade
vadstena
vagn
vagnar
vagnarna
vagnen
vaknade
vaknar
vakt
val
vald
valda
valde
valdemar
valdes
vale
valen
valencia
valentin
valentine
valet
validation
valkrets
valkretsen
vall
valla
valle
vallentuna
valley
vallmova
valo
vals
valt
valts
value
valuta
valutor
valv
van
vana
vancouver
vanda
vande
vandra
vandrade
vandrar
vandring
vanessa
vanlig
vanliga
vanligare
vanligast
vanligaste
vanligen
vanligt
vanligtvis
vann
vanns
vansbro
vapen
vapenflugor
vapenhus
vapnet
var
vara
varade
varaktigt
varande
varandra
varandras
varar
varav
varberg
varbergs
vardagligt
vardera
vare
varefter
varelse
varelser
varen
varfo
varg
vargas
vargen
vargspindlar
vari
variabel
variabilis
variable
variabler
variansen
variant
varianten
varianter
variation
variationer
variegata
variera
varierad
varierande
varierar
variety
varifra
varigenom
varit
varje
varkaus
varken
varlden
varm
varma
varmare
varmaste
varmed
varmt
varna
varning
varor
varpa
vars
varsin
varspindlar
vart
vartannat
varuma
varv
varvet
varvid
vas
vasa
vasaloppet
vasaorden
vasas
vasc
vascular
vat
vatten
vattenarkiv
vattenbrynsbaggar
vattendrag
vattendraget
vattenfall
vattenflugor
vattenmyndigheterna
vattenwebb
vattenytan
vattenytor
vattnet
vbin
vbladig
vbladiga
vd
vda
vdade
vdar
vde
vdes
vding
vdingen
ve
vecka
veckan
veckans
vecklare
veckor
ved
vederbo
vedlar
veg
vega
vegas
vegetation
vel
velat
velocities
vem
ven
venedig
veneto
venezia
venezuela
ventyr
venus
ver
vera
veracruz
verallt
verb
verbandsgemeinde
verbascum
verbefa
verbet
verde
vereins
vereniging
verens
verenskommelse
verenssta
verfamiljen
verflo
verfo
verga
vergav
vergavs
verge
vergick
vergivna
vergrepp
vergripande
verh
verhandelingen
verhandlungen
verho
verhoeff
verk
verka
verkad
verkade
verkalix
verkan
verkar
verkas
verkat
verken
verket
verklig
verkliga
verkligen
verklighet
verkligheten
verkligt
verksam
verksamhet
verksamheten
verksamheter
verksamma
verksamt
verksta
verkstad
verktyg
verla
verlag
verlagrat
verlden
verleva
verlevande
verlevde
verma
vermont
verna
verner
vernon
vero
verona
veronica
verraskande
vers
versa
versailles
versatt
versatta
versatte
versattes
versatts
verser
versicolor
versikt
version
versionen
versioner
versta
verste
verstelo
versten
versva
verta
verteneuil
vertog
vertogs
vertornea
vertra
vertygad
verva
vervakning
vervintrar
very
ves
vespoidea
vestra
vet
veta
vetensk
vetenskap
vetenskapen
vetenskaplig
vetenskapliga
vetenskapligt
vetenskaps
vetenskapsakademien
vetenskapsakademiens
veterina
vetlanda
veva
vfa
vflugor
vg
vi
via
viborg
vic
vice
viceguverno
vicente
vicepresident
victor
victoria
victory
vid
vida
vidare
video
videon
videos
videva
vidstra
vidt
vie
viejo
vienna
vienne
viereck
vietnam
vietnamesiska
view
viewer
viewfinder
viewfinderpanoramas
vii
viii
viitasaari
vik
vika
viken
viking
vikingatiden
vikings
vikt
vikten
viktig
viktiga
viktigare
viktigaste
viktigt
viktor
viktoria
vil
vila
vilar
vild
vilda
vilhelm
vilhelmina
vilja
vilka
vilkas
vilken
vilket
vill
villa
village
villan
villanueva
ville
villeneuve
villiers
villkor
villmanstrand
villor
villosa
vilnius
vilt
vimmerby
vin
vincent
vind
vindar
vindelns
vinden
vindeva
viner
vinga
vingar
vingarna
vinge
vingeart
vingen
vinkel
vinna
vinnande
vinnare
vinnaren
vinnarna
vinner
vinns
vinruteva
vinst
vinsten
vinster
vinter
vintern
vinterspelen
vintertid
vinva
vinyl
viola
violin
violinist
violva
virgin
virginia
viridis
virke
virtual
virtuella
virus
vis
visa
visade
visades
visar
visas
visat
visats
visby
vision
visionofbritain
visit
viskade
visor
viss
vissa
visserligen
visst
visste
vista
vistades
vistas
vistelse
visual
visuell
vit
vita
vitaktig
vitamin
vito
vitryska
vitryssland
vitt
vittata
vittnar
vittne
vittnen
vittnesbo
vittnesma
vittnet
viveva
vivlar
viz
vizier
vk
vla
vlade
vladimir
vlan
vlande
vlar
vlat
vle
vleborgs
vling
vlingar
vlingarna
vlingen
vlingscyklist
vm
vnad
vning
vningar
vningen
vo
voblast
voblasten
voice
vojvodskap
vokal
vol
volca
volkswagen
volleyball
volleyboll
volonta
vols
volume
volumes
volution
volvo
volym
volymer
vom
von
voor
vor
vore
voro
vorpommern
vosges
voss
voyage
vp
vr
vra
vrade
vrades
vre
vrede
vrig
vriga
vrigt
vringen
vs
vsjo
vskog
vsta
vsx
vt
vtra
vu
vuelta
vulen
vulgaris
vunnit
vuoksens
vuxen
vuxit
vuxna
vy
vylbou
w
wa
wachtmeister
wacker
wagner
wahlberg
wahlgren
wahlstro
waldemar
wales
walk
walker
walking
wall
wallace
wallander
wallenberg
wallin
walsh
walt
walter
walters
wang
wanna
want
war
wara
ward
warda
warder
wardt
ware
warit
warner
warren
wars
warszawa
warwick
was
wash
washington
washingtonpost
wasp
wasps
watch
water
waterhouse
waters
watling
watn
watson
watten
wattenwyl
watts
wave
way
wayback
wayne
wcsp
we
weather
web
webb
webbla
webbplats
webbplatsen
webbsida
webbupplaga
webcitation
weber
website
webster
week
weekly
wehrmacht
wei
weimar
weiss
welcome
well
wellington
wells
welt
wen
wenig
were
werk
werlden
werner
wesley
west
westerberg
westerlund
western
westfalen
westin
westman
westminster
westwood
wet
weta
wever
what
whc
wheeler
when
where
which
while
white
whitney
who
why
wi
wid
wide
widh
widstrand
wie
wiedemann
wien
wiener
wiens
wife
wiger
wight
wii
wij
wiki
wikidata
wikimedia
wikipedia
wikipedias
wikiquote
wikisource
wikispecies
wiksell
wikstro
wiktionary
wil
wild
wilde
wildlife
wiley
wilhelm
wilhelmina
wilja
will
wille
willem
willemse
william
williams
williamson
willie
willis
willy
wilson
wiltshire
win
wind
windows
windsor
wing
wings
winner
winners
winnipeg
wins
winston
winter
wire
wirth
wisconsin
wise
wiss
wissen
wissenschaften
wissenschaftliche
with
within
without
wo
wohnbevo
wolf
wolff
wolfgang
wolfsgarden
woman
women
womens
won
wonder
wood
woods
woody
word
wordpress
words
wore
work
working
works
world
worldcat
worldpostmarks
worlds
worldstatesmen
worldwide
worms
woro
would
wp
wrangel
wrede
wrestling
wright
writers
writing
wu
www
wyoming
wytsman
x
xa
xande
xanthoparmelia
xanthorhoe
xavier
xbox
xel
xella
xeno
xer
xhip
xi
xiang
xico
xii
xiii
xinjiang
xiv
xix
xjo
xla
xlande
xlar
xlas
xling
xls
xlsx
xml
xt
xta
xtart
xtdelar
xte
xten
xter
xterna
xtlighet
xttaxonomin
xu
xv
xvi
xvii
xviii
xx
xxi
xxvi
xyleborus
xylocopa
xyris
xysticus
y
ya
yahoo
yale
yan
yang
ye
year
years
yeh
yellow
yes
yi
yin
yle
ylva
ym
ympa
yngre
yngsta
yngste
yngve
yo
york
yorkshire
you
young
your
youth
youtube
ypthima
yrke
yrken
yrket
ystad
ystads
yta
ytan
ytor
ytterligare
ytterst
yttersta
yttra
yttrade
yttrande
yttre
ytvatten
yu
yuan
yunnan
yunnanensis
yves
yvonne
z
za
zacharias
zagreb
zajciw
zamarada
zambia
zamora
zapata
zaragoza
zaro
zcta
ze
zealand
zeeland
zeit
zeitschrift
zeitung
zelotes
zero
zeta
zetterstedt
zetterstro
zh
zhang
zhao
zhejiang
zhen
zheng
zhou
zhu
zhurnal
zi
zimbabwe
zingiberaceae
zip
zobodat
zodariidae
zon
zone
zonen
zoo
zool
zoolog
zoologi
zoologia
zoologica
zoologicae
zoological
zoologici
zoologie
zoologique
zoologisch
zoologische
zoologischen
zoologischer
zoology
zootaxa
zootaxonomica
zu
zum
zur
zusammenstellung
zwick
zygaena
{
|
}
~
¡
£
¦
§
¨
©
«
­
®
¯
°
±
²
³
´
µ
¶
·
¹
º
»
¼
½
¿
×
ß
æ
ær
ð
÷
ø
þ
þa
ı
ł
ŋ
ɑ
ɔ
ə
ɛ
ɪ
ɾ
ʊ
ʰ
ʲ
ʷ
ʹ
ʻ
ʾ
ʿ
ˈ
ˌ
ː
ˠ
̀
́
̂
̃
̄
̆
̇
̈
̉
̊
̋
̌
̓
̔
̛
̞
̣
̥
̦
̧
̨
̪
̯
̱
̸
͂
͡
α
β
γ
δ
ε
ζ
η
θ
ι
κ
λ
μ
ν
ξ
ο
π
ρ
ς
σ
τ
υ
φ
χ
ψ
ω
ϕ
ϵ
а
большая
в
г
д
е
з
и
к
л
м
н
на
о
п
по
р
с
советская
т
у
х
энциклопедия
ю
я
і
ְ
ִ
ֵ
ֶ
ַ
ָ
ֹ
ּ
־
ֿ
ׁ
א
ב
ג
ד
ה
ו
ח
ט
י
ל
מ
ן
נ
ס
פ
ק
ר
ש
ת
ا
ب
ة
ت
ج
ح
خ
د
ر
ز
س
ش
ع
ق
ك
ل
م
ن
ه
و
ي
َ
ُ
ِ
ّ
ْ
ٓ
ٔ
ٕ
چ
گ
क
न
र
ल
ा
ि
ी
्
া
ি
্
ா
ி
்
ั
ิ
ี
ุ
่
้
་
통계연보
᛫
᛬
្
​
‌
‎
‐
‑
‒
–
—
―
‖
‘
’
“
”
„
†
•
…
′
″
⁄
⁎
⁡
₁
₂
€
ℏ
℔
№
™
→
↔
↷
⇒
∀
∂
∇
∈
∏
∑
−
∗
∘
∞
∠
∩
∫
≈
≡
≤
≥
⋅
⋮
⋯
③
④
⑦
─
━
△
☎
♀
♂
♭
⟨
⟩
⺀
⺄
⺆
⺈
⺊
⺌
⺕
⺝
⺸
⺼
⿰
⿱
⿲
⿳
⿴
⿵
⿶
⿷
⿸
⿹
⿺
⿻
、
。
》
「
」
〢
あ
い
う
え
お
か
き
く
け
こ
さ
し
す
せ
そ
た
ち
っ
つ
て
と
な
に
の
は
ひ
ふ
へ
ほ
ま
み
め
も
ゃ
や
ゅ
ょ
よ
ら
り
る
れ
ろ
わ
を
ん
゙
゚
ァ
ア
ィ
イ
ウ
エ
オ
カ
キ
ク
ケ
コ
サ
シ
ス
セ
ソ
タ
チ
ッ
テ
ト
ナ
ニ
ハ
ヒ
フ
ヘ
ホ
マ
ミ
ム
メ
モ
ャ
ュ
ユ
ョ
ラ
リ
ル
レ
ロ
ン
・
ー
㇁
㇂
㇄
㇇
㇈
㇉
㇓
㐁
㐄
㐅
㐌
㐫
㐬
㐭
㐮
㐱
㑒
㒵
㒸
㒼
㓁
㓞
㔾
㕛
㕣
㖾
㘝
㚅
㚇
㚔
㚘
㝉
㝡
㝴
㝵
㞋
㞢
㞷
㠩
㠭
㠯
㡀
㡭
㡿
㢲
㢴
㣇
㣺
㥯
㪅
㫄
㫐
㫒
㫺
㬅
㬎
㬥
㬰
㲋
㳄
㷠
㸒
㸚
㸦
㼌
㼲
㽞
㿟
䀠
䂞
䍃
䏍
䒑
䖍
䖒
䖝
䖵
䙴
䚻
䜌
䝿
䡛
䧹
䪞
一
丁
丂
七
丄
丅
丆
万
丈
三
上
下
丌
不
与
丏
丐
丑
专
且
丕
世
丘
丙
业
东
丞
丢
丣
两
严
並
丨
丩
个
丫
丬
中
丮
丰
丱
串
丵
丶
丷
丸
丹
为
主
丽
丿
乀
乂
乃
久
乆
乇
么
义
之
乌
乍
乎
乏
乐
乑
乔
乖
乗
乘
乙
乚
乛
乜
九
乞
也
习
乡
乳
乾
亀
亅
了
亇
予
争
事
二
亍
于
亏
亐
云
互
亓
五
井
亘
亚
亜
亞
亟
亠
亡
亢
交
亥
亦
产
亨
亩
享
京
亭
亮
亯
亰
亲
亳
亶
亷
人
亻
亼
亾
仁
今
介
仌
从
仐
仑
仒
仓
仕
他
付
仝
代
令
以
任
企
伊
伏
伐
休
会
伯
但
位
何
佘
余
作
佥
使
來
侈
侌
侖
侯
侵
便
保
俞
信
修
倉
倍
候
倠
備
僉
僕
儿
兀
允
兂
元
兄
充
兆
兇
先
光
兊
克
兌
免
兑
兒
兓
兔
党
兜
兟
入
全
兩
兪
八
公
六
兮
兰
共
关
兴
兵
其
具
典
兹
兼
冀
冂
冃
冄
内
冈
冉
冊
冋
册
再
冎
冏
冐
冒
冓
冖
冗
冘
军
农
冝
冡
冥
冫
冬
冷
几
凡
凢
凵
凶
凷
凸
凹
出
函
凾
刀
刁
刂
刃
刄
刅
分
切
刍
刑
刕
刖
列
刘
则
初
別
利
别
到
制
刺
則
削
剌
前
剡
剽
劉
力
功
加
劦
助
劫
劳
劵
勃
勇
勉
勒
動
務
勞
勤
勹
勺
勻
勾
勿
匀
匂
包
匆
匈
匊
匋
匍
匕
化
北
匚
匝
匡
匪
匱
匸
匹
区
医
匽
匿
區
十
卂
千
卄
卅
卆
升
午
卉
半
卌
华
卑
卒
卓
单
卖
南
卜
卝
卞
占
卡
卢
卣
卤
卦
卩
卪
卬
卯
印
危
即
却
卵
卷
卸
卻
厂
厃
厄
历
厈
厉
厌
厓
厘
厚
原
厤
厥
厨
厭
厲
厶
厷
厸
去
厼
厽
县
叀
参
參
叅
又
叉
及
友
双
反
叐
发
叒
叔
叕
取
受
叚
叜
叟
口
古
句
另
叩
只
召
可
台
叱
史
右
叵
号
司
叹
吂
各
吅
合
吉
吊
吋
同
名
后
吏
向
吕
君
吝
吞
否
含
启
吳
吴
吹
吾
呂
呆
呈
告
员
呙
周
命
咅
和
咎
咠
咢
咨
咸
咼
哀
品
哉
員
哥
哲
唐
商
啇
問
啚
啬
啻
善
喜
喬
單
喿
嗇
噩
嚴
囊
囗
囘
囙
囚
四
回
囟
因
囧
囬
困
囱
囷
固
国
圂
圅
國
圍
圓
土
圡
圣
圥
在
圭
地
圶
场
圼
坐
坒
坚
坝
坪
坴
垂
垔
垚
埀
埋
城
埶
執
基
堂
堅
堆
堇
堯
塘
塞
墨
壘
士
壬
壯
声
壳
壴
壹
壺
壽
夂
处
夅
夆
备
夊
夋
夌
复
夏
夒
夕
外
夗
夘
多
夜
夢
大
夨
天
太
夫
夬
夭
央
失
夲
头
夷
夸
夹
夻
夾
奂
奄
奇
奈
奉
奎
奏
奐
契
奓
奔
奚
奞
奠
奢
奥
奭
女
奴
奻
好
如
妄
妙
妟
妥
妻
妾
姑
委
姜
威
娄
婁
婴
嬰
嬴
子
孑
孔
孕
孖
字
存
孚
孛
孝
孟
季
孤
学
孫
孱
學
宀
宁
宂
它
宅
宇
守
安
宋
完
宏
宓
宗
官
定
宛
宜
宝
客
宣
室
宮
宰
害
家
容
宾
宿
寄
寅
密
富
寒
察
寧
審
寫
寬
寮
寸
对
寺
寻
寽
対
寿
封
尃
射
将
將
專
尉
尊
尋
尌
對
小
少
尒
尓
尔
尖
尗
尚
尞
尢
尣
尤
尧
尨
尭
就
尸
尹
尺
尻
尼
尽
尾
尿
局
居
屈
屋
屎
屏
屑
展
屖
屚
属
屠
屡
屬
屮
屯
屰
山
屵
屾
岁
岂
岑
岡
岩
岳
岸
峯
島
崇
崑
崔
崖
崙
崩
嵬
嶲
巂
巛
川
州
巟
巠
巢
巤
工
左
巧
巨
巩
巫
差
己
已
巳
巴
巷
巸
巽
巾
巿
帀
市
布
希
帚
帛
帝
带
師
席
帶
常
干
平
年
幵
并
幷
幸
幺
幻
幼
幽
幾
广
広
庄
床
库
底
店
庚
府
度
庫
庭
庶
康
庸
廉
廌
廛
廣
廩
廴
延
廷
建
廾
廿
开
弁
弃
弄
弇
弋
式
弓
弔
引
弗
弘
弜
弟
张
弥
弦
弱
張
強
强
彊
彌
彎
彐
彑
当
彔
录
彖
彗
彡
形
彥
彦
彧
彭
彳
役
彼
往
待
律
徒
得
徙
從
復
微
徵
德
心
忄
必
忌
忍
志
忝
忠
忩
快
念
忽
忿
思
怠
急
怱
恆
恒
恩
恭
息
悉
患
悤
悲
悶
惠
惡
惢
愁
愈
意
愛
感
慈
慧
慮
憂
憲
應
戀
戈
戉
戊
戋
戌
戍
戎
成
我
戒
戔
或
戚
戠
戢
截
戲
戶
户
戹
戼
戾
房
所
扁
扇
手
扌
才
打
托
执
承
折
拉
拜
拿
掌
推
提
摩
支
攴
攵
收
攸
改
放
政
敄
敏
敕
敖
敗
敝
敞
敢
散
敦
敫
敬
数
敷
數
斂
文
斉
斊
斗
料
斤
斥
斩
斬
斯
新
方
於
施
斿
旁
旋
族
无
旡
既
旣
日
旦
旧
旨
早
旬
旱
旲
时
旾
昆
昇
昌
昍
明
昏
易
昔
昗
昜
星
春
昬
是
昱
昴
昷
時
晃
晋
晏
普
景
晶
智
暑
暴
曇
曩
曰
曲
曳
更
曷
書
曹
曼
曾
替
最
朁
會
月
有
朋
服
朔
朕
朗
望
朝
木
朩
未
末
本
札
朮
术
朱
朵
朶
朿
杀
李
杏
村
杜
束
条
来
東
杲
杳
松
析
林
枚
果
枝
枲
枼
某
柔
查
柬
柰
柴
栗
格
桀
桑
桥
桼
梁
條
梟
梨
棘
棠
棥
森
楚
業
楽
榮
樂
樊
欠
次
欣
欮
欲
欶
欽
款
歆
歇
歛
止
正
此
步
武
歨
歪
歮
歯
歰
歲
歴
歷
歸
歹
歺
死
殳
段
殷
殸
殹
殺
殻
殿
毋
毌
母
每
毒
比
毕
毚
毛
毳
氏
氐
民
气
氣
水
氵
氶
氷
永
氺
氾
求
汝
汞
江
沃
沓
沙
沝
沟
河
治
泉
法
波
泣
泥
泰
洛
洞
洪
洲
活
派
流
浦
浪
浮
海
淡
淮
清
渚
渠
湖
湯
湾
溪
滿
漸
火
灬
灭
灰
灵
灷
炅
炎
炏
炗
炙
炭
為
烈
烏
烝
焉
無
焦
焱
然
煞
熊
熏
燕
營
燮
爪
爫
爭
爯
爰
爱
爲
爵
父
爻
爽
爾
爿
片
版
牙
牚
牛
牜
牟
牢
牧
物
牪
牽
犀
犬
犭
犮
狂
狄
狊
独
狺
猋
猒
猪
献
獻
玄
率
玉
王
玟
玨
珎
班
琴
瑟
瑩
瓜
瓦
甘
甚
生
産
用
甫
甬
田
由
甲
申
电
甶
男
甸
甹
町
画
甾
畀
界
畏
畐
留
畜
畟
畢
畧
畨
番
畫
異
畱
當
畺
畾
疊
疋
疌
疑
疒
疾
癶
癸
癹
登
發
白
百
皀
皃
的
皆
皇
皋
皐
皕
皮
皷
皿
盃
盆
盇
盈
益
盍
盎
监
盒
盖
盛
盡
監
盤
盧
目
直
相
盾
省
眇
眉
看
眔
眞
真
眷
眼
眾
着
睘
睪
睿
瞏
瞢
瞿
矍
矛
矞
矢
矣
知
矦
短
石
破
碎
磊
磨
示
礻
礼
社
神
祟
票
祭
禀
禁
福
禸
禹
禺
离
禽
禾
禿
秀
秃
秉
秋
科
秝
秦
移
稟
穀
穌
穴
究
穹
空
穿
突
窄
窒
立
竒
竜
竝
竟
章
童
竹
笑
笠
筆
等
答
箕
算
箴
節
篤
篭
米
粉
粛
粟
粤
粦
粲
糞
糸
糹
系
約
納
素
索
紫
累
細
絜
絫
絲
維
綿
縣
繇
纍
纟
红
缶
网
罒
罔
罕
罗
罙
罡
罢
罪
署
罷
羅
羊
羌
羍
美
羔
羕
羗
羞
羡
羣
群
義
羲
羸
羽
翁
翏
習
翕
翟
翠
翼
老
耂
考
者
耆
而
耎
耑
耒
耳
耴
耶
耷
聂
聊
聖
聚
聶
聿
肀
肃
肅
肉
肖
肙
肥
肩
肯
育
肴
胃
背
胡
胥
能
脊
脩
膚
臣
臤
臧
自
臬
臭
臯
臱
至
致
臺
臼
臽
臾
臿
舀
舂
舄
與
興
舉
舌
舍
舛
舜
舞
舟
般
艮
良
色
艸
艹
艾
芒
芔
芬
芮
花
芳
芺
芻
苏
苔
苗
苟
若
苦
英
茶
茸
荅
草
荒
荣
荼
莆
莧
莫
莽
菆
菊
菐
華
营
萬
落
葉
著
葛
董
葵
蒙
蒦
蒼
蓋
蓬
蓺
蔑
蔡
蕉
蕭
薄
薛
薦
薰
藍
藏
藤
藥
蘭
虍
虎
虐
虒
虔
處
虖
虗
虘
虚
虛
虜
虞
虫
虽
蚤
蚩
蜀
蜜
蟲
蠡
血
行
衍
街
衛
衣
衤
表
衮
衰
袁
袞
褭
褱
襄
襾
西
覀
要
覃
見
規
覓
覧
親
覽
见
角
解
言
訁
訇
計
詹
語
誩
諸
讠
谷
豆
豈
豊
豐
豕
豖
豙
象
豦
豩
豪
豸
貇
貝
貞
貟
負
貢
貧
貪
貫
責
貳
貴
買
費
賁
資
賈
賏
賓
賔
賛
賞
賢
賣
質
賴
贊
贝
贡
责
贯
贲
贵
资
赖
赞
赤
赦
走
越
足
路
蹇
身
躬
車
軍
軎
軟
輦
车
辛
辜
辟
辥
辰
辱
農
辵
辶
边
达
过
近
连
迷
追
退
送
逆
逐
通
速
造
逢
連
逮
進
遀
遂
過
道
達
遣
適
遷
遺
邊
邑
邕
那
邦
邪
郎
部
郭
都
鄉
酉
酋
配
酓
釆
采
里
重
野
量
金
釒
錢
钅
镇
長
镸
长
門
閃
閉
開
閏
閑
閒
間
閔
閵
閻
闌
门
间
闷
阑
阜
阝
阳
阿
降
陳
隆
隊
隋
隡
隨
隱
隶
隹
隺
隻
隼
隽
难
雀
雁
集
雈
雋
雍
雐
雔
雙
雚
雜
雝
離
難
雨
雩
雪
雲
零
雷
需
霍
霜
霝
霞
霸
靈
靑
青
非
靡
面
靣
革
韋
韦
韭
韯
韱
音
頁
頃
項
須
頗
頡
頻
顛
页
風
风
飛
飞
食
飠
養
饣
首
香
馬
馮
駦
马
骨
高
髟
鬥
鬯
鬲
鬼
魚
魯
鮮
鱼
鲁
鳥
鳳
鸟
鹵
鹿
麃
麗
麥
麦
麻
黃
黄
黍
黎
黑
黒
黨
黹
黽
黾
鼎
鼓
鼠
鼻
齊
齋
齐
齒
齿
龍
龙
龜
龟
龠
龰
龱
龴
龵
龶
龷
龸
龹
ꝛ
ꝺ
者
艹
﻿
！
（
）
？
�
𐌰
𐌹
𠀁
𠀃
𠀆
𠀉
𠀎
𠀐
𠁁
𠁣
𠂆
𠂇
𠂈
𠂉
𠂊
𠂋
𠂎
𠂒
𠂔
𠂛
𠂡
𠂢
𠂤
𠂬
𠂭
𠂹
𠃊
𠃋
𠃌
𠃍
𠃎
𠃑
𠃓
𠃔
𠃜
𠄌
𠄎
𠄠
𠄢
𠆢
𠆥
𠇍
𠈌
𠌵
𠓜
𠔉
𠔥
𠔼
𠔽
𠔿
𠕀
𠕁
𠕋
𠘧
𠘨
𠙻
𠙼
𠚏
𠚒
𠚤
𠚪
𠣏
𠤎
𠤕
𠥓
𠦄
𠦑
𠦝
𠧒
𠧗
𠧪
𠩺
𠪚
𠫓
𠫔
𠫤
𠬛
𠬝
𠬞
𠬢
𠬤
𠬶
𠮛
𠮦
𠮷
𠯑
𠱠
𠳮
𠷎
𡈼
𡉀
𡉵
𡌥
𡍮
𡏳
𡕒
𡕩
𡕰
𡖅
𡗗
𡗜
𡘆
𡘤
𡧱
𡨄
𡩧
𡬠
𡭽
𡰣
𡰥
𡰪
𡰯
𡰱
𡷈
𡸁
𡿨
𡿩
𡿪
𡿺
𢀖
𢀛
𢀩
𢁙
𢆉
𢆰
𢆶
𢇁
𢇇
𢉖
𢌬
𢌿
𢏚
𢑑
𢑚
𢖻
𢙣
𢛳
𢦏
𢦒
𢧵
𢼄
𢾕
𣁋
𣄼
𣅀
𣅽
𣍘
𣎳
𣎵
𣏋
𣏼
𣗥
𣥂
𣥖
𣦵
𣦼
𣧄
𣪊
𣪠
𣬉
𣳾
𣶒
𤇾
𤊽
𤐫
𤓰
𤔔
𤕨
𤣩
𤰇
𤰔
𤰞
𤴓
𤴔
𤽄
𥁑
𥁕
𥃦
𥃩
𥃭
𥇡
𥑟
𥘅
𥘈
𥝢
𥫗
𥱡
𦈢
𦉪
𦉬
𦉼
𦍌
𦍒
𦎧
𦐇
𦓔
𦔮
𦘒
𦙃
𦚏
𦣝
𦣞
𦣻
𦥑
𦥔
𦥯
𦨉
𦭝
𦰩
𧆞
𧈧
𧘇
𧰨
𧴪
𧴮
𧵩
𧾷
𨸏
𨾴
𩙿
𩠐
𩫏
𩵋
𪉷
𪜀
𪟽
𪠲
𪩲
𫇦
𫔭
𫜸
𫝀
𫠣
𫠩
𫢉
𫥞
𫩏
𫩠
𫪡
𫲽
𫶧
𬀷
𬐘
𬗌
𬙙
𬛸
𬜯
𬟩
𬯁
𬴘
𬺻
𬼉
𬼖
𭀰
𭁈
𭁨
𭅰
𭑈
𭕄
𭗼
𭤨
𭥫
𭻾
𮅕
𮊿
𮍌
𮍏
𮓗
𮥼
𮧮
廾
𰀁
𰀄
𰀈
𰀉
𰀕
𰀠
𰀡
𰀢
𰀪
𰁜
𰃮
𰆊
𰆘
𰋙
𰕎
𰢴
𰧭
𰯲
00--
000--
001--
01--
02--
03--
04--
05--
06--
07--
08--
09--
101--
103--
106377--
119--
135--
141--
144--
145--
146--
147--
148--
150--
151--
65--
66--
67--
68--
69--
70--
71--
72--
73--
74--
75--
76--
77--
779--
78--
79--
80--
81--
82--
83--
84--
85--
86--
87--
88--
89--
90--
91--
92--
93--
94--
95--
96--
97--
978--
97891--
9789188--
98--
99--
a--
aa--
aar--
ab--
abdom--
abdu--
aber--
abs--
absor--
abu--
aby--
ac--
acant--
acantho--
acaro--
acce--
ace--
ack--
ackom--
acon--
acri--
acro--
acrop--
act--
acuti--
ad--
ada--
add--
ade--
adel--
adon--
ae--
aequ--
aeth--
af--
afdel--
aff--
afgha--
afr--
afroa--
afze--
ag--
agap--
agat--
age--
agu--
ah--
ahl--
ai--
aik--
air--
aj--
ak--
akt--
aktie--
al--
ala--
albi--
albo--
album--
aldr--
ale--
alf--
alfa--
ali--
all--
alle--
allgeme--
allo--
alloc--
allt--
alm--
alma--
alph--
als--
alt--
alta--
aly--
am--
amau--
amaz--
ambitio--
ambly--
ambu--
ame--
amfi--
ammo--
amo--
ampe--
amphi--
ampl--
amy--
an--
ana--
anagy--
anci--
and--
ande--
andra--
anem--
angl--
ango--
angu--
angusti--
anim--
aniso--
ankla--
ann--
anna--
anne--
anno--
annu--
anop--
anpass--
ans--
ansikts--
anska--
anslu--
anspe--
ant--
antec--
anten--
antho--
anti--
anty--
anvis--
any--
ao--
ap--
apat--
apel--
apho--
api--
apo--
apoc--
apol--
apost--
app--
appli--
approxi--
aqu--
ar--
ara--
arab--
arachno--
arb--
arbet--
arbetar--
arbetsmark--
arbetsp--
arc--
arch--
are--
arf--
arg--
argy--
ari--
aristo--
ark--
arkiv--
arm--
arn--
aro--
arren--
ars--
art--
articu--
arv--
as--
asa--
ash--
ask--
asp--
asper--
assas--
asse--
aster--
astra--
astro--
asy--
at--
athy--
atlanti--
atom--
atri--
att--
attri--
aty--
au--
auf--
aug--
auk--
auran--
auri--
auricu--
aus--
aust--
auto--
automat--
av--
avance--
avel--
avli--
avsa--
avslut--
avu--
avveck--
avvik--
ax--
ay--
az--
b--
ba--
bacc--
back--
bact--
bad--
bahr--
bak--
bal--
balea--
ball--
bamb--
ban--
band--
bandy--
bank--
bar--
barn--
barock--
bart--
bas--
base--
baseboll--
basidiomy--
basil--
bat--
batal--
batra--
bau--
baum--
bay--
bb--
be--
bear--
beau--
beauf--
bec--
bed--
bedri--
bee--
befa--
befo--
befri--
begy--
bei--
bel--
bela--
bely--
bemer--
ben--
bensin--
ber--
berg--
bergs--
bern--
bert--
besky--
beso--
besynner--
bet--
beta--
beton--
bety--
beund--
beva--
bey--
bi--
bian--
bib--
bibel--
bibliog--
big--
bil--
bild--
bill--
bin--
bio--
bis--
bit--
bja--
bju--
bjø--
bl--
bla--
black--
blad--
blec--
blee--
blek--
blep--
bli--
blo--
blod--
blom--
bloom--
blu--
bly--
bo--
boe--
bogs--
bok--
bol--
boll--
bom--
bomb--
bon--
bond--
bonde--
boo--
bor--
borg--
born--
bort--
bot--
bou--
bour--
bow--
box--
boy--
br--
bra--
brachy--
brand--
brans--
bre--
bred--
brev--
brig--
briga--
bris--
bro--
broad--
brons--
bru--
bruk--
brukspa--
brun--
bry--
bryo--
bu--
bubb--
buch--
bud--
buddh--
buddhist--
buk--
bulb--
bulga--
bundes--
bupre--
bur--
bus--
buss--
but--
by--
bygg--
bø--
c--
ca--
caec--
calan--
calc--
calen--
calo--
calv--
caly--
camb--
can--
cap--
car--
carl--
casa--
cass--
cast--
cat--
cata--
cau--
cauca--
caud--
cc--
cd--
ce--
ceder--
cele--
celebra--
cell--
central--
ceph--
cephal--
cephalo--
cerat--
cerc--
cercop--
cere--
certifie--
ces--
cet--
ch--
cha--
chaet--
chan--
charl--
che--
chevr--
chi--
china--
chlor--
cho--
chro--
chry--
chryso--
chu--
chy--
ci--
cin--
circu--
circum--
city--
civil--
ck--
cke--
cks--
cl--
clad--
clap--
clare--
clari--
clav--
cle--
clif--
clit--
clo--
clus--
cly--
cn--
co--
cocc--
coel--
cogn--
col--
cole--
colum--
com--
commun--
comp--
con--
conce--
conci--
confu--
conio--
conocep--
coord--
cope--
coqui--
cor--
correspo--
cory--
cos--
cot--
cou--
cow--
coyo--
cr--
cran--
cras--
crassi--
crat--
craw--
cre--
crim--
crin--
cris--
crist--
crit--
cro--
croa--
crom--
cron--
cru--
cry--
crypt--
cs--
ct--
cten--
cu--
cucu--
cum--
cup--
curvi--
cut--
cy--
cyan--
cycl--
cyclop--
cykel--
cykl--
cylind--
cymb--
cyph--
cyrto--
cz--
czer--
d--
da--
dacn--
dacty--
dag--
dags--
dahl--
dal--
dala--
dam--
damm--
dan--
danne--
dans--
dar--
das--
dasy--
data--
date--
dator--
dau--
daugh--
day--
db--
dd--
de--
debut--
dec--
defe--
definie--
dei--
dekor--
del--
dela--
deleg--
delegatio--
delphac--
delse--
dem--
demo--
den--
dendro--
denticu--
der--
dernes--
des--
descrip--
det--
detalj--
deter--
df--
dh--
dha--
dhus--
di--
dia--
diagn--
dicho--
dicr--
dicran--
dictio--
dictyo--
did--
die--
diesel--
dif--
dig--
dikt--
din--
dio--
diplo--
dir--
direkt--
dirig--
discip--
disk--
disor--
disp--
dispo--
diss--
disse--
disti--
distrib--
distribu--
dit--
div--
diver--
dj--
dja--
dje--
djup--
djur--
dk--
dl--
dla--
dm--
dn--
do--
doc--
dod--
dog--
dolo--
dom--
domin--
don--
donatio--
dop--
dor--
doro--
dort--
dos--
dou--
dp--
dr--
dra--
drag--
dragon--
drama--
dress--
dricks--
drif--
drit--
driv--
dro--
drog--
dru--
drum--
drun--
dry--
ds--
dt--
du--
dubb--
dubbel--
due--
dum--
dun--
dur--
dy--
dynas--
dysp--
dz--
e--
ea--
east--
eb--
ebe--
ebu--
ec--
eche--
echi--
echino--
ecolog--
ed--
edel--
eds--
ee--
ef--
efter--
eg--
egen--
egg--
ehr--
ehren--
ei--
eich--
ein--
eisen--
ej--
ek--
ekol--
ekonomi--
ekvatio--
el--
ela--
elaph--
eld--
elec--
elef--
elek--
elektro--
elep--
eleut--
elev--
eli--
elli--
ellipt--
ely--
elym--
em--
emarg--
emer--
emi--
emot--
empi--
en--
ena--
ency--
end--
ene--
energi--
eng--
enig--
ens--
ensif--
ent--
enz--
eo--
ep--
epica--
epide--
epil--
epip--
epis--
epit--
equ--
equi--
er--
era--
erb--
erec--
erem--
erig--
eriks--
erio--
ero--
ers--
ery--
eryth--
erythron--
es--
esc--
ess--
est--
et--
ethiop--
ethn--
etik--
etno--
ett--
eu--
euce--
eule--
eulo--
eup--
eupel--
eupho--
eur--
euro--
europa--
eury--
eut--
ev--
eva--
evaku--
ever--
ew--
ex--
exam--
exca--
exek--
exhi--
exist--
exkl--
exo--
exop--
exor--
expe--
explo--
extra--
extre--
ey--
ez--
f--
fa--
faci--
fack--
fad--
fager--
fahl--
fair--
faks--
fakt--
fakta--
fakul--
falc--
falk--
fam--
fan--
far--
fas--
fasci--
fascicu--
fast--
fat--
fau--
faun--
fb--
fc--
fd--
fe--
feed--
fel--
fem--
femte--
fenes--
fer--
ferre--
fest--
fet--
ff--
fi--
fia--
fideikom--
fient--
fig--
fil--
film--
filmatise--
fimb--
fin--
final--
finans--
finn--
fire--
firm--
fis--
fisk--
fiske--
fitz--
fje--
fjo--
fl--
fla--
flag--
flavi--
flavo--
flens--
fler--
flex--
flicks--
flo--
flod--
flottil--
flu--
flugsna--
fly--
flyg--
fm--
fn--
fo--
fogel--
folk--
folke--
for--
ford--
fore--
form--
formu--
fornb--
fornm--
fornt--
fors--
forskar--
fort--
foster--
fot--
fotbolls--
foto--
fou--
fox--
fra--
fram--
fre--
fred--
free--
fri--
frid--
fried--
fro--
front--
fru--
fry--
fs--
ft--
fte--
fu--
fuku--
fulg--
fulig--
full--
fulv--
fun--
fur--
fusci--
fva--
fver--
fwer--
fy--
fyr--
fysio--
fø--
g--
ga--
gad--
gaf--
gal--
galeo--
gamb--
game--
gammel--
gan--
gang--
gar--
gas--
gat--
gau--
gav--
gay--
gaz--
gb--
gc--
ge--
gel--
gen--
general--
genom--
geo--
ger--
gern--
ges--
get--
gg--
ggs--
gh--
gha--
gi--
gia--
gibb--
gif--
gil--
gill--
gio--
gis--
giu--
gju--
gk--
gkom--
gl--
gla--
glad--
glandu--
glas--
glau--
gle--
glen--
gles--
glim--
glo--
glu--
gly--
gm--
gn--
gna--
gnaphos--
gne--
go--
gob--
god--
gods--
godty--
gold--
golf--
gomp--
gon--
gonio--
good--
gor--
got--
gott--
gou--
gov--
gp--
gr--
gra--
graci--
grad--
graf--
gran--
grass--
grav--
gre--
green--
gren--
grevs--
grif--
grim--
gro--
groen--
gru--
grund--
grupp--
gry--
gryll--
gryllo--
grym--
grø--
gs--
gsa--
gsky--
gst--
gsta--
gt--
gtid--
gu--
gud--
gudom--
guds--
gue--
guil--
gul--
gula--
guld--
gull--
gun--
guz--
gy--
gye--
gyll--
gyllen--
gyllensti--
gym--
gymnasie--
gymno--
h--
ha--
habro--
habs--
hacks--
had--
haema--
haf--
haga--
hal--
hall--
hals--
halv--
ham--
hamn--
han--
hand--
handels--
hang--
hangar--
haplo--
har--
hard--
hart--
has--
hat--
hatt--
hau--
hauk--
haus--
hav--
havs--
hay--
he--
head--
hed--
hede--
hedq--
hedy--
heide--
heil--
heim--
heine--
hej--
hel--
hela--
helge--
helic--
helikop--
helio--
hell--
hem--
hemip--
hemma--
hen--
her--
hercu--
herr--
hes--
het--
hexa--
hey--
hi--
hibb--
hieta--
high--
him--
himla--
hip--
hippo--
hirs--
hirt--
his--
hit--
hje--
hjul--
hl--
hm--
hn--
ho--
hoch--
hockey--
hod--
hof--
holm--
holo--
home--
homo--
hon--
hop--
hopp--
hori--
horis--
hormo--
horn--
horr--
hors--
hos--
hot--
hou--
hov--
how--
hr--
hs--
hu--
hua--
hub--
hud--
hufvud--
hufvudstads--
humb--
hump--
hund--
hung--
hur--
hus--
husar--
hutchi--
huvud--
hv--
hvar--
hvari--
hwar--
hy--
hybr--
hydro--
hygro--
hylo--
hym--
hymen--
hyp--
hypo--
hypogastr--
hyres--
hø--
i--
ia--
iakt--
ib--
iber--
ic--
ice--
ich--
id--
ide--
idio--
ie--
if--
ig--
igel--
ii--
ik--
il--
ill--
im--
imag--
immig--
imp--
imple--
impro--
in--
ina--
inb--
inbju--
inc--
ind--
indep--
indie--
indo--
indra--
industri--
ine--
infa--
infe--
infla--
influ--
infly--
info--
infra--
ing--
inge--
ingri--
init--
initie--
inklud--
inn--
inne--
innoc--
ino--
inofficie--
inqui--
ins--
insa--
insju--
inskrip--
inspe--
inspi--
insu--
int--
inte--
integre--
inter--
internet--
inv--
inva--
invest--
invol--
io--
ip--
ir--
irak--
is--
isa--
ishockey--
iso--
ist--
it--
ita--
iv--
iwa--
ix--
iz--
j--
ja--
jacque--
jag--
jakt--
jam--
jan--
jar--
jas--
jazz--
jd--
je--
jen--
jer--
jes--
jet--
ji--
jim--
jin--
jo--
joa--
jon--
jord--
js--
jt--
ju--
jubileums--
jugo--
jul--
jun--
junior--
jury--
justitie--
jy--
k--
ka--
kabin--
kad--
kai--
kaj--
kala--
kalk--
kall--
kammar--
kamp--
kan--
kanal--
kano--
kant--
kap--
kapitu--
kar--
kara--
karl--
karls--
karol--
kas--
kaser--
kast--
kat--
katt--
kau--
kb--
kd--
ke--
kejsar--
kell--
kelt--
ken--
ker--
ket--
key--
kf--
kha--
kho--
ki--
kidna--
kihl--
kim--
kind--
kinne--
kir--
kirch--
kirgizi--
kirk--
kirur--
kit--
kl--
kla--
klar--
klass--
klem--
klie--
klin--
kling--
klipp--
klo--
klock--
klot--
klu--
klubb--
klum--
kly--
km--
kna--
kne--
kni--
kno--
knu--
knut--
kny--
ko--
koali--
kobay--
kod--
koe--
kok--
kol--
kolle--
kollekti--
kolon--
kom--
kommun--
kommunal--
kompi--
kompl--
komplem--
kompo--
kon--
koncent--
kongress--
konkur--
konst--
konsument--
kontra--
kontro--
konven--
konver--
koord--
koordina--
kopp--
koppar--
kor--
koreo--
korn--
korrespo--
korri--
kors--
kort--
kos--
kost--
kou--
koz--
kr--
kra--
kraft--
krans--
krea--
kredit--
krem--
krie--
krig--
krigss--
kring--
kris--
krist--
kro--
kromb--
krono--
kru--
kry--
kryss--
ks--
kt--
kta--
ku--
kul--
kull--
kulsp--
kultur--
kung--
kunga--
kunst--
kur--
kurs--
kust--
kuz--
kv--
kva--
kval--
kvant--
kvarn--
kvinn--
kvit--
kw--
ky--
kyck--
kyril--
kyrk--
kyrko--
l--
la--
lab--
laby--
lac--
lacco--
lad--
lag--
lager--
lam--
lan--
land--
landhockey--
lands--
landsti--
landt--
lang--
lant--
lapp--
lar--
las--
lasio--
last--
lat--
late--
lau--
laur--
law--
lax--
laza--
lb--
lbeva--
ld--
lder--
ldpa--
lds--
le--
lea--
leaf--
led--
legi--
legis--
leht--
lei--
leijon--
leio--
lek--
len--
leon--
lepid--
lept--
lepto--
leptoc--
ler--
les--
let--
leu--
leucan--
leuco--
leucoph--
leucos--
lev--
lex--
ley--
lf--
lg--
li--
lia--
lib--
lie--
lif--
life--
lig--
liga--
lij--
lik--
lika--
lil--
lilje--
lill--
lille--
lim--
limno--
lin--
lind--
linje--
lis--
lit--
litho--
litog--
litteratur--
liv--
live--
lj--
lja--
lje--
lju--
ljub--
ljud--
ljus--
lk--
lka--
ll--
lld--
lle--
lls--
lm--
lma--
ln--
lo--
lobo--
loc--
lock--
lod--
lof--
log--
loja--
lok--
lokal--
lomb--
lon--
loncho--
long--
loph--
lor--
los--
lot--
lott--
lou--
lov--
low--
lp--
ls--
lsa--
lse--
lskl--
lso--
lt--
lta--
lte--
lts--
lu--
luc--
luft--
lumb--
lund--
lust--
lute--
lv--
lva--
lvbetit--
lvs--
lvsty--
ly--
lyx--
læ--
lø--
m--
ma--
mac--
macro--
macu--
maculi--
mad--
mag--
magde--
magi--
magnet--
magni--
mah--
mai--
main--
maj--
makt--
mal--
mala--
malga--
malm--
man--
manif--
manipu--
mans--
manti--
mao--
map--
mar--
margi--
mari--
maria--
marin--
mark--
marlb--
mars--
mas--
maskin--
mass--
mat--
match--
matlag--
mau--
maur--
mauri--
maus--
max--
maxim--
may--
maz--
maza--
mb--
mbet--
mc--
md--
me--
med--
medel--
media--
medie--
medio--
mediter--
medveta--
mega--
mei--
mel--
melan--
mellan--
melol--
mem--
men--
menni--
mens--
mer--
mes--
mesop--
mesos--
met--
meta--
metall--
meteo--
meteoro--
mexi--
mi--
micr--
micro--
microc--
microgas--
microlepid--
microne--
microp--
micros--
mid--
mie--
mig--
mik--
mikro--
mil--
mill--
min--
mini--
minne--
mir--
miss--
mit--
mitt--
mittel--
mix--
miya--
mjuk--
mk--
ml--
mlik--
mm--
mma--
mn--
mnes--
mo--
mobil--
mod--
mode--
moder--
modifie--
modu--
mol--
mon--
mongo--
mono--
monoc--
mont--
monte--
mor--
mord--
morgon--
mos--
moss--
mot--
motor--
mottag--
mou--
mp--
mr--
ms--
mses--
mt--
mu--
mues--
mull--
mult--
multif--
multip--
multipli--
mun--
munk--
mur--
mus--
musei--
musik--
my--
myco--
mynt--
myrme--
myrmeco--
mysti--
mø--
n--
na--
nad--
naka--
nam--
namn--
nan--
nar--
narkotika--
nas--
nat--
national--
natt--
natur--
natuur--
nau--
navi--
nazi--
nb--
nd--
nda--
nder--
nds--
ndt--
ne--
nea--
nebu--
nect--
ned--
neder--
nedla--
nej--
nel--
nemer--
nemo--
neo--
neph--
nept--
ner--
nervsy--
nes--
net--
neu--
neuro--
neurop--
new--
news--
nf--
ng--
nga--
ngd--
ngelse--
ngs--
ngt--
ngtex--
ngu--
nh--
ni--
nia--
nicho--
nie--
nig--
nigri--
nigro--
nit--
nju--
nk--
nl--
nn--
nna--
nne--
nneteck--
nnis--
nnisko--
nns--
no--
nobel--
noct--
nog--
nogu--
nom--
nomine--
non--
nor--
nord--
normal--
norr--
norwe--
nos--
not--
notho--
nov--
novell--
ns--
nsk--
nsle--
nsmo--
nst--
nster--
nt--
nte--
nu--
numre--
nv--
nw--
ny--
nya--
nyck--
nyct--
nyfi--
nyko--
nymp--
nytt--
nz--
o--
oa--
oak--
ob--
obe--
obeb--
obeha--
ober--
obsc--
obser--
obtu--
oc--
och--
ockup--
oct--
ocu--
ode--
oden--
odo--
odont--
ody--
oec--
of--
ofant--
off--
offen--
og--
oh--
oi--
oj--
ok--
oka--
ol--
ola--
old--
olden--
ole--
olig--
olik--
oliv--
olje--
olof--
oly--
olycks--
om--
omar--
omed--
omgif--
omo--
omvand--
on--
ond--
one--
ono--
ont--
oo--
op--
ope--
open--
opera--
ophi--
opp--
opti--
or--
ora--
ord--
oregel--
oreo--
org--
orgel--
original--
orim--
orm--
ornitho--
oro--
ort--
os--
osa--
oscars--
osm--
ost--
oster--
osy--
ota--
ou--
out--
ov--
ova--
over--
ox--
oxi--
oxy--
oy--
oz--
p--
pa--
pach--
pachy--
pain--
pala--
palaeo--
paleo--
pali--
pall--
palm--
palp--
palu--
pamp--
pan--
pansar--
pap--
papy--
par--
para--
paris--
park--
parti--
parvi--
pas--
pass--
pat--
patria--
pau--
pauci--
pav--
pavil--
pay--
pc--
pe--
pect--
pedi--
pelar--
pellu--
peloponne--
pen--
penic--
penning--
penta--
per--
peric--
pers--
person--
pertu--
pet--
petio--
peu--
pey--
pf--
ph--
phae--
phaeno--
phanero--
phas--
phi--
phle--
pho--
phol--
phora--
phry--
phthira--
phy--
phyllo--
pi--
pia--
piano--
pic--
pie--
pik--
pilg--
pilgrim--
pimp--
pin--
pings--
pio--
pirat--
pit--
pl--
pla--
plagio--
plan--
platy--
play--
plea--
plec--
plei--
pleos--
plo--
plu--
plum--
plund--
plym--
pneu--
po--
poeci--
poj--
pol--
polar--
polis--
polit--
poly--
polyo--
pop--
por--
porphy--
port--
pos--
post--
poten--
pots--
pou--
poz--
pp--
ppel--
pr--
pra--
pract--
prakt--
praktise--
pre--
predi--
press--
pri--
prion--
pris--
privat--
pro--
proffs--
program--
projekt--
prom--
proso--
proto--
prov--
pry--
ps--
pseu--
pseudo--
pseudoc--
pseudon--
pseudop--
pseudos--
psi--
psy--
psycho--
psyko--
psyl--
pt--
pte--
ptero--
ptil--
ptole--
ptycho--
pu--
pub--
publik--
pulc--
pulv--
pump--
pun--
punct--
punctu--
punk--
pur--
purpu--
put--
py--
pyrr--
q--
qa--
qi--
qu--
quad--
quadri--
que--
qui--
qv--
r--
ra--
rad--
radia--
radio--
rads--
raf--
ragn--
rak--
raket--
ral--
ram--
rama--
ran--
rang--
rap--
rar--
ras--
rat--
ratze--
rau--
rav--
raw--
ray--
raz--
rb--
rba--
rber--
rbered--
rbi--
rbo--
rbru--
rbry--
rbunds--
rby--
rc--
rd--
rda--
rde--
rdig--
rds--
rdub--
re--
rea--
real--
rec--
red--
redo--
redovis--
reduce--
ref--
refer--
reg--
regel--
regem--
regi--
region--
regle--
regn--
regu--
rein--
reit--
reklam--
rekry--
rekryter--
rel--
relse--
ren--
rep--
res--
reserv--
rest--
ret--
retee--
reticu--
retir--
rev--
reva--
revide--
revol--
rf--
rfa--
rfals--
rfattar--
rflu--
rfly--
rfo--
rg--
rga--
rgy--
rha--
rhe--
rho--
rhy--
rhyn--
rhyncho--
ri--
ric--
riddar--
ridde--
rie--
rig--
rik--
riksban--
riksdags--
riksin--
riksm--
ril--
rim--
rin--
ring--
rings--
ris--
risk--
rit--
ritu--
rivu--
rje--
rk--
rka--
rke--
rkni--
rko--
rks--
rksam--
rkun--
rl--
rla--
rld--
rldshi--
rldsl--
rlik--
rlit--
rlo--
rlogs--
rloss--
rm--
rma--
rme--
rmed--
rmid--
rmo--
rmy--
rn--
rne--
rns--
rnye--
ro--
roa--
road--
rob--
rock--
rod--
roll--
rom--
ron--
rop--
ror--
rord--
ros--
rosa--
rose--
rosen--
roski--
rost--
rot--
roth--
rou--
rov--
row--
rox--
rpa--
rr--
rra--
rre--
rrege--
rs--
rsa--
rse--
rsik--
rska--
rski--
rskju--
rso--
rsredovis--
rst--
rsta--
rste--
rsto--
rsum--
rsy--
rt--
rtju--
rtro--
rts--
rtvi--
ru--
rubi--
rubr--
rubro--
rufi--
rufo--
rugo--
rum--
run--
rund--
rus--
rut--
rv--
rva--
rvand--
rver--
rvi--
rwa--
ry--
rygg--
rykt--
rymd--
ryt--
rz--
rð--
rø--
s--
sa--
sach--
sacr--
sagi--
sago--
sahl--
sai--
sak--
sal--
sala--
salt--
sam--
samarbet--
same--
samman--
san--
sand--
sangu--
sapo--
sar--
sas--
sati--
sau--
saw--
sax--
say--
sb--
sc--
scab--
scand--
scap--
scar--
scat--
scen--
sch--
scha--
schack--
sche--
schen--
schi--
schim--
schiz--
schizop--
schl--
schle--
schm--
schn--
scho--
schr--
schu--
schwa--
schwe--
sci--
scler--
sco--
scol--
scop--
scor--
scri--
scu--
scute--
scy--
sd--
se--
sea--
sec--
sed--
sedim--
see--
segel--
segm--
sei--
sek--
sel--
semi--
sen--
sencken--
sep--
separe--
ser--
seric--
serie--
sertu--
ses--
set--
settle--
sex--
sey--
seyche--
sf--
sg--
sh--
sha--
shah--
she--
shelf--
shet--
shi--
sho--
shoo--
show--
shu--
si--
sia--
sibi--
sic--
sid--
sie--
sieg--
sig--
signal--
sik--
silf--
silv--
silver--
sim--
simris--
simu--
sin--
singel--
siph--
sir--
sis--
sit--
site--
sj--
sjo--
sju--
sjuk--
sk--
ska--
skade--
skal--
skand--
skape--
skar--
skatt--
ske--
sken--
ski--
skids--
skill--
skinn--
skju--
sko--
skog--
skogs--
skol--
skor--
skr--
skrid--
skrif--
skriv--
sku--
skum--
skur--
skvad--
sky--
skytte--
sl--
sla--
slag--
slav--
sling--
slip--
slo--
slu--
slut--
sm--
sma--
smak--
smed--
smedje--
smic--
smit--
smo--
smut--
smy--
sn--
sna--
snic--
sno--
snow--
snur--
sny--
so--
social--
socio--
sohl--
sok--
sol--
solo--
som--
some--
sommar--
son--
song--
sor--
sorg--
sot--
sou--
south--
sov--
sovjet--
sp--
spa--
spanjor--
spea--
spec--
special--
spek--
speku--
spel--
spelar--
sper--
spha--
sphaero--
sphe--
spie--
spil--
spill--
spin--
spio--
spir--
spirostrep--
splen--
splin--
spo--
sport--
spri--
squ--
sr--
ss--
sse--
ssle--
st--
sta--
staat--
stad--
stads--
stall--
stam--
stan--
star--
start--
stat--
stats--
stav--
ste--
sten--
ster--
sti--
stict--
stifts--
stig--
stil--
stimu--
stjer--
sto--
stor--
storm--
str--
stra--
straff--
strand--
strej--
stridig--
strig--
strim--
stro--
strum--
stry--
sts--
stu--
student--
studie--
studio--
sty--
styr--
su--
sua--
sub--
sud--
sue--
suff--
sui--
sul--
sum--
sun--
sund--
super--
sur--
sus--
sv--
sva--
svamp--
svart--
svea--
sven--
svensk--
sver--
svet--
sw--
swa--
swed--
swim--
sy--
syd--
sylv--
symmet--
symp--
syn--
syria--
syss--
system--
syster--
sz--
sza--
sze--
sø--
t--
ta--
tab--
tack--
taenio--
tag--
tai--
tak--
takt--
tal--
tall--
tamb--
tan--
tangent--
tank--
tar--
tardig--
tas--
tat--
tau--
te--
teac--
teater--
teborgs--
teck--
tect--
tegel--
teknik--
tel--
teleg--
telegraf--
temp--
tempe--
ten--
tennis--
teph--
ter--
terri--
tes--
test--
tet--
tetra--
tetti--
teu--
text--
textil--
tf--
th--
tha--
thaum--
the--
theat--
theis--
thelot--
thely--
thes--
thie--
tho--
thomi--
thor--
thril--
thu--
thy--
ti--
tid--
tids--
tie--
til--
till--
tim--
tin--
tings--
tio--
tisd--
tit--
titel--
tja--
tje--
tjeck--
tjer--
tjock--
tju--
tn--
to--
toku--
tol--
tom--
ton--
top--
topog--
topp--
tor--
torn--
torp--
torr--
torym--
tos--
tot--
tou--
tr--
tra--
trachy--
trafik--
trage--
trans--
transport--
trapp--
trav--
tre--
trefa--
trev--
tri--
tria--
trian--
tric--
trich--
trichoc--
trichog--
trie--
trif--
trig--
trigon--
trigono--
trik--
tril--
trim--
trip--
trit--
trium--
triv--
tro--
troll--
tron--
tros--
tru--
trum--
trun--
try--
tryck--
ts--
tski--
tt--
ttar--
tte--
tter--
tts--
tu--
tubercu--
tull--
tum--
tuni--
tunn--
tur--
turist--
tv--
tva--
tvek--
tvill--
tvilling--
twe--
twi--
ty--
tyg--
tyngd--
typ--
typog--
tyran--
tz--
u--
ub--
ud--
ugg--
uk--
ul--
ulf--
ull--
ulrice--
ult--
um--
un--
unci--
und--
under--
undu--
ung--
ungdoms--
unic--
unter--
up--
upp--
uppdate--
uppenba--
uppfinn--
upplev--
uppmun--
uppskju--
ur--
ura--
uri--
urindo--
us--
uss--
ut--
utarb--
ute--
utg--
utgif--
uti--
utlands--
utma--
utom--
utrikes--
utrus--
utslock--
utsmy--
uttag--
utva--
utvid--
utvis--
uu--
v--
va--
vacc--
vad--
vakt--
val--
valdelta--
vall--
vampy--
van--
vapen--
var--
vara--
vardags--
varg--
varm--
vart--
varu--
vas--
vasa--
vat--
vatten--
vattenpolo--
vau--
vax--
ve--
vecko--
ved--
veg--
vel--
vem--
ven--
venet--
ver--
verb--
verk--
vero--
verras--
verru--
vers--
verta--
verte--
vertyg--
verze--
ves--
vet--
vg--
vi--
via--
vic--
vice--
vid--
vidare--
video--
vie--
view--
vik--
vikt--
vil--
vild--
villa--
vin--
vind--
vings--
vinst--
vinter--
viri--
virtu--
vis--
visco--
viss--
vit--
vitt--
vla--
vle--
vm--
vo--
vol--
volks--
vor--
vp--
vr--
vra--
vre--
vs--
vt--
vu--
vulka--
vy--
w--
wa--
wahl--
wahle--
wald--
wall--
war--
was--
we--
web--
webb--
wedd--
wei--
wen--
wenner--
west--
wester--
wet--
wetter--
whe--
whit--
white--
wi--
wick--
wid--
wide--
wie--
wiki--
wil--
wild--
wimb--
win--
wit--
witt--
wo--
wood--
worc--
world--
wri--
wu--
wy--
x--
xa--
xant--
xantho--
xanthop--
xel--
xen--
xeno--
xi--
xiao--
xor--
xt--
xu--
xx--
xy--
xylo--
y--
ya--
yan--
ye--
yi--
ym--
yng--
yo--
yoko--
yoshi--
ytter--
yu--
yun--
yx--
z--
za--
ze--
zepp--
zetter--
zh--
zi--
zo--
zom--
zon--
zoo--
zor--
zu--
zwei--
zy--
zygo--
ß--
æ--
ð--
ø--
þ--
ł--
ſ--
τ--
а--
в--
г--
го--
д--
е--
з--
за--
к--
ка--
ко--
л--
м--
ма--
н--
о--
п--
па--
пр--
р--
рос--
с--
ск--
ст--
т--
чес--
ا--
ب--
--0
--00
--01
--02
--03
--04
--05
--06
--07
--08
--09
--1
--10
--11
--12
--13
--14
--15
--16
--17
--18
--19
--2
--20
--21
--22
--23
--24
--25
--26
--27
--28
--29
--3
--30
--31
--32
--33
--34
--35
--36
--37
--38
--39
--4
--40
--41
--42
--43
--44
--45
--46
--47
--48
--49
--5
--50
--51
--52
--53
--54
--55
--56
--57
--58
--59
--6
--60
--61
--62
--63
--64
--65
--66
--67
--68
--69
--7
--70
--71
--72
--73
--74
--75
--76
--77
--78
--79
--8
--80
--81
--82
--83
--84
--85
--86
--87
--88
--89
--9
--90
--91
--92
--93
--94
--95
--96
--97
--98
--99
--a
--aa
--aan
--aari
--ab
--abe
--abla
--able
--ac
--aca
--acea
--aceae
--ach
--achne
--achus
--achys
--acio
--ad
--ada
--ade
--ades
--adi
--ado
--ados
--ads
--adt
--ae
--aea
--aenia
--aeta
--aeus
--af
--afa
--ag
--aga
--age
--agen
--agi
--agit
--agne
--ago
--ah
--ahl
--ai
--ail
--aire
--ais
--aj
--aja
--ak
--aka
--aker
--aki
--aktigt
--al
--ala
--alande
--ald
--ale
--alen
--ales
--alia
--alis
--all
--alo
--alt
--alus
--am
--ama
--ame
--ami
--amma
--amn
--ams
--amt
--amus
--an
--ana
--ance
--and
--ande
--ane
--anea
--anen
--aner
--anes
--ang
--ani
--ania
--anisation
--anla
--ann
--ano
--anov
--ans
--ansk
--anska
--ant
--anter
--anum
--anus
--anza
--ao
--ap
--apa
--apus
--aq
--ar
--ara
--ard
--are
--aren
--ari
--aria
--arie
--aris
--arisk
--ariska
--arius
--arna
--arnas
--arne
--arpa
--arpus
--ars
--art
--arum
--ary
--as
--asco
--ase
--asi
--asis
--asjo
--ast
--aste
--aster
--at
--ata
--atan
--ate
--atea
--ated
--ates
--atet
--ath
--ati
--ation
--ationen
--ationer
--ations
--ativ
--ato
--ator
--ats
--atum
--atur
--aturen
--atus
--au
--aud
--aurus
--aux
--ava
--ave
--aw
--awa
--ax
--ay
--aya
--az
--b
--ba
--back
--bad
--baggar
--bana
--banan
--band
--bank
--banken
--bar
--bara
--bart
--bas
--base
--baum
--bb
--bba
--bbe
--be
--ben
--berg
--bergs
--bes
--beso
--bet
--bi
--bia
--bie
--bien
--bil
--bild
--bin
--bius
--bjo
--bl
--bla
--blad
--bladet
--blatt
--ble
--bo
--boa
--boda
--bok
--boken
--bom
--book
--bor
--borg
--bosta
--bour
--bourg
--bourne
--br
--bra
--bria
--bro
--bron
--bror
--bruk
--bryn
--bs
--bu
--buch
--burg
--bury
--bus
--by
--byn
--byra
--c
--ca
--cal
--cas
--cco
--ccus
--ce
--cea
--ceae
--cen
--cens
--cephalus
--cer
--cera
--cerus
--ces
--ceus
--ch
--cha
--che
--chef
--chen
--ches
--chi
--chia
--chii
--chs
--cht
--chus
--chya
--chys
--ci
--cia
--ciaceae
--cifix
--cina
--cio
--cis
--cium
--ck
--cke
--cki
--cky
--co
--coccus
--cq
--cra
--craft
--crantz
--cris
--cs
--ct
--cta
--ctes
--ctic
--ction
--ctions
--ctis
--ctus
--ctylus
--cu
--cula
--culatus
--culus
--cum
--cup
--cupen
--cus
--cy
--d
--da
--dactylus
--dae
--dag
--dagen
--dahl
--dai
--dal
--dals
--dan
--data
--day
--db
--dd
--de
--dea
--del
--delen
--den
--denia
--der
--des
--det
--dge
--dh
--dhi
--dhism
--di
--dia
--didae
--dier
--dii
--din
--dion
--direkt
--dis
--disk
--dium
--dius
--djur
--dl
--dlar
--dle
--dna
--dne
--do
--dom
--don
--dor
--dorf
--dos
--dot
--doxa
--dr
--dra
--drivna
--dro
--dron
--ds
--dt
--du
--dula
--dus
--dy
--dyla
--e
--ea
--eae
--eal
--ean
--eana
--eau
--eb
--eba
--eberg
--ebergs
--ebo
--eby
--ec
--eca
--ech
--eck
--ecta
--ective
--ed
--edel
--edin
--edo
--edon
--eds
--edt
--ee
--eer
--ees
--eet
--efo
--eg
--ega
--egation
--ege
--eger
--egia
--egium
--eh
--eho
--ei
--eia
--eidae
--ein
--eira
--eiro
--eis
--eius
--ejo
--ek
--eka
--eklar
--el
--ela
--ele
--elig
--elius
--ell
--ella
--elli
--ello
--ellt
--ellus
--eln
--elo
--els
--elt
--elus
--em
--ema
--ement
--emon
--emus
--en
--ena
--enad
--enc
--ence
--ences
--end
--eni
--enia
--enius
--enne
--ennis
--eno
--ens
--ense
--ensis
--enson
--enssta
--enstein
--ent
--enten
--enter
--enus
--enys
--eo
--eon
--ep
--epec
--er
--era
--erad
--erade
--erades
--erande
--erar
--erare
--eras
--erat
--erats
--ere
--eres
--erg
--eri
--eria
--erie
--erien
--erier
--eriet
--erin
--erina
--ering
--eringar
--eringen
--eris
--erlig
--erma
--ern
--erna
--ernas
--erne
--ernus
--ero
--ers
--ert
--erum
--erup
--erus
--ery
--es
--esa
--escens
--ese
--esi
--esia
--ess
--essan
--est
--esta
--et
--eta
--ete
--eten
--eter
--etes
--eth
--eti
--etia
--etid
--etik
--eto
--ets
--ett
--etta
--ette
--etti
--ettia
--etus
--eum
--eura
--eus
--eux
--ev
--eva
--evitj
--ew
--ex
--examen
--ey
--eyi
--ez
--f
--fa
--fall
--far
--fc
--fe
--feld
--feldt
--fem
--fen
--fer
--ff
--ffa
--fi
--field
--fik
--fil
--film
--fix
--fja
--fla
--flicksla
--flo
--floden
--flugor
--fly
--fo
--fon
--form
--fors
--fotingar
--fra
--fri
--fs
--ft
--fter
--fu
--fua
--ful
--full
--g
--ga
--gaard
--gade
--gae
--galan
--gan
--gar
--gas
--gatan
--gate
--gav
--gbn
--gd
--gda
--ge
--gel
--gen
--ger
--ges
--get
--gg
--gh
--ght
--gi
--gia
--gidae
--gie
--gii
--gin
--git
--gits
--gius
--gligt
--gn
--gna
--gne
--gnos
--gny
--go
--gor
--gos
--gr
--gra
--gren
--gro
--grupp
--gruppen
--gs
--gt
--gton
--gts
--gu
--gua
--gues
--gul
--gus
--gy
--h
--ha
--haceae
--hae
--hagus
--hai
--hal
--hall
--ham
--haus
--hausen
--he
--hea
--head
--hed
--heet
--heim
--hem
--hen
--her
--hera
--hes
--het
--heten
--hetens
--heter
--hets
--hi
--hia
--hias
--hic
--hidae
--hidium
--hielm
--hila
--hild
--hilus
--hin
--hina
--hinus
--hip
--his
--historia
--hiza
--hja
--hjelm
--hl
--hlops
--hm
--hn
--hna
--ho
--hoe
--hof
--holm
--holms
--hood
--hr
--hra
--hrus
--hs
--ht
--hti
--hu
--huis
--hum
--hus
--huset
--hy
--hya
--hylla
--hyllum
--hynchus
--i
--ia
--iac
--iaceae
--iae
--ial
--iam
--ian
--iana
--ians
--ianska
--ianum
--ianus
--iard
--ias
--iata
--iatus
--ib
--ibald
--ible
--ibus
--ic
--ica
--ical
--icauda
--ice
--iceps
--icera
--ich
--ici
--icia
--icis
--ick
--ico
--icola
--icollis
--icornis
--ics
--icta
--ictus
--icula
--icum
--icus
--id
--ida
--idae
--ide
--idea
--iden
--ider
--ides
--idge
--idi
--idia
--ididae
--idig
--idis
--idium
--ido
--ids
--idum
--idus
--ie
--iea
--ied
--iel
--iell
--iella
--iellt
--ien
--ience
--iens
--iensis
--ier
--iera
--ieren
--ieri
--ierna
--iers
--ies
--iet
--iets
--ieu
--if
--ifer
--ifera
--iff
--ificera
--ificeras
--ified
--ifikation
--iflora
--ifna
--ifolia
--ifolium
--iformis
--ifrons
--ift
--ifva
--ify
--ig
--iga
--igare
--ige
--iger
--igh
--ighet
--ight
--igma
--igona
--igs
--igt
--ii
--iidae
--iinae
--iini
--ij
--ija
--ik
--ika
--ike
--ikel
--iken
--iker
--iki
--iko
--ikt
--il
--ila
--ild
--ile
--iler
--ili
--ilia
--ilier
--ilis
--ill
--ille
--illo
--ilo
--ils
--ilus
--im
--ima
--imal
--ime
--imer
--imo
--imum
--imus
--in
--ina
--inae
--inata
--ine
--inea
--iner
--ines
--info
--ing
--ingar
--ingen
--ingham
--ings
--ington
--ini
--inia
--inis
--inism
--ink
--inna
--ino
--ins
--inum
--inus
--io
--ioides
--iol
--iola
--ion
--ional
--ionen
--ioner
--ions
--iopsis
--ior
--ios
--ious
--ip
--ipa
--ipennis
--ipes
--ique
--iques
--ir
--ira
--ire
--ires
--iri
--iro
--irostris
--is
--isation
--isch
--ische
--ischen
--ischer
--isches
--iscus
--ise
--isera
--iserad
--iserade
--iserades
--iserar
--iseras
--iserat
--isering
--ish
--isi
--isia
--ision
--isk
--iska
--iske
--iskt
--ism
--ismen
--ismens
--iss
--issa
--ist
--isten
--ister
--isterna
--istisk
--istiska
--istiskt
--ists
--it
--ita
--ite
--ited
--iten
--iter
--ites
--itet
--iteten
--iteter
--ith
--itia
--itiera
--ities
--ition
--itla
--ito
--iton
--itor
--itra
--its
--itt
--itum
--itus
--itution
--ity
--itz
--iu
--iulus
--ium
--ius
--iv
--iva
--ive
--ivt
--ix
--iya
--iz
--iza
--ization
--ize
--ized
--j
--ja
--jaure
--je
--jev
--ji
--jn
--jo
--joki
--jon
--js
--ju
--jur
--k
--ka
--kad
--kal
--kan
--kap
--kapet
--kar
--karria
--kas
--kat
--ke
--ked
--kees
--kel
--kell
--keln
--ken
--kepp
--ker
--kern
--kes
--ket
--kh
--ki
--kien
--kii
--kij
--kin
--kins
--kio
--kis
--kiv
--kk
--kla
--kle
--kler
--klubb
--kn
--knecht
--ko
--kod
--kog
--kok
--kom
--komst
--kor
--kort
--kott
--kov
--kr
--kra
--kraft
--kret
--krift
--krifter
--kriget
--krigstiden
--kro
--ks
--kt
--kta
--ktig
--ktion
--ktor
--ku
--kupp
--kus
--kva
--kvist
--ky
--kyrkan
--l
--la
--lade
--lae
--lag
--lagen
--laget
--lan
--lana
--land
--lar
--las
--lav
--lay
--lberg
--lco
--ld
--lda
--ldt
--le
--lea
--led
--ledare
--lei
--lek
--lem
--len
--lepis
--ler
--lerna
--les
--less
--let
--lexikon
--ley
--lf
--li
--lia
--lica
--lick
--lid
--life
--lig
--liga
--ligan
--lige
--ligen
--lighet
--ligt
--lii
--lin
--line
--ling
--lio
--lis
--lius
--liv
--lk
--ll
--lla
--lle
--lli
--llia
--llidae
--llis
--llo
--llt
--llum
--llus
--lly
--lm
--lma
--lmen
--lms
--ln
--lna
--lo
--log
--logi
--lon
--loo
--lopp
--loppor
--lor
--lora
--ls
--lse
--lser
--lt
--lten
--lton
--lu
--lum
--lund
--luoto
--lus
--ly
--lys
--m
--ma
--maa
--man
--mande
--mang
--mann
--mannen
--mar
--mare
--mark
--maskar
--mat
--matisk
--mba
--mbe
--mbo
--mbon
--me
--mea
--med
--meier
--men
--ment
--mer
--met
--metry
--mi
--mia
--mic
--mica
--min
--mis
--mist
--mit
--mium
--mix
--mma
--mme
--mn
--mnus
--mo
--mojo
--mon
--mor
--morpha
--mos
--mot
--mp
--mps
--mra
--ms
--mt
--mu
--mum
--mur
--mus
--museet
--museum
--musik
--my
--myia
--mys
--n
--na
--nad
--nae
--nais
--nal
--namn
--nan
--nar
--nas
--nat
--naut
--nay
--nburg
--nc
--nce
--ncta
--ncy
--nd
--nda
--nde
--nden
--nder
--ndes
--ndet
--ndi
--ndia
--ndla
--ndo
--nds
--ne
--nea
--nell
--nella
--nema
--nen
--ner
--nerna
--nes
--ness
--net
--neura
--news
--ney
--nfa
--ng
--nga
--nge
--ngo
--nha
--nho
--ni
--nia
--nic
--nica
--nicus
--nidae
--nii
--nik
--nil
--nin
--ning
--nini
--nis
--nisation
--nische
--nischen
--nisk
--nism
--nium
--nius
--niva
--nk
--nke
--nkit
--nla
--nn
--nna
--nnade
--nnen
--nni
--no
--nol
--non
--nor
--nos
--nr
--ns
--nsch
--nse
--nsia
--nsis
--nsk
--nska
--nt
--nta
--nte
--nten
--ntha
--nthus
--nti
--ntia
--ntis
--nto
--nton
--ntosa
--ntra
--ntris
--ntus
--ntz
--nu
--num
--nus
--nuta
--nva
--nx
--ny
--nytt
--nz
--nza
--o
--oa
--oba
--obi
--obia
--obius
--oc
--occus
--oce
--ocerus
--ock
--od
--oda
--odes
--odon
--ody
--oe
--of
--off
--og
--ogen
--ogh
--ogi
--ogie
--ogon
--ogr
--ografi
--ogue
--ogy
--oi
--oid
--oidea
--oides
--oir
--ok
--oke
--ol
--ola
--olf
--oli
--olia
--olis
--olium
--olm
--olo
--olog
--ologi
--ologia
--ology
--olor
--olt
--olus
--om
--oma
--ome
--omes
--ometern
--omi
--omia
--omma
--omorpha
--omra
--omus
--omyia
--omys
--on
--ona
--one
--oner
--ong
--oni
--onia
--onii
--onis
--oniscus
--onne
--ons
--onus
--onyx
--oo
--oon
--op
--opa
--ope
--operan
--ophila
--ophilus
--ophylla
--ophyllum
--opia
--opoda
--opogon
--opol
--ops
--opsis
--or
--ora
--orca
--ord
--ore
--ored
--orer
--orf
--orget
--ori
--oria
--orio
--oris
--orisk
--orium
--orn
--orna
--ornis
--orp
--orpa
--orpha
--orps
--ors
--ort
--orum
--orus
--ory
--os
--osa
--ose
--osia
--oslav
--oso
--osoma
--osum
--osus
--ot
--ota
--ote
--oth
--otis
--oto
--ott
--otti
--otus
--ou
--ous
--out
--oux
--ov
--ova
--ovi
--ovic
--ovich
--ovitj
--ovitz
--ovna
--ovo
--ow
--ows
--ox
--oxys
--oy
--p
--pa
--pad
--pade
--pan
--par
--park
--pas
--pe
--pec
--pective
--pei
--pel
--pen
--per
--pes
--pet
--ph
--pha
--phalus
--phe
--phes
--phis
--phora
--phorus
--phus
--phyllum
--pi
--ping
--pis
--pja
--pla
--plan
--plats
--ple
--plex
--pn
--po
--poa
--poda
--pogon
--pol
--pon
--pona
--pool
--por
--pora
--port
--post
--posten
--pp
--ppe
--pra
--pris
--priset
--ps
--psa
--psis
--pt
--pta
--ptera
--pton
--ptus
--pur
--pus
--py
--pyga
--q
--qua
--que
--quist
--qvist
--r
--ra
--rad
--rada
--rade
--rae
--rafi
--rai
--ram
--ran
--rar
--rarna
--ras
--rat
--rata
--rats
--rbetare
--rchy
--rd
--rdi
--rdia
--re
--rea
--red
--reh
--rei
--rejo
--rella
--ren
--rer
--rera
--rerade
--rerar
--res
--ret
--reus
--rg
--rga
--rge
--rgs
--rgus
--rhein
--rhiza
--ri
--ria
--rian
--riana
--ricensis
--ricum
--rid
--rie
--riella
--rier
--ries
--riet
--rig
--rii
--riidae
--rij
--rik
--rin
--rina
--rinae
--ring
--rio
--ris
--rit
--rium
--rius
--rix
--rk
--rl
--rley
--rm
--rma
--rmo
--rmus
--rn
--rna
--rnas
--rne
--rnis
--ro
--roa
--romis
--ron
--rop
--ror
--rorum
--ros
--rous
--rov
--rp
--rpha
--rphus
--rps
--rr
--rra
--rs
--rsis
--rsta
--rt
--rta
--rter
--rth
--rtus
--ru
--ruera
--ruerad
--rum
--rup
--rus
--rv
--rva
--ry
--ryd
--ryds
--rygidae
--rys
--ryx
--s
--sa
--sad
--saffa
--sam
--samhet
--samt
--san
--sanla
--sar
--sarbete
--sarbetet
--sari
--sarkiv
--sat
--sba
--sbanan
--sbar
--sberg
--sbergs
--sbesta
--sbo
--sbok
--sboken
--sbolag
--sbolaget
--sborg
--sbrev
--sbro
--sbron
--sbrott
--sbruk
--sburg
--sbyggnad
--sbyggnaden
--sbyra
--sch
--sche
--schef
--schefen
--schen
--schi
--schrift
--sco
--scus
--sdag
--sdagen
--sdepartementet
--sdjur
--sdo
--sdorf
--sdotter
--se
--sekonomi
--sema
--sen
--ser
--sera
--seras
--serie
--serien
--set
--sexamen
--sey
--sfa
--sfartyg
--sfo
--sform
--sfra
--sfull
--sfulla
--sfullt
--sga
--sgatan
--sgra
--sgrad
--sgrupp
--sh
--sha
--shi
--shire
--shistoria
--sho
--sholm
--sholms
--shus
--shuset
--shuvudort
--si
--sia
--sida
--side
--sien
--sigt
--sii
--sim
--sindustrin
--singenjo
--sinstitut
--sion
--sis
--sius
--sja
--sjo
--sk
--ska
--skan
--skap
--skapet
--skarria
--ske
--ski
--skjo
--sklubb
--sko
--skog
--skola
--skolan
--skommitte
--skonst
--skontor
--skriget
--skt
--skva
--sky
--skyrkan
--sl
--sla
--slag
--sle
--sledare
--sler
--sley
--slig
--sliga
--slin
--slista
--sliv
--slo
--sm
--sma
--sman
--smannen
--smark
--smatch
--smaterial
--sme
--smed
--smedel
--smiljo
--sminister
--smo
--smus
--smuseet
--smuseum
--sna
--snamn
--sniva
--so
--sodes
--som
--soma
--somra
--son
--sons
--sord
--sort
--spa
--spartiet
--spel
--spelare
--speriod
--spis
--splan
--splats
--splatsen
--splatser
--spolitik
--spra
--spresentation
--spris
--sprogram
--sprogrammet
--sprojekt
--sra
--sregister
--sro
--srum
--ss
--ssa
--ssamha
--sse
--ssekreterare
--sser
--sserat
--ssi
--ssion
--sska
--ssko
--sskola
--sskolan
--sskrift
--sso
--sson
--ssons
--sspel
--sspra
--ssta
--sstation
--sstatistik
--ssto
--ssum
--ssus
--ssystem
--ssystemet
--st
--sta
--stad
--stam
--star
--stat
--stavla
--ste
--steknik
--sten
--ster
--stid
--stiden
--stil
--stillsta
--stis
--stja
--sto
--ston
--stone
--storp
--stra
--stro
--stus
--su
--sum
--sund
--sus
--sutskottet
--sutsta
--sva
--sval
--sverk
--sverket
--sverksamhet
--svik
--sville
--svis
--swick
--sy
--syra
--t
--ta
--taceae
--tad
--tade
--taden
--tads
--tae
--tag
--tak
--tal
--talet
--tals
--tam
--tan
--tar
--tas
--tat
--tation
--tator
--tava
--tch
--te
--tea
--ted
--tedt
--teg
--tein
--tek
--teles
--ten
--tepec
--ter
--tera
--terar
--terat
--tes
--tet
--tettix
--teus
--tex
--text
--th
--tha
--thus
--ti
--tia
--tic
--tica
--ticus
--tid
--tiden
--tier
--tierna
--ties
--tig
--tiga
--tigt
--tii
--tik
--til
--timing
--tin
--tion
--tionen
--tioner
--tions
--tis
--tische
--tisk
--tiska
--tiskt
--tism
--tium
--tius
--tiv
--tiva
--tive
--tivt
--tix
--tj
--tja
--tl
--tla
--tle
--tlig
--tm
--to
--tock
--tog
--ton
--tone
--tor
--torn
--torp
--tos
--town
--tr
--tra
--trand
--tre
--tri
--tria
--tris
--trix
--tro
--trum
--try
--ts
--tsa
--tsen
--tsu
--tt
--tta
--tte
--tti
--ttia
--ttis
--tts
--tu
--tula
--tulus
--tum
--tur
--turne
--tus
--tva
--ty
--tylis
--typ
--tyr
--tyre
--tz
--tzen
--u
--ua
--ual
--uan
--uar
--uata
--ub
--ubu
--uc
--uca
--ucera
--ucerar
--uch
--ucta
--uction
--ud
--uda
--ude
--udo
--uds
--ue
--uel
--uen
--uer
--ues
--uf
--ug
--uga
--ugh
--ught
--ui
--uia
--uil
--uin
--uja
--uk
--ul
--ula
--ulae
--ule
--uli
--ull
--ulosa
--ult
--ulum
--ulus
--um
--uma
--ument
--umna
--ums
--un
--una
--und
--une
--ung
--uns
--uo
--uoto
--up
--ups
--ur
--ura
--ure
--urea
--uren
--urg
--urgi
--uri
--urier
--uring
--uro
--urs
--urus
--us
--usca
--usen
--usia
--usion
--ust
--ut
--utga
--uti
--uto
--utsta
--utus
--utz
--uum
--uus
--uv
--ux
--uy
--uz
--v
--va
--val
--valet
--vall
--van
--vapen
--var
--ve
--ved
--ven
--ver
--verk
--vet
--vetare
--vi
--via
--viana
--vid
--view
--vig
--vik
--viken
--viks
--vikt
--ville
--vin
--vior
--vir
--vis
--vit
--vma
--vna
--vo
--vs
--vtal
--vulus
--vus
--vy
--w
--wa
--wald
--wall
--wan
--wat
--way
--we
--web
--weight
--well
--wer
--wi
--wia
--wich
--wick
--wit
--witz
--wn
--wo
--wood
--worth
--ws
--wy
--x
--xa
--xamen
--xe
--xen
--xi
--xia
--xid
--xis
--xo
--xylon
--xylum
--y
--ya
--yan
--yar
--yard
--yas
--ychus
--yd
--yds
--ye
--yensis
--yer
--yg
--yga
--yggd
--yi
--yia
--yk
--yl
--yla
--ylis
--yllum
--ylus
--ym
--yn
--yna
--yne
--yns
--yo
--yon
--yp
--ypha
--ypus
--yr
--yra
--ys
--ysa
--yst
--ystem
--ystemet
--yt
--yta
--yte
--ytt
--yu
--yx
--yza
--z
--za
--zan
--zar
--ze
--zel
--zen
--zer
--zi
--zia
--zii
--zin
--zo
--zt
--zu
--zy
--zz
--zzo
--ß
--ße
--æ
--ær
--ð
--ø
--þ
--ı
--α
--ς
--а
--ать
--в
--ва
--го
--д
--е
--еи
--и
--ии
--к
--ка
--кии
--м
--ми
--н
--ныи
--о
--ои
--р
--скии
--т
--та
--ти
--ть
--у
--х
--ы
--ыи
--ь
--ю
--я
--і
--א
--د
--ر
--ن
--ه
--ی
