!
"
#
##0
##1
##10
##11
##12
##13
##14
##15
##16
##17
##18
##19
##2
##20
##21
##22
##23
##24
##25
##26
##27
##28
##29
##3
##30
##31
##32
##33
##34
##35
##36
##37
##38
##39
##4
##40
##41
##42
##43
##44
##45
##46
##47
##48
##49
##5
##50
##51
##52
##53
##54
##55
##56
##57
##58
##59
##6
##60
##61
##62
##63
##64
##65
##66
##67
##68
##69
##7
##70
##71
##72
##73
##74
##75
##76
##77
##78
##79
##8
##80
##81
##82
##83
##84
##85
##86
##87
##88
##89
##9
##90
##91
##92
##93
##94
##95
##96
##97
##98
##99
$
%
&
'
(
)
*
+
,
-
.
/
0
00
000
001
00187
00190
002
00200
003
004
005
006
007
008
009
01
010
011
013
02
023
024
03
030194
04
0435
0450
05
0558
06
066667
07
071
08
083333
084
09
1
10
100
1000
100000
1001
1002
1003
1004
1007
1009
101
1010
1011
1012
1014
1015
1016
1017
1018
1019
102
1020
1021
1024
1025
1026
1027
103
1030
1031
1032
1034
1035
1036
1037
1038
1039
104
1040
1042
1044
1045
1046
1047
105
1050
1051
1054
1055
1056
1057
1059
106
1060
1063
1065
1066
1067
107
1070
1071
1072
1073
1075
1076
1077
1078
108
1080
1081
1084
1085
1086
1087
1088
1089
109
1090
1091
1092
1093
1094
1095
1096
1097
1098
1099
11
110
1100
1101
1102
1103
1104
1105
1106
1107
1108
1109
111
1110
1111
1112
1113
1115
1116
1117
1118
1119
112
1120
11203
1121
1122
1123
1124
1125
1126
1127
1128
1129
113
1130
1131
1133
1134
1135
1136
1137
1138
1139
114
1140
1141
1142
1143
1144
1145
1146
1147
1148
1149
115
1150
1151
1152
1153
1154
1155
1156
1157
1158
1159
116
1160
1161
1162
1163
1164
1165
1166
1167
1168
1169
117
1170
1171
1172
1173
1174
1175
1176
1177
1178
1179
118
1180
1181
1182
1183
1184
1185
1186
1187
1188
1189
119
1190
1191
1192
1193
1194
1195
1196
1197
1198
1199
12
120
1200
1201
1202
1203
1204
1205
1206
1207
1208
1209
121
1210
1211
1212
1213
1214
1215
1216
1217
1218
1219
122
1220
1221
1222
1223
1224
1225
1226
1227
1228
1229
123
1230
1231
1232
1233
1234
1235
1236
1237
1238
1239
124
1240
1241
1242
1243
1244
1245
1246
1247
1248
1249
125
1250
1251
1252
1253
1254
1255
1256
1257
1258
1259
126
1260
1261
1262
1263
1264
1265
1266
1267
1268
1269
127
1270
1271
1272
1273
1274
1275
1276
1277
1278
1279
128
1280
1281
1282
1283
1284
1285
1286
1287
1288
1289
129
1290
1291
1292
1293
1294
1295
1296
1297
1298
1299
13
130
1300
1301
1302
1303
1304
1305
1306
1307
1308
1309
131
1310
1311
1312
1313
1314
1315
1316
1317
1318
1319
132
1320
1321
1322
1323
1324
1325
1326
1327
1328
1329
133
1330
1331
1332
1333
1334
1335
1336
1337
1338
1339
134
1340
1341
1342
1343
1344
1345
1346
1347
1348
1349
135
1350
1351
1352
1353
1354
1355
1356
1357
1358
1359
136
1360
1361
1362
1363
1364
1365
1366
1367
1368
1369
137
1370
1371
1372
1373
1374
1375
1376
1377
1378
1379
138
1380
1381
1382
1383
1384
1385
1386
1387
1388
1389
139
1390
1391
1392
1393
1394
1395
1396
1397
1398
1399
14
140
1400
1401
1402
1403
1404
1405
1406
1407
1408
1409
141
1410
1411
1412
1413
1414
1415
1416
1417
1418
1419
142
1420
1421
1422
1423
1424
1425
1426
1427
1428
1429
143
1430
1431
1432
1433
1434
1434458766
1435
1436
1437
1438
1439
144
1440
1441
1442
1443
1444
1445
1446
1447
1448
1449
145
1450
1451
1452
1453
1454
1455
1456
1457
1458
1459
146
1460
1461
1462
1463
1464
1465
1466
1467
1468
1469
147
1470
1471
1472
1473
1474
1475
1476
1477
1478
1479
148
1480
1481
1482
1483
1484
1485
1486
1487
1488
1489
149
1490
1491
1492
1493
1494
1495
1496
1497
1498
1499
15
150
1500
1501
1502
1503
1504
1505
1506
1507
1508
1509
151
1510
1511
1512
1513
1514
1515
1516
1517
1518
1519
152
1520
1521
1522
1523
1524
1525
1526
1527
1528
1529
153
1530
1531
1532
1533
1534
1535
1536
1537
1538
1539
154
1540
1541
1542
1543
1544
1545
1546
1547
1548
1549
155
1550
1551
1552
1553
1554
1555
1556
1557
1558
1559
156
1560
1561
1562
1563
1564
1565
1566
1567
1568
1569
157
1570
1571
1572
1573
1574
1575
1576
1577
1578
1579
158
1580
1581
1582
1583
1584
1585
1586
1587
1588
1589
159
1590
1591
1592
1593
1594
1595
1596
1597
1598
1599
16
160
1600
1601
1602
1603
1604
1605
1606
1607
1608
1609
161
1610
1611
1612
1613
1614
1615
1616
1617
1618
1619
162
1620
1621
1622
1623
1624
1625
1626
1627
1628
1629
163
1630
1631
1632
1633
1634
1635
1636
1637
1638
1639
164
1640
1641
1642
1643
1644
1645
1646
1647
1648
1649
165
1650
1651
1652
1653
1654
1655
1656
1657
1658
1659
166
1660
1661
1662
1663
1664
1665
1666
166667
1667
1668
1669
167
1670
1671
1672
1673
1674
1675
1676
1677
1678
1679
168
1680
1681
1682
1683
1684
1685
1686
1687
1688
1689
169
1690
1691
1692
1693
1694
1695
1696
1697
1698
1699
17
170
1700
1701
1702
1703
1704
1705
1706
1707
1708
1709
171
1710
1711
1712
1713
1714
1715
1716
1717
1718
1719
172
1720
1721
1722
1723
1724
1725
1726
1727
1728
1729
173
1730
1731
1732
1733
1734
1735
1736
1737
1738
1739
174
1740
1741
1742
1743
1744
1745
1746
1747
1748
1749
175
1750
1751
1752
1753
1754
1755
1756
1757
1758
1759
176
1760
1761
1762
1763
1764
1765
1766
1767
1768
1769
177
1770
1771
1772
1773
1774
1775
1776
1777
1778
1779
178
1780
1781
1782
1783
1784
1785
1786
1787
1788
1789
179
1790
1791
1792
1793
1794
1795
1796
1797
1798
1799
18
180
1800
1801
1802
1803
1804
1805
1806
1807
1808
1809
181
1810
1811
1812
1813
1814
1815
1816
1817
1818
1819
182
1820
1821
1822
1823
1824
1825
1826
1827
1828
1829
183
1830
1831
1832
1833
1834
1835
1836
1837
1838
1839
184
1840
1841
1842
1843
1844
1845
1846
1847
1848
1849
185
1850
1851
1852
1853
1854
1855
1856
1857
1858
1859
186
1860
1861
1862
1863
1864
1865
1866
1867
1868
1869
187
1870
1871
1872
1873
1874
1875
1876
1877
1878
1879
188
1880
1881
1882
1883
1884
1885
1885718
1886
1887
1888
1889
189
1890
1891
1892
1893
1894
1895
1896
1897
1898
1899
19
190
1900
1901
1902
1903
1904
1905
1906
1907
1908
1909
191
1910
1911
1912
1913
1914
1915
1916
1917
1918
1919
192
1920
1921
1922
1923
1924
1925
1926
1927
1928
1929
193
1930
1931
1932
1933
1934
1935
1936
1937
1938
1939
194
1940
1941
1942
1943
1944
1945
1946
1947
1948
1949
195
1950
1951
1952
1953
1954
1955
1956
1957
1958
1959
196
1960
1961
1962
1963
1964
1965
1966
1967
1968
1969
197
1970
1971
1972
1973
1974
1975
1976
1977
1978
1979
198
1980
1981
1982
1983
1984
1985
1986
1987
1988
1989
199
1990
1991
1992
1993
1994
1995
1996
1997
1998
1999
2
20
200
2000
200000
2001
2002
2003
2004
2005
2006
2007
2008
20080915015002
2009
201
2010
2011
2012
20120630054150
20120630054156
20120731002754
2013
2014
20140407080653
2015
2016
2017
2018
2019
202
2020
2021
2022
2023
2024
2025
203
204
205
206
207
208
209
21
210
2100
211
212
213
214
215
216
217
218
219
22
220
2200
221
222
223
224
225
226
227
228
229
23
230
2300
2307
231
232
233
234
235
236
237
238
239
24
240
2400
2408
241
242
243
244
245
246
247
248
249
25
250
2500
251
252
253
254
255
256
257
258
259
26
260
2600
261
262
263
264
265
266
267
268
269
27
270
2700
271
272
273
274
275
276
277
278
279
28
280
2800
281
282
2820
283
284
285
286
287
288
289
29
290
2905
291
292
293
294
295
296
297
298
299
3
30
300
3000
301
302
303
304
305
306
307
308
309
31
310
311
312
313
314
315
316
317
318
319
32
320
3200
321
322
323
324
325
326
327
328
329
33
330
331
332
333
333333
334
335
336
337
338
339
34
340
341
342
343
344
345
346
347
348
349
35
350
3500
351
352
353
354
355
356
357
358
359
36
360
3600
361
362
363
364
365
366
367
368
369
37
370
371
372
373
374
375
376
377
378
379
38
380
381
382
383
384
385
386
387
388
389
39
390
391
392
393
394
395
396
397
398
399
4
40
400
4000
401
402
403
404
405
406
407
408
409
41
410
411
412
413
414
415
416
416667
417
418
419
42
420
421
422
423
424
425
426
427
428
429
43
430
431
432
433
434
435
436
437
438
439
44
440
441
442
443
444
445
446
447
448
449
45
450
4500
451
452
453
454
455
456
457
458
459
46
460
461
462
463
464
465
466
467
468
469
47
470
471
472
473
474
475
476
477
478
479
48
480
481
482
483
484
485
486
487
488
489
49
490
491
492
493
494
495
496
497
498
499
5
50
500
5000
500000
501
502
503
504
505
506
507
508
509
51
510
511
512
513
514
515
516
517
518
519
52
520
521
522
523
524
525
526
527
528
529
53
530
531
532
533
534
535
536
537
538
539
54
540
541
542
543
544
545
546
547
548
549
55
550
5500
551
552
553
554
555
556
557
558
559
56
560
56098
561
562
563
564
565
566
567
568
569
57
570
571
572
573
574
575
576
577
578
579
58
580
581
582
583
583333
584
585
586
587
588
589
59
590
591
592
593
594
595
596
597
598
599
6
60
600
6000
601
602
603
604
605
606
607
608
609
61
610
611
612
613
614
615
616
617
618
619
62
620
621
622
623
624
625
626
627
628
629
63
630
631
632
633
634
635
636
637
638
639
64
640
641
642
643
644
645
646
647
648
649
65
650
6500
651
652
653
654
655
656
657
658
659
66
660
661
662
663
664
665
666
666667
667
668
669
67
670
671
672
673
674
675
676
677
678
679
68
680
681
682
683
684
685
686
687
688
689
69
690
691
692
693
695
696
697
698
699
7
70
700
7000
701
703
704
705
707
708
709
71
710
711
712
713
714
715
716
717
718
719
72
720
721
723
725
726
727
729
73
730
731
732
733
735
736
737
738
739
74
740
741
742
743
744
745
747
748
749
75
750
7500
751
752
753
754
755
756
757
758
759
76
760
761
764
765
767
768
769
77
770
771
772
773
774
775
776
777
778
78
780
781
784
785
787
788
789
79
790
791
792
795
796
798
7995
8
80
800
8000
801
8018
802
803
804
805
806
808
8080
809
8090
81
810
811
812
813
814
815
816
817
818
8181
8187
82
820
822
8221
823
824
825
826
827
828
829
83
830
831
832
833333
834
835
836
837
839
84
840
841
842
843
844
845
846
848
849
85
850
851
85177
852
85270
853
855
856
859
86
860
861
862
863
864
865
866
866667
867
869
87
870
87021
871
874
875
876
877
878
879
88
880
881
882
883
88309
884
885
886
887
888
888569
889
89
890
891
892
893
894
895
896
898
9
90
900
9000
90006
90008
901
902
904
905
906
907
908
909
90993
91
910
911
912
913
913235
914
915
916667
917
918
919
92
920
921
922
923
924
925
926
927
928
929
93
930
931
932
935
936
937
939
94
940
940228
942
945
949
95
950
951
9514
953
954
954430424
955
956
959
96
960
961
962
963
965
966
966667
968
969
97
970
971
972
973
975
976
978
9789544961022
98
980
9800
981
9819
982
983
984
985
986
987
988
99
990
991
992
993
994
995
996
997
998
9989
999
:
;
<
=
>
?
@
[
\
]
^
_
`
a
aa
aaron
ab
abbaye
abc
about
above
abraham
abstract
abteilung
ac
acad
acade
academia
academic
academy
access
accipitridae
according
account
ace
acid
acropora
across
act
acta
action
active
activity
actor
actress
actualno
ad
adalbert
adam
adams
adb
add
address
adel
adelheid
adels
adelsfamilie
adelslexikon
administration
adobe
adolf
adrian
adult
advanced
adventure
adventures
ae
aechmea
aew
af
affair
affairs
affinis
afghanistan
afi
africa
african
afrique
after
ag
again
against
agave
age
agency
agent
ages
agnes
agreement
agriculture
ah
ai
aid
ain
air
airbus
aircraft
airlines
airport
ais
aisch
aise
aj
ak
akademie
al
alain
alan
alba
albania
albanian
albert
alberto
albrecht
album
albums
ale
alessandro
alex
alexander
alexandra
alfred
ali
alice
alien
aligned
alive
all
alla
allan
alle
allemagne
allen
aller
allgemeine
alliance
allium
allmovie
allmusic
allobates
alma
almost
alois
alone
along
alpha
als
also
alt
alte
alten
altenburg
alternate
alternative
altertumskunde
altertumswissenschaft
alvensleben
always
am
amalie
amanda
amazing
amazon
amd
ame
america
american
americana
among
amor
amore
amounts
amour
amphibians
amsterdam
amy
an
ana
analysis
anas
anatomy
ancestors
ancestry
ancient
and
andere
anderson
andre
andrea
andreas
andrew
andrews
android
andy
anfa
angel
angeles
angelfire
angelo
angels
anhalt
animal
animals
animated
animation
ankara
ann
anna
annalen
annales
annals
annapolis
anne
anni
anniversary
anno
annotated
announced
announces
annual
anolis
another
ans
answers
antarctic
antarctica
anterior
anthology
anthony
anthropology
anthurium
anti
antike
antiquity
anton
antonio
any
anything
ap
apache
aphyosemion
api
apo
apollo
app
apple
application
applications
applied
approach
approx
apr
april
ar
ara
arab
arc
arch
archa
archaeological
archaeology
architecture
archiv
archive
archived
archives
arctic
ardisia
are
area
areas
arena
argentina
aria
arm
arme
armed
armenia
armenian
arms
armstrong
army
arnold
arnsberg
aroma
around
array
ars
arsenal
art
arte
artemis
artemisia
artery
arthroleptis
arthur
article
articles
artist
artists
arts
artvibe
as
ascania
asia
asian
ask
asp
aspects
aspx
assembly
assessment
associated
association
assyrian
astronaut
astronomical
astronomy
astrophysical
at
atelopus
athens
atlantic
atlas
atmospheric
atomic
atp
attack
atyidae
au
auch
audenaerde
audi
audio
auersperg
auf
aufl
auflage
aug
augsburg
august
augusta
auguste
augusti
augustus
aus
ausf
ausfu
ausgabe
ausgewa
austin
australia
australian
australis
austria
author
authority
authors
auto
autobiography
autumn
aux
av
available
avec
aviation
avn
award
awards
away
ax
ay
az
azerbaijan
b
ba
baby
babylon
babylonian
bach
back
bad
baden
bailey
baird
baker
balance
balkan
balkans
balkanton
ball
baltimore
band
bang
bank
banks
bar
barbara
barbus
barcelona
barnes
baron
barry
bas
base
based
basel
basic
basin
bass
bat
bathyraja
batman
battle
battlecruisers
battles
battleships
bauer
bautz
bay
bayerische
bayerischen
bayern
bayerns
bb
bbc
bbkl
bc
bd
be
beach
beam
bean
bear
beast
beat
beautiful
beauty
became
because
beck
become
becomes
been
beer
beevor
before
begin
beginning
begins
behavior
behind
bei
beichlingen
beijing
being
beitra
beitrag
bel
belgique
belgium
believe
bell
bella
belle
bello
ben
benjamin
bennett
bentheim
benz
ber
berg
berger
berkeley
berlin
berliner
bernard
bernd
bernhard
berry
berthold
beschreibung
best
beta
bethesda
better
between
bey
beyond
bf
bg
bgmovies
bi
bianca
bible
bibliographisches
bibliography
biblioteca
bibliotheca
bibliothek
bibron
big
biggest
bild
bill
billboard
billion
billy
bin
bingen
bio
biodiversity
biografico
biografie
biographical
biographie
biographisch
biographisches
biography
biol
biological
biology
biotechnology
bir
bird
birdlife
birds
birth
birthday
bis
bischo
bischof
bishop
bismarck
bistum
bit
bl
bla
blabbermouth
black
blackout
blackwell
blake
blankenburg
blankenheim
blast
bleeker
bler
blind
blitz
bloch
block
blog
blogspot
blood
bloomberg
blu
blue
blues
blyth
bmatrix
bmw
bnr
bnt
bo
board
bob
bobby
bodianus
body
boeing
bolitoglossa
bologna
bomb
bombus
bon
bonaparte
bond
bone
bones
bonn
book
books
boom
boophis
boot
border
boris
born
boronia
boss
boston
both
boulenger
bound
box
boy
boys
br
brabant
brain
branch
branches
brancoff
brand
brandenburg
brasil
bratislava
braunschweig
bravo
brazil
break
breaking
bremen
brian
bride
bridge
brief
briefe
bright
brill
bring
britain
britannica
british
bro
broadcasting
broadway
broken
brooker
brooklyn
brooks
bros
brother
brothers
broughton
brown
browser
bru
bruce
bruguiere
bruno
brussels
bruxelles
bryan
bts
btv
btvnovinite
bu
buch
bucures
budapest
buddhism
buddhist
bufo
bufonidae
build
building
bulgaria
bulgarian
bulgarica
bulgarien
bull
bulletin
burchard
bureau
burg
burgas
burgen
burggraf
burmeister
burn
burning
burns
burton
bus
bush
business
but
butler
bwv
by
bythinella
bythiospeum
byzantine
byzantines
byzantium
c
ca
cable
caecilia
caesar
cafe
cagematch
calamaria
caldwell
calendar
california
call
called
calls
cambaridae
cambarus
cambridge
came
camera
cameron
camp
campaign
campbell
can
canada
canadian
canal
cancer
canthigaster
canthon
cap
cape
capensis
capital
capitolini
cappella
captain
car
carbon
card
care
career
caridina
carl
carlo
carlos
carnegie
carol
carolina
caroline
carpenter
cars
carter
cartes
cartoon
casa
case
cases
cash
cass
cast
castell
castello
castle
castro
cat
catalog
catalogs
catalogue
catch
catherine
catholic
cats
cause
causes
cavr
cawley
cbs
cc
cd
cdot
cdots
ce
celebration
cell
census
censuses
center
central
centralbyra
centre
centro
centropyge
centuries
century
cf
ch
cha
chaetodon
challenge
chamber
champion
champions
championship
championships
chan
chance
change
changed
changes
channel
chaos
chapman
chapter
character
charles
charlie
charlotte
chart
charts
chasa
che
check
checklist
chelsea
chemical
chemistry
chen
cher
chess
chessgames
chi
chicago
chief
chiesa
child
children
chile
china
chinese
choice
chr
chre
chris
christ
christian
christianity
christina
christine
christmas
christoph
christopher
chronicle
chronicles
chronik
chronology
chsischen
church
churchill
ci
cia
cichlidae
cie
cik
cil
cine
cinefish
cinema
circle
circus
cit
cities
citta
city
citypopulation
civil
civilization
ck
cke
cken
cl
claims
clarendon
clark
clarke
class
classic
classical
classics
classification
classischen
claude
claudia
claudius
cle
clematis
climate
clinical
clio
clock
cloffa
close
cloud
club
cm
cms
cn
cnn
co
coast
cobiss
coburg
coca
code
codex
coenagrionidae
cohen
col
cola
cold
cole
colin
coll
collaboration
collected
collection
collections
college
collins
color
colubridae
columbia
columbidae
com
combat
come
comedy
comes
comic
comics
coming
comm
command
commentary
comments
commercial
commission
committee
common
commoner
communication
communications
communist
community
como
compagno
companion
company
comparative
competition
complete
complex
composite
composition
comprehensive
compton
computer
computing
comte
comune
comuni
con
concept
concern
concert
concerto
concise
condita
conference
confirmed
confirms
conflict
congo
congress
conidae
connection
connor
conquest
conrad
conservation
console
conspiracy
constantin
constantinople
constitution
construction
cont
contact
conte
contemporary
content
contest
context
continental
continued
contract
contribution
contributions
control
conus
convention
conway
cook
cool
cooper
cope
copy
copyright
coral
core
cornelius
cornell
coronavirus
corp
corporate
corporation
corps
corpus
corvus
cos
cost
costa
cotoneaster
could
council
count
counter
countries
country
county
course
court
cover
coverage
covid
cox
cr
cradle
craig
crash
crazy
crc
cre
creation
creative
creator
crew
cricetidae
crime
crimes
criminal
crisis
critical
criticism
critique
croat
croatia
crocidura
cross
crossman
crown
cruiser
cruisers
cruz
cry
crystal
cs
css
ct
ctenomys
cu
cuba
cult
cultura
cultural
culture
cultures
cum
cup
cura
current
curse
cut
cuvier
cv
cw
cx
cyprinidae
cyprus
cz
czech
d
da
daddy
daget
dai
daily
dal
dalberg
dale
dall
dalla
dame
dan
dana
dance
dancing
danger
dangerous
daniel
dans
dariknews
dark
darkness
darmstadt
darwin
das
data
database
date
dates
daughter
dave
david
davies
davis
dawn
day
days
db
dc
de
dead
deadline
deadly
deal
dean
dear
death
debut
dec
december
decision
decline
deeann
deep
def
default
defence
defense
definition
degli
degree
dei
del
delhi
dell
della
delle
delta
dem
demetrius
demo
democracy
demoscope
den
denis
denmark
dennis
department
der
des
descendants
description
descriptions
desert
design
desire
dessau
destiny
destruction
det
details
detlev
detroit
deutsch
deutsche
deutschen
deutscher
deutsches
deutschland
deux
development
devil
di
dia
diagnosis
diamond
diana
diary
dick
dictionary
dictionnaire
did
didn
die
died
diego
dies
dieter
dietrich
dietrichstein
different
digital
digitalisat
dillingen
din
dingen
dio
dir
direct
direction
director
directory
dirty
disco
discography
discogs
discovery
disease
diseases
disney
displaystyle
diss
dissertation
distance
distribution
district
diteurs
dition
ditions
diversity
division
divisions
dizionario
dj
dk
dm
dna
dnes
dnevnik
do
doc
doctor
document
documentary
documents
does
dog
dogs
dohna
doi
doine
doing
dom
domain
domenico
don
donald
done
donna
donne
doo
doom
door
dorothea
dos
dot
double
doubleday
douglas
dover
down
download
dr
dracula
draft
dragon
dragons
drama
dream
dreams
dreamworks
drei
dresden
drive
drop
drug
drugs
ds
dt
dtto
du
duca
duchess
due
duke
dumeril
duncker
dunn
durch
during
dust
dutch
dux
dv
dvd
dw
dx
dying
dynamics
dynastie
dynastique
dynasty
dz
e
ea
each
eagle
eap
earl
earliest
early
earth
east
eastern
easy
eberhard
ec
echo
eclipse
ecology
economic
economics
economist
economy
ecumenical
ecw
ed
eden
edgar
edge
edinburgh
edit
edited
edition
editions
editor
editore
editorial
editors
editrice
editura
edizioni
edmund
eds
edu
eduard
eduardo
education
educational
edward
edwards
edwin
ee
effect
effects
egypt
egyptian
eight
eighth
ein
eine
einem
einer
eines
einstein
ek
el
elasmobranchs
election
elections
electric
electronic
elegans
elements
elena
elisa
elisabeth
elite
elizabeth
ellen
ellis
else
elsevier
elvis
em
emergency
emi
emil
emily
emma
emperor
empire
empires
en
enciclopedia
encyclopaedia
encyclopedia
encyclopædia
end
endangered
ende
ends
enemy
energy
engel
engine
engineering
engl
england
englisch
english
enough
enterprise
entertainment
entre
entry
entstehung
entwicklung
environment
environmental
enya
ep
epic
epinephelus
episode
epstein
er
era
erbach
eric
erich
erik
ernest
ernst
erste
ersten
erster
erwin
erza
erzbischof
es
esa
escape
eschmeyer
eske
esky
eso
espan
espinosa
espn
essai
essay
essays
essential
est
esta
estate
este
estimates
estrellas
et
eta
etc
eternal
etheostoma
ethics
ethnic
ethnographique
ethnologue
etnographiques
etude
eu
eugen
eugene
eur
euro
europa
europaische
europe
european
eurovision
euweb
ev
eva
evaluation
evans
eve
even
evening
event
events
ever
every
everybody
everything
evidence
evil
evolution
evolutionary
ex
example
exchange
exclusive
executive
exempt
exp
expansion
expedition
experience
experiment
experimental
exploration
explorer
express
extended
extra
extragalactic
extreme
eye
eyes
f
fa
faber
fabricius
face
facebook
faces
facility
fact
factbook
factor
factory
facts
fair
faith
falco
falkenstein
fall
fallen
falling
fallingrain
falls
false
fame
familie
familien
familiengeschichte
families
family
famous
fan
fans
fantastic
fantasticfiction
fantasy
fao
far
fashion
fast
fasti
fat
fate
father
fayard
fc
fe
fear
feat
feature
features
featuring
feb
february
federal
federation
federico
feel
feeling
felix
female
femme
fer
ferdinand
fernando
ferrari
fest
festival
festschrift
fettes
fever
fextpages
ff
ffentlichungen
ffullt
fi
fiat
fiction
fide
field
fields
fifa
fifth
fight
fighter
fighters
fighting
figure
figures
file
files
film
filming
films
fimi
fin
final
finance
financial
find
findley
finds
fine
finland
fire
firefox
firenze
first
fischer
fish
fishbase
fisher
fisheries
fishes
five
fl
flag
flame
flash
flavius
fleckenstein
fleet
fleming
fliche
flichen
flight
flora
flores
florida
flow
flower
flowers
fly
flying
fm
fmg
fo
focus
folge
folk
folkma
follow
following
food
fool
foot
football
footballdatabase
for
forbes
force
forces
ford
foreign
forest
forever
forgotten
form
format
formation
former
formula
forschungen
fort
fortune
forum
forward
fossil
fossilworks
foster
found
foundation
foundations
four
fourth
fowler
fox
fr
fra
frac
framework
franc
france
francesca
francesco
francis
francisco
franco
frank
franken
frankenstein
frankfurt
franklin
franz
franzo
fraser
frau
frauen
fre
fred
frederick
free
freedom
freeman
freewebs
freiburg
freiherr
freiherren
french
freshwater
freud
freytag
friday
friederike
friedman
friedrich
friend
friends
fritz
from
front
frontier
frost
frozen
fru
fsnm
ft
fu
fugger
full
fun
function
fund
furnariidae
future
fw
g
ga
gabriel
gaius
galaxy
gale
gallery
gallimard
game
games
gamma
gang
garden
gardner
gary
gas
gate
gates
gay
gazette
gazetteer
gb
gc
ge
gebhard
gedichte
gegen
gegenwart
gemeinde
gemeinden
gemmingen
gen
gender
gene
geneagraphie
geneall
genealogics
genealogie
genealogische
genealogisches
genealogy
geneanet
genera
general
generation
genesis
genetic
genetics
geni
genius
gennaio
genocide
gens
gentianella
genus
geo
geoffrey
geoffroy
geographic
geography
geological
geology
georg
george
georges
georgia
ger
gera
gerald
gerd
gerhard
german
germania
germaniae
germany
geroldseck
gesamtreihe
geschichte
geschichten
geschichtliche
geschichtsbla
geschlecht
geschlechts
gesellschaft
get
gets
getting
ghost
gi
giant
gift
gilbert
gill
giorgio
giovanni
girard
giraud
girl
girls
giuseppe
give
gladiolus
glass
gleichen
gli
global
globe
gloria
glory
glossary
glu
gm
gmbh
gmelin
gnu
go
goal
gobiidae
god
gods
goes
going
gold
golden
gone
gong
gonna
gonzaga
good
goodbye
goodreads
google
gordon
gosse
got
gotha
gott
gottfried
gould
gov
government
gps
gr
gra
grace
gracilis
graf
grafen
grafschaft
graham
grammy
gran
grand
grande
grant
grao
grave
gray
graz
gre
great
greater
greatest
grecs
greece
greek
green
greenwood
greg
gregory
grey
gro
ground
group
groups
grove
growth
große
großen
gru
gruyter
gs
gsm
gt
gu
guardian
gucci
guerra
guerre
guide
guides
guido
guillaume
guinea
guinness
guitar
gulf
gun
guns
gunther
gustav
gutenberg
guy
gw
gło
h
ha
haag
habsburg
had
hagen
hahn
half
hall
halle
hamburg
hamilton
hammer
hanau
hanauer
hand
handbook
handbuch
hands
hannah
hannover
hans
hansen
haplochromis
happy
harald
hard
harold
harper
harpercollins
harris
harrison
harry
hart
hartmann
harvard
harvey
has
hat
hate
haus
hauses
have
haven
hawaii
hawk
hbo
hcl
hd
hdmi
he
head
health
heart
hearts
heat
heaven
heavy
heavyweight
heemstra
heft
heidelberg
heiligen
heinrich
heinz
held
helen
helena
helfenstein
helgen
hell
hellenic
hellenistic
hello
helmut
help
hen
henle
henneberg
henri
henry
her
herald
herausgegeben
herbert
here
heritage
herman
hermann
hero
heroes
herr
herren
herrmann
herrschaft
herrschaften
herzo
herzog
herzogin
herzogtum
hessen
hessische
hessischen
het
hey
hg
hi
hidden
hier
hierarch
hierarchy
high
higher
highway
hildesheim
hill
hills
him
hip
his
histo
histoire
historia
historiae
historic
historica
historical
historie
histories
historique
historisch
historische
historischen
historischer
historisches
history
hit
hitler
hits
hl
hlau
hler
hlten
hlung
hlungen
hms
ho
hobbs
hof
hoffmann
hohenberg
hohenlohe
hohenzollern
hold
hole
holiday
holland
hollywood
holmes
holocaust
holstein
holt
holy
homburg
home
homepage
homme
homo
hong
honor
hop
hope
hopkins
horn
horror
horse
horst
horton
hospital
host
hot
hotel
houghton
hour
hours
house
how
howard
hoya
hp
hr
hrer
hrigen
hrsg
hrung
htm
html
http
https
hu
huberty
hubner
hudson
hugh
hughes
hugo
human
humblot
hundred
hung
hungarian
hungary
hunt
hunter
hurricane
hwass
hydrobiidae
hz
i
ia
iafd
ian
iana
ibm
ic
ice
ich
ichthyology
id
ide
idea
ideas
identification
identity
ie
iec
ieee
if
ign
ihr
ihre
ihrer
ii
iii
il
illinois
illustrated
illustrations
illustre
im
image
images
imdb
impact
imperial
imperii
implications
important
impossible
imprimerie
imprimeurs
in
ina
inc
includes
including
independence
independent
index
india
indian
indiana
indianapolis
indians
indo
indonesia
industrial
industry
ine
inferior
influence
info
information
infty
inhabitants
inner
ins
inside
insider
instagram
institut
institute
institution
instituto
int
integrated
intel
intellectual
intelligence
inter
interactive
interest
interface
internal
international
internationale
internet
interpretation
interview
into
introduction
invasion
investigation
io
ios
iowa
ip
ipa
ipac
iphone
ipomoea
ir
iran
iranian
iranica
iraq
ireland
irish
iron
is
isaac
isabella
isbn
ische
ischen
isenburg
isis
isisbgstat
islam
islamic
island
islands
iso
israel
issn
issue
issues
ist
istanbul
istat
istituto
istoria
it
italia
italian
italiana
italiane
italiani
italiano
italy
item
itemid
itf
itis
its
itunes
iucn
iucnredlist
iv
ivan
ivanov
ivrea
ix
ixodes
j
ja
jack
jackson
jacob
jacques
jahr
jahrbuch
jahre
jahren
jahrhundert
jahrhunderts
jakob
jam
james
jan
jane
janet
january
japan
japanese
jason
java
javascript
jay
jazeera
jazz
je
jean
jeanne
jeff
jefferson
jeffrey
jena
jenkins
jennifer
jeremy
jerry
jersey
jerusalem
jerzy
jessica
jesus
jet
jewish
jews
jg
ji
jim
jimmy
jo
joachim
joan
job
joe
johann
johanna
johannes
john
johnny
johns
johnson
johnston
join
joins
joint
jon
jonas
jonathan
jones
jordan
jose
josef
joseph
journal
journey
joy
jp
jpl
jr
js
jstor
ju
juan
judas
judith
juli
julia
julian
juliana
julie
julius
july
jump
jun
june
jung
jungle
juni
junior
just
justice
justification
justin
k
ka
kai
kaiser
kaiserlich
kaiserthums
kansas
karen
karl
kassel
kastoria
katalog
kate
katharina
kb
kc
ke
keep
keith
keller
kelly
ken
kennedy
kenneth
kent
kenya
kevin
key
kf
kg
khan
khz
ki
kick
kid
kids
kill
killed
killer
killing
kim
kiminas
kind
kinder
king
kingdom
kings
kino
kirchberg
kirche
kirchenlexikon
kirk
kiss
kit
kitchen
klaus
klein
kleine
kloster
klostermann
km
kn
knight
knopf
know
knowledge
known
ko
koch
kohlhammer
kommission
kommun
kommuner
kong
konrad
korea
korean
kosovo
kottelat
krako
kraus
kreuzer
krieg
kro
ku
kultur
kultura
kulturbilder
kunst
kurfu
kurt
kv
kw
kyiv
l
la
lab
label
labor
laboratory
labridae
lachner
lacroix
ladies
lady
lahn
lake
lamarck
lambda
lambert
land
landes
landesgeschichte
landeskunde
landgraf
lands
landschafts
lane
lang
lange
language
languages
large
largest
larry
las
last
late
later
lateral
latest
latin
latina
latreille
laubach
launch
launches
laura
laurent
law
lawrence
laws
lc
lcd
le
lea
lead
leader
leaders
league
learning
least
leave
leaves
leben
lecture
lectures
led
lee
left
legacy
legal
legend
legends
legio
lego
leiden
leiningen
leipzig
length
lenta
leo
leon
leonard
leonardo
leone
leonhard
leopard
leopold
leq
ler
les
leslie
less
lesson
lessons
let
letter
letters
lettres
leuchtenberg
level
levskisofia
lewis
lex
lexicon
lexikon
lez
lg
li
lib
libellulidae
liber
liberty
librarie
library
libri
license
lich
lichtenberg
lie
liebe
liechtenstein
lies
life
ligament
light
lightning
lights
like
lim
limburg
limited
limits
limpurg
lin
lincoln
linda
line
lines
linguistic
linguistics
linie
link
linnaeus
linux
lion
lippe
lisa
list
lister
lit
literary
literatur
literature
literaturpreis
liternet
lithuania
litte
little
littlefield
liu
live
liverpool
lives
living
livingston
livius
livre
ll
llc
ller
lloyd
ln
lo
loan
local
log
logic
london
lonely
long
look
looking
lord
lorenz
lorenzo
loringhoven
lorraine
los
lose
lost
lot
lothar
louis
louise
louvain
love
lover
lovers
loving
low
lower
lp
lt
ltd
lu
luca
lucas
lucius
lucky
ludnos
ludwig
lui
luigi
luis
luise
luke
luna
lutz
luxemburg
lv
lynch
lynn
lynx
lyon
lyons
lyrikwelt
lz
m
ma
mac
mace
macedonia
macedonian
machine
macintosh
macmillan
mad
madagascar
madame
made
madison
madness
madonna
madrid
magazine
magdalena
magdeburg
magdelaine
magic
magister
magistrates
magnetic
magnus
mahler
mai
maiden
mail
mailand
main
mainz
maison
major
make
makedonien
makes
making
mal
malcolm
male
malta
mama
mammal
mammals
man
management
manager
manchester
manderscheid
manfred
mania
mann
manning
mansfeld
manual
manuel
many
map
mapping
maps
mar
marburg
marc
marca
marcel
march
marco
marcus
mare
marek
margaret
mari
maria
marie
marina
marine
marineland
mario
maritime
mark
market
marketing
markgraf
markle
marks
markus
marriage
married
mars
marshall
martha
marti
martin
martindale
marvel
marx
mary
maryland
mashke
mason
mass
massachusetts
massimo
master
masters
match
matches
material
materials
math
mathbb
mathbf
mathcal
mathematical
mathematics
mathrm
matrix
matt
matter
matthew
matthias
maurice
max
maximilian
maximus
maxwell
may
maya
mayer
mayo
mb
mbox
mc
mcdiarmid
mcfarland
mcgraw
md
me
mean
meaning
mecklenburg
med
medal
media
mediapool
medical
medici
medicine
medien
medieval
mediterranean
meet
meeting
meghan
mein
meine
member
members
memoir
memoirs
memorial
memoriam
memories
memory
men
menschen
mental
mer
mercedes
mercury
mercy
merkmalen
merriam
mertens
mes
message
met
meta
metal
metallica
metallum
method
methods
metro
metropolitan
metropolitanates
mexican
mexico
meyer
mez
mfa
mg
mgm
mhz
mi
mia
miami
michael
michel
michele
michelle
michigan
micropsectra
microsoft
mid
middle
midnight
mie
mifflin
migration
miguel
mike
mil
milan
milano
miles
milita
military
militum
millennium
miller
million
milne
min
mind
mine
mini
minister
ministry
minor
minute
minutes
mio
mir
miracle
mirage
miranda
miroslav
mirror
mische
mischen
miss
missile
missing
mission
mit
mitchell
mitteilungen
mittelalter
mittelalters
mix
mk
ml
mlsg
mm
mn
mo
mobile
mod
mode
model
models
modern
moderne
moires
mojo
mol
molecular
mollusc
mollusca
moment
mon
mondadori
monday
monde
mondo
money
monitor
monitoring
monkey
monster
mont
montana
monte
montfort
month
monthly
monumenta
monuments
moon
moore
more
morgan
moritz
morning
morris
mort
moscow
most
mother
motion
motor
motors
mount
mountain
mountains
move
movement
moves
movie
movies
mp
mr
mrac
mrs
ms
mt
mtv
mu
much
mujer
muller
multi
multiple
mundo
munich
murder
muridae
murphy
murray
mus
muscicapidae
muse
museo
museum
museums
music
musica
musical
musik
muslim
must
mv
mw
mx
my
myers
myotis
myspace
mystery
myth
mythology
n
na
nach
nachdruck
nachrichten
nacht
nacional
nad
name
named
names
nana
nancy
napoli
narod
nas
nasa
nassau
nat
nation
national
nationale
nations
native
nato
natural
naturalis
nature
natureserve
naval
navy
nazi
nazionale
nb
nbc
nburg
nc
nchen
nd
ndb
nde
nder
ndez
ndigen
ndischen
ne
near
neburg
need
neil
nel
nell
nella
nelson
neo
ner
nerve
nes
net
netflix
netherlands
network
networks
neu
neue
neues
neustadt
neuzeit
never
neville
new
news
newsletter
newspaper
newton
next
nez
nf
ng
ngc
ngd
nge
ngen
nh
ni
nia
nice
nicholas
nichols
nicht
nick
nickelodeon
nicol
nicolas
nicolson
nie
nielsen
nig
night
nightmoves
nights
nigliche
nikolaus
nin
nine
nj
njpw
nl
nm
nner
no
nobel
nobelprize
noble
nobody
node
nokia
nomenclature
nominations
nominees
non
nord
norman
north
northern
norton
nos
not
note
notes
nothing
notre
nourrit
nouvelle
nov
nova
novel
november
novini
now
nr
ns
nsi
nste
nster
nt
nter
nther
nu
nuclear
nueva
null
number
numbers
nuova
nuovo
nutrient
nwa
nxt
ny
nytimes
nz
o
oaks
ob
obituary
object
observations
observatory
observer
oc
occidentalis
ocean
och
oclc
oct
october
od
oder
oesterreich
oettingen
of
off
office
official
offnews
og
oh
ohio
ohne
oil
ois
ok
oktober
ol
old
oldenburg
oliver
olivetti
olivier
ologie
olympic
olympics
om
omda
omega
on
once
oncidium
one
oneplus
online
only
onoma
op
opel
open
opening
opera
operation
operations
option
opus
or
ora
oracle
orange
orbigny
orchestra
order
orders
org
organisation
organization
oricon
orient
oriental
orientalis
origin
original
origins
orion
orlando
oro
orstom
ortenburg
orthodox
os
oscar
osprey
ot
other
others
otto
ottobre
ottoman
ou
our
out
over
overrightarrow
overview
owen
owens
own
oxford
oz
p
pa
pac
pacific
pag
page
pages
pain
painting
pakistan
palace
palazzo
pale
palgrave
pallas
pan
pandanus
panthera
panzer
paola
paolo
papa
paper
papers
pappenheim
par
para
paradise
paramount
parenti
paris
park
parker
parks
parliament
part
partial
partners
parts
party
pas
pascal
passion
past
pat
patent
path
patients
patriarchate
patricia
patrick
patterns
paul
paulo
pauly
paulys
pay
payne
pays
pb
pbs
pc
pdf
pe
peace
peak
pearl
pearson
pedro
peer
pen
penguin
pennsylvania
people
peoples
per
perez
perfect
performance
period
perl
perry
perseus
persian
person
personal
personality
personensuche
perspective
perspectives
pet
peter
peters
petit
petri
pfa
pfalz
pfeiffer
pg
ph
phantom
phi
phil
philadelphia
philip
philipp
philippe
philippine
philippines
philips
phillips
philosophical
philosophie
philosophy
phoenix
phone
photo
photos
php
phylogenetic
phylogeny
physical
physics
physiology
pi
piano
picture
pictures
pie
piece
piemonte
pierre
pietro
pilot
pink
pinus
piper
pir
pittsburgh
piu
pl
place
places
plan
planet
planetary
planning
plans
plant
plantago
plants
platform
platinum
plauen
play
player
players
playing
plays
playstation
please
plon
plovdiv
plus
pm
pmatrix
pmid
pnas
po
poc
pod
poe
poems
poetry
point
points
poland
pole
police
policy
polish
political
politics
politik
politisch
politische
poll
polska
polski
polskiego
pop
popolazione
popular
population
por
porn
port
portal
porter
portrait
portraits
portugal
position
possible
post
posterior
potsdam
potter
pour
powell
power
powers
powiat
powierzchnia
pp
ppv
pr
pra
practice
praefectus
prague
praha
pravoslavieto
pre
preis
premier
premiere
premio
premios
prentice
present
presents
president
presidential
press
presses
preston
pretty
preußen
prevention
pri
price
pride
prilep
prima
primary
prime
primetime
primo
prince
princeps
princess
princeton
principles
print
printing
prinz
prinzen
prinzessin
private
prix
prize
pro
problem
problems
proc
proceedings
process
processing
product
production
productions
products
prof
professional
professor
profile
program
programme
programming
progress
project
projects
promise
properties
property
prosa
prosopography
protected
protection
protocol
province
provinces
provincia
przekroju
ps
psi
psychiatry
psycho
psychoanalysis
psychoanalytic
psychological
psychology
pt
pteropus
ptilinopus
pu
pub
publ
public
publication
publications
published
publisher
publishers
publishing
publius
punk
pure
purple
put
putin
pwi
pwinsider
px
python
pz
q
qatar
qu
quad
quality
quantum
quartal
quarterly
que
queen
quellen
quercus
quest
question
questions
qui
quintus
r
ra
race
rachel
racing
radiation
radio
raf
rafinesque
rage
rai
rain
rainbow
rainer
ralph
ram
rambur
rana
rand
randall
random
range
ranking
rankings
rap
rare
rat
rate
ratings
raw
ray
raymond
rays
rc
rca
rd
rde
re
read
reader
reading
ready
real
realencyclopa
reality
really
reason
rebecca
rebel
rec
recent
rechberg
record
recorded
recording
recordings
records
red
reed
reeder
reeve
ref
reference
reflections
reform
reformation
regan
regensburg
regenstein
regesten
regina
region
regional
regioni
regions
register
reich
reiches
reichs
reid
reign
reihe
reinhard
reise
reisen
related
relations
relationship
release
released
releases
reliability
religion
religious
remains
remember
remix
ren
renaissance
renault
rene
report
reporter
reports
reprint
reprinted
reptiles
repubblica
republic
republike
rerum
res
rescue
research
reserve
residente
resistance
resolution
resource
resources
response
rest
results
retrieved
return
returns
reuss
reuters
reuß
rev
revealed
reveals
revenge
review
reviews
revised
revision
revista
revolution
revue
rex
rey
rez
rfc
rg
rgen
rhein
rhinolophus
rho
rhodes
rhythm
ri
ria
riaa
ric
rica
rice
rich
richard
richardson
rick
ride
rie
right
rightarrow
rights
riket
rim
ring
ringen
rio
riot
rise
rising
risk
rite
ritter
river
rk
rkiye
rm
rn
rnberg
ro
road
rob
robert
roberto
roberts
robertson
robin
robins
robinson
rock
rocket
rodolfo
roger
roh
roi
roland
role
rolf
roll
rolling
rom
roma
roman
romana
romance
romani
romania
romanian
romano
romantic
rome
ron
ronald
room
root
roots
rosa
rose
rosenberg
roses
ross
rosseels
rossi
roth
rotten
rough
round
route
routledge
row
rowman
roy
royal
royale
rpm
rs
rsssf
rst
rsten
rstenberg
rstenha
rstenhaus
rstenhauses
rstentum
rstliche
rstlichen
rt
rttemberg
ru
ruby
rudolf
rudolph
rudolstadt
rufus
rule
rules
rumble
run
runkel
running
ruprecht
russell
russia
russian
ruth
ry
ryan
rz
rzburg
s
sa
saarbru
sabbath
sachsen
sacra
sacred
safety
saga
sage
said
saint
saints
sales
salm
salvador
salvia
salzburg
sam
same
samsung
samuel
san
sanremo
sans
sant
santa
santo
santos
sara
sarah
satellite
saturday
savage
save
savoia
savoie
savoy
say
sayn
says
sc
scala
scale
scar
scarus
scene
scha
schaumburg
sche
schenk
schiffermuller
schlegel
schleswig
schlo
schloss
schloß
schmid
schmidt
schneider
scho
school
schriften
schu
schulenburg
schultze
schuster
schwa
schwaben
schwarzburg
schwarzenberg
schwennicke
schwerin
sci
science
sciences
scientific
scientist
scientists
sciuridae
sclater
sclerosis
scooby
scorpions
scotland
scott
scottish
screen
sd
se
sea
sean
search
seas
season
sebastian
sec
second
secret
secretary
secrets
section
security
see
seen
segabg
sei
seibel
sein
seine
seiner
seit
seite
selbsta
selected
selection
self
selys
sen
sense
sepia
sept
september
sequel
ser
sera
serbia
serie
series
server
service
services
ses
session
set
sets
settlement
settlements
seuil
seven
seventh
sex
sexual
sexy
sf
sforza
sg
sha
shadow
shadows
shakespeare
shall
shannon
share
shark
sharks
sharpe
shaw
she
sheet
shell
shi
shima
ship
ships
shock
short
shot
should
show
showing
shows
si
sich
side
sidney
sie
siebmacher
siegfried
siena
sierra
sigma
sigmaringen
sigmund
sign
signal
signs
silence
silent
silva
silver
simmons
simon
simone
simple
sin
since
sind
sing
singer
single
singles
singolo
sir
sister
sisters
site
sites
six
sixth
size
sk
ska
skates
ski
skin
skopje
sky
sl
slam
slave
sleep
slovenije
slow
sm
smackdown
small
smart
smith
smithsonian
smoke
sms
sn
snake
snow
so
sobre
soc
soccer
soccerway
social
socie
societa
society
sofia
software
sol
solar
solaris
soldier
solms
solo
solomon
solution
some
someone
something
son
sonderburg
song
songs
sonic
sono
sons
sony
sophia
sophie
sorex
soul
sound
soundtrack
source
sources
sous
south
southeast
southern
soviet
sowerby
sowie
sp
spa
space
spacefacts
spain
spanish
special
specialist
species
speculative
speech
speed
spencer
speyer
spider
spiegel
spirit
split
sponheim
sport
sportal
sports
spot
sprache
spring
springer
spy
sql
sqrt
squad
square
sr
sri
ss
sseldorf
sser
ssp
st
sta
staaten
staatsdruckerei
stadium
stadt
staff
stage
stalin
stammtafel
stammtafeln
stan
stanbul
stand
standard
standards
standartnews
stanford
stanley
star
stargardt
starhemberg
starke
stars
start
stat
state
statement
states
static
station
statistic
statistical
statistics
statistique
statistisches
statistiska
statlib
stato
stats
status
statystyczny
stay
ste
steel
stefan
stein
steindachner
steiner
step
stephan
stephanie
stephen
sterreich
sterreichische
sterreichischen
steve
steven
stevens
stewart
stiftung
still
sting
stipendium
sto
stock
stockholm
stolberg
stone
stop
store
storia
storico
stories
storm
story
str
straight
strait
strange
stranger
strategic
strategy
street
strike
string
strong
structure
struggle
sts
stu
stuart
student
studi
studia
studien
studies
studio
studios
study
stuttgart
style
styles
su
sub
success
such
sud
sudan
sugar
suicide
suite
sul
sulla
sullivan
sum
summary
summer
sun
sunday
sunny
super
superficie
superior
suppl
supplement
support
sur
surface
surrender
survey
survival
survivor
sus
susan
sv
sweden
swedish
sweet
swift
swiss
switzerland
sword
sydney
sylvia
symphony
symposium
syndrome
synodontis
synopsis
synthesis
synvet
syria
system
systematic
systematics
systems
t
ta
table
tafel
tag
tail
take
taken
takeover
takes
taking
tale
tales
talk
talking
talks
tan
tank
tanzania
target
taschenbuch
task
taste
tat
tau
tauris
taxis
taxonomic
taxonomy
taylor
tb
te
tea
team
teams
tears
teatro
teau
tech
technical
technologies
technology
tecklenburg
ted
teen
teil
tel
telegraph
telenovela
televisa
television
tell
temminck
temple
tempo
temps
temptation
ten
tennis
ter
term
terms
terra
terre
territorien
territories
terror
terry
tervuren
terytorialnym
tes
tesla
test
testament
testing
texas
text
texte
texts
tf
tfrac
th
thames
than
that
the
theater
theatre
theft
theil
their
them
theme
then
theodor
theodore
theories
theory
thepeerage
therapy
there
these
thesis
thessaloniki
theta
they
thing
things
think
thinking
third
this
thomas
thompson
thomson
thorbecke
those
thought
thousand
thraupidae
threat
threatened
three
thrones
through
thu
thunder
thurn
thys
ti
tibet
tica
tienne
tiger
till
tim
time
timeline
times
timothy
title
titled
titles
titus
tna
to
tod
today
todd
together
tokyo
tom
tomatoes
tomb
tome
tomorrow
tonight
tony
too
top
topographic
topsport
tor
torch
torino
toronto
torre
total
touch
tour
touring
tourism
tournament
toward
towards
tower
town
towns
tr
tra
track
tracks
trade
tradition
traditional
traffic
tragedy
trailer
train
training
trans
transactions
transfer
transfermarkt
transformation
translated
translation
transport
trap
travel
tre
treatment
treaty
treccani
tree
trees
trek
trends
tres
trial
tribune
tribute
trier
trionfo
trip
triple
triumph
trochilidae
trois
troops
tropical
trouble
trud
true
trump
trust
truth
try
ts
tt
ttel
tter
ttingen
tu
tudes
turdus
turkey
turkish
turn
turner
tutti
tutto
tv
tvynovelas
twelfth
twentieth
twenty
twilight
twitter
two
type
types
tyrannidae
tz
tze
u
ua
uefa
ufc
uk
ukraine
ukrainian
ul
ulrich
ultimate
ultra
um
un
una
und
under
underground
understanding
une
unesco
uni
unicode
union
unit
united
units
univ
universal
universe
universita
universite
universities
university
unix
unknown
uno
unscr
unter
untersuchungen
until
up
update
updated
upon
upper
urad
urban
urbanisation
urbe
urbi
urkunden
urkundenbuch
url
urza
us
usa
usaf
usb
usda
use
used
user
using
usn
uss
ut
utc
utf
uwe
v
va
val
valenciennes
valentine
valle
valley
value
values
vampire
van
var
varepsilon
variety
various
varna
varphi
vasco
vbox
ve
vec
vegas
vehicle
venezia
venezuela
venice
venning
venus
ver
vera
verein
vereins
veritas
verlag
verlagsanstalt
vero
veronica
version
versuch
versus
vertebrates
very
vesti
vestnik
vh
vhs
vi
via
vice
victor
victoria
victory
vida
video
videos
vie
vieillot
vienna
vietnam
view
viewership
vii
viii
viking
viktor
villa
village
villages
ville
vincent
vintage
viola
violence
vip
virgin
virginia
virneburg
virtual
virus
vis
visconti
vision
visit
vista
visual
visucom
vita
vittorio
viva
vladimir
vo
vocal
vogt
vogue
voice
voices
void
vol
volker
vollsta
vols
volume
volumes
volution
vom
von
vor
voyage
vs
vv
vy
w
wa
wade
waffen
wagner
waiting
wake
waldburg
waldeck
waldenburg
wales
walk
walker
walking
walkoffame
wall
wallace
walt
walter
walther
wang
wanna
want
wanted
wants
wappen
war
ward
warfare
warner
warren
warrior
wars
warships
warszawa
was
washington
watch
water
waters
watson
wave
way
wayback
wayne
ways
wc
wcw
we
weapons
weather
web
webcitation
webcite
weber
website
webster
wedding
week
weekend
weekly
weg
wehrmacht
weimar
welcome
well
wells
welt
wenstein
werdenberg
were
werk
werke
werl
werner
wernigerode
wertheim
west
western
westfalen
wettin
what
wheel
when
where
which
while
white
whitley
who
whois
whole
why
wi
wicked
wide
wie
wied
wien
wiener
wiesbaden
wife
wiki
wikimapia
wikipedia
wikisource
wikivoyage
wild
wildlife
wildside
wiley
wilhelm
will
william
williams
williamson
wilson
win
wind
window
windows
wine
wing
wings
winner
winners
wins
winter
wir
wired
wisconsin
wisdom
wish
wissenschaften
wissenschaftliche
witch
with
within
without
wittelsbach
wittgenstein
wny
wo
wolf
wolfenbu
wolfgang
wolfram
woman
women
won
wonder
wood
woods
word
wordpress
words
work
working
works
workshop
world
worldfootball
worlds
worldwide
worms
worst
worth
would
wrestlemania
wrestleview
wrestling
wright
write
writer
writers
writing
writings
written
wrong
wta
wu
wurzbach
ww
wwe
wwf
www
wydawnictwo
x
xbiz
xbox
xi
xico
xii
xiii
xiv
xix
xl
xli
xlii
xliii
xliv
xlv
xlvii
xml
xp
xrco
xv
xvi
xvii
xviii
xx
xxi
xxii
xxiii
xxiv
xxix
xxv
xxvi
xxvii
xxviii
xxx
xxxii
xxxix
xxxvi
xxxvii
xxxviii
xylocopa
y
ya
yahoo
yale
yang
ye
year
years
yellow
yes
yet
yo
york
you
young
your
yourself
youth
youtube
ysenburg
yu
yugoslavia
z
za
zagreb
zamarski
ze
zealand
zeit
zeiten
zeitschrift
zeitung
zeller
zen
zeno
zeppelin
zero
zimmermann
zip
zn
znam
zone
zoo
zoology
zootaxa
zosterops
zu
zum
zur
zwei
zweibru
zwischen
zwv
{
|
}
~
¡
£
§
¨
©
ª
«
¬
­
®
¯
°
±
²
³
´
µ
·
º
»
¼
½
¿
×
ß
æ
ð
÷
ø
þ
ħ
ı
ĸ
ł
ŋ
ȣ
ɐ
ɑ
ɔ
ə
ɛ
ɤ
ʃ
ʒ
ʰ
ʲ
ʷ
ʹ
ʻ
ʼ
ʿ
ˈ
ˌ
ː
˙
˚
̀
́
̂
̃
̄
̆
̇
̈
̉
̊
̋
̌
̏
̓
̔
̛
̞
̣
̥
̦
̧
̨
̩
̪
̮
̯
̱
̸
̾
͂
ͅ
͡
΄
α
αγι
αγω
αθανα
αθανασι
αθη
αθλητισμου
αι
αιω
ανα
απαρι
απο
απογραφη
αποκαταστα
αριθ
αριθμο
αριστοτε
αρχ
αρχαιολογικω
αρχει
αρχιτεκτονικη
ας
αστικοποιησης
αυ
αφανει
β
βα
βαθμο
βασι
βασιλει
βε
βο
γ
γε
γερμανο
γεφυ
γεω
γεωργι
γηγενει
γι
για
γιο
γιος
γιω
γματα
γος
γρεβενω
γων
δ
δα
δας
δε
δεια
δελτι
δη
δημη
δημητρι
δης
δι
δια
διαρκη
διατα
δος
δου
δρα
δρυμα
δυτικη
ε
εαπ
εγκυκλοπαι
εθνικο
εθνικου
ει
εις
εκ
εκδ
εκδο
εκκλησι
ελιμειακα
ελλα
ελλη
ελληνικα
ελληνικη
εν
επαρχιω
επι
επιλε
επιτροπη
ερευνω
ες
εταιρει
ευ
εφημερι
ζ
ζαρκα
ζωγρα
η
ην
θ
θα
θε
θεο
θεολογι
θεοτο
θεσσαλι
θεσσαλονι
θμηση
θρα
ι
ια
ιδακτορικη
ιερα
ιερο
ιστορι
ιστορικα
ιστορικη
ιστοσελι
ιωα
κ
κα
καβα
και
κας
καστορια
κατα
κατοι
κε
κη
κηρυγμε
κης
κι
κο
κοζα
κοινοτη
κοινωνικη
κος
κου
κτης
κυ
κυβερνη
κυπρο
κυρο
κω
κωβος
κων
κωνσταντι
λ
λα
λαος
λας
λε
λειο
λεως
λη
λης
λι
λιθοξο
λιος
λληνες
λλου
λο
λογος
λος
λου
μ
μα
μαι
μακεδονι
μακεδονικα
μακεδονικο
μακεδονικου
μακεδονικω
μακεδονομα
μας
ματα
με
μειονεκτικω
μετα
μεταβυζαντινω
μετονομασι
μη
μητρο
μητροπολι
μηχανικω
μια
μιο
μιχαηλι
μνημει
μονη
μος
μου
μουσει
μπα
μφωνα
μων
ν
να
ναι
ναις
ναο
ναου
νας
νε
νες
νη
νης
νι
νια
νιγρι
νικο
νικολα
νιος
ννης
νος
νου
νω
νων
ξ
ξιμων
ο
οδο
οι
οικισμοι
οικισμω
ον
ος
ου
π
πα
παναγι
πανδε
πανεπιστη
πανιερω
παπανικολα
παυ
πε
περι
περιοχη
περιοχω
περιφε
πι
πληθυσμο
πο
πολη
πολις
πολιτισμου
πολυτεχνικη
που
πουλος
προ
προσφυ
προσφυγικω
προσωπικη
πρω
πυ
πων
ρ
ρα
ρας
ργιος
ργος
ρη
ρης
ρι
ρια
ρινα
ριο
ριον
ριος
ρκου
ροιας
ρος
ρου
ρων
ς
σ
σα
σαντζακι
σε
σεις
σελ
σερβι
σερρω
σεων
σεως
ση
σης
σι
σια
σιος
σκοπος
σου
σπανο
σπουδω
στα
στη
στην
στο
στοιχει
στον
στος
συ
συμβολη
συνοικισμω
σχολη
τ
τα
ταγμα
ταξινομηση
τατος
τε
τες
τευ
τη
την
της
τητα
τι
τμη
το
τον
τος
του
τους
τρης
τριος
τσα
τυ
τυπογραφει
τω
των
υ
υα
υπ
υπουργει
υππο
φ
φεκ
φλω
φοι
φυ
χ
χειρο
χοι
χος
χρη
ψ
ω
ων
ως
ϕ
ϵ
а
аарон
аахен
аб
абагар
абаджиев
абазов
абас
абат
абатеса
абатиса
абатство
абатството
абв
абд
абдикацията
абдикира
абдул
абдула
абе
абел
абенсберг
аби
абрахам
абревиатура
абруцо
абсолютен
абсолютна
абсолютната
абсолютно
абстрактни
абу
абхазия
абърдии
абът
авангард
авангарда
аварии
аварите
авария
аватар
август
августа
августин
авелино
авеню
авиационен
авиационна
авиационни
авиационно
авиация
авиацията
авив
авиньон
авиобаза
авиобазата
авиокомпания
авиокомпанията
авраам
аврам
аврамов
аврелиан
аврелии
аврора
австралии
австралия
австрии
австрия
австро
автентичен
автентични
автобиография
автобиографията
автобус
автобуса
автобуси
автобусна
автобусни
автогара
автомагистрала
автомат
автомата
автомати
автоматизация
автоматичен
автоматична
автоматични
автоматично
автомобил
автомобила
автомобилен
автомобили
автомобилите
автомобилна
автомобилната
автомобилни
автомобилните
автомобилния
автомобилът
автономен
автономия
автономията
автономна
автономната
автономни
автономно
автопортрет
автор
автора
автори
авторите
авторитет
авторитета
авторка
авторката
авторска
авторски
авторските
авторско
авторското
авторството
авторът
авъл
ага
агамемнон
агата
агент
агенти
агенции
агенция
агенцията
агиос
агитация
агия
агломерация
агнес
агнешка
аго
агостино
агрегати
агресивен
агресивна
агресивни
агресия
агрипа
агрипина
агроном
ад
ада
адалберт
адам
адамс
адаптации
адаптация
адаптацията
адаптира
адаптиран
адаптирана
адаптирани
адвокат
адвоката
адвокати
адвокатите
адвокатска
адвокатската
адвокатски
адвокатът
адекватно
адел
адела
аделаида
аделхаи
адлер
административен
административна
административната
административни
административните
административния
административният
административно
административното
администратор
администрация
администрацията
администрира
адмирал
адмиралтеи
адолф
адрес
адреса
адреси
адриан
адриана
адриано
адрианопол
адриатическо
адютант
аек
аец
аз
азаренка
азарян
азбука
азбуката
азбуки
азбучен
азербаи
азиатската
азиатски
азиатските
азимов
азинии
азис
азия
азовско
азот
аи
аида
ак
акад
академии
академик
академичен
академична
академичната
академични
академичните
академичния
академично
академия
академията
академија
акация
акварел
аквариум
акваторията
аквилея
аквитания
акира
ако
акордеон
акра
акропола
аксел
аксесоари
акт
акта
актив
актива
активен
активи
активира
активист
активисти
активите
активна
активната
активни
активните
активния
активно
активност
активността
активното
актове
актовете
актриса
актрисата
актриси
актуален
актуализация
актуална
актуални
актьор
актьора
актьори
актьорите
актьорска
актьорската
актьорски
актьорския
актьорско
актьорът
акуила
акула
акули
акулите
акустична
акцент
акцентира
акции
акциите
акционер
акционери
акционерите
акционерно
акция
акцията
акчета
ал
ала
алабама
аладин
алаи
алан
алб
алба
албания
албанска
албанската
албански
албанските
албанския
албанско
албанското
албанци
албанците
албена
албер
алберт
албертина
алберто
албин
албрехт
албум
албума
албуми
албумите
албумът
албърт
албърта
алварес
алваро
алвенслебен
алгебра
алгоритми
алгоритъм
алгоритъма
алгоритъмът
алдо
алегория
алеи
алек
алеко
алекс
алекса
александар
александер
александр
александра
александрии
александрина
александрия
александров
александрова
александрович
александровна
александрово
александрос
александру
александър
алексеевич
алексеи
алекси
алексиев
алексиева
алексии
алексис
алексо
ален
алесандрия
алесандро
алефелдт
алехандра
алехандро
алея
алеята
алжир
али
алианс
алианса
алиев
алинея
алис
алиса
алисия
алисън
алкохол
алкохола
алкохолни
алкохолно
алла
аллах
алма
алманах
алманахъ
ало
алои
алонсо
алпи
алпии
алпинизъм
алпинист
алпинисти
алпите
алт
алтаи
алтена
алтенбург
алтернатива
алтернативен
алтернативи
алтернативна
алтернативни
алтернативно
алто
алтхан
алувиални
алуминиеви
алуминии
алфа
алфонс
алфонсо
алфред
алфредо
алън
аляска
ам
ама
амадеи
амадеус
амазонка
амалия
аман
аманда
аматьорски
амбиции
амбициите
амбициозен
амброуз
амбър
амвросии
амелия
америка
американец
американецът
американска
американската
американски
американските
американския
американският
американско
американското
американци
американците
америки
ами
амиен
амин
аминокиселини
аминта
амнистиран
амнистия
амон
амоняк
амплитуда
амстердам
амударя
амундсен
амур
амфитеатър
ан
ана
анабел
анадола
анали
анализ
анализа
анализатор
анализатори
анализи
анализира
анализът
аналитична
аналитичната
аналог
аналогичен
аналогична
аналогични
аналогично
аналогия
анархист
анархисти
анархистите
анастас
анастасии
анастасиос
анастасия
анастасов
анатолии
анатолия
анатомия
анатомията
ангажимент
ангажименти
ангажира
ангажиран
ангажирани
ангел
ангела
ангели
ангелина
ангелите
ангелов
ангелова
англ
англии
англиканската
англичани
англичаните
англия
англо
ангола
ангуила
ангъс
андалусия
андарти
андартски
андекс
андерс
андерсен
андерсън
анджеи
анджела
анджелис
анджело
анди
андите
андлау
андон
андонов
андора
андраш
андре
андреа
андреас
андреев
андреева
андреевич
андреи
андрес
андрети
андрея
андромеда
андроник
андрю
андрюс
ане
анексира
анексирането
анелия
анемия
анжу
анжуи
ани
ании
аниматор
анимационен
анимационни
анимационните
анимационния
анимационният
анимация
анимацията
аниме
анимеи
анита
аниции
анка
анкара
анкета
анкона
анна
ано
аномалии
анонимен
анонимни
анонимно
анотиран
анри
ансамбли
ансамбъл
ансамбъла
ансбах
анселм
анталия
антантата
антарктида
антарктика
антарктическа
антарктически
антарктическите
антарктическия
антверпен
антена
антени
анти
антибиотици
антигон
антигона
антигуа
антилопи
антим
антиох
антиохии
антиохия
антипатър
антисции
антитела
антифашистката
античен
антична
античната
антични
античните
античния
антично
античност
античността
античното
антоан
антоанета
антологии
антология
антологията
антон
антони
антонии
антоними
антонин
антонио
антония
антонов
антонова
антрополог
антропология
антъни
анубис
анхалт
анхел
анхиало
аоста
ап
апарат
апарата
апарати
апаратура
апаратът
апартамент
апартамента
апартаменти
апартеи
апачи
апел
апертура
апиан
апии
апк
апогеи
апоел
апокалипсис
аполо
аполодор
аполон
аполонии
аполония
апостол
апостола
апостоли
апостолите
апостолическа
апостолически
апостолов
апостолова
апостолски
април
априлов
априлското
априлци
апсида
апсидата
аптека
аптекари
апулия
ар
ара
араб
араби
арабите
арабия
арабска
арабската
арабски
арабските
арабския
арабският
арабско
арабското
арагон
арагонска
арагонски
арамеи
аранжимент
аранжор
арафат
арбанаси
арбитраж
аргир
аргиров
аргонавтите
аргос
аргумент
аргумента
аргументи
аргументите
арда
ардино
ареал
ареала
ареалът
арена
арената
аренберг
арес
арест
ареста
арести
арестува
арестуван
арестувана
арестуването
арестувани
арестуват
аржентина
аржентинската
аржентински
аржентинския
ариан
ариана
ариел
аризона
арии
аристократ
аристократи
аристокрация
аристокрацията
аристотел
ария
арк
арка
аркадии
аркадия
арканзас
арката
арки
арктика
арктичен
арл
арм
арман
армандо
армеи
армения
арменска
арменската
арменски
арменските
арменския
арменско
арменското
арменци
арменците
армии
армиите
армия
армията
армстронг
арнаудов
арнаути
арним
арно
арнолд
арнсберг
арнулф
арнщаи
аромат
ароматни
арон
арс
арсен
арсенал
арсении
арсов
арт
арта
артемида
артерии
артерия
артефакти
артилерии
артилерия
артилерията
артист
артисти
артистите
артистичен
артистка
артоа
артур
артуро
артър
аруба
арумънски
арфа
арх
архангел
архангели
архангелска
архелаи
археолог
археологическа
археологически
археологическите
археологическия
археологическо
археология
археологията
археолози
археолозите
архив
архива
архивен
архиви
архивиран
архивирано
архивите
архивни
архивните
архивно
архивното
архивът
архидякон
архиепархия
архиепископ
архиепископа
архиепископия
архиепископът
архиереи
архимандрит
архимед
архипелаг
архипелага
архитект
архитекта
архитекти
архитектите
архитектура
архитектурата
архитектурен
архитектурна
архитектурни
архитектурните
архитектурния
архитектурно
архитектурното
архитектът
архијерејско
арън
ас
аса
асад
асам
асамблея
асебург
асен
асеневци
асенов
асеновград
асизи
асирии
асирия
асистент
асистенции
аскани
аскеер
аскер
аслан
асном
асоциации
асоциация
асоциацията
асоциира
асоцииран
асоциирани
аспарух
аспарухов
аспарухово
аспект
аспекти
асср
аст
астана
астерикс
астероид
астероида
астероиди
асти
астма
астон
астронавт
астронавти
астронавтите
астронавтска
астроном
астрономи
астрономическа
астрономически
астрономия
астрономията
астурия
астън
асфалтирани
ася
ат
ата
атака
атаката
атаки
атаките
атакува
атакуван
атакувани
атакуват
атакуващ
атал
аталанта
атанас
атанасии
атанасиос
атанасов
атанасова
ататюрк
аташе
ателие
ателието
атентат
атентата
атентати
атентатите
атик
атика
атила
атилии
атина
атинската
атински
атинския
атиняните
атланта
атлантида
атлантик
атлантика
атлантис
атлантически
атлантическия
атлас
атлети
атлетик
атлетика
атлетико
атмосфера
атмосферата
атмосферни
атмосферното
атола
атом
атома
атомен
атоми
атомите
атомна
атомната
атомни
атомните
атон
атракции
атракция
атрибути
атууд
атф
аугсбург
аугуст
аугусто
ауди
аудио
аудитория
аудиторията
ауершперг
аурора
аушвиц
афанасии
афганистан
афера
аферата
афк
афонсу
афоризми
африка
африканска
африканската
африкански
африканските
африканския
афродита
ах
ахая
ахеи
ахелои
ахенобарб
ахил
ахмад
ахмед
ахмет
ацев
ацилии
ацо
ацтеките
аш
ашли
ашурбанипал
аякс
б
ба
баба
бабадаг
бабата
бабев
бабенхаузен
бавария
баварска
баварската
баварски
баварския
бавен
бавна
бавни
бавно
багдад
бад
баден
баева
база
базата
базел
бази
базилика
базиликата
базира
базиран
базирана
базиране
базирани
базирано
базират
базите
базовия
баи
баир
баия
бак
бакалавър
бакалавърска
бакалов
бактерии
бактериите
баку
бакърджиев
бал
бала
балабанов
балада
баладата
балади
балакин
балан
баланс
баланса
балдуин
баленщет
балерина
балет
балета
балетмаи
балзак
бали
балистична
балистични
балкан
балкана
балкани
балканите
балканска
балканската
балкански
балканските
балканския
балкантон
балкон
балон
балтазар
балтии
балтимор
балчик
бамберг
бан
банани
банат
бангладеш
банда
бандата
банди
бани
баните
баница
банк
банка
банката
банкер
банки
банките
банкноти
банков
банкова
банкови
банкок
банкс
банкя
банска
бански
банско
баня
банята
бар
бара
барабан
барабани
барабанист
барабаниста
барабанистът
барабаните
бараж
барак
барбадос
барбара
барбароса
барбетите
барби
барбуда
бард
барелеф
барет
бари
бариера
бариери
баритон
барка
барове
барок
барока
бароков
барон
баронеса
барони
барселона
барт
бартенщаи
бартоломео
барут
бас
басараб
басеи
басист
басиста
баскетбол
баскетболен
баскетболист
басни
бат
батак
батальон
батальона
батальони
батареи
батарея
бате
батенберг
батерии
батерия
батист
батиста
батман
батор
бафта
бах
бахамски
бахамските
бахреи
бачо
баш
башибозук
башкортостан
баща
бащата
бащи
бащина
бащите
баязид
баян
бвп
бг
бгвардеи
бдж
бдк
бдс
бе
беатрикс
беатрис
беатриче
бебе
бебета
бебето
бевърли
бег
бегалци
беда
беден
беди
бедна
бедни
бедните
бедно
бедност
бедността
бедствие
бедствия
бежанец
бежански
бежанско
бежанци
бежанците
без
безброи
безгръбначни
бездеи
бездетен
бездната
безкраен
безкраи
безопасни
безопасно
безопасност
безопасността
безплатен
безплатна
безплатни
безплатно
безпокои
безработица
безработицата
безредици
безследно
безсмъртните
безспорно
безсъзнание
безусловно
безуспешно
беи
бек
бекер
бекет
бел
бела
беларус
беларуси
беларуската
беларуски
беласица
белая
белгии
белгия
белград
белградската
белградския
белев
белег
бележат
бележи
бележити
бележка
бележки
белези
белене
белетрист
белетристика
бели
белиз
белини
белите
белица
белия
белият
бело
белов
белово
белоградчик
беломорието
беломорска
белтък
белтъци
белфаст
белчев
бельо
белязан
бемол
бен
бенгалия
бенд
бенджамин
беневенто
бенедето
бенедикт
бенет
бензин
бени
бенин
бенито
бенковски
беноа
бентивольо
бентхаи
бенфика
бенц
београд
беотия
бер
берат
бербатов
берг
бергамо
берген
бергер
бергман
беренгар
береника
бери
берковица
берлебург
берлин
берлинската
берлинския
бермудски
берн
бернабо
бернар
бернард
бернардино
бернардо
бернбург
бернули
бернхард
берово
берое
берон
берта
бертолд
бертолт
бертран
бертхолд
бесарабия
беседа
беседи
беси
бестселър
бестселъри
бестселърите
бет
бета
бети
бетовен
бетон
бетховен
беше
бешевлиев
бешков
бзнс
би
бианка
биатлон
библеи
библиография
библиографски
библиотека
библиотекар
библиотеката
библиотеки
библиотеките
библия
библията
бива
биват
бивш
бивша
бившата
бивше
бившето
бивши
бившите
бившия
бившият
биг
бидеи
бие
биенале
бижута
бизнес
бизнеса
бизнесмен
бизнесмени
бизнесът
бии
бик
бикенбах
бил
била
билбао
билборд
билет
билети
били
билки
било
билото
биляна
билярски
бин
бинев
био
биобиблиография
биографии
биографичен
биографическии
биографична
биографични
биографично
биография
биографията
биолог
биологичен
биологична
биологични
биологичните
биологично
биологичното
биология
биологията
биоразнообразие
биосферен
биохимик
биохимия
бира
бирата
бири
биркенфелд
бирма
бирмингам
бирщаи
бис
бисау
бисер
бисмарк
бистерфелд
бистра
бистрица
бистрицки
бит
бита
бити
битие
битието
битка
битката
битки
битките
биткои
битов
битова
битови
битово
битола
битолска
битолската
битолски
битолския
битолско
битолското
битоля
бих
биха
бихме
бич
бия
бият
бк
бкп
бл
блага
благо
благовест
благовещение
благодарение
благодарност
благодаря
благодат
благоденствие
благодетел
благоев
благоевград
благоевградски
благои
благополучие
благоприятен
благоприятни
благоприятно
благоприятства
благороден
благородни
благородник
благородници
благородниците
благородническа
благороднически
благородническия
благородничка
благословия
благосъстояние
благосъстоянието
благотворителен
благотворителна
благотворителни
благотворително
благотворителност
благоустрои
благочестиви
блаже
блажени
блаи
бланка
бланкенбург
бланкенхаи
бланко
бланш
блата
блатата
блатни
блато
блатото
блед
бледо
блез
блеи
блек
блекбърн
блекмор
блестящ
блестящи
блестящо
блеър
близка
близкастел
близката
близки
близките
близкия
близкият
близко
близкото
близнак
близнаци
близнаците
близо
близост
близостта
близък
блиц
блоа
блог
блога
блок
блока
блокада
блокадата
блокира
блокиране
блокират
блокове
блу
блум
блус
блъсков
блюхер
блясък
бм
бмв
бна
бнб
бнд
бниц
бнр
бнт
бо
боа
боб
боби
бобов
бобови
бобошево
бог
бога
богат
богата
богатата
богати
богатите
богатия
богатият
богато
богатото
богатства
богатство
богатството
богдан
богданов
богданци
богини
богиня
богинята
богове
боговете
богомил
богориди
богородица
богородичен
богородично
богослов
богословие
богословски
богословския
богослужение
богота
богу
богът
бодливи
бодлоперка
боев
боеве
боевете
боекомплект
боемунд
боен
боеприпаси
боеприпасите
боец
боже
божества
божествен
божествена
божествената
божественото
божество
божи
божидар
божие
божието
божии
божилов
божин
божинов
божия
божията
божков
божурище
бозаи
бои
боинг
бок
бока
бокачо
боклук
бокс
бокса
боксьор
бол
боланден
болгар
болгарское
болград
болдуин
боледуване
болезнено
болен
болеслав
болест
болести
болестите
болестта
боли
боливар
боливия
болид
болида
болист
болка
болката
болки
болна
болни
болните
болница
болницата
болници
болния
болният
болоня
болтън
болшая
болшевиките
болшинството
болшои
большая
большои
боляри
бомба
бомбардировач
бомбардировача
бомбардировачи
бомбардировка
бомбардировки
бомбардировките
бомбата
бомби
бомбите
бон
бона
бонапарт
бонбони
бонд
бонев
бонева
бонер
бони
бонифации
бонус
бончев
бончо
бор
бора
борба
борбата
борби
борбите
борд
борда
борджия
бординженер
бордо
бордовете
бордови
бордовите
борец
бори
боривое
боривоје
борил
борис
борислав
бориславов
борисов
борисова
борман
борн
борнео
боровец
борови
борово
борса
борусия
борци
борците
боршош
боряна
борят
бос
босилеград
босилек
босна
босненски
бостън
босфора
ботаник
ботаника
ботаническа
ботев
ботевата
ботевград
ботево
ботсвана
бохемия
бохум
бочев
бош
бошняци
боя
бояджиев
боядисани
боян
бояна
боянов
боят
бпц
бр
брабам
брабант
браво
брад
брада
брадата
брадва
брадли
брадърс
бразда
бразилия
бразилска
бразилската
бразилски
бразилските
бразилския
браи
браила
брак
брака
браке
бракове
бракът
брамбила
брамс
бранд
бранденбург
брандо
брандън
бранислав
бранко
бранкович
брат
брата
братанов
братислава
братовчед
братовчеди
братовчедка
братовчедката
братска
братски
братства
братство
братството
братът
братя
братята
браузър
браузъра
браун
браунек
браунфелс
брауншваи
брахам
брацигово
брашно
брашов
браян
бре
брега
брегалница
брегалничка
брегенц
брегова
бреговата
брегове
бреговете
брегови
брегът
бреда
бредбъри
брежен
брежие
брежието
брежия
брежията
брежна
брежната
брежнев
брежни
брежните
бреза
брезник
брезово
бреи
бремен
бременна
бременност
бременността
бренда
бреслау
брест
брет
бретан
бретон
брехт
бреша
бри
бриг
бригада
бригадата
бригаден
бригади
бридж
бристъл
британика
британия
британска
британската
британски
британските
британския
британският
британско
британското
британците
бриъл
брод
броди
бродуеи
броеве
брои
брокгауза
брокдорф
бронебои
бронева
броневата
броневи
броненосен
броненосец
броненосни
броненосци
бронепалубен
бронепалубни
бронетанкова
бронз
бронзов
бронзова
бронзовата
бронзови
бронзовите
брониран
бронирана
бронираната
брониране
бронирането
бронирани
бронкхорст
броня
бронята
брос
брошура
броя
броят
брп
брсдп
брук
бруклин
брукс
брунеи
бруно
брус
брусарци
брут
бръмбар
бръмбари
бръснар
брюкен
брюксел
бряг
бряга
бряст
бсп
бта
бтв
бтр
бу
бугари
буда
будапеща
буди
будизма
будизъм
будистки
буен
буенос
бузлуджа
буи
бук
букв
буква
буквален
буквално
буквар
буквата
букви
буквите
букова
букови
буково
букурещ
букурещкия
букър
бул
була
булата
булвест
булгаков
булевард
булеварда
булка
булката
булон
бум
бунар
бундеслига
бундеслигата
бунт
бунта
бунтове
бунтовете
бунтовници
бунтовниците
бунтът
бунюел
бурбон
бурбоните
бург
бургас
бургаска
бургаската
бургаски
бургаския
бургаско
бургграф
бургграфиня
бургундия
бургундска
бурен
буржоазия
бури
бурите
буркард
буркина
буркхард
бурмов
бурни
бурно
буров
бурса
бурунди
бурхард
буря
бурята
бут
бутан
бутилка
бутилки
бутон
буш
бфс
бъбреците
бъбречна
бъгс
бъда
бъдат
бъде
бъдем
бъдете
бъдеш
бъдещ
бъдеща
бъдещата
бъдеще
бъдещето
бъдещи
бъдещите
бъдещия
бъдещият
бъдещо
бъдещото
бъди
бъдни
бъл
бъла
бълг
българи
българин
българина
българинът
българистика
българите
българия
българка
българо
българска
българската
български
българските
българскитѣ
българския
българският
българско
българското
българщината
бър
бърд
бърдо
бърз
бърза
бързата
бързеи
бързи
бързина
бързите
бързия
бързо
бързото
бърк
бърка
бъркли
бърн
бърнард
бърно
бърнс
бърт
бъртън
бътлър
бъфало
бъфи
бъчваров
бъчварова
бьорн
бюджет
бюджета
бюджетът
бюдинген
бюканън
бюлетин
бюлетини
бюлов
бюрен
бюро
бюрото
бюст
бяга
бягаи
бягане
бягането
бягат
бягство
бягството
бял
бяла
бялата
бяло
бялото
бяс
бях
бяха
бяхме
в
ва
вавилон
вавилония
вагенщаи
вагнер
вагон
вагона
вагони
вади
вадим
важен
важи
важна
важната
важни
важните
важния
важният
важно
важност
важността
важното
вазари
вази
вазов
ваи
ваканция
вакарел
ваксина
вакуум
вал
вала
валбурга
валдбург
валдек
валдемар
валденбург
валдес
валдщаи
вале
валежи
валежите
валенсия
валент
валентин
валентина
валентиниан
валентино
валери
валериан
валерии
валерия
валерщаи
вали
валиден
валидни
валидност
валия
валоа
валове
валрам
валтер
валута
валутата
валутен
валути
валя
вам
вампир
вампири
ван
вангел
вандалите
ване
ванеса
ването
вани
ванкувър
вануату
ванчо
ваньо
ваня
вапцаров
вар
варвара
варвари
варварите
варварски
варгас
вардар
вардарска
варезе
вари
вариант
варианта
варианти
вариантите
вариации
вариация
варира
варират
вариращи
варна
варненска
варненската
варненски
варненския
варненско
варненското
варовик
варовикови
варовици
варон
вароша
вартенберг
вартоломеи
варшава
варшавския
варшавското
варяг
вас
васа
васал
васали
васербург
васил
василев
василева
василиев
василиевич
василии
василиос
василка
василъ
васко
ват
вата
ватикана
вафен
вацлав
вачков
ваш
вашата
ваше
вашето
вашингтон
вашите
вашия
вв
ввс
вграден
вградена
вградени
вдига
вдигане
вдигат
вдигнат
вдигне
вдишване
вдовец
вдовица
вдовицата
вдовици
вдъхновен
вдъхновена
вдъхновени
вдъхновение
вдъхновява
вдясно
ве
вебер
вега
вегас
веда
веднага
веднъж
ведомства
ведомство
вежди
везенков
везир
везни
везувии
веи
век
века
векове
вековете
вековни
вектор
вектора
вектори
вела
веласкес
велбъжд
велденц
веле
велев
велес
велешка
велешки
велешко
вели
велизар
велик
велика
великата
великден
велики
великите
великия
великият
велико
великобритания
великов
великолепни
великомъченик
великото
великотърновския
велинград
величество
величие
величието
величина
величини
величко
величков
велко
велков
велосипед
велосипеди
велтхаи
велфи
велчев
вельо
вена
венедиков
венелин
венера
венета
венето
венец
венецианската
венециански
венецианския
венецианците
венеция
венецуела
вени
венизелос
венко
венцел
венцеслав
венци
венцислав
вер
вера
веракрус
вергилии
вергинии
верде
верденберг
вердер
верди
вердюн
верен
верига
веригата
вериги
веригите
верижна
верия
веркович
верковичъ
верле
вермахта
верн
вернер
верни
вернигероде
верните
верността
вероизповедание
верона
вероника
вероятен
вероятна
вероятно
вероятност
вероятностите
вероятността
версаи
версии
версиите
версия
версията
вертикален
вертикална
вертикалната
вертикални
вертикално
вертолет
вертолета
вертолети
вертхаи
верчели
весел
весела
весели
веселие
веселин
веселина
веселинов
весело
весник
веспасиан
вест
вестготите
вестербург
вести
вестник
вестника
вестникът
вестници
вестниците
вестта
вестфалия
вет
ветеран
ветерани
ветераните
ветеринарен
ветеринарна
ветин
ветини
вето
ветрен
ветрило
ветрове
ветровете
вец
веч
вече
вечен
вечер
вечери
вечерна
вечерни
вечерта
вечеря
вечна
вечната
вечни
вечния
вечно
вечнозелени
вечността
вечното
вещ
вещества
веществата
вещество
веществото
вещи
вещите
вещица
вещицата
вещици
вж
взаимна
взаимно
взаимното
взаимодеи
взаимоотношения
взаимоотношенията
взаимопомощ
взвод
взе
взел
взела
взели
взема
вземаи
вземам
вземане
вземането
вземания
вземат
вземе
вземи
взет
взета
взети
взето
взеха
взима
взимат
взрив
взрива
взривни
взривява
ви
виа
вианден
вибрации
вивиан
вид
вида
видал
видели
виден
видение
видения
виденов
видео
видеоигри
видеоклип
видеоклипа
видеоклипове
видеоклипът
видеото
види
видим
видима
видимата
видими
видимо
видимост
видин
видинска
видинската
видински
видинския
видинско
видинското
видите
видиш
видна
видни
видните
видния
видният
видно
видове
видовете
видра
видът
видя
видял
видян
видят
видях
вие
виен
виена
виенската
виенски
виенския
виетнам
виетнамската
виетнамски
виж
вижда
виждаи
виждал
виждали
виждам
виждаме
виждане
виждания
виждат
виждаш
виждаше
вижте
виза
византии
византия
визита
визия
визуална
визуални
визуално
вии
вик
вика
викарии
викат
викерс
вики
викингите
викове
виконт
виктор
виктория
вила
вилает
вилаета
вилаетите
вилата
вилд
вилдграф
вилденфелс
вилдунген
вилем
вили
вилньов
вилнюс
вилхелм
вилхелмина
виляреал
вин
вина
винаги
вината
виндиш
винен
винер
вини
виница
вино
виновен
виновни
виноградов
виното
винс
винсент
винсънт
винт
винта
винченцо
винчи
виола
виолета
виолончело
вип
випуск
вир
вирджиния
вирджински
вирее
виреят
вирнебург
виртуален
виртуална
виртуални
вирус
вируса
вируси
вирусът
вис
висарион
висбаден
висенте
виси
вискозитет
висконти
висла
висок
висока
високата
високи
високите
високия
високият
високо
висококачествени
високопланински
високопоставени
високосна
високото
височаи
височество
височина
височината
височини
височините
висш
висша
висшата
висше
висшето
висши
висшите
висшия
висшият
висящи
вит
виталии
витамин
витамини
витгенщаи
вите
вителии
вителсбах
вителсбахи
витенберг
витиз
витиния
вито
виторио
витория
витоша
витцтум
вихрен
вихър
вице
вицеадмирал
вицекрал
вицепрезидент
вицепремиер
вицешампион
вич
виченца
вия
вият
вк
вкара
вкарани
вкарва
вкл
включат
включва
включваи
включване
включването
включват
включващ
включваща
включващи
включващо
включен
включена
включени
включено
включи
включително
вкус
вкуса
вкусовата
вкусови
вкусът
вкъщи
вл
влага
влагата
влад
владее
владение
владението
владения
владенията
владетел
владетели
владетелите
владетеля
владетелят
владеят
влади
владивосток
владигеров
владика
владиката
владимир
владимиров
владимирович
владислав
владици
владичество
владо
владов
влажен
влажна
влажни
влажните
влажно
влажност
влажността
влаи
влак
влака
влакна
влакове
влаковете
влакът
власи
власинки
власите
власт
властва
властелинът
власти
властите
властта
влахия
влахов
влашка
влашки
влашко
влезе
влезли
влечение
влечуги
влечугите
влечуго
влива
вливането
вливат
вливаща
вливащи
влиза
влизаи
влизане
влизането
влизат
влияе
влияние
влиянието
влияния
влиятелен
влиятелна
влиятелни
влиятелните
влиятелния
влияят
влошава
влошаване
влошават
влюбва
влюбват
влюбен
влюбена
влюбени
вляво
влязат
влязъл
вмеи
вместимост
вместо
вмок
вморо
вмро
вмс
вмф
вн
вна
внася
внасят
внедряване
внезапно
внесе
внесен
внесени
внимание
вниманието
внимателно
внос
вноса
вноски
внс
внук
внука
внукът
внуци
внуците
внучка
внучката
внушителна
во
вода
водата
водач
водача
водачеството
водачи
водачите
водачът
водеи
воден
водена
водене
воденето
водени
воденица
воденицата
воденичаров
водено
воденска
воденско
водещ
водеща
водещата
водещи
водещите
водещия
водещият
водещо
води
водил
водина
водите
водка
водна
водната
водни
водните
водния
водният
водно
водното
водныи
вододел
вододела
водоем
водоеми
водоизместимост
водоизместимостта
водолинията
водопад
водопада
водопади
водопадът
водопровод
водорасли
водород
водорода
водосборен
водосборни
водосборните
водосборния
водосборният
водоснабдяване
водоснабдяването
водохранилище
водство
водството
водят
военачалник
военачалници
военен
воениздат
военна
военната
военная
военни
военните
военния
военният
военно
военновъздушни
военновъздушните
военное
военноиздателски
военноисторически
военноморска
военноморската
военноморски
военноморските
военноморския
военноморско
военнопленници
военнопленниците
военнослужещи
военното
вожд
вожда
вождове
вои
воин
воини
воините
вокал
вокален
вокали
вокалист
вокалиста
вокалистка
вокалите
вокална
вокални
вокално
волга
волдемор
волденберг
волеи
волен
волжка
волкенщаи
волков
волов
волта
волтер
волф
волфганг
волфег
волфенбютел
волфрам
волфсбург
воля
волята
вон
вормс
воронежка
ворошилов
восток
восък
вот
вота
вото
воюва
воюват
воюващите
вояджър
впечатлен
впечатление
впечатлението
впечатления
впечатлява
впечатляващ
впечатляваща
впечатляващи
вписан
вписани
вписва
вписване
вписват
впоследствие
впрочем
впуска
вр
враг
врага
врагове
враговете
врагът
вражда
враждата
враждебна
враждебни
враждебно
враждебност
вражески
вражеските
врана
враня
врата
вратар
вратаря
вратарят
вратата
врати
вратите
враца
врач
врачански
врачанско
вреда
вреди
вредни
време
времеви
времена
времената
временен
времени
временна
временната
временни
временно
временното
времето
времетраене
время
вроцлав
връв
връзка
връзката
връзки
връзките
връх
връчва
връчване
връчването
връчват
връчен
връчена
връща
връщаи
връщане
връщането
връщат
вс
все
всеволод
всевъзможни
вседържител
всеки
вселена
вселената
вселенската
вселенски
всеобща
всеобщо
всероссии
всесоюзная
всех
вси
всичката
всички
всичките
всичко
всичкото
вследствие
всред
встрани
встъпва
встъпването
всъщност
всяка
всякаква
всякакви
всякакво
всякакъв
всяко
всякога
вт
вта
втк
втора
втората
втори
вторите
вторичен
вторични
вторично
втория
вторият
вторник
второ
втородивизионния
второи
второкласен
второстепенна
второстепенни
второто
вту
вуи
вук
вулкан
вулкана
вулкани
вулканичен
вулканична
вулканични
вулканът
вход
входа
входната
входни
входно
входове
входовете
входът
вчера
въ
във
въведе
въведен
въведена
въведени
въведение
въведено
въвежда
въвеждане
въвеждането
въвеждат
въглеводороди
въглен
въглерод
въглерода
въглероден
въглеродни
въглехидрати
въглища
въже
въжета
въжето
въз
възбуда
възвишение
възвишението
възвишения
възвишенията
възвръща
възвърне
възглед
възгледи
възгледите
въздеи
въздух
въздуха
въздухът
въздушен
въздушна
въздушната
въздушни
въздушните
въздушния
въздушно
въздушното
възел
възела
възкачва
възкачването
възкресение
възкресението
възлага
възли
възлиза
възлизат
възложена
възложено
възможен
възможна
възможни
възможните
възможно
възможност
възможности
възможностите
възможността
възмущение
възнаграждение
възнаграждения
възнамерява
възнесение
възниква
възникване
възникването
възникват
възникнал
възникнала
възникнали
възникнало
възникне
възобновява
възобновяване
възпаление
възпитание
възпитанието
възпитаник
възпитаници
възпитаниците
възпитател
възползва
възползваи
възползват
възпоменателен
възпрепятства
възприема
възприемане
възприемането
възприемат
възприет
възприета
възприето
възприятие
възпроизвежда
възпроизвеждане
възражда
възраждане
възраждането
възражения
възраст
възрастен
възрасти
възрастна
възрастната
възрастни
възрастните
възрастния
възрастният
възрастова
възрастови
възрастта
възрожденец
възрожденска
възрожденски
възстание
възстановен
възстановена
възстановената
възстановени
възстановено
възстанови
възстановка
възстановява
възстановяване
възстановяването
възстановяват
възстановят
възторг
възхищава
възхищение
възход
възхода
възходът
вълев
вълк
вълка
вълканов
вълко
вълков
вълкът
вълна
вълната
вълнение
вълнения
вълни
вълните
вълци
вълците
вълчанов
вълчев
вълчи
вълчо
вълшебната
вън
външен
външна
външната
външни
външните
външния
външният
външно
външното
въображение
въображението
въобще
въоръжен
въоръжена
въоръжената
въоръжени
въоръжение
въоръжението
въоръжените
въоръжения
въоръжено
въплъщение
въпреки
въпрос
въпроса
въпроси
въпросите
въпросната
въпросните
въпросът
вър
върба
върбанов
върбица
върви
вървим
вървя
вървят
въри
върмонт
върна
върнал
върнат
върната
върнати
върнато
върне
въртене
въртенето
върти
въртят
въртящ
въртящи
върха
върхове
върховен
върховенството
върховенъ
върховете
върховната
върховния
върховният
върховно
върховното
върху
върхът
вършат
вършец
върши
въстава
въстават
въстаналите
въстание
въстанието
въстаници
въстаниците
въстаническа
въстания
вътре
вътрешен
вътрешна
вътрешната
вътрешни
вътрешните
вътрешния
вътрешният
вътрешно
вътрешността
вътрешното
въча
вып
вьорнер
вюртемберг
вюрцбург
вяра
вярата
вярва
вярваи
вярвали
вярвам
вярвания
вярванията
вярват
вярваш
вярващи
вярващите
вярна
вярно
вярност
вятър
вятъра
вятърът
вячеслав
г
га
габе
габи
габон
габриел
габриела
габриеле
габрово
габровска
габровски
габровско
габър
гавраил
гавриил
гаврил
гаврилов
гага
гагарин
гадене
гаджанов
гадже
гаджев
гаетано
газ
газа
газене
газета
гази
газова
газове
газовете
газови
газовите
газпром
гаи
гал
гала
галактика
галактиката
галактики
галата
галатасараи
галац
галба
галеацо
гален
галена
галерии
галерия
галерията
гали
галилеи
галилео
галин
галина
галиполи
галисия
галите
галиция
галичник
галия
гало
галоус
галчев
галя
гама
гамбия
гана
ганг
ганглии
ганд
гандалф
ганди
ганев
ганева
ганчев
ганчева
ганчо
ганьо
гара
гарантира
гарантират
гаранции
гаранция
гарата
гарван
гарванов
гаргано
гардиън
гарднър
гардън
гарет
гари
гарибалди
гарнизон
гарнизона
гарнизони
гарос
гарсия
гастон
гастролира
гата
гаус
гащи
гваделупа
гвардеи
гвардия
гватемала
гвиана
гвинеи
гвинея
гг
гданск
где
гдето
гдр
ге
гебхард
гевара
гевгели
гевгелии
гедерн
геи
гел
гелдерн
геминген
ген
гена
генадиев
генадии
генеалогия
генерал
генерала
генерален
генерали
генералите
генерална
генералната
генералните
генералния
генералният
генерално
генералното
генералът
генеральныи
генератор
генератора
генератори
генерация
генерира
генериране
генерират
генетика
генетичен
генетична
генетични
генетично
гени
гении
генков
гено
генов
генова
геновева
геноцид
гент
генуа
генчев
генчева
генчо
гео
географ
географические
географических
география
географията
географска
географската
географски
географските
географския
географско
географското
геодезия
геолог
геология
геологията
геоложка
геоложки
геометрична
геометрични
геометрия
геометрията
георг
георге
георги
георгиев
георгиева
георгиевски
георгии
георгиос
гер
гера
герасим
герасимов
герб
герба
гербът
гергана
гергова
гергьовден
герджиков
гереро
гери
герлах
герман
германец
германии
германик
германистика
германия
германо
германов
германска
германската
германски
германските
германския
германският
германско
германското
германци
германците
геро
геров
герои
героизъм
героиня
героинята
героите
геролдсек
героя
героят
гертруд
гертруда
герхард
гестапо
гета
гети
гето
гешев
гешов
гея
ги
гибел
гибелта
гибралтар
гибсън
гигант
гиганти
гигантска
гигантски
гигантския
гиз
гизела
гии
гилбърт
гилдията
гилермо
гилмор
гилън
гимназиален
гимназии
гимназия
гимназията
гимнастика
гинес
гипс
гирландаи
гк
гкпп
гл
глава
главата
главен
глави
главите
главна
главнаго
главната
главни
главните
главния
главният
главно
главнокомандващ
главнокомандващия
главното
главоболие
глагол
глагола
глаголи
глаголите
глад
глада
гладка
гладки
гладко
гладни
глазгоу
глаи
глас
гласа
гласи
гласна
гласни
гласните
гласове
гласовете
гласува
гласуване
гласуването
гласуват
гласът
глаухау
гледа
гледаи
гледам
гледан
гледане
гледания
гледат
гледаш
гледаше
гледка
гледки
гледна
гледната
гледни
глен
глина
глинени
глинести
глини
глоба
глобален
глобална
глобалната
глобални
глобално
глобалното
глоби
глобус
глория
глостър
глоувър
глупав
глупак
глупост
глупости
глупостта
глухите
глушковъ
глюкоза
глюксбург
гнаи
гнева
гнезда
гнездата
гнездене
гнезди
гнездо
гнездото
гнездят
гнеи
гняв
го
гоа
говеда
говор
говора
говорен
говорене
говореше
говорещи
говорещите
говори
говорим
говорител
говориш
говоря
говорят
гог
гого
гогол
год
года
годежа
годеница
годеницата
година
годината
години
годините
годишен
годишна
годишната
годишни
годишник
годишнина
годишнината
годишните
годишния
годишният
годишно
годишното
годни
годунов
гои
гол
гола
голгота
голдбърг
голдън
голем
голема
големи
големина
големината
големите
големия
големият
големо
голи
голмаи
голо
голова
голове
голф
голям
голяма
голямата
голямо
голямото
гомес
гонг
гондзага
гонения
гоненията
гонзага
гонзалес
гони
гоно
гонсалес
гонсало
гор
гора
горан
горанов
гората
горбачов
горд
гордее
горди
гордиан
гордо
гордост
гордостта
гордън
горе
горен
горене
горенци
горещ
гореща
горещи
горещите
горещо
гори
горива
горивната
гориво
горивото
гористи
горите
горица
горички
горки
горко
горна
горната
горни
горните
горния
горният
горно
горноджумаи
горното
горнотракии
город
города
городских
горска
горската
горски
горските
горския
горско
горското
горчив
горчивина
горчиво
господ
господа
господар
господари
господарите
господарка
господаря
господарят
господен
господи
господин
господине
господинов
господне
господство
господството
госпожа
госпожица
гост
гости
гостивар
гостите
гостоприемници
гостува
гостуване
гостуването
государственныи
гот
гота
готварска
готвач
готвене
готви
готвят
готи
готика
готите
готически
готлиб
готов
готова
готови
готовност
готовността
готово
готорп
готски
готфрид
гоце
гоцев
гочев
гоя
гп
гр
гра
грабеж
грабежи
гравитационното
гравитация
гравитацията
гравюри
град
града
градеж
градежа
градец
гради
градина
градинар
градината
градини
градините
градински
градище
градището
градове
градовете
градови
градоустрои
градска
градската
градски
градските
градския
градският
градско
градското
градуса
градче
градчето
градъ
градът
граждани
гражданин
гражданите
гражданска
гражданската
граждански
гражданските
гражданския
гражданско
гражданското
гражданство
гражданството
граи
гракх
грам
грама
грамада
грамадата
граматик
граматика
граматиката
грами
грамота
грамоти
грамотност
гран
гранада
гранати
гранд
гранде
гранди
гранит
гранити
граница
границата
граници
границите
граничен
граничи
гранична
граничната
гранични
граничните
граничния
грант
грас
граф
графа
график
графика
графиката
графики
графиня
графинята
графит
графити
графичен
графична
графични
графично
графове
графовете
графства
графствата
графство
графството
графът
грац
гребане
гребен
гребенаров
гревена
грег
грегор
грегъри
греда
греди
грее
греи
греков
гренада
гренадини
гренадирски
гренландия
гренобъл
грета
греха
грехове
греховете
грец
грешка
грешката
грешки
грешките
грешно
греъм
гривни
григор
григорианския
григории
григоров
григорович
грижа
грижат
грижата
грижи
грижите
гризач
гризачи
грии
грим
гринуич
грип
гриша
гроб
гроба
гробаря
гробища
гробищата
гробище
гробищен
гробището
гробница
гробницата
гробници
гробниците
гробове
гробовете
гробът
грозданов
грозде
гроздето
грозев
грозни
грос
гросмаи
гросо
грохот
гроша
груб
груба
грубенхаген
груби
грубо
груев
грузинска
грузинската
грузински
грузинския
грузия
грумбах
груп
група
групата
групи
групирани
групировка
групировката
групировки
групите
групов
групова
груповата
групови
гръб
гръбначни
гръбначните
гръбначния
гръдния
грък
гръко
гръм
грънчаров
гръцка
гръцката
гръцки
гръцките
гръцкия
гръцкият
гръцко
гръцкото
грях
гу
гуа
гуадалупе
гуам
гуандун
гуанси
губеи
губернатор
губернатора
губернаторът
губерния
губи
губят
гугъл
гуеи
гуидо
гулаг
гулдена
гума
гумендже
гуми
гумите
гунделфинген
гурко
гурково
гуру
гусла
гусман
густав
густаво
гутенберг
гутиерес
гучи
гущер
гущери
гщ
гъба
гъбата
гъби
гъбите
гъвкави
гъвкавост
гъл
гълъб
гълъби
гълъбов
гълъбови
гълъбово
гън
гънки
гър
гърба
гърдата
гърдев
гърди
гърдите
гъркомани
гърло
гърлото
гърци
гърците
гърция
гъска
гъски
гъста
гъсти
гъсто
гъстота
гъстотата
гьобелс
гьоринг
гьорче
гьоте
гьотеборг
гьотинген
гюешево
гюзелев
гюмюрджина
гюнтер
гюргево
гюстав
гюстров
д
да
даби
дава
даваи
давал
давам
даваме
даване
даването
дават
давид
давидов
даг
дагестан
дагсбург
дадат
даде
даден
дадена
дадената
дадени
дадените
дадения
дадено
даденото
даже
даи
дакар
дакия
дакота
дал
дала
далаи
далас
далберг
далекобои
далеч
далече
далечен
далечина
далечината
далечна
далечната
далечни
далечните
далечния
далечно
далечното
дали
далмация
дало
далчев
дам
дама
дамаск
дамаскин
дамата
даме
дами
дамски
дамян
дамянов
дамјановска
дан
дана
данаил
данаилов
данев
дани
даниел
даниела
даниелс
даниил
данило
даниъл
дания
данни
данните
дано
данов
данс
данте
данциг
данчев
данък
данъка
данъци
данъците
данъчен
данъчна
данъчната
данъчни
данъчните
данъчно
дар
дара
дарба
дарби
дарвин
дарданелите
дарени
дарение
дарения
дари
дарии
дарик
дарил
дарио
дарител
дарители
дарко
дармщат
дарове
даровете
дарява
даряват
даскал
даскалов
дат
дата
датата
дати
датира
датиран
датирана
датиране
датирани
датират
датираща
датиращи
датите
датска
датската
датски
датския
даун
дафни
дахау
дахо
дашьян
даян
даяна
дв
два
двадесет
двадесети
дваи
двама
двамата
дванадесет
дванадесети
дванадесетте
дванаи
двата
две
двери
двеста
двете
двиа
двигател
двигатели
двигателите
двигателя
двигателят
движат
движение
движението
движения
движенията
движеща
движещи
движи
двина
двоен
двои
двор
двора
дворец
двореца
дворецът
дворове
дворци
дворците
дворцов
дворцова
дворцовата
дворцовия
дворът
дворянин
двубои
двубоя
двуетажна
двукратен
двуоръдеи
двустранни
двустранно
дг
ддс
де
дебарско
дебат
дебати
дебел
дебела
дебели
дебелина
дебелината
дебелото
дебелянов
дебит
дебора
дебър
дебърска
дебърската
дебърски
дебърско
дебърското
дебърца
дебют
дебюта
дебютен
дебютира
дебютния
дебютният
дебютът
дева
девет
девета
деветата
деветдесет
девети
деветия
деветнадесетомаи
девето
деветосептемврии
деветоюнския
деветте
девиз
девин
девическа
девически
девическо
девическото
девня
девои
девън
дедеагач
дедо
деен
деец
деи
дек
декан
декара
декарт
декември
декларация
декларацията
декларира
декоративен
декоративна
декоративни
декоративно
декорации
декорация
декрет
декстър
дел
дела
делата
делауеър
делберг
деле
делев
делегат
делегати
делегатите
делегация
делегацията
делене
деление
дели
делник
делничен
дело
делото
делта
делтата
делфи
делфин
делхи
делчев
делчо
делът
дельо
делян
делят
дем
деметра
деметрии
деми
демир
демо
демова
демовия
демографска
демографски
демократи
демократите
демократичен
демократическа
демократическата
демократически
демократическия
демократична
демократичната
демократични
демократичните
демократично
демокрация
демокрацията
демон
демони
демонстрации
демонстрация
демонстрира
демонстрират
ден
дена
денвър
денев
денем
дени
дениз
денис
деница
денов
денонощие
денонощието
денонощия
денс
день
деня
денят
деп
депаи
департамент
департамента
департаменти
департаментът
депо
депортиво
депортирани
депресия
депресията
депутат
депутати
депутатите
дер
дерби
дербито
дервент
дере
дерек
дери
дерида
дерменджиев
десант
десанта
десантни
десау
десен
десерт
десет
десета
десетата
десети
десетилетие
десетилетието
десетилетия
десетина
десетки
десетоного
десетте
деси
десислава
десни
десните
десницата
десния
десният
деспот
деспотство
дестилация
дестинации
дестинация
дет
детаи
дете
детектив
детелина
детето
детмолд
дето
детрои
детска
детската
детски
детските
детския
детско
детското
детство
детството
дефанзивен
дефекти
дефиле
дефинира
дефинирана
дефинирани
дефинират
дефиниции
дефиниция
дефиницията
дефицит
деформация
дефтер
деца
децата
деции
децим
дечански
дечев
дечко
дечо
деян
деяние
деяния
деянов
деятел
деятели
деятелка
дж
джа
джаз
джаза
джаи
джак
джакарта
джаки
джакомо
джаксън
джамбазов
джамии
джамия
джамията
джан
джанет
джани
джанската
джански
джебел
джеи
джексън
джем
джемини
джена
джени
дженифър
дженкинс
дженоа
джералд
джерард
джери
джерико
джеръми
джеси
джесика
джеф
джеферсън
джефри
джи
джибути
джиев
джизие
джии
джил
джим
джими
джин
джина
джироламо
джо
джоан
джоба
джобс
джована
джовани
джоди
джоел
джои
джон
джонас
джонатан
джони
джонс
джонстън
джонсън
джордан
джордано
джордж
джорджия
джорджо
джоу
джоузеф
джоуи
джоунс
джош
джошуа
джу
джудже
джуджета
джуджетата
джуди
джудит
джудо
джузепе
джули
джулиан
джулиано
джулиет
джулио
джулия
джумая
джун
джунглата
джуниър
джъд
джъл
джън
джър
джъри
джърси
джъстин
дзен
дзин
дзъ
ди
диабет
диагноза
диагнозата
диагностика
диаграма
диаграмата
диал
диалект
диалекта
диалекти
диалектологические
диалектология
диалог
диалога
диалози
диамант
диаманти
диаметър
диаметъра
диаметърът
диана
диапазон
диапазона
диарбекир
диария
диас
диаспора
див
дива
дивата
дивеч
диви
дивизии
дивизион
дивизионен
дивизионна
дивизия
дивизията
дивисион
дивите
дивия
диво
диги
дигитален
дигитална
дигитални
дигитално
диджеи
диджитал
дидие
дидро
диего
диема
диета
диетата
дижон
дизаи
дизел
дизелов
дизелови
дии
дик
дикенс
дикинсън
диков
диксън
диктатор
диктатора
диктатура
диктатурата
диленбург
дилинген
дилън
дим
дима
димитри
димитриев
димитрии
димитрина
димитриос
димитрис
димитров
димитрова
димитровград
димитровден
димитровска
димитър
димо
димов
димова
диморфизъм
димче
димчев
димчо
дин
динамика
динамиката
динамичен
динамична
динамични
динамично
динамо
династии
династия
династията
динев
динков
дино
дио
диоген
диодор
диоклециан
диоксид
дион
дионис
дионисии
диоцез
диоцеза
диплом
диплома
дипломат
дипломата
дипломати
дипломатическа
дипломатическата
дипломатически
дипломатическите
дипломатическо
дипломация
дипломацията
дипломира
дипломирането
дипломна
дипхолц
дир
директен
директива
директивата
директна
директни
директно
директор
директора
директори
директорите
директория
директорът
дирекции
дирекция
дирекцията
диригент
диригентството
дирижира
дирижиране
дирк
дис
дисертация
дисертацията
диск
диска
дискавъри
диско
дискове
дискография
дискриминация
дискусии
дискусия
дисни
дисплеи
дистанции
дистанционно
дистанция
дистанцията
дистрибуция
дисциплина
дисциплинарно
дисциплината
дисциплини
дисциплините
дитер
дитрих
дитрихщаи
диференциация
дихателните
диц
дичев
дичо
дишане
дишането
диъм
дка
дкмс
длиц
длъжен
длъжни
длъжника
длъжност
длъжности
длъжностите
длъжностни
длъжностно
длъжността
для
дмитрии
дн
дневен
дневна
дневни
дневник
дневника
дневникът
дневници
дневниците
дневния
дневно
днепър
днес
днестър
днешен
днешна
днешната
днешни
днешните
днешния
днешният
днешно
днешното
дни
дните
днк
до
добавен
добавена
добавени
добавено
добави
добавите
добавка
добавки
добавя
добавяне
добавянето
добавят
добив
добива
добиване
добиват
добивът
добитък
добитъка
доближава
добра
добрата
добре
добрев
добрева
добри
добрин
добринище
добрите
добрич
добрия
добрият
добро
доброволен
доброволец
доброволни
доброволно
доброволци
доброволческа
доброволчески
добродетел
добродетели
добродетелта
добромир
доброта
доброто
добруджа
добруджанска
добруджански
добруджанското
добър
доведат
доведе
доведен
довежда
довеждат
довел
довела
довели
довело
доверие
доверието
доволен
доволни
довършва
довърши
дог
доган
договаря
договарят
договарящите
договор
договора
договори
договорите
договорът
доде
дож
доживотен
доза
дози
дои
док
докаже
доказан
доказана
доказани
доказано
доказателства
доказателствата
доказателство
доказва
доказване
доказват
докато
доклад
доклада
докладва
доклади
докладите
докладът
доколко
доколкото
докосва
докосване
докраи
доктор
доктора
докторанти
докторантура
докторат
докторов
докторска
докторската
докторът
доктрина
доктрината
документ
документа
документален
документалистика
документална
документални
документалния
документално
документация
документи
документирани
документирано
документите
документът
дол
долабела
долар
долара
долари
долен
доли
долина
долината
долини
долините
долна
долната
долни
долните
долния
долният
долно
долното
долорес
долу
дом
дома
домакин
домакини
домакините
домакинската
домакински
домакинските
домакинства
домакинствата
домакинство
домакинството
домакиня
домати
домашен
домашна
домашната
домашни
домашните
домашно
домашното
домаћинстава
домеи
доменико
доминго
доминик
доминика
доминиканска
доминиканската
доминира
доминират
доминираща
домициан
домиции
домове
домовете
домхер
домът
дон
дона
доналд
донася
донасят
донатело
донбас
донг
донев
донесе
донесени
донецк
дони
доницети
донка
донков
донски
дончев
дончева
дончо
доня
донякъде
доп
допинг
допир
допреди
допринася
допринасят
допринесе
допринесли
допуска
допускане
допускат
допуснат
допуснати
допусне
допълва
допълват
допълнена
допълнение
допълнения
допълнено
допълнителен
допълнителна
допълнителни
допълнителните
допълнително
допълнителното
дор
дора
дордже
дори
дории
дорис
дория
доротея
дороти
дортмунд
дос
досега
досие
досиетата
доспат
доста
доставени
достави
доставка
доставката
доставки
доставките
доставчик
доставчици
доставя
доставят
достатъчен
достатъчна
достатъчни
достатъчно
достига
достигаи
достигане
достигането
достигат
достигащи
достигна
достигнал
достигнала
достигнали
достигнат
достигне
достоверни
достоевски
достоен
достои
достояние
достъп
достъпа
достъпен
достъпна
достъпни
достъпно
достъпът
дотам
дотогава
дотолкова
дотук
доусън
дофин
доха
доход
доходи
доходите
доц
доцент
дочев
дочо
дошла
дошли
дошло
дошъл
доюлианския
дп
дпмне
дпс
др
драва
драган
драганов
драгаш
драго
драговищица
драгои
драгоман
драгомир
драгомиров
драи
дракон
дракона
дракони
дракула
драма
драмата
драматичен
драматична
драматични
драматичния
драматично
драматург
драматургия
драми
драмско
драстично
драч
дребен
дребна
дребни
дребните
дребно
древен
древна
древната
древни
древните
древния
древният
древно
древногръцката
древногръцки
древногръцките
древногръцкия
древноримски
древност
древността
древното
дредноут
дрезден
дреи
дреха
дрехи
дрехите
државен
дрии
дрин
дринов
дрих
дриън
дроб
дробове
дрожди
друг
друга
другаде
другар
другари
другарите
другата
други
другите
другия
другият
друго
другото
дружба
дружбата
дружества
дружествата
дружество
дружеството
дружина
дружината
дружини
друз
друмев
дръжка
дръжката
дръжки
дръзки
дрю
дряново
дс
дсб
дсо
дт
ду
дуаи
дубаи
дублаж
дублажа
дублажи
дублажът
дублира
дублиращия
дубровник
дубъл
дуел
дует
дуета
дузина
дузпа
дузпи
дуи
дук
дука
дукина
дума
думата
думи
думите
дунав
дунава
дунавска
дунавската
дунавски
дунавските
дунавския
дуо
дуото
дупка
дупката
дупки
дупница
дуранкулак
дуриданов
дурлах
дути
дутин
дух
духа
духов
духове
духовен
духовенство
духовенството
духовете
духови
духовна
духовната
духовни
духовник
духовните
духовници
духовния
духовно
духовното
духът
душа
душан
душата
душевно
души
душите
душки
дхарма
дъ
дъб
дъблин
дъбник
дъбова
дъбови
дъга
дъгата
дъги
дъглас
дъдли
дъжд
дъжда
дъждове
дъждовен
дъждовни
дъждовно
дъждът
дъл
дълбок
дълбока
дълбоката
дълбоки
дълбоките
дълбоко
дълбокото
дълбочина
дълбочината
дълг
дълга
дългата
дълги
дългите
дългия
дългият
дълго
дългове
дълговете
дългогодишен
дългогодишна
дългогодишната
дългогодишния
дългосрочен
дългосрочни
дългото
дълготраи
дължат
дължи
дължина
дължината
дължини
дълъг
дъмбълдор
дън
дъна
дънкан
дъно
дънов
дъното
дър
дърам
дърва
дървен
дървена
дървената
дървени
дървените
дървено
дървесина
дървесината
дървесна
дървесни
дървета
дърветата
дърво
дърворезба
дървото
държа
държава
държавата
държавен
държави
държавите
държавна
държавната
държавни
държавник
държавните
държавния
държавният
държавно
държавност
държавното
държан
държани
държат
държи
дъска
дъската
дъски
дъф
дъх
дъщери
дъщерите
дъщеря
дъщерята
дьо
дьонхоф
дю
дюи
дюк
дюлгеров
дюма
дюн
дюни
дюнкерк
дюселдорф
дюш
дявол
дявола
дяволи
дяволите
дяволът
дяда
дядо
дядото
дяков
дякон
дял
дяла
дялан
дялове
дянков
дясна
дясната
дясно
дясното
е
еад
еберсдорф
еберхард
еберщаи
ев
ева
евакуация
евакуацията
евакуирани
евангелие
евангелието
евангелия
еванс
евбея
евгени
евгении
евгения
евдокия
евентуален
евентуална
евентуални
евентуално
еверест
евертън
еверщаи
евклид
евлия
евлоги
еволюира
еволюция
еволюцията
евразии
евразия
евреи
евреин
евреите
евридика
еврипид
евро
евровизия
еврозоната
европа
европеец
европеи
европы
еврото
евротурнирите
евсевии
евстатии
евтим
евтимии
евтимов
евтин
евтина
евтини
евтино
евънс
еге
егеи
егејскиот
егидата
египет
египетска
египетската
египетски
египетските
египетския
египтяни
египтяните
егмонт
его
егон
ед
еда
едва
едвам
едвард
едгар
еден
едеса
еди
едикт
едил
един
единадесет
единадесета
единадесети
единаи
единбург
единен
единица
единицата
единици
единиците
единичен
единична
единични
единично
единия
единият
единна
единния
единно
единодушно
единствен
единствена
единствената
единствените
единствения
единственият
единствено
единственото
единство
единството
едип
едисън
едит
едмънд
една
еднаква
еднакви
еднакво
еднакъв
едната
едни
едните
едно
едноапсидна
едновременно
едногодишен
еднозначно
едноименен
едноименна
едноименната
едноименния
едноименният
едноименното
еднокорабна
еднократно
едноличен
еднорог
едностранно
едното
едо
едра
едри
едрите
едро
едуар
едуард
едуардо
едуардс
едуин
едър
ее
ежегоден
ежегодния
ежегодно
ежедневен
ежедневието
ежедневни
ежедневник
ежедневните
ежедневния
ежедневно
ежи
ез
езда
езера
езерата
езеро
езерото
език
езика
езиков
езикова
езиковата
езиковед
езикови
езиковите
езиково
езикознание
езикът
езици
езиците
езически
езуитите
еи
еио
ек
ека
екатерина
екатеринбург
еквадор
екватора
екваториална
еквивалент
екзарх
екзархии
екзархисти
екзархия
екзархията
екзекутиран
екзекутирани
екзекуции
екзекуция
екзекуцията
екземпляр
екземпляра
екземпляри
екзотични
екип
екипа
екипаж
екипажа
екипажи
екипажите
екипажът
екипи
екипировка
екипите
екипът
еко
екологична
екологични
екологично
екология
екологията
екосистеми
екран
екрана
екрани
екранизация
екранизиран
екраните
екс
експанзия
експедиции
експедициите
експедиция
експедицията
експеримент
експеримента
експериментален
експериментална
експериментални
експериментално
експерименти
експериментира
експериментите
експерт
експерти
експертите
експлоатация
експлоатацията
експлоатира
експлозиви
експлозия
експлозията
експозиции
експозиция
експозицията
експонати
експрес
екстремни
ектор
екшън
екщедт
ел
ела
елада
елам
елас
еласона
елба
елвира
елвис
елдъров
елегия
електра
електрическа
електрическата
електрически
електрическите
електрическия
електрическо
електрическото
електричество
електричеството
електро
електроенергия
електромагнитни
електромагнитно
електрон
електрона
електронен
електрони
електроника
електрониката
електроните
електронна
електронната
електронни
електронните
електронния
електронно
електронното
електротехника
електроцентрала
електроцентрали
елемент
елемента
елементарни
елементарните
елементи
елементите
елен
елена
елени
елеонора
елешница
елза
елзас
ели
елиас
елиза
елизабет
елизабета
елии
елиминации
елиминира
елиминиран
елин
елинор
елиптична
елис
елисавета
елит
елита
елитната
елитния
елица
елиът
елия
елка
ело
елтън
елфи
елфите
елхово
елцин
елън
ем
ема
емаи
емануел
емануил
еманюел
емблема
емблемата
емден
емен
емерсон
еми
емигрант
емигранти
емигрантски
емиграция
емиграцията
емигрира
емигрират
емил
емили
емилиан
емилии
емилио
емилия
емилиян
емин
емине
емир
емирства
емисии
емисиите
емисия
емих
емма
емоции
емоциите
емоционален
емоционална
емоционални
емоционално
емоция
емс
ен
ена
енар
енбург
енгелберт
енгелс
енгъл
енд
ендемичен
ендемични
енев
енеи
енергетика
енергетиката
енергиен
енергии
енергичен
енергично
енергия
енергията
ензим
ензима
ензими
ензимите
ени
енигма
енидже
ениджевардарско
ениджевардарското
еникьои
енисеи
ено
енории
енория
енорията
енрике
енрико
енс
ентитета
ентусиазъм
ентърпраи
ентъртеи
енциклопедичен
енциклопедия
енциклопедията
енциклопедија
енцо
енчев
енчо
енщаи
еня
ео
еоод
еп
епархии
епархия
епархията
епархија
епиграми
епидемии
епидемия
епидемията
епизод
епизода
епизоди
епизодите
епизодични
епилепсия
епир
епископ
епископа
епископи
епископите
епископия
епископски
епископство
епископът
епопея
епос
епоха
епохата
епохи
епстии
епщаи
ер
ера
еразмус
еразъм
ерархия
ерархията
ерата
ербах
ервин
ердман
ердоган
ереван
еремия
ерера
ерес
ери
ерик
ерика
ериксон
еритрея
ерих
ерколе
ерма
ерн
ернандес
ернест
ернестина
ернесто
ернст
еро
ероглифи
ерозия
ерозията
еромонах
ероним
ерос
еротичен
еротични
ерусалим
ерфурт
ерцхерцог
ерцхерцогиня
ес
есе
есеист
есекс
есен
есенен
есенна
есенни
есенния
есенно
есента
есета
есето
ескадра
ескадрата
ескадрила
ескадрон
ескадрона
ески
ескорт
если
есмералда
еспаньол
есперанто
ест
есте
естебан
естер
естествен
естествена
естествената
естествени
естествените
естествения
естественият
естествено
естественото
естество
естеството
естетика
естетиката
естетически
естония
естонската
естонски
естрада
есть
есхил
ет
ета
етаж
етажа
етажи
етап
етапа
етапи
етиен
етика
етиката
етикет
етимологичен
етимология
етимологията
етиопия
етническа
етническата
етнически
етническите
етническия
етническият
етническо
етничка
етно
етнограф
етнография
етнографска
етнографски
етнографско
етнология
етнос
етноси
ето
етолии
етрополе
етруски
етруските
етър
етюди
еф
ефект
ефекта
ефекти
ефективен
ефективна
ефективни
ефективно
ефективност
ефективността
ефективното
ефектите
ефектът
ефенди
ефес
ефир
ефира
ефрат
ефреи
ефрем
ефрона
ефтимов
ех
ехо
ечемик
ешелон
ешенбах
еще
еър
ж
жа
жаба
жаби
жажда
жак
жаклин
жалба
жалбата
жалби
жалост
жан
жана
жандармерии
жандармерия
жандармерията
жанеи
жанет
жанр
жанра
жанрове
жанровете
жар
жарие
жасмин
же
жеко
жеков
желае
желаещи
желаната
желание
желанието
желания
желанията
желателно
желая
желаят
желев
железен
железни
железните
железница
железницата
железници
железниците
железния
железният
железопътен
железопътна
железопътната
железопътни
железопътните
железопътния
желю
желязков
желязна
желязната
желязо
желязото
жена
жената
женева
женен
женена
женени
жени
женитба
женитбата
женитби
жените
женска
женската
женски
женските
женския
женско
женското
женят
жераи
жерар
жермен
жертва
жертвата
жертви
жертвите
жертвоприношение
жертвоприношения
жест
жестове
жесток
жестока
жестоки
жестоко
жестокост
жечев
жечпосполита
жив
жива
живак
живата
живее
живеели
живеем
живеене
живееш
живеещ
живеещи
живеещите
живеи
живели
живея
живеят
живи
живите
живка
живко
живков
живкова
живо
живопис
живописен
живописец
живописна
живописни
живописта
живописци
живот
живота
животинска
животински
животинския
животинският
животни
животните
животно
животновъдство
животновъдството
животното
животъ
животът
живял
живяла
жизнен
жизнения
жизнено
жизни
жизнь
жил
жила
жилища
жилищата
жилище
жилищен
жилището
жилищна
жилищни
жилищните
жилищния
житеи
жител
жители
жителите
житие
житието
жития
житни
жито
жк
жлеза
жлези
жоао
жозе
жозеф
жорж
жофроа
жп
жребии
жребият
жрец
жск
жуан
жуау
жуков
жул
жулиета
жупан
жупания
жури
журито
журнал
журналист
журналиста
журналисти
журналистика
журналистиката
журналистите
журналистка
журналистката
журналистът
жълт
жълта
жълтата
жълти
жълто
з
за
заалфелд
забавен
забави
забавление
забавления
забавлява
забавна
забавни
забавя
забавяне
забавят
забаи
забележи
забележителен
забележителна
забележителни
забележителните
забележително
забележителност
забележителности
забележителностите
забележка
забележки
забелязан
забелязана
забелязани
забелязва
забелязват
заблатена
заблатени
заблуда
заболява
заболяване
заболяването
заболявания
заболяванията
забрава
забравен
забравени
забравените
забрави
забравя
забравят
забрана
забраната
забранен
забранена
забранени
забранено
забрани
забранява
забраняват
заварва
заведе
заведение
заведения
завежда
завеждащ
завеса
завет
завещава
завещание
завещанието
завзема
завземане
завземането
завземат
завземе
завива
завинаги
зависи
зависим
зависима
зависими
зависимост
зависимости
зависимостта
завист
зависят
завладее
завладени
завладеят
завладява
завладяване
завладяването
завладяват
завладян
завладяна
завод
завода
заводи
заводите
заводски
заводът
завоевание
завоевания
завоевателя
завои
завоюва
завоюването
завоя
завръща
завръщане
завръщането
завръщат
завърна
завърнал
завърнат
завърне
завърта
завъртане
завършва
завършваи
завършване
завършването
завършват
завършващи
завършек
завършен
завършена
завършени
завършено
завърши
завършил
завършила
завършили
завършилите
загадка
загадки
загива
загиват
загинал
загинали
загиналите
загине
заглавие
заглавието
заглавия
заглавията
заглавната
заговезни
заговор
заговора
заговори
заговорниците
загора
загоричани
заграждения
загреб
загриженост
загряване
загуба
загубата
загубва
загубват
загубен
загубена
загубени
загуби
загубил
загубила
загубили
загубите
зад
задава
задават
задар
задача
задачата
задачи
задачите
задвижва
задвижване
задграничното
задеи
заден
задна
задната
задни
задните
задния
задно
задното
задоволи
задоволява
задоволяване
задочно
задълбочава
задълбочени
задълбочено
задължава
задължават
задължени
задължение
задължението
задължения
задълженията
задължителен
задължителна
задължителни
задължително
задържа
задържан
задържане
задържането
задържани
задържат
задържи
заедно
заек
заели
заем
заема
заемаи
заемал
заемане
заемат
заемаща
заеме
заеми
заемка
заемки
зает
заета
заети
заето
заетост
заетостта
заж
зажа
зажи
заживява
заи
заимов
заинтересовани
заинтересованите
зак
заклева
заклеи
заклинание
заключава
заключение
заключението
заключения
заключителни
закон
закона
законен
закони
законите
законни
законно
законодателен
законодателна
законодателната
законодателни
законодателство
законодателството
законопроект
законът
закрепване
закрепени
закрива
закриване
закриването
закрила
закрилата
закрит
закрита
закрити
закрито
закръглени
закс
закупен
закупена
закупени
закупи
закупува
закупуване
закупуването
закупуват
закуска
закъснение
зала
залавя
залавянето
залавят
залага
залагането
залагат
залата
залежи
залез
залеза
залесена
зали
залив
залива
заливи
заливите
заливът
залите
заличава
заличено
залм
заловен
заловени
залови
залог
заложен
заложени
заложник
заложници
залп
залцбург
зам
замбези
замбия
заменен
заменена
заменени
заменено
замени
заменя
заменяи
заменят
замесен
замества
заместване
заместен
замести
заместител
заместник
заместници
заминава
заминаването
заминават
замине
замислен
замислена
замисля
замисъл
заможен
заможни
заможно
замонашва
замръзва
замък
замъка
замъкът
замърсяване
замърсяването
замъци
замъците
замяна
замяната
занаят
занаята
занаяти
занаятите
занаятчии
занзибар
занимава
занимавал
занимавали
занимават
занимаваща
занимаващи
занимание
занимания
занков
занятия
заобикаля
заобикалящата
заобиколен
заобиколена
заобиколени
заобиколено
заоблени
заострени
запад
запада
западен
западна
западната
западни
западните
западния
западният
западно
западноевропеи
западнои
западноломбардски
западното
западнотракии
запазва
запазваи
запазване
запазването
запазват
запазен
запазена
запазената
запазени
запазените
запазено
запази
запазил
запазила
запазили
запазят
запалва
запалване
запален
запали
запас
запаса
запасен
запаси
запасите
запасни
запетая
запис
записа
записал
записан
записана
записани
записано
записва
записваи
записване
записването
записват
записи
записите
записки
записките
записът
запишат
запише
заплата
заплатата
заплати
заплатите
заплаха
заплахата
заплахи
заплашва
заплашват
заплаща
заплащане
заплащането
заповед
заповеди
заповедите
заповедта
заповядал
заповядва
заподозрени
заподозрян
запознава
запознават
запознае
запознат
започва
започваи
започване
започването
започват
започваща
започна
започнал
започнала
започналата
започнали
започнало
започнат
започната
започнато
започнаха
започне
запълва
запълнени
зара
заради
заражда
заразени
заразяване
заредени
зарежда
зареждане
зареждането
заря
заряд
заряда
заряди
засада
засегнат
засегната
засегнати
засегнатите
заседава
заседание
заседанието
заседания
заседанията
заселва
заселване
заселването
заселват
заселен
заселена
заселени
заселено
заселили
заселници
заселниците
заселят
засилва
засилване
засилват
засили
заслон
заслуга
заслуги
заслугите
заслужава
заслужават
заслужил
заснема
заснемане
заснемането
заснет
заснета
заснети
застава
застават
застои
застрашен
застрашени
застрашените
застрелва
застрелян
застъпва
застъпват
застъпени
застъпник
засяга
засягат
засягащи
затваря
затваряне
затварянето
затварят
затвор
затвора
затворен
затворена
затворени
затворено
затвори
затворите
затворник
затворници
затворниците
затвърждава
затова
затопляне
заточен
заточение
затруднения
затруднено
затруднява
затуи
затъмнение
зафенберг
зафиров
захар
захари
захариев
захариева
захарии
захария
захарна
захарно
захваща
захранва
захранване
зачислен
заштита
защита
защитава
защитават
защитаващ
защитата
защитен
защитена
защитената
защитени
защитените
защитено
защити
защитна
защитната
защитни
защитник
защитните
защитници
защитниците
защитят
защо
защото
заяви
заявка
заявки
заявление
заявлението
заявява
заявяваи
заявяват
збигнев
зборник
звание
званието
звания
званията
звезда
звездата
звезден
звезди
звездите
звездна
звездни
звена
звено
зверове
звук
звука
звуков
звукова
звукове
звукови
звукозаписна
звукозаписната
звукът
звуци
звуците
звучат
звучене
звученето
звучи
звън
звяр
звяра
здание
зданието
здания
зданіи
здрав
здрава
здраве
здравеи
здравен
здравеопазване
здравеопазването
здравето
здравец
здрави
здравина
здравка
здравко
здравков
здравна
здравната
здравни
здравните
здравно
здраво
здравословни
здравословно
здравословното
здрач
здружение
зе
зевс
зее
зеи
зеландия
зеле
зелен
зелена
зелената
зелени
зелените
зеления
зеленият
зелено
зеленчукови
зеленчуци
земаља
земевладелец
земевладелци
земеделец
земеделие
земеделието
земеделска
земеделската
земеделски
земеделските
земеделско
земеделското
земеделци
земен
земетресение
земетресението
земетресения
земи
земиздат
земите
землищата
землище
землището
земна
земната
земни
земните
земния
земно
земноводни
земноводно
земното
земя
земята
зен
зенах
зенберг
зенит
зенитна
зенитни
зенитно
зенон
зенхауер
зепелин
зер
зерслаутерн
зестра
зет
зета
зехтин
зи
зиген
зигизмунд
зигмаринген
зигмунд
зигмунт
зигфрид
зид
зидария
зидаров
зидове
зикинген
зима
зимата
зимбабве
зимен
зимерн
зими
зимна
зимната
зимни
зимните
зимния
зимно
зимното
зимува
зимуване
зина
зинг
зинген
зип
зия
зла
злата
златан
златанов
златарица
златаров
златарски
златев
златен
златина
златица
златка
златко
златков
златна
златната
златни
златните
златния
златният
златно
златното
злато
златоград
златото
златоуст
зле
зли
злите
зло
злоба
злодеи
злополука
злото
злоупотреба
злоупотреби
змеи
змии
змиите
змия
змията
знае
знаеи
знаел
знаели
знаем
знаете
знаех
знаеш
знаеше
знаи
знак
знака
знакът
знам
знаме
знамена
знамената
знаменития
знаменитости
знаменосец
знамето
знание
знанието
знания
знанията
знатен
знаци
знаците
значение
значението
значения
значи
значим
значима
значими
значимите
значимо
значимост
значителен
значителна
значителната
значителни
значителните
значително
значителното
значка
зная
знаят
знеполски
зов
зограф
зографа
зографи
зографски
зографския
зои
золмс
зона
зоната
зондербург
зондерсхаузен
зоненберг
зоненвалде
зони
зоните
зоолог
зоология
зоопарк
зора
зоран
зората
зорница
зоя
зрели
зрение
зрението
зрители
зрителите
зрителя
зрк
зряла
зрялост
зулц
зулцбах
зъб
зъби
зъбите
зък
зъл
зър
зърна
зърната
зърнени
зърно
зърното
и
иберии
ибис
ибн
ибрахим
ибсен
ив
ива
иваи
иван
ивана
иванка
иванко
иванов
иванова
иванович
ивановна
иваново
ивановски
иванчев
иванчо
иванъ
ивелина
ивица
ивицата
ивици
иво
ивоар
ивраи
ивреа
иврит
игла
игли
иглика
иглолистни
игнасио
игнат
игнатиев
игнатии
игнатов
игнац
иго
игов
игор
игото
игра
играе
играеи
играещ
играл
игрален
играли
игрални
игралния
игран
играна
играта
играч
играча
играчи
играчите
играчка
играчки
играчките
играчът
играя
играят
игри
игрите
игрища
игрище
игрището
игумен
игумена
ида
идва
идването
идват
идващи
иде
идеал
идеален
идеали
идеалите
идеална
идеални
идеалния
идеално
идеи
идеите
идентификатор
идентификация
идентифицира
идентифициран
идентифициране
идентифицирани
идентифицират
идентичен
идентични
идентичност
идентичността
идеолог
идеологии
идеологически
идеология
идеологията
идея
идеята
иди
идиот
идол
идщаи
ие
из
изабел
изабела
изба
избегнат
избегне
изберат
избере
изберете
избива
избиват
избира
избиран
избиране
избирането
избирани
избират
избирателен
избиратели
избирателите
избирателна
избирателната
избирателни
избирателно
избити
избор
избора
избори
изборите
изборни
изборът
избра
избрал
избрали
избран
избрана
избрани
избраните
избрания
избрано
изброени
изброените
избухва
избухването
избухват
избяга
избягал
избягали
избягат
избягва
избягване
избягват
изваден
извадени
извади
изважда
изваждане
изваждането
изваждат
изведе
изведен
изведени
изведнъж
извежда
извеждане
извеждането
извеждат
известен
известие
известия
известна
известната
известни
известните
известния
известният
известно
известност
известното
извика
извикан
извиква
извира
извисява
извити
извлича
извличане
извличат
извод
извода
изводи
извор
извора
извори
изворите
изворът
извоюва
извън
извънбрачен
извънбрачна
извънбрачни
извънземни
извънреден
извънредна
извънредни
извънредно
извършат
извършва
извършване
извършването
извършвани
извършват
извършен
извършена
извършени
извършено
извърши
извършил
извършили
изгаря
изгаряне
изгарянето
изгаряния
изгарят
изглед
изгледа
изгледи
изглежда
изглеждат
изглеждаше
изгнание
изговаря
изговор
изгода
изгонва
изгонването
изгонен
изгонени
изгони
изгорен
изгорена
изгорени
изгори
изготвен
изготвя
изготвяне
изготвянето
изготвят
изграден
изградена
изградени
изградено
изгради
изградят
изгражда
изграждане
изграждането
изграждат
изгрев
изгрява
изгубва
изгубен
изгубена
изгубената
изгубени
изгубените
изгубеният
изгуби
изгубил
изд
издава
издаван
издаване
издаването
издавани
издавано
издават
издаде
издаден
издадена
издадени
издадените
издадено
издал
издание
изданието
издания
изданията
издател
издатели
издателите
издателска
издателската
издателски
издателства
издателство
издателството
издательство
издателя
издеи
изделие
изделия
издига
издигане
издигането
издигат
издигащ
издигнат
издигната
издигнати
издигнато
издигне
издирва
издирване
издирвания
издръжка
издръжката
издръжливост
издълбани
издържа
издържат
издържи
изенбург
изживява
изиграва
изиграват
изиграе
изиграл
изигран
изиграна
изиграни
изида
изисква
изискване
изискването
изисквания
изискванията
изискват
изказва
изказване
изказвания
изказват
изкарва
изкачва
изкачване
изкачването
изкачват
изкачи
изключва
изключване
изключването
изключват
изключен
изключени
изключение
изключения
изключи
изключителен
изключителна
изключителната
изключителни
изключително
изкопаеми
изкуств
изкуства
изкуствата
изкуствен
изкуствена
изкуствени
изкуствения
изкуствено
изкуство
изкуствовед
изкуствознание
изкуството
излага
излагане
излагат
излаз
излежава
излезе
излезли
излекува
излети
излива
излиза
излизал
излизане
излизането
излизат
излита
излитане
излишък
изложба
изложбата
изложби
изложен
изложена
изложени
изложение
изложението
изложения
излъчва
излъчван
излъчване
излъчването
излъчвани
излъчвано
излъчват
излъчен
излъчена
излъчени
излъчено
излъчи
излюпват
излязат
излязла
излязъл
изм
измаил
измама
измамата
измами
измежду
изменение
изменението
изменения
измененията
изменя
изменят
измерва
измерване
измерването
измервания
измерват
измерена
измерение
измерения
измества
изместване
изместват
изместен
изминава
измир
измира
измислен
измислена
измислени
измислено
измисля
измъква
измъкне
измъчван
измяна
изнасилване
изнася
изнасят
изначално
изневяра
изненада
изненадващо
изнесе
изнесени
износ
износа
изобилие
изобилието
изображение
изображението
изображения
изображенията
изобразен
изобразена
изобразени
изобразителните
изобразително
изобразителното
изобразява
изобразяван
изобразяване
изобразяването
изобразяват
изобразяваща
изобразяващи
изобретател
изобретен
изобретение
изобретението
изобретения
изобретява
изобретяването
изобщо
изолация
изолира
изолиран
изолирана
изолирани
изостава
изоставен
изоставена
изоставени
изоставено
изостави
изоставя
изоставят
изотоп
изотопи
изп
изпада
изпадане
изпадат
изпарение
изписан
изписана
изписани
изписано
изписва
изписване
изписването
изписват
изпит
изпита
изпитание
изпитания
изпитанията
изпитва
изпитване
изпитват
изпити
изплати
изплаща
изплащане
изповед
изповеди
изповедник
изповядва
изповядват
изпод
използва
използваи
използвал
използвала
използвали
използваме
използван
използвана
използваната
използване
използването
използвани
използваните
използвания
използваният
използвано
използват
използващ
използващи
изправен
изправена
изправени
изправено
изправи
изправя
изправят
изпратен
изпратена
изпратени
изпратено
изпрати
изпратил
изпратят
изпраща
изпращане
изпращането
изпращани
изпращат
изпреварва
изпревари
изпуска
изпъква
изпъкнала
изпъкнали
изпълва
изпълнен
изпълнена
изпълнени
изпълнение
изпълнението
изпълнения
изпълненията
изпълнено
изпълни
изпълнил
изпълнител
изпълнителен
изпълнителенъ
изпълнители
изпълнителите
изпълнителка
изпълнителна
изпълнителната
изпълнителни
изпълнителния
изпълнителният
изпълнителя
изпълнява
изпълняваи
изпълнявал
изпълнявана
изпълнявани
изпълняват
изпълняващ
изпълнят
изработва
изработване
изработването
изработват
изработен
изработена
изработени
изработка
изработката
изравнява
израел
израелската
израелски
израелските
израелския
изражение
израз
израза
изразен
изразена
изразени
изразено
изрази
изразът
изразява
изразяване
изразяват
израснал
израства
израстване
израстват
изречение
изречението
изречения
изригване
изригването
изригвания
изрисувани
изрично
изселва
изселване
изселването
изселват
изселени
изселено
изсечени
изследва
изследван
изследване
изследването
изследвани
изследвания
изследванията
изследват
изследовател
изследователи
изследователите
изследователска
изследователската
изследователски
изстрел
изстрела
изстрелва
изстрелване
изстрелването
изстрелват
изстрели
изстрелян
изстреляна
изстреляни
изтеглен
изтеглени
изтегли
изтегля
изтегляне
изтеглянето
изтеглят
изтезания
изтича
изтичане
изтичането
изтласкани
изтласква
изток
изтока
източен
източна
източната
източни
източник
източника
източникът
източните
източници
източниците
източния
източният
източно
източноевропеи
източноиндии
източното
изтощение
изтребител
изтребителен
изтребители
изтребителна
изтребителя
изтъква
изтъкнат
изтъкнати
изтъкнатите
изучава
изучаване
изучаването
изучават
изхвърлен
изхвърлени
изхвърля
изхвърляне
изхвърлят
изход
изхода
изходен
изходна
изходни
изходните
изходния
изходът
изцяло
изчака
изчаква
изчезва
изчезване
изчезването
изчезват
изчезнал
изчезнала
изчезнали
изчезне
изчисление
изчисления
изчисленията
изчислено
изчисли
изчислителна
изчислителната
изчислителни
изчислява
изчисляване
изчисляват
изъ
изява
изявен
изявени
изявените
изяви
изявите
изявление
изявления
изявява
изявяват
изяснява
изясняване
изящни
изящните
ии
иисус
ик
икар
икона
иконата
икони
иконите
иконом
икономедиа
икономика
икономиката
икономики
икономист
икономисти
икономическа
икономическата
икономически
икономическите
икономическия
икономическият
икономическо
икономическото
икономия
икономов
иконописец
иконостас
иконостаса
иконостасът
икс
ил
илаи
иларион
или
илиада
илиев
илиева
илии
илинден
илинденска
илинденската
илинденски
илинденско
илинденското
илиндень
илинои
илирии
илирия
илич
илия
илиян
илија
илко
илчев
ильо
илюзии
илюзия
илюзията
илюстратор
илюстрации
илюстрациите
илюстрация
илюстрира
иля
им
има
имаи
имал
имала
имали
имало
имам
имаме
имануел
имат
имате
имах
имаха
имаш
имаше
имащ
имаща
имащи
имбър
име
имеи
имена
имената
имени
имение
имението
имения
именно
името
имигранти
имиграция
имидж
имитация
имитира
имот
имота
имоти
имотите
имп
император
императора
императори
императорите
императорска
императорската
императорски
императорските
императорския
императорското
императорът
императрица
императрицата
империи
империя
империята
имперска
имперската
имперски
имперските
имперския
имперско
имперското
импулс
импулса
импулси
имре
имунитет
имунната
имущество
имуществото
имъ
ин
ина
иначе
инвазия
инвазията
инвентар
инвестира
инвеститор
инвеститори
инвестиции
инвестициите
инвестиционна
инвестиционни
инвестиция
ингеборг
инголщат
ингрид
инд
индекс
индекса
индже
инди
индиана
индианаполис
индиански
индианските
индианско
индианци
индианците
индивид
индивида
индивиди
индивидите
индивидуален
индивидуална
индивидуалната
индивидуални
индивидуалните
индивидуално
индивидуалното
индии
индикатор
индия
индо
индоевропеи
индокитаи
индонезии
индонезия
индоокеанска
индуизма
индукция
индустриален
индустриалец
индустриализацията
индустриална
индустриалната
индустриални
индустриалните
индустриално
индустрии
индустрия
индустрията
инес
инж
инженер
инженерен
инженери
инженерите
инженерна
инженерни
инженерните
инженерно
инженерство
инициатива
инициативата
инициативен
инициативи
инициатор
инициаторите
инициира
инките
инклинация
иновации
инокентии
инсбрук
инспектор
инспекция
инсталации
инсталация
инсталирана
инсталирани
инстанция
инстинкт
институт
института
институти
институтъ
институтът
институции
институциите
институция
институцията
инструктор
инструкции
инструкциите
инструкция
инструмент
инструмента
инструментал
инструментална
инструментални
инструменти
инструментите
инструментът
инсулт
интегрални
интеграция
интегрира
интегрирана
интегриране
интегрирани
интелект
интелектуална
интелектуалната
интелектуални
интелектуалци
интелигентен
интелигентни
интелигентност
интелигенция
интензивен
интензивна
интензивни
интензивно
интензивност
интензивността
интер
интервал
интервала
интервали
интервенция
интервю
интервюта
интервюто
интерес
интереса
интересен
интереси
интересите
интересна
интересни
интересните
интересно
интересното
интересува
интересуват
интересът
интериор
интериора
интериорът
интернат
интернационал
интернет
интернешънъл
интерниран
интернирани
интерпретации
интерпретация
интерпретацията
интерпретира
интертото
интерфеи
интриги
инфанта
инфаркт
инфекции
инфекциозни
инфекция
инфекцията
инфлация
инфлацията
информатика
информационен
информационна
информационната
информационни
информационните
информационно
информация
информацията
информира
инфраструктура
инфраструктурата
инцидент
инцидента
инциденти
инцидентът
инча
иполит
ир
ирак
ираклии
иракската
иракски
иран
иранската
ирански
иранските
иранския
ирен
ирена
иречек
иржи
ирина
ирис
иркутск
иркутска
ирландия
ирландска
ирландската
ирландски
ирландския
ирландско
ирмгард
ирод
ирокезите
ирония
иртиш
ис
иса
исаак
исабел
исабела
исак
исая
исидор
иск
иска
искаи
искал
искала
искали
искам
искаме
искане
искането
искания
исканията
искат
искате
исках
искаш
искаше
искра
искрено
искри
искусство
искър
исландия
исландски
ислям
исляма
ислямска
ислямската
ислямски
ислямските
ислямския
ислямът
исмаил
исп
испания
испанска
испанската
испански
испанските
испанския
испанският
испанско
испанското
испанци
испанците
исперих
исследования
истанбул
истина
истината
истини
истинска
истинската
истински
истинските
истинския
истинският
истинско
истинското
истории
историите
историк
историка
историко
историкът
историография
историографията
историци
историците
историческа
историческата
исторически
исторические
историческите
историческия
историческият
историческо
историческото
история
историята
историја
источна
истрия
исус
ит
итал
италианеца
италианска
италианската
италиански
италианските
италианския
италианският
италианско
италианското
италианци
италианците
италии
италия
итало
ите
итън
их
ихтиман
ичко
иширков
ищван
иън
ия
ият
к
ка
кааза
кабел
кабели
кабелна
кабина
кабината
кабинет
кабинета
кабинети
кабинетът
каблешков
кабо
кабул
кавадарци
кавал
кавала
кавалер
кавалерии
кавалерия
кавалерията
каварна
кавказ
кавказки
кавур
кавър
кавъри
кагю
кадастър
кадафи
кадет
кадетски
кадии
кадис
кадри
кадрите
кадър
кадъра
кажа
кажат
каже
кажем
кажете
кажеш
кажи
кажимеж
каза
казабланка
казал
казала
казан
казанлък
казано
казарма
казармата
казарми
казасян
казах
казаха
казахски
казахстан
казаци
казаците
казашки
казва
казваи
казвал
казвам
казват
казваш
казваше
казимир
казино
каи
как
кака
какао
каква
каквато
какви
каквито
какво
каквото
како
както
какъв
какъвто
кал
калабрия
калаи
калв
калвин
калгари
калдерон
кале
каледония
каленберг
календар
календара
калето
кали
калиакра
калибра
калибър
калигула
калиев
калии
калимантан
калин
калина
калиник
калининград
калифорнии
калифорния
калкута
калмар
калофер
калоян
калпазанов
калпурнии
калциев
калции
калчев
калчо
каляри
кам
кама
камара
камарата
камари
камбана
камбанария
камбанарията
камбаната
камбани
камбаните
камбоджа
камбуров
камелия
камен
каменен
каменец
каменисти
каменица
каменна
каменната
каменни
каменните
каменно
камено
каменов
каменова
камера
камерата
камерен
камери
камерите
камерна
камерни
камерун
камерхер
камерън
камии
камил
камила
камили
камило
камион
камиони
камп
кампании
кампаниите
кампания
кампанията
кампеонато
кампо
камчатка
камчия
камък
камъка
камъкът
камъни
камъните
кан
кана
канавезе
канада
канадска
канадската
канадски
канадските
канадския
канал
канала
канали
канализация
каналите
каналът
канарски
канарските
кандидат
кандидата
кандидати
кандидатира
кандидатите
кандидатства
кандидатура
кандидатурата
кандидатът
кандиларовъ
канелени
канети
канзас
кани
каниц
канон
каноник
кант
кантакузин
кантон
кантона
кантоните
кантора
кану
канцелария
канцеларията
канцлер
каньон
каньона
канят
као
кап
кападокия
капак
капан
капана
капацитет
капацитета
капацитетът
капела
капелата
капелмаи
капитал
капитала
капитали
капитализма
капитализъм
капиталът
капитан
капитана
капитани
капитанът
капител
капители
капитолин
капитулация
капитулацията
капитулира
капия
капка
капки
каподимонте
капоне
капсула
капсулата
капуа
кар
кара
карабах
караваджо
каравелов
карагьозов
караджа
караджата
караджич
караджов
караджова
караи
караиванов
каракала
каракас
каракачанов
караманджуковъ
каранджулов
каране
карара
караславов
карастоянов
карат
карате
карачи
карбон
карбонат
карбонатни
кард
кардинал
кардиналите
кардиф
карел
карелия
карен
кари
карибите
карибски
карибско
кариера
кариерата
кариери
карии
карикатури
карикатурист
карин
карина
каринтия
кария
карл
карла
карлаи
карло
карлово
карлос
карлсруе
карма
кармапа
кармен
карнавал
карнатака
карнеги
карнобат
карол
каролин
каролина
карпати
карпатите
карпов
карс
карско
карстов
карстови
карсън
карт
карта
картаген
картагенски
картагенците
картата
картечница
картечницата
картечници
карти
картина
картината
картини
картините
картинки
картира
картиране
картите
картичка
картички
картограф
картографиране
картография
картон
картофи
картър
каруци
карчев
карън
кас
каса
касабов
касае
касаещи
касандра
касационен
касел
каси
касиди
касиер
касии
касини
каскада
каспар
каспаров
каспии
каспичан
кастел
кастело
кастии
кастилия
кастилска
кастилски
кастинг
кастро
касъл
кат
ката
катализатор
каталина
каталог
каталога
каталония
каталонски
катания
катар
катаревуса
катарина
катастрофа
катастрофата
катастрофи
катастрофира
категории
категориите
категорично
категория
категорията
катедра
катедрала
катедралата
катедрален
катедралния
катедрата
катедри
катер
катера
катерене
катери
катерина
катерини
катерица
катерицови
кати
като
катовице
католик
католици
католицизма
католиците
католическа
католическата
католически
католическите
католическия
католическо
католическото
катон
катрин
катул
катценелнбоген
катя
каубои
кауза
каузата
каунти
кауфман
каучук
кафе
кафене
кафенета
кафенето
кафето
кафка
кафяв
кафява
кафяви
кафявите
кафяво
каца
кацане
кацането
кацаров
качва
качват
качества
качествата
качествени
качествено
качество
качеството
качи
каша
кашлица
кашмир
кая
каяк
кб
кв
квадрат
квадрата
квадратен
квадратна
квадратни
квалификации
квалификациите
квалификационен
квалификация
квалификацията
квантова
квантовата
квартал
квартала
квартали
кварталите
кварталът
квартет
квартира
квартирата
кварц
квебек
кведлинбург
кверфурт
квестор
квинкции
квинт
квинтилиан
квота
квт
кг
кгб
ке
кевенхюлер
кевин
кеи
кели
келтите
келтски
кемал
кембъл
кемерер
кемп
кен
кенеди
кенет
кени
кения
кент
кентавър
кентъки
кеплер
керала
керамика
керамиката
керамични
керемиди
кери
керсхаи
керъл
кесарии
кестен
кефернбург
кеч
кечист
кечисти
кечмания
кеш
ки
киара
кибеа
кибург
киви
кид
киев
киевска
киевската
киевския
кии
кил
кила
килии
киликия
килим
килими
килия
килията
килкис
килограм
килограма
километра
километри
километър
ким
кимон
кин
кина
кината
кинг
кингс
кингстън
кинематография
кино
киноактриса
кинопоиск
кинорежисьор
киното
кинофестивал
кинофестивала
киото
кипене
кипър
кипърска
кипърски
кипърския
кир
кираджиев
кирбург
киргизстан
кирибати
кирил
кирилица
кирилицата
кирилов
кирилова
кирков
киро
киров
кирова
кирхберг
кис
кисела
киселина
киселини
кисело
кисимов
кислород
кислорода
кисьов
кит
китаи
китара
китарата
китари
китарист
китариста
китаристът
ките
кити
китка
китката
китов
китове
китс
кихот
кичево
кичевска
кичевската
кичевско
кишинев
кл
клавдии
клавдия
клавиатура
клавиши
клавишни
клада
кладенец
кладенеца
кладенци
клаи
клан
клана
клане
клането
кланове
клара
кларинет
кларк
кларънс
клас
класа
класации
класациите
класация
класацията
класи
класик
класика
класира
класиран
класиране
класирането
класирания
класират
класификации
класификация
класификацията
класифицира
класифициран
класифицирани
класифицират
класическа
класическата
класически
класическите
класическия
класическият
класическо
класическото
класни
класно
класове
класовете
клаудио
клаудия
клауза
клаузите
клаус
клеве
клевета
клеи
клеменс
клементина
клен
клеопатра
клептън
клер
клермон
клетва
клетвата
клетенберг
клетка
клетката
клетки
клетките
клетъчна
клетъчната
клетъчни
клеър
кливланд
клиент
клиента
клиенти
клиентите
клиентът
климат
климата
климатичен
климатична
климатични
климатичните
климатът
климент
клин
клиника
клиниката
клинична
клинични
клинтън
клип
клипа
клипове
клипът
клисура
клиф
клифърд
клод
клодии
клон
клона
клони
клоните
клонки
клонове
клуб
клуба
клубен
клубна
клубни
клубно
клубове
клубовете
клубът
клуж
клъф
ключ
ключа
ключов
ключова
ключове
ключовете
ключови
ключовите
ключово
ключът
км
кмет
кмета
кметове
кметовете
кметство
кметството
кметът
кн
кндр
кнежа
книга
книгата
книги
книгите
книгоиздателска
книгоиздателство
книжа
книжари
книжарница
книжка
книжки
книжнина
книжовен
книжовна
книжовник
книжовно
кнк
кнр
кнут
княгиня
княжево
княжеската
княжески
княжеско
княжества
княжество
княжеството
княз
княза
князе
князете
князът
ко
коалиция
коалицията
кобленц
кобра
кобург
ков
кова
ковач
ковачев
ковачева
кови
ково
ковски
ковци
ковчег
ковънтри
кога
когато
когда
когномен
кого
когото
код
кода
кодекс
кодекса
коджа
кодиране
кодове
кодовете
кодово
кодовото
кодът
кое
коев
коен
което
коефициент
коефициента
коефициенти
коефициентът
кожа
кожани
кожата
кожени
кожи
кожни
кожух
кожухаров
кожухаровъ
коза
козел
козенца
кози
козимо
козина
козината
козлов
козлодуи
козма
кои
които
кока
кокаин
коко
кокосови
кокошка
кокошки
кокс
коктеи
кол
кола
колан
колапс
коларов
колата
коле
колебае
колебание
колебания
колев
колева
колега
колегата
колеги
колегите
колегия
колегията
коледа
коледаров
коледен
коледна
коледни
колеж
колежа
колежи
колектив
колективен
колективизация
колективизацията
колективна
колективни
колективно
колекции
колекциите
колекционер
колекция
колекцията
колела
колелата
колело
колелото
колене
колесница
колесници
коли
колиба
колиби
колибри
колиброви
колидж
колима
колин
колинс
колите
количества
количествено
количество
количеството
колко
колкото
коллекция
коло
колоездач
колоездене
коломбо
колона
колоната
колони
колониална
колониалната
колониални
колонизация
колонии
колониите
колонисти
колоните
колония
колонията
колорадо
колорит
колумб
колумбии
колумбия
колумнист
кольо
колю
коляно
коляното
ком
кома
команда
командата
командва
командван
командвана
командване
командването
командвани
командващ
командващия
командващият
команден
команди
командир
командира
командири
командирите
командирован
командирът
командния
командно
комари
комарка
комбинат
комбинации
комбинация
комбинацията
комбинира
комбинирана
комбинирани
комбинират
комедиен
комедии
комедия
комедията
комендант
коментар
коментари
коментатор
коментира
комерсиален
комета
кометата
коми
комик
комикс
комикси
комиксите
комин
комина
коминтерна
комисар
комисари
комисии
комисия
комисията
комитет
комитета
комитети
комитетите
комитетъ
комитетът
комнин
комнина
комо
комод
коморски
компактдиск
компактни
компактно
компании
компаниите
компания
компанията
компас
компенсация
компенсира
компетентен
компетентните
компетентност
компилации
компилация
компилацията
комплекс
комплекса
комплекси
комплексна
комплексни
комплексно
комплексът
комплект
комплекта
композира
композирана
композитор
композитора
композитори
композиторите
композиторът
композиции
композициите
композиция
композицията
компонент
компонента
компоненти
компонентите
компромис
компютри
компютрите
компютър
компютъра
компютърен
компютърна
компютърната
компютърни
компютърните
компютърно
компютърът
комуна
комунизма
комунизъм
комуникации
комуникациите
комуникационна
комуникационни
комуникация
комуникацията
комунист
комунисти
комунистите
комунистическа
комунистическата
комунистически
комунистическите
комунистическия
комунистическо
комунистическото
комуто
комфорт
кон
конак
конан
конаре
конвенции
конвенция
конвенцията
конвои
конвоя
конг
конго
конгрегацията
конгрес
конгреса
конгреси
конгресите
конгресът
конде
кондов
кондотиер
коне
конен
конете
конец
кони
конкретен
конкретна
конкретната
конкретни
конкретните
конкретния
конкретно
конкурент
конкуренти
конкуренция
конкуренцията
конкурс
конкурса
конкурси
конкурсът
конна
конни
конник
конница
конницата
конници
конрад
консенсус
консервативна
консервативната
консервативни
консервативните
консерваторите
консерватория
консерваторията
консервация
конска
конски
консорт
консорциум
конспирация
констанс
константа
константата
константи
константин
константинов
константинова
константинович
константинопол
константинополската
константинополски
константинос
констанц
констанца
констанции
констанция
конституционен
конституционна
конституционни
конституционния
конституционно
конституция
конституцията
конструира
конструиран
конструирането
конструктивни
конструктивно
конструктор
конструкторите
конструкции
конструкция
конструкцията
консул
консула
консули
консулите
консулски
консулства
консулство
консулството
консултант
консултативен
консултации
консумация
консумацията
консумира
консумират
контакт
контакта
контакти
контактите
конте
контеи
контекст
контекста
контингент
континент
континента
континентален
континентална
континенталната
континентални
континенталния
континенти
континентите
контра
контраадмирал
контраатака
контракт
контраразузнаване
контраст
контрол
контрола
контролен
контролира
контролиран
контролирана
контролирани
контролират
контролна
контролни
контролно
контролът
контузии
контузия
контур
конур
конус
конуси
конфедерациите
конфедерация
конфедерацията
конференции
конференция
конференцията
конфигурация
конфискувани
конфликт
конфликта
конфликти
конфликтите
конфликтът
конфронтация
концентрации
концентрационни
концентрационния
концентрация
концентрацията
концентрира
концентрирана
концентрирани
концентрират
концепции
концепция
концепцията
концерт
концерта
концертен
концерти
концертите
концертна
концертни
концертно
концертът
концесия
концлагера
конче
кончината
конър
коня
конят
кооперативен
кооперативна
кооперативно
кооперации
кооперация
кооперацията
координати
координатите
координатна
координатор
координация
координира
копа
копенхаген
коперник
копие
копието
копираи
копиране
копия
копка
копола
копривщица
коприна
коприната
копродукция
кор
кора
кораб
кораба
корабен
кораби
корабите
корабли
корабна
корабни
корабокрушение
корабоплаване
корабоплаването
корабостроене
корабостроителница
корабостроителницата
корабът
корал
коралови
коран
корана
кората
корвин
кордоба
кореи
корекции
корекция
корем
корема
коремната
коремоного
корен
корена
корени
корените
коренно
коренното
коренът
кореспондент
кореспонденция
кореспонденцията
корея
кори
коридор
коридора
коридори
коринт
корита
корито
коритото
корица
корицата
корици
кория
корк
корлеоне
корнел
корнелии
корнелия
корнуол
корона
коронавирус
короната
коронацията
коронован
коронясан
корпоративни
корпорации
корпорация
корпорацията
корпус
корпуса
корпуси
корпусът
корсаков
корсика
корт
кортес
кортни
коруня
корупция
корупцията
корфу
корча
кос
коса
косата
косвено
косев
коси
косите
косми
космическа
космическата
космически
космическите
космическия
космическият
космическото
космодрума
космонавт
космонавти
космонавтите
космос
космоса
косово
косовска
кост
коста
костадин
костадинов
костадинова
костас
костенец
костенурка
костенурки
костенурките
кости
костинброд
костите
костни
костница
костов
костова
костур
костурска
костурската
костурски
костурския
костурско
костурското
костюм
костюми
косъм
кот
кота
котва
коте
котел
котела
котис
котка
котката
котки
котките
котли
котлите
котловина
котловината
котловини
коул
кофи
кофман
кох
коце
коцев
кочан
кочани
кочев
кочо
кош
коя
която
кпсс
кр
крава
краве
крави
крагуевац
краде
крадец
крадци
краевед
краен
кражба
краи
краища
краищата
краище
крак
крака
краката
краков
крал
крале
кралете
крали
кралица
кралицата
кралска
кралската
кралски
кралските
кралския
кралският
кралско
кралското
кралства
кралство
кралството
краля
кралят
кран
кранихфелд
крас
красавица
красавицата
красив
красива
красивата
красиви
красивите
красивия
красиво
красимир
красимира
краснодар
красноярски
красота
красотата
крастави
кратен
кратер
кратера
кратери
кратка
кратката
кратки
краткии
кратките
краткия
кратко
краткото
краткотраи
кратово
кратък
крафт
крачка
крачки
края
краят
крај
креда
кредит
кредити
кредитна
кредитни
кредиторите
креи
крем
кремиковци
кремона
кремъл
крепи
крепост
крепости
крепостите
крепостна
крепостната
крепостни
крепостните
крепостта
кресна
кресненско
крива
кривата
криви
криводол
крие
криза
кризата
кризи
крии
крикет
крила
крилата
крилати
криле
крилете
крило
крилото
крим
криминален
криминална
криминалната
криминални
кримската
кримски
кримските
криптата
крис
кристал
кристален
кристали
кристалинни
кристалите
кристална
кристалната
кристални
кристи
кристиан
кристиана
кристин
кристина
кристиян
кристо
кристоф
кристофър
кристъл
крисчън
крит
критерии
критериите
критик
критика
критиката
критики
критиките
критикува
критикуван
критикуват
критици
критиците
критичен
критически
критична
критични
критично
крихинген
кричим
кришна
крият
крои
крокодил
крокодили
кромуел
кронберг
крос
крософт
круз
крум
крумов
крумовград
крумово
круп
крупни
крус
круша
крушево
крушово
кръв
кръвна
кръвната
кръвни
кръвно
кръвното
кръвоносни
кръвоносните
кръвта
кръг
кръга
кръгла
кръглата
кръгли
кръгова
кръгове
кръгозор
кръгъл
кръгът
кръжок
кръст
кръста
кръсте
кръстев
кръстева
кръстен
кръстена
кръстени
кръстено
кръстител
кръстник
кръстникът
кръсто
кръстове
кръстовище
кръстовището
кръстоносен
кръстоносните
кръстоносци
кръстоносците
кръстопът
кръстосване
кръстът
кръстьо
кръстю
кръчма
кръчмата
кръщава
кръщение
кръщението
крюгер
кс
ксавер
ксанти
ксантии
ксенофонт
ксеркс
ктитор
кто
ку
куб
куба
кубан
кубинската
кубински
кубрат
кубрик
кувеи
куентин
кузман
кузманов
кузманова
кузнецов
куи
куии
куин
куинс
куинсланд
кук
кука
кукла
куклен
кукли
кукуш
кукушка
кула
кулата
кули
кулик
кулисите
кулите
кулмбах
кулминация
кулминацията
култ
култа
култов
култови
култура
културата
културен
култури
културите
културна
културната
културни
културните
културния
културно
културното
култът
культура
кум
кума
куманов
куманово
кумановска
кумановско
кун
кунева
кунео
кунигунда
куно
куп
купа
купата
купе
купен
купена
купи
купол
купола
куполата
куполи
куполът
купува
купуват
купър
купят
кураж
куратор
курбан
куре
куриер
курландия
курорт
курорта
курортен
курорти
куросава
курс
курса
курск
курсове
курт
куртев
курфюрст
курфюрство
куршум
куршума
куршуми
кусев
кутев
кутии
кутия
кутията
кутузов
куфарчето
кухина
кухня
кухнята
куче
кучета
кучетата
кучето
кучешки
кушев
къб
къде
където
къл
кълбо
кълвач
кълс
кълъмбия
кълъмбъс
към
къмпани
къмъ
кън
кънев
кънектикът
кънингам
кънки
кънтри
кънчев
кънчо
кънчов
къп
къпане
кър
кървав
кървава
кървавата
кървави
кърджали
кърджалии
къри
кърк
кърмата
кърмовата
кърмовия
кърпа
кърпачев
кърт
къртис
къс
къса
късен
къси
късите
късмет
късмета
късна
късната
късни
късните
късния
късният
късно
късното
късо
късове
късометражен
късометражни
кът
къща
къщата
къщи
къщите
кьои
кьолн
кьонигсберг
кьонигсег
кьопен
кьосев
кьостриц
кьотен
кю
кюрасао
кюрдистан
кюрдски
кюри
кюстенджа
кюстендил
кюстендилската
кюстендилски
кюстендилския
кюстендилско
кюстендилското
кюшу
кявик
књига
кѫнчовъ
л
ла
лабиринт
лаборатории
лабораториите
лаборатория
лабораторията
лабораторни
лабрадор
лав
лава
лавата
лавра
лаврентии
лавров
лагер
лагера
лагери
лагерите
лагерът
лаго
лагос
лагуна
лагуни
лазар
лазарев
лазаревич
лазаров
лазарова
лазарополе
лаи
лак
лакруа
лале
лама
ламберг
ламберт
ламия
лампа
лампата
лампи
лан
лана
ланг
лангенбург
лангобардите
ланд
ландау
ландграф
ландграфиня
ландграфство
ландсберг
ландсхут
ландшафт
ландшафти
ланка
ланкастър
ланс
ланча
лао
лаодика
лаос
лапи
лара
ларви
ларвите
лари
лариса
ларнака
ларс
ларсен
лас
ласкарис
ласло
лат
латв
латвии
латвия
латиница
латино
латинска
латинската
латински
латинските
латинския
латинското
лаубах
лауда
лауенбург
лаура
лауреат
лауреати
лафаи
лафит
лацио
лбург
лв
лвиг
лвов
лгбт
лд
лдорф
лдс
лдър
ле
лебед
лев
лева
леверкузен
леви
левин
левите
левица
левицата
левия
левият
левски
легални
легат
леге
легенда
легендарен
легендарната
легендарния
легендарният
легендата
легенди
легендите
легион
легиона
легиони
легионите
легионът
легия
легла
легло
леглото
лед
леда
леден
ледена
ледената
ледени
ледения
ледник
ледника
ледников
ледникови
ледници
ледниците
ледове
ледовете
ледовит
лежат
лежи
леи
лек
лека
лекар
лекари
лекарите
лекарски
лекарства
лекарствата
лекарствени
лекарство
лекаря
лекарят
леката
леки
леките
лекия
леко
лекота
лексикон
лектор
лекува
лекуват
лекции
лекциите
лекция
леля
лен
лена
ленард
лени
ленин
ленина
ленинград
ленинградска
ленинградския
лента
лентата
ленти
лентул
ленън
лео
леон
леонард
леонардо
леоне
леонид
леонхард
леопард
леопарди
леополд
леополдина
лепид
лер
лерин
леринско
леринското
лес
лесбии
лесбос
лесен
лесинг
лесли
лесна
лесни
лесно
лесото
лестър
лет
лета
летателен
летателни
летен
летене
летец
лети
летисия
летища
летище
летището
летни
летните
летния
лето
летони
летопис
летописи
летци
летят
летящ
летяща
летящи
лефтеров
лех
лец
лече
лечебна
лечебни
лечебните
лечебно
лечение
лечението
лешояд
леща
лещи
ли
либе
либерален
либерали
либерализъм
либералите
либерална
либералната
либерални
либералните
либерално
либерия
либертадорес
либии
либия
либон
либрето
либретото
ливада
ливади
ливадни
ливан
ливии
ливингстън
ливия
ливорно
ливърпул
лига
лигавицата
лигата
лигенберг
лиги
лигурия
лигурски
лидер
лидера
лидери
лидерите
лидерство
лидерството
лидерът
лидия
лиеж
лиза
лизимах
лии
лик
лика
ликвидация
ликвидира
ликвидиране
ликвидирането
лил
лили
лилиан
лилия
лилов
лиляна
лима
лиман
лимасол
лимбург
лимон
лимпург
лин
лина
лингвист
лингвистика
лингвистични
линда
линдзи
линдън
линеен
линеи
линии
линиите
линия
линията
линк
линкор
линкора
линкори
линкорите
линкорът
линкоры
линкълн
линукс
линц
линч
лион
липа
липе
липи
липса
липсата
липсва
липсват
липсваща
лир
лира
лири
лирика
лис
лиса
лисабон
лисица
лисицата
лисици
лист
листа
листата
листи
листове
лит
литва
лите
литекс
литература
литературата
литературен
литературна
литературната
литературни
литературните
литературния
литературният
литературно
литературното
литературовед
литературознание
литературы
литернет
литии
литовската
литовски
литовския
литовско
литра
литров
литургия
литъл
лиу
лифт
лих
лихва
лихтенберг
лихтенщаи
лица
лицата
лице
лицевата
лицеи
лиценз
лиценза
лицензи
лицето
лицея
лицинии
личат
личен
личи
лична
личната
лични
личните
личния
личният
лично
личност
личности
личността
личното
лишава
лишаване
лишеи
лишен
лишена
лишени
лия
лна
лно
ло
лоара
лобдебург
лобенщаи
лобковиц
лов
лова
ловград
лове
ловен
ловете
ловец
ловецът
ловеч
ловешко
лови
лович
ловна
ловни
ловно
лово
ловски
ловува
ловуват
ловци
ловците
ловчански
ловъ
ловът
ловят
логан
логика
логиката
логистична
логическа
логически
логично
лого
логото
лодз
лоди
лодка
лодката
лодки
лодките
ложа
лоза
лозана
лозанов
лозанския
лозарство
лозенград
лозенец
лозница
лозя
лозята
лои
лок
локална
локалната
локални
локално
локо
локомотив
локомотива
локомотиви
локомотивите
лола
лом
ломбардия
ломбардски
ломен
ломоносов
лон
лонг
лонгин
лондон
лондонската
лондонски
лондонския
лондонското
лопес
лора
лоран
лорд
лордовете
лорен
лоренц
лоренцо
лори
лорън
лорънс
лос
лост
лот
лотар
лотарингия
лотус
лоу
лоурънс
лош
лоша
лошата
лоши
лошите
лошия
лошият
лошо
лошото
лоялни
лоялност
лоялността
лс
лския
лу
лувър
лувъра
луд
луда
лудвиг
луди
лудо
лудовика
лудовико
лудогорец
лудолф
лудост
лужица
луи
луиджи
луиз
луиза
луизиана
луис
луитгард
лук
лука
луканов
лукас
лукашенко
луков
луковит
лукои
лукреция
луксозни
лукул
луна
луната
лунен
лунна
лунната
лунни
лунните
лунния
лус
луси
лусия
лутер
лутър
луфтвафе
луции
луцифер
луция
лучано
лучия
лщаи
лъв
лъва
лъвове
лъвовете
лъвът
лъжа
лъжата
лъже
лъжи
лък
лъка
лъки
лънд
лър
лъч
лъча
лъчезар
лъчение
лъчеперка
лъчи
лъчите
льо
льовен
льовенщаи
лю
люба
любек
любен
любенов
любим
любима
любимата
любимец
любими
любимите
любимия
любимият
любимо
любимци
любител
любители
любителите
любителски
люблин
любляна
любо
любов
любовен
любовна
любовната
любовни
любовник
любовница
любовницата
любовници
любовта
любовь
любомир
любомиръ
любопитен
любопитни
любопитство
любчо
люде
люди
людмил
людмила
люис
люк
люксембург
люксембургски
люлин
люлка
люмиер
люнебург
люси
люспи
ля
ляв
лява
лявата
ляво
лявото
ляга
ляпчев
лясковец
лястовица
лятна
лятната
лятно
лятното
лято
лятото
м
ма
маас
маастрихт
маб
мавзолеи
мавзолея
маврикии
мавритания
мавриции
маврово
мавродиев
магазин
магазина
магазини
магазините
магаре
магарета
магарето
магда
магдалена
магдебург
магелан
маги
магидович
магии
магистрала
магистралата
магистрали
магистрат
магистратура
магистър
магистърска
магически
магия
магията
магмата
магна
магнат
магнезии
магнитен
магнитна
магнитната
магнитни
магнитните
магнитно
магнитното
магнитуд
магнус
магьосник
магьосникът
магьосници
магьосниците
мадагаскар
мадам
мадан
мадара
мадеи
маджарите
маджаров
маджоре
мадисън
мадлен
мадона
мадоната
мадрид
маестро
мажор
мазето
мазилка
мазнина
мазнини
маи
маите
мак
макао
макар
макарии
макаров
макбет
макдоналд
македонец
македони
македонизмът
македонии
македония
македонија
македоно
македонска
македонската
македонски
македонскиот
македонските
македонскитѣ
македонския
македонският
македонско
македонското
македонци
македонците
македонцитѣ
македоніи
макиавели
маккарти
маккеи
маккензи
макларън
макмеън
макс
максим
максимален
максимална
максималната
максимални
максималният
максимално
максималното
максимилиан
максимилиана
максимин
максимум
максимумът
максуел
мал
мала
малави
малага
малаи
малария
маласпина
малатеста
малдиви
мале
мали
малик
малина
малинов
малка
малката
малки
малките
малкия
малкият
малко
малкото
малкълм
малмьо
мало
малоазии
малоброи
маловодие
малолетния
малта
малтии
малц
малцина
малцинства
малцинствата
малцинство
малък
мама
мамо
ман
манасиев
манастир
манастира
манастири
манастирите
манастирска
манастирската
манастирски
манастирските
манастирския
манастирът
манга
манган
мандат
мандата
мандатът
мандершаи
манджурия
мандра
мане
манев
маневра
маневри
мани
маниер
мании
манила
манипулация
манитоба
манифест
мания
манлии
манов
манови
манол
манолов
манолова
мансии
мансфелд
мантия
мантията
мантуа
ману
мануел
мануил
манфред
манхаи
манхатън
манчев
манчестър
манш
мао
мар
мара
марадона
марат
маратон
марбург
марвел
марвин
маргарет
маргарета
маргарит
маргарита
маргерита
маргьорит
маре
марек
мари
мариан
мариана
мариано
мариански
марии
марин
марина
марино
маринов
маринова
маринър
марио
мариово
марион
мариса
мариупол
мариус
марица
мария
марк
марка
марката
марквард
маркграф
маркграфиня
маркграфство
марке
маркес
маркет
маркетинг
маркетинга
марки
маркиз
маркиза
маркира
маркирани
маркировка
марките
марко
марков
маркова
маркович
марковски
маркос
маркс
марксизма
маркус
маркъс
марли
марлоу
мароко
марс
марсел
марсело
марсилия
марската
март
марта
мартел
мартен
марти
мартин
мартина
мартинес
мартини
мартиника
мартино
мартинов
марцел
марцелин
марции
марч
марчело
марш
марша
маршал
маршалови
маршрут
маршрута
маршрути
маршрутът
мас
маса
масата
масачузетс
масачузетския
маси
масив
масива
масивен
масиви
масивна
масивни
масимо
масите
маска
маската
маски
масла
маслени
маслини
масло
маслодаи
маслото
масов
масова
масовата
масови
масовите
масовия
масово
масовото
мастило
мастни
мастърс
мат
мата
матев
матеев
матеи
математик
математика
математиката
математици
математическа
математическата
математически
математическите
математическия
математическо
матео
материал
материала
материали
материалите
материална
материалната
материални
материалните
материално
материалното
материалът
материалы
материя
материята
матиас
матилда
матис
матката
матов
матрица
матрицата
матрици
матю
маунт
маурисио
маурицио
мауро
маус
мафия
мафията
мах
маха
махала
махалата
махали
махалите
махаяна
махле
махмуд
мач
мача
мачове
мачовете
мачта
мачът
машина
машината
машинен
машини
машините
машинно
машинното
машинопис
машиностроене
машиностроенето
мащаб
мащабен
мащаби
мащабна
мащабни
мащабно
мащехата
мая
маями
мбал
мбридж
мбриджкия
мвнр
мвр
мвф
мг
ме
меандри
мебели
мег
мега
меган
мед
медал
медала
медали
медалист
медалистка
медальон
медведев
меден
медея
медиа
медиен
медии
медиите
медик
медикаменти
медина
медисън
медитация
медицина
медицината
медицинска
медицинската
медицински
медицинските
медицинския
медицинско
медицинското
медичи
медия
медията
медна
медната
медни
медуза
меерхолц
междинен
междинна
междинни
между
междувременно
междузвездни
междузонален
междуконтинентална
международен
международна
международната
международни
международните
международния
международният
международно
международното
междусъюзническа
междусъюзническата
междущатска
мездра
мезозои
меи
мек
мека
меки
мекленбург
меко
мекотели
мексиканска
мексиканската
мексикански
мексиканския
мексико
мел
мелани
мелас
мелбърн
мелвил
меле
мелетии
мелинда
мелиса
мелник
мелница
мелницата
мелници
мелнишка
мелодии
мелодия
мелодията
мембрана
мемоари
мемоарите
мемоарните
меморандум
мемориал
мемориален
мемфис
мен
менделеев
мендес
мендоса
мене
мени
мениджмънт
мениджър
мениджъра
мениджъри
мениджърът
менителницата
менсъл
ментор
меню
менюто
мер
мера
мерзебург
мери
меридиан
мерил
мериленд
мерилин
мерки
мерките
меркс
меркурии
меркюри
мерлин
мероприятия
мерседес
мерцедес
меса
месала
месец
месеца
месеци
месеците
месечен
месечна
месечно
меси
месие
месина
месо
месопотамия
месото
места
местата
местен
мести
местна
местната
местни
местните
местния
местният
местно
местност
местности
местностите
местността
местното
место
местоимения
местонахождението
местообитание
местообитания
местообитанията
местоположение
местоположението
местопрестъплението
местят
мета
метал
метала
метален
метали
металика
металите
метална
метални
металните
металург
металургия
металургията
метаморфни
метан
метафора
метел
метеорит
метеорита
метеорити
метеоритите
метеорологична
метеорологични
метеорология
метерних
метод
метода
методи
методиев
методии
методика
методите
методология
методът
метох
метра
метро
метров
метрова
метрополен
метрополитен
метрополитън
метрополията
метростанция
метрото
метъл
метъла
метър
механизирана
механизма
механизми
механизмите
механизъм
механик
механика
механиката
механичен
механична
механични
механичните
механично
мехмед
мехмет
мехомия
мехтилд
мехтхилд
мехур
мец
меценат
меч
меча
мечка
мечката
мечки
мечо
мечове
мечта
мечтае
мечтата
мечти
мечтите
мечът
мж
мз
ми
миа
мианмар
миг
мига
мигел
мигове
миграции
миграция
миграцията
мигрират
мида
миди
мидия
мидуеи
мие
миз
мизия
мии
мик
мика
микеланджело
микеле
мики
миков
микро
микронезия
микроорганизми
микрораи
микроскоп
микс
мил
мила
миладинов
миладинова
миладинови
милан
милано
миланов
миланската
миланския
миланското
миле
милев
милева
милен
милена
миленов
милет
милетич
милетичъ
мили
милиард
милиарда
милиарди
милиметра
милиметрови
милион
милиона
милионер
милиони
милица
милиция
милицията
милка
милко
мило
милоевич
милост
милосърдие
милош
милошевич
милојевић
милтън
милутин
милчев
милчо
милър
миля
мими
мин
мина
минава
минаваи
минавал
минават
минал
минали
миналия
минало
миналото
минарето
минас
минат
мината
минг
минден
мине
минев
минен
минерал
минерала
минерален
минерали
минералите
минерална
минерални
минералните
минералогия
минесота
мини
миниатюра
миниатюри
минимален
минимална
минималната
минимални
минимално
минимум
минисериал
министерска
министерски
министерския
министерският
министерства
министерство
министерството
министри
министрите
министър
министъра
министърът
мините
минко
минков
минни
минно
минои
миноносеца
миноносци
минор
миноуг
минск
минус
минута
минути
минчев
минчо
миньор
мир
мира
миранда
мирен
мирза
миризма
мирис
мирна
мирни
мирните
мирния
мирно
мирното
миро
мировои
мирослав
мирски
мирчев
мирчо
мирът
мис
мисии
мисиите
мисионер
мисионери
мисирков
мисис
мисисипи
мисия
мисията
мислеи
мислене
мисленето
мислех
мислеше
мисли
мислим
мислите
мислител
мислители
мислиш
мисля
мислят
мистерии
мистерия
мистерията
мистър
мисури
мисъл
мисълта
мит
мита
митев
митева
митинг
митинги
митко
митков
митнически
мито
митов
митова
митове
митовете
митологични
митология
митологията
митре
митрев
митридат
митровица
митрополит
митрополити
митрополитите
митрополия
митрополията
митът
михаел
михаела
михаи
михаил
михал
михо
михов
мицо
мицубиши
мичев
мичиган
мичман
мичъл
миша
мишев
мишел
мишена
мишка
мишката
мишки
мишкови
мишо
мия
мк
мкс
мл
млад
млада
младата
младеж
младежа
младежи
младежите
младежка
младежката
младежки
младежките
младежкия
младежко
младежта
младежът
младен
младенеца
младенов
младенова
млади
младини
младите
младия
младият
младо
младост
младостта
младото
младотурската
младотурците
младша
младши
млечни
млечния
млн
млрд
мляко
млякото
мм
мн
мнение
мнението
мнения
мненията
мни
мно
много
многоброи
многогодишни
многогодишно
многократно
многообразие
многопартии
многото
многочислени
множества
множествено
множество
множеството
мнозина
мнозинство
мнозинството
мо
мобилен
мобилизация
мобилизацията
мобилизира
мобилизиран
мобилизирани
мобилна
мобилни
мобилните
мобилност
мови
мога
могами
могат
могила
могилата
могили
могла
могли
могло
могъл
могъщ
мод
мода
модата
модел
модела
модели
моделиране
моделист
моделите
моделът
моден
модена
модерен
модерна
модерната
модерни
модернизация
модернизацията
модернизиран
модернизирани
модерните
модерния
модерно
модерното
модест
модификации
модификация
модификацията
модифициран
модифицирана
модифицирани
модна
модни
модул
модула
модулация
модули
модулът
мое
моето
можа
може
можел
можели
можело
можем
можете
можех
можеха
можеш
можеше
мозаи
мозамбик
мозък
мозъка
мозъчен
мозъчна
мои
моисеи
моите
мок
мол
молба
молбата
молби
молдова
молдовски
молекула
молекулата
молекули
молекулите
молекулярна
молеров
моли
молив
молиер
молизе
молина
молитва
молитвата
молитви
моллов
молотов
молтке
моля
молят
мома
момент
момента
моментално
моменти
моментът
моми
момина
момиче
момиченце
момичета
момичетата
момичето
момче
момчета
момчетата
момчето
момчил
момчилград
момчилов
момък
мон
мона
монако
монарси
монарх
монарха
монархия
монархията
монаси
монасите
монастир
монах
монаха
монахини
монахиня
монашески
монголите
монголия
монголската
монголски
монголските
монголците
монд
мондиал
моне
монета
монети
монетите
моника
монитор
мониторинг
монк
монографии
монография
монографията
монопол
монпелие
монреал
монро
монс
монсерат
монтаж
монтана
монтгомъри
монте
монтевидео
монтереи
монти
монтира
монтиран
монтирана
монтирани
монтирано
монтират
монумент
монументална
монументални
монферат
монфератски
монфор
монца
моо
мор
мора
морава
моравия
моравско
морал
морала
морален
моралес
морална
морални
моралните
морално
морган
море
морено
мореплавател
морета
моретата
морето
морея
морз
мори
морис
морисън
мориц
моро
морска
морската
морская
морски
морските
морския
морският
морско
морскои
морското
морфология
моряк
моряци
моряците
мос
москва
москов
московска
московската
московски
московския
московското
мост
моста
мостове
мостовете
мостът
мот
мотив
мотива
мотивация
мотиви
мотивира
мотивите
мото
мотор
моторни
моторните
моторно
мотострелкови
мотото
мотоциклет
мотоциклети
мохамед
мохамедани
моцарт
мощ
мощен
мощи
мощите
мощна
мощната
мощни
мощните
мощно
мощност
мощности
мощността
мощта
моя
моят
моята
мој
мпо
мпс
мравки
мрази
мрак
мрака
мрамор
мраморен
мраморна
мраморни
мраморно
мрачен
мрачна
мрачни
мрежа
мрежата
мрежи
мрежите
мрежови
мс
му
мужеников
муз
муза
музеен
музеи
музеите
музея
музеят
музеј
музика
музикален
музикална
музикалната
музикални
музикалните
музикалния
музикалният
музикално
музикалното
музикант
музиканта
музиканти
музикантите
музиката
мултимедии
мумбаи
муна
мунд
муни
муните
муниции
муниципальным
муньос
мур
мура
мурад
мурат
мурманск
муса
мусала
мускул
мускулатура
мускули
мускулите
мускулна
мускулни
мусолини
мустафа
мустаци
мутафов
мутафова
мутафчиев
мутафчиева
муха
мухаммад
мухи
муцуната
мфа
мъгла
мъглата
мъглен
мъгли
мъдри
мъдрост
мъдростта
мъдър
мъж
мъжа
мъже
мъжество
мъжете
мъжка
мъжката
мъжки
мъжките
мъжкия
мъжкият
мъжко
мъжкото
мъжът
мъка
мъката
мъки
мълния
мълчание
мълчанието
мълчи
мън
мънд
мъниста
мъниче
мър
мъри
мъркюри
мъртва
мъртви
мъртвите
мъртвия
мъртво
мъртъв
мърфи
мъс
мъст
мъченик
мъченици
мъчения
мъчно
мы
мьорс
мюзик
мюзикъл
мюзикъла
мюлер
мюлинген
мюнстер
мюнстерберг
мюнхен
мюнхенския
мюнценберг
мюсюлмани
мюсюлманин
мюсюлманите
мюсюлманска
мюсюлманската
мюсюлмански
мюсюлманските
мюсюлманско
мюсюлманското
мярка
място
мястото
н
на
набези
набезите
набира
набиране
набират
набис
наблизо
наблюдава
наблюдаван
наблюдавана
наблюдавани
наблюдават
наблюдател
наблюдатели
наблюдателя
наблюдение
наблюдението
наблюдения
наблюденията
набляга
набор
наброява
наброявало
наброяват
набързо
навара
наваро
наведнъж
навечерието
навигатор
навигация
навик
навици
навлезе
навлиза
навлизане
навлизането
навлизат
наводнение
наводнения
навреме
навремето
навсякъде
навън
навършва
навърши
навътре
навярно
нагласа
нагласи
нагоре
нагорни
награда
наградата
награден
наградена
наградени
награди
наградите
награждава
награждаван
награждаване
награждаването
нагряване
над
надал
надалеч
надвишава
надвишават
надводни
надгробен
надгробни
надделява
надежда
надеждата
надежден
надежди
надеждите
надеждна
надеждни
надеждно
надеждност
надзор
надзора
надзорния
надлъжни
надминава
надморска
надморската
надмощие
надолу
надпис
надписа
надписи
надписите
надписът
надпревара
надпреварата
надразред
надсемеи
надстрои
наду
надхвърля
надхвърлят
надя
надява
надяваи
надявам
надяват
надясно
наем
наема
наемат
наемници
нает
наети
назад
назаем
название
названието
названия
названията
наземни
назначава
назначаване
назначаването
назначават
назначен
назначена
назначени
назначение
назначението
назначения
назначи
назовава
наи
наим
наименование
наименованието
наименования
наименованията
наименува
наименуван
наименувана
наистина
накаже
наказан
наказани
наказание
наказанието
наказания
наказателен
наказателна
наказателни
наказателния
наказателно
наказателното
наказва
накамура
накара
накити
наклон
наклона
наклонен
наклонена
наклонени
наклонение
нако
наков
накраи
накратко
накрая
накъде
налага
налагане
налагането
налагат
налд
нали
налице
наличен
наличие
наличието
налична
налични
наличните
наложат
наложен
наложена
наложени
наложено
наложи
наложило
наляво
налягане
налягането
нам
намален
намалена
намалени
намаление
намалено
намали
намалява
намаляване
намаляването
намаляват
намаляваща
намалят
намерен
намерена
намерени
намерение
намерението
намерените
намерения
намеренията
намерено
намери
намерил
намерили
намерим
намериш
намерят
намеса
намесата
намесва
намесват
намеси
намесништво
наместник
наместничество
намибия
намира
намираи
намирал
намирала
намирали
намирало
намираме
намиране
намирането
намирани
намират
намиращ
намираща
намиращи
намиращите
намиращия
намиращо
намотка
намюр
нан
нанася
нанасяне
нанасят
нанесе
нанесени
наново
наноси
нансен
нанси
нант
наоколо
наоми
наоса
напада
нападат
нападател
нападатели
нападателите
нападателят
нападение
нападението
нападения
нападенията
нападнат
нападната
нападнати
нападне
написа
написал
написан
написана
написани
написано
написва
написването
напитка
напитката
напитки
напише
наподобява
наподобяват
наподобяващи
напоителни
наполеон
наполеоновите
наполи
наполовина
напомня
напомнят
напоследък
напояване
напр
направа
направата
направен
направена
направени
направените
направено
направи
направил
направила
направили
направим
направите
направих
направиха
направиш
направление
направлението
направления
направо
направя
направят
напразно
напред
напредва
напредване
напредването
напредват
напреднала
напреднали
напредък
напредъка
напрежение
напрежението
напрежения
напречни
напречно
например
напротив
напуска
напускане
напускането
напускат
напусна
напуснал
напуснали
напуснат
напусне
напълно
напът
нар
наравно
нараняване
наранявания
нараства
нарастване
нарастването
нарастват
нарастваща
нарастващата
нарастващото
наред
наредба
наредбата
наредени
наредено
нареди
наредил
нарежда
нареждане
нареждат
нарекли
нарече
наречен
наречена
наречената
наречени
наречените
наречения
нареченият
наречено
нареченото
наречие
нарисувана
нарисувани
нарицателно
нарича
наричаи
наричал
наричали
наричало
наричаме
наричан
наричана
наричани
наричано
наричат
наркотици
наркотиците
нарния
народ
народа
народен
народи
народите
народна
народната
народни
народните
народния
народният
народно
народност
народности
народното
народов
народоосвободителен
народоосвободителна
народът
нарочно
нартекс
наруто
нарушава
нарушаване
нарушават
нарушена
нарушение
нарушението
нарушения
нарушенията
наруши
наръчник
нарязани
нас
наса
насаждения
насам
насау
насекоми
насекомите
насекомо
населен
населена
населени
население
населението
населените
населения
населено
населеното
населявали
населявано
населяват
населяващи
насетне
насеља
насељима
насила
насилие
насилието
насилствено
насионал
насип
наситени
наскоро
наслаги
наслада
наследен
наследена
наследени
наследи
наследил
наследник
наследника
наследникът
наследница
наследници
наследниците
наследничка
наследствен
наследствена
наследствени
наследствения
наследство
наследството
наследява
наследяване
наследяването
наследяват
насока
насоки
насочва
насочване
насочват
насочен
насочена
насочени
насочено
насоченост
насочи
насред
насреща
насрочен
наставка
наставник
настанен
настанени
настанява
настаняване
настаняват
настев
настилка
настои
настоява
настояване
настояват
настоятел
настоятелство
настоятелството
настоящ
настоящата
настояще
настоящето
настоящи
настоящите
настоящия
настоящият
настоящото
настрана
настрани
настроен
настроени
настроение
настроението
настроения
настрои
настъпва
настъпване
настъпването
настъпват
настъпващите
настъпи
настъпили
настъпление
настъплението
насърчава
насърчаване
насърчават
ната
натал
натали
наталия
натам
натанаил
нататък
нататъшната
нататъшни
нататъшно
нататъшното
наташа
натиск
натиска
нато
натоварване
натоварването
натоварен
натоварена
натоварени
натриев
натрии
натрупва
натрупване
натрупването
натрупват
натура
натфиз
натъква
наук
наука
науката
науки
науките
наукитѣ
наум
наумов
науру
научава
научават
научат
научен
наученъ
научи
научил
научна
научната
научни
научните
научния
научно
научноизследователска
научноизследователски
научноинформационен
научното
научнофантастичен
нах
нахия
нахлува
нахлуване
нахлуването
нахлуват
находища
находищата
находище
находка
находки
находките
нации
нациите
национал
национален
национализъм
националисти
националистите
националистическа
националистически
национална
националната
национални
националните
националния
националният
национално
националноосвободителното
националност
националности
националното
националсоциализма
национальныи
нацистите
нацистка
нацистката
нацистки
нацисткия
нация
нацията
начала
начален
начална
началната
начални
началник
началника
началникът
началните
началници
началниците
началния
началният
начално
началното
начало
началото
начев
начело
начин
начина
начинание
начинанието
начинания
начини
начините
начинът
начисляват
начо
наш
наша
нашата
наше
нашественици
нашествие
нашествието
нашествия
нашето
наши
нашите
нашия
нашият
наяве
наясно
нба
нбек
нбкм
нбу
нграф
нд
нджъл
нджър
нджърс
ндк
ндсв
ндховен
не
неа
неапол
неаполитански
неаполитанския
неаполитанското
небе
небесата
небесен
небесната
небесни
небесните
небесно
небето
неблагоприятни
неблагоприятно
небостъргач
небраска
небюла
нева
невада
неведнъж
невежеството
невена
невер
неверни
невероятна
невероятни
невероятно
невестино
невидим
невил
невинен
невинни
невис
неволно
неволя
неврокоп
неврокопска
неврокопската
неврокопски
неврокопско
неврокопското
неврология
невски
невъзможен
невъзможна
невъзможно
невъзможност
невъзможността
негативни
негативно
него
негов
негова
неговата
негови
неговите
неговия
неговият
негово
неговото
неголеми
неголям
неголяма
неготино
негри
негуш
неда
недалеч
недвижими
недвижимите
недев
недеи
неделчев
неделчо
неделя
недков
недкова
недоверие
недоволен
недоволни
недоволство
недоволството
недостатък
недостатъци
недостатъците
недостатъчна
недостатъчни
недостатъчно
недостатъчност
недостиг
недостига
недялка
недялко
недялков
нееднократно
нежелани
нежеланието
нежен
неженен
неженени
нежна
нежни
нежно
нежност
незабавно
независим
независима
независимата
независими
независимите
независимо
независимост
независимостта
незаконен
незаконна
незаконни
незаконно
незастрашен
незнаи
незначителен
незначителна
незначителни
незначително
неи
неизбежно
неизв
неизвестен
неизвестна
неизвестни
неизвестно
неизменен
неизменна
неизменно
неизпълнение
неизяснени
неин
нек
нека
неколкократно
некролог
некропол
некропола
нектар
нел
нелегален
нелегална
нелегалната
нелегални
нелегално
нелегалност
неленбург
нели
нелинеи
нелсън
нем
нема
немалко
неман
немилост
немска
немската
немски
немските
немския
немският
немско
немското
нему
немци
немците
нен
ненавист
ненахов
ненецки
нено
ненов
ненчо
нео
необикновено
необитаем
необичаен
необичаи
необходим
необходима
необходимата
необходими
необходимите
необходимия
необходимо
необходимост
необходимостта
необходимото
неограничен
неограничено
неокласически
неолит
неолита
неомъжена
неопределен
неопределено
неотдавна
неофит
неофициален
неофициални
неофициално
неочакван
неочаквано
непал
неподчинение
непознат
непозната
непознати
непомук
непосредствена
непосредствено
непот
неправилен
неправилна
неправилни
неправилно
неправителствена
неправителствени
непрекъснат
непрекъсната
непрекъснати
непрекъснато
непременно
непрестанно
неприятели
неприятен
неприятно
неприятности
непряко
нептун
непубликувани
непълен
нер
нера
неработеща
неравенство
неравномерно
неравностои
неразделна
нерв
нерва
нерви
нервна
нервната
нервни
нери
нерите
нерон
нерядко
нес
несебър
несигурност
неслучаи
неспокои
неспособен
неспособни
неспособността
несправедливо
нестабилност
нестопанска
нестор
несторов
нестрам
нестроева
несъгласие
несъмнено
несъстоятелност
нет
неуспех
неуспеха
неуспешен
неуспешна
неуспешни
неуспешния
неуспешно
неустои
неутрален
неутрализира
неутралитет
неутрална
неутрални
неутрони
нефт
нефтени
нефтохимик
нешо
неща
нещастен
нещастие
нещастието
нещата
нещо
нея
неясен
неясна
неясни
неясно
ни
нива
нивата
ниви
нивите
ниво
нивото
нигер
нигерии
нигерия
нидерландия
нидерландска
нидерландската
нидерландски
нидерландските
нидерландския
ние
нижни
низ
низина
низината
низини
нии
ник
ника
никак
никаква
никакви
никакво
никакъв
никарагуа
никеи
никел
никея
ники
никита
никифор
никифоров
нико
ников
никога
никого
никодим
никое
никозия
никои
никол
никола
николае
николаев
николаевич
николаевна
николаево
николаи
николаос
николас
николаус
николина
николо
николов
николова
николовски
никопол
никополис
никос
никоя
никсън
никъде
никълсън
никълъс
никът
нил
нилс
ним
нима
нин
нина
нинген
нинджа
нини
нините
нино
нирвана
ниро
ниска
ниската
ниски
ниските
ниския
ниско
ниското
нисък
ните
нито
ниуе
ница
ници
ниците
ницше
ниш
ниша
нишата
ниши
нишка
нишката
нишки
нищо
ния
ният
нк
нквд
нланд
нло
нмънт
но
ноа
ноар
нобелов
нобелова
нобеловата
нобеловите
нов
нова
новак
новаков
новара
новата
новая
новгород
нове
новела
новелата
новели
нови
новина
новинар
новинарски
новината
новини
новините
новите
нович
новия
новият
новм
ново
нововъведения
нового
новозеландски
новоосвободените
новоросии
новосибирск
новост
новости
новосформираната
новосъздадената
новосъздадения
новото
новыи
ногаи
ноел
ноември
ноемврии
нож
ножа
ножове
нои
нокаут
нокс
нокти
ноктите
нолдс
ном
номади
номадски
номенклатура
номер
номера
номинална
номинално
номинации
номинациите
номинация
номинацията
номинира
номиниран
номинирана
номинирани
нонии
нора
норберт
норвегия
норвежка
норвежката
норвежки
норвежкия
норвежко
норд
норич
норма
нормален
нормална
нормалната
нормални
нормалните
нормалния
нормално
нормалното
норман
нормандия
норманите
нормативен
нормативни
норми
нормите
норт
нортхаи
нортън
норфолк
нос
носа
носеи
носел
носели
носене
носенето
носени
носещ
носеща
носещи
носи
носии
носил
носител
носители
носителите
носителка
носителя
носителят
носия
носовата
носовия
носорог
ност
носталгия
ности
ностите
ността
носът
нося
носят
нота
нотариус
ноти
нотингам
нотки
ното
ноу
нощ
нощем
нощен
нощи
нощна
нощни
нощните
нощния
нощно
нощта
нпо
нр
нрав
нрави
нравите
нрб
нрих
нс
нса
нсберг
нсдап
нси
нската
нски
нства
нство
нството
нт
нтрахт
ну
нуво
нужда
нуждае
нуждата
нуждаят
нужди
нуждите
нужен
нужна
нужната
нужни
нужните
нужно
нула
нулата
нулева
нунавут
нур
нфурт
нхард
нц
нч
нщаи
нър
нът
ны
ные
ньои
ню
нюанси
нюз
нюи
нюкасъл
нюман
нюпорт
нюрнберг
нютон
нютън
нюфаундленд
някак
някаква
някакви
някакво
някакъв
някога
някогашната
някогашния
някого
някое
някои
няколко
няколкостотин
няколкото
някоя
някъде
ням
няма
нямал
нямали
нямало
нямам
нямаме
нямат
нямаш
нямаше
о
оае
оаким
оан
оана
оаникии
оанис
оанна
оахим
об
обади
обажда
обама
обаче
обвивка
обвинен
обвинена
обвинени
обвинение
обвинението
обвинения
обвиненията
обвинява
обвиняваи
обвиняват
обвързани
обграден
обградена
обградени
обед
обединен
обединена
обединената
обединени
обединение
обединението
обединените
обединения
обединено
обединеното
обедини
обединява
обединяване
обединяването
обединяват
обединят
обезглавен
обезлюдено
обезщетение
обект
обекта
обекти
обективно
обектите
обектно
обектът
обем
обема
обеми
обемът
обер
оберщаи
обесване
обесен
обет
обещава
обещават
обещание
обещанието
обещания
обжалване
обзавеждане
обзор
обида
обиди
обикаля
обикалят
обикновен
обикновена
обикновената
обикновени
обикновените
обикновения
обикновеният
обикновено
обикновеното
обиколка
обиколката
обиколки
обилни
обилно
обир
обитава
обитавали
обитаван
обитавана
обитаване
обитавани
обитават
обитаващи
обитатели
обитателите
обител
обич
обича
обичаи
обичаите
обичал
обичам
обичаме
обичан
обичат
обичаш
обичая
обичаят
обкръжен
обкръжение
обкръжението
обл
облагане
облак
облака
област
областен
области
областите
областна
областната
областни
областните
областния
областно
областта
область
облаци
облаците
облекла
облекло
облеклото
облекчаване
облечен
облечена
облечени
облигации
облик
облика
облича
обложка
обложката
облъчване
обмен
обмена
обменят
обмисля
обмяна
обмяната
обн
обнародван
обнародването
обновен
обновена
обновление
обновява
обновяване
обновяването
обобщава
обобщен
обобщение
обогатява
обогатяване
обозначава
обозначаване
обозначават
обозначени
обозначение
обозначението
обозначения
оборище
оборот
оборота
оборудван
оборудвана
оборудване
оборудването
оборудвани
обособен
обособена
обособени
обособява
обособяват
обр
обработва
обработваема
обработваеми
обработваемите
обработване
обработват
обработени
обработка
обработката
образ
образа
образен
образец
образи
образите
образна
образован
образовани
образование
образованието
образованиям
образователен
образователна
образователната
образователни
образователните
образователно
образува
образуваи
образували
образуван
образувана
образуване
образуването
образувани
образувание
образувания
образувано
образуват
образуващи
образци
образът
обрасли
обрат
обратен
обратна
обратната
обратния
обратно
обратното
обращение
обред
обреди
обренович
обретенов
обръч
обръща
обръщане
обръщат
обръщение
обсада
обсадата
обсаден
обсажда
обсаждат
обсег
обсега
обсерватория
обсерваторията
обсидиан
обслужва
обслужване
обслужването
обслужват
обслужващи
обст
обстановка
обстановката
обстои
обстоятелства
обстоятелствата
обстоятелство
обстоятелството
обстрел
обстрелва
обсъжда
обсъждане
обсъждат
обувка
обувки
обувките
обуславя
обучава
обучават
обучени
обучение
обучението
обучения
обхват
обхвата
обхваща
обхващат
обхващащ
обхващаща
обшивка
обширен
обширна
обширната
обширни
обширните
обширно
общ
обща
общата
общежитие
общества
обществен
обществена
обществената
обществени
общественик
обществените
общественици
общественичка
обществения
обществено
общественост
обществеността
общественото
общество
обществото
общи
община
общината
общини
общините
общинска
общинската
общински
общинските
общинския
общинският
общинско
общинското
общите
общия
общият
общност
общности
общностите
общността
общо
общомедия
общото
общува
общуване
общуването
общуват
объркване
обърна
обърнат
обърната
обърнати
обърне
обявен
обявена
обявени
обявено
обяви
обявил
обявиха
обявява
обявяване
обявяването
обявяват
обяд
обяснение
обяснението
обяснения
обясни
обяснява
обясняват
обяснят
ов
ова
овална
овални
ован
ованович
ове
овен
оверн
овес
овете
овидии
овков
овладее
овладява
овладяване
овладяването
овладяват
овощни
овца
овце
овцете
овча
овчар
овчари
овчарка
овчаров
овче
овчев
ог
ога
оглави
оглавява
оглавявана
оглед
огледала
огледало
огледалото
огнева
огнен
огнена
огнестрелно
огнища
огнище
огнището
огнян
огнянов
огнянова
огоста
ограда
оградата
ограден
оградена
ограничава
ограничаване
ограничават
ограничен
ограничена
ограничени
ограничение
ограничения
ограниченията
ограничено
ограничи
огромен
огромна
огромната
огромни
огромните
огромния
огромно
огромното
огън
огъня
огънят
огюст
од
ода
одежди
оденвалд
одер
одеса
одеска
один
одисеи
одисея
одит
одо
одобрен
одобрена
одобрени
одобрение
одобрението
одобрено
одобрява
одобряват
одрин
одринска
одринската
одрински
одринския
одринско
одринското
одс
оелс
ожен
оженва
ожени
оженил
оженят
ожесточена
ожесточени
оз
озаглавен
озаглавена
озаглавено
озбърн
озвучава
озвучаване
озвучават
озвучен
озеф
озефа
ози
означава
означавало
означаване
означават
означаваща
означаващо
означение
означението
озовава
ои
ок
ока
окажат
окаже
оказа
оказал
оказали
оказва
оказване
оказват
окачване
окачването
океан
океана
океани
океаните
океания
океански
оки
окинава
окисление
оклахома
око
окови
околии
околия
околията
околна
околната
околните
околния
околност
околности
околностите
околността
около
околоземна
окончание
окончания
окончателен
окончателната
окончателния
окончателно
окончателното
окопи
окото
окраска
окраската
окръг
окръга
окръгът
окръжен
окръжие
окръжна
окръжната
окръжни
окръжните
окръжния
окръжно
окръжност
окръзи
окръзите
оксенщаи
оксид
оксиди
окситански
оксфорд
оксфордския
окт
октавиан
октавии
октавия
октомври
октомврии
окупационна
окупационни
окупация
окупацията
окупира
окупиран
окупирана
окупирани
окупираните
окупирано
окупират
ол
ола
оланд
оланда
олаф
олбани
олга
олд
олденбург
оле
олег
оли
оливер
оливети
оливие
оливин
оливия
оливър
олимп
олимпиада
олимпиадата
олимпиади
олимпиакос
олимпии
олимпик
олимпия
олио
олицетворение
оловни
олово
олтар
олтара
олтарната
олтарът
ом
оман
омар
омега
омер
оми
оминг
омир
омраза
омразата
омуртаг
омъжва
омъжена
омъжи
он
она
онази
оная
онг
онд
онези
онен
онзи
они
онии
оните
ония
онко
онков
онлаи
онна
онни
онния
онно
оно
онов
онова
онс
онтарио
ончев
онът
оня
оод
оон
оп
опазване
опазването
опасен
опасения
опасна
опасни
опасните
опасно
опасност
опасности
опасностите
опасността
опасяваи
опашка
опашката
опашки
опекун
опекунството
опел
опенхаи
опера
операта
оперативен
оперативна
оперативната
оперативни
оперативно
оперативното
оператор
оператора
оператори
операторът
операции
операциите
операционна
операционната
операционни
операция
операцията
оперен
оперение
оперението
опери
оперира
оперите
оперна
оперната
оперни
оперно
опира
опис
описан
описана
описани
описание
описанието
описаните
описания
описано
описва
описваи
описван
описване
описват
опит
опита
опитал
опитат
опитва
опитваи
опитват
опитен
опити
опитите
опитни
опитът
опише
оплаква
оплаквания
оплакват
оповестява
опожарен
опожарено
опозиционни
опозиция
опозицията
опонент
опоненти
опонентите
опонентът
опора
опорни
оправдава
оправдан
определен
определена
определени
определение
определението
определените
определения
определено
определи
определя
определян
определяна
определяне
определянето
определяни
определят
определящ
определящи
опростен
опростена
оптика
оптимизация
оптичен
оптически
оптична
оптични
опус
опции
опция
општина
општински
опълченец
опълчение
опълченска
опълченци
ор
оран
оранжев
оранжеви
оранжево
орански
оратор
орбел
орбита
орбитален
орбитална
орбиталната
орбиталния
орбитата
орбити
орг
орган
органа
органи
организатор
организатори
организаторите
организации
организациите
организационен
организационна
организационни
организационно
организация
организацията
организира
организиран
организирана
организираната
организиране
организирането
организирани
организирано
организират
организма
организми
организмите
организъм
органист
органите
органичен
органична
органични
органичните
органът
орда
ордан
ордания
орданка
орданов
орданова
орден
ордена
ордени
ордените
орденът
орегон
орел
орест
орех
орехи
орешарски
ори
оригинал
оригинала
оригинален
оригинална
оригиналната
оригинални
оригиналните
оригиналния
оригиналният
оригинално
оригиналното
ориента
ориенталски
ориентация
ориентацията
ориентира
ориентиран
ориентирана
ориентиране
ориентирани
ориз
оринген
ориндж
орион
орк
орка
оркестри
оркестър
оркестъра
оркестърът
оркската
оркския
оркшър
орламюнде
орландо
орлеан
орлеански
орли
орлин
орлиънс
орлов
орнаменти
орсини
ортега
ортенбург
ортън
оруел
орфеи
орхан
орхание
орхании
орхидеи
оръдеи
оръдие
оръдието
оръдия
оръдията
оръжеи
оръжие
оръжието
оръжия
оръжията
оряховица
оряхово
ос
оса
осака
освалд
освен
осветен
осветена
осветление
осветлението
осветява
освещава
освещаването
освободен
освободена
освободени
освободено
освободи
освободител
освободителна
освободителната
освободителните
освободителнитѣ
освободително
освободителното
освободят
освобождава
освобождаване
освобождаването
освобождават
освобождение
освобождението
осем
осемдесет
осемнадесет
осемте
осетия
оси
осигурена
осигурени
осигури
осигурява
осигуряване
осигуряването
осигуряват
осигуряващи
осигурят
осиновен
осиновява
осип
осите
осиф
осифов
оскар
оскъдни
осло
осма
осман
османска
османската
османски
османските
османския
османският
османско
османското
османците
осмата
осми
осминафинал
осмия
осмият
осмо
оснабрюк
основа
основава
основаваи
основаване
основаването
основават
основал
основан
основана
основаната
основани
основание
основания
основано
основата
основател
основатели
основателите
основателя
основателят
основе
основен
основи
основите
основна
основната
основни
основните
основния
основният
основно
основното
основоположник
основоположниците
особен
особена
особени
особено
особеност
особености
особеностите
особенъ
осогово
оспорва
оспорват
оссе
ост
оста
остава
оставаи
остават
оставен
оставена
оставени
остави
оставил
оставили
оставка
оставката
оставя
оставяи
оставят
остана
останал
останала
останалата
останали
останалите
останалия
останало
останалото
останат
останаха
остане
останки
останките
остарели
остарял
остатък
остатъка
остатъци
остатъците
остготите
остен
остин
остоя
остра
остри
острие
острието
остро
остров
острова
острови
островите
островната
островски
островчета
островът
остър
осъден
осъдена
осъдени
осъжда
осъждат
осъзнава
осъзнаваи
осъзнават
осъм
осъществен
осъществена
осъществени
осъществено
осъществи
осъществява
осъществяване
осъществяването
осъществяват
от
ота
отава
отбележи
отбеляза
отбелязал
отбелязан
отбелязана
отбелязани
отбелязано
отбелязва
отбелязваи
отбелязване
отбелязват
отбива
отблизо
отблъсква
отблъскват
отблъснат
отблъснати
отбор
отбора
отборен
отбори
отборите
отборни
отборните
отборно
отборът
отбрана
отбраната
отбранителен
отбранителна
отбранителната
отбранителни
отбранителните
отваря
отваряне
отварянето
отварят
отведен
отведени
отвежда
отвеждат
отвесни
отвлечен
отвлича
отвличане
отвличането
отводнява
отвор
отвора
отворен
отворена
отворени
отворено
отвори
отворите
отвръща
отвсякъде
отвъд
отвъдното
отвън
отвътре
отгледан
отглежда
отглеждане
отглеждането
отглеждани
отглеждат
отговаря
отговарят
отговарящ
отговарящи
отговор
отговора
отговорен
отговори
отговорил
отговорите
отговорна
отговорни
отговорник
отговорно
отговорност
отговорности
отговорността
отговорът
отгоре
отдава
отдават
отдавна
отдаде
отдаден
отдалеч
отдалечава
отдалечен
отдалечена
отдалечени
отдалечените
отдалечено
отдел
отдела
отделен
отделена
отделени
отделение
отделението
отделения
отделено
отдели
отделна
отделни
отделните
отделно
отделът
отделя
отделяне
отделянето
отделят
отдих
отдолу
отдясно
отело
отец
отечествен
отечествена
отечествената
отечествения
отечество
отечеството
отзад
отзвук
отзив
отзиви
оти
отива
отивам
отиват
отида
отидат
отиде
отилия
отинген
отис
отишли
отишъл
откажат
откаже
отказ
отказа
отказал
отказали
отказано
отказва
отказване
отказването
отказват
отказът
откакто
откаран
отклонение
отклонения
отклонява
отклоняват
отколкото
откраднат
откраднати
откри
открива
откриване
откриването
откриват
откривател
открие
откриете
открии
открил
открили
открит
открита
откритата
открити
откритие
откритието
откритите
открития
откритията
открито
откритото
откриха
открият
откровение
откроява
открояват
открытии
открытия
откуп
откъде
откъдето
откъм
откъс
откъсва
откъси
отлага
отлагане
отличава
отличават
отличен
отличена
отличие
отличието
отличителен
отличителна
отличителни
отличия
отлична
отлични
отлично
отложен
отломки
отляво
отм
отменен
отменена
отменени
отменено
отмени
отменя
отместване
отмъсти
отмъщение
отмъщението
отмяна
отмяната
отнася
отнасят
отнасящи
отначало
отнема
отнемане
отнемат
отнеме
отнесе
отнесен
отнесени
отнети
отново
относителна
относителната
относително
относителността
относно
отношение
отношението
отношения
отношенията
ото
отов
отова
оток
отокар
отон
отопление
отпада
отпадане
отпадането
отпадат
отпадна
отпаднал
отпадъци
отпечатан
отпечатана
отпечатани
отпечатва
отпечатък
отпечатъци
отплава
отплават
отпор
отправи
отправна
отправя
отправят
отпразнува
отпред
отпреди
отпуск
отпуска
отпусната
отпътува
отравяне
отражение
отразена
отразени
отразено
отразява
отразяване
отразяват
отразяваща
отрасли
отраства
отрасъл
отрежда
отрицателен
отрицателна
отрицателни
отрицателните
отрицателно
отрича
отричане
отричат
отрова
отровата
отровен
отрови
отровна
отровни
отряд
отряда
отряди
отрядът
отсек
отсека
отсеци
отсечка
отсечката
отслабва
отслабване
отстои
отстоява
отстранен
отстранена
отстранени
отстрани
отстранява
отстраняване
отстраняването
отстраняват
отстъпва
отстъпват
отстъпи
отстъпки
отстъпление
отстъплението
отстъпят
отсъства
отсъстват
отсъствие
отсъствието
отсяда
оттам
оттегли
оттегля
оттегляне
оттеглянето
оттеглят
оттенък
оттича
оттогава
отток
оттока
оттук
отхвърлен
отхвърлена
отхвърлени
отхвърлено
отхвърли
отхвърля
отхвърляне
отхвърлянето
отхвърлят
отца
отци
отците
отчасти
отчаян
отчаяние
отчаяно
отчет
отчети
отчита
отчитане
отчитат
отъ
отърве
оу
оуен
оуенс
оукланд
оупън
оф
офанзива
офанзивата
офг
офенбах
оферта
оферти
офис
офиса
офиси
офите
офицер
офицера
офицери
офицерите
офицерски
офицерският
офицерско
официален
официална
официалната
официални
официалните
официалния
официалният
официално
официалното
официальныи
офк
оформен
оформена
оформени
оформление
оформя
оформяне
оформянето
оформят
ох
охаи
охан
охана
оханес
охлаждане
охлюв
охлюви
охотско
охрана
охраната
охранителна
охранява
охрид
охридска
охридската
охридски
охридско
охридското
оцветени
оцветяване
оцелее
оцелели
оцелелите
оцелеят
оцелява
оцеляване
оцеляването
оцеляват
оцелял
оцеляла
оценен
оценена
оценени
оцени
оценка
оценката
оценки
оценките
оценява
оценяване
оценяват
оцет
очаква
очакване
очаквания
очакванията
очакваното
очакват
очевидно
очевидци
очерк
очерки
очеркъ
очертава
очертават
очертания
очертанията
очерци
очи
очила
очите
ош
оши
още
п
па
пабло
павароти
павел
павзании
павилион
павия
павле
павликени
павликяни
павлин
павлина
павлов
павлова
павлович
павлос
пад
пада
падане
падането
падат
падеж
падение
падерборн
падина
падини
падна
паднал
паднали
падналите
падне
падуа
пазар
пазара
пазарджик
пазарджишко
пазарен
пазари
пазарите
пазарна
пазарната
пазарни
пазарът
пазач
пази
пазител
пазя
пазят
паи
паисии
пак
пакет
пакета
пакети
пакистан
пакт
пакта
паланка
палас
палат
палата
палау
палацо
пале
палеозои
палеолог
палеологина
палермо
палестина
палестински
пали
палитра
палма
палми
палмър
палуба
палубата
палуби
памела
памет
паметна
паметни
паметник
паметника
паметникът
паметници
паметниците
паметта
памир
памук
пан
пана
панагюрище
панаи
панаир
панаира
панама
панамския
панда
пандемията
пандо
панел
панели
паника
паница
пано
панов
панова
панония
панорама
пансион
панталони
пантев
пантелеи
пантеон
пантеона
пантера
панчарево
панчев
панчо
паола
паоло
папа
папагали
папагалови
пападопулос
папазов
папата
папенхаи
папи
папирии
папска
папската
папски
папските
папския
папството
папуа
пара
парагваи
параграф
парад
парада
парадигма
парадокс
паразити
параклис
параклиса
параклиси
параклисът
паралел
паралели
паралелка
паралелки
паралелни
паралелно
парализа
парамаунт
параметри
параметрите
параметър
парана
параскева
парата
параход
парахода
парашут
пари
париж
парижката
парижки
парижкия
парижкото
парис
парите
парична
паричната
парични
паричните
парк
парка
паркинг
паркове
паркс
паркър
паркът
парламент
парламента
парламентарен
парламентарна
парламентарната
парламентарни
парламентарните
парламентът
парма
парна
парни
пародия
парохија
парсънс
партении
парти
партиен
партизан
партизани
партизанин
партизаните
партизанска
партизански
партизанските
партизанското
партиздат
партии
партиите
партите
партия
партията
партнира
партньор
партньора
партньори
партньорите
партньорка
партньорство
парцел
парче
парчевич
парчета
парчетата
парчето
пас
пасаж
пасажи
пасау
паси
пасища
пасищата
паскал
паскалев
паскалевъ
пасков
пасок
паспорт
паста
пастир
пастор
пат
патагония
патент
патента
патенти
патентова
патерсън
пати
патица
патици
патология
патрезе
патриарси
патриарх
патриарха
патриаршеския
патриаршисти
патриаршистки
патриаршия
патриаршията
патрик
патримониум
патриот
патриоти
патриотизъм
патриотична
патриотични
патрисия
патриции
патриша
патрон
патрона
патронажа
патрони
патрул
патън
патянин
пауза
паул
паула
паули
паулина
пауло
паунда
паунов
пауъл
пауър
пафос
пахлави
пациент
пациента
пациенти
пациентите
пациентът
пацо
паче
паша
пашата
пашов
паяк
паяци
пб
пво
пг
пд
пе
певец
певеца
певецът
певица
певицата
певици
певци
певческа
пеги
педагог
педагогика
педагогическа
педагогически
педагогическия
педагогическо
педагогическото
педро
педру
пее
пеев
пеева
пеевски
пеене
пеенето
пежо
пезаро
пеи
пек
пекин
пела
пелагонии
пеле
пелин
пелистер
пеловски
пелопонес
пелтеков
пен
пенджаб
пенев
пени
пенка
пенков
пенсакола
пенсии
пенсилвания
пенсионира
пенсиониран
пенсионирането
пенсия
пенсията
пенсофт
пенчев
пенчева
пенчо
пеньо
пеня
пепел
пепелта
пепеляшка
пеперуда
пеперуди
пепърс
пер
пера
перата
пергам
пере
переи
перепись
перес
пери
перигеи
перикъл
период
периода
периоди
периодите
периодичен
периодическо
периодичната
периодични
периодичния
периодично
периодът
периферия
периферията
перка
перки
перкусии
перла
перли
перм
пермски
перник
перо
перон
перото
персеи
перси
персии
персите
персия
персонаж
персонажа
персонажи
персонажите
персонал
персонала
персонални
перспектива
перспективата
перспективи
перу
перуджа
перущица
перфектно
песен
песенен
песенния
песента
пескара
песни
песните
пет
пета
петар
петата
петгодишен
петдесет
петел
петер
петербург
петербургската
петербургъ
петерсон
пети
петима
петимата
петиция
петия
петият
петка
петко
петков
петкова
петкович
петна
петнадесет
петно
пето
петото
петра
петрарка
петре
петрич
петричко
петро
петров
петрова
петрович
петровски
петроград
петрол
петролни
петронии
петрос
петте
петък
петър
петя
пехота
пехотата
пехотен
пехотинци
пехотна
пехотни
печ
печалба
печалбата
печалби
печалбите
печално
печат
печата
печати
печатна
печатни
печатница
печатницата
пече
печелеи
печели
печелил
печелили
печелят
печенегите
печени
печка
печки
пеша
пешев
пешка
пещ
пещера
пещерата
пещери
пещерите
пещи
пея
пеят
пи
пианист
пианистка
пиано
пианото
пиаца
пиаченца
пиво
пивоварна
пивоварната
пивоварни
пие
пиемонт
пиемонтски
пиене
пиер
пиеро
пиеса
пиесата
пиеси
пиесите
пиетро
пиза
пизон
пии
пик
пика
пикасо
пикет
пикчърс
пиластри
пилат
пиле
пилзен
пилот
пилота
пилоти
пилотиран
пилотирани
пилотите
пилотът
пилсудски
пинакотека
пинд
пинин
пинк
пинокио
пионер
пионерите
пипер
пипин
пипков
пир
пирамида
пирамидата
пирамиди
пирати
пиратите
пирдоп
пиренеи
пиренеите
пирея
пирин
пиринска
пирински
пиринско
пирмонт
пирогов
пирот
писал
писан
писана
писане
писането
писани
писание
писания
писанията
писано
писар
писаро
писател
писатели
писателите
писателка
писателката
писателска
писателската
писателя
писателят
писма
писмата
писмен
писмена
писмени
писмените
писмено
писменост
писмеността
писмо
писмото
писта
пистата
писти
пистолет
пистолета
пистолети
пит
пита
питаи
питам
питат
питеи
питер
пити
питкерн
питон
питсбърг
питър
питърсън
пица
пиша
пишат
пише
пиърс
пиърсън
пия
пиян
пият
пк
пл
плава
плаване
плаването
плавания
плават
плавателен
плавателна
плавателни
плаващ
плаваща
плаващи
плавно
плавт
плавции
пладне
плаж
плажа
плажове
плазма
плазмата
плакат
плакати
плакет
пламен
пламък
пламъци
план
плана
планета
планетата
планети
планетите
планина
планината
планини
планините
планинска
планинската
планински
планинските
планинския
планинско
планира
планиран
планирана
планираната
планиране
планирането
планирани
планирано
планираното
планират
планк
планове
плановете
планови
плант
плантации
планът
пласт
пластика
пластини
пластична
пластмаса
пластмасови
пластове
плат
плата
платен
платена
платени
плати
платинен
платна
платната
платно
платното
плато
платове
платон
платото
платформа
платформата
платформи
плауен
плач
плача
плачат
плаче
плаши
плаща
плащане
плащането
плащания
плащат
плебеи
плевен
плевенска
плевенски
плевенско
плевнелиев
плеи
племе
племена
племената
племенен
племенни
племенник
племенника
племенникът
племенница
племенницата
племето
плен
пленен
пленени
пленник
пленници
пленум
пленява
пленяването
пленяват
плеяда
плинии
плиска
плитка
плитки
плитко
пловдив
пловдивска
пловдивската
пловдивски
пловдивските
пловдивския
пловдивско
пловдивското
пловдивъ
плод
плода
плодов
плодове
плодовете
плодови
плодородие
плодородието
плодородна
плодородни
плодът
плоска
плоски
плоско
плоскост
плоскости
плосък
плоча
плочата
плочи
плочите
плочка
плочки
площ
площад
площада
площади
площадка
площадката
площадки
площадът
площи
площта
плува
плуване
плуват
плутарх
плутон
плът
плътен
плътна
плътни
плътно
плътност
плътността
плъх
плъхове
пльон
плюс
плячка
плячката
пневмония
по
поаро
поатие
победа
победата
победен
победена
победени
победи
победил
победите
победител
победители
победителите
победителка
победителя
победителят
победиха
победния
победоносец
победят
побеждава
побеждаваи
побеждават
побои
повардарска
повдига
повдигане
повдигнати
поведе
поведение
поведението
повежда
поверена
поверено
поверява
повест
повести
повестта
повече
повечето
повикан
повиквателна
повинност
повишава
повишаване
повишаването
повишават
повишен
повишена
повишение
повишено
повиши
повлиява
повлияват
повлияе
повлиян
повлияна
повлияни
повлияно
повод
поводи
повратна
повреда
повреден
повредена
повредени
повреди
повредите
поврежда
повръщане
повсеместно
повтаря
повтарят
повтарящи
повторен
повторение
повторения
повтори
повторно
повторното
повърхнина
повърхност
повърхности
повърхностни
повърхностно
повърхността
повярва
поглед
погледа
погледи
погледна
погледнато
погледъ
поглъща
поглъщане
пограничен
погребални
погребан
погребана
погребани
погребано
погребение
погребението
погребения
погребите
погрешка
погрешно
под
пода
подава
подаване
подаването
подават
подаде
поданици
поданиците
поданство
подарък
подаръци
подарява
подаци
подбор
подбрани
подвиг
подвигът
подвид
подвида
подвидове
подвижен
подвижна
подвижни
подвизи
подводен
подводна
подводната
подводни
подводните
подводница
подводницата
подводници
подводниците
подгорица
подготвен
подготвена
подготвени
подготви
подготвя
подготвят
подготовка
подготовката
подгрупа
подгрупи
поддава
поддръжка
поддръжката
поддръжник
поддръжници
поддръжниците
поддържа
поддържан
поддържана
поддържане
поддържането
поддържани
поддържат
поддържащ
поддържаща
поддържащи
поделена
поделение
поделения
поделя
поделят
подем
подзаглавие
подземен
подземна
подземни
подземните
подземния
подземното
подир
подиум
подиума
подклас
подкова
подкрепа
подкрепата
подкрепен
подкрепена
подкрепени
подкрепено
подкрепи
подкрепление
подкрепления
подкрепя
подкрепян
подкрепяни
подкрепят
подкуп
подкупи
подлага
подлагат
подлежат
подлежи
подложен
подложена
подложени
подложка
подмяна
поднася
подновен
подновява
подножие
подножието
подобен
подобие
подобна
подобни
подобно
подобрен
подобрена
подобрени
подобрение
подобрения
подобри
подобрява
подобряване
подобряването
подобряват
подобрят
подозира
подозрение
подозрения
подофицер
подофицери
подпис
подписа
подписал
подписали
подписан
подписана
подписани
подписано
подписва
подписване
подписването
подписват
подпишат
подпише
подполковник
подпомага
подпомаган
подпомагане
подпомагат
подпомогнат
подпомогне
подпоручик
подправка
подправки
подпредседател
подражание
подразбиране
подразделение
подразделението
подразделения
подразред
подред
подредба
подредени
подреждане
подреждането
подреждат
подробен
подробна
подробни
подробно
подробности
подрод
подселище
подсемеи
подсказва
подслон
подтиква
подход
подхода
подходи
подходящ
подходяща
подходящи
подходящо
подхранва
подхранване
подхранването
подчертава
подчертават
подчертае
подчертано
подчинен
подчинена
подчинени
подчинение
подчинените
подчинено
подчини
подчинява
подчиняват
подът
подялба
подялбата
пое
поединично
поезия
поезията
поема
поемат
поемата
поеме
поеми
поет
поета
поетеса
поетесата
поети
поетика
поетите
поетичен
поетически
поетична
поетични
поетът
пожар
пожара
пожари
пожарна
пожелава
поза
позволено
позволи
позволява
позволяваи
позволяват
позволяващ
позволяваща
позволяващи
позволят
поздрав
позитивни
позиции
позициите
позиционните
позиция
позицията
познава
познавам
познаване
познават
познан
познание
познанието
познания
познанията
познат
позната
познати
познатите
познато
позовава
позоваваи
пои
поиска
поискал
поискан
поисква
покажат
покаже
показа
показал
показан
показана
показани
показания
показанията
показано
показател
показатели
показва
показваи
показване
показват
показващи
покана
поканата
поканен
поканена
поканени
покани
покачва
покачване
покер
поклонение
поклонението
поклонници
поклонниците
покои
поколение
поколението
поколения
поколенията
покорява
покраи
покрив
покрива
покриване
покриват
покриви
покривите
покривка
покривът
покрие
покрит
покрита
покрити
покритие
покрития
покрито
покритосеменни
покров
покровител
покровителка
покровителството
покръстването
покупка
покупката
покушение
пол
пола
полага
полагане
полагането
полагат
поле
полева
полеви
полегати
полезен
полезна
полезни
полезния
полезно
полека
полемика
полет
полета
полетата
полети
полетите
полето
полетът
полза
ползата
ползва
ползване
ползването
ползвани
ползват
ползи
поли
полибии
полигон
полиграфия
поликарп
поликсена
полимери
полина
полинезия
полион
полис
полиси
политбюро
полите
политехника
политехнически
политик
политика
политиката
политики
политико
политици
политиците
политическа
политическата
политически
политическите
политическия
политическият
политическо
политическото
политкомисар
политолог
политология
полицаи
полицаите
полицеи
полиция
полицията
полк
полка
полкове
полковник
полкът
поло
полов
полова
половата
половете
полови
половин
половина
половината
половите
полово
полог
положен
положени
положение
положението
положения
положи
положителен
положителна
положителни
положителните
положително
полска
полската
полски
полските
полския
полският
полско
полското
полу
полубрат
полувреме
полузащитник
полукръгла
полукълбо
полумесец
полунощ
полуостров
полуострова
полуострови
полуразпад
полусезон
полусестра
полусолени
полутежка
полуфинал
полуфинала
полуфиналист
полуфиналите
получава
получаваи
получавал
получаваме
получаване
получаването
получават
получат
получен
получена
получената
получени
получените
получено
получи
получил
получила
получили
получило
полша
полюс
полюса
поля
поляна
поляни
полярен
поляризация
полярна
полярни
полярните
поляци
поляците
пом
помага
помагаи
помагала
помагат
помазан
помаци
помаците
помежду
померания
поместени
помещава
помещават
помещение
помещението
помещения
помещенията
поминък
помирение
помисли
помни
помня
помнят
помогна
помогнат
помогне
помогнете
поморавието
поморие
помощ
помощи
помощни
помощник
помощници
помощта
помпа
помпеи
помпи
помпилии
помпонии
понастоящем
понася
понасят
поне
понеделник
понеже
понесе
понижава
понижаване
понижение
понт
понтии
понтифекс
понякога
понятие
понятието
понятия
понятията
поотделно
поощрение
поп
попа
попада
попадат
попадение
попадения
попаднал
попаднали
попаднат
попадне
попдимитров
попи
попиванов
попис
попита
попо
попов
попова
попович
попово
поповски
поппетров
поправи
поправка
поправки
попречва
попречи
поприще
популации
популациите
популация
популацията
популярен
популяризира
популяризиране
популяризирането
популярна
популярната
популярни
популярните
популярния
популярният
популярно
популярност
популярността
популярното
попфолк
попхристов
попълва
попълване
попълнение
попълните
пор
поради
поражда
пораждат
поражение
поражението
поражения
поразен
поразява
поразяване
поред
пореден
поредица
поредицата
поредици
поредна
поредната
поредни
поредния
поредното
поречие
поречието
порно
порнографска
порнографската
порнографски
порода
породата
породени
породи
порои
порт
порта
портал
портала
портата
порти
портик
портите
портланд
порто
портрет
портрета
портрети
портретите
портретът
португалия
португалска
португалската
португалски
португалските
португалския
португалците
портфеи
портър
поручик
порцелан
порции
поръчан
поръчани
поръчва
поръчение
поръчка
поръчката
поръчки
порядък
порядъка
посветен
посветена
посветени
посветено
посвети
посвещава
посвещение
посеи
поселения
посетен
посетена
посетено
посети
посетил
посетители
посетителите
посещава
посещаван
посещават
посещаемост
посещение
посещението
посещения
посещенията
послание
посланието
посланик
посланици
послания
после
последва
последвалата
последвали
последвалите
последвалия
последвалото
последван
последвана
последвани
последвано
последват
последващи
последващите
последващо
последващото
последен
последица
последици
последиците
последна
последната
последни
последните
последния
последният
последно
последното
последовател
последователен
последователи
последователите
последователни
последователно
последователност
последователността
последствие
последствия
последствията
пословица
послужи
посмъртно
посока
посоката
посоки
посолства
посолство
посолството
посочва
посочват
посочен
посочена
посочени
посочените
посочено
посочи
посредник
посредничеството
посредством
посреща
посрещане
посрещат
посрещнат
посрещната
посрещнати
посрещне
пост
поста
поставен
поставена
поставената
поставени
поставените
поставено
постави
поставил
поставя
поставяи
поставяне
поставянето
поставяни
поставят
постановка
постановката
постановки
постановките
постановление
постановления
постановява
постепенно
постепенното
постига
постигаи
постигане
постигането
постигат
постигна
постигнал
постигнали
постигнат
постигната
постигнати
постигнато
постигне
постижение
постижения
постиженията
постове
постовете
постоянен
постоянна
постоянната
постоянни
постоянните
постоянния
постоянно
постоянното
постоянство
пострадали
пострадалите
пострадва
построен
построена
построената
построени
построения
построено
построи
построил
построили
построява
построяване
построяването
построяват
построят
постумии
постъпва
постъпват
постъпи
постъпка
постъпки
постъпления
постът
пот
потвърден
потвърдена
потвърдени
потвърдено
потвърди
потвърждава
потвърждават
потвърждение
потегля
потекло
потендорф
потенциал
потенциала
потенциална
потенциалната
потенциални
потенциалните
потенциално
потискане
поток
потока
потокът
потомство
потомството
потомци
потомците
потомък
потоп
потопен
потопени
потопява
потоци
потребител
потребители
потребителите
потребителски
потребителя
потребителят
потребление
потреблението
потребности
потсдам
потушава
потушаване
потушаването
потушено
потуши
потъва
потъват
потър
потърси
похвала
похвали
похвати
поход
похода
походи
походите
походът
почва
почвата
почви
почвите
почести
почетен
почетна
почетната
почетни
почетните
почетния
почетно
почетното
почива
почиват
почивка
почивни
почина
починал
починала
починали
починалия
почистване
почит
почита
почитан
почитат
почитател
почитатели
почитателите
почна
почти
поща
пощата
пощенска
пощенски
пощенските
пощенският
пощи
пощите
поява
появата
появи
появил
появила
появили
появява
появяване
появяването
появяват
появят
пояс
пояса
пояси
пояснение
пояснителната
пп
пр
пра
прабългари
прабългарите
прабългарски
прав
права
правата
правда
правеи
правели
правен
правене
правени
правец
прави
правил
правила
правилата
правилен
правили
правилна
правилната
правилни
правилник
правилника
правилно
правилното
правило
правилото
правим
правите
правителства
правителствата
правителствен
правителствена
правителствената
правителствени
правителствените
правителство
правителството
правиш
правна
правната
правни
правните
правния
правно
правнук
правнучка
право
правомощия
правомощията
правоотношение
правопис
православен
православие
православието
православна
православната
православная
православни
православните
православния
православно
православното
правоспособност
правосъдие
правосъдието
правото
правоъгълен
правоъгълна
правоъгълни
правоъгълник
правя
правят
праг
прага
прагове
прадеш
прадядо
пражката
празен
празна
празненства
празни
празник
празника
празникът
празнина
празници
празниците
празничен
празнични
празно
празнува
празнуват
праи
праисторически
праисторическо
практика
практиката
практики
практикува
практикуват
практическа
практически
практическо
пране
прародител
прасе
прасета
праслав
пратен
пратеник
пратеници
прати
прах
праха
праща
пре
пребивава
пребиваване
пребиваването
[...]
