!
"
#
##a
##aa
##ab
##ac
##ad
##ae
##af
##ag
##ah
##ai
##aj
##ak
##al
##am
##an
##ao
##ap
##aq
##ar
##as
##at
##au
##av
##aw
##ax
##ay
##az
##b
##ba
##bb
##bc
##bd
##be
##bf
##bg
##bh
##bi
##bj
##bk
##bl
##bm
##bn
##bo
##bp
##bq
##br
##bs
##bt
##bu
##bv
##bw
##bx
##by
##bz
##c
##ca
##cb
##cc
##cd
##ce
##cf
##cg
##ch
##ci
##cj
##ck
##cl
##cm
##cn
##co
##cp
##cq
##cr
##cs
##ct
##cu
##cv
##cw
##cx
##cy
##cz
##d
##da
##db
##dc
##dd
##de
##df
##dg
##dh
##di
##dj
##dk
##dl
##dm
##dn
##do
##dp
##dq
##dr
##ds
##dt
##du
##dv
##dw
##dx
##dy
##dz
##e
##ea
##eb
##ec
##ed
##ee
##ef
##eg
##eh
##ei
##ej
##ek
##el
##em
##en
##eo
##ep
##eq
##er
##es
##et
##eu
##ev
##ew
##ex
##ey
##ez
##f
##fa
##fb
##fc
##fd
##fe
##ff
##fg
##fh
##fi
##fj
##fk
##fl
##fm
##fn
##fo
##fp
##fq
##fr
##fs
##ft
##fu
##fv
##fw
##fx
##fy
##fz
##g
##ga
##gb
##gc
##gd
##ge
##gf
##gg
##gh
##gi
##gj
##gk
##gl
##gm
##gn
##go
##gp
##gq
##gr
##gs
##gt
##gu
##gv
##gw
##gx
##gy
##gz
##h
##ha
##hb
##hc
##hd
##he
##hf
##hg
##hh
##hi
##hj
##hk
##hl
##hm
##hn
##ho
##hp
##hq
##hr
##hs
##ht
##hu
##hv
##hw
##hx
##hy
##hz
##i
##ia
##ib
##ic
##id
##ie
##if
##ig
##ih
##ii
##ij
##ik
##il
##im
##in
##io
##ip
##iq
##ir
##is
##it
##iu
##iv
##iw
##ix
##iy
##iz
##j
##ja
##jb
##jc
##jd
##je
##jf
##jg
##jh
##ji
##jj
##jk
##jl
##jm
##jn
##jo
##jp
##jq
##jr
##js
##jt
##ju
##jv
##jw
##jx
##jy
##jz
##k
##ka
##kb
##kc
##kd
##ke
##kf
##kg
##kh
##ki
##kj
##kk
##kl
##km
##kn
##ko
##kp
##kq
##kr
##ks
##kt
##ku
##kv
##kw
##kx
##ky
##kz
##l
##la
##lb
##lc
##ld
##le
##lf
##lg
##lh
##li
##lj
##lk
##ll
##lm
##ln
##lo
##lp
##lq
##lr
##ls
##lt
##lu
##lv
##lw
##lx
##ly
##lz
##m
##ma
##mb
##mc
##md
##me
##mf
##mg
##mh
##mi
##mj
##mk
##ml
##mm
##mn
##mo
##mp
##mq
##mr
##ms
##mt
##mu
##mv
##mw
##mx
##my
##mz
##n
##na
##nb
##nc
##nd
##ne
##nf
##ng
##nh
##ni
##nj
##nk
##nl
##nm
##nn
##no
##np
##nq
##nr
##ns
##nt
##nu
##nv
##nw
##nx
##ny
##nz
##o
##oa
##ob
##oc
##od
##oe
##of
##og
##oh
##oi
##oj
##ok
##ol
##om
##on
##oo
##op
##oq
##or
##os
##ot
##ou
##ov
##ow
##ox
##oy
##oz
##p
##pa
##pb
##pc
##pd
##pe
##pf
##pg
##ph
##pi
##pj
##pk
##pl
##pm
##pn
##po
##pp
##pq
##pr
##ps
##pt
##pu
##pv
##pw
##px
##py
##pz
##q
##qa
##qb
##qc
##qd
##qe
##qf
##qg
##qh
##qi
##qj
##qk
##ql
##qm
##qn
##qo
##qp
##qq
##qr
##qs
##qt
##qu
##qv
##qw
##qx
##qy
##qz
##r
##ra
##rb
##rc
##rd
##re
##rf
##rg
##rh
##ri
##rj
##rk
##rl
##rm
##rn
##ro
##rp
##rq
##rr
##rs
##rt
##ru
##rv
##rw
##rx
##ry
##rz
##s
##sa
##sb
##sc
##sd
##se
##sf
##sg
##sh
##si
##sj
##sk
##sl
##sm
##sn
##so
##sp
##sq
##sr
##ss
##st
##su
##sv
##sw
##sx
##sy
##sz
##t
##ta
##tb
##tc
##td
##te
##tf
##tg
##th
##ti
##tj
##tk
##tl
##tm
##tn
##to
##tp
##tq
##tr
##ts
##tt
##tu
##tv
##tw
##tx
##ty
##tz
##u
##ua
##ub
##uc
##ud
##ue
##uf
##ug
##uh
##ui
##uj
##uk
##ul
##um
##un
##uo
##up
##uq
##ur
##us
##ut
##uu
##uv
##uw
##ux
##uy
##uz
##v
##va
##vb
##vc
##vd
##ve
##vf
##vg
##vh
##vi
##vj
##vk
##vl
##vm
##vn
##vo
##vp
##vq
##vr
##vs
##vt
##vu
##vv
##vw
##vx
##vy
##vz
##w
##wa
##wb
##wc
##wd
##we
##wf
##wg
##wh
##wi
##wj
##wk
##wl
##wm
##wn
##wo
##wp
##wq
##wr
##ws
##wt
##wu
##wv
##ww
##wx
##wy
##wz
##x
##xa
##xb
##xc
##xd
##xe
##xf
##xg
##xh
##xi
##xj
##xk
##xl
##xm
##xn
##xo
##xp
##xq
##xr
##xs
##xt
##xu
##xv
##xw
##xx
##xy
##xz
##y
##ya
##yb
##yc
##yd
##ye
##yf
##yg
##yh
##yi
##yj
##yk
##yl
##ym
##yn
##yo
##yp
##yq
##yr
##ys
##yt
##yu
##yv
##yw
##yx
##yy
##yz
##z
##za
##zb
##zc
##zd
##ze
##zf
##zg
##zh
##zi
##zj
##zk
##zl
##zm
##zn
##zo
##zp
##zq
##zr
##zs
##zt
##zu
##zv
##zw
##zx
##zy
##zz
$
%
&
'
(
)
*
+
,
-
.
/
0
00
000
001
002
003
005
007
01
011
013
02
023
024
03
030194
04
0435
05
06
07
071
08
083333
09
0a
0b
0c
0d
0e
0f
0g
0h
0i
0j
0k
0l
0m
0n
0o
0p
0q
0r
0s
0t
0u
0v
0w
0x
0y
0z
1
10
100
1000
100000
1001
1002
1003
1007
101
1014
1015
1016
1017
1018
102
1020
1021
1024
1025
103
1030
1034
1035
1037
1038
1039
104
1040
1045
1046
105
1050
1051
1055
1056
1057
1059
106
1060
1065
1066
107
1070
1071
1073
1075
1077
1078
108
1080
1081
1085
1086
1087
1088
1089
109
1090
1092
1093
1095
1096
1097
1098
1099
11
110
1100
1101
1102
1103
1105
1106
1108
1109
111
1110
1111
1112
1115
1118
112
1120
11203
1122
1123
1124
1125
1126
1127
1128
113
1130
1131
1133
1134
1135
1136
1137
1138
1139
114
1140
1141
1142
1143
1144
1145
1146
1147
1148
1149
115
1150
1151
1152
1154
1155
1156
1157
1158
1159
116
1160
1161
1162
1163
1164
1165
1166
1167
1168
1169
117
1170
1171
1172
1173
1174
1175
1176
1177
1179
118
1180
1181
1182
1183
1184
1185
1186
1187
1188
1189
119
1190
1191
1192
1193
1194
1195
1196
1197
1198
1199
12
120
1200
1201
1202
1203
1204
1205
1206
1207
1208
1209
121
1210
1211
1212
1213
1214
1215
1216
1217
1218
1219
122
1220
1221
1222
1223
1224
1225
1226
1227
1228
1229
123
1230
1231
1232
1233
1234
1235
1236
1237
1238
1239
124
1240
1241
1242
1243
1244
1245
1246
1247
1248
1249
125
1250
1251
1252
1253
1254
1255
1256
1257
1258
1259
126
1260
1261
1262
1263
1264
1265
1266
1267
1268
1269
127
1270
1271
1272
1273
1274
1275
1276
1277
1278
1279
128
1280
1281
1282
1283
1284
1285
1286
1287
1288
1289
129
1290
1291
1292
1293
1294
1295
1296
1297
1298
1299
13
130
1300
1301
1302
1303
1304
1305
1306
1307
1308
1309
131
1310
1311
1312
1313
1314
1315
1316
1317
1318
1319
132
1320
1321
1322
1323
1324
1325
1326
1327
1328
1329
133
1330
1331
1332
1333
1334
1335
1336
1337
1338
1339
134
1340
1341
1342
1343
1344
1345
1346
1347
1348
1349
135
1350
1351
1352
1353
1354
1355
1356
1357
1358
1359
136
1360
1361
1362
1363
1364
1365
1366
1367
1368
1369
137
1370
1371
1372
1373
1374
1375
1376
1377
1378
1379
138
1380
1381
1382
1383
1384
1385
1386
1387
1388
1389
139
1390
1391
1392
1393
1394
1395
1396
1397
1398
1399
14
140
1400
1401
1402
1403
1404
1405
1406
1407
1408
1409
141
1410
1411
1412
1413
1414
1415
1416
1417
1418
1419
142
1420
1421
1422
1423
1424
1425
1426
1427
1428
1429
143
1430
1431
1432
1433
1434
1434458766
1435
1436
1437
1438
1439
144
1440
1441
1442
1443
1444
1445
1446
1447
1448
1449
145
1450
1451
1452
1453
1454
1455
1456
1457
1458
1459
146
1460
1461
1462
1463
1464
1465
1466
1467
1468
1469
147
1470
1471
1472
1473
1474
1475
1476
1477
1478
1479
148
1480
1481
1482
1483
1484
1485
1486
1487
1488
1489
149
1490
1491
1492
1493
1494
1495
1496
1497
1498
1499
15
150
1500
1501
1502
1503
1504
1505
1506
1507
1508
1509
151
1510
1511
1512
1513
1514
1515
1516
1517
1518
1519
152
1520
1521
1522
1523
1524
1525
1526
1527
1528
1529
153
1530
1531
1532
1533
1534
1535
1536
1537
1538
1539
154
1540
1541
1542
1543
1544
1545
1546
1547
1548
1549
155
1550
1551
1552
1553
1554
1555
1556
1557
1558
1559
156
1560
1561
1562
1563
1564
1565
1566
1567
1568
1569
157
1570
1571
1572
1573
1574
1575
1576
1577
1578
1579
158
1580
1581
1582
1583
1584
1585
1586
1587
1588
1589
159
1590
1591
1592
1593
1594
1595
1596
1597
1598
1599
16
160
1600
1601
1602
1603
1604
1605
1606
1607
1608
1609
161
1610
1611
1612
1613
1614
1615
1616
1617
1618
1619
162
1620
1621
1622
1623
1624
1625
1626
1627
1628
1629
163
1630
1631
1632
1633
1634
1635
1636
1637
1638
1639
164
1640
1641
1642
1643
1644
1645
1646
1647
1648
1649
165
1650
1651
1652
1653
1654
1655
1656
1657
1658
1659
166
1660
1661
1662
1663
1664
1665
1666
166667
1667
1668
1669
167
1670
1671
1672
1673
1674
1675
1676
1677
1678
1679
168
1680
1681
1682
1683
1684
1685
1686
1687
1688
1689
169
1690
1691
1692
1693
1694
1695
1696
1697
1698
1699
17
170
1700
1701
1702
1703
1704
1705
1706
1707
1708
1709
171
1710
1711
1712
1713
1714
1715
1716
1717
1718
1719
172
1720
1721
1722
1723
1724
1725
1726
1727
1728
1729
173
1730
1731
1732
1733
1734
1735
1736
1737
1738
1739
174
1740
1741
1742
1743
1744
1745
1746
1747
1748
1749
175
1750
1751
1752
1753
1754
1755
1756
1757
1758
1759
176
1760
1761
1762
1763
1764
1765
1766
1767
1768
1769
177
1770
1771
1772
1773
1774
1775
1776
1777
1778
1779
178
1780
1781
1782
1783
1784
1785
1786
1787
1788
1789
179
1790
1791
1792
1793
1794
1795
1796
1797
1798
1799
18
180
1800
1801
1802
1803
1804
1805
1806
1807
1808
1809
181
1810
1811
1812
1813
1814
1815
1816
1817
1818
1819
182
1820
1821
1822
1823
1824
1825
1826
1827
1828
1829
183
1830
1831
1832
1833
1834
1835
1836
1837
1838
1839
184
1840
1841
1842
1843
1844
1845
1846
1847
1848
1849
185
1850
1851
1852
1853
1854
1855
1856
1857
1858
1859
186
1860
1861
1862
1863
1864
1865
1866
1867
1868
1869
187
1870
1871
1872
1873
1874
1875
1876
1877
1878
1879
188
1880
1881
1882
1883
1884
1885
1886
1887
1888
1889
189
1890
1891
1892
1893
1894
1895
1896
1897
1898
1899
19
190
1900
1901
1902
1903
1904
1905
1906
1907
1908
1909
191
1910
1911
1912
1913
1914
1915
1916
1917
1918
1919
192
1920
1921
1922
1923
1924
1925
1926
1927
1928
1929
193
1930
1931
1932
1933
1934
1935
1936
1937
1938
1939
194
1940
1941
1942
1943
1944
1945
1946
1947
1948
1949
195
1950
1951
1952
1953
1954
1955
1956
1957
1958
1959
196
1960
1961
1962
1963
1964
1965
1966
1967
1968
1969
197
1970
1971
1972
1973
1974
1975
1976
1977
1978
1979
198
1980
1981
1982
1983
1984
1985
1986
1987
1988
1989
199
1990
1991
1992
1993
1994
1995
1996
1997
1998
1999
1a
1b
1c
1d
1e
1f
1g
1h
1i
1j
1k
1l
1m
1n
1o
1p
1q
1r
1s
1t
1u
1v
1w
1x
1y
1z
2
20
200
2000
200000
2001
2002
2003
2004
2005
2006
2007
2008
20080915015002
2009
201
2010
2011
2012
20120630054150
20120630054156
2013
2014
2015
2016
2017
2018
2019
202
2020
2021
2022
2023
203
204
205
206
207
208
209
21
210
2100
211
212
213
214
215
216
217
218
219
22
220
2200
221
222
223
224
225
226
227
228
229
23
230
2300
2307
231
232
233
234
235
236
237
238
239
24
240
2400
2408
241
242
243
244
245
246
247
248
249
25
250
2500
251
252
253
254
255
256
257
258
259
26
260
2600
261
262
263
264
265
266
267
268
269
27
270
2700
271
272
273
274
275
276
277
278
279
28
280
2800
281
282
2820
283
284
285
286
287
288
289
29
290
2905
291
292
293
294
295
296
297
298
299
2a
2b
2c
2d
2e
2f
2g
2h
2i
2j
2k
2l
2m
2n
2o
2p
2q
2r
2s
2t
2u
2v
2w
2x
2y
2z
3
30
300
3000
301
302
303
304
305
306
307
308
309
31
310
311
312
313
314
315
316
317
318
319
32
320
321
322
323
324
325
326
327
328
329
33
330
331
332
333
333333
334
335
336
337
338
339
34
340
341
342
343
344
345
346
347
348
349
35
350
3500
351
352
353
354
355
356
357
358
359
36
360
361
362
363
364
365
366
367
368
369
37
370
371
372
373
374
375
376
377
378
379
38
380
381
382
383
384
385
386
387
388
389
39
390
391
392
393
394
395
396
397
398
399
3a
3b
3c
3d
3e
3f
3g
3h
3i
3j
3k
3l
3m
3n
3o
3p
3q
3r
3s
3t
3u
3v
3w
3x
3y
3z
4
40
400
4000
401
402
403
404
405
406
407
408
409
41
410
411
412
413
414
415
416
416667
417
418
419
42
420
421
422
423
424
425
426
427
428
429
43
430
431
432
433
434
435
436
437
438
439
44
440
441
442
443
444
445
446
447
448
449
45
450
4500
451
452
453
454
455
456
457
458
459
46
460
461
462
463
464
465
466
467
468
469
47
470
471
472
473
474
475
476
477
478
479
48
480
481
482
483
484
485
486
487
488
489
49
490
491
492
493
494
495
496
497
498
499
4a
4b
4c
4d
4e
4f
4g
4h
4i
4j
4k
4l
4m
4n
4o
4p
4q
4r
4s
4t
4u
4v
4w
4x
4y
4z
5
50
500
5000
500000
501
502
503
504
505
506
507
508
509
51
510
511
512
513
514
515
516
517
518
519
52
520
521
522
523
524
525
526
527
528
529
53
530
531
532
533
534
535
536
537
538
539
54
540
541
542
543
544
545
546
547
548
549
55
550
5500
551
552
553
554
555
556
557
558
559
56
560
56098
561
562
563
565
567
568
569
57
570
571
572
573
574
575
576
577
578
579
58
580
581
582
583
583333
584
585
586
587
588
589
59
590
591
592
593
595
596
597
598
599
5a
5b
5c
5d
5e
5f
5g
5h
5i
5j
5k
5l
5m
5n
5o
5p
5q
5r
5s
5t
5u
5v
5w
5x
5y
5z
6
60
600
6000
601
602
603
604
605
606
607
608
609
61
610
611
612
613
615
616
617
618
619
62
620
621
622
623
624
625
626
627
628
629
63
630
631
632
633
635
636
637
638
639
64
640
641
642
643
644
645
646
648
649
65
650
651
653
655
656
658
66
660
661
662
663
664
665
666
666667
667
668
67
670
671
672
673
674
675
676
677
679
68
680
681
684
685
687
69
690
691
692
693
695
699
6a
6b
6c
6d
6e
6f
6g
6h
6i
6j
6k
6l
6m
6n
6o
6p
6q
6r
6s
6t
6u
6v
6w
6x
6y
6z
7
70
700
7000
701
704
705
707
71
710
711
712
714
715
716
717
718
719
72
720
725
726
727
73
730
732
733
737
739
74
740
741
747
749
75
750
751
752
754
756
757
759
76
760
767
768
77
770
771
774
775
777
78
780
787
79
790
796
7a
7b
7c
7d
7e
7f
7g
7h
7i
7j
7k
7l
7m
7n
7o
7p
7q
7r
7s
7t
7u
7v
7w
7x
7y
7z
8
80
800
8000
801
8018
802
8080
81
810
811
812
813
814
815
818
8181
8187
82
820
8221
829
83
830
831
833333
835
836
84
840
842
843
845
846
85
850
851
85177
852
855
86
860
862
863
864
865
866
867
87
870
87021
871
875
876
877
879
88
880
882
88309
885
886
887
888
888569
889
89
890
893
894
895
8a
8b
8c
8d
8e
8f
8g
8h
8i
8j
8k
8l
8m
8n
8o
8p
8q
8r
8s
8t
8u
8v
8w
8x
8y
8z
9
90
900
9000
90006
90008
902
907
91
910
911
912
913235
915
916667
92
920
923
925
929
93
930
936
94
940
940228
945
95
950
951
9514
953
954
954430424
955
96
960
961
962
963
965
966
969
97
970
971
973
975
976
978
9789544961022
98
980
9800
9819
983
984
985
986
987
99
990
993
995
996
997
998
9989
999
9a
9b
9c
9d
9e
9f
9g
9h
9i
9j
9k
9l
9m
9n
9o
9p
9q
9r
9s
9t
9u
9v
9w
9x
9y
9z
:
;
<
=
>
?
@
[
[CLS]
[MASK]
[PAD]
[SEP]
[UNK]
\
]
^
_
`
a
a0
a1
a2
a3
a4
a5
a6
a7
a8
a9
aa
ab
abbaye
abc
about
abstract
ac
academia
academic
academie
academy
access
according
account
acid
acropora
across
act
acta
action
activity
actor
actress
actualno
ad
adalbert
adam
adams
adb
add
adels
adelslexikon
administration
adolf
adrian
adult
advanced
adventure
adventures
ae
aechmea
af
affairs
africa
african
after
ag
again
against
agave
age
agency
ages
agnes
agreement
agriculture
ah
ai
ain
air
aircraft
airlines
airport
aj
ak
akademie
al
alan
alba
albania
albanian
albert
alberto
albrecht
album
albums
ale
alessandro
alex
alexander
alfred
ali
alice
aligned
alive
all
alla
allan
alle
allemagne
allen
aller
allgemeine
alliance
allium
allmovie
allmusic
alma
alone
alpha
als
also
alt
alten
altenburg
altertumskunde
altertumswissenschaft
alvensleben
always
am
amazing
amazon
amd
america
american
among
amor
amore
amounts
amour
amphibians
amsterdam
amy
an
ana
analysis
ancestors
ancient
and
anderson
andre
andrea
andreas
andrew
android
andy
anfangen
angel
angeles
angelfire
angels
anhalt
animal
animals
animated
animation
ankara
ann
anna
annalen
annales
annals
annapolis
anne
anni
anniversary
anno
annotated
announced
announces
annual
anolis
another
antarctic
antarctica
anterior
anthony
anthurium
anti
antiquity
anton
antonio
any
anything
ao
ap
apache
aphyosemion
api
apollo
app
apple
application
applications
applied
approach
april
aq
ar
arab
arch
archaeological
archaeology
architecture
archiv
archive
archived
archives
ardisia
are
area
arena
argentina
aria
armed
armenia
armenian
arms
armstrong
army
arnold
around
array
art
arte
artemisia
artery
arthur
article
articles
artist
artists
arts
as
asia
asian
ask
asp
aspects
aspx
assembly
assessment
associated
association
assyrian
astronomical
astronomy
astrophysical
at
atelopus
athens
atlantic
atlas
atp
attack
atyidae
au
auch
audenaerde
audio
auf
aufl
auflage
aug
augsburg
august
augusta
auguste
augustus
aus
ausgewahlten
austin
australia
australian
australis
austria
author
authority
auto
aux
av
available
avec
aviation
avn
aw
award
awards
away
ax
ay
az
b
b0
b1
b2
b3
b4
b5
b6
b7
b8
b9
ba
baby
babylonian
back
bad
baden
bailey
baker
balance
balkan
balkans
balkanton
ball
baltimore
band
bande
bang
bank
banks
bar
barbara
barbus
barcelona
barnes
baron
barry
bas
base
based
basel
basic
bass
batman
battle
battlecruisers
battles
battleships
bauer
bautz
bay
bayerische
bayerischen
bayern
bayerns
bb
bbc
bbkl
bc
bd
be
beach
beam
bear
beast
beat
beautiful
beauty
because
beck
become
been
beer
before
begin
beginning
behavior
behind
bei
beichlingen
being
beitrag
beitrage
belgium
believe
bell
bella
belle
bello
ben
benjamin
bennett
bentheim
benz
berg
berkeley
berlin
berliner
bernard
bernd
bernhard
berthold
beschreibung
best
beta
bethesda
better
between
beyond
bf
bg
bgmovies
bh
bi
bible
bibliographisches
biblioteca
bibliothek
big
bill
billboard
bin
bio
biodiversity
biografico
biografie
biographical
biographie
biographisch
biographisches
biography
biol
biological
biology
biotechnology
bird
birdlife
birds
birth
birthday
bis
bischof
bischofe
bishop
bistum
bit
bj
bk
bl
blabbermouth
black
blackwell
blankenburg
bleeker
blind
blitz
bloch
block
blog
blogspot
blood
bloomberg
blu
blue
blues
blyth
bm
bmw
bn
bnr
bnt
bo
board
bob
bobby
body
boeing
bohlau
bolitoglossa
bonaparte
bond
bone
bonn
book
books
boophis
border
born
boston
both
boulenger
box
boy
boys
bp
bq
br
brabant
brain
branch
brancoff
brand
brandenburg
brasil
braunschweig
brazil
break
breaking
brian
bride
bridge
brief
briefe
brill
britain
britannica
british
broadcasting
broken
brooker
bros
brother
brothers
broughton
brown
browser
bruce
bruno
bryan
bs
bt
bts
btv
bu
buch
bucuresti
budapest
buddhism
budingen
bufo
building
bulgaria
bulgarian
bulgarica
bull
bulletin
bureau
burg
burgen
burggraf
burmeister
burn
burning
bus
bush
business
but
bv
bw
bwv
bx
by
bythinella
byzantine
byzantium
bz
c
c0
c1
c2
c3
c4
c5
c6
c7
c8
c9
ca
caesar
caldwell
california
call
called
cambarus
cambridge
came
camera
camp
campaign
campbell
can
canada
canadian
canal
cancer
cap
cape
capital
capitolini
captain
car
card
care
career
caridina
carl
carlo
carlos
carnegie
carol
carolina
caroline
carter
cartes
cartoon
casa
case
cases
cast
castell
castello
castle
castro
cat
catalog
catalogs
catalogue
catch
catherine
catholic
cause
cavr
cb
cbs
cc
cd
cdot
cdots
ce
cell
census
censuses
center
central
centralbyran
centre
centro
centuries
century
cf
cg
ch
chaetodon
challenge
chamber
champion
champions
championship
chance
change
changes
channel
chaos
chapter
character
charles
charlie
charlotte
chart
charts
chasa
chateau
che
check
checklist
chelsea
chemical
chemistry
chen
chess
chessgames
chi
chicago
chief
chiesa
child
children
chile
china
chinese
choice
chretienne
chris
christ
christian
christina
christine
christmas
christoph
christopher
chronicle
chronicles
chronik
chronology
church
churchill
ci
cia
cichlidae
cie
cik
cil
cinema
circle
circus
cit
cities
citta
city
citypopulation
civil
civilization
cj
ck
cl
clarendon
clark
clarke
class
classic
classical
classics
classification
classischen
claude
claudia
clematis
climate
clinical
clio
cloffa
close
cloud
club
cm
cn
cnn
co
coast
cobiss
code
codex
cohen
col
cola
cold
cole
colin
coll
collaboration
collected
collection
college
collins
color
colubridae
columbia
columbidae
com
combat
come
comedy
comes
comic
comics
coming
comm
command
commentary
commission
committee
common
commoner
communication
communications
community
como
compagno
companion
company
comparative
complete
complex
composite
composition
computer
computing
comte
comune
comuni
con
concern
concert
concerto
concise
condita
conference
conflict
congress
conidae
conquest
conrad
conservation
console
constantin
constantinople
constitution
cont
contemporary
content
contest
context
continued
contributions
control
conus
conway
cook
cool
cooper
cope
copy
core
cornelius
cornell
corporation
corps
corpus
cos
costa
cotoneaster
could
council
count
countries
country
county
course
court
cover
coverage
covid
cox
cp
cq
cr
craig
crazy
crc
creation
creative
crew
cricetidae
crime
crisis
critical
croat
crocidura
cross
crossman
crown
cruiser
cruisers
cruz
cry
crystal
cs
css
ct
cu
cuba
cult
cultura
cultural
culture
cum
cup
cura
current
cut
cuvier
cv
cw
cx
cy
cyprinidae
cyprus
cz
d
d0
d1
d2
d3
d4
d5
d6
d7
d8
d9
da
daget
daily
dal
dalberg
dame
dan
dana
dance
dancing
dangerous
daniel
dans
dariknews
dark
darkness
darmstadt
das
data
database
date
dates
daughter
dave
david
davies
davis
dawn
day
days
db
dc
dd
de
dead
deadline
deal
dean
death
debut
dec
december
decision
deeann
deep
def
default
defence
defense
definition
degli
degree
dei
del
dell
della
delle
delta
dem
demetrius
demo
democracy
den
denis
dennis
department
der
des
description
desert
design
desire
destiny
destruction
det
details
detlev
deutsch
deutsche
deutschen
deutscher
deutsches
deutschland
deux
development
devil
df
dg
dh
di
diamond
diana
diary
dictionary
dictionnaire
did
die
diego
dies
dieter
dietrich
different
digital
digitalisat
din
dir
direct
director
directory
dirty
disco
discography
discogs
discovery
disease
diseases
disney
displaystyle
diss
dissertation
distribution
district
diversity
division
dizionario
dj
dk
dl
dm
dn
dna
dnes
dnevnik
do
doc
doctor
document
documents
does
dog
dohna
doi
dom
domain
don
donald
done
donna
doo
door
dorothea
dos
dot
double
douglas
down
dp
dq
dr
dracula
dragon
drama
dream
dreams
dreamworks
drei
dresden
drive
drop
drug
ds
dt
dtto
du
due
duke
dumeril
duncker
dunn
durch
during
dusseldorf
dutch
dux
dv
dvd
dw
dx
dy
dynamics
dynastie
dynastique
dynasty
dz
e
e0
e1
e2
e3
e4
e5
e6
e7
e8
e9
ea
each
eagle
eap
early
earth
east
eastern
easy
eb
eberhard
ec
echo
ecole
ecology
economic
economics
economist
economy
ecumenical
ecw
ed
edgar
edge
edinburgh
edit
edited
editeurs
edition
editions
editor
editore
edizioni
eds
edu
eduard
education
edward
edwards
edwin
ee
ef
effect
effects
eg
egypt
eh
ei
eight
eighth
ein
eine
einem
einer
eines
ej
ek
el
election
elections
electric
electronic
elegans
elements
elisabeth
elite
elizabeth
ellis
else
elsevier
em
emi
emil
emma
emperor
empire
empires
en
enciclopedia
encyclopaedia
encyclopedia
encyclopædia
end
ende
enemy
energy
engel
engine
engineering
england
english
enough
enterprise
entertainment
entre
entry
entstehung
environment
environmental
enya
eo
ep
epic
episode
eq
er
era
erbach
eric
erich
ernest
ernst
erwin
erzahlung
erzahlungen
erzbischof
es
escape
eschmeyer
eso
espinosa
espn
essay
essays
essential
est
este
estimates
estrellas
et
eta
etc
ethnic
ethnographique
ethnologue
etnographiques
etude
etudes
eu
eugen
eugene
euro
europa
europaische
europaischen
europe
european
eurovision
euweb
ev
eva
evans
even
evening
event
events
ever
every
everything
evidence
evil
evolution
ew
ex
example
exchange
exclusive
exempt
experience
experimental
exploration
explorer
express
extragalactic
extreme
ey
eye
eyes
ez
f
f0
f1
f2
f3
f4
f5
f6
f7
f8
f9
fa
faber
fabricius
face
facebook
faces
facility
fact
factbook
factor
facts
fair
faith
falkenstein
fall
fallen
fallingrain
falls
false
fame
familie
familien
families
family
famous
fan
fantastic
fantasticfiction
fantasy
fao
far
fashion
fast
fasti
fat
fate
father
fayard
fb
fc
fd
fe
fear
feat
feature
features
featuring
feb
february
federal
federation
feel
felix
female
ferdinand
fernando
ferrari
fest
festival
festschrift
fettes
fever
fextpages
ff
ffullt
fg
fh
fi
fiat
fiction
fide
field
fifa
fifth
fight
fighters
fighting
figures
file
files
film
films
fimi
fin
final
financial
find
findley
fine
fire
firenze
first
fischer
fish
fishbase
fisheries
fishes
five
fj
fk
fl
flag
flash
flavius
fleet
flight
flora
florida
fly
flying
fm
fmg
fn
fo
focus
folge
folk
folkmangd
food
foot
football
footballdatabase
for
forbes
force
forces
ford
foreign
forest
forever
forgotten
form
format
formation
former
formula
forschungen
fortune
forum
found
foundation
four
fourth
fowler
fox
fp
fq
fr
frac
framework
francais
francaise
france
francesco
francis
francisco
franco
francois
frank
franken
frankfurt
franklin
franz
fraser
frauen
fred
frederick
free
freedom
freewebs
freiburg
freiherr
freiherren
french
freshwater
freud
freytag
friday
friedman
friedrich
friend
friends
fritz
from
front
fruhen
fs
fsnm
ft
fu
fugger
full
fun
function
fund
fur
furnariidae
furst
fursten
furstenberg
furstliche
furstlichen
future
fv
fw
fx
fy
fz
g
g0
g1
g2
g3
g4
g5
g6
g7
g8
g9
ga
gabriel
gaius
galaxy
gallery
gallimard
game
games
gamma
garcia
garden
gardner
gary
gas
gate
gay
gazette
gazetteer
gb
gc
gd
ge
gebhard
gedichte
gegen
gegenwart
gemeinden
gemmingen
gen
gender
gene
geneagraphie
geneall
genealogics
genealogie
genealogisches
genealogy
geneanet
general
generale
generation
genetic
geni
gennaio
genocide
gens
gentianella
genus
geoffrey
geoffroy
geographic
geography
geological
georg
george
georges
georgia
gerard
gerhard
german
germania
germany
geroldseck
gesamtreihe
geschichte
geschichten
geschichtliche
geschlecht
geschlechts
gesellschaft
get
gets
getting
gf
gg
gh
ghost
gi
giant
gilbert
gill
giorgio
giovanni
giraud
girl
girls
giuseppe
give
gj
gk
gl
gladiolus
glass
gleichen
gli
global
globe
glory
gm
gmbh
gmelin
gn
gnu
go
goal
god
gods
goes
going
gold
golden
gone
gong
gonzaga
gonzalez
good
goodbye
goodreads
google
gordon
gosse
got
gotha
gott
gottfried
gottingen
gould
gov
government
gp
gps
gq
gr
grace
gracilis
graf
grafen
grafin
grafliche
graflichen
grafschaft
graham
gran
grand
grande
grant
grao
grave
gray
graz
great
greatest
grecs
greece
greek
green
greenwood
greg
gregory
groner
ground
group
groups
grove
growth
große
großen
gruyter
gs
gsm
gt
gu
guardian
guerra
guide
guinea
guitar
gulf
gun
guns
gunter
gunther
gustav
gutenberg
guy
gv
gw
gx
gy
gz
głowny
h
h0
h1
h2
h3
h4
h5
h6
h7
h8
h9
ha
haag
habsburg
had
hagen
hahn
half
hall
halle
hamburg
hamilton
hanau
hanauer
hand
handbook
handbuch
hands
hannover
hans
hansen
haplochromis
happy
hard
harold
harper
harris
harrison
harry
hart
hartmann
harvard
has
hat
hate
haus
hauser
hauses
have
haven
hawaii
hb
hbo
hc
hd
hdmi
he
head
health
heart
hearts
heat
heaven
heavy
heavyweight
heft
heidelberg
heiligen
heinrich
heinz
helfenstein
hell
hellenistic
hello
helmut
help
henneberg
henri
henry
her
herald
herausgegeben
herbert
here
heritage
herman
hermann
hero
heroes
herr
herren
herrschaft
herzog
herzoge
herzogin
hessen
hessische
hessischen
het
hey
hf
hg
hh
hi
hidden
hierarch
hierarchy
high
higher
hill
hills
him
his
histoire
historia
historic
historica
historical
histories
historique
historisch
historische
historischen
historisches
history
hit
hitler
hits
hj
hk
hl
hm
hms
hn
ho
hobbs
hof
hoffmann
hohenberg
hohenlohe
hohenzollern
hold
holiday
holland
hollywood
holmes
holocaust
holstein
holy
homburg
home
homepage
homme
homo
hong
honor
hope
hopkins
horse
horst
host
hot
hotel
houghton
hour
house
how
howard
hoya
hp
hq
hr
hrsg
hs
ht
htm
html
http
https
hu
huberty
hubner
hudson
hugh
hugo
human
humblot
hung
hungarian
hungary
hunt
hunter
hurricane
hv
hw
hx
hy
hydrobiidae
hz
i
i0
i1
i2
i3
i4
i5
i6
i7
i8
i9
ia
iafd
ian
iana
ib
ibm
ic
ice
ich
id
idea
ideas
identification
identity
ie
iec
ieee
if
ig
ign
ih
ihr
ihre
ihrer
ii
iii
ij
ik
il
illinois
illustrated
illustre
im
image
images
imdb
impact
imperial
imperii
important
imprimerie
imprimeurs
in
inc
includes
including
independence
independent
index
india
indian
indiana
indianapolis
indians
indo
industrial
industry
inferior
influence
info
information
infty
inhabitants
inside
insider
instagram
institut
institute
institution
instituto
int
integrated
intel
intelligence
inter
interactive
internal
international
internationale
internet
interview
into
introduction
invasion
io
ios
ip
ipa
iphone
ipomoea
iq
ir
iran
iranica
ireland
irish
iron
is
isbn
isenburg
isisbgstat
islam
islamic
island
islands
iso
israel
issn
issue
issues
ist
istanbul
istat
istituto
istoria
it
italia
italian
italiana
italiane
italiani
italiano
italy
item
itemid
itf
itis
its
itunes
iu
iucn
iucnredlist
iv
ivan
ivanov
iw
ix
iy
iz
j
j0
j1
j2
j3
j4
j5
j6
j7
j8
j9
ja
jack
jackson
jacob
jacques
jahr
jahrbuch
jahre
jahrhundert
jahrhunderts
jakob
jam
james
jan
jane
january
japan
japanese
jason
java
javascript
jay
jazz
jb
jc
jd
je
jean
jeff
jeffrey
jena
jennifer
jeremy
jerry
jersey
jerusalem
jessica
jesus
jewish
jews
jf
jg
jh
ji
jim
jimmy
jj
jk
jl
jm
jn
jo
joachim
joan
joe
johann
johanna
johannes
john
johnny
johns
johnson
join
joins
joint
jon
jonas
jonathan
jones
jordan
jorg
jose
josef
joseph
journal
journey
joy
jp
jq
jr
js
jt
ju
juan
julia
julius
july
june
jung
junior
jurgen
just
justice
justification
justin
jv
jw
jx
jy
jz
k
k0
k1
k2
k3
k4
k5
k6
k7
k8
k9
ka
kaiser
kaiserlich
kaiserthums
karl
kassel
kastoria
kate
katharina
kb
kc
kd
ke
keep
keith
keller
kelly
kennedy
kenneth
kent
kevin
key
kf
kg
kh
khan
khz
ki
kid
kids
kill
killed
killer
killing
kim
kiminas
kind
king
kingdom
kings
kino
kirchberg
kirche
kirchenlexikon
kiss
kj
kk
kl
klaus
klein
kleine
klostermann
km
kn
knight
knopf
know
knowledge
known
ko
kobler
koch
kohlhammer
koln
kommission
kommun
kommuner
kong
konig
konigliche
konrad
korea
korean
kosovo
kottelat
kp
kq
kr
krakow
krieg
ks
kt
ku
kultur
kulturbilder
kunst
kunste
kurt
kv
kw
kx
ky
kyiv
kz
l
l0
l1
l2
l3
l4
l5
l6
l7
l8
l9
la
laboratory
labridae
lachner
lacroix
lady
lahn
lake
lambda
lan
land
lander
landes
landesgeschichte
landeskunde
landgraf
lands
landschafts
lane
lang
lange
language
languages
large
largest
larry
las
last
late
later
latest
latin
laubach
launch
laura
laurent
law
lawrence
laws
lb
lc
ld
le
lead
leader
league
learning
least
leave
leben
led
lee
left
legacy
legal
legend
legends
legio
leiden
leiningen
leipzig
leo
leon
leonard
leonhard
leopard
leopold
leq
les
leslie
less
lesson
let
letter
letters
lettres
level
leveque
levskisofia
lewis
lex
lexicon
lexikon
lf
lg
lh
li
lib
liber
liberty
librarie
library
libri
lichtenberg
liebe
liechtenstein
lies
life
ligament
light
lights
like
lim
limburg
limited
limits
limpurg
lincoln
linda
line
lines
linie
link
linnaeus
linux
lion
lippe
lisa
list
lister
literary
literatur
literature
liternet
little
live
liverpool
lives
living
livingston
livius
livre
lj
lk
ll
llc
lm
ln
lo
local
log
logic
london
lonely
long
look
looking
lopez
lord
lorenz
lorenzo
loringhoven
los
lost
lothar
louis
louise
louvain
love
lover
loving
low
lowenstein
lp
lq
lr
ls
lt
ltd
lu
luca
lucius
lucky
ludnosc
ludwig
luigi
luis
luise
luna
luneburg
luxemburg
lv
lw
lx
ly
lynx
lyrikwelt
lz
m
m0
m1
m2
m3
m4
m5
m6
m7
m8
m9
ma
mac
macedoine
macedonia
macedonian
machine
macmillan
mad
madagascar
made
madonna
madrid
magazine
magdelaine
magic
magister
magistrates
magnus
mahler
mai
maiden
mail
main
mainz
maison
major
make
makedonien
makes
making
male
mama
mammal
mammals
man
management
manager
manchester
manfred
mann
manning
mansfeld
manual
manuel
many
map
mapping
maps
mar
marburg
marc
marcel
march
marco
marcus
mare
marek
margaret
maria
marie
marina
marine
marineland
mario
maritime
mark
market
marketing
markgraf
marriage
mars
marshall
martin
martindale
martinez
marvel
marx
mary
maryland
mas
mashke
mason
mass
massachusetts
master
masters
match
matches
materials
mathbb
mathbf
mathcal
mathematical
mathematics
mathrm
matrix
matt
matter
matthew
matthias
maurice
max
maximilian
maximus
may
mb
mbox
mc
mcdiarmid
mcgraw
md
me
meaning
mecklenburg
med
media
mediapool
medical
medici
medicine
medien
medieval
mediterranean
meet
meeting
mein
meine
members
memoirs
memorial
memoriam
memory
men
mental
mercedes
mercury
merkmalen
merriam
message
met
meta
metal
metallum
method
methods
metro
metropolitan
metropolitanates
mexico
meyer
mf
mg
mh
mhz
mi
mia
michael
michel
michelle
michigan
microsoft
mid
middle
midnight
mifflin
migration
miguel
mike
mil
milan
milano
miles
military
militum
miller
million
milne
min
mind
mine
minister
ministry
minor
minutes
mio
miranda
mirror
miss
missile
missing
mission
mit
mitteilungen
mittelalter
mittelalters
mix
mj
mk
ml
mlsg
mm
mn
mo
mobile
mod
mode
model
models
modern
mojo
mol
molecular
moment
mon
monday
monde
mondo
money
monitor
monitoring
monster
monte
montfort
month
monthly
monumenta
monuments
moon
moore
more
morgan
moritz
morning
morris
mort
moscow
most
mother
motion
motor
mount
mountain
mountains
move
movement
movie
movies
mp
mq
mr
mrac
ms
mt
mtv
mu
much
mujer
muller
multi
multiple
munchen
mundo
munich
munster
murder
muridae
murphy
murray
musee
museo
museum
music
musica
musical
muslim
must
mv
mw
mx
my
myers
myotis
myspace
mystery
myth
mythology
mz
n
n0
n1
n2
n3
n4
n5
n6
n7
n8
n9
na
nach
nachdruck
nachrichten
nacional
name
named
names
nancy
napoli
narod
nasa
nassau
nation
national
nationale
nations
native
nato
natural
nature
natureserve
naval
navy
nazi
nb
nbc
nc
nd
ndb
ne
near
need
neil
nel
nella
nelson
nerve
net
netflix
netherlands
network
networks
neue
neues
neustadt
never
new
news
newsletter
newspaper
newton
next
nf
ng
ngc
nh
ni
nicholas
nicht
nick
nicolas
nicolson
nielsen
night
nightmoves
nights
nine
nj
nk
nl
nm
nn
no
nobel
nobelprize
noble
node
noel
nokia
nomenclature
nominations
nominees
non
nord
norman
north
northern
norton
nos
not
note
notes
nothing
notre
nourrit
nov
nova
novel
november
now
np
nq
nr
ns
nsi
nt
nu
nuclear
number
numbers
nuovo
nurnberg
nutrient
nv
nw
nwa
nx
nxt
ny
nz
o
o0
o1
o2
o3
o4
o5
o6
o7
o8
o9
oa
ob
obituary
object
observations
observer
oc
ocean
och
oclc
oct
october
od
oder
oe
oesterreich
oettingen
of
off
office
official
offnews
og
oh
ohio
ohne
oi
oil
oj
ok
oktober
ol
old
oldenburg
oliver
olivetti
olympic
olympics
om
omega
on
once
oncidium
one
oneplus
online
only
onoma
oo
op
open
opera
operation
operations
option
oq
or
oracle
orange
orchestra
order
org
organisation
organization
orient
oriental
orientalis
origin
original
origins
oro
orstom
ortenburg
orthodox
os
oscar
osprey
osterreich
osterreichischen
ot
other
others
otto
ottobre
ottoman
ou
our
out
ov
over
overview
ow
owen
own
ox
oxford
oy
oz
p
p0
p1
p2
p3
p4
p5
p6
p7
p8
p9
pa
pacific
pag
page
pages
pain
painting
palace
palazzo
palgrave
pallas
pan
pandanus
panthera
panzer
paolo
papa
paper
papers
pappenheim
par
para
paradise
paramount
parenti
paris
park
parker
parks
parliament
part
partial
party
pas
pasa
pascal
passion
past
patent
path
patriarchate
patricia
patrick
paul
paulo
pauly
paulys
pay
pays
pb
pc
pd
pdf
pe
peace
pearson
pedro
peer
pen
penguin
pennsylvania
people
peoples
per
perez
perfect
performance
period
perl
persian
person
personal
personality
personensuche
perspective
perspectives
pet
peter
peters
petri
pf
pfalz
pfeiffer
pg
ph
phi
phil
philadelphia
philip
philipp
philippe
philips
phillips
philosophical
philosophie
philosophy
phoenix
phone
photo
photos
php
phylogeny
physical
physics
physiology
pi
piano
picture
pictures
piece
piemonte
pierre
pietro
pink
pinus
piper
pir
piu
pj
pk
pl
place
places
plan
planet
planning
plans
plant
plants
platinum
plauen
play
player
players
playstation
please
plon
plovdiv
plus
pm
pmatrix
pmid
pn
po
poems
poetry
point
poland
police
policy
polish
political
politics
politik
politisch
poll
polska
polski
pop
popolazione
popular
population
por
porn
port
portal
porter
portrait
portraits
portugal
post
posterior
potter
pour
powell
power
powiat
powierzchnia
pp
ppv
pq
pr
practice
praefectus
praha
pre
preis
premier
premiere
premio
premios
prentice
present
presents
president
press
presses
preußen
prevention
price
prima
prime
primetime
prince
princess
princeton
principles
print
printing
prinz
prinzessin
private
prix
prize
pro
problem
problems
proc
proceedings
process
processing
product
production
productions
products
prof
professional
professor
profile
program
programming
progress
project
properties
prosopography
protected
protection
protocol
province
provinces
przekroju
ps
psi
psychiatry
psycho
psychoanalysis
psychological
psychology
pt
pu
pub
publ
public
publication
publications
published
publisher
publishers
publishing
publius
pure
purple
put
pv
pw
pwi
pwinsider
px
py
python
pz
q
q0
q1
q2
q3
q4
q5
q6
q7
q8
q9
qa
qb
qc
qd
qe
qf
qg
qh
qi
qj
qk
ql
qm
qn
qo
qp
qq
qr
qs
qt
qu
quad
quality
quartal
quarterly
que
queen
quellen
quest
question
questions
qui
quintus
qv
qw
qx
qy
qz
r
r0
r1
r2
r3
r4
r5
r6
r7
r8
r9
ra
race
racing
radio
rafinesque
rai
rain
rainbow
rainer
ralph
ram
rana
randall
random
range
ranking
rap
rare
rate
ratings
raw
ray
raymond
rb
rc
rca
rd
re
read
reader
reading
ready
real
realencyclopadie
reality
really
reason
rebecca
rebel
recent
rechberg
record
recorded
recording
recordings
records
red
reed
reeder
reeve
reference
regan
regensburg
regesten
regiment
regina
region
regional
regioni
regions
register
reich
reiches
reign
reihe
reinhard
reise
related
relations
release
released
releases
religion
religious
remember
remix
renaissance
renault
rene
report
reporter
reports
reprint
reptiles
repubblica
republic
republike
res
research
residente
resistance
resolution
resource
resources
response
results
retrieved
return
returns
reuss
reuters
reuß
rev
revealed
reveals
revenge
review
reviews
revised
revision
revista
revolution
revue
rex
rf
rfc
rg
rh
rhein
rhinolophus
rho
rhodes
ri
riaa
rich
richard
richardson
ride
right
rightarrow
rights
riket
ring
rio
rise
rising
risk
ritter
river
rj
rk
rl
rm
rn
ro
road
rob
robert
roberto
roberts
robin
robins
robinson
rock
roger
roh
roi
roland
role
roll
rolling
rom
roma
roman
romana
romance
romani
romania
romanian
romantic
rome
romische
romischen
ron
ronald
room
rosa
rose
roses
ross
rosseels
rossi
rotten
rough
round
routledge
row
roy
royal
royale
rp
rq
rr
rs
rsssf
rt
ru
ruby
rudolf
rudolph
rudolstadt
rule
rules
rumble
run
runkel
running
russell
russia
russian
ruth
rv
rw
rx
ry
ryan
rz
s
s0
s1
s2
s3
s4
s5
s6
s7
s8
s9
sa
saarbrucken
sabbath
sachsen
sacra
sacred
safety
sage
said
saint
saints
sales
salm
sam
same
samsung
samuel
san
sanremo
sant
santa
sao
sara
sarah
satellite
saturday
savage
save
savoia
savoie
say
sayn
says
sb
sc
scala
scale
scar
scarus
scene
schaumburg
schenk
schiffermuller
schlegel
schleswig
schloss
schmidt
schneider
schonburg
school
schriften
schulenburg
schultze
schuster
schwaben
schwarzburg
schwarzenberg
schwennicke
schwerin
sci
science
sciences
scientific
scientist
scientists
sclater
scorpions
scotland
scott
screen
sd
se
sea
sean
search
season
sebastian
sec
second
secret
secrets
section
security
see
segabg
sei
seibel
sein
seine
seiner
seite
selbstandigen
selected
selection
self
selys
sense
sepia
september
sera
serie
series
server
service
services
set
sets
settlements
seuil
seven
seventh
sex
sexual
sf
sforza
sg
sh
shadow
shadows
shakespeare
shannon
sharks
sharpe
shaw
she
sheet
shell
shima
ship
ships
short
shot
should
show
showing
shows
si
sich
side
sie
siebmacher
siecle
siegfried
sigma
sigmaringen
sigmund
sign
signal
signs
silence
silent
silva
silver
simon
simple
sin
since
sing
singer
single
singles
sir
sister
site
sites
six
sixth
size
sj
sk
skates
sky
sl
slam
sleep
slovenije
sm
smackdown
small
smith
smithsonian
sms
sn
snow
so
soc
soccer
soccerway
social
societe
society
sofia
software
sol
solar
solaris
soldier
solms
solo
solution
some
something
son
sonderburg
song
songs
sons
sony
sophia
sophie
soul
sound
source
sources
sous
south
southeast
southern
soviet
sowie
sp
space
spacefacts
spain
spanish
special
specialist
species
speculative
speech
speed
spencer
spider
spiegel
spirit
split
sponheim
sport
sportal
sports
spring
springer
spy
sq
sql
sqrt
square
sr
ss
ssp
st
staatsdruckerei
stadium
stadt
staff
stage
stalin
stammtafel
stammtafeln
stand
standard
standartnews
stanford
stanley
star
stargardt
starke
stars
start
stat
state
statement
states
static
station
statistical
statisticni
statistics
statistique
statistisches
statistiska
statlib
status
statystyczny
stay
steel
stefan
stein
steindachner
steiner
step
stephen
steve
steven
stewart
stiftung
still
sting
stolberg
stone
stop
store
storia
stories
storm
story
str
straight
strait
strange
stranger
strategy
street
strike
string
strong
structure
struggle
sts
stuart
studi
studia
studien
studies
studio
studios
study
stuttgart
style
su
sub
success
such
sud
suicide
suite
sul
sullivan
sum
summary
summer
sun
sunday
super
superficie
superior
suppl
support
sur
surface
survey
survivor
susan
sv
sw
sweet
sword
sx
sy
sydney
syndrome
synopsis
synvet
syria
system
systematic
systems
sz
t
t0
t1
t2
t3
t4
t5
t6
t7
t8
t9
ta
table
tafel
tag
take
takeover
takes
tale
tales
talk
talks
tan
tank
tanzania
task
taxonomic
taxonomy
taylor
tb
tc
td
te
team
teams
tears
teatro
tech
technical
technology
ted
teen
teil
telegraph
televisa
television
tell
temminck
temple
temps
ten
tennis
term
terra
territorien
territories
terror
tervuren
terytorialnym
test
testament
texas
text
texte
tf
tg
th
thames
than
that
the
theater
theatre
theil
their
them
theme
then
theodor
theorie
theory
thepeerage
therapy
there
these
thessaloniki
theta
they
thing
things
think
thinking
third
this
thomas
thompson
thomson
those
thought
thousand
thraupidae
threatened
three
through
thunder
thurn
thys
ti
tiger
tim
time
times
timothy
title
titled
titles
titus
tj
tk
tl
tm
tn
tna
to
tod
today
todd
together
tokyo
tom
tomatoes
tome
tomorrow
tonight
tony
too
top
topographic
tor
torch
torino
toronto
total
touch
tour
tourism
tournament
tower
town
towns
tp
tq
tr
tra
track
trade
tradition
trailer
train
training
trans
transfermarkt
translated
translation
travel
treatment
treaty
treccani
tree
trial
tribune
tribute
trionfo
trochilidae
troops
tropical
trouble
trud
true
trust
truth
ts
tt
tu
tubingen
turk
turkey
turkish
turkiye
turn
turner
tv
tvynovelas
tw
twentieth
twenty
twitter
two
tx
ty
type
tyrannidae
tz
u
u0
u1
u2
u3
u4
u5
u6
u7
u8
u9
ua
ub
uber
uc
ud
ue
uefa
uf
ufc
ug
uh
ui
uj
uk
ukraine
ukrainian
ul
ulrich
ultimate
um
un
una
und
under
underground
understanding
une
unesco
uni
union
unit
united
univ
universal
universe
universitat
universite
university
unix
unknown
unter
untersuchungen
until
uo
up
update
updated
upon
upper
uq
ur
urad
urban
urbanisation
urbe
urkunden
urkundenbuch
url
urzad
us
usa
usaf
usb
usda
use
used
user
using
usn
uss
ut
utc
uu
uv
uw
ux
uy
uz
v
v0
v1
v2
v3
v4
v5
v6
v7
v8
v9
va
valenciennes
valley
value
van
var
varepsilon
variety
varna
varphi
vasco
vb
vbox
vc
vd
ve
vec
venice
venning
venus
vera
vereins
veritas
verlag
veroffentlichungen
veronica
version
versus
very
vesti
vestnik
vf
vg
vh
vhs
vi
via
vice
victor
victoria
victory
vida
video
vie
vieillot
vienna
vietnam
view
viewership
vii
viii
villa
village
villages
vincent
viola
violence
vip
virgin
virginia
virtual
virus
vis
visconti
vision
visit
vista
visual
visucom
vita
vittorio
viva
vj
vk
vl
vladimir
vm
vn
vo
voice
voices
void
vol
volker
vols
volume
volumes
vom
von
vor
voyage
vp
vq
vr
vs
vt
vu
vv
vw
vx
vy
vz
w
w0
w1
w2
w3
w4
w5
w6
w7
w8
w9
wa
wagner
waiting
wake
waldburg
waldeck
waldenburg
wales
walk
walker
walking
walkoffame
wall
wallace
walt
walter
walther
wang
wanna
want
wanted
wappen
war
warfare
warner
warren
warrior
wars
warszawa
was
washington
watch
water
watson
wave
way
wayback
wayne
ways
wb
wc
wcw
wd
we
weapons
weather
web
webcitation
webcite
weber
website
webster
wedding
week
weekly
weimar
welcome
well
wells
welt
were
werke
werl
werner
wernigerode
wertheim
west
western
westfalen
wettin
wf
wg
wh
what
when
where
which
while
white
whitley
who
whole
why
wi
wicked
wide
wie
wied
wien
wiener
wiesbaden
wife
wiki
wikimapia
wikipedia
wild
wildlife
wildside
wiley
wilhelm
will
william
williams
wilson
win
wind
windows
wings
winner
winners
wins
winter
wir
wisconsin
wisdom
wish
wissenschaften
witch
with
within
without
wittelsbach
wittgenstein
wj
wk
wl
wm
wn
wo
wolf
wolfgang
wolfram
woman
women
won
wonder
wood
word
wordpress
words
work
working
works
world
worlds
worldwide
worms
would
wp
wq
wr
wrestlemania
wrestleview
wrestling
wright
write
writer
writers
writing
writings
wrong
ws
wt
wta
wu
wurttemberg
wurzbach
wurzburg
wv
ww
wwe
wwf
www
wx
wy
wz
x
x0
x1
x2
x3
x4
x5
x6
x7
x8
x9
xa
xb
xbiz
xbox
xc
xd
xe
xf
xg
xh
xi
xii
xiii
xiv
xix
xj
xk
xl
xm
xml
xn
xo
xp
xq
xr
xrco
xs
xt
xu
xv
xvi
xvii
xviii
xw
xx
xxi
xxii
xxiii
xxiv
xxix
xxv
xxvi
xxvii
xxx
xxxvi
xxxvii
xxxviii
xy
xylocopa
xz
y
y0
y1
y2
y3
y4
y5
y6
y7
y8
y9
ya
yahoo
yale
yb
yc
yd
ye
year
years
yellow
yf
yg
yh
yi
yj
yk
yl
ym
yn
yo
york
you
young
your
yourself
youth
youtube
yp
yq
yr
ys
ysenburg
yt
yu
yv
yw
yx
yy
yz
z
z0
z1
z2
z3
z4
z5
z6
z7
z8
z9
za
zagreb
zb
zc
zd
ze
zealand
zeit
zeiten
zeitschrift
zeitung
zeppelin
zero
zf
zg
zh
zi
zip
zj
zk
zl
zm
zn
znam
zo
zone
zoology
zp
zq
zr
zs
zt
zu
zum
zur
zurich
zv
zw
zwei
zweibrucken
zwischen
zx
zy
zz
{
|
}
~
¡
£
§
©
ª
«
¬
®
¯
°
±
²
³
´
µ
·
º
»
¼
½
¿
×
ß
æ
ð
÷
ø
þ
đ
ħ
ı
ĸ
ł
ŋ
œ
ǝ
ȣ
ɐ
ɑ
ɒ
ɔ
ɕ
ə
ɛ
ɡ
ɣ
ɤ
ɨ
ɪ
ɲ
ɹ
ɾ
ʀ
ʁ
ʂ
ʃ
ʉ
ʊ
ʌ
ʎ
ʒ
ʰ
ʲ
ʷ
ʹ
ʻ
ʼ
ʿ
ˈ
ˌ
ː
˙
˚
΄
α
αγιας
αγιος
αγιου
αγωνα
αγωνας
αθανασιος
αθανασιου
αθηνα
αιωνα
απαριθμηση
απο
απογραφη
αποκαταστασεως
αριστοτελειο
αρχ
αρχαιολογικων
αστικοποιησης
αφανεις
β
βαθμο
βεροιας
γ
γερμανος
γεωργιος
γεωργιου
γηγενεις
για
δ
δημητρης
δημητριος
δημητριου
δημος
διαρκης
δραμας
ε
εαπ
εις
εκ
εκδοσεις
ελιμειακα
ελλαδα
ελλαδας
ελλαδος
ελληνικη
εν
επαρχιων
επιτροπης
ερευνων
εταιρεια
ετος
ετους
ζ
η
θ
θασου
θεοτοκου
θεσσαλονικη
θεσσαλονικης
ι
ιακωβος
ιδρυμα
ιερα
ιερος
ιστορια
ιστορικη
ιστοσελιδα
ιωαννης
κ
και
καστοριας
κατα
καταλογος
κατοικων
κηρυγμενων
κοζανης
κυπρο
κυρος
κωνσταντινος
λ
λιθοξοου
μ
μακεδονια
μακεδονιας
μακεδονικα
μακεδονικος
μακεδονικου
μακεδονικων
μακεδονομαχοι
μαρκου
με
μετονομασιες
μητροπολη
μητροπολιτης
μιχαηλιδης
μνημεια
μνημειων
μονη
μουσειο
ν
ναος
νεα
νεων
νικολαος
νικολαου
νικος
ξ
ο
οι
οικισμων
ος
π
πανδεκτης
πανεπιστημιο
παπανικολαου
περι
περιοχης
πολιτισμου
προσφυγικων
προσφυγων
προσωπικη
ρ
ς
σ
σαντζακιου
σελ
σερβιων
σερρων
σπανος
σπουδων
στη
στην
στο
στοιχεια
στον
συμφωνα
συνοικισμων
σχολη
τ
τα
ταξινομηση
τη
την
της
τμημα
το
τομος
τον
τοπων
του
τους
των
υ
υα
υπουργειο
υππο
φ
φεκ
φλωρινα
χ
ψ
ω
ϕ
ϵ
а
аарон
аахен
аб
абагар
абаджиев
абас
абат
абатиса
абатство
абатството
абдикира
абдул
абдула
абе
абел
аби
абруцо
абсолютен
абсолютна
абсолютната
абсолютно
абстрактни
абу
абхазия
авангард
авариино
авария
август
августа
августин
авеню
авиационен
авиационна
авиационни
авиационно
авиация
авиацията
авив
авиньон
авиобаза
авиобазата
авиокомпания
авраам
аврам
аврамов
аврелии
аврора
австралииска
австралииската
австралииски
австралииския
австралия
австрииска
австрииската
австрииски
австрииските
австрииския
австрииският
австрииско
австрииското
австрииците
австрия
австро
автентичен
автентични
автобиография
автобиографията
автобус
автобуси
автобусни
автогара
автомагистрала
автомат
автомати
автоматизация
автоматичен
автоматична
автоматични
автоматично
автомобил
автомобила
автомобилен
автомобили
автомобилите
автомобилна
автомобилни
автомобилния
автомобилът
автономен
автономия
автономна
автономната
автономни
автопортрет
автор
автора
автори
авторите
авторитет
авторитета
авторка
авторска
авторски
авторските
авторско
авторското
авторът
авъл
ага
агамемнон
агата
агент
агенти
агенции
агенция
агенцията
агиос
агия
агломерация
агнес
аго
агрегати
агресивни
агресия
агрипа
агрипина
агроном
ад
ада
адалберт
адам
адамс
адаптации
адаптация
адаптира
адаптиран
адаптирана
адвокат
адвоката
адвокати
адвокатите
адвокатска
адвокатът
адел
адела
аделаида
аделхаид
административен
административна
административната
административни
административните
административния
административният
административно
административното
администратор
администрация
администрацията
администрира
адмирал
адмиралтеиството
адолф
адрес
адреса
адреси
адриан
адриана
адриано
адрианопол
адриатическо
адютант
аец
аз
азаренка
азбука
азбуката
азбучен
азербаиджан
азербаиджански
азиатската
азиатски
азиатските
азис
азия
азовско
азот
аи
аида
аидахо
аизенах
аизенберг
аизенхауер
аизък
аилънд
аин
аинщаин
аиова
аирес
аирън
аитос
аихщет
ак
акад
академии
академик
академичен
академична
академичната
академични
академичните
академичния
академично
академия
академията
академија
акваторията
аквитания
акира
ако
акордеон
акра
аксел
акт
акта
актив
активен
активи
активира
активист
активисти
активите
активна
активната
активни
активните
активно
активност
активността
активното
актове
актовете
актриса
актрисата
актриси
актуален
актуализация
актуална
актуални
актьор
актьора
актьори
актьорите
актьорската
актьорски
актьорския
актьорско
актьорът
акула
акули
акустична
акцент
акцентира
акции
акциите
акционер
акционерно
акция
акцията
ал
ала
алабама
аладин
алан
алба
албания
албанска
албанската
албански
албанските
албанския
албанско
албанското
албанци
албанците
албена
албер
алберт
албертина
алберто
албин
албрехт
албум
албума
албуми
албумите
албумът
албърт
албърта
алварес
алваро
алвенслебен
алгебра
алгоритми
алгоритъм
алгоритъма
алек
алеко
алекс
алекса
александар
александер
александр
александра
александрииски
александрина
александрия
александров
александрова
александрович
александрос
александру
александър
алексеи
алекси
алексиев
алексии
алексис
алексо
ален
алесандрия
алесандро
алехандра
алехандро
алея
алеята
алжир
али
алианс
алиев
алинея
алис
алиса
алисия
алисън
алкохол
алкохола
алкохолно
аллах
алма
алманах
ало
алоис
алонсо
алпи
алпииски
алпинист
алпите
алт
алтаи
алтенбург
алтернатива
алтернативен
алтернативи
алтернативна
алтернативни
алтернативно
алто
алуминии
алфа
алфонс
алфонсо
алфред
алфредо
алън
аляска
ам
ама
амадеи
амадеус
амазонка
амалия
аман
аманда
аматьорски
амбиции
амелия
америка
американец
американска
американската
американски
американските
американския
американският
американско
американското
американци
американците
америки
ами
амин
аминокиселини
амнистиран
амнистия
амон
амплитуда
амстердам
амундсен
амур
ан
ана
анадола
анализ
анализа
анализатор
анализатори
анализи
анализира
анализът
аналитична
аналог
аналогични
аналогично
аналогия
анархист
анастас
анастасии
анастасия
анастасов
анатолии
анатолия
анатомия
анатомията
ангажимент
ангажименти
ангажира
ангажиран
ангажирани
ангел
ангела
ангели
ангелина
ангелите
ангелов
ангелова
англ
англииска
англииската
англииски
англииските
англииския
англииският
англииско
англииското
англичани
англичаните
англия
англо
ангола
ангуила
андалусия
андартски
андекс
андерс
андерсен
андерсън
анджеи
анджела
анджелис
анджело
анди
андите
андон
андонов
андора
андре
андреа
андреас
андреев
андреи
андрес
андрети
андроник
андрю
андрюс
анексира
анелия
анжу
анжуиски
ани
ании
аниматор
анимационен
анимационни
анимационния
анимация
анимацията
аниме
анита
аниции
анка
анкара
анкета
анна
ано
анонимен
анотиран
анри
ансамбъл
ансамбъла
ансбах
анселм
антантата
антарктида
антарктика
антарктическа
антарктически
антарктическите
антверпен
антена
антени
анти
антибиотици
антигон
антигуа
антим
антиох
антиохия
антитела
антифашистката
античен
антична
античната
антични
античните
античния
антично
античност
античността
антоан
антоанета
антологии
антология
антологията
антон
антони
антонии
антоними
антонин
антонио
антония
антонов
антрополог
антропология
антъни
анубис
анхалт
анхел
аоста
ап
апарат
апарата
апарати
апаратура
апаратът
апартамент
апартамента
апертура
апиан
апии
апк
апогеи
апоел
аполо
аполодор
аполон
аполония
апостол
апостола
апостоли
апостолите
апостолически
апостолов
април
априлов
априлското
апсида
апсидата
аптека
аптекари
ар
ара
араби
арабите
арабия
арабска
арабската
арабски
арабските
арабския
арабско
арабското
арагон
арагонска
арагонски
аранжимент
аргир
аргиров
аргос
аргумент
аргументи
арда
ардино
ареал
ареала
арена
аренберг
арес
арест
ареста
арести
арестува
арестуван
арестувана
арестувани
арестуват
аржентина
аржентински
аржентинския
ариан
ариана
ариел
аризона
арии
аристократ
аристократи
аристокрация
аристокрацията
аристотел
ария
арк
арка
аркадии
аркадия
арканзас
арката
арки
арктика
арктичен
армандо
армеиска
армеиски
армеиците
армения
арменска
арменската
арменски
арменските
арменския
арменци
арменците
армии
армиите
армия
армията
армстронг
арнаудов
арнаути
арним
арно
арнолд
арнсберг
арнулф
арнщаин
аромат
ароматни
арон
арс
арсенал
арсении
арсов
арт
артемида
артерии
артерия
артефакти
артилерииска
артилерииски
артилерииския
артилерииско
артилерия
артилерията
артист
артисти
артистите
артистичен
артоа
артур
артуро
артър
аруба
арумънски
арх
архангел
архангели
археолог
археологическа
археологически
археологическите
археологическия
археологическо
археология
археологията
археолози
археолозите
архив
архива
архиви
архивиран
архивирано
архивите
архивни
архивните
архивът
архидякон
архиепископ
архиепископа
архиепископия
архиереи
архиереиски
архиереиско
архимандрит
архипелаг
архипелага
архитект
архитекта
архитекти
архитектите
архитектура
архитектурата
архитектурен
архитектурна
архитектурни
архитектурните
архитектурния
архитектурно
архијерејско
ас
асад
асамблея
асебург
асен
асеневци
асенов
асеновград
асирия
асистент
асистенции
аскани
аскеер
аскер
асном
асоциации
асоциация
асоциацията
асоцииран
асоциирани
аспарух
аспект
аспекти
асср
аст
астероид
астероиди
асти
астронавт
астронавти
астронавтите
астронавтска
астроном
астрономи
астрономически
астрономия
астрономията
астън
ася
ат
ата
атака
атаката
атаки
атаките
атакува
атакуван
атакуват
атакуващ
атал
атанас
атанасии
атанасиос
атанасов
атанасова
ататюрк
аташе
ателие
ателието
атентат
атентата
атентати
атентатите
атика
атила
атилии
атина
атинската
атински
атинския
атланта
атлантида
атлантик
атлантика
атлантис
атлантически
атлантическия
атлас
атлетик
атлетика
атлетико
атмосфера
атмосферата
атмосферни
атола
атом
атома
атомен
атоми
атомите
атомна
атомната
атомни
атомните
атон
атракция
атрибути
атф
аугсбург
аугуст
ауди
аудио
аудитория
ауершперг
аушвиц
афанасии
афганистан
афера
аферата
афк
афонсу
африка
африканска
африканската
африкански
африканските
африканския
афродита
ах
ахая
ахил
ахмад
ахмед
ацев
ацтеките
аш
ашли
ашурбанипал
аякс
б
ба
баба
бабата
бабев
бавария
баварска
баварската
баварски
баварския
бавен
бавни
бавно
багдад
бад
баден
база
базата
базел
бази
базилика
базиликата
базира
базиран
базирана
базирани
базирано
базите
баи
баиер
баиерн
баикал
баилщаин
баир
баироит
баирон
баихлинген
баия
бакалавър
бакалавърска
бакалов
бактерии
бактериите
баку
бал
бала
балабанов
балада
балади
балакин
баланс
баланса
балдуин
балерина
балет
балета
балзак
бали
балистични
балкан
балкана
балкани
балканите
балканска
балканската
балкански
балканските
балканския
балкантон
балон
балтазар
балтииски
балтииския
балтииско
балтимор
балчик
бамберг
бан
банат
бангладеш
банда
бандата
банди
бани
баните
баница
банк
банка
банката
банкер
банки
банките
банкноти
банков
банкова
банкови
банкс
банкя
банско
баня
банята
бар
бара
барабан
барабани
барабанист
барабаниста
барабанистът
барабаните
барак
барбадос
барбара
барбароса
барби
барбуда
бард
барелеф
бари
бариера
барок
барока
бароков
барон
баронеса
барселона
барт
бартоломео
барут
бас
басеин
басеина
басеини
басист
баскетбол
баскетболист
бат
батак
батальон
батальона
батареи
батарея
батенберг
батерии
батерия
батист
батиста
батман
бафта
бах
бахамски
бахреин
бачо
баш
башибозук
баща
бащата
бащи
бащина
бащите
баязид
бвп
бг
бдж
бдк
бе
беатрикс
беатрис
беатриче
бебе
бебета
бебето
бевърли
бег
бегалци
беда
беден
бедна
бедни
бедните
бедно
бедност
бедността
бедствие
бедствия
бежански
бежанско
бежанци
бежанците
без
безброи
безгръбначни
бездетен
безкраен
безкраина
безкраино
безопасни
безопасно
безопасност
безопасността
безплатен
безплатна
безплатни
безплатно
безпокоиство
безработица
безработицата
безредици
безследно
безсмъртните
безспорно
безуспешно
беи
беикън
беикър
беили
беирут
бек
бекер
бекет
бел
бела
беларус
беларуси
беларуската
беларуски
беласица
белгииска
белгииската
белгииски
белгииския
белгия
белград
белградския
белев
белег
бележи
бележити
бележка
бележки
белези
белене
белетрист
бели
белиз
белини
белите
белица
белия
белият
бело
белово
белоградчик
беломорието
беломорска
белтъци
белфаст
белчев
бен
бенгалия
бенд
бенджамин
беневенто
бенедето
бенедикт
бенет
бензин
бенин
бенито
бенковски
беноа
бентхаим
бенфика
бенц
београд
бер
берат
бербатов
берг
бергамо
берген
бергер
бергман
беренгар
бери
берковица
берлебург
берлин
берлинската
берлинския
берн
бернабо
бернар
бернард
бернардо
бернбург
бернули
бернхард
берое
берон
берта
бертолд
бертхолд
бесарабия
беседа
беседи
беси
бестселър
бестселъри
бестселърите
бет
бета
бети
бетовен
бетон
бетховен
беше
бешков
бзнс
би
бианка
биатлон
библеиски
библиография
библиографски
библиотека
библиотекар
библиотеката
библиотеки
библия
библията
бива
биват
бивш
бивша
бившата
бивше
бившето
бивши
бившите
бившия
бившият
биг
бидеики
бие
биенале
бижута
бизнес
бизнеса
бизнесмен
биин
биитълс
биич
бик
бикенбах
бил
била
билбао
билборд
билет
билети
били
билки
било
билото
биляна
билярски
бин
бинев
био
биографии
биографичен
биографическии
биографична
биографични
биографично
биография
биографията
биолог
биологичен
биологична
биологични
биологичните
биологично
биологичното
биология
биологията
биоразнообразие
биохимия
бира
бирата
бири
биркенфелд
бирма
бирмингам
бирщаин
бис
бисау
бисер
бисмарк
бистра
бистрица
бистрицки
бит
бита
бити
битие
битието
битка
битката
битки
битките
битов
битова
битови
битола
битолска
битолски
битолския
битолско
битолското
битоля
бих
биха
бич
бия
бият
бк
бкп
блага
благо
благовещение
благодарение
благодарност
благодаря
благоев
благоевград
благои
благоприятни
благоприятно
благороден
благородни
благородник
благородници
благородниците
благородническа
благороднически
благородничка
благотворителна
благотворителни
благотворително
благотворителност
благоустроиството
благочестиви
блаже
блажени
бланка
бланкенбург
бланкенхаим
бланш
блата
блатата
блато
блатото
блед
блеик
блек
блекмор
блестящ
блеър
близка
близката
близки
близките
близкия
близкият
близко
близкото
близнак
близнаци
близнаците
близо
близост
близостта
близък
блиц
блоа
блог
блок
блока
блокада
блокадата
блокира
блокиране
блокират
блокове
блу
блус
блясък
бмв
бна
бнб
бнд
бнр
бнт
бо
боа
боб
боби
бобови
бобошево
бог
бога
богат
богата
богатата
богати
богатите
богатия
богато
богатства
богатство
богатството
богдан
богданов
богиня
богинята
богове
боговете
богомил
богородица
богородичен
богородично
богослов
богословие
богословски
богословския
богослужение
богу
богът
бодлоперка
боев
боеве
боевете
боемунд
боен
боеприпаси
боец
боже
божества
божествена
божествената
божество
божи
божидар
божии
божилов
божинов
божия
божията
божков
божурище
бозаиник
бозаиници
бозаиниците
бои
боико
боил
боина
боината
боинг
боини
боините
боиния
боино
боиното
боис
боици
боичев
бок
бока
бокс
бокса
боксьор
бол
боланден
болгар
болгарское
боледуване
болен
болеслав
болест
болести
болестите
болестта
боли
боливия
болид
болида
болка
болката
болки
болна
болни
болните
болница
болницата
болници
болния
болоня
болтън
болшевиките
болшинството
болшои
большая
бомба
бомбардировач
бомбардировача
бомбардировачи
бомбардировка
бомбардировки
бомбардировките
бомбата
бомби
бон
бона
бонапарт
бонд
бонев
бонер
бони
бонифации
бонус
бончев
бончо
бор
бора
борба
борбата
борби
борбите
борд
борда
борджия
бординженер
бордо
бордовете
бордови
борец
бори
боривое
боривоје
борил
борис
борислав
борисов
борисова
борнео
боровец
борови
борово
борса
борусия
борци
борците
боряна
борят
бос
босилеград
босилек
босна
босненски
бостън
босфора
ботаник
ботаника
ботаническа
ботев
ботевград
ботсвана
бохемия
бошняци
боя
бояджиев
боян
бояна
боянов
боят
бпц
бр
брабам
брабант
браво
брад
брада
брадва
брадли
брадърс
бразилия
бразилската
бразилски
бразилския
браила
браиън
брак
брака
бракове
бракът
бранд
бранденбург
бранко
бранкович
брат
брата
братислава
братовчед
братовчедка
братства
братство
братството
братът
братя
братята
браун
браунфелс
брауншваиг
брацигово
брашно
браян
бре
брега
брегалница
брегенц
брегова
бреговата
брегове
бреговете
брегови
брегът
бреза
брезник
бреик
бремен
бременна
бременност
бременността
бреслау
брест
брет
бретан
бретон
брехт
бреша
бриг
бригада
бригадата
бригаден
бригади
бридж
британика
британия
британска
британската
британски
британските
британския
британският
британско
британското
британците
брод
броди
бродуеи
брои
броики
броина
броини
брокгауза
броневата
броневи
броненосен
броненосни
бронепалубен
бронепалубни
бронз
бронзов
бронзова
бронзовата
бронзови
брониран
бронирана
брониране
бронирането
бронирани
бронкхорст
броня
бронята
брос
брошура
броя
броят
брп
брсдп
брук
бруклин
брукс
брунеи
бруно
брус
брусарци
брут
бръмбар
бръмбари
брюксел
бряг
бряга
бсп
бта
бтв
бтр
бугари
буда
будапеща
буди
будизма
будизъм
будистки
буенос
бук
букв
буква
буквален
буквално
буквата
букви
буквите
букови
букурещ
букурещкия
бул
була
булгаков
булевард
булка
булката
бум
бунар
бундеслига
бундеслигата
бунт
бунта
бунтове
бунтовници
бунтовниците
бунтът
бунюел
бурбон
бургас
бургаски
бургаския
бургаско
бургграф
бургграфиня
бургундия
бургундска
бурен
бури
бурите
буркина
буркхард
бурни
бурно
буров
бурса
бурунди
бурхард
буря
бурята
бут
бутан
бутилка
бутилки
буш
бфс
бъбреците
бъда
бъдат
бъде
бъдем
бъдете
бъдеш
бъдещ
бъдеща
бъдещата
бъдеще
бъдещето
бъдещи
бъдещите
бъдещия
бъдещият
бъдещото
бъди
бъдни
бълг
българи
българин
българина
българинът
българите
българия
българка
българо
българска
българската
български
българските
българскитѣ
българския
българският
българско
българското
българщината
бърд
бърдо
бърз
бърза
бързата
бързеи
бързи
бързина
бързите
бързия
бързо
бързото
бърк
бърка
бъркли
бърн
бърнард
бърно
бърт
бъртън
бътлър
бъфало
бъфи
бъчваров
бюджет
бюджета
бюджетът
бюдинген
бюлетин
бюлов
бюрен
бюро
бюрото
бюст
бяга
бягане
бягат
бягство
бягството
бял
бяла
бялата
бяло
бялото
бяс
бях
бяха
бяхме
в
ва
вавилон
вавилония
вагнер
вагони
вади
вадим
важен
важи
важна
важната
важни
важните
важния
важният
важно
важност
важността
важното
ваза
вазари
вазов
ваида
ваикерсхаим
ваилбург
ваимар
ваимарската
ваинсберг
ваис
ваисенфелс
ваисенхорн
ваканция
вакуум
вал
вала
валбурга
валдбург
валдек
валдемар
валденбург
вале
валежи
валежите
валенсия
валентин
валентина
валентиниан
валери
валериан
валерии
валерия
валерщаин
вали
валидни
валия
валоа
валове
валрам
валтер
валута
валутен
валя
вампир
вампири
ван
вангел
ванеса
ванкувър
вануату
ванчо
ваньо
ваня
вапцаров
вар
варвара
варварски
варгас
вардар
вардарска
варезе
вари
вариант
варианта
варианти
вариантите
вариации
варира
варират
варна
варненска
варненската
варненски
варненския
варненско
варненското
варовик
варовикови
варовици
вартенберг
варшава
варшавския
варшавското
вас
васал
васали
васил
василев
василева
василиев
василии
василиос
василка
василъ
васко
вата
ватикана
вафен
вацлав
вашата
вашето
вашингтон
вашите
вашия
вв
ввс
вграден
вградена
вградени
вдига
вдигане
вдигат
вдигне
вдовица
вдовицата
вдовици
вдъхновен
вдъхновена
вдъхновени
вдъхновение
вдъхновява
вдясно
вебер
вега
вегас
веда
веднага
веднъж
ведомство
вежди
везенков
везир
веи
век
века
векове
вековете
вековни
вектор
вектори
вела
велбъжд
велденц
веле
велев
велес
велешка
велешки
велешко
велизар
велик
велика
великата
великден
велики
великите
великия
великият
велико
великобритания
великов
великолепни
великомъченик
великото
великотърновския
велинград
величество
величие
величието
величина
величини
величко
величков
велко
велков
велосипеди
велтхаим
велфи
велчев
вена
венедиков
венелин
венера
венета
венето
венец
венецианската
венециански
венецианците
венеция
венецуела
венизелос
венцел
венцеслав
венци
венцислав
вер
вера
вергилии
верде
верденберг
вердер
верди
вердюн
верен
верига
веригата
вериги
веригите
веркович
верле
вермахта
верн
вернер
верни
вернигероде
вероизповедание
верона
вероника
вероятна
вероятно
вероятност
вероятността
версаи
версаиския
версии
версиите
версия
версията
вертикален
вертикална
вертикални
вертикално
вертолети
вертхаим
верчели
весел
весела
весели
веселин
веселина
веселинов
весело
весник
веспасиан
вест
вестготите
вестербург
вести
вестник
вестника
вестникът
вестници
вестниците
вестфалия
ветеран
ветерани
ветераните
ветеринарна
ветини
вето
ветрен
ветрове
ветровете
вец
веч
вече
вечен
вечер
вечери
вечерта
вечеря
вечна
вечната
вечни
вечния
вечно
вечнозелени
вечността
вещ
вещества
веществата
вещество
веществото
вещи
вещица
вещици
вж
взаимна
взаимно
взаимното
взаимодеиства
взаимодеистват
взаимодеиствие
взаимодеиствието
взаимодеиствия
взаимоотношения
взаимоотношенията
взвод
взе
взел
взели
взема
вземане
вземането
вземат
вземе
взет
взета
взети
взето
взима
взимат
взрив
взрива
взривни
взривява
ви
виа
вианден
вивиан
вид
вида
видели
виден
видение
видения
виденов
видео
видеоклип
видеоклипа
видеоклипове
видеоклипът
видеото
види
видим
видима
видимата
видими
видимо
видимост
видин
видински
видинския
видинско
видите
видиш
видни
видните
видния
видният
видно
видове
видовете
видът
видя
видял
видят
видях
вие
виен
виена
виенската
виенски
виенския
виетнам
виетнамската
виетнамски
виж
вижда
виждаики
виждал
виждали
виждам
виждаме
виждане
виждания
виждат
виждаш
виждаше
вижте
виза
византииска
византииската
византииски
византииските
византииския
византииският
византииско
византииското
византииците
византия
визита
визия
визуални
визуално
вии
вик
вика
викарии
викат
вики
викингите
виктор
виктория
вила
вилает
вилаета
вилаетите
вилата
вилд
вилдунген
вилем
вили
вилньов
вилнюс
вилхелм
вилхелмина
вина
винаги
вината
виндиш
виница
вино
виновен
виновни
виноградов
виното
винс
винсент
винсънт
винт
винченцо
винчи
виола
виолета
виолончело
випуск
вир
вирджиния
вирджински
вирнебург
виртуална
виртуални
вирус
вируса
вируси
вирусът
вис
висарион
висбаден
висенте
виси
висконти
висла
висок
висока
високата
високи
високите
високия
високият
високо
висококачествени
високопланински
високопоставени
високосна
високото
височество
височина
височината
височини
височините
висш
висша
висшата
висше
висшето
висши
висшите
висшия
висшият
вит
виталии
витамин
витамини
витгенщаин
вите
вителии
вителсбахи
витенберг
витиз
витиния
вито
виторио
витория
витоша
вихрен
вихър
вице
вицеадмирал
вицекрал
вицепрезидент
вицепремиер
вицешампион
виченца
вия
вк
вкара
вкарани
вкарва
вкл
включат
включва
включваики
включване
включването
включват
включващ
включваща
включващи
включващо
включен
включена
включени
включено
включи
включително
вкус
вкуса
вкусовата
вкусът
вкъщи
вл
влага
влад
владее
владение
владението
владения
владенията
владетел
владетели
владетелите
владетеля
владетелят
владеят
владивосток
владигеров
владика
владиката
владимир
владимиров
владимирович
владислав
владичество
владо
влажен
влажна
влажни
влажните
влажност
влак
влака
влакна
влакове
влаковете
власи
власт
властелинът
власти
властите
властта
влахия
влахов
влашки
влашко
влезе
влезли
влечуги
влечуго
влива
вливането
вливат
вливаща
вливащи
влиза
влизаики
влизане
влизането
влизат
влияе
влияние
влиянието
влияния
влиятелен
влиятелни
влиятелните
влияят
влошава
влошаване
влошават
влюбва
влюбват
влюбен
влюбена
влюбени
вляво
влязат
влязъл
вместимост
вместо
вмок
вморо
вмро
вмс
вмф
внася
внасят
внезапно
внесен
внесени
внимание
вниманието
внимателно
внос
вноса
вноски
внук
внука
внукът
внуци
внучка
во
вода
водата
водач
водача
водачеството
водачи
водачите
водачът
воден
водена
водене
воденето
водени
воденица
воденичаров
водено
воденска
водещ
водеща
водещата
водещи
водещите
водещия
водещият
водещо
води
водил
водите
водна
водната
водни
водните
водния
водният
водно
водното
водныи
вододел
водоем
водоеми
водоизместимост
водоизместимостта
водолинията
водопад
водопада
водопади
водопровод
водорасли
водород
водосборен
водосборни
водосборните
водосборния
водосборният
водоснабдяване
водохранилище
водят
военачалник
военачалници
военен
военна
военната
военная
военни
военните
военния
военният
военно
военновъздушни
военновъздушните
военноиздателски
военноисторически
военноморска
военноморската
военноморски
военноморските
военноморския
военноморско
военнопленници
военнопленниците
военнослужещи
военното
вожд
вожда
вождове
воивода
воиводата
воиводи
воиводина
воиводите
воиводство
воиводството
воин
воина
воината
воине
воини
воиник
воиника
воиников
воините
воиници
воиниците
воинишки
воины
воиска
воиската
воиски
воиските
воискови
воисоувър
вокал
вокален
вокали
вокалист
вокалите
вокална
вокални
волга
волдемор
волденберг
волеибол
волеиболист
волен
волжка
волкенщаин
волов
волта
волтер
волф
волфганг
волфег
волфенбютел
волфрам
волфсбург
воля
волята
вон
вормс
восток
восък
вот
вото
воюва
воюват
вояджър
впечатлен
впечатление
впечатления
впечатлява
впечатляващи
вписан
вписани
вписва
вписване
впоследствие
впрочем
враг
врага
врагове
враговете
врагът
вражда
враждата
враждебни
враждебно
вражески
вражеските
врана
враня
врата
вратар
вратарят
вратата
врати
вратите
враца
врачански
врачанско
вреда
вреди
вредни
време
времеви
времена
времената
временен
времени
временна
временни
временно
временното
времето
время
вроцлав
връзка
връзката
връзки
връзките
връх
връчва
връчване
връчен
връчена
връща
връщаики
връщане
връщането
връщат
вс
все
всеволод
вседържител
всеки
вселена
вселената
вселенската
вселенски
всеобща
всеобщо
всесоюзная
всех
вси
всичката
всички
всичките
всичко
всичкото
вследствие
встрани
встъпва
встъпването
всъщност
всяка
всякаква
всякакви
всякакво
всякакъв
всяко
всякога
вта
втк
втора
втората
втори
вторите
вторични
вторично
втория
вторият
вторник
второ
второи
второстепенна
второстепенни
второто
вту
вуичо
вук
вулкан
вулкана
вулкани
вулканичен
вулканична
вулканични
вулканът
вход
входа
входната
входни
входно
входът
вчера
въ
във
въведе
въведен
въведена
въведени
въведение
въведено
въвежда
въвеждане
въвеждането
въвеждат
въглерод
въглероден
въглеродни
въглехидрати
въглища
въже
въжета
въжето
въз
възвишение
възвишението
възвишения
възвишенията
възвръща
възвърне
възглед
възгледи
възгледите
въздеиства
въздеиствие
въздеиствието
въздух
въздуха
въздухът
въздушен
въздушна
въздушната
въздушни
въздушните
въздушния
въздушно
въздушното
възел
възела
възкачва
възкачването
възкресение
възкресението
възлага
възли
възлиза
възлизат
възложено
възможен
възможна
възможни
възможните
възможно
възможност
възможности
възможностите
възможността
възнаграждение
възнамерява
възнесение
възниква
възникване
възникването
възникват
възникнал
възникнала
възникнали
възникнало
възобновява
възпаление
възпитание
възпитанието
възпитаник
възпитаници
възпитател
възползва
възползваики
възползват
възпоменателен
възпрепятства
възприема
възприемане
възприемат
възприет
възприета
възприятие
възпроизвежда
възпроизвеждане
възражда
възраждане
възраждането
възраст
възрастен
възрастна
възрастната
възрастни
възрастните
възрастния
възрастният
възрастови
възрастта
възрожденец
възрожденска
възрожденски
възстание
възстановен
възстановена
възстановени
възстановено
възстанови
възстановява
възстановяване
възстановяването
възстановяват
възстановят
възторг
възхищение
възход
възхода
вълк
вълка
вълко
вълков
вълкът
вълна
вълната
вълнение
вълнения
вълни
вълните
вълци
вълците
вълчанов
вълчев
вълчи
вълчо
вън
външен
външна
външната
външни
външните
външния
външният
външно
външното
въображение
въображението
въобще
въоръжен
въоръжена
въоръжената
въоръжени
въоръжение
въоръжението
въоръжените
въоръжения
въоръжено
въплъщение
въпреки
въпрос
въпроса
въпроси
въпросите
въпросът
върба
върбанов
върбица
върви
вървят
върмонт
върна
върнал
върнат
върната
върнати
върне
въртене
въртенето
върти
въртят
въртящ
върха
върхове
върховен
върховенството
върховете
върховната
върховния
върховният
върховното
върху
върхът
вършат
вършец
върши
въстание
въстанието
въстаници
въстаниците
въстаническа
въстания
вътре
вътрешен
вътрешна
вътрешната
вътрешни
вътрешните
вътрешния
вътрешният
вътрешно
вътрешността
вътрешното
вып
вьорнер
вюртемберг
вюрцбург
вяра
вярата
вярва
вярваики
вярвам
вярвания
вярват
вярваш
вярващи
вярващите
вярна
вярно
вярност
вятър
вятъра
вятърът
вячеслав
г
га
габон
габриел
габриела
габрово
габровски
габровско
габър
гавриил
гаврил
гаврилов
гага
гагарин
гаджанов
гаджев
гаетано
газ
газа
газене
газета
гази
газова
газове
газовете
газови
гаи
гал
гала
галактика
галактиката
галактики
галата
галатасараи
галба
галеацо
гален
галерии
галерия
галерията
гали
галилеи
галилео
галин
галина
галисия
галиция
галичник
галия
галя
гама
гамбия
гана
ганг
гандалф
ганди
ганев
ганчев
ганчо
ганьо
гара
гарантира
гарантират
гаранции
гаранция
гарата
гарван
гардиън
гарднър
гардън
гарет
гари
гарибалди
гарнизон
гарнизона
гарнизони
гарос
гарсия
гастон
гаус
гваделупа
гвардеиска
гвардеиски
гвардия
гватемала
гвиана
гвинея
гг
гданск
где
гдето
гдр
гебхард
гевара
гевгели
геи
геил
гелдерн
геминген
ген
гена
генадии
генерал
генерала
генерален
генерали
генералите
генералната
генералните
генералния
генералният
генерално
генералното
генералът
генератор
генератори
генерация
генерира
генериране
генерират
генетика
генетичен
генетични
генетично
гени
гении
гено
генов
генова
геноцид
гент
генуа
генчев
генчо
гео
географ
географические
географических
география
географията
географска
географската
географски
географските
географския
географско
географското
геодезия
геолог
геология
геоложки
геометрични
геометрия
геометрията
георг
георге
георги
георгиев
георгиева
георгиевски
георгии
георгиос
гера
герасим
герасимов
герб
герба
гербът
гергана
гергова
гергьовден
герджиков
гереро
герлах
герман
германии
германик
германия
германов
германска
германската
германски
германските
германския
германският
германско
германското
германци
германците
геров
герои
героиня
героинята
героите
геролдсек
героя
героят
гертруд
гертруда
герхард
гестапо
гета
гешов
ги
гибел
гибелта
гибралтар
гибсън
гигант
гиганти
гигантски
гигантския
гиз
гизела
гииом
гилбърт
гилдията
гилермо
гилън
гимназиален
гимназии
гимназия
гимназията
гимнастика
гинес
гк
гкпп
гл
глава
главата
главен
глави
главите
главна
главнаго
главната
главни
главните
главния
главният
главно
главнокомандващ
главнокомандващия
главното
главоболие
глагол
глагола
глаголи
глаголите
глад
глада
гладка
гладки
глазгоу
глаихен
глас
гласа
гласи
гласна
гласни
гласните
гласове
гласовете
гласува
гласуване
гласуването
гласуват
гласът
глаухау
гледа
гледаи
гледам
гледат
гледаш
гледаше
гледка
гледна
гледната
глен
глина
глинени
глинести
глоба
глобален
глобална
глобалната
глобални
глобално
глобалното
глобус
глория
глоувър
глупав
глупак
глупост
глупости
глушковъ
глюкоза
глюксбург
гнаиси
гнева
гнезда
гнезди
гнездо
гнездото
гнездят
гнеи
гняв
го
гоа
говеда
говор
говора
говорен
говореше
говорещи
говорещите
говори
говорим
говорител
говоря
говорят
гог
гого
гогол
год
года
годеница
година
годината
години
годините
годишен
годишна
годишната
годишни
годишник
годишнина
годишнината
годишните
годишния
годишният
годишно
годишното
гол
гола
голгота
голдън
голема
големи
големина
големината
големите
големия
големият
големо
голи
голмаистор
голо
голова
голове
голф
голям
голяма
голямата
голямо
голямото
гомес
гонг
гонзага
гонзалес
гони
гонсалес
гонсало
гор
гора
горан
горанов
гората
горбачов
горги
горд
горди
гордост
гордостта
гордън
горе
горен
горене
горещ
гореща
горещи
горещите
горещо
гори
горива
гориво
горивото
гористи
горите
горица
горки
горна
горната
горни
горните
горния
горният
горно
горното
горнотракииската
город
городских
горска
горската
горски
горските
горско
господ
господа
господар
господари
господарите
господарка
господаря
господарят
господи
господин
господинов
господне
господство
господството
госпожа
госпожица
гост
гости
гостивар
гостите
гостува
гостуване
государственныи
гота
готварска
готвач
готвене
готви
готика
готите
готически
готлиб
готов
готова
готови
готовност
готово
готорп
готфрид
гоце
гоцев
гочев
гоя
гп
гр
гра
гравитация
гравитацията
гравюри
град
града
градеж
градец
гради
градина
градината
градини
градините
градище
градове
градовете
градска
градската
градски
градските
градския
градският
градско
градското
градуса
градче
градчето
градът
граждани
гражданин
гражданите
гражданска
гражданската
граждански
гражданските
гражданския
гражданско
гражданското
гражданство
граифенклау
граиц
гракх
грам
грама
грамадата
граматик
граматика
грами
грамота
грамоти
грамотност
гран
гранада
гранати
гранд
гранде
гранди
гранит
гранити
граница
границата
граници
границите
граничен
граничи
гранична
граничната
гранични
граничните
граничния
грант
граф
графа
график
графика
графиката
графики
графиня
графичен
графични
графове
графовете
графства
графство
графството
графът
грац
гребане
гребен
гревена
грег
грегъри
греда
греди
греи
греис
гренада
гренадини
гренландия
греха
греховете
грец
грешка
грешката
грешки
грешките
грешно
греъм
григор
григорианския
григории
григоров
григорович
грижа
грижат
грижата
грижи
грижите
гризач
гризачи
гриин
грим
гринуич
грип
гриша
гроб
гроба
гробаря
гробища
гробищата
гробище
гробищен
гробището
гробница
гробницата
гробници
гробове
гробовете
гробът
грозданов
грозде
гроздето
грозни
грос
гросмаистор
гроша
груб
груба
груби
грубо
груев
грузинска
грузинската
грузински
грузия
грумбах
груп
група
групата
групи
групирани
групировка
групировки
групите
групова
груповата
групови
гръб
гръбначни
гръбначния
грък
гръко
гръм
грънчаров
гръцка
гръцката
гръцки
гръцките
гръцкия
гръцкият
гръцко
гръцкото
грях
гу
гуам
гуандун
гуанси
губеики
губернатор
губернатора
губерния
губи
губят
гугъл
гуидо
гулдена
гума
гуми
гунделфинген
гурко
гуру
густав
густаво
гутенберг
гутиерес
гущер
гущери
гъба
гъбата
гъби
гъбите
гълъб
гълъбов
гълъбови
гълъбово
гърба
гърдев
гърди
гърдите
гъркомани
гърло
гърлото
гърци
гърците
гърция
гъска
гъста
гъсти
гъсто
гъстота
гъстотата
гьобелс
гьоринг
гьорче
гьоте
гьотеборг
гьотинген
гюзелев
гюмюрджина
гюнтер
гюргево
гюстав
д
да
дава
даваики
давам
даване
дават
давид
давидов
даг
дагестан
дагсбург
дадат
даде
даден
дадена
дадената
дадени
дадения
дадено
даже
даи
дакар
дакия
дакота
дал
дала
далас
далберг
далеч
далече
далечен
далечина
далечината
далечна
далечната
далечни
далечния
далечно
далечното
дали
далмация
дало
далчев
дам
дама
дамаск
дамата
даме
дами
дамян
дамянов
дамјановска
дан
дана
данаил
данаилов
данев
дани
даниел
даниела
даниил
данило
даниъл
дания
данни
данните
дано
данов
данс
данте
данък
данъка
данъци
данъците
данъчен
данъчни
дар
дарби
дарвин
дарени
дарение
дарения
дари
дарии
дарик
дарител
дарители
дарко
дармщат
дарове
дарява
даскал
даскалов
дата
датата
дати
датира
датиран
датирана
датиране
датирани
датират
датиращи
датите
датска
датската
датски
датския
даун
дашьян
даян
даяна
дв
два
двадесет
дваисет
двама
двамата
дванадесет
дванадесетте
двата
две
двери
двеста
двете
двиа
двигател
двигатели
двигателите
двигателя
двигателят
движат
движение
движението
движения
движенията
движещи
движи
двина
двоен
двоика
двоиката
двоики
двоина
двоината
двоини
двоино
двор
двора
дворец
двореца
дворецът
дворове
дворци
дворцов
дворцовата
дворцовия
дворът
двубои
двубоя
двуетажна
двукратен
ддс
де
дебарско
дебат
дебати
дебел
дебела
дебели
дебелина
дебелината
дебелянов
дебит
дебора
дебър
дебърска
дебърската
дебърски
дебърско
дебърското
дебърца
дебют
дебюта
дебютен
дебютира
дебютния
дебютният
дебютът
дева
девет
девета
девети
девето
деветосептемврииския
деветте
девин
девическа
девическо
девня
девоика
девоиката
девоики
девън
дедеагач
деец
деи
деив
деивид
деивис
деил
деили
деимън
деино
деиност
деиности
деиностите
деиността
деиства
деистват
деистващ
деистваща
деистващата
деистващи
деистващите
деистващия
деистващо
деиствие
деиствието
деиствителен
деиствително
деиствителност
деиствителността
деиствия
деиствията
деици
деиците
дек
декан
декара
декарт
декември
декларация
декларацията
декларира
декоративна
декоративни
декоративно
декорация
декрет
декстър
дел
дела
делата
делауеър
делегат
делегати
делегатите
делегация
делегацията
делене
деление
дели
делник
делничен
дело
делото
делта
делтата
делфин
делхи
делчев
делът
дельо
делян
делят
дем
деметрии
демир
демо
демова
демовия
демографска
демографски
демократи
демократичен
демократическа
демократическата
демократична
демократичната
демократични
демократичните
демократично
демокрация
демокрацията
демон
демони
демонстрации
демонстрация
демонстрира
демонстрират
ден
дена
денев
дени
денис
денонощие
денонощия
денс
день
деня
денят
деп
депаие
департамент
департамента
депо
депортиво
депортирани
депресия
депутат
депутати
депутатите
дер
дерби
дере
дерек
дерменджиев
десант
десанта
десантни
десау
десен
десет
десета
десети
десетилетие
десетилетието
десетилетия
десетина
десетки
десетоного
десетте
деси
десислава
десни
десните
десния
десният
деспот
деспотство
дестинации
дестинация
дет
детаил
детаили
детаилите
детаилно
дете
детектив
детето
детмолд
дето
детроит
детска
детската
детски
детските
детския
детско
детското
детство
детството
дефекти
дефиле
дефинира
дефинирана
дефинирани
дефиниции
дефиниция
дефиницията
дефицит
деца
децата
деции
децим
дечев
деян
деяния
деянов
деятел
деятелка
дж
джаз
джаза
джак
джаки
джакомо
джаксън
джамии
джамия
джамията
джан
джанет
джани
джеи
джеик
джеими
джеимс
джеин
джеисън
джексън
джемини
джена
джени
дженифър
джералд
джерард
джери
джерико
джеръми
джеси
джесика
джеф
джеферсън
джефри
джи
джибути
джиин
джил
джим
джими
джин
джина
джо
джоан
джована
джовани
джоди
джои
джоис
джон
джонас
джонатан
джони
джонс
джонстън
джонсън
джордан
джордж
джорджия
джорджо
джоу
джоузеф
джоуи
джоунс
джош
джошуа
джудже
джуджета
джуди
джудит
джудо
джузепе
джули
джулиан
джулиано
джулио
джулия
джумая
джун
джунглата
джуниър
джърси
джъстин
дзен
дзин
ди
диабет
диагноза
диагностика
диаграма
диал
диалект
диалекта
диалекти
диалектологические
диалектология
диалог
диалога
диалози
диамант
диаманти
диаметър
диаметъра
диаметърът
диана
диапазон
диапазона
диарбекир
диас
диаспора
див
дива
дивата
дивеч
диви
дивизии
дивизион
дивизионен
дивизия
дивизията
дивисион
дивите
диво
дигитален
дигитална
дигитални
дигитално
диджеи
дидро
диего
диема
диета
диетата
дизаин
дизаина
дизаинер
дизаинът
дизел
дизелов
дизелови
дии
диин
диип
дик
дикенс
дикинсън
диков
диксън
диктатор
диктатора
диктатура
диктатурата
диленбург
дилинген
дилън
дим
димитри
димитриев
димитрии
димитрина
димитриос
димитров
димитрова
димитровград
димитровска
димитър
димо
димов
димова
диморфизъм
димче
димчев
димчо
дин
динамика
динамиката
динамична
динамични
динамично
динамо
династии
династия
династията
динев
дино
диоген
диодор
диоклециан
диоксид
дион
дионис
дионисии
диоцез
диплом
диплома
дипломат
дипломати
дипломатическа
дипломатическата
дипломатически
дипломатическите
дипломация
дипломира
дипломирането
директен
директива
директивата
директна
директни
директно
директор
директора
директори
директорите
директория
директорът
дирекция
дирекцията
диригент
дирижира
дисертация
дисертацията
диск
диска
дискавъри
диско
дискове
дискография
дискриминация
дискусии
дискусия
дисни
дисплеи
дистанции
дистанционно
дистанция
дистрибуция
дисциплина
дисциплинарно
дисциплината
дисциплини
дитер
дитрих
дитрихщаин
диц
дичо
дишане
дишането
дка
длъжен
длъжни
длъжност
длъжности
длъжностите
длъжностни
длъжността
для
дмитрии
дн
дневен
дневна
дневни
дневник
дневника
дневникът
дневници
дневниците
дневния
дневно
днепър
днес
днестър
днешен
днешна
днешната
днешни
днешните
днешния
днешният
днешно
днешното
дни
дните
днк
до
добавен
добавена
добавени
добавено
добави
добавите
добавка
добавки
добавя
добавяне
добавянето
добавят
добив
добива
добиват
добивът
добитък
добитъка
доближава
добра
добрата
добре
добрев
добрева
добри
добрин
добрите
добрич
добрия
добрият
добро
доброволен
доброволец
доброволни
доброволно
доброволци
доброволчески
добродетели
добромир
доброта
доброто
добруджа
добруджански
добър
доведат
доведе
доведен
довежда
довеждат
довел
довела
довели
довело
доверие
доверието
доволен
доволни
доган
договарящите
договор
договора
договори
договорите
договорът
доде
дож
доживотен
доза
дози
доидат
доиде
доил
доинов
доиран
доиче
док
докаже
доказан
доказана
доказано
доказателства
доказателствата
доказателство
доказва
доказване
доказват
докато
доклад
доклада
докладва
доклади
докладите
докладът
доколко
доколкото
докосване
докраи
доктор
доктора
докторанти
докторат
докторов
докторска
докторската
докторът
доктрина
доктрината
документ
документа
документален
документалистика
документална
документални
документалния
документално
документация
документи
документирани
документите
документът
дол
долар
долара
долари
долен
доли
долина
долината
долини
долините
долна
долната
долни
долните
долния
долно
долното
долу
дом
дома
домакин
домакини
домакините
домакински
домакинските
домакинства
домакинствата
домакинство
домакинството
домакиня
домати
домашен
домашна
домашната
домашни
домашните
домашно
домашното
домаћинстава
домеин
доменико
доминго
доминик
доминика
доминиканска
доминиканската
доминира
доминират
доминираща
домициан
домиции
домове
домовете
домхер
домът
дон
дона
доналд
донася
донасят
донев
донесе
донецк
дони
донка
донски
дончев
дончева
дончо
доня
донякъде
доп
допир
допреди
допринася
допринасят
допуска
допускане
допускат
допуснат
допуснати
допусне
допълва
допълват
допълнение
допълнения
допълнено
допълнителен
допълнителна
допълнителни
допълнителните
допълнително
допълнителното
дора
дори
дорис
дория
доротея
дороти
дортмунд
дос
досега
досие
досиетата
доспат
доста
доставени
доставка
доставката
доставки
доставките
доставчик
доставчици
доставя
доставят
достатъчен
достатъчна
достатъчни
достатъчно
достига
достигаики
достигане
достигането
достигат
достигащи
достигна
достигнал
достигнала
достигнали
достигнат
достигне
достоевски
достоен
достоини
достоино
достоинство
достоинството
достояние
достъп
достъпа
достъпен
достъпна
достъпни
достъпно
достъпът
дотам
дотогава
дотолкова
дофин
доход
доходи
доходите
доц
доцент
дочев
дошла
дошли
дошло
дошъл
доюлианския
дпмне
дпс
др
драган
драганов
драгаш
драгоман
драгомир
драгомиров
дракон
дракона
дракони
дракула
драма
драмата
драматичен
драматична
драматични
драматичния
драматично
драматург
драматургия
драми
драмско
драстично
драч
дребен
дребна
дребни
дребните
дребно
древен
древна
древната
древни
древните
древния
древният
древно
древногръцката
древногръцки
древногръцкия
древност
древността
древното
дредноут
дрезден
дреик
дреха
дрехи
дрехите
државен
дрин
дринов
дроб
дробове
дрожди
друг
друга
другаде
другар
другари
другарите
другата
други
другите
другия
другият
друго
другото
дружба
дружбата
дружества
дружество
дружеството
дружина
дружината
дружини
друз
друмев
дръжка
дръжката
дръжки
дръзки
дрю
дряново
дс
дсб
дсо
дт
ду
дуаит
дубаи
дублаж
дублажа
дублажът
дублиращия
дубровник
дуел
дует
дуета
дузина
дузпа
дузпи
дук
дука
дума
думата
думи
думите
дунав
дунава
дунавска
дунавската
дунавски
дуо
дуото
дупка
дупката
дупки
дупница
дуранкулак
дуриданов
дурлах
дух
духа
духов
духове
духовен
духовенство
духовенството
духовете
духови
духовна
духовната
духовни
духовник
духовните
духовници
духовния
духовно
духовното
духът
душа
душан
душата
душевно
души
душите
дхарма
дъ
дъб
дъблин
дъбник
дъбови
дъга
дъгата
дъги
дъглас
дъдли
дъжд
дъжда
дъждове
дъждовни
дъждовно
дълбок
дълбока
дълбоката
дълбоки
дълбоките
дълбоко
дълбочина
дълбочината
дълг
дълга
дългата
дълги
дългите
дългия
дългият
дълго
дългове
дълговете
дългогодишен
дългогодишна
дългогодишната
дългосрочен
дългото
дължат
дължи
дължина
дължината
дължини
дълъг
дън
дъна
дънкан
дъно
дънов
дъното
дърва
дървен
дървена
дървени
дървените
дървесина
дървесни
дървета
дърветата
дърво
дърворезба
дървото
държава
държавата
държавен
държави
държавите
държавна
държавната
държавни
държавник
държавните
държавния
държавният
държавно
държавност
държавното
държан
държани
държат
държи
дъска
дъски
дъх
дъщери
дъщерите
дъщеря
дъщерята
дьо
дю
дюк
дюлгеров
дюма
дюни
дюнкерк
дюселдорф
дюш
дявол
дявола
дяволи
дяволът
дядо
дядото
дякон
дял
дяла
дялове
дянков
дясна
дясната
дясно
дясното
е
еад
еберхард
еберщаин
ева
евакуация
евакуирани
евангелие
евангелието
еванс
евгени
евгении
евгения
евдокия
евентуална
евентуално
еверест
евертън
еверщаин
евлия
еволюция
еволюцията
евразия
евреи
евреин
евреиска
евреиската
евреиски
евреиските
евреиския
евреиско
евреиското
евреите
евридика
еврипид
евро
евровизия
европа
европеец
европеиска
европеиската
европеиски
европеиските
европеиския
европеиският
европеиско
европеискои
европеиското
европеици
европеиците
еврото
евротурнирите
евтим
евтимии
евтимов
евтин
евтина
евтини
евтино
евънс
еге
егеиска
егеиско
егејскиот
егидата
египет
египетска
египетската
египетски
египетските
египетския
египтяните
егмонт
его
егон
ед
едва
едвард
едгар
еден
едеса
еди
едикт
един
единадесет
единадесета
единбург
единен
единица
единицата
единици
единичен
единична
единични
единия
единият
единна
единно
единодушно
единствен
единствена
единствената
единствените
единствения
единственият
единствено
единственото
единство
единството
едип
едисън
едит
едмънд
една
еднаква
еднакви
еднакво
еднакъв
едната
едни
едно
едновременно
еднозначно
едноименен
едноименна
едноименната
едноименния
едноименният
едноименното
еднокорабна
едностранно
едното
едра
едри
едрите
едро
едуард
едуардо
едуардс
едуин
едър
ежегоден
ежегодно
ежедневието
ежедневник
ежедневно
езда
езера
езерата
езеро
езерото
език
езика
езиков
езикова
езиковата
езиковед
езикови
езиково
езикознание
езикът
езици
езиците
езически
еи
еибрахам
еидриън
еил
еими
еинджъл
еио
ек
ека
екатерина
екатеринбург
еквадор
екватора
екваториална
еквивалент
екзарх
екзархииски
екзархисти
екзархия
екзархията
екзекутиран
екзекутирани
екзекуция
екзекуцията
екземпляр
екземпляра
екземпляри
екзотични
екип
екипа
екипаж
екипажа
екипажи
екипажите
екипажът
екипи
екипировка
екипите
екипът
еко
екологична
екологични
екологично
екология
екологията
екран
екрана
екрани
екранизиран
екраните
екс
експанзия
експедиции
експедиция
експедицията
експеримент
експеримента
експериментален
експериментална
експериментални
експериментално
експерименти
експериментира
експериментите
експерт
експерти
експлоатация
експлоатацията
експлозия
експлозията
експозиция
експозицията
експонати
експрес
екстремни
ектор
екшън
ел
ела
елада
елас
еласона
елба
елвис
елдъров
електра
електрическа
електрическата
електрически
електрическите
електрическо
електрическото
електричество
електричеството
електро
електроенергия
електромагнитни
електрон
електрона
електронен
електрони
електроника
електрониката
електроните
електронна
електронната
електронни
електронните
електронно
електронното
електротехника
електроцентрала
елемент
елемента
елементарни
елементарните
елементи
елементите
елен
елена
елени
елеонора
елешница
елза
елзас
ели
елиас
елиза
елизабет
елизабета
елии
елиминира
елин
елинор
елис
елисавета
елит
елита
елитната
елица
елиът
елия
елка
елхово
елцин
елън
ем
ема
емануел
емануил
еманюел
емблема
емблемата
емден
еми
емигрант
емигранти
емигрантски
емиграция
емиграцията
емигрира
емигрират
емил
емили
емилиан
емилии
емилио
емилия
емир
емирства
емисии
емисия
емих
емоции
емоциите
емоционална
емоционално
ен
енгелберт
енгелс
енд
ендемичен
ендемични
енев
енеи
енергетика
енергетиката
енергиен
енергиина
енергиини
енергия
енергията
ензима
ензими
енигма
енидже
ениджевардарско
еникьои
енисеи
ено
енорииска
енорииски
енория
енорията
енрике
енрико
ентусиазъм
ентърпраиз
енциклопедичен
енциклопедия
енциклопедија
енчев
енчо
еня
ео
еоод
еп
епархии
епархия
епархията
епархија
епидемии
епидемия
епидемията
епизод
епизода
епизоди
епизодите
епизодични
епир
епископ
епископа
епископи
епископите
епископия
епископски
епископът
епопея
епос
епоха
епохата
епохи
епщаин
ер
ера
еразъм
ерата
ербах
ервин
ердоган
ереван
ерес
ери
ерик
ерика
еритрея
ерих
ерма
ернандес
ернестина
ернесто
ернст
ерозия
ерос
ерфурт
ерцхерцог
ерцхерцогиня
ес
есе
есеист
есекс
есен
есенен
есенни
есента
есета
есето
ескадра
ескадрата
ескадрила
ескадрон
ескадрона
ески
если
есмералда
есперанто
есте
естер
естествен
естествена
естествената
естествени
естествените
естествения
естественият
естествено
естественото
естество
естеството
естетика
естетически
естония
естонски
естрада
есхил
ет
етаж
етажа
етажи
етап
етапа
етапи
етиен
етика
етиката
етикет
етимология
етимологията
етиопия
етническа
етническата
етнически
етническите
етническия
етническо
етнограф
етнография
етнографска
етнографски
етнос
етноси
ето
етрополе
етруските
етър
ефект
ефекта
ефекти
ефективен
ефективна
ефективни
ефективно
ефективност
ефективността
ефектите
ефектът
ефенди
ефес
ефир
ефира
ефрат
ефрем
ефрона
ефтимов
ех
ехо
ечемик
ешелон
ешенбах
еще
еър
ж
жа
жаба
жаби
жажда
жак
жаклин
жалба
жан
жана
жандармерия
жанеиро
жанет
жанр
жанра
жанрове
жанровете
жар
же
жеков
желае
желание
желанието
желания
желанията
желаят
желев
железен
железни
железните
железница
железници
железниците
железния
железният
железопътен
железопътна
железопътната
железопътни
железопътните
железопътния
желю
желязков
желязна
желязната
желязо
желязото
жена
жената
женева
женен
женена
женени
жени
женитба
женитбата
жените
женска
женската
женски
женските
женския
женско
женското
женят
жерар
жермен
жертва
жертвата
жертви
жертвите
жест
жесток
жестока
жестоки
жестоко
жестокост
жечев
жечпосполита
жив
жива
живак
живата
живее
живеели
живеем
живеене
живееш
живеещ
живеещи
живеещите
живели
живея
живеят
живи
живите
живко
живков
живкова
живо
живопис
живописен
живописец
живописна
живописни
живописта
живописци
живот
живота
животински
животинския
животни
животните
животно
животновъдство
животновъдството
животното
животъ
животът
живял
живяла
жизнен
жизнения
жизнено
жизни
жизнь
жил
жила
жилища
жилищата
жилище
жилищен
жилището
жилищна
жилищни
жилищните
житеиски
жител
жители
жителите
житие
житието
житни
жито
жлеза
жлези
жозе
жозеф
жорж
жофроа
жп
жребии
жребият
жрец
жуан
жуау
жуков
жул
жулиета
жупания
жури
журито
журнал
журналист
журналиста
журналисти
журналистика
журналистиката
журналистите
журналистка
журналистът
жълт
жълта
жълтата
жълти
жълто
з
за
заалфелд
забавен
забави
забавление
забавна
забавя
забавяне
забавят
забележителен
забележителна
забележителни
забележителните
забележително
забележителност
забележителности
забележка
забелязан
забелязани
забелязва
забелязват
заблатени
заболява
заболяване
заболяването
заболявания
забрава
забравени
забравените
забрави
забравя
забрана
забраната
забранен
забранена
забранени
забранено
забрани
забранява
забраняват
заварва
заведение
заведения
завежда
завеждащ
завеса
завет
завещава
завещание
завещанието
завзема
завземане
завземането
завземат
завземе
завива
завинаги
зависи
зависима
зависими
зависимост
зависимостта
завист
зависят
завладее
завладява
завладяване
завладяването
завладяват
завладян
завладяна
завод
завода
заводи
заводите
заводът
завоевания
завои
завоюва
завоя
завръща
завръщане
завръщането
завръщат
завърна
завърнал
завърнат
завърне
завърта
завъртане
завършва
завършваики
завършване
завършването
завършват
завършващи
завършен
завършена
завършени
завършено
завърши
завършил
завършила
завършили
завършилите
загадка
загива
загиват
загинал
загинали
загиналите
заглавие
заглавието
заглавия
заглавната
заговор
заговора
заговорниците
загора
загоричани
загреб
загриженост
загуба
загубата
загубва
загубен
загубена
загубени
загуби
загубил
загубили
загубите
зад
задава
задават
задача
задачата
задачи
задачите
задвижва
задвижване
задеиства
заден
задна
задната
задни
задните
задния
задно
задоволява
задочно
задълбочава
задълбочено
задължава
задължават
задължени
задължение
задължението
задължения
задълженията
задължителен
задължителна
задължителни
задължително
задържа
задържан
задържане
задържането
задържани
задържат
задържи
заедно
заек
заем
заема
заемаики
заемал
заемане
заемат
заеме
заеми
заемка
заемки
зает
заета
заети
заето
заетост
заетостта
заживява
заимов
заин
заинтересовани
заици
зак
заключава
заключение
заключението
заключения
заключителни
закон
закона
законен
закони
законите
законно
законодателен
законодателна
законодателната
законодателни
законодателство
законодателството
законопроект
законът
закрива
закриване
закриването
закрила
закрилата
закрит
закрита
закрити
закрито
закупен
закупена
закупени
закупи
закупува
закупуване
закупуването
закуска
зала
залавя
залавянето
залага
залата
залежи
залез
залесена
зали
залив
залива
заливи
заливът
залите
заличава
залм
заловен
заловени
залог
заложен
заложени
заложник
заложници
залп
залцбург
зам
замбия
заменен
заменена
заменени
заменено
замени
заменя
заменяики
заменят
замества
заместване
заместен
замести
заместител
заместник
заминава
заминаването
заминават
замине
замислен
замисъл
заможен
заможни
заможно
замонашва
замръзва
замък
замъка
замъкът
замърсяване
замърсяването
замъци
замяна
замяната
занаят
занаяти
занаятите
занаятчии
занаятчииски
занзибар
занимава
занимават
занимаващи
занимание
занимания
занков
занятия
заобикаля
заобиколен
заобиколена
заоблени
запад
запада
западен
западна
западната
западни
западните
западния
западният
западно
западнои
западноломбардски
западното
запазва
запазваики
запазване
запазването
запазват
запазен
запазена
запазената
запазени
запазените
запазено
запази
запазил
запазили
запазят
запалва
запален
запас
запаса
запасен
запаси
запасите
запасни
запетая
запис
записа
записал
записан
записана
записани
записано
записва
записване
записването
записват
записи
записите
записки
записките
записът
запише
заплата
заплатата
заплати
заплатите
заплаха
заплахата
заплахи
заплашва
заплашват
заплаща
заплащане
заповед
заповеди
заповедите
заповедта
заповядва
заподозрени
заподозрян
запознава
запознават
запознае
започва
започваики
започване
започването
започват
започваща
започна
започнал
започнала
започналата
започнали
започнало
започнат
започната
започнаха
започне
зара
заради
заражда
заразени
заразяване
зареждане
заря
заряд
заряда
заряди
засада
засегнат
засегната
засегнати
засегнатите
заседава
заседание
заседанието
заседания
заседанията
заселва
заселване
заселването
заселват
заселена
заселени
заселили
заселници
заселниците
засилва
засилване
засилват
засили
заслон
заслуга
заслуги
заслугите
заслужава
заслужил
заснема
заснемане
заснемането
заснет
заснети
застава
застават
застои
застрашен
застрашени
застрашените
застрелва
застрелян
застъпва
засяга
засягат
засягащи
затваря
затваряне
затварянето
затварят
затвор
затвора
затворен
затворена
затворени
затворено
затвори
затворите
затворник
затворници
затворниците
затвърждава
затова
затопляне
заточен
заточение
затруднения
затруднено
затруднява
затуи
затъмнение
зафиров
захар
захари
захариев
захариева
захарии
захария
захарна
захваща
захранва
захранване
зачислен
заштита
защита
защитава
защитават
защитата
защитен
защитена
защитената
защитени
защитените
защитено
защити
защитна
защитни
защитник
защитници
защитниците
защитят
защо
защото
заяви
заявка
заявки
заявление
заявлението
заявява
заявяваики
заявяват
зборник
звание
званието
звания
званията
звезда
звездата
звезден
звезди
звездите
звездна
звездни
звена
звено
звук
звука
звуков
звукове
звукови
звукозаписна
звукозаписната
звукът
звуци
звуците
звучене
звученето
звучи
звън
звяр
звяра
здание
зданието
здрав
здрава
здраве
здравеи
здравен
здравеопазване
здравеопазването
здравето
здравец
здрави
здравина
здравко
здравна
здравни
здравно
здраво
здравословни
здравословно
здрач
здружение
зевс
зеландия
зеле
зелен
зелена
зелената
зелени
зелените
зеления
зеленият
зелено
зеленчуци
земаља
земевладелци
земеделец
земеделие
земеделието
земеделска
земеделската
земеделски
земеделските
земеделско
земеделци
земен
земетресение
земетресението
земетресения
земи
земиздат
земите
землищата
землище
землището
земна
земната
земни
земните
земния
земноводни
земноводно
земното
земя
земята
зенит
зенитна
зенитни
зенитно
зенон
зепелин
зестра
зет
зехтин
зи
зиген
зигмаринген
зигмунд
зигфрид
зид
зидария
зидове
зима
зимата
зимбабве
зимен
зимерн
зими
зимна
зимната
зимни
зимните
зимния
зимно
зимува
зина
зип
зла
злата
златаров
златарски
златев
златен
златица
златка
златко
златков
златна
златната
златни
златните
златния
златният
златно
златното
злато
златоград
златото
златоуст
зле
зли
злите
зло
злодеи
злото
злоупотреба
злоупотреби
змеи
змии
змия
змията
знае
знаеики
знаел
знаем
знаете
знаех
знаеш
знаеше
знаи
знак
знака
знакът
знам
знаме
знамена
знамената
знамето
знание
знанието
знания
знанията
знаци
знаците
значение
значението
значения
значи
значим
значима
значими
значимите
значимо
значимост
значителен
значителна
значителни
значителните
значително
значка
зная
знаят
знеполски
зов
зограф
зографа
зографи
зографски
зографския
золмс
зона
зоната
зондербург
зондерсхаузен
зоненвалде
зони
зоните
зоолог
зоология
зоопарк
зора
зоран
зората
зорница
зоя
зрение
зрението
зрители
зрителите
зрителя
зрк
зряла
зрялост
зулц
зулцбах
зъб
зъби
зъбите
зъл
зърна
зърната
зърнени
зърно
зърното
и
ибис
ибн
ибрахим
ив
ива
иваило
иваиловград
иван
ивана
иванка
иванко
иванов
иванова
иванович
ивановна
иваново
ивановски
иванчев
иванчо
иванъ
ивица
ивицата
ивици
иво
ивоар
ивраи
ивреа
иврит
игла
иглика
иглолистни
игнасио
игнатии
игнатов
игор
игото
игра
играе
играеики
играещ
играл
игрален
играли
игрални
игран
играта
играч
играча
играчи
играчите
играчка
играчки
играчът
играят
игри
игрите
игрище
игрището
игумен
ида
идва
идването
идват
идващи
иде
идеал
идеален
идеали
идеални
идеалния
идеално
идеи
идеите
идентификация
идентифицира
идентифицирани
идентифицират
идентичен
идентични
идентичност
идентичността
идеологически
идеология
идеологията
идея
идеята
иди
идол
идщаин
ие
иежи
иезуитите
иемен
иена
иерархия
иерархията
иеромонах
иероним
иерусалим
из
изабел
изабела
избегнат
избегне
изберат
избере
избива
избиват
избира
избиран
избиране
избирането
избирани
избират
избирателен
избиратели
избирателите
избирателна
избирателната
избирателни
избирателно
избити
избор
избора
избори
изборите
изборът
избран
избрана
избрани
избраните
избрано
изброени
изброените
избухва
избухването
избухват
избяга
избягал
избягали
избягат
избягва
избягване
избягват
изваден
извадени
извади
изважда
изваждане
изведе
изведен
изведени
изведнъж
извежда
извеждане
извеждането
извеждат
известен
известие
известия
известна
известната
известни
известните
известния
известният
известно
известност
известното
извика
извикан
извиква
извира
извисява
извити
извлича
извличане
извод
извода
изводи
извор
извора
извори
изворите
изворът
извоюва
извън
извънбрачен
извънбрачни
извънземни
извънреден
извънредна
извънредни
извънредно
извършат
извършва
извършване
извършването
извършвани
извършват
извършен
извършена
извършени
извършено
извърши
извършил
изгаря
изгаряне
изгарянето
изгаряния
изгарят
изглед
изгледа
изглежда
изглеждат
изгнание
изговаря
изгонва
изгонването
изгонен
изгонени
изгорени
изготвен
изготвя
изготвяне
изготвянето
изготвят
изграден
изградена
изградени
изградено
изгради
изгражда
изграждане
изграждането
изграждат
изгрев
изгубва
изгубен
изгубена
изгубената
изгубени
изгуби
изд
издава
издаван
издаване
издаването
издавани
издавано
издават
издаде
издаден
издадена
издадени
издадено
издал
издание
изданието
издания
изданията
издател
издатели
издателите
издателска
издателски
издателства
издателство
издателството
издательство
издателя
издеиства
изделие
изделия
издига
издигане
издигането
издигат
издигащ
издигнат
издигната
издигнати
издигне
издирване
издирвания
издръжка
издръжката
издръжливост
издълбани
издържа
издържат
изенбург
изживява
изиграва
изиграват
изиграе
изиграл
изигран
изиграни
изисква
изискване
изискването
изисквания
изискванията
изискват
изказва
изказване
изказвания
изказват
изкарва
изкачва
изкачване
изкачването
изкачват
изкачи
изключва
изключване
изключен
изключени
изключение
изключения
изключителен
изключителна
изключителната
изключителни
изключително
изкопаеми
изкуств
изкуства
изкуствата
изкуствен
изкуствена
изкуствени
изкуствено
изкуство
изкуствовед
изкуството
излага
излагане
излаз
излезе
излезли
излива
излиза
излизал
излизане
излизането
излизат
излита
излитане
изложба
изложбата
изложби
изложен
изложена
изложени
изложение
изложението
изложения
излъчва
излъчван
излъчване
излъчването
излъчвани
излъчват
излъчен
излъчена
излъчени
излъчи
излюпват
излязат
излязла
излязъл
изм
измаил
измама
измами
измежду
изменение
изменението
изменения
измененията
изменя
изменят
измерва
измерване
измерването
измервания
измерена
измерение
измерения
измества
изместване
изместват
изместен
изминава
измир
измира
измислен
измислена
измислени
измисля
измъкне
измъчван
измяна
изнася
изнасят
изненада
изненадващо
изнесени
износ
износа
изобилие
изобилието
изображение
изображението
изображения
изображенията
изобразен
изобразена
изобразени
изобразителните
изобразително
изобразителното
изобразява
изобразяване
изобразяват
изобразяващи
изобретател
изобретен
изобретение
изобретения
изобретява
изобретяването
изобщо
изолация
изолира
изолиран
изолирана
изолирани
изоставен
изоставена
изоставени
изоставено
изостави
изоставя
изоставят
изотопи
изп
изпада
изпадане
изпадат
изписан
изписана
изписани
изписано
изписва
изписване
изписването
изписват
изпит
изпита
изпитание
изпитания
изпитанията
изпитва
изпитване
изпитват
изпити
изплаща
изплащане
изповеди
изповядва
изповядват
използва
използваики
използвал
използвала
използвали
използваме
използван
използвана
използваната
използване
използването
използвани
използваните
използвания
използвано
използват
използващи
изправен
изправена
изправени
изправи
изправя
изправят
изпратен
изпратена
изпратени
изпратено
изпрати
изпратил
изпратят
изпраща
изпращане
изпращането
изпращани
изпращат
изпреварва
изпревари
изпуска
изпъкнала
изпълнен
изпълнена
изпълнени
изпълнение
изпълнението
изпълнения
изпълненията
изпълнено
изпълни
изпълнител
изпълнителен
изпълнители
изпълнителите
изпълнителка
изпълнителна
изпълнителната
изпълнителния
изпълнителният
изпълнителя
изпълнява
изпълняваики
изпълнявана
изпълнявани
изпълняват
изпълняващ
изпълнят
изработва
изработване
изработването
изработват
изработен
изработена
изработени
изработка
изработката
израел
израелската
израелски
израелските
израз
израза
изразен
изразена
изразени
изразено
изрази
изразът
изразява
изразяване
изразяват
израснал
израства
изречение
изречението
изречения
изригване
изригването
изригвания
изрично
изселва
изселване
изселват
изселени
изсечени
изследва
изследван
изследване
изследването
изследвани
изследвания
изследванията
изследват
изследовател
изследователи
изследователите
изследователска
изследователски
изстрел
изстрела
изстрелва
изстрелване
изстрелването
изстрели
изстрелян
изстреляни
изтеглен
изтегли
изтегля
изтегляне
изтеглянето
изтеглят
изтезания
изтича
изтичане
изтичането
изток
изтока
източен
източна
източната
източни
източник
източника
източните
източници
източниците
източния
източният
източно
източното
изтребител
изтребители
изтребителна
изтребителя
изтъква
изтъкнат
изтъкнати
изтъкнатите
изучава
изучаване
изучаването
изучават
изхвърлен
изхвърля
изхвърляне
изхвърлят
изход
изхода
изходен
изходни
изходните
изходния
изцяло
изчезва
изчезване
изчезването
изчезват
изчезнал
изчезнали
изчезне
изчисление
изчисления
изчисленията
изчислителна
изчислява
изчисляване
изъ
изява
изявени
изявените
изяви
изявите
изявление
изявления
изявява
изяснява
изящни
ии
иисус
ик
икар
икона
иконата
икони
иконите
иконом
икономика
икономиката
икономист
икономисти
икономическа
икономическата
икономически
икономическите
икономическия
икономическо
икономическото
икономия
икономов
иконописец
иконостас
иконостаса
иконостасът
икс
ил
иларион
или
илиада
илиев
илиева
илинден
илинденска
илинденската
илинденски
илинденско
илинденското
илиндень
илиноис
илирия
илич
илия
илиян
илија
илчев
ильо
илюзия
илюстратор
илюстрации
илюстрация
илюстрира
иля
им
има
имаики
имал
имала
имали
имало
имам
имаме
имануел
имат
имате
имах
имаха
имаш
имаше
имащ
имаща
имащи
имбър
име
имеил
имена
имената
имение
имението
имения
именно
името
имигранти
имидж
имитира
имот
имота
имоти
имотите
имп
император
императора
императори
императорите
императорска
императорската
императорски
императорските
императорския
императорското
императорът
императрица
императрицата
империи
империя
империята
имперска
имперската
имперски
имперските
имперския
имперското
импулс
импулса
импулси
имунитет
имунната
имущество
имуществото
имъ
ин
ина
иначе
инвазия
инвазията
инвентар
инвестира
инвеститори
инвестиции
инвестициите
инголщат
ингрид
инд
индекс
индекса
индже
инди
индиана
индиански
индианско
индианци
индианците
индивид
индивида
индивиди
индивидите
индивидуален
индивидуална
индивидуални
индивидуалните
индивидуално
индивидуалното
индииска
индииската
индииски
индииските
индииския
индия
индо
индоевропеиски
индокитаи
индонезииски
индонезия
индоокеанска
индустриален
индустриалец
индустриална
индустриалната
индустриални
индустриално
индустрии
индустрия
индустрията
инес
инж
инженер
инженерен
инженери
инженерите
инженерна
инженерни
инженерните
инженерно
инженерство
инициатива
инициативата
инициативен
инициативи
инициатор
инициаторите
инициира
инките
инклинация
иновации
инокентии
инсбрук
инспектор
инспекция
инсталации
инсталация
инстанция
институт
института
институти
институтъ
институтът
институции
институциите
институция
институцията
инструктор
инструкции
инструкциите
инструкция
инструмент
инструмента
инструментални
инструменти
инструментите
инсулт
интеграция
интегрирана
интегрирани
интелект
интелектуална
интелектуалната
интелектуалци
интелигентен
интелигентност
интелигенция
интензивен
интензивна
интензивни
интензивно
интер
интервал
интервала
интервали
интервенция
интервю
интервюта
интерес
интереса
интересен
интереси
интересите
интересна
интересни
интересните
интересно
интересното
интересува
интересуват
интересът
интериор
интериора
интериорът
интернационал
интернет
интернешънъл
интерниран
интерпретации
интерпретация
интерпретацията
интерпретира
интертото
интерфеис
интерфеиси
интриги
инфанта
инфаркт
инфекции
инфекция
инфекцията
инфлация
инфлацията
информатика
информационен
информационна
информационната
информационни
информационните
информационно
информация
информацията
информира
инфраструктура
инфраструктурата
инцидент
инцидента
инциденти
инча
ио
иоаким
иоан
иоана
иоанис
иоанна
иоахим
иобст
иован
иованович
иовков
иовчев
иога
иожен
иозеф
иозефа
иоланда
ион
иона
иони
ионков
иончев
иорг
иордан
иордания
иорданка
иорданов
иорданова
иорк
иоркшър
иосип
иосиф
иосифов
иотинген
иотов
иохан
иохана
иоханес
иполит
ир
ирак
ираклии
иран
иранската
ирански
иранския
ирена
иречек
иржи
ирина
ирландия
ирландска
ирландската
ирландски
ирландско
ирмгард
ирод
ирокезите
ирония
иртиш
ис
иса
исабел
исабела
исак
иск
иска
искал
искала
искали
искам
искаме
искане
искането
искания
исканията
искат
искате
исках
искаш
искаше
искра
искусство
искър
исландия
исландски
ислям
исляма
ислямска
ислямската
ислямски
ислямските
ислямския
ислямът
исмаил
испания
испанска
испанската
испански
испанските
испанския
испанският
испанско
испанското
испанците
исперих
исследования
истанбул
истина
истината
истини
истинска
истинската
истински
истинските
истинския
истинският
истинско
истинското
истории
историите
историк
историка
историко
историкът
историография
историци
историците
историческа
историческата
исторически
исторические
историческите
историческия
историческият
историческо
историческото
история
историята
историја
источна
истрия
исус
ит
итал
италианска
италианската
италиански
италианските
италианския
италианският
италианско
италианското
италианци
италианците
италия
итало
ите
итън
их
ихтиман
ичко
ищван
иън
иънг
ия
ият
к
ка
кааза
кабел
кабели
кабина
кабината
кабинет
кабинета
кабинети
кабинетът
каблешков
кабо
кабул
кавадарци
кавала
кавалер
кавалерииска
кавалерииски
кавалерия
кавалерията
каварна
кавказ
кавър
кавъри
кагю
кадафи
кадри
кадър
кажа
кажат
каже
кажем
кажете
кажеш
кажи
кажимеж
каза
казал
казан
казанлък
казано
казармата
казасян
казах
казахски
казахстан
казаци
казаците
казашки
казва
казваики
казвал
казвам
казват
казваше
казимир
казино
каи
каизер
каизерслаутерн
каикос
каил
каили
каиманови
каиро
как
каква
каквато
какви
каквито
какво
каквото
како
както
какъв
какъвто
кал
калабрия
калаи
калв
калвин
кале
каледония
календар
календара
калето
кали
калиакра
калибра
калибър
калигула
калимантан
калин
калина
калиник
калифорнииския
калифорния
калкута
калофер
калоян
калпазанов
калпурнии
калции
калчев
калчо
кама
камара
камарата
камари
камбана
камбанария
камбанарията
камбаната
камбани
камбоджа
камелия
камен
каменен
каменица
каменна
каменната
каменни
каменните
каменно
каменов
камера
камерата
камерен
камери
камерна
камерун
камерън
камии
камил
камила
камило
камион
камиони
кампании
кампания
кампанията
камчатка
камчия
камък
камъка
камъкът
камъни
камъните
кан
кана
канавезе
канада
канадска
канадската
канадски
канадския
канал
канала
канали
канализация
каналите
каналът
кандидат
кандидата
кандидати
кандидатира
кандидатите
кандидатства
кандидатурата
кандидатът
кандиларовъ
канети
канзас
кани
канон
каноник
кант
кантакузин
кантон
кантона
кантора
кану
канцелария
канцеларията
канцлер
каньон
каньона
канят
кап
кападокия
капак
капан
капацитет
капацитета
капацитетът
капела
капелата
капитал
капитала
капитали
капитализма
капитализъм
капитан
капитана
капитани
капитанът
капител
капители
капитулация
капитулацията
капитулира
капия
капка
капки
каподимонте
капсула
кар
кара
карабах
караваджо
каравелов
карагьозов
караджа
караджата
караджов
караиванов
каракала
караманджуков
карастоянов
карат
карате
карачи
карбон
кард
кардинал
кардиналите
кардиф
карел
кари
карибско
кариера
кариерата
кариери
карикатури
карин
каринтия
карл
карла
карло
карлово
карлос
карлсруе
карма
кармен
карнавал
карнеги
карнобат
карол
каролин
каролина
карпати
карпатите
карпов
карско
карстови
карта
картаген
картата
картечница
картечници
карти
картина
картината
картини
картините
картира
картите
картография
картон
картофи
картър
карън
каса
касабов
касае
касандра
касел
касиер
касии
каспар
каспииско
кастел
кастело
кастилия
кастилска
кастинг
кастро
кат
ката
катализатор
каталог
каталога
каталония
каталонски
катания
катар
катаревуса
катарина
катастрофа
катастрофата
катастрофи
категории
категориите
категорично
категория
категорията
катедра
катедрала
катедралата
катедрален
катедралния
катедрата
катерене
катери
катерина
катерини
кати
като
католик
католици
католицизма
католиците
католическа
католическата
католически
католическите
католическия
католическо
катон
катрин
катценелнбоген
катя
кауза
каузата
каунти
кауфман
каучук
кафе
кафене
кафенета
кафето
кафка
кафяв
кафява
кафяви
кафяво
каца
кацане
кацането
кацаров
качва
качват
качества
качествата
качествени
качествено
качество
качеството
качи
каша
кашмир
кая
кв
квадрат
квадратен
квадратна
квадратни
квалификации
квалификациите
квалификационен
квалификация
квалификацията
квантовата
квартал
квартала
квартали
кварталите
кварталът
квартет
квартира
кварц
квебек
кверфурт
квестор
квинкции
квинт
квт
кг
кгб
ке
кевин
кеи
кеидж
кеимбридж
кеимбриджкия
кеин
кеип
кеиптаун
кеиси
кеит
кеити
кели
келтите
келтски
кемал
кембъл
кемерер
кен
кенеди
кенет
кени
кения
кент
кентъки
кеплер
керала
керамика
керамични
керемиди
кери
кестен
кефернбург
кеч
кечист
кечисти
кечмания
кеш
ки
кибург
кид
киев
киевска
киевския
киит
кил
кила
килиино
киликия
килими
килия
килограм
килограма
километра
километри
километър
ким
кимон
кина
кината
кинг
кингс
кингстън
кинематография
кино
киноактриса
кинопоиск
кинорежисьор
киното
кинофестивал
кинофестивала
киото
кипене
кипър
кипърски
кир
кираджиев
кирбург
киргизстан
кирибати
кирил
кирилица
кирилицата
кирилов
кирилова
кирков
киро
киров
кирова
кирхберг
кис
киселина
киселини
кисело
кислород
кислорода
кисьов
кит
китаи
китаиска
китаиската
китаиски
китаиските
китаиския
китаиският
китаиско
китаиското
китаици
китаиците
китара
китарата
китари
китарист
китариста
китаристът
китка
китове
китс
кихот
кичево
кичевска
кичевско
кишинев
кк
кл
клавдии
клавдия
клавиатура
клавиши
клавишни
кладенец
кладенеца
кладенци
клаив
клаин
клан
клана
клане
клането
клара
кларинет
кларк
клас
класа
класации
класациите
класация
класацията
класи
класик
класика
класира
класиран
класиране
класирането
класирания
класират
класификация
класификацията
класифицира
класифициран
класифицирани
класифицират
класическа
класическата
класически
класическите
класическия
класическо
класическото
класни
класно
класове
класовете
клаудио
клаудия
клауза
клаус
клеве
клеи
клеменс
клеопатра
клер
клетва
клетвата
клетенберг
клетка
клетката
клетки
клетките
клетъчната
клетъчни
клеър
кливланд
клиент
клиента
клиенти
клиентите
климат
климата
климатични
климатичните
климатът
климент
клин
клиника
клиниката
клинична
клинични
клинтън
клип
клипа
клипове
клипът
клисура
клод
клодии
клон
клона
клони
клоните
клонки
клонове
клуб
клуба
клубен
клубни
клубно
клубове
клубовете
клубът
ключ
ключа
ключов
ключова
ключове
ключови
ключовите
ключът
км
кмет
кмета
кметове
кметовете
кметство
кметството
кметът
кн
кндр
книга
книгата
книги
книгите
книгоиздателска
книгоиздателство
книжа
книжари
книжарница
книжка
книжки
книжнина
книжовен
книжовна
книжовник
книжовно
кнк
кнр
княгиня
княжево
княжеската
княжески
княжеско
княжества
княжество
княжеството
княз
княза
князе
князете
князът
ко
коалиция
коалицията
кобра
кобург
ковач
ковачев
ковчег
кога
когато
когда
когномен
кого
когото
код
кода
кодекс
кодекса
кодиране
кодове
кодовете
кодът
кое
коен
което
коефициент
коефициенти
коефициентът
кожа
кожани
кожата
кожени
кожи
кожни
кожух
кожухаров
коза
кози
козимо
козина
козината
козлодуи
козма
кои
които
кока
коко
кокосови
кокошка
кокс
кол
кола
колан
коларов
колата
коле
колебае
колебание
колебания
колев
колева
колега
колегата
колеги
колегите
колегия
колегията
коледа
коледаров
коледна
колеж
колежа
колежи
колектив
колективизация
колективизацията
колективна
колективни
колективно
колекции
колекциите
колекция
колекцията
колела
колело
колелото
колене
коли
колиба
колиби
колибри
колиброви
колидж
колима
колин
колинс
колите
количества
количество
количеството
колко
колкото
коллекция
коло
колоездач
колоездене
коломбо
колона
колоната
колони
колониална
колониални
колонизация
колонии
колониите
колонисти
колоните
колония
колонията
колорадо
колумб
колумбииския
колумбия
кольо
колю
коляното
ком
кома
команда
командата
командва
командвана
командване
командването
командвани
командващ
командващия
команден
команди
командир
командира
командири
командирите
командирован
командирът
командния
комарка
комбинат
комбинации
комбинация
комбинацията
комбинира
комбинирани
комбинират
комедиен
комедии
комедия
комедията
комендант
коментар
коментари
коментатор
коментира
комерсиален
комета
кометата
коми
комик
комикс
комикси
комиксите
комин
комина
коминтерна
комисар
комисии
комисия
комисията
комитет
комитета
комитети
комитетъ
комитетът
комнин
комнина
комо
комод
коморски
компании
компаниите
компания
компанията
компас
компенсация
компенсира
компетентните
компетентност
компилация
компилацията
комплекс
комплекса
комплекси
комплексни
комплексът
комплект
комплекта
композира
композирана
композитор
композитора
композитори
композиторите
композиторът
композиции
композициите
композиция
композицията
компонент
компонента
компоненти
компонентите
компромис
компютри
компютрите
компютър
компютъра
компютърен
компютърна
компютърната
компютърни
компютърните
компютърно
комуна
комунизма
комунизъм
комуникации
комуникациите
комуникационни
комуникация
комуникацията
комунист
комунисти
комунистите
комунистическа
комунистическата
комунистически
комунистическите
комунистическия
комунистическото
комуто
кон
конан
конаре
конвенции
конвенция
конвенцията
конвои
конвоя
конг
конго
конгрес
конгреса
конгреси
конгресите
конгресът
конде
кондотиер
коне
конен
конете
конец
конкретен
конкретна
конкретната
конкретни
конкретните
конкретния
конкретно
конкурент
конкуренция
конкуренцията
конкурс
конкурса
конкурси
конна
конни
конник
конница
конницата
конници
конрад
консенсус
консервативна
консервативната
консервативни
консерватория
консерваторията
конски
констанс
константа
константин
константинов
константинова
константинович
константинопол
константинополски
константинос
констанц
констанца
констанции
конституционен
конституционна
конституционни
конституционния
конституционно
конституция
конституцията
конструира
конструиран
конструирането
конструктор
конструкторите
конструкции
конструкция
конструкцията
консул
консула
консули
консулите
консулски
консулство
консулството
консултант
консултации
консумация
консумацията
консумира
консумират
контакт
контакта
контакти
контактите
конте
контеинер
контекст
контекста
контингент
континент
континента
континентален
континентална
континенталната
континентални
континенталния
континенти
контра
контраадмирал
контраатака
контраст
контрол
контрола
контролен
контролира
контролирана
контролирани
контролират
контролна
контролни
контролно
контролът
контузии
контузия
контур
конус
конфедерация
конфедерацията
конференции
конференция
конференцията
конфигурация
конфликт
конфликта
конфликти
конфликтите
конфликтът
концентрации
концентрация
концентрацията
концентрира
концентрирани
концепции
концепция
концепцията
концерт
концерта
концертен
концерти
концертите
концертна
концертни
концертно
концертът
конче
кончината
конър
коня
конят
кооперативно
кооперации
кооперация
кооперацията
координати
координатите
координатна
координатор
координация
координира
копа
копенхаген
коперник
копие
копието
копия
копола
копривщица
коприна
копродукция
кор
кора
кораб
кораба
кораби
корабите
корабли
корабни
корабоплаване
корабоплаването
корабостроене
корабостроителница
корабостроителницата
корабът
корал
коралови
коран
корана
кората
кордоба
кореиската
кореиски
кореиския
корекция
корема
коремоного
корен
корена
корени
корените
коренно
коренното
кореспондент
кореспонденция
кореспонденцията
корея
кори
коридор
коридора
коридори
коринт
корито
коритото
корица
корицата
корици
корнел
корнелии
корнелия
корона
коронавирус
короната
коронацията
коронован
коронясан
корпорации
корпорация
корпорацията
корпус
корпуса
корпуси
корпусът
корсаков
корсика
кортес
корупция
корупцията
корфу
корча
кос
коса
косата
косвено
косев
коси
косите
косми
космическа
космическата
космически
космическите
космическия
космическият
космодрума
космонавт
космонавти
космонавтите
космос
космоса
косово
кост
коста
костадин
костадинов
костадинова
костенец
костенурка
костенурки
кости
костите
костни
костов
костова
костур
костурска
костурската
костурски
костурско
костурското
костюм
костюми
косъм
кот
кота
котва
коте
котел
котела
котис
котка
котката
котки
котките
котли
котлите
котловина
котловината
котловини
коул
кофман
кох
коцев
кочан
кочани
кочо
кош
коя
която
кпсс
кр
крава
крави
крадец
краен
кражба
краи
краибрежие
краибрежието
краибрежия
краибрежията
краибрежна
краибрежната
краибрежни
краибрежните
краина
краината
краини
краините
краиници
краиниците
краиния
краиният
краино
краиното
краиова
краицер
краицера
краицери
краицерите
краицерът
краища
краищата
краище
крак
крака
краката
краков
крал
крале
кралете
крали
кралица
кралицата
кралска
кралската
кралски
кралските
кралския
кралският
кралско
кралското
кралства
кралство
кралството
краля
кралят
кран
крас
красавица
красавицата
красив
красива
красивата
красиви
красивите
красивия
красиво
красимир
красимира
красноярски
красота
красотата
кратен
кратер
кратера
кратка
кратката
кратки
краткия
кратко
краткото
кратово
кратък
крафт
крачка
крачки
края
краят
крај
креда
кредит
кредити
кредитна
кредиторите
креиг
креисер
креисера
креисеров
крем
кремиковци
кремона
кремъл
крепост
крепости
крепостите
крепостна
крепостната
крепостни
крепостните
крепостта
кресна
кресненско
крива
кривата
криви
крие
криза
кризата
кризи
криик
крила
крилата
криле
крилете
крило
крилото
крим
криминален
криминална
криминални
кримската
кримските
криптата
крис
кристал
кристали
кристалинни
кристална
кристалната
кристи
кристиан
кристиана
кристин
кристина
кристиян
кристоф
кристофър
крисчън
крит
критерии
критериите
критик
критика
критиката
критики
критиките
критикува
критикуван
критикуват
критици
критиците
критичен
критически
критична
критични
критично
крихинген
кришна
крият
кронберг
крос
круз
крум
крумов
крумовград
крус
круша
крушево
крушово
кръв
кръвни
кръвно
кръвното
кръвта
кръг
кръга
кръгла
кръглата
кръгли
кръгове
кръгъл
кръжок
кръст
кръста
кръсте
кръстев
кръстева
кръстен
кръстена
кръстени
кръстено
кръстител
кръстник
кръстове
кръстовището
кръстоносен
кръстоносните
кръстоносци
кръстоносците
кръстопът
кръстьо
кръстю
кръчма
кръчмата
кръщава
кръщение
крюгер
кс
ксанти
кто
ку
куб
куба
кубински
кубрат
кубрик
кувеит
кузман
кузманов
кузнецов
куиин
куин
куинс
куинсланд
кук
кука
кукла
куклен
кукли
кукуш
кукушка
кула
кулата
кули
кулик
кулите
кулмбах
кулминацията
култ
култа
култов
култови
култура
културата
културен
култури
културите
културна
културната
културни
културните
културния
културно
културното
култът
куманов
куманово
кумановска
кун
кунео
кунигунда
куно
куп
купа
купата
купе
купен
купи
купол
купола
куполата
куполът
купува
купуват
купър
кураж
курбан
куриер
курорт
курорта
курортен
курорти
куросава
курс
курса
курсове
курт
курфюрст
курфюрство
куршум
куршума
куршуми
кутев
кутии
кутия
кутузов
кухина
кухня
кухнята
куче
кучета
кучетата
кучето
кучешки
къде
където
кълбо
кълвач
към
къмпани
къмъ
кънев
кънектикът
кънтри
кънчев
кънчов
къп
кървава
кървави
кърджали
кърк
кърмата
кърмовата
кърпа
кърпачев
кърт
къртис
къс
къса
късен
къси
късмет
късна
късната
късни
късните
късния
късният
късно
късното
късо
късове
късометражен
късометражни
кът
къща
къщата
къщи
къщите
кьои
кьолн
кьонигсберг
кьонигсег
кьосев
кьостриц
кьотен
кюрасао
кюри
кюстенджа
кюстендил
кюстендилската
кюстендилски
кюстендилския
кюстендилско
кѫнчовъ
л
ла
лабиринт
лаборатории
лабораториите
лаборатория
лабораторията
лабораторни
лабрадор
лава
лавра
лаврентии
лавров
лагер
лагера
лагери
лагерите
лагерът
лаго
лагуна
лагуни
лазар
лазаров
лаибниц
лаиен
лаин
лаининген
лаиош
лаипциг
лаиън
лак
лакруа
лама
ламберг
ламберт
лампа
лампата
лампи
лан
лана
ланг
лангенбург
лангобардите
ландау
ландграф
ландграфиня
ландсберг
ландсхут
ландшафт
ландшафти
ланка
ланкастър
ланс
ланча
лаодика
лаос
лара
ларвите
лари
лариса
ларнака
ларс
ларсен
лас
ласкарис
ласло
лат
латвииски
латвия
латиница
латино
латинска
латинската
латински
латинските
латинския
латинското
лаубах
лауда
лауенбург
лаура
лауреат
лауреати
лафит
лацио
лв
лвов
лгбт
ле
лебед
лев
лева
леверкузен
леви
левин
левите
левица
левицата
левия
левият
левски
легални
легат
легенда
легендарен
легендарния
легендата
легенди
легендите
легион
легиона
легиони
легионите
легионът
легия
легла
легло
леглото
лед
леда
ледена
ледената
ледени
ледник
ледника
ледников
ледникови
ледници
ледниците
ледове
ледовете
ледовит
лежат
лежи
леибгвардеиския
леибъл
леибъла
леиди
леик
леин
леитенант
лек
лека
лекар
лекари
лекарите
лекарски
лекарства
лекарствата
лекарствени
лекарство
лекаря
леката
леки
леките
леко
лекота
лексикон
лектор
лекува
лекуват
лекции
лекциите
лекция
леля
лен
лена
ленин
ленинград
ленинградския
лента
лентата
ленти
лентул
лео
леон
леонард
леонардо
леоне
леонид
леопард
леополд
леополдина
лепид
лерин
леринско
леринското
лес
лесен
лесли
лесна
лесни
лесно
лесото
лестър
лет
летателен
летателни
летен
летене
летец
лети
летища
летище
летището
летни
летните
летния
лето
летопис
летци
летят
летящи
лефтеров
лех
лец
лече
лечебни
лечение
лечението
леща
лещи
ли
либерален
либерали
либералите
либерална
либералната
либерални
либерално
либерия
либертадорес
либия
либрето
либретото
ливада
ливади
ливадни
ливан
ливии
ливингстън
ливия
ливърпул
лига
лигавицата
лигата
лигурия
лидер
лидера
лидери
лидерите
лидерството
лидерът
лидия
лиеж
лиза
лии
лиидс
лик
лика
ликвидиране
лил
лили
лилия
лиляна
лима
лимасол
лимбург
лимпург
лин
лина
лингвист
лингвистика
линда
линдзи
линеен
линеина
линеини
линеините
линеиния
линеино
линеиные
линии
линиите
линия
линията
линк
линкор
линкора
линкори
линкорите
линкорът
линкоры
линкълн
линц
линч
лион
липа
липе
липса
липсата
липсва
липсват
липсваща
лира
лири
лирика
лиса
лисабон
лисица
лисицата
лисици
лист
листа
листата
листи
листове
лит
литва
литекс
литература
литературата
литературен
литературна
литературната
литературни
литературните
литературния
литературно
литературното
литературовед
литературознание
литернет
литовската
литовски
литовско
литра
литургия
литъл
лих
лихва
лихтенберг
лихтенщаин
лица
лицата
лице
лицевата
лицеи
лиценз
лиценза
лицето
лицинии
личат
личен
личи
лична
личната
лични
личните
личния
личният
лично
личност
личности
личността
личното
лишава
лишаване
лишен
лишена
лишени
ло
лоара
лобенщаин
лов
лова
ловен
ловец
ловеч
ловна
ловни
ловуват
ловци
ловците
ловът
логика
логиката
логически
логично
лого
логото
лодз
лоди
лодка
лодката
лодки
ложа
лоза
лозана
лозанов
лозанския
лозарство
лозенград
лозенец
лозя
лоид
лоихтенберг
лок
локална
локални
локално
локомотив
локомотиви
локомотивите
лола
лом
ломбардия
ломбардски
ломоносов
лонг
лонгин
лондон
лондонската
лондонски
лондонския
лондонското
лопес
лора
лоран
лорд
лорен
лоренц
лоренцо
лори
лорън
лорънс
лос
лот
лотар
лотарингия
лотус
лоу
лош
лоша
лошата
лоши
лошите
лошия
лошо
лошото
лоялност
лу
лувъра
луд
луда
лудвиг
луди
лудовика
лудовико
лудогорец
лудолф
лудост
лужица
луи
луиджи
луиз
луиза
луизиана
луис
луитгард
лук
лука
луканов
лукас
луков
луковит
лукреция
луксозни
лукул
луна
луната
лунен
лунна
лунната
лунния
луси
лусия
лутер
луфтвафе
луции
лучано
лучия
лъв
лъва
лъвове
лъвът
лъжа
лъжата
лъже
лъжи
лък
лъка
лъки
лъч
лъчезар
лъчение
лъчеперка
лъчи
лъчите
льо
льовен
льовенщаин
лю
люба
любек
любен
любим
любима
любимата
любимец
любими
любимите
любимия
любимо
любимци
любител
любители
любителите
любителски
люблин
любляна
любов
любовен
любовна
любовната
любовни
любовник
любовница
любовницата
любовници
любовта
любомир
любомиръ
людмил
людмила
люис
люк
люксембург
люксембургски
люлин
люнебург
люспи
ляв
лява
лявата
ляво
лявото
ляпчев
лясковец
лятна
лятната
лятно
лятното
лято
лятото
м
ма
мавзолеи
мавритания
мавриции
магазин
магазина
магазини
магазините
магаре
магарето
магда
магдалена
магдебург
маги
магидович
магии
магистрала
магистралата
магистрали
магистратура
магистър
магистърска
магически
магия
магията
магнат
магнезии
магнитен
магнитна
магнитни
магнитните
магнитно
магнитното
магнитуд
магнус
магьосник
мадагаскар
мадам
мадан
мадара
мадеира
маджаров
маджоре
мадисън
мадона
мадоната
мадрид
маестро
мажор
мазнина
мазнини
маи
маиер
маик
маика
маиката
маики
маиките
маико
маикрософт
маикъл
маикълс
маили
маилс
маимуна
маимуни
маин
маине
маининген
маинц
маиор
маиорка
маиот
маисен
маиски
маистер
маистор
маистора
маистори
маисторите
маисторски
маисторство
маисторът
маите
маичин
маичина
мак
макао
макар
макарии
макаров
макбет
макдоналд
македони
македонизмът
македонии
македония
македонија
македоно
македонска
македонската
македонски
македонскиот
македонските
македонскитѣ
македонския
македонският
македонско
македонското
македонци
македонците
македонцитѣ
македоніи
макиавели
маккарти
маккензи
макларън
макмеън
макс
максим
максимален
максимална
максималната
максималният
максимално
максимилиан
максимум
максуел
мала
малави
малага
малаизия
малария
малатеста
малдиви
мали
малина
малинов
малка
малката
малки
малките
малкия
малкият
малко
малкото
малкълм
малмьо
мало
маловодие
малолетния
малта
малц
малцина
малцинства
малцинствата
малцинство
малък
мама
мамо
ман
манастир
манастира
манастири
манастирите
манастирска
манастирската
манастирски
манастирските
манастирът
манга
мандат
мандата
мандатът
мандершаид
манджурия
мане
манев
маневра
маневри
мани
маниер
мании
манила
манитоба
манифест
мания
манлии
манов
манол
манолов
манолова
мансфелд
мантия
мантията
мантуа
ману
мануел
мануил
манфред
манхаим
манхатън
манчев
манчестър
манш
мао
мар
мара
маратон
марбург
марвел
маргарет
маргарета
маргарита
маргерита
маргьорит
маре
марек
мари
мариан
мариана
мариано
мариански
марии
марин
марина
марино
маринов
маринова
марио
мариово
марион
мариупол
мариус
марица
мария
марк
марка
марката
маркграф
маркграфиня
маркграфство
марке
маркетинг
марки
маркиз
маркиза
маркировка
марко
марков
маркова
марковски
маркос
маркс
марксизма
маркус
мароко
марс
марсел
марсело
марсилия
март
марта
мартел
мартен
марти
мартин
мартина
мартинес
мартини
мартиника
мартино
марцел
марцелин
марции
марч
марш
марша
маршал
маршалови
маршрут
маршрута
маршрути
мас
маса
масата
масачузетс
маси
масив
масива
масивен
масиви
масивна
масивни
масимо
масите
маска
маската
маски
масла
маслени
масло
маслото
масов
масова
масовата
масови
масовите
масовия
масово
масовото
мастило
мастни
мастърс
мат
мата
матеев
матеи
математик
математика
математиката
математици
математическа
математическата
математически
математическия
матео
материал
материала
материали
материалите
материална
материалната
материални
материално
материалът
материя
материята
матиас
матилда
матката
матов
матрица
матрицата
матрици
матю
маунт
маурисио
мафията
махала
махалата
махали
махалите
махле
махмуд
мач
мача
мачове
мачовете
мачът
машина
машината
машинен
машини
машините
машинно
машинопис
машиностроене
машиностроенето
мащаб
мащабна
мащабни
мащабно
мая
маями
мвнр
мвр
мвф
ме
меандри
мебели
мег
мед
медал
медала
медали
медалист
медведев
меден
медея
медиа
медиен
медии
медиина
медиини
медиите
медикаменти
медина
медисън
медитация
медицина
медицината
медицинска
медицинската
медицински
медицинските
медицинския
медицинско
медицинското
медичи
медия
медна
медни
медуза
междинен
междинна
междинни
между
междувременно
междузвездни
международен
международна
международната
международни
международните
международния
международният
международно
международното
междусъюзническата
междущатска
мездра
меи
меин
меисън
мек
мека
меки
мекленбург
меко
мекотели
мексиканска
мексиканската
мексикански
мексиканския
мексико
мел
мелани
мелас
мелбърн
мелвил
мелетии
мелинда
мелиса
мелник
мелница
мелници
мелодии
мелодия
мелодията
мембрана
мемоари
мемоарите
мемоарните
меморандум
мемориал
мемориален
мемфис
мен
мендес
мендоса
мене
мениджмънт
мениджър
мениджъра
мениджъри
менсъл
менюто
мера
мерзебург
мери
меридиан
мериленд
мерилин
мерки
мерките
меркс
меркурии
меркюри
мероприятия
мерцедес
меса
месала
месец
месеца
месеци
месеците
месечна
месечно
меси
месие
месина
месо
месопотамия
месото
места
местата
местен
мести
местна
местната
местни
местните
местния
местният
местно
местност
местности
местностите
местността
местното
место
местоимения
местообитание
местообитания
местообитанията
местоположение
местоположението
местопрестъплението
местят
метал
метала
метален
метали
металика
металите
метална
метални
металург
металургия
металургията
метаморфни
метан
метел
метеорит
метеорита
метеорити
метеорологични
метод
метода
методи
методиев
методии
методика
методите
методология
методът
метох
метра
метро
метров
метрова
метрополен
метрополитен
метрополитън
метрополията
метростанция
метрото
метъл
метъла
метър
механизирана
механизма
механизми
механизмите
механизъм
механик
механика
механиката
механичен
механична
механични
механично
мехмед
мехомия
мехтилд
мехтхилд
мехур
мец
меч
меча
мечка
мечката
мечки
мечо
мечове
мечта
мечтае
мечтата
мечти
мечтите
мечът
мж
мз
ми
миа
мианмар
миг
мигел
миграция
миграцията
мигрират
мида
миди
мидия
миз
мизия
мик
мика
микеланджело
микеле
мики
миков
микронезия
микроорганизми
микроскоп
микс
мил
мила
миладинов
миладинови
милан
милано
миланов
миле
милев
милева
милен
милена
миленов
милет
милетич
милетичъ
мили
милиард
милиарда
милиметра
милион
милиона
милиони
милица
милиция
милицията
милка
милко
мило
милоевич
милост
милош
милошевич
милојевић
милтън
милутин
милчев
милчо
милър
миля
мими
мин
мина
минава
минавал
минават
минал
минали
миналия
минало
миналото
минас
мината
минден
мине
минев
минен
минерал
минерали
минералите
минерална
минерални
минералните
минесота
мини
миниатюра
миниатюри
минимален
минимална
минималната
минимални
минимално
минимум
минисериал
министерска
министерски
министерския
министерства
министерство
министерството
министри
министрите
министър
министъра
министърът
мините
минко
минков
минни
минно
миноносци
минор
минск
минус
минута
минути
минчев
минчо
миньор
мир
мира
миранда
мирен
миризма
мирис
мирна
мирни
мирните
мирния
мирно
мирното
миро
мировои
мирослав
мирчев
мирчо
мирът
мис
мисии
мисиите
мисионер
мисионери
мисирков
мисис
мисисипи
мисия
мисията
мислене
мисленето
мисли
мислим
мислите
мислители
мислиш
мисля
мислят
мистерии
мистерия
мистерията
мистър
мисури
мисъл
мисълта
мит
мита
митев
митинг
митко
митнически
мито
митов
митова
митове
митовете
митологични
митология
митологията
митре
митрев
митридат
митрополит
митрополити
митрополия
митрополията
митът
михаел
михаела
михаи
михаил
михаило
михаилов
михаилова
михаиловград
михаилович
михаиловски
михаиловъ
михал
михов
мицо
мицубиши
мичев
мичиган
мичъл
мишев
мишел
мишена
мишка
мишката
мишки
мишкови
мишо
мк
мкс
мл
млад
млада
младата
младеж
младежи
младежите
младежка
младежката
младежки
младежките
младежкия
младежта
младен
младенеца
младенов
млади
младите
младия
младият
младо
младост
младостта
младото
младотурската
младша
младши
млечни
млечния
млн
млрд
мляко
млякото
мм
мн
мнение
мнението
мнения
мни
мно
много
многоброини
многоброините
многогодишно
многократно
многообразие
многото
многочислени
множества
множествено
множество
множеството
мнозина
мнозинство
мнозинството
мо
мобилен
мобилизация
мобилизиран
мобилна
мобилни
мобилните
мога
могами
могат
могила
могилата
могили
могла
могли
могло
могъл
мод
мода
модата
модел
модела
модели
моделиране
моделите
моделът
моден
модена
модерен
модерна
модерната
модерни
модернизация
модернизацията
модерните
модерния
модерно
модерното
модификации
модификация
модификацията
модна
модни
модул
модула
модули
мое
моето
може
можел
можели
можело
можем
можете
можеха
можеш
можеше
мозаика
мозаики
мозамбик
мозък
мозъка
мозъчен
мои
моисеи
моите
мок
мол
молба
молбата
молби
молдова
молдовски
молекула
молекулата
молекули
молекулите
моли
молиер
молитва
молитви
моллов
молотов
молтке
моля
молят
мома
момент
момента
моментално
моменти
моментът
момина
момиче
момиченце
момичета
момичетата
момичето
момче
момчета
момчетата
момчето
момчил
мон
мона
монако
монарси
монарх
монарха
монархия
монархията
монаси
монасите
монастир
монах
монахини
монахиня
монашески
монголите
монголия
монголската
монголски
монголските
монголците
мондиал
моне
монета
монети
монетите
моника
монитор
мониторинг
монк
монографии
монография
монопол
монпелие
монреал
монро
монсерат
монтаж
монтана
монтгомъри
монте
монтевидео
монтереи
монти
монтира
монтиран
монтирана
монтирани
монтират
монументални
монферат
монфор
монца
моо
мор
морава
моравия
моравско
морал
морала
морална
морални
морално
морган
море
морено
мореплавател
морета
моретата
морето
морис
морисън
мориц
моро
морска
морската
морская
морски
морските
морския
морският
морско
морскои
морското
морфология
моряк
моряци
моряците
мос
москва
москов
московска
московската
московски
московския
московското
мост
моста
мостове
мостът
мотив
мотиви
мотивите
мото
мотор
моторни
моторно
мотото
мотоциклети
мохамед
мохамедани
моцарт
мощ
мощен
мощи
мощите
мощна
мощната
мощни
мощните
мощно
мощност
мощности
мощността
моя
моят
моята
мпо
мпс
мравки
мрази
мрак
мрака
мрамор
мраморен
мраморна
мраморни
мраморно
мрачен
мрежа
мрежата
мрежи
мрежите
мрежови
мс
му
мужеников
муз
музеи
музеина
музеите
музея
музеят
музеј
музика
музикален
музикална
музикалната
музикални
музикалните
музикалния
музикалният
музикално
музикалното
музикант
музиканти
музикантите
музиката
мултимедиино
муниции
муниципальным
мур
мура
мурад
муса
мусала
мускул
мускули
мускулите
мускулни
мусолини
мустафа
мутафов
мутафчиев
мутафчиева
муха
мфа
мъгла
мъглен
мъдри
мъдрост
мъдростта
мъдър
мъж
мъжа
мъже
мъжете
мъжка
мъжката
мъжки
мъжките
мъжкия
мъжкият
мъжко
мъжкото
мъжът
мъка
мъки
мълния
мълчание
мълчанието
мълчи
мъниче
мъри
мъркюри
мъртва
мъртви
мъртвите
мъртво
мъртъв
мърфи
мъченик
мъченици
мъчения
мъчно
мы
мьорс
мюзик
мюзикъл
мюзикъла
мюлер
мюлинген
мюнстер
мюнхен
мюнценберг
мюсюлмани
мюсюлманите
мюсюлмански
мюсюлманските
мюсюлманско
мюсюлманското
мярка
място
мястото
н
на
набези
набира
набиране
набис
наблизо
наблюдава
наблюдаван
наблюдавани
наблюдават
наблюдател
наблюдатели
наблюдение
наблюдението
наблюдения
наблюденията
набляга
набор
наброява
наброявало
наброяват
набързо
навара
наваро
наведнъж
навечерието
навигатор
навигация
навици
навлезе
навлиза
навлизане
навлизането
навлизат
наводнение
наводнения
навреме
навремето
навсякъде
навън
навършва
навърши
навътре
навярно
нагласи
нагоре
нагорни
награда
наградата
награден
наградена
наградени
награди
наградите
награждава
награждаван
награждаване
нагряване
над
надал
надвишава
надводни
надгробни
надделява
надежда
надеждата
надежди
надеждите
надеждни
надеждност
надзор
надзора
надлъжни
надминава
надморска
надморската
надмощие
надолу
надпис
надписа
надписи
надписите
надписът
надпревара
надпреварата
надсемеиство
надстроика
надстроиката
наду
надхвърля
надхвърлят
надя
надява
надяваики
надяват
надясно
наем
наема
наемат
наемници
нает
наети
назад
название
названието
названия
наземни
назначава
назначаване
назначаването
назначават
назначен
назначена
назначени
назначение
назначи
назовава
наи
наиден
наиденов
наиджъл
наименование
наименованието
наименования
наименованията
наименуван
наистина
наит
наказан
наказание
наказанието
наказания
наказателен
наказателна
наказателни
наказателно
наказателното
наказва
накамура
накара
накити
наклон
наклонена
наков
накратко
накрая
накъде
налага
налагане
налагането
налагат
нали
налице
наличие
наличието
налична
налични
наличните
наложат
наложена
наложени
наложено
наложи
наложило
наляво
налягане
налягането
нам
намален
намалена
намалени
намалено
намали
намалява
намаляване
намаляването
намаляват
намаляваща
намалят
намерен
намерена
намерени
намерение
намерението
намерените
намерения
намеренията
намерено
намери
намерил
намерили
намериш
намерят
намеса
намесата
намесва
намеси
намесништво
наместник
наместничество
намибия
намира
намирал
намирала
намирали
намирало
намиране
намирането
намират
намиращ
намираща
намиращи
намиращите
намиращия
намиращо
намотка
намюр
нанася
нанасяне
нанасят
нанесе
нанесени
наново
наноси
нанси
нант
наоколо
наоса
напада
нападат
нападател
нападателите
нападателят
нападение
нападението
нападения
нападенията
нападнат
нападнати
нападне
написал
написан
написана
написани
написано
написва
написването
напитка
напитката
напитки
напише
наподобява
наподобяват
наполеон
наполеоновите
наполи
наполовина
напомня
напомнят
напоследък
напояване
напр
направа
направата
направен
направена
направени
направените
направено
направи
направил
направила
направили
направим
направиха
направиш
направление
направлението
направления
направо
направя
направят
напразно
напред
напредва
напредването
напредват
напреднала
напреднали
напредък
напредъка
напрежение
напрежението
напрежения
напречни
напречно
например
напротив
напуска
напускане
напускането
напускат
напусна
напуснал
напуснали
напуснат
напусне
напълно
нар
наравно
нараняване
наранявания
нараства
нарастване
нарастването
нарастват
нарастващата
нарастващото
наред
наредба
наредбата
наредено
нареди
наредил
нарежда
нареждане
нареждат
нарече
наречен
наречена
наречената
наречени
наречените
наречения
наречено
нареченото
наречие
нарисувана
нарича
наричаики
наричал
наричали
наричаме
наричан
наричана
наричани
наричано
наричат
наркотици
наркотиците
нарния
народ
народа
народен
народи
народите
народна
народната
народни
народните
народния
народният
народно
народност
народности
народното
народоосвободителен
народът
нарочно
наруто
нарушава
нарушаване
нарушават
нарушение
нарушения
нарушенията
наруши
наръчник
нас
наса
насаждения
насам
насау
насекоми
насекомите
насекомо
населен
населена
населени
население
населението
населените
населения
населено
населеното
населявано
населяват
насеља
насељима
насила
насилие
насилието
насилствено
насионал
наскоро
наслаги
наследен
наследи
наследник
наследника
наследникът
наследница
наследници
наследниците
наследничка
наследствен
наследствена
наследствени
наследство
наследството
наследява
наследяват
насока
насоки
насочва
насочване
насочват
насочен
насочена
насочени
насочено
насоченост
насочи
наставка
наставник
настанени
настанява
настаняване
настаняват
настилка
настоява
настояване
настояват
настоятелство
настоятелството
настоящ
настоящата
настояще
настоящето
настоящите
настоящия
настоящият
настоящото
настрана
настроен
настроени
настроение
настроението
настроения
настъпва
настъпването
настъпват
настъпи
настъпление
настъплението
насърчава
насърчаване
насърчават
натал
натали
наталия
натанаил
нататък
нататъшно
нататъшното
наташа
натиск
натиска
нато
натоварване
натоварен
натоварени
натриев
натрупва
натрупване
натрупването
натрупват
натура
натфиз
натъква
наук
наука
науката
науки
науките
наукитѣ
наум
наумов
науру
научава
научават
научат
научен
наученъ
научи
научил
научна
научната
научни
научните
научния
научно
научноизследователски
научноинформационен
научното
научнофантастичен
нахия
нахлува
нахлуване
нахлуването
нахлуват
находища
находище
находка
находки
находките
нации
нациите
национал
национален
национализъм
националисти
националистическа
националистически
национална
националната
национални
националните
националния
националният
национално
националност
националности
националното
нацистите
нацистка
нацистката
нацистки
нация
нацията
начала
начален
начална
началната
начални
началник
началника
началникът
началните
началния
началният
начално
началното
начало
началото
начев
начело
начин
начина
начинание
начини
начините
начинът
начисляват
наш
наша
нашата
наше
нашественици
нашествие
нашествието
нашествия
нашето
наши
нашите
нашия
нашият
наясно
нба
нбу
ндк
ндсв
не
неа
неапол
неаполитански
небе
небесата
небесни
небесните
небесно
небето
неблагоприятни
небраска
нева
невада
неведнъж
невена
невероятно
невил
невинен
невис
неволно
неврокоп
неврокопска
неврокопската
неврокопски
неврокопско
невски
невъзможна
невъзможно
невъзможност
невъзможността
негативни
негативно
него
негов
негова
неговата
негови
неговите
неговия
неговият
негово
неговото
неголеми
неголям
негуш
неда
недалеч
недвижими
недев
недеи
неделчев
неделчо
неделя
недков
недоверие
недоволен
недоволни
недоволство
недоволството
недостатък
недостатъци
недостатъците
недостатъчна
недостатъчни
недостатъчно
недостатъчност
недостиг
недялко
недялков
нееднократно
неженен
неженени
незабавно
независим
независима
независимата
независими
независимите
независимо
независимост
независимостта
незаконен
незаконна
незаконни
незаконно
незастрашен
незначителен
незначителни
незначително
неи
неизбежно
неизв
неизвестен
неизвестна
неизвестни
неизвестно
неизменно
неизпълнение
неиков
неин
неина
неината
неини
неините
неиния
неиният
неино
неиното
нек
нека
неколкократно
некропол
некропола
нелегален
нелегална
нелегалната
нелегални
нелегално
нелегалност
неленбург
нели
нелсън
нем
нема
немалко
немилост
немска
немската
немски
немските
немския
немският
немско
немското
нему
немци
немците
ненахов
нено
ненов
ненчо
нео
необичаини
необичаино
необходим
необходима
необходимата
необходими
необходимите
необходимо
необходимост
необходимостта
необходимото
неолит
неолита
неофит
неофициален
неофициално
неочаквано
непал
неподчинение
непознат
непозната
непознати
непосредствена
непосредствено
неправилна
неправилни
неправилно
неправителствена
неправителствени
непрекъснат
непрекъсната
непрекъснати
непрекъснато
непременно
непрестанно
неприятности
нептун
неработеща
неразделна
нерв
нерва
нерви
нервна
нервната
нервни
нерон
нерядко
несебър
неспособен
нестабилност
нестопанска
нестор
несторов
нестроева
несъгласие
несъмнено
несъстоятелност
нет
неуспех
неуспеха
неуспешен
неуспешна
неуспешни
неуспешно
неутрален
неутралитет
неутрална
неутрални
неутрони
нефт
нефтохимик
неща
нещастен
нещастие
нещата
нещо
нея
неясен
неясна
неясни
неясно
ни
нива
нивата
ниви
нивите
ниво
нивото
нигер
нигерия
нидерландия
нидерландска
нидерландската
нидерландски
нидерландския
ние
нижни
низ
низина
низината
низини
нии
ниил
ник
никак
никаква
никакви
никакво
никакъв
никарагуа
никел
никея
ники
никита
никифор
никифоров
нико
никога
никого
никодим
никое
никозия
никои
никол
никола
николае
николаев
николаевич
николаевна
николаево
николаи
николаос
николас
николаус
николо
николов
николова
николовски
никопол
никос
никоя
никсън
никъде
никълъс
нил
нилс
ним
нима
нин
нина
нинджа
нино
ниска
ниската
ниски
ниските
ниския
ниско
ниското
нисък
нито
ниуе
ница
ницше
ниш
ниша
ниши
нишка
нишки
нищо
ния
нк
нквд
нло
но
нобелов
нобелова
нобеловата
нов
нова
новак
новара
новата
новгород
новела
новелата
новели
нови
новина
новинар
новинарски
новината
новини
новините
новите
новия
новият
новм
ново
нововъведения
новосибирск
новости
новосформираната
новосъздадената
новосъздадения
новото
ноември
нож
ножове
нои
ноибург
ноиенар
ноиенщаин
ноиман
нокти
ноктите
ном
номенклатура
номер
номера
номинално
номинации
номинация
номинира
номиниран
номинирана
номинирани
нора
норвегия
норвежката
норвежки
норвежкия
норд
норма
нормален
нормална
нормалната
нормални
нормалните
нормално
нормалното
норман
нормандия
норманите
нормативни
норми
нормите
норт
норфолк
нос
носа
носели
носене
носенето
носещ
носеща
носещи
носи
носии
носил
носител
носители
носителите
носителка
носителя
носителят
носия
носовата
носовия
носът
носят
нота
ноти
нотингам
ноу
нощ
нощем
нощен
нощи
нощна
нощни
нощните
нощно
нощта
нрави
нрб
нс
нса
нсдап
нси
ну
нужда
нуждае
нуждата
нуждаят
нужди
нуждите
нужен
нужна
нужни
нужните
нужно
нула
нур
ньоиския
ню
нюанси
нюз
нюиоркския
нюкасъл
нюпорт
нюрнберг
нютон
нютън
нюфаундленд
някак
някаква
някакви
някакво
някакъв
някога
някого
някое
някои
няколко
няколкостотин
няколкото
някоя
някъде
ням
няма
нямало
нямам
нямаме
нямат
нямаш
нямаше
о
оае
об
обади
обажда
обама
обаче
обвивка
обвинен
обвинени
обвинение
обвинението
обвинения
обвиненията
обвинява
обвиняват
обграден
обградена
обед
обединен
обединена
обединената
обединени
обединение
обединението
обединените
обединения
обединено
обединеното
обедини
обединява
обединяване
обединяването
обединяват
обединят
обезщетение
обект
обекта
обекти
обектите
обектно
обектът
обем
обема
обемът
обер
оберщаин
обесен
обещава
обещание
обещанието
обещания
обжалване
обзор
обида
обикаля
обикалят
обикновен
обикновена
обикновената
обикновени
обикновените
обикновения
обикновено
обиколка
обиколката
обиколки
обилно
обитава
обитавали
обитаван
обитавани
обитават
обитаващи
обитатели
обитателите
обител
обич
обича
обичаи
обичаината
обичаините
обичаино
обичаиното
обичаите
обичал
обичам
обичат
обичаш
обичая
обкръжение
обкръжението
обл
облагане
облак
област
областен
области
областите
областна
областната
областни
областните
областния
областно
областта
область
облаци
облаците
облекла
облекло
облеклото
облекчаване
облечен
облечена
облечени
облигации
облик
облика
облича
обложката
обмен
обмисля
обмяна
обмяната
обн
обнародван
обновен
обновена
обновление
обновяване
обобщава
обобщен
обогатява
обозначава
обозначаване
обозначават
обозначение
обозначението
оборище
оборот
оборудван
оборудвана
оборудване
оборудването
оборудвани
обособен
обособена
обособени
обособява
обособяват
обработва
обработваема
обработваеми
обработване
обработват
обработени
обработка
обработката
образ
образа
образец
образи
образите
образна
образован
образование
образованието
образованиям
образователен
образователна
образователната
образователни
образователно
образува
образуваики
образували
образуван
образувана
образуване
образуването
образувани
образувание
образувания
образувано
образуват
образуващи
образци
образът
обрасли
обрат
обратен
обратна
обратната
обратния
обратно
обратното
обращение
обред
обреди
обретенов
обръща
обръщат
обръщение
обсада
обсадата
обсаден
обсажда
обсаждат
обсег
обсерватория
обсерваторията
обсидиан
обслужва
обслужване
обслужват
обстановка
обстановката
обстоятелства
обстоятелствата
обстоятелство
обстрел
обстрелва
обсъжда
обсъждане
обсъждат
обувка
обувки
обувките
обуславя
обучава
обучават
обучени
обучение
обучението
обхват
обхвата
обхваща
обхващат
обхващащ
обхващаща
обширен
обширна
обширната
обширни
обширните
обширно
общ
обща
общата
общества
обществен
обществена
обществената
обществени
общественик
обществените
общественици
общественичка
обществения
обществено
общественост
обществеността
общественото
общество
обществото
общи
община
общината
общини
общините
общинска
общинската
общински
общинските
общинския
общинският
общинско
общите
общия
общият
общност
общности
общността
общо
общомедия
общото
общуване
объркване
обърна
обърнат
обърната
обърнати
обърне
обявен
обявена
обявени
обявено
обяви
обявява
обявяване
обявяването
обявяват
обяд
обяснение
обяснението
обяснения
обясни
обяснява
обясняват
ов
овална
овен
оверн
овес
овидии
овладее
овладява
овладяване
овладяването
овощни
овца
овце
овцете
овча
овчар
овчари
овчаров
овче
оглави
оглавява
оглед
огледала
огледало
огледалото
огнева
огнен
огнена
огнестрелно
огнища
огнище
огнян
огнянов
огоста
ограда
ограден
ограничава
ограничаване
ограничават
ограничен
ограничена
ограничени
ограничение
ограничения
ограниченията
ограничено
ограничи
огромен
огромна
огромната
огромни
огромните
огромния
огромно
огромното
огън
огъня
огънят
огюст
од
ода
одер
одеса
одеска
один
одисеи
одисея
одо
одобрен
одобрена
одобрени
одобрение
одобрението
одобрява
одобряват
одрин
одринска
одринската
одрински
одринския
одринско
одринското
оелс
оженва
ожени
оженил
ожесточени
оз
озаглавен
озаглавена
озаглавено
озвучава
озвучаване
озвучават
озвучен
ози
означава
означаване
означават
означаваща
означаващо
означение
озовава
ои
оиген
оилер
ок
ока
окажат
окаже
оказа
оказал
оказали
оказва
оказване
оказват
окачване
океан
океана
океани
океаните
океания
океански
окинава
окисление
оклахома
око
околии
околииски
околииския
околия
околията
околна
околната
околните
околния
околностите
околността
около
околоземна
окончание
окончания
окончателния
окончателно
окончателното
окото
окраска
окръг
окръга
окръгът
окръжен
окръжна
окръжни
окръжния
окръжност
окръзи
окръзите
оксид
оксиди
оксфорд
оксфордския
окт
октавиан
октавии
октавия
октомври
октомврииската
окупационни
окупация
окупацията
окупира
окупиран
окупирана
окупираните
окупирано
окупират
олаф
олга
олд
олденбург
олег
оливер
оливети
оливие
оливин
оливия
оливър
олимп
олимпиада
олимпиадата
олимпиади
олимпиакос
олимпииска
олимпииски
олимпииските
олимпииския
олимпик
олимпия
олио
олово
олтар
олтара
олтарната
олтарът
ом
оман
омар
омир
омраза
омразата
омуртаг
омъжва
омъжена
омъжи
он
она
онази
онд
онези
онзи
они
ония
онлаин
оно
онова
онс
онтарио
оня
оод
оон
оп
опазване
опазването
опасен
опасения
опасна
опасни
опасните
опасно
опасност
опасности
опасността
опасяваики
опашка
опашката
опашки
опекунството
опел
опера
операта
оперативен
оперативна
оперативната
оперативни
оперативно
оперативното
оператор
оператора
оператори
операции
операциите
операционна
операционната
операционни
операция
операцията
оперен
оперение
опери
оперира
оперна
оперни
опира
опис
описан
описана
описани
описание
описанието
описания
описано
описва
описван
описват
опит
опита
опитал
опитат
опитва
опитваики
опитват
опитен
опити
опитите
опитни
опитът
опише
оплаква
оплаквания
опозиция
опозицията
опонент
опоненти
опора
оправдава
оправдан
определен
определена
определени
определение
определението
определените
определения
определено
определи
определя
определян
определяна
определяне
определянето
определяни
определят
опростен
оптика
оптични
опус
опция
општина
општински
опълченец
опълчение
опълченска
опълченци
ор
оран
оранжево
орански
оратор
орбел
орбита
орбитален
орбиталната
орбитата
орган
органа
органи
организатор
организатори
организаторите
организации
организациите
организационен
организационна
организационни
организационно
организация
организацията
организира
организиран
организирана
организираната
организиране
организирането
организирани
организирано
организират
организма
организми
организмите
организъм
органите
органична
органични
органът
орда
орден
ордена
ордени
орденът
орегон
орел
орест
орех
орехи
оригинал
оригинала
оригинален
оригинална
оригиналната
оригинални
оригиналните
оригиналния
оригиналният
оригинално
оригиналното
ориенталски
ориентация
ориентира
ориентиран
ориентирана
ориентирани
ориз
ориндж
орион
оркестри
оркестър
оркестъра
орламюнде
орландо
орлеан
орлеански
орли
орлин
орлиънс
орлов
орнаменти
орсини
ортенбург
ортън
оруел
орфеи
орхан
оръдие
оръдието
оръдия
оръдията
оръжие
оръжието
оръжия
оръжията
оряховица
оряхово
ос
осака
освалд
освен
осветен
осветена
осветление
осветлението
освободен
освободена
освободени
освободено
освободи
освободител
освободителна
освободителната
освободителните
освободителнитѣ
освободително
освободителното
освободят
освобождава
освобождаване
освобождаването
освобождават
освобождение
освобождението
осем
осемдесет
осемнадесет
осемте
осетия
оси
осигурени
осигури
осигурява
осигуряване
осигуряването
осигуряват
осигурят
осиновен
осиновява
оскар
оскъдни
осло
осма
осман
османска
османската
османски
османските
османския
османско
османското
османците
осмата
осми
осминафинал
осмия
осмият
осмо
оснабрюк
основа
основава
основаване
основаването
основават
основан
основана
основани
основание
основания
основано
основата
основател
основатели
основателите
основателя
основателят
основе
основен
основи
основите
основна
основната
основни
основните
основния
основният
основно
основното
основоположник
основоположниците
особен
особена
особени
особено
особеност
особености
особеностите
осогово
оспорва
оспорват
оссе
оста
остава
оставаики
остават
оставен
оставена
оставени
остави
оставил
оставили
оставка
оставката
оставя
оставяики
оставят
остана
останал
останала
останалата
останали
останалите
останалия
останало
останалото
останат
остане
останки
останките
остарели
остатък
остатъка
остатъци
остатъците
остготите
остин
остра
остри
острието
остро
остров
острова
острови
островите
островски
островът
остър
осъден
осъдена
осъдени
осъжда
осъзнава
осъзнаваики
осъзнават
осъм
осъществен
осъществена
осъществени
осъществено
осъществи
осъществява
осъществяване
осъществяването
осъществяват
от
отава
отбележи
отбеляза
отбелязал
отбелязан
отбелязана
отбелязани
отбелязано
отбелязва
отбелязваики
отбелязване
отбелязват
отбива
отблизо
отблъсква
отблъскват
отблъснати
отбор
отбора
отборен
отбори
отборите
отборни
отборните
отборно
отборът
отбрана
отбраната
отбранителна
отбранителни
отваря
отваряне
отварянето
отварят
отведен
отвежда
отвеждат
отвесни
отвлечен
отвлича
отвличане
отвличането
отводнява
отвор
отвора
отворен
отворена
отворени
отворено
отвори
отворите
отвръща
отвсякъде
отвъд
отвън
отвътре
отгледан
отглежда
отглеждане
отглеждането
отглеждани
отглеждат
отговаря
отговарят
отговарящ
отговор
отговора
отговорен
отговори
отговорна
отговорни
отговорност
отговорността
отговорът
отгоре
отдава
отдават
отдавна
отдаде
отдаден
отдалечава
отдалечен
отдалечени
отдалечено
отдел
отдела
отделен
отделена
отделени
отделение
отделението
отделения
отделено
отдели
отделна
отделни
отделните
отделно
отделя
отделяне
отделянето
отделят
отдих
отдолу
отдясно
отело
отец
отечествен
отечествена
отечествената
отечествения
отечество
отечеството
отзад
отзвук
отзиви
оти
отива
отиват
отидат
отиде
отишъл
откажат
откаже
отказ
отказа
отказал
отказва
отказване
отказването
отказват
отказът
откакто
отклонение
отклонения
отклонява
отколкото
откраднат
откраднати
открива
откриване
откриването
откриват
откривател
открие
открил
открили
открит
открита
откритата
открити
откритие
откритието
откритите
открития
откритията
открито
откритото
откриха
открият
откровение
откроява
открояват
открытии
открытия
откуп
откъде
откъдето
откъм
откъс
откъсва
откъси
отлага
отлагане
отличава
отличават
отличен
отличена
отличие
отличието
отличителен
отличителна
отличителни
отличия
отлична
отлични
отлично
отломки
отляво
отм
отменен
отменена
отменени
отменено
отмени
отменя
отмъсти
отмъщение
отмъщението
отмяна
отмяната
отнася
отнасят
отнасящи
отначало
отнема
отнемане
отнемат
отнеме
отнесе
отнесени
отнети
отново
относителна
относителната
относително
относителността
относно
отношение
отношението
отношения
отношенията
ото
отокар
отон
отопление
отпада
отпадане
отпадат
отпаднал
отпадъци
отпечатана
отпечатани
отпечатва
отпечатък
отпечатъци
отплава
отпор
отправна
отправя
отправят
отпред
отпреди
отпуск
отпуска
отравяне
отражение
отразено
отразява
отразяване
отразяват
отразяваща
отрасли
отрасъл
отрежда
отрицателен
отрицателна
отрицателни
отрицателните
отрицателно
отрича
отричат
отрова
отровата
отровен
отровни
отряд
отряда
отряди
отрядът
отсек
отсека
отсечка
отслабва
отслабване
отстои
отстоява
отстранен
отстранени
отстрани
отстранява
отстраняване
отстраняването
отстраняват
отстъпва
отстъпват
отстъпи
отстъпки
отстъпление
отстъплението
отстъпят
отсъства
отсъствие
отсъствието
оттам
оттегли
оттегля
оттегляне
оттеглянето
оттеглят
оттенък
оттогава
отток
оттук
отхвърлен
отхвърлена
отхвърлени
отхвърлено
отхвърли
отхвърля
отхвърляне
отхвърлят
отца
отците
отчасти
отчаяние
отчет
отчети
отчита
отчитане
отчитат
отъ
оу
оуен
оуенс
оупън
оф
офанзива
офанзивата
офг
офенбах
оферта
офис
офиса
офиси
офицер
офицера
офицери
офицерите
офицерски
офицерският
офицерско
официален
официална
официалната
официални
официалните
официалния
официалният
официално
официалното
оформен
оформена
оформени
оформление
оформя
оформяне
оформянето
оформят
ох
охаио
охлаждане
охлюв
охлюви
охотско
охрана
охраната
охранява
охрид
охридска
охридската
охридски
охридско
охридското
оцветени
оцветяване
оцелее
оцелели
оцелелите
оцелява
оцеляване
оцеляването
оцеляват
оцелял
оцеляла
оценен
оценена
оценени
оценка
оценката
оценки
оценките
оценява
оценяване
оценяват
оцет
очаква
очакване
очаквания
очакванията
очакват
очевидно
очерк
очерки
очеркъ
очертава
очерци
очи
очила
очите
още
п
па
пабло
павел
павзании
павилион
павия
павле
павликени
павлина
павлов
павлова
павлович
павлос
пада
падане
падането
падат
падеж
падение
падерборн
падина
падна
паднал
паднали
падналите
падне
падуа
пазар
пазара
пазарджик
пазарен
пазари
пазарите
пазарна
пазач
пази
пазител
пазят
паинер
паисии
пак
пакет
пакета
пакети
пакистан
пакт
пакта
паланка
палас
палат
палата
палау
палацо
палеолог
палеологина
палермо
палестина
пали
палма
палми
палмър
палуба
палубата
палуби
памела
памет
паметна
паметник
паметника
паметникът
паметници
паметниците
паметта
памир
памук
пан
панагюрище
панаиот
панаиотис
панаиотов
панаиотова
панаир
панама
пандемията
пандо
панел
панели
паника
паница
пано
панов
панова
панония
панорама
пансион
пантелеи
пантелеимон
пантеон
панчарево
панчев
панчо
паола
паоло
папа
папазов
папата
папенхаим
папи
папирии
папската
папски
папския
папуа
пара
парагваи
параграф
парад
парадигма
парадокс
паразити
параклис
параклиса
параклисът
паралел
паралелки
паралелни
паралелно
параметри
параметрите
параметър
парана
параскева
парата
параход
пари
париж
парижката
парижки
парижкия
парижкото
парис
парите
парична
паричната
парични
парк
парка
паркинг
паркове
паркс
паркър
паркът
парламент
парламента
парламентарна
парламентарната
парламентарни
парламентарните
парламентът
парма
парна
парни
пародия
парохија
партении
парти
партиен
партизан
партизани
партизанин
партизаните
партизанска
партизански
партизанското
партиздат
партии
партиина
партиината
партиини
партиите
партия
партията
партнира
партньор
партньора
партньори
партньорство
парцел
парче
парчевич
парчета
парчето
пас
пасау
пасища
паскал
паскалевъ
паспорт
паста
пастор
пат
патент
патента
патенти
патерсън
пати
патица
патрезе
патриарх
патриарха
патриаршеския
патриаршисти
патриаршистки
патриаршия
патриаршията
патрик
патримониум
патриот
патриоти
патриотизъм
патриотична
патрисия
патриции
патриша
патрон
патрона
патрони
патрул
патън
патянин
пауза
паул
паула
паулина
пауло
паунда
пауъл
пауър
пафос
пациент
пациента
пациенти
пациентите
пациентът
паче
паша
пашата
паяк
паяци
пб
пво
пд
пе
певец
певеца
певецът
певица
певицата
певци
педагог
педагогика
педагогическа
педагогически
педагогическо
педро
пее
пеев
пеене
пежо
пезаро
пеи
пеидж
пеизаж
пеизажа
пеизажи
пеин
пеио
пеичев
пекин
пелагонииската
пеле
пелин
пеловски
пелопонес
пелтеков
пен
пенев
пени
пенка
пенсакола
пенсии
пенсилвания
пенсионира
пенсионирането
пенсия
пенчев
пенчо
пепел
пепеляшка
пеперуда
пеперуди
пер
пера
пере
перепись
перес
пери
перигеи
период
периода
периоди
периодите
периодичен
периодическо
периодичната
периодични
периодично
периодът
периферия
периферията
перкусии
перла
перли
пермски
перник
перо
перон
перото
персеи
персииска
персииската
персииски
персииските
персииския
персите
персия
персонаж
персонажа
персонажи
персонажите
персонал
персонала
персонални
перспектива
перспективата
перспективи
перу
перуджа
перущица
перфектно
песен
песенен
песенния
песента
песни
песните
пет
пета
петата
петдесет
петер
петербург
петербургъ
петерсон
пети
петима
петимата
петиция
петия
петият
петка
петко
петков
петкова
петна
петнадесет
петно
пето
петото
петра
петре
петрич
петров
петрова
петрович
петровски
петроград
петрол
петролни
петронии
петте
петък
петър
петя
пехота
пехотата
пехотен
пехотинци
пехотна
пехотни
печ
печалба
печалбата
печалби
печат
печата
печати
печатна
печатни
печатница
печатницата
печелеики
печели
печелил
печелят
пеша
пешев
пещ
пещера
пещерата
пещери
пещерите
пещи
пеят
пи
пианист
пиано
пианото
пиаченца
пиво
пивоварна
пивоварната
пивоварни
пие
пиемонт
пиемонтски
пиене
пиер
пиеро
пиеса
пиесата
пиеси
пиесите
пиетро
пиза
пизон
пии
пиит
пик
пика
пикасо
пикет
пикчърс
пиле
пилот
пилота
пилоти
пилотиран
пилотите
пилотът
пинд
пинин
пинк
пионер
пионерите
пипер
пипин
пипков
пир
пирамида
пирамидата
пирамиди
пирати
пиратите
пирдоп
пиренеите
пирея
пирин
пиринска
пирински
пиринско
пирмонт
пирот
писал
писана
писане
писането
писани
писание
писания
писано
писар
писаро
писател
писатели
писателите
писателка
писателката
писателската
писателя
писателят
писма
писмата
писмен
писмена
писмени
писмено
писменост
писмеността
писмо
писмото
писта
пистата
писти
пистолет
пит
пита
питеина
питсбърг
питър
пица
пиша
пишат
пише
пиърс
пия
пиян
пият
пк
пл
плава
плаване
плаването
плават
плавателен
плавателна
плавателни
плаващ
плаваща
плаващи
плавно
плавции
пладне
плаж
плажа
плажове
плазма
плазмата
плакат
плакати
пламен
пламък
пламъци
план
плана
планета
планетата
планети
планетите
планина
планината
планини
планините
планинска
планинската
планински
планинските
планинския
планинско
планира
планиран
планирана
планиране
планирането
планирани
планирано
планират
планк
планове
плановете
планови
плант
плантации
планът
пласт
пластика
пластмаса
пластмасови
пластове
плат
плата
платен
платени
плати
платинен
платна
платно
платното
плато
платове
платон
платото
платформа
платформата
платформи
плауен
плач
плаче
плаща
плащане
плащането
плащания
плащат
плебеиската
плевен
плевенска
плевнелиев
плеиофите
плеит
племе
племена
племената
племенни
племенник
племенника
племенникът
племенница
племенницата
племето
плен
пленен
пленени
пленници
пленум
пленява
плинии
плиска
плитка
плитки
пловдив
пловдивска
пловдивската
пловдивски
пловдивските
пловдивския
пловдивско
пловдивското
плод
плода
плодове
плодовете
плодородието
плодородна
плодородни
плодът
плоска
плоски
плоско
плоскост
плосък
плоча
плочата
плочи
плочите
плочка
плочки
площ
площад
площада
площади
площадка
площадки
площадът
площи
площта
плува
плуване
плутарх
плутон
плът
плътен
плътна
плътни
плътно
плътност
плътността
плъхове
плюс
плячка
плячката
пневмония
по
поатие
победа
победата
победен
победена
победени
победи
победите
победител
победители
победителите
победителя
победителят
победоносец
победят
побеждава
побеждаваики
побеждават
повдига
поведе
поведение
поведението
повежда
поверена
поверено
поверява
повест
повести
повестта
повече
повечето
повикан
повинност
повишава
повишаване
повишаването
повишават
повишен
повишена
повишение
повишено
повиши
повлиява
повлиян
повлияна
повлияни
повод
повреда
повреден
повредена
повредени
повреди
повръщане
повсеместно
повтаря
повтарят
повтарящи
повторение
повторения
повтори
повторно
повторното
повърхност
повърхности
повърхностно
повърхността
повярва
поглед
погледа
погледна
погледнато
поглъща
поглъщане
погребални
погребан
погребана
погребани
погребение
погребението
погребения
погребите
погрешно
под
пода
подава
подаване
подаването
подават
подаде
поданици
поданиците
подарък
подаръци
подарява
подаци
подбор
подбрани
подвиг
подвид
подвида
подвидове
подвижен
подвижна
подвижни
подводен
подводна
подводната
подводни
подводните
подводница
подводницата
подводници
подводниците
подгорица
подготвен
подготвени
подготви
подготвя
подготвят
подготовка
подготовката
подгрупа
поддръжка
поддръжката
поддръжник
поддръжници
поддръжниците
поддържа
поддържан
поддържана
поддържане
поддържането
поддържани
поддържат
поддържащ
поддържаща
поддържащи
поделение
поделя
поделят
подем
подзаглавие
подземен
подземни
подземните
подземния
подир
подиума
подклас
подкрепа
подкрепата
подкрепен
подкрепена
подкрепени
подкрепи
подкрепления
подкрепя
подкрепят
подлага
подлагат
подлежат
подлежи
подложен
подложена
подложени
подновен
подновява
подножие
подножието
подобен
подобие
подобна
подобни
подобно
подобрен
подобрена
подобрени
подобрение
подобрения
подобри
подобрява
подобряване
подобряването
подобряват
подобрят
подозира
подозрение
подофицер
подпис
подписа
подписал
подписали
подписан
подписана
подписани
подписано
подписва
подписване
подписването
подписват
подпише
подполковник
подпомага
подпомагане
подпомагат
подпомогнат
подпомогне
подпоручик
подправки
подпредседател
подразбиране
подразделение
подразделения
подразред
подред
подредба
подредени
подреждане
подробен
подробна
подробни
подробно
подробности
подселище
подсемеиство
подсказва
подслон
подтиква
подход
подхода
подходи
подходящ
подходяща
подходящи
подходящо
подхранване
подхранването
подчертава
подчертават
подчертае
подчертано
подчинен
подчинена
подчинени
подчинение
подчинените
подчинено
подчини
подчинява
подчиняват
подът
подялба
поединично
поезия
поезията
поема
поемат
поемата
поеме
поеми
поет
поета
поетеса
поетесата
поети
поетика
поетите
поетичен
поетически
поетични
поетът
пожар
пожара
пожари
пожарна
поза
позволено
позволи
позволява
позволяваики
позволяват
позволяващ
позволяващи
позволят
поздрав
позиции
позициите
позиция
позицията
познава
познавам
познават
познан
познание
познанието
познания
познат
позната
познати
познатите
познато
позовава
позоваваики
поинт
поиска
поискал
поискан
покажат
покаже
показа
показан
показана
показани
показания
показано
показател
показатели
показва
показване
показват
покана
поканата
поканен
поканена
поканени
покани
покачва
покер
поклонение
поклонници
покои
покоиния
поколение
поколението
поколения
поколенията
покорява
покраи
покраинини
покраинините
покрив
покрива
покриват
покриви
покривка
покривът
покрие
покрит
покрита
покрити
покритие
покрития
покрито
покров
покровител
покровителка
покровителството
покръстването
покупка
покушение
пол
пола
полага
полагане
полагат
поле
полеви
полегати
полезен
полезна
полезни
полезно
полет
полета
полетата
полети
полетите
полето
полетът
полза
ползата
ползва
ползване
ползването
ползвани
ползват
ползи
поли
полибии
полигон
полиграфия
поликарп
поликсена
полина
полинезия
политбюро
полите
политехника
политик
политика
политиката
политики
политико
политици
политиците
политическа
политическата
политически
политическите
политическия
политическият
политическо
политическото
политология
полицаи
полицеиска
полицеиски
полицеиските
полицеиско
полиция
полицията
полк
полка
полкове
полковник
полкът
поло
полов
полова
половата
половете
полови
половин
половина
половината
половите
полово
полог
положен
положени
положение
положението
положения
положителен
положителна
положителни
положително
полска
полската
полски
полските
полския
полският
полско
полското
полу
полубрат
полувреме
полузащитник
полукръгла
полукълбо
полумесец
полунощ
полуостров
полуострова
полуострови
полусезон
полусестра
полуфинал
полуфинала
полуфиналите
получава
получаваики
получаване
получаването
получават
получат
получен
получена
получената
получени
получените
получено
получи
получил
получила
получили
получило
полша
полюс
поля
поляна
поляни
полярен
полярна
полярни
полярните
поляци
поляците
пом
помага
помагала
помагат
помаци
помаците
помежду
померания
поместени
помещава
помещават
помещение
помещението
помещения
помещенията
поминък
помирение
помисли
помни
помогнат
помогне
помогнете
поморавието
поморие
помощ
помощи
помощни
помощник
помощници
помощта
помпа
помпеи
помпи
помпилииски
помпонии
понастоящем
понася
понасят
поне
понеделник
понеже
понижава
понижение
понт
понтииски
понякога
понятие
понятието
понятия
понятията
поотделно
поп
попа
попада
попадат
попадение
попадения
попаднали
попадне
попдимитров
попиванов
попис
попита
попо
попов
попова
попович
попово
поповски
поппетров
поправка
поправки
попречи
поприще
популации
популациите
популация
популацията
популярен
популяризира
популяризиране
популяризирането
популярна
популярната
популярни
популярните
популярния
популярният
популярно
популярност
популярността
популярното
попфолк
попхристов
попълните
поради
поражда
пораждат
поражение
поражението
поражения
поразява
поразяване
поред
пореден
поредица
поредицата
поредици
поредна
поредната
поредни
поредния
поредното
поречието
порно
порнографска
порнографската
порнографски
порода
породата
породени
породи
порои
пороини
порт
порта
портал
портала
портата
порти
портите
портланд
порто
портрет
портрета
портрети
портретите
портретът
португалия
португалска
португалската
португалски
португалския
португалците
портър
поручик
порции
поръчани
поръчва
поръчка
поръчката
поръчки
порядък
порядъка
посветен
посветена
посветени
посветено
посвети
посвещава
посвещение
посеидон
посетен
посетена
посетено
посети
посетил
посетители
посетителите
посещава
посещаван
посещават
посещаемост
посещение
посещението
посещения
послание
посланието
посланик
посланици
послания
после
последва
последвалата
последвалите
последвалия
последвалото
последван
последвана
последвани
последвано
последват
последващи
последващите
последващо
последен
последица
последици
последиците
последна
последната
последни
последните
последния
последният
последно
последното
последовател
последователи
последователите
последователни
последователно
последователност
последствие
последствия
последствията
пословица
посмъртно
посока
посоката
посоки
посолство
посолството
посочва
посочват
посочен
посочена
посочени
посочените
посочено
посочи
посредник
посредничеството
посредством
посреща
посрещане
посрещат
посрещнат
посрещнати
пост
поста
поставен
поставена
поставени
поставените
поставено
постави
поставил
поставя
поставяики
поставяне
поставянето
поставяни
поставят
постановка
постановката
постановки
постановление
постановява
постепенно
постепенното
постига
постигане
постигането
постигат
постигнал
постигнат
постигната
постигнати
постигнато
постигне
постижение
постижения
постиженията
постове
постовете
постоянен
постоянна
постоянната
постоянни
постоянните
постоянния
постоянно
постоянното
пострадали
пострадалите
пострадва
построен
построена
построени
построено
построи
построика
построиката
построики
построил
построява
построяване
построяването
построяват
построят
постумии
постъпва
постъпват
постъпи
постъпка
постъпки
постъпления
пот
потвърдена
потвърдени
потвърдено
потвърди
потвърждава
потвърждават
потвърждение
потегля
потекло
потенциал
потенциала
потенциална
потенциални
потенциално
поток
потока
потокът
потомство
потомци
потомците
потомък
потопен
потопени
потоци
потребител
потребители
потребителите
потребителски
потребителя
потребителят
потребление
потребности
потсдам
потушава
потушаване
потушаването
потушено
потъва
потър
потърси
похвала
похвали
поход
похода
походи
походите
походът
почва
почвата
почви
почвите
почести
почетен
почетна
почетни
почетния
почетно
почетното
почива
почиват
почивка
почина
починал
починала
починали
починалия
почистване
почит
почита
почитан
почитат
почитател
почитатели
почти
поща
пощата
пощенска
пощенски
пощенските
пощенският
пощи
поява
появата
появи
появил
появила
появили
появява
появяват
появят
пояс
пояса
пояси
пояснение
пояснителната
пп
пр
пра
прабългари
прабългарите
прабългарски
прав
права
правата
правда
правеики
правен
правене
правени
правец
прави
правил
правила
правилата
правилен
правилна
правилната
правилни
правилник
правилника
правилно
правилното
правило
правилото
правим
правите
правителства
правителствата
правителствен
правителствена
правителствената
правителствени
правителствените
правителство
правителството
правиш
правна
правната
правни
правните
правния
правно
правнук
право
правомощия
правомощията
правоотношение
правопис
православен
православие
православието
православна
православната
православни
православните
православния
православно
правоспособност
правосъдие
правосъдието
правото
правоъгълен
правоъгълна
правоъгълни
правя
правят
праг
прага
прагове
прадеш
прадядо
празен
празна
празни
празник
празника
празникът
празници
празниците
празнува
празнуват
праис
праисторически
практика
практиката
практики
практикува
практикуват
практическа
практически
практическо
прародител
прасета
праслав
пратен
пратеник
пратеници
прати
прах
праща
пре
пребивава
пребиваване
пребиваването
преброяване
преброяването
преброявания
преброяванията
прев
преведе
преведен
преведена
преведени
преведено
превежда
превенция
превзема
превземане
превземането
превземат
превземе
превзет
превзета
превишава
превод
превода
преводач
преводачи
преводачка
преводи
преводите
преводът
превоз
превозва
превози
превозни
превозно
превозното
преврат
преврата
превръща
превръщаики
превръщане
превръщането
превръщат
превъзходство
превъзходството
превъзхожда
превърна
превърнал
превърнала
превърнали
превърнат
превърната
превърнати
превърне
преглед
прегледи
преговаря
преговори
преговорите
преграда
прегради
пред
предава
предаване
предаването
предавания
предават
предадат
предаде
предаден
предадена
предадени
предадено
предал
предание
преданието
предания
преданията
предател
предателство
предателството
предбалкан
предбалкана
предварителен
предварителна
предварителни
предварителните
предварително
предвид
предвиден
предвидена
предвидени
предвидените
предвидено
предвижда
предвиждат
предводител
предвождани
предговор
предговора
предградие
предградията
предел
предели
пределите
преден
преди
предизвика
предизвикана
предизвикани
предизвикано
предизвикат
предизвикателства
предизвикателство
предизвикателството
предизвиква
предизвикват
предимно
предимства
предимствата
предимство
предимството
предишен
предишна
предишната
предишни
предишните
предишния
предишното
предлага
предлагането
предлагат
предлог
предложен
предложена
предложени
предложение
предложението
предложения
предложенията
предложено
предложи
предложил
предмет
предмета
предмети
предметите
предна
предназначен
предназначена
предназначени
предназначение
предназначението
предназначено
предната
предни
преднина
предните
предния
предно
предното
предоставен
предоставена
предоставени
предостави
предоставя
предоставяне
предоставянето
предоставят
предотврати
предотвратява
предотвратяване
предотвратят
предпазва
предпазване
предпази
предполага
предполагат
предположение
предположението
предположения
предположи
предпоставка
предпоставки
предпочита
предпочитания
предпочитат
предприема
предприемат
предприемач
предприемачи
предприеме
предприети
предприятие
предприятието
предприятия
предприятията
предразсъдъци
председател
председатели
председателите
председателства
председателството
председателя
председателят
предсрочно
представа
представата
представен
представена
представени
представено
представи
представите
представител
представителен
представители
представителите
представителна
представителни
представителния
представителният
представителства
представителство
представление
представлението
представления
представлява
представляват
представляващ
представляваща
представляващи
представя
представяики
представяне
представянето
представят
предстои
предстоящата
предстоящия
предтеча
предупреждава
предупреждение
предходната
предходните
предходния
предци
предците
предшественик
предшественика
предшественици
предшествениците
преждевременно
преживява
преживяване
преживявания
преживяванията
през
презареждане
презвитер
президент
президента
президенти
президентите
президентска
президентската
президентски
президентските
президентския
президентството
президентът
президиума
презъ
преизбран
преиздаден
преименува
преименуван
преименувана
преименувано
преимущество
прекалено
прекара
прекарал
прекарани
прекарва
прекарват
преки
преките
прекосява
прекрасен
прекрасна
прекрасни
прекрасно
прекратен
прекратена
прекратени
прекратено
прекрати
прекратява
прекратяване
прекратяването
прекратяват
прекръстено
прекъсва
прекъсване
прекъсвания
прекъснат
прекъсната
прекъснати
прекъсне
прелюдия
премахва
премахване
премахването
премахват
премахнат
премахната
премахнати
премахне
премества
преместване
преместването
преместват
преместен
преместена
преместени
преместено
премести
преместят
премиер
премиера
премиерата
премиерно
премиерът
премина
преминава
преминаваики
преминаване
преминаването
преминават
преминаващ
преминал
преминала
преминали
преминат
премине
премия
прен
пренасочва
пренася
пренасяне
пренасянето
пренасят
пренебрегва
пренесен
пренесена
пренесени
пренос
преносими
преобладава
преобладаване
преобладават
преобладаващата
преобладаващите
преобладаващо
преображение
преображенското
преобразува
преобразуван
преобразувана
преобразуване
преобразуването
преодолее
преодолява
преодоляване
преотстъпен
препарати
препис
преподава
преподаване
преподаването
преподават
преподавател
преподаватели
преподавателите
преподавателка
преподавателска
препоръка
препоръки
препоръчва
препоръчват
препратка
препратки
препятствие
препятствия
преработва
преработено
преработка
прераства
прес
преса
пресата
пресвета
преселва
преселват
преселение
преселили
преселници
пресече
пресечен
пресича
пресичане
пресичат
пресконференция
преслав
преслава
преславска
преславски
преследва
преследван
преследване
преследването
преследвани
преследвания
преследват
пресни
преспа
преспанско
престава
престиж
престижната
престижни
престижните
престижния
престижното
престои
престол
престола
престолонаследник
престолонаследника
престоя
престоява
престрелка
престън
престъпление
престъплението
престъпления
престъпленията
престъпна
престъпни
престъпник
престъпници
престъпност
престъпността
пресъздава
претекст
претендент
претенденти
претендира
претенции
претенциите
претор
преториански
претърпява
претърпяват
преустановява
преустроена
преустроиство
префект
префектура
прехвърлен
прехвърлена
прехвърлени
прехвърли
прехвърля
прехвърляне
прехвърлянето
прехвърлят
преход
прехода
преходен
преходи
преходни
преходно
преходът
прехраната
преценка
преценява
прецизно
пречат
пречи
пречистване
пречка
пречки
пречупване
при
прибавя
прибавят
прибере
прибира
прибират
приближава
приблизителна
приблизително
прибори
приватизация
привет
привидно
привилегии
привилегиите
привлече
привлечен
привлечени
привлича
привличане
привличането
привличат
привърженик
привърженици
привържениците
привързаност
приготвя
приготвяне
приготвянето
приготвят
придава
придават
придвижва
придвижване
придвижването
придвижват
придворен
придворна
придобива
придобиване
придобиването
придобиват
придобие
придобил
придобита
придобити
придружава
придружен
придружена
придружени
придържа
придържат
прие
приел
приели
прием
приема
приемаики
приемане
приемането
приемат
приеме
приемник
приемственост
приет
приета
приети
приетите
прието
приживе
приз
приза
приземния
приземява
приземяване
призив
признава
признаване
признаването
признават
признае
признак
признание
признанието
признат
призната
признати
признато
признаци
признаят
призовава
призовават
призован
призрак
призрен
приказка
приказката
приказки
приказките
приключва
приключване
приключването
приключват
приключение
приключения
приключенията
приключенски
приключи
прикрепени
прикрива
прикритие
прикритието
прил
прилага
прилагане
прилагането
прилагат
прилагателно
прилежащите
прилеп
прилепи
прилепска
прилепско
прилепското
приливите
прилика
прилики
прилича
приличат
приложен
приложени
приложение
приложението
приложения
приложенията
приложи
приложна
приложни
прима
пример
примера
примери
примерно
примеси
примирие
примирието
примитивни
приморски
приморско
принадлежат
принадлежащ
принадлежащи
принадлежи
принадлежност
принадлежността
принос
приноса
приноси
приносът
принс
принсипи
принстън
принт
принуден
принудена
принудени
принудено
принуди
принудително
принуждава
принуждават
принц
принца
принцеса
принцесата
принцип
принципа
принципи
принципите
принципно
принципът
принцове
принцът
приор
приоритет
приписва
приписват
прираст
природа
природата
природен
природна
природната
природни
природните
природния
природно
природонаучен
приск
пристанища
пристанищата
пристанище
пристанищен
пристанището
пристига
пристигаики
пристигане
пристигането
пристигат
пристигнал
пристигнали
пристъп
пристъпва
пристъпи
присъда
присъдата
присъдена
присъди
присъединен
присъединена
присъединени
присъединено
присъедини
присъединява
присъединяване
присъединяването
присъединяват
присъединят
присъжда
присъства
присъстват
присъстващите
присъствие
присъствието
притвор
притвора
притежава
притежавал
притежават
притежаващи
притежание
притежател
приток
притока
притоци
притоците
приход
приходи
приходите
прицел
причастие
причина
причината
причинена
причинени
причинено
причини
причините
причинява
причиняват
прищина
приятел
приятели
приятелите
приятелка
приятелката
приятелки
приятелски
приятелство
приятелството
приятеля
приятелят
приятен
приятно
про
проба
проби
пробив
пробива
пробиват
пробие
проблем
проблема
проблеми
проблемите
проблемът
пробуда
пробуждане
провадия
провал
провала
провали
проваля
провалят
прованс
проведат
проведе
проведен
проведена
проведени
проведените
проведено
провежда
провеждан
провеждане
провеждането
провеждани
провеждат
проверено
провери
проверка
проверката
проверки
проверява
провизии
провинциален
провинции
провинциите
провинция
провинцията
проводник
проводници
провокира
провъзгласен
провъзгласена
провъзгласява
прогимназия
прогнози
прогонва
прогонени
програма
програмата
програмен
програми
програмиране
програмирането
програмист
програмите
програмни
прогрес
прогреса
прогресив
продава
продавани
продаваните
продават
продавач
продаде
продаден
продадена
продадени
продажба
продажбата
продажби
продажбите
продан
проданов
продукт
продукта
продукти
продуктите
продукции
продукция
продукцията
продуцент
продуцента
продуценти
продуцентите
продуцентът
продуцира
продуциран
продуцирана
продуцирани
продуцирано
продължава
продължаваме
продължаване
продължават
продължат
продължение
продължението
продължения
продълженията
продължи
продължил
продължила
продължили
продължило
продължителен
продължителна
продължителни
продължително
продължителност
продължителността
проект
проекта
проекти
проектира
проектиран
проектирана
проектиране
проектирането
проектирани
проектите
проектът
проекция
проза
прозвището
прозорец
прозореца
прозорци
прозорците
прозрачност
произведе
произведен
произведена
произведени
произведение
произведението
произведения
произведенията
произвежда
произвеждан
произвеждани
произвеждат
производител
производители
производителите
производителност
производителността
производителя
производна
производни
производства
производствен
производствена
производствени
производствените
производство
производството
произволен
произволно
произлиза
произлизат
произнася
произношение
произношението
произтича
произход
произхода
произходът
произхожда
произхождат
прокарва
проклятието
проконсул
прокопии
прокуратура
прокуратурата
прокурор
пролет
пролетен
пролетно
пролетта
пролив
пролива
пролог
пролом
пролома
променен
променена
променени
променено
промени
промените
променлив
променлива
променливи
променя
променят
прометеи
промишлен
промишлена
промишлени
промишлено
промишленост
промишлеността
промо
промоция
промяна
промяната
прониква
проникване
проникват
пропаганда
пропагандата
пропада
проповеди
проповедник
проповядва
пропорции
пропорционална
пропорционално
пропуска
пророк
пророка
пророци
просвета
просветата
просветен
просветител
просветна
просветни
просветно
просветното
просвещение
просвещението
проследи
проследява
проследяване
прослушване
просперитет
прост
проста
прости
простира
простират
простите
просто
простота
пространства
пространство
пространството
просъществува
протежение
протежението
протеин
протеини
протекторат
протест
протеста
протестанти
протестантите
протестантската
протестантски
протести
протестират
протестиращи
протестиращите
протестите
против
противен
противник
противника
противници
противниците
противно
противовес
противовъздушна
противодеиствие
противоположни
противоположност
противопостави
противопоставя
противопоставяне
противопоставянето
противопоставят
противоречи
противоречиви
противоречие
противоречия
противоречията
противотанкови
протича
протичане
протичат
протогеров
проток
протока
протокол
протокола
протоколи
протосингел
прототип
прототипа
прототипи
проучва
проучване
проучването
проучвания
проучванията
проучени
проф
професии
професионален
професионалисти
професионална
професионалната
професионални
професионалните
професионалния
професионално
професионалното
професия
професията
професор
професора
професори
профил
профила
профили
проход
прохода
проходи
проходът
процедура
процедурата
процедури
процент
процента
проценти
процентът
процес
процеса
процеси
процесите
процесор
процесора
процесори
процесът
процъфтява
прочее
прочете
прочита
прочут
прочутата
прочути
прочутите
прочутия
прошка
прощава
проява
прояви
проявява
проявяват
прусия
пруска
пруската
пруски
пруския
пръв
пръст
пръста
пръстен
пръстена
пръстени
пръстените
пръсти
пръстите
пръчка
пръчки
пряк
пряка
пряко
прякор
прякора
прякото
прясна
прясно
прѣзъ
псв
псевдоним
псевдонима
псевдоними
псевдонимите
психиатрична
психиатрия
психиатър
психически
психични
психично
психоанализа
психоанализата
психоаналитик
психоаналитично
психолог
психологическа
психологически
психология
психологията
психотерапия
птица
птицата
птици
птиците
птичи
птолемеи
пу
публии
публика
публиката
публикации
публикациите
публикация
публикацията
публикува
публикувал
публикуван
публикувана
публикуване
публикуването
публикувани
публикувано
публикуват
публицист
публицистика
публичен
публична
публичната
публични
публичните
публичния
публично
публичното
пуерто
пукнатини
пулицър
пулия
пулхер
пуническа
пункт
пункта
пунктове
пуска
пускане
пускането
пускат
пусна
пуснат
пусната
пуснати
пусне
пустини
пустинна
пустинни
пустиня
пустинята
путин
пух
пучини
пушка
пушката
пушки
пушкин
пфалц
пфалцграф
пфалцграфиня
пфг
пфк
пчела
пчели
пчелите
пчински
пшеница
пък
пълен
пълководец
пълна
пълната
пълни
пълния
пълният
пълно
пълноводие
пълнометражен
пълномощен
пълномощия
пълномощията
пълномощник
пълноправен
пълното
пънк
първа
първанов
първата
първенец
първенства
първенство
първенството
първенци
първи
първите
първичен
първична
първичната
първични
първия
първият
първо
първокласен
първомаи
първоначален
първоначална
първоначалната
първоначалните
първоначалния
първоначалният
първоначално
първоначалното
първото
пързаляне
пърл
пърличев
пърпъл
пърси
път
пътеводител
пътека
пътеката
пътеки
пътен
пътепис
пътеписи
пътешественик
пътешественици
пътешествие
пътешествието
пътешествия
пъти
пътища
пътищата
пътна
пътната
пътни
пътник
пътните
пътници
пътниците
пътнически
пътно
пътува
пътуване
пътуването
пътувания
пътуванията
пътуват
пътуващ
пътуващи
пътя
пътят
пьотр
пьотър
пяна
пясък
пясъци
пясъчна
пясъчни
пясъчник
пясъчните
пясъчници
р
ра
работа
работата
работеики
работен
работещ
работеща
работещи
работещите
работи
работил
работила
работили
работилница
работилници
работите
работна
работната
работни
работник
работните
работници
работниците
работническа
работническата
работнически
работническо
работния
работно
работното
работя
работят
равен
равена
равенсберг
равенства
равенство
равенството
равин
равна
равни
равнина
равнината
равнинен
равнини
равнините
равнинна
равнище
равно
равновесие
равномерно
равнява
рада
радар
радара
радва
радват
радев
радева
радецки
ради
радиация
радикална
радикални
радикално
радио
радиоактивни
радиостанции
радиостанция
радиото
радиус
радичков
радка
радко
радков
раднево
радовиш
радовски
радоев
радомир
радослав
радославов
радост
радостта
ражда
раждаемост
раждане
раждането
раждат
разберат
разбере
разбива
разбиване
разбиват
разбира
разбирам
разбиране
разбирането
разбирания
разбират
разбирателство
разбит
разбита
разбити
разбоиници
разболява
разбра
разбрал
разбрах
развалини
развалините
разваля
развежда
развеждат
развива
развиване
развиването
развиват
развиващите
развие
развили
развит
развита
развити
развитие
развитието
развитите
развито
развият
развлечение
развод
развода
разг
разгара
разгледа
разглежда
разглеждане
разглеждани
разглеждат
разговаря
разговор
разговора
разговори
разговорите
разград
разграничава
разграничават
разграничение
разгром
разгрома
разгромява
разгръща
раздава
раздават
раздел
раздела
разделен
разделена
разделени
разделение
разделението
разделено
раздели
разделителна
разделя
разделяне
разделянето
разделят
раздяла
раздялата
разказ
разказа
разказва
разказват
разказвач
разкази
разказите
разказът
разклонение
разклонения
разкопки
разкопките
разкрива
разкриване
разкриването
разкриват
разкриващата
разкрие
разкрит
разкрита
разкрити
разкрито
разлика
разликата
разлики
разликите
различава
различават
различен
различия
различията
различна
различни
различните
различно
разлог
разложкото
размах
разменено
разменят
размер
размера
размери
размерите
размерът
размирици
размисли
размишления
размножава
размножаване
размножават
размножителния
размразява
размяна
разни
разновидност
разновидности
разногласия
разнообразен
разнообразие
разнообразието
разнообразна
разнообразни
разноски
разорението
разочарован
разочарование
разпад
разпада
разпадане
разпадането
разпадат
разписание
разпознава
разпознаване
разпознават
разполага
разполагане
разполагат
разположен
разположена
разположени
разположение
разположението
разположените
разположено
разпоредби
разпоредбите
разпорежда
разпореждане
разпределени
разпределение
разпределението
разпределя
разпределят
разпростира
разпространен
разпространена
разпространената
разпространени
разпространение
разпространението
разпространените
разпространеният
разпространено
разпространява
разпространяват
разпръснати
разпуска
разпуснат
разпятие
разработва
разработване
разработването
разработват
разработен
разработена
разработени
разработено
разработи
разработка
разработката
разработки
разработчици
разработчиците
разраства
разрастването
разред
разрез
разрешава
разрешаване
разрешаването
разрешен
разрешени
разрешение
разрешението
разрешено
разреши
разрушава
разрушаване
разрушаването
разрушават
разрушен
разрушена
разрушени
разрушения
разрушено
разруши
разрушител
разрушители
разрушителите
разрушителя
разсеиване
разследва
разследване
разследването
разследвания
разстояние
разстоянието
разстояния
разстрелян
разстроиства
разстроиство
разтваря
разтвор
разтвори
разузнаване
разузнаването
разузнавателен
разузнавателна
разузнавателни
разузнавателните
разузнавач
разум
разума
разумно
разформирован
разход
разходи
разходите
разходка
разходки
разцвет
разцвета
разчита
разчитат
разчленена
разчленени
разширен
разширена
разширени
разширение
разширението
разширения
разширено
разшири
разширите
разширява
разширяване
разширяването
разширяват
раи
раидър
раико
раиков
раили
раина
раинер
раино
раинов
раинхард
раион
раиона
раионен
раиони
раионите
раионния
раионът
раис
раит
раифершаит
раих
раиха
раихенбах
раихстага
раичев
раичевски
раичо
раиън
рак
рака
ракета
ракетата
ракетен
ракети
ракетите
ракетна
ракетни
ракетните
ракетно
ракия
раковски
ракообразни
ракообразно
рали
ралица
ралф
рама
раменете
рамзес
рамзи
рамирес
рамка
рамката
рамки
рамките
рамо
рамон
рамото
ран
рана
раната
ранг
ранга
рангел
рангелов
ранглиста
ранглистата
ранд
ранен
ранени
ранените
рани
раните
ранкинг
ранна
ранната
ранни
ранните
ранния
ранният
ранно
ранното
рано
рап
раполтщаин
рапорт
рапър
рапъра
раса
раси
растат
расте
растеж
растежа
растение
растението
растения
растенията
растителен
растителна
растителни
растителните
растителност
растителността
рата
раул
рафаел
рафаело
рафаил
рачев
рачо
рашев
рашка
рашко
рашков
рая
ре
реабилитиран
реагира
реагират
реактивен
реактивни
реактор
реактора
реактори
реакции
реакция
реакцията
реал
реален
реализация
реализацията
реализира
реализиран
реализирана
реализиране
реализирането
реализирани
реализират
реализъм
реалити
реална
реалната
реални
реалните
реалния
реално
реалност
реалността
ребека
ребра
реванш
реванша
реваншите
ревизия
ревност
революции
революционен
революционер
революционера
революционери
революционерка
революционна
революционната
революционни
революционните
революционния
революционно
революционното
революция
революцията
ревю
регацони
регенсбург
регент
регентка
регентството
регенщаин
регина
регион
региона
регионален
регионална
регионалната
регионални
регионалните
регионалния
регионално
регионалното
региони
регионите
регионът
регистрация
регистрацията
регистри
регистрира
регистриран
регистрирана
регистрирани
регистрирано
регистрират
регистрите
регистър
регистъра
регламент
регулира
регулиране
регулират
ред
реда
редактира
редактиране
редактирате
редактор
редактори
редакция
редакцията
реджо
рединг
редица
редици
редиците
редки
редките
редник
редове
редовен
редовете
редовна
редовната
редовни
редовните
редовния
редовно
редовното
редом
редуват
редът
реестр
реж
режим
режима
режими
режимът
режисира
режисиран
режисирана
режисура
режисурата
режисьор
режисьора
режисьори
режисьорите
режисьорът
резба
резбари
резерв
резерва
резерват
резервата
резервати
резервен
резерви
резервни
резервоар
резервоара
резервоари
резиденция
резиденцията
резолюция
резолюцията
резонанс
резултат
резултата
резултати
резултатите
резултатът
реи
реигън
реиес
реикявик
реимс
реимънд
реин
реинграф
реинджърс
реинланд
реинолдс
реинс
реис
реисинг
реитинг
реичъл
река
реката
реквием
реки
реките
реклама
рекламата
реклами
рекламна
рекламни
реколта
реколтата
реконструкция
реконструкцията
рекорд
рекорда
рекорди
рекордните
рекордьор
рекс
ректор
рекъл
рекърдс
релеф
релефа
релефи
релефът
религии
религиозен
религиозна
религиозната
религиозни
религиозните
религиозния
религиозно
религиозното
религия
религията
реликви
релси
рембранд
реми
ремикс
ремонт
ремонта
рен
рената
ренато
рене
ренесанс
ренесанса
ренесансов
рени
рено
реорганизация
репертоар
репертоара
реплика
репортаж
репортажи
репортер
репресии
репресиите
република
републиканска
републиканската
републикански
републиканско
републиканците
републиката
републики
републици
републички
репутация
репутацията
ресен
респективно
республики
реставрация
реставрацията
реставрирана
ресторант
ресторанта
ресторанти
ресурс
ресурси
ресурсите
реторика
референдум
референдума
реформа
реформата
реформацията
реформи
реформите
рехабилитация
рехберг
рец
рецензии
рецензия
рецепта
рецепти
рецептори
реч
рече
речен
речи
речна
речната
речни
речник
речника
речните
речници
речта
решава
решаване
решаването
решават
решаваща
решаващо
решат
решен
решени
решение
решението
решения
решенията
решено
решетка
реши
решил
решили
решителен
решителна
решително
реюнион
ри
риалити
риба
рибари
рибата
риби
рибите
риболов
риболова
риболовът
рива
ривера
ривър
рига
рид
рида
ридове
риза
ризов
риид
рик
рика
рикардо
рики
рико
рила
рилска
рилски
рилския
рим
римеик
римини
римляни
римляните
римокатолическата
римска
римската
римски
римските
римския
римският
римско
римското
ринга
ринек
ринпоче
рио
рис
риск
риска
рискове
рискът
ристо
рисува
рисувана
рисуване
рисуването
рисувани
рисуват
рисунка
рисунки
рита
ритберг
ритуал
ритуали
ритъм
риф
рифове
рихард
рихтер
рицар
рицари
рицарите
рицарски
ричард
ричардс
ричардсън
ричи
ричмънд
ришельо
рия
рлс
рмс
рнк
ро
роб
робер
роберт
роберта
роберто
роби
робин
робинсън
робите
робот
роботи
робство
робството
робърт
робъртс
робъртсън
ров
рог
рога
рогат
рогата
род
рода
роден
родена
родени
роджър
роджърс
роди
родил
родила
родина
родината
родител
родители
родителите
родна
родната
родни
роднина
роднини
роднините
родните
родния
родно
родното
родове
родовете
родолюбие
родом
родоначалник
родопа
родопи
родопите
родопски
родос
родословно
родригес
родриго
родът
рожден
рождение
рождението
рождения
рождено
рождество
роже
роза
розата
розенберг
рози
розов
розова
розови
розово
рои
роис
роитеман
рок
рока
роки
рокля
ролан
роланд
роли
ролинг
ролинс
ролите
роля
ролята
рома
роман
романа
романи
романист
романите
романо
романов
романс
романси
романски
романтизма
романтизъм
романтичен
романтична
романтичната
романтични
романът
романя
ромел
ромео
ромеро
роми
ромул
рон
рона
роналд
роналдо
рони
рос
роса
росен
роси
росини
росица
россии
россииская
россиискои
россия
ростов
росток
рот
рота
ротенбург
ротенфелс
ротердам
роти
рото
роуд
роудс
роуз
роулинг
рочестър
роял
рсфср
ру
руан
руанда
рубен
рубенс
руби
рубин
рубка
рубли
рубрика
рубриката
руда
руди
рудник
рудозем
рудолф
рудолщат
руен
рузвелт
руини
руините
руис
рум
румелия
румен
руменин
румъния
румънска
румънската
румънски
румънските
румънския
румънско
румънското
румънци
румънците
румяна
рунд
рункел
руно
рупрехт
рупърт
рус
русалка
русе
русев
русенската
русенски
русенския
руси
русинов
русите
русия
руска
руската
руски
руските
руския
руският
руско
руското
руслан
руснаци
руснаците
русо
русская
русскии
русско
русского
рут
руф
рф
рфг
ръб
ръба
ръгби
ръдърфорд
ръж
ръка
ръкав
ръкава
ръкави
ръката
ръководен
ръководена
ръководени
ръководено
ръководи
ръководител
ръководители
ръководителите
ръководителя
ръководителят
ръководни
ръководство
ръководството
ръководят
ръкопис
ръкописа
ръкописи
ръкописите
ръкописът
ръкоположен
ръсел
ръст
ръце
ръцете
ръчни
ръчно
ръш
рьорих
рюа
рядка
рядко
рядкост
рядък
рязане
рязко
с
са
саарбрюкен
саба
сабах
сабин
сабина
сабя
сава
савани
савов
савоиска
савоиски
савоя
сага
сад
саддам
садово
саид
саимън
саин
саит
саита
саите
саитове
саитът
сакар
сакраменто
сакс
сакскобургготски
саксония
саксонска
саксонски
саксофон
сал
саладин
салата
салвадор
салваторе
салерно
сали
салм
салон
салона
салоника
салют
сам
сама
саманта
самара
самата
сами
самите
самия
самият
само
самоа
самоков
самолет
самолета
самолети
самолетите
самолетна
самолетоносач
самолетоносача
самолетоносачи
самолетоносачите
самолетът
самоличност
самоличността
самостоятелен
самостоятелна
самостоятелни
самостоятелно
самостоятелност
самосъзнание
самота
самотата
самотен
самото
самоубива
самоубииство
самоубииството
самоуправа
самоуправление
самуел
самуил
самураи
самюел
самюъл
сан
сандански
санджак
санджака
сандра
санитарен
санитарни
санкт
санкции
санкция
санремо
санскрит
сант
санта
сантиметра
санто
сантос
сантяго
санчес
сао
сапун
сара
саравак
сарагоса
сараево
сараи
сарафов
сарверден
сардиния
сардински
саскачеван
сатаната
сателит
сатира
сатиричен
сатурн
сатурнин
саудитска
саунд
саундтрак
саундтрака
саут
саха
сахалин
сахара
саша
сашо
сащ
сб
сбирка
сбирки
сближава
сближаване
сблъсква
сблъскват
сблъсък
сблъсъка
сблъсъци
сбогом
сбор
сборен
сборна
сборник
сборника
сборникът
сборници
сборниците
сборът
сбх
св
свазиленд
свален
свалена
свалени
свали
сваля
сваляне
свалянето
свалят
сватба
сватбата
сватби
сведение
сведения
сведенията
сведоштва
свежда
свет
света
светата
светец
светеца
свети
светии
светиите
светилища
светилище
светилището
светите
светица
светия
светият
светкавица
светкавицата
светла
светлана
светли
светлин
светлина
светлината
светлини
светлинни
светло
светлозар
свето
светове
световен
световна
световната
световни
световните
световния
световният
световно
световното
светозар
светонии
светослав
светото
светска
светската
светски
светско
светското
светци
светците
светъл
светът
свещ
свещен
свещена
свещената
свещени
свещеник
свещеника
свещеникът
свещените
свещеници
свещениците
свещения
свещено
свещи
свива
свиване
свидетел
свидетели
свидетелства
свидетелстват
свидетелство
свикан
свиква
свиленград
свине
свинско
свиня
свирене
свири
свирят
свита
свитата
свищов
свобода
свободата
свободен
свободи
свободна
свободната
свободни
свободните
свободния
свободно
свободното
своге
свод
свода
своден
свое
своевременно
своеобразен
своеобразна
своето
свои
своиства
своиствата
своиство
своиството
своите
своя
своят
своята
свръзка
свръхестествени
свърже
свързан
свързана
свързани
свързаните
свързано
свързва
свързване
свързването
свързват
свързващ
свързваща
свързващи
свършва
свърши
свят
свята
свято
сговор
сгодена
сгодява
сграда
сградата
сгради
сградите
сдвоени
сделка
сделката
сделки
сдобива
сдружение
сдружението
сдружения
сдс
се
себастиан
себе
севастократор
севастопол
север
севера
северен
северна
северната
северни
северните
северния
северният
северно
севернои
северномакедонски
северното
северо
северозапад
северозападен
северозападна
северозападната
северозападни
северозападните
северозападния
северозападно
североизток
североизточен
североизточна
североизточната
североизточните
североизточния
североизточно
севиля
севлиево
сега
сегашната
сегашните
сегашния
сегашният
сегашно
сегашното
сегмент
сегунда
седалище
седалището
седалки
седан
седем
седемгодишната
седемдесет
седемте
седи
седименти
седиментни
седловина
седловината
седма
седмата
седми
седмица
седмицата
седмици
седмичен
седмичник
седмично
седмия
седмият
седмо
седмото
седна
седнал
седящи
сезар
сезон
сезона
сезони
сезоните
сезонни
сезонът
сеима
сеинт
сеишели
сек
секрет
секретар
секретари
секретариат
секретариата
секретаря
секретен
секс
секст
сексуален
сексуална
сексуалната
сексуални
сексуално
сектор
сектора
сектори
секунда
секунди
секции
секция
секцията
села
селата
селевк
селевкидите
селекция
селекцията
селена
селим
селишчев
селища
селищата
селище
селищев
селището
селищна
селищни
селищните
село
селото
селска
селската
селски
селските
селския
селско
селскостопанска
селскостопанската
селскостопански
селскостопанските
селското
селтик
селце
селцето
селяни
селянин
селяните
сем
семе
семеен
семеина
[...]
