!
"
#
##0
##1
##10
##11
##12
##13
##14
##15
##16
##17
##18
##19
##2
##20
##21
##22
##23
##24
##25
##26
##27
##28
##29
##3
##30
##31
##32
##33
##34
##35
##36
##37
##38
##39
##4
##40
##41
##42
##43
##44
##45
##46
##47
##48
##49
##5
##50
##51
##52
##53
##54
##55
##56
##57
##58
##59
##6
##60
##61
##62
##63
##64
##65
##66
##67
##68
##69
##7
##70
##71
##72
##73
##74
##75
##76
##77
##78
##79
##8
##80
##81
##82
##83
##84
##85
##86
##87
##88
##89
##9
##90
##91
##92
##93
##94
##95
##96
##97
##98
##99
$
%
&
'
(
)
*
+
,
-
.
/
0
00
000
0000
001
002
003
004
005
006
007
01
010
013
02
03
04
0435
05
06
07
08
09
1
10
100
1000
10000
100000
1001
1002
1003
1007
101
1010
1011
1012
1014
1015
1016
1017
1018
1019
102
1020
1024
1025
1027
103
1030
1032
1034
1035
1036
1037
1038
1039
104
1040
1042
1045
1046
1047
105
1050
1054
1055
1056
1057
1059
106
1060
1065
1066
107
1070
1071
1072
1073
1075
1076
1077
1078
108
1080
1081
1085
1086
1087
1088
1089
109
1090
1091
1092
1093
1094
1095
1096
1097
1098
1099
11
110
1100
1101
1102
1103
1105
1106
1108
111
1110
1111
1112
1115
1118
112
1120
11203
1122
1123
1124
1125
1126
1127
1128
1129
113
1130
1131
1133
1134
1135
1136
1137
1138
1139
114
1140
1141
1142
1143
1144
1145
1146
1147
1148
1149
115
1150
1151
1152
1153
1154
1155
1156
1157
1158
116
1160
1161
1162
1163
1164
1165
1166
1167
1168
1169
117
1170
1171
1172
1173
1174
1175
1176
1177
1178
1179
118
1180
1181
1182
1183
1184
1185
1186
1187
1188
1189
119
1190
1191
1192
1193
1194
1195
1196
1197
1198
1199
12
120
1200
1201
1202
1203
1204
1205
1206
1207
1208
1209
121
1210
1211
1212
1213
1214
1215
1216
1217
1218
1219
122
1220
1221
1222
1223
1224
1225
1226
1227
1228
1229
123
1230
1231
1232
1233
1234
1235
1236
1237
1238
1239
124
1240
1241
1242
1243
1244
1245
1246
1247
1248
1249
125
1250
1251
1252
1253
1254
1255
1256
1257
1258
1259
126
1260
1261
1262
1263
1264
1265
1266
1267
1268
1269
127
1270
1271
1272
1273
1274
1275
1276
1277
1278
1279
128
1280
1281
1282
1283
1284
1285
1286
1287
1288
1289
129
1290
1291
1292
1293
1294
1295
1296
1297
1298
1299
13
130
1300
1301
1302
1303
1304
1305
1306
1307
1308
1309
131
1310
1311
1312
1313
1314
1315
1316
1317
1318
1319
132
1320
1321
1322
1323
1324
1325
1326
1327
1328
1329
133
1330
1331
1332
1333
1334
1335
1336
1337
1338
1339
134
1340
1341
1342
1343
1344
1345
1346
1347
1348
1349
135
1350
1351
1352
1353
1354
1355
1356
1357
1358
1359
136
1360
1361
1362
1363
1364
1365
1366
1367
1368
1369
137
1370
1371
1372
1373
1374
1375
1376
1377
1378
1379
138
1380
1381
1382
1383
1384
1385
1386
1387
1388
1389
139
1390
1391
1392
1393
1394
1395
1396
1397
1398
1399
14
140
1400
1401
1402
1403
1404
1405
1406
1407
1408
1409
141
1410
1411
1412
1413
1414
1415
1416
1417
1418
1419
142
1420
1421
1422
1423
1424
1425
1426
1427
1428
1429
143
1430
1431
1432
1433
1434
1435
1436
1437
1438
1439
144
1440
1441
1442
1443
1444
1445
1446
1447
1448
1449
145
1450
1451
1452
1453
1454
1455
1456
1457
1458
1459
146
1460
1461
1462
1463
1464
1465
1466
1467
1468
1469
147
1470
1471
1472
1473
1474
1475
1476
1477
1478
1479
148
1480
1481
1482
1483
1484
1485
1486
1487
1488
1489
149
1490
1491
1492
1493
1494
1495
1496
1497
1498
1499
15
150
1500
1501
1502
1503
1504
1505
1506
1507
1508
1509
151
1510
1511
1512
1513
1514
1515
1516
1517
1518
1519
152
1520
1521
1522
1523
1524
1525
1526
1527
1528
1529
153
1530
1531
1532
1533
1534
1535
1536
1537
1538
1539
154
1540
1541
1542
1543
1544
1545
1546
1547
1548
1549
155
1550
1551
1552
1553
1554
1555
1556
1557
1558
1559
156
1560
1561
1562
1563
1564
1565
1566
1567
1568
1569
157
1570
1571
1572
1573
1574
1575
1576
1577
1578
1579
158
1580
1581
1582
1583
1584
1585
1586
1587
1588
1589
159
1590
1591
1592
1593
1594
1595
1596
1597
1598
1599
16
160
1600
1601
1602
1603
1604
1605
1606
1607
1608
1609
161
1610
1611
1612
1613
1614
1615
1616
1617
1618
1619
162
1620
1621
1622
1623
1624
1625
1626
1627
1628
1629
163
1630
1631
1632
1633
1634
1635
1636
1637
1638
1639
164
1640
1641
1642
1643
1644
1645
1646
1647
1648
1649
165
1650
1651
1652
1653
1654
1655
1656
1657
1658
1659
166
1660
1661
1662
1663
1664
1665
1666
1667
1668
1669
167
1670
1671
1672
1673
1674
1675
1676
1677
1678
1679
168
1680
1681
1682
1683
1684
1685
1686
1687
1688
1689
169
1690
1691
1692
1693
1694
1695
1696
1697
1698
1699
17
170
1700
1701
1702
1703
1704
1705
1706
1707
1708
1709
171
1710
1711
1712
1713
1714
1715
1716
1717
1718
1719
172
1720
1721
1722
1723
1724
1725
1726
1727
1728
1729
173
1730
1731
1732
1733
1734
1735
1736
1737
1738
1739
174
1740
1741
1742
1743
1744
1745
1746
1747
1748
1749
175
1750
1751
1752
1753
1754
1755
1756
1757
1758
1759
176
1760
1761
1762
1763
1764
1765
1766
1767
1768
1769
177
1770
1771
1772
1773
1774
1775
1776
1777
1778
1779
178
1780
1781
1782
1783
1784
1785
1786
1787
1788
1789
179
1790
1791
1792
1793
1794
1795
1796
1797
1798
1799
18
180
1800
1801
1802
1803
1804
1805
1806
1807
1808
1809
181
1810
1811
1812
1813
1814
1815
1816
1817
1818
1819
182
1820
1821
1822
1823
1824
1825
1826
1827
1828
1829
183
1830
1831
1832
1833
1834
1835
1836
1837
1838
1839
184
1840
1841
1842
1843
1844
1845
1846
1847
1848
1849
185
1850
1851
1852
1853
1854
1855
1856
1857
1858
1859
186
1860
1861
1862
1863
1864
1865
1866
1867
1868
1869
187
1870
1871
1872
1873
1874
1875
1876
1877
1878
1879
188
1880
1881
1882
1883
1884
1885
1886
1887
1888
1889
189
1890
1891
1892
1893
1894
1895
1896
1897
1898
1899
19
190
1900
1901
1902
1903
1904
1905
1906
1907
1908
1909
191
1910
1911
1912
1913
1914
1915
1916
1917
1918
1919
192
1920
1921
1922
1923
1924
1925
1926
1927
1928
1929
193
1930
1931
1932
1933
1934
1935
1936
1937
1938
1939
194
1940
1941
1942
1943
1944
1945
1946
1947
1948
1949
195
1950
1951
1952
1953
1954
1955
1956
1957
1958
1959
196
1960
1961
1962
1963
1964
1965
1966
1967
1968
1969
197
1970
1971
1972
1973
1974
1975
1976
1977
1978
1979
198
1980
1981
1982
1983
1984
1985
1986
1987
1988
1989
199
1990
1991
1992
1993
1994
1995
1996
1997
1998
1999
2
20
200
2000
200000
2001
2002
2003
2004
2005
2006
2007
2008
2009
201
2010
2011
2012
2013
2014
2015
2016
2017
2018
2019
202
2020
2021
2022
2023
2024
203
204
205
206
207
208
209
21
210
2100
211
212
213
214
215
216
217
218
219
22
220
2200
221
222
223
224
225
226
227
228
229
23
230
2300
231
232
233
234
235
236
237
238
239
24
240
2400
2408
241
242
243
244
245
246
247
248
249
25
250
2500
251
252
253
254
255
256
257
258
259
26
260
2600
261
262
263
264
265
266
267
268
269
27
270
2700
271
272
273
274
275
276
277
278
279
28
280
2800
281
282
2820
283
284
285
286
287
288
289
29
290
291
292
293
294
295
296
297
298
299
3
30
300
3000
301
302
303
304
305
306
307
308
309
31
310
311
312
313
314
315
316
317
318
319
32
320
3200
321
322
323
324
325
326
327
328
329
33
330
331
332
333
334
335
336
337
338
339
34
340
341
342
343
344
345
346
347
348
349
35
350
3500
351
352
353
354
355
356
357
358
359
36
360
3600
361
362
363
364
365
366
367
368
369
37
370
371
372
373
374
375
376
377
378
379
38
380
381
382
383
384
385
386
387
388
389
39
390
391
392
393
394
395
396
397
398
399
4
40
400
4000
401
402
403
404
405
406
407
408
409
41
410
411
412
413
414
415
416
417
418
419
42
420
421
422
423
424
425
426
427
428
429
43
430
431
432
433
434
435
436
437
438
439
44
440
441
442
443
444
445
446
447
448
449
45
450
4500
451
452
453
454
455
456
457
458
459
46
460
461
462
463
464
465
466
467
468
469
47
470
471
472
473
474
475
476
477
478
479
48
480
481
482
483
484
485
486
487
488
489
49
490
491
492
493
494
495
496
497
498
499
5
50
500
5000
500000
501
502
503
504
505
506
507
508
509
51
510
511
512
513
514
515
516
517
518
519
52
520
521
522
523
524
525
526
527
528
529
53
530
531
532
533
534
535
536
537
538
539
54
540
541
542
543
544
545
546
547
548
549
55
550
5500
551
552
553
554
555
556
557
558
559
56
560
561
562
563
564
565
566
567
568
569
57
570
571
572
573
574
575
576
577
578
579
58
580
581
582
583
584
585
586
587
588
589
59
590
591
592
593
594
595
596
597
598
599
6
60
600
6000
601
602
603
604
605
606
607
608
609
61
610
611
612
613
615
616
617
618
619
62
620
621
622
623
624
625
626
627
628
629
63
630
631
632
633
634
635
636
637
638
639
64
640
641
642
643
644
645
646
647
648
649
65
650
6500
651
652
653
654
655
656
657
658
66
660
661
662
663
664
665
666
667
668
669
67
670
671
672
673
674
675
676
677
679
68
680
681
684
685
687
689
69
690
691
693
695
699
7
70
700
7000
701
704
705
707
71
710
711
712
713
714
715
716
717
718
719
72
720
721
725
726
727
73
730
732
733
734
735
736
737
739
74
740
741
742
743
744
747
748
749
75
750
7500
751
752
754
756
757
759
76
760
767
768
77
770
771
772
774
775
777
78
780
781
785
787
79
790
791
795
796
8
80
800
8000
801
802
803
806
808
81
810
811
812
813
814
815
816
82
820
822
823
825
829
83
830
835
836
84
840
842
843
845
85
850
852
855
86
860
861
862
863
864
865
866
867
869
87
870
871
875
876
877
878
879
88
880
882
883
88309
884
885
886
887
888
889
89
890
893
894
895
896
898
9
90
900
9000
90008
902
904
905
906
907
909
91
910
911
912
913
914
915
917
918
919
92
920
921
922
923
924
925
926
927
928
929
93
930
935
936
94
940
945
949
95
950
9514
953
954
955
959
96
960
961
962
963
965
966
968
969
97
970
971
973
975
976
978
98
980
983
984
985
986
987
988
99
990
991
993
994
995
996
997
998
999
:
;
<
=
>
?
@
\
^
_
`
a
aa
ab
abbaye
abc
about
above
abstract
abteilung
abu
ac
academic
academy
access
according
account
ace
acoustic
acropora
across
act
acta
action
active
ad
adam
adams
adb
add
added
address
adel
adels
adelslexikon
administration
adobe
adolf
adult
advanced
adventure
adventures
ae
af
affair
affairs
africa
african
after
ag
again
against
agave
age
agency
ages
agnes
ah
ai
ain
air
aircraft
airlines
ais
aise
ak
akademie
al
alan
alba
albert
albrecht
album
albums
ale
alex
alexander
alfred
ali
alias
aliases
alice
alien
align
alignbars
alive
all
alla
allan
alle
allemagne
allen
aller
allgemeine
alliance
allmovie
allmusic
alma
alone
alpha
already
als
also
alt
alte
alten
altertumskunde
altertumswissenschaft
alvensleben
always
am
amazing
amazon
amd
ame
america
american
among
amor
amore
amour
amsterdam
an
ana
analysis
ancestors
anchor
ancient
and
andere
anderson
andre
andrea
andreas
andrew
android
anfa
angel
angeles
angelfire
angels
angle
anhalt
animal
animals
animation
ann
anna
annalen
annales
anne
anni
anniversary
anno
annual
another
ans
ant
antarctic
antarctica
anterior
anthology
anthony
anti
anton
antonio
any
ap
apache
api
apo
apollo
apple
application
applications
applied
approach
approx
april
ar
arc
arch
archa
archaeological
archaeology
architecture
archiv
archive
archived
archives
are
area
arena
argentina
args
argument
arguments
arm
arme
armenian
arms
army
arnold
around
array
art
arte
arteries
artery
arthur
article
articles
artist
artists
arts
as
ascii
asia
asian
ask
assassin
associated
association
assyrian
at
athens
atlantic
atlantis
atlas
atp
attack
atyidae
au
auch
audi
audio
auf
aufl
auflage
augsburg
august
augusta
augustan
auguste
augustus
aurora
aus
ausf
ausgabe
austin
australia
australian
austria
author
authors
auto
autumn
aux
av
available
avec
aviation
avn
award
awards
away
ax
az
b
ba
baby
babylonian
back
background
bad
baden
bafta
baker
balance
balkan
balkans
balkanton
ball
baltimore
band
bang
bank
bar
barbara
barbus
barcelona
bardata
baron
barry
bas
basa
base
based
basel
basic
basilica
bass
bat
batman
battle
battles
battleships
bautz
bay
bayerische
bayerischen
bayern
bayerns
bb
bbc
bbkl
bc
bd
be
beach
beam
bear
beast
beat
beautiful
beauty
because
beck
bed
been
beer
before
begin
beginning
behavior
behind
bei
being
beitra
beitrag
believe
bell
bella
belle
bello
below
ben
benjamin
bennett
bentheim
benz
ber
berg
berkeley
berlin
berliner
bernard
bernd
bernhard
beschreibung
best
beta
better
between
beyond
bf
bg
bi
bible
bibliographisches
biblioteca
bibliothek
big
bild
bill
billboard
bin
bingen
bio
biodiversity
biografico
biografie
biographical
biographie
biographisch
biographisches
biography
biology
biotechnology
bird
birds
birth
birthday
bis
bischo
bischof
bishop
bistum
bit
bl
black
blackout
blackwell
blank
bler
blind
blitz
block
blog
blogspot
blood
bloodice
blu
blue
blues
bmatrix
bmg
bmw
bnr
bnt
bo
board
bob
body
boeing
bogorm
bologna
bone
bones
bonn
book
books
boolean
boom
boot
border
boris
born
bosch
boss
boston
bot
both
bottom
bound
box
boy
boys
br
brabant
brain
branch
branches
brandenburg
braunschweig
brazil
break
breaking
brian
bride
bridge
brief
briefe
brigade
brill
bring
britain
britannica
british
broken
bros
brother
brothers
broughton
brown
bru
bruce
bruno
bruxelles
bsd
bts
btv
bu
buch
bucures
budapest
buddhism
building
bulgaria
bulgarian
bulgarica
bulgarien
bulletin
bureau
burg
burgas
burgen
burggraf
burn
burning
bus
business
but
button
bw
bwv
by
byzantine
byzantium
c
ca
caesar
cafe
calendar
california
call
called
cambridge
came
camp
campaign
campbell
can
canada
canadian
canal
canvas
cap
cape
capital
capitolini
capodimonte
cappella
captain
car
card
care
caridina
carl
carlo
carlos
cartoon
casa
case
cases
castell
castello
castle
cat
catalogue
catch
categories
category
cathe
cathedral
catherine
catholic
cats
cave
cbs
cc
cd
cdot
cdots
ce
cee
cell
cells
census
center
central
centre
centro
centuries
century
cf
cfg
ch
cha
challenge
chamber
champion
champions
championship
chance
change
changes
channel
chaos
chapel
chapter
char
character
characters
charles
charlie
charlotte
chart
chasa
che
check
chemical
chemistry
cher
chess
chessgames
chi
chicago
chief
chiesa
child
children
china
chinese
choice
chre
chris
christ
christian
christine
christmas
christoph
christopher
chronicle
chronicles
chronik
chronology
church
churchill
ci
cia
cichlidae
cie
cielo
cil
cine
cinema
cio
circ
circle
circus
cit
citation
cite
cities
citta
city
citypopulation
civil
civilization
ck
cke
cken
cl
claim
clark
class
classic
classical
classics
classischen
claude
cle
clear
click
clinical
clio
close
cloud
club
cm
cn
cnn
co
coa
coast
coat
code
codex
cog
col
cola
cold
cole
coll
collected
collection
college
collins
color
colors
colubridae
columbia
columbidae
column
com
comando
combat
come
comedy
comes
comics
coming
comm
command
comment
commission
committee
common
commoner
commons
communication
communications
community
como
companion
company
complete
complex
composite
computer
comte
comwww
con
conan
concern
concert
concerto
condita
conference
config
conflict
congress
conquest
conrad
conservation
console
conspiracy
constantin
constantinople
constitution
construction
contact
contemporary
content
contest
context
continued
control
conus
conway
cool
cooper
coordinates
copy
copyright
core
cornell
corp
corporation
corps
corpus
cos
could
council
count
counter
countries
country
county
course
court
cover
covid
cowboy
cox
cr
crazy
cre
create
creation
creative
crew
cricetidae
crime
crisis
critical
cross
crown
cruiser
cruisers
cry
crystal
cs
css
ct
ctrl
cu
cult
cultura
cultural
culture
cum
cuore
cup
cura
current
curse
cut
cv
cx
cyprinidae
cyprus
cz
d
da
daddy
daggerstab
daily
dal
dall
dame
dan
dance
dancing
dangerous
daniel
dans
dante
dariknews
dark
darkness
darmstadt
darsie
darwin
das
data
database
datavalue
date
dateformat
dates
daughter
dave
david
davis
dawn
day
days
db
dc
dd
de
dead
deadly
deal
dear
death
dec
december
deep
def
default
defence
defense
definition
definitive
degli
dei
del
delivery
dell
della
delle
delta
dem
demo
democracy
den
denis
department
dependencies
der
des
description
desert
design
desire
destiny
destruction
det
detail
details
detlev
deutsch
deutsche
deutschen
deutscher
deutsches
deutschland
deux
development
devil
di
diamond
diana
diary
dictionary
dictionnaire
did
die
diego
dies
dieter
dietrich
diff
different
digital
digitalisat
din
dingen
dio
dir
direct
direction
dirty
disco
discogs
discovery
discussion
disease
disney
display
diss
dissertation
distribution
district
dition
ditions
div
division
dizionario
dj
dk
dl
dm
dna
dnes
dnevnik
do
doc
doctor
document
documentation
documents
does
dog
dogs
dohna
doi
doine
dom
domain
domenico
don
donald
done
donna
doom
door
dorsal
dos
dot
double
douglas
down
dr
dragon
dragons
drale
drama
dream
dreams
dreamworks
drei
dresden
drive
drop
drums
ds
dsc
dt
dtto
du
due
duke
duncker
durch
during
dux
dvd
dx
dying
dynamics
dynastie
dynastique
dynasty
dz
e
ea
each
eagle
early
earth
east
eastern
easy
eberhard
ec
echo
eclipse
economic
economics
economy
ecw
ed
eden
edgar
edge
edinburgh
edit
edited
editing
edition
editions
editor
editore
editors
edizioni
eds
edu
eduard
education
edward
effect
effects
egypt
eighth
ein
eine
einem
einer
eines
ek
el
election
elections
electric
electronic
element
elements
elisabeth
elizabeth
elizaiv
elkost
else
elseif
elvis
em
emblem
emi
emil
emperor
empire
empires
empty
en
enciclopedia
encyclopaedia
encyclopedia
encyclopædia
end
ende
enemy
energy
engel
engine
engineer
engineering
england
english
eniac
enough
enter
enterprise
entertainment
entity
entre
entry
entstehung
env
environment
ep
epic
episode
er
era
erbach
eric
erich
ernest
ernst
error
erwin
erza
erzbischof
es
escape
eso
espan
essay
essays
essential
est
este
estrellas
et
eta
etc
eternal
ethnic
ethnographique
etnik
etude
eu
eugen
euro
europa
europaische
europe
european
eurovision
euweb
ev
eva
eve
even
evening
event
events
ever
every
everybody
everything
evidence
evil
evolution
ex
example
exchange
exempt
exists
expansion
experience
experiment
exploration
explorer
express
extended
external
extra
extreme
eye
eyes
f
fa
face
facebook
faces
facility
fact
factor
factory
facts
fair
faith
falkenstein
fall
fallen
falling
falls
false
fame
familie
familien
familiengeschichte
family
famous
fan
fantastic
fantasticfiction
fantasy
far
fascia
fashion
fast
fasti
fat
fate
father
fayard
fc
fe
fear
feat
feature
features
featuring
feb
february
federal
federation
feedback
feel
feeling
felix
female
femme
ferdinand
ferrari
fest
festival
festschrift
fettes
fever
ff
ffentlichungen
fi
fiat
fibers
fiction
field
fields
fifa
fifth
fight
fighters
fighting
file
files
film
films
fimi
fin
final
finalist
financial
find
fine
fire
firefox
firenze
first
fischer
fish
fishbase
five
fl
flag
flags
flame
flash
fleet
fliche
flichen
flight
floor
florida
flower
flowers
fly
flying
fm
fmg
fo
focus
folge
folk
follow
following
fontsize
foo
food
fool
foot
football
footballdatabase
for
foramen
forbes
force
forces
ford
foreign
forest
forever
forgotten
form
format
formation
former
formula
forschungen
fortran
fortress
fortune
forum
fossa
found
foundation
four
fourth
fox
fr
fra
frac
frame
framework
franc
france
francesco
francis
francisco
franco
frank
franken
frankfurt
franklin
franz
frau
frauen
fre
frederick
free
freedom
freiburg
freiherr
freiherren
french
fresco
freud
freytag
friday
friedrich
friend
friends
fritz
from
front
fru
ft
fu
fugger
full
fun
function
functions
furnariidae
future
fw
g
ga
gabriel
galaxy
gallery
gallimard
game
games
gamma
garden
gary
gate
gay
gazette
gazetteer
gb
ge
gedichte
gegen
gegenwart
gemmingen
gen
gender
gene
geneagraphie
geneall
genealogics
genealogie
genealogisches
genealogy
geneanet
general
generation
genesis
geni
gens
geographic
geography
geometry
georg
george
georges
georgi
georgia
ger
gerd
gerhard
german
germania
germaniae
germany
gesamtreihe
geschichte
geschichten
geschichtliche
geschlecht
geschlechts
gesellschaft
get
gets
getting
gfdl
ghost
ghz
giant
gif
gift
giment
giorgio
giovanni
giraud
girl
girls
giuseppe
give
given
gje
gladiolus
glands
glass
gleichen
gli
global
globe
gloria
glory
glu
gm
gmbh
gnu
go
god
gods
goes
going
gold
golden
gone
gong
gonna
gonzaga
good
goodbye
goodreads
google
gordon
got
gotha
gott
gottfried
gov
government
gp
gps
gr
gra
grace
graf
grafen
grafschaft
graham
gran
grand
grande
grant
grave
gray
graz
great
greater
greatest
grecs
greece
greek
green
greenwood
grey
gridcolor
gro
groove
ground
group
groups
grove
growth
große
großen
gru
gruppo
gruyter
gs
gsm
gsub
gt
gu
guardian
guerra
guide
guido
guitar
gun
guns
gustav
gutenberg
guy
gw
gło
h
ha
haag
habsburg
had
hahn
half
hall
halle
hamburg
hamilton
hanau
hanauer
hand
handbook
handbuch
handler
hands
hannover
hans
haplochromis
happy
hard
harper
harris
harry
hart
harvard
has
hat
hate
haus
hauses
have
haven
hawk
hbo
hd
hdmi
he
head
health
heart
hearts
heat
heaven
heavy
heavyweight
heft
heidelberg
height
heiligen
heinrich
heinz
helfenstein
hell
hellenistic
hello
helmut
help
hen
henneberg
henri
henry
her
herald
herausgegeben
herbert
here
heritage
hermann
hero
heroes
herr
herren
herrschaft
herzo
herzog
herzogin
hessen
hessische
hessischen
het
hey
hg
hi
hidden
hier
hierarchy
high
higher
highway
hill
hills
him
his
histoire
historia
historica
historical
historique
historisch
historische
historischen
historisches
history
hit
hitler
hits
hl
hlau
hlung
hlungen
hms
ho
hof
hoffmann
hohenlohe
hohenzollern
hold
holding
holiday
holland
hollywood
holocaust
holstein
holy
home
homepage
homme
homo
honor
hope
hopkins
horizontal
horn
horse
horst
hot
hotel
hour
hours
house
how
howard
hp
hr
hrer
hrigen
hrsg
hrung
hsv
html
http
https
hu
huberty
hudson
hugh
hugo
human
humblot
hungary
hunt
hunter
hurricane
husband
hydrobiidae
hz
i
ia
ian
iana
ibm
ic
ice
ich
icon
id
ide
idea
ideas
identity
idol
ie
iec
ieee
if
ihr
ihre
ihrer
ii
iii
ikonact
il
ilikeliljon
illustrated
im
image
images
imagesize
imdb
img
immortal
impact
imperial
imperii
important
in
ina
inc
inch
include
includes
including
increment
independent
index
india
indian
indiana
industrial
industry
ine
inferior
inferno
influence
info
infobox
information
infty
input
ins
insert
inside
instagram
institut
institute
int
intel
intelligence
inter
interface
interior
internal
international
internationale
internet
interview
into
introduction
io
ios
ip
ipa
ipairs
iphone
ir
iran
iranica
irc
ireland
irish
iron
is
isbn
ische
ischen
isenburg
islam
islamic
island
islands
iso
israel
issn
issue
issues
ist
istanbul
istat
istituto
it
italia
italian
italiana
italiani
italiano
italy
item
itf
its
itunes
iucn
iucnredlist
iv
ivan
ivanov
iwgp
ix
iz
izvora
j
ja
jack
jackson
jacob
jacques
jahr
jahrbuch
jahre
jahrhundert
jahrhunderts
jakob
jam
james
jan
jane
january
japan
japanese
jason
java
javascript
jay
jazz
je
jean
jena
jerusalem
jesu
jesus
jewish
jg
ji
jim
jimmy
jingiby
jo
joachim
joan
joe
johann
johannes
john
johnny
johns
johnson
join
joint
jonas
jonathan
jones
jordan
jose
josef
joseph
journal
journey
joy
jp
jpeg
jpg
jr
js
json
ju
juan
julia
julius
july
jump
jun
june
junior
just
justice
justification
justify
justin
k
ka
kaiser
kaiserlich
kaiserthums
karl
kassel
kastoria
kb
kc
ke
keep
kelly
kenneth
ket
kevin
key
keys
kf
kg
khz
ki
kid
kids
kill
killer
killing
kim
kind
kinder
king
kingdom
kings
kirchberg
kirche
kirchenlexikon
kiss
kitchen
klaus
kleine
klostermann
km
kn
knight
know
knowledge
known
ko
kohlhammer
kommission
kong
konrad
korea
korean
kos
krako
krieg
kro
ku
kultur
kunst
kurfu
kurt
kv
kw
l
la
label
laboratory
ladies
lady
lahn
lake
lambda
land
landes
landesgeschichte
landeskunde
landgraf
landing
lands
lane
lang
lange
language
languages
large
las
last
lat
late
later
lateral
latin
launch
laura
law
lawrence
layer
lb
lc
lcd
le
lead
league
learning
least
leave
leben
led
lee
left
legacy
legal
legend
legends
legio
leiden
leiningen
leipzig
length
leo
leopard
leopold
ler
les
leslie
less
let
letter
letters
lettres
level
levski
levskisofia
lewis
lex
lexicon
lexikon
lg
li
liber
liberty
library
libri
license
lich
lie
liebe
liechtenstein
lies
life
ligament
ligaments
ligamentum
light
lightning
lights
like
lim
limburg
limit
limited
limits
limpurg
lincoln
line
lines
linie
link
linked
links
linnaeus
linux
lion
lippe
list
lists
literary
literatur
literature
liternet
little
live
lives
living
livingston
livius
livre
ll
llc
ller
ln
lo
local
location
log
logic
logo
london
lonely
long
look
looking
lord
lorenzo
loringhoven
los
lost
lot
louis
love
lover
lovers
loves
loving
low
lower
lp
lt
ltd
lu
lua
luca
luchesar
lucky
ludnos
ludwig
luigi
luise
luna
luxemburg
luxferuer
lynx
lyrikwelt
lz
m
ma
mac
mace
macedonia
macedonian
machine
macintosh
macmillan
mad
madame
made
madness
madonna
madrid
magazine
magdeburg
magdelaine
magic
magister
magistrates
magnus
mahler
mai
maiden
mail
main
mainsnak
mainz
maison
major
make
makes
making
mal
male
mama
man
management
manager
manchester
manfred
mann
mansfeld
manual
manuel
many
map
mapping
maps
mar
marburg
marc
march
marco
marcus
mare
margaret
mari
maria
marie
marina
marine
mario
maritime
mark
marker
market
markgraf
marks
marriage
mars
marshall
martin
martindale
mary
mask
mass
master
masters
match
mater
material
materials
math
mathbb
mathbf
mathcal
mathematics
mathrm
matrix
matter
matthias
maurice
max
maximilian
may
maymay
mb
mbox
mc
md
me
meaning
means
mecklenburg
med
media
medial
mediapool
mediawiki
medical
medici
medicine
medieval
mediterranean
medium
meet
meeting
mein
meine
members
memorial
memoriam
memories
memory
men
mental
mer
mercedes
mercury
mercy
mes
message
messages
met
meta
metal
metallica
metallum
method
metro
metropolitan
mexico
meyer
mf
mg
mgm
mhz
mi
mia
michael
michel
michigan
microsoft
mid
middle
midnight
mie
might
migration
mike
mil
milan
milano
miles
milita
military
militum
millennium
miller
million
min
mind
mine
mini
ministry
minor
minute
minutes
mio
mir
miracle
mirage
mirror
mische
mischen
miss
missile
missing
mission
mistress
mit
mitteilungen
mittelalter
mittelalters
mix
mk
ml
mm
mmm
mn
mo
mobile
mod
mode
model
models
modern
module
mol
moment
mon
monastery
mondadori
monde
mondo
money
monster
mont
montana
monte
montfort
month
monument
monumenta
moon
moonlight
moore
more
morgan
moritz
morning
morris
mort
mortal
moscow
most
mother
motion
motor
motors
mount
mountain
mountains
move
movement
movie
movies
mp
mr
mrs
ms
msg
mt
mtv
mu
much
mujer
multiple
mundo
munich
murder
muridae
murray
muscles
muse
museo
museum
museums
music
musica
musical
musik
must
mw
my
myspace
mystery
myth
mythology
n
na
nabla
nach
nachdruck
nachrichten
nacht
nacional
nad
nadina
name
named
names
namespace
nancy
napoli
narnia
narod
nas
nasa
nassau
nation
national
nationale
nations
natural
nature
naval
navy
nazionale
nb
nbc
nbupolsci
nburg
nc
nchen
nd
ndb
nde
nder
ndischen
ne
near
ned
need
needs
nel
nella
nelson
ner
nerve
nerves
net
network
neue
neues
neustadt
never
new
news
newsletter
newton
next
nf
ng
ngc
nge
ngen
nh
ni
nice
nicholas
nicht
nick
nicolas
nie
nig
night
nights
nigliche
nikola
nikon
nil
nin
nine
nk
nl
nm
nn
nner
no
nobel
noble
nobody
node
nokia
non
none
nord
normal
norman
north
northern
norton
nos
not
note
notes
nothing
notice
notoc
notre
nov
nova
novel
november
now
nr
ns
nste
nster
nt
nter
nther
nu
nuclear
nucleus
null
num
number
numbers
nuova
nwa
nxt
ny
o
ob
object
observer
oc
ocean
och
oclc
oct
october
od
oder
oesterreich
oettingen
of
off
office
official
offnews
og
ogg
oh
ohne
oil
ois
ok
oktober
ol
old
oldenburg
oliver
olivetti
ologie
olympic
om
omega
on
once
oncidium
one
online
only
op
opel
open
opera
operation
operations
options
opus
or
oracle
orange
orchestra
order
org
organization
orient
orientation
origin
original
origins
oro
ortenburg
os
oscar
osprey
ot
other
others
otto
ottoman
ou
our
out
output
over
overrightarrow
own
oxford
p
pa
pacific
pag
page
pages
pain
painting
pairs
palace
palais
palazzo
pan
panoramio
panthera
panzer
paolo
paper
papers
pappenheim
par
para
paradise
param
parameter
parameters
params
parent
paris
park
parliament
parms
pars
part
partial
parts
party
pas
pascal
passed
passion
past
pat
path
patrick
pattern
patterns
paul
paulo
pauly
paulys
pay
pc
pd
pdf
pe
peace
peak
pearl
peer
pen
penguin
pennsylvania
people
peoples
per
perfect
performance
period
perl
persia
persian
person
personal
personensuche
perspective
pet
petarz
peter
peterdx
petit
petri
pfalz
pg
ph
phalaenopsis
phantom
phi
philadelphia
philip
philipp
philippe
philips
philosophical
philosophie
philosophy
phips
phoenix
phone
photo
photos
php
physical
physics
pi
piano
piazza
picture
pictures
pie
piece
pierre
pietro
pink
piper
pir
piu
pl
place
places
plain
plan
planet
plant
plate
platinum
play
player
playing
playstation
please
pleasure
plexus
plotarea
plotdata
plovdiv
plus
pm
pmatrix
pmid
png
po
pod
poe
poems
poetry
point
pol
poland
police
policy
polish
political
politics
politik
polski
pop
popular
population
por
port
porta
portal
porter
portion
portrait
portraits
portugal
pos
position
possible
post
posterior
potsdam
potter
pour
power
powierzchnia
pp
pr
pra
practice
praefectus
praha
prayer
pre
precision
prefix
preis
premier
present
presents
president
press
presses
pretty
price
pride
prima
prime
prince
princess
princeton
princeyuki
principles
print
prinz
prinzessin
private
prix
prize
pro
problem
problems
proceedings
process
processing
production
productions
prof
professional
professor
profile
program
programming
progress
proje
project
projects
promise
properties
property
proposal
prosa
prosopography
protected
protection
protocol
provided
provinces
przekroju
ps
psi
psycho
psychoanalysis
psychology
pt
pu
public
publication
publications
published
publisher
publishers
publishing
pure
purple
push
put
pwi
px
python
pz
q
qf
qid
qidbyname
qu
quad
qualifier
quarterly
que
queen
quellen
quest
question
questions
qui
r
ra
race
racing
radio
radiohist
raf
rage
rai
rain
rainbow
ralph
ram
ramus
rand
random
randona
range
rank
rap
raw
ray
raymond
rc
rca
rd
rde
re
read
reader
reading
ready
real
realencyclopa
reality
really
reason
rebel
rebelheartous
recent
rechberg
record
recordings
records
red
ref
reference
references
reflections
regensburg
regesten
regiment
regina
region
register
reich
reiches
reign
reihe
reinhard
reise
related
relations
release
religion
religious
remember
remix
remove
ren
renaissance
renault
rene
repeat
replace
report
reprint
republic
request
require
required
res
rescue
research
resolution
resources
rest
result
results
ret
retrieved
return
returned
returns
reuss
reuß
rev
revenge
review
revised
revolution
revue
rex
rfc
rg
rgb
rgen
rhein
rho
rhythm
ri
ria
rich
richard
richardson
ride
right
rightarrow
rights
rim
ring
rio
rise
rising
risk
rite
ritter
river
rk
rkiye
rm
rnberg
ro
road
robert
roberts
robin
robinson
rock
roger
rogue
roh
roi
roland
role
roll
rolling
rom
roma
romaine
roman
romana
romance
romani
romantic
rome
ron
ronald
room
root
rosa
rose
roses
ross
rotten
rough
round
routledge
row
royal
royale
rs
rsssf
rst
rsten
rstenberg
rstliche
rstlichen
rt
rttemberg
ru
ruby
rudolf
rule
rules
rumensz
run
running
russell
russia
russian
rz
rzburg
s
sa
saarbru
sabbath
sachsen
sacra
sacred
safety
saga
said
saint
sainte
saints
salm
salzburg
sam
same
samsung
samuel
san
sandbox
sans
sant
santa
sarah
saturday
savage
save
savoia
savoie
savoy
say
sayfa
sayn
says
sb
sc
scala
scale
scalemajor
scaleminor
scar
scene
schaumburg
schenk
schleswig
schlo
schloss
schmid
schmidt
schneider
scho
school
schriften
schulenburg
schwaben
schwarzburg
schwarzenberg
schwennicke
schwerin
sci
science
sciences
scientific
scotland
scott
screen
script
scriptstyle
scroch
sd
se
sea
search
season
sec
second
secret
secrets
section
security
seduction
see
sei
seibel
sein
seine
seiner
seite
selected
selection
self
sen
sense
sep
separator
september
ser
seraphita
serbia
series
server
service
services
ses
sessions
set
seuil
seven
seventh
sex
sexual
sf
sforza
sg
shadeofgrey
shadow
shadows
shakespeare
shannon
share
she
shell
shift
ship
ships
shockd
short
shot
should
show
si
sich
side
sie
siebmacher
siegfried
siena
sigma
sigmaringen
sign
signal
silence
silent
silver
sim
simon
simple
sin
sinan
since
sing
single
singles
sinus
sir
sister
sisters
site
sitelink
sites
six
sixth
size
sk
ska
ski
skin
sky
sl
slave
sleep
sleeping
slow
sm
small
smartech
smith
smoke
sms
sn
snow
so
soccer
soccerway
social
socie
society
sofia
software
sol
solar
solaris
soldier
solid
solms
solo
some
someone
something
son
song
songs
sonic
sons
sony
sophie
sorry
sort
soul
souls
sound
source
sources
sous
south
southern
soviet
sp
spa
space
spacefacts
spaces
spain
spanish
special
species
speech
speed
spider
spiegel
spirit
spiritia
split
sponheim
sport
sportal
sports
sprache
spring
springer
spy
sql
sqrt
squadron
square
sr
ss
sseldorf
sser
ssr
st
sta
staatsdruckerei
stable
stadium
stadt
staff
stage
stalik
stammtafel
stammtafeln
stanbul
stand
standard
stanford
stanley
stanqo
star
stargardt
starke
stars
start
stat
state
statement
states
static
station
statistics
statistique
status
statystyczny
stay
ste
steel
stefan
stein
steiner
step
stephen
sterreich
sterreichischen
steve
steven
stewart
stiftung
still
sting
sto
stockholm
stolberg
stone
stop
store
storia
storico
stories
storm
story
str
straight
strait
strange
stranger
strangers
strategy
street
strike
string
strong
structure
sts
stu
stuart
studi
studia
studien
studies
studio
studios
study
stuttgart
style
su
sub
subject
success
such
sud
sugar
suite
sul
sulcus
sulla
sum
summary
summer
sun
sunday
super
superior
supplied
support
sur
surface
surrender
survey
susan
sv
svg
svik
sweet
switch
sword
sydney
symbol
symbols
symphony
system
systems
t
ta
tab
table
tafel
tag
tail
take
taken
takes
taking
tale
tales
talk
tan
tanzania
tao
target
targovishtenec
tas
taschenbuch
taste
tat
tau
taylor
tb
td
te
team
teams
tears
teatro
teau
technical
technology
ted
teen
teil
tel
telegraph
television
tell
template
templates
temple
tempo
temps
temptation
ten
ter
termininja
terra
terre
territorien
terror
terytorialnym
test
testament
testing
texas
text
textcolor
texte
texts
tf
tfrac
th
than
thank
thanks
that
the
theater
theatre
theil
their
them
theme
then
theodor
theory
thepeerage
therapy
there
these
thessaloniki
theta
they
thing
things
think
thinking
third
this
thomas
thompson
those
thought
thousand
thraupidae
threatened
three
through
thu
thumb
thunder
thurn
ti
tibet
tienne
tiger
till
tim
time
timeaxis
times
timothy
title
titled
tna
to
tod
today
together
tokyo
tom
tomatoes
tomb
tome
tomorrow
tonight
tonumber
tony
too
tool
tools
top
topographic
tor
torino
toronto
torre
tostring
total
touch
tour
tourbillon
touring
tower
town
tr
tra
track
trade
tradition
train
training
trans
transfermarkt
translate
translated
translation
transport
travel
tre
treasure
treaty
treccani
tree
trek
tres
trial
triangle
tribune
tribute
trilogy
trim
triumph
trochilidae
trois
trouble
true
trust
truth
try
ts
tt
tter
ttingen
tu
tudes
turkey
turkish
turn
turner
tv
tvynovelas
twenty
twilight
twitter
two
txt
type
types
tyrannidae
tz
tze
u
ua
ucode
uefa
ufc
uk
ukraine
ukrainian
ul
ulrich
ultimate
um
un
una
und
under
underground
understanding
une
unesco
uni
unicode
union
unit
united
units
univ
universal
universe
universita
universite
university
unix
unknown
uno
uns
unter
untersuchungen
until
uomo
up
update
upload
upon
upper
upright
urban
urbe
urkunden
urkundenbuch
url
uroboros
urza
us
usa
usaf
usage
usb
use
used
user
users
uses
using
usn
uss
ustring
utc
utf
utype
v
va
val
valentine
valid
valle
valley
value
values
vammpi
vampire
van
var
varepsilon
various
varna
varphi
vdots
ve
vec
vein
veins
venezia
venice
venning
venus
ver
vera
vereins
verlag
vero
version
vertical
very
vesti
vhs
vi
via
victor
victoria
victory
vida
video
vie
vienna
view
vii
viii
villa
village
ville
vincent
vip
virgin
virginia
virtual
virus
visconti
vision
vista
visual
visualeditor
visucom
vita
vittorio
viva
vn
vo
vocal
vocals
vodnokon
voice
voices
void
vol
volker
vols
volume
volumes
volvo
vom
von
vor
voyage
vs
vy
w
wa
wagner
wait
waiting
wake
waldburg
waldeck
wales
walk
walker
walking
wall
walt
walter
walther
wang
wanna
want
wanted
wappen
war
warcraft
warfare
warner
warning
warrior
wars
warszawa
was
washington
watch
water
wave
way
ways
wc
wcw
we
web
weber
webkid
website
webster
wedding
week
weekly
weg
weimar
welcome
well
welt
wenstein
were
werke
werl
werner
wernigerode
wertheim
west
western
westfalen
wga
what
wheel
when
where
which
while
white
who
whois
whole
why
wi
wicked
wide
width
wie
wied
wien
wiener
wiesbaden
wife
wiki
wikibase
wikidata
wikimapia
wikimedia
wikipedia
wikisource
wikitext
wild
wiley
wilhelm
will
william
williams
wilson
win
wind
window
windows
wing
wings
winner
winter
wir
wisdom
wish
wissenschaften
witch
with
within
without
wittelsbach
wittgenstein
wmf
wny
wo
wolf
wolfgang
wolfram
woman
women
won
wonder
wood
word
wordpress
words
work
working
works
world
worlds
worms
would
wp
wrestling
write
writeline
writer
writers
writing
writings
written
wrong
wta
wu
wurzbach
ww
wwe
wwf
www
wydawnictwo
x
xbiz
xbox
xi
xii
xiii
xiv
xix
xl
xli
xlii
xliii
xliv
xlvii
xml
xp
xrco
xs
xv
xvi
xvii
xviii
xx
xxi
xxii
xxiii
xxiv
xxix
xxv
xxvi
xxvii
xxx
xxxix
xxxvi
xxxviii
y
ya
yahoo
yale
year
years
yellow
yes
yet
yo
york
you
young
your
yourself
youth
youtube
ysenburg
yu
yyyy
z
za
zagreb
ze
zealand
zeit
zeiten
zeitschrift
zeitung
zeppelin
zero
zh
zn
zone
zoo
zu
zum
zur
zwei
zwischen
zwv
{
|
}
~
¡
£
§
©
ª
«
¬
­
®
¯
°
±
²
³
´
µ
·
º
»
¼
½
¾
¿
×
ß
æ
÷
ø
þ
ħ
ı
ĸ
ł
ȣ
ɔ
ə
ɛ
ʲ
ʷ
ʻ
ʼ
ʿ
ˈ
ː
˚
̀
́
̂
̃
̄
̆
̇
̈
̉
̊
̋
̌
̓
̔
̛
̞
̠
̣
̥
̦
̧
̨
̪
̮
̯
̱
̸
͂
ͅ
͡
΄
α
αγι
αγω
αθανα
αθη
απο
απογραφη
ας
β
βε
γ
γερμανο
γεω
για
δ
δα
δη
δημη
δης
δια
δου
ε
εκδ
εκδο
ελιμειακα
εν
ζ
η
θ
θεσσαλονι
ι
ιστορι
ιωα
κ
κα
και
κατα
κη
κης
κι
κω
κωνσταντι
λ
λα
λη
λης
λιθοξο
λου
μ
μα
μακεδονι
μακεδονικο
με
μος
μου
ν
να
ναι
νας
νε
νη
νης
ννης
νος
ξ
ο
οι
ου
π
πα
πε
περι
περιοχη
πο
πουλος
ρ
ρα
ργιος
ρι
ρος
ρου
ς
ςτας
σ
σα
σαντζακι
σεις
σελ
σερβι
σιος
σπανο
στη
τ
τα
τη
την
της
το
του
τρης
τω
των
υ
φ
χ
ψ
ω
ων
а
аарон
аахен
аб
абагар
абаджиев
абаджиева
абас
абат
абатиса
абатска
абатства
абатство
абатството
абв
абд
абдикацията
абдикира
абдул
абдула
абе
абел
абзац
аби
аборт
абрамов
абрахам
абритус
абруцо
абсолютен
абсолютна
абсолютната
абсолютно
абстрактни
абстракция
абу
абхазия
абърдии
абът
авангард
авангарда
аварии
аварите
авария
аватар
август
августа
августин
авелино
авеню
авиационен
авиационна
авиационни
авиационно
авиация
авиацията
авив
авиньон
авиобаза
авиобазата
авиоескадрила
авиокомпании
авиокомпания
авиокомпанията
авраам
аврам
аврамов
аврелиан
аврелии
аврен
аврет
аврора
австралазия
австралии
австралия
австриеца
австрии
австрия
австро
автентичен
автентични
автобиография
автобиографията
автобус
автобуса
автобуси
автобусна
автобусни
автогара
автомагистрала
автомат
автомата
автомати
автоматизация
автоматичен
автоматична
автоматични
автоматично
автомобил
автомобила
автомобилен
автомобили
автомобилите
автомобилна
автомобилната
автомобилни
автомобилните
автомобилния
автомобилът
автономен
автономия
автономията
автономна
автономната
автономни
автономните
автономно
автономност
автопатрул
автопортрет
автор
автора
автори
авторите
авторитет
авторитета
авторитетни
авторка
авторката
авторска
авторски
авторските
авторско
авторското
авторство
авторството
авторът
авъл
ага
агамемнон
агата
агент
агенти
агентите
агенции
агенция
агенцията
агиос
агитация
агия
агломерация
агнес
аго
агостино
агрегат
агрегати
агресивен
агресивна
агресивни
агресивно
агресия
агрипа
агрипина
агроном
ад
ада
адалберт
адам
адамс
адаптации
адаптация
адаптацията
адаптира
адаптиран
адаптирана
адаптирани
адаптират
адвокат
адвоката
адвокати
адвокатите
адвокатска
адвокатската
адвокатски
адвокатът
адекватна
адекватно
адел
адела
аделаида
аделхаи
адлер
админ
административен
административна
административната
административни
административните
административния
административният
административно
административното
администратор
администратори
администраторите
администраторски
администрация
администрацията
администрира
адмирал
адмирали
адмиралтеи
адолф
адрес
адреса
адреси
адресите
адресът
адриан
адриана
адриано
адрианопол
адриатическо
адютант
аек
аец
аз
азаренка
азбука
азбуката
азбуки
азбучен
азербаи
азиатска
азиатската
азиатски
азиатските
азиатци
азимов
азинии
азис
азия
азовско
азот
аи
аида
ак
акад
академии
академик
академици
академичен
академична
академичната
академични
академичните
академичния
академично
академия
академията
акация
акбар
акварел
аквариум
акваторията
аквилея
аквитания
акира
ако
акордеон
акостира
акра
акропола
акс
аксел
аксесоари
акт
акта
актив
актива
активен
активи
активира
активиране
активист
активисти
активите
активна
активната
активни
активните
активния
активно
активност
активността
активното
актове
актовете
актриса
актрисата
актриси
актуален
актуализация
актуална
актуални
актуално
актът
актьор
актьора
актьори
актьорите
актьорска
актьорската
актьорски
актьорския
актьорско
актьорът
акуила
акула
акули
акулите
акустика
акустична
акустични
акцент
акцентира
акции
акциите
акционер
акционери
акционерите
акционерно
акция
акцията
акчета
ал
ала
алабама
аладин
алаи
алан
алатау
алба
албания
албанска
албанската
албански
албанските
албанския
албанско
албанското
албанци
албанците
албена
албер
алберт
албертина
алберто
албин
албрехт
албум
албума
албуми
албумите
албумът
албърт
албърта
алварес
алваро
алвенслебен
алгебра
алгоритми
алгоритъм
алгоритъма
алгоритъмът
алдо
алегория
алеи
алек
алеко
алекс
алекса
александер
александр
александра
александрии
александрина
александрия
александров
александрова
александрович
александрово
александрос
александру
александър
алексеи
алекси
алексиев
алексии
алексис
алексо
ален
алесандрия
алесандро
алефелдт
алехандра
алехандро
алея
алеята
алжир
али
алианс
алианса
алие
алиев
алинея
алис
алиса
алисия
алистър
алисън
алия
алкални
алкохол
алкохола
алкохолни
алкохолно
аллах
алма
алманах
ало
алои
алонсо
алпи
алпии
алпинизъм
алпинист
алпинисти
алпите
алт
алтаи
алтенбург
алтернатива
алтернативен
алтернативи
алтернативна
алтернативни
алтернативно
алто
алтхан
алувиални
алувиално
алуминиеви
алуминии
алфа
алфонс
алфонсо
алфред
алфредо
алън
аляска
ам
ама
амадеи
амадеус
амазонка
амалия
аман
аманда
аматьорска
аматьорски
амбиции
амбициите
амбициозен
амброджо
амброуз
амбър
амвросии
амелия
америка
американец
американеца
американецът
американска
американската
американски
американските
американския
американският
американско
американското
американци
американците
америки
ами
амиен
амин
аминокиселини
амнистиран
амнистия
амон
амоняк
аморе
амплитуда
амстердам
амударя
амундсен
амур
амфитеатър
ан
ана
анадола
анали
анализ
анализа
анализатор
анализатори
анализи
анализира
анализират
анализът
аналитична
аналитичната
аналог
аналогичен
аналогична
аналогични
аналогично
аналогия
аналогови
аналози
анархист
анархисти
анархистите
анархо
анастас
анастасии
анастасиос
анастасия
анастасов
анатолии
анатолия
анатомия
анатомията
анг
ангажимент
ангажименти
ангажира
ангажиран
ангажирани
ангажират
ангара
ангел
ангела
ангели
ангелина
ангелите
ангелов
ангелова
англ
англии
англиканската
англичани
англичанина
англичаните
англия
англо
англоезичната
ангола
ангуила
андалусия
андарта
андарти
андартски
андекс
андерс
андерсен
андерсън
анджеи
анджела
анджелис
анджело
анди
андите
андлау
андон
андонов
андора
андраш
андре
андреа
андреас
андреев
андреева
андреи
андрес
андрети
андрея
андромеда
андроник
андрю
андрюс
анексира
анексирането
анелия
анемия
анжу
анжуи
ани
анибале
ании
аниматор
анимации
анимационен
анимационни
анимационните
анимационния
анимационният
анимация
анимацията
аниме
анимеи
анита
аниции
анка
анкара
анкета
анкетата
анкона
анна
ано
аномалии
анонимен
анонимни
анонимно
анри
ансамбли
ансамбъл
ансамбъла
ансбах
анселм
анталия
антантата
антарктида
антарктика
антарктическа
антарктически
антарктическите
антарктическия
антверпен
антена
антени
анти
антибиотици
антигон
антигуа
антилопи
антим
антиох
антиохии
антиохия
антипапа
антисемитизъм
антитела
антифашистката
античен
антична
античната
антични
античните
античния
антично
античност
античността
античното
антоан
антоанета
антологии
антология
антологията
антон
антони
антонии
антонин
антонио
антония
антонов
антоново
антрополог
антропология
антъни
анубис
анхалт
анхел
анхиало
аоста
ап
апарат
апарата
апарати
апаратура
апаратът
апартамент
апартамента
апартаменти
апартеи
апачи
апел
апертура
апиан
апии
апк
апогеи
апоел
апокалипсис
аполо
аполодор
аполон
аполония
апостол
апостола
апостоли
апостолите
апостолически
апостолов
апостолски
апр
април
априлов
априловската
априлското
априлци
апсида
апсидата
аптека
апулия
ар
ара
араби
арабите
арабия
арабска
арабската
арабски
арабските
арабския
арабският
арабско
арабското
арагон
арагонска
арагонски
аралско
арамеи
аранжимент
аранжименти
арафат
арбитраж
арбитражен
арбитър
аргир
аргиров
аргонавтите
аргос
аргумент
аргумента
аргументи
аргументите
арда
ардино
ардуин
ареал
ареала
арена
арената
аренберг
арес
арест
ареста
арести
арестува
арестуван
арестувана
арестуването
арестувани
арестуват
арецо
аржентина
аржентинска
аржентинската
аржентински
аржентинския
ариан
ариана
ариел
аризона
арии
аристократ
аристократи
аристокрация
аристокрацията
аристотел
ария
арк
арка
аркадии
аркадио
аркадия
арканзас
арката
арки
арктика
арктичен
арктически
арл
арлекин
арман
армандо
армеи
армения
арменска
арменската
арменски
арменските
арменския
арменско
арменското
арменци
арменците
армии
армиите
армия
армията
армстронг
арнаудов
арнаути
арним
арно
арнолд
арнсберг
арнулф
арнщаи
аромат
аромати
ароматни
арон
арс
арсен
арсенал
арсении
арсов
арт
арта
артемида
артерии
артерия
артефакти
артилерии
артилерия
артилерията
артист
артисти
артистите
артистичен
артоа
артур
артуро
артър
аруба
арумънски
арфа
арх
архангел
архангели
архангелск
архангелска
архелаи
археолог
археологическа
археологически
археологическите
археологическия
археологическо
археология
археологията
археолози
археолозите
архив
архива
архиви
архивирано
архивите
архивни
архивът
архидякон
архиепархия
архиепископ
архиепископа
архиепископи
архиепископия
архиепископът
архиереи
архимандрит
архимед
архипелаг
архипелага
архитект
архитекта
архитекти
архитектите
архитектура
архитектурата
архитектурен
архитектурна
архитектурни
архитектурните
архитектурния
архитектурно
архитектурното
архитектът
арън
ас
аса
асад
асамблея
асебург
асен
асеневци
асенов
асеновград
асизи
асимилация
асирии
асирия
асистент
асистенции
асистира
аскани
аскеер
аскер
аслан
асном
асоциации
асоциация
асоциацията
асоциира
асоцииран
асоциирани
аспарух
аспарухов
аспарухово
аспект
аспекти
асср
аст
астана
астерикс
астероид
астероида
астероиди
асти
астма
астронавт
астронавти
астронавтите
астронавтска
астроном
астрономи
астрономическа
астрономически
астрономия
астрономията
астурия
астън
ася
ат
ата
атака
атаката
атаки
атаките
атакува
атакуван
атакувани
атакуват
атакуващ
атал
аталанта
атанас
атанасии
атанасиос
атанасов
атанасова
ататюрк
аташе
атеисти
ателие
ателието
атентат
атентата
атентати
атентатите
атика
атила
атилии
атина
атинската
атински
атинския
атиняните
атланта
атлантида
атлантик
атлантика
атлантис
атлантически
атлантическия
атлас
атлети
атлетик
атлетика
атлетико
атмосфера
атмосферата
атмосферни
атмосферното
атола
атом
атома
атомен
атоми
атомите
атомна
атомната
атомни
атомните
атон
атракции
атракция
атрибути
атф
аугсбург
аугуст
аугусто
ауди
аудио
аудитория
аудиторията
ауершперг
аурелиано
аурора
аут
аушвиц
афанасии
афганистан
афера
аферата
афк
афонсу
африка
африканска
африканската
африкански
африканските
африканския
афроамерикански
афроамериканци
афродита
афротропическата
ах
ахая
ахеи
ахелои
ахил
ахмад
ахмед
ахмет
ацев
ацилии
ацо
ацтеките
аш
ашли
ашока
ашурбанипал
аякс
б
ба
баба
бабата
бабелсберг
бабенхаузен
бавария
баварска
баварската
баварски
баварския
бавен
бавна
бавни
бавно
бавното
багдад
баграмян
бад
баден
баева
база
базата
базел
бази
базилика
базиликата
базилики
базира
базиран
базирана
базиране
базирани
базирано
базират
базите
базов
базови
базовия
баи
баир
баия
бак
бакалавър
бакалавърска
бакалов
бактерии
бактериите
бактрия
баку
бал
бала
балабанов
балада
баладата
балади
балан
баланс
баланса
балдуин
балерина
балет
балета
балетмаи
балетни
балзак
бали
балистична
балистични
балкан
балкана
балкани
балканите
балканска
балканската
балкански
балканските
балканския
балкантон
балкона
балон
балотаж
балтазар
балтии
балтика
балтимор
балчик
бамберг
бан
банани
банат
бангладеш
банда
бандата
банди
бани
баните
баница
банк
банка
банката
банкер
банкери
банки
банките
банкноти
банкнотите
банков
банкова
банкови
банкок
банкс
банкя
банска
бански
банско
баня
банята
бар
бара
барабан
барабана
барабани
барабанист
барабаниста
барабанистът
барабаните
бараж
барак
барбадос
барбара
барбароса
барбера
барбета
барбетите
барби
барбуда
бард
барелеф
барет
бари
бариера
бариери
баритон
барка
барове
барок
барока
бароков
барокова
барокови
барон
баронеса
барони
бароните
барса
барселона
барт
бартенщаи
бартоломео
барут
бас
басараб
басеи
басист
басиста
баскетбол
баскетболен
баскетболист
баскетболисти
басни
бат
батак
батальон
батальона
батальони
батареи
батарея
батареята
бате
батенберг
батерии
батерия
батист
батиста
батман
батор
бафта
бах
бахамски
бахамските
бахнев
бахреи
бачо
баш
башибозук
башкирия
башкортостан
баща
бащата
бащи
бащина
бащите
баязид
баян
бвп
бг
бгвардеи
бдж
бдин
бдк
бдс
бе
беатрикс
беатрис
беатриче
бебе
бебета
бебето
бевърли
бег
беда
беден
бедна
бедни
бедните
бедно
бедност
бедността
бедствие
бедствия
бежанец
бежански
бежанско
бежанци
бежанците
без
безалкохолни
безброи
безвъзмездно
безгръбначни
бездеи
бездетен
бездната
безкраен
безкраи
безопасни
безопасно
безопасност
безопасността
безпилотни
безплатен
безплатна
безплатни
безплатно
безпокои
безпрепятствено
безработица
безработицата
безредици
безследно
безсмислено
безспорен
безспорно
безсрочно
безсъзнание
безусловно
безуспешно
беи
бек
бекер
бекет
бел
бела
беларус
беларуси
беларуската
беларуски
беласица
белая
белгии
белгия
белград
белградската
белградския
белев
белег
бележат
бележи
бележити
бележка
бележки
бележките
белези
белене
белетрист
белетристика
белжец
бели
белиз
белини
белите
белица
белия
белият
бело
белов
белово
белоградчик
белодробна
беломорието
беломорска
белтък
белтъци
белфаст
белчев
бельо
белязан
бемол
бен
бенгази
бенгал
бенгалия
бенд
бенджамин
беневенто
бенедето
бенедикт
бенет
бенетон
бензин
бени
бенин
бенито
бенковски
беноа
бентивольо
бентхаи
бенфика
бенц
београд
беотия
бер
берат
бербатов
берг
бергамо
берген
бергер
бергман
беренгар
бери
берия
берковица
берлебург
берлин
берлинската
берлински
берлинския
берн
бернабо
бернар
бернард
бернардино
бернардо
бернбург
бернули
бернхард
берово
берое
берон
берта
бертолд
бертолт
бертран
бертхолд
бесарабия
беседа
беседата
беседи
беседите
беседка
беси
бестселър
бестселъри
бестселърите
бет
бета
бети
бетовен
бетон
бетховен
беше
бешикташ
бешков
бзнс
би
бианка
биатлон
библеи
библиография
библиографски
библиотека
библиотекар
библиотеката
библиотеки
библиотеките
библия
библията
бива
биват
бивш
бивша
бившата
бивше
бившето
бивши
бившите
бившия
бившият
биг
бидеи
бие
биела
биенале
бижута
бизнес
бизнеса
бизнесмен
бизнесмени
бизони
бии
бик
бикенбах
бил
била
билбао
билбо
билборд
билдинг
билет
билети
били
билки
било
билото
биляна
билярски
бин
бинев
био
биографи
биографии
биографичен
биографическии
биографична
биографични
биография
биографията
биолог
биологичен
биологична
биологични
биологичните
биологично
биологичното
биология
биологията
биолози
биоразнообразие
биохимик
биохимия
бира
бирата
бири
биркенфелд
бирма
бирмингам
бирщаи
бис
бисау
бисексуални
бисер
бисмарк
бистра
бистрица
бистрицки
бит
бита
бити
битие
битието
битка
битката
битки
битките
биткои
битов
битова
битови
битовите
битово
битолска
битолската
битолски
битолския
битолско
битолското
битоля
бих
биха
бихме
бихте
бич
бият
бк
бкп
бл
блаватска
блага
благо
благовещение
благодарение
благодари
благодарност
благодаря
благодат
благодетел
благодетели
благоев
благоевград
благои
благонадеждни
благополучно
благоприятен
благоприятна
благоприятни
благоприятно
благоприятства
благороден
благородни
благородник
благородници
благородниците
благородническа
благороднически
благородничка
благосъстояние
благосъстоянието
благотворителен
благотворителна
благотворителната
благотворителни
благотворително
благотворителност
благоустрои
благочестиви
блаже
блажени
блаи
бланка
бланкенбург
бланкенхаи
бланко
бланш
блата
блатата
блатни
блато
блатото
блаца
бледо
блез
блеи
блек
блекбърн
блекмор
блестящ
блестящи
блеър
близка
близката
близки
близките
близкия
близкият
близко
близкото
близнак
близнаци
близнаците
близо
близост
близостта
близък
блис
блиц
блоа
блог
блога
блогове
блок
блока
блокада
блокадата
блокира
блокиран
блокиране
блокирането
блокирани
блокират
блокове
блокчета
блу
блум
блус
блъсков
блюхер
блясък
бм
бмв
бмп
бна
бнб
бнд
бниц
бнр
бнт
бо
боа
боб
боби
бобов
бобови
бобошево
бог
бога
богат
богата
богатата
богати
богатите
богатия
богатият
богато
богатото
богатства
богатство
богатството
богдан
богданов
богданци
богини
богиня
богинята
богове
боговете
богомил
богориди
богородица
богородично
богослов
богослови
богословие
богословски
богословския
богослужение
богота
богу
богът
бодливи
бодлоперка
боев
боеве
боевете
боезапас
боезапаса
боекомплект
боекомплектът
боемунд
боен
боеприпаси
боеприпасите
боец
боже
божества
божествен
божествена
божествената
божественото
божество
божи
божидар
божие
божието
божии
божилов
божинов
божия
божията
божков
божурище
бозаи
бои
боинг
бок
бока
бокачо
боклук
бокс
бокса
боксьор
боксьори
бол
боланден
болгар
болгарское
болград
болдуин
боледуване
болен
болеслав
болест
болести
болестите
болестта
боли
боливар
боливия
болид
болида
болиди
болист
болка
болката
болки
болна
болни
болните
болница
болницата
болници
болния
болният
болоня
болтън
болшая
болшевиките
болшинството
болшои
большая
боляри
бомба
бомбардиране
бомбардират
бомбардировач
бомбардировача
бомбардировачи
бомбардировка
бомбардировки
бомбардировките
бомбата
бомби
бомбите
бон
бона
бонапарт
бонбони
бонд
бонев
бонева
бонер
бони
бонифации
бонус
бончев
бончо
бор
бора
борба
борбата
борби
борбите
борд
борда
борджия
бординженер
бордо
бордовете
бордови
бордовите
борец
бори
боривое
борил
борис
борислав
борисов
борисова
борман
борн
борнео
боровец
борови
борово
борса
борусия
борци
борците
боряна
борят
бос
босилеград
босилек
босна
босненски
босненските
бостън
босфора
бот
бота
ботаник
ботаника
ботаническа
ботев
ботевград
ботичели
ботове
ботсвана
бохемия
бохум
бош
бошняци
боя
бояджиев
боядисани
боян
бояна
боянов
боят
бпц
бр
брабам
брабант
браво
брад
брада
брадата
брадва
брадли
брадърс
бразда
бразилия
бразилска
бразилската
бразилски
бразилските
бразилския
бразилското
браи
браила
брак
брака
бракове
бракът
брам
брамбила
брамс
бранд
бранденбург
брандо
брандън
бранко
бранкович
брат
брата
братислава
братовчед
братовчеди
братовчедка
братска
братски
братства
братство
братството
братът
братя
братята
браузър
браузъра
браузъри
браун
браунфелс
брауншваи
брахам
брацигово
брашно
брашов
браян
бре
брега
брегалница
брегенц
брегова
бреговата
брегове
бреговете
брегови
бреговите
брегово
брегът
бреда
брежен
брежие
брежието
брежия
брежията
брежна
брежната
брежнев
брежни
брежните
бреза
брезник
брезово
бреи
бремен
бременна
бременност
бременността
бренда
бреслау
брест
брет
бретан
бретон
брехт
бреша
бри
бриг
бригада
бригадата
бригаден
бригади
бридж
бристъл
британика
британия
британска
британската
британски
британските
британския
британският
британско
британското
британци
британците
брод
броди
бродуеи
броеве
броене
броени
брои
брокгауза
брокдорф
бромич
бронебои
бронева
броневата
броневи
броненосен
броненосец
броненосеца
броненосни
броненосните
броненосци
бронепалубни
бронетанкова
бронз
бронзов
бронзова
бронзовата
бронзови
бронзовите
брони
брониран
бронирана
бронираната
брониране
бронирането
бронирани
бронкхорст
броня
бронята
брос
брошура
брошури
броя
броят
брп
брсдп
брук
бруклин
брукс
брунеи
бруно
брус
брусарци
брут
брутално
брцк
бръмбар
бръмбари
брюкен
брюксел
бряг
бряга
бряст
бс
бсп
бта
бтв
бтр
бу
бугари
буда
будапеща
буди
будизма
будизъм
будистката
будистки
буенос
бузлуджа
буи
бук
букв
буква
буквален
буквално
буквата
букви
буквите
букова
букови
буково
букурещ
букурещкия
букър
бул
була
булгаков
булевард
булеварда
булеварди
були
булка
булката
булон
бум
бунар
бундеслига
бундеслигата
бунт
бунта
бунтове
бунтовете
бунтовници
бунтовниците
бунтът
бунюел
бурбон
бурбоните
бург
бургас
бургаска
бургаската
бургаски
бургаския
бургаско
бургграф
бургграфиня
бургундия
бургундска
бургундски
бурен
буржоазия
бури
бурите
буркина
буркхард
бурмов
бурни
бурно
буров
бурса
бурунди
бурхард
буря
бурята
бурятия
буси
бут
буталото
бутан
бутилка
бутилки
бутон
бутона
бутони
буш
бфс
бчк
бъбреците
бъбречна
бъгс
бъда
бъдат
бъде
бъдем
бъдете
бъдеш
бъдещ
бъдеща
бъдещата
бъдеще
бъдещето
бъдещи
бъдещите
бъдещия
бъдещият
бъдещо
бъдещото
бъди
бъкингам
бъл
бъла
бълг
българи
българин
българина
българинът
българите
българия
българка
българо
българоезичната
българска
българската
български
българските
българския
българският
българско
българското
българщината
бъмбъри
бър
бърд
бърдо
бърз
бърза
бързата
бързеи
бързи
бързина
бързите
бързия
бързо
бързото
бърк
бърка
бъркли
бърков
бърн
бърнард
бърни
бърно
бърнс
бърт
бъртън
бътлър
бъфало
бъфи
бъчваров
бьорн
бюджет
бюджета
бюджетът
бюдинген
бюканън
бюлетин
бюлетина
бюлетини
бюлов
бюрен
бюро
бюрократ
бюрото
бюст
бяга
бягаи
бягане
бягането
бягат
бягство
бягството
бял
бяла
бялата
бяло
бялото
бяс
бях
бяха
бяхме
в
ва
вавилон
вавилония
вагнер
вагон
вагона
вагони
ваджраяна
вади
вадим
важат
важен
важи
важна
важната
важни
важните
важния
важният
важно
важност
важността
важното
ваза
вазари
вази
вазов
ваи
ваканция
вакарел
ваксина
вакуум
вал
вала
валандово
валбурга
валдбург
валдек
валдемар
валденбург
валдщаи
вале
валежи
валежите
валенсия
валент
валентин
валентина
валентиниан
валентино
валери
валериан
валерии
валерия
валерщаи
вали
валиден
валидни
валидно
валидност
валидността
валия
валоа
валове
валовища
валрам
валтер
валута
валутата
валутен
валути
валя
вампир
вампири
ван
вана
вангел
вандали
вандализми
вандализъм
вандалите
ване
ванеса
ването
вани
ванка
ванкувър
вануату
ванчо
ваньо
ваня
вапцаров
вар
варвара
варварски
варгас
вардар
вардарска
варезе
вари
вариант
варианта
варианти
вариантите
вариантът
вариации
вариация
варира
варират
вариращи
варна
варненска
варненската
варненски
варненския
варненско
варненското
варовик
варовикови
варовици
вароша
вартенберг
вартоломеи
варшава
варшавския
варшавското
вас
васа
васал
васали
васил
василев
василева
василиев
василиевич
василии
василиос
василка
васко
ват
вата
ватикана
вафен
вацлав
ваш
ваша
вашата
ваше
вашето
вашингтон
вашите
вашия
вв
ввс
вграден
вградена
вградени
вдига
вдигане
вдигат
вдигнат
вдигне
вдишване
вдовец
вдовица
вдовицата
вдовици
вдро
вдъхновен
вдъхновена
вдъхновени
вдъхновение
вдъхновено
вдъхновява
вдясно
ве
вебер
вега
вегас
веднага
веднъж
ведомства
ведомство
вежди
везир
везни
везувии
веи
век
века
векове
вековете
вековни
вектор
вектора
вектори
вела
веласкес
велбъжд
велденц
веле
велев
велес
велешка
велешки
велешко
вели
велизар
велик
велика
великата
великден
велики
великите
великия
великият
велико
великобритания
великов
великолепни
великомъченик
великото
великотърновския
велинград
величество
величие
величието
величина
величината
величини
величко
величков
велко
велков
велосипед
велосипеди
велтхаи
велфи
велчев
вена
венедиков
венелин
венера
венета
венето
венец
венецианската
венециански
венецианския
венецианците
венеция
венецуела
вени
венизелос
венко
вентилация
венцел
венцеслав
венци
венцислав
вер
вера
вергилии
вергинии
верде
верденберг
вердер
верди
вердюн
верен
верея
верига
веригата
вериги
веригите
верижна
веркович
верле
вермахта
верн
вернер
верни
вернигероде
верните
верността
вероизповедание
вероизповедания
вероизповеданията
верона
вероника
вероятен
вероятна
вероятно
вероятност
вероятностите
вероятността
версаи
версии
версиите
версия
версията
вертикален
вертикална
вертикалната
вертикални
вертикално
вертикалното
вертолет
вертолета
вертолети
вертхаи
верчели
весел
весела
весели
веселие
веселин
веселина
веселинов
весело
весник
веспасиан
вест
вестготите
вестербург
вести
вестник
вестника
вестникът
вестници
вестниците
вестта
вестфалия
ветеран
ветерани
ветераните
ветеринарен
ветеринарна
ветини
вето
ветрен
ветрила
ветрило
ветрове
ветровете
вец
вече
вечен
вечер
вечери
вечерни
вечерта
вечеря
вечна
вечната
вечни
вечния
вечно
вечнозелени
вечността
вечното
вещ
вещества
веществата
вещество
веществото
вещи
вещите
вещица
вещицата
вещици
вж
взаимна
взаимни
взаимно
взаимното
взаимодеи
взаимоотношения
взаимоотношенията
взаимопомощ
взвод
взе
взел
взела
взели
взема
вземаи
вземане
вземането
вземания
вземат
вземе
вземем
вземете
вземи
взет
взета
взети
взето
взима
взимане
взимат
взрив
взрива
взривни
взривно
взривове
взривява
взривяват
взст
ви
виа
вианден
вибрации
вивалди
вивиан
виго
вид
вида
видал
видели
виден
видени
видение
видения
виденов
видео
видеоигри
видеоклип
видеоклипа
видеоклипове
видеоклипът
видеото
види
видим
видима
видимата
видими
видимо
видимост
видин
видинска
видинската
видински
видинския
видинско
видинското
видите
видиш
видна
видни
видните
видния
видният
видно
видове
видовете
видра
видът
видя
видял
видян
видяна
видят
видях
вие
виен
виена
виенската
виенски
виенския
виетнам
виетнамската
виетнамски
виж
вижда
виждаи
виждал
виждали
виждам
виждаме
виждане
виждания
виждат
виждате
виждаш
виждаше
вижте
виза
византии
византия
визита
визия
визията
визуален
визуализира
визуална
визуални
визуалните
визуално
вии
вик
вика
викарии
викарни
викат
викерс
вики
викинг
викингите
викове
виконт
виктор
виктория
вила
вилает
вилаета
вилаети
вилаетите
вилата
вилд
вилдунген
вилем
вили
вилидж
вилньов
вилнюс
вилхелм
вилхелмина
виляреал
вин
вина
винаги
вината
виндиш
винен
вини
винителен
виница
вино
виновен
виновни
виното
винс
винсент
винсънт
винт
винта
винтове
винченцо
винчи
виола
виолета
виолончело
вип
випуск
вир
вирджиния
вирджински
виреят
вирнебург
виртуален
виртуална
виртуалната
виртуални
вирус
вируса
вируси
вирусите
вирусни
вирусът
вис
висбаден
висенте
виси
вискозитет
висконти
висла
висок
висока
високата
високи
високите
високия
високият
високо
високодоговарящите
висококачествени
високопланински
високопланинските
високопоставени
високоранкираният
високосна
високото
висоцки
височаи
височество
височина
височината
височини
височините
висш
висша
висшата
висше
висшето
висши
висшите
висшия
висшият
висящи
вит
виталии
витамин
витамини
витгенщаи
вите
вителии
вителсбахи
витенберг
витербо
витиз
витиния
вито
виторио
витория
витоша
витцтум
вихрен
вихър
вице
вицеадмирал
вицекрал
вицепрезидент
вицепремиер
вицепремиери
вицешампион
вич
виченца
вия
вият
вк
вкара
вкаран
вкарани
вкарва
вкарват
вкл
включат
включва
включваи
включвал
включване
включването
включвания
включват
включващ
включваща
включващи
включващо
включен
включена
включени
включено
включи
включително
вкус
вкуса
вкусовата
вкусове
вкусови
вкусът
вкъщи
вл
влага
влагата
влад
владее
владение
владението
владения
владенията
владетел
владетели
владетелите
владетеля
владетелят
владеят
влади
владивосток
владигеров
владика
владиката
владимир
владимиров
владислав
владици
владичество
владко
владо
влажен
влажна
влажни
влажните
влажно
влажност
влажността
влаи
влак
влака
влакна
влакове
влаковете
влакът
власи
власите
власт
властелинът
власти
властите
властта
влахия
влахов
влашка
влашки
влашко
влезе
влезли
влечуги
влечугите
влечуго
влива
вливането
вливат
вливаща
вливащи
влиза
влизаи
влизане
влизането
влизат
влизащи
влияе
влияние
влиянието
влияния
влиятелен
влиятелна
влиятелни
влиятелните
влиятелния
влияят
вложени
влошава
влошаване
влошават
влъхвите
влюбва
влюбват
влюбен
влюбена
влюбени
вляво
влязат
влязла
влязъл
вмб
вместимост
вместо
вмок
вморо
вмро
вмс
вмф
вмъкване
вн
вна
внася
внасяне
внасят
внедряване
внедряването
внезапно
внесе
внесен
внесени
внимава
внимание
вниманието
внимателно
внос
вноса
вноски
внс
внук
внука
внукът
внуци
внуците
внучка
внушителна
во
вода
водата
водач
водача
водачеството
водачи
водачите
водачът
водеи
воден
водена
водене
воденето
водени
воденица
воденичаров
водено
воденска
воденската
воденско
водещ
водеща
водещата
водещи
водещите
водещия
водещият
водещо
води
водил
водина
водите
водна
водната
водни
водните
водния
водният
водно
водното
водныи
вододел
вододела
водоеми
водоизместимост
водоизместимостта
водолинията
водонепроницаеми
водопад
водопада
водопади
водопадът
водопровод
водорасли
водород
водорода
водородни
водосборен
водосборни
водосборните
водосборния
водосборният
водоснабдяване
водоснабдяването
водохранилище
водство
водството
водят
военачалник
военачалници
военен
военна
военната
военная
военни
военните
военния
военният
военно
военновъздушни
военновъздушните
военноиздателски
военноисторически
военноморска
военноморската
военноморски
военноморските
военноморския
военноморско
военноморското
военнопленник
военнопленници
военнопленниците
военнослужещи
военното
вожд
вожда
вождове
вождовете
вои
воин
воини
воините
вокал
вокален
вокали
вокалист
вокалиста
вокалистка
вокалите
вокална
вокални
вокално
волга
волдемор
волденберг
волеи
волен
волжка
волкенщаи
волов
вологодска
володимир
волта
волтер
волф
волфганг
волфег
волфенбютел
волфрам
волфсбург
воля
волята
вон
вормс
воронеж
воронежка
ворошилов
восток
восък
вот
вота
вото
воюва
воюват
воюващи
воюващите
вояджър
впечатлен
впечатление
впечатлението
впечатления
впечатлява
впечатляващ
впечатляваща
впечатляващи
вписан
вписани
вписано
вписва
вписване
вписват
впоследствие
впрочем
впуска
вр
враг
врага
врагове
враговете
врагът
вражда
враждата
враждебна
враждебни
враждебно
враждебност
вражески
вражеските
врана
враня
врата
вратар
вратаря
вратарят
вратата
врати
вратите
враца
врач
врачанска
врачански
врачанско
вреда
вреди
вредители
вредни
време
времеви
времена
времената
временен
времени
временна
временната
временни
временните
временно
временното
времето
времетраене
времетраенето
время
вро
вроцлав
връв
връзка
връзката
връзки
връзките
връх
връчва
връчване
връчването
връчват
връчен
връчена
връща
връщаи
връщане
връщането
връщания
връщат
вс
все
всеволод
всевъзможни
вседържител
всеки
вселена
вселената
вселенската
вселенски
всеобща
всеобщо
вси
всичката
всички
всичките
всичко
всичкото
вследствие
всред
всс
встрани
встъпва
встъпването
всъщност
всяка
всякаква
всякакви
всякакво
всякакъв
всяко
всякога
вт
вта
втк
втора
втората
втори
вторите
вторичен
вторична
вторични
вторично
втория
вторият
вторник
второ
втородивизионния
второи
второкласен
второстепенна
второстепенни
второто
вту
вуи
вук
вулкан
вулкана
вулкани
вулканичен
вулканична
вулканични
вулканът
вход
входа
входна
входната
входни
входно
входове
входовете
входът
вчера
въ
във
въведе
въведен
въведена
въведени
въведение
въведено
въвежда
въвеждане
въвеждането
въвеждат
въвлечен
въглеводороди
въглен
въглерод
въглерода
въглероден
въглеродни
въглеродните
въглехидрати
въглища
въглищата
въже
въжета
въжето
въз
възвишение
възвишението
възвишения
възвишенията
възвръща
възвръщане
възвърне
възглавница
възглавява
възглед
възгледи
възгледите
въздеи
въздух
въздуха
въздухът
въздушен
въздушна
въздушната
въздушни
въздушните
въздушния
въздушно
въздушното
въздържа
въздържали
въздържат
възел
възела
възкачва
възкачване
възкачването
възкресение
възкресението
възлага
възли
възлиза
възлизат
възложена
възложено
възможен
възможна
възможни
възможните
възможно
възможност
възможности
възможностите
възможността
възмущение
възнаграждение
възнаграждения
възнамерява
възнесение
възниква
възникване
възникването
възникват
възникнал
възникнала
възникнали
възникнало
възникнат
възникне
възобновява
възобновяване
възпаление
възпитание
възпитанието
възпитаник
възпитаници
възпитаниците
възпитател
възползва
възползваи
възползват
възпоменателен
възпрепятства
възпрепятстват
възприема
възприемане
възприемането
възприемат
възприет
възприета
възприети
възприето
възприятие
възпроизвежда
възпроизвеждане
възражда
възраждане
възраждането
възражения
възраст
възрастен
възрасти
възрастна
възрастната
възрастни
възрастните
възрастния
възрастният
възрастова
възрастови
възрастта
възродителния
възрожденец
възрожденска
възрожденски
възрожденци
възстановен
възстановена
възстановената
възстановени
възстановено
възстанови
възстановка
възстановява
възстановяване
възстановяването
възстановяват
възстановят
възторг
възхищава
възхищение
възход
възхода
възходът
вълев
вълк
вълка
вълко
вълков
вълкът
вълна
вълната
вълнение
вълнения
вълни
вълните
вълци
вълците
вълчанов
вълчев
вълчи
вълчо
вълшебната
вън
външен
външна
външната
външни
външните
външния
външният
външно
външнополитически
външното
въображение
въображението
въобще
въоръжен
въоръжена
въоръжената
въоръжени
въоръжение
въоръжението
въоръжените
въоръжения
въоръжено
въплъщение
въпреки
въпрос
въпроса
въпроси
въпросите
въпросната
въпросните
въпросния
въпросният
въпросното
въпросът
вър
върба
върбанов
върбени
върбица
върви
вървят
въри
върмонт
върна
върнал
върнат
върната
върнати
върнато
върне
въртене
въртенето
върти
въртят
въртящ
въртящи
върха
върхове
върховен
върховенството
върховете
върховна
върховната
върховния
върховният
върховно
върховното
върху
върхът
вършат
вършец
върши
въстава
въстават
въстаналите
въстание
въстанието
въстаници
въстаниците
въстаническа
въстанически
въстания
вътре
вътрешен
вътрешна
вътрешната
вътрешни
вътрешните
вътрешния
вътрешният
вътрешно
вътрешността
вътрешното
въча
вып
вьорнер
вюртемберг
вюрцбург
вяра
вярата
вярва
вярваи
вярвали
вярвам
вярвания
вярванията
вярват
вярващи
вярващите
вярна
вярно
вярност
вятър
вятъра
вятърът
вячеслав
г
га
габе
габон
габриел
габриела
габриеле
габрово
габровска
габровски
габровско
габър
гавраил
гавриил
гаврил
гаврилов
гага
гагарин
гадене
гаджанов
гадже
гаджев
гаетано
газ
газа
газене
газета
гази
газова
газове
газовете
газови
газовите
газпром
гаи
гал
гала
галактика
галактиката
галактики
галата
галатасараи
галац
галба
галеацо
гален
галена
галерии
галерия
галерията
гали
галилеи
галилео
галин
галина
галиполи
галисия
галите
галиция
галичник
галия
гало
галоус
галя
гама
гамбия
гана
ганг
ганглии
гандалф
ганди
ганев
ганева
ганчев
ганчева
ганчо
ганьо
гара
гарантира
гарантиране
гарантират
гаранции
гаранция
гарата
гарван
гарванов
гаргано
гарда
гардиън
гарднър
гардън
гарет
гари
гарибалди
гарнизон
гарнизона
гарнизони
гарос
гарсия
гастон
гата
гаус
гачев
гваделупа
гвардеи
гвардия
гватемала
гвиана
гвинея
гг
гданск
где
гдето
гдиня
гдр
гебхард
гевара
гевгели
гевгелии
гедерн
геи
гел
гелдерн
геминген
ген
гена
генадиев
генадии
генеалогия
генерал
генерала
генерален
генерали
генералите
генерална
генералната
генерални
генералните
генералния
генералният
генерално
генералното
генералът
генератор
генератора
генератори
генерация
генерира
генериране
генерирани
генерират
генетика
генетичен
генетична
генетични
генетично
гени
гении
генков
гено
генов
генова
геноцид
генс
гент
генуа
генчев
генчева
генчо
гео
географ
географи
географические
географических
география
географията
географска
географската
географски
географските
географския
географско
географското
геодезия
геолог
геология
геологията
геоложка
геоложки
геоложкия
геолози
геометрична
геометрични
геометрия
геометрията
георг
георге
георги
георгиев
георгиева
георгиевски
георгии
георгиос
гер
гера
герасим
герасимов
герб
герба
гербове
гербовете
гербът
гергана
гергова
гергьовден
герджиков
гереро
гери
герлах
герман
германик
германия
германо
германов
германска
германската
германски
германските
германския
германският
германско
германското
германци
германците
геро
геров
герои
героизъм
героиня
героинята
героите
геролдсек
героя
героят
гертруд
гертруда
герхард
гестапо
гета
гето
гешев
гешов
гея
ги
гибел
гибелта
гибралтар
гибсън
гигант
гиганти
гигантска
гигантски
гигантския
гиз
гизела
гии
гилбърт
гилгамеш
гилдията
гилермо
гилън
гимназиален
гимназии
гимназия
гимназията
гимнастика
гинес
гипс
гирландаи
гк
гкпп
гл
глава
главата
главен
глави
главите
главна
главната
главни
главните
главния
главният
главно
главнокомандващ
главнокомандващия
главното
главоболие
глагол
глагола
глаголи
глаголите
глад
глада
гладка
гладки
гладко
гладстон
глазгоу
глаи
глас
гласа
гласи
гласна
гласни
гласните
гласове
гласовете
гласува
гласувал
гласували
гласувалите
гласувам
гласуваме
гласуване
гласуването
гласувания
гласуват
гласът
глаухау
гледа
гледаи
гледам
гледан
гледане
гледания
гледат
гледаше
гледка
гледна
гледната
гледни
глен
глина
глинени
глинести
глини
глоба
глобален
глобална
глобалната
глобални
глобално
глобалното
глоби
глобус
гложене
глория
глостър
глоувър
глупост
глупости
глухите
глюкоза
глюкозата
глюксбург
гнаи
гнева
гнезда
гнездене
гнезди
гнездо
гнездото
гнездят
гнеи
гну
гняв
го
гоа
говеда
говор
говора
говорен
говорене
говореше
говорещи
говорещите
говори
говорим
говорител
говориш
говоря
говорят
гог
гого
гогол
год
года
годежа
годеница
годеницата
година
годината
години
годините
годишен
годишна
годишната
годишни
годишник
годишнина
годишнината
годишните
годишния
годишният
годишно
годишното
годни
годуин
годунов
гои
гол
гола
голгота
голдбърг
голдуин
голдън
голема
големи
големина
големината
големите
големия
големият
големо
голи
голмаи
голо
голова
голове
головете
голф
голям
голяма
голямата
голямо
голямото
гомес
гон
гонг
гондзага
гонения
гоненията
гонзага
гонзалес
гони
гоно
гонсалес
гонсало
гор
гора
горан
горанов
гората
горбачов
горд
горди
гордиан
гордост
гордостта
гордън
горе
горен
горене
горенци
горещ
гореща
горещи
горещите
горещо
гори
горива
горивната
горивни
гориво
горивото
гористи
горите
горица
горички
горки
горна
горната
горни
горните
горния
горният
горно
горноджумаи
горното
горнотракии
горска
горската
горски
горските
горския
горско
горското
горуша
горчив
горчивина
горчиво
господ
господа
господар
господари
господарите
господарка
господаря
господарят
господен
господи
господин
господинов
господне
господство
господството
госпожа
госпожица
гост
гости
гостивар
гостите
гостоприемник
гостоприемници
гостува
гостуване
гостуването
гостуващ
государственныи
гота
готвач
готвене
готви
готвят
готи
готик
готика
готите
готическа
готическата
готически
готлиб
готов
готова
готови
готовност
готовността
готово
готорп
готски
готфрид
гоце
гоцев
гочев
гоя
гп
гр
гра
грабеж
грабежи
гравитационно
гравитационното
гравитация
гравитацията
гравюра
гравюри
град
града
градеж
градец
гради
градина
градината
градини
градините
градински
градище
градове
градовете
градоустрои
градска
градската
градски
градските
градския
градският
градско
градското
градуса
градче
градчета
градчето
градът
граждани
гражданин
гражданите
гражданска
гражданската
граждански
гражданските
гражданския
гражданско
гражданското
гражданство
гражданството
граи
гракх
грам
грама
грамада
грамадата
граматик
граматика
граматиката
граматически
грами
грамота
грамоти
грамотност
грамотността
гран
гранада
гранати
гранд
гранде
гранди
гранит
гранити
граница
границата
граници
границите
граничен
граничи
гранична
граничната
гранични
граничните
граничния
грант
граф
графа
график
графика
графиката
графики
графиня
графинята
графит
графити
графичен
графична
графични
графично
графове
графовете
графства
графство
графството
графът
грац
гребане
гребен
гревена
грег
грегор
грегъри
греда
греди
греи
греков
гренада
гренадини
гренадирска
гренадирски
гренландия
гренобъл
греха
грехове
греховете
грец
грешка
грешката
грешки
грешките
грешна
грешни
грешно
греъм
гривни
григор
григорианския
григории
григоров
григорович
грижа
грижат
грижата
грижи
грижите
гризач
гризачи
грии
грим
гринуич
грип
гриша
гриър
гроб
гроба
гробаря
гробища
гробищата
гробище
гробищен
гробището
гробница
гробницата
гробници
гробниците
гробове
гробовете
гробът
грозде
гроздето
грозев
грозни
грос
гросмаи
гросо
гротмачтата
грохот
гроша
груб
груба
грубенхаген
груби
грубо
груев
грузинска
грузинската
грузински
грузинския
грузия
грумбах
груп
група
групата
групи
групирани
групират
групировка
групировката
групировки
групите
групов
групова
груповата
групови
гръб
гръбначни
гръбначните
гръбначния
гръдния
грък
гръко
гръм
гръндж
грънчаров
гръцка
гръцката
гръцки
гръцките
гръцкия
гръцкият
гръцко
гръцкото
грях
гу
гуадалканал
гуадалупе
гуам
гуанджоу
гуандун
гуанси
губеи
губернатор
губернатора
губернаторът
губерния
губещ
губи
губят
гугъл
гуеи
гуидо
гулаг
гулдена
гулиелмо
гума
гумендже
гуми
гумите
гунделфинген
гурко
гурково
гуру
гусман
густав
густаво
гутенберг
гутиерес
гучи
гущер
гущери
гщ
гъба
гъбата
гъби
гъбите
гъвкави
гъвкавост
гъл
гълъб
гълъби
гълъбов
гълъбови
гълъбово
гън
гънки
гър
гърба
гърдата
гърдев
гърди
гърдите
гъркомани
гърло
гърлото
гърлс
гърци
гърците
гърция
гъска
гъски
гъста
гъсти
гъсто
гъстота
гъстотата
гьобелс
гьоринг
гьорче
гьоте
гьотеборг
гьотинген
гюешево
гюзелев
гюмюрджина
гюнтер
гюргево
гюстав
гюстров
д
да
даби
дава
даваи
давал
давам
даване
даването
дават
даващи
давид
давидов
даг
дагестан
дагсбург
дадат
даде
дадем
даден
дадена
дадената
дадени
дадените
дадения
дадено
даденото
дадох
даже
даи
дакар
дакия
дакота
дал
дала
далаи
далас
далберг
далекобои
далекомер
далеч
далече
далечен
далечина
далечината
далечна
далечната
далечни
далечните
далечния
далечно
далечното
дали
далмация
дало
далчев
дам
дама
дамаск
дамата
даме
дами
дамски
дамян
дамянов
дан
дана
данаил
данаилов
данев
дани
даниел
даниела
даниеле
даниелс
даниил
данило
даниъл
дания
данни
данните
дано
данов
данс
данте
данциг
данък
данъка
данъци
данъците
данъчен
данъчна
данъчната
данъчни
данъчните
данъчно
дар
дара
дарба
дарби
дарвин
дарданелите
дарени
дарение
дарения
дари
дарии
дарик
дарио
дарител
дарители
дармщат
дарове
даровете
дарън
дарява
даряват
даскал
даскалов
дат
дата
датата
дати
датира
датиран
датирана
датиране
датирани
датират
датираща
датиращи
датировка
датите
датска
датската
датски
датския
даун
дафни
дахау
дахо
дахомеи
даян
даяна
дв
два
двадесет
двадесети
дваи
двама
двамата
дванадесет
дванадесети
дванадесетте
дванаи
двата
две
двери
двеста
двете
двиа
двигател
двигатели
двигателите
двигателя
двигателят
движат
движение
движението
движения
движенията
движеща
движещи
движи
двина
двоен
двои
двор
двора
дворец
двореца
дворецът
дворове
дворци
дворците
дворцов
дворцовата
дворцовия
дворът
дворянин
двубои
двубоя
двуетажна
двукратен
двуоръдеи
двустранни
двустранните
двустранно
дг
ддс
де
дебат
дебати
дебел
дебела
дебели
дебелина
дебелината
дебелото
дебелянов
деби
дебит
дебора
дебър
дебърска
дебърската
дебърски
дебърско
дебърското
дебърца
дебют
дебюта
дебютен
дебютира
дебютни
дебютния
дебютният
дебютът
дева
девет
девета
деветата
девети
деветия
деветнадесетомаи
девето
деветосептемврии
деветоюнския
деветте
девиз
девин
девическа
девически
девическо
девня
девои
девол
девън
дедеагач
дедо
деен
деец
деи
дек
декан
декара
декарт
декември
декларации
декларация
декларацията
декларира
декоративен
декоративна
декоративни
декоративно
декорации
декорация
декорацията
декрет
декстър
дел
дела
делата
делауеър
делберг
деле
делев
делегат
делегати
делегатите
делегации
делегация
делегацията
делене
деление
дели
делник
делничен
дело
делото
делта
делтата
делукс
делфи
делфин
делфини
делхи
делчев
делът
дельо
делян
делят
дем
деметра
деметрии
деми
демир
демо
демова
демови
демовия
демография
демографска
демографски
демографско
демократи
демократите
демократичен
демократическа
демократическата
демократически
демократическия
демократична
демократичната
демократични
демократичните
демократично
демокрация
демокрацията
демон
демони
демонстрации
демонстрация
демонстрира
демонстрират
демонтирани
ден
дена
денвър
денев
дени
денивелация
дениз
денис
деница
денов
денонощие
денонощието
денонощия
денс
денч
деня
денят
деп
депаи
департамент
департамента
департаменти
депо
депортиво
депортирани
депресия
депресията
депутат
депутати
депутатите
дер
дерби
дербито
дервент
дере
дерек
дери
дерида
дерменджиев
дерфлингер
десант
десанта
десантни
десау
десен
десерт
десет
десета
десетата
десети
десетилетие
десетилетието
десетилетия
десетина
десетия
десетки
десетоного
десетте
деси
десислава
десни
десните
десницата
десния
десният
деспот
деспотство
дестилация
дестинации
дестинация
дет
детаи
дете
детектив
детелина
детето
детмолд
дето
детрои
детска
детската
детски
детските
детския
детско
детското
детство
детството
дефанзивен
дефекти
дефиле
дефинира
дефиниран
дефинирана
дефинирани
дефинират
дефиниции
дефиниция
дефиницията
дефицит
деформация
деца
децата
деции
децим
дечански
дечев
дечо
деян
деяние
деяния
деянов
деятел
деятели
деятелка
дж
джа
джаз
джаза
джаи
джак
джакарта
джаки
джакомо
джаксън
джамбазов
джамии
джамия
джамията
джан
джанет
джани
джанската
джански
джарет
джебел
джевянин
джеи
джексън
джем
джемини
джена
джени
дженифър
дженкинс
дженоа
джентиле
джералд
джерард
джери
джерико
джеръми
джеси
джесика
джеф
джеферсън
джефри
джи
джибути
джиджи
джизие
джии
джил
джим
джими
джин
джина
джироламо
джо
джоан
джобс
джована
джовани
джоди
джоел
джои
джокович
джон
джонас
джонатан
джони
джонс
джонстън
джонсън
джордан
джордано
джордж
джорджия
джорджо
джото
джоу
джоузеф
джоуи
джоунс
джош
джошуа
джу
джудже
джуджета
джуджетата
джуди
джудит
джудо
джузепе
джули
джулиан
джулиано
джулиет
джулио
джулия
джумая
джун
джунглата
джуниър
джуфре
джъд
джъл
джън
джър
джъри
джърси
джъстин
дзен
дзин
ди
диабет
диагноза
диагнозата
диагностика
диаграма
диаграмата
диаграми
диалект
диалекта
диалекти
диалектологические
диалектология
диалог
диалога
диалози
диамант
диаманти
диаметралната
диаметър
диаметъра
диаметърът
диана
диапазон
диапазона
диарбекир
диария
диас
диаспора
див
дива
дивата
дивеч
диви
дивизии
дивизион
дивизионен
дивизионна
дивизия
дивизията
дивисион
дивите
дивия
диво
диги
дигитален
дигитална
дигитални
дигитално
диджеи
диджитал
дидие
дидро
диего
диема
диета
диетата
дижон
дизаи
дизел
дизелов
дизелови
дии
дик
дикенс
дикинсън
диков
диксън
диктатор
диктатора
диктатура
диктатурата
диленбург
дилинген
дилън
дим
дима
димитри
димитриев
димитрии
димитрина
димитриос
димитрис
димитров
димитрова
димитровград
димитровска
димитър
димо
димов
димова
диморфизъм
димотика
димчев
димчо
дин
динамика
динамиката
динамичен
динамична
динамични
динамично
динамо
династии
династия
династията
динев
динков
дино
динозаври
дио
диоген
диод
диоди
диодор
диоклециан
диоксид
дион
дионис
дионисии
диоцез
диоцеза
диплом
диплома
дипломат
дипломата
дипломати
дипломатическа
дипломатическата
дипломатически
дипломатическите
дипломатическо
дипломация
дипломацията
дипломи
дипломира
дипломирането
дир
директен
директива
директивата
директна
директни
директните
директно
директор
директора
директори
директорите
директорът
дирекции
дирекция
дирекцията
диригент
диригенти
диригентството
дирижира
дирк
дис
дисертация
дисертацията
диси
дисиденти
диск
диска
дискавъри
дисквалификация
диско
дискове
дискография
дискриминация
дискусии
дискусиите
дискусия
дискусията
дискутира
дискът
дисни
дисплеи
дистанции
дистанционно
дистанция
дистанцията
дистрибуция
дисциплина
дисциплинарно
дисциплината
дисциплини
дисциплините
дитер
дитрих
дитрихщаи
диференциация
дихателната
дихателни
дихателните
диц
дичо
дишане
дишането
диъм
дка
дкмс
длиц
длъжен
длъжна
длъжни
длъжника
длъжност
длъжности
длъжностите
длъжностни
длъжностно
длъжността
для
дмитрии
дн
дневен
дневна
дневни
дневник
дневника
дневникът
дневници
дневниците
дневния
дневно
днепър
днес
днестър
днешен
днешна
днешната
днешни
днешните
днешния
днешният
днешно
днешното
дни
дните
днк
до
добавен
добавена
добавени
добавено
добавете
добави
добавите
добавих
добавка
добавки
добавя
добавяи
добавяне
добавянето
добавят
добив
добива
добиване
добиват
добивът
добитък
добитъка
доближава
доближи
добра
добрата
добре
добрев
добрева
добри
добрин
добринище
добрите
добрич
добричка
добрия
добрият
добро
доброволен
доброволец
доброволни
доброволно
доброволци
доброволците
доброволческа
доброволчески
добродетел
добродетели
добромир
доброта
доброто
добруджа
добруджански
добър
доведат
доведе
доведен
довежда
довеждат
довел
довела
довели
довело
доверие
доверието
доводи
доволен
доволни
довършва
довърши
дог
доган
договаря
договарят
договарящите
договор
договора
договори
договорите
договорът
доде
дож
доживотен
доза
дози
дои
док
докаже
доказан
доказана
доказани
доказано
доказателства
доказателствата
доказателство
доказва
доказване
доказват
докато
доклад
доклада
докладва
докладват
доклади
докладите
докладът
доколко
доколкото
докосва
докосване
докраи
доктор
доктора
докторанти
докторантура
докторат
доктори
докторов
докторска
докторската
докторът
доктрина
доктрината
доктрини
документ
документа
документален
документалистика
документална
документални
документалния
документално
документация
документацията
документи
документира
документирани
документирано
документите
документът
дол
долар
долара
долари
долен
доли
долина
долината
долини
долините
долна
долната
долни
долните
долния
долният
долно
долното
долорес
долу
дом
дома
домакин
домакини
домакините
домакинска
домакинската
домакински
домакинските
домакинства
домакинствата
домакинство
домакинството
домакиня
домати
домашен
домашна
домашната
домашни
домашните
домашно
домашното
домаћинстава
домеи
доменико
доминация
доминго
доминик
доминика
доминиканска
доминиканската
доминира
доминират
доминираща
доминиращата
домициан
домиции
домове
домовете
домхер
домът
дон
дона
доналд
донася
донасят
донатело
донбас
донг
донев
донесе
донесени
донецк
донецка
дони
доницети
донка
донован
донски
дончев
дончева
дончо
доня
донякъде
доп
допинг
допир
допитване
допреди
допринася
допринасят
допринесе
допринесли
допуск
допуска
допускане
допускат
допуснат
допуснати
допусне
допустими
допустимо
допълва
допълване
допълват
допълнена
допълнение
допълнения
допълнено
допълни
допълнителен
допълнителна
допълнителната
допълнителни
допълнителните
допълнително
допълнителното
дора
дори
дории
дорис
дория
доротея
дороти
дортмунд
дос
досега
досегашните
досие
досиетата
доспат
доста
доставени
достави
доставка
доставката
доставки
доставките
доставчик
доставчици
доставя
доставят
достатъчен
достатъчна
достатъчни
достатъчно
достига
достигаи
достигане
достигането
достигат
достигащи
достигна
достигнал
достигнала
достигнали
достигнат
достигне
достоверни
достоверност
достоверността
достоевски
достоен
достои
достояние
достъп
достъпа
достъпен
достъпна
достъпни
достъпно
достъпът
дотам
дотогава
дотолкова
дотук
доусън
дофин
доха
доход
доходи
доходите
доц
доцент
дочев
дошла
дошли
дошло
дошъл
доюлианския
дп
дпмне
дпс
др
драва
драган
драганов
драгаш
драгнев
драго
драговищица
драгои
драгоман
драгомир
драгомиров
дразни
драи
дракон
дракона
дракони
драконите
дракула
драма
драмата
драматичен
драматична
драматични
драматичния
драматично
драматург
драматургия
драматурзи
драми
драмско
драстично
драч
дребен
дребна
дребни
дребните
дребно
древен
древна
древната
древни
древните
древния
древният
древно
древногръцка
древногръцката
древногръцки
древногръцкия
древноримски
древност
древността
древното
дредноут
дредноути
дрезден
дреи
дреха
дрехи
дрехите
дрии
дрин
дринов
дрих
дриън
дроб
дробове
дрожди
друг
друга
другаде
другар
другари
другарите
другата
други
другите
другия
другият
друго
другото
дружба
дружбата
дружества
дружествата
дружество
дружеството
дружина
дружината
дружини
друз
друмев
дръжка
дръжката
дръжки
дръзки
дрю
дряново
дс
дсб
дсо
дт
ду
дуаи
дубаи
дублаж
дублажа
дублажи
дублажът
дублира
дублиращ
дублиращия
дубровник
дубъл
дуел
дует
дуета
дуети
дузина
дузпа
дузпи
дуи
дук
дука
дуката
дулово
дума
думата
думбалаков
думи
думите
дунав
дунава
дунавска
дунавската
дунавски
дунавските
дунавския
дуо
дуото
дупка
дупката
дупки
дупница
дуранкулак
дуриданов
дурлах
дути
дутин
дух
духа
духов
духове
духовен
духовенство
духовенството
духовете
духови
духовна
духовната
духовни
духовник
духовните
духовници
духовния
духовно
духовното
духът
душа
душан
душата
душевно
души
душите
душки
дхарма
дъ
дъб
дъблин
дъбник
дъбови
дъга
дъгата
дъги
дъглас
дъдли
дъжд
дъжда
дъждове
дъждовен
дъждовни
дъждовно
дъл
дълбок
дълбока
дълбоката
дълбоки
дълбоките
дълбоко
дълбокото
дълбочина
дълбочината
дълбочини
дълг
дълга
дългата
дълги
дългите
дългия
дългият
дълго
дългове
дълговете
дългогодишен
дългогодишна
дългогодишната
дългогодишни
дългогодишния
дългосрочен
дългосрочни
дългото
дълготраи
дължат
дължи
дължина
дължината
дължини
дълъг
дъмбълдор
дън
дъна
дънкан
дъно
дънов
дъното
дър
дърам
дърва
дървен
дървена
дървената
дървени
дървените
дървено
дървесина
дървесината
дървесна
дървесни
дървета
дърветата
дърво
дърворезба
дървото
държа
държава
държавата
държавен
държави
държавите
държавна
държавната
държавни
държавник
държавните
държавния
държавният
държавно
държавност
държавното
държан
държани
държат
държи
дъска
дъската
дъски
дъф
дъх
дъщери
дъщерите
дъщерни
дъщеря
дъщерята
дьо
дю
дюи
дюк
дюлгеров
дюма
дюн
дюни
дюнкерк
дюрер
дюселдорф
дюш
дявол
дявола
дяволи
дяволът
дядо
дядото
дяков
дякон
дял
дяла
дялове
дянков
дясна
дясната
дясно
дясното
е
еад
еберхард
еберщаи
ева
евакуация
евакуацията
евакуира
евакуирани
евангелие
евангелието
евангелия
еванс
евбея
евгени
евгении
евгения
евдокия
евентуален
евентуална
евентуални
евентуално
еверест
евертън
еверщаи
евклид
евлия
евлоги
еволюира
еволюция
еволюцията
евразии
евразия
евреи
евреин
евреите
евридика
еврипид
евро
евровизия
евродепутати
еврозоната
европа
европеец
европеи
еврото
евротурнирите
евсевии
евстатии
евтим
евтимии
евтимов
евтин
евтина
евтини
евтино
евънс
егеи
егидата
египет
египетска
египетската
египетски
египетските
египетския
египтяни
египтяните
егмонт
его
егон
ед
еда
едва
едвард
едгар
еден
едеса
еди
едикт
един
единадесет
единадесета
единадесети
единаи
единбург
единбургския
единен
единица
единицата
единици
единиците
единичен
единична
единични
единично
единия
единият
единна
единната
единния
единно
единодушно
единствен
единствена
единствената
единствените
единствения
единственият
единствено
единственото
единство
единството
едип
едисън
едит
едмънд
една
еднаква
еднакви
еднакво
еднакъв
едната
едни
едните
едно
едновременно
едногодишен
еднозначно
едноименен
едноименна
едноименната
едноименния
едноименният
едноименното
еднокорабна
еднократно
едноличен
еднолично
еднорог
едностранно
едното
едо
едра
едри
едрите
едро
едуар
едуард
едуардо
едуардс
едуин
едър
ежегоден
ежегодни
ежегодния
ежегодно
ежедневен
ежедневието
ежедневни
ежедневник
ежедневните
ежедневния
ежедневно
ежи
ез
езда
езера
езерата
езерни
езеро
езерото
език
езика
езиков
езикова
езиковата
езиковед
езиковеди
езикови
езиковите
езиково
езикознание
езикът
езици
езиците
езически
езуитите
еи
еио
ек
ека
екатерина
екатеринбург
еквадор
екватора
екваториална
еквивалент
еквивалентни
еквивалентно
екзарх
екзархии
екзархисти
екзархия
екзархията
екзекутира
екзекутиран
екзекутирани
екзекуции
екзекуция
екзекуцията
екземпляр
екземпляра
екземпляри
екзотични
екип
екипа
екипаж
екипажа
екипажи
екипажите
екипажът
екипи
екипировка
екипите
екипът
еко
екол
екологичен
екологична
екологични
екологично
екология
екологията
екосистеми
екран
екрана
екрани
екранизации
екранизация
екранизиран
екраните
екс
експанзия
експедиции
експедициите
експедиционна
експедиция
експедицията
експеримент
експеримента
експериментален
експериментална
експериментални
експериментално
експерименти
експериментира
експериментите
експерт
експерти
експертиза
експертите
експлоатация
експлоатацията
експлоатира
експлоатират
експлозиви
експлозии
експлозия
експлозията
експозиции
експозиция
експозицията
експонати
експрес
екстремни
ектор
екшън
екшъни
ел
ела
елада
елам
елас
еласона
елба
елвира
елвис
елдъров
електра
електрическа
електрическата
електрически
електрическите
електрическия
електрическо
електрическото
електричество
електричеството
електро
електроенергия
електромагнитна
електромагнитни
електромагнитно
електрон
електрона
електронен
електрони
електроника
електрониката
електроните
електронна
електронната
електронни
електронните
електронния
електронно
електронното
електротехника
електроцентрала
електроцентрали
елемент
елемента
елементарна
елементарни
елементарните
елементи
елементите
елен
елена
елени
елеонора
елешница
елза
елзас
ели
елиас
елиза
елизабет
елизабета
елии
елиминации
елиминира
елиминиран
елиминират
елин
елинор
елиптична
елис
елисавета
елит
елита
елитната
елитните
елитния
елица
елиът
елия
елка
ело
елтън
елфи
елфите
елфо
елхово
елцин
елън
ем
ема
емаи
емануел
емануил
еманюел
емас
ембарго
емблема
емблемата
емблеми
емден
емен
емерсон
еми
емигрант
емигранти
емигрантски
емиграция
емиграцията
емигрира
емигрират
емил
емили
емилиан
емилии
емилио
емилия
емин
емине
емир
емирства
емисии
емисиите
емисия
емих
емма
емоции
емоциите
емоционален
емоционална
емоционални
емоционално
емпаи
емс
ен
ена
енар
енгелберт
енгелс
енгъл
енд
ендемити
ендемичен
ендемични
енев
енеи
енергетика
енергетиката
енергетична
енергиен
енергии
енергично
енергия
енергията
ензим
ензима
ензими
ензимите
ени
енигма
енидже
ениджевардарско
ениджевардарското
еникьои
енисеи
ено
енорд
енории
енория
енорията
енрике
енрико
енс
ентусиазъм
ентусиаст
ентусиасти
ентърпраи
ентъртеи
енциклопедии
енциклопедичен
енциклопедична
енциклопедични
енциклопедично
енциклопедия
енциклопедията
енцо
енчев
енчо
енщаи
еня
ео
еоод
еп
епархии
епархия
епархията
епидемии
епидемия
епидемията
епизод
епизода
епизоди
епизодите
епизодични
епизодът
епилепсия
епир
епископ
епископа
епископи
епископите
епископия
епископски
епископство
епископът
епопея
епос
епоха
епохата
епохи
епстии
епщаи
ер
ера
еразъм
ерархия
ерархията
ерата
ербах
ервин
ердман
ердоган
ереван
еремия
ерера
ерес
ери
ерик
ерика
ериксон
еритрея
ерих
ерколе
ерма
ерн
ернан
ернандес
ернест
ернестина
ернестини
ернесто
ернст
еро
ероглифи
ерозия
ерозията
еромонах
ероним
ерос
еротична
еротични
ерусалим
ерфурт
ерцхерцог
ерцхерцогиня
ес
есе
есеист
есеисти
есеистика
есекс
есен
есенен
есенни
есенния
есенно
есента
есета
есето
ескадра
ескадрата
ескадрила
ескадрили
ескадрон
ескадрона
ескалира
ески
ескорт
есмералда
еспаньол
есперанто
ест
есте
естебан
естер
естествен
естествена
естествената
естествени
естествените
естествения
естественият
естествено
естественото
естество
естеството
естетика
естетиката
естетически
естония
естонски
естрада
есхил
ет
ета
етаж
етажа
етажи
еталон
етап
етапа
етапи
етиен
етика
етиката
етикет
етикета
етикети
етимология
етимологията
етиопия
етични
етническа
етническата
етнически
етническите
етническия
етническият
етническо
етничка
етно
етнограф
етнография
етнографска
етнографски
етнографско
етнология
етнос
етноси
ето
етолии
етрополе
етруски
етруските
етър
етюди
еф
ефект
ефекта
ефекти
ефективен
ефективна
ефективната
ефективни
ефективно
ефективност
ефективността
ефективното
ефектите
ефектът
ефенди
ефес
ефикасно
ефир
ефира
ефрат
ефреи
ефрем
ефрона
ефтимов
ех
ехо
ечемик
ешелон
еър
еърбъс
ж
жа
жаба
жаби
жажда
жак
жаклин
жалба
жалбата
жалби
жалко
жалост
жан
жана
жандармерии
жандармерия
жандармерията
жанеи
жанет
жанр
жанра
жанрове
жанровете
жар
жаргон
жарие
жасмин
же
жеко
жеков
желае
желаете
желаещи
желаещите
желаната
желани
желание
желанието
желаните
желания
желанията
желателно
желая
желаят
желев
железен
железни
железните
железница
железницата
железници
железниците
железния
железният
железопътен
железопътна
железопътната
железопътни
железопътните
железопътния
желю
желязков
желязна
желязната
желязо
желязото
жена
жената
женева
женевския
женен
женена
женени
жени
женитба
женитбата
жените
женска
женската
женски
женските
женския
женско
женското
женят
жераи
жерар
жермен
жертва
жертвата
жертви
жертвите
жертвоприношения
жест
жестове
жесток
жестока
жестоки
жестоко
жестокост
жечев
жечпосполита
жив
жива
живак
живата
живее
живеели
живеем
живеене
живееш
живеещ
живеещи
живеещите
живели
живея
живеят
живи
живите
живка
живко
живков
живкова
живо
живопис
живописен
живописец
живописна
живописни
живописта
живописци
живот
живота
животинска
животински
животинските
животинския
животинският
животни
животните
животно
животновъдство
животновъдството
животното
животът
живял
живяла
жизнен
жизнения
жизнено
жизни
жизнь
жил
жилища
жилищата
жилище
жилищен
жилището
жилищна
жилищни
жилищните
житеи
жител
жители
жителите
житие
житието
житни
жито
жк
жлеза
жлези
жоао
жозе
жозеф
жорж
жофроа
жп
жребии
жребият
жрец
жреци
жск
жуан
жуау
жуков
жул
жулиета
жупан
жупания
жури
журито
журнал
журналист
журналиста
журналисти
журналистика
журналистиката
журналистите
журналистическа
журналистка
журналистката
журналистът
жълт
жълта
жълтата
жълти
жълто
з
за
заалфелд
заб
забавен
забави
забавление
забавления
забавлява
забавна
забавни
забавя
забавяне
забавянето
забавят
забаи
забележи
забележителен
забележителна
забележителни
забележителните
забележително
забележителност
забележителности
забележителностите
забележка
забележки
забелязал
забелязан
забелязана
забелязани
забелязва
забелязват
заблатена
заблатени
заблуда
заболява
заболяване
заболяването
заболявания
заболяванията
забравен
забравени
забрави
забравил
забравя
забравяи
забрана
забраната
забранен
забранена
забранени
забранено
забрани
забранява
забраняват
забременява
заварва
заваряване
заведение
заведения
завежда
завеждащ
завеса
завет
завещава
завещание
завещанието
завзема
завземане
завземането
завземат
завземе
завива
завинаги
зависи
зависим
зависима
зависими
зависимост
зависимости
зависимостта
завист
зависят
завладее
завладени
завладеят
завладява
завладяване
завладяването
завладяват
завладян
завладяна
завод
завода
заводи
заводите
заводски
заводът
завоевание
завоевания
завоевателя
завои
завоюва
завоюване
завоюването
завоя
завръща
завръщане
завръщането
завръщат
завърна
завърнал
завърнат
завърне
завърта
завъртане
завършат
завършва
завършваи
завършване
завършването
завършват
завършващи
завършек
завършен
завършена
завършени
завършено
завърши
завършил
завършила
завършили
завършилите
загадка
загива
загиват
загинал
загинали
загиналите
заглавие
заглавието
заглавия
заглавията
заглавната
заговор
заговора
заговорниците
загора
загоричани
заграждения
загреб
загребския
загриженост
загряване
загуба
загубата
загубва
загубват
загубен
загубена
загубени
загуби
загубил
загубила
загубили
загубите
загубят
зад
задава
задават
зададен
зададена
зададени
задар
задача
задачата
задачи
задачите
задвижва
задвижван
задвижване
задвижвани
задграничното
задеи
заден
задиг
задна
задната
задни
задните
задния
задно
задното
задоволи
задоволява
задоволяване
задочно
задълбочава
задълбочени
задълбочено
задължава
задължават
задължен
задължени
задължение
задължението
задължения
задълженията
задължителен
задължителна
задължителната
задължителни
задължително
задържа
задържан
задържане
задържането
задържани
задържат
задържащата
задържи
заедно
заек
заел
заели
заем
заема
заемаи
заемал
заемане
заемат
заемаща
заемащи
заеме
заеми
заемки
зает
заета
заети
заето
заетост
заетостта
заж
зажа
зажи
заживява
заи
заимов
заимствани
заинтересовани
заинтересованите
зак
заклева
заклеи
заключава
заключва
заключение
заключението
заключения
заключи
заключителни
закон
закона
законен
закони
законите
законни
законно
законови
законодателен
законодателна
законодателната
законодателни
законодателство
законодателството
законопроект
законът
закрепване
закрепени
закрива
закриване
закриването
закрила
закрилата
закрит
закрита
закрити
закрито
закръглени
закупен
закупена
закупени
закупи
закупува
закупуване
закупуването
закупуват
закуска
закъснение
зала
залавя
залавянето
залавят
залага
залагането
залагат
залата
залежи
залез
залеза
залесена
зали
залив
залива
заливи
заливите
заливът
залите
заличава
заличено
залм
заловен
заловени
залови
залог
заложен
заложени
заложник
заложници
залп
залцбург
зам
замбези
замбия
заменен
заменена
заменени
заменено
замени
заменя
заменяи
заменят
замесен
замесени
замества
заместване
заместват
заместен
замести
заместител
заместник
заместници
заминава
заминаването
заминават
замине
замислен
замислена
замисля
замисъл
заможен
заможни
заможно
замонашва
замръзва
замък
замъка
замъкът
замърсители
замърсяване
замърсяването
замъци
замъците
замяна
замяната
занапред
занаят
занаята
занаяти
занаятите
занаятчии
занзибар
занимава
занимавал
занимавали
занимават
занимаваща
занимаващи
занимание
занимания
занков
занятие
занятия
заобикаля
заобикалят
заобикалящата
заобиколен
заобиколена
заобиколени
заобиколено
заоблени
заострени
запа
запад
запада
западен
западна
западната
западни
западните
западния
западният
западно
западноевропеи
западнои
западноломбардски
западното
запазва
запазваи
запазване
запазването
запазват
запазен
запазена
запазената
запазени
запазените
запазено
запази
запазил
запазила
запазили
запазят
запалва
запалване
запален
запас
запаса
запасен
запаси
запасите
запасни
запетая
запис
записа
записал
записан
записана
записани
записано
записва
записваи
записване
записването
записват
записи
записите
записки
записките
записът
запитване
запишат
запише
заплата
заплатата
заплати
заплатите
заплаха
заплахата
заплахи
заплахите
заплашва
заплашват
заплаща
заплащане
заплащането
заповед
заповеди
заповедите
заповедта
заповядал
заповядва
заподозрени
заподозрян
запознава
запознават
запознае
запознат
запознати
запорожка
започва
започваи
започване
започването
започват
започваща
започна
започнал
започнала
започналата
започнали
започнало
започнат
започната
започнато
започнах
започнаха
започне
запълва
запълнени
зара
заради
заражда
заразени
заразяване
заредени
зарежда
зареждане
зареждането
заря
заряд
заряда
заряди
зарядите
засада
засега
засегнат
засегната
засегнати
засегнатите
заседава
заседание
заседанието
заседания
заседанията
заселва
заселване
заселването
заселват
заселена
заселени
заселено
заселили
заселници
заселниците
заселят
засилва
засилване
засилването
засилват
засили
засичане
заслон
заслуга
заслуги
заслугите
заслужава
заслужават
заслужил
заслужили
заснема
заснемане
заснемането
заснет
заснета
заснети
заснето
застава
застават
застане
застои
застраховане
застрашава
застрашен
застрашени
застрелва
застрелян
застъпва
застъпват
застъпени
застъпник
засушаване
засяга
засягат
засягащи
затваря
затваряне
затварянето
затварят
затвор
затвора
затворен
затворена
затворени
затворено
затвори
затворите
затворник
затворници
затворниците
затвърждава
затлъстяване
затова
затопляне
заточен
заточение
затруднения
затруднено
затруднява
затъмнение
заубер
зафенберг
зафиров
захар
захари
захариев
захариева
захарии
захария
захарна
захарно
захваща
захранва
захранване
захранването
зачатие
зачислен
зачита
защ
защита
защитава
защитаване
защитават
защитаващ
защитата
защитен
защитена
защитената
защитени
защитените
защитено
защити
защитна
защитната
защитни
защитник
защитникът
защитните
защитници
защитниците
защитят
защо
защото
заяви
заявка
заявката
заявки
заявление
заявлението
заявява
заявяваи
заявяват
збол
звание
званието
звания
званията
звезда
звездата
звезден
звезди
звездите
звездна
звездни
звена
звено
зверове
звук
звука
звуков
звукова
звукове
звукови
звукозаписна
звукозаписната
звукозаписни
звукът
звуци
звуците
звучат
звучене
звученето
звучи
звучна
звън
звяр
звяра
здание
зданието
здания
здрав
здрава
здраве
здравеи
здравен
здравеопазване
здравеопазването
здравето
здравец
здрави
здравина
здравка
здравко
здравков
здравна
здравната
здравни
здравните
здравно
здраво
здравословни
здравословно
здравословното
здрач
зе
зевс
зее
зеи
зеландия
зеле
зелен
зелена
зелената
зелени
зелените
зеления
зеленият
зелено
зеленски
зеленчукови
зеленчуци
земевладелец
земевладелци
земеделец
земеделие
земеделието
земеделска
земеделската
земеделски
земеделските
земеделско
земеделци
земен
земетресение
земетресението
земетресения
земи
земиздат
земите
землищата
землище
землището
земна
земната
земни
земните
земния
земно
земноводни
земноводните
земноводно
земното
земя
земята
зен
зенау
зенах
зенберг
зенит
зенитна
зенитната
зенитни
зенитните
зенитно
зенитното
зенон
зенхауер
зепелин
зер
зерслаутерн
зестра
зет
зета
зехтин
зи
зиген
зигизмунд
зигмаринген
зигмунд
зигмунт
зигфрид
зид
зидария
зидаров
зидове
зикинген
зима
зимата
зимбабве
зимен
зимерн
зими
зимна
зимната
зимни
зимните
зимния
зимно
зимното
зимува
зимуване
зинг
зинген
зип
зия
зла
злата
златан
златанов
златарица
златаров
златарски
златев
златен
златина
златица
златка
златко
златков
златна
златната
златни
златните
златния
златният
златно
златното
злато
златоград
златото
златоуст
зле
зли
злите
злия
зло
злодеи
злополука
злото
злоупотреба
злоупотреби
змеи
змии
змиите
змия
змията
знае
знаеи
знаел
знаели
знаем
знаете
знаех
знаеш
знаеше
знаи
знак
знака
знакът
знам
знаме
знамена
знамената
знаменити
знаменития
знаменитости
знаменосец
знамето
знание
знанието
знания
знанията
знатни
знаци
знаците
значение
значението
значения
значи
значим
значима
значими
значимите
значимо
значимост
значимостта
значителен
значителна
значителната
значителни
значителните
значително
значителното
значка
зная
знаят
зов
зограф
зографа
зографи
зографски
зографския
золмс
зона
зоната
зондербург
зондерсхаузен
зоненвалде
зони
зоните
зоолог
зоология
зоопарк
зоопарка
зора
зоран
зората
зорница
зоя
зрели
зрение
зрението
зрители
зрителите
зрителя
зрк
зряла
зрялост
зулц
зулцбах
зх
зъб
зъби
зъбите
зък
зъл
зър
зърна
зърната
зърнени
зърно
зърното
и
иберии
ибис
ибн
ибрахим
ибсен
ив
ива
иваи
иван
ивана
иванка
иванко
иванов
иванова
иванович
ивановна
иваново
ивановски
иванчо
ивелин
ивица
ивицата
ивици
иво
ивоар
ивраи
ивреа
иврит
игла
игли
иглика
иглолистни
игнасио
игнат
игнатиев
игнатии
игнатов
игнорира
игов
игор
игото
игра
играе
играеи
играещ
играл
игрален
играли
игрални
игралния
игран
играна
играта
играч
играча
играчи
играчите
играчка
играчки
играчките
играчът
играят
игри
игрите
игрища
игрище
игрището
игумен
игумена
ида
идва
идването
идват
идващи
иде
идеал
идеален
идеали
идеална
идеални
идеалния
идеално
идеи
идеите
идентификатор
идентификация
идентифицира
идентифициран
идентифициране
идентифицирани
идентифицират
идентичен
идентична
идентични
идентичност
идентичността
идеологии
идеологически
идеология
идеологията
идея
идеята
иди
идол
идщаи
из
изабел
изабела
изба
избегнат
избегне
изберат
избере
изберете
избива
избиват
избира
избиран
избиране
избирането
избирани
избират
избирателен
избиратели
избирателите
избирателна
избирателната
избирателни
избирателните
избирателно
избити
избор
избора
избори
изборите
изборна
изборни
изборът
избрал
избрали
избран
избрана
избраната
избрани
избраните
избрания
избрано
изброени
изброените
избухва
избухване
избухването
избухват
избяга
избягал
избягали
избягат
избягва
избягване
избягват
изваден
извадени
извади
изважда
изваждане
изваждането
изваждат
изведе
изведен
изведени
изведнъж
извежда
извеждане
извеждането
извеждат
известен
известие
известия
известна
известната
известни
известните
известния
известният
известно
известност
известното
извика
извикан
извиква
извикване
извинение
извинява
извиняваи
извинявам
извира
извисява
извити
извлича
извличане
извличат
извод
извода
изводи
изводите
извор
извора
извори
изворите
изворът
извоюва
извън
извънбрачен
извънбрачна
извънбрачни
извънземен
извънземни
извънреден
извънредна
извънредни
извънредно
извършат
извършва
извършвали
извършване
извършването
извършвани
извършват
извършен
извършена
извършени
извършените
извършено
извършеното
извърши
извършил
извършили
изгаря
изгаряне
изгарянето
изгаряния
изгарят
изглед
изгледа
изгледи
изглежда
изглеждат
изглеждаше
изгнание
изговаря
изгонва
изгонването
изгонен
изгонени
изгони
изгорен
изгорена
изгорени
изгори
изготвен
изготвена
изготвени
изготвя
изготвяне
изготвянето
изготвят
изграден
изградена
изградени
изградено
изгради
изградят
изгражда
изграждане
изграждането
изграждат
изгрев
изгрява
изгубва
изгубен
изгубена
изгубената
изгубени
изгубените
изгуби
изгубил
изд
издава
издаван
издаване
издаването
издавани
издавано
издават
издаде
издаден
издадена
издадени
издадените
издадено
издал
издание
изданието
издания
изданията
издател
издатели
издателите
издателска
издателската
издателски
издателства
издателство
издателството
издательство
издателя
издеи
изделие
изделия
издига
издигане
издигането
издигат
издигащ
издигнат
издигната
издигнати
издигнато
издигне
издирва
издирване
издирването
издръжка
издръжката
издръжливост
издълбани
издържа
издържат
издържи
изенбург
изживява
изиграва
изиграват
изиграе
изиграл
изигран
изиграна
изиграни
изида
изисква
изискване
изискването
изисквания
изискванията
изискват
изискващи
изказва
изказване
изказването
изказвания
изказват
изкарва
изкачва
изкачване
изкачването
изкачват
изкачи
изключва
изключване
изключването
изключват
изключен
изключена
изключени
изключение
изключения
изключено
изключи
изключителен
изключителна
изключителната
изключителни
изключителните
изключително
изключителното
изкопаеми
изкуства
изкуствата
изкуствен
изкуствена
изкуствени
изкуствения
изкуствено
изкуство
изкуствовед
изкуствознание
изкуството
излага
излагане
излагат
излаз
излежава
излезе
излезли
излекува
излива
излиза
излизал
излизане
излизането
излизат
излита
излитане
излитат
излишна
излишни
излишно
излишък
изложба
изложбата
изложби
изложен
изложена
изложени
изложение
изложението
изложения
изложено
излъчва
излъчван
излъчване
излъчването
излъчвани
излъчвано
излъчват
излъчен
излъчена
излъчени
излъчено
излъчи
излюпват
излязат
излязла
излязъл
изм
измаил
измама
измамата
измами
измежду
изменение
изменението
изменения
измененията
изменя
изменят
измерва
измерване
измерването
измервания
измерванията
измерват
измерена
измерение
измерения
измества
изместване
изместват
изместен
изместени
измести
изминава
измир
измира
измиране
измислен
измислена
измислени
измисля
измъква
измъкне
измъчван
измяна
изнасилване
изнася
изнасят
изначално
изненада
изненадан
изненадва
изненадващо
изнесе
изнесени
износ
износа
износът
изобилие
изобилието
изображение
изображението
изображения
изображенията
изобразен
изобразена
изобразени
изобразено
изобразителните
изобразително
изобразителното
изобразява
изобразяван
изобразяване
изобразяването
изобразяват
изобразяваща
изобразяващи
изобретател
изобретатели
изобретен
изобретение
изобретението
изобретения
изобретява
изобретяването
изобщо
изолация
изолацията
изолира
изолиран
изолирана
изолирани
изостава
изоставен
изоставена
изоставени
изоставено
изостави
изоставя
изоставят
изостря
изотоп
изотопи
изп
изпада
изпадане
изпадат
изпарение
изписан
изписана
изписани
изписано
изписва
изписване
изписването
изписват
изпит
изпита
изпитание
изпитания
изпитанията
изпитва
изпитване
изпитват
изпити
изплати
изплаща
изплащане
изповед
изповеди
изповедник
изповядва
изповядват
използва
използваи
използвал
използвала
използвали
използвам
използваме
използван
използвана
използваната
използване
използването
използвани
използваните
използвания
използваният
използвано
използват
използвате
използващ
използваща
използващи
изправен
изправена
изправени
изправено
изправи
изправя
изправят
изпратен
изпратена
изпратени
изпратено
изпрати
изпратил
изпратят
изпраща
изпращане
изпращането
изпращани
изпращат
изпреварва
изпреварваи
изпревари
изпуска
изпъква
изпъкнала
изпъкнали
изпълва
изпълнен
изпълнена
изпълнени
изпълнение
изпълнението
изпълнения
изпълненията
изпълнено
изпълни
изпълнил
изпълнител
изпълнителен
изпълнители
изпълнителите
изпълнителка
изпълнителката
изпълнителна
изпълнителната
изпълнителни
изпълнителния
изпълнителният
изпълнителя
изпълнява
изпълняваи
изпълнявал
изпълнявана
изпълнявани
изпълняват
изпълняващ
изпълняващи
изпълнят
изпява
изработва
изработване
изработването
изработват
изработен
изработена
изработени
изработено
изработи
изработка
изработката
изравнява
израел
израелската
израелски
израелските
израелския
изражение
израз
израза
изразен
изразена
изразени
изразено
изрази
изразходва
изразът
изразява
изразяване
изразяват
израснал
израства
израстване
израстват
изречение
изречението
изречения
изригване
изригването
изригвания
изрисувани
изрично
изселва
изселване
изселването
изселват
изселени
изселено
изсечени
изследва
изследван
изследване
изследването
изследвани
изследвания
изследванията
изследват
изследовател
изследователи
изследователите
изследователска
изследователската
изследователски
изстрел
изстрела
изстрелва
изстрелване
изстрелването
изстрелват
изстрели
изстрелян
изстреляна
изстреляни
изтеглен
изтеглени
изтегли
изтегля
изтегляне
изтеглянето
изтеглят
изтезания
изтече
изтича
изтичане
изтичането
изтласкани
изтласква
изток
изтока
източен
източна
източната
източни
източник
източника
източникът
източните
източници
източниците
източния
източният
източно
източноевропеи
източноиндии
източното
изтощение
изтр
изтребител
изтребителен
изтребители
изтребителите
изтребителна
изтребителя
изтрива
изтриване
изтриването
изтривания
изтрие
изтрит
изтрита
изтрити
изтрият
изтъква
изтъкнат
изтъкнати
изтъкнатите
изучава
изучаване
изучаването
изучават
изхвърлен
изхвърлени
изхвърля
изхвърляне
изхвърлянето
изхвърлят
изход
изхода
изходен
изходи
изходна
изходни
изходните
изходния
изходно
изходното
изходът
изцяло
изчака
изчаква
изчезва
изчезване
изчезването
изчезват
изчезнал
изчезнала
изчезнали
изчезне
изчерпателна
изчисление
изчисления
изчисленията
изчислено
изчисли
изчислителна
изчислителната
изчислителни
изчислява
изчисляване
изчисляват
изява
изявен
изявени
изявените
изяви
изявите
изявление
изявлението
изявления
изявява
изявяват
изясни
изяснява
изясняване
изящни
изящните
ии
иисус
ик
икар
икона
иконата
икони
иконите
иконография
иконом
икономика
икономиката
икономики
икономист
икономисти
икономическа
икономическата
икономически
икономическите
икономическия
икономическият
икономическо
икономическото
икономия
икономов
иконописец
иконописци
иконостас
иконостаса
иконостасът
икс
ил
илаи
иларион
или
илиада
илиев
илиева
илинден
илинденската
илинденско
илинденското
илинои
илирии
илирия
илич
илия
илиян
илхам
илчев
ильо
илюзия
илюзията
илюстратор
илюстратори
илюстрации
илюстрациите
илюстрация
илюстрира
иля
им
има
имаи
имал
имала
имали
имало
имам
имаме
имат
имате
имах
имаха
имаш
имаше
имащ
имаща
имащи
име
имеи
имена
имената
имение
имението
именителен
имения
именно
името
имигранти
имиграция
имидж
имитация
имитира
имола
имот
имота
имоти
имотите
имп
император
императора
императори
императорите
императорска
императорската
императорски
императорските
императорския
императорското
императорът
императрица
императрицата
императрици
империи
империя
империята
имперска
имперската
имперски
имперските
имперския
имперско
имперското
импии
имплементация
импулс
импулса
импулси
имунитет
имунна
имунната
имущество
имуществото
ин
ина
иначе
инвазия
инвазията
инвентар
инвестира
инвеститор
инвеститори
инвестиции
инвестициите
инвестиционна
инвестиционни
инвестиция
инвинсибъл
ингеборг
инголщат
ингрид
инд
индекс
индекса
индже
инди
индиана
индианаполис
индиански
индианските
индианско
индианци
индианците
индивид
индивида
индивиди
индивидите
индивидуален
индивидуална
индивидуалната
индивидуални
индивидуалните
индивидуално
индивидуалното
индии
индикатор
индикатори
индия
индо
индоевропеи
индокитаи
индонезии
индонезия
индоокеанска
индуизма
индукция
индустриален
индустриалец
индустриализацията
индустриална
индустриалната
индустриални
индустриалните
индустриално
индустрии
индустрия
индустрията
индъстриъл
инес
инж
инженер
инженерен
инженери
инженерите
инженерна
инженерни
инженерните
инженерно
инженерство
инжинера
инициатива
инициативата
инициативен
инициативи
инициатор
инициаторите
инициира
инките
инклинация
инкубатор
инкубатора
иновации
иновациите
инокентии
инсбрук
инспектор
инспекция
инсталации
инсталация
инсталира
инсталиран
инсталирана
инсталиране
инсталирани
инстанция
инстинкт
институт
института
институти
институтът
институции
институциите
институция
институцията
инструктор
инструкции
инструкциите
инструкция
инструмент
инструмента
инструментал
инструментална
инструментални
инструменти
инструментите
инструментът
инсулт
интегрални
интеграция
интеграцията
интегрира
интегриран
интегрирана
интегриране
интегрирани
интелект
интелектуална
интелектуалната
интелектуални
интелектуално
интелектуалци
интелигентен
интелигентни
интелигентност
интелигенция
интензивен
интензивна
интензивни
интензивно
интензивност
интензивността
интензитет
интер
интервал
интервала
интервали
интервенция
интервю
интервюта
интервюто
интерес
интереса
интересен
интереси
интересите
интересна
интересни
интересните
интересно
интересното
интересува
интересуват
интересът
интериор
интериора
интериорът
интернат
интернационал
интернет
интернешънъл
интерниран
интерниране
интернирани
интернираните
интерпретации
интерпретация
интерпретацията
интерпретира
интертото
интерфеи
интриги
инфанта
инфаркт
инфекции
инфекциозни
инфекция
инфекцията
инфлация
инфлацията
инфо
информатика
информационен
информационна
информационната
информационни
информационните
информационно
информация
информацията
информира
информират
инфраструктура
инфраструктурата
инцидент
инцидента
инциденти
инцидентът
инча
ип
иполит
ир
ирак
ираклии
иракската
иракски
иран
иранската
ирански
иранските
иранския
ирен
ирена
иречек
иржи
ирина
ирис
иркутск
иркутска
ирландия
ирландска
ирландската
ирландски
ирландския
ирландско
ирмгард
ирод
ирокезите
ирония
иртиш
ис
иса
исаак
исабел
исабела
исак
исая
иск
иска
искаи
искал
искала
искали
искам
искаме
искане
искането
искания
исканията
искат
искате
исках
искаш
искаше
искове
искра
искрено
искусство
искър
исландия
исландски
ислям
исляма
ислямска
ислямската
ислямски
ислямските
ислямския
ислямът
исмаил
испания
испанска
испанската
испански
испанските
испанския
испанският
испанско
испанското
испанци
испанците
исперих
исследования
ист
истанбул
истанбулския
истина
истината
истини
истинска
истинската
истински
истинските
истинския
истинският
истинско
истинското
истории
историите
историк
историка
историко
историкът
историография
историографията
историци
историците
историческа
историческата
исторически
исторические
историческите
историческия
историческият
историческо
историческото
история
историята
историја
истрия
исус
исфахан
ит
итака
итал
италианеца
италианки
италианска
италианската
италиански
италианските
италианския
италианският
италианско
италианското
италианци
италианците
италии
италия
итало
ите
итън
ихтиман
ихтиманска
ичко
иширков
ищван
иън
ия
ият
к
ка
кааза
кабел
кабели
кабелна
кабина
кабината
кабинет
кабинета
кабинети
кабинетът
каблешков
кабо
кабул
кавадарци
кавал
кавала
кавалер
кавалерии
кавалерия
кавалерията
каварна
кавички
кавказ
кавказки
кавур
кавър
кавъри
кагю
кадастър
кадафи
кадет
кадетски
кадии
кадис
кадри
кадрите
кадър
кадъра
кажа
кажат
каже
кажем
кажете
кажеш
кажи
кажимеж
каза
казабланка
казал
казан
казанлък
казано
казаното
казарма
казармата
казарми
казасян
казах
казахстан
казаци
казаците
казашки
казва
казваи
казвал
казвам
казваме
казват
казваш
казваше
казерта
казимир
казино
каи
как
кака
какао
каква
каквато
какви
каквито
какво
каквото
како
както
какъв
какъвто
кал
калабрия
калаи
калата
калв
калвин
калгари
калдера
кале
каледония
каленберг
календар
календара
календари
календарна
калето
кали
калиакра
калибра
калибър
калигула
калиев
калии
калимантан
калин
калина
калиник
калининград
калифорнии
калифорния
калкута
калмар
кало
калофер
калоян
калпазанов
калпурнии
калски
калциев
калции
калчев
калчо
каляри
кам
кама
камара
камарата
камари
камарите
камбана
камбанария
камбанарията
камбаната
камбани
камбаните
камбоджа
камелия
камен
каменен
каменец
каменисти
каменица
каменна
каменната
каменни
каменните
каменно
камено
каменов
каменова
камера
камерата
камерен
камери
камерите
камерна
камерни
камерун
камерън
камии
камил
камила
камили
камило
камион
камиони
камп
кампании
кампаниите
кампания
кампанията
кампеонато
кампобасо
кампус
камчатка
камчатски
камчия
камък
камъка
камъкът
камъни
камъните
кан
кана
канавезе
канада
канадска
канадската
канадски
канадските
канадския
канал
канала
канали
канализация
каналите
каналът
канарските
кандид
кандидат
кандидата
кандидати
кандидатира
кандидатите
кандидатства
кандидатура
кандидатурата
кандидатът
канелени
канети
канзас
кани
канон
каноник
кант
кантакузин
кантата
кантон
кантона
кантоните
кантора
кану
канцелария
канцеларията
канцлер
каньон
каньона
канят
кап
кападокия
капак
капан
капацитет
капацитета
капацитетът
капела
капелата
капелмаи
капитал
капитала
капитали
капитализма
капитализъм
капитан
капитана
капитани
капитаните
капитанът
капител
капители
капитолии
капитолин
капитулация
капитулацията
капитулира
капия
капка
капки
каподимонте
капсула
капсулата
капуа
кар
кара
карабах
караваджо
каравелов
карагьозов
караджа
караджич
караджов
караджова
караи
караиванов
каракала
каракас
каране
карара
караславов
карастоянов
карат
карата
карате
карачи
карбон
карбонат
карбонатни
кард
кардинал
кардинали
кардиналите
кардиф
каре
карел
карелия
карета
кари
карибите
карибски
карибско
кариера
кариерата
кариери
карии
карикатура
карикатури
карин
карина
каринтия
каритас
кария
карл
карла
карлаи
карло
карловия
карлово
карлос
карлсруе
карма
кармапа
кармен
карнавал
карнеги
карно
карнобат
карол
каролин
каролина
карпати
карпатите
карпов
карс
карско
карстов
карстови
карсън
карт
карта
картаген
картагенците
картата
картечница
картечницата
картечници
карти
картина
картината
картини
картините
картинка
картинката
картинки
картинките
картира
картиране
картите
картичка
картички
картографиране
картография
картон
картони
картофи
картофите
картър
каруци
карън
кас
каса
касабов
касае
касаещи
касандра
касационен
касаят
касел
касета
касети
касиди
касиер
касии
касини
каскада
каспар
каспаров
каспии
каспичан
кастел
кастело
кастии
кастилия
кастилска
кастилски
кастинг
кастро
касъл
кат
ката
катализатор
каталина
каталог
каталога
каталози
каталония
каталонски
каталунците
катания
катапулт
катар
катаревуса
катарина
катастрофа
катастрофата
катастрофи
катастрофира
категории
категориите
категорично
категория
категорията
катедра
катедрала
катедралата
катедрален
катедрали
катедралния
катедрата
катедри
катер
катера
катерене
катери
катерина
катерини
кати
катлии
като
катовице
католик
католици
католицизма
католиците
католическа
католическата
католически
католическите
католическия
католическо
католическото
катон
катрин
катценелнбоген
катя
каубои
кауза
каузата
каунти
кауфман
каучук
кафе
кафене
кафенета
кафенето
кафето
кафка
кафяв
кафява
кафяви
кафявите
кафяво
каца
кацане
кацането
кацаров
качв
качва
качване
качването
качват
качени
качества
качествата
качествен
качествена
качествени
качествено
качество
качеството
качи
каша
кашлица
кашмир
кая
каяк
кб
кв
квадрат
квадрата
квадратен
квадратна
квадратни
квадратно
квалификант
квалификации
квалификациите
квалификационен
квалификационна
квалификация
квалификацията
квалифицирани
квантова
квантовата
квартал
квартала
квартали
кварталите
кварталът
квартет
квартира
квартирата
кварц
квебек
кверфурт
квестор
квинкции
квинт
квота
квт
кг
кгб
кдп
ке
кевенхюлер
кевин
кеи
кели
келтите
келтски
кемал
кембъл
кемерер
кемп
кен
кендрик
кенеди
кенет
кени
кения
кент
кента
кентавър
кентъки
кентърбъри
кеплер
керала
керамика
керамиката
керамични
керемиди
кери
керсхаи
керъл
кесарии
кестен
кет
кефернбург
кеч
кеча
кечист
кечисти
кечмания
кеш
ки
киара
кибеа
кибург
кивасо
киви
кид
киев
киевска
киевската
киевския
киети
кии
кикбокс
кил
кила
килии
киликия
килим
килими
килия
килията
килограм
килограма
километра
километри
километър
ким
кими
кимон
кин
кина
кината
кинг
кингс
кингстън
кинематография
кино
киноактриса
кинопоиск
кинорежисьор
киното
кинофестивал
кинофестивала
киото
кипене
кипър
кипърска
кипърски
кипърския
кир
кираджиев
кирбург
киргизстан
кирена
киренаи
кирибати
кирил
кирилица
кирилицата
кирилов
кирилова
кирков
кирково
киро
киров
кирова
кирхберг
кис
кисела
киселина
киселини
кисело
кисимов
кислород
кислорода
кисьов
кит
китаи
китара
китарата
китари
китарист
китариста
китаристи
китаристът
ките
кити
китка
китката
китов
китове
китс
кихот
кичево
кичевската
кишинев
кл
клавдии
клавдия
клавиатура
клавиатурата
клавир
клавирни
клавиши
клавишни
клада
кладенец
кладенеца
кладенци
клаи
клан
клана
клане
кланета
клането
кланове
клара
кларинет
кларк
кларънс
клас
класа
класации
класациите
класация
класацията
класи
класик
класика
класира
класиран
класиране
класирането
класирани
класирания
класират
класификации
класификация
класификацията
класифицира
класифициран
класифицирани
класифицират
класицизъм
класическа
класическата
класически
класическите
класическия
класическият
класическо
класическото
класни
класно
класове
класовете
клаудио
клаудия
клауза
клаузи
клаузите
клаус
клеве
клевета
клеи
клеменс
клен
клеопатра
клептън
клер
клермон
клетва
клетвата
клетенберг
клетка
клетката
клетки
клетките
клетъчна
клетъчната
клетъчни
клеър
кливланд
клиент
клиента
клиенти
клиентите
клиентът
клии
климат
климата
климатичен
климатична
климатични
климатичните
климатът
климент
клин
клиника
клиниката
клинична
клинични
клинтън
клип
клипа
клипове
клипът
клисура
клитемнестра
клиф
клифърд
клод
клодии
клон
клона
клони
клоните
клонки
клонове
клуб
клуба
клубен
клубна
клубната
клубни
клубно
клубове
клубовете
клубът
клуж
клъф
ключ
ключа
ключов
ключова
ключовата
ключове
ключовете
ключови
ключовите
ключово
ключът
км
кмет
кмета
кметове
кметовете
кметство
кметството
кметът
кн
кндр
кнежа
книга
книгата
книги
книгите
книгоиздателска
книжа
книжарница
книжка
книжки
книжнина
книжовен
книжовна
книжовник
книжовния
книжовно
кнк
кнр
княгиня
княжево
княжеската
княжески
княжеско
княжества
княжество
княжеството
княз
княза
князе
князете
князът
ко
коалиции
коалиционно
коалиция
коалицията
кобленц
кобра
кобург
ков
кова
ковач
ковачев
ковачева
кови
ково
ковски
ковци
ковчег
ковънтри
кога
когато
когномен
кого
когото
код
кода
кодекс
кодекса
коджа
кодиране
кодове
кодовете
кодово
кодовото
кодът
кое
коев
коен
което
коефициент
коефициента
коефициенти
коефициентът
кожа
кожани
кожата
кожени
кожи
кожни
кожух
кожухаров
коза
козенца
кози
козимо
козина
козината
козлодуи
козма
кои
коимбра
които
кока
кокаин
коко
кокосови
кокошка
кокошки
кокс
коктеи
кол
кола
колан
колапс
коларов
колата
коле
колебае
колебание
колебания
колев
колева
колега
колегата
колеги
колегите
колегия
колегията
коледа
коледаров
коледен
коледна
коледни
колеж
колежа
колежи
колектив
колективизацията
колективна
колективни
колективно
колекции
колекциите
колекционер
колекционери
колекция
колекцията
колела
колелата
колело
колелото
колене
колесница
колесници
коли
колиба
колиби
колибри
колиброви
колидж
колима
колин
колинс
колите
количества
количествено
количество
количеството
количка
колко
колкото
коллекция
коло
колоездач
колоездене
коломбо
колона
колоната
колони
колониална
колониалната
колониални
колониалните
колонизация
колонии
колониите
колонисти
колоните
колония
колонията
колорадо
колумб
колумбии
колумбия
колумнист
кольо
колю
коляно
коляното
ком
кома
команда
командата
командва
командван
командвана
командване
командването
командвани
командващ
командващия
командващият
команден
команди
командир
командира
командири
командирите
командирован
командирът
командна
командни
командния
командно
командоси
комари
комарка
комбинат
комбинации
комбинация
комбинацията
комбинира
комбиниран
комбинирана
комбинирани
комбинират
комедиен
комедии
комедия
комедията
комендант
коментар
коментара
коментари
коментарите
коментатор
коментатори
коментира
комерсиален
комерсиални
комерсиално
комета
кометата
коми
комик
комикс
комикси
комиксите
комин
комина
коминтерна
комисар
комисари
комисии
комисия
комисията
комитет
комитета
комитети
комитетът
комици
комнин
комнина
комо
комод
комодор
коморски
компактдиск
компактен
компактни
компактно
компании
компаниите
компания
компанията
компас
компенсация
компенсира
компетентен
компетентните
компетентност
компетентността
компилации
компилация
компилацията
комплекс
комплекса
комплексен
комплекси
комплексна
комплексни
комплексно
комплексът
комплект
комплекта
композира
композирана
композитор
композитора
композитори
композиторите
композиторът
композиции
композициите
композиция
композицията
компонент
компонента
компоненти
компонентите
компромис
компютри
компютрите
компютър
компютъра
компютърен
компютърна
компютърната
компютърни
компютърните
компютърно
компютърът
комуна
комунизма
комунизъм
комуникации
комуникациите
комуникационна
комуникационни
комуникация
комуникацията
комунист
комунисти
комунистите
комунистическа
комунистическата
комунистически
комунистическите
комунистическия
комунистическо
комунистическото
комуто
комфорт
кон
конак
конан
конаре
конвента
конвенции
конвенциите
конвенция
конвенцията
конвои
конвоя
конг
конго
конгрегация
конгрегацията
конгрес
конгреса
конгреси
конгресите
конгресът
конде
кондензатор
кондотиер
коне
конен
конете
конец
конзоли
кони
конкретен
конкретна
конкретната
конкретни
конкретните
конкретния
конкретно
конкретното
конкурент
конкуренти
конкуренция
конкуренцията
конкурира
конкурс
конкурса
конкурси
конкурсът
конна
конни
конник
конница
конницата
конници
конрад
консенсус
консервативна
консервативната
консервативни
консервативните
консервативно
консерватори
консерваторите
консерватория
консерваторията
консервация
конска
конски
консорт
консорциум
конспирация
констанс
константа
константата
константи
константин
константинов
константинова
константинович
константинопол
константинополската
константинополски
константинос
констанц
констанца
констанции
констатира
конституционен
конституционна
конституционни
конституционните
конституционния
конституционният
конституционно
конституция
конституцията
конструира
конструиран
конструирането
конструирани
конструктивна
конструктивни
конструктивно
конструктор
конструктори
конструкторите
конструкции
конструкция
конструкцията
консул
консула
консули
консулите
консулски
консулства
консулство
консулството
консултант
консултативен
консултации
консултира
консулът
консумация
консумацията
консумира
консумират
контакт
контакта
контакти
контактите
конте
контеи
контекст
контекста
контингент
континент
континента
континентален
континентална
континенталната
континентални
континенталния
континенти
континентите
контра
контраадмирал
контраатака
контранастъпление
контраразузнаване
контраст
контрол
контрола
контролен
контролер
контролира
контролиран
контролирана
контролиране
контролирани
контролирано
контролират
контролна
контролни
контролно
контролът
контузии
контузия
контур
конур
конус
конуси
конфедерациите
конфедерация
конфедерацията
конференции
конференция
конференцията
конфигурация
конфигурацията
конфискувани
конфликт
конфликта
конфликти
конфликтите
конфликтът
конфронтация
концентрации
концентрационен
концентрационни
концентрационния
концентрация
концентрацията
концентрира
концентрирана
концентрирани
концентрират
концепции
концепция
концепцията
концерт
концерта
концертен
концерти
концертите
концертна
концертни
концертно
концертът
концесия
конче
кончета
кончината
конър
коня
конят
кооперативен
кооперативна
кооперативно
кооперации
кооперация
кооперацията
координати
координатите
координатна
координатор
координация
координира
копа
копенхаген
копер
коперник
копие
копието
копира
копираи
копиране
копия
копка
копола
копривщица
коприна
коприната
копринени
копродукция
кор
кора
кораб
кораба
корабен
кораби
корабите
корабли
корабна
корабни
корабокрушение
корабоплаване
корабоплаването
корабостроене
корабостроителница
корабостроителницата
корабът
корал
коралови
корана
кората
корвин
кордоба
кореи
коректно
корекции
корекция
корем
корема
коремната
коремоного
корен
корена
корени
корените
коренно
коренното
коренът
кореспондент
кореспонденти
кореспонденция
кореспонденцията
корея
кори
коригира
коридор
коридора
коридори
коринт
корита
корито
коритото
корица
корицата
корици
кория
корк
корлеоне
корнел
корнелии
корнелия
корнуол
корона
коронавирус
короната
коронация
коронацията
корони
коронован
коронясан
корпоративни
корпорации
корпорация
корпорацията
корпус
корпуса
корпуси
корпусът
корсаков
корсика
корт
кортес
кортни
коруня
корупция
корупцията
корфу
корча
кос
коса
косата
косвено
косев
коси
косинец
косите
косми
космическа
космическата
космически
космическите
космическия
космическият
космическото
космодрума
космонавт
космонавти
космонавтите
космос
космоса
косово
косовска
косовски
кост
коста
костадин
костадинов
костадинова
костас
коства
костенец
костенурка
костенурки
костенурките
кости
костинброд
костите
костна
костни
костница
костов
костова
костур
костурска
костурската
костурски
костурския
костурско
костурското
костюм
костюми
костюмите
косъм
кот
кота
котва
коте
котел
котела
котелни
котелните
котис
котка
котката
котки
котките
котли
котлите
котловина
котловината
котловини
коул
кофи
кох
коце
коцев
кочан
кочани
кочев
кочо
кош
коя
която
кпсс
кр
крава
краве
крави
крагуевац
крадец
крадци
краевед
краен
кражба
краи
краища
краищата
краище
крак
крака
краката
краков
крал
крале
кралете
крали
кралица
кралицата
кралици
кралска
кралската
кралски
кралските
кралския
кралският
кралско
кралското
кралства
кралство
кралството
краля
кралят
кран
крас
красавица
красавицата
красив
красива
красивата
красиви
красивите
красивия
красиво
красимир
красимира
краснодар
краснодарски
красноярски
красота
красотата
крастави
кратен
кратер
кратера
кратери
кратка
кратката
кратки
кратките
краткия
кратко
краткото
краткотраи
кратово
кратък
крафт
крачка
крачки
края
краят
креда
кредит
кредити
кредитна
кредитни
кредиторите
креи
крем
кремиковци
кремона
кремъл
крен
крепи
крепост
крепости
крепостите
крепостна
крепостната
крепостни
крепостните
крепостта
кресна
кресненско
крива
кривата
криви
криводол
кригсмарине
крие
криеи
криза
кризата
кризи
крии
крикет
крила
крилата
крилати
криле
крилете
крило
крилото
крим
криминален
криминална
криминалната
криминални
кримската
кримски
кримските
криптата
крис
криси
кристал
кристален
кристали
кристалинни
кристалите
кристална
кристалната
кристални
кристи
кристиан
кристиана
кристиано
кристин
кристина
кристиян
кристо
кристоф
кристофър
кристъл
крисчън
крит
критерии
критериите
критерия
критик
критика
критиката
критики
критиките
критикува
критикуван
критикувана
критикуват
критици
критиците
критичен
критически
критична
критични
критично
крихинген
кричим
кришна
крият
крои
крокодили
кромуел
кронберг
кронщат
крос
крософт
кроче
круз
крум
крумов
крумовград
круп
крупни
крус
круша
крушево
кръв
кръвна
кръвната
кръвни
кръвно
кръвното
кръвоносни
кръвоносните
кръвта
кръг
кръга
кръгла
кръглата
кръгли
кръгова
кръгове
кръгозор
кръгъл
кръгът
кръжок
кръст
кръста
кръсте
кръстев
кръстева
кръстен
кръстена
кръстени
кръстено
кръстител
кръстник
кръстникът
кръсто
кръстове
кръстовище
кръстовището
кръстоносен
кръстоносни
кръстоносните
кръстоносния
кръстоносци
кръстоносците
кръстопът
кръстосване
кръстът
кръстьо
кръстю
кръчма
кръчмата
кръщава
кръщение
кръщението
крюгер
кс
ксавер
ксанти
ксантии
ксеркс
кт
ктб
ку
куб
куба
кубан
кубинската
кубински
кубични
кубрат
кубрик
кувеи
куентин
кузман
кузманов
кузнецов
куи
куии
куин
куинс
куинсланд
кук
кука
кукла
куклен
кукли
кукувица
кукуш
кукушка
кула
кулата
кули
кулик
кулисите
кулите
кулмбах
кулминация
кулминацията
култ
култа
култов
култове
култови
култура
културата
културен
култури
културите
културна
културната
културни
културните
културния
културно
културното
култът
кум
кумано
куманов
куманово
кумановска
кумановско
кун
кунео
кунигунда
куно
куп
купа
купата
купе
купен
купена
купи
купол
купола
куполата
куполи
куполът
купува
купуват
купувача
купувачът
купър
кураж
куратор
курбан
куре
куриер
курландия
курорт
курорта
курортен
курорти
куросава
курс
курса
курсив
курск
курсове
курт
куртев
курфюрст
курфюрство
куршум
куршума
куршуми
кусев
кутев
кутии
кутия
кутията
кутузов
куфарчето
кухина
кухини
кухни
кухня
кухнята
куче
кучета
кучетата
кучето
кучешки
кушев
кушница
къб
къде
където
къл
кълбо
кълвач
кълс
кълъмбия
кълъмбъс
към
къмпани
кън
кънев
кънектикът
кънингам
кънки
кънтри
кънчев
кънчо
кънчов
къп
къпане
кър
кървав
кървава
кървавата
кървави
кърджали
кърджалии
къри
кърк
кърмата
кърмовата
кърмовите
кърмовия
кърпа
кърпачев
кърт
къртис
къс
къса
късен
къси
късите
късмет
късмета
късна
късната
късни
късните
късния
късният
късно
късното
късо
късове
късометражен
късометражни
кът
къща
къщата
къщи
къщите
кьои
кьолн
кьонигсберг
кьонигсег
кьопен
кьосев
кьостриц
кьотен
кюрасао
кюрди
кюрдистан
кюри
кюстенджа
кюстендил
кюстендилска
кюстендилската
кюстендилски
кюстендилския
кюстендилско
кюстендилското
кюшу
кявик
л
ла
лаб
лабиринт
лаборатории
лабораториите
лаборатория
лабораторията
лабораторни
лабрадор
лава
лавата
лавра
лаврентии
лавров
лагер
лагера
лагери
лагеристи
лагерите
лагерът
лаго
лагос
лагуна
лагуни
ладислав
лазар
лазарев
лазаревич
лазаров
лазарова
лазарополе
лазерен
лазерни
лаи
лак
лале
лама
ламберг
ламберт
лами
ламия
лампа
лампата
лампи
лан
лана
ланг
лангенбург
лангобардите
ланд
ландау
ландграф
ландграфиня
ландграфове
ландсберг
ландсхут
ландшафт
ландшафти
ланка
ланкастър
ланс
ланча
лаодика
лаос
лапи
лаптеви
лара
ларви
ларвите
лари
лариса
ларнака
ларс
ларсен
лас
ласкарис
ласло
лат
латвии
латвия
латиница
латиницата
латино
латинска
латинската
латински
латинските
латинския
латинско
латинското
лаубах
лауда
лауенбург
лаура
лауреат
лауреати
лафаи
лафит
лацио
лбург
лв
лвов
лгбт
лд
лдорф
лдър
ле
лебед
лев
лева
леверкузен
леви
левин
левите
левица
левицата
левия
левият
левски
легални
легат
леге
легенда
легендарен
легендарната
легендарни
легендарния
легендарният
легендата
легенди
легендите
легион
легиона
легиони
легионите
легионът
легия
легла
легло
леглото
лед
леда
леден
ледена
ледената
ледени
ледения
ледник
ледника
ледников
ледникови
ледници
ледниците
ледове
ледовете
ледовит
лежат
лежи
леи
лек
лека
лекар
лекари
лекарите
лекарски
лекарства
лекарствата
лекарствени
лекарство
лекаря
лекарят
леката
леки
леките
лекия
леко
лекота
лексика
лексикон
лектор
лекува
лекуват
лекции
лекциите
лекция
леля
лемури
лен
лена
ленард
ленин
ленинград
ленинградска
ленинградския
лента
лентата
ленти
лентул
ленън
лео
леон
леонард
леонардо
леоне
леонид
леопард
леопарди
леополд
леополдина
лепид
лер
лери
лерин
леринско
леринското
лес
лесбии
лесбос
лесен
лесли
лесна
леснар
лесни
лесно
лесното
лесото
лестър
лет
лета
летателен
летателни
летен
летене
летец
лети
летища
летищата
летище
летището
летни
летните
летния
лето
летони
летопис
летописи
летци
летят
летящ
летяща
летящи
лефтеров
лех
лече
лечебна
лечебни
лечебните
лечебно
лечение
лечението
лешояд
леща
лещи
ли
либерален
либерали
либерализъм
либералите
либерална
либералната
либерални
либералните
либерално
либерия
либертадорес
либии
либия
либрето
либретото
ливада
ливади
ливадни
ливадно
ливан
ливии
ливингстън
ливия
ливорно
ливърпул
лига
лигавицата
лигата
лигенберг
лиги
лигурия
лидер
лидера
лидери
лидерите
лидерство
лидерството
лидерът
лидия
лиеж
лиза
лизимах
лии
лик
лика
ликвидация
ликвидира
ликвидиране
ликвидирането
лил
лили
лилия
лилов
лиляна
лима
лиман
лимасол
лимбург
лимит
лимон
лимпург
лимфни
лин
лина
лингвист
лингвистика
лингвистични
линда
линдзи
линдън
линеен
линеи
линии
линиите
линия
линията
линк
линка
линкове
линкор
линкора
линкори
линкорите
линкорът
линкълн
линукс
линц
линч
лион
лионел
липа
липе
липи
липса
липсата
липсва
липсват
липсващи
лир
лира
лири
лирика
лис
лиса
лисабон
лисица
лисицата
лисици
лист
листа
листата
листи
листове
лит
литва
лите
литекс
литература
литературата
литературен
литературна
литературната
литературни
литературните
литературния
литературният
литературно
литературното
литературовед
литературознание
литернет
лития
литовската
литовски
литовския
литовско
литра
литров
литургия
литъл
лиу
лифт
лих
лихва
лихтенберг
лихтенщаи
лица
лицата
лице
лицевата
лицеи
лиценз
лиценза
лицензи
лицензиране
лицензът
лицето
лицинии
личат
личен
личи
лична
личната
лични
личните
личния
личният
лично
личност
личности
личността
личното
лишава
лишаване
лишеи
лишен
лишена
лишени
лия
лна
лни
лно
ло
лоар
лоара
лобенщаи
лов
лова
ловград
лове
ловен
ловете
ловец
ловеч
ловешка
ловешко
лови
лович
ловна
ловни
ловно
лово
ловски
ловува
ловуват
ловци
ловците
ловчански
ловът
логан
логика
логиката
логистика
логистична
логическа
логически
логическо
логично
лого
логото
лодз
лоди
лодка
лодката
лодки
лодките
ложа
лоза
лозана
лозанов
лозанския
лозарство
лозарството
лозенград
лозенец
лозя
лозята
лои
лок
локален
локална
локалната
локални
локалните
локално
локомотив
локомотива
локомотиви
локомотивите
локус
лола
лом
ломбардия
ломоносов
лон
лонг
лонгин
лондон
лондонската
лондонски
лондонския
лондонското
лопес
лора
лоран
лорд
лордовете
лорен
лоренц
лоренцо
лори
лорън
лорънс
лос
лост
лот
лотар
лотарингия
лотус
лоу
лоурънс
лош
лоша
лошата
лоши
лошите
лошия
лошо
лошото
лоялни
лоялност
лоялността
лс
лския
лу
лувър
лувъра
луд
луда
лудвиг
луди
лудо
лудовика
лудовико
лудогорец
лудолф
лудост
лужица
луи
луиджи
луиз
луиза
луизиана
луис
луитгард
лук
лука
луканов
лукас
лукашенко
луки
лукино
луков
луковит
лукои
лукреция
луксозни
лукул
луна
луната
лунен
лунна
лунната
лунни
лунните
лунния
луси
лусия
лутер
лутър
луфтвафе
луции
луцифер
луция
лучано
лучия
лщаи
лъв
лъва
лъвове
лъвът
лъгадина
лъжа
лъжата
лъже
лъжи
лък
лъка
лъки
лънд
лър
лът
лъч
лъча
лъчезар
лъчение
лъчеперка
лъчи
лъчите
лъчо
льо
льовен
льовенщаи
лю
люба
любек
любен
любенов
любим
любима
любимата
любимец
любими
любимите
любимия
любимият
любимо
любимци
любител
любители
любителите
любителски
люблин
любляна
любо
любов
любовен
любовна
любовната
любовни
любовник
любовница
любовницата
любовници
любовта
любомир
любомиръ
любопитен
любопитни
любопитно
любопитство
любчо
люде
людмил
людмила
люис
люк
люксембург
люксембургски
люлин
люлка
люмиер
люнебург
люси
люспи
лютцов
люцерн
ля
ляв
лява
лявата
ляво
лявото
ляга
ляпчев
лясковец
лястовица
лятна
лятната
лятно
лятното
лято
лятото
м
ма
маас
маастрихт
мавзолеи
мавзолея
маврикии
мавритания
мавриции
маврово
магазин
магазина
магазини
магазините
магаре
магарета
магарето
магда
магдалена
магдебург
магелан
маги
магидович
магии
магистрала
магистралата
магистрали
магистрат
магистратура
магистър
магистърска
магически
магия
магията
магмата
магмени
магна
магнат
магнезии
магнитен
магнитна
магнитната
магнитни
магнитните
магнитно
магнитното
магнитуд
магнус
магьосник
магьосници
магьосниците
мадагаскар
мадам
мадан
мадара
мадеи
маджарите
маджаров
маджоре
мадисън
мадона
мадоната
мадрид
маестро
мажор
мазето
мазилка
мазнина
мазнини
мазнините
мазовско
маи
маите
мак
макаби
макао
макар
макарии
макаров
макбет
макви
макгрегър
макдоналд
македонец
македони
македонии
македония
македонија
македоно
македонска
македонската
македонски
македонските
македонския
македонският
македонско
македонското
македонци
македонците
македоніи
макет
макиавели
маккарти
маккартни
маккеи
маккензи
макларън
макмеън
макс
максим
максимален
максимална
максималната
максимални
максималния
максималният
максимално
максималното
максимилиан
максимов
максимум
максимумът
максуел
мал
мала
малави
малага
малаи
малария
маласпина
малатеста
малая
малдиви
мале
малер
мали
малик
малина
малинов
малка
малката
малки
малките
малкия
малкият
малко
малкото
малкълм
малмьо
мало
малоазии
малоброи
маловодие
малолетния
малта
малтии
малц
малцина
малцинства
малцинствата
малцинство
малцов
малък
мама
мамелюците
мамо
ман
манасиев
манастир
манастира
манастири
манастирите
манастирска
манастирската
манастирски
манастирските
манастирът
манга
манган
мандат
мандата
мандатът
мандела
мандершаи
манджурия
мандра
мане
манев
маневра
маневри
мани
маниер
мании
манила
манипулация
манипулиране
манитоба
манифест
мания
манлии
манов
манови
манол
манолов
манолова
манон
мансии
мансфелд
мансфии
мантеня
мантия
мантията
мантуа
ману
мануел
мануил
манфред
манхаи
манхатън
манчев
манчестър
манш
манщаи
мао
мар
мара
марадона
маракеш
марат
маратон
марбург
марвел
маргарет
маргарета
маргарит
маргарита
маргерита
маргьорит
маре
марек
мари
мариан
мариана
мариано
мариански
марибор
марии
марин
марина
марино
маринов
маринова
маринър
марио
мариово
марион
марионетка
марионетки
мариса
мариупол
мариус
марица
мария
марк
марка
марката
маркграф
маркграфиня
маркграфове
маркграфство
марке
маркес
маркет
маркетинг
маркетинга
марки
маркиз
маркиза
маркира
маркирана
маркирани
маркировка
марките
марко
марков
маркова
марковски
маркос
маркс
марксизма
маркус
маркъс
марлоу
мароко
марс
марсел
марсело
марсилия
марската
март
марта
мартел
мартен
марти
мартин
мартина
мартинес
мартини
мартиника
мартино
марцел
марцелин
марции
марч
марчело
марш
марша
маршал
маршали
маршалови
маршрут
маршрута
маршрути
маршрутът
мас
маса
масата
масачузетс
масачузетския
маси
масив
масива
масивен
масиви
масивна
масивни
масивно
масимо
масите
маска
маската
маски
масла
маслени
маслено
маслини
масло
маслодаи
маслото
масов
масова
масовата
масови
масовите
масовия
масово
масовото
масони
мастило
мастни
мастърс
мат
мата
матев
матеев
матеи
математик
математика
математиката
математици
математическа
математическата
математически
математическите
математическия
математическо
матео
материал
материала
материали
материализъм
материалите
материална
материалната
материални
материалните
материално
материалното
материалът
материя
материята
матиас
матилда
матис
матката
матов
матрица
матрицата
матрици
матю
маунт
маурисио
маурицио
мауро
маус
мафия
мафията
мах
маха
махала
махалата
махали
махалите
махаяна
махле
махмуд
махне
мач
мача
мачове
мачовете
мачта
мачти
мачът
машина
машината
машинен
машини
машините
машинни
машинните
машинно
машинното
машинопис
машиностроене
машиностроенето
мащаб
мащаба
мащабен
мащаби
мащабна
мащабни
мащабно
мащехата
мая
маями
мбал
мбридж
мбриджкия
мвнр
мвр
мвф
мг
ме
меандри
мебели
мег
мега
мегалити
меган
мед
медал
медала
медали
медалист
медалисти
медальон
медведев
меден
медея
медиа
медиен
медии
медиите
медикаменти
медина
медисън
медитация
медицина
медицината
медицинска
медицинската
медицински
медицинските
медицинския
медицинско
медицинското
медичи
медичите
медия
медияуики
медна
медната
медни
медта
медуза
междинен
междинна
междинни
междинно
между
междувоенен
междувоенния
междувременно
междузвездни
междузонален
междуконтинентална
международен
международна
международната
международни
международните
международния
международният
международно
международното
междуособици
междусъюзническа
междусъюзническата
междущатска
мездра
мезозои
меи
мек
мека
меки
мекленбург
меко
мекотели
мексиканска
мексиканската
мексикански
мексиканския
мексико
мел
мелани
мелас
мелбърн
мелвил
меле
мелетии
мелина
мелинда
мелиса
мелник
мелница
мелницата
мелници
мелодии
мелодия
мелодията
мембрана
мембраната
мембрани
мемоари
мемоаристи
мемоарите
меморандум
мемориал
мемориален
мемориална
мемфис
мен
менделеев
мендес
мендоса
мене
мени
мениджмънт
мениджър
мениджъра
мениджъри
мениджърът
менингит
менителницата
менсъл
ментор
меню
менюто
меп
мепр
мер
мера
мерзебург
мери
меридиан
мериленд
мерилин
мерки
мерките
меркс
меркурии
меркюри
мерлин
мероприятия
мерседес
мерси
мерцедес
меса
месала
месец
месеца
месеци
месеците
месечен
месечна
месечни
месечно
меси
месие
месина
месо
месопотамия
месото
мест
места
местата
местен
местения
мести
местна
местната
местни
местните
местния
местният
местно
местност
местности
местностите
местността
местното
место
местоимение
местоимения
местонахождение
местонахождението
местообитание
местообитания
местообитанията
местоположение
местоположението
местопрестъплението
местят
мета
метаболизъм
метал
метала
метален
метали
металика
металите
метална
метални
металните
металург
металургия
металургията
метаморфни
метан
метафизика
метафора
метел
метеорит
метеорита
метеорити
метеоритите
метеорологични
метеорология
метерних
метод
метода
методи
методиев
методии
методика
методите
методология
методът
метох
метра
метри
метро
метров
метрова
метрови
метрополен
метрополитен
метрополитън
метрополията
метростанция
метрото
метъл
метъла
метър
механизиран
механизирана
механизма
механизми
механизмите
механизмът
механизъм
механик
механика
механиката
механичен
механична
механичната
механични
механичните
механично
мехмед
мехмет
мехомия
мехтилд
мехтхилд
мехур
мец
меценат
меч
меча
мечка
мечката
мечки
мечо
мечове
мечта
мечтае
мечтата
мечти
мечтите
мечът
мз
ми
миа
мианмар
миг
мигел
миграции
миграция
миграцията
мигрират
мида
миди
мидии
мидия
мидуеи
мидълзбро
мие
миз
мизия
мии
мик
мика
микеланджело
микеле
мики
миклош
мико
миков
микро
микромъниче
микронезия
микроорганизми
микрораи
микроскоп
микс
микстеи
мил
мила
миладинов
миладинови
милан
милано
миланов
миланската
милански
миланския
миланското
миле
милев
милева
милен
милена
милет
милетич
милетичъ
мили
милиард
милиарда
милиметра
милиметрови
милион
милиона
милионер
милиони
милица
милиции
милиция
милицията
милка
милко
мило
милоевич
милост
милосърдие
милош
милошевич
милтън
милутин
милчев
милчо
милър
миля
мими
мин
мина
минава
минаваи
минавал
минават
минаж
минал
миналата
минали
миналия
минало
миналото
минарето
минас
минат
мината
минг
минден
мине
минев
минен
минерал
минерала
минерален
минерали
минералите
минерална
минерални
минералните
минералогия
минерва
минесота
мини
миниатюра
миниатюри
миниатюрни
минимален
минимална
минималната
минимални
минимално
минимум
минисериал
министерска
министерски
министерския
министерският
министерства
министерство
министерството
министри
министрите
министър
министъра
министърът
мините
минко
минков
минни
минно
минои
миноносеца
миноносци
минор
миноуг
минск
минус
минута
минути
минчев
минчо
миньор
миокарда
миоко
мир
мира
миранда
мирен
миризма
мирис
мирна
мирни
мирните
мирния
мирно
мирното
миро
мировои
мирослав
мирски
мирчев
мирчо
мирът
мис
мисии
мисиите
мисионер
мисионери
мисирков
мисис
мисисипи
мисия
мисията
мислеи
мислене
мисленето
мислех
мисли
мислим
мислите
мислители
мислиш
мисля
мислят
мистерии
мистерия
мистерията
мистик
мистър
мисури
мисъл
мисълта
мит
мита
митев
митева
митинг
митинги
митични
митко
митков
митнически
мито
митов
митова
митове
митовете
митологични
митология
митологията
митра
митре
митрев
митридат
митровица
митрополит
митрополити
митрополитите
митрополия
митрополията
митът
михаел
михаела
михаи
михаил
михал
михо
михов
мицкевич
мицо
мицубиши
мич
мичев
мичиган
мичман
мичъл
мишев
мишел
мишена
мишка
мишката
мишки
мишкови
мишо
мия
мк
мкс
мл
млад
млада
младата
младеж
младежа
младежи
младежите
младежка
младежката
младежки
младежките
младежкия
младежко
младежта
младежът
младен
младенеца
младенов
младенова
млади
младите
младия
младият
младо
младост
младостта
младото
младотурската
младотурците
младша
младши
млечен
млечна
млечни
млечния
млн
млрд
мляко
млякото
мм
мн
мнение
мнението
мнения
мненията
мни
мно
много
многоброи
многогодишни
многогодишно
многократни
многократно
многообразие
многопартии
многото
многоцелеви
многочислени
множества
множествено
множество
множеството
мнозина
мнозинство
мнозинството
мо
мобилен
мобилизация
мобилизацията
мобилизира
мобилизиран
мобилизирани
мобилна
мобилната
мобилни
мобилните
мобилност
мови
мога
могами
могат
могила
могилата
могили
могла
могли
могло
могъл
могъщ
мод
мода
модата
модел
модела
модели
моделиране
моделите
моделът
моден
модена
модерен
модерна
модерната
модерни
модернизация
модернизацията
модернизира
модернизиран
модернизирани
модернизъм
модерните
модерния
модерно
модерното
модест
модификации
модификация
модификацията
модифициран
модифицирана
модифицирани
модна
модни
модул
модула
модулация
модули
модулът
мое
моето
можа
можах
може
можел
можели
можело
можем
можете
можеха
можеш
можеше
мозаи
мозамбик
мозък
мозъка
мозъчен
мозъчна
мозъчната
мои
моисеи
моите
мок
мол
молба
молбата
молби
молдова
молдовска
молдовски
молекула
молекулата
молекули
молекулите
молекулярна
молеров
моли
молив
молиер
молизе
молина
молитва
молитвата
молитви
молли
моллов
молотов
молтке
моля
молят
мома
момент
момента
моментално
моменти
моментът
моми
момина
момиче
момиченце
момичета
момичетата
момичето
момче
момчета
момчетата
момчето
момчил
момчилград
момчилов
мон
мона
монако
монарси
монарх
монарха
монархии
монархия
монархията
монаси
монасите
монастир
монах
монаха
монахини
монахиня
монашески
монголите
монголия
монголска
монголската
монголски
монголските
монголците
монд
мондиал
моне
монета
монети
монетите
моника
монитор
мониторинг
монк
моно
монографии
монография
монографията
монопол
монпелие
монреал
монро
монс
монсерат
монтаж
монтана
монтгомъри
монте
монтевидео
монтереи
монтескьо
монтефелтро
монти
монтира
монтиран
монтирана
монтирани
монтирано
монтират
монумент
монументална
монументални
монферат
монфератски
монфор
монца
моо
мор
мора
морава
моравия
морал
морала
морален
моралес
морална
морални
моралните
морално
морган
море
морено
мореплавател
мореплаватели
морета
моретата
морето
морея
морз
мори
морис
морисън
мориц
моро
морска
морската
морски
морските
морския
морският
морско
морското
морфологични
морфология
моряк
моряци
моряците
мос
москва
москвич
москов
московска
московската
московски
московския
московско
московското
мост
моста
мостар
мостик
мостове
мостовете
мостът
мот
мотив
мотива
мотивация
мотивацията
мотиви
мотивира
мотивите
мото
мотор
мотори
моторни
моторните
моторно
мотострелкови
мотото
мотоциклет
мотоциклети
мохамед
мохамедани
моцарт
мощ
мощен
мощи
мощите
мощна
мощната
мощни
мощните
мощния
мощно
мощност
мощности
мощността
мощта
моя
моят
моята
мпо
мпс
мравки
мрази
мрак
мрака
мрамор
мраморен
мраморна
мраморни
мраморно
мрачен
мрачни
мрежа
мрежата
мрежи
мрежите
мрежови
мрени
мс
му
муб
мубарак
муз
музеен
музеи
музеите
музея
музеят
музика
музикален
музикална
музикалната
музикални
музикалните
музикалния
музикалният
музикално
музикалното
музикант
музиканта
музиканти
музикантите
музиката
мултимедии
мумбаи
муна
муни
муните
муниции
муньос
мур
мура
мурад
мурманск
муса
мусала
мускул
мускулатура
мускули
мускулите
мускулна
мускулни
мусолини
мусоргски
мустафа
мустаци
мутафов
мутафчиев
мутации
мутация
муха
мухи
муцуната
мъгла
мъглата
мъглен
мъдри
мъдрост
мъдростта
мъдър
мъж
мъжа
мъже
мъжете
мъжка
мъжката
мъжки
мъжките
мъжкия
мъжкият
мъжко
мъжкото
мъжът
мъка
мъки
мълния
мълчание
мълчанието
мълчи
мън
мънд
мъниста
мъниче
мъничета
мър
мъри
мъркюри
мъртва
мъртви
мъртвите
мъртвия
мъртво
мъртъв
мърфи
мъс
мъченик
мъченици
мъчения
мы
мьонхенгладбах
мьорс
мюзик
мюзикъл
мюзикъла
мюлер
мюлинген
мюнстер
мюнхен
мюнхенски
мюнхенския
мюнценберг
мюсюлмани
мюсюлманин
мюсюлманите
мюсюлманска
мюсюлманската
мюсюлмански
мюсюлманските
мюсюлманско
мюсюлманското
мюфтии
мярка
място
мястото
н
на
набези
набезите
набира
набиране
набирането
набират
набис
наблизо
наблюдава
наблюдаван
наблюдавана
наблюдавани
наблюдавано
наблюдават
наблюдател
наблюдатели
наблюдателни
наблюдателя
наблюдение
наблюдението
наблюдения
наблюденията
набляга
набор
набора
наброява
наброявало
наброяват
набързо
навара
наваро
наведнъж
навечерието
навигатор
навигационни
навигация
навици
навлезе
навлиза
навлизане
навлизането
навлизат
наводнение
наводнения
навреме
навремето
навсякъде
навуходоносор
навън
навършва
навърши
навътре
навярно
нагасаки
нагласи
нагоре
нагорни
награда
наградата
награден
наградена
наградени
награди
наградите
награждава
награждаван
награждаване
награждаването
нагряване
над
надал
надвиа
надвишава
надвишават
надводни
надгробен
надгробна
надгробни
надделява
надежда
надеждата
надежден
надежди
надеждите
надеждна
надеждни
надеждно
надеждност
надеждността
надзор
надзора
надзорния
надлежно
надлъжната
надлъжни
надлъжно
надминава
надморска
надморската
надмощие
надолу
надпис
надписа
надписи
надписите
надписът
надпревара
надпреварата
надсемеи
надстрои
наду
надхвърля
надхвърлят
надя
надява
надяваи
надявам
надяват
надясно
наем
наема
наемат
наемници
нает
наети
назад
название
названието
названия
названията
наземни
назначава
назначаване
назначаването
назначават
назначен
назначена
назначени
назначение
назначението
назначения
назначи
назовава
наи
наименование
наименованието
наименования
наименованията
наименуван
наименувана
наистина
накаже
наказан
наказани
наказание
наказанието
наказания
наказанията
наказателен
наказателна
наказателни
наказателния
наказателно
наказателното
наказва
накамура
накара
накити
наклон
наклона
наклонен
наклонена
наклонени
наклонение
наков
накраи
накратко
накрая
накъде
налага
налагане
налагането
налагат
налд
нали
налице
наличен
наличие
наличието
налична
налични
наличните
наличност
наложат
наложен
наложена
наложени
наложено
наложи
наложило
наляво
налягане
налягането
нам
намален
намалена
намалени
намаление
намалено
намали
намалява
намаляване
намаляването
намаляват
намаляваща
намалят
намерен
намерена
намерени
намерение
намерението
намерените
намерения
намеренията
намерено
намери
намерил
намерили
намерим
намерите
намерих
намериш
намеря
намерят
намеса
намесата
намесва
намесват
намеси
наместник
наместничество
намибия
намира
намираи
намирал
намирала
намирали
намирало
намирам
намираме
намиране
намирането
намирани
намират
намиращ
намираща
намиращи
намиращите
намиращия
намиращо
намотка
намюр
нан
нанася
нанасяне
нанасят
нанесат
нанесе
нанесени
наново
наноси
нансен
нанси
нант
наоколо
наоми
наоса
напада
нападат
нападател
нападатели
нападателите
нападателят
нападение
нападението
нападения
нападенията
нападка
нападки
нападнат
нападната
нападнати
нападне
написа
написал
написан
написана
написани
написано
написаното
написах
написва
написване
написването
напитка
напитката
напитки
напиша
напишат
напише
напишете
наподобява
наподобяват
наподобяващи
напоителни
наполеон
наполеоновите
наполи
наполовина
напомня
напомнят
напоследък
напояване
напр
направа
направата
направен
направена
направени
направените
направено
направи
направил
направила
направили
направим
направите
направих
направиха
направиш
направление
направлението
направления
направо
направя
направят
напразно
напред
напредва
напредване
напредването
напредват
напреднала
напреднали
напредък
напредъка
напрежение
напрежението
напрежения
напречни
напречно
например
напротив
напуска
напускане
напускането
напускат
напусна
напуснал
напуснали
напуснат
напусне
напълно
напът
нар
наравно
нараняване
наранявания
нараства
нарастване
нарастването
нарастват
нарастваща
нарастващата
нарастващото
наред
наредба
наредбата
наредби
наредени
наредено
нареди
наредил
нарежда
нареждане
нареждат
нарекли
нарекъл
нарече
наречен
наречена
наречената
наречени
наречените
наречения
нареченият
наречено
нареченото
наречие
нарисувана
нарисувани
нарича
наричаи
наричал
наричали
наричаме
наричан
наричана
наричани
наричано
наричат
наркотици
наркотиците
нарния
народ
народа
народен
народи
народите
народна
народната
народни
народните
народния
народният
народно
народност
народности
народното
народов
народоосвободителен
народоосвободителна
народът
нарочно
наруто
нарушава
нарушаване
нарушаването
нарушават
нарушена
нарушени
нарушение
нарушението
нарушения
нарушенията
нарушено
наруши
наръчник
нас
наса
насаждения
насам
насау
насекоми
насекомите
насекомо
населен
населена
населени
население
населението
населените
населения
населено
населеното
населявали
населявано
населяват
населяващи
насетне
насељима
насила
насилие
насилието
насилствено
насионал
наситени
наскоро
наслаги
наследен
наследена
наследени
наследи
наследил
наследник
наследника
наследникът
наследница
наследници
наследниците
наследничка
наследствен
наследствена
наследствени
наследство
наследството
наследява
наследяване
наследяването
наследяват
насока
насоки
насочва
насочване
насочването
насочват
насочен
насочена
насочени
насочено
насоченост
насочи
насред
насреща
насрочен
наставка
наставник
настанен
настанени
настанява
настаняване
настаняват
настев
настилка
настои
настолни
настоява
настояване
настояват
настоятел
настоятелство
настоятелството
настоящ
настоящата
настояще
настоящето
настоящи
настоящите
настоящия
настоящият
настоящото
настрана
настрани
настроен
настроени
настроение
настроението
настроения
настрои
настъпва
настъпване
настъпването
настъпват
настъпващите
настъпи
настъпила
настъпили
настъпление
настъплението
насър
насърчава
насърчаване
насърчават
насърчи
ната
натал
натали
наталия
натам
натанаил
нататък
нататъшната
нататъшни
нататъшно
нататъшното
наташа
натиск
натиска
натискане
нато
натоварване
натоварването
натоварвания
натоварен
натоварена
натоварени
натриев
натрии
натрупани
натрупва
натрупване
натрупването
натрупват
натура
натфиз
натъква
наук
наука
науката
науки
науките
наукитѣ
наум
наумов
науру
научава
научават
научат
научен
научи
научил
научна
научната
научни
научните
научния
научно
научноизследователска
научноизследователски
научното
научнофантастичен
научнофантастични
нафтекс
нах
нахия
нахлува
нахлуване
нахлуването
нахлуват
находища
находищата
находище
находка
находки
находките
нахсинхронен
нацизма
нации
нациите
национал
национален
национализъм
националисти
националистите
националистическа
националистически
национална
националната
национални
националните
националния
националният
национално
националност
националности
националното
националсоциализма
националсоциалистическата
нацистите
нацистка
нацистката
нацистки
нацисткия
нация
нацията
нач
начала
начален
начална
началната
начални
началник
началника
началникът
началните
началници
началниците
началния
началният
начално
началното
начало
началото
начев
начело
начин
начина
начинаещи
начинание
начинанието
начинания
начини
начините
начинът
начисляват
начо
наш
наша
нашата
наше
нашественици
нашествие
нашествието
нашествия
нашето
наши
нашите
нашия
нашият
наяве
наясно
нба
нбек
нбкм
нбу
нграф
нд
нджъл
нджър
нджърс
ндк
ндсв
ндховен
не
неа
неапол
неаполитански
неаполитанския
неаполитанското
неарктика
небе
небесата
небесен
небесна
небесната
небесни
небесните
небесно
небето
неблагоприятни
неблагоприятно
небостъргач
небраска
небюла
нева
невада
невалиден
невалидни
неведнъж
невена
невер
неверни
невероятна
невероятни
невероятно
невестино
невил
невинен
невинни
невис
неволно
неврокоп
неврокопска
неврокопската
неврокопски
неврокопско
неврологични
неврология
неврони
невски
невъзможна
невъзможно
невъзможност
невъзможността
невярна
невярно
негативен
негативна
негативни
негативните
негативно
него
негов
негова
неговата
негови
неговите
неговия
неговият
негово
неговото
неголеми
неголям
неголяма
неготино
негри
негуш
неда
недалеч
недвижими
недвижимите
недвусмислено
недев
недеи
неделно
неделчев
неделчо
неделя
недко
недков
недоверие
недоволен
недоволни
недоволство
недоволството
недопустимо
недостатък
недостатъци
недостатъците
недостатъчна
недостатъчни
недостатъчно
недостатъчност
недостиг
недостига
недялка
недялко
недялков
нее
нееднократно
нежелани
нежеланието
неженен
неженени
нежна
нежни
нежно
незабавно
независим
независима
независимата
независими
независимите
независимия
независимо
независимост
независимостта
незаконен
незаконна
незаконни
незаконно
незастрашен
незнаи
незначителен
незначителна
незначителни
незначително
неи
неизбежно
неизв
неизвестен
неизвестна
неизвестни
неизвестно
неиздавани
неизменно
неизпълнение
неизяснени
неин
нек
нека
неколкократно
некропол
некропола
некрополи
нел
нелегален
нелегална
нелегалната
нелегални
нелегално
нелегалност
неленбург
нели
нелинеи
нелсън
нем
нема
немалко
неман
немилост
немска
немската
немски
немските
немския
немският
немско
немското
нему
немци
немците
немюсюлмани
нен
ненецки
нено
ненов
ненужни
ненужно
ненчо
нео
необикновено
необитаем
необичаен
необичаи
необходим
необходима
необходимата
необходими
необходимите
необходимия
необходимо
необходимост
необходимостта
необходимото
неограничен
неограничено
неокласически
неолит
неолита
неомъжена
неопределен
неопределено
неорганични
неотдавна
неотропическата
неофит
неофициален
неофициални
неофициално
неохотно
неочаквани
неочаквано
непал
неподписан
неподходящи
неподчинение
непознат
непозната
непознати
непомук
непосредствена
непосредствено
неправилен
неправилна
неправилни
неправилно
неправителствена
неправителствени
неправомерно
непрекъснат
непрекъсната
непрекъснати
непрекъснато
непременно
непрестанно
неприемливо
неприятели
неприятеля
неприятно
неприятности
нептун
непубликувани
непълен
непълна
непълни
непълно
непълнолетни
нер
нера
неравенство
неравномерно
неравностои
неразделна
нерв
нерва
нерви
нервите
нервна
нервната
нервни
нервно
нерегистрирани
нери
нерите
нерон
нерядко
несебър
несигурност
неслучаи
неспокои
неспортсменско
неспособен
неспособни
неспособността
несправедливо
нестабилност
нестопанска
нестор
несторов
нестрам
нестроева
несъвместими
несъгласие
несъмнено
несъстоятелност
нет
нетривиални
нетуърк
неуспех
неуспеха
неуспехи
неуспешен
неуспешна
неуспешни
неуспешния
неуспешно
неустои
неутрален
неутрализира
неутралитет
неутрална
неутралната
неутрални
неутрално
неутралност
неутрони
нефт
нефтени
нефтохимик
нечии
неш
неща
нещастен
нещастие
нещата
нещо
нея
неясен
неясна
неясни
неясно
ни
нива
нивата
ниви
нивите
ниво
нивото
нигер
нигерии
нигерия
нидерландия
нидерландска
нидерландската
нидерландски
нидерландските
нидерландския
нидерландците
ние
нижински
нижни
низ
низина
низината
низини
низове
нии
ник
ника
никак
никаква
никакви
никакво
никакъв
никарагуа
никеи
никел
никея
ники
никита
никифор
никифоров
нико
ников
никога
никого
никодим
никое
никозия
никои
никол
никола
николае
николаев
николаевич
николаевна
николаево
николаи
николаос
николас
николаус
николина
николо
николов
николова
никопол
никос
никоя
никс
никсън
никъде
никълсън
никълъс
никът
нил
нилс
ним
нима
нин
нина
нинген
нинджа
нини
нините
нино
нирвана
ниро
ниска
ниската
ниски
ниските
ниския
ниско
ниското
нисши
нисък
нит
ните
нито
ниуе
ница
ници
ниците
ницше
ниш
ниша
нишата
ниши
нишка
нишката
нишки
нищо
ния
ният
нк
нквд
нланд
нло
нмънт
но
ноа
ноар
нобел
нобелов
нобелова
нобеловата
нобелови
нов
нова
новак
новаков
новара
новата
новаторски
новгород
нове
новела
новелата
новели
нови
новина
новинар
новинарски
новината
новини
новините
новите
новия
новият
новм
ново
нововъведения
новодошлите
новозеландски
новородените
новоросии
новосибирск
новост
новости
новосформираната
новосъздадената
новосъздадения
новото
ногаи
ноел
ноември
ноемврии
нож
ножа
ножове
нои
нокаут
нокти
ноктите
нолдс
ном
номади
номадски
номенклатура
номер
номера
номерата
номинал
номинална
номинално
номинации
номинация
номинацията
номинира
номиниран
номинирана
номинирани
нора
норвегия
норвежка
норвежката
норвежки
норвежкия
норд
норич
норма
нормален
нормална
нормалната
нормални
нормалните
нормалния
нормално
нормалното
норман
нормандия
норманите
нормативен
нормативни
норми
нормите
норт
нортън
норфолк
нос
носа
носеи
носел
носели
носен
носене
носенето
носени
носещ
носеща
носещи
носи
носии
носил
носител
носители
носителите
носителка
носителя
носителят
носия
носната
носова
носовата
носове
носовите
носовия
носорог
ност
ности
ностите
ността
носът
носят
нота
нотариус
нотация
ноти
нотингам
нотки
ното
нотр
ноу
нощ
нощем
нощен
нощи
нощна
нощни
нощните
нощния
нощно
нощта
нпо
нр
нрави
нрб
нрих
нс
нса
нсберг
нсдап
нси
нска
нската
нски
нства
нство
нството
нстрии
нт
нтрахт
ну
нуво
нужда
нуждае
нуждата
нуждаят
нужди
нуждите
нужен
нужна
нужната
нужни
нужните
нужно
нужното
нула
нулата
нулева
нумидия
нунавут
нуоро
нур
нфурт
нха
нхард
нц
нщаи
нър
нът
ны
ньои
ню
нюанси
нюз
нюи
нюкасъл
нюман
нюпорт
нюрнберг
нютон
нютън
нюфаундленд
някак
някаква
някакви
някакво
някакъв
някога
някогашната
някогашния
някого
някое
някои
няколко
няколкостотин
няколкото
някоя
някъде
ням
няма
нямал
нямали
нямало
нямам
нямаме
нямат
нямате
нямаш
нямаше
о
оае
оаким
оан
оана
оаникии
оанис
оанна
оахим
об
обади
обажда
обама
обаче
обвивка
обвинен
обвинена
обвинени
обвинение
обвинението
обвинения
обвиненията
обвинява
обвиняваи
обвиняват
обвързана
обвързани
обграден
обградена
обградени
обгражда
обграждат
обед
обединен
обединена
обединената
обединени
обединение
обединението
обединените
обединения
обединено
обединеното
обедини
обединява
обединяване
обединяването
обединяват
обединят
обезглавен
обезлюдено
обезщетение
обект
обекта
обекти
обективна
обективни
обективно
обектите
обектно
обектът
обем
обема
обеми
обемът
обер
оберщаи
обесване
обесен
обет
обещава
обещал
обещание
обещанието
обещания
обжалване
обзавеждане
обзор
обида
обиди
обидно
обижда
обикаля
обикалят
обикновен
обикновена
обикновената
обикновени
обикновените
обикновения
обикновеният
обикновено
обикновеното
обиколка
обиколката
обиколки
обилни
обилно
обир
обитава
обитавали
обитаван
обитавана
обитаване
обитавани
обитават
обитаващи
обитатели
обитателите
обител
обич
обича
обичаи
обичаите
обичал
обичам
обичат
обичаш
обичая
обичаят
обкръжен
обкръжение
обкръжението
обл
облагане
облак
облака
област
областен
области
областите
областна
областната
областни
областните
областния
областно
областта
облаци
облаците
облекла
облекло
облеклото
облекчаване
облекчи
облечен
облечена
облечени
облигации
облик
облика
облича
обложка
обложката
облъчване
обмен
обмена
обменят
обмисля
обмяна
обмяната
обн
обнародва
обнародван
обнародването
обновен
обновена
обновление
обновява
обновяване
обновяването
обобщава
обобщение
обогатява
обогатяване
обозначава
обозначаване
обозначават
обозначени
обозначение
обозначението
обозначения
обозначено
оборище
оборот
оборота
оборудван
оборудвана
оборудване
оборудването
оборудвани
обосновка
обособен
обособена
обособени
обособява
обособяват
обр
обработва
обработваема
обработваеми
обработваемите
обработване
обработват
обработени
обработка
обработката
образ
образа
образен
образец
образи
образите
образна
образован
образовани
образование
образованието
образователен
образователна
образователната
образователни
образователните
образователно
образува
образуваи
образували
образуван
образувана
образуване
образуването
образувани
образувание
образувания
образувано
образуват
образуващи
образци
образът
обрасли
обрат
обратен
обратна
обратната
обратния
обратно
обратното
обращение
обред
обреди
обренович
обретенов
обръч
обръща
обръщане
обръщат
обръщение
обръщението
обсада
обсадата
обсаден
обсажда
обсаждат
обсег
обсега
обсерватория
обсерваторията
обсидиан
обслужва
обслужване
обслужването
обслужват
обслужващи
обст
обстановка
обстановката
обстои
обстоятелства
обстоятелствата
обстоятелство
обстоятелството
обстрел
обстрела
обстрелва
обстрелват
обсъди
обсъдят
обсъжда
обсъждане
обсъждането
обсъждания
обсъждат
обувка
обувки
обувките
обуславя
обучава
обучават
обучени
обучение
обучението
обучения
обхванат
обхванати
обхват
обхвата
обхватът
обхваща
обхващат
обхващащ
обхващаща
обшивка
обшивката
обширен
обширна
обширната
обширни
обширните
обширно
общ
обща
общата
общежитие
общества
обществен
обществена
обществената
обществени
общественик
обществените
общественици
общественичка
обществения
обществено
общественост
обществеността
общественото
общество
обществото
общи
община
общината
общини
общините
общинска
общинската
общински
общинските
общинския
общинският
общинско
общите
общия
общият
общност
общности
общностите
общността
общо
общомедия
общото
общува
общуване
общуването
общуват
объркване
обърна
обърнал
обърнат
обърната
обърнати
обърнато
обърне
обърнете
обявен
обявена
обявени
обявено
обяви
обявил
обявява
обявяваи
обявяване
обявяването
обявяват
обявят
обяд
обяснение
обяснението
обяснения
обяснено
обясни
обяснява
обясняват
обяснят
ов
ова
овална
овални
ован
ованович
ове
овен
оверн
овес
овете
овидии
овков
овладее
овладява
овладяване
овладяването
овладяват
овощни
овца
овце
овцете
овча
овчар
овчари
овчарка
овчаров
овче
овчев
ог
ога
оги
оглави
оглавява
оглавявана
оглед
огледала
огледало
огледалото
огнева
огнен
огнена
огнестрелни
огнестрелно
огнища
огнище
огнището
огнян
огнянов
огнянова
огоста
ограда
оградата
ограден
оградена
огражден
ограничава
ограничаване
ограничаването
ограничават
ограничат
ограничен
ограничена
ограничени
ограничение
ограничението
ограничения
ограниченията
ограничено
ограничи
огромен
огромна
огромната
огромни
огромните
огромния
огромно
огромното
огън
огъня
огънят
огюст
од
ода
одежди
одер
одеса
одеска
один
одисеи
одисея
одит
одо
одобрен
одобрена
одобрени
одобрение
одобрението
одобрено
одобрява
одобряват
одрин
одринска
одринската
одрински
одринския
одринско
одринското
одс
оелс
ожен
оженва
ожени
оженил
оженят
ожесточена
ожесточени
оз
озаглавен
озаглавена
озаглавено
озбърн
озвучава
озвучаване
озвучават
озвучаващ
озвучаващи
озвучен
озеф
озефа
ози
означава
означавало
означаване
означават
означаваща
означаващо
означени
означение
означения
озовава
ои
ок
ока
окажат
окаже
оказа
оказал
оказали
оказва
оказване
оказват
окачване
окачването
океан
океана
океани
океаните
океания
океански
оки
окинава
окисление
окислител
оклахома
око
околии
околия
околията
околна
околната
околни
околните
околния
околност
околности
околностите
околността
около
околоземна
околосветско
окончание
окончанието
окончания
окончателен
окончателната
окончателния
окончателно
окончателното
окопи
окото
окраска
окраската
окръг
окръга
окръгът
окръжен
окръжие
окръжна
окръжната
окръжни
окръжните
окръжния
окръжно
окръжност
окръзи
окръзите
оксер
оксид
оксиди
оксфорд
оксфордския
октавиан
октавии
октавия
октомври
октомврии
окупатори
окупационна
окупационни
окупация
окупацията
окупира
окупиран
окупирана
окупираната
окупирани
окупираните
окупирано
окупират
окуражава
ол
ола
оланд
оланда
олаф
олбани
олга
олд
олденбург
олег
оли
оливер
оливети
оливие
оливин
оливия
оливър
олимп
олимпиада
олимпиадата
олимпиади
олимпиакос
олимпии
олимпик
олимпия
олио
олицетворение
олицетворява
оловни
оловно
олово
олтар
олтара
олтари
олтарната
олтарът
ом
оман
омар
омега
омер
оми
оминг
омир
омония
омраза
омразата
омуртаг
омъжва
омъжена
омъжи
он
она
онази
онг
онд
онези
онен
онзи
они
онии
оните
ония
онко
онков
онлаи
онна
онни
онния
онно
оно
онова
онс
онтарио
ончев
онът
оня
оод
оон
оп
опазване
опазването
опаковка
опаковки
опасен
опасения
опасенията
опасна
опасни
опасните
опасно
опасност
опасности
опасностите
опасността
опасява
опасяваи
опашка
опашката
опашки
опекун
опекунството
опел
опенхаи
опера
операта
оперативен
оперативна
оперативната
оперативни
оперативните
оперативно
оперативното
оператор
оператора
оператори
операторите
операторът
операции
операциите
операционна
операционната
операционни
операция
операцията
оперен
оперение
опери
оперира
оперите
оперна
оперни
оперно
опира
опис
описан
описана
описани
описание
описанието
описаните
описания
описано
описва
описваи
описван
описване
описват
описваща
опит
опита
опитал
опитам
опитат
опитах
опитва
опитваи
опитвам
опитват
опитен
опити
опитите
опитни
опитните
опитът
опише
оплаква
оплакване
оплаквания
оплакват
оповестява
опожарен
опожарено
опозиционни
опозиция
опозицията
ополе
опонент
опонента
опоненти
опонентите
опонентът
опора
опорни
оправдава
оправдан
оправдание
оправи
оправя
оправят
определен
определена
определената
определени
определение
определението
определените
определения
определено
определи
определя
определян
определяна
определяне
определянето
определяни
определят
определящ
определящи
опростен
опростена
оптика
оптимално
оптимизация
оптичен
оптически
оптична
оптични
оптичните
оптично
опус
опустошава
опустошават
опции
опция
опълченец
опълчение
опълчението
опълченска
опълченци
ор
оран
оранжев
оранжевата
оранжево
орански
оратор
орбита
орбитален
орбиталната
орбитални
орбиталния
орбитата
орбити
орг
орган
органа
органи
организатор
организатори
организаторите
организации
организациите
организационен
организационна
организационни
организационно
организация
организацията
организира
организиран
организирана
организираната
организиране
организирането
организирани
организирано
организират
организма
организми
организмите
организъм
органист
органите
органичен
органична
органични
органичните
органично
органът
оргос
орда
ордан
ордания
орданка
орданов
орданова
орден
ордена
ордени
ордените
орденът
орегон
орел
орест
орех
орехи
орешарски
ори
оригинал
оригинала
оригинален
оригинална
оригиналната
оригинални
оригиналните
оригиналния
оригиналният
оригинално
оригиналното
оригиналът
ориенталски
ориентация
ориентацията
ориентира
ориентиран
ориентирана
ориентиране
ориентирани
ориентират
ориз
оринген
ориндж
орион
ористано
орк
орка
оркестри
оркестър
оркестъра
оркестърът
оркската
оркския
оркшър
орламюнде
орландо
орлеан
орлеански
орли
орлин
орлиънс
орлов
орляк
орнаменти
орсини
ортенбург
ортън
оруел
орфеи
орхан
орхание
орхании
орхидеи
оръдеи
оръдие
оръдието
оръдия
оръдията
оръжеи
оръжие
оръжието
оръжия
оръжията
оряховица
оряхово
ос
оса
осака
освалд
освен
осветен
осветена
осветление
осветлението
осветява
освещава
освещаването
освободен
освободена
освободената
освободени
освободените
освободено
освободи
освободител
освободителна
освободителната
освободително
освободителното
освободят
освобождава
освобождаване
освобождаването
освобождават
освобождение
освобождението
осем
осемдесет
осемнадесет
осемте
осетия
оси
осигурена
осигурени
осигури
осигурява
осигуряваи
осигуряване
осигуряването
осигуряват
осигуряващи
осигурят
осиновен
осиновява
осип
осите
осиф
осифов
оскар
оскъдни
осло
осма
осман
османска
османската
османски
османските
османския
османският
османско
османското
османците
осмата
осми
осминафинал
осмия
осмият
осмо
осмото
оснабрюк
основа
основава
основаваи
основаване
основаването
основават
основал
основан
основана
основаната
основани
основание
основания
основано
основата
основател
основатели
основателите
основателя
основателят
основе
основен
основи
основите
основна
основната
основни
основните
основния
основният
основно
основното
основоположник
основоположниците
особен
особена
особени
особено
особеност
особености
особеностите
осогово
оспорва
оспорват
оссе
ост
оста
остава
оставаи
оставане
остават
оставен
оставена
оставени
остави
оставил
оставили
оставим
оставка
оставката
оставя
оставяи
оставят
остана
останал
останала
останалата
останали
останалите
останалия
останало
останалото
останат
останаха
остане
останки
останките
остарели
остарял
остаряла
остатък
остатъка
остатъци
остатъците
остготите
остин
остоя
остра
остри
острие
острието
остро
остров
острова
острови
островите
островната
островни
островски
островчета
островът
остър
осъден
осъдена
осъдени
осъжда
осъждат
осъзнава
осъзнаваи
осъзнават
осъм
осъществен
осъществена
осъществени
осъществено
осъществи
осъществява
осъществяване
осъществяването
осъществяват
от
ота
отава
оталанд
отбележа
отбележи
отбеляза
отбелязал
отбелязан
отбелязана
отбелязани
отбелязано
отбелязва
отбелязваи
отбелязване
отбелязват
отбива
отблизо
отблъсква
отблъскват
отблъснат
отблъснати
отблъсне
отбор
отбора
отборен
отбори
отборите
отборни
отборните
отборно
отборът
отбрана
отбраната
отбранителен
отбранителна
отбранителната
отбранителни
отбранителните
отбранява
отваря
отваряне
отварянето
отварят
отведе
отведен
отведени
отвежда
отвеждат
отвесни
ответен
отвлечен
отвлечени
отвлича
отвличане
отвличането
отводнява
отвор
отвора
отворен
отворена
отворени
отворено
отвори
отворите
отворят
отвръща
отвсякъде
отвъд
отвъдното
отвън
отвътре
отгледан
отглежда
отглеждане
отглеждането
отглеждани
отглеждат
отговаря
отговарят
отговарящ
отговарящи
отговор
отговора
отговорен
отговори
отговорил
отговорите
отговорна
отговорни
отговорник
отговорно
отговорност
отговорности
отговорността
отговорът
отговоря
отговорят
отгоре
отдава
отдаване
отдават
отдавна
отдаде
отдаден
отдалеч
отдалечава
отдалечен
отдалечена
отдалечени
отдалечените
отдалечено
отдел
отдела
отделен
отделена
отделени
отделение
отделението
отделения
отделено
отдели
отделна
отделни
отделните
отделно
отделът
отделя
отделяне
отделянето
отделят
отдих
отдолу
отдясно
отело
отец
отечествен
отечествена
отечествената
отечествения
отечество
отечеството
отзад
отзвук
отзиви
оти
отива
отиват
отидат
отиде
отинген
отис
отишъл
откажат
откаже
отказ
отказа
отказал
отказали
отказано
отказва
отказване
отказването
отказват
отказът
откакто
откаран
отклонение
отклонения
отклони
отклонява
отклоняват
отколкото
откраднат
откраднати
открива
откриване
откриването
откриват
откривател
открие
открил
открили
открит
открита
откритата
открити
откритие
откритието
откритите
открития
откритията
открито
откритото
открих
открият
откровение
откровено
откроява
открояват
открытии
открытия
откуп
откъде
откъдето
откъм
откъс
откъсва
откъси
откъснат
отлага
отлагане
отлагания
отлагат
отличава
отличават
отличен
отличена
отличие
отличието
отличителен
отличителна
отличителни
отличия
отлична
отлични
отлично
отложено
отломки
отляво
отм
отменен
отменена
отменени
отменено
отмени
отменя
отменят
отместване
отмъсти
отмъщение
отмъщението
отмяна
отмяната
отнася
отнасят
отнасящи
отначало
отнема
отнемане
отнемането
отнемат
отнеме
отнесе
отнесен
отнесени
отнета
отнети
отново
относителна
относителната
относително
относителността
относно
отношение
отношението
отношения
отношенията
ото
отов
отова
оток
отокар
отон
отопление
отпада
отпадане
отпадането
отпадат
отпадна
отпаднал
отпадне
отпадъци
отпечатан
отпечатана
отпечатани
отпечатва
отпечатък
отпечатъци
отплава
отплават
отпор
отправени
отправи
отправна
отправя
отправят
отпразнува
отпред
отпреди
отпуск
отпуска
отпусната
отпътува
отравяне
отражение
отразена
отразени
отразено
отрази
отразява
отразяване
отразяват
отразяваща
отрасли
отрасъл
отрежда
отрицателен
отрицателна
отрицателни
отрицателните
отрицателно
отрича
отричане
отричат
отрова
отровата
отровен
отрови
отровна
отровни
отряд
отряда
отряди
отрядите
отрядът
отсек
отсека
отсеци
отсечка
отсечката
отслабва
отслабване
отстои
отстоява
отстранен
отстранена
отстранени
отстрани
отстранява
отстраняване
отстраняването
отстраняват
отстъпва
отстъпват
отстъпи
отстъпки
отстъпление
отстъплението
отстъпят
отсъства
отсъствали
отсъстват
отсъствие
отсъствието
отсяда
оттам
оттегли
оттегля
оттегляне
оттеглянето
оттеглят
оттенък
оттича
оттогава
отток
оттока
оттук
отхвърлен
отхвърлена
отхвърлени
отхвърлено
отхвърли
отхвърля
отхвърляне
отхвърлянето
отхвърлят
отца
отци
отците
отчасти
отчаян
отчаяние
отчаяно
отчет
отчети
отчита
отчитане
отчитат
отъ
отърве
оу
оуен
оуенс
оукланд
оупън
оф
офанзива
офанзивата
офг
офенбах
оферта
оферти
офи
офис
офиса
офиси
офите
офицер
офицера
офицери
офицерите
офицерски
офицерско
официален
официална
официалната
официални
официалните
официалния
официалният
официално
официалното
офк
оформен
оформена
оформени
оформление
оформлението
оформя
оформяне
оформянето
оформят
ох
охаи
охан
охана
оханес
оханесбург
охлажда
охлаждане
охлюв
охлюви
охотско
охрана
охраната
охранителна
охранява
охраняват
охрид
охридска
охридската
охридски
охридско
охридското
оцветени
оцветяване
оцелее
оцелели
оцелелите
оцелеят
оцелява
оцеляване
оцеляването
оцеляват
оцелял
оцеляла
оценен
оценена
оценени
оценено
оцени
оценка
оценката
оценки
оценките
оценява
оценяване
оценяват
оцет
очаква
очаквам
очакване
очакваните
очаквания
очакванията
очакваното
очакват
очевидна
очевидни
очевидно
очевидци
очерк
очерки
очеркъ
очертава
очертават
очертания
очертанията
очерци
очи
очила
очите
ош
оши
още
п
па
пабло
павароти
павел
павзании
павилион
павия
павле
павликени
павликяни
павлин
павлина
павлов
павлова
павлович
павлос
пад
пада
падане
падането
падат
падеж
падение
падението
падерборн
падина
падини
падна
паднал
паднали
падналите
падне
падуа
пазар
пазара
пазарджик
пазарджишко
пазарен
пазари
пазарите
пазарна
пазарната
пазарни
пазарът
пазач
пази
пазител
пазолини
пазят
паи
паисии
пак
пакет
пакета
пакети
пакистан
пакт
пакта
паланка
палас
палат
палата
палау
палацо
пале
палеарктика
палеозои
палеолог
палеологина
палермо
палестина
палестински
пали
палитра
палм
палма
палми
палмови
палмър
палуба
палубата
палуби
памела
памет
паметна
паметни
паметник
паметника
паметникът
паметници
паметниците
паметта
памир
памук
пан
пана
панагюрище
панаи
панаир
панаира
панама
панамския
панда
пандемията
пандо
панел
панели
паника
паница
пано
панов
панова
панония
панорама
панорамен
панорамна
пансион
панталони
пантелеи
пантеон
пантеона
пантера
панчарево
панчев
панчо
паола
паоло
папа
папагали
пападопулос
папазов
папата
папен
папенхаи
папи
папирии
папска
папската
папски
папските
папския
папството
папуа
пара
парагваи
параграф
парад
парада
парадигма
парадокс
паразити
паразитни
параклис
параклиса
параклиси
параклисът
паралел
паралели
паралелка
паралелки
паралелна
паралелни
паралелно
парализа
парамаунт
параметри
параметрите
параметър
параметъра
парана
параскева
парата
параход
парахода
парашут
парашутисти
парен
пари
париж
парижани
парижката
парижки
парижкия
парижкото
парис
парите
парична
паричната
парични
паричните
парк
парка
паркинг
паркове
паркър
паркът
парламент
парламента
парламентарен
парламентарна
парламентарната
парламентарни
парламентарните
парламентарно
парламентът
парма
парна
парни
парните
пародии
пародия
парола
парсънс
партении
парти
партиен
партизан
партизани
партизанин
партизаните
партизанска
партизански
партизанските
партизанското
партиздат
партии
партиите
партите
партия
партията
партнира
партньор
партньора
партньори
партньорите
партньорство
партньорството
парцел
парче
парчевич
парчета
парчетата
парчето
пас
пасаж
пасажи
пасау
пасивни
пасища
пасищата
паскал
пасков
пасок
паспорт
паспорти
паста
пастор
пастьор
пат
патагония
патент
патента
патенти
патентова
патерсън
пати
патица
патици
патология
патрезе
патриарси
патриарх
патриарха
патриаршеския
патриаршисти
патриаршистки
патриаршия
патриаршията
патрик
патриот
патриоти
патриотизъм
патриотична
патриотични
патрисия
патриции
патриша
патрон
патрона
патронажа
патрони
патрул
патрулиране
патрулни
патън
пауза
паул
паула
паули
паулина
пауло
паунда
пауъл
пауър
пафос
пахлави
пациент
пациента
пациенти
пациентите
пациентът
пацо
паче
паша
пашата
паши
пашов
паяк
паяци
пб
пво
пг
пд
пе
певец
певеца
певецът
певица
певицата
певици
певци
певческа
пеги
педагог
педагогика
педагогическа
педагогически
педагогическо
педагогическото
педагози
педро
педру
пее
пеев
пеева
пеевски
пеене
пеенето
пежо
пезаро
пеи
пекин
пела
пелагонии
пеле
пелин
пелопонес
пен
пенджаб
пенев
пени
пенка
пенков
пенсилвания
пенсионира
пенсиониран
пенсионирането
пенсия
пенсията
пенчев
пенчо
пеньо
пеня
пеония
пепел
пепелта
пепеляшка
пеперуда
пеперуди
пепърс
пер
пера
перата
пергам
пергамент
пере
переи
перес
пери
перигеи
перикъл
период
периода
периоди
периодите
периодичната
периодични
периодичния
периодично
периодът
периферия
периферията
периферни
периферните
перки
перкусии
перла
перли
перм
пермски
перник
перо
перон
перото
перпендикулярна
перпендикулярно
персеи
перси
персии
персите
персия
персонаж
персонажа
персонажи
персонажите
персонал
персонала
персонален
персонални
перспектива
перспективата
перспективи
перу
перуджа
перущица
перфектно
песен
песенен
песенния
песента
пескара
песни
песните
пет
пета
петата
петгодишен
петдесет
петел
петер
петербург
петерсон
пети
петима
петимата
петипа
петиция
петия
петият
петка
петко
петков
петкова
петна
петнадесет
петно
пето
петорка
петото
петра
петрарка
петре
петрич
петричко
петро
петров
петрова
петрович
петроград
петрол
петролни
петронии
петте
петък
петър
петя
пехота
пехотата
пехотен
пехотинци
пехотна
пехотни
печ
печалба
печалбата
печалби
печалбите
печат
печата
печати
печатна
печатни
печатница
печатницата
пече
печелеи
печели
печелил
печелили
печелят
печенегите
печени
печка
печки
печора
пеша
пешев
пешка
пешката
пещ
пещера
пещерата
пещери
пещерите
пещи
пеят
пи
пианист
пианисти
пианистка
пиано
пианото
пиаца
пиаченца
пиво
пивоварна
пивоварната
пивоварни
пигмент
пигменти
пие
пиемонт
пиене
пиер
пиеро
пиеса
пиесата
пиеси
пиесите
пиетро
пиза
пизон
пии
пик
пика
пикасо
пикет
пиксар
пикчърс
пиластри
пилат
пиле
пилзен
пилот
пилота
пилоти
пилотиран
пилотирани
пилотите
пилотния
пилотът
пилсудски
пинакотека
пинд
пинероло
пинин
пинк
пино
пинокио
пионер
пионери
пионерите
пипер
пипин
пипков
пир
пирамида
пирамидата
пирамиди
пирати
пиратите
пиратски
пирдоп
пиренеи
пиренеите
пирея
пирин
пиринска
пирински
пиринско
пирмонт
пироксен
пирот
писал
писали
писан
писана
писане
писането
писани
писание
писания
писанията
писано
писар
писаро
писател
писатели
писателите
писателка
писателката
писателки
писателска
писателската
писателя
писателят
писах
писма
писмата
писмен
писмена
писмени
писмените
писмено
писменост
писмеността
писмо
писмото
писта
пистата
писти
пистолет
пистолета
пистолети
пит
пита
питаи
питам
питат
питеи
питер
пити
питкерн
питсбърг
питър
питърсън
пица
пиша
пишат
пише
пишеи
пишем
пишете
пишеш
пиърс
пиърсън
пиян
пият
пк
пкс
пл
плава
плаване
плаването
плавания
плават
плавателен
плавателна
плавателни
плаващ
плаваща
плаващи
плавно
плавции
пладне
плаж
плажа
плажове
плазма
плазмата
плакат
плакати
плакет
пламен
пламък
пламъци
план
плана
планета
планетата
планети
планетите
планина
планината
планини
планините
планинска
планинската
планински
планинските
планинския
планинско
планира
планиран
планирана
планираната
планиране
планирането
планирани
планираните
планирано
планираното
планират
планк
планове
плановете
плант
плантации
планът
пласт
пластика
пластини
пластична
пластмаса
пластмаси
пластмасови
пластове
плат
плата
платен
платена
платени
плати
платина
платинен
платинени
платка
платки
платна
платната
платно
платното
плато
платове
платон
платото
платформа
платформата
платформи
платят
плауен
плач
плачат
плаче
плаща
плащане
плащането
плащания
плащат
плебеи
плевен
плевенска
плевенски
плевенско
плевнелиев
плеи
племе
племена
племената
племенен
племенни
племенник
племенника
племенникът
племенница
племенницата
племето
плен
пленен
пленени
пленените
пленник
пленници
пленум
пленява
пленяването
пленяват
плеяда
плинии
плиска
плитка
плитки
плитко
пловдив
пловдивска
пловдивската
пловдивски
пловдивските
пловдивския
пловдивско
пловдивското
плод
плода
плодов
плодове
плодовете
плодови
плодовитост
плодородие
плодородието
плодородна
плодородни
плодът
плоска
плоски
плоско
плоскост
плоскости
плосък
плоча
плочата
плочи
плочите
плочка
плочки
площ
площад
площада
площади
площадка
площадката
площадки
площадът
площи
площта
плува
плуване
плуват
плувен
плувци
плутарх
плутон
плът
плътен
плътна
плътни
плътно
плътност
плътността
плъх
плъхове
пльон
плюс
плячка
плячката
пм
пмб
пневмония
по
поатие
победа
победата
победен
победена
победени
победи
победил
победите
победител
победители
победителите
победителка
победителя
победителят
победиха
победния
победоносец
победят
побеждава
побеждаваи
побеждават
побои
побратимени
повдига
повдигане
повдигнат
повдигнати
поведе
поведение
поведението
поведенчески
повежда
поверена
поверено
поверява
повест
повести
повестта
повече
повечето
повикан
повиквателна
повинност
повишава
повишаване
повишаването
повишават
повишен
повишена
повишение
повишено
повиши
повлиява
повлияват
повлияе
повлиян
повлияна
повлияни
повлияно
повод
поводи
повратна
повреда
повреден
повредена
повредени
повреди
повредите
поврежда
повръщане
повсеместно
повтаря
повтарям
повтарят
повтарящи
повторен
повторение
повторения
повтори
повторно
повторното
повърхнина
повърхност
повърхности
повърхностни
повърхностните
повърхностно
повърхността
повярва
поглед
погледа
погледна
погледнато
погледне
погледнете
погледни
поглъща
поглъщане
поглъщат
погребални
погребан
погребана
погребани
погребано
погребение
погребението
погребения
погреби
погребите
погрешка
погрешно
под
пода
подава
подаване
подаването
подават
подаде
подадени
поданици
поданиците
поданство
подарък
подаръци
подарява
подаци
подбор
подбрани
подвиг
подвид
подвида
подвидове
подвижен
подвижна
подвижни
подвизи
подводен
подводна
подводната
подводни
подводните
подводница
подводницата
подводници
подводниците
подгорица
подготвен
подготвена
подготвени
подготви
подготвя
подготвят
подготовка
подготовката
подгрупа
подгрупи
поддава
поддръжка
поддръжката
поддръжник
поддръжници
поддръжниците
поддържа
поддържан
поддържана
поддържане
поддържането
поддържани
поддържат
поддържащ
поддържаща
поддържащи
поделена
поделение
поделения
поделя
поделят
подем
подест
подзаглавие
подземен
подземна
подземни
подземните
подземния
подземно
подземното
подир
подиум
подиума
подклас
подкова
подкрепа
подкрепата
подкрепен
подкрепена
подкрепени
подкрепено
подкрепи
подкрепление
подкрепления
подкрепя
подкрепям
подкрепян
подкрепяни
подкрепят
подкрепящи
подкуп
подкупи
подлага
подлагат
подлежат
подлежи
подложен
подложена
подложени
подложено
подложка
подмяна
поднася
подновен
поднови
подновява
подновяват
подножие
подножието
подобен
подобие
подобна
подобни
подобно
подобрен
подобрена
подобрени
подобрение
подобрения
подобри
подобрява
подобряване
подобряването
подобряват
подобрят
подозира
подозрение
подозрения
подолски
подофицер
подофицери
подпис
подписа
подписал
подписали
подписан
подписана
подписани
подписано
подписва
подписване
подписването
подписват
подписи
подписите
подпишат
подпише
подполковник
подпомага
подпомаган
подпомагане
подпомагат
подпомогнат
подпомогне
подпоручик
подпоручикъ
подпоручици
подправка
подправки
подпредседател
подравняване
подражание
подразбира
подразбиране
подразделение
подразделението
подразделения
подразделенията
подразред
подред
подредба
подредбата
подредени
подреждане
подреждането
подреждат
подробен
подробна
подробни
подробно
подробности
подробностите
подселище
подсемеи
подсигури
подсигурява
подсилена
подсказва
подслон
подстраници
подтиква
подход
подхода
подходи
подходящ
подходяща
подходящи
подходящо
подхожда
подхранване
подхранването
подчертава
подчертават
подчертае
подчертано
подчинен
подчинена
подчинени
подчинение
подчинените
подчинено
подчини
подчинява
подчиняват
подът
подялба
подялбата
пое
поединично
поезия
поезията
поема
поемане
поемат
поемата
поеме
поеми
поет
поета
поетеса
поетесата
поетеси
поети
поетика
поетите
поетичен
поетически
поетична
поетични
поето
поетът
пожар
пожара
пожари
пожарна
пожелава
поза
позволение
позволено
позволи
позволява
позволяваи
позволяват
позволяващ
позволяваща
позволяващи
позволят
поздрав
поздрави
поздравления
поздравява
позитивни
позиции
позициите
позициониране
позиционните
позиция
позицията
позлатени
познава
познавам
познаване
познават
познан
познание
познанието
познания
познанията
познат
позната
познати
познатите
познато
позовава
позоваваи
пои
поименно
поиска
поискал
поискат
поисква
поискване
покажат
покаже
показа
показал
показали
показан
показана
показани
показания
показанията
показано
показаното
показател
показатели
показва
показваи
показване
показват
показващ
показваща
показващи
покана
поканата
поканен
поканена
поканени
покани
покачва
покачване
покер
поклонение
поклонението
поклонници
поклонниците
покои
поколение
поколението
поколения
поколенията
покорява
покоряването
покраи
покрив
покрива
покриване
покриват
покриви
покривите
покривка
покривът
покрие
покрит
покрита
покрити
покритие
покритието
покрития
покрито
покритосеменни
покров
покровител
покровители
покровителка
покровителството
покръстването
покупка
покупката
покушение
пол
пола
полага
полагане
полагането
полагат
полански
поле
полева
полеви
полегати
полезен
полезна
полезни
полезния
полезно
полемика
полет
полета
полетата
полети
полетите
полето
полетът
полза
ползата
ползва
ползвал
ползвали
ползвам
ползваме
ползване
ползването
ползвани
ползват
ползи
ползите
поли
полибии
полигон
поликарп
поликсена
полимери
полина
полинезия
полис
полиси
политбюро
полите
политехника
политехнически
политик
политика
политиката
политики
политиките
политико
политици
политиците
политическа
политическата
политически
политическите
политическия
политическият
политическо
политическото
политолог
политология
полицаи
полицаите
полицеи
полиция
полицията
полк
полка
полкове
полковник
полковници
полкът
поло
полов
полова
половата
половете
полови
половин
половина
половината
половите
полово
полог
положен
положени
положение
положението
положения
положи
положителен
положителна
положителни
положителните
положително
полска
полската
полски
полските
полския
полският
полско
полското
полтава
полу
полубака
полубрат
полувреме
полузащитник
полукръгла
полукълбо
полумесец
полунощ
полуостров
полуострова
полуострови
полупроводникови
полуразпад
полусезон
полусестра
полутежка
полуфинал
полуфинала
полуфинали
полуфиналист
полуфиналите
получава
получаваи
получавал
получавали
получаваме
получаване
получаването
получават
получат
получен
получена
получената
получени
получените
полученият
получено
получи
получил
получила
получили
получило
полша
полюс
полюса
поля
поляна
поляни
полярен
поляризация
полярна
полярната
полярни
полярните
поляци
поляците
пом
помага
помагаи
помагала
помагат
помаци
помаците
помашки
помашко
помежду
померания
поместени
помещава
помещават
помещение
помещението
помещения
помещенията
поминък
помирение
помисли
помни
помня
помнят
помогна
помогнал
помогнат
помогне
помогнете
помолен
помоли
помолил
помоля
поморавието
поморие
поморско
помощ
помощи
помощна
помощни
помощник
помощните
помощници
помощта
помпа
помпеи
помпи
помпилии
помпонии
понастоящем
понася
понасят
поначало
поне
понеделник
понеже
понесе
понижава
понижаване
понижение
понт
понтии
понякога
понятие
понятието
понятия
понятията
поотделно
поощрява
поп
попа
попада
попадат
попадение
попадения
попаднал
попаднали
попаднат
попадне
попдимитров
попечителство
попиванов
попис
попита
попитам
попо
попов
попова
попович
попово
поповски
поппетров
поправи
поправка
поправки
поправя
поправят
попречат
попречва
попречи
поприще
поптомов
популации
популациите
популация
популацията
популярен
популяризира
популяризиране
популяризирането
популярна
популярната
популярни
популярните
популярния
популярният
популярно
популярност
популярността
популярното
попфолк
попхристов
попчеви
попълва
попълване
попълнение
попълнете
пор
поради
поражда
пораждат
поражение
поражението
поражения
поразен
поразява
поразяване
поред
пореден
поредица
поредицата
поредици
поредна
поредната
поредни
поредния
поредният
поредното
поречие
поречието
порно
порнографска
порнографската
порнографски
порода
породата
породени
породи
порои
порт
порта
портал
портала
портали
порталът
портата
порти
портик
портите
портланд
порто
портрет
портрета
портрети
портретите
портретът
портсмут
португалия
португалска
португалската
португалски
португалските
португалския
португалците
портфеи
портър
поручик
порцелан
порции
поръчан
поръчана
поръчани
поръчва
поръчение
поръчка
поръчката
поръчки
порядък
порядъка
посветен
посветена
посветени
посветено
посвети
посвещава
посвещение
посеи
поселения
посетен
посетена
посетено
посети
посетил
посетители
посетителите
посещава
посещаван
посещават
посещаемост
посещение
посещението
посещения
посещенията
посл
послание
посланието
посланик
посланика
посланици
посланиците
послания
после
последва
последвалата
последвали
последвалите
последвалия
последвалото
последван
последвана
последвани
последвано
последват
последваща
последващи
последващите
последващо
последващото
последен
последица
последици
последиците
последна
последната
последни
последните
последния
последният
последно
последното
последовател
последователи
последователите
последователни
последователно
последователност
последователността
последствие
последствия
последствията
послужи
посмъртно
пособия
посока
посоката
посоки
посолства
посолство
посолството
посочат
посочва
посочване
посочват
посочен
посочена
посочената
посочени
посочените
посочения
посочено
посочи
посочил
посредник
посредници
посредничество
посредничеството
посредством
посреща
посрещане
посрещат
посрещнат
посрещната
посрещнати
посрещне
пост
поста
поставен
поставена
поставената
поставени
поставените
поставено
поставете
постави
поставил
поставили
поставя
поставяи
поставяне
поставянето
поставяни
поставят
постановка
постановката
постановки
постановките
постановление
постановления
постановява
постепенно
постепенното
постига
постигаи
постигане
постигането
постигат
постигна
постигнал
постигнали
постигнат
постигната
постигнати
постигнато
постигне
постижение
постижения
постиженията
постове
постовете
постоянен
постоянна
постоянната
постоянни
постоянните
постоянния
постоянно
постоянното
пострадали
пострадалите
пострадва
построен
построена
построената
построени
построения
построено
построи
построил
построява
построяване
построяването
построяват
построят
постумии
постъпва
постъпват
постъпи
постъпка
постъпки
постът
пот
потапя
потвърден
потвърдена
потвърдени
потвърдено
потвърди
потвърждава
потвърждават
потвърждение
потегля
потеглят
потекло
потенца
потенциал
потенциала
потенциален
потенциална
потенциалната
потенциални
потенциалните
потенциално
потискане
поток
потока
потокът
потомство
потомци
потомците
потомък
потоп
потопен
потопени
потопява
потоци
потребител
потребители
потребителите
потребителна
потребителска
потребителската
потребителски
потребителските
потребителско
потребителското
потребителя
потребителят
потребление
потреблението
потребности
потребностите
потсдам
потушава
потушаване
потушаването
потушено
потуши
потъва
потъват
потър
потърси
похвала
похвали
похвати
поход
похода
походи
походите
походът
почва
почвата
почви
почвите
почести
почетен
почетна
почетната
почетни
почетния
почетно
почетното
почива
почиват
почивка
почивни
почина
починал
починала
починали
починалите
починалия
почистване
почит
почита
почитан
почитат
почитател
почитатели
почитателите
почна
почти
поща
пощата
пощенска
пощенски
пощенските
пощенският
пощи
пощите
поява
появата
появи
появил
появила
появили
появява
появяване
появяването
появяват
появят
пояс
пояса
пояси
пояснение
пп
пр
пра
прабългари
прабългарите
прабългарски
прав
права
правата
правда
правеи
правели
правен
правене
правенето
правени
правец
прави
правил
правила
правилата
правилен
правили
правилна
правилната
правилни
правилник
правилника
правилния
правилно
правилното
правило
правилото
правим
правите
правителства
правителствата
правителствен
правителствена
правителствената
правителствени
правителствените
правителство
правителството
правиш
правна
правната
правни
правните
правния
правно
правнук
правнучка
право
праволинеи
правомощия
правомощията
правоотношение
правопис
правописа
правописни
православен
православие
православието
православна
православната
православни
православните
православния
православно
православното
правоспособност
правосъдие
правосъдието
правото
правоъгълен
правоъгълна
правоъгълни
правоъгълник
правя
правят
праг
прага
прагове
прадеш
прадо
прадядо
пражката
празен
празна
празненства
празни
празник
празника
празникът
празнина
празници
празниците
празнични
празно
празнува
празнуват
праи
праисторически
праисторическо
праистория
практика
практиката
практики
практикува
практикуват
практикуващи
практикуващите
практическа
практическата
практически
практическо
пране
прародител
прасе
прасета
праскови
пратен
пратеник
пратеници
прати
пратки
прах
праща
пре
пребивава
пребиваване
пребиваването
пребивават
пребори
преброяване
преброяването
преброявания
преброяванията
прев
преведе
преведен
преведена
преведени
преведено
превежда
превеждат
превенция
превес
превзема
превземане
превземането
превземат
превземе
превзет
превзета
превзети
превишава
превключване
превод
превода
преводач
преводачи
преводачите
преводачка
преводи
преводите
преводът
превоз
превозва
превозват
превози
превозни
превозно
превозното
преврат
преврата
превръща
превръщаи
превръщане
превръщането
превръщат
превъзходство
превъзходството
превъзхожда
превърна
превърнал
превърнала
превърнали
превърнало
превърнат
превърната
превърнати
превърнато
превърне
преглед
прегледа
прегледи
преговаря
преговори
преговорите
преграда
прегради
пред
предава
предаване
предаването
предавани
предавания
предаванията
предават
предавател
предавка
предадат
предаде
предаден
предадена
предадени
предадено
предал
предание
преданието
предания
преданията
предател
предателство
предателството
предбалкан
предбалкана
предварителен
предварителна
предварителната
предварителни
предварителните
предварителния
предварително
предварителното
предвид
предвиден
предвидена
предвидени
предвидените
предвидено
предвиди
предвижда
предвиждат
предводител
предвождани
предговор
предговора
предградие
предградието
предградия
предградията
преддверие
преддверието
предел
предели
пределите
преден
преди
предизборна
предизборната
предизвика
предизвикан
предизвикана
предизвикани
предизвикано
предизвикат
предизвикателства
предизвикателство
предизвикателството
предизвиква
предизвикваи
предизвикват
предимно
предимства
предимствата
предимство
предимството
предистория
предишен
предишна
предишната
предишни
предишните
предишния
предишният
предишно
предишното
предлага
предлагаи
предлагам
предлагане
предлагането
предлагани
предлагат
предлог
предложа
предложат
предложен
предложена
предложената
предложени
предложение
предложението
предложените
предложения
предложенията
предложено
предложи
предложил
предмет
предмета
предмети
предметите
предна
предназначен
предназначена
предназначени
предназначение
предназначението
предназначено
предната
предни
преднина
преднината
предните
предния
предният
предно
предното
предопределя
предоставен
предоставена
предоставени
предоставено
предостави
предоставя
предоставяне
предоставянето
предоставят
предотврати
предотвратява
предотвратяване
предотвратят
предпазва
предпазване
предпазват
предпази
предпазни
предписания
предполага
предполагаем
предполагаеми
предполагаемо
предполагам
предполагат
предположение
предположението
предположения
предположи
предпоставка
предпоставки
предпочита
предпочитам
предпочитан
предпочитане
предпочитани
предпочитание
предпочитания
предпочитат
предприема
предприемат
предприемач
предприемачество
предприемачи
предприеме
предприети
предприятие
предприятието
предприятия
предприятията
предразсъдъци
председател
председатели
председателите
председателства
председателството
председателя
председателят
предсказва
предсрочно
представа
представата
представен
представена
представени
представените
представено
представи
представил
представите
представител
представителен
представители
представителите
представителна
[...]
