!
"
#
##0
##1
##10
##11
##12
##13
##14
##15
##16
##17
##18
##19
##2
##20
##21
##22
##23
##24
##25
##26
##27
##28
##29
##3
##30
##31
##32
##33
##34
##35
##36
##37
##38
##39
##4
##40
##41
##42
##43
##44
##45
##46
##47
##48
##49
##5
##50
##51
##52
##53
##54
##55
##56
##57
##58
##59
##6
##60
##61
##62
##63
##64
##65
##66
##67
##68
##69
##7
##70
##71
##72
##73
##74
##75
##76
##77
##78
##79
##8
##80
##81
##82
##83
##84
##85
##86
##87
##88
##89
##9
##90
##91
##92
##93
##94
##95
##96
##97
##98
##99
$
%
&
'
(
)
*
+
,
-
.
/
0
00
000
0000
001
00100
0012
002
003
004
005
006
007
008
01
010
011
012
013
015
016
018
02
0220
023
024
025
03
030
031511
033
034
039
04
040
043
05
052
054
06
062
067
069
07
070
073
079
08
081
084
086
087
09
090
092
0923
097
098
1
10
100
1000
1001
1004
1006
1008
101
1010
1013
1014
1016
102
1020
1028
103
1031
1035
104
1040
1042
1044
1047
105
1050
1053
106
1066
1069
107
108
1084
1085
1086
1087
109
1093
1098663
1099
11
110
1100
1103
111
1111
1112
112
113
1130
1133
1135
1136
1138
114
1143
1146
1148
115
1154
116
1160
1161
1165
1166
117
1170
1176
1177
118
1180
1181
1187
1189
119
1191
1193
1195
1196
1199
12
120
1200
1201
1202
1203
121
1217
122
1221
1225
1226
1229
123
1237
1238
1239
124
1244
125
1250
1258
126
1260
1261
1262
1263
1265
1269
127
1270
1272
1278
128
1280
1282
1283
1284
1286
129
1290
1291
1295
1299
13
130
1300
1301
1302
1303
1305
1307
131
1310
1311
1312
1313
1314
1317
1319
132
1324
1325
1327
1328
133
1332
1334
1335
1337
1338
1339
134
1340
1341
1342
1344
1346
1347
1349
135
1350
1352
1354
1355
1356
136
1360
1362
1364
1365
1367
1368
1369
137
1370
1376
1377
138
1380
1382
1383
1384
1386
1387
1389
139
1390
1399
14
140
1400
1401
1405
1406
1409
141
1412
1413
1415
1416
1419
142
1422
1425
1427
1428
143
1430
1431
1433
1437
1438
144
1442
1443
144383
1449
145
1450
1451
1452
1453
1455
1457
1458
146
1461
1464
1467
1468
1469
147
1470
1471
1473
1476
1477
1479
148
1480
1482
1483
1485
1486
1488
149
1490
1490703
1491
1492
1493
1494
1495
1497
1498
1499
15
150
1500
1503
1504
1506
1507
1508
1509
151
1510
1511
1512
1513
1514
1515
1516
1517
1518
1519
152
1520
1521
1522
1524
1525
1527
1529
153
1530
1532
1533
1534
1535
1536
1538
154
1540
1541
1542
1543
1545
1546
1547
1548
1549
155
1550
1551
1552
1553
1554
1555
1556
1557
1558
1559
156
1560
1563
1564
1566
1567
1568
1569
157
1570
1571
1572
1574211
1575
1578
158
1580
1581
1582
1584
1587
1588
1589
159
1590
1592
1593
1594
1596
1597
1598
1599
16
160
1600
1601
1602
1603
1604
1605
1606
1607
1608
161
1610
1611
1613
1614
1616
1617
1618
162
1620
1621
1623
1625
1626
1627
1629
163
1630
1632
1633
1635
1637
1638
1639
164
1640
164025
1641
1642
1643
1644
1645
1646
1647
1648
1649
165
1650
1651
1654
1656
1658
1659
166
1660
1661
1662
1665
1667
1668
1669
167
1670
1671
1673
1674
1677
168
1680
1682
1683
1685
1686
1687
1688
1689
169
1690
1691
1692
1694
1695
1697
1698
1699
17
170
1700
1701
1702
1704
1705
1706
1707
1708
1709
171
1710
1711
1712
1713
1714
1715
1716
1717
1718
172
1720
1724
1725
1727
1728
1729
173
1730
1731
1732
1733
1735
1737
1739
174
1740
1741
1742
1743
1745
1746
1748
1749
175
1750
1751
1752
1753
1754
1755
1756
1757
1758
1759
176
1760
1761
1762
1763
1764
1765
1766
1767
1768
1769
177
1770
1771
1772
1773
1774
1775
1776
1777
1778
1779
178
1780
1781
1782
1783
1784
1785
1786
1787
1788
1789
179
1790
1791
1792
1793
1794
1795
1796
1797
1798
1799
18
180
1800
1801
1802
1803
1804
1805
1806
1807
180718
1808
1809
181
1810
1811
1812
1813
1814
1815
1816
1817
1818
1819
182
1820
1821
1822
1822572036
1823
1824
1825
1826
1827
1828
1829
183
1830
1831
1832
1833
1834
1835
1836
1837
1838
1839
184
1840
1841
1842
1843
1844
1845
1846
1847
1848
1849
185
1850
1851
1852
1853
1854
1855
1856
1857
1858
1859
186
1860
1861
1862
1863
1864
1865
1866
1867
1868
1869
187
1870
1871
1872
1873
1874
1875
1876
1877
1878
1879
188
1880
1881
1882
1883
1884
1885
1886
1887
1888
1889
189
1890
1891
1892
1893
1894
1894160
1895
1896
1897
1898
1899
19
190
1900
1901
1902
1903
1904
1905
1906
1907
1908
1909
191
1910
1911
1912
1913
1914
1915
1916
1917
1918
1919
192
1920
1921
1922
1923
1924
1925
1926
1927
1928
1929
193
1930
1931
1932
1933
1933877
1934
1935
19350414
1936
1937
1938
1939
194
1940
1941
1942
1943
1944
1945
1946
1947
1948
1949
195
1950
1951
1952
1953
1954
1955
1956
1957
1958
1959
196
1960
1961
1962
1963
1964
1965
1966
1967
1968
1969
197
1970
1971
1972
1973
1974
1975
1976
1977
1978
1979
198
1980
1981
1982
1983
1984
1985
1986
1987
1988
1989
199
1990
1991
1992
1993
1994
1995
1996
1997
1998
1999
2
20
200
2000
2001
2002
2003
2004
2005
2006
2007
2008
2009
201
2010
2011
20110224052115
2012
2013
2014
20141212112812
2015
2016
2017
2018
2019
202
2020
2021
2022
2023
2025
203
204
2041
205
206
207
208
2083
209
21
210
211
212
213
214
215
2155
216
217
218
219
22
220
221
222
223
224
225
226
227
228
229
23
230
231
232
233
234
235
236
237
238
239
24
240
241
242
243
244
2442
245
246
247
248
249
25
250
2500
250110
251
252
253
254
255
256
257
258
259
26
260
261
262
2629326
263
264
265
266
267
268
269
27
270
271
272
273
274
275
276
2766
277
278
279
28
280
281
282
283
2831
284
285
286
287
288
289
29
290
291
292
293
294
295
296
297
298
299
3
30
300
3000
301
302
303
304
305
306
307
308
309
31
310
311
3115
312
313
314
315
3156
316
317
318
3180
319
32
320
321
3212
322
323
324
325
326
328
329
33
330
331
332
333
334
335
336
337
338
339
34
340
3400
341
342
343
344
345
346
347
348
349
35
350
3500
351
352
353
354
355
356
357
358
359
36
360
361
362
363
364
365
366
367
368
369
37
370
371
372
373
374
375
376
377
378
379
38
380
381
382
383
384
385
386
387
388
389
39
390
391
392
393
394
395
396
397
399
4
40
400
4000
401
403
404
405
406
408
41
410
412
413
414
415
416
417
419
42
420
4200
421
4217
422
42202
423
424
4247
425
428
429
43
430
431
432
433
434
435
439
44
440
441
442
444
446
447
448
449
45
450
451
452
454
455
457
458
459548
46
460
4612
462
465
466
467
468
47
470
4700
471
472
473
476
478
48
480
482
483
484
485
487
488
4882237
49
492
493
494
495
496
497
498
5
50
500
5000
50042
501
502
503
504
505
506
507
508
509
51
510
514
517
519
52
520
522
524
52404
526
527
528
529
53
530
531
535
536
538
54
540
541
542
544
547
549
55
550
552
554
555
5552
556
557
558
56
560
562
562419
563
564
565
568
569
57
570
571
573
576
577
578
579
58
580
581
582
587
588
59
590
591
593
594
595
596
597
5979
598
599
6
60
600
601
602
603
604
60532
606
607
61
610
611
612388
614
616
618
62
620
621
622
623
625
628
63
630
631
632
633
636
637
639
64
640
6400
641
642
644
646
647
648
649
65
650
652
653
655
658
66
660
662
663
664
665
666
667
668
67
670
671
672
673
674
675
676
678
679
68
680
681
684
685
686
688
6886
69
690
691
692
6969755432
697
698
69830
699
7
70
700
7000
701
703
704
705
7052
708
709
71
710
711
712
714
7153
716
72
720
722
725
726
727
729
73
730
731
7331
735
737
738
74
740
74008
741
743
7448
745
747
748
75
750
752
753
754
756
757
758
759
76
760865
762
766
768
769
77
770
771
774
775
776
777
778
78
780
784
785
786
787
788
7897973894
79
790
791
792
793
795
796
797
799
8
80
800
801
803
804
805
809
81
810
811
812
813
814
816
8168
82
820
821
823
824
825
826
828
829
83
830
831
833
8365855538
837
838
839
84
840
841
842
843
845
847
848
85
850
85022
85033
851
853
855
856
857
859
86
860
861
862
865
866
867
868
869
87
870
871
874
875
876
877
8799
88
880
883
884
885
886
888
889
89
890
891
892
895
897
898795
899
899342
9
90
900
901
901409
902917
903686
904
904808
906294
906720
907
907064
907566
908
909
91
910
911
912
914
916
92
920
922
924
925
928
929
93
930
932
933
934
936
937
939
94
940
943
944
946
946112
947
948
949
95
950
952
9532388
9535975
954
9548451
959
96
960
961
962
963
964
965
966
967
968
97
970
971
972
973
974
975
976
977
978
9780292793514
979
98
980
982
984
985
987
988
99
991
992
994
994406
995
:
;
<
=
>
?
@
\
^
_
`
a
aa
aaahttp
aal
aalge
aaron
aasivissuit
aawos
ab
abas
abatti
abaty
abba
abbas
abbasid
abbe
abbey
abbott
abc
abd
abdel
abdul
abdullah
abecedari
abecedaris
abel
aber
aberaeron
aberafan
abercynon
aberda
aberdaron
aberdeen
aberdeenshire
aberfal
aberfala
aberffraw
abergwili
aberhonddu
aberhondhu
aberlemno
aberllefenni
aberpennar
aberplymm
abertawe
aberteifi
aberystwyth
abesteli
abjad
ablasya
abostel
about
above
abraham
abrahamek
abram
abrams
abransek
absence
abstrusus
abu
abyl
ac
academia
academy
access
accessed
account
accra
acheson
achesonyow
achesonys
achievement
achieving
achilles
acid
acinonyx
acre
across
act
action
acton
actors
acuta
ad
ada
adam
adamant
adamantys
adams
adamsii
adansonia
add
adder
addyes
adelaide
adenin
adhves
adhvesi
adhvetter
adhysk
adhyskans
adhyskansek
adhyskansel
adhysker
adhyski
adhyskys
adil
adolf
adoptys
ador
adrenal
adrian
adrienne
adro
adult
advance
advanced
adventure
adventures
adweard
aepyceros
aerea
aerial
aeroplane
af
affair
afganistan
afghanistan
afina
afinans
afinek
afinus
afinusterow
afinys
afon
afordyadow
afraid
africa
african
africana
afrika
afrikaans
afrikan
afrikanek
afrikanesow
afrikans
afrikek
afro
after
afx
afydh
afydhya
afydhys
ag
aga
again
against
agamemnon
agan
aganas
agas
agassiz
agatha
age
agency
ages
agesso
agh
aghel
aghevran
agincourt
agnes
agone
agra
agreement
agria
agrias
agricultural
agriotherium
agrostis
aguila
agwedh
agynsow
ah
ahanan
ahimsa
ahmad
ahmed
ahmedabad
ahwer
ai
aidan
aids
ailurarctos
ailuridae
ailuropoda
aime
ain
air
aires
airne
aise
aitchison
ajon
ak
aka
akademek
akademi
akademik
akademogyon
akademydh
akbar
akira
akkad
akkadian
akont
akontow
akontya
akontys
akord
akordya
akordyans
akordyon
akotis
akoustek
akron
akrotiri
akrylik
aksel
akt
aktiniom
aktivita
aktivydh
aktys
akua
akusek
al
ala
alabama
aladdin
alain
alaksi
alaksiow
alaksis
alam
alamandys
alan
alaska
alba
alban
albanek
albanesow
albani
albannek
albans
albany
albanyon
albaynak
albaynek
albedo
albemarle
alberoda
albert
alberta
alberto
albom
albrecht
album
albuquerque
aldebaran
aldo
aldous
aldridge
aled
aleksander
alemma
alena
alenna
aletschgletscher
aleut
alex
alexander
alexandra
alexandre
alexandria
alfa
alfonso
alfred
algi
algik
algol
algonkek
alhwedh
alhwedhel
alhwedhell
alhwedhellow
alhwedhys
ali
alice
alighieri
align
alignbars
alison
alix
aljebra
aljeri
alkan
alkenyow
alkohol
alkoholek
all
alla
allah
allahabad
allan
allas
alleghany
allegheny
allemoal
allen
allgame
alli
allin
alloes
allos
allosaurus
allosek
alloy
allsa
allt
alma
almanesow
almanyon
almaty
almayn
almaynek
alnifolia
alnus
alois
along
alopecurus
alosa
alow
alowa
alowas
alpe
alpek
alpes
alpha
alphabet
alpow
als
alsa
alsass
alsow
alston
alsyow
alt
altai
altar
alter
altermaal
alternative
alternonn
altomaole
altomoale
altos
altostratus
aluminiom
aluminium
alusen
always
alwesigeth
alyn
alyon
alys
alysaryn
alytus
am
amadeus
amal
amalek
amalie
amalow
amalrewlivans
amalrewlivel
amanda
amanyn
amarcord
amarillo
amason
amatoria
amazon
amazonas
amazons
amber
amberley
ambient
ambos
ambosow
ambosys
ambros
ame
amelia
amen
amendya
amendyans
amendyansow
amendys
america
american
americanek
americans
americanus
americas
amerika
amerikan
amerikanek
amerikanesow
amerikanoryon
amerikanyon
amerikaow
amerikiom
ameryca
amerycanek
amethek
amethel
amethi
amethyst
amfiwariva
amharek
amhra
amino
amiral
amiry
amis
amkan
amkanow
amlwch
amm
ammad
amman
ammeth
ammethek
ammodytes
ammodytidae
ammok
ammon
ammonya
amnesty
amoeba
amon
among
amontieth
amontya
amontyer
amontyoryon
amores
amoris
amos
amothik
amour
amovyans
amovyansek
amovyansow
amrum
amser
amseryow
amsterdam
amundsen
amwydhek
amy
amyttya
amyttyas
amyttys
an
ana
anal
analog
analogue
analord
analysis
anao
anatoli
anatomy
anc
ancaster
ancertan
anchorage
ancient
ancow
and
andalousi
anders
andersen
anderson
andes
andesit
andewanadow
andewanus
andhien
andorra
andre
andrea
andreas
andrei
andreu
andrew
andrius
androgenow
andromeda
andropov
androstenedion
andy
anedha
anedhans
anedhel
anedhi
anedhyans
anekdot
anella
anellans
anemia
anethow
anewn
anformel
anfurvus
ange
angel
angela
angeles
angelo
angelou
angels
angkor
anglikan
anglo
angola
angus
angustidens
angustifolium
anhalt
anhedhadow
anhrefn
ani
anima
animal
animalia
animals
animated
animation
anime
anishinaabemowin
anjei
anjela
anjou
ankara
ankemmyn
ankevi
ankoth
ankow
ankredoryon
ankresyans
ankrydoryon
anlaghel
anles
ann
anna
annapolis
anne
annedh
annedhys
annelida
annet
annie
anning
anniversary
announced
annual
anodhans
anodho
anopheles
anorganek
anoriant
another
anow
anpythek
anpythekter
anrhefn
ans
ansad
anser
anserghek
anserghogeth
ansergogeth
anserhek
anserhogath
anserhogeth
ansertan
anskrifys
ansodhogel
ansoedhogel
anstrothys
ansur
ant
antananarivo
antarctic
antarctica
antares
antarktek
antarktik
antarktika
antemna
antempna
anthem
anthology
anthony
anthracis
anthraks
anthrax
anthropologieth
anthropologist
anti
antiga
antikwari
antikwaris
antillys
antimoni
antimony
antiquities
antlia
anto
antoine
anton
antoni
antonio
antony
anusadow
anvateryel
anvlasus
anvodhek
anwan
anwar
anweladow
anweythresek
anwodhvos
anworfennys
anwos
anyagh
ao
aodou
aor
aotearoa
ap
apa
aparine
apartheid
apatit
apert
aperta
aperture
aphex
aphid
aphrodite
apis
apocalypse
apollo
apoyntya
apoyntyans
apoyntys
app
appalachian
apper
apperya
apple
appleton
applique
appointed
appolyn
apposyans
apposyansow
appoyntys
approach
apre
april
apskritis
apus
apys
aqsa
aqua
aquarius
aquila
aquilae
aquilegia
aquino
ar
ara
arab
arabek
arabi
arabian
arabyon
arachnida
arader
aradow
arafat
aragon
aragonek
aral
arall
aran
aranek
aras
aray
arayys
arbednek
arbenegoryon
arbeniger
arbennek
arbennik
arberth
arbol
arbovji
arbrov
arbrovji
arbrovjiow
arbrovow
arby
arc
arch
archaea
archaeologia
archaeologica
archaeology
archdderwydd
archibald
archimedes
architecture
archive
archived
archosaurs
arcine
arctic
arctica
arctium
arctodus
arctoides
arctos
arctotherium
ard
ardalydh
arde
ardyghtya
are
area
areas
arena
arenarius
arenebedh
arenebedhow
arenebel
arenep
ares
areth
aretha
arether
arethor
arethoryon
arethow
arethya
argas
arge
argemmynans
argemynna
argemynnans
argemynnas
argemynnow
argemynnys
argentina
argeow
argerdh
argerdher
argerdhes
argerdhow
argerdhys
arghadow
arghadowyow
arghans
arghansek
arghantina
arghantinans
arghantinek
arghantti
arghasans
arghasys
arghdhuk
arghepskop
arghpedrevan
arghpedrevanes
arghpedrevannes
argo
argon
argosow
argya
argyans
argyansow
arhans
arhwilell
arhwilellow
arhwithra
arhwithrans
aries
arisona
aristide
aristotle
arizona
arizonica
arjuna
arkansas
arktek
arktik
arleth
arlington
arlith
arlodh
arlodhes
arloedh
arloedhes
arlotteth
arlottethow
arlu
arluth
arlydhi
arm
armadillo
armagnac
armenek
armeni
armeniek
armor
armorica
arms
armstrong
army
armynek
arnewus
arno
arnold
arnowdyh
arnoweth
arnowydh
arnowydhieth
arnowyth
around
arow
arp
arpitanek
arr
arran
arrane
array
arrhenius
arrokoth
arrondissements
arrow
arrowhead
ars
arsav
arsenat
arsenault
arsenic
arsenid
arsenik
art
arta
arte
artek
artemisia
arth
arthes
arthik
arthropoda
arthur
article
articles
artist
artists
arts
artsakh
artydh
artydhes
artydhyon
artys
aruba
arundell
arundells
arv
arvedhys
arvek
arveth
arvethas
arvethesigyon
arvethesik
arvethys
arvil
arviles
arvor
arvordir
arvordiryow
arvorek
arvorel
arvorow
arvoryow
arvow
arvreus
arvreusyas
arvreusysi
arvwisk
arvwiskys
arwask
arwaska
arweskys
arwodh
arwodhow
arwodhyow
arwoedh
arwoedhek
arwoedhya
arwoedhyons
arwoedhyow
arzhur
as
asa
asas
asbat
asbestos
ascor
ascorras
ascq
asean
asellus
asen
aserbayjan
ashdown
ashoka
ashworth
asi
asia
asian
asianesow
asians
asiatek
asiek
asigetg
asimov
ask
askel
askell
askellek
askelva
asklosen
askor
askorasow
askorn
askornek
askorr
askorra
askorrans
askorransow
askorras
askorrasow
askorrer
askorroryon
askorrus
askorrys
askow
aslea
asleys
asmara
asnodhow
aso
asow
asp
aspekt
aspia
aspians
aspiansow
aspiansva
aspier
aspx
asran
asrann
asrannow
assamek
assassin
assay
assaya
assayas
assays
assembly
assisi
association
assoylya
assoylyes
astaire
astatin
astel
astellys
asteraceae
asteroid
asteroyd
asteroydys
asthenosfer
astiveri
astiverys
astronomiae
astronomy
asturiana
asturya
asturyek
aswan
aswiwa
aswiwans
aswiwansow
aswiwas
aswiwus
aswiwys
aswolghes
aswon
aswonadow
aswonas
aswonir
aswonn
aswonnas
aswonni
aswonnir
aswonnis
aswonnvos
aswonnys
aswonvos
aswonyn
aswonys
asya
asyn
at
ata
atacama
atal
atalvaow
atao
atar
atatu
ath
athabasca
athabaska
athelstan
athens
atherton
athi
athina
athlet
athletek
atkinson
atlanta
atlantek
atlantel
atlantic
atlantique
atlantis
atlas
atol
atom
atomek
atomow
atomva
atropa
attendya
attendyans
atticus
atua
au
aubigny
aubrey
auckland
aud
audio
audley
audrey
auensee
auer
aufgeschnittener
augsburg
august
augusta
auguste
augustine
augusto
augustus
aukso
aur
aurelius
auriga
aurora
aus
austel
austell
austen
austin
austol
australe
australia
australis
australya
austrinus
auto
autumn
aux
auxiliary
auyantepui
available
aval
avalow
avant
avar
avatar
ave
avebury
avel
avell
aven
avenow
avens
aventur
aventurs
aventurys
avenue
avenyow
aver
aves
avi
avialans
aviator
avicenna
avokados
avon
avonnow
avonow
avonsus
avonsya
avonsyans
avonsyansow
avonsyas
avonsyes
avonsys
avonyow
avowans
avowys
avoydya
avrewlys
awakening
award
awards
awartha
away
awayl
awdry
awedhya
awedhyans
awedhyansow
awedhyansus
awedhyas
awel
awelyow
awen
awenek
aweni
awenys
aweyl
aweylys
awgrym
awgrymek
awgrymer
awoles
awos
awosa
awrgrymor
awstri
awtomatek
awtorita
awtoritas
awtour
awtoures
awtours
axel
ay
ayns
ayodhya
ayr
ayrborth
ayrborthow
ayren
ayrennow
ayrgorf
ayrgylgh
ayrlester
ayrlorhow
ayrlu
ayyubid
ayyubidow
az
azerbayjan
azerek
azimuth
azov
aztek
aztekek
aztekys
aztlan
azərbaycan
aŋ
b
ba
baad
bab
baban
babanes
babbage
babow
baby
babylon
bacchus
bach
bachelerieth
bacillus
back
background
bacteria
bad
baden
badh
badhya
bae
bagad
bagas
bagasow
bagaz
bagh
baghdad
baghek
bagnall
baha
bahama
bahn
bahreyn
bai
baikal
baile
bailey
bain
baituna
baker
bakka
bakr
bakteria
bakteriom
baktrian
baku
bal
bala
balaenoptera
balanchine
balard
baldak
baldwin
balearek
balek
balestaynek
balestin
balestinek
balfour
balhatchet
bali
balieth
balkans
balkanyow
ball
ballabeg
ballacostain
ballad
ballard
ballasalla
ballet
balley
ballon
balls
ballybunion
balores
balster
baltek
baltimore
balweyth
balya
balyers
balyes
balyow
bambi
bamboo
bambou
ban
banaghow
banana
bananas
band
banda
baner
baneryow
bangkok
bangladesh
bangor
bangui
banj
bank
banks
bankskwattyes
bann
banna
banner
bannister
bannyow
baobab
baper
baperyow
baptiste
bar
bara
barack
baraskosek
barbados
barbara
barbie
barbour
barbuda
barcelona
barclay
bardh
bardhek
bardhonegow
bardhonek
bardhonieth
bardhonogow
bardhys
bards
bareusi
bargen
bargennow
bargennyow
bargenyow
bargesi
barghan
barghouti
bariom
baris
barjavel
bark
barker
barkhane
barkow
barlys
barner
barnes
barnet
barnett
barney
barnstaple
baron
baroness
baronet
baronetage
baroque
barr
barras
barre
barred
barrett
barri
barrie
barrier
barringer
barrow
barry
barrys
bart
barth
bartholomew
barthow
barti
bartlett
bartley
barto
bartolozzi
barton
barv
barvow
barys
bas
basalt
basaltow
basbord
basbousa
based
basel
basilica
basilika
basin
bask
baskek
basnet
bason
basque
bass
basse
basset
bassya
bassyas
bastel
bastell
baszler
batal
batalya
batalyas
batalyes
batalyow
bate
batel
bath
bathgate
batholith
bathow
batri
batriow
batrys
battersea
battery
battle
battleship
battuta
bauhaus
baureihe
bavaria
bawcock
bawd
bawl
bay
baya
bayas
bayer
bayern
bayne
bbc
bc
be
beach
beachy
beag
beam
bear
beard
beas
beast
beat
beatles
beatrice
beatrix
beats
beau
beautiful
beauty
beaver
bec
because
beck
beckett
becquerel
bed
beddgelert
beder
bedford
bedfordshire
bedh
bedhas
bedhgelert
bedhow
bedier
bedn
bednye
bedwyr
bee
beeching
beed
beede
been
beerd
beethoven
before
begel
begh
beghes
beghow
beginners
beginning
begins
behind
beijing
being
beinn
beirdd
beit
bejeth
bel
belarous
belarussek
belarussi
belfast
belg
belgek
belgrade
belgyon
belisa
bell
bella
belladonna
bellder
bellefonte
bellevue
bells
bellweller
bellwolok
below
belsebuk
belye
bemisemagak
ben
benazir
bend
benedikt
benegas
benelogorieth
benen
benenes
benenreydh
benet
benetice
benfro
bengal
bengalek
bengali
benigas
benin
benito
benjamin
benn
bennaghel
benncita
benneghlek
benneglos
bennett
bennetto
bennfenten
bennfentynnyow
benngasenn
bennigys
bennlynn
bennow
bennplas
bennrewl
bennrynn
bennsans
bennserneth
bennseviges
bennseythen
bennseythun
bennsita
bennskol
bennskolyow
bennskrifas
bennworsav
benny
benoit
benow
bensans
bentewyn
benyn
benynes
beograd
ber
beran
berber
berberidifolia
bercow
berdh
berdhys
bere
berformyas
berg
bergen
berghenegas
berghenn
berghennow
berghenogeth
bergman
beriodek
berkeley
berkeliom
berkelium
berkman
berks
berkshire
berlin
berlioz
bermuda
bern
bernadotte
bernard
bernat
berners
bernez
bernhardt
bernie
bernyow
bernys
berr
berra
berresford
berrheans
berrheansow
berrhes
berrheys
berrik
berrskrif
berry
berson
bert
berth
berthelsen
berthi
berthyans
berthyglow
bertrand
bervedh
bervedhek
beryl
berylliom
beryllus
beryllys
berzelius
bes
besies
besontin
besow
besowek
bessbrook
bessemer
best
bestes
bestva
beswar
besy
besya
besyas
besydhys
besyel
bet
beta
beth
bethesda
bethlehem
bethlem
bethnal
betjeman
betrachtung
bettegens
bettel
betty
betulaceae
between
betws
betys
beu
beudhi
beudhys
beunans
beurva
bew
bewa
bewedh
bewek
bewgylgh
bewheans
bewin
bewnans
bewnansow
bewonieth
bewoniethel
bewskrif
bewskrifow
bewva
bewvaow
beybel
beyer
beyond
beyrut
bez
bh
bha
bhagavad
bhagirath
bhakti
bheinn
bhoutan
bhutto
bi
bia
bian
bibel
bibennow
biblek
bibynes
bicester
bicolor
biden
biennale
big
bihan
biiljked
biilked
biktyon
bilady
bilbao
bilbilis
bili
bilingual
bill
billed
billie
billy
biloxi
bilvil
bilvilyow
bin
binary
binga
bingen
biobi
biography
bird
birds
birmingham
birth
birute
birzeit
biscoe
bishop
bismarck
bismuth
bison
bissau
bissaw
biw
biwmares
biwmaris
bizaad
bizarre
bjo
bk
bl
bla
black
blackadder
blackburn
blackford
blackheath
blackwell
blaenau
blair
blake
blanche
bland
blanet
blanetow
blanettek
blanettys
blanetys
blans
blansow
blas
blasa
blasen
blasenn
blasennow
blasow
blastek
blat
blatinom
blatt
blattodea
blattys
blau
blaue
blaze
blazey
bleach
bledhen
bledhennek
bledhennyow
bledhenyow
bledhydnyow
bledhynnyek
bledhynnyow
bledhynyow
bleg
blejen
blejyow
blekinge
blencathra
bless
blessed
blethys
bleu
bleudh
bleujen
bleujennek
bleujennow
bleujow
bleujowa
bleujyow
bleujyowa
bleus
blew
blewek
blewen
bleydh
bleydhes
bleydhyow
bleyn
bleynyow
bleynys
block
blockys
bloedh
blomm
blonde
blonegek
blonek
blood
bloodaxe
bloodh
bloody
bloom
bloomington
bloomsbury
blous
blouton
blow
blue
blues
blutoniom
bluw
bluwow
bly
blydhen
blydhennow
blydhynyow
bm
bo
board
bob
bobans
bobby
bobel
bobeldominic
boblans
boblek
bobok
bock
bocka
bod
bodensee
bodfari
bodh
bodhar
bodhek
bodhesigyon
bodhesik
bodhogyon
bodinar
bodmin
body
boek
boekkas
boerke
boes
boesek
bogalen
bogalenn
bogalennow
bogan
bogart
bogh
boghes
boghosek
boghosekka
boghosogneth
boghow
bogi
bogota
bohemia
bohortha
bohr
bohriom
boiling
boisbaudran
bojet
bokma
boks
boksuser
boksusi
bold
boles
bolgh
boli
bolitegieth
bolitegoryon
bolitek
bolitho
bolivi
boll
bolla
bollennow
bollowal
bollys
bologna
bolonek
boloni
bols
bolshevik
bolsheviks
bolter
bolton
bolyow
bombas
bombus
bomm
bon
bonaparte
bonariense
bond
bondys
bone
bones
boni
bonn
bonner
bonni
bonniow
bonobo
bons
bonsfordh
bonsrys
bonsyow
bont
bontnewydd
bonya
bonyas
boo
booboo
book
books
bool
boone
boos
boosa
booth
boots
boppard
bor
bora
boraks
borassus
bord
border
borders
bordh
borealis
boreles
borelesen
borga
borges
borik
boris
borlase
borlewen
borlowenn
born
borneo
boron
borough
borpas
borpos
borr
borth
borthia
borthkragen
borthmadok
borthow
borthperan
borthskathow
borthva
borthynys
bortrayansow
bortyngal
borwein
bos
bosa
boscastle
boscawen
bosek
bosekka
boskarn
boskaswal
boskawenn
boslev
bosna
bosnek
bosni
bosnia
boson
bosow
bosskawen
bost
boster
bosti
boston
bosva
bosvena
bosvenegh
bot
botassiom
botel
boteller
botellow
boterel
bothek
bothennow
botswana
bottle
bottom
bouddha
bouddhistek
bouddhisteth
bouddhistyon
bouddiek
bouddieth
boudica
boulder
bourne
bournemouth
boutle
bovidae
bow
bowen
bowes
bowie
bowl
bowman
bownder
bowyow
box
boy
boyce
boynt
br
bra
brad
bradbury
bradford
bradley
braga
bragji
brahe
brahma
brahmagupta
brahms
braided
brain
braktis
bran
branch
brand
brandon
brandsbutt
brandt
branwell
branwen
bras
brashes
brasi
brasil
brasilek
brasilense
brasiliensis
brassa
braster
brastir
brastiryel
brastiryow
brat
brath
bratha
brathow
bratislava
braun
brav
brave
braverman
bravo
brazil
brazzaville
bre
breace
break
breakfast
breaking
breanek
breath
brecchia
brecon
bredennek
breder
brederas
bredereth
brederi
brederis
brederys
breed
breeds
bregh
breghow
breghys
bregowtha
breiz
breizh
brena
brenas
brenda
brenn
brenoryon
brent
breow
brescia
bresel
breselek
breseli
breselyow
brest
bretagne
bretannek
breten
bretenek
bretennek
bretennik
bretnach
breton
bretonek
bretonesow
bretonne
bretonyon
breus
breuslys
breusyas
breusydh
breusys
breusysi
brev
brevas
breves
brevi
brevirhinus
brevyans
brew
brewgik
brewi
brewyon
brewys
brexit
breydhoryon
brezhnev
brezhoneg
bri
briallen
brian
briansen
bridge
bridges
bridgetown
brief
briek
brien
bries
brighton
brij
brin
brinton
bris
brison
bristol
bristow
britain
britanniae
britannica
brith
brithweyth
british
briton
brittany
brivedh
briweyth
bro
broad
broadcasting
broadway
broas
broassa
broaster
brocken
brod
broder
brodervoldrans
brof
brofoesi
brofya
brofyas
broken
bromin
bromovya
bron
bronn
bronna
bronnegi
bronnek
bronnow
bronnvil
bronnviles
brons
bronte
bronter
bronwydd
bronze
brooke
bros
brotestya
brotin
brotonow
brottel
brov
brovas
brovi
brovia
brovias
brovyas
browagh
broweghereth
broweghysi
brown
browne
brownhills
browning
brownthe
broyow
bru
bruce
bruckner
brude
brudermord
brunei
brunel
bruney
bruno
brunswick
brussel
brusselas
brussels
brutalist
brwynog
bryan
brychan
brycheiniog
bryckys
brydydhieth
brygga
brygh
bryghi
bryghlin
bryjyon
bryjys
bryn
bryneglwys
bryntin
bryntyas
bryntys
brys
brysel
bryskyn
bryskynn
brysonieth
brysoniethel
brysoniethoryon
brython
brythonek
brythonyon
bryw
bs
bt
bu
bual
buales
bualgarow
bualgerwys
bub
bubblebath
bubonan
bubvledhynnyek
bubyn
buchan
buchanan
bucharest
buckingham
buckinghamshire
bucks
bud
budapest
buddha
budeaux
budh
budhek
budhow
buenos
buffalo
bug
bugel
bugelya
bugh
bughes
bugloss
buhez
building
built
bujumbura
bulb
bulgarek
bulgari
bulgaria
bulgur
bulhornes
buli
bull
buller
buluk
bumm
bun
buna
bunsen
buphagus
bur
burdhen
bureau
burek
buren
burial
burjes
burjestra
burjestrevow
burjysi
burke
burkina
burl
burlington
burm
burn
burnard
burnham
burns
burpur
burrell
burren
burslem
burton
burundi
bus
buses
bush
bushys
business
businessinsider
buskes
bust
but
butler
butte
butterfly
buxton
buz
bw
bwindi
bwlch
by
byghan
byghanna
byhan
byldya
byldyans
byldyansow
byldyas
byldyes
byldys
bylydyes
bymp
bynn
byrmani
byron
bys
bysadow
bysefan
bysi
bysis
bysk
byskessa
bysow
bysowek
bysowyer
bystel
bysy
bysyel
bysysel
byt
bytegens
bytegyns
byth
bythkweth
bythkweyth
bythlas
bythqweth
byttegens
byttegyns
byw
bywa
bywder
bywheans
bywhes
bywnans
bywonieth
bywskrif
byzantium
c
ca
cabezas
cabinet
cable
cablys
cabmas
cabral
cac
cacao
cacapon
cache
caco
cad
cade
cadmium
cadw
cae
caenorhabditis
caer
caerdydd
caereinion
caerffili
caergybi
caerliwelydd
caerllion
caernarfon
caerulea
caesar
cafe
caffer
caffra
cafos
cage
cain
cairn
cairns
cairo
caister
caithness
cake
calais
calan
calans
calculus
caledonia
calendar
cales
calhoun
california
caliph
callaghan
called
calling
callington
callisto
caloris
calstock
calum
calvary
calvert
calvete
calvin
calvus
cam
camborne
cambria
cambridge
cambron
came
camelus
cameron
camila
camlas
camp
campaign
campbell
can
cana
canaan
canada
canadian
canaima
canaimo
canal
canals
canarias
canberra
cancer
cancri
candy
canes
canidae
canis
cannes
cannon
canol
canolfan
canon
canow
cansbledhen
cansvledhen
canterbury
canterville
canton
cantonek
canyon
canyonlands
cao
cape
capital
capitol
caprea
capricornus
captain
caput
car
caracas
caradar
caradon
carangidae
carbon
cardona
cards
carga
cargeeg
caribbean
carina
carl
carla
carles
carlisle
carlo
carlos
carlyle
carmel
carmen
carn
carne
carnival
carnivora
carno
carnoack
carnon
caro
carol
carolina
caroline
carpenter
carrara
carrek
carrera
carrizoplain
carrock
carroll
carrot
cars
carson
carta
cartennow
carter
cartryjennow
cas
casartelli
case
casey
cash
casnewydd
caspia
caspian
casse
cassini
cassius
castanea
castel
castell
castle
castleton
castletown
castor
castro
cat
catalunya
catarina
catedral
category
cathair
cathedral
catherine
catholic
cato
catus
catwings
caucasus
cauda
cause
causeway
causley
caustic
cavanagh
cave
cavendish
cavern
cavia
cbe
cc
cccc
cd
cds
ce
ceann
ceaster
cecil
cecilia
cefn
cei
ceiriog
cel
celebrating
celebration
cell
celtic
celtique
cenedlaethol
census
cent
centauri
center
centimeter
centrafrika
central
centre
centro
centuries
century
cepelinai
cepelinas
cephalochordata
ceramic
cerci
ceredigion
ceres
ceri
ceriom
cermet
cernyw
cernyweg
cerrig
cerris
certan
certificate
cervantes
cesiom
cessya
cetacea
ceuta
cf
cfa
cfp
ch
cha
chad
chaetognatha
chalenj
chalenjya
chalenjys
chalk
challenger
challenjyes
challys
chamber
chamberlain
chambersburg
chambour
chamorro
champagne
champaign
championship
champs
chan
chance
chandragupta
chanel
change
changes
chanj
chanjya
chanjyadow
chanjyas
chanjyes
chanjyow
chanjys
channel
chansler
chapel
chapelyow
chaplin
chapman
chapmanii
chapter
chaptra
charlemagne
charles
charleston
charlestown
charley
charlie
charlotte
charlys
charon
chart
chartarum
charter
chartour
chartys
chas
chase
chasewater
chassya
chasya
chat
chatel
chatelydhieth
chattanooga
chaucer
chayn
chaynys
che
checker
checkya
cheddar
cheddi
cheesewring
cheetah
chei
cheilteach
chek
chekek
chekhov
cheloveka
chelsea
cheltenham
chennai
chenon
cher
chernobyl
cherns
cherokee
cherokiek
chert
cheshire
chester
chesterblade
chesterfield
chestnyj
chetwynd
cheviot
chevisya
chevisyes
chevisys
chevron
cheyenne
chi
chiapas
chicago
chichester
chief
chif
chihuahua
chik
child
childhood
children
chile
chilopoda
chimanimani
chin
china
chinek
chinese
ching
chinkapin
chiow
chirgwin
chisholm
chisos
chital
chittagong
cho
choice
choklet
chomsky
chomutov
chongqing
chons
choo
chordata
chorus
chre
chris
christ
christi
christian
christie
christina
christine
christmas
christopher
chromium
chrysalis
chrysanthemum
chrysolepis
chu
chubb
chubby
chuck
chulainn
chunk
church
churchill
chuzhaya
chy
chyannor
chyf
chymbla
chympansi
chympansis
chytrak
chytrakes
ci
cia
ciccarelli
cider
cidi
cil
cill
cimex
cina
cincinnati
cincta
cinema
cinerea
cinnabar
cinnamomum
circa
circle
circus
cirk
cirrocumulus
cirrus
cirrusfield
cis
cita
citrus
citta
city
citys
ciu
civil
ciw
cixi
ck
cke
cksburg
cl
cla
clab
clade
clair
claire
clappya
clara
clare
clarice
clarion
clark
clarke
clarkson
class
classe
classic
classification
claude
claudius
clay
cle
cleaner
clear
clearfield
cledh
clegg
clemens
clement
clemo
cleopatra
clerra
clether
cleve
cleveland
cliath
cliff
clifford
cliffs
clifton
climate
climb
climo
clinic
clinton
clio
clipperton
clive
clock
clockwork
close
closeup
cloud
clouds
club
clupeidae
cluster
clwyd
clydach
clyde
clyst
cm
cn
cnidaria
cnn
co
coahuila
coal
coalition
coan
coast
coat
coates
cobain
cobar
coburg
coccinea
coch
cochevelou
cocos
coden
codna
coe
coed
cohen
coimbra
coire
cok
col
cola
colby
cold
cole
coleridge
coligny
colin
colina
collage
collages
colle
collected
collection
collections
collectivite
collectors
college
collembola
colley
collider
collie
collins
colm
colo
colom
colombo
colombobalanus
colonel
colony
color
colorado
colors
colosseum
colour
colourys
coltrane
columb
columbia
columbidae
columbus
com
coma
comb
come
comes
coming
commission
committee
common
commons
commonwealth
commune
communis
como
company
comparison
complete
composite
composition
compostela
composter
composyth
comprehendya
computer
computinghistory
comstock
con
conakry
conan
concepcio
concert
concerto
concise
confessions
confirms
confucius
congo
congress
conical
connaill
connecticut
conner
connochaetes
connor
conrad
conseil
consel
conservatives
console
consolen
constable
constance
constant
constantine
constantinus
constellation
constituency
construction
consu
container
containing
contemporary
content
conteth
context
contract
contrevack
control
conwy
cook
cookworthy
coolidge
cooper
coos
cop
copenhagen
copernicia
copernicus
copeyensis
copons
copper
copperfield
cor
coral
corbusier
corbyn
cordillera
core
coren
corf
corfow
corinne
corinth
corinthos
corn
cornelius
cornicum
cornish
cornishdictionary
cornu
cornubit
cornwall
cornwallit
corona
corporate
corporation
corpus
corris
corse
corsek
corsica
corte
cortez
corvus
coryell
cosel
coselhttp
cosmic
costa
costner
cota
cotehele
coth
cotha
cotopaxi
couch
could
council
councillors
count
countess
countries
country
countryside
county
coup
course
coursebook
court
courtenay
cousin
cove
covenanters
coventry
cover
covered
covertcoat
cowethas
cowsel
cowsoryon
cowsys
cox
coynt
cr
crab
crack
crackington
cradle
crag
crai
craig
crane
crater
crawford
cre
creacon
creative
cree
creek
crees
cregneash
crenata
cres
crescent
crev
cri
crib
crick
cristatus
cristina
cristo
cristoneth
cro
crocodylidae
crocodylinae
crocodylus
crocus
croesor
croffolow
crofty
croix
croke
cromwell
cronstedt
crooked
crookes
crop
cropped
croquet
crosby
cross
crosscountry
crossing
crossley
crow
crowd
crowe
crown
crowndale
crows
crowtheri
croydon
cruces
crui
cruise
cruithne
crush
cruz
crymych
cryst
crystal
crysten
crystyon
cs
cst
ct
cu
cuba
cuillin
cuiltheann
cul
culbertson
culpeper
cult
cultivar
cultural
culture
cum
cumberland
cumbria
cummings
cumulonimbus
cumulus
cunha
cuniculus
cunliffe
cuntel
cuomo
cup
curie
curiosity
curitiba
curnoack
curonian
curtis
cusps
cussel
customs
cut
cuthbert
cw
cwm
cy
cyanid
cyanobakteria
cycle
cycliste
cyclobalanopsis
cyclotron
cydweli
cymer
cymraeg
cymru
cynan
cynon
cynosurus
cynwyl
cyril
cyrus
cyta
cytosin
cytrus
czek
d
da
dactylis
dad
daddy
dader
dadhel
dadhla
dadhlow
dadn
daffar
dafydd
dag
dagrow
daguerreskrifa
dagyer
dahl
dahmer
daigh
daily
daimyo
daklennow
daklow
dakota
daksonomieth
dal
dalai
dalarna
dalathfos
dale
dalgh
dalghedh
dalghenna
dalghennys
dalghow
dali
dalian
dall
dallanaves
dallas
dallath
dallathas
dallathvos
dalleth
dallethoryon
dallethvos
dallethys
dalli
dalmati
dalmatian
dalmatians
dalton
dalva
dalvann
dalvia
dalvya
dama
damach
damage
damask
damawynn
dame
damkanieth
damkanydh
damyow
dan
danaw
danbellen
dance
dancing
dane
danek
daniel
danmark
dann
danna
danno
dannvenys
dannvon
danny
danow
dans
dante
danvener
danvenys
danvon
danvonadow
danvonys
danycoed
danygrisiau
dao
daoberor
daphne
dar
daras
darasow
darbar
darbari
dardh
dardhansow
dardhas
dardhegyans
dardhegyansel
dargana
darganow
dargenys
dargeveryel
darit
darjeeling
dark
darkgrey
darkness
darlesa
darlesans
darlesor
darlesys
darmstadt
darmstadtiom
darn
darnow
daromres
darren
dart
dartmoor
dartmouth
darussalam
darvos
darvosow
darwaza
darwin
das
dasalhwedhys
dascargadow
dasdhrehevel
dasdrehevel
dasdrehevys
dasdyllys
dasetholys
dasfurvyans
dasjunya
daskavos
daskelwel
daskemeres
daskemyskys
daskevys
daskor
daskorr
daskorrys
daskorys
dasleys
dasoberi
dasoberor
dasoberoryon
dasoberus
dasoberyans
dasoberyansow
daspennfenten
daspennfentenyow
daspryntyans
dasserghi
dasserghyans
dasserghyes
dasserghys
dasserhy
dasserhyans
dasskrif
dastewynnya
dastinytheans
dastinythians
dastinythyans
dastrehevel
dastrehevyans
dastrehevys
dastyllys
dasunyans
dasvyldyes
dasvywnans
daswel
daswelys
dasworrys
daswrians
daswriansow
daswrys
dasygerys
data
database
dateformat
dau
daughter
dauphin
dava
davas
dave
davell
davenport
daves
davey
david
davids
davies
davis
davol
davosow
davy
davydh
davyth
dawn
day
dayeh
daylekteth
days
daytona
db
dbe
dc
dd
dde
ddinbych
ddraig
ddu
dduallt
de
dead
deal
dean
dearg
death
deb
debatys
debrett
debroryon
dec
decade
decatur
december
decernya
deco
dedh
dedhwi
dedhwys
dedhya
dedhyans
dedhyas
dedhyasow
dedhyek
dedhyes
dedhyow
dedhys
dee
deep
deer
defenders
defendya
defens
defians
defolyans
defolyer
defolyes
deg
dega
degadoryon
degea
degeans
degemeres
degemerys
degemmerys
deges
degeys
deghow
deghowbarth
degi
degli
degol
degolyow
degowek
degre
degves
degvledhen
degvledhynnyow
degyans
degys
dehen
dehow
dehwelans
dehweles
dehwelys
dei
deiniol
deiu
dek
dekalb
deklarys
deklin
deklinya
deklinyans
deknegieth
deknek
dekst
dekstow
dekter
del
delabole
delaboleslate
deland
delanwes
delanwesow
delany
delaware
delen
delenwys
delergh
delgarow
delhi
delinya
delinyans
delinyansow
delinyes
delinys
delivrys
delk
dell
della
dellek
dellni
delow
delphinus
delroos
delta
delvrysyow
delyn
delyow
dem
demarc
demedhas
demedhi
demedhy
demedhyans
demedhyansow
demedhys
demelsa
demigow
demmedhi
demmedhyans
demo
democratic
democrats
demokrat
demokratek
demokratyon
demond
demos
dempredh
demprek
den
denagha
denali
denbighshire
dendil
dendroaspis
dendyl
dene
denel
denethes
denewen
denez
deng
dengarer
dengerensedhek
denis
denise
denkmal
denkys
denledhys
denmark
denn
denna
dennas
dennbons
dennis
dennys
dens
densek
denses
dentata
denver
denys
denythyans
deorham
department
depot
depressipes
deptford
deputies
der
deray
derby
derbyshire
derdro
derek
derivador
derivadow
derivans
derivas
derivasow
derivys
dermanland
dermyn
dernieth
derow
derowel
derr
derri
derry
derwen
derwenlas
des
descartes
descendants
descent
descrifa
desedhans
desedheger
desedhek
desedhva
desedhys
deseghys
desempys
desen
desert
deserticola
desevys
desgrange
desi
desin
desina
desiner
desinya
desinyes
desinyow
desinys
desir
desire
deskrif
deskrifa
deskrifans
deskrifansow
deskrifys
deskrivans
deskrivys
desky
desmond
desmygys
desolation
despit
desten
destenn
destennow
destiny
destryppya
desyn
det
detail
determys
deth
detroit
deu
deudh
deudhi
deur
deus
deuth
deutsche
deutschland
dev
deva
devar
devas
devedhyans
devedhyansow
devedhys
development
dever
devera
deveryon
deves
devesigyon
devesik
devi
devil
devis
deviser
devisya
devisyans
devisyow
devisys
devnydh
devnydhya
devnydhyans
devnydhyer
devnydhyes
devnydhyow
devnydhys
devnyth
devocyon
devon
devorya
devos
devosow
devri
devyati
devydnow
devyn
devynn
devynnow
devynnys
dew
dewabrans
dewblek
dewblekhe
dewblekkhe
dewder
dewdhegow
dewdhegves
dewdhek
dewdhen
dewdhorn
dewdhowr
dewdroes
dewdrosegyon
dewedh
dewedha
dewedhys
dewek
dewes
dewesva
dewetha
dewfrik
dewheles
dewi
dewis
dewisus
dewisyans
dewisyansow
dewisyow
dewisys
dewl
dewlagas
dewnans
dewnek
dewnens
dewoksid
dewrosa
dewweder
dewyn
dewynblustri
dewynnans
dewynnow
dewynnyans
dewys
dewysyans
dewysyansow
dewysys
dey
deylu
deyluyow
deyr
deythi
deythyek
deythyogyon
dh
dha
dhabi
dhadhel
dhadhla
dhaka
dhalathas
dhalathsa
dhalghennas
dhallathas
dhallathsa
dhalleth
dhallethas
dhamach
dhamkanieth
dhana
dhanek
dhannvenis
dhanvon
dhanvonas
dhargan
dharma
dharmek
dharn
dharnow
dhasfurvyas
dhaskorrans
dhasober
dhasserghi
dhasserghyans
dhasskrifa
dhastewyn
dhasygeri
dhavas
dhe
dheber
dhedh
dhedha
dhedhans
dhedhi
dhedhow
dhedhy
dhedhya
dhedhyow
dhefendya
dhefens
dheffo
dhefolyans
dheg
dhegas
dhegea
dhegeans
dhegeas
dhegemeras
dhegemeres
dhegemmer
dhegemmeras
dheges
dheghow
dheghowbarth
dhegvledhen
dhehengeugh
dhehow
dhehwel
dhehwelas
dhehweles
dhehwelis
dhekelia
dheklaryas
dheklinyans
dheklinyas
dhel
dhelanwes
dhelen
dhelenwis
dhelergh
dhelin
dhelinyansow
dhellos
dhelyvra
dhemedhas
dhemedhi
dhemedhis
dhemedhyans
dhemmedhas
dhemmedhis
dhemokrat
dhemokratyon
dhen
dhendyl
dhenel
dhens
dhenses
dherag
dherevis
dheriv
dherivadow
dherivas
dherivis
dherow
dherowel
dherwydhyon
dhesedhans
dhesempis
dhesin
dhesinya
dhesinyas
dheskrif
dheskrifa
dheskrifas
dhespit
dheu
dheuth
dheuthhttps
dhevedhyans
dheveryon
dheves
dhevis
dhevisas
dhevisya
dhevisyas
dhevnydh
dhevnydhir
dhevnydhya
dhevnydhyas
dhevnydhyow
dhew
dhewblek
dhewdhek
dhewek
dhewelis
dhewetha
dhewis
dhewisas
dhewisis
dhewlagas
dhewnans
dhewnens
dheworth
dhewynnow
dhewynnyans
dhia
dhiabetes
dhiabetigyon
dhiank
dhibarth
dhibarthva
dhiberth
dhiberthas
dhiblans
dhidhan
dhidhemedhas
dhidro
dhien
dhienkis
dhifres
dhigelmi
dhihaval
dhilea
dhileas
dhillas
dhinorwik
dhintagell
dhinyth
dhinythi
dhinythis
dhinythyans
dhiogeledh
dhis
dhiskarg
dhiskarga
dhiskleryas
dhiskrifas
dhiskudh
dhiskudha
dhiskudhans
dhiskudhas
dhiskudhyans
dhiskwa
dhiskwedh
dhiskwedhas
dhiskwedhes
dhiskwedhir
dhiskwedhyansow
dhismygas
dhismygi
dhison
dhispleg
dhisplegya
dhisplegyans
dhisplegyas
dhistowgh
dhistrui
dhistruis
dhistyr
dhiversita
dhivro
dhiw
dhiwar
dhiwarr
dhiwedh
dhiwedha
dhiwedhas
dhiwedhes
dhiwelvennoges
dhiwes
dhiwettha
dhiwgell
dhiwla
dhiworth
dhiwreydhyans
dhiwskodh
dhiwvogh
dhiwvron
dhiwyethek
dhiwysyans
dhiwysyansek
dhiyskynn
dhiyskynnas
dho
dhodha
dhodho
dhol
dhomhwel
dhomhwelans
dhominikanek
dhon
dhons
dhor
dhorn
dhornskrif
dhoronieth
dhororieth
dhororiethel
dhort
dhos
dhosedh
dhothya
dhoust
dhov
dhown
dhownder
dhowr
dhowrbons
dhowrgeun
dhowrgleudh
dhowrgleudhyow
dhowrgonna
dhragon
dhre
dhrehedh
dhrehedhas
dhrehedhes
dhrehedhsa
dhrehev
dhrehevas
dhrehevel
dhrehevis
dhrehevyans
dhrehevyansow
dhrehevyas
dhreyn
dhri
dhria
dhrias
dhrog
dhrollow
dhroppyas
dhros
dhrudh
dhu
dhug
dhugeth
dhugys
dhuketh
dhur
dhurango
dhurya
dhuryas
dhustuni
dhuw
dhuwes
dhy
dhybri
dhydh
dhydhyow
dhyffrans
dhyghow
dhyghowbarth
dhyght
dhyghtya
dhyghtyans
dhyghtyas
dhyhow
dhyllans
dhyllansow
dhyllas
dhyllo
dhyllys
dhymm
dhyn
dhyowrth
dhysk
dhyskador
dhyskadoryon
dhyskans
dhyskansow
dhyskas
dhyskasow
dhyski
dhyskoryon
dhyskyblon
dhyskys
dhysplegya
dhyved
dhyw
dhywar
dhywgh
dhyworta
dhyworth
dhyworto
dhywow
di
dia
diabetes
diabetigyon
diagnosans
diagnosys
diagram
dial
dialect
dialects
diamond
dian
diana
diane
diank
dianne
diantel
diary
diatom
diatomow
dibarow
dibarth
dibarthva
dibennas
diberdank
diberth
diberthans
diberthyans
diberthys
diblans
dibries
dick
dickens
dickenson
dickinson
dictionary
did
diderot
didhan
didhana
didhemedhi
didhemedhyans
didheu
didheurek
didhiwedh
didhiwedhter
didhuwydhyon
didro
die
diego
diek
dielvenna
dielvennans
dien
dier
dies
diesel
dieter
dietrich
difen
difennys
difeudha
difeudhans
difeudhek
difeudhys
difeyth
difeythdir
difeythtir
difeythtiryow
difeythyow
difference
different
diffrans
difolyans
difres
difresek
difresyans
difresys
difresysi
difudhys
difun
difygow
difygyans
difyk
digamma
digelmi
digemyskys
digital
digitalspy
digolm
digompes
digoweth
digresennans
dihanow
dihaval
dihevelep
dihevelepter
dihevelepterow
dihwethans
dijk
dijkstra
dik
dilatata
dilea
dileans
dilev
dileys
diliff
diliw
dillas
dim
din
dinam
dinar
dinas
dinasek
dinbych
dinbygh
dine
dinedin
dinefwr
dinethyansow
dineyj
dineythyans
dineythyansow
dineythys
dinger
dinlle
dinorwig
dinorwik
dintagel
dintagell
dinwiddie
dinythi
dinythians
dinythyans
dinythys
diod
diogel
diogeledh
diogeli
dioica
dioksid
diorit
dios
dipek
diplopoda
diplura
dir
dira
diras
director
diredh
diredhek
diredhow
direwl
direwlieth
direydhel
direyth
dirfurv
dirfurvow
dirham
dirwedh
diryow
disakord
disastrous
disclarya
discovery
discworld
disegher
disel
dises
disesys
disfaverans
diskar
diskara
diskargans
diskargys
diskleryans
diskryjyans
diskudha
diskudhans
diskudhansow
diskudhas
diskudhes
diskudhyans
diskudhyansow
diskudhys
diskwedhes
diskwedhyans
diskwedhyansow
diskwedhys
disliw
dismygi
dismygriv
dismygrivow
dismygyans
dismygyansow
dismygyas
dismygys
disney
disordyr
dispatch
displegya
displegyans
displegyansow
displegyes
displegys
displetys
dispossessed
disputyans
disputys
distribution
district
distruans
distrui
distruis
distruyans
distruys
diswar
diswrians
diswrys
diswul
disyow
ditel
ditlow
divaglys
divellkeynek
divellkeynoges
divers
diversedh
diversity
divlas
divotter
divroa
divroans
divroansek
divroysi
diw
diwan
diwarr
diwaskedh
diwblekkhe
diwedh
diwedha
diwedhes
diwedhyn
diwelvennoges
diwes
diwesow
diwetha
diwettha
diwla
diworth
diworthyn
diwosow
diwotti
diwros
diwrosa
diwroser
diwrosoryon
diwrosow
diwskovarn
diwvledhen
diwvron
diwweder
diwweus
diwweyth
diwyethek
diwysogneth
diwysyans
diwysyansek
diwysyansel
diwysyansow
diyskynna
diyskynnyas
diyskynysi
diz
dj
dja
djamena
dl
dmitri
dmitry
dna
do
doble
doblek
dobra
dobyl
doch
dock
docks
doctor
doddridge
does
doesedh
doesn
dog
dogen
dognow
dogven
dogvennek
dogvennow
dohow
doi
doktour
doktourieth
dokuchaev
dol
dolbadarn
dolce
dolcoath
doldderwen
dolgellau
doliow
dolittle
doll
dollar
dollars
dolli
dolly
dolomit
dolomites
dom
doma
dome
domesday
domestica
domhwel
domhwelans
domhwelansow
domhweler
domhweloryon
domhwelus
domhwelyans
domhwelys
domingo
domini
dominic
dominica
dominican
dominika
domino
dominus
domitian
domm
dommder
dommhe
domwhelans
don
donald
donatello
donaueschingen
doncaster
donegal
dones
dong
dongguan
doniert
donkey
donn
donna
donne
donnie
donnow
donostia
dons
donsya
donsyer
donsyoryon
donsyow
donyerth
doolish
door
doors
doos
dop
dopamin
dopp
dor
dorchester
dore
dorfurvonieth
dorgell
dorgi
dorgrys
dorgrysow
dorgrysyow
dorhys
doris
dorkoth
dorles
dorlesow
dorling
dorn
dornlyver
dornow
dornskrif
dornskrifow
dornyas
dornyaseth
dornysi
doronieth
doroniethek
doroniethel
doronydh
doronydhyon
dororieth
dororiethel
dororydh
dororydhyon
dorothy
dorpansow
dorr
dorras
dorrasneth
dorrek
dorries
dorrit
dorrva
dorset
dorva
doryow
dos
dosedh
dostoevsky
dothans
douar
douard
double
doubleday
doug
douglas
doulys
dounes
dour
douryow
dout
dov
dove
dover
dovhes
dovys
dowisyes
dowl
dowlen
dowlenn
dowlennow
dowlenoryonleonard
down
downder
downhes
downna
downs
downsidhlans
downvor
dowr
dowrbons
dowrdredan
dowrdresen
dowrek
dowrfordhow
dowrfos
dowrgeun
dowrgi
dowrgleudh
dowrgleudhyow
dowrgonna
dowrgylgh
dowrheans
dowrhensi
dowrhyns
dowrlam
dowrlamm
dowrlammow
dowronieth
dowroniethel
dowrow
dowrvargh
dowrvergh
dowryow
doyle
dr
dra
draco
draffik
draft
dragon
dragons
drake
drakeford
drama
dramas
dramasek
dramasydh
dramasydhes
dramatydh
dramatydhyon
draow
draper
draylya
dre
dream
dreams
dredan
dredanek
dredha
dredhinas
dredho
drefen
drefenn
dreger
dregh
dreghi
dreghow
dregoryon
drehedhes
drehedhys
drehevel
drehevyans
drehevyansow
drehevyek
drehevys
dremen
dremena
dremenas
dremynnow
dren
drenken
drenkennow
drenow
drenowyth
drents
drentse
dreorci
dres
dresden
dresdho
dresen
dresorva
dressa
dresto
dreth
dretha
drethysi
dreus
dreusberth
dreusfurvek
dreusi
dreuslinen
dreusperth
dreusperthi
dreusporth
dreusva
dreusvewa
dreusvewas
drev
drevasow
dreveglos
dreven
drevesiga
drevesigas
drevesigeth
drevesigethow
drevesigoryon
drevow
drew
dreyl
dreylya
dreylyans
dreylyas
dreyn
dri
drial
drig
driga
drigas
drigoryon
drigourieth
drill
drive
driver
dro
droes
drog
drogelghennow
drogg
droggys
droglam
droglamm
droglammow
drogober
drogoberoryon
drok
droklam
droklamm
drokter
drolla
drollow
dromaius
dron
drood
droos
drop
droppya
droppys
drops
dros
drosophila
drov
drovannel
drovya
drovyas
droweyth
drowynsow
droya
drudh
drukqs
drumlin
drums
druru
druskininkai
dry
dryft
dryftyans
dryghas
drygoryon
drynses
drynsys
dryv
drzej
ds
dscn
dst
dt
dtm
du
dualieth
dubai
dublin
dubna
duc
dudley
due
dug
dugeth
dugong
dugys
duhamel
duk
duke
duketh
dulas
duluth
dulyn
dulynn
dumas
dumbbell
dummy
dumosa
duna
dunbartonshire
duncan
duncombe
dune
dunes
dungeness
dungsten
dunkery
dunn
duo
duodenum
duon
dup
dur
durango
durata
durban
durham
during
durkheim
durkyon
durnovaria
durt
durya
duryadow
duryans
dus
dust
dustini
duststorminspearmantexas
dustuni
dustuniow
dustunyoryon
dutch
duval
duw
duwes
duwesow
duwies
duwonieth
duwonydh
duwow
duwses
duwsesow
dvdow
dvojnik
dvor
dwarf
dwight
dy
dyadushkin
dyb
dyberthys
dybi
dybieth
dybis
dyblans
dybradow
dybri
dybrys
dybyans
dybyansow
dydd
dydh
dydhlyver
dydhlyvrow
dydhow
dydhweyth
dydhyador
dydhyans
dydhyow
dyfed
dyffrans
dyffransow
dyffryn
dyfi
dyfrdwy
dyghow
dyghowbarth
dyghtya
dyghtyans
dyghtyansow
dyghtyer
dyghtyes
dyghtys
dyhow
dyji
dyjyn
dyke
dykkiow
dyla
dylan
dylansow
dyli
dylir
dyllans
dyllansow
dyllas
dyller
dylleryow
dyllo
dyllys
dymensyonhttps
dynamit
dynasty
dynergh
dynn
dynnargh
dynnergh
dynsek
dynyans
dynys
dyowlow
dys
dyskader
dyskador
dyskadores
dyskadoryon
dyskans
dyskansow
dyskas
dyskaseth
dyskasow
dysker
dyski
dyskir
dyskoryon
dyskybel
dyskyblethow
dyskys
dysple
dysplegya
dysprosiom
dyth
dyv
dyversyta
dyves
dyvroans
dyw
dywedhes
dywes
dywolow
dyworth
dywow
dywses
dywysyans
dz
dzhu
e
ea
each
eagle
ealish
earl
early
earth
earthsea
earwig
eas
east
eastbourne
eastern
easton
easy
eating
eau
ebola
ebook
ebost
ebrel
ebren
ebrenn
ebron
ebrow
ebrowyon
ebryl
ec
echium
eco
ecuador
eczema
ed
eddie
eddy
eden
edensis
edenva
edgar
edge
edhen
edhom
edhomm
edhowek
edinburgh
edirne
edison
edit
edith
edition
editore
edmond
edmund
edo
edouard
edouart
edu
eduard
eduardo
educating
education
edvard
edward
edwards
edwin
edyvean
ee
eelam
een
eesti
eev
ef
efan
efanas
efander
efani
efanna
efanvos
efanyans
efanys
effethyow
effeyth
effeythadow
effeythus
effeythya
effeythyow
effeythys
egg
eggs
eghek
eghen
eghenn
eghennow
egin
eginow
eginyow
eglos
eglosbrek
egloserm
eglosheyl
egloskeri
egloslajek
eglosow
eglossenor
eglosstefan
egloswendron
eglosyow
eglwys
eglwyswrw
ego
egypt
egyptian
ehen
ehennow
ehenow
ehrlich
ei
eich
eichwald
eidyn
eiffel
eiger
eikiai
eikiu
eilean
eilish
ein
eine
einstein
einsteiniom
eisenhower
eisenstein
eisteddfod
ejyp
ejypek
ejyptek
ejyptyonyon
ek
ekeberg
ekklesiastes
eklyptek
ekolegel
ekolegieth
ekologel
ekologieth
ekologiethel
ekonomieth
ekosystem
ekosystemow
eksekutys
eksilys
eksist
eksistya
eksodus
eksoplanet
eksoplanettys
ekspres
ekwador
ekwadorel
ekwadoriel
ekwal
el
ela
elaine
elder
eleanor
election
elections
elector
electoral
electric
eledh
elegans
elektrolysans
elektron
elektronegas
elektronek
elektronieth
elektronow
elektronys
elektrotennvenek
elementary
elements
elena
elephant
elephantiasis
elgeth
elgin
elhuyar
eli
elias
elidir
elidius
elijah
elin
eliot
elisabeth
elizabeth
elk
elka
elke
ell
ella
ellen
ellesmere
ellis
ello
elmensis
elton
elven
elvennek
elvennow
elvis
elwis
ely
em
emanuel
emayl
embreger
emerald
emgleo
emil
emile
emilio
emily
emir
emlow
emlyn
emma
emmanuel
emmerich
emotions
emperes
emperor
emperour
emperouregek
emperouregieth
emperoureth
emperourethek
emperourethel
emperourethow
emperours
empir
empire
emporium
empoureth
empreger
empty
emu
en
ena
enceladus
enchanted
encore
encyclopaedia
encyclopedia
encyclopædia
end
endeavour
endeavouring
endemek
endocytosis
endokrin
endorsement
enebas
enebi
enebieth
enebow
enemy
enep
enesegi
enesek
enesigeth
enesik
enesow
enets
enev
eneval
enevales
engelmann
engelmannii
engels
engine
england
english
englishes
engraulis
enheduanna
enitharmon
enkleudhys
ennor
eno
enor
enora
enorans
enorys
enowi
enrico
ens
ensampel
ensample
ensamplow
ensamplys
ensaym
ensaymow
ensayms
ensompel
entenin
enter
entertainment
enthusyast
entitas
entognatha
entra
entrans
entras
entre
entry
enver
environment
enwau
enys
enysek
enyshas
enyshe
enyshes
enysow
enysyow
enyval
enyvales
eo
eocen
eoin
eolek
eoraptor
eos
ep
epidemionieth
epigrammow
epistemologieth
epistulae
epow
eps
epscobeth
epskobeth
epskobow
epskop
epsom
ept
epyk
epystyl
equisetum
equus
er
era
eraill
eral
erbin
erbiom
erbydn
erbyn
erbynn
erbynner
erbynoryon
erbys
erbysek
erbysiedh
erbysiek
erbysieth
erbysiethek
erbysiethel
erbysiethow
erbysydh
erbysydhyon
erc
erebus
ereder
erel
erell
erens
ereras
eres
eretons
erfurt
ergh
erghi
erghis
erghlaw
erghlinen
erghslynk
erghtewedha
erghys
eric
erica
erie
erik
eriksson
erin
erinaceus
eriophorum
eris
erispoe
eritrea
eritys
eriva
erm
ermanek
ermin
ermogh
erna
ernest
ernesto
ernst
eros
erosion
erotek
erow
erratic
erryans
ers
ertach
ertachva
ertachvaow
erthygel
erthyglen
erthyglow
ertra
eruption
erva
ervir
ervira
ervirans
erviransow
erviras
ervirys
ervys
erwin
eryes
eryon
eryow
eryri
erys
erythropoietin
es
esa
eschweiler
escudo
esedh
esedha
esedhek
esedhow
esedhva
esedhvos
esedhys
esel
eseleth
eseli
eselkulyek
esen
esens
esethvos
eshalomi
esk
eskar
eskarek
eskelli
esker
eskerdh
eskerens
eskern
eskilstuna
eskimo
eskisyow
eskni
esknians
eskniansel
esknias
eskniys
eskob
eskorrans
eslivans
eso
esons
esos
espan
espanya
esperantek
esperthi
esperthyans
esperthys
esplegya
esplegyans
esplegyansek
esplegyas
esplegys
espoo
essa
essayist
essays
essensek
essex
est
estate
estemya
estemyans
estemyes
estemys
ester
esteve
esther
esthetek
estonek
estoni
estoniek
estren
estrenyon
estriol
estrogenow
estrojen
estron
estrych
estuary
estyll
estyllen
estyllennow
esya
esyly
et
eta
etat
etc
etegves
etek
eternal
eth
ethanol
ethegel
ethek
ethel
ethelwyn
ethen
ethenn
ethenna
ethennans
ethgarrogyon
ethiopek
ethiopi
ethnek
ethnolansow
ethnologue
etholans
etholansow
etholi
etholoryon
etholys
ethves
ethylen
etna
eton
etrekeltiek
etruscus
etruskek
etymologyl
eu
eubalaena
eucalyptus
euclid
euge
eugene
eukaryota
eukaryotek
eukaryotes
euksenit
eulalie
euler
eunice
euny
eur
eurasi
eurasiek
eureka
euro
europ
europa
europaeus
europe
european
europeanesow
europeanyon
europek
europiom
eurosenedh
eurovision
euryador
euryor
euryoryow
euryspilus
eus
eustice
euth
euthekter
euthvil
euthyk
eutychius
euver
ev
eva
evan
evans
evc
eve
even
evening
ever
everest
evertype
every
everything
evgenia
evolution
evr
evredhek
evredhyon
evrek
evrok
ew
ewart
ewin
ewinen
ewines
ewing
ewn
ewnans
ewnder
ewngryjyk
ewnhe
ewnhes
ewnhynsegieth
ewnhynsek
ewnter
ewon
ewonek
ewrop
ewropek
ex
exchequer
exeter
exhibition
exile
exmoor
exodus
exploration
explosion
express
expressionism
expressionismus
exterior
extremadura
eye
eyes
eyj
eyl
eyldhrehevel
eylen
eylgylghys
eyljarjadow
eylradh
eylvyldyes
eylworra
eylworrys
eylygeri
eylygeris
eylygerys
eynda
eyndek
eyndo
eyndogyon
eyndus
eyrin
eythin
ez
ezra
f
fa
fab
fabio
faborden
fabri
face
facebook
facto
factory
facts
fagaceae
fagel
faginea
fagus
fahrenheit
fair
fairbanks
fairfax
fairfield
fairlie
faith
faithful
faktorow
fal
fala
falco
falcon
falkland
fall
falladow
falling
falls
falmeth
falmouth
fals
falun
famcom
famicom
familj
family
fan
fancy
fantasi
fantasia
fantasque
fantastic
fantasy
far
fara
fareham
farewell
farm
farmer
faro
faroe
faros
farow
faroyek
farron
farti
fas
faskor
faskorieth
faskoryon
faso
fast
faster
fasti
fat
fatah
fatalyas
fatel
fatell
father
fatima
fatimid
fats
fault
fauquier
faure
fausto
fauve
fav
fawr
fay
fayette
fayetteville
fayntys
fba
fe
fear
feather
feature
features
february
federal
federation
federico
fedha
feeding
feet
feinstein
felidae
felipe
felis
felix
fell
fella
fellini
fells
felshyp
felsik
female
femme
femmes
fenella
fenester
fenestri
fenicianek
feniks
fenn
fenncita
fennfenten
fenni
fennleys
fennow
fennva
fennvaow
fenny
fenowgh
fenten
fentenberan
fentennow
fentynnyow
fentynyow
fer
ferdinand
ferguson
fering
fermi
fermiom
ferna
fernverkehr
ferreira
ferrer
ferrers
ferry
fers
ferwis
feryl
fes
fest
festival
festuca
feth
fetha
fethans
fethansow
fethas
fether
fethesigow
fethow
fethyel
fethys
feu
feur
feus
fever
few
ff
ffestiniog
fflint
ffordd
fforest
ffrancon
ffynnon
fg
fgw
fhe
fi
fia
fias
fiber
fibonacci
fibrow
fiction
field
fielding
fields
fife
fight
figur
figure
figurys
figys
fiji
file
filemon
filepath
filipinys
fillmore
film
filmow
filosofek
filosofer
filosofers
filosofieth
filosofiethel
filosoforyon
fils
fin
final
fine
finek
fingal
finger
fingers
finn
finnek
finsas
fintownrailway
finwedh
finwedhys
finwetha
finwethow
finwethys
finyow
fire
firenze
firework
fireworks
first
fischer
fisegel
fisegieth
fisegydh
fisek
fish
fishbourne
fisher
fist
fitzgerald
five
fl
fla
flabellifer
flag
flamanek
flamank
flameges
flamek
flamm
flammenfa
flanet
flanigan
flea
fleghes
flehes
flemek
fler
fleroviom
flerys
flickr
flight
flint
flogh
flogholeth
flora
florence
florens
florida
floridanus
floryshya
flou
flour
flow
flower
flowers
flowing
flows
floyd
fluminense
fluorid
fluorin
fluorspar
fluv
fly
flying
fm
fo
fobel
foblans
foenisek
fog
fogell
fogella
fogellas
fogellys
fogow
foillan
foix
fol
folen
folenn
folennow
folji
folk
fols
folsa
folsans
folsys
fomalhaut
fondya
fondyans
fondyansow
fondyas
fondyer
fondyes
fondyoryon
fondys
fonem
fonemek
fonemow
fonetek
fong
fongow
fonologiek
fonologieth
fons
food
foos
football
for
foraminifera
foray
forbes
force
ford
fordh
fordhow
fore
foreign
forest
forget
forks
form
formanodendron
formation
formel
former
formosa
formosanus
forms
formula
formya
formyans
formyas
formyes
formys
forn
fornow
fors
forsakya
forsakyes
forsyth
fort
fortaleza
forth
fortriu
fortun
forum
forward
fos
fosfat
fosforos
fosow
fosowdrake
fossey
foster
fotla
found
foundation
founded
fountain
fountains
four
fourier
fourteenth
fourth
fow
fowen
fowesigyon
fowey
fowi
fowt
fowtow
fowy
fowydh
fowydhen
fowyow
fowys
fox
foxdale
foy
foynt
fr
fra
fragment
fragments
frainetto
fraith
fram
frame
frameless
framweyth
framyow
fran
franc
france
frances
francesc
francesco
franchis
francis
francisco
franco
francoprovenc
frank
frankedh
frankenstein
frankfort
frankfurt
frankiom
frankland
frankleuv
franklin
frans
fransia
fransis
franz
frappyans
fras
fraser
fraternite
fred
frederick
fredrik
free
freedom
freeman
freiberg
french
frenchman
frenkek
fres
fresk
fresno
freth
freud
freudh
freudhek
freydh
fria
frid
frida
friday
friedrich
friend
friendly
friends
frigad
fright
frioul
fris
frisek
frisian
fritz
friweyth
friys
fro
froeth
frog
from
fronnow
front
frontale
frooth
fros
frosa
frosedh
frosow
frosrewlivans
frosrewlivel
frothek
frothen
frothus
frothuster
frozen
frs
frsl
fruit
fruits
fruktos
fry
frynk
frynkegoryon
frynkek
frynkesow
frynkhe
frynkyon
frysk
fsa
fss
fu
fudge
fuego
fuel
fug
fughanow
fugieth
fugiethek
fugiethel
fugkanstros
fuji
full
fulton
fumiko
fumio
fun
funakoshi
funchal
fundyans
fundyes
fungi
funk
funyow
fur
furcula
furuhjelmi
furv
furvel
furvell
furvow
furvwir
furvy
furvya
furvyans
furvyansow
furvyas
furvyes
furvyow
furvys
fusajiro
fusca
fuseli
fusen
fusennow
fusiformis
fust
future
fy
fybrow
fydh
fydhons
fydhsa
fydhyans
fyek
fyla
fyll
fyllas
fyllel
fyllis
fylm
fylmow
fylmyow
fylmys
fylogenynnek
fylum
fylystyn
fynn
fynnek
fynni
fynnons
fynwy
fyodor
fyord
fyordow
fyrv
fysegieth
fysegydh
fythow
fytt
fyw
g
ga
gaapii
gabbro
gabijos
gablefront
gably
gabon
gaborone
gabriel
gabyggð
gachya
gadolin
gadoliniom
gadolinit
gadon
gael
gaeltachta
gaerfyrddin
gafas
gagarin
gahn
gahr
gaifu
gaillimh
gainesville
gaint
gaius
gal
gala
galaksi
galaksiow
galaksis
galan
galarow
galatia
galaxy
galciom
galdikas
gale
galen
galena
gales
galesweyth
galgh
galicia
galiforni
galijek
galilei
galileo
galisi
galissard
galite
galium
galiza
gall
galladewder
galladow
gallas
gallek
gallery
gallesogi
gallia
galliformes
gallinys
galliom
gallo
galloes
gallos
gallosegi
gallosek
gallosow
gallowek
galosegi
galosek
galow
galstok
galter
galuzzi
galve
galveston
galwek
galwesik
gama
gambi
gambling
game
gamers
games
gaming
gamma
gammas
gammbronn
gammow
gampoll
gampollas
gan
gana
ganada
ganadek
ganadians
ganaich
ganas
ganasedhoryon
gand
gandhi
ganel
gang
ganga
gangemi
ganges
gangotri
gangsters
ganister
ganker
gannas
ganores
ganow
ganowow
gans
gansa
gansblydhen
ganso
ganstel
ganstrosow
gansu
gansvledhen
ganymede
gao
gaping
gaposchkin
gar
gara
garan
garav
garbo
garbon
garci
garde
garden
gardens
gardydh
gare
garedin
garen
garesk
gareth
garfield
garg
gargyans
garibys
garland
garm
garmon
garn
garnet
garnon
garnrosveur
garow
garowder
garr
garreg
garrek
garrod
garrow
garry
garrygi
garsa
garten
gartennow
garth
gartha
gartryjennow
gary
garya
garyas
gas
gasa
gasas
gascoyne
gaskoyn
gaskoynek
gaskyrgh
gaskyrghas
gass
gassys
gastel
gastell
gaston
gasys
gataloni
gate
gateway
gath
gatholik
gauge
gaulle
gauss
gautama
gav
gava
gavas
gaver
gavia
gavoes
gavos
gavrewiges
gavrewik
gavsons
gaws
gawsas
gawsya
gawsyas
gay
gaza
gazey
gbp
gd
ge
gedhlow
gedrosianus
geffrysysi
gegin
gehavalen
geher
geirangerfjord
gel
gela
gelders
gelert
gelfrij
gell
gelli
gelligaer
gelliwik
gellow
gellrudh
gellys
geltek
geltieth
geltya
geltyon
gelvin
gelvinek
gelwel
gelwir
gelwis
gelwys
gelynen
gelyon
gelyonen
gembra
gembrek
gembroyon
gemeneth
gemenethow
gemer
gemeras
gemeres
gemeri
gemersa
geminata
gemmer
gemmeras
gemmeris
gemmow
gemmweyth
gemmyn
gemmynieth
gemmynwlas
gemmynyon
gemper
gemynegorek
gemyskans
gemyskas
gen
genas
gendall
gender
gene
genedh
genedhel
genedhlek
genedhlogyon
genedhlow
genen
genera
general
generalitat
generation
genes
genesigeth
genesigethow
genesigva
genesik
geneva
genghis
genius
genji
gennek
gennen
gennerth
gennertha
gennerthas
genoa
genom
genre
gensa
gensi
gensy
gentileschi
gentrevek
genus
genver
genwerth
genwerthel
genynnegieth
genynnek
genynnow
genys
geobreizh
geoffrey
geoffroi
geograph
geographical
geological
georg
george
georges
georgetown
georgi
georgia
georgian
georgy
ger
geraint
gerald
geratin
gerdardhans
gerdardhyans
gerdh
gerdhas
gerdhes
gereint
gerendus
gerens
gerensa
gerent
gerghynedhow
gerghynnedh
geriadur
gerlyver
gerlyvrow
germanek
germaniom
germans
germany
germogh
gernewegoryon
gernewek
gernewekhas
gernow
gernowek
gernowyon
gernsek
gernsi
geroj
gerrek
gerri
gerriau
gerrygi
gert
gertrude
gertys
gerva
geryes
geryow
gerys
gerysda
ges
geschichte
gesetz
gesfondyas
geskanow
geskeffrysyon
geskomunyans
geskows
gesoberas
gesoberyans
gespar
gespos
gespra
gessedhek
gessonennow
gesstoffow
gesstrif
gesstrifow
gesstrivoryon
gesstrivya
gesstrivyas
gesteudhans
gestevyn
gesun
gesunya
gesunyas
gesva
gesweli
gesweyth
geswlasek
gesyer
gesyoryon
gesyow
gesys
get
gethneth
gettep
gettesten
gettysburg
geum
geun
geunys
geuswask
geva
gevambos
gevarghewas
gevarwodher
gevel
gevellansow
gevellyon
gevellys
gever
geverang
gevernans
gevewi
gevi
gevos
gevrang
gevrann
gevrannas
gevren
gevrenn
gevrennow
gevres
gevreyth
gevreythyow
gevrinek
gevrohow
gevys
gewer
geworr
geworra
geworras
gewri
gews
gewsel
gewsi
gewsir
gewsoryon
geyj
geyjyans
geyn
geynvorek
geynvoryek
geynwynn
geyser
geysers
gg
gh
ghana
ghazali
ghent
ghiorso
ghost
gi
gia
giangen
giant
gibraltar
gibson
gideon
gidlyver
gidya
gidys
gif
gig
gigas
gil
gila
gilbert
giles
gilfach
gilfos
gilgamesh
gilkes
gill
gillespie
gillette
gilman
gilometrow
gilva
gilwern
gingen
gion
gional
giordano
giorgio
giovanni
girl
girls
giro
girtin
gis
gist
gisyas
gisyow
gita
gitar
gitarydh
giuseppe
given
giza
gje
gl
glacial
glacier
gladstone
glamour
glan
glandulifera
glanhe
glanheans
glann
glannow
glanythter
glas
glasgow
glaslyn
glasnedh
glasneth
glasrudh
glass
glassa
glassans
glastan
glastanen
glaswynn
glauca
glaucoides
glavji
glaw
glawans
glawas
glawek
gleb
gledh
gledhbarth
gledhren
gledhrennow
glemens
glen
glenbrittle
glendenin
glenn
gleptiryow
glerhe
glesin
glesinyow
gleves
glevesow
glevum
glevyon
glew
glewas
glewes
gley
glia
glin
glo
global
globe
globular
glomerata
gloria
glossary
glottel
gloucester
gloucestershire
glow
glowbren
glowek
glu
glukagon
glukos
glus
gluth
gluthyans
gluwyan
glyb
glybor
glyder
glyn
glynn
glyppa
gm
gn
gnas
gnasek
gnasennow
gnasow
gneiss
gneus
go
goans
gobalt
gober
gobiensis
gobrenoryon
gobrenys
gobrow
goch
gocha
gochow
gochys
gocki
god
goda
godegh
goderrys
godewl
godeyl
godeylyow
godfather
godh
godha
godhalek
godhalesow
godhas
godhav
godhen
godhes
godhesa
godhesans
godhesansel
godhesow
godhesys
godhevel
godhoniador
godhonieth
godhoniethek
godhoniethel
godhoniethow
godhonydh
godhonydhyon
godhosek
godhosow
godhvedhys
godhvewnans
godhvos
godhwolghan
godhyan
godhyli
gododdin
godolphin
godriga
godrigas
godriger
godrigoryon
godrigys
godrik
godros
godrosow
godrosys
goedhelek
goel
goelyador
goelyow
goen
goenyow
goes
goesharde
goesheyl
goethe
gof
gog
gogell
gogellow
gogh
gogledh
gogow
gogowyow
gogrenn
gogrysek
gogrysys
gohelus
goi
goin
going
gok
gol
golan
golanes
gold
goldberg
golden
goldman
goldsworthy
goleder
golegi
golegydh
golegydhyon
golegys
golem
goles
golewder
golf
golgh
golghi
golghys
goli
goliadow
golinyans
goliow
golivow
goliys
golji
goll
gollas
golldhel
gollenwel
gollji
golnans
golodhyonen
golok
golokva
golom
golombi
golon
golonn
golonnen
golovas
goloven
golovennow
golow
golowan
golowji
golowyans
golowys
golowysi
gols
golusek
golvan
golya
golyans
golyow
gomendya
gomendyas
gomm
gommendyas
gommon
gommow
gomolen
gomolennow
gompani
gomplek
gomposyans
gomposydhyon
gompreghend
gomprehend
gomprehendas
gomprehendya
gomprehendyas
gonadotropin
gone
gonedhys
gonideg
gonis
gonisogeth
gonisogethek
gonisogethel
gonisogethow
gonisyow
gonkwerrya
gonn
gonna
gonnys
gonow
gonsel
gonsidras
gonsist
gonsolen
gonsolennow
gonsu
gonsyst
gonteth
gonvedhas
gonvedhes
gonyow
gonza
good
goodh
goodman
google
gool
goon
goongrug
goonkoyntrel
goos
gooth
gopel
gopnik
gor
gora
goras
gorbachev
gorcitek
gorden
gordeylu
gordhroglammek
gordhya
gordhyans
gordhyes
gordhyllo
gordhys
gordon
gore
goredhom
gorenys
gores
goretex
gorf
gorfen
gorfenna
gorfennys
gorfenys
gorflan
gorfow
gorge
gorhel
gorhelyans
gorhelyow
gorhemmyn
gorhemmynnel
gorher
gorheri
gorherys
gorholadow
gorholeth
gorholethow
gorholya
gorholyon
gorhwithrans
gori
gorilla
gorlanwes
gorles
gorlewen
gorlost
gorlosten
gorm
gorman
gorour
gorow
gorowreydh
gorra
gorreydh
gorreydhow
gorris
gorrsteren
gorrys
gors
gorsav
gorsavow
gorsedd
gorsedh
gorsedhow
gorsen
gorseth
gorta
gorth
gorthargyadow
gorthebi
gorthebys
gorthenep
gortheren
gorthsevel
gorthtreylya
gorthtro
gorthugher
gorthugherweyth
gorthyp
gortos
gorughel
gorvarghas
gorweles
gorwelyek
gorwolyas
gorylla
gorylles
goryskynna
goryskynnans
goryskynnys
gosek
gosk
goslowes
goslowysi
gospodin
gossenek
gostek
gostlow
gostys
goswik
gota
goth
gotha
gothek
gothyon
gotland
gott
gottfried
gottha
gottlieb
goueliou
goujaratek
gould
gour
gov
govadhow
govenek
govennek
gover
governa
governans
governansek
governansow
governethow
government
governor
governour
governys
goverow
govyn
govynadow
govynn
govynnow
govynnys
gowal
gowdell
goweth
gowetha
gowethas
gowethasek
gowethasow
gowethyans
gowethyansow
gowethysi
gowfordh
gowfordhow
gowlwrug
gows
gowsas
gowser
gowsir
gowsis
gowsoryon
gowt
gowvreus
goyeyn
goynt
gozh
gpn
gps
gra
grace
grade
gradh
gradhya
grafek
graft
grafyt
grag
gragen
graham
gral
gramasegow
gramasek
grambel
grambla
grambloryon
gramm
grammaire
grammar
grammy
gramviles
granada
grand
grande
grange
granofels
grant
grantland
grapes
grappa
grappys
gras
grass
gravedh
graves
gravya
gravyans
gravyansow
gravyer
gravyoryon
gravys
gray
gre
great
greatbarrierreef
greatyas
greco
greek
green
greenberg
greene
greenland
greensboro
greensburg
greenwich
greenwood
greg
gregas
gregor
gregorek
gregori
gregory
grek
greka
grekek
grekys
grenada
grenadinek
grenayd
grenoryon
grenville
greow
greryow
gres
gresek
gresel
gresen
gresham
greslu
gressyas
gresten
grestennen
gresvorek
greta
greun
greungylgh
greunland
greunlandek
greuv
grev
grevyansow
grew
grewen
grey
greyhound
greys
greythen
grib
grice
gridcolor
griffin
griffith
griffiths
grikow
grille
grimm
grisea
gristonedh
gristoneth
gristonyon
grisyow
groats
grodhvolas
grog
grogen
groghen
grogys
grokodiles
gromiom
grond
grondyas
grondyes
grondys
gronek
gronnedh
gronnedhek
gront
grontyes
grontys
grosser
grosso
ground
group
groupe
grousi
grouzi
grouzy
grover
grow
growan
growanek
grows
growsgasoryon
growskasoryon
growven
growveyn
groynys
gru
grug
grugys
grunge
gryj
gryjyans
gryjyansow
grymlin
grys
grysas
grysi
grysir
grysis
gsi
gta
gu
gua
guadalajara
guadeloupe
guangdong
guangxi
guangzhou
guardian
guas
gudhlen
gudhys
gudynnow
guernica
guevara
guez
guggenheim
gugh
guide
guil
guila
guildford
guilin
guillaume
guin
guine
guinness
guitars
gul
gulfport
gumbrek
gummyas
gun
gunn
guntel
guntell
guntella
guntellas
guntelles
guntellesow
guntellyans
guntilow
guntilowyow
guntur
gunwyn
gupta
gur
gurion
gurun
gussul
gussulyas
gustaf
gustav
gustave
gutenberg
guthro
guto
gutter
guy
guyana
guz
guðnado
gw
gwa
gwadeloup
gwag
gwageles
gwagren
gwagrennow
gwaith
gwakhe
gwakter
gwalarn
gwana
gwandra
gwandrans
gwandras
gwandrus
gwaneth
gwanin
gwann
gwannhe
gwannliwek
gwanys
gwara
gwaragow
gwarak
gwaregow
gwari
gwariell
gwariellow
gwarier
gwarior
gwariores
gwarioresow
gwarioryon
gwariow
gwariva
gwariys
gwarnyans
gwartha
gwarthek
gwarthevyans
gwarthevyek
gwarthevys
gwary
gwas
gwasg
gwasgedh
gwask
gwaska
gwaskedh
gwaskys
gwastas
gwastasow
gwastastir
gwastastiryow
gwatemala
gwav
gwavas
gwavgoska
gwavow
gwawl
gwaya
gwayadow
gwayana
gwayans
gwayansow
gwayn
gwaynas
gwaynya
gwaynyas
gwaynyer
gwaynyes
gwaynyoryon
gwaynys
gwaytyans
gwaytyes
gwaytys
gwayys
gweder
gwedh
gwedhan
gwedhegi
gwedhek
gwedhen
gwedhow
gwedhyn
gwedrek
gwedren
gwedrow
gweel
gwel
gweladow
gwelas
gwelen
gweler
gweles
gwelesek
gwelewgh
gweli
gweliow
gwelir
gwelis
gwell
gwella
gweller
gwellhe
gwellheans
gwellheansow
gwellhy
gwelowgh
gwels
gwelsdebrer
gwelsen
gwelsow
gwelstir
gwelstiryow
gwelva
gwely
gwelynni
gwelyow
gwelys
gwen
gwendron
gwened
gwenen
gwenenen
gwener
gwengamp
gwenn
gwennel
gwenno
gwenon
gwenonek
gwent
gwenton
gwenyn
gwer
gwerek
gweres
gweresek
gweresliv
gweresonieth
gweresow
gweresys
gwerghes
gwerin
gwerinek
gwerinel
gwerinieth
gweriniethoryon
gwerinor
gwern
gwernan
gwernek
gwernenys
gwernow
gwerryans
gwers
gwersow
gwersyon
gwersyow
gwerth
gwertha
gwerthahttps
gwerther
gwerthji
gwerthjiow
gwerthow
gwerthys
gwerz
gweskel
gweskys
gwester
gwesyon
gweth
gwethheans
gwettha
gwetyes
gweusek
gweyth
gweytha
gweythoryon
gweythres
gweythresa
gweythresek
gweythresor
gweythresow
gweythresys
gweythva
gweythvaow
gweythyow
gweythys
gwi
gwias
gwiasedh
gwiasow
gwiasva
gwiasvaow
gwibes
gwig
gwigow
gwik
gwikor
gwikoryon
gwilen
gwili
gwin
gwinbren
gwinbrennyer
gwinow
gwir
gwirhaval
gwirvos
gwiryonedh
gwiryow
gwisk
gwiska
gwiskas
gwiskasow
gwiskow
gwiskys
gwith
gwitha
gwithador
gwithadorek
gwithans
gwithial
gwithti
gwithtiow
gwithva
gwithyas
gwithyasel
gwithys
gwius
gwiver
gwiw
gwiwer
gwiweres
gwlad
gwlan
gwlanek
gwlas
gwlascor
gwlaseger
gwlasegeth
gwlasek
gwlaskor
gwlaskordhow
gwlasow
gwlasvaow
gwr
gwra
gwragh
gwraghes
gwrandrans
gwre
gwreans
gwreck
gwredhek
gwreg
gwrek
gwres
gwresek
gwreydh
gwreydhek
gwreydhel
gwreydhen
gwreydhenn
gwreydhyek
gwreydhyel
gwreydhyow
gwrians
gwriansow
gwrier
gwrioryon
gwriys
gwrug
gwruthyl
gwruthys
gwry
gwryans
gwrys
gwrysek
gwrysow
gwrysven
gwrythul
gwrythya
gwrythyans
gwy
gwyasva
gwydh
gwydhbol
gwydhegi
gwydhelek
gwydhen
gwydhyel
gwydhyow
gwydhyowyow
gwydngala
gwylar
gwylgh
gwyll
gwyls
gwylvos
gwyn
gwynedd
gwynedh
gwynfor
gwyngala
gwynn
gwynnel
gwynngala
gwynnrudh
gwynnyer
gwyns
gwynslows
gwynsow
gwyrdh
gwyrgh
gwyrghes
gwyth
gwythi
gwythiennow
gwythysi
gwywer
gybbon
gybbones
gyda
gylgh
gyllas
gyllys
gymru
gymygieth
gymyk
gyni
gynnik
gyns
gynsa
gynsistori
gynsow
gypsum
gyrghynn
gyternyth
gyv
h
ha
haakon
haakonsson
haaland
habakkuk
habana
haber
habsburg
had
hadfield
hadrian
hadron
hafez
hafniom
hafren
hag
hagar
hagen
hager
haggai
haggard
hagia
hai
haifa
haiku
hail
haile
hainish
hair
hak
hal
hale
halfon
halgrove
halit
hall
halla
hallam
halland
hallens
halley
halligen
hallo
hallons
hallsa
hallsens
halmstad
halon
halow
halsa
halsgrove
halt
halteres
halwill
halya
halyas
hama
hamad
hamas
hambly
hamburg
hamid
hamilton
hamlet
hammer
hammersmith
hampden
hampshire
hampstead
hamwee
han
hanaf
hanafow
hanafuda
hancock
hand
handal
handbook
handel
handheld
handla
hands
haniyya
hanks
hanna
hanover
hanow
hanowskrifow
hans
hansel
hanter
hanterdydh
hanterfordh
hantergylgh
hanterkans
hanterkylgh
hanterkylghow
hanternos
hanty
hanuman
hanwek
hanwesigeth
hanzi
happ
happier
happiness
happy
happyans
happyansow
harald
haraldsson
harare
harber
harbou
harbour
hard
hardh
harding
hardware
hardy
harer
haridwar
harju
harlech
harlow
harner
harold
harper
harriet
harris
harrison
harrisonburg
harroldorum
harrow
harry
hart
hartford
hartland
harun
harvard
harvey
harz
has
hasas
hasen
hasennow
hasow
hassiom
hat
hatchett
hatshepshut
hatshepsut
hattie
haumea
haunted
haute
hav
haval
have
haven
havi
havow
havren
havyasek
havysi
hawaii
hawarden
hawayii
hawking
hawkins
hay
haydn
hayes
hayl
hayle
hayti
hb
hd
he
hea
head
headland
health
heart
heath
heather
heaved
heaven
heavenly
heavy
heb
hebask
hebe
hebleth
hebm
hebma
hebrew
hebron
hectar
hector
hedardh
hedeudhi
hedgehog
hedh
hedha
hedhadow
hedhas
hedhes
hedhi
hedhis
hedhon
hedhyw
hedna
hedra
hedre
hedyw
heer
heewelmaan
hefordh
hegar
hegel
heglew
heglowyow
hei
heidegger
heidelberg
height
heinlein
heinrich
hektar
hel
helarctos
helen
helena
helergh
helerghi
helerghyas
helgeun
helgh
helghi
helghoryon
helghya
helghyer
helgik
helgoland
helier
heligolandekheligolandek
heliom
helium
hell
hellan
heller
hello
hellys
helsingborg
helsinki
helvellyn
helwir
helwys
helygen
helygweyth
helyk
helyow
hematit
hembrenkyades
hembrenkyas
hembrenkys
hembrenkysi
hembronk
hembronkas
hembronkyas
hembronkyer
hembronkys
hembrynkysi
hemeres
hemichordata
hemingway
hemm
hemma
hemoglobin
hemon
hen
henan
henavek
henavogyon
hendas
hendasow
henderson
hendheskonydh
hendhyskans
hendhyskonieth
hendhyskoniethel
hendhyskonydh
hendhyskonydhyon
hendrix
henedh
henedhel
henedhladh
henep
henfordh
hengerens
hengov
hengovek
hengovyow
hengrek
henhwedhel
henhwedhlek
henhwedhlow
henley
henllan
henn
henna
hennessey
henow
henrhyd
henri
henry
hens
hensa
hensbarrow
hensi
hensyow
hentrevogyon
henwel
henwhethlow
henwir
henwis
henwyn
henwys
hep
hepburn
hepken
hepkor
hepkorras
hepworth
her
herb
herbert
herc
hercegovina
hercule
hercules
herdh
herdhya
herdhyans
herdhys
here
herengracht
herens
heres
hergest
herghynnedh
heritage
herman
hermann
hermes
hern
herna
herodotus
heroes
heroides
herrerasaurus
herring
herschel
herwydh
herwyth
herya
heryas
heryus
herzegovina
hes
heseltine
hesk
hesken
heskennow
hesperidiom
hesperidiomys
hesse
het
hettie
heuk
heusaff
hev
hevel
heveladow
hevelep
hevelepter
hevelepterow
heveli
hevelius
hevelyans
hevelys
hever
hevesy
hevis
hevres
hevreyth
hevva
hewnys
hewul
hexapoda
heydh
heyji
heyl
heylyn
heyn
hf
hg
hi
hiarn
hickory
hidalgo
hidro
hidrojen
hidroklorik
hidroksid
hidrothermel
hieroglyfow
hieronymus
higgins
high
higher
highland
highway
hiiu
hil
hilbert
hilda
hildur
hilgasieth
hill
hillary
hills
hillsborough
hillside
himachal
himalaya
himalayas
himalayek
himno
hin
hinckley
hinckleyi
hindenburg
hindi
hindik
hindou
hindoueth
hindoustanek
hindouyon
hindu
hinek
hino
hinow
hinyow
hip
hippo
hippocrates
hir
hira
hirbrederyans
hirder
hireth
hirgam
hirgrennen
hirgrennow
hirgul
hirgylghek
hirneth
hirohito
hirono
hiroshi
hiroshima
hirra
hirrath
hirwarrowyow
his
hisinger
histoire
histoires
historia
historic
historical
historicengland
history
hitchcock
hitchhiker
hitler
hiv
hkn
hler
hlsw
hm
hmk
hmke
hmn
hms
hneus
ho
hoa
hoag
hoatzin
hoba
hobas
hobb
hobbes
hobbit
hobhouse
hobihors
hobys
hocking
hodge
hodys
hoe
hofburg
hoffman
hofmann
hogarth
hogen
hogh
hoghes
hoi
hokkya
hokusai
hokys
hol
holan
holanek
holanow
hold
hole
holergh
holiday
holland
hollande
holly
hollywood
holman
holmes
holmiom
holofernes
holon
holstein
holya
holyans
holyas
holyer
holyes
holyoryon
home
homeland
homer
homfray
homilies
hominoidea
homm
homma
homme
homo
homposyans
hon
honan
honanieth
honanrewl
honanrewlys
honanvewskrif
hond
hondouras
honduras
hondurensis
honen
hong
honn
honna
honolulu
honour
hooghly
hook
hooke
hooker
hoolock
hooper
hoorninger
hoover
hop
hopcyn
hope
hopkins
hopper
hor
horace
hordaland
hordh
horf
horfow
horizons
horizontal
hormon
hormonow
horn
hornblende
hornek
hornven
hornveyn
hornweythva
horologium
horribilis
horse
horses
horseshoe
horsham
horst
horth
hos
hospital
hosseini
hostel
hostelri
hosts
hot
hotel
hotels
hound
hour
hourglass
house
houseman
houston
how
howard
howetha
howethyans
howl
howldrehevel
howldrevel
howlek
howlsedhas
howlsedhes
howlsplann
howlyek
hownans
hoxha
hoy
hozyajka
hr
hrista
hrysir
hs
hst
htm
html
http
https
hu
hua
huang
hubble
hubert
huckleberry
huda
hudel
hudson
hugh
hughes
hugo
hui
hujes
hujys
hull
human
humanus
humboldt
hume
humerus
humilis
humphrey
humphry
humus
hun
hund
hungarek
hungari
hungarian
hungary
hunger
hungry
huni
hunros
hunrosow
hunslet
hunt
huntel
hunter
huntilow
huntingdon
huntsville
huny
huon
hurling
hurlya
hurlysi
hurren
hurst
hus
husayni
hussein
hutton
huvel
huw
huws
huxley
hw
hwaffa
hwang
hwann
hwannen
hwans
hware
hwarheans
hwarheansow
hwarhes
hwarier
hwarthus
hwarthuster
hwarva
hwarvedhyans
hwarvedhyansow
hwarvo
hwarvos
hwarvosow
hwarvsa
hwath
hwaynyas
hwb
hwedh
hwedhel
hwedhla
hwedhlek
hwedhlow
hweg
hwegh
hweghes
hweghgarrogyon
hweghves
hwegys
hwel
hweldro
hweldroyow
hweler
hwelir
hwelji
hweljiow
hwella
hweller
hwelyow
hwennen
hwer
hwerow
hwerydh
hwesigow
hwesik
hwesker
hweskeren
hwetegves
hwetek
hwetha
hwevrel
hwevrer
hwevror
hwi
hwil
hwila
hwilas
hwilen
hwiles
hwir
hwisk
hwist
hwistel
hwistles
hwistlow
hwither
hwithra
hwithrans
hwithransow
hwithras
hwithrer
hwithroryon
hwithrus
hwithrys
hwoer
hwor
hwra
hwre
hwrek
hwrello
hwrer
hwreydhek
hwrons
hwrug
hwrussa
hwrussons
hwyja
hwypp
hwyris
hwys
hwysa
hwyth
hwytha
hwythen
hwythennow
hwythsonyow
hwythys
hy
hyacinthoides
hyades
hyaena
hyde
hyderabad
hydra
hydro
hydrogen
hydroklorik
hyena
hykka
hyldreth
hyli
hyll
hyllas
hylli
hyllir
hyllons
hyllyn
hyllys
hymn
hymna
hymnys
hyn
hyns
hynsa
hynsyow
hynwyn
hypatia
hyperglycemia
hypoglycemia
hys
hywel
høegh
hɐr
i
ia
iai
iain
ian
iau
iauliai
iba
iberi
iberia
ibis
ibn
ibrahim
ibsen
ibtimes
ic
ice
iceberg
icefields
iceland
iceni
icenorum
ich
ichthyosaur
id
ida
idaho
ideann
identity
ideograf
ideografow
idf
idiot
idol
ies
if
ifan
ifor
iggeva
ign
igo
igor
igrok
iguana
ii
iii
ikon
il
ile
ilewydh
ilewydhes
ilewydhyon
ilex
iliad
iljin
illacme
ille
illinois
illustration
ilmenit
ilow
ilowari
ilowbib
ilowbibow
ilowek
ils
ilulissat
ilyich
im
imach
imachys
image
imaged
images
imagesize
imaj
imajys
imam
imdb
imerys
img
immaculata
immer
immun
immunedh
imonyte
impala
impalas
impatiens
imperial
impey
importance
important
impotriva
in
inanna
inauguracion
inbhir
inc
incana
inch
including
incognito
increment
indarctos
independence
independent
index
india
indian
indiana
indianapolis
indicator
indiom
indira
indium
indo
indonesek
indonesi
indonesia
indonesian
indus
industrial
industry
indy
ine
influenza
info
information
infrared
infty
ingleborough
ingrida
inhibin
ink
inka
inn
innu
inopinatus
inornatus
inscriptions
insecta
insee
inshey
inside
inslee
instagram
institut
institute
institution
insulin
inter
interface
interim
interior
interlude
international
internationale
internet
into
intricata
introduction
inuit
inuktitut
inverness
inwedh
inyangani
io
iodid
iodin
iohannes
iolo
ion
iota
iowa
ipa
ipad
iphone
iprage
ir
ira
irak
iran
iranek
iranian
ire
ireann
ireland
irene
iridiom
irina
iris
irish
irkutsk
irokoiek
iron
iroquois
irtysh
irving
irwin
is
isa
isaac
isabella
isabelle
isabellinus
isaskor
isaskorr
isatis
isbn
isbrastir
isch
isdeylu
iseanta
iseghen
isehen
isehennow
isel
iselbri
iseldir
iseldiryek
iseldiryow
iseldirysi
iselha
iselhe
iselheans
iselhes
isella
iseltiryow
iselweyth
isframweyth
isfylum
isgenas
ishkode
isichean
isiu
iskarga
iskevresek
isklass
iskowethyans
islam
islamek
island
islandek
islands
isle
isles
islewydhyon
isleyder
islonkel
ismael
iso
isobel
isolde
isolt
isotop
isotopow
isotri
ispoynt
ispoyntel
israel
israeli
israelyek
isrannow
isrudh
issn
istanbul
isteylu
istorek
istorel
istori
istorier
istorior
istorioryon
istory
isuma
isunngua
isurdh
isvagas
isvrastir
isweres
isyurl
it
italek
itali
italia
italian
italiana
italianek
italianesow
italians
italo
italy
item
its
itv
iu
iucn
iulius
iv
ivall
ivan
ives
ivoire
ivor
ivren
ivy
iwan
iwerdhon
iwerdhonek
iwerydh
ix
iz
izel
j
ja
jaacht
jaani
jack
jackie
jackman
jackson
jacob
jacques
jae
jagan
jagger
jago
jagwar
jai
jain
jaipur
jakarta
jakobitydh
jakobitydhyon
jalenjyas
jalisco
jallenjyas
jamaica
jamal
jamayka
james
jamys
jan
jana
jane
janeiro
janet
janj
janjya
janjyas
janjyow
janjys
jantar
january
jaouen
japan
japanek
japanese
japanhttps
japon
japonek
japonica
japonicus
jardin
jared
jarman
jason
jasper
jati
jaume
jaune
java
javid
jay
jayneth
jazz
jazzar
jazzu
je
jean
jeanie
jeanne
jeddah
jefferson
jeffrey
jeffri
jei
jekoslovaki
jenefer
jeneral
jenesis
jeneva
jenin
jenkin
jenkins
jenna
jenner
jennifer
jenny
jentyl
jeorji
jeremiah
jeremy
jerkyn
jermyn
jerokiek
jerome
jeroni
jerry
jersey
jersi
jerusalem
jesu
jet
jeth
jeva
jeves
jevisya
jevo
jewell
ji
jibouti
jibraltar
jif
jill
jim
jimmy
jin
jina
jinek
jini
jiow
jiraf
jirafes
jj
jo
joa
joachim
joan
joanna
job
jobs
jocelyn
jocht
jodie
jodrell
joe
joel
joey
johan
johann
johannes
john
johnny
johns
johnson
johnston
johr
joint
joki
jon
jonas
jonathan
jonava
jones
jong
jope
jordan
jorge
jori
joriek
jorna
jornal
jornalyades
jornalyas
jornalydh
jornalys
jornalysi
jornalystyon
jory
jose
josef
josep
joseph
josephine
josh
joshua
josselin
joule
jour
journal
journalen
journalyas
journey
jovyn
jowal
jowan
jowanet
jowann
jowl
joy
joyce
joyrex
jpeg
jpg
jr
ju
juan
jubatus
jucht
judge
judith
judy
juin
jules
juli
julia
julian
julie
julius
july
julyan
jump
jun
junction
june
juneau
jung
jungfrau
jungfraubahn
jungfraujoch
jungle
juniata
junior
junnya
junnyas
juno
junya
junyans
junyansow
junyas
junyes
junys
jupiter
jurasek
jurassek
jure
jurga
just
justice
justify
justin
justinian
justis
justitia
juvenile
jy
jydh
jyf
jyn
jynn
jynnji
jynnjiow
jynnow
jynnweyth
jynnweythek
jynnweythor
jynnys
jynys
jypsum
k
ka
kabinet
kabli
kablus
kablys
kabsa
kabul
kachya
kachyans
kachys
kader
kaderyer
kaderyor
kadmiom
kadon
kadonow
kadonyow
kadys
kaer
kafka
kahlo
kai
kaila
kailah
kaine
kaisei
kaiser
kaja
kajaani
kal
kala
kalamin
kalan
kalander
kalann
kalciom
kalcit
kalender
kalenderyow
kales
kaleshe
kaleshes
kalessa
kaletter
kaletterow
kalettir
kalgh
kalghek
kalif
kalifat
kaliforni
kaliforniom
kaliningrad
kalkor
kalkoryon
kalkulus
kallas
kalligrafieth
kalmar
kalon
kalstok
kalter
kama
kamala
kamas
kambodi
kamboji
kamenogorsk
kameo
kamera
kameroun
kamm
kamma
kammas
kammbron
kammbronn
kammel
kammgemeryans
kammgemeryansow
kammow
kampoellans
kampoellansow
kampoll
kampolla
kampollans
kampollansow
kampollow
kampollys
kamporieth
kampow
kampya
kampyer
kampyorieth
kampyoriethow
kan
kana
kanada
kanadek
kanadian
kanadianesow
kanadians
kanagawa
kanasedh
kanasedher
kanasedhi
kanasedhoryon
kanasedhow
kanaseth
kanasow
kanawha
kanda
kandinsky
kanel
kaner
kangarou
kangchenjunga
kanji
kankakee
kanker
kankres
kanna
kannas
kannasow
kanndir
kannow
kannys
kanol
kanolyow
kanor
kanores
kanoresow
kanoryon
kanow
kanpur
kans
kansas
kansbledhen
kansbledhynnyow
kansbloodh
kansblydhen
kansblydhynyow
kanskrifer
kansow
kansran
kansrann
kansrannow
kanstell
kanstellow
kanstros
kanstrosow
kansvledhen
kansvledhynnyow
kansvlydhen
kant
kanvas
kanvledhen
kaolinit
kap
kappa
kappys
kapten
kaptens
kar
kara
karabakh
karachi
karadon
karakoram
karaln
karamazov
karamazovy
karanna
karantez
karardhek
karasek
karate
karategi
karavan
karbid
karbohydratow
karbon
karbonat
kardashian
kardeva
kardhana
kardhorn
kardinal
kardydh
karedin
karen
karer
karesk
karesow
karg
karga
kargedh
kargens
kargharans
kargisi
kargnogh
kargow
kargront
kargrug
kargyes
kargyrn
kargys
karhirbre
karib
karibek
karin
karl
karliwelydh
karlovac
karlow
karlskrona
karlstad
karme
karmel
karn
karnan
karnarvon
karnek
karnival
karnow
karnrosveur
karol
karolina
karoryon
karow
karr
karrek
karrekloos
karrji
karrygi
karrys
karsallek
karst
karten
kartennow
karthyon
karvled
karvyn
karvyrdhin
karya
karyans
karyer
karyes
karyhes
karyn
karyoryon
kas
kasa
kasaghstan
kasas
kashmir
kashmiri
kashoubek
kashtin
kaskerdh
kaskergh
kaskyrgh
kaskyrghes
kaskyrghow
kaslu
kasor
kasorek
kasow
kaspar
kaspi
kaspian
kastel
kastell
kastil
kastylli
kaswar
kasys
kata
katalanek
kataloni
katalydh
katalydhyon
katalysator
katalytek
katar
katawbannek
kate
kath
katharine
kathek
katherine
kathes
kathigen
kathigenow
kathik
kathleen
kathmandu
kathod
katholek
katholigieth
katholigyon
katholik
kathryn
katie
katrin
katrina
katsushika
kattan
kaunas
kavadow
kavas
kavoes
kavos
kawgh
kawghya
kawkas
kawosow
kaws
kawsya
kawsys
kay
kayakya
kaykos
kayman
kayow
kays
kaysys
kayys
kazagh
kazaghek
kazakh
kazakhstan
kb
kbe
kc
kd
kdl
ke
kea
keanu
keats
kebab
kebek
kebmyn
kedhlow
kedhor
kedhorieth
kedhow
keegan
keep
keffres
keffrys
keffrysek
keffrysyans
keffrysys
keffrysysi
kefry
kefrysyans
kegin
kegina
keginer
keginieth
keginyeth
keginys
kegys
kehaval
kehavalen
kehavalennow
keher
keherek
keherow
kehevelep
kehevelewgh
keheveli
kehevelyans
kehevelys
kehysedh
kehysnos
keigwin
keila
keinc
keir
keith
kekesow
kelesonek
kelesoni
kelester
kelgh
kell
kellek
keller
kelli
kellivre
kelliwik
kellow
kelly
kellylli
kellys
kelmys
kelt
keltek
keltesow
keltia
keltiek
kelto
keltoi
keltyon
kelyon
kelyonen
kemal
kembra
kembrek
kembresow
kembrion
kembro
kembroyon
kemeneth
kemenethek
kemenethow
kemeras
kemeres
kemerow
kemeryans
kemeryansow
kemerys
kemmeres
kemmerys
kemmyn
kemmynegorek
kemmynegoreth
kemmynieth
kemmyniethow
kemmynna
kemmynwlas
kemmynyon
kemmys
kemmysk
kemmyska
kemmyskys
kempe
kempen
kemper
kemptown
kemusur
kemynegorek
kemynegoreth
kemynegoryon
kemynro
kemysk
kemyska
kemyskans
kemyskys
ken
kendegiell
kenderow
kenedhel
kenedhelek
kenedhlegans
kenedhleger
kenedhlegieth
kenedhlegys
kenedhlek
kenedhloger
kenedhlogeth
kenedhlogoryon
kenedhlow
kenedlegiethek
kenertha
keniver
kenja
kenn
kennedy
kennen
kennennow
kennertha
kenneth
kenny
kenosha
kenozoek
kens
kensa
kensington
kent
kentgeologywealdendomesimple
kentrevek
kentrevik
kentrevogyon
kentrynna
kentrynnys
kentucky
kenwerth
kenwertha
kenwerthel
kenwostel
kenya
kenys
keow
kepar
kepardhu
kepler
ker
kerdh
kerdhes
kerdhoryon
kerdhva
kerdydh
keredigyon
kerens
kerensa
keres
keresk
kerevell
kerever
kergh
kerghydh
kerghyn
kerghynedhel
kerghynedhoryon
kerghynedhow
kerghynnedh
kerghynnys
kergront
kergynnedh
kergys
kerlew
kermodei
kern
kerneweger
kernewegoryon
kernewek
kernow
kernowegoryon
kernowek
kernowesow
kernowit
kernowyon
kernuack
kernuak
kerra
kerrek
kerri
kerrier
kerry
kerrygi
kert
kerth
kerthow
kertigow
kertik
kertow
kertys
kerverdhin
kervya
kervys
kerwenes
kerwys
keryer
keryes
keryn
kerynyow
kerys
kes
kesalkan
kesalkenyow
keschanj
keschanjya
keschanjyow
keser
kesgwlasek
keskan
keskanow
keskar
keskeffrysyans
keskelmys
keskeltek
keskerdh
keskeveryel
kesknians
keskomunya
keskomunyans
keskowethyans
keskowethyansow
keskows
keskowsow
keskreunyans
keskreunys
keskussulyans
keskusulyans
keslinek
kesober
kesoberi
kesoberyans
kesordenogyon
kespar
kesparow
kesparya
kespos
kesrann
kesrannow
kesroesweyth
kesrosweyth
kessedhek
kessenyans
kesservysi
kesskor
kesskrifans
kesskrifer
kesskwat
kesskwattya
kesskwatya
kesson
kessonen
kessonenn
kessonennel
kessonennow
kesstoff
kesstoffow
kesstri
kesstrif
kesstrifa
kesstrifek
kesstrifer
kesstrifow
kesstrivya
kesstudhyow
kesstyr
kessydhyans
kestav
kestava
kesten
kesterson
kesteudhans
kesteudhi
kestevyn
kestew
kesu
kesunya
kesunyans
kesunyansow
kesunyas
kesunyes
kesunys
kesva
kesvewa
kesvroder
keswel
kesweli
kesweyth
kesweythow
kesweythyow
keswick
keswlasek
ket
ketchikan
keth
kethneth
kethow
kethreydhel
kethsam
kethyon
kettep
kettermyn
kettesten
kettle
kettres
kettuel
keun
keunegen
keunegennow
keunys
keur
keuryow
keus
keuswask
kevambos
kevambosow
kevardhu
kevarghewi
kevarwodha
kevarwodher
kevarwodhes
kevarwodhoryon
kevarwodhys
kever
keverang
keverangow
kevernans
keverne
kevernyans
kevili
kevin
kevir
kevnis
kevnisen
kevos
kevothek
kevradh
kevradhow
kevrang
kevrangow
kevranna
kevrannow
kevrednow
kevren
kevrenn
kevrenna
kevrennek
kevrennow
kevrennys
kevres
kevresyow
kevreyth
kevreythow
kevreythyow
kevri
kevrin
kevrinek
kevro
kevrohow
kevrynnys
kevys
kew
kewar
kewer
keweronieth
keweroniethel
kewni
keworansel
keworansow
keworra
keworrans
keworrir
keworrys
kewsel
kewsir
kewsys
key
keyboards
keyes
keyn
keynans
keynansdiryow
keyndir
keyne
keynek
keynes
keynogow
keynow
keynskrif
keynvor
keynvorek
keynvorow
keynvoryek
keynvoryow
keynwynn
keysedh
kg
kh
khali
khalidi
khalifa
khalifah
khan
khattab
khatun
khayya
khayyam
khmer
khrushchev
khufu
khuong
khwa
ki
kid
kiel
kielder
kierkegaard
kiesenhofer
kiev
kig
kigdebrer
kigdebroryon
kigdebrus
kigdevoryer
kigdevoryoryon
kigdhebroryon
kigdhebrus
kigelia
kigyow
kij
kildenna
kildhens
kildro
kilfos
killarney
killigrew
kiln
kilogram
kilometer
kilstamp
kilva
kim
kimi
kimono
kinda
kinder
kindersley
king
kingdom
kingharde
kings
kingsley
kingston
kinks
kinshasa
kint
kippur
kirchner
kirchoff
kiribati
kirik
kirk
kis
kiss
kissack
kist
kisus
kisya
kit
kitts
kitty
kiwis
kk
klaipe
klamdera
klapes
klapesow
klappya
klappyes
klaproth
klas
klasek
klass
klassa
klassans
klassek
klasshes
klassow
klassys
klastek
klastow
klasyans
klasyansow
klav
klavder
klavji
klavjiores
klavjiow
klavor
kledh
kledha
kledhbarth
kledhren
kledhrenn
kledhrennow
kleger
klegh
kleine
kler
klerhe
klerheans
klerya
kleudh
kleudhya
kleudhyes
kleudhyow
kleusvaow
kleves
klevesans
klevesansow
klevesow
klevesys
klevyon
klew
klewes
klintow
klock
klockow
klockys
kloes
klogh
klopen
klor
klorek
klorid
klorin
klorit
klorofluorokarbonow
klos
klout
kloutys
klub
klubys
klun
klunyek
klunyow
klusva
km
kmaq
kmawi
knee
knegh
kneus
knias
knife
knight
knivil
kniviles
knofennyk
knopf
know
knowed
knowen
knowledge
knox
knud
ko
kobalt
kober
koberenys
kobros
koch
kocha
kochow
kochys
kod
koden
kodenn
kodh
kodha
kodhans
kodhvos
kodhys
koed
koes
koesheyl
kofennow
koffi
koffiji
kofhes
kogh
kogrenn
kok
kokan
kokase
kokkola
koktel
koktels
kolajen
kolera
kolesterol
kolghow
kolji
koljiow
kolkata
koll
kolldhel
kollell
kollenwel
kollji
kollverk
kolm
kolmow
kolodhyon
kolodhyonen
kolom
kolombi
kolombiek
kolomm
kolon
kolonekter
kolonnek
kolonnen
kolorado
koloven
kolovennow
kolpes
kolponomos
kolumbit
komedi
komedis
komendya
komendyans
komendyes
komendys
komi
komigow
komik
komm
kommendys
kommol
kommow
komol
komolen
komolennow
komorys
kompani
komparek
komparriv
komparya
komparyans
komparys
kompes
komplek
kompleth
komplethteryow
komposter
komposya
komposyans
komposydh
komposydhes
komposydhyon
komposys
komprehendya
komprehendyans
komprehendyes
komprehendys
kon
konan
konaow
kong
kongo
konin
konines
konna
konnar
konnectikut
konnyk
kons
konsel
konseler
konsels
konsidrys
konsow
konstantin
konstentin
konstrinus
konstrinys
konsumyans
kontaynya
konter
konteth
kontethow
kontrari
kontrol
kontrolya
kontrolys
konvedhes
konvedhys
konvertydh
konvertydhyon
kool
koos
kopel
kopenhavn
koperniciom
kopernikus
kopi
kopje
kopjes
koplow
koprivnica
kor
koran
korden
kordh
kordhow
kordhya
korea
korean
koreek
korel
korev
korf
korfek
korfenna
korflan
korfonieth
korforeth
korfow
korinth
korionik
korn
kornel
korpus
korr
korra
korrbryves
korrdonnow
korrgalaksi
korrigan
korrlastan
korrorganedhow
korrsteren
korrwelek
korrwelell
kors
korsen
korsika
korteks
kortos
korwedha
koryns
korynt
kos
kosa
kosel
koselhe
kosk
koska
kosova
kosow
kost
kosta
kostek
kosten
kostennow
kostentin
koster
kostow
kostys
koswigieth
koswigow
koswik
kota
kotaku
koth
kotheneb
kothha
kothmans
kotka
koton
kott
kottha
kotys
kou
kough
kourou
kov
kovadh
kovadhow
kovadhys
kovep
kovernya
kovhe
kovheans
kovskrif
kovskrifys
kovyow
kow
kowal
kowans
kowansow
kowas
kowbal
kowboll
kowbollow
kowdell
kowdoll
kowel
kowell
koweth
kowetha
kowethas
kowethasek
kowethasel
kowethasow
kowethegeth
kowethyans
kowethyansow
kowethyas
kowethyasek
kowethyes
kowethys
koweyt
kowfordh
kowfordhow
kowl
kowles
kowlwriansow
kowlwrys
kowlwul
kownans
kowr
kowrdhowrgi
kowrek
kowrsteren
kowrvargh
kowrvergh
kows
kowsel
kowser
kowsir
kowsis
kowsor
kowsoryon
kowsys
koynt
koyt
kozh
kp
kph
kr
krabanow
krabbys
krackys
kradhya
krag
kragen
krambla
krambler
krambloryon
kramer
kramviles
krann
kravasow
kreffa
krefhe
kreft
krefter
kreftoryon
kreftow
kreftus
kreghyn
kregi
kregyn
kregynnegyon
kregys
kren
krena
krenansow
kreneg
krenn
krenna
krenvonni
krerva
kres
kresek
kresel
kresen
kresenn
kresennow
kresennys
kreshes
kreslu
kresosel
kresosow
kressya
kressyans
krestennen
krestennogyon
krestenogyon
kresvor
kresvorek
kresydhyon
kretinga
kreun
kreunans
kreungylgh
kreuni
kreunva
kreunyow
krev
krevass
krevassys
krevder
krevhe
krey
kri
krib
kribow
kribys
krimea
kris
krishna
krist
kristian
kristiansen
kristonedh
kristonek
kristoneth
kristonyon
kristyon
kriv
kriz
kro
kroadur
kroaduryon
kroatek
kroati
kroder
krodhvol
krodhvolas
krodhvolyow
kroeber
kroenek
krog
krogen
krogennow
kroghen
krognans
krognansow
krogrewliv
krokodil
krokodiles
krokodilys
krom
kromdo
kromiom
kromm
krommdo
krommen
krommvaghow
krone
kronek
kronikyl
kronoges
kronogow
kropyans
kropyansow
krotkaja
krovat
krow
krowji
krowjiow
krows
krowseryow
krowsgasow
krowskas
krowskasow
krowsmegys
krowsow
krug
krullys
krycket
kryjyans
kryjyansek
kryjyansow
kryjyek
kryjygyon
kryjyk
krymi
krymlin
krypton
krys
kryshna
krysi
krysieth
krysir
krysyow
krysys
krzysztof
ks
ksa
ksenon
ku
kua
kuba
kubek
kubrick
kudh
kudha
kudhlen
kudhlennow
kudhliwans
kudhys
kudyn
kudynnow
kudynnyow
kuhudhys
kui
kuiper
kukenan
kul
kull
kulla
kulvor
kulyek
kumaragupta
kumbrek
kummyas
kumun
kuntel
kuntell
kuntellek
kuntelles
kuntellesel
kuntellesow
kuntelloryon
kuntellow
kuntellyans
kuntellys
kuntilow
kuntilowyow
kur
kurat
kurchatov
kurdek
kurdistan
kuriom
kuro
kurosawa
kurs
kurt
kurun
kurungylgh
kurunnek
kurunyans
kuspow
kussul
kussulya
kussulyer
kuv
kw
kwalifia
kwalita
kwantum
kwarel
kwari
kwarnya
kwarter
kwarthevya
kwarton
kwartron
kwasar
kwaya
kwaynya
kwaynyas
kwell
kweres
kwilkyn
kwilkynnyow
kwilkynyow
kwiska
kwitha
kwra
kwrello
kwreydhek
kwruthyl
kwrythul
kwyllennow
ky
kybi
kyf
kyfeyth
kyfythyes
kyhwedhlow
kyjya
kylgh
kylghek
kylghow
kylghresyas
kyll
kyllas
kyllasen
kymer
kymygen
kymygennow
kymygieth
kymygiethel
kymygow
kymygydh
kymygydhyon
kymyk
kymyst
kyn
kynnik
kynnyav
kyns
kynsa
kynser
kynserneth
kynsistorek
kynsistori
kynsskrif
kynth
kynvannow
kynver
kynyav
kyoto
kyproes
kyrghynn
kyrghynnedh
kyrghys
kyrgys
kyrillek
kyttrin
kyttrinyow
kyu
kz
l
la
lab
label
labol
labolven
labor
labour
labrador
labyrinth
lacaille
lacey
lackawanna
laddra
laden
lader
ladh
ladha
ladhans
ladhas
ladher
ladhoryon
ladhva
ladhys
ladra
ladras
ladron
lads
lady
lagan
lagas
lagasow
lagatta
lagh
lagha
laghel
lagher
laghu
laghyades
laghyas
laghys
lagoon
lagos
laha
lahti
laika
lainn
lajek
lake
lakes
lakewood
lakghota
lakghotek
lakho
lakota
laksaa
laktik
laktogen
lallansek
lama
lamb
lambeth
lamellosa
lamm
lamma
lamorna
lamp
lamy
lan
lana
lanark
lanarkshire
lanata
lanatus
lancashire
lancaster
lance
land
landarzt
landing
lands
landscape
landtag
lanerghi
lang
lange
langenhorn
language
languages
langue
lanham
lanherne
laniger
lank
lanka
lann
lannaghevran
lannaghevren
lannaled
lannales
lannanta
lannanvenegh
lannberis
lannbrobus
lanndege
lanndreth
lannelli
lannergh
lanneves
lanngollen
lanngorrow
lannhydrek
lannow
lannstefan
lannstevan
lannudhno
lannuon
lannust
lannvorek
lannvowsedh
lannwedhenek
lannwenep
lannwythek
lannyust
lansing
lanstefan
lanthanid
lanthanidow
lanthanom
lantoom
lanwes
lanwesow
lanyon
lao
laomainn
laos
laozi
laplace
lappa
lappeenranta
lappyans
lappys
lara
laramie
large
laridae
larry
lars
larsen
lartigue
las
lascaux
lasek
laser
laserow
lasneth
lassen
last
lat
late
later
lateral
laterit
laterite
lath
latha
latham
latidens
latin
latinek
latvi
latviek
latynek
launceston
launching
launchyas
laura
lauren
laurence
laurent
laurie
lauryn
lauterbrunnen
lava
lavar
lavaras
lavarennow
lavarow
lavasas
laveras
lavinia
lavoisier
lavos
lavur
lavurya
lavynnyon
law
lawek
lawrence
lawrenciom
lawton
layer
layla
lb
ld
le
leach
lead
leader
leadership
leaf
league
lear
learn
learners
leaves
lebanon
lebmyn
lebnon
lech
lecoq
lectularius
led
ledan
ledanna
leder
ledge
ledher
ledhys
ledrow
ledrys
ledya
ledyans
ledyas
ledyer
ledyes
ledyores
ledyorieth
ledyoryon
ledys
lee
leeds
leel
lef
left
leg
legacy
legend
legh
leghen
legrans
legrys
leha
lehas
lehe
lehes
lehigh
leibniz
leiden
leighton
leipzig
lel
lelant
lelder
lelysi
lemmel
lemmon
lemmyn
lemon
len
lena
lenes
lengua
lenin
lenji
lenkdell
lenki
lenna
lennon
lennow
lenow
lens
lensow
lent
lenter
lentrus
lentta
lenwel
lenwys
leo
leon
leonard
leonardo
leone
leonek
leonid
leonis
leopold
leow
lepidolit
lepidus
ler
lergh
lerghow
leroy
les
lesa
lesans
lesard
lesas
lesbenigys
lesek
leshanow
leshenwyn
lesia
lesk
leskargva
leskargvaow
leski
leskys
leslie
lesneven
lesotho
lesothosaurus
lesow
lesrannans
lesruw
lesrynnys
lessons
lesta
lestans
leste
lester
lestri
lesys
let
leth
lethek
lether
letherednanz
lethesow
leti
letoni
lett
letter
lettglowyow
lettrys
lettya
lettyans
lettyas
lettyes
lettys
letus
leucotrichophora
leugh
leughi
leun
leunhe
leunhes
leur
leurlen
leuryow
leuv
leuvvedhegel
leuvvedhegneth
leuvvedhek
lev
levant
levantin
level
levelyow
leven
levenow
lever
leverel
leverir
leveris
leveryans
leverys
levine
levow
levrow
lew
lewen
lewennow
lewern
lewernigow
lewes
lewis
lewisek
lewisham
lewiston
lewpard
lewpardes
lewya
lewyader
lewyadoryon
lewydh
lewydhek
lewydhes
lewydhyon
lewyer
lewyon
lewyoryon
lewys
lewyth
lexington
leyden
leyder
leymus
leys
leysven
leysveyn
leyth
leythder
leythedh
lez
lfk
lhen
lhuyd
li
lia
liam
liamm
lias
lib
liber
liberal
liberation
liberi
libertad
liberte
liberty
libi
library
libre
libreville
libro
lichfield
liechtenstein
lien
lienek
liennek
lienyow
lies
liesdhuwieth
liesek
liesgweyth
lieshes
lieskell
lieskonnyk
lieskweyth
liesplek
liesteknogel
liester
liestrosow
lietuva
lieutenant
life
lifetime
liger
light
lightgrey
lightning
lights
ligurek
like
lili
lilian
lille
lilly
lim
lima
limaval
limbourgek
limestone
limited
limosa
limulus
lin
linas
linasen
lincoln
lincolnshire
lincom
lindsay
line
linegrey
linen
linenn
linenna
linennans
linennow
lines
linguistic
linguistics
link
links
linnaeus
linyek
linyel
linyeth
linyow
lion
liow
lipid
lipidow
lir
lira
lisa
lisboa
lisbon
lise
liskeard
lisliwen
list
lister
listowel
listuguj
liter
literary
literature
lithiom
lithium
lithograf
lithosfer
lithouani
lithuanek
lithuani
lithuania
lithuanians
lithuaniek
lithywanek
lithywani
little
lituania
liu
liv
liva
livans
livas
live
liver
livermore
livermoriom
liverpool
lives
living
livingstone
livonek
livow
livra
livrel
livrelyon
livreson
livresys
livrys
livwer
livwolowys
livyow
livys
liw
liwa
liwans
liwansow
liwek
liwles
liwus
liwyans
liwyow
liwys
lix
liz
lje
ljocht
ljubljana
ljucht
lkdt
lked
ll
lla
llai
llan
llanbadarn
llanbedr
llanberis
llanddewi
llandeilo
llandrillo
llandrindod
llandudno
llanelli
llanelwedd
llanfair
llanfihangel
llangatwg
llangefni
llangernyw
llangoed
llangollen
llangynidr
llangynog
llanilltud
llannerch
llanpumsaint
llanrhaeadr
llawlyfr
llc
lle
lleoedd
ller
lles
llewelyn
lloyd
llui
llundain
llwyd
llwyfan
lly
llyfr
llyfrgell
llyn
llyr
llys
llywodraeth
lo
loa
lobatae
lobb
loc
local
locale
location
loch
locht
lochte
lock
locke
lockyer
locomotive
locomotives
lod
lodge
lodrow
loe
loeffler
loer
loerek
loerell
loes
lofting
logan
logdewi
logh
loghlyn
logniet
logo
logos
logosen
logsulyan
logsulyanit
lohja
loire
lois
lojyk
lok
lokomotyv
lokomotyvyow
lokournan
lokryn
lolfa
lolium
lombardi
lonchya
lonchyas
lonchys
londinium
london
loneth
lonethi
long
longman
longships
longya
lonk
looe
look
looking
loon
loongwern
loop
loor
loos
looth
lor
lord
lordi
lorel
lorelei
lorell
lorellow
lorens
lorraine
loryow
los
losk
loskaberth
loskvan
loskvenydh
loskvenydhyek
loskvenydhyow
losni
losonieth
losoniethek
losoniethel
losonydh
losow
losowdhebroryon
losowedh
losoweger
losowek
losowen
losowieth
loss
lost
lostek
lostelven
losten
lostennow
lostledan
lostledanes
lostow
lostwydhyel
lostyn
lothian
lothow
lou
loub
loudoun
loughborough
louis
louise
louisiana
loundres
loup
loups
louse
louvre
lovan
lovanow
love
lovecraft
loveday
lovelace
lovell
lovennan
lovennanes
lovett
loving
low
lowarn
lowarth
lowartha
lowarther
lowarthoryon
lowarthow
lowbren
lowen
lowena
lowender
lower
lown
lownyow
lowr
lowry
lows
lowsya
lr
lt
ltd
ltte
ltuma
lu
luanda
lubbock
luca
lucas
luci
lucida
luck
lucknow
lucy
lude
ludwig
lugarn
lugern
lughes
lughwrians
lugo
luguvalium
luigi
luis
luk
luke
lukos
luksembourg
lulea
lulyn
lulynn
lumea
lumie
lun
luna
lunar
lund
lung
lupus
lurcher
lurkyer
lus
lushaborg
lushaborgek
lusia
lusida
lusow
lussac
lust
lusu
lusw
luteolus
lutetiom
luther
lutra
luxembourg
luxemburg
luxor
luyow
luzerne
lv
lva
ly
lyb
lyberth
lybi
lycklod
lycoming
lydford
lydn
lyenn
lyennek
lyes
lyftyes
lyha
lymaval
lyme
lymm
lymmaval
lymmavalow
lymna
lymnans
lymnansow
lymnas
lymner
lymnor
lymnores
lymnoryon
lymnys
lyn
lyndon
lynkow
lynn
lynnow
lynnyn
lynton
lyon
lyonesse
lyr
lyra
lyricist
lys
lysardh
lyskanasedh
lyskanasow
lyskannas
lyskerrys
lysnowydh
lysnowyth
lysow
lyther
lytheren
lytherenn
lytherenna
lytherennans
lytherennansow
lytherennegi
lytherennek
lytherennow
lytherennys
lytherenyeth
lytherow
lytton
lyu
lyudi
lyver
lyverpoul
lyverva
lyvervaow
lyvrow
lyvryn
lyvrynnow
lywya
lywydh
lywydhyon
lywys
m
ma
maakond
mab
mabinogi
mabinogion
mabon
mabsans
mac
macbeth
macdonald
mace
macedon
macedonia
macfarlane
machiavelli
machine
machu
machynlleth
macke
mackenzie
macleod
macmillan
macon
macranthera
macrobertson
macron
macropodidae
macropus
macsen
mad
madagaskar
madame
maddrell
made
madeira
madek
madeleine
mademoiselle
madison
madonna
madre
madrid
madron
mae
maen
maer
maes
maespoeth
mafik
mag
maga
magata
magazine
magellan
magereth
maghreb
maghtern
maghteth
magic
magid
magma
magna
magnesia
magnesiom
magnu
magnus
magnusson
magor
magoryon
magoryow
mah
maha
mahabharata
mahal
mahler
mahmoud
mahomm
mahunyes
mai
maiden
maidenhead
maidstone
main
maine
mainz
mais
maiteth
major
majoris
majorita
make
makedonek
makedoni
makemake
makes
making
mal
mala
malabo
malagasek
malakit
malaria
malawi
malayanus
malayek
malaysi
malcolm
maldivys
maldwyn
male
malen
malham
mali
malik
mallaig
malmo
malo
malta
maltek
malus
mam
mamau
mamba
mambas
mamluk
mamluks
mamm
mammalia
mammskrif
mammskrifow
mammvro
mammyeth
mamontovas
mamoth
mamothow
man
mana
managh
managhti
managhtiow
manakish
mananna
manara
manat
manatee
manawydan
mancha
manchester
manchu
mandarin
mandat
mandate
mandela
mandy
maner
manerji
manerow
manet
manfred
manga
manganes
manhattan
maniraptora
manitoba
mann
mannin
manns
manor
manow
manowek
mans
mansi
mantar
mantel
mantell
manu
manuel
manure
manuscript
manx
many
manykyn
manykyns
manylyon
manylys
mao
maori
map
maplandia
mappa
mappow
mappys
maps
maqluba
mar
mara
maradona
marathon
marbel
marble
marbles
marc
marceau
marcel
march
marche
marchons
marchont
marcia
marco
marcus
mare
marej
marey
marg
margaret
margery
marget
marggraf
margh
marghas
marghasow
marghasyow
marghek
marghogeth
marghsylli
margrethe
marguerite
margven
marhas
marheges
marhek
mari
maria
marian
mariana
marianne
marianow
maricopa
marie
mariehamn
marignac
marijampole
marillion
marilyn
marin
marina
marine
marineris
marino
marinsky
mario
marion
maritimus
marius
marjorie
mark
market
markey
marksydh
marksydhieth
marlene
marley
marnas
marner
marners
maro
marokk
marow
marquis
marriage
mars
marsco
marseillaise
marseille
marsh
marsha
marshall
mart
martesen
marth
martha
marthus
marthys
marti
martial
martialis
martin
martinik
marty
martyn
marwel
marwood
marx
mary
marya
maryville
mas
maserow
maseru
maseth
masjid
maskow
mason
mass
massachusetts
massen
master
masterpiece
mat
mata
matanzas
mater
materials
matern
materow
maters
materyow
math
mathemategydh
mathematgydh
mathematigel
mathematik
mathew
mathias
matic
matilda
matisse
mato
matriks
matrix
matt
matter
matterhorn
matthew
matthews
matthi
mau
maud
maui
mauna
maupin
maurice
mauricio
maurier
mausoleum
mavka
maw
mawr
max
maximilian
maximus
maxwell
may
maya
mayanek
mayer
mayfair
maylys
mayn
maynard
maynek
mayni
maynor
maynorieth
maynoryon
maynys
mayo
mayon
mayor
mayotte
mayour
maystri
mayth
maz
mazeikiai
mazie
mb
mbeki
mc
mccarthy
mcdonald
mcinnerny
mckean
mckenzie
mckinley
mcmahon
mcmillan
md
me
mea
mead
mean
mebel
mebyl
mebyon
mecistops
mecklenburg
med
medal
medalen
medalennow
medh
medhegel
medhegieth
medhegneth
medhegnethow
medhek
medhel
medhelweyth
medhoges
medhogyon
medhow
medhygieth
medhygneth
medi
media
medieval
medina
mediocris
medusa
medusozoa
medvedev
mega
megi
megyans
megys
mei
meiji
meitner
meitneriom
mejwesyon
mekanek
mekka
meksikan
meksikanek
meksikans
meksiko
mel
melampus
melanesi
melanoleuca
melbourne
meldon
meles
melhwes
melilla
melin
melinnowydh
melinyow
melion
melionen
mell
melldrosogyon
mellek
mellen
mellennow
mellitus
mellkeyn
mellkeynek
mellkeynoges
mellkeynogyon
mellow
mellyon
melonyow
melursus
melville
melvin
melyn
melynheyl
melys
melyssand
melysugen
memorial
memories
memory
memphis
men
mena
mendeleev
mendeleviom
menedhyow
meneges
menegesydhel
menegesydhieth
menegh
menegi
menegva
menegyans
menegyansow
menegys
menek
mengeludh
mengleudh
mengleudhya
mengleudhyes
mengleudhyow
mengleudhys
menhes
menhesen
menhesennek
menhesennow
menhir
menocchio
menorah
menowgh
menowghedh
menowghedhyow
menoyl
mens
mente
mentena
mentenys
mentons
menweyth
menya
menydh
menydhyek
menydhyow
menyn
menyon
menyster
menystoryon
menystra
menystrans
menystransek
menystrek
menystrer
menystres
menystroryon
menystryas
menystrys
mer
mercator
mercedes
mercer
merckx
mercury
mergh
mergher
merher
meriasek
meridian
merk
merkadow
merkel
merkuri
merkya
merkyes
merkyewgh
merkys
merl
merlin
merlini
merlinscave
mermaid
mernans
mernansow
merry
merth
merther
merthyr
mertvogo
merwel
merwis
merwys
meryasek
meryon
mes
mesa
meskon
mesobalanus
mesokarp
mesolithek
mesopotami
mesopotamia
mesozoek
mespooth
messach
messajys
messenger
messiah
messier
mester
mestres
mestronieth
mesyow
met
meta
metaboledh
metabolek
metal
metall
metamorphoses
metelyek
meter
meth
methan
metheven
methevin
method
methodek
methodys
metol
metro
metropolis
metropolitan
metrow
metya
metyans
meur
meurgerys
meurig
meurth
meus
meusva
mewek
mewghya
mexica
mexico
meyn
meythrin
mezzo
mg
mgumi
mhair
mhairi
mhic
mhnt
mhonaidh
mi
mia
miami
mic
michael
michel
michelangelo
michelle
michigan
mick
mickey
micrographia
microscopium
mid
middendorffi
middle
middlesex
middleton
midhurst
midlands
midlothian
midnight
midway
midwinter
mie
mifflin
mighal
migorn
migornek
miguel
mika
mike
mikhail
mikkeli
mikmakek
mikronesi
mil
milan
milano
milder
mildew
mildir
mildiryow
mildrosow
mildyr
mile
miles
milieylen
milk
mill
millard
millbrae
millennium
miller
millionaire
millook
mills
milne
milton
milusiethel
milva
milvil
milvilyow
milvledhen
milvlew
milwaukee
milyon
milyonow
milyow
mimar
min
mind
mine
miner
mineral
mineralia
mines
ming
mingo
minh
minima
minimus
mining
minister
minnesota
minor
minoryta
minsk
minvlew
miocene
miquel
miquelon
mir
mira
miranda
mirer
mires
mirewgh
mirjam
mirji
miro
miroryon
mirror
mirva
mirvaow
mirys
mis
mise
miss
missing
mississippi
missoula
missouri
misyow
mit
mita
mitchell
mitchill
mitsubishi
mitys
mivil
mix
mixes
miyazaki
mk
mm
mma
mn
mo
moa
moas
mobile
mod
model
modellys
modern
modh
modrep
moel
moen
moffat
mog
moga
mogadishu
mogdell
mogdoll
mogdollow
mogh
mogha
mogheans
moghhe
moghheans
mogowyow
mohamed
mohammad
mohammed
mohandas
mohave
mohawk
mohawkek
mohr
mohriana
moi
moir
moissan
mol
moldova
moldoveanu
moldovek
moldrans
moldransow
moldroryon
moldrys
mole
molekulek
molekulen
molekulennow
molekulow
molie
molinia
mollusca
molly
moly
molybdenom
molys
mon
mona
monako
monazit
monazite
monde
monegaskek
monel
mongol
mongolek
mongoli
mongols
monorail
monotremata
monow
monroe
monrovia
mons
mont
montana
monte
montenegro
monterrey
montgomery
montour
montpelier
montre
montreal
montrose
montroulez
montserrat
montsoreau
monument
monuments
monydhieth
monyow
mool
moon
moone
moor
moore
mooring
moors
moos
mor
moraine
moral
morales
moravia
moray
morblek
mordardha
mordarow
mordaunt
morderewi
mordir
mordon
more
morek
morel
moren
morfologieth
morgan
morgannwg
morgowles
morhoghes
moritani
morlader
morladron
morlu
morlyn
morlynn
morne
morning
morocco
moroni
morow
morrep
morrew
morris
morrison
morrys
morse
morten
morthol
mortholya
mortid
mortidek
mortidys
morton
moru
morval
morviaj
morviajya
morvil
morviles
morvleydh
morvleydhes
morvugh
morvughes
morwellham
morwenna
moryon
moryow
mos
mosambik
mosander
moscow
moseley
mosk
moskito
moskitos
moskoviom
moskow
moskva
moslem
moslemyon
mosow
mosque
most
mostar
mother
motherland
mothers
motholyow
moto
motor
motown
moulerez
moulin
moune
mount
mountain
mountains
mountbatten
mouse
mousehole
movement
movie
movya
movyans
movyansow
movys
mowes
mowesi
mowysi
moy
moya
moyen
moyha
moyhagerys
moyle
moyses
mozambik
mozart
mp
mph
mps
mr
mrang
mri
mrs
ms
mt
mtland
mtv
mu
mughal
muh
muhammad
mull
muller
mulleri
mumbai
mun
munch
mundi
munich
munira
munro
munys
munysen
mupinensis
mur
murad
murchison
murder
murders
murdoch
murkowski
murphy
murray
murs
muscat
muscicapidae
muse
museum
mushroom
music
muskau
muslim
muslimyon
mussolini
must
musta
mustafa
mustakfi
mustang
mustela
mustelidae
musur
musura
musurans
musuransow
musurell
musurya
musurys
mutawakkil
mutyans
muun
muzh
muzhik
mv
mwnh
mwyn
my
mya
myanmar
myddfai
myghal
myghtern
myghternedh
myghternes
myghterneth
myghternethow
myghternses
mygyl
myhal
myhtern
myksomatosis
mylor
mylyon
mynnas
mynnav
mynnes
mynnsa
mynnys
myns
mynsek
mynsonieth
mynsow
mynydd
mynydhyow
mynysen
mynysennow
myoryon
myr
myrdhin
myrgh
myrghes
myrsinifolia
mys
mysk
myski
mysteries
mysterious
mystery
mysyow
mytern
myth
mythologiek
mythologieth
myttin
myttinweyth
n
na
naarni
nabi
nablus
nabokov
nach
nacional
nacyon
nacyonal
nadelek
nadelik
nader
naderles
nadia
nadine
nadres
nag
nagarjuna
nagh
nagha
naghas
naghys
nagonan
nagonen
nagorno
nagy
naha
nahuatl
nail
nairobi
nakazanie
name
named
names
nameur
nami
namib
namibi
namibia
namm
nammow
nammys
namna
namoy
nampa
nan
nance
nancy
naneyl
nang
nanga
nangiles
nanjing
nankarrek
nanna
nans
nansfenten
nansigolen
nansmelin
nansmornow
nansow
nant
nantes
nantucket
nanuq
naomi
naoned
napatree
naperville
napoleon
napoleonek
napoli
nara
naras
nargne
narigen
narrative
narrow
nas
nasa
nash
nashville
nasir
nasow
nasr
nassau
nasser
naswedhek
naswedhow
nasya
nasyas
nasyow
nasys
nat
natal
natalia
nathaniel
nation
national
nationalpark
nations
native
nato
natriuretik
natur
natural
nature
naturek
naturel
naturelle
naturelles
naturor
naukluft
nauru
navaho
navahoek
navahowek
navajo
naval
navarra
navassa
navel
navigation
navis
navy
naw
nawnjek
nawves
nay
nazi
nazis
nb
nc
nch
nchen
nchez
ncipe
nd
nda
ndez
ne
near
neb
nebbaz
nebes
nebonan
nebraska
nebula
nechtan
neci
necklace
ned
nedd
nederland
nedh
nee
need
needle
nef
nefe
negedhek
negesydh
negro
negys
negysydh
negysyow
nehru
neil
neill
nektar
nell
nellie
nelson
nematoda
nemo
nemotodes
nena
nenets
nennius
neo
neodymiom
neolithek
neon
nep
nepal
nepprys
neppyth
neptuniom
nerija
nero
nerth
nerthedh
nerthek
nerthow
nerven
nervennow
nervow
nervus
nes
nesa
neshas
neshe
neshevin
neskar
neskerens
nesogas
nessa
nest
net
netherton
netochka
nettles
network
neue
neumarkt
neusennow
neuvella
neuvya
nev
nevada
nevadensis
nevek
nevenoe
never
neville
nevis
nevow
nevra
nevyon
new
newark
newcastle
newly
newlyn
newman
newnham
newport
newquay
newron
newronow
newry
news
newspaper
newton
newtronow
newydd
next
neyj
neyja
neyjas
neyjer
neyjya
neyth
nezvanova
ng
ngall
nganasan
ngc
ngwlad
nh
nha
nhadau
nhat
ni
nia
niadecki
niagara
niall
nic
nica
niccolo
nicholas
nicholson
nick
nickleby
nico
nicola
nicolas
nicolaus
nida
niedersachsen
niels
nielson
niemeyer
niet
nietzsche
nigel
niger
nigeri
nigeria
night
nigra
nihon
nihonek
nihoniom
nihonium
nija
nijer
nijeri
nijerian
nikaragwa
nike
nikel
nikola
nikolai
nikolaus
nikosi
nil
nile
nilgai
nils
nilson
nimbostratus
nin
nina
nine
nino
nintendo
nintendolife
nintendomark
nintendos
niobe
niobiom
nipisat
nis
nitinol
nitrat
nitrik
nitrogen
nitrojen
nivalis
nivel
nivellin
nivelonieth
nivelyow
niver
nivera
niverans
niverir
niveronieth
niverow
niveryans
niveryow
niverys
niwl
niwlek
niwlen
niwlennow
niwmonia
nixon
nko
nkrumah
nm
nn
no
noaa
noastra
nobel
nobeliom
nobyl
nochhuaren
nochi
noddack
noel
nolwenn
noma
nominoe
non
none
nonn
nonna
noonday
noor
noord
nor
nora
nord
nordek
nordrhein
nore
norfolk
norfuk
norgagh
norgaghek
norilsk
normal
norman
normandi
normanek
normanes
normani
normanyon
norodom
norrbotten
norris
norristown
norrko
norsek
norsk
norte
north
northam
northampton
northern
northfrisek
northsaaremaacoast
northumberland
northumbria
northwest
norvys
norway
norwich
nos
nosedhek
nosow
nosweyth
nosweythyow
noswolow
not
note
noten
notenn
notennow
noter
notes
noth
nothing
notoc
nottingham
nottinghamshire
notyes
notyewgh
notys
nouakchott
nouvelle
nov
nova
novaehollandiae
novel
novello
novelow
novelydh
novelys
november
novo
now
nowedga
nowell
noweth
nown
nownek
nownsegves
nowodhow
nowydh
nowyjya
nowyth
nowyttha
noy
noz
np
ns
nsson
nta
nu
nuclear
nueva
nui
nuklerek
nuklesen
nukleyek
nukleyotid
number
numbers
nunaat
nunatakow
nunavut
nuncius
nuremberg
nutt
nuuk
nw
ny
nya
nye
nyes
nymf
nymph
nyn
nynj
nynorsk
nyns
nys
nyth
nyver
nyveryans
nywtron
nywtrons
nzd
o
oa
oak
oakland
oakwood
oatham
oawers
obama
obaya
obe
ober
oberans
oberansow
oberas
oberen
oberenn
oberennow
oberer
obereth
oberi
oberor
oberoryon
oberow
oberwas
obery
oberyans
oberyansow
oberyow
oberys
obitateli
obituary
object
objeta
oblast
oblongifolia
obma
observations
obtusifolius
oc
ocasio
occupied
ocean
octavian
october
od
odhom
odobenus
odorata
odyssey
oer
oerwyns
oes
oesow
oestradiol
of
oferennow
off
office
official
offis
offra
offycer
ofis
og
ogam
oganessian
oganesson
ogas
ogassa
ogasti
ogasty
ogatti
oghail
ogham
oghen
oglala
ogledh
ogof
ogv
ogwr
oh
ohio
oil
ois
ojibwe
ok
okavango
okehampton
okinawa
okkludys
oklahoma
oksana
oksid
oksidow
oksidys
oksitanek
oksitani
oksyjen
oksytocin
okupys
ol
olaf
olav
old
oldenburg
ole
olegydh
oleoides
oles
olew
olifans
olifanses
oligocen
oliv
oliveira
oliver
olivia
olivin
oll
ollas
olldhebroryon
olldhebrus
ollgalloesek
ollgemmyn
ollvys
ollvysel
ollvyselheans
olow
olympek
om
oman
omar
omari
omberthi
omberthys
ombortrayans
ombrederir
ombroforyon
ombrofya
ombrofyans
ombrofyas
ombrofyer
ombrofyores
ombrofyoryon
omdava
omdenna
omdennans
omdennas
omdennys
omdeudhys
omdhalgh
omdhalghow
omdhegyans
omdhesedh
omdhidhemedhis
omdhifres
omdhiskwa
omdhiskwedh
omdhiskwedhas
omdhiskwedhes
omdhiskwedhyans
omdhisodhas
omdhoen
omdhon
omdhoon
omdowl
omdowler
omdreylya
ome
omega
omgemeryans
omgemeryansek
omglewans
omglewansow
omglewes
omguntel
omguntellyans
omherdhyans
omherdhyansow
omhevel
omjunnyas
omjunya
omjunyans
omjunyas
omladh
omladha
omladhans
omladhansow
omladhas
omledhys
omlesa
omlesans
omma
omoberi
omres
omrewl
omrewlya
omrewlys
omri
omrians
oms
omsav
omsettya
omsettyans
omsettyansow
omsettyas
omsevel
omsevis
omsidhlans
omsugnys
omul
omvet
omvetyas
omvewskrif
omviskys
omvyskys
omwitha
omwodhvos
omwolghi
on
onan
once
one
onen
ones
onest
online
only
onofre
onondaga
onourek
ons
ontario
onyon
oo
oodhva
ool
oor
oos
op
ope
opec
open
opera
ophiuchus
opie
opisthocomus
optek
optykal
or
orang
orange
orangutan
oranje
oratri
orca
orchesella
orchestra
ordenans
ordenas
ordenys
order
ordinale
ordinalia
ordnance
ordowek
ordyr
oregon
oregonensis
ores
org
organ
organedh
organedhow
organek
organelles
organization
organow
orgh
orgraf
oriant
oriel
orient
orientalis
orientation
original
origo
orkestra
orkney
orlando
orle
orleans
orlen
orlewen
orme
ornatus
ornithischia
ornithischians
oro
ors
orsav
orsay
orsedd
orsedh
orses
orsigow
orsik
orta
orth
ortho
orthodoks
orthopedek
orto
orwell
oryens
oryon
os
osborne
oscar
oskorblennye
oslo
osmaniye
osmiom
osos
osow
osram
ossety
ossetyon
ossoff
ost
ostel
ostell
ostelyow
osteolaemus
ostes
ostralasi
ostralek
ostrali
ostralians
ostrek
ostri
ostrian
ostrians
ostriek
ostronesek
ostya
ostyans
ostyas
ostyes
ostys
ostysi
oswald
osweyth
othello
other
otta
ottawa
otter
otto
ottoman
ottomans
ottomma
ouagadougou
ouers
ouganda
oula
oulu
ouns
our
ouralek
ouran
ourdou
ourweder
ouryow
ousbek
ousbekistan
out
outer
outlying
outre
outwash
ov
ova
oval
over
overcu
overseas
ovid
ovis
ow
owain
owdav
owen
owl
own
ownekhe
owr
owraval
owravalow
owrek
owrgeun
owrlin
owsyl
owsylen
owth
oxbow
oxford
oy
oygel
oyl
oyow
oysk
oz
ozon
ozone
p
pa
pab
pablo
pabow
pacific
pacifica
packet
padarn
paddick
paddington
padel
padell
padellow
pader
padern
paderow
padstow
pagan
paganieth
page
pages
pagoda
pagos
paine
painted
painting
paisley
paix
pajar
pakistan
pakistanek
palace
paladiom
palaeontologydhyon
palanga
palas
palau
pale
paleogene
paleolithek
paleozoek
palermo
palestayn
palestaynek
palesteyn
palestin
palestine
palestinek
palestinian
palestinyadesow
palestinysi
palestrina
pali
paliwelsen
pallas
palm
palme
palmer
palmwydh
palmyra
palores
paloresow
pals
palsi
palster
palustris
palys
pan
pana
panama
panchali
pancras
panda
pandas
pandava
pandr
pandra
panel
panellow
paneve
panjabi
pankeltek
pankreas
pannweyth
panorama
panoramio
pans
pansow
pant
pantanal
panther
panthera
panyer
paol
paolozzi
papa
papanjay
papaya
paper
papers
paperyow
papoua
papynjay
papynjays
papyrus
par
para
paracetamol
parade
paradhis
paradise
paragway
paralympek
paramore
parana
parasite
paraskosek
parbat
parc
pareusi
pareusys
paris
parish
parishes
park
parkeisenbahn
parker
parkinson
parkow
parkrun
parks
parkya
parlement
parliament
parliamentary
parnall
parow
parque
parson
parsons
part
partement
partements
parth
parthenon
parthow
parti
partiow
parton
party
parya
parys
pas
pasadena
pasargadae
pascal
pascoe
pascon
pasha
pask
paso
pass
passio
passya
passyes
passyon
passys
past
pastel
pastell
pastellow
pasteur
pasti
pastiow
pastis
pasture
pat
patagoni
patagonia
patalyas
patch
pate
patel
patent
path
pather
patient
patria
patricia
patrick
patrol
patron
patronyow
patronys
patterned
pau
paul
paula
paulo
pauropoda
pauropus
pavement
pavilion
paw
pawl
pawniensis
pax
payn
payne
paynt
paynter
payntyes
paynys
payon
pays
payton
paz
pb
pbs
pc
pd
pdf
pe
peace
peach
peacock
peahoone
peak
peake
pearce
pearse
pearson
pebys
pecar
pedeir
peder
pedera
pederburg
pedergweyth
pediculus
pedn
pedncita
pednmenyster
pednventen
pednventydnyow
pednvounder
pednvownder
pedrek
pedresyfes
pedrevan
pedrevanes
pedri
pedro
peduncularis
peel
peeps
pegasus
peggy
pegh
pegler
pejadow
pejar
pel
pelder
peldrosyer
pelek
pelikan
pelikanes
pell
pella
pellder
pelldroes
pelle
pellenigow
pellgowser
pellheansow
pellweler
pellweller
pellweloryow
pellwologow
pellwolok
pelosi
pelour
pelvis
pelyek
pelyow
pemon
pemp
pen
penarla
penarth
penbryn
pence
pencyta
pendarvis
pender
pendleton
penelope
penfro
pengelly
pengilly
penh
penicuik
peninsula
penkostel
penlee
penmaenmawr
penn
pennaghel
pennant
pennarth
pennbloodh
penncita
penncitys
penndinas
penndra
pennduen
penneghlek
penneglos
penneglosyow
pennfenten
pennfentenyow
pennfentynnyow
pennfentynyow
pennfeynten
pennhembrenkyas
pennine
pennines
pennlegh
pennlinen
pennmarian
pennmenyster
pennmynyster
pennow
pennplas
pennrewl
pennrewlys
pennriv
pennrynn
pennsans
pennser
pennseri
pennserneth
pennsernethek
pennsernethel
pennsevigyon
pennsevik
pennseythen
pennsita
pennsitys
pennskol
pennskolyow
pennskrifer
pennskrifys
pennsylvani
pennsylvania
pennsylvaynek
penntern
pennternasedh
penntir
penntorr
pennvenyster
pennvenystres
pennvrewyon
pennvro
pennwari
pennwydh
penny
penrhyn
penrhyndeudraeth
penrith
penrose
penryn
penrynn
pensans
penscol
pensernieth
pentewan
penthie
pentir
pentorr
pentre
pentreath
penwith
penwyth
penzance
people
peoria
pep
pepin
pepo
pepper
peppercarrot
peptid
per
peran
peranarwodhel
percy
perdue
pere
peregrinus
perenne
performance
performans
performya
performyans
performyoryon
performys
perfydh
pergamon
perghen
perghenegi
perghenn
perghennegi
perghennegoryon
perghennek
perghennow
perghennys
perghenogeth
pergherinses
pergherinyow
perhen
period
periodek
peris
perlys
permafrost
permek
perou
perouanek
perran
perrins
perry
persek
persekutyans
perseus
persi
persian
persil
person
personal
personek
personel
personoleth
perspective
perth
perthi
perthir
perthyans
perthyer
perthygel
perthyglow
perthynek
perthynekter
perthynyans
perthynyansow
perthys
peru
pervedh
pervedhek
peryl
peryll
peryllow
peryllus
peryllyow
peryllys
pes
pesawr
pescador
pesk
peskecha
peski
peso
peswar
peswara
peswardhegves
peswardhek
peswera
peswora
pesya
pet
petchey
pete
peter
peth
petraea
petrek
petroc
petrockstow
petrok
petrol
petronius
petrus
peul
peulyow
peuns
peuple
peur
peuri
peurva
pewa
pewas
pewasow
pewek
pezh
pf
pfalz
pg
ph
phage
phd
phe
phil
philadelphia
philip
philippe
philippine
philips
phillimore
phillips
philosophy
phleum
phnom
phoenicopterus
phoenix
photo
photograph
php
phu
phyla
phylologyl
phylum
physics
pi
pia
piano
pianydh
pianydhes
piazza
pibell
piben
pibennow
pibow
pibydh
picasso
picchu
pickering
pickwick
pictor
pictoris
picture
pie
piece
piedmont
piedra
piemonte
pienine
pieranus
pierce
pierre
pieta
pieter
pietro
pieva
pig
pigeon
pigern
pigorn
pigornek
pik
pike
piktek
piktyon
pil
pilgrim
pin
pindar
pine
ping
pinyin
pioneer
piper
pipers
pipettes
piran
pis
pisa
pisanosaurus
piscator
pisces
piscis
pisco
pisko
piso
pit
pitcairn
pitchblende
pitkern
pitons
pitt
pittsburgh
piw
piwas
piwek
pkc
pl
pla
place
placenta
places
plaid
plain
plaladhoryon
plan
plancius
planck
planet
planetary
planetigow
planetik
planetow
planets
planettek
planettys
planetys
plankton
planning
plans
plansa
plansow
plant
plantagene
plaque
plas
plasen
plasenn
plasennow
plasennskrif
plasenskrif
plasma
plassow
plastek
plastic
plastogow
plat
plata
plate
platek
platform
platinom
platinum
plato
platonek
platonieth
platt
plattys
platya
platyhelminthes
platyow
platys
play
player
playing
plays
playstation
playstations
playtime
plaza
ple
pleasant
please
pleasence
pleg
plegya
plegys
pleiades
pleiku
pleistocen
pleistocene
plen
plenipes
plenys
plesour
plethys
pleustri
pleustry
plew
pliny
pliocen
plionarctos
plisk
plitys
plo
plobm
plome
plomm
plommwedhek
plongeon
plontyans
plot
plotarea
plotdata
plott
plottys
plouton
ploutonek
plu
plunge
plus
plustri
plustry
pluto
pluton
plutoniom
pluv
pluvek
pluven
pluvennek
pluvennow
pluw
pluwow
pluwwenep
pluwyow
plymouth
plynchya
plyw
pm
png
po
poaceae
pob
pobas
pobel
pobelniverans
poblans
poblansow
poblegeth
poblek
poblow
poblys
pobys
pocahontas
pocket
pockethttp
pockya
pockys
pod
poder
podolsk
podpolya
podrostok
podrys
podsol
podyn
poe
poem
poems
poes
poesek
poesekka
poet
poetry
point
poirot
poke
poken
poker
pol
polakesow
polakyon
polar
polaris
poldark
police
polici
policiow
policis
polig
polikarpov
polio
polisi
politeger
politegieth
politegores
politegoryon
politek
politician
politics
politiger
politigieth
polje
polk
polka
poll
pollard
pollow
polo
polonek
poloni
poloniom
polonium
pols
polsya
polsyes
polter
poly
polyester
polylepis
polymer
polymorpha
polynesek
polynesi
polyp
polyphemus
polypow
polytechnic
polzunkov
pompey
pompya
pompyes
pompyon
pompyons
pompyow
pond
pone
pong
ponn
ponnegieth
ponnegyans
pons
ponsfordh
ponsmeur
ponsow
ponsrys
ponsyow
pont
pontcysyllte
ponte
pontica
ponto
pontypridd
pony
ponya
ponyans
ponyas
pool
poole
poos
poosa
pooth
poothha
pop
pops
popstars
popular
population
por
poran
porcellio
pori
porpas
porpos
porposys
porres
pors
porsogyon
port
portal
porter
porth
porthbud
porthbyghan
porthenys
porthia
porthkovrek
porthkragen
porthmadog
porthmadok
porthmeur
porthow
porthperan
porthpyra
porthpyran
porthreptor
porthtreth
porthva
porthvaow
porthwikkel
porthynys
porthys
porthysek
portland
porto
portrait
portrayans
portrayansow
portsmouth
portyngal
portyngalek
porvoo
pos
posedhek
posek
posekka
poslev
posleva
posna
posow
possa
posse
possybl
possybyl
possybylta
possybyltas
post
poster
pot
potash
potassiom
potemkin
potencyal
potomac
potsdam
pott
potter
pottery
pottsville
pow
powder
powdir
powek
powell
power
powers
powerys
powes
powl
pows
powyow
powys
poynt
poyntow
poyntyow
poyntys
poz
pp
ppen
ppp
ppu
pr
pra
pradesh
prag
prague
praha
praktis
praktisya
praktisyow
pras
praseodymiom
prasow
pratchett
pratense
pratensis
pratt
prayagraj
praze
pre
predennek
predennik
preder
prederi
prederir
prederow
prederydh
prederys
pregoth
pregothow
pregowtha
pregowther
prejudice
premier
pren
prena
prenas
prener
prenn
prennek
prennyer
prenoryon
prens
prenys
preparing
presbyterian
presbyterians
preseli
presens
present
presents
presentya
presentyansow
presentyas
presep
preserved
president
presidential
presley
press
prest
preston
prestuplenie
presydent
pretennek
pretoria
preves
previ
previans
prevyans
prevyansow
prevyon
prevys
preydh
preydhoryon
preydhyer
preydhyoryon
pri
price
pride
prideaux
pries
priest
priestley
prifysgol
primaevus
primates
primatologist
primatys
prime
prince
princes
princess
princeton
principle
principles
prins
printed
priorji
priosoleth
pris
prishtina
prisner
prisners
prisnoryon
prison
prisoner
prisonys
pristinus
prisyow
priti
pritzker
privedh
privedhheans
privedhyow
priweyth
priweythor
priweythva
priweythvaow
prix
prize
pro
problem
problemys
process
production
productions
prof
professor
professores
profet
profil
profile
profoes
profos
profya
profyans
profyes
profys
progesteron
program
progre
progress
progresso
project
projekt
prokaryotes
prokharchin
prolactin
prolaktin
prometheus
promethiom
promise
promovya
pronter
pronteryon
pronunciation
propaganda
proper
proquest
prose
prosperity
protaktiniom
protea
protection
protestans
protestant
protestya
protestyans
protestyansow
protin
protinyow
protista
proto
protobalanus
protokol
protolith
proton
protonow
protostomes
protozoa
protura
proud
prov
provia
provians
proviansow
providence
provinces
provisional
proviys
provo
provow
prow
proxima
prozeß
pruinosus
prunus
prussek
prussi
pry
pryce
pryderi
prydydh
prydydhes
prydydhesow
prydydhieth
prydydhyon
prymat
prymatys
pryns
prynses
prynseth
prynt
pryntya
pryntys
pryor
prys
prysk
prysken
pryskyn
pryskynn
prysyow
pryv
ps
psalm
psd
pt
pteronura
pterosaurs
pthirus
ptolemy
pu
pua
pub
pubdedhyek
pubdydhyek
puber
pubis
public
publications
publique
published
publishers
publishing
publius
pubonan
pubvledhynnyek
pudong
pudyn
pueblo
puerto
puffing
puigdemont
pula
pull
pulp
pumila
pumys
pune
pungens
punk
pup
puppis
pupprys
puptra
pur
purbeck
purhe
purieth
purism
purple
purpur
purt
purva
pushkin
puskes
put
putin
putnam
pvc
pwyll
px
py
pyba
pych
pyffyer
pyffyers
pygemmys
pygmaea
pygvoon
pyldyas
pym
pymp
pympes
pympves
pymthegves
pymthek
pyn
pynag
pynaklys
pynakyl
pyncel
pynchya
pyngo
pynn
pyongyang
pyotr
pypynag
pyramid
pyramidow
pyran
pyrenaica
pyreneek
pyreniow
pyroksen
pyrolusit
pyrrhocorax
pys
pysadow
pysgod
pysi
pysk
pyskador
pyskadoryon
pyskek
pyskessa
pyth
pythagoras
pythagorean
pythagoreans
pythow
pytt
pywa
pywys
pyxidis
pyxis
q
qa
qadi
qaidam
qaqortoq
qatayef
qi
qian
qin
qing
qinghai
qinling
qinlingensis
qu
quair
quaker
quantum
quarries
quarry
quarter
quartet
quay
quds
que
quebec
quechua
queen
queensland
quentin
quercus
quetzaltenango
qui
quiller
quimper
quintana
quintet
quixote
quo
quoc
qur
qureshi
qwertha
qwil
r
ra
raad
rabbit
rabindranath
rac
race
rach
rachel
racine
racing
radar
radcliffe
radel
radhva
radhyas
radio
radiocentras
radiom
radium
radius
radn
radnvro
radon
radulphus
radyo
radyoweythres
radyoweythresans
radyoweythresek
radywoweythresek
rae
rafael
rag
ragadazow
ragavon
ragavonow
ragdha
ragdho
ragdres
ragdresow
rager
raglev
ragleva
raglevow
ragon
ragresek
ragresor
ragresoryon
ragresydh
ragrewlivel
ragthans
ragwagren
ragwir
rail
railway
railways
rain
rainbow
raj
rajasthan
rajiv
rak
rakhenna
rakounes
ral
raleigh
ralph
ram
rama
ramadan
ramallah
ramasek
ramayana
ramer
ramon
rams
ramsay
ramsey
ran
rancho
rand
randir
randiryow
rang
range
ranges
ranh
rann
ranna
rannans
rannas
ranndir
ranndirow
ranndiryel
ranndiryow
ranndrevow
rannel
rannes
ranneves
rannevesow
ranngylgh
rannjiow
rannow
rannrivek
rannvro
rannvroyow
rannyeth
rannyethow
ransome
ranthambore
ranvro
ranvroyow
raoul
rapa
raphael
rapid
rapids
rapla
ras
rasha
rashid
rashida
rashidun
rasmus
rasmussen
rastafari
rastafarieth
rastellys
ratgoos
rath
rathaus
rathes
rau
rauma
rauza
ravedh
ravel
raven
ravenglass
ravenna
ravi
ravyans
raw
rawe
ray
rayleigh
raymond
rayner
raynya
rda
re
read
reader
reading
reagan
real
realeth
reason
reb
rebecca
rebel
rebellyans
rebellyansow
rebellysi
rebels
rebro
recev
receva
recevas
recevys
record
recording
recordings
records
recordyes
red
redcliffe
reden
redir
redones
redruth
redya
redyas
redyer
redyoryon
redys
reef
rees
reeves
referendum
reflection
reg
regan
reggae
regia
reginald
regio
region
regions
regis
register
regolith
regum
reich
reichsbahn
reiter
rejyment
rek
reka
rekna
reknans
reknansow
reknell
reknys
rekord
rekordow
rekordya
rekordyans
rekordyansow
rekordyas
rekordyes
rekordys
rekys
relaksin
release
released
relics
relyjyon
relyjyons
remaynya
remaynyas
remedia
remember
remenans
remenant
remix
remixes
remnant
remova
removans
removas
removing
removya
removyas
removyes
removys
remuvya
ren
renaissance
rene
reniom
renk
renkas
renkasow
renkir
renkys
renner
rennes
rennys
reno
rent
rentow
renzo
rep
replika
repoblegow
repoblek
repoblicanek
repoblikanek
repobloger
report
reports
represent
representya
representyas
representys
republic
republican
republik
republika
republyk
requiem
rer
res
resas
rescorla
research
resegas
resegow
resegva
resegvaow
resek
resekva
resigns
resin
resna
resnel
resoghen
reson
resource
resrudh
reste
rester
restoryta
restra
restrans
restras
restren
restrer
restrongos
restrynnow
restrys
result
results
resurrectio
resurrexio
reswynn
resyas
retallack
reticulum
retiens
reto
retrieved
retro
retrospective
return
reun
reunes
reunwelsen
reunyon
rev
revani
revealed
revedh
revenge
review
revival
revolution
revoy
revrond
revrons
revue
rew
rewenys
rewenysek
rewenysyadesow
rewi
rewl
rewliv
rewlivans
rewlivansow
rewlivek
rewlivel
rewlivieth
rewlivow
rewlivys
rewloryon
rewlya
rewlyans
rewlyansow
rewlyas
rewlyer
rewlyoryon
rewlys
rewlysi
rewtinyow
rewtinyowven
rewyow
rewys
rex
reydh
reydhek
reydhel
reydholeth
reydhow
reydhyel
reyes
reykjavi
reyn
reynolds
reynya
reynyas
reynys
reyth
reythyansel
reythyansva
reythyow
rf
rg
rgen
rh
rhea
rhead
rheas
rhedeg
rheilffordd
rhein
rheinland
rhiannon
rhine
rhinoceros
rhisiart
rhiwabon
rho
rhode
rhodes
rhodesia
rhoghas
rhondda
rhone
rhos
rhosgadfan
rhosllannerchrugog
rhyd
rhyl
rhyolit
rhys
rhythm
ri
ria
rial
rian
ribosomow
rica
ricardo
rich
richard
richards
richardson
richmond
richter
rick
rico
rider
ridge
ridgway
riedones
riek
riel
rielder
rielydhyon
rigg
right
rights
rika
riken
rim
rimmer
rimyow
ring
rings
rinsey
rio
rioja
riou
rip
ris
rise
rishi
riv
rivale
rivell
river
rivera
rivers
riverside
riwaq
rizmi
rjo
rjuna
rjunakon
rk
rm
rmland
rms
rn
rngs
rnin
rnu
ro
road
roald
roas
roasek
roazhon
roazon
rob
robbie
robert
roberto
roberts
robin
robinson
robot
robur
rochdale
roche
rochester
rock
rockefeller
rockford
rocks
rod
roderick
rodham
rodiom
rodri
roen
roentgeniom
roger
rogers
rogerson
rohan
rohow
roi
rok
rokk
rol
roland
roll
rolling
rolya
rolyans
rolyas
rolyi
rolyow
rolys
rom
roma
roman
romana
romanas
romance
romanek
romanekhes
romanes
romani
romaniek
romans
romansek
romanser
romansigow
romansik
romansores
romansow
romansydh
romanyon
rome
romek
romeo
romney
rompuy
roms
ron
ronald
ronaldsway
ronan
rond
ronnedh
rood
roos
roosevelt
roparz
roquet
roraima
rory
ros
rosa
rosaceae
roscoe
rose
roseau
rosellans
rosellys
rosen
rosena
rosko
roskomik
roskymmer
rosmarus
rosow
ross
rossellini
rossetti
rostella
rosteller
rostorrmoel
rosva
rosvaow
rosweyth
rosweythow
rosweythyow
rothko
rothow
roubel
roue
rouge
rough
roumanek
roumani
roumantsh
round
rousseau
route
routh
routledge
routya
rovaniemi
row
rowan
rowe
rowedh
rowena
roweth
rowland
roy
royal
royow
rquez
rr
rs
rshavn
rsti
rt
rtas
ru
ruaidh
ruairi
rub
rubaiyat
rubidiom
rubidium
rubin
rubio
rubra
ruby
rudh
rudhek
rudhem
rudhlas
rudhvelyn
rudhwyn
rudhwynn
rudolf
rudyard
rue
rug
rugbi
rugby
rugosa
ruins
ruiz
rule
rumex
rumon
run
runoff
runrig
runyow
rupee
rupert
rus
rusek
rushanara
rushen
rusk
rusken
russek
russel
russell
russi
russia
russian
russianesow
russians
russy
ruston
ruth
rutheniom
rutherford
rutherfordiom
rutil
rutland
ruttya
rutya
rutyans
ruvanes
ruvaneth
ruw
ruwvaneth
ruz
rv
rva
rvenpa
rwanda
rxzf
ry
ryal
ryan
ryb
rybdha
ryccha
rych
rychedh
rychys
ryddya
rydh
rydhhas
rydhses
rydhsys
rye
rygdhi
rymacdonald
ryn
rynn
rynnys
rynsy
rys
ryskammel
ryskarasek
ryslegh
rysoghen
rysrudh
ryu
ryw
rywvaneth
rywyow
s
sa
saale
saami
saare
sab
sabah
saben
saboth
sachsen
sacrament
sad
saddam
sadler
sadleriana
sadorn
sadow
saesneg
saffir
safron
saga
sagan
sagh
saghow
sagitta
sagittae
sagittarius
sagraeana
sahara
said
sailor
sain
saint
saints
sakrys
saksonek
sal
salaam
salad
saladin
salah
salam
salamanca
salamon
sale
salem
salicaceae
salicina
salisbury
salix
sall
sallek
sally
salmontanus
salmow
salo
salome
salow
salowder
salt
saltash
saltstraumen
salvador
sam
samariom
samarkand
samarskit
samba
sambi
samhna
sami
samoa
samos
samoyedek
sampel
sampford
samplow
sampson
samrat
samson
samuel
samzun
san
sana
sanandreas
sancte
sancti
sanctus
sand
sandercock
sanders
sands
sandwich
sandy
sandys
sanikiluaq
sankshyon
sans
sansel
sanses
sanskrit
sanskrytek
sant
santa
santiago
santo
santon
sanz
sao
saoudek
sapiens
sapmi
sappho
saqqaq
sar
sara
sarah
sardayn
sardaynek
sardou
sarf
sarfven
sargon
sarkofagus
sarkozy
sarsen
sartre
sarum
saskatchewan
saskhori
satellite
satellites
satnas
saturnalia
satyricon
saud
saunders
saurischia
saurischians
sauropodomorpha
sauropodomorphs
sauropods
sausage
sav
savanna
savannah
savannas
save
saven
savla
savlaow
savle
savleow
savon
savonek
savonel
savonow
saw
sawder
sawen
sawor
sawsnek
sawya
sawyas
sawyes
saxe
sb
sc
scaber
scafell
scaffa
scalemajor
scaleminor
scaliger
scamp
scarecrow
scarlet
scarp
scawen
sce
scenic
schatz
scheele
schelling
schenectady
schiller
schlema
schleswig
schliemann
schneideri
scholar
school
schools
schopenhauer
schro
schu
schubert
schumann
schumer
schuylkill
schwa
sci
science
scilly
scodhya
scol
scolopendra
scon
scone
scoren
scorpio
scorpius
scotch
scotland
scots
scott
scottish
scranton
scream
screenwriter
screfa
screforyon
screfys
scrifys
scrin
scripta
scrofa
sculptor
sculptoris
sculpture
scutigerella
scutum
scyens
sd
sda
se
sea
seaborg
seaborgiom
sealand
sean
search
seas
season
seasons
seat
seaton
seattle
seaweed
sebald
sebastian
sebon
second
secret
secretary
secrets
section
sed
sedh
sedha
sedhas
sedher
sedhi
sedhoryon
sedhys
sedna
see
seen
sefania
sefstro
sega
segh
seghi
seghter
seghys
segi
segovia
segre
seif
sein
seina
sek
sekiryo
sekond
sel
selassie
selected
seleniom
selevan
seleven
self
selkup
selo
selreth
selsik
selva
selvarian
selvenek
selvenel
selvennek
selvennel
selwys
selya
selyans
selyas
selyek
selyer
selyes
selyow
selys
seminar
semitek
semlans
semlant
semolina
sempel
sempelhes
sen
senan
senar
senate
senator
senedh
senedhek
senedhoryon
senedhow
senegal
seneth
sengel
senglow
seni
senj
senjy
sens
sense
sensell
sensellow
sensy
sensys
sentinel
seny
seoul
sept
september
ser
seracs
serbak
serbek
serbi
serby
serdze
serena
serengeti
serf
serge
sergei
sergeyevich
serghek
serhek
seri
series
serjont
serotina
serpens
serpentarius
serpentis
serr
serri
serrys
sertan
serth
serv
servadow
servas
servet
serveto
service
servis
servisyow
servya
servyas
servyes
servys
servysi
seskwioksidow
seson
sesonek
sesons
sesriem
session
sesya
sesyans
sesyas
sesyes
sesys
set
seth
setha
sether
sethor
sethoryon
sethow
setswana
sett
settow
settya
settyes
settys
seul
seulabrys
seuladhydh
sev
sevel
seven
severn
severyan
sevi
sevilla
sevis
sevur
sevureth
sevys
sew
sewen
sewena
sewenas
seweni
sewenis
sewenna
sewennas
sewennus
sewenus
sewt
sewya
sewyans
sewyansow
sewyas
sewyes
sewys
sex
sextans
sextet
seychellys
seyf
seyfert
seymour
seynt
seytegves
seytek
seyth
seythen
seythennow
seythennyow
seythun
seythves
seythyn
sez
sfinks
sg
sgu
sgurr
sh
sha
shaanxi
shad
shade
shadow
shaft
shafta
shaftys
shah
shahab
shahnama
shahnameh
shakespeare
shall
shampoo
shams
shan
shandong
shanghai
shaoqi
shap
shape
shaped
shapley
shapow
shapya
shapys
sharice
sharif
shark
sharon
sharp
shaun
shaw
shche
she
sheasta
sheep
sheet
sheffield
shehada
sheikh
shelby
shelf
shelley
shenandoah
shenzhen
sheppard
sheqel
sherlock
sherwood
sheryll
shetland
shi
shia
shift
shih
shikanojo
shilling
shin
shinto
ship
shipham
shiraz
shirley
shist
shistow
shiva
sho
shodo
shop
shoppa
shoppys
shora
short
shorter
show
shri
shropshire
shttp
shu
shuntya
shyndya
shyndyans
shyndyas
shyndys
si
sia
siabod
siberi
siberia
siberya
sichuan
side
sidhel
sidhla
sidi
sidiow
sidney
sie
sieboldii
siege
sierra
sigma
sigmund
sign
sigurd
sigurdsson
siinen
sikheth
sil
silas
silika
silikat
silikon
silurek
silva
silver
silvester
sim
sima
simba
simbabwe
simes
simk
simon
simone
simonledingham
simpson
sims
simus
sin
sina
sinai
sinan
sinans
sinas
since
sinclair
sindhi
sindhu
sinell
sinellow
sinema
sing
singapore
singapour
singapura
single
singles
sinn
sinuata
sinya
sinyas
sinys
sio
sion
siouek
sioux
siprage
sir
sirenia
sisili
sisimiut
sisserow
sister
sisters
sita
site
sites
sitges
sithas
sitophilus
sitys
sivalensis
sivil
siwyans
six
sj
sjo
sjr
sjælland
sk
ska
skaffa
skala
skandinavek
skandinavi
skandiom
skans
skant
skantlyn
skantlyns
skapya
skaraw
skateboarding
skateboards
skath
skathow
skav
skavder
skavel
skavellow
skaw
skawen
skeaping
skeiðara
skeleton
skenna
skennys
skentel
skentoleth
skesya
sketch
sketh
skethen
skeul
skeus
skeusek
skeusen
skeusenieth
skeusenn
skeusenna
skeusennek
skeusenner
skeusennik
skeusennow
skeusow
skevens
skewwyns
skia
skians
skiansek
skien
skiens
skiensek
skiensel
skiensow
skiensydhyon
skifennyas
skila
skilandis
skilys
skin
skit
skitvil
skitviles
skityans
skjaldbreiður
sko
skodhyoryon
skoedh
skoedhya
skoedhyans
skoedhyoryon
skol
skolaj
skoler
skolheygel
skolheygyon
skolheyk
skoll
skollya
skollyon
skolorieth
skoloryeth
skoloryon
skolyow
skommow
skon
skonna
skonya
skonyas
skoodh
skoodhya
skoodhyans
skoodhyas
skoodhyer
skoodhyes
skoodhyoryon
skoodhys
skoos
skopje
skor
skoren
skorenn
skorennow
skorpyon
skorpyones
skorr
skorren
skorrenn
skorrennow
skorrow
skorya
skoryas
skoryer
skosek
skots
skovarn
skovarnek
skovarnogyon
skovarnow
skovva
skowl
skrappyes
skravinansow
skravinas
skridou
skrif
skrifa
skrifans
skrifansow
skrifas
skrifedh
skrifedhow
skrifen
skrifenn
skrifennow
skrifennyas
skrifenyades
skrifenyas
skrifenysi
skrifer
skrifir
skrifor
skrifores
skriforesow
skriforyon
skrifow
skrifwas
skrifyas
skrifys
skriilt
skrij
skrin
skrinskrifer
skrisel
skrisellow
skrivedh
skrivedhow
skryptor
skryptors
skudel
skudellow
skullyon
skvernyj
skwardya
skwattya
skwattys
skwier
skwir
skwirys
skwith
skwychyas
skwychys
sky
skycenter
skye
skyla
skyline
skyll
skyrmya
slaboe
slate
slavek
slavonek
sleep
sleeping
sleyghneth
sleyneth
sligachan
slovakek
slovaki
slovenek
sloveni
slovenia
sly
slynk
slynkya
sm
small
smart
smat
smelter
smeshnogo
smetana
smilodon
smith
smithson
smokers
sn
snaefell
snag
snell
snella
snes
sng
snod
snow
snowbird
snowdon
snyder
so
sobieski
social
socialist
society
sociolinguistics
socrates
socyal
socyalydh
socyalydhek
socyalydhyon
socyologieth
socyologydh
soda
soderick
sodh
sodha
sodhas
sodhek
sodhogel
sodhogeth
sodhogyon
sodhow
sodhva
sodhvaow
sodiom
sodon
sodones
sodron
soedh
soedhek
soedhogel
soedhva
soedhvaow
soffra
soffras
sofia
sognefjord
sojeta
sojetus
solabry
solar
soled
soledow
soleil
solempen
solempnita
solempnitys
solempnya
solempnyans
solempnyansow
solempnys
solempnytys
soler
solo
solomon
solpyter
sols
somalek
somali
somatostatin
sombrero
some
somerset
somm
somma
sommen
sommenn
somov
son
sonata
sonderburg
sonenn
song
songs
sonlergh
sonora
sons
sonskrifa
sony
sonyow
soodh
soper
sophia
sophie
sopposyes
sopposys
sorbek
sordyans
sordyas
soret
sorr
sorras
sort
sortes
sortow
sorø
sos
sosialistek
sossusvlei
sosten
sosyalieth
sosyel
soth
sotho
sothwest
sou
soudan
souder
soudor
soudoryon
soul
souls
sound
soup
source
sous
sousa
south
southampton
southaven
southcaradon
southern
southwark
southwest
soviet
sovietek
sovran
sovranedh
sovyet
sovyetek
sowdhan
sowen
sowena
sowl
sownek
sownsek
sows
sowsesow
sowsnak
sowsnegoryon
sowsnek
sowsnekheans
sowson
soya
sp
spa
space
spain
spanyow
spark
sparnick
spas
spayn
spaynek
spaynyoryon
spe
speaks
special
species
spectre
speda
spedya
spedyas
spedys
speed
spektroskopieth
spektrum
spelaeus
spen
spena
spenas
spencer
spenys
spessly
sphinx
spica
spielberg
spinach
spinosaurus
spiral
spire
spirit
spis
spisys
spit
spitfire
spitsbergen
spladn
splan
splann
splanna
splannder
splannvraster
splatt
spoken
spondon
spong
spongow
sporow
sport
sportow
sports
sportva
sportys
spotted
spralledh
spring
springfield
springs
sprowls
sprusek
sprusen
sprusennek
spryng
spryngys
spyrys
spyrysek
spyrysyon
spys
spysow
square
squirrel
sr
sri
ss
ssa
sshttp
st
sta
stachybotrys
stadium
stadt
staffan
stafford
staffordshire
stag
stagans
stage
stagrew
stakk
stalin
stallasyon
stallys
stamford
stamp
stan
stand
standard
standfast
standing
stanhope
stankya
stanley
stap
star
starcha
stargate
starmer
starneth
starnyow
starr
starry
stars
start
stat
state
states
static
station
statistics
statow
statue
status
statydh
statys
statystek
statystygyon
stauns
staunton
staurikosaurus
ste
steam
steanchikovo
stedhyan
steel
steere
steern
stefa
stefan
stefania
steffan
stegosaurus
stein
stellata
steller
sten
stenegow
stenek
stenophylloides
stenoryon
stepanchikovo
stephan
stephanie
stephen
stephens
stephenson
steps
ster
sterborth
sterbotten
steren
stereniethek
sterenn
sterenna
sterennas
sterennek
sterennow
stergo
stergylgh
sterlester
sterling
stern
steronieth
steroniethek
steroniethel
steroniether
steronydh
steronydhyon
sterorieth
sterreich
stervarner
steuart
steus
steve
stevel
stevell
stevellow
steven
stevens
stevenson
stewart
stiaren
stif
stifegi
still
stirling
stivell
stjo
stoat
stock
stockholm
stockings
stockys
stoff
stoffow
stok
stoke
stoker
stokes
stokkys
stolonifera
stolonow
stone
stonehenge
stones
stonewall
stons
stop
stopp
stoppya
stoppyas
stoppyes
stops
stor
storey
stories
storlok
storm
storting
story
stowe
stowell
stra
strabane
strabo
stradneth
straight
strange
strangles
stranorlar
strasbourg
strasnedh
strasow
strateji
stratford
stratocumulus
stratoloskvenydh
stratoloskvenydhyow
stratton
stratus
stravinsky
straylwels
stream
street
stremlinys
strength
strepsirrhini
stret
strethur
strethurow
stretow
stretyn
striding
strif
strifwerth
strifwerthow
strike
string
striped
strokas
strokasow
strollad
stromeyer
strongbow
strontiom
stroth
strotha
strothadow
strothys
stroudsburg
structure
strus
struthio
sts
stuart
stuck
student
students
studh
studhla
studhleow
studhoryon
studhow
studhya
studhyans
studhyansow
studhyas
studhyer
studhyes
studhyor
studhyores
studhyoryon
studhyow
studhys
studies
studio
study
studyo
stull
stumma
sturgeon
stuttgart
styl
style
styr
styry
styrya
styryans
styryansow
styryas
styryes
styryow
styrys
støre
su
sua
suber
substans
sudbury
sudetenland
sudronen
sue
suella
suetonius
suez
suffolk
sugal
sugen
sugennow
sugna
sugnys
sugra
suicide
suite
sukros
sul
suleiman
sulfat
sulfatow
sulfid
sulfur
sulfurik
sullivan
sulphur
sultan
sultana
sumatera
sumatra
sume
sumer
sumerek
sumerian
summer
summers
summit
sumter
sumut
sun
sunak
sunday
sundsvall
sung
sunni
sunset
super
supernova
supplement
supposys
sur
surat
surfing
surhe
surheans
surinam
surrealydh
surrealydhieth
surrey
surri
survey
sus
susanna
susquehanna
sussex
sutherland
sutton
suzanne
suzhou
svad
svalbard
svg
sw
swab
swabia
swahilek
swahili
swallows
swati
swedek
sweden
swedesow
swedherwyk
swedys
sweet
swimming
swinson
swis
swiss
swistir
switzerland
swjr
sword
sy
sya
sydney
syed
syes
syg
syger
sygh
sylaben
sylabennow
syllaben
syllabenn
syllabennow
syllan
sylt
sylvatica
sylvester
sylvestris
symbol
symfoni
symfonis
symon
symons
symphonic
symphonie
symphony
symphyla
syncerus
syndrom
synesius
syns
synsas
synsi
synsir
synsis
synsys
synt
syntax
synthesek
synthetek
syr
syracuse
syri
syriacus
syriek
syro
syrr
syrra
sys
system
systemow
systems
syth
sythvas
syw
sywya
sywyans
sywyas
sz
t
ta
tabbouleh
tabel
table
tables
tabm
taboon
tabour
tabourer
tabours
tabouryow
tabun
tachypleus
tachypodoiulus
tacitus
tacke
taclow
tadid
taf
tag
tagalog
tagore
tai
taiga
tail
tain
taiwan
taj
tajik
tajikistan
takashi
take
taken
taking
taklen
taklenn
taklennow
taklow
taksonomek
taksonomieth
tal
taland
talbot
tale
talek
talenep
tales
talhami
talk
tallathas
talleth
tallethas
tallethvos
tallinn
talvia
talvos
talvosogeth
talvosogethow
talyllyn
talyow
talyrnau
tamar
tamer
tamil
tamilek
tamm
tampere
tamsin
tamus
tan
tanbellen
tanbellenigow
tanbellenna
tanbellennow
tanbrennyer
tanek
tang
tanganyika
tangi
tania
tank
tanow
tansania
tansugna
tantalom
tantalum
tanvonas
tanvorel
tanweyth
tanygrisiau
tanyow
tanzania
tao
taoieth
taoiseach
tapping
taran
tarantino
tarddiad
tardh
tardha
tardhans
tardhansow
tardhas
tardhell
tardhellow
tardhennow
tardhow
tardhys
tardis
tardrys
tarijense
tarmac
tarn
tarnovo
taro
tarosvan
tarosvannow
tarosys
tarow
tarr
tartan
tartessian
tarthen
tartu
tas
tasek
tasmani
tasmania
tasow
tate
tau
taunton
taurage
taurus
tav
tava
tavarn
tavas
tavasow
tavaz
tavell
tavellow
tavern
taves
tavistock
tavol
tavolen
tavosow
tavy
taw
tawel
taxi
taxus
tay
tayek
taylor
taywan
taz
tb
tc
tchaikovsky
tdn
te
tea
team
tears
tebel
technology
ted
teddy
tedhwi
tedhya
tedi
teenage
teer
teere
teg
tegea
tegeas
tegemeres
tegemmeres
tegen
tegi
tegid
tegys
tehanu
tehran
tehwelas
tehweles
tei
tek
tekka
teklinya
teknegel
teknegieth
teknegow
teknek
teknetiom
teknogel
teknologieth
teksas
tekst
tekstow
tekter
tektonek
tektonieth
tel
telegraph
telescope
telescopii
telescopium
television
telford
tell
tellek
telling
tellos
tellurium
teloriom
tels
telyn
telyu
temedhis
temigow
temmedhis
temmigow
temmik
temmyn
tempe
tempel
template
temple
templow
tempredh
tempredhow
temprek
temptyans
ten
tender
tendon
tenements
tenessin
tenewan
tenewen
tenkys
tenn
tenna
tennant
tennas
tennbonsow
tennessee
tennessi
tennis
tennva
tennvenek
tennvenieth
tennveyn
tennvos
tennvosek
tennvosow
tennys
tenochtitlan
tenva
tenwennow
teodor
tepuis
ter
terbiom
teresa
tereylya
terfenol
terivas
term
termen
termitow
termow
terms
termyn
termynnyow
termynus
termynyow
termys
termytow
ternieth
terniethow
terosa
terosedhow
terowel
terra
terras
terre
terri
terrible
territory
terror
terros
terry
terrys
terthen
tes
tesel
tesen
teshub
tesla
test
testament
testen
testennow
tester
testosteron
testunau
teton
tetris
tetum
teu
teudh
teudhadow
teudhans
teudhi
teudhji
teudhoryon
teudhys
teurek
teuth
teutharius
teva
teves
tevesigyon
tevesik
tevi
tevis
tevnydh
tevnydhir
tevnydhya
tevnydhyr
tevo
tevri
tevyans
tevyansow
tevys
tew
tewal
tewdar
tewder
tewedh
tewedha
tewedhans
tewedhow
tewedhys
tewennow
tewes
tewesek
tewesva
tewl
tewlder
tewlel
tewlla
tewlwolow
tewlys
tewwa
tewydh
tewydnek
tewyn
tewynblustri
tewynn
tewynnow
tewynplestri
texas
text
textcolor
teyl
teylu
teyluyow
teyr
teyrgweyth
teythek
teythi
teythyek
tf
tg
th
tha
thabo
thalamus
thalassiosira
thaliom
thames
than
thanh
thas
thasow
that
thatcher
thaves
the
theatre
theguardian
their
thema
themes
themow
themys
then
theodor
theodora
theodore
theodosius
theologieth
theologydh
theophrastus
theorem
theory
thepotthatwashesitself
thera
there
theresa
thermyn
theropoda
theropods
thesa
these
thesis
thewder
they
theylu
theyluyow
thiamin
thibetanus
things
thir
third
thirty
thiryow
this
tho
thohow
thomas
thompson
thomson
thor
thoraks
thoriom
thorium
thormaid
thorn
thornton
thouars
thought
thousand
thre
three
thren
thressa
threusi
threuslinen
threys
throated
thrombopoietin
through
thttps
thu
thule
thuliom
thumb
thumbnail
thunnini
thunnus
thus
thutmose
thy
thybyans
thybyansow
thyller
thymin
thyrotropin
ti
tian
tiananmen
tianjin
tiberth
tiberthas
tibet
tibetek
tiblans
tick
ticket
tide
tidro
tiek
tien
tierra
tif
tiger
tigris
tihaval
tikal
tilea
till
tillite
tim
timberscome
timbre
time
timeaxis
times
timmer
timor
timothy
timur
timurid
tin
tinctoria
tinewi
tinwynn
tinythi
tioga
tiogow
tiogyon
tip
tipek
tipulidae
tir
tira
tirana
tirans
tiraspol
tiredh
tiredhek
tiredhow
tiredhyow
tireth
tirfurv
tirfurvow
tirnos
tirnosow
tirwedh
tirwedhow
tirwelyow
tirya
tiryow
tiskedhes
tiskudha
tiskudhas
tiskwedha
tiskwedhes
tisplegya
tisplegyas
titan
titanic
titaniom
titel
titian
title
titlow
titlys
tito
titus
tiverton
tiwedh
tiwettha
tj
tl
tlaib
tland
tm
tn
tna
tnowanger
tnt
to
tobago
tobakko
tobianus
toc
tochya
today
toemm
toen
together
togharek
togo
tohow
toknys
tokyn
tokyo
toledo
tolkien
toll
toller
tollgorn
tolli
tollow
tolstoy
toltek
tom
tomas
tomb
tombolo
tomder
tome
tomentella
tomm
tomma
tommas
tommder
tommen
tommhe
tommheans
tommhes
tommies
tomorrow
tomyaseth
ton
tonasow
tones
tonga
tongsten
tongwynlais
tonhesow
tonkin
tonn
tonna
tonnas
tonnek
tonnow
tony
tool
toole
toorians
toos
tooth
tooting
top
topeka
topography
topp
toppow
tor
torah
torek
torfaen
tori
torino
torn
tornasyeth
tornyas
tornyaseth
tornys
tornysi
toro
torogen
toronto
torquay
torr
torras
torrasneth
torrek
torres
torrow
torrva
torva
torvaow
tory
tos
tou
touch
toul
toulouse
toulys
toumey
toumeyi
toun
touna
tounes
tour
tourek
tourik
tourmalet
tournay
tourow
touryow
toutes
towards
towargh
tower
towers
towl
towlednow
towlel
towlen
towlenn
towlenna
towlenner
towlennow
towlenoryon
towlow
towlyans
towlys
town
toy
toys
tp
tr
tra
trachurus
track
tracks
trade
traditional
tradycyonal
trafalgar
traffik
tragedy
trail
trailys
train
trains
traite
trakai
traktor
trallonk
trallwng
tram
tramasek
tramgarr
tramlerghow
tramm
tramor
tramp
tramway
trang
transamerica
transistor
transnistri
traon
traow
travail
travell
travels
travers
traveth
travis
travyth
traweythyow
trayson
tre
treadwell
trearghans
treasure
treaty
tredan
tredanek
tredanel
tredanheans
tredannek
tredanva
tredanvaow
tredanven
tredegar
tredhek
tredhinas
tree
trees
tref
trefaldwyn
trefdraeth
treffry
trefinn
treflys
tregarrek
tregear
tregelles
tregembo
treger
tregh
tregher
treghi
treghow
treghviles
treghys
tregynsa
trehedhas
trehedhes
trehevel
trehevis
trelawny
trelyes
tremarctinae
tremarctos
tremayne
tremeirchion
tremen
tremena
tremenans
tremenva
tremenyans
tremenyas
tremmliw
tremogh
tren
trenans
trench
trenk
trenken
trenkennow
trenkles
trennow
trenow
trent
trentino
trenya
treorci
treroda
treron
trescau
tresen
tresor
tresour
tressa
trest
tresulyan
tresya
treth
tretha
trethans
trethow
trethvor
trethyas
trethysi
treudhi
treudhow
treulyes
treus
treusanellans
treusas
treusfurvek
treusfurvya
treusfurvyans
treusfurvyansow
treusfurvyes
treusi
treuskorra
treuslinen
treuslytherennans
treuslytherennys
treusperthi
treusperthys
treusporth
treusskrif
treustir
treustrogh
treusva
treusvaow
treusvewa
treusvewans
treusworra
treusworrys
treusys
trev
trevaldwyn
trevan
trevanion
trevanta
trevas
trevasow
trevbark
treveglos
treveglosow
trevek
treven
trevenen
trevesiga
trevesigeth
trevesigethel
trevesigethow
trevesigoleth
trevesigoryon
trevesigyon
trevesigys
treveth
trevethow
trevithick
trevorah
trevow
trew
trewartha
trewethyow
treweythus
treweythyow
trewydhyan
trewyn
trewythyow
treyl
treylya
treylyans
treylyansow
treylyas
treylyer
treylyes
treylys
treys
tri
tria
trial
trianguli
triangulum
trias
triassek
trib
trichechus
trick
tricolor
tridentatus
trier
trifid
trifolium
trig
triga
trigas
trigens
triger
trigonobalanus
trigordh
trigoryon
trigva
trigys
trihern
trihorn
trihornek
trihornow
trilappogyon
trilvil
trimalchio
trimurti
trio
tripoli
trist
tristan
tristia
tristram
triumph
tro
trobel
troblys
troboyntel
troedyraur
trog
trogelghennow
troha
trois
trolergh
trom
tromm
tron
trongornvil
troos
tros
troshys
troslu
troswiek
trotsky
trovannel
trovannow
trovya
trovyes
trovys
trowyns
trowynsow
troy
troyl
troyll
troyllek
troyllya
troyllyek
troyllyow
troyow
tru
trudeau
true
truman
trump
truran
truro
truru
truss
trust
truth
try
trydhegves
tryflek
tryger
trygh
trygher
tryghow
trygys
trynses
trystan
ts
tsaidam
tsalagi
tsar
tsch
tshei
tsimpansi
tsounami
tsukiji
tsushima
tswana
tt
tte
ttir
tu
tubbs
tube
tucana
tucanae
tuchya
tucker
tuckeri
tudful
tudor
tudur
tudwal
tuedh
tuedhder
tuffow
tuktoyaktuk
tuna
tundra
tung
tungsten
tunicata
tunisi
tunnas
tunnel
tunstall
turan
turans
turant
turantieth
turbinella
turing
turingi
turkek
turkestan
turkewich
turki
turkmen
turkmenistan
turks
turku
turner
turning
turya
tus
tuscaloosa
tuskani
tuta
tutankhamun
tuuleveski
tuvalu
tuyow
tuzo
tv
twain
twarres
twelveheads
twents
twenty
twickenham
twin
twist
twitter
two
tx
ty
tya
tyas
tybel
tybi
tybieth
tybiethel
tybiethow
tybir
tyboniethow
tybri
tyburn
tybyans
tybyansow
tybys
tycho
tydfil
tydh
tydhya
tydvil
tyffrans
tyghtya
tykki
tykkiow
tylda
tyldys
tyler
tyli
tyllas
tyller
tylleryek
tylleryow
tylu
tylys
tynder
tynderow
tynn
tynnerghi
tynwald
type
typek
typha
typhoid
tyr
tyrannosaurus
tyrvab
tys
tysk
tyskas
tyski
tyv
tywyn
tzu
tʃ
u
ua
uab
ual
uale
ub
uchaf
uci
ud
udn
udnik
udnyk
ue
ugans
ugens
ugensow
ugensves
ugh
ughboynt
ughder
ughdeylu
ughel
ughelboynt
ughelder
ugheldir
ugheldiryow
ughella
ughnova
ughrewlivel
ughviolet
ughvonni
ughweres
ugrek
uhel
uhelder
uhella
ujy
uk
ukip
ukiyo
ukmerge
ukrainian
ukrainka
ukrayn
ukraynek
ulaanbaatar
ulbha
uleth
ulloa
ullswater
ulo
ulster
ultima
ultra
uluru
ulva
ulysses
um
umar
umayyad
umbellifera
umberto
umea
umm
un
una
und
under
undhuwieth
undhuwiethek
undulatus
une
unedig
unesco
unfinished
ungureanu
unigyn
unigynnow
unio
union
unis
unit
unite
united
unity
univers
universal
universe
universiade
universita
university
universitys
unizhennye
unn
unnborpos
unnegves
unnek
unngledhren
unnik
unnkell
unnplek
unnsel
unnses
unnver
unnveredh
unnverheans
unnverhes
unnweyth
unnyk
unplek
unsel
unses
unsesow
unsys
untollogyon
unvanans
unver
unverheans
unverhes
unweyth
unwos
unya
unyans
unyas
unyes
unys
unyvers
unyversyta
up
upanija
upon
upper
uppsala
upright
ur
uralic
urania
uraniom
uranium
urbain
urbanum
urdh
urdhas
urdhyow
urdu
uria
urin
ursa
ursae
ursavus
ursidae
ursinae
ursinus
urss
ursula
ursus
urt
urtica
uruguay
urugway
uruk
us
usa
usadow
usas
usd
use
users
usgs
usi
using
usir
usk
uskis
uskisheans
uskissa
uskyssa
ust
usvil
usviles
usy
usya
usyans
usyansow
usyas
usyes
usyow
usys
utah
utan
utc
utena
uto
uu
uuile
uule
uz
uzbek
v
va
vaasa
vab
vacant
vadern
vag
vaga
vagans
vagas
vagasow
vaghteth
vagma
vahomm
vakteria
val
valaya
vale
valensi
valensianek
valentine
valera
valga
valhalla
valladolid
valle
valles
valley
valois
value
valweyth
valyow
vam
vamm
vammskrif
van
vanadiom
vananas
vanchester
vancouver
vaner
vanessa
vang
vann
vannes
vannin
vanow
vantaa
vantol
vanuatu
vanylyon
vappa
vappys
var
vara
varadkar
varanasi
varaz
varbel
vardhonegow
vardhonek
vardhonieth
vardhonogow
vargen
vargennyow
vargh
varghas
varhas
varia
various
varna
varow
varr
varra
varroa
varthusyon
varwo
varya
varyans
varyansek
varyansel
varyansow
varyes
vas
vasco
vasey
vaseyana
vasily
vason
vasopressin
vassar
vat
vatalyas
vatalyow
vatel
vater
vateryow
vatican
vaticano
vatikan
vatnajo
vatry
vaughan
vaw
vayni
vaystri
ve
vean
vear
veb
vebyon
vechnyj
vedalen
vedas
vedh
vedha
vedhegneth
vedhek
vedhel
vedhogyon
vedhow
vedia
vedn
vega
vegan
vegas
vegyans
vejeth
veksiko
vel
vela
velar
veliko
velin
velinhyli
velinji
velinnowyth
vell
vella
velldrosogyon
vellkeyn
vellkeynogyon
vellyon
velorum
velyn
ven
venango
venatici
venegas
venegyansow
venen
venenes
venenreydh
veneris
veneswela
venetens
veneto
venezia
venezuela
vengleudh
vengleudhyow
venhesen
venhesennow
venice
venis
venja
venni
venow
venowgh
venoyl
vent
venta
ventena
ventewyn
ventifactmojavedesert
ventifakt
ventifaktow
ventolin
ventoux
venturebeat
venus
venydh
venydhyow
venyn
venynreydh
venyon
venyster
venystrans
vera
verb
verbow
verbs
verdh
verdi
verge
vergh
verghas
verk
verkuri
verkya
verkyas
verlag
vermeyl
vermont
vern
vernans
vernansow
verne
vernon
verow
verr
vers
versailles
verschollene
verses
vershyon
vershyons
version
versyon
versyonow
versyons
verther
vertical
verum
verwandlung
verwel
verwis
very
ves
vesen
vesies
vesontin
vesta
vester
vestes
vet
veter
veth
vethodys
vethodysi
vethynnow
vetustum
vetya
vetyas
veu
veudhi
veur
veurgerys
veurth
vew
vewa
vewas
vewnans
vewonieth
vewoniethel
vewskrif
vewva
vewvaow
veyn
veynek
veythrin
vg
vi
via
viaduct
viaj
viajadow
viajya
viajyas
viajyow
viajys
vian
viburnum
vichy
vickery
vickie
victor
victoria
victory
video
vie
viena
vienna
vietnam
vietnamek
view
vighal
vii
viii
viking
viktor
viktoria
viktorya
viktoryanek
vil
vila
vilaine
vildir
vildiryow
viles
vili
viljandi
village
villeneuve
villiers
vilnius
vilvil
vilvilyow
vilvledhen
vilvlew
vilyow
vince
vincent
vincenzo
vinci
vineyard
vinh
vinsent
vinvlew
vinyl
viola
violet
violin
viper
vir
vires
vireti
virgin
virginia
virginiana
virginis
virgo
viridios
viridis
virjynni
viroryon
virtual
viru
virus
virusow
virusys
virva
virysys
vis
visaginas
vishnou
vishnu
visitor
vita
vitamyn
vith
vivian
vlaams
vladimir
vladimirovich
vlaenau
vlas
vlasa
vledhen
vledhennow
vledhynnyek
vledhynnyow
vleujen
vlew
vloedh
vlonek
vloodh
vlydhen
vlydhynyow
vn
vo
vocabularium
vocals
vodh
vodhogyon
vodya
vog
vogalennow
voghes
voghha
voghhas
voghosek
voice
voices
vol
volans
volcano
volekulennow
volga
vollant
vols
voltaire
voltedh
volume
volusia
vom
von
vona
vones
vongol
vonnow
vonow
vons
vonyn
vonyow
voon
voos
vor
vora
voral
vordh
vordir
vordow
vorek
voren
vorladron
vorrep
vorrew
vorviles
vorvoren
vos
vosen
vosges
vosk
voslemyon
vosow
vosva
vosvena
vosvenegh
vota
votas
vote
votoryon
votyans
votyas
votys
vouddhisteth
voulzy
vov
vovya
vovyas
vowes
vownder
vowysi
voy
voyage
voyager
voyages
voyha
vr
vra
vrahovice
vran
vras
vrasil
vrasilek
vrassa
vraster
vrastir
vrastiryel
vrath
vre
vreanek
vredefort
vreder
vredereth
vregh
vrek
vrenn
vreow
vresel
vreselek
vreselyow
vrest
vreten
vretennek
vretonegoryon
vretonek
vretonyon
vreus
vri
vriansen
vristol
vrith
vro
vroas
vroassa
vroder
vronn
vronnviles
vrons
vroweghereth
vrt
vryckys
vrys
vrythonek
vrythonyon
vs
vst
vu
vue
vughes
vukovar
vulgare
vulgaris
vulpecula
vulpes
vultures
vung
vunys
vurjestra
vurjysi
vuslimyon
vusur
vusura
vusurans
vusuryas
vv
vy
vyaj
vyajya
vyajyas
vydh
vyghan
vyghtern
vyghternedh
vyghternes
vyhan
vykken
vyldya
vyldyans
vyldyansow
vyldyas
vynn
vynna
vynnas
vynnes
vynni
vynnsa
vyns
vynsonieth
vynsow
vyor
vyrgh
vyrghes
vyrjyni
vyrjynia
vys
vysk
vysyt
vysytoryon
vysytya
vysytyansow
vysytyas
vysytys
vyth
vythlas
vytholl
vythologieth
vyw
vywa
vywder
vywnans
w
wa
waas
wachowski
wagner
wagon
wagonow
wagren
wagrennow
wake
wakefield
wal
wales
walk
walker
walking
walks
wall
wallace
wallenberg
walling
wallis
wallonek
walloni
wallosegas
walls
walrus
walsh
walsingham
walt
walter
wambst
wanderow
wandrans
wann
wannha
wants
war
wara
warbarth
warbarthhttps
warbynn
ward
warhol
wari
waria
warias
warier
warioryon
wariow
wariva
warlergh
warlinen
warn
warnedha
warnedhi
warneth
warnock
warnodho
warr
warren
wars
warszawa
wartha
warwick
wary
was
wasa
washington
wask
waskas
waskedh
wasp
wassily
wastas
wastastir
wat
watan
watch
water
waterloo
waterson
wathiq
watkins
watson
watt
watts
waun
waunfawr
wav
wave
way
waya
wayans
wayas
wayn
waynas
wayne
waynoryon
waynya
waynyas
wayt
we
weal
weald
wealth
weapons
wear
weather
weatherhill
web
webb
weber
webm
webster
weder
wedgwood
wedh
wedhen
wedhwes
wedren
weekend
weeks
weern
weevil
wegener
weimar
weir
weisz
wek
wel
welas
welcome
welding
welen
weles
weli
well
wella
wellcome
wellesley
wellha
wellhas
wellhe
wellington
wells
welman
welmann
welmoon
welmuon
wels
welsbach
welsen
welsh
welwitschia
welyn
welyow
wen
wendron
wendy
wened
wenep
wener
wenneli
wennili
wenon
wenonek
went
wentworth
wer
wera
were
weres
weresas
weresek
weresow
werin
werinek
werinel
wern
wersyow
werth
wertha
werthas
werthji
werthow
weryn
wesley
wessex
west
westchester
western
westfalen
westminster
westmoreland
westmorland
westport
wethered
wethhas
wexton
weymouth
weyth
weythres
weythresek
weythva
weythvaow
weythyow
wh
whans
wharfedhyans
wharvosow
what
whath
wheal
whedhel
whedhlow
wheel
whegh
wheghes
whei
whel
when
where
whethel
whethlow
whevrel
whevrer
which
whig
whist
white
whiteout
whitley
whitman
whitmer
whitney
whittome
who
whom
whre
whrug
why
wi
wiar
wias
wiasedh
wiasva
wide
width
wiedringharde
wien
wiesbaden
wig
wiggins
wigow
wiki
wikimedia
wikipedi
wikipedia
wikipedya
wikisource
wikiwix
wilbur
wilcox
wild
wilde
wildebeest
wilding
wildlife
wilfred
wilhelm
wilkes
wilkinson
will
willem
willhays
william
williams
williamson
willis
willy
wilmington
wilmslow
wilson
wiltshire
wimbledon
win
winchester
wind
windermere
windmill
window
windowlicker
windsor
winged
wingei
winkle
winkler
winnebagow
winnie
wins
winston
winter
wir
wired
wiryon
wiryow
wisconsin
wish
wishart
wisk
wiska
wiskas
wiskonsin
with
witha
withans
withas
within
without
withti
withva
witness
wittgenstein
wivelshire
wiw
wizard
wjarn
wlad
wlas
wlaskor
wlaskordhow
wlasow
wledig
wlesik
wmffre
wo
woas
wober
wobrenas
wodh
wodhalek
wodhes
wodhev
wodhevas
wodhevel
wodhevis
wodhir
wodhon
wodhonieth
wodhoniethek
wodhoniethow
wodhonydhyon
wodhosek
wodhva
wodhvedhys
wodhvos
wodhya
wodriga
wodrigas
wodrigoryon
woedh
woen
woer
woja
wolas
wolcot
woleder
woles
wolf
wolfgang
wolfram
wolframit
wollas
wollaston
wollstonecraft
wolok
wolow
wolusek
wolverston
wolves
wolya
wolyas
woman
women
won
wonder
wonderful
wonis
wonisogeth
wonisogethel
wonisogethow
wonisyow
wonn
wonnamena
wonyow
wood
woodard
woodbury
woodh
woodhenge
woodhva
woodrow
woods
wool
woolley
woon
woos
wootton
wor
worcester
word
wordh
wordhen
wordhenek
wordhenyon
wordhi
wordhon
wordhonek
words
wordsworth
wore
worfen
worfenn
worfenna
worfennas
worfordh
worhel
worhelyon
worhemmyn
worhemmynas
worher
worheri
worholyon
work
workers
working
works
worladhva
world
worldcat
worlds
worm
worouresow
worr
worra
worras
worrys
worsav
worsavow
wort
worta
wortalleth
worth
worthebis
worthing
worthsevel
wortiwedh
wortos
wortyweth
worwedh
woryskynnas
wosa
wosek
wostalleth
wothek
would
woverna
wovernans
wovernansow
wovernyas
woverow
wovyn
wovynnas
wra
wradheg
wragh
wras
wre
wrecsam
wredh
wreg
wrek
wreksam
wrello
wrellons
wren
wrer
wres
wreydh
wreydhek
wreydhen
wreydhenn
wrians
wriansow
wright
writer
writers
writing
writings
written
wrons
wrontyas
wrowan
wrug
wruk
wrussa
wrussons
wruthyl
wrylli
wrys
wrysven
wrythul
wu
wuhan
wul
wus
wwe
www
wy
wyddfa
wydh
wydhen
wydn
wye
wylar
wyls
wyn
wyndham
wynn
wynnyer
wyns
wyoming
wyrdh
wyrghes
wys
wythi
x
xaf
xavier
xcd
xe
xhosa
xi
xian
xianfan
xiaoping
xii
xiii
xinhai
xiv
xmm
xo
xof
xose
xv
xvi
xxx
xylem
y
ya
yagh
yaghhe
yaghheans
yaghus
yakuza
yale
yam
yamauchi
yamuna
yan
yang
yangshuo
yangtze
yann
yantra
yaqut
yar
yardangow
yardangs
yasmin
yasser
yat
yayi
ydhi
ydhnigow
ydhnik
ydhyn
ydyot
ye
year
years
yeats
yedhewon
yedhow
yedhowek
yedhoweth
yedhowieth
yedhowon
yedhowow
yeghes
yegheswith
yehovah
yellow
yellowman
yellowstone
yemen
yer
yerusalem
yesu
yet
yeth
yethador
yethegow
yethek
yethoniek
yethonieth
yethoniethek
yethoniethel
yethonydh
yethonydhyon
yethor
yethoryon
yethow
yethydh
yetow
yettys
yetys
yey
yeyn
yeynder
yeynha
yeynhas
yeynhe
yeynna
yezh
ygam
yger
ygerans
ygeras
ygeri
ygeris
ygeryans
ygerys
ygor
ygoras
yiarn
yindyssyn
yinmn
yl
yll
yllas
yllens
ylli
yllir
yllons
ylly
yllys
ym
yma
ymons
ympyansow
ympynnyans
ympynnyon
yn
yndan
yndella
yndelma
yndho
yng
ynia
ynjinor
ynjinorieth
ynjynor
ynjynorieth
ynjynoryon
ynjyorieth
ynk
ynkladhva
ynkleudhva
ynkleudhyans
ynkleudhyansow
ynkleudhyas
ynkleudhys
ynkress
ynkressya
ynkressyans
ynkressyas
ynkressys
ynmysk
ynn
ynna
ynni
ynniys
ynno
ynperthi
yns
ynsi
ynspirys
ynspyrys
ynstallyes
ynter
ynterweythresow
yntirys
yntra
yntredha
ynvroysi
ynwedh
ynweth
ynworrans
ynys
ynysek
ynysow
ynysyow
yo
yogort
yogyakarta
yom
yonk
yonker
yonkers
york
yorke
yorker
yorkshire
yosemite
you
yougoslavi
yougoslavy
young
youngest
your
youtube
yow
yowann
yowynk
yowynka
yowynkka
yowynkneth
yr
ys
ysay
ysbyty
yseult
ysgol
yskyn
yskynn
yskynna
yskynnans
yskynnas
yskynnys
ysolt
ysrael
yssyns
yssynsas
yssynsi
yssynsys
ystalyfera
ystorek
ystory
ystorya
ystrad
ystydna
ystyn
ystynn
ystynna
ystynnans
ystynnansow
ystynnas
ystynnys
ystynys
yterbiom
yth
ytho
ytriom
ytterbium
ytterby
yu
yuan
yucata
yud
yukon
yulia
yuliek
yumi
yunnan
yuri
yurl
yurlys
yusra
yvette
yvyn
yvynnen
yw
ywa
ywedh
ywerdhon
ywerdhonek
yyyy
z
za
zachary
zadok
zadou
zagreb
zaire
zambesi
zambi
zambia
zamenhof
zapiski
zar
zara
zarah
zawn
zdanskyi
ze
zealand
zebra
zedong
zeit
zeppelin
zeta
zetkin
zeugenow
zeus
zhao
zhena
zheng
zho
zhou
zhu
zhuang
zi
ziggurat
zikaza
zile
zimbabwe
zinc
zincblende
zippys
zirkon
zirkoniom
zn
zo
zola
zombi
zoo
zoroastrianeth
zoulou
zr
zu
zuid
zuma
zurich
zynk
{
|
}
~
¡
£
¥
§
ª
«
­
¯
°
±
²
³
´
µ
·
¹
»
¼
½
¾
×
æ
æðelsta
ð
ðir
ø
þ
þingvellir
đo
ħ
ı
ł
łikani
ŋ
ƞ
ɐ
ɑ
ɔ
ɕ
ɖ
ə
ɛ
ɡ
ɡi
ɣ
ɪ
ɪr
ɯ
ɸ
ɾ
ʁ
ʃ
ʊ
ʍ
ʒ
ʰ
ʱ
ʲ
ʷ
ʻ
ʼ
ʾ
ʿ
ˀ
ˈ
ˊ
ˌ
ː
ˤ
̀
́
̂
̃
̄
̆
̇
̈
̉
̊
̋
̌
̓
̔
̛
̝
̟
̣
̥
̦
̧
̨
̩
̪
̭
̮
̯
̱
̹
̺
͂
ͅ
͡
α
αι
β
γ
δ
διαβολος
ε
ει
ζ
η
θ
ι
κ
και
κυ
λ
μ
μα
μη
μω
ν
νω
ξ
ο
π
ρ
ς
σ
σου
τ
το
τω
υ
φ
χ
ψ
ω
ϝ
а
альта
анекдот
б
бедные
белые
бесы
бобок
братья
в
вечныи
вор
віолончела
г
герои
го
года
господин
д
двои
девяти
для
до
дома
дядюшкин
е
евич
его
елка
ж
жена
з
записки
и
игрок
идиот
из
к
ка
карамазовы
квартет
комплекса
кроватью
крокодил
кроткая
л
лке
люди
м
мавка
маи
маленькии
мальчик
мареи
мегапроекта
мертвого
муж
мужик
н
на
наказание
незванова
неточка
ник
ночи
нські
о
обитатели
оскорбленные
п
пе
петербургская
письмах
под
подполья
подросток
ползунков
поэма
преступление
пропаганда
прохарчин
р
република
роман
с
свадьба
село
сердце
серце
симфонічні
симфонія
скверныи
скрипки
слабое
смешного
сон
степанчиково
схема
т
та
твори
тр
труннии
тріо
у
украі
униженные
ускорительного
ф
фортепіано
х
хозяи
христа
ц
ч
человека
честныи
чужая
ш
щ
ъ
ы
ь
э
ю
я
і
ա
բ
գ
դ
ե
զ
է
ը
թ
ժ
ի
լ
խ
ծ
կ
հ
ձ
ղ
ճ
մ
յ
ն
շ
ո
չ
պ
ջ
ռ
ս
վ
տ
ր
ց
ւ
փ
ք
օ
ֆ
ִ
ֶ
ֹ
ׁ
א
ב
ג
ד
ה
ו
ז
ח
ט
י
כ
ל
מ
נ
ס
ע
פ
צ
ק
ר
ש
ת
،
ا
الا
الله
ب
بن
ة
ت
ج
جامعة
ح
د
ر
ز
ش
ط
ع
عبد
عمر
ف
ق
قطايف
ك
ل
م
محمد
مسجد
موسى
ن
و
ي
َ
ُ
ِ
ّ
ْ
ٓ
ٔ
ٕ
ܐ
ܒ
ܓ
ܕ
ܗ
ܘ
ܙ
ܚ
ܛ
ܝ
ܠ
ܣ
ܥ
ܦ
ܨ
ܩ
ܪ
ܫ
ܬ
ހ
ރ
އ
ވ
މ
ދ
ގ
ޔ
ޖ
ާ
ި
ު
ޫ
ެ
ޭ
ް
ं
ः
क
ग
च
ज
ण
त
द
ध
न
प
ब
भ
म
य
र
ल
व
ष
स
ह
ा
ि
ी
ु
ू
े
ै
ो
्
ॐ
ঁ
ং
ঃ
অ
আ
ই
ঈ
উ
ঊ
ঋ
এ
ঐ
ও
ঔ
ক
খ
গ
ঘ
ঙ
চ
ছ
জ
ঝ
ঞ
ট
ঠ
ড
ঢ
ণ
ত
থ
দ
ধ
ন
প
ফ
ব
ভ
ম
য
র
ল
শ
ষ
স
হ
়
া
ী
ু
্
ৎ
ৰ
ৱ
વ
સ
ા
ુ
க
ச
ன
ழ
ி
ெ
ை
்
ద
బ
హ
ా
ె
్
ౖ
ಂ
ಬ
ರ
ು
ೂ
ೆ
ล
ิ
ี
ึ
ุ
฿
ა
ბ
გ
დ
ე
ვ
ზ
თ
ი
კ
ლ
მ
ნ
ო
პ
ჟ
რ
ს
ტ
უ
ფ
ქ
ღ
ყ
შ
ჩ
ც
ძ
წ
ჭ
ხ
ჯ
ჰ
ሀ
ለ
ሐ
መ
ሠ
ረ
ሰ
ቀ
በ
ተ
ኀ
ነ
አ
ከ
ወ
ዐ
ዘ
የ
ደ
ገ
ጠ
ጰ
ጸ
ፀ
ፈ
ፐ
ᚁ
ᚂ
ᚃ
ᚄ
ᚅ
ᚆ
ᚇ
ᚈ
ᚉ
ᚊ
ᚋ
ᚌ
ᚍ
ᚎ
ᚏ
ᚐ
ᚑ
ᚒ
ᚓ
ᚔ
ᚕ
ᚖ
ᚗ
ᚘ
ᚙ
ᚚ
᚛
᚜
ត
្
ᶣ
​
‌
‎
‐
–
—
―
‘
’
“
”
„
†
•
…
‪
‬
′
″
⁄
₨
₩
₪
₫
€
ℓ
⅔
→
↔
↷
−
∞
③
④
⑦
☉
☾
♁
♇
♉
♏
♐
♭
⚳
⟨
⟩
⯓
⯰
ⴰ
ⴱ
ⴳ
ⴷ
ⴹ
ⴻ
ⴼ
ⴽ
ⵀ
ⵃ
ⵄ
ⵅ
ⵇ
ⵉ
ⵊ
ⵍ
ⵎ
ⵏ
ⵓ
ⵔ
ⵕ
ⵖ
ⵙ
ⵚ
ⵛ
ⵜ
ⵟ
ⵡ
ⵢ
ⵣ
ⵥ
ⵯ
⺀
⺄
⺆
⺈
⺊
⺌
⺕
⺝
⺸
⺼
⿰
⿱
⿲
⿳
⿴
⿵
⿶
⿷
⿸
⿹
⿺
⿻
【
】
〢
い
う
き
こ
ち
て
と
の
ほ
ゆ
ょ
ら
ん
゙
ア
イ
ウ
ォ
カ
コ
ス
タ
ト
フ
マ
ヤ
ユ
ラ
ロ
ン
・
ー
ㄅ
ㄆ
ㄇ
ㄈ
ㄉ
ㄊ
ㄋ
ㄌ
ㄍ
ㄎ
ㄏ
ㄐ
ㄑ
ㄒ
ㄓ
ㄔ
ㄕ
ㄖ
ㄗ
ㄘ
ㄙ
ㄚ
ㄛ
ㄜ
ㄝ
ㄞ
ㄟ
ㄠ
ㄡ
ㄢ
ㄣ
ㄤ
ㄥ
ㄦ
ㄧ
ㄨ
ㄩ
ㄭ
ㄱ
ㄲ
ㄴ
ㄷ
ㄸ
ㄹ
ㅁ
ㅂ
ㅃ
ㅅ
ㅆ
ㅇ
ㅈ
ㅉ
ㅊ
ㅋ
ㅌ
ㅍ
ㅎ
ㅏ
ㅐ
ㅑ
ㅒ
ㅓ
ㅔ
ㅕ
ㅖ
ㅗ
ㅘ
ㅙ
ㅚ
ㅛ
ㅜ
ㅝ
ㅞ
ㅟ
ㅠ
ㅡ
ㅢ
ㅣ
㇁
㇂
㇄
㇇
㇈
㇉
㇓
㐁
㐄
㐅
㐌
㐫
㐬
㐭
㐮
㐱
㑒
㒵
㒸
㒼
㓁
㓞
㔾
㕛
㕣
㖾
㘝
㚅
㚇
㚔
㚘
㝉
㝡
㝴
㝵
㞋
㞢
㞷
㠩
㠭
㠯
㡀
㡭
㡿
㢲
㢴
㣇
㣺
㥯
㪅
㫄
㫐
㫒
㫺
㬅
㬎
㬥
㬰
㲋
㳄
㷠
㸒
㸚
㸦
㼌
㼲
㽞
㿟
䀠
䂞
䍃
䏍
䒑
䖍
䖒
䖝
䖵
䙴
䚻
䜌
䝿
䡛
䧹
䪞
一
丁
丂
七
丄
丅
丆
万
丈
三
上
下
丌
不
与
丏
丐
丑
专
且
丕
世
丘
丙
业
东
丞
丢
丣
两
严
並
丨
丩
个
丫
丬
中
丮
丰
丱
串
丵
丶
丷
丸
丹
为
主
丽
丿
乀
乂
乃
久
乆
乇
么
义
之
乌
乍
乎
乏
乐
乑
乔
乖
乗
乘
乙
乚
乛
乜
九
乞
也
习
乡
乳
乾
亀
亅
了
亇
予
争
事
二
亍
于
亏
亐
云
互
亓
五
井
亘
亚
亜
亞
亟
亠
亡
亢
交
亥
亦
产
亨
亩
享
京
亭
亮
亯
亰
亲
亳
亶
亷
人
亻
亼
亾
仁
今
介
仌
从
仐
仑
仒
仓
仕
他
付
仙
仝
代
令
以
仮
任
企
伊
伏
伐
休
会
伯
但
位
佑
何
佘
余
作
佥
佳
使
來
侈
侌
侖
侯
侵
便
保
俞
信
修
倉
倍
候
倠
倭
備
僉
僕
儿
兀
允
兂
元
兄
充
兆
兇
先
光
兊
克
兌
免
兑
兒
兓
兔
党
兜
兟
入
全
兩
兪
八
公
六
兮
兰
共
关
兵
其
具
典
兹
兼
冀
冂
冃
冄
内
円
冈
冉
冊
冋
册
再
冎
冏
冐
冒
冓
冖
冗
冘
军
农
冝
冡
冥
冫
冬
冷
几
凡
凢
凱
凵
凶
凷
凸
凹
出
函
凾
刀
刁
刂
刃
刄
刅
分
切
刍
刑
刕
刖
列
刘
则
初
別
利
别
到
制
刺
則
削
剌
前
剡
剽
劉
力
功
加
劦
助
劫
劳
劵
勃
勇
勉
勒
動
務
勞
勤
勹
勺
勻
勾
勿
匀
匂
包
匆
匈
匊
匋
匍
匕
化
北
匚
匝
匡
匪
匱
匸
匹
区
医
匽
匿
區
十
卂
千
卄
卅
卆
升
午
卉
半
卌
华
卑
卒
卓
单
卖
南
卜
卝
卞
占
卡
卢
卣
卤
卦
卩
卪
卬
卯
印
危
即
却
卵
卷
卸
卻
厂
厃
厄
历
厈
厉
厌
厓
厘
厚
原
厤
厥
厨
厭
厲
厶
厷
厸
去
厼
厽
叀
参
參
叅
又
叉
及
友
双
反
叐
发
叒
叔
叕
取
受
叚
叜
叟
口
古
句
另
叩
只
召
可
台
叱
史
右
叵
号
司
叹
吂
各
吅
合
吉
吊
吋
同
名
后
吏
向
吕
君
吝
吞
否
含
启
吳
吴
吹
吾
呂
呆
呈
告
员
呙
周
呼
命
咅
和
咎
咠
咢
咨
咸
咼
哀
品
哉
員
哥
哲
唐
商
啇
問
啚
啬
啻
善
喜
喬
單
喿
嗇
噩
嚴
囊
囗
囘
囙
囚
四
回
囟
因
囧
囬
园
困
囱
围
囷
固
国
圂
圅
國
圍
圓
土
圡
圣
圥
在
圭
地
圶
圼
坐
坒
坚
坴
垂
型
垔
垚
埀
埋
城
埶
執
基
堂
堅
堆
堇
堯
塚
塞
増
墨
壘
士
壬
壯
声
壳
壴
壹
壺
壽
夂
处
夅
夆
备
夊
夋
夌
复
夏
夒
夕
外
夗
夘
多
夜
夢
大
夨
天
太
夫
夬
夭
央
失
夲
头
夷
夸
夹
夻
夾
奂
奄
奇
奈
奉
奎
奏
奐
契
奓
奔
奚
奞
奠
奢
奥
奭
女
奴
奻
好
如
妄
妈
妙
妟
妥
妻
妾
姑
委
姜
姬
威
娄
婁
婴
嫂
嬰
嬴
子
孑
孔
孕
孖
字
存
孚
孛
孝
孟
季
孤
学
孫
孱
學
宀
宁
宂
它
宅
宇
守
安
宋
完
宏
宓
宗
官
定
宛
宜
宝
客
宣
室
宮
宰
害
家
容
宾
宿
寄
寅
密
富
寒
察
寧
審
寫
寬
寮
寸
对
寺
寻
寽
対
寿
封
尃
射
将
將
專
尉
尊
尋
尌
對
小
少
尒
尓
尔
尖
尗
尚
尞
尢
尣
尤
尧
尨
尭
就
尸
尹
尺
尻
尼
尽
尾
尿
局
居
屈
屋
屎
屏
屑
展
屖
屚
属
屠
屡
屬
屮
屯
屰
山
屵
屾
岁
岂
岑
岡
岩
岳
岸
峯
島
崇
崑
崔
崖
崙
崩
嵬
嶲
嶽
巂
巛
川
州
巟
巠
巢
巤
工
左
巧
巨
巩
巫
差
己
已
巳
巴
巷
巸
巽
巾
巿
帀
市
布
希
帚
帛
帝
带
師
席
帶
常
干
平
年
幵
并
幷
幸
幺
幻
幼
幽
幾
广
広
庄
床
底
店
庙
庚
府
度
庫
庭
庶
康
庸
廉
廌
廛
廣
廩
廴
延
廷
建
廾
廿
开
弁
弃
弄
弇
弋
式
弓
弔
引
弗
弘
弜
弟
弥
弦
弱
張
強
强
彊
彌
彎
彐
彑
当
彔
录
彖
彗
彡
形
彥
彦
彧
彭
彳
役
彼
往
待
律
徒
得
徙
從
復
微
徳
徵
心
忄
必
忌
忍
志
忝
忠
忩
快
念
忽
忿
思
怠
急
怱
总
恆
恒
恩
恭
息
悉
患
悤
悲
悶
惠
惡
惢
愁
愈
意
愛
感
慈
慧
慮
憂
憲
應
戀
戈
戉
戊
戋
戌
戍
戎
成
我
戒
戔
或
戚
戠
戢
截
戲
戶
户
戹
戼
戾
房
所
扁
扇
手
扌
才
打
托
执
扬
承
折
拉
拜
拿
振
掌
推
提
揚
摩
支
攴
攵
收
攸
改
放
政
敄
敏
敕
敖
敗
教
敝
敞
敢
散
敦
敫
敬
数
敷
數
斂
文
斉
斊
斎
斗
斤
斥
斩
斬
斯
新
方
於
施
斿
旁
旋
族
无
旡
既
旣
日
旦
旧
旨
早
旬
旱
旲
时
旾
昆
昇
昌
昍
明
昏
易
昔
昗
昜
星
映
春
昬
昭
是
昱
昴
昷
時
晃
晋
晏
普
景
晴
晶
智
暑
暢
暴
曇
曩
曰
曲
曳
更
曷
書
曹
曼
曾
替
最
朁
會
月
有
朋
服
朔
朕
朗
望
朝
木
朩
未
末
本
札
朮
术
朱
朵
朶
朿
杀
杉
李
杏
村
杜
束
条
来
東
杲
杳
松
析
林
枚
果
枝
枲
枼
某
柔
查
柬
柰
柴
栗
株
格
桀
桑
桫
桼
梁
條
梟
梦
梨
棋
棘
棠
棥
森
植
楚
業
楼
楽
榆
榮
樂
樊
樓
横
樹
欏
欠
次
欣
欮
欲
欶
欽
款
歆
歇
歌
歛
止
正
此
步
武
歨
歪
歮
歯
歰
歲
歴
歷
歸
歹
歺
死
殳
段
殷
殸
殹
殺
殻
殿
毋
毌
母
每
毒
比
毕
毚
毛
毳
氏
氐
民
气
氣
水
氵
氶
氷
永
氺
氾
求
汉
汝
汞
江
池
沃
沓
沖
沙
沝
河
治
泉
法
波
泣
泥
泰
泽
洛
津
洪
活
派
流
浜
浦
浪
浮
海
淡
淮
清
渚
渠
湯
源
滿
漢
漸
瀨
瀬
灣
火
灬
灭
灰
灵
灷
炅
炎
炏
炗
炙
炭
為
烈
烏
烝
焉
無
焦
焱
然
煞
熊
熏
熹
燕
營
燮
爪
爫
爭
爯
爰
爱
爲
爵
父
爻
爽
爾
爿
片
牙
牚
牛
牜
牟
牢
牧
物
牪
牽
犀
犬
犭
犮
狂
狄
狊
独
狺
猋
猒
猪
猫
献
獻
玄
率
玉
王
玟
玨
现
珎
班
現
琴
瑟
瑩
璠
瓜
瓦
甘
甚
生
産
用
甫
甬
田
由
甲
申
电
甶
男
甸
甹
画
甾
畀
界
畏
畐
留
畜
畟
畢
畧
畨
番
畫
異
畱
當
畺
畾
疊
疋
疌
疑
疒
疾
癶
癸
癹
登
發
白
百
皀
皃
的
皆
皇
皋
皐
皕
皮
皷
皿
盃
盆
盇
盈
益
盍
盎
监
盒
盖
盛
盡
監
盤
盧
目
直
相
盾
省
眇
眉
看
眔
眞
真
眷
眼
眾
着
睘
睪
睿
瞏
瞢
瞿
矍
矛
矞
矢
矣
知
矦
短
石
破
碎
磊
磨
示
礻
礼
社
神
祟
票
祭
禀
禁
福
禸
禹
禺
离
禽
禾
禿
秀
秃
秉
秋
科
秝
秦
移
稟
稣
穀
穌
穴
究
穹
空
穿
突
窄
窒
立
竒
竜
竝
竟
章
童
端
竹
笑
笠
筆
等
答
箕
算
箴
節
範
篤
篭
米
粉
粛
粟
粤
粦
粲
粵
糞
糸
糹
系
約
紅
納
素
索
紫
累
細
組
絜
絫
絲
維
綿
縣
繇
織
纍
纟
红
统
缶
网
罒
罔
罕
罗
罙
罡
罢
罪
署
罷
羅
羊
羌
羍
美
羔
羕
羗
羞
羡
羣
群
義
羲
羸
羽
翁
翏
習
翕
翟
翠
翼
老
耂
考
者
耆
而
耎
耑
耒
耳
耴
耶
耷
聂
聊
聖
聚
聶
聿
肀
肃
肅
肉
肖
肙
肥
肩
肯
育
肴
胃
背
胡
胥
能
脊
脩
膚
臣
臤
臧
自
臬
臭
臯
臱
至
致
臺
臼
臽
臾
臿
舀
舂
舄
與
興
舉
舌
舍
舛
舜
舞
舟
般
艮
良
色
艸
艹
艾
芒
芔
芙
芥
芬
芭
芮
花
芳
芹
芺
芻
苏
苔
苗
苟
若
苦
英
茶
茸
荅
草
荒
荣
荼
莆
莧
莫
莽
菆
菊
菐
華
萬
落
葉
著
葛
董
葵
蒙
蒡
蒦
蒼
蓋
蓬
蓺
蔑
蔔
蔡
蕉
蕭
薄
薛
薦
薰
藍
藏
藤
藥
藩
蘭
蘿
虍
虎
虐
虒
虔
處
虖
虗
虘
虚
虛
虜
虞
虫
虽
蚤
蚩
蛸
蜀
蜜
蟲
蠡
血
行
衍
衛
衣
衤
表
衮
衰
袁
袞
裏
裕
褭
褱
襄
襾
西
覀
要
覃
覇
見
規
覓
覧
親
覽
见
角
解
言
訁
訇
計
記
話
詹
語
誩
諸
謙
讠
访
语
谷
豆
豈
豊
豐
豕
豖
豙
象
豦
豩
豪
豸
貇
貓
貝
貞
貟
負
貢
貧
貪
貫
責
貳
貴
買
費
賁
資
賈
賏
賓
賔
賛
賞
賢
賣
質
賴
贊
贝
贡
责
贯
贲
贵
赖
赞
赤
赦
走
越
足
跃
路
蹇
身
躬
車
軍
軎
軟
輦
车
辛
辜
辟
辥
辰
辱
農
辵
辶
边
达
迁
过
近
进
连
迷
迹
追
退
送
逆
逐
通
速
造
逢
連
逮
進
逸
遀
遂
過
道
達
遗
遣
適
遷
遺
邊
邑
邕
那
邦
邪
郎
郑
部
郭
都
鄉
鄭
酉
酋
配
酓
釆
采
里
重
野
量
金
釒
錢
钅
钗
長
镸
长
門
閃
閉
開
閏
閑
閒
間
閔
閵
閻
闌
门
问
间
闷
闻
阑
阜
阝
阿
降
陳
陵
陽
隆
隊
隋
隡
隨
隱
隶
隹
隺
隻
隼
隽
难
雀
雁
雄
集
雈
雋
雍
雐
雔
雙
雚
雜
雝
離
難
雨
雩
雪
雲
零
雷
需
霍
霜
霝
霞
霸
靈
靑
青
非
靡
面
靣
革
韋
韓
韦
韭
韯
韱
音
頁
頃
項
順
須
頗
頡
頭
頻
顔
顛
页
風
风
飛
飞
食
飠
飾
養
饣
首
香
馬
馮
駦
马
骨
高
髟
鬥
鬯
鬲
鬼
魏
魚
魯
鮮
鱼
鲁
鳥
鳳
鸟
鹵
鹿
麃
麗
麥
麦
麻
麿
黃
黄
黍
黎
黑
黒
黨
黹
黽
黾
鼎
鼓
鼠
鼻
齊
齋
齐
齒
齿
龍
龙
龜
龟
龠
龰
龱
龴
龵
龶
龷
龸
龹
ꜜ
ꭰ
ꭲ
ꭶ
ꭷ
ꭸ
ꭹ
ꭼ
ꭿ
ꮂ
ꮃ
ꮄ
ꮑ
ꮒ
ꮕ
ꮜ
ꮝ
ꮣ
ꮧ
ꮳ
ꮵ
ꮷ
ꮼ
者
艹
︎
ﺍ
ﺎ
ﺏ
ﺓ
ﺕ
ﺙ
ﺝ
ﺡ
ﺥ
ﺩ
ﺫ
ﺭ
ﺯ
ﺱ
ﺵ
ﺹ
ﺽ
ﻁ
ﻅ
ﻉ
ﻍ
ﻑ
ﻕ
ﻙ
ﻝ
ﻟ
ﻡ
ﻥ
ﻩ
ﻭ
ﻰ
ﻱ
ﻻ
（
）
：
？
𒀭
𒀯
𒀳
𒂗
𒃶
𒈾
𒌌
🜨
𠀁
𠀃
𠀆
𠀉
𠀎
𠀐
𠁁
𠁣
𠂆
𠂇
𠂈
𠂉
𠂊
𠂋
𠂎
𠂒
𠂔
𠂛
𠂡
𠂢
𠂤
𠂬
𠂭
𠂹
𠃊
𠃋
𠃌
𠃍
𠃎
𠃑
𠃓
𠃔
𠃜
𠄌
𠄎
𠄠
𠄢
𠆢
𠆥
𠇍
𠈌
𠌵
𠓜
𠔉
𠔥
𠔼
𠔽
𠔿
𠕀
𠕁
𠕋
𠘧
𠘨
𠙻
𠙼
𠚏
𠚒
𠚤
𠚪
𠣏
𠤎
𠤕
𠥓
𠦄
𠦑
𠦝
𠧒
𠧗
𠧪
𠩺
𠪚
𠫓
𠫔
𠫤
𠬛
𠬝
𠬞
𠬢
𠬤
𠬶
𠮛
𠮦
𠮷
𠯑
𠱠
𠳮
𠷎
𡈼
𡉀
𡉵
𡌥
𡍮
𡏳
𡕒
𡕩
𡕰
𡖅
𡗗
𡗜
𡘆
𡘤
𡧱
𡨄
𡩧
𡬠
𡭽
𡰣
𡰥
𡰪
𡰯
𡰱
𡷈
𡸁
𡿨
𡿩
𡿪
𡿺
𢀖
𢀛
𢀩
𢁙
𢆉
𢆰
𢆶
𢇁
𢇇
𢉖
𢌬
𢌿
𢏚
𢑑
𢑚
𢖻
𢙣
𢛳
𢦏
𢦒
𢧵
𢼄
𢾕
𣁋
𣄼
𣅀
𣅽
𣍘
𣎳
𣎵
𣏋
𣏼
𣗥
𣥂
𣥖
𣦵
𣦼
𣧄
𣪊
𣪠
𣬉
𣳾
𣶒
𤇾
𤊽
𤐫
𤓰
𤔔
𤕨
𤣩
𤰇
𤰔
𤰞
𤴓
𤴔
𤽄
𥁑
𥁕
𥃦
𥃩
𥃭
𥇡
𥑟
𥘅
𥘈
𥝢
𥫗
𥱡
𦈢
𦉪
𦉬
𦉼
𦍌
𦍒
𦎧
𦐇
𦓔
𦔮
𦘒
𦙃
𦚏
𦣝
𦣞
𦣻
𦥑
𦥔
𦥯
𦨉
𦭝
𦰩
𧆞
𧈧
𧘇
𧰨
𧴪
𧴮
𧵩
𧾷
𨸏
𨾴
𩙿
𩠐
𩫏
𩵋
𪉷
𪜀
𪟽
𪠲
𪩲
𫇦
𫔭
𫜸
𫝀
𫠣
𫠩
𫢉
𫥞
𫩏
𫩠
𫪡
𫲽
𫶧
𬀷
𬐘
𬗌
𬙙
𬛸
𬜯
𬟩
𬯁
𬴘
𬺻
𬼉
𬼖
𭀰
𭁈
𭁨
𭅰
𭑈
𭕄
𭗼
𭤨
𭥫
𭻾
𮅕
𮊿
𮍌
𮍏
𮓗
𮥼
𮧮
廾
𰀁
𰀄
𰀈
𰀉
𰀕
𰀠
𰀡
𰀢
𰀪
𰁜
𰃮
𰆊
𰆘
𰋙
𰕎
𰢴
𰧭
𰯲
000--
02--
04--
05--
06--
07--
08--
08598--
09--
090--
09070--
09506--
150--
263--
291--
39--
40--
403--
405--
41--
43--
45--
46--
47--
49--
51--
52--
53--
54--
55--
58--
596--
61--
64--
66--
69--
70--
71--
72--
73--
74--
85--
86--
90--
900--
904--
91--
93--
946--
95--
954--
978--
97806--
97808--
99--
a--
aa--
aard--
ab--
aber--
abid--
ac--
acro--
ad--
add--
adeno--
adminis--
aer--
af--
ag--
agh--
agri--
ah--
ai--
air--
aja--
ak--
aka--
aki--
al--
ala--
alamand--
alco--
alek--
alen--
alge--
ali--
all--
alle--
allerge--
alpa--
alph--
als--
alt--
am--
amal--
ambly--
ame--
amm--
amphi--
an--
ana--
anar--
anc--
and--
andal--
aned--
anem--
aner--
angios--
angl--
ani--
ans--
ant--
ao--
aor--
ap--
app--
aqui--
ar--
ara--
arben--
arbro--
are--
arfe--
argemm--
argh--
argyr--
ari--
arit--
arlo--
arm--
art--
arv--
arwost--
as--
asa--
asce--
ash--
asp--
assen--
aste--
asti--
astu--
at--
ath--
atro--
au--
auct--
aur--
aus--
auto--
ave--
avi--
avo--
aw--
awto--
ay--
ayr--
az--
azam--
azerbai--
b--
ba--
bacc--
bad--
bahr--
bai--
bakers--
bal--
ban--
bar--
barbi--
bas--
bass--
bata--
batt--
bau--
bayn--
be--
beau--
bed--
bee--
bel--
beli--
ben--
benn--
benyn--
ber--
bern--
bes--
bet--
bew--
bh--
bha--
bi--
big--
bin--
bio--
biog--
bir--
biz--
bl--
bla--
blo--
blue--
bly--
bo--
bob--
bod--
bogh--
boly--
bomb--
bon--
bor--
born--
borth--
bos--
bot--
bou--
boud--
bow--
boy--
br--
bra--
bre--
breyn--
bri--
bro--
bron--
brook--
broun--
bru--
bry--
bryn--
bu--
buck--
bud--
bun--
bundes--
bur--
bus--
bush--
bw--
by--
bys--
byw--
byzan--
c--
ca--
cac--
cad--
cal--
cala--
cald--
cali--
calli--
cam--
can--
canal--
capri--
capt--
car--
cara--
carn--
cas--
cat--
caw--
ce--
cel--
cele--
cens--
ceph--
cer--
ceratop--
ch--
cha--
champ--
chan--
che--
chi--
cho--
chu--
ci--
cil--
cir--
cityof--
cl--
cla--
cle--
clup--
cly--
cn--
co--
cock--
coe--
coed--
cogn--
col--
com--
compre--
compsog--
con--
conqui--
coom--
cop--
coper--
cor--
cosmog--
cow--
cr--
crans--
cre--
cres--
cro--
ct--
cu--
cul--
cum--
curt--
cwm--
cy--
cycl--
cyff--
cyn--
cze--
czecho--
d--
da--
dadh--
dai--
dal--
dan--
dar--
das--
dasle--
day--
db--
dd--
de--
deb--
dec--
deg--
dei--
dek--
dekla--
del--
deliv--
dem--
den--
der--
des--
desedhy--
det--
deu--
dev--
dew--
dh--
dha--
dhann--
dhar--
dhas--
dhass--
dhasw--
dhe--
dhesk--
dhew--
dhi--
dhid--
dhif--
dhifeyth--
dhige--
dhin--
dhis--
dhiv--
dhiw--
dhor--
dhowr--
dhu--
dhy--
di--
dia--
did--
didhe--
diff--
dige--
digo--
dim--
din--
dinofla--
dinos--
dio--
dios--
dir--
disc--
discern--
disk--
diskud--
disp--
disq--
dist--
diw--
diwe--
diwys--
dj--
do--
dol--
doo--
dop--
dor--
dorn--
dory--
dos--
down--
dowr--
dr--
dra--
dre--
dreus--
dri--
dro--
drog--
dru--
du--
dub--
duc--
dumn--
dun--
dur--
durocor--
dwy--
dy--
dyb--
dys--
dysq--
dyv--
dz--
e--
ea--
earth--
ec--
eccle--
eco--
econo--
ed--
ee--
ef--
eg--
egg--
egh--
egl--
ei--
ejyp--
ek--
ekokevre--
eksam--
ekspe--
el--
ela--
elec--
elek--
elektro--
eli--
em--
emer--
emskemu--
en--
encycl--
end--
eni--
eno--
ep--
epis--
epit--
eps--
equ--
equi--
er--
erbi--
erit--
ervy--
es--
esk--
est--
estew--
et--
eth--
ethno--
eu--
euro--
eus--
ev--
eve--
ever--
ew--
ewn--
ex--
exam--
explo--
eyl--
f--
fa--
fab--
fair--
fal--
fan--
far--
fat--
faw--
fe--
fel--
fenn--
feno--
fer--
fes--
feu--
ff--
fi--
filo--
fin--
fl--
fla--
fland--
fle--
floo--
floren--
flu--
fly--
fo--
fol--
fono--
foo--
for--
fos--
foto--
fr--
fra--
fract--
frank--
fred--
free--
frei--
frenologi--
fri--
fro--
fru--
fu--
fug--
fun--
fur--
furv--
fy--
g--
ga--
gad--
gait--
gal--
gala--
gale--
gamb--
gamm--
gan--
gar--
gas--
gau--
gaw--
gay--
gaze--
ge--
geff--
gel--
gen--
ger--
gergh--
ges--
gesor--
gesst--
get--
gevar--
gh--
gi--
gia--
gig--
gil--
gis--
giu--
gl--
glas--
glaw--
glen--
gleu--
glo--
glu--
gly--
gn--
go--
god--
godh--
gol--
gold--
golog--
golow--
gomp--
gon--
goni--
gons--
goon--
gop--
gor--
gors--
gorth--
gos--
gosm--
gour--
gov--
gow--
gowl--
gr--
gra--
grand--
gre--
gref--
gres--
gri--
gro--
grom--
groß--
gru--
gry--
gu--
gua--
guer--
gur--
gw--
gwa--
gwand--
gwart--
gwed--
gwels--
gwes--
gwi--
gwin--
gwy--
gwyn--
gy--
gyl--
gyns--
gyr--
h--
ha--
haf--
hai--
hal--
han--
hanter--
har--
hard--
harle--
harm--
has--
hat--
hav--
haw--
hay--
he--
hea--
heb--
hei--
hel--
hemb--
hen--
her--
herb--
hes--
heu--
hev--
hi--
hidro--
hil--
hin--
hir--
his--
hista--
ho--
hol--
homp--
hon--
hor--
hos--
how--
howl--
hr--
hrad--
hu--
hun--
hurr--
hus--
hw--
hwel--
hwi--
hwod--
hwor--
hwy--
hwyth--
hy--
hyper--
i--
ia--
ic--
id--
iden--
ideo--
if--
il--
ill--
illus--
ilu--
im--
imag--
impre--
in--
inc--
indi--
infe--
inst--
instru--
inter--
inva--
io--
ir--
is--
isle--
iso--
it--
iu--
iv--
ixod--
j--
ja--
jan--
jar--
je--
ji--
jin--
jo--
jon--
ju--
jun--
jy--
jynn--
k--
ka--
kal--
kalet--
kall--
kamm--
kamp--
kampo--
kan--
kap--
kar--
kara--
karn--
karr--
karva--
kas--
ke--
kea--
kel--
ken--
kenedh--
kent--
ker--
kes--
ket--
keth--
keur--
kev--
kevar--
kevo--
kew--
key--
kh--
kho--
ki--
kig--
kil--
kim--
kine--
king--
kir--
kis--
kit--
kla--
kle--
klu--
kna--
ko--
kol--
komm--
komp--
kompre--
kon--
kons--
kontra--
kor--
korr--
korth--
kos--
kou--
kowl--
kowr--
kr--
kra--
kram--
kre--
krea--
krenn--
kres--
kri--
kro--
krof--
krono--
krows--
kry--
ks--
ku--
kul--
kur--
kw--
kway--
kwer--
kwre--
kwy--
ky--
kyf--
kymy--
kyn--
kyns--
kyrg--
kı--
l--
la--
lamm--
lan--
land--
lang--
lann--
lar--
las--
lau--
laur--
law--
le--
lect--
led--
lef--
leg--
len--
ler--
les--
let--
leuco--
leuv--
lev--
lexi--
ley--
li--
lies--
lim--
lin--
litho--
liv--
liw--
ll--
llan--
lle--
llin--
llwyn--
lly--
lo--
lock--
loe--
logh--
lok--
lomb--
long--
los--
losk--
lost--
low--
lu--
lugd--
lumb--
lus--
lusit--
lv--
ly--
lyf--
lym--
lys--
lø--
m--
ma--
mab--
mac--
macro--
mad--
mag--
mai--
mak--
mal--
mam--
man--
manif--
map--
maq--
mar--
mara--
mari--
mars--
mas--
mat--
matsu--
mau--
mauri--
maw--
may--
maz--
mb--
mc--
me--
med--
medh--
medi--
mei--
mel--
melin--
men--
mentri--
menys--
mer--
mes--
meta--
meur--
mi--
mic--
micro--
mid--
mign--
mil--
min--
mir--
mis--
mit--
mo--
moch--
mod--
mol--
momen--
mon--
mono--
mont--
moon--
mor--
morg--
mou--
ms--
mu--
mul--
mult--
mun--
munic--
mur--
musc--
my--
myl--
myr--
mys--
n--
na--
nag--
nak--
nan--
nans--
nas--
nat--
nc--
nd--
nde--
ne--
nee--
neo--
ner--
neu--
nev--
new--
newro--
ng--
ngu--
ni--
nic--
nio--
nn--
no--
nor--
north--
nos--
not--
nou--
nowed--
nowedhy--
ns--
ntg--
nu--
ny--
nzi--
o--
ob--
ober--
obs--
observa--
oc--
octop--
od--
oes--
of--
off--
og--
oh--
ok--
ol--
old--
ole--
oll--
olym--
om--
omdh--
omdhis--
omgu--
omni--
oms--
omset--
on--
one--
oo--
op--
ophthal--
or--
ori--
ornitho--
oro--
ortho--
oryct--
os--
ost--
osteo--
ou--
out--
over--
ow--
owr--
oy--
p--
pa--
pack--
pala--
palaeo--
pall--
pan--
par--
para--
pas--
past--
pat--
pawtu--
payn--
pe--
pedn--
pegh--
pel--
pell--
pen--
pendy--
penn--
per--
pes--
pet--
pf--
ph--
phos--
phys--
pi--
pig--
pil--
pin--
pinoc--
pl--
ple--
plo--
pluw--
po--
pob--
pod--
pol--
polit--
politi--
poll--
poly--
pons--
pont--
pop--
por--
port--
porth--
pos--
posit--
pot--
pows--
pra--
pras--
pre--
pri--
prin--
princ--
pro--
pry--
ps--
pseu--
pseudos--
psycho--
pt--
ptole--
pu--
pub--
pur--
purit--
puzz--
px--
py--
pyn--
pys--
q--
qa--
qi--
qu--
que--
quest--
quin--
r--
ra--
rac--
race--
rad--
radyo--
rag--
rak--
rama--
ran--
rann--
ras--
re--
red--
reg--
regu--
rein--
reli--
ren--
repo--
repres--
repti--
res--
resis--
reu--
rev--
rew--
rh--
rhei--
rhin--
rho--
rhu--
ri--
riz--
rn--
ro--
road--
rob--
rod--
rom--
roo--
ros--
rose--
rou--
rous--
row--
rs--
rt--
ru--
rub--
ry--
rye--
rys--
rø--
s--
sa--
saar--
sab--
sal--
sam--
san--
sar--
satu--
sau--
saur--
sav--
saw--
sb--
sc--
scab--
sch--
sche--
scor--
scre--
scu--
se--
sea--
sedh--
see--
sei--
sek--
sel--
semp--
sen--
ser--
serghog--
sex--
sh--
sha--
she--
shi--
sho--
show--
shu--
si--
sia--
sie--
sil--
sim--
sin--
sir--
sit--
sk--
ska--
skatt--
sko--
sku--
skwir--
sky--
sla--
sli--
slo--
sm--
smel--
smeth--
sn--
so--
soci--
sol--
sole--
soli--
son--
sor--
soroas--
sosia--
sou--
sow--
sp--
spa--
spe--
spek--
spil--
spin--
spod--
spra--
spral--
spy--
sr--
ss--
st--
sta--
stat--
ste--
stei--
ster--
sti--
stman--
stout--
stre--
stro--
strom--
stron--
stu--
su--
subs--
sugg--
sul--
sun--
super--
suppor--
sur--
sus--
sve--
sw--
sy--
sylla--
t--
ta--
tab--
tal--
tan--
tar--
tardi--
tas--
tau--
tav--
taxono--
te--
tea--
tech--
ted--
tel--
temp--
ten--
ter--
tes--
tetra--
teu--
teuro--
tew--
tex--
text--
th--
tha--
the--
thi--
tho--
thor--
thow--
thu--
thy--
ti--
tian--
tide--
tim--
tin--
tip--
tir--
tisa--
tisk--
tju--
to--
tol--
ton--
too--
top--
tor--
tos--
tou--
tr--
tra--
tram--
trans--
tray--
tre--
tref--
trego--
treus--
trev--
trew--
tri--
tro--
tru--
try--
ts--
tu--
tul--
tun--
tur--
turm--
turs--
tus--
ty--
tyby--
tyll--
tyr--
u--
ub--
ud--
ugh--
ughel--
uk--
ul--
um--
un--
under--
unn--
up--
upani--
ur--
us--
utt--
uu--
v--
va--
vag--
val--
vamm--
van--
var--
vas--
vat--
ve--
vek--
vel--
ven--
venes--
venys--
ver--
ves--
vet--
veu--
vew--
vi--
viaj--
vil--
ville--
vin--
vir--
vis--
vl--
vle--
vleu--
vo--
vog--
vogh--
vol--
vom--
von--
vor--
vos--
vr--
vri--
vro--
vry--
vryn--
vu--
vul--
vurje--
vy--
vyr--
vywoni--
w--
wa--
wal--
war--
wari--
was--
water--
we--
wedge--
wel--
wels--
wen--
wer--
west--
wh--
whet--
whit--
wi--
wiki--
wil--
win--
wind--
wir--
wo--
wol--
wood--
wor--
worth--
wre--
wrythy--
wy--
wyn--
x--
xant--
xe--
xeno--
xi--
y--
ya--
yam--
yao--
yd--
ye--
yer--
ym--
ympe--
yn--
ynkor--
yns--
ynter--
yntre--
yo--
ys--
ytt--
yu--
z--
za--
zan--
zast--
ze--
zi--
zimb--
zo--
zu--
zy--
ð--
ł--
ə--
ɡ--
ɪ--
ʁ--
ʃ--
α--
β--
γ--
δ--
δο--
ε--
ελλη--
θ--
κ--
λ--
μ--
ν--
να--
ο--
π--
ρ--
σ--
τ--
φ--
χ--
б--
г--
гро--
дит--
ил--
л--
ле--
м--
ми--
мо--
н--
но--
о--
п--
пе--
по--
пі--
р--
ру--
с--
се--
су--
те--
ч--
чи--
ا--
ال--
الس--
الع--
الك--
ب--
ح--
د--
شي--
ع--
ك--
ل--
م--
ي--
ज--
व--
स--
--0
--00
--02
--05
--06
--08
--0818
--09
--1
--10
--11
--12
--13
--14
--2
--20
--21
--22
--23
--24
--27
--28
--29
--3
--30
--34
--38
--4
--42
--44
--46
--47
--48
--5
--53
--57
--6
--60
--64
--67
--68
--7
--77
--78
--79
--8
--80
--81
--87
--9
--95
--97
--a
--aa
--ab
--able
--ac
--aca
--acea
--aceae
--ach
--ack
--acyon
--ad
--ader
--adewder
--adh
--ado
--ados
--adow
--ae
--aek
--ael
--aeota
--af
--ag
--age
--agh
--ago
--ah
--ai
--aic
--ail
--ain
--ais
--aite
--ak
--aki
--akow
--al
--ale
--alek
--ales
--all
--ally
--alun
--alus
--alya
--am
--ama
--aman
--an
--ana
--and
--ane
--anek
--anes
--ang
--ano
--anos
--ans
--ansek
--ansow
--ant
--anus
--any
--aol
--ap
--aq
--ar
--ard
--ardak
--argh
--ari
--aria
--arin
--arius
--arn
--aro
--arum
--arus
--arvon
--ary
--as
--ase
--asek
--ashq
--asse
--ast
--at
--ata
--ate
--ated
--atek
--ater
--ates
--ath
--ati
--ation
--ations
--ative
--ato
--ator
--atory
--ats
--att
--atus
--atya
--atys
--au
--auria
--aurus
--av
--aw
--awa
--ax
--ay
--aya
--az
--azh
--b
--ba
--bah
--bahn
--bar
--bb
--be
--bein
--bel
--berg
--bi
--ble
--bo
--boat
--bok
--boro
--bow
--brer
--bri
--bu
--buktu
--burg
--bury
--by
--bys
--c
--ca
--cal
--car
--cawl
--cc
--ce
--ceae
--cen
--ceps
--ces
--ch
--chaeota
--che
--chi
--cht
--chts
--chus
--ci
--cio
--city
--ck
--cks
--co
--cote
--cott
--cp
--craft
--cs
--ct
--cta
--ctic
--ction
--ctive
--ctor
--cu
--cue
--cus
--cut
--cy
--cyon
--d
--da
--dae
--daf
--dal
--dale
--dan
--das
--date
--day
--dd
--de
--ded
--dek
--den
--der
--des
--dh
--dha
--dhebroryon
--dhek
--dhi
--dhu
--dhyer
--dhyon
--di
--dice
--dion
--dir
--dis
--dit
--dium
--dle
--dn
--do
--don
--dor
--doryon
--dow
--dowder
--down
--dr
--dra
--ds
--du
--dur
--dw
--dwr
--dy
--dya
--dyer
--dyes
--dyn
--e
--ea
--eae
--ean
--eans
--eas
--eau
--eaza
--eb
--ebi
--ebow
--ebys
--ec
--eca
--ech
--ect
--ed
--eda
--edd
--edh
--edha
--edhas
--edhek
--edhi
--edhow
--edhyek
--edi
--ee
--eed
--eer
--ees
--eg
--egas
--eger
--egeth
--egi
--egieth
--egor
--egorek
--egoryon
--egow
--egva
--egyans
--egydh
--egyon
--egys
--eh
--ehi
--ei
--eig
--eil
--ek
--ekka
--eks
--ekter
--el
--ele
--elek
--elf
--elghen
--ell
--ellow
--em
--ema
--emer
--emerer
--emik
--en
--ence
--endya
--ene
--enek
--eni
--enid
--ening
--enn
--enna
--ennek
--ennow
--enow
--ens
--ense
--ensis
--ent
--eo
--eota
--ep
--epin
--er
--era
--erch
--ere
--erek
--erg
--eri
--erman
--ern
--ero
--erre
--ers
--ert
--erth
--erus
--ery
--es
--ese
--esek
--esi
--esigyon
--esik
--esow
--ess
--est
--et
--ete
--eter
--eth
--ethow
--eti
--ets
--ett
--ette
--eu
--eum
--eur
--ev
--evow
--evys
--evysi
--ew
--ewgh
--ewi
--ewys
--ex
--ey
--ez
--f
--fa
--fan
--fekt
--fem
--femow
--fen
--fer
--ff
--ffa
--ffek
--fi
--field
--fil
--fit
--fo
--fon
--ford
--fow
--fs
--ft
--ful
--furv
--fynydd
--fys
--g
--ga
--gach
--gad
--gam
--gas
--gate
--ge
--gedh
--gefow
--gek
--ger
--ges
--geun
--gga
--gh
--gha
--gham
--ghe
--ghek
--gher
--ghes
--ghi
--ghow
--ght
--ghus
--ghyn
--ghys
--gi
--gie
--gin
--gio
--git
--gla
--gle
--gles
--gne
--go
--gompes
--gon
--goryon
--gos
--gov
--gow
--gri
--gs
--gt
--gu
--gua
--gue
--gus
--gva
--gwag
--gwm
--gy
--gya
--gydh
--gyer
--gyon
--gys
--h
--ha
--ham
--han
--har
--has
--haus
--he
--heans
--heansow
--heas
--hek
--hen
--hes
--hesis
--heys
--hi
--hia
--hida
--hie
--hion
--hl
--hn
--ho
--hof
--house
--how
--hra
--hs
--ht
--http
--https
--hu
--hy
--hya
--hyon
--hys
--hyta
--i
--ia
--iac
--iaceae
--iad
--ial
--ian
--iana
--ians
--iar
--ias
--iat
--iau
--ib
--ible
--ibus
--ic
--ica
--ical
--ich
--ick
--ico
--ics
--icus
--id
--ida
--idae
--ide
--idea
--ides
--idge
--idi
--idow
--ids
--ie
--ied
--iek
--iel
--ien
--ier
--ies
--ieth
--iethel
--if
--ifolia
--ig
--iga
--igeth
--igh
--ight
--igow
--igyon
--ih
--ii
--ija
--ik
--ika
--ike
--il
--ila
--ilar
--ili
--ilis
--ilon
--im
--ima
--imi
--imo
--imum
--in
--ina
--inae
--inal
--inda
--ine
--ing
--ings
--ington
--inho
--ini
--inium
--ino
--inow
--ins
--int
--inus
--io
--iog
--iom
--ion
--ions
--iorum
--ios
--iot
--iou
--iow
--ip
--iq
--ique
--ir
--ira
--ire
--iro
--irs
--irus
--iryow
--is
--isation
--ise
--ises
--ish
--isi
--isis
--ism
--ispen
--ist
--iste
--it
--ita
--ite
--itek
--ites
--ith
--itis
--ito
--iton
--ity
--itz
--ium
--ius
--iv
--iva
--ive
--iver
--ivity
--iw
--ix
--iyya
--iz
--izacio
--ize
--j
--ja
--jarret
--je
--jek
--jen
--ji
--jiow
--jn
--jo
--jow
--ju
--jy
--k
--ka
--kan
--kar
--kas
--ke
--kek
--kel
--ker
--kh
--khe
--ki
--kin
--kins
--ko
--korrel
--krif
--ks
--ksid
--kt
--ku
--ky
--kya
--kys
--l
--la
--lah
--lais
--lam
--lammow
--lan
--land
--larya
--las
--ld
--lds
--le
--led
--leigh
--lek
--lem
--len
--lennow
--les
--ley
--li
--liche
--lied
--lier
--lin
--ling
--lip
--lis
--list
--lity
--liw
--ll
--lla
--lle
--llek
--lli
--llo
--llon
--llos
--llow
--lls
--lo
--log
--logy
--lon
--lond
--low
--lowr
--lp
--ls
--lt
--lu
--lus
--ly
--lya
--lyas
--lyow
--lys
--m
--ma
--maa
--maine
--man
--map
--mba
--me
--mek
--mel
--men
--ment
--mes
--mi
--mia
--mis
--mley
--mm
--mmyn
--mo
--mor
--more
--morpha
--mouth
--mow
--ms
--mu
--mur
--mus
--my
--mygyans
--myn
--n
--na
--nadow
--nah
--nai
--nak
--nan
--nans
--nar
--nas
--nau
--nc
--nce
--ncy
--nd
--nder
--ndo
--ne
--negow
--nek
--nel
--nen
--nennow
--ner
--ners
--nery
--nes
--ness
--neth
--neves
--ney
--ng
--ngton
--ni
--nia
--nid
--nieth
--nik
--nika
--nin
--nir
--nity
--nj
--njow
--nk
--nko
--nn
--nna
--nnas
--nne
--nnen
--nnow
--no
--nock
--nogyon
--nor
--noryon
--nos
--nou
--now
--ns
--nsek
--nsi
--nsis
--nsow
--nsys
--nt
--nte
--nti
--nts
--nu
--num
--nus
--nwg
--ny
--nya
--nyans
--nyas
--nydh
--nyek
--nyon
--nyow
--nys
--nz
--o
--oc
--och
--ock
--oco
--od
--oda
--odd
--odek
--odi
--odiophyta
--odontidae
--oe
--oed
--oedd
--oedh
--ofer
--og
--ogen
--oges
--ogeth
--ogh
--ogieth
--ogiethow
--oglio
--ogos
--ogow
--ogus
--ogy
--ogyon
--oi
--oidea
--oideae
--ok
--oka
--ol
--ola
--oli
--olia
--olo
--ology
--olyow
--om
--oma
--omorpha
--on
--ona
--onas
--ond
--one
--onek
--oni
--onieth
--onnen
--ons
--ont
--ontologieth
--ony
--onydh
--oo
--ook
--oon
--op
--opel
--ophyta
--opoda
--ops
--or
--ora
--ord
--ordh
--ore
--ores
--ori
--oria
--orn
--orpha
--orr
--orus
--oryon
--os
--osa
--osauria
--osaurus
--osel
--osis
--osomow
--osus
--ot
--ota
--oth
--oto
--otti
--ou
--oun
--our
--ous
--out
--ov
--ovich
--ow
--owgh
--oy
--oydow
--ozoa
--ozoek
--p
--pa
--paw
--pe
--pei
--ph
--pha
--phia
--phora
--phy
--pi
--pia
--port
--ppe
--ppys
--ps
--pu
--pur
--pus
--putra
--py
--pyat
--q
--que
--r
--ra
--ram
--ran
--ranow
--rat
--rc
--rch
--rd
--re
--rea
--red
--ree
--reft
--rek
--rel
--rell
--res
--reth
--rey
--rg
--rge
--rgh
--ri
--ria
--rie
--rier
--ries
--rig
--rik
--rilo
--rin
--rine
--rit
--ritis
--rium
--rius
--riv
--riw
--rj
--rk
--rly
--rm
--rn
--rne
--ro
--rocta
--ror
--ros
--roth
--rou
--row
--rra
--rrow
--rs
--rson
--rt
--rta
--rton
--rum
--rw
--ry
--rya
--ryas
--ryk
--ryn
--ryon
--ryor
--rys
--s
--sa
--sas
--sauridae
--sberg
--sburg
--sbury
--sby
--scape
--sch
--scus
--se
--sec
--sek
--sen
--ser
--ses
--sey
--sh
--shire
--si
--sii
--sik
--sis
--sit
--sition
--sium
--sius
--sk
--sko
--sky
--sman
--sner
--so
--son
--sons
--sor
--soryon
--sow
--spot
--sran
--ss
--ssen
--sson
--st
--stad
--ster
--stin
--ston
--su
--suit
--sville
--sy
--sya
--syon
--syow
--sys
--t
--ta
--tadt
--tag
--tal
--tan
--tar
--tas
--te
--teen
--teenth
--teg
--tein
--tek
--ten
--ter
--terow
--tes
--tford
--th
--the
--thek
--thi
--thing
--thow
--thva
--thys
--ti
--tia
--tic
--tica
--tical
--tics
--tie
--ties
--tiga
--tigys
--tii
--tik
--time
--tin
--ting
--tiom
--tion
--tions
--tiow
--tir
--tis
--tium
--tive
--tle
--tley
--to
--toc
--tok
--tol
--ton
--tone
--tor
--tow
--town
--tra
--try
--ts
--tsu
--tt
--tta
--tte
--tti
--tton
--tty
--tu
--tum
--tur
--turm
--tus
--tva
--ty
--tya
--tyn
--tyon
--tys
--tz
--u
--ua
--uan
--ub
--uca
--uch
--ud
--ue
--uek
--uel
--uer
--ug
--ugh
--ui
--uj
--uk
--uke
--ul
--ula
--ular
--ulf
--ulidae
--ulu
--um
--uma
--un
--ung
--uni
--ur
--ura
--urai
--ure
--urg
--uri
--uro
--urs
--urst
--us
--ust
--uster
--usz
--ut
--ute
--uth
--utya
--uws
--ux
--v
--va
--vah
--val
--vaow
--ve
--ven
--venieth
--ver
--ves
--veyn
--vi
--vic
--vich
--view
--vil
--ville
--vin
--vina
--ving
--vius
--vonni
--vor
--vorow
--vos
--vow
--vre
--vro
--vs
--vy
--vya
--vyas
--vyes
--vyn
--w
--wa
--wan
--wans
--ware
--warth
--was
--water
--way
--wch
--we
--wedh
--weghi
--wel
--wen
--wer
--wes
--wesik
--weyth
--wg
--wgh
--wi
--wick
--wise
--wn
--wood
--wr
--ws
--wu
--wy
--wyd
--wyn
--wynn
--wys
--wyth
--x
--xa
--y
--ya
--yades
--yadow
--yah
--yan
--yanjow
--yans
--yansow
--yar
--yard
--yas
--ybi
--yd
--ydd
--ydh
--ydhek
--ydhyon
--ye
--yeh
--yek
--yel
--yer
--yes
--yeth
--yewgh
--yf
--yfed
--ygel
--ygidae
--ygla
--ygyon
--ygys
--yi
--ying
--yj
--yjyon
--yk
--ykh
--yl
--yli
--ylya
--ylys
--yn
--yna
--ynek
--ynieth
--ynya
--ynyow
--yo
--yogyon
--yon
--yons
--yor
--yores
--yoryon
--yow
--yp
--yr
--yrn
--yron
--ys
--ysi
--ysk
--ysow
--yst
--ysy
--ysyon
--yt
--yta
--yth
--yu
--yv
--yver
--yw
--ywi
--yx
--yya
--yz
--z
--za
--ze
--zec
--zen
--zer
--zh
--zi
--zin
--zo
--zoa
--zong
--zou
--zy
--zzi
--ß
--ð
--ła
--ŋ
--ɐ
--ɑ
--ə
--ən
--ɜ
--ɪ
--ɪl
--ʊ
--α
--ε
--η
--ι
--ν
--ο
--ος
--ς
--υ
--а
--в
--ди
--е
--еи
--и
--ии
--ич
--ия
--к
--кии
--ку
--л
--н
--ни
--нии
--нија
--ні
--о
--ом
--р
--ра
--ти
--у
--ь
--я
--і
--ים
--ء
--ا
--ب
--ة
--ج
--د
--رة
--س
--ل
--لة
--م
--ن
--و
--ي
--ين
