!
"
#
##0
##1
##10
##11
##12
##13
##14
##15
##16
##17
##18
##19
##2
##20
##21
##22
##23
##24
##25
##26
##27
##28
##29
##3
##30
##31
##32
##33
##34
##35
##36
##37
##38
##39
##4
##40
##41
##42
##43
##44
##45
##46
##47
##48
##49
##5
##50
##51
##52
##53
##54
##55
##56
##57
##58
##59
##6
##60
##61
##62
##63
##64
##65
##66
##67
##68
##69
##7
##70
##71
##72
##73
##74
##75
##76
##77
##78
##79
##8
##80
##81
##82
##83
##84
##85
##86
##87
##88
##89
##9
##90
##91
##92
##93
##94
##95
##96
##97
##98
##99
$
%
&
'
(
)
*
+
,
-
.
/
0
00
000
0000
000040
0001
0002
001
001358
002
003
003072
005
005114
005349
005385
006567
007
007304
007770
0081
009
01
0100000
0140
02
0212
03
033
034962
0362
04
05
06
060
07
08
09
1
10
100
1000
10000
1001
1002
1003
1007
101
1010
101207543
101490
101537013
1016
1017
102
1020
1021
1024
1025
1029
103
1030
10304263
1031
1034
1038
1039
104
1040
104244355
1043319
1045
1046
104619889
104641554
105
1050
1051
1054
1055
1056
1057
106
106195
1063
1064
1065
107
1071
1072
107212659
1073
107343683
108
1080
1081
1085
10855166
1086
1089
109
1093
109453
1095
1096
1097
1098
1099
11
110
1100
1101
110250907
110313893
110382235
1105
110751466
1108
111
1111
1113
11148
1118
112
1123
1124
1125
1126
1128537
11299
113
1134707
1136
1137
114
1144
1145
114555440
114574126
114588221
1146
1147
115
1150
1152
116
1163
1166
1169
117
1170
1173
1177
118
1182
1184
1185
1185686
1187
1188
1189
119
1190
1191
1192
1193
1194038
1198
12
120
1200
1201
1201876
1202
1203
1204
121
1210
1211
1212
1213
1214
12148
1215
1216
1218
1219
122
1220
1221
1225
1226
1227
123
1230
1235
1236
1237
1238
124
1240
1241
1242
1244
1248
12480
125
1250
1251
1252
1254
1255
1256
1258
125898
126
1260
1261
1262
1265
1266
127
1270
1271
1272
1273
1274
1276
1279
128
1280
1281
1284
1285
1289
129
1291
1292
1293
1295
1299
13
130
1300
1304
13053618
1306
1307
1309
130903
131
1310
1311
1314
131454
132
13219454
133
133396
1336
134
1340
13409386
1341
1346
135
1350
1353
1354
13550863
136
1360
1365
137
1370
1373513
1375
138
1381
138416
1386
1387
139
1392
1393
14
140
1400
1402
1405
141
1410
141278
142
1420
1428
143
1430
1435
144
1441
1444
1446
1448
145
1450
1453
1458
1459210
146
1460
1461
1462
1466
1466106
1467
1469
147
1470
1475
1476
1477
1478
148
1480
1481
1483
1489
149
1490
1492
1496
1499
15
150
1500
1501
1502
1503
1505
1507
151
1510
1511
1512
1513
1514
1515
1516
1517
1519
152
1520
1521
1522
15222191
1523
1524
1526
1527
153
1532
1534
1539
154
1540
1541
1542
1543
1546
1547
1547776
155
1550
1553
1554
1555
156
1560
1564
1565
156616
1568
1569
157
1570
15706812
1571
1573
1575
1576
1577
158
1580
1581
1582
1583
1584
1585
1586
1588
1589
159
1590
1591
1592
1593
1594
1595
1596
1597
1598
1599
16
160
1600
1601
1602
1603
1604
1605
1606
1607
1608
1609
161
1610
1611
1612
1613
1614
1615
1616
1617
161718
1618
1619
162
1620
1621
1622
1623
1625
1626
1627
1628
1629
163
1630
1631
1632
16323066
1633
1634
1635
1636
1637
1638
1639
164
1640
1641
1642
1643
164396
1644
1645
1646
1647
1648
1649
165
1650
1651
1652
1653
1654
1655
1656
1657
1658
1659
166
1660
1661
1662
1663
1664
1665
1666
1667
1668
1669
167
1670
1671
1672
1673
1674
1675
1676
1677
1678
1679
168
1680
1681
1682
1683
1684
1685
1686
1687
1688
16881940
1689
169
1690
1691
1692
1693
1694
1695
1697
1698
1699
17
170
1700
1701
170109
1702
1703
1704
1705
1706
1707
1708
1709
171
1710
1711
1712
1713
1714
1715
1716
1717
1718
1719
172
1720
1721
1722
1723
1724
1725
1726
1727
1728
1729
17299517
173
1730
1731
1732
1733
1734
1735
1736
1737
17378135
1738
1739
174
1740
1741
1742
1743
1744
1745
1746
1747
1748
1749
175
1750
1751
1752
1753
17539639
1754
17544623
1755
1756
17560796
17562358
17565097
1757
1758
17582342
1759
17591753
17591756
17591758
17597568
17597570
17597571
17597573
17597578
176
1760
1761
1762
1763
1764
1765
1766
1768
1769
177
1770
1771
1772
1773
1774
1775
1776
1777
1778
1779
178
1780
1781
1782
1783
1784
1785
1786
1787
1788
1789
179
1790
1791
1792
1793
1794
1795
1796
1797
1798
1798125
1799
18
180
1800
1801
1802
1803
1804
1805
1806
1807
1808
1809
181
1810
1811
1812
1813
1814
1815
1816
1817
1818
1819
182
1820
1821
1822
1823
1824
1825
1826
1827
1828
1829
183
1830
1831
1832
1833
1834
1835
1836
1837
1838
1839
184
1840
1841
1842
1843
1844
1845
1846
1847
1848
1849
185
1850
1851
1852
1853
1854
1855
1856
1857
1858
1859
1859280102
186
1860
1861
1862
1863
1864
1865
1866
1867
1868
1869
18696256
187
1870
1871
1872
1873
1874
18745698
1875
1876
1877
1878
1879
188
1880
1881
1882
1883
1884
1885
1886
1887
1888
1889
189
1890
1891
1892
1893
1894
1895
1896
1897
1898
1899
19
190
1900
1901
1902
1903
1904
1905
190593
1906
1907
1908
1909
191
1910
1911
1912
1913
1914
1915
1916
1917
1918
1919
192
1920
1921
1922
1923
1924
1925
1926
1927
1928
1929
193
1930
1931
1932
1933
1934
1935
193563
1936
19368470
1937
1938
1939
194
1940
1941
1942
1943
1944
1945
1946
1947
1948
1949
195
1950
1951
1952
1953
1954
1955
1956
1957
1958
1959
196
1960
1961
1962
1963
1964
1965
1966
1967
1968
1969
197
1970
1971
1972
1973
1974
1975
1976
1977
1978
1979
198
1980
1981
1982
1983
1984
19847326
19847329
1985
1986
1987
1988
1989
199
1990
19908137
1991
1992
1993
19938912
1994
1995
1996
1997
1998
1999
2
20
200
2000
20000
2001
2002
2003
2004
2005
2006
2007
2008
2009
201
2010
2011
2012
2013
2014
2015
2016
2017
2018
2019
202
2020
2021
2022
2025
2029273
203
2030
204
205
206
207
208
208314
209
21
210
2100
211
212
213
214
21401824
214195
215
21540096
216
217
217595
218
219
21994078
22
220
2200
221
222
223
224
225
226
227
228
229
23
230
2300
2307
231
232
233
234
235
236
237
237227
23766566
238
239
24
240
2400
241
241600000
242
24255573
243
244
2449070
245
246
2464
247
24743245
248
249
24933120
2494649
25
250
2500
251
252
2529982
253
254
255
256
256507
257
258
2586178
259
26
260
2600
261
262
2624680
2629164
263
264
265
265049
2657718
266
2664168
267
268
269
27
270
2700
271
272
273
27302
274
2743906
275
2750
276
277
278
279
28
280
2800
2807
281
28100898
282
283
284
285
28563569
286
287
2876
2877812
288
2886420
289
29
290
291
292
2928358
293
294
295
296
297
298
29861311
299
3
30
300
3000
30000
30059240
301
302
302817
303
304
304037
305
306
307
308
309
3092
31
310
3100478
311
312
313
314
315
316
317
318
319
31964
32
320
3200
321
322
323
324
325
326
327
328
329
3294867
33
330
331
33102669
332
333
334
335
336
337
338
339
34
340
341
342
34217
343
344
345
346
347
348
349
35
350
3500
3504917
351
352
353
354
355
356
3561957
357
358
359
36
360
361
362
3621644
363
364
365
36578
366
367
368
369
37
370
371
372
37230
373
37312
373724
374
375
376
377
378
379
38
380
3803714
381
382
383
384
384602
385
386
387
388
389
3892772
39
390
391
392
393
394
39422
395
396
397
398
399
4
40
400
4000
401
402
403
404
405
4051
406
407
408
409
41
410
411
412
413
4135787
414
415
41599984
416
417
418
419
42
420
421
422
423
42356
4239850
424
4249594
425
426
427
428
429
43
430
431
432
433
4331
434
435
436
437
438
439
44
440
441
442
443
444
445
446
447
448
449
45
450
4500
451
452
453
45352
454
455
456
457
458
4580425
45846
459
46
460
461
462
463
464
464633
465
466
46628
467
4679
468
469
47
470
47005544
4704926
471
472
473
474
475
476
477
478
479
48
480
481
482
483
484
485
486
487
488
49
490
491
492
493
494
495
496
497
498
499
5
50
500
5000
501
502
503
504
504063
505
506
5061737
507
508
509
51
510
512
514
5145336
515
516
5165
518
519
52
520
52072
521
522
523
524
5245997
525
526
527
528
529
53
530
531
532
533
534
535
53566
536
537
5375741
538
539
54
540
541
542
543
544
545
546
547
547473
548
54837
549
54919
55
550
551
552
553
554
555
556
557
558
559
56
560
5607942
561
562
56239490
563
564
565
5659724
566
567
568
569
57
570
571
572
573
574
575
576
578
579
58
580
581
582
583
584
585
586
588
589
59
590
591
592
593
595
596
598
6
60
600
6000
601
602
602358
603
60332597
604
605
607
608
609
61
610
612
61356138
614
615
616
618
62
620
622
623
624
625
626
627
628
629
63
630
63056
631
632
633
634
635
636
637
637413
638
639
64
640
641
64166606
642
6429958
643
644
645
648
648625
649
65
650
651
652
653
654
656
659
66
660
66049091
661
663
664
666
667
668
67
670
67129259
672
673
674
676
678
679
68
680
681
682
683713
684
685
686
687
688
69
691
693
694826
697
699
7
70
700
7000
701
704
705
709
71
710
711
712
713
714
7164
718
719
719880
72
720
721
722
7232
726
728
73
730
732
73268604
735
736
737
74
740
743
744
745
746
746368
747
749
75
750
751
754
755
756
75653886
76
760
762
764
764739
766
767
768
769
77
771
774
775
77541206
776
777
78
780
781
782
784
786
79
790
791
792
7979
8
80
800
8000
801
804
808
80900474
8095
81
810
811
81187217
812
81204110
813
8133
82
825
828
83
833
83552
837
84
840
842
845
845937
846596
85
850
851
852
853
855
85787
859
86
860
862
867
867541
868
869
87
870
872
879
88
880
885
89
890
897
898
9
90
900
9000
904
905
905686
908
909
91
911
912
912887
913
914
92
920
924
925
928
929
93
930
93255746
936
937
94
940
941
945
95
950
951
953
96
960
961
962
963
965
966
967
968
9684
969
97
972
975
976
977
977378
978
98
980
981
984
985
987
98769076
988937
989
99
990
991
99181182
992
9939
996
999
99930
99941
:
;
<
=
>
?
@
[
\
]
^
_
`
a
aa
aaron
ab
abbey
abc
abdullah
aboriginal
about
abraham
abrams
abril
abs
abu
ac
academia
academic
academy
acam
access
accessdate
accessed
according
account
accused
acemoglu
achievement
acid
acne
acoustic
acre
acref
acropolis
across
act
acta
actes
acting
action
actions
active
activities
activity
actor
actors
actress
acts
acute
ad
ada
adalian
adam
adams
adana
adaptation
adds
adele
adidas
admin
admina
administration
adrian
adult
advance
advanced
adventure
adventures
ae
af
affair
affairs
afghanistan
afp
africa
african
afrika
afrique
afrojack
after
ag
again
against
agatha
agbu
age
aged
agencia
agency
agenda
ages
aghajanian
ago
agop
agos
agreement
agriculture
aguilera
ah
ahead
ahram
ai
aid
aids
aim
aime
aimer
ain
air
airbus
aircraft
aires
airexpo
airlines
airplay
airport
ais
aise
ajax
ak
akc
al
ala
alain
alan
alarco
alba
albert
album
albums
aleppo
alessandro
alex
alexander
alexandra
alexandre
alexandria
alexis
alfort
alfred
algeria
ali
alibaba
alice
alicia
aligned
alikonline
alison
alive
aljazeera
all
alla
allan
alle
allen
allgemeine
alliance
allmovie
allmusic
alma
almond
almost
alogiques
alone
alpha
alphabet
alphonse
als
also
alt
alternative
alumni
always
alyson
am
amal
amanda
amants
amazing
amazon
ambassador
ame
america
american
americana
americans
amherst
among
amor
amore
amour
amprofon
amsterdam
amy
an
ana
analysis
ananas
anatolia
anatomy
anca
ancestry
anchor
ancien
ancient
and
anders
anderson
andre
andrea
andreas
andreeva
andrew
andrews
andrzej
andy
anemia
ange
angel
angela
angeles
angelina
angelique
angels
anglais
angle
anglo
angus
ani
aniarc
animal
animals
animated
animation
anita
ankakh
ankara
ann
anna
annales
anne
annemarie
annie
anniversary
anno
announced
announces
annual
another
ans
answer
antelias
anthem
anthology
anthony
anthropology
anti
antioch
antique
antiquite
antiquities
antiquity
antoine
anton
antoni
antonio
anunner
anushka
any
anything
ap
apes
api
apollo
apostolic
apostolique
appearance
apple
application
applications
applied
appointed
approach
approx
apr
apre
april
ar
ara
arab
arabia
arabian
arabic
arabs
aragon
aram
ararat
aras
aravot
arc
archaeological
archaeology
archewell
archi
archie
archinform
architects
architectural
architecture
archive
archived
archivedate
archives
archiveurl
are
area
areas
arendt
arevelk
arf
argentina
argument
aria
ariana
arias
aristotelis
ark
arko
arkotheque
arlington
arlis
arm
arman
arme
armen
armena
armeni
armenia
armenian
armenianow
armenians
armeniapedia
armeniasputnik
armenie
armenien
armenienne
armeniens
armenische
armenological
armenpress
armin
armprelacy
armradio
arms
armstat
armstrong
armtimes
army
arnold
around
arrest
arrested
ars
arsenal
art
arte
arthur
arti
article
articles
articleshow
artificial
artificiel
artist
artists
artnet
arts
artsakh
as
asbarez
asce
ashes
ashgate
ashley
asia
asian
asin
asj
ask
asp
aspx
assassination
assemble
assembly
assessment
associated
associates
association
associations
asteroid
astrobiology
at
atatu
athens
atlanta
atlantic
atlas
atomic
attachment
attack
attacks
attempt
attractions
au
aua
aub
aucl
audio
audrey
auf
auflage
aug
august
auguste
augustus
aujourd
aura
auron
aurora
aus
austin
australia
australian
austria
austrian
austriancharts
auteur
auteurs
author
authorities
authority
authors
autism
auto
autobiography
automatic
automobile
aux
av
available
avakian
avant
ave
avec
avedis
avedissian
avengers
avenue
aviation
avproduction
avril
awakening
award
awards
away
axel
axnpb
aysor
az
azat
azator
azerbaijan
azg
azic
azkaban
aznavour
aztag
aztagdaily
b
ba
baa
babelio
baby
bach
bachelor
back
background
bacterial
bad
bafta
baghdad
baghdadi
baghdasaryan
bailey
baker
bakr
bal
balakian
balance
balkan
balkans
ball
ballet
baltic
baltimore
ban
banality
banana
bananas
band
bandy
bang
bank
bankı
banns
baptiste
baquet
bar
barack
barbara
barbera
barcelona
barnes
barry
bartlett
bas
base
based
basel
basic
basingstoke
basketball
bass
batman
battle
battles
bay
bayerische
bb
bbc
bc
bd
be
beach
beast
beat
beatles
beautified
beautiful
beauty
beaux
bec
became
because
become
becomes
bed
been
beer
beethoven
beetlejuice
before
begin
begins
behavior
behind
bei
beijing
being
beirut
bel
belgian
belgioioso
belgiojoso
belgique
belgium
believe
bell
bella
below
ben
benezit
benign
benjamin
bennett
bent
benz
ber
berberian
berghahn
berkeley
berlin
berliner
bern
bernard
bernhard
bernie
best
bestsellero
bet
beta
beth
better
betty
between
bevo
bevolking
bey
beyonce
beyond
beyrouth
bezirk
bf
bg
bi
bibcode
bible
bibliographisches
bibliography
biblioteca
bibliothe
bid
biden
bieber
biennale
big
biggest
bil
bildid
bile
bilirubin
bill
billboard
billie
billion
billionaire
billy
bilmens
bin
bio
biochemistry
biografico
biographical
biographie
biographique
biography
biology
bionicle
bir
bird
birds
birth
birthday
bis
bit
biz
black
blackmore
blackwell
blair
blake
blast
blasts
blend
bleu
blica
block
blog
blogger
blogs
blogspot
blood
bloody
bloomberg
bloomsbury
bloxham
blue
blues
blurred
bmj
bnf
bo
board
bob
bocelli
bodies
body
boeing
bog
bohe
boko
boleti
bollywood
bollywoodhungama
bomb
bomber
bombing
bombings
bon
bond
bone
bones
bonnie
book
books
boost
border
borders
born
borys
boss
boston
both
boulevard
bourdain
box
boxofficeindia
boy
boys
br
bradley
brain
branch
brand
brands
brasil
bravo
brazil
bread
break
breaking
breaks
breakthrough
breast
brian
bridge
bridges
brief
bright
brill
bring
brings
bristol
brit
britain
britannica
british
broadcasting
broadway
brock
brockhaus
brod
broke
broken
bronchitis
bronze
broods
brooklyn
bros
brother
brothers
brown
bruce
bruno
brunswick
brussels
bryan
bryant
bt
btob
bu
budapest
budget
budgets
buenos
buffalo
build
building
buildings
built
buk
bul
bulgarian
bulletin
burbank
bureau
burghauser
burke
burton
bus
bush
business
businessweek
but
butler
by
byron
byzance
byzantine
byzantium
c
ca
cabinet
cable
cafe
cairo
calcium
calendar
california
call
called
calls
calouste
cambridge
came
camera
cameron
cameroon
camille
camp
campagna
campaign
campbell
campo
can
canada
canadian
canal
cancer
canciones
candidate
cannes
canon
canto
cap
cape
capital
captain
car
cardinal
care
career
carey
caribbean
carl
carles
carlo
carlos
carly
carmen
carnival
caro
carol
carolina
caroline
carrie
carroll
carte
carter
carthage
cartoon
cas
casa
case
cases
cast
castle
cat
catalana
catalog
catalogue
catalonia
catalunya
catch
catching
category
cathe
cathedral
catherine
catholic
catholicosate
cathy
caucasie
caucasus
caulfield
cause
causes
cave
cb
cbc
cbs
cbssyr
cc
ccm
cd
cdc
cdot
ce
cedsci
celebrate
celebrates
celebrating
celebration
celebrities
celebrity
celine
cell
cello
cells
cembre
cemetery
cengage
census
centaurea
center
centers
central
centre
centro
centuries
century
ceo
ceramics
ceremony
cerl
certain
certificate
certification
certifications
cervantes
cf
cfm
cgi
cgvfzm
ch
cha
chaikin
chakrav
challenge
challenges
chamber
champagne
champion
champions
championship
championships
chan
chance
chandelier
chang
change
changed
changes
changing
channel
chanson
chant
chapter
character
characteristics
characters
charge
charles
charlie
charlotte
charlton
charny
chart
charter
charts
chartverfolgung
che
check
chef
chelsea
chemical
chemistry
chemotherapy
chen
cher
cheterian
chevalier
chi
chicago
chicken
chief
child
childhood
children
chile
china
chinese
chisholm
choice
choir
chomsky
chorus
chr
chre
chris
christ
christian
christianity
christians
christie
christina
christmas
christopher
chrome
chronic
chronicle
chronicles
chronologiques
church
churches
churchill
ci
cia
cid
cie
cifras
cilicia
cine
cinema
circle
circus
cite
cited
cities
citizens
citta
city
citypopulation
civil
civilization
civilnet
ck
cker
cl
claim
claims
claire
clapham
clarendon
clark
clarke
clash
class
classement
classic
classical
classics
classifica
classification
classifiche
claude
claudia
claudio
clayton
cle
cles
cleveland
click
climate
clin
clinical
clinton
clio
clip
clock
clooney
close
club
cm
cms
cn
cnco
cnn
co
coach
coauthors
cobie
coca
code
codes
coffee
cognitive
cohen
coin
coins
col
cola
cold
coldplay
cole
colin
coll
colle
collected
collection
collections
collective
college
collegiate
collier
collins
colombia
colonial
color
columbia
columbus
com
coma
come
comedy
comes
comic
comics
coming
comite
comme
comment
commentary
commerce
commercial
commission
committee
common
commons
commonwealth
communication
communications
communist
communities
community
compact
companies
companion
company
comparative
comparison
competition
complete
completes
complex
composer
composition
comprehensive
computer
con
concept
concerning
concert
concerto
concise
conditions
conference
confirmed
confirms
conflict
congenital
congreso
congress
connecticut
connection
connor
conomie
conomiques
conquest
conscience
conservation
conservative
considered
consortium
constant
constantine
constantinople
constitucio
constitution
construction
consulte
consulting
contact
contemporary
content
contest
context
continues
continuum
contract
contrast
control
controversy
convention
conversation
cook
cookbook
cooking
cool
cooper
cooperation
copy
copyright
corbin
core
cornell
corner
coronavirus
corp
corporate
corporation
corps
corpus
correspondence
corresponding
corriere
corruption
cortisone
cos
cost
costa
could
council
countries
country
county
course
court
cov
cover
covid
cox
craig
crash
crazy
crc
cre
cream
created
creation
creative
creator
credits
crime
crimes
criminal
crisis
cristiano
cristina
critic
critical
criticism
critics
croatia
croatian
croisades
cross
crossroads
crowd
crown
crusade
crusader
crusades
crystal
cs
ct
cu
cube
cucumis
cuisine
cultural
culture
cultures
cumhuriyet
cup
cura
curid
curios
curious
current
curriculum
cursed
custer
cut
cw
cycle
cyprus
cyril
cyrille
cyrus
cz
czech
cœur
d
da
dactylatra
dad
daddy
dadoyan
dadrian
dag
daily
dal
dalida
dallas
dame
dan
dance
dangerous
daniel
danielle
danish
danishcharts
dans
dante
dar
dark
darling
daron
dartmouth
darwin
das
dasaran
dashner
data
database
datavalue
date
datepublished
dates
datos
daughter
dave
david
davies
davis
davison
dawn
day
days
db
dc
de
dead
deadline
deadlink
deadly
deal
dean
death
deathly
debate
debut
debuts
dec
decade
december
declaran
declaration
declared
decline
deco
decreto
dedicated
deep
default
defence
defense
definition
degli
degree
dehydration
dei
del
delarge
delhi
dell
della
delle
delta
deluxe
dem
demis
demo
democracy
democratic
demographic
demon
demoscope
dempsey
den
denial
denise
denmark
dennis
denoe
department
depression
depuis
der
derby
derulo
des
description
desert
design
designer
despacito
despicable
destiny
destruction
det
detail
detailed
details
detroit
deutsch
deutsche
deutschen
deutscher
deutschland
deux
dev
development
df
dha
di
dia
diab
diabetes
diagnosis
dialogue
diamond
diana
diane
diaries
diario
diary
diaspora
dic
dicaprio
diciembre
dick
dictionaries
dictionary
dictionaryid
dictionnaire
did
didn
die
died
diego
dies
diesel
diet
dieu
different
digilib
digital
dil
din
dink
dio
dion
diplomacy
dir
direct
directed
direction
director
directorate
directors
directory
dirty
dis
disaster
discography
discogs
discourse
discovery
discussion
disease
diseases
disney
disorders
display
displaystyle
distance
distribution
district
diteur
dith
dition
ditions
diva
divergent
diversity
divine
division
dizionario
dj
djvu
dk
dl
dn
dna
do
doc
docs
doctor
doctrine
document
documentary
documents
does
doesn
dog
dogs
doi
dollhouse
dolores
dom
domain
domestic
dominic
domino
don
donald
done
donna
donne
door
dorothea
dos
dots
double
doubt
douglas
dover
down
download
downloads
dozens
dp
dq
dr
draft
dragon
dragons
drake
drale
dram
drama
dream
dreams
drive
drug
drugs
du
dub
dublin
duct
due
duke
dulhania
duman
dumbledore
dun
duncan
dunst
dur
during
dutch
dutchcharts
dutta
duty
dvd
dvor
dw
dx
dybala
dynamics
dynasties
dynasty
dz
e
ear
earl
earliest
early
earth
earthquake
east
easter
eastern
easy
eater
eating
ebert
ebola
ec
echo
eclipse
ecole
economic
economics
economist
economy
ecumenical
ed
edessa
edgar
ediciones
edinburgh
edit
edited
edition
editions
editor
editore
editorial
editors
edmund
edouard
eds
edu
education
educational
edward
edwards
edwin
ee
effect
effects
egypt
egyptian
eight
eighteenth
eighth
ein
eine
einer
einstein
ek
el
elected
election
elections
electoral
electric
electronic
element
elements
elena
eleonorae
elia
elias
elite
elizabeth
elle
ellen
ellie
ellis
elon
elsevier
elvis
em
embassy
embedded
emergency
emerging
emi
emil
emilia
emily
emma
emmanuel
emmy
emotional
empire
empires
en
enciclope
enciclopedia
enciklopedija
encore
encounter
encyclopaedia
encyclope
encyclopedia
encyclopædia
end
ending
energy
enero
enfant
enfants
eng
engineering
england
english
enough
enrico
enrique
ensemble
enter
enterprises
entertainment
entre
entry
environment
environmental
enzymes
ep
epa
ephraem
ephrem
epic
epidemic
episode
er
era
erdogan
eric
erich
erickson
erik
eris
ermeni
ermenileri
ernest
ernst
error
es
esa
esc
escape
esky
esoc
esp
espan
esperanza
espn
essai
essay
essays
essential
est
estadi
estado
estatal
estate
estimated
estimates
et
eternity
ethical
ethics
ethnic
ethno
ethnologue
etudes
etymology
eu
euge
eugene
euro
euronews
europa
europe
european
eurostat
eurovision
ev
eva
evan
evangelical
evans
eve
even
evening
event
events
ever
everton
every
everyone
everything
evidence
evil
evolution
ew
ex
example
excavations
except
exchange
exclusive
executive
exercise
exhibition
exile
exist
expansion
expected
experience
experiment
experimental
explains
explicit
exploration
explore
explorer
explosion
expo
express
expression
extended
extension
eye
eyes
eyewitness
eylu
f
fa
faber
face
facebook
faces
faceted
fact
factbook
factfinder
facto
factor
factors
factory
facts
faculty
failure
fair
fait
faith
falco
fall
falls
false
fame
families
family
famous
fans
fantasy
fao
faostat
faq
far
farewell
fashion
fast
fate
father
fatma
faut
favorite
fc
fda
fe
feast
feat
feature
featured
features
featuring
feb
february
federal
federation
federazione
feel
felix
fellow
fellowship
female
fembio
feminism
feminist
femme
femmes
ferdinand
ferguson
ferna
fernand
fernandez
ferrante
ferrari
festival
fever
ff
fi
fia
fiat
fiatgroup
fichier
fiction
ficus
field
fields
fifa
fifth
fifty
figaro
fight
fighter
fighting
figure
figures
file
files
filing
fille
film
filmfare
filmography
filmportal
filmreference
films
filov
fimi
fin
final
finally
finance
financial
find
findarmenia
finding
finds
fine
finland
finnish
finnishcharts
fire
first
fischer
fish
fisher
five
flag
flags
flammarion
fleet
fleming
flexuosus
flib
flight
flood
floor
flora
florence
florentine
florida
flower
floyd
fly
flying
fm
fmt
fo
focus
folk
folklore
following
fondation
fonsi
food
fool
foot
football
footnotes
for
forbes
forbidden
force
forces
ford
foreign
forest
forever
forget
forgotten
form
formal
format
formation
former
formula
fort
fortress
fortune
forum
forward
found
foundation
foundations
founder
four
fourteenth
fourth
fox
fq
fr
fra
frac
frameset
franc
france
francesco
franchuk
francis
francisco
franco
francophone
francophonie
frank
frankfurt
franklin
franz
frauendatenbank
fre
fred
frederick
free
freedom
freeman
french
fresh
fresno
friday
friedrich
friends
friendship
friendships
from
front
ft
fu
full
function
functional
fund
funeral
furious
furtado
fusion
future
g
ga
gabriel
gabriella
gaga
gai
gala
galaxy
gale
galen
gales
galleries
gallery
gallica
gallimard
galway
game
games
gandhi
gaon
garabed
garbis
garcia
garde
garden
garo
garsoi
gary
gate
gates
gattey
gauguin
gave
gay
gaynor
gazette
gazetteer
gb
gc
ge
gebietsstand
gemeente
gemeinden
gemeindeverzeichnis
gemeinsame
gemma
gen
gender
gene
genealogics
genealogy
geneastar
general
generation
genesis
genetic
geneva
genius
gennaio
genoa
genocide
genova
gentleman
geo
geoffrey
geographic
geographical
geography
geonames
geonet
georg
george
georges
georgia
georgian
geos
gerard
gerlista
germain
german
germany
geschichte
gest
get
gets
getting
getty
gfk
ghazal
ghost
ghz
giacomo
giant
gibson
gift
gil
gilbert
gillan
gion
giorgio
giovanni
girl
girls
github
giuseppe
give
given
gives
giwi
gks
gland
glands
glass
glen
glendale
glenn
gli
glise
global
globalization
globe
gloria
glory
glover
glucose
glycogen
gmbh
gnu
go
goal
gob
gobetti
goblet
gocek
god
goes
goethe
gogh
going
gold
goldberg
golden
golf
gomez
gomidas
gone
gonna
good
goodbye
goodreads
google
gordon
gorgias
gorky
gorman
gospel
got
gotye
goulding
gouv
gov
government
governor
gpo
gr
grabar
graduate
graham
grammar
grammy
gran
grand
grande
grant
grao
graphic
grave
gravity
gray
graz
gre
great
greater
greatest
greco
greece
greek
green
greenpeace
greenwood
greg
gregg
gregor
gregory
grenade
grey
griffin
griffith
grigor
grigoryan
grint
gripen
gross
ground
group
groups
grousset
grove
growing
growth
gru
grup
grupo
gruyter
gryffindor
gu
guardian
gue
guerra
guerre
guest
guetta
guide
guidelines
guides
guild
guinness
gulbenkian
gulf
gunmen
gunter
gurekian
gustaf
gutenberg
guy
guyane
gv
h
ha
haaretz
haber
hacikyan
had
hadid
hagop
hagopian
hai
haig
haigazian
hairenik
hairenikweekly
hal
hale
halemba
half
hall
hallows
hamazkayin
hamburg
hamilton
hampig
han
hand
handbell
handbook
hands
hanglemezkiado
hanna
hannah
hannigan
hans
happiness
happy
haqqında
haram
hard
hariri
harold
harper
harpercollins
harris
harrison
harry
hart
harvard
harvey
has
hassan
hassib
hat
hate
haus
have
haven
having
hawaii
hawking
hay
hayazg
hayern
hazard
hbo
hd
hdl
he
head
health
heart
hearts
heat
heaven
heavy
hebrew
heidelberg
heights
heinemann
heinrich
held
helen
helix
hell
hellenic
hello
help
helsinki
hemsworth
henri
henry
her
herald
heratchian
herbert
here
heritage
hermann
hermione
hero
heroes
herpes
herzl
het
hetq
hewsen
hey
hezbollah
hg
hi
hidden
hier
hierarchy
high
higher
highest
highlights
hill
hills
him
himself
hindi
hindu
hindustantimes
hip
hirst
his
histoire
historia
historian
historians
historic
historical
histories
historiography
historique
historisches
historiska
history
historyofarmenia
hit
hitchcock
hitlisten
hitpara
hitparade
hits
hiv
hl
hnders
hno
ho
hoax
hogwarts
hold
holding
holiday
holidays
holland
hollywood
hollywoodreporter
holmes
holocaust
holt
holy
home
homeland
homenetmen
homepage
homer
homme
homo
honey
hong
honolulu
honor
honore
honours
hooks
hoover
hop
hope
hopkins
horcrux
horizonweekly
hormone
horn
horror
horse
hospital
host
hot
hotel
houghton
hour
hours
house
houses
houshamadyan
housing
houston
hovannisian
hovsep
how
howard
howell
hr
hrair
hrant
hratch
href
hrsg
htm
html
http
https
hu
hub
hudson
huffington
huge
hugh
hughes
hugo
hui
human
humanitarian
humanities
humanity
humans
hundred
hung
hungarian
hungary
hunger
hunt
hunter
hurriyet
hussein
hy
hybrid
hye
hymns
hyperallergic
i
ia
iam
ian
iana
iberian
ibid
ibm
ibn
ibrahim
ibrahimovic
ic
ice
ich
icon
id
idea
ideas
identity
ideology
idol
idolator
ie
if
ifpi
iglesias
ign
ignored
ii
iii
ij
il
ile
iliad
ill
illinois
illustrated
ils
im
image
imageddictionarybrowser
images
imagine
imam
imdatei
imdb
imfya
immigration
immunity
impact
imperial
imperialism
imperium
implications
important
impression
imrhdguio
in
inc
incident
includes
including
incredible
incubation
independence
independent
index
india
indian
indiana
indiatimes
indiatoday
indo
indonesia
induction
industria
industry
ine
infectious
infinity
influence
influential
influenza
info
information
ingrid
injlzjeio
injlzjiio
injured
injury
innovation
inquirer
inquiry
inr
ins
insee
insert
inside
insider
inspired
instagram
institut
institute
institution
institutions
instituto
instrumental
insulin
int
inte
intel
intellectual
intelligence
inter
interaction
interactive
interest
internal
international
internationale
internazionale
internet
interpret
interview
interviews
into
introduction
invalid
invasion
investigation
io
ioc
ipa
iphone
ipod
iq
ir
iran
iranian
iranica
iraq
iraqi
ireland
irish
irma
iron
is
isaac
isabelle
isbn
isil
isis
islam
islamic
islamist
island
islands
islocked
isn
iso
israel
israeli
iss
issn
issue
issues
ist
istanbul
istat
istituto
it
italia
italian
italiana
italiancharts
italiani
italiano
italy
itau
item
itemid
itm
its
itunes
iv
ivan
ivanka
ivurl
ix
j
ja
jaaroverzichten
jack
jackie
jackson
jacob
jacobs
jacqueline
jacques
jahre
jahrescharts
jahreshitparade
jakob
jam
jama
jamaica
jamanak
james
jamie
jan
jane
janet
jann
januari
january
janvier
japan
japanese
jas
jason
javier
jay
jazeera
jazz
je
jean
jeanne
jeff
jeffrey
jenkins
jennifer
jeremy
jerome
jerry
jersey
jerusalem
jesse
jessica
jessie
jesus
jet
jeunesse
jewish
jews
jf
jidejian
jim
jimmy
jk
jm
jo
joachim
joan
joanne
job
jobs
joe
johan
johann
johannes
johansson
john
johnny
johns
johnson
join
joins
joint
jon
jonah
jonathan
jones
jordan
jordanian
jose
josef
joseph
josh
joshua
jour
journal
journalism
journalist
journalists
journals
journey
jours
jovovich
joy
jp
jpg
jr
json
jsp
jstor
ju
juan
judge
judicial
judith
jules
julia
julian
julie
july
jump
jun
june
jungle
juni
junior
jupiter
jusqu
just
justice
justin
jutarnji
juventus
jw
k
ka
kabul
kafafi
kafka
kai
kanye
karabakh
kardashian
karen
karl
karla
kat
kate
katherine
kathleen
katy
kaufman
kazan
kb
ke
keaofla
keep
kehlani
keith
keller
kelly
ken
kennedy
kenneth
kent
kenya
kenyatta
kerry
keukenhof
kevin
kevork
kevorkian
key
keys
khan
khloe
ki
kick
kid
kidjo
kidney
kids
kiki
kilisesi
kill
killed
killer
killing
kills
kim
kimberly
kind
kindred
king
kingdom
kings
kinkladze
kino
kinopoisk
kiraz
kirk
kirsten
kiss
kit
kitarovic
kite
kitkat
kiureghian
klassic
klaus
klein
knew
knight
knights
know
knowledge
known
ko
koha
kolinda
komitas
kong
korea
korean
kos
kozman
kr
krikor
krikorian
kris
ksh
ktv
ku
kundera
kunst
kurt
kyrkoarkiv
l
la
label
labor
laboratory
ladies
lady
laffont
lake
lam
lambert
lampard
land
lands
landscape
lane
lang
lange
language
languages
langue
lanham
lara
large
largest
larousse
larry
lars
larsen
larsson
las
last
latarm
late
later
latest
latin
latino
latvijas
lau
launch
launches
laura
laureate
lauren
laurence
laurent
laurie
lausanne
law
lawrence
laws
lay
layne
lazer
lb
lbc
lbci
le
lead
leader
leaders
leadership
leading
league
learn
learning
least
leave
leaves
lebanese
lebanon
leben
lecture
led
lee
left
legacy
legal
legend
legendary
legends
lego
leicester
leiden
leila
leipzig
leksikon
lemkin
lemonde
lenos
lenta
lento
leo
leon
leonard
leonardo
lepsius
leptin
ler
les
lescharts
less
let
letter
letters
leukemia
levant
level
levon
levy
lewinsky
lewis
lexicon
lexikon
lga
li
liana
lib
liban
liber
liberal
liberation
liberte
liberty
librairie
libraries
library
libre
libris
libro
libya
liddell
lie
liechtenstein
lien
lieu
life
lifestyle
lifetime
lift
light
ligne
like
lillian
lilly
limited
limits
lincoln
linda
lindsay
line
lines
linguistic
linguistics
link
linkedin
linkin
links
linn
linux
lion
lionel
lire
lisa
lisbon
list
lista
listen
listing
lists
listy
lit
literary
literature
lites
litte
little
liu
live
liver
liverpool
lives
living
livre
livres
liz
lkerung
ll
llc
lle
ller
lloyd
ln
lna
lni
lo
local
log
logic
logo
london
lone
loneliness
lonely
long
longest
longman
longrightarrow
look
looking
looks
lopez
lord
los
lose
loss
lost
lot
lou
loud
louis
louise
louvre
love
loved
lover
loving
low
lower
lp
lt
ltd
lu
lua
lucas
lucia
lucky
lucy
ludacris
ludwig
luigi
luis
luisa
luke
lumineers
luna
lunar
lund
lundy
lurer
luxembourg
lv
ly
lyce
lynch
lynn
lyon
lyric
lyrics
m
ma
mac
macedonia
machine
macintosh
macintyre
macklemore
macmillan
macro
macromedia
mad
madame
made
madison
madrid
madridista
magazine
magic
magical
magliarossonera
magnetic
magyar
magyarorsza
mahal
mahasz
mahe
mahrez
mai
maik
mail
main
mainstream
maison
maisons
major
make
makes
makeurl
making
makino
malabar
malaysia
male
mali
malibu
malik
malta
mama
mambwe
mamma
man
management
manchester
mandatory
mandela
manhattan
mann
manoogian
manual
manuel
manuscript
manuscripts
manutd
many
map
maps
mar
marc
marcel
march
marco
marcus
mare
margaret
margwelaschwili
mari
maria
marie
marina
marine
mario
maritime
mark
market
marketing
marks
markus
marriage
married
mars
marseille
marshall
martha
marti
martial
martin
martinez
martini
marvel
mary
maryland
mashke
mashrou
mask
mass
massachusetts
massacre
massacres
massispost
massive
master
masters
match
matenadaran
material
math
mathbb
mathbf
mathematical
mathematics
mathieu
mathrm
mathsf
mathworld
matrix
matt
matter
matthew
maurice
max
may
mayer
mayor
maze
mc
mcadams
mccartney
mccourt
mcdonald
mcgraw
md
me
mean
meaning
means
mecca
mechanics
mechanism
med
medal
media
mediamax
medical
medicine
medien
medieval
mediterranean
meet
meeting
meets
mega
meghan
mehmet
melanie
melbourne
melo
melodifestivalen
melody
member
members
membership
membrane
membres
memoir
memoirs
memorial
memories
memory
men
mental
menu
menus
mer
mercedes
merchant
merchants
mercury
merriam
mes
mesa
message
messenger
messi
met
meta
metab
metabolism
metacritic
metal
method
methods
metro
metropolitan
mexican
mexicana
mexico
meyer
mfa
mg
mgm
mhz
mi
mia
miami
michael
michel
michelle
michigan
micro
microe
microsoft
mid
middle
midnight
mifflin
miguel
miha
mihran
mike
milan
milano
mile
miles
miley
milgram
military
milk
milky
milla
millaj
millennium
miller
million
millionaire
milliyet
min
minaj
minassian
mind
ministe
minister
ministers
ministry
minneapolis
minnesota
minor
minorities
minority
minute
minutes
mirror
mis
miss
missile
missiles
missing
mission
missions
mit
mitchell
mix
mixed
mk
mma
mmajunkie
mn
mo
moana
mobile
mockingjay
mode
model
modeling
models
modern
modi
module
mohammad
moi
moire
mois
mojo
moll
moment
moments
mon
mona
monaco
monastery
monde
monetary
money
mongol
monitor
monitorlatino
monsieur
monster
montana
monte
montgomery
month
monthly
months
montre
montreal
monument
monuments
moon
moore
morandi
more
morgan
morgenthau
morning
morocco
morris
morse
mort
morus
moscow
moses
mosque
most
mother
motion
motown
mount
mountain
mouradian
move
movement
movements
movie
movies
moving
moyen
mp
mr
mri
mrs
ms
msn
msnbc
mta
mte
mtv
mu
much
mugabe
muge
muhammad
multiple
mumbai
mun
mundo
munich
municipal
municipality
munzinger
murder
murray
musa
muse
museen
museet
museo
museum
museums
music
musica
musical
musicale
musician
musicians
musicline
musiikkituottajat
musik
musique
musketeers
muslim
muslims
must
mvp
mw
mx
my
myself
myspace
mystery
myth
mythology
myths
mø
məlumat
n
na
naasr
nach
nacht
nacional
nagorno
nail
naimark
nakai
naked
name
named
names
nancy
naomi
napoleon
narek
narendra
narrative
nasa
nash
nasrallah
nast
natalie
nate
nathan
nation
national
nationalbibliothek
nationale
nationalism
nations
native
nato
natura
natural
nature
naudin
naval
navy
nawal
nayiri
nazareth
nazi
nba
nbc
nchen
nd
nde
ndez
ne
near
nearly
neck
nederlandse
need
needed
needs
neighbors
neil
neill
neilson
nel
nellie
nelly
nelson
neolithic
nerses
nescafe
nestle
net
netflix
netherlands
network
networks
neuauflage
neue
never
new
newman
news
newsasia
newsletter
newspaper
newspapers
newsru
newsweek
next
ng
nh
ni
nice
nicholas
nick
nicki
nicolas
nie
nielsen
nien
nienia
nienne
niennes
niens
nietzsche
nigel
nigeria
night
nightclub
nightingale
nights
nihilism
niinisto
nike
nikol
nil
nin
nina
nine
nineteenth
nintendo
nisan
niversitesi
nj
nk
nkr
nl
nla
nm
nn
no
nobel
noble
nocide
noel
nokia
nom
nominated
nominations
nominees
non
nor
nord
nordiska
normal
norman
normdatei
north
northern
norton
norway
norwegian
norwegiancharts
nos
not
notable
note
notes
nothing
notice
noticias
notre
nous
nouveau
nouvelle
nouvelles
nov
nova
novel
november
novosti
now
nowiki
npr
nr
ns
nt
nu
nuclear
nuit
number
numbers
nume
nun
nurses
nus
nutrition
nvidia
ny
nyc
nytimes
nz
o
oa
oaks
obama
obci
obituaries
obituary
obr
observatory
observer
obyvatel
ocean
oceans
och
ochs
oclc
oct
october
oder
odg
ods
odyssey
of
off
office
official
officially
officials
officiel
officielle
offizielle
oficia
oficial
oficiales
og
oh
ohio
oil
ois
ok
oklahoma
oklahoman
ol
ola
old
oldest
oldid
oliver
olivier
olympia
olympic
olympics
om
oman
omar
on
once
one
onepage
onerepublic
ones
onion
online
only
ontzojq
op
opac
open
opening
opens
opera
operation
opernball
opinion
opposition
or
oral
orange
orba
orchestra
order
orders
orf
org
organ
organisation
organization
oricon
orient
oriental
orientale
orientalis
origin
original
origins
orlando
oro
orphan
orthodox
orwell
os
osaka
oscar
oscars
osprey
other
others
otto
ottoman
ou
oup
our
ourthe
out
outline
outside
outstanding
over
overview
own
oxford
oz
p
pa
pablo
pac
pacific
package
padro
paganini
page
pages
pageseq
pai
paice
pain
painting
paintings
pakistan
palace
palais
palermo
palestine
palestinian
palgrave
pallanti
palmer
pan
panarmenian
pangalo
panorama
panossian
pantheon
papa
papazian
paper
papers
papyrus
par
para
parabaas
parade
paradise
paramount
paris
park
parker
parlament
parliament
part
partial
partners
parts
party
pas
passage
passed
passenger
passes
passion
past
pastore
patel
patent
patents
path
patients
patricia
patrick
patriklig
patrimoine
patriot
paul
paula
pauli
paulo
pax
payaslian
payette
payne
pays
pbs
pc
pd
pdf
pe
peace
peak
pearson
pedro
peerage
peeters
pehlivanian
peinture
pem
penguin
peninsula
pennsylvania
penny
pentium
people
peoples
per
peres
perfect
performance
performed
period
periods
permanent
perri
perrin
perry
perseus
persian
person
personal
personen
personnes
persons
perspective
perspectives
pet
peter
peters
petersburg
petit
petros
peuple
pew
pf
pg
ph
phalacrocorax
pharrell
phd
phil
philadelphia
philharmonic
philip
philippe
philippines
philips
phillips
philosopher
philosophical
philosophy
phoenix
phone
phonographic
phonographique
phononet
photo
photography
photos
php
physical
physician
physics
physiology
pi
piaf
piano
picks
picture
pictures
pie
piero
pierre
pilot
pilots
pink
pioneer
piper
pitbull
piu
pizza
pk
pl
place
places
plan
planet
planning
plans
plant
plants
plastic
platform
platinum
play
playbill
played
player
players
playlist
plays
plus
pm
pmc
pmid
pn
pneumonia
png
po
poblacio
poc
poe
poems
poet
poetry
poets
poetsofthefall
point
points
poker
poland
police
policy
polis
polish
politecnico
politica
political
politico
politics
polo
polydor
pompeo
ponte
pop
pope
popolazione
popular
population
populations
por
port
portal
porto
portrait
portraits
portugal
portuguese
portuguesecharts
position
possible
post
postal
postaux
poste
potential
potter
pound
pour
poverty
powell
power
powerful
powers
pp
pr
practice
prague
praha
prayer
pre
preface
prelacy
preliminary
premie
premier
premiere
premieres
prescott
presence
present
presentation
presented
presents
presidency
president
presidente
presidential
presidents
press
presse
presses
prestigious
pretty
prevention
price
prick
prima
primary
prime
primetime
prince
princess
princeton
principles
print
printed
printing
prisa
prison
prisoner
private
prix
prize
prizes
pro
probably
problem
problems
proceedings
process
processing
produced
producento
producer
producers
product
production
productions
productores
products
prof
professional
professor
profile
profiles
program
programme
programmes
programs
progress
progressive
project
projects
prometheus
promise
promusicae
pronunciation
proof
propaganda
property
prose
prospects
protection
protein
protest
protests
proud
proust
provided
province
psg
psychiatry
psychological
psychology
pt
pu
pub
publ
public
publication
publications
publique
published
publisher
publishers
publishing
puerto
puigdemont
pulse
punk
purple
put
puth
putin
pwn
px
pxweb
py
pyarm
q
qabbani
qadınlar
qaeda
qahana
qc
qs
qu
quality
quand
quantum
quarterly
quatre
que
quebec
queen
queens
query
quest
question
questions
qui
quot
quote
r
ra
rabindranath
race
rachel
racing
rada
radcliffe
radikal
radio
rafael
rai
railway
rain
rainbow
raj
ral
ralph
ramone
ramones
random
ranee
range
rania
ranked
ranking
rankings
rap
raphael
rapid
rar
rard
rare
ras
rash
rate
ration
rature
ray
raymond
razmik
rd
rdoba
re
reach
reaction
read
reader
readers
reading
ready
real
reality
really
reason
rebecca
rebellion
recap
received
receives
recensement
recent
recherche
recipes
recognition
reconstruct
reconstruction
record
recorded
recording
recordings
records
rector
red
rediff
redir
reduction
reed
ref
reference
references
referendum
referidas
reflections
reform
refs
reggaeto
region
regional
regions
register
registration
regnum
regulation
reich
related
relations
relationship
release
released
releases
reliability
relief
religion
religions
religious
remains
remember
remembrance
remix
remixes
renaissance
rene
reno
renoir
report
reported
reporter
reports
represent
representative
reprint
reprinted
reprise
repu
repubblica
republic
republican
required
res
research
reserve
resident
residente
resigns
resistance
resize
resolution
resonance
resource
resources
response
responsibility
responsible
result
resultantes
results
retrieved
return
returns
retzius
reuters
rev
revealed
reveals
revenge
review
reviews
revised
revisio
revisited
revival
revolt
revolution
revolutionary
revue
rez
rg
rh
rhimes
rhinitis
rho
rhodes
rhythmic
ri
ria
riaa
ric
rica
rice
rich
richard
richardson
richmond
rick
rickman
rien
riggs
right
rights
rihanna
riley
ring
rings
rio
rise
rising
risk
ritual
river
rivera
riverdale
riyad
rk
rkc
rkd
rkdartists
rkiye
rkəmli
rm
ro
road
rob
robert
roberto
roberts
robin
robinson
robot
rock
rocks
rogen
roger
rogers
roi
roland
role
roll
rollefson
rolling
rolls
roma
roman
romance
romantic
rome
ron
ronald
ronaldo
ronda
room
rooney
roots
rosa
rose
ross
rossi
rossum
rotate
rotten
rouben
rouge
rough
round
rousey
roussos
route
routledge
roux
row
rowan
rowling
roy
royal
royaume
royce
rp
rpm
rriyet
rs
rsl
rssing
rt
ru
ruben
rubin
rudolf
rue
ruess
rug
rule
rules
run
runciman
runner
rupert
rus
rusalem
russell
russia
russian
russians
rust
ry
ryan
ryder
s
sa
saad
saadawi
sabah
sacer
sacramento
sacred
sacrifice
sadiq
sadr
safety
safran
said
saint
saints
sais
sale
salem
sales
sally
salman
salome
salon
salwa
sam
same
sami
samsung
samuel
san
sancti
sanders
sandra
sanremo
sans
santa
santiago
santo
sara
sarah
sarkis
sarkissian
sars
sassounian
sat
saturday
saturn
saudi
saunders
savage
save
say
says
sb
scale
scan
scandal
scarecrow
scars
scavo
scene
scenes
schedule
schmidt
schneider
scholar
scholars
scholarship
scholastic
school
schools
schulz
schuster
schwartz
schwarz
schwarzenbach
schweizer
sci
science
sciences
scientific
scientist
scientists
scolar
score
scores
scorpions
scotland
scott
scottish
scout
scream
screen
scribner
scribunto
script
sculpture
se
sea
sean
search
seas
season
seasons
seattle
sebastian
sec
second
seconds
secret
secretary
secrets
section
security
see
seed
seen
seine
sel
select
selected
selection
selena
self
selling
sells
semaine
semana
seminary
sen
senate
send
senior
sensation
sense
sentinel
september
sequel
ser
sera
serie
series
server
service
services
ses
session
sessions
set
seta
seth
sets
settimanale
settlement
seuil
seven
seventh
several
sex
sexual
sfd
sg
shadow
shadows
shah
shai
shakespeare
shakira
shantnews
shape
shark
sharma
she
shearwater
sheeran
sheet
shelley
shelton
shi
shimon
shock
shonda
shontelle
shoot
shooting
shop
short
shot
should
show
showitem
shows
showtimes
shtml
si
sia
sica
side
sidney
sie
siege
sight
sign
signed
signs
silence
silk
silva
silver
simmons
simon
simone
simple
sin
sinatra
since
sing
singapore
singer
singers
singh
single
singlechart
singles
sings
sir
siri
sister
site
sites
sito
situation
six
sixth
size
sj
sk
ski
skin
sky
sl
sla
slate
sleep
slide
slovak
slow
slumdog
slytherin
smaczny
small
smart
smile
smith
smithsonian
smooth
smulders
snac
snecma
snep
snl
so
soccer
soccerbase
soccerway
social
socie
societies
society
socket
sodium
sold
soldier
soldiers
soleil
solidarity
solo
solution
som
some
somebody
someone
something
son
song
songs
sons
sony
soon
sophia
sophie
soprano
soros
soul
sound
soundtrack
soup
source
sources
sous
south
southeast
southern
souvenirs
souza
soviet
sp
space
spain
span
spanish
spanishcharts
sparks
speak
speaking
speaks
special
species
spectator
speculative
speech
speed
spencer
spice
spices
spider
spiegel
spin
spirit
split
spoken
sport
sportbox
sports
spot
spotlight
spring
springer
springfield
sputnik
spy
sqrt
square
sr
srcountry
srid
srlang
ss
st
sta
staatsbibliothek
stable
stadium
stadt
staff
stage
staged
stamp
stan
stanbul
stand
standard
stands
stanford
stanley
star
starr
stars
start
stat
statbel
state
statement
statements
states
stati
station
statista
statistical
statistics
statistik
statistique
stato
stats
statue
statues
status
stay
ste
steel
stefan
stefano
steffen
stein
steiner
stella
step
stephan
stephansdom
stephen
stern
sterreich
steve
steven
stewart
sti
stica
still
stm
stockholm
stockholms
stolen
stone
stop
storage
store
storia
stories
storm
story
straight
strait
straits
stranger
strasbourg
strategic
strategies
strategy
stream
streaming
street
stress
stretfordend
strike
strikeforce
strikes
string
stroke
strong
structural
structure
struggle
stuart
stub
student
students
studi
studies
studio
studios
study
stuttgart
style
su
subject
subscription
subsp
suburgatory
success
such
sud
sudan
sue
suez
suicide
suis
suisse
suite
sulla
sullivan
sultan
sulzberger
sum
summary
summer
summerhill
sun
sundance
sunday
suny
suomen
supe
super
superstar
supplement
support
supporting
supreme
supremo
sur
surgery
surp
survey
survival
survive
survivors
susan
suspect
sustainable
sutton
suzanne
sv
svenska
sveriges
sverigetopplistan
svt
swartz
sweden
swedish
swedishcharts
sweet
swift
swiss
swisscharts
switzerland
sy
sydney
sylvia
sylvilagus
symbol
symbols
symphonia
symphony
symposium
syndicat
syndrome
synopsis
syracuse
syria
syriac
syrian
system
systematic
systems
szo
t
ta
tab
table
tables
tadr
tag
tagore
tags
taipei
tait
taj
take
takes
taking
tale
talent
tales
taliban
talk
talks
tan
taner
tanta
target
tarih
tarrus
tartu
tat
tate
tattoo
tattoos
tauris
taylor
tb
tbilisi
tchilingirian
tcm
te
tea
teach
teacher
teachers
teaching
team
teams
teardrop
tears
teatr
teatro
teau
tech
technical
technique
technologies
technology
ted
teen
teenage
tel
telegraph
television
tell
tells
temple
temps
ten
tena
tennant
tennessee
tennis
ter
teresa
term
terminology
terms
terra
terre
territories
territory
terror
terrorism
terrorist
terry
tert
tes
tesla
test
testament
testosterone
tetrazzini
texas
text
textbook
texts
th
thames
than
that
the
theater
theatre
theguardian
their
them
then
theodore
theological
theology
theory
therapy
there
thesaurus
these
thesis
thessalonica
thessaloniki
thewrap
they
thing
things
think
thinking
third
this
thomas
thompson
thomson
thor
those
thought
thousand
threat
three
thriller
thrones
through
thumb
ti
tienne
ties
tiger
til
till
tim
time
timeline
times
timesofindia
timothy
tis
tissue
titel
title
titre
tm
tna
to
today
todd
together
toi
toile
tokyo
told
toll
tom
tomatoes
tome
tommy
tongue
tonight
tony
too
tools
top
tophit
topic
tops
torino
toronto
toros
toshiba
total
totales
totten
totti
touch
toumanoff
tour
toure
tourism
tourist
tournament
tours
tous
tout
toward
towards
tower
town
towns
tr
track
tracklisten
tracks
trade
tradition
traditional
traditions
trailer
trailers
train
training
traite
trans
transaction
transactions
transcript
transfermarkt
transformation
transit
transition
transl
translated
translation
translations
translator
transmission
transnational
transport
trasher
trauma
travel
travels
travers
tre
treasure
treasures
treatment
treaty
tree
trends
trial
tribunal
tribune
tribute
trilogy
trio
tripoli
trivulzio
trois
tropical
trouble
trudeau
true
trump
trust
truth
ts
tsza
tt
tu
tube
tucker
tudes
tuesday
tunc
turk
turkey
turkish
turks
turn
turner
turning
turns
tv
tvguide
twelfth
twentieth
twenty
twin
twist
twitter
two
tx
txt
tyerman
tyler
type
types
tyre
tzdb
u
ua
ucla
uefa
ufc
uielem
uk
ukraine
ukrstat
ultimate
ultrasound
ultratop
um
umh
un
una
und
under
underground
understanding
undocs
une
unesco
unexpected
unicode
union
unique
unit
united
unity
univ
universal
universe
universita
universite
universities
university
unknown
unlimited
unspecified
until
untranslated
unveils
up
uparrow
update
updated
updates
uploads
upon
uppsala
upvalue
ur
urban
url
ursus
uruguay
us
usa
usatoday
usc
use
used
user
users
uses
using
utc
utd
uzhmio
uzxvzzv
v
va
vahakn
vahan
vahe
valencia
valle
valley
value
values
vampire
van
vancouver
vanessa
vanity
vanlian
var
vari
variety
vartan
vatican
vauthors
ve
vegas
venezia
venice
venus
ver
verdi
verge
verlag
veronica
vers
version
versus
very
vetse
vg
vi
via
viacom
vice
vick
vicken
victims
victor
victoria
victory
vida
video
videos
vidic
vie
vienna
vietnam
view
views
viewtype
vii
viii
viking
viktor
villa
village
ville
vincent
vinci
vintage
vinyl
viola
violence
violin
vip
viral
virgin
virginia
virginie
virtual
virus
vision
visionneuse
visit
visual
vita
vladimir
vo
vocal
vogue
voice
voices
voix
vol
volantis
voldemort
vols
volume
volumes
vom
von
vorkian
vous
vox
voyage
voyager
vs
vssto
vulgaris
vum
vyawvsijtzojq
w
wa
wadi
wagner
wales
walk
walker
wall
walsh
walt
walter
wang
want
wanted
wants
war
ward
warfare
warner
warren
warriors
wars
warsaw
was
washington
washingtonpost
watch
water
waterfall
watson
wattpad
wave
way
wayback
wayne
we
weather
web
webcitation
webcite
weber
website
webster
wedding
week
weekend
weekly
weeks
weird
welcome
well
welle
welt
wenner
went
were
west
western
westminster
westport
what
when
where
which
while
white
whitman
whitney
who
whole
whom
whose
why
wi
wide
wideboys
wien
wiener
wife
wiki
wikidata
wikilink
wikimedia
wikipedia
wikisource
wild
wildlife
wiley
wilhelm
wilkins
will
william
williams
wilson
win
wind
window
windows
wine
wings
winner
winners
winning
wins
winston
winter
wird
wired
wisconsin
wissen
with
within
without
witness
wk
wmflabs
wo
wolf
wolff
wolfgang
woman
women
won
wonder
wonderful
wonderland
wood
word
wordpress
words
work
workers
working
works
world
worldcat
worlds
worldwide
worst
worth
would
wounded
wounds
wp
wright
write
writer
writers
writing
writings
written
wrong
wrote
wsj
wta
wu
wuhan
wwf
www
wyro
x
xi
xico
xii
xiii
xiv
xix
xixe
xls
xml
xv
xvi
xvii
xviii
xx
xxi
xxix
xxviii
xy
y
ya
yahoo
yair
yale
yan
yankee
yardbirds
yash
yaya
yayıncılık
yayınları
ye
year
yearbook
years
yer
yerakouyn
yerevan
yervant
yes
yesterday
yet
yi
yisra
yle
yo
york
yorker
you
young
your
yourself
youth
youtube
ysu
yto
yu
yusuf
yves
z
za
zaha
zahlen
zaman
zap
zara
zarrab
zaven
zealand
zeidan
zeit
zeitung
zek
zelmerlo
zero
zhang
zika
zimbabwe
zlatan
zn
zo
zoella
zone
zones
zoom
zu
zum
zur
zwia
zwischen
{
|
}
~

¡
£
¤
¥
§
¨
©
ª
«
¬
­
®
°
±
²
³
´
·
¹
º
»
½
¾
¿
×
ß
æ
ð
÷
þ
ı
ł
œuvres
ə
ɟ
ɡ
ɪ
ʰ
ʲ
ʹ
ʻ
ʼ
ʿ
ˈ
ˋ
ˌ
ː
˓
˙
˚
˥
̀
́
̂
̃
̄
̆
̇
̈
̊
̋
̌
̓
̔
̛
̡
̣
̥
̦
̧
̨
̭
̮
̯
̱
̲
̸
͂
ͅ
΄
α
αθη
αθηνω
αι
αιγαιο
αλε
αν
ανα
αντι
απο
αρμε
αρχαιολογικο
ας
ατρο
β
βα
βασι
γ
γα
γγελος
γε
γεω
γη
για
γιο
γιος
γλαρος
γος
δ
δα
δας
δε
δες
δη
δης
δι
δια
διο
δρα
δωδεκα
ε
ει
εις
ελλα
ελληνικη
ερτ
ευ
ζ
η
θ
θα
θε
θεο
θεσσαλονι
θη
θος
ι
ιστορι
κ
κα
και
κατα
κε
κη
κης
κι
κο
κος
κυ
κυκλα
κω
λ
λα
λαγος
λε
λη
λης
λι
λλα
λο
λος
λου
λυ
μ
μα
μακεδονι
ματα
με
μεγα
μη
μι
μια
μο
μος
μου
μουσει
ν
να
ναι
νας
ναυμαχι
νβα
νε
νη
νης
νι
νικο
ννης
νο
νος
νου
ντα
νυ
νω
ξ
ο
οδυσσε
οι
ον
ος
ου
π
πα
πε
πειραια
περι
πη
πι
πλατει
πο
πολυ
που
πουλος
προ
πρω
πυ
ρ
ρα
ρας
ργιος
ρη
ρης
ρι
ριος
ρο
ρος
ρου
ρω
ς
σ
σα
σε
σεις
ση
σι
σου
σσα
στα
στε
στη
στην
στο
συ
τ
τα
τε
τη
την
της
τι
τις
το
τον
του
τους
τυ
τω
των
υ
φ
φεκ
φος
φυ
χ
χη
ω
ων
ως
ϕ
а
августа
агентство
администрации
азербаи
азнаурян
аи
академии
александр
александра
александрова
америки
ан
анализа
англ
англии
андреевскии
антонио
апреля
арам
арифметика
армении
армения
армян
армянская
армянскии
армянского
армянскои
архитектура
архитектуры
аст
атлас
б
баи
баку
банк
барселона
без
бельгии
би
библиотека
биографическии
биография
большая
большои
брокгауз
брокгауза
будет
был
было
в
ва
вв
введение
века
великии
вестник
видатних
византии
владимир
во
вои
вокруг
вопрос
вопросы
воспоминания
времени
время
все
всероссии
вт
второи
выдающихся
вып
г
газета
гаи
гамильтона
гг
геноцид
геноцида
георгиевскии
гл
глава
го
год
года
году
годы
гол
голов
голос
город
города
горького
государственного
государственное
государственнои
государственныи
григории
григорян
грузии
грузинскои
грузия
д
да
данных
два
де
деи
декабря
день
депман
державна
дж
для
дня
до
дом
доп
др
древнеи
древностеи
е
европеи
европы
его
ее
елизавета
ер
ереван
ефрон
ефрона
ж
жам
же
женщинах
жизни
жизнь
журнал
журнала
жінок
з
за
заглавие
закон
зелинскии
и
ибрагимович
иван
из
известия
изд
издание
издательство
ил
или
илл
ильич
им
империи
институт
института
интервью
иосиф
ип
искусства
искусство
испании
исследование
исследовании
исследования
истории
историко
историческии
история
их
июля
июня
к
как
кал
календарь
карен
карт
киев
кино
китаи
киі
классических
классическои
клеи
кн
книга
книги
когда
комитет
комментарии
конференции
краткая
кто
культура
культуры
курс
куторга
л
лев
ленинград
лет
лионель
литература
литературная
литературы
лучшим
лучших
любви
любкер
любкеру
м
мадонна
маи
маргарян
мария
марки
марта
масловскии
математика
математики
материалы
мая
международнои
международныи
месси
место
методология
методы
мир
мира
мировои
михаи
михаил
млн
москва
москве
москвы
московскии
московского
музеи
музея
муниципальным
мысль
н
на
нан
народа
народов
населения
населення
наследия
наук
наука
науки
науч
научно
нахапетов
национальная
национальныи
не
некоторых
ни
николаевич
николаи
новая
нового
новости
новыи
ноября
ны
о
об
области
образованиям
общество
одри
октября
он
ооо
организации
османскои
основы
от
отв
отношении
официальныи
очерк
очерки
п
памятники
партия
паруи
пе
педагогики
пер
первая
первыи
перевод
перепись
период
петербург
петербурга
петербурге
петр
по
под
полак
портал
пособие
постоянного
почтовои
правительства
правительство
праздник
президента
пресс
при
про
проблемы
проверено
программа
проект
против
профиль
прохоров
психологии
психология
путеводитель
р
ра
радио
развитие
развития
раи
ран
реальныи
ред
редактор
редакциеи
редакция
реи
рекорд
республики
риа
родион
року
россии
россия
ру
русская
русскии
русского
русскои
русском
рф
с
сааков
саи
санкт
сборник
света
свои
связи
сентября
сергеевич
сергеи
серебро
серия
серпухов
системы
ская
ские
скии
ского
скои
словарь
служба
см
со
совета
советская
советскои
соловьев
сост
социально
спб
список
спорт
справочник
ссср
ст
стал
статеи
статистика
статистики
статья
стб
ства
стр
стран
страница
страны
строи
сша
січня
т
та
таи
так
там
тасс
тбилиси
те
театр
текст
теории
теория
тер
тифлис
толстои
том
томах
тр
три
труды
турции
у
указ
украі
ун
университет
университета
учебник
учебное
ф
февраля
федеральная
федерации
филологии
философии
фотография
х
хаи
химия
хосе
ц
центр
центральныи
церкви
церковь
ч
чаи
часть
чемпионат
чемпионов
чисельність
численность
что
ш
ших
школа
школы
щ
ъ
ы
ь
э
экз
экспресс
энциклопедии
энциклопедическии
энциклопедия
эсбе
это
ю
юрии
я
язык
языка
языки
января
є
і
інформаціі
ѣ
ՙ
՚
՛
՜
՝
՞
ա
աա
աած
աբ
աբաս
աբասը
աբասի
աբարանի
աբբա
աբբաս
աբգար
աբգարեան
աբգարեանի
աբգարի
աբգարիոս
աբգարիոսի
աբելեան
աբելեանի
աբեղայ
աբեղեան
աբեղեանը
աբեղեանի
աբէլեան
աբիկեան
աբիսողոմ
աբխազական
աբխազիայի
աբխազիոյ
աբովեան
աբովեանը
աբովեանի
աբու
աբսիդով
աբրահամ
աբրահամեան
աբրահամեանը
աբրահամեանի
աբրահամի
ագ
ագաթանգեղոս
ագաթանգեղոսը
ագաթանգեղոսի
ագապի
ագարակ
ագարակը
ագարակի
ագարակներու
ագգային
ագն
ագոնց
ագուլեցի
ագուլիս
ագուլիսի
ագուցուած
ագրարային
ադ
ադաբաշեանը
ադաբաշեանի
ադամ
ադամանդ
ադամեան
ադամեանը
ադամեանի
ադամի
ադլանդիտի
ադլանտեան
ադոնց
ադոնցի
ադրբեջանի
ադրխսհ
ազ
ազա
ազատ
ազատագրած
ազատագրական
ազատագրել
ազատագրելու
ազատագրեն
ազատագրեց
ազատագրեցին
ազատագրէ
ազատագրման
ազատագրուած
ազատագրութեան
ազատագրուի
ազատագրում
ազատագրումէն
ազատագրումը
ազատազրկման
ազատած
ազատական
ազատամարտ
ազատամարտի
ազատամարտիկ
ազատամարտիկներու
ազատամարտիկներուն
ազատամարտին
ազատամիտ
ազատեան
ազատեանի
ազատել
ազատելով
ազատելու
ազատեն
ազատեց
ազատէ
ազատի
ազատիլ
ազատուած
ազատութեան
ազատութիւն
ազատութիւնը
ազատութիւնն
ազատութիւնները
ազատութիւններու
ազատություն
ազատուհի
ազատումը
ազատօրէն
ազարեան
ազարիա
ազգ
ազգաբնակչութեան
ազգագրագէտ
ազգագրական
ազգագրութեան
ազգական
ազգականներէն
ազգականները
ազգականներու
ազգականներուն
ազգակից
ազգակցական
ազգամիջեան
ազգային
ազգայիններու
ազգայնական
ազգայնականներու
ազգայնականութեան
ազգայնամոլ
ազգանուէր
ազգանուն
ազգանունը
ազգանունների
ազգապահպանման
ազգապատում
ազգապետ
ազգասէր
ազգեր
ազգերը
ազգերի
ազգերու
ազգերուն
ազգը
ազգի
ազգին
ազգիս
ազգն
ազգութեամբ
ազգութեան
ազգութիւնը
ազգութիւններու
ազգօգուտ
ազդած
ազդակ
ազդակը
ազդակներ
ազդակներէն
ազդակները
ազդակներով
ազդակներու
ազդանշան
ազդանշանը
ազդարար
ազդել
ազդելով
ազդելու
ազդեն
ազդեց
ազդեցիկ
ազդեցութեամբ
ազդեցութեան
ազդեցութենէն
ազդեցութիւն
ազդեցութիւնը
ազդեցութիւններ
ազդեցութիւնները
ազդեցութիւններով
ազդեցութիւններու
ազդէ
ազդող
ազդու
ազդուած
ազդուելով
ազդուի
ազդուին
ազերի
ազերիներուն
ազիզ
ազիզեան
ազնաւորեան
ազնաւուր
ազնաւուրեան
ազնաւուրը
ազնաւուրի
ազնիւ
ազնուական
ազնուականներ
ազնուականները
ազնուականներու
ազնուականներուն
ազնուականութեան
ազնուականութիւնը
ազնուութեան
ազնուութիւնը
ազովի
ազունիէի
ազրպ
ազրպէյճան
ազրպէյճանական
ազրպէյճաներէն
ազրպէյճանէն
ազրպէյճանը
ազրպէյճանի
ազրպէյճանին
ազրպէյճանցի
ազրպէյճանցիներ
ազրպէյճանցիները
ազրպէյճանցիներու
աթաբեկ
աթաթուրքի
աթալանտի
աթայեան
աթանաս
աթենացի
աթենացիները
աթենացիներուն
աթենեան
աթենքի
աթէնք
աթէնքէն
աթէնքը
աթէնքի
աթէնքին
աթինա
աթլանթեան
աթլեթիզմի
աթլեթիքօ
աթմաճեան
աթոմական
աթոմային
աթոռ
աթոռակից
աթոռանիստ
աթոռանիստը
աթոռէն
աթոռը
աթոռի
աթոռին
աթոռներէն
աթոռներու
աթոռոյ
աթոքեան
աժ
աժան
աժաքս
աժդահակ
աիմ
աիտա
ալ
ալազան
ալաճաճեան
ալամդարեան
ալան
ալանաց
ալաշկերտ
ալաշկերտի
ալասքա
ալասքայի
ալավերդի
ալբերտ
ալբոմ
ալբոմը
ալեն
ալենուշ
ալեք
ալեքոս
ալեքս
ալեքսան
ալեքսանդր
ալեքսանդրապոլ
ալեքսանդրապոլը
ալեքսանդրապոլի
ալեքսանդրացիի
ալեքսանդրեան
ալեքսանդրը
ալեքսանդրի
ալեքսանդրիա
ալեքսանդրիայի
ալեքսանդրիոյ
ալեքսանեան
ալեքսանտր
ալեքսանտրա
ալեքսանտրապոլ
ալեքսանտրէթ
ալեքսանտրէթի
ալեքսանտրը
ալեքսանտրի
ալեքսանտրիայի
ալեքսանտրոս
ալեքսէյ
ալեքսիոս
ալեքսիս
ալզայմըր
ալէն
ալէքս
ալըն
ալթ
ալթըն
ալթուն
ալթունեան
ալթունեանի
ալժիր
ալի
ալիան
ալիի
ալիին
ալիխանեան
ալին
ալիշան
ալիշանը
ալիշանի
ալիս
ալիսը
ալիսի
ալիսիա
ալիւր
ալիւրէ
ալիւրը
ալիւրի
ալիւրով
ալիք
ալիքային
ալիքարնասոս
ալիքաւոր
ալիքը
ալիքի
ալիքին
ալիքներ
ալիքները
ալիքներու
ալիքներուն
ալիքով
ալիքսանեան
ալլա
ալլահ
ալլան
ալխազեան
ալճերիա
ալճերիան
ալճերիոյ
ալմա
ալմաստ
ալպ
ալպա
ալպանական
ալպանացի
ալպաներէն
ալպանիա
ալպանիոյ
ալպեան
ալպեր
ալպերթ
ալպերթօ
ալպերտ
ալպէր
ալպըս
ալպըսը
ալպըսին
ալպիական
ալպոմ
ալպոմէն
ալպոմը
ալպոմի
ալպոմին
ալպոմներ
ալպոմները
ալպոմներու
ալպոյաճեան
ալպումը
ալպօյաճեան
ալպօյաճեանի
ալփասլան
ալքոլ
ալքոլի
ալքոհլը
ալֆա
ալֆոնս
ալֆոնսօ
ալֆրետ
ալֆրէտ
ախ
ախալցխա
ախալցխայի
ախալցխան
ախալքալաք
ախալքալաքը
ախալքալաքի
ախայիա
ախթալայի
ախթամար
ախլաթի
ախոյան
ախոյանութեան
ախոյեան
ախոյեանական
ախոյեանը
ախոյեանի
ախոյեաններու
ախոյեանութեան
ախորժակի
ախուրեան
ախուրեանի
ախպար
ախտաբանական
ախտաբանութեան
ախտահարուած
ախտահարուին
ախտաճանաչումը
ախտաճանաչումին
ախտանիշներ
ախտանիշները
ախտանիշներու
ախտանշան
ախտանշանը
ախտանշաններ
ախտանշաններէն
ախտանշանները
ախտանշաններն
ախտանշաններով
ախտանշաններու
ախտանշաններուն
ախտապատճառը
ախտապատճառին
ախտապատճառները
ախտապատճառներն
ախտապատճառներով
ախտապատճառներու
ախտորոշման
ախտորոշումը
ախֆսհ
ած
ածական
ածականը
ածանցեալ
ածխաթթու
ածխածինի
ածխածնային
ածխածնի
ածուխ
ածուխը
ածուխի
ակ
ակադ
ակադեմական
ակադեմիա
ակադեմիական
ակադեմիայէն
ակադեմիայի
ակադեմիային
ակադեմիան
ակադեմիաները
ակադեմիաներու
ակադեմիկոս
ակադեմիոյ
ակաթա
ակակի
ակամայ
ական
ականատես
ականատեսը
ականատեսի
ականատեսներու
ականաւոր
ականի
ականներ
ականներէն
ականները
ականներու
ականներուն
ականջ
ականջաբզզիւն
ականջաբզզիւնը
ականջահոսք
ականջահոսքը
ականջային
ականջացաւ
ականջացնցուղի
ականջը
ականջի
ականջին
ականջները
ականջներուն
ակինեան
ակիսդրի
ակն
ակնաբոյժ
ակնայ
ակնառու
ակնարկ
ակնարկելով
ակնարկէ
ակնարկը
ակնարկներ
ակներեւ
ակնէն
ակնի
ակնյայտ
ակնյայտօրէն
ակնունի
ակումբ
ակումբային
ակումբէն
ակումբը
ակումբի
ակումբին
ակումբն
ակումբներ
ակումբներէն
ակումբները
ակումբներու
ակումբներուն
ակունք
ակունքներէն
ակունքները
ակունքներու
ակունքներուն
ակռաները
ակռաներու
ակռաներուն
ակսել
ակվիճ
ակրա
ակօս
ահ
ահա
ահաբեկիչ
ահաբեկիչները
ահաբեկիչներու
ահաբեկման
ահաբեկումը
ահաբեկչական
ահաբեկչութեան
ահաբեկչութիւն
ահաբեկչութիւնը
ահագին
ահազանգ
ահազանգի
ահարոն
ահարոնեան
ահարոնեանը
ահարոնեանի
ահաւասիկ
ահաւոր
ահեկան
ահեղ
ահիլէասին
ահկ
ահմատ
ահմետ
ահմէտ
ահռելի
աղ
աղա
աղաբաբեան
աղաբաբեանը
աղաեան
աղազարեան
աղաթոն
աղաթոնիսի
աղաճանեան
աղամեան
աղամեմնոն
աղամեմնոնաս
աղամեմնոնասի
աղամեմնոնասին
աղայան
աղայեան
աղայեանի
աղայի
աղային
աղան
աղանդաւորական
աղանդեր
աղանդներու
աղանդոց
աղանեան
աղապապեան
աղաջանեան
աղասեան
աղասի
աղացած
աղաւաղուած
աղաւնի
աղաւնիի
աղաւնին
աղաւնիներ
աղաւնոյ
աղբալեան
աղբալեանը
աղբալեանի
աղբար
աղբիւր
աղբիւրագէտ
աղբիւրէն
աղբիւրը
աղբիւրի
աղբիւրին
աղբիւրն
աղբիւրներ
աղբիւրներէ
աղբիւրներէն
աղբիւրները
աղբիւրներով
աղբիւրներու
աղբիւրներուն
աղդամի
աղեթափութիւնը
աղեղ
աղեղը
աղեղի
աղեղնաձեւ
աղեղնային
աղեղնաւոր
աղետէն
աղեր
աղերը
աղերու
աղեքսանդր
աղեքսանդրի
աղեքսանդրիա
աղեքսանդրիոյ
աղեքսանտր
աղեքսանտրի
աղեքսանտրիա
աղեքսանտրիան
աղեքսանտրին
աղեքսանտրիոյ
աղէկ
աղէտ
աղէտալի
աղէտէն
աղէտը
աղէտի
աղէտին
աղէտներու
աղը
աղթամար
աղթամարի
աղի
աղիտալի
աղիւսակ
աղիւսակը
աղիւսակի
աղիւսակին
աղիւսակները
աղիւսէ
աղիք
աղիքային
աղիքի
աղիքին
աղիքներ
աղիքները
աղիքներու
աղիքներուն
աղձնիք
աղձնիքը
աղձնիքի
աղմկոտ
աղմուկ
աղմուկը
աղմուկի
աղով
աղուան
աղուանի
աղուանից
աղուաններու
աղուանք
աղուանքի
աղուէս
աղուէսը
աղպաշեան
աղջիկ
աղջիկը
աղջիկն
աղջիկներ
աղջիկները
աղջիկներու
աղջիկներուն
աղջկայ
աղջկան
աղջկանց
աղջնակը
աղստեւ
աղտամի
աղտոտ
աղրիելէա
աղցան
աղցանը
աղցանի
աղքատ
աղքատախնամ
աղքատիկ
աղքատները
աղքատներու
աղքատներուն
աղքատութեան
աղքատութիւն
աղքատութիւնը
աղօթագիրքը
աղօթամատեան
աղօթասրահը
աղօթասրահի
աղօթելու
աղօթեն
աղօթէ
աղօթից
աղօթք
աղօթքը
աղօթքի
աղօթքներ
աղօթքները
աղօթքով
աճ
աճած
աճապարանքն
աճառային
աճառեան
աճառեանը
աճառեանի
աճարիոյ
աճեմեան
աճեմեանը
աճեմեանի
աճեցաւ
աճեցնել
աճեցնեն
աճէին
աճէմեան
աճէմեանի
աճէր
աճը
աճի
աճիլ
աճին
աճիւնը
աճիւնները
աճման
աճող
աճով
աճուկային
աճուրդ
աճուրդի
ամ
ամազոն
ամազոնի
ամալ
ամայանայ
ամայացած
ամայի
աման
ամանի
ամաններ
ամաններու
ամանոր
ամանորեայ
ամանորը
ամանորի
ամանորին
ամանտա
ամառ
ամառային
ամառանոց
ամառանոցը
ամառը
ամառնային
ամառները
ամառներով
ամառուան
ամասիա
ամասիայի
ամասիան
ամասիոյ
ամավերջի
ամատունի
ամատունին
ամարաս
ամարասի
ամբաստանութեամբ
ամբարտակը
ամբարտակի
ամբերդ
ամբիոնի
ամբոխը
ամբոխի
ամբողջ
ամբողջական
ամբողջականութեան
ամբողջականութիւնը
ամբողջանայ
ամբողջապէս
ամբողջատիրական
ամբողջացնելու
ամբողջացնեն
ամբողջացնէ
ամբողջացուցած
ամբողջը
ամբողջովին
ամբողջութեամբ
ամբողջութեան
ամբողջութիւն
ամբողջութիւնը
ամբողջութիւնն
ամեակ
ամեակը
ամեակի
ամեակին
ամեայ
ամեն
ամենաազդեցիկ
ամենաարագ
ամենաարժէքաւոր
ամենաբարձր
ամենաբարձրն
ամենագեղեցիկ
ամենաերիտասարդ
ամենաերկար
ամենաընդարձակ
ամենաթանկ
ամենալայն
ամենալաւ
ամենախիտ
ամենախոշոր
ամենածանր
ամենածանօթ
ամենակարեւոր
ամենակարեւորը
ամենահարուստ
ամենահեղինակաւոր
ամենահզօր
ամենահին
ամենահինը
ամենամեայ
ամենամեծ
ամենամեծը
ամենամեծն
ամենամօտ
ամենամօտիկ
ամենայայտնի
ամենայայտնին
ամենայաջող
ամենայաջողակ
ամենայն
ամենայնի
ամենանշանաւոր
ամենաշատ
ամենաշատը
ամենասիրուած
ամենավաղ
ամենավառ
ամենատարածուած
ամենատարբեր
ամենատաք
ամենացած
ամենացուրտ
ամենափոքր
ամենափրկիչ
ամենէ
ամենէն
ամենուն
ամենուր
ամենուրէք
ամենօրեայ
ամերիկա
ամերիկաբնակ
ամերիկահայ
ամերիկայէն
ամերիկայի
ամերիկան
ամերիկաներու
ամերիկացի
ամերիկացիներ
ամերիկացիները
ամերիկացիներու
ամերիկացիներուն
ամերիկեան
ամերիկյան
ամէ
ամէն
ամէնալաւ
ամէնամեայ
ամէնամեծ
ամէնայն
ամէնաշատ
ամէնէ
ամէնէն
ամէնը
ամէնուն
ամէնուր
ամէնուրեք
ամէնօրեայ
ամըլ
ամին
ամիս
ամիսէն
ամիսը
ամիսն
ամիսներ
ամիսները
ամիսներու
ամիսներուն
ամիսով
ամիր
ամիրա
ամիրայական
ամիրայի
ամիրային
ամիրայութեան
ամիրան
ամիրաները
ամիրաներու
ամիրեան
ամիրխանեան
ամիրսպասալար
ամկ
ամհարերեն
ամման
ամմանի
ամյա
ամյակի
ամյակին
ամն
ամնի
ամոս
ամորղոս
ամորղոսին
ամուսին
ամուսինէն
ամուսինը
ամուսինի
ամուսինին
ամուսինն
ամուսիններ
ամուսինները
ամուսիններու
ամուսիններուն
ամուսնալուծուած
ամուսնալուծութեան
ամուսնալուծուի
ամուսնական
ամուսնանալ
ամուսնանալով
ամուսնանալու
ամուսնանայ
ամուսնանան
ամուսնացած
ամուսնացան
ամուսնացաւ
ամուսնացեալ
ամուսնացեր
ամուսնոյն
ամուսնութեամբ
ամուսնութեան
ամուսնութենէն
ամուսնութիւն
ամուսնութիւնէն
ամուսնութիւնը
ամուսնութիւնները
ամուր
ամուրեան
ամուրի
ամպ
ամպամած
ամպեր
ամպերը
ամպերու
ամպիոն
ամպիոնը
ամպիոնի
ամպիոնին
ամռան
ամռանը
ամսագիր
ամսագիրը
ամսագիրի
ամսագիրին
ամսագիրներու
ամսագիրներուն
ամսագրերու
ամսագրերուն
ամսագրի
ամսագրին
ամսաթերթ
ամսաթերթը
ամսաթերթի
ամսաթերթին
ամսաթիւը
ամսաթիւով
ամսական
ամսթերտամ
ամսթերտամը
ամսթերտամի
ամսու
ամսուայ
ամսուան
ամսուն
ամսօրեայ
ամրագրուած
ամրան
ամրանը
ամրապնդած
ամրապնդել
ամրապնդելու
ամրապնդէ
ամրապնդման
ամրապնդուած
ամրապնդուի
ամրապնդումը
ամրացած
ամրացնել
ամրացնելու
ամրացնեն
ամրացնէ
ամրացուած
ամրացուէր
ամրացուի
ամրոց
ամրոցը
ամրոցի
ամրոցին
ամրոցներ
ամրոցներէն
ամրոցները
ամրոցներու
ամրութիւններ
ամրութիւնները
ամփոփ
ամփոփած
ամփոփէ
ամփոփող
ամփոփուած
ամփոփուեցաւ
ամփոփուի
ամփոփուին
ամօ
ամօթալի
ամֆիթատրոն
ամֆիթատրոնը
ամֆորէաս
այ
այաթոլլահ
այաշ
այաս
այբ
այբբենական
այբուբեն
այբուբենական
այբուբենը
այբուբենի
այբուբէնը
այբուբէնի
այգ
այգեգործութեամբ
այգեգործութեան
այգեգործութիւնը
այգեկցի
այգեկցիի
այգեհատ
այգեստան
այգի
այգիի
այգիին
այգին
այգիներ
այգիները
այգիներով
այգիներու
այգիներուն
այդ
այդմ
այդուհանդերձ
այդպես
այդպէս
այդպէսով
այդպիսի
այդպիսին
այդպիսով
այդտեղ
այդտեղէն
այդտեղի
այդքան
այըն
այժմ
այժմեան
այժմէական
այժմու
այի
այիա
ային
այիոս
այիու
այլ
այլաբանական
այլազան
այլազգի
այլախոհ
այլանդակ
այլապէս
այլեւ
այլեւայլ
այլեւս
այլընտ
այլընտրանք
այլընտրանքային
այլն
այլոց
այլուր
այլք
այծ
այծեմնիկ
այծեր
այծի
այն
այնթապ
այնթապեան
այնթապի
այնթապցի
այնթէպ
այնթէպի
այնի
այնճար
այնճարի
այնճարցի
այնշթայն
այնշթայնը
այնշթայնի
այնուամենայնիւ
այնուամէնայնիւ
այնուհանդերձ
այնուհետ
այնուհետեւ
այնչափ
այնպես
այնպէս
այնպիսի
այնտեղ
այնտեղէն
այնտեղի
այնքան
այո
այս
այսինքն
այսուհանդերձ
այսուհետեւ
այսպես
այսպէս
այսպէսով
այսպիսի
այսպիսով
այստեղ
այստեղէն
այստեղի
այսքան
այսօր
այսօրուայ
այսօրուան
այվազ
այվազեան
այվազեանը
այվազեանի
այվազյան
այվազովսկի
այվազովսկիի
այվազովսկին
այտա
այտընեան
այր
այրած
այրարատ
այրարատեան
այրարատի
այրել
այրելու
այրեն
այրես
այրեսի
այրեր
այրեցին
այրէ
այրէս
այրէսի
այրի
այրին
այրման
այրող
այրուած
այրուածք
այրուձին
այրուող
այցելած
այցելել
այցելելով
այցելելու
այցելեն
այցելեց
այցելեցէք
այցելէ
այցելէին
այցելէր
այցելող
այցելու
այցելութեան
այցելութիւն
այցելութիւնը
այցելութիւններ
այցելութիւնները
այցելութիւններով
այցելութիւններու
այցելուն
այցելուներ
այցելուները
այցելուներու
այցելուներուն
այցելուող
այցը
այցի
այֆոն
ան
անա
անագ
անագը
անագի
անաթոլիա
անալի
անախորժ
անախորժակութիւն
անակնկալ
անակնկալի
անակնկալօրէն
անահիտ
անահիտի
անաղարտ
անանեան
անանիա
անանկ
անանուխի
անանուն
անապահով
անապատ
անապատային
անապատը
անապատի
անապատին
անապատներ
անապատները
անապատներու
անապատներուն
անառակ
անառիկ
անասեան
անասնաբոյժ
անասնաբուժական
անասնաբուժութեան
անասնաբուծական
անասնաբուծութեան
անասնաբուծութիւնը
անասնական
անասնապահական
անասնապահութեամբ
անասնապահութեան
անասնապահութիւնը
անասնապահութիւնն
անասուն
անասունի
անասունին
անասուններ
անասուններէն
անասունները
անասուններու
անասուններուն
անաստաս
անատոլի
անատոլիա
անատոլիոյ
անատոմիայի
անարատ
անարդար
անարդարութեան
անաւարտ
անաֆի
անբաժան
անբաժանելի
անբասիր
անբարենպաստ
անբացատրելի
անբաւարար
անբաւարարութեան
անբաւարարութիւն
անբաւարարութիւնը
անբնակ
անբնական
անբուժելի
անգ
անգամ
անգամէն
անգամը
անգամն
անգամներ
անգարա
անգարայի
անգարան
անգարի
անգերազանցելի
անգին
անգիտակից
անգիտակցաբար
անգիր
անգլ
անգլերեն
անգլերէն
անգլերէնէ
անգլերէնէն
անգլերէնը
անգլերէնի
անգլերէնին
անգլերէնն
անգլերէնով
անգլիա
անգլիախօս
անգլիական
անգլիայէն
անգլիայի
անգլիան
անգլիացի
անգլիացիները
անգլիացիներու
անգլիացիներուն
անգլիերէն
անգլիոյ
անգլո
անգղ
անգղի
անգնահատելի
անգոյն
անգործ
անգործութեան
անդ
անդադար
անդամ
անդամագրուած
անդամագրուի
անդամալուծութեան
անդամալուծութիւն
անդամակցած
անդամակցելով
անդամակցելու
անդամակցի
անդամակցին
անդամակցութեան
անդամակցութիւնը
անդամը
անդամի
անդամն
անդամներ
անդամներէ
անդամներէն
անդամները
անդամներն
անդամներով
անդամներու
անդամներուն
անդաստան
անդին
անդիռիօ
անդնդախոր
անդովկ
անդուլ
անդունդ
անդրադառնալով
անդրադառնայ
անդրադառնան
անդրադարձ
անդրադարձած
անդրադարձաւ
անդրադարձը
անդրանիկ
անդրանիկեան
անդրանիկը
անդրանիկի
անդրանիկին
անդրաշ
անդրէաս
անդրէասեան
անդրէասեանի
անդրէյ
անդրկովկաս
անդրկովկասեան
անդրկովկասէն
անդրկովկասը
անդրկովկասի
անդրձայնային
անել
անեցի
անզէն
անզուգական
անզուսպ
անզօր
անէծքը
անընդհատ
անընդմեջ
անընդմէջ
անընդունելի
անթարքթիքայի
անթեթոքունպօ
անթերի
անթէպի
անթընի
անթիլիաս
անթիլիասի
անթիլիս
անթիռիօ
անթիրիօ
անթիւ
անթիք
անթոն
անթոնի
անթոնիի
անթոնիոսը
անթոնիօ
անթուան
անժառանգ
անժելա
անժելինա
անժէլ
անի
անիէն
անիթա
անիի
անիծեալ
անիծները
անիկա
անիմաստ
անին
անիւը
անլար
անլռելի
անխաթար
անխախտ
անխափան
անխնամ
անխնայ
անխոնջ
անխուսափելի
անխտիր
անծայրածիր
անծանօթ
անկախ
անկախանայ
անկախացած
անկախացման
անկախացումէն
անկախութեան
անկախութենէն
անկախութիւն
անկախութիւնը
անկախութիւնն
անկայուն
անկանոն
անկաշկանդ
անկասկած
անկատար
անկարգութիւնները
անկարգութիւններու
անկարելի
անկարող
անկեղծ
անկեղծութեամբ
անկենդան
անկէ
անկիւն
անկիւնադարձային
անկիւնային
անկիւնը
անկիւնի
անկիւնին
անկիւններ
անկիւններէն
անկիւնները
անկիւններու
անկիւններուն
անկլօ
անկման
անկողին
անկողինը
անկողինին
անկողմնակալ
անկում
անկումէն
անկումը
անկումի
անկումին
անկուսակցական
անկրկնելի
անհաճոյ
անհամաչափ
անհամատեղելի
անհամար
անհամեմատ
անհայտ
անհանգիստ
անհանգստացած
անհանգստութեան
անհանգստութիւնը
անհաշտ
անհասկանալի
անհասկնալի
անհատ
անհատական
անհատականութեան
անհատականութիւն
անհատականութիւնը
անհատը
անհատի
անհատին
անհատներ
անհատները
անհատներու
անհատներուն
անհաւանական
անհաւասար
անհաւասարութեան
անհաւասարութիւնը
անհաւատալի
անհեթեթ
անհետ
անհետանալ
անհետանայ
անհետանան
անհետացած
անհետացման
անհիմն
անհնազանդ
անհնար
անհնարին
անհոգ
անհուն
անհրաժեշտ
անհրաժեշտութեան
անհրաժեշտութիւն
անհրաժեշտութիւնը
անհրաժէշտ
անձ
անձամբ
անձանց
անձեռնմխելի
անձեր
անձերէ
անձերէն
անձերը
անձերու
անձերուն
անձէ
անձը
անձի
անձին
անձինք
անձն
անձնագիր
անձնազոհ
անձնակազմ
անձնակազմը
անձնակազմի
անձնակազմին
անձնական
անձնային
անձնանուն
անձնանուններ
անձնանունները
անձնանունների
անձնանուններու
անձնապէս
անձնասպան
անձնասպանական
անձնասպանութեան
անձնատուր
անձնաւորութեան
անձնաւորութիւն
անձնաւորութիւնը
անձնաւորութիւններ
անձնաւորութիւններու
անձնուէր
անձնուիրաբար
անձնուրաց
անձուկ
անձրեւ
անձրեւային
անձրեւէ
անձրեւը
անձրեւի
անձրեւին
անձրեւներ
անձրեւները
անձրեւներու
անձրեւոտ
անճելըս
անճելըսէն
անճելըսի
անճելոս
անճելոսի
անճելօ
անճէլ
անճէլըս
անճըլես
անճըլեսի
անճըլէսի
անճըլըս
անճըլըսի
անմահ
անմահութեան
անմահութիւն
անմատչելի
անմարդաբնակ
անմարդկային
անմեղ
անմիջական
անմիջականօրէն
անմիջապէս
անմշակ
անմոռանալի
անյաղթ
անյաղթահարելի
անյաղթը
անյաղթի
անյայտ
անյապաղ
անյաջող
անյաջողութեան
անյարմար
անյոյս
անն
աննա
աննախադէպ
աննախընթաց
աննայի
աննան
աննկատ
աննկարագրելի
աննկուն
աննման
աննշան
աննպաստ
անշահախնդիր
անշարժ
անշարժութիւն
անշուշտ
անշուք
անշօշափելի
անողոք
անոյշ
անոնց
անոնցմէ
անոնցմով
անոնք
անով
անոր
անորմէ
անորմով
անորոշ
անոց
անուամբ
անուան
անուանագիրք
անուանած
անուանական
անուանակարգերու
անուանակարգերուն
անուանակարգի
անուանակարգին
անուանակոչուած
անուանակոչութեան
անուանացանկ
անուանել
անուանելով
անուանեն
անուանեց
անուանեցին
անուանէ
անուանէին
անուանէր
անուանի
անուանման
անուանուած
անուանուեցաւ
անուանուէր
անուանուի
անուանուին
անուանում
անուանումէն
անուանումը
անուանումին
անուանումն
անուանումներ
անուանումները
անուանումներով
անուանումով
անուար
անուղղակի
անուղղակիօրէն
անուն
անունէ
անունէն
անունը
անունի
անունին
անունն
անուններ
անուններէն
անունները
անունների
անուններն
անուններով
անուններու
անուններուն
անունով
անուշ
անուշահոտ
անուշաւան
անուշեան
անուշքայի
անուշքան
անուրանալի
անուրջներ
անչափահաս
անչափահասներու
անպակաս
անպայման
անպաշտպան
անպաշտօն
անպատիժ
անպարտ
անպարտելի
անջատ
անջատաբար
անջատած
անջատեն
անջատողական
անջատուած
անջատուի
անջատուին
անջրդի
անսալով
անսակարկ
անսահման
անսահմանափակ
անսամպլը
անսամպլի
անսեռ
անսովոր
անսպառ
անսպասելի
անսպասելիօրէն
անստոյգ
անվախ
անվան
անվաւեր
անվեհեր
անվերադարձ
անվերապահ
անվերապահօրէն
անվերջ
անվերջանալի
անվիճելի
անվճար
անվնաս
անվտանգ
անվտանգութեան
անվտանգութիւնը
անտալուսական
անտալուսի
անտալուսիա
անտանելի
անտանտի
անտաշ
անտառ
անտառածածկ
անտառային
անտառապատ
անտառէն
անտառը
անտառի
անտառին
անտառներ
անտառներէն
անտառները
անտառներով
անտառներու
անտառներուն
անտարբեր
անտարբերութիւն
անտեան
անտեղեակ
անտեղի
անտեսանելի
անտեսել
անտեսելով
անտեսէ
անտեսուած
անտերս
անտիկ
անտիոք
անտիոքեան
անտիոքը
անտիոքի
անտիոքոս
անտիպ
անտիփարոս
անտոն
անտոնեան
անտոնիոս
անտոնիոսի
անտուն
անտրէ
անտրէա
անտրէաս
անտրէի
անտրէյ
անտրոս
անտօն
անրի
անց
անցած
անցան
անցանկալի
անցաւ
անցեալ
անցեալէն
անցեալը
անցեալի
անցեալին
անցել
անցեր
անցընել
անցընելէ
անցընելով
անցընելու
անցընեն
անցընէ
անցընէր
անցկացման
անցկացուած
անցկացրած
անցման
անցնել
անցնելէ
անցնելէն
անցնելով
անցնելու
անցնեն
անցներ
անցնէ
անցնէին
անցնէր
անցնի
անցնիլ
անցնիլը
անցնին
անցնիր
անցնող
անցողակի
անցողիկ
անցում
անցումային
անցումը
անցուց
անցուցած
անցք
անցքեր
անցքերը
անցքերու
անցքերուն
անցքը
անփոխարինելի
անփորձ
անփոփոխ
անքակտելի
անքարայի
անքնութիւն
անօ
անօգնական
անօգուտ
անօդաչու
անօթ
անօթային
անօթեւան
անօթը
անօթի
անօթներ
անօթները
անօթներու
անօթներուն
անօթութեան
անօրէն
անօրինական
անօրկանական
աշ
աշակերտ
աշակերտած
աշակերտական
աշակերտելով
աշակերտելու
աշակերտէ
աշակերտը
աշակերտի
աշակերտին
աշակերտն
աշակերտներ
աշակերտներէն
աշակերտները
աշակերտներով
աշակերտներու
աշակերտներուն
աշակերտութեան
աշակերտութիւնը
աշակերտուհի
աշան
աշըգեան
աշըղ
աշխատած
աշխատակազմը
աշխատակազմի
աշխատակից
աշխատակիցը
աշխատակիցներ
աշխատակիցներէն
աշխատակիցները
աշխատակիցներու
աշխատակիցներուն
աշխատակցած
աշխատակցելով
աշխատակցի
աշխատակցիլ
աշխատակցութեամբ
աշխատակցութիւնը
աշխատանոց
աշխատանոցը
աշխատանոցին
աշխատանոցներ
աշխատանք
աշխատանքային
աշխատանքէ
աշխատանքէն
աշխատանքը
աշխատանքի
աշխատանքին
աշխատանքն
աշխատանքներ
աշխատանքներէն
աշխատանքները
աշխատանքներն
աշխատանքներով
աշխատանքներու
աշխատանքներուն
աշխատանքով
աշխատասէր
աշխատասիրութեամբ
աշխատասիրութեան
աշխատասիրութիւն
աշխատասիրութիւնը
աշխատասիրութիւններ
աշխատասիրութիւնները
աշխատավարձը
աշխատավարձի
աշխատաւոր
աշխատաւորական
աշխատաւորները
աշխատաւորներու
աշխատաւորութեան
աշխատել
աշխատելէ
աշխատելով
աշխատելու
աշխատեր
աշխատեցաւ
աշխատէին
աշխատէր
աշխատի
աշխատիլ
աշխատին
աշխատող
աշխատողներ
աշխատողները
աշխատողներու
աշխատողներուն
աշխատութեամբ
աշխատութեան
աշխատութիւն
աշխատութիւնը
աշխատութիւնն
աշխատութիւններ
աշխատութիւններէն
աշխատութիւնները
աշխատութիւններով
աշխատութիւններու
աշխատութիւններուն
աշխատուժի
աշխատունակ
աշխարհ
աշխարհաբար
աշխարհաբարը
աշխարհաբարի
աշխարհաբարով
աշխարհագէտ
աշխարհագրագէտ
աշխարհագրական
աշխարհագրականօրէն
աշխարհագրութեան
աշխարհագրութիւն
աշխարհագրութիւնը
աշխարհազօրային
աշխարհազօրայիններու
աշխարհածանօթ
աշխարհակալ
աշխարհական
աշխարհահռչակ
աշխարհամարտէն
աշխարհամարտը
աշխարհամարտի
աշխարհամարտին
աշխարհայեացքի
աշխարհային
աշխարհասփիւռ
աշխարհացոյց
աշխարհաքաղաքական
աշխարհէն
աշխարհը
աշխարհի
աշխարհիկ
աշխարհին
աշխարհիս
աշխարհն
աշխարհներու
աշխարհով
աշխարհում
աշխէն
աշխոյժ
աշխոյժօրէն
աշխուժ
աշխուժանայ
աշխուժացած
աշխուժացման
աշխուժացնէ
աշխուժութեան
աշխուժութիւն
աշխուժութիւնը
աշխուժօրէն
աշկերտ
աշճեան
աշճեանի
աշնան
աշնանային
աշնանը
աշոտ
աշոտը
աշոտի
աշոտին
աշուղ
աշուղական
աշուղի
աշուղներ
աշուղները
աշուղներու
աշուն
աշունը
աշտարակ
աշտարակեցի
աշտարակեցիի
աշտարակեցին
աշտարակէն
աշտարակը
աշտարակի
աշտարակին
աշտարակներ
աշտարակներէն
աշտարակները
աշտարակներով
աշտարակներու
աշտիշատ
աշտիշատի
աոաջին
աոաջնորդ
աուն
աունի
աչք
աչքառու
աչքեր
աչքերէն
աչքերը
աչքերով
աչքերու
աչքերուն
աչքը
աչքի
աչքին
աչքով
ապ
ապա
ապագայ
ապագայի
ապագային
ապագան
ապականած
ապակեայ
ապակիէ
ապակիի
ապակին
ապահով
ապահովագրական
ապահովագրութեան
ապահոված
ապահովական
ապահովել
ապահովելով
ապահովելու
ապահովեն
ապահովեց
ապահովէ
ապահովէին
ապահովէր
ապահովման
ապահովող
ապահովուած
ապահովութեան
ապահովութիւն
ապահովութիւնը
ապահովուի
ապահովում
ապահովումը
ապաճեան
ապաճեանը
ապաճեանի
ապաշիձէի
ապաշխարութեան
ապառաժ
ապաս
ապաստան
ապաստանած
ապաստանի
ապաստանին
ապաստարան
ապարան
ապարանի
ապարանքը
ապարանքին
ապարդիւն
ապարներու
ապացոյց
ապացոյցը
ապացոյցի
ապացոյցն
ապացոյցներ
ապացոյցները
ապացոյցներու
ապացուցած
ապացուցել
ապացուցելով
ապացուցելու
ապացուցեց
ապացուցէ
ապացուցուած
ապաքինման
ապենինեան
ապի
ապխազիոյ
ապհ
ապոլոն
ապու
ապուլ
ապուր
ապուրը
ապուրի
ապպաս
ապստամբ
ապստամբած
ապստամբական
ապստամբեցաւ
ապստամբի
ապստամբին
ապստամբները
ապստամբներու
ապստամբներուն
ապստամբութեան
ապստամբութենէն
ապստամբութիւն
ապստամբութիւնը
ապստամբութիւններ
ապստամբութիւնները
ապստամբութիւններու
ապտ
ապտալլահ
ապտել
ապտըլ
ապտիւլ
ապտուլ
ապտուլլահ
ապրած
ապրահամ
ապրանք
ապրանքային
ապրանքանիշի
ապրանքներ
ապրանքները
ապրանքներու
ապրել
ապրելակերպի
ապրելէ
ապրելով
ապրելու
ապրեսեան
ապրեր
ապրեցան
ապրեցաւ
ապրէին
ապրէր
ապրի
ապրիլ
ապրիլեան
ապրիլէն
ապրիլը
ապրիլի
ապրիլին
ապրին
ապրիր
ապրող
ապրողներու
ապրոյեան
ապրուած
ապրում
ապրումներ
ապրումները
ապրումներով
ապրումներու
ապրուստը
ապրուստի
ապրօ
ապօրինի
աջ
աջակից
աջակողմեան
աջակցած
աջակցելով
աջակցելու
աջակցէին
աջակցէր
աջակցի
աջակցիլ
աջակցին
աջակցող
աջակցութեամբ
աջակցութեան
աջակցութիւն
աջակցութիւնը
աջապահեան
աջափնեայ
աջէն
աջը
աջին
առ
առա
առագաստ
առագաստները
առած
առակ
առակագիր
առակը
առակին
առակներ
առակները
առակներու
առակներուն
առաձգական
առայժմ
առանձար
առանձին
առանձնաբար
առանձնակի
առանձնահատկութիւնները
առանձնայատկութիւնը
առանձնայատկութիւնն
առանձնայատկութիւններ
առանձնայատկութիւններէն
առանձնայատկութիւնները
առանձնայատկութիւններով
առանձնայատկութիւններու
առանձնայատկութիւններուն
առանձնայատուկ
առանձնանայ
առանձնանան
առանձնանար
առանձնապէս
առանձնատան
առանձնատուն
առանձնատունը
առանձնացած
առանձնացաւ
առանձնացնել
առանձնացնեն
առանձնացնէ
առանձնացուած
առանձնացումը
առանձնացուցած
առանշահիկ
առանց
առանցքային
առանցքը
առանցքի
առանցքին
առաջ
առաջադէմ
առաջադիմական
առաջադրած
առաջադրանքով
առաջադրէ
առաջադրուած
առաջանալ
առաջանայ
առաջանան
առաջապահ
առաջատար
առաջատարը
առաջարկ
առաջարկած
առաջարկել
առաջարկելով
առաջարկեն
առաջարկեց
առաջարկեցին
առաջարկէ
առաջարկէր
առաջարկը
առաջարկին
առաջարկներ
առաջարկները
առաջարկով
առաջարկուած
առաջարկուեցաւ
առաջարկութեամբ
առաջարկութիւն
առաջարկուի
առաջարկուող
առաջացած
առաջացաւ
առաջացեր
առաջացման
առաջացնել
առաջացնելով
առաջացնեն
առաջացնէ
առաջացող
առաջացումը
առաջացուց
առաջացուցած
առաջաւոր
առաջաւորաց
առաջընթաց
առաջընթացը
առաջընթացի
առաջընթացին
առաջին
առաջինէն
առաջինը
առաջինի
առաջինին
առաջինն
առաջիններէն
առաջինները
առաջխաղացումը
առաջնակարգ
առաջնահերթ
առաջնահերթութիւն
առաջնային
առաջնորդ
առաջնորդած
առաջնորդական
առաջնորդանիստ
առաջնորդանիստը
առաջնորդարան
առաջնորդարանը
առաջնորդարանի
առաջնորդարանին
առաջնորդելու
առաջնորդեն
առաջնորդեց
առաջնորդէ
առաջնորդը
առաջնորդի
առաջնորդին
առաջնորդն
առաջնորդներ
առաջնորդներէն
առաջնորդները
առաջնորդներու
առաջնորդներուն
առաջնորդող
առաջնորդուելով
առաջնորդութեամբ
առաջնորդութեան
առաջնորդութիւնը
առաջնորդուի
առաջնորդուին
առաջնութեան
առաջնութեանը
առաջնութիւն
առաջնութիւնը
առաջնութիւններ
առաջնութիւնները
առաջնութիւններու
առաջնութիւններուն
առաջքը
առասպել
առասպելաբանութեան
առասպելական
առասպելը
առասպելի
առասպելին
առասպելներ
առասպելները
առասպելներու
առասպելներուն
առաստաղը
առաստաղի
առավել
առավոտ
առատ
առատաձեռն
առատութեան
առատութիւն
առատութիւնը
առատօրէն
առարկայ
առարկայական
առարկայի
առարկային
առարկան
առարկաներ
առարկաներէն
առարկաները
առարկաներու
առարկաներուն
առաւ
առաւել
առաւելաբար
առաւելագոյն
առաւելագոյնը
առաւելապէս
առաւելութիւն
առաւելութիւնը
առաւելութիւններ
առաւելութիւնները
առաւօտ
առաւօտեան
առաւօտը
առաւօտուն
առափնեայ
առաքեալ
առաքեալը
առաքեալի
առաքեալին
առաքեալներէն
առաքեալները
առաքեալներու
առաքեալներուն
առաքել
առաքելական
առաքելեան
առաքելեանը
առաքելեանի
առաքելոց
առաքելութեամբ
առաքելութեան
առաքելութիւն
առաքելութիւնը
առաքելութիւնն
առաքելութիւններ
առաքելութիւնները
առաքելութիւններու
առաքէլ
առաքինի
առաքինութեան
առաքինութիւնը
առաքինութիւնները
առաքման
առեղծուածային
առեղծուածը
առեւանգումը
առեւտուր
առեւտուրը
առեւտուրի
առեւտուրին
առեւտուրով
առեւտրա
առեւտրական
առեւտրականներ
առեւտրականները
առեւտրականներու
առեւտրային
առեւտրի
առընթեր
առթիվ
առթիւ
առթիւնքով
առժամեայ
առիանոս
առիթ
առիթէն
առիթը
առիթներ
առիթներով
առիթով
առին
առիւծ
առիւծը
առիւծի
առիւծին
առիւծներու
առկա
առկայ
առկայութեամբ
առկայութեան
առկայութիւնը
առհասարակ
առձեռն
առմամբ
առնել
առնելէ
առնելով
առնելու
առնեն
առնենք
առներ
առնէ
առնէին
առնէր
առնոլտ
առնող
առնուազն
առնուած
առնուի
առնուին
առնչուած
առնչութեամբ
առնչութիւն
առնչուի
առնչուին
առնչուող
առնօ
առող
առողջ
առողջական
առողջապահական
առողջապահութեան
առողջապահութիւն
առողջարան
առողջարանային
առողջարանը
առողջարաններու
առողջարար
առողջութեամբ
առողջութեան
առողջութիւն
առողջութիւնը
առոյգ
առումը
առումներով
առումով
առջեւ
առջեւէն
առջեւը
առջեւի
առտնին
առտու
առտուան
առտուն
առցանց
առօրեայ
առօրեայէն
առօրեային
առօրեան
աս
ասալա
ասած
ասատ
ասատը
ասատի
ասատուր
ասատուրեան
ասատուրի
ասատրեան
ասատրեանի
ասգորպինաթթուի
ասդին
ասել
ասեղնագործ
ասեղնագործուած
ասեղնատերեւ
ասթիփալէա
ասթիփալէայի
ասի
ասիա
ասիական
ասիայէն
ասիայի
ասիան
ասիկա
ասիոյ
ասլամազեան
ասլան
ասլանեան
ասլանեանը
ասկերան
ասկերանի
ասկէ
ասմարեան
ասմունքի
ասմունքող
ասն
ասողիկ
ասոյթներ
ասոնց
ասոնցմէ
ասոնք
ասով
ասոր
ասորական
ասորեստանեան
ասորեստանի
ասորերէն
ասորի
ասորիի
ասորիներ
ասորիները
ասորիներու
ասորիներուն
ասորիք
ասորիքը
ասորիքի
ասոցիացիայի
ասուլիսի
ասում
ասպատակած
ասպարեզ
ասպարեզը
ասպարեզի
ասպարեզին
ասպարէզ
ասպարէզէն
ասպարէզը
ասպարէզի
ասպարէզին
ասպարէզներու
ասպարէզներուն
ասպետ
ասպետական
ասպետի
ասպետներ
ասպետները
ասպետներու
ասպետներուն
ասպիրանտուրան
ասպնջական
աստ
աստեղնեակի
աստիճան
աստիճանաբար
աստիճանական
աստիճանաձեւ
աստիճանը
աստիճանի
աստիճանին
աստիճաններ
աստիճաններէն
աստիճանները
աստիճաններով
աստիճաններու
աստիճաններուն
աստիճանով
աստծոյ
աստծուն
աստղ
աստղագէտ
աստղագիտական
աստղագիտութեան
աստղագիտութիւն
աստղագիտութիւնը
աստղադիտարան
աստղադիտարանը
աստղադիտարանի
աստղադիտարանին
աստղակերպ
աստղակերպը
աստղակերպին
աստղային
աստղաշէնի
աստղեր
աստղերէն
աստղերը
աստղերու
աստղերուն
աստղը
աստղի
աստղիկ
աստղիկը
աստղիկի
աստղիկին
աստղին
աստուած
աստուածաբան
աստուածաբանական
աստուածաբանութեան
աստուածաբանութիւն
աստուածաբանութիւնը
աստուածածին
աստուածածինը
աստուածածինի
աստուածածինին
աստուածածնայ
աստուածածնի
աստուածածնին
աստուածամայր
աստուածամօր
աստուածայայտնութեան
աստուածային
աստուածաշնչական
աստուածաշնչային
աստուածաշնչեան
աստուածաշունչ
աստուածաշունչէն
աստուածաշունչը
աստուածաշունչի
աստուածաշունչին
աստուածատուր
աստուածատուրեան
աստուածատուրեանց
աստուածը
աստուածն
աստուածներ
աստուածները
աստուածներու
աստուածներուն
աստուածութեան
աստուածութիւնը
աստուածուհի
աստուածուհիի
աստուածուհիին
աստուածուհին
աստուծմէ
աստուծոյ
աստուրիայի
աստուրիոյ
աստրախան
աստրախանի
ասրեան
ասփիրինը
ասփրոնիսի
ասքանազ
ավագ
ավագյան
ավանդական
ավանդույթները
ավարտ
ավելի
ավետիսյան
ավծ
ավստրիա
ավստրիայի
ատ
ատա
ատաբազար
ատաղձագործ
ատաղձագործութեան
ատամ
ատամնաբոյժ
ատամնաբուժական
ատամնաւոր
ատանա
ատանայի
ատանան
ատանկ
ատաշ
ատափազար
ատեան
ատեանը
ատեանի
ատեանին
ատեգորիայ
ատել
ատելի
ատելութեամբ
ատելութիւնը
ատեն
ատենադպիր
ատենախօսութեան
ատենախօսութիւն
ատենախօսութիւնը
ատենախօսութիւններու
ատենապետ
ատենապետը
ատենապետի
ատենապետն
ատենապետութիւնը
ատենապետուհի
ատենէ
ատենէն
ատենը
ատենի
ատենուան
ատէլ
ատէն
ատիա
ատիկա
ատիկէ
ատիկէի
ատիս
ատլանտեան
ատլաս
ատկէ
ատկից
ատնան
ատոլֆ
ատոմ
ատոմային
ատոնիս
ատոնց
ատոնցմէ
ատոնք
ատով
ատոր
ատտիկեան
ատտիկէ
ատտիկէի
ատրիաթիք
ատրիան
ատրիանապոլիս
ատրիանը
ատրիանի
ատրճանակով
ատրպատական
ատրպատականը
ատրպատականի
ատրպէյճան
ատրպէյճանական
ատրպէյճանը
ատրպէյճանի
ատրպէյճանին
ար
արա
արաբ
արաբա
արաբախօս
արաբական
արաբերեն
արաբերէն
արաբերէնը
արաբերէնի
արաբերէնին
արաբերէնն
արաբերէնով
արաբիա
արաբիան
արաբիոյ
արաբկիր
արաբկիրի
արաբներ
արաբներէն
արաբները
արաբներու
արաբներուն
արագ
արագած
արագածը
արագածի
արագածոտն
արագածոտնի
արագահոս
արագանայ
արագացնէ
արագընթաց
արագութեամբ
արագութեան
արագութիւն
արագութիւնը
արագօրէն
արազ
արած
արածանի
արածանիի
արական
արակոն
արակոնեան
արակոնի
արահետ
արամ
արամազդ
արամազդի
արամայիս
արամեան
արամերէն
արամէ
արամը
արամի
արայի
արայիկ
արան
արապ
արապեան
արաս
արատներ
արատներու
արար
արարած
արարածը
արարայի
արարատ
արարատեան
արարատեանի
արարատը
արարատի
արարիչ
արարիչը
արարողութեամբ
արարողութեան
արարողութեանը
արարողութենէն
արարողութիւն
արարողութիւնը
արարողութիւններ
արարողութիւնները
արարողութիւններու
արարողութիւններուն
արարք
արարքը
արարքի
արարքներ
արարքները
արարքներուն
արաքս
արաքսեան
արաքսը
արաքսի
արաքսիա
արբ
արբանեակ
արբանեակային
արբանեակը
արբանեակներու
արբունքի
արգամ
արգանդի
արգասիք
արգաւանդ
արգելափակուած
արգելոց
արգելոցը
արգելոցի
արգելոցին
արգելք
արգելքը
արգելքի
արգելքները
արգելքներու
արգենտինա
արգիլած
արգիլել
արգիլելով
արգիլելու
արգիլեն
արգիլեց
արգիլէ
արգիլուած
արգիլուի
արգիլուին
արգիշտի
արդ
արդար
արդարադատութեան
արդարացի
արդարացուած
արդարեւ
արդարութեան
արդարութիւն
արդարութիւնը
արդեն
արդեօ
արդեօք
արդէն
արդի
արդիական
արդիականացման
արդիւնաբերական
արդիւնաբերող
արդիւնաբերութեամբ
արդիւնաբերութեան
արդիւնաբերութիւն
արդիւնաբերութիւնը
արդիւնաբերութիւնն
արդիւնահանման
արդիւնահանումը
արդիւնավետ
արդիւնաւէտ
արդիւնաւէտութեան
արդիւնաւէտութիւնը
արդիւնաւոր
արդիւնք
արդիւնքը
արդիւնքի
արդիւնքին
արդիւնքն
արդիւնքներ
արդիւնքներէն
արդիւնքները
արդիւնքներով
արդիւնքներու
արդիւնքներուն
արդիւնքով
արդյունաբերութեան
արդյունքները
արեամբ
արեան
արեգ
արեգակ
արեգակէն
արեգակը
արեգակի
արեգակին
արեգակնային
արեթա
արենի
արենիի
արեւ
արեւագալ
արեւադարձային
արեւածագը
արեւածագին
արեւածաղիկ
արեւահարութիւն
արեւային
արեւելա
արեւելագէտ
արեւելագիտական
արեւելագիտութեան
արեւելաեւրոպական
արեւելահայ
արեւելահայաստանի
արեւելահայերէն
արեւելահայերէնի
արեւելահայերու
արեւելահայութեան
արեւելահռոմէական
արեւելեան
արեւելեանը
արեւելից
արեւելյան
արեւելցի
արեւելցիի
արեւելցին
արեւելք
արեւելքէն
արեւելքը
արեւելքի
արեւելքին
արեւէն
արեւը
արեւի
արեւիկ
արեւին
արեւմ
արեւմուտք
արեւմուտքէն
արեւմուտքը
արեւմուտքի
արեւմուտքին
արեւմտա
արեւմտաեւրոպական
արեւմտահայ
արեւմտահայաստանի
արեւմտահայերէն
արեւմտահայերէնը
արեւմտահայերէնի
արեւմտահայերէնին
արեւմտահայերէնով
արեւմտահայերու
արեւմտահայոց
արեւմտահայութեան
արեւմտահայութիւնը
արեւմտեան
արեւմտեանը
արեւմտյան
արեւոտ
արեւու
արեւուն
արեւտրական
արզն
արզնի
արզնիի
արզուման
արզումանեան
արթ
արթիկ
արթիկի
արթին
արթիւր
արթննայ
արթնցնել
արթնցնէ
արթնցուցած
արթուն
արթուր
արթուրը
արթօ
արժ
արժանահաւատ
արժանանալով
արժանանալու
արժանանայ
արժանանան
արժանանար
արժանապատուութեան
արժանապատուութիւնը
արժանացած
արժանացան
արժանացաւ
արժանացել
արժանացեր
արժանացուց
արժանաւոր
արժանաւորապէս
արժանեաց
արժանթին
արժանթինահայ
արժանթինը
արժանթինի
արժանթինցի
արժանթինցին
արժանթինցիները
արժանի
արժանիքները
արժանիքներով
արժեքաւոր
արժեքը
արժէ
արժէր
արժէք
արժէքաւոր
արժէքը
արժէքի
արժէքին
արժէքն
արժէքներ
արժէքները
արժէքներով
արժէքներու
արժէքներուն
արժէքով
արժողութեամբ
արժոյթը
արժոյթի
արժութային
արի
արիական
արիան
արիզոնա
արիզոնայի
արին
արիութեան
արիս
արիսեան
արիստակէս
արիստակէսեան
արիստոթելեան
արիստոթելիս
արիստոտելի
արիստոտէլ
արիստոտէլի
արիւն
արիւնալի
արիւնահեղ
արիւնահոսութեան
արիւնահոսութիւն
արիւնահոսութիւնը
արիւնահոսում
արիւնային
արիւնատար
արիւնարբու
արիւնէն
արիւնը
արիւնի
արիւնով
արիւնոտ
արլ
արլէն
արխալուղը
արխիվ
արխիւ
արխիւային
արխիւացուած
արխիւը
արխիւի
արխիւին
արխիւներ
արխիւները
արխիւներու
արխիւներուն
արծաթ
արծաթափայլ
արծաթեայ
արծաթէ
արծաթէն
արծաթը
արծաթի
արծաթով
արծարծած
արծարծէ
արծարծուած
արծիւ
արծիւը
արծիւի
արծիւները
արծուի
արծրուն
արծրունեաց
արծրունի
արծրունիի
արծրունիին
արծրունին
արծրունիները
արծրունիներու
արկադի
արկած
արկածախնդրական
արկածային
արկածի
արկածները
արկածներու
արհակելոս
արհեստ
արհեստագիտական
արհեստագիտութեան
արհեստագործական
արհեստագործութեան
արհեստագործութիւնը
արհեստական
արհեստականօրէն
արհեստակցական
արհեստանոց
արհեստանոցը
արհեստանոցի
արհեստանոցին
արհեստանոցներ
արհեստավարժ
արհեստաւոր
արհեստաւորական
արհեստաւորներ
արհեստաւորները
արհեստաւորներու
արհեստը
արհեստի
արհեստին
արհեստից
արհեստներ
արհեստներէն
արհեստները
արհեստներն
արհեստներով
արհեստներու
արհեստով
արհմիութիւններու
արձագանգ
արձագանգած
արձագանգը
արձագանգներ
արձագանգները
արձագանք
արձագանքներ
արձակ
արձակագիր
արձակած
արձակել
արձակելու
արձակեն
արձակեց
արձակէ
արձակը
արձակի
արձակին
արձակման
արձակուած
արձակուելէ
արձակուելէն
արձակուեցաւ
արձակուի
արձակուին
արձակուրդի
արձան
արձանագործ
արձանագրած
արձանագրել
արձանագրելով
արձանագրելու
արձանագրեն
արձանագրեց
արձանագրէ
արձանագրող
արձանագրուած
արձանագրուեցաւ
արձանագրութեամբ
արձանագրութեան
արձանագրութիւն
արձանագրութիւնը
արձանագրութիւններ
արձանագրութիւններէն
արձանագրութիւնները
արձանագրութիւններով
արձանագրութիւններու
արձանագրութիւններուն
արձանագրուի
արձանագրուին
արձանը
արձանի
արձանիկ
արձանիկներ
արձանին
արձանն
արձաններ
արձանները
արձաններով
արձաններու
արղոլիտա
արղոլիքոս
արղոս
արղոսթոլի
արղութեան
արղութեանը
արղութեանի
արճէշ
արճէշի
արճուն
արմ
արման
արմանի
արմաշ
արմաշի
արմաշու
արմատ
արմատախիլ
արմատական
արմատային
արմատապէս
արմատացած
արմատէն
արմատը
արմատին
արմատներ
արմատներէն
արմատները
արմատներով
արմատներու
արմատներուն
արմաւենի
արմաւենիի
արմաւիր
արմաւիրը
արմաւիրի
արմեն
արմենակ
արմենական
արմենակի
արմենի
արմենիա
արմենիքա
արմենուհի
արմենպրես
արմէն
արմէնեան
արմէնը
արմէնի
արմէնիա
արմին
արմինէ
արմինիա
արմինիըն
արմշատ
արմուկ
արմուկի
արշալոյս
արշալոյսին
արշակ
արշակեան
արշակը
արշակի
արշակուհի
արշակունեաց
արշակունի
արշակունին
արշակունիները
արշակունիներու
արշամ
արշաւ
արշաւախումբը
արշաւախումբի
արշաւած
արշաւանք
արշաւանքէն
արշաւանքը
արշաւանքի
արշաւանքին
արշաւանքներ
արշաւանքներէն
արշաւանքները
արշաւանքներու
արշաւանքներուն
արշաւել
արշաւելու
արշաւեն
արշաւեց
արշաւէ
արշաւը
արշաւի
արշաւին
արշաւիր
արշաւներու
արշաւող
արշիլ
արու
արուած
արուարձան
արուարձանը
արուարձանի
արուարձանին
արուարձաններէն
արուարձանները
արուարձաններով
արուարձաններու
արուարձաններուն
արուեստ
արուեստաբան
արուեստագետներու
արուեստագէտ
արուեստագէտը
արուեստագէտի
արուեստագէտին
արուեստագէտներ
արուեստագէտներէն
արուեստագէտները
արուեստագէտներու
արուեստագէտներուն
արուեստագիտական
արուեստագիտութեան
արուեստագիտութիւնը
արուեստագիտուհի
արուեստական
արուեստային
արուեստանոց
արուեստանոցը
արուեստանոցի
արուեստանոցին
արուեստասէր
արուեստէն
արուեստը
արուեստի
արուեստին
արուեստից
արուեստն
արուեստներ
արուեստները
արուեստներու
արուեստով
արուն
արուները
արուս
արուսեակ
արուսեակին
արջ
արջակատուները
արջակատուներուն
արջառի
արջեր
արջերը
արջը
արջի
արսեն
արսենալ
արսենալի
արսէն
արսէնեան
արսէնը
արսինէ
արսլան
արսլանեան
արսլանեանի
արվեստի
արտ
արտա
արտագաղթ
արտագաղթած
արտագաղթեն
արտագաղթը
արտագաղթի
արտագաղթին
արտագին
արտագնայ
արտագրուած
արտադպրոցական
արտադրած
արտադրական
արտադրանք
արտադրանքը
արտադրանքի
արտադրեալ
արտադրեալը
արտադրել
արտադրելու
արտադրեն
արտադրեց
արտադրէ
արտադրիչ
արտադրիչը
արտադրիչներն
արտադրիչներու
արտադրման
արտադրող
արտադրողական
արտադրողը
արտադրողներ
արտադրուած
արտադրութեամբ
արտադրութեան
արտադրութիւն
արտադրութիւնը
արտադրութիւնն
արտադրութիւններ
արտադրութիւններէն
արտադրութիւնները
արտադրութիւններու
արտադրութիւններուն
արտադրուի
արտադրուին
արտադրուող
արտազ
արտազի
արտաթորումը
արտակ
արտակարգ
արտահան
արտահանէ
արտահանը
արտահանի
արտահանման
արտահանուած
արտահանութեան
արտահանուի
արտահանում
արտահանումը
արտահերթ
արտայայտած
արտայայտել
արտայայտելով
արտայայտելու
արտայայտեն
արտայայտէ
արտայայտէին
արտայայտիչ
արտայայտման
արտայայտող
արտայայտուած
արտայայտուելու
արտայայտուէր
արտայայտութեամբ
արտայայտութեան
արտայայտութենէն
արտայայտութիւն
արտայայտութիւնը
արտայայտութիւնն
արտայայտութիւններ
արտայայտութիւնները
արտայայտութիւններու
արտայայտուի
արտայայտուին
արտայայտումը
արտայայտչական
արտայայտչականութեան
արտանուջը
արտաշատ
արտաշատը
արտաշատի
արտաշես
արտաշէս
արտաշէսեան
արտաշէսեաններու
արտաշէսը
արտաշէսի
արտաշիր
արտասահման
արտասահմանեան
արտասահմանէն
արտասահմանի
արտասահմանին
արտասահմանցի
արտասանած
արտասանէ
արտասանութեան
արտասանութիւնը
արտասանուի
արտասովոր
արտավազդ
արտատպուած
արտացոլած
արտացոլայ
արտացոլան
արտացոլեն
արտացոլէ
արտացոլման
արտացոլող
արտացոլուած
արտացոլումը
արտաւազդ
արտաւազդը
արտաւազդի
արտաւազդին
արտաւանը
արտաւանի
արտաքին
արտաքինէն
արտաքինը
արտաքնապէս
արտաքուստ
արտաքսման
արտաքսուած
արտաքսումը
արտեմ
արտեմի
արտեմիս
արտեր
արտերկրի
արտը
արտիստ
արտիստի
արտուինի
արտօ
արտօնագիր
արտօնագիրը
արտօնագրուած
արտօնատէր
արտօնեալ
արտօնէ
արտօնուած
արտօնութեամբ
արտօնութեան
արտօնութիւն
արտօնութիւնը
արտօնութիւններ
արտօնութիւնները
արտօնուի
արցախ
արցախահայութեան
արցախեան
արցախէն
արցախը
արցախի
արցախին
արցախում
արցախցի
արցունք
արցունքաբեր
արցունքը
արցունքի
արցունքներ
արցունքները
արւմտ
արփա
արփայի
արփենիկ
արփի
արփիար
արփիարեան
արփիարեանի
արփինէ
արք
արքայ
արքայադուստր
արքայադուստրը
արքայադստեր
արքայազն
արքայազնի
արքայական
արքայատոհմը
արքայատոհմի
արքայի
արքային
արքայից
արքայութեան
արքայութիւն
արքայութիւնը
արքան
արքաներ
արքաները
արքաներու
արքատիա
արքեպիսկոպոս
արքեպիսկոպոսը
արքեպիսկոպոսի
արքեպս
արքի
արքութեան
արքունական
արքունի
արքունիք
արքունիքը
արքունիքի
արքունիքին
արօտավայրերը
արևելյան
արևելքի
արևմտեան
արևմտյան
աւ
աւագ
աւագանիի
աւագանիին
աւագանին
աւագեան
աւագեանը
աւագեանի
աւագը
աւագի
աւագութեան
աւազակային
աւազակներ
աւազակները
աւազային
աւազան
աւազանը
աւազանի
աւազանին
աւազաններու
աւազաններուն
աւազի
աւազոտ
աւաղանի
աւան
աւանգարդ
աւանդ
աւանդաբար
աւանդած
աւանդական
աւանդապահ
աւանդատուն
աւանդէ
աւանդը
աւանդի
աւանդին
աւանդները
աւանդներու
աւանդոյթ
աւանդոյթը
աւանդոյթի
աւանդոյթին
աւանդոյթներ
աւանդոյթները
աւանդոյթներով
աւանդոյթներու
աւանդոյթներուն
աւանդուած
աւանդութեան
աւանդութիւն
աւանդութիւնը
աւանդութիւններ
աւանդութիւնները
աւանդութիւններու
աւանդութիւններուն
աւանը
աւանի
աւանին
աւաններ
աւատական
աւատապետական
աւատատիրական
աւատատիրութեան
աւար
աւարայրի
աւարի
աւարները
աւարներու
աւարտ
աւարտած
աւարտական
աւարտաճառ
աւարտաճառը
աւարտել
աւարտելէ
աւարտելէն
աւարտելով
աւարտելու
աւարտեր
աւարտեց
աւարտեցան
աւարտեցաւ
աւարտէ
աւարտէն
աւարտէր
աւարտը
աւարտի
աւարտին
աւարտով
աւարտուած
աւարտուեցաւ
աւարտուն
աւգերեան
աւե
աւել
աւելացման
աւելացնեն
աւելացուած
աւելի
աւելին
աւելիով
աւելնայ
աւելնան
աւելորդ
աւելցած
աւելցաւ
աւելցնել
աւելցնելով
աւելցնելու
աւելցնեն
աւելցնէ
աւելցուած
աւելցուի
աւելցուկային
աւելցուց
աւելցուցած
աւետ
աւետաբեր
աւետարան
աւետարանական
աւետարանը
աւետարանի
աւետարանին
աւետարանիչ
աւետարանիչներու
աւետարաններ
աւետարանոց
աւետարանչական
աւետեան
աւետեաց
աւետեն
աւետիս
աւետիսեան
աւետիսեանը
աւետիսեանի
աւետիսը
աւետիսի
աւետիք
աւետիքեան
աւետման
աւերած
աւերակ
աւերակներ
աւերակներէն
աւերակները
աւերակներու
աւերակներուն
աւերեն
աւերեցին
աւերէ
աւերիչ
աւերման
աւերներ
աւերուած
աւերուի
աւերուին
աւերումը
աւէլի
աւիւի
աւկատանձը
աւշագեղձերու
աւստրալական
աւստրալացի
աւստրալիա
աւստրալիական
աւստրալիայէն
աւստրալիայի
աւստրալիան
աւստրալիացի
աւստրալիոյ
աւստրիա
աւստրիական
աւստրիայէն
աւստրիայի
աւստրիան
աւստրիացի
աւստրիոյ
աւստրո
աւստրօ
աւրորա
աւօ
ափ
ափամերձ
ափեր
ափերէն
ափերը
ափերով
ափերու
ափերուն
ափէն
ափը
ափի
ափին
ափոլոն
ափոլոնաս
ափոլոնասի
ափոլոնիա
ափով
ափսէ
ափրիկեան
ափրիկեցի
ափրիկէ
ափրիկէական
ափրիկէէն
ափրիկէի
ափրիկէին
ափրիկէյի
ափրիկէն
աք
աքաղաղ
աքամենեան
աքեմենեան
աքիլեւսի
աքմ
աքչամ
աքսել
աքսոմաթ
աքսոր
աքսորական
աքսորականներու
աքսորավայրին
աքսորեալ
աքսորէ
աքսորէն
աքսորի
աքսորուած
աքսորուեցան
աքսորուեցաւ
աքսորուի
աքսորուին
աքրա
աքրոթիրի
աքրոնաֆփլիա
աքրոնաֆփլիային
աքրոփոլի
աքրոփոլիի
աքրոփոլիին
աքրոփոլին
աքրոփոլիս
աքրոփոլիսը
աքրոփոլիսի
աքրոփոլիսին
աքքա
աքքայի
աքքան
աֆ
աֆարեան
աֆիոն
աֆղանական
աֆղանիստան
աֆղանիստանը
աֆղանիստանի
աֆղանստանի
աֆրոտիթի
բ
բա
բաբախում
բաբախումը
բաբախումի
բաբայեան
բաբայեանի
բաբգէն
բաբելոն
բաբելոնեան
բաբելոնէն
բաբելոնը
բաբելոնի
բաբերդ
բաբլումեան
բաբկէն
բագարան
բագարատ
բագաւանի
բագին
բագու
բագրատ
բագրատի
բագրատունեանց
բագրատունեաց
բագրատունի
բագրատունիի
բագրատունիին
բագրատունին
բագրատունիները
բագրատունիներու
բագրատունիներուն
բագրեւանդ
բադալեան
բազ
բազա
բազայի
բազէ
բազէի
բազմաբնոյթ
բազմագոյն
բազմադարեան
բազմազան
բազմազանութեամբ
բազմազանութեան
բազմազանութիւն
բազմազանութիւնը
բազմազգ
բազմաթիվ
բազմաթիւ
բազմաժանր
բազմալեզու
բազմած
բազմակի
բազմակողմանի
բազմահազար
բազմահատոր
բազմաձայն
բազմաձայնութեան
բազմաճիւղ
բազմամարդ
բազմամեայ
բազմայարկ
բազմայարկանի
բազմանալ
բազմանայ
բազմանան
բազմանդամ
բազմանիստ
բազմանկիւն
բազմաշարք
բազմաշերտ
բազմապատկման
բազմապատկուի
բազմապատկումը
բազմապիսի
բազմավաստակ
բազմավէպ
բազմավէպը
բազմավէպի
բազմատեսակ
բազմարուեստարանի
բազմարուեստեան
բազմացած
բազմացման
բազմացում
բազմացումը
բազմաքանակ
բազմիցս
բազմութեամբ
բազմութեան
բազմութիւն
բազմութիւնը
բազմութիւններու
բազուկը
բազուկի
բազուկներու
բազում
բազումի
բաժակ
բաժակակիր
բաժակը
բաժակի
բաժակին
բաժակներ
բաժամունքին
բաժանարարներու
բաժանման
բաժանմունք
բաժանմունքէն
բաժանմունքը
բաժանմունքի
բաժանմունքին
բաժանմունքներ
բաժանմունքները
բաժանմունքներու
բաժանմունքներուն
բաժանուած
բաժանուի
բաժանուին
բաժանում
բաժանումէն
բաժանումը
բաժանումի
բաժանումին
բաժանումներ
բաժանումները
բաժանումով
բաժին
բաժինէն
բաժինը
բաժինի
բաժինին
բաժինն
բաժիններ
բաժիններէ
բաժիններէն
բաժինները
բաժիններով
բաժիններու
բաժիններուն
բաժինով
բաժնած
բաժնել
բաժնելով
բաժնելու
բաժնեն
բաժնետիրական
բաժնետոմսերու
բաժնեց
բաժնեցին
բաժնէ
բաժնէին
բաժնէն
բաժնէր
բաժնի
բաժնին
բաժնող
բաժնուած
բաժնուելով
բաժնուեցան
բաժնուեցաւ
բաժնուէ
բաժնուէր
բաժնուի
բաժնուին
բաժնուող
բալա
բալայան
բալայեան
բալդուին
բալետի
բալիկ
բալու
բալուի
բախման
բախշեան
բախշյան
բախում
բախումէն
բախումը
բախումի
բախումներ
բախումները
բախումներու
բախչինեան
բախտ
բախտախաղի
բախտաւորուած
բախտաւորուի
բախտաւորուին
բախտը
բախտի
բախտիար
բախտորոշ
բակ
բակը
բակի
բակին
բակունց
բակունցի
բակօ
բահ
բաղ
բաղաբերդ
բաղադրատոմսը
բաղադրեալ
բաղադրիչ
բաղադրիչը
բաղադրիչներ
բաղադրիչներէն
բաղադրիչները
բաղադրիչներու
բաղադրութեամբ
բաղադրութեան
բաղադրութիւն
բաղադրութիւնը
բաղադրութիւններ
բաղաձայն
բաղաձայններու
բաղդասարեան
բաղդատած
բաղդիշեան
բաղէշ
բաղէշի
բաղիշեցին
բաղկանայ
բաղկանան
բաղկանար
բաղկացած
բաղկացուցիչ
բաղնիք
բաղնիքը
բաղնիքի
բաղնիքին
բաղնիքներ
բաղնիքները
բաղրամեան
բաղրամեանը
բաղրամեանի
բամբակեայ
բամբիռ
բամբիռը
բամպակ
բամպակէ
բամպակի
բայ
բայերը
բայերու
բայէն
բայը
բայի
բայց
բան
բանալ
բանալին
բանալով
բանալու
բանախօսութիւններ
բանակ
բանակային
բանական
բանականութեան
բանականութիւն
բանականութիւնը
բանակավայրը
բանակէն
բանակը
բանակի
բանակին
բանակները
բանակներու
բանակներուն
բանակով
բանակցելու
բանակցիլ
բանակցութեան
բանակցութիւններ
բանակցութիւնները
բանակցութիւններու
բանակցութիւններուն
բանահաւաք
բանահիւսական
բանահիւսութեան
բանահիւսութիւն
բանահիւսութիւնը
բանաձեւ
բանաձեւեր
բանաձեւերու
բանաձեւը
բանաձեւին
բանայ
բանային
բանան
բանասէր
բանասիրական
բանասիրութեան
բանասիրութիւն
բանաստեղծ
բանաստեղծական
բանաստեղծը
բանաստեղծի
բանաստեղծին
բանաստեղծներ
բանաստեղծներէն
բանաստեղծները
բանաստեղծներու
բանաստեղծներուն
բանաստեղծութեամբ
բանաստեղծութեան
բանաստեղծութեանց
բանաստեղծութիւն
բանաստեղծութիւնը
բանաստեղծութիւններ
բանաստեղծութիւններէն
բանաստեղծութիւնները
բանաստեղծութիւններն
բանաստեղծութիւններով
բանաստեղծութիւններու
բանաստեղծութիւններուն
բանաստեղծություններ
բանաստեղծուհի
բանավէճեր
բանավէճերու
բանավէճի
բանավիճային
բանաւոր
բանբեր
բանեան
բաներ
բաներու
բանէն
բանը
բանի
բանին
բանից
բանկ
բանկի
բանն
բանող
բանով
բանուկ
բանուոր
բանուորական
բանուորներ
բանուորները
բանուորներու
բանուորներուն
բանջարեղէն
բանջարեղէնի
բանջարեղէնով
բանտ
բանտային
բանտարկած
բանտարկեալ
բանտարկեալը
բանտարկեալները
բանտարկեալներու
բանտարկեալներուն
բանտարկէ
բանտարկուած
բանտարկութեան
բանտարկութենէ
բանտարկուի
բանտարկուին
բանտեր
բանտերէն
բանտերը
բանտերու
բանտերուն
բանտէն
բանտը
բանտի
բանտին
բաշ
բաշինջաղեան
բաշինջաղեանի
բաշխման
բաշխուած
բաշխում
բաշխումը
բառ
բառակապակցութիւնը
բառային
բառապաշարը
բառապաշարի
բառապաշարին
բառապաշարով
բառարան
բառարանագիր
բառարանագրութեան
բառարանը
բառարանի
բառարանին
բառարաններ
բառարանները
բառարաններու
բառացի
բառացիօրէն
բառգիրք
բառեր
բառերէ
բառերէն
բառերը
բառերով
բառերու
բառերուն
բառէն
բառը
բառի
բառին
բառն
բառով
բաս
բասէն
բասէնի
բար
բարակ
բարբառ
բարբառային
բարբառը
բարբառի
բարբառին
բարբառներ
բարբառները
բարբառներով
բարբառներու
բարբառով
բարբարոս
բարբարոսական
բարբարոսներու
բարգաւաճ
բարգաւաճի
բարգաւաճման
բարգաւաճումը
բարդ
բարդանայ
բարդողիմէոս
բարդութիւններ
բարդութիւնները
բարդութիւններու
բարեացակամ
բարեբախտաբար
բարեբեր
բարեգործ
բարեգործական
բարեգործականի
բարեգործութեան
բարելաւել
բարելաւելէ
բարելաւելու
բարելաւեն
բարելաւէ
բարելաւման
բարելաւուած
բարելաւուի
բարելաւում
բարելաւումը
բարեխառն
բարեկամ
բարեկամական
բարեկամը
բարեկամին
բարեկամներ
բարեկամներէն
բարեկամները
բարեկամներու
բարեկամներուն
բարեկամութեան
բարեկամութիւն
բարեկամութիւնը
բարեկարգ
բարեկարգման
բարեկարգուած
բարեկարգութեան
բարեկենդան
բարեկենդանը
բարեկենդանի
բարեկեցիկ
բարեկեցութեան
բարեկեցութիւնը
բարեկիրթ
բարենորոգումներ
բարենորոգումներու
բարենպաստ
բարեպաշտ
բարեսէր
բարեսիրական
բարեսիրտ
բարերար
բարերարի
բարերարներ
բարերարներու
բարերարութեամբ
բարեւ
բարեփոխել
բարեփոխման
բարեփոխուած
բարեփոխումներ
բարեփոխումները
բարեփոխումներու
բարթոն
բարի
բարիզ
բարիի
բարին
բարիք
բարիքը
բարիքներէն
բարիքները
բարխուդարեան
բարկութիւնը
բարձ
բարձի
բարձունքը
բարձունքի
բարձունքին
բարձունքներ
բարձունքները
բարձունքներու
բարձունքներուն
բարձր
բարձրագոյն
բարձրագույն
բարձրադիր
բարձրակարգ
բարձրահասակ
բարձրաձայն
բարձրանալ
բարձրանալը
բարձրանալով
բարձրանալու
բարձրանայ
բարձրանային
բարձրանան
բարձրանար
բարձրաստիճան
բարձրարժէք
բարձրարուեստ
բարձրացած
բարձրացան
բարձրացաւ
բարձրացման
բարձրացնել
բարձրացնելով
բարձրացնելու
բարձրացնեն
բարձրացնէ
բարձրացող
բարձրացուած
բարձրացում
բարձրացումը
բարձրացումով
բարձրացուց
բարձրացուցած
բարձրաւանդակ
բարձրաւանդակէն
բարձրաւանդակը
բարձրաւանդակի
բարձրաւանդակին
բարձրաքանդակ
բարձրաքանդակը
բարձրաքանդակներ
բարձրորակ
բարձրութեամբ
բարձրութեան
բարձրութենէն
բարձրութիւն
բարձրութիւնը
բարձրութիւնն
բարձրութիւնները
բարձրութիւններու
բարոյագիտական
բարոյագիտութեան
բարոյագիտութիւն
բարոյագիտութիւնը
բարոյախօսական
բարոյական
բարոյականութեան
բարոյապէս
բարոյեանի
բարով
բարութեան
բարութիւն
բարսելոնա
բարսեղ
բարսեղեան
բարսեղեանը
բարսեղեանի
բարւոք
բարքեր
բարքերը
բարքերու
բարքերուն
բարօրութեան
բաց
բացած
բացակայ
բացակայէր
բացակայի
բացակային
բացակայութեամբ
բացակայութեան
բացակայութենէն
բացակայութիւն
բացակայութիւնը
բացայայտ
բացայայտած
բացայայտել
բացայայտելով
բացայայտելու
բացայայտեն
բացայայտեց
բացայայտէ
բացայայտման
բացայայտուած
բացայայտուեցաւ
բացայայտուի
բացայայտումը
բացայայտօրէն
բացառապէս
բացառեալ
բացառիկ
բացառութեամբ
բացառութիւն
բացառութիւններ
բացասաբար
բացասական
բացատրած
բացատրական
բացատրել
բացատրելով
բացատրելու
բացատրեն
բացատրէ
բացատրուած
բացատրութեան
բացատրութիւն
բացատրութիւնը
բացատրութիւններ
բացատրուի
բացարձակ
բացարձակապէս
բացաւ
բացեր
բացերը
բացի
բացիկներ
բացին
բացման
բացուած
բացուածք
բացուածքը
բացուածքով
բացուեր
բացուեցան
բացուեցաւ
բացուի
բացուին
բացում
բացումէն
բացումը
բացումին
բացուող
բացվել
բացօթեայ
բաւական
բաւականաչափ
բաւականին
բաւարար
բաւարարելու
բաւարարեր
բաւարարուի
բաքու
բաքուի
բե
բեթէլ
բեթղեհէմի
բել
բելի
բեկ
բեկի
բեկոր
բեկորներ
բեկորները
բեկորներու
բեղմնաւոր
բեղուն
բեմ
բեմագիր
բեմադրած
բեմադրական
բեմադրել
բեմադրեց
բեմադրէ
բեմադրիչ
բեմադրիչը
բեմադրիչի
բեմադրիչն
բեմադրիչներ
բեմադրիչներու
բեմադրող
բեմադրուած
բեմադրուէին
բեմադրութեամբ
բեմադրութեան
բեմադրութիւն
բեմադրութիւնը
բեմադրութիւններ
բեմադրութիւնները
բեմադրուի
բեմադրուին
բեմական
բեմանկարիչ
բեմավար
բեմերու
բեմերուն
բեմէն
բեմը
բեմի
բեմին
բենիամին
բեռ
բեռը
բեռնատար
բեռներ
բեր
բերա
բերած
բերայի
բերան
բերանային
բերանացի
բերանէն
բերանը
բերանի
բերանին
բերաւ
բերդ
բերդաքաղաք
բերդաքաղաքը
բերդեր
բերդերէն
բերդերը
բերդերու
բերդէն
բերդը
բերդի
բերդին
բերդն
բերել
բերելով
բերելու
բերեն
բերեր
բերէ
բերէին
բերէր
բերի
բերին
բերիոյ
բերկրալի
բերկրուհի
բերձոր
բերձորի
բերմամբ
բերնէն
բերնի
բերնին
բերող
բերուած
բերուեցան
բերուի
բերուին
բերումով
բերրի
բերք
բերքահաւաքի
բերքեան
բերքը
բերքի
բեւեռ
բեւեռախոյզ
բեւեռային
բեւեռի
բեւեռներուն
բզնունեաց
բէկ
բէկի
բժ
բժիշկ
բժիշկը
բժիշկի
բժիշկին
բժիշկներ
բժիշկներէն
բժիշկները
բժիշկներու
բժիշկներուն
բժշկա
բժշկագիտական
բժշկագիտութեան
բժշկական
բժշկապետ
բժշկեան
բժշկի
բժշկութեամբ
բժշկութեան
բժշկութիւն
բժշկութիւնը
բժշկուհի
բի
բիրտ
բիւ
բիւզանդ
բիւզանդագէտ
բիւզանդական
բիւզանդացի
բիւզանդացին
բիւզանդացիները
բիւզանդացիներու
բիւզանդացիներուն
բիւզանդեան
բիւզանդը
բիւզանդի
բիւզանդիա
բիւզանդիայի
բիւզանդիան
բիւզանդիոյ
բիւզանդիոն
բիւզանդիոնը
բիւզանդիոնի
բիւրական
բիւրականի
բիւրակն
բիւրատ
բիւրեղ
բիւրեղային
բիւրեղեայ
բիւրեղները
բիւրեղներու
բիւրոյի
բիւրոն
բլիթ
բլուր
բլուրէն
բլուրը
բլուրի
բլուրին
բլուրներ
բլուրներու
բլուրներուն
բխած
բխի
բխին
բխող
բծախնդիր
բծախնդրութեամբ
բծաւոր
բյուզանդական
բյուրականի
բյուրո
բնա
բնագավառին
բնագաւառ
բնագաւառէն
բնագաւառը
բնագաւառի
բնագաւառին
բնագաւառներէն
բնագաւառները
բնագաւառներու
բնագաւառներուն
բնագէտ
բնագիտական
բնագիտութեան
բնագիտութիւն
բնագիր
բնագիրը
բնագիրի
բնագիրին
բնագիրները
բնագիրներու
բնագրեր
բնազանցական
բնախոյզ
բնախօսական
բնածին
բնակած
բնական
բնականաբար
բնականէն
բնականոն
բնականօրէն
բնակավայր
բնակավայրեր
բնակավայրերէն
բնակավայրերը
բնակավայրերի
բնակավայրերն
բնակավայրերու
բնակավայրերուն
բնակավայրը
բնակավայրի
բնակավայրին
բնակավայրն
բնակատեղի
բնակատեղիներ
բնակարան
բնակարանային
բնակարանը
բնակարանի
բնակարանին
բնակարանն
բնակարաններ
բնակարանները
բնակարաններու
բնակարաններուն
բնակելի
բնակեցուած
բնակէին
բնակէր
բնակի
բնակիլ
բնակին
բնակիչ
բնակիչներ
բնակիչներէն
բնակիչները
բնակիչներով
բնակիչներու
բնակիչներուն
բնակլիմայական
բնակող
բնակուած
բնակութեան
բնակութիւն
բնակութիւնը
բնակուի
բնակուող
բնակչին
բնակչութեամբ
բնակչութեան
բնակչութեանը
բնակչութեանց
բնակչութենէն
բնակչութիւն
բնակչութիւնը
բնակչութիւնն
բնակչության
բնակչությունը
բնանկար
բնանկարներ
բնաշխարհ
բնաշխարհի
բնաշխարհիկ
բնապահպանական
բնապահպանման
բնապահպանութեան
բնապահպանում
բնապատմական
բնաջնջման
բնաջնջումը
բնասպիտի
բնատուր
բնաւ
բնաւորութեամբ
բնաւորութեան
բնաւորութիւնը
բներգական
բնիկ
բնիկները
բնիկներու
բնիկներուն
բնոյթ
բնոյթը
բնոյթի
բնոյթին
բնոյթով
բնորդ
բնորոշ
բնորոշէ
բնորոշող
բնորոշուի
բնութագիրը
բնութագրած
բնութագրական
բնութագրելու
բնութագրեն
բնութագրէ
բնութագրուած
բնութագրուի
բնութագրուին
բնութեամբ
բնութեան
բնութենէն
բնութիւն
բնութիւնը
բնութիւնն
բնօրինակ
բնօրինակէն
բնօրինակը
բշտիկներ
բշտիկները
բշտիկներու
բո
բոլշեւիկեան
բոլոր
բոլորած
բոլորաձեւ
բոլորելէ
բոլորէ
բոլորէն
բոլորը
բոլորի
բոլորին
բոլորն
բոլորովին
բոլորս
բոհ
բող
բողոք
բողոքած
բողոքական
բողոքականներ
բողոքականներու
բողոքականութեան
բողոքականութիւնը
բողոքը
բողոքի
բողոքին
բողոքները
բողոքներուն
բողջ
բոյժ
բոյն
բոյնը
բոյս
բոյսեր
բոյսերէ
բոյսերէն
բոյսերը
բոյսերով
բոյսերու
բոյսերուն
բոյսը
բոյսի
բոյսին
բոյր
բոյրը
բոստոն
բոված
բովանդակ
բովանդակալից
բովանդակային
բովանդակէ
բովանդակութեամբ
բովանդակութեան
բովանդակութիւն
բովանդակութիւնը
բոր
բորակածնային
բորակածնի
բորբոքած
բորբոքման
բորբոքում
բորբոքումը
բորբոքումի
բորբոքումին
բորբոքումներ
բորբոքումները
բորբոքումներու
բորբոքումով
բորիս
բու
բուզանդ
բուզանդի
բութ
բուժ
բուժած
բուժական
բուժարան
բուժարանը
բուժարանի
բուժարանին
բուժել
բուժելու
բուժէ
բուժիչ
բուժման
բուժուած
բուժուելու
բուժում
բուժումը
բուժումի
բուժքոյր
բուժքոյրական
բուժքոյրեր
բուժքոյրերու
բուլղարիայի
բուհ
բուն
բունը
բունին
բուռ
բուռն
բուսաբան
բուսաբանական
բուսաբանութեան
բուսաբանութիւն
բուսական
բուսականութեամբ
բուսականութեան
բուսականութիւն
բուսականութիւնը
բուրաստան
բուրաւէտ
բուրգ
բուրգերով
բուրգը
բուրգի
բուրդ
բուրդէ
բուրդը
բուրդի
բուրժուական
բուրումնաւէտ
բուրջալեան
բջիջային
բջիջի
բջիջներ
բջիջներէ
բջիջները
բջիջներու
բջիջներուն
բջնի
բջնիի
բջջային
բռնագաղթը
բռնագրաւած
բռնագրաւման
բռնագրաւուած
բռնած
բռնակալ
բռնակալութեան
բռնաճնշումների
բռնապետութեան
բռնատիրական
բռնատիրութեան
բռնել
բռնելով
բռնելու
բռնեն
բռնէ
բռնի
բռնկած
բռնկեցաւ
բռնկուած
բռնուած
բռնութեամբ
բռնութեան
բռնութիւնը
բռնութիւնները
բռնութիւններու
բռնութիւններուն
բռնուի
բռնցքամարտի
բռնցքամարտիկ
բրաբիոն
բրազիլիա
բրազիլիայի
բրածոյ
բրգաձեւ
բրդեայ
բրիմիոր
բրինձ
բրինձը
բրինձի
բրիտանական
բրիտանացի
բրիտանացիները
բրիտանիա
բրիտանիայէն
բրիտանիայի
բրիտանիան
բրիտանիկա
բրիտանիոյ
բրուտեան
բրոքհաուզի
բրոֆեսոր
գ
գա
գաա
գաբիկեան
գաբու
գաբուի
գաբուր
գաբուրը
գաբուրի
գաբրիէլ
գաբրիէլեան
գաբրիէլեանցի
գաբրիէլի
գագաթ
գագաթէն
գագաթը
գագաթի
գագաթին
գագաթն
գագաթնակետին
գագաթնակէտը
գագաթնակէտին
գագաթներ
գագաթներէն
գագաթները
գագաթներուն
գագաթով
գագիկ
գագիկի
գազազեան
գազայի
գազանաբար
գազանճեան
գազէզ
գազի
գաթարոյեանի
գաթըրճեան
գաթրճեան
գալ
գալայճեան
գալէ
գալէն
գալը
գալիս
գալիք
գալիֆորնիա
գալիֆորնիայի
գալիֆորնիոյ
գալով
գալու
գալուստ
գալուստեան
գալուստեանի
գալուստը
գալստեան
գալֆայեան
գահ
գահաժառանգ
գահակալ
գահակալած
գահակալական
գահակալման
գահակալութեան
գահակալութիւնը
գահերէց
գահերի
գահերու
գահէն
գահը
գահընկեց
գահընկէց
գահի
գահին
գահիրէ
գահիրէի
գաղ
գաղատիա
գաղափար
գաղափարագրական
գաղափարախօսական
գաղափարախօսութեան
գաղափարախօսութիւն
գաղափարախօսութիւնը
գաղափարական
գաղափարակից
գաղափարապաշտ
գաղափարը
գաղափարի
գաղափարին
գաղափարներ
գաղափարներէն
գաղափարները
գաղափարներն
գաղափարներով
գաղափարներու
գաղափարներուն
գաղափարով
գաղթ
գաղթած
գաղթակայաններու
գաղթական
գաղթականական
գաղթականաց
գաղթականներ
գաղթականներէն
գաղթականները
գաղթականներով
գաղթականներու
գաղթականներուն
գաղթականութեան
գաղթավայրերու
գաղթել
գաղթելով
գաղթեն
գաղթեց
գաղթեցին
գաղթէ
գաղթը
գաղթի
գաղթող
գաղթօճախ
գաղթօճախը
գաղթօճախներ
գաղթօճախները
գաղթօճախներու
գաղթօճախներուն
գաղութ
գաղութային
գաղութատիրական
գաղութատիրութեան
գաղութարարները
գաղութարարներու
գաղութը
գաղութի
գաղութին
գաղութներ
գաղութներէն
գաղութները
գաղութներու
գաղութներուն
գաղջ
գաղտնի
գաղտնիք
գաղտնիքը
գաղտնիքներ
գաղտնիքները
գաղտնօրէն
գաճաճ
գաճաքար
գամ
գամերով
գամիշլի
գամիշլիի
գայ
գայանէ
գայեանէ
գայթակղութիւն
գայիանէ
գային
գայլ
գայլեր
գայլը
գայլի
գայլին
գան
գանատա
գանատական
գանատահայ
գանատայի
գանատան
գանատացի
գանգատ
գանգատի
գանի
գանկային
գանկի
գանձ
գանձակ
գանձակեցի
գանձակեցիի
գանձակեցին
գանձակը
գանձակի
գանձապահ
գանձասար
գանձասարի
գանձարան
գանձարանը
գանձարանին
գանձեր
գանձերը
գանձերու
գանձերուն
գանձը
գանտահարեան
գանտահարեանի
գառզու
գառզուի
գառզուն
գառնի
գառնիի
գառնիկ
գառնին
գաս
գասապեան
գասարճեան
գասպար
գասպարեան
գասպարեանը
գասպարեանի
գավառ
գավառի
գատըգիւղ
գատըգիւղի
գար
գարա
գարագաշ
գարագաշեան
գարակէօզեան
գարակէօզեանի
գարահիսար
գարահիսարի
գարամանուկեան
գարան
գարատուրան
գարատուրանի
գարդման
գարեգին
գարեջուր
գարեջուրը
գարեջուրի
գարի
գարիի
գարիկ
գարին
գարնան
գարնանային
գարնանը
գարոլինա
գարոյի
գարոյին
գարուն
գարունը
գարտաշեան
գարօ
գացած
գացին
գացող
գաւազան
գաւազանը
գաւաթ
գաւաթակիր
գաւաթը
գաւաթի
գաւաթին
գաւառ
գաւառակ
գաւառական
գաւառակի
գաւառակին
գաւառային
գաւառէն
գաւառը
գաւառի
գաւառին
գաւառներ
գաւառներէն
գաւառները
գաւառներու
գաւառներուն
գաւաֆեան
գաւիթ
գաւիթէն
գաւիթը
գաւիթի
գաւիթին
գափամաճեան
գափուի
գդհ
գդն
գե
գեղ
գեղագիտական
գեղագիտութեան
գեղազարդիչ
գեղամ
գեղամայ
գեղանկար
գեղանկարը
գեղանկարիչ
գեղանկարիչը
գեղանկարիչին
գեղանկարիչներ
գեղանկարիչներու
գեղանկարներ
գեղանկարները
գեղանկարչական
գեղանկարչութեան
գեղանկարչութիւն
գեղանկարչութիւնը
գեղապաշտ
գեղատեսիլ
գեղարդ
գեղարդավանքը
գեղարդը
գեղարդի
գեղարուեստ
գեղարուեստա
գեղարուեստական
գեղարուեստը
գեղարուեստի
գեղարուեստից
գեղարվեստական
գեղարքունիք
գեղարքունիքի
գեղեցիկ
գեղեցիկը
գեղեցիկի
գեղեցիկին
գեղեցկութեամբ
գեղեցկութեան
գեղեցկութիւն
գեղեցկութիւնը
գեղեցկուհի
գեղեցկուհին
գեղձերը
գեղձերու
գեղջկական
գեներալ
գետ
գետաբերանին
գետադարձ
գետակ
գետակի
գետակներ
գետային
գետաշէն
գետաշէնի
գետեր
գետերէն
գետերը
գետերն
գետերու
գետերուն
գետէն
գետը
գետի
գետիկի
գետին
գետինը
գետն
գետնախնձոր
գետնախնձորը
գետնախնձորի
գետնայարկ
գետնափոր
գետնի
գետնին
գետով
գեր
գերագահութիւնը
գերագոյն
գերազանց
գերազանցած
գերազանցապէս
գերազանցել
գերազանցելով
գերազանցեց
գերազանցէ
գերազանցէին
գերազանցէր
գերազանցող
գերազանցութեամբ
գերազանցութեան
գերազանցութիւնը
գերակայ
գերակշիռ
գերակշռեն
գերակշռէ
գերակշռող
գերաշնորհ
գերբնական
գերդաստան
գերդաստանէն
գերդաստանը
գերդաստանի
գերդաստանին
գերեզման
գերեզմանատան
գերեզմանատանը
գերեզմանատուն
գերեզմանատունը
գերեզմանատունին
գերեզմանը
գերեզմանի
գերեզմանին
գերեզմաններ
գերեզմանները
գերեզմանոց
գերեզմանոցը
գերեզմանոցի
գերեզմանոցին
գերզգայնութեան
գերզգայնութիւն
գերզգայնութիւնը
գերզգայուն
գերի
գերիներ
գերիներու
գերիներուն
գերիշխանութեան
գերիշխանութենէն
գերիշխանութիւնը
գերիշխեն
գերիշխէ
գերիշխող
գերիրապաշտ
գերճնշում
գերմ
գերման
գերմանա
գերմանախօս
գերմանական
գերմանացի
գերմանացիներ
գերմանացիները
գերմանացիներու
գերմանացիներուն
գերմաներեն
գերմաներէն
գերմաներէնէն
գերմաներէնը
գերմաներէնի
գերմանիա
գերմանիայէն
գերմանիայի
գերմանիան
գերմանիկ
գերմանիոյ
գերմարդկային
գերշ
գերութեան
գերութենէն
գերպ
գերսամ
գեւորգ
գեւորգեան
գէթ
գէշ
գէորգ
գէորգեան
գէորգեանը
գէորգեանի
գէորգը
գէորգի
գէորգիեւեան
գէորգին
գէտ
գէտի
գէր
գէւորգ
գթութեան
գի
գիծ
գիծեր
գիծերը
գիծերով
գիծերու
գիծերուն
գիծը
գիծի
գիծին
գիծով
գիհիի
գին
գինեգործութեան
գինեգործութիւնը
գինեձօնը
գիներու
գինը
գինի
գինիի
գինին
գինիներ
գինիներու
գինիով
գինով
գինու
գիշատիչ
գիշատիչներու
գիշեր
գիշերային
գիշերը
գիշերին
գիշերներ
գիշերները
գիշերով
գիշերուայ
գիշերուան
գիշերօթիկ
գիշի
գիս
գիտ
գիտա
գիտաժողով
գիտաժողովի
գիտաժողովին
գիտաժողովներ
գիտաժողովներու
գիտակ
գիտական
գիտականօրէն
գիտակից
գիտակրթական
գիտակցաբար
գիտակցելով
գիտակցէր
գիտակցի
գիտակցուած
գիտակցութեամբ
գիտակցութեան
գիտակցութիւն
գիտակցութիւնը
գիտահանրամատչելի
գիտահետազոտական
գիտահետազօտական
գիտամեթոդական
գիտաշխատող
գիտաուսումնական
գիտատեխնիկական
գիտարուեստական
գիտափորձ
գիտելիք
գիտելիքը
գիտելիքի
գիտելիքներ
գիտելիքները
գիտելիքներով
գիտելիքներու
գիտեմ
գիտեն
գիտենք
գիտեր
գիտէ
գիտէին
գիտէր
գիտնալ
գիտնալով
գիտնական
գիտնականը
գիտնականի
գիտնականին
գիտնականներ
գիտնականներէն
գիտնականները
գիտնականներու
գիտնականներուն
գիտնայ
գիտնան
գիտութեամբ
գիտութեան
գիտութեանց
գիտութիւն
գիտութիւնը
գիտութիւններ
գիտութիւնները
գիտութիւնների
գիտութիւններու
գիտութիւններուն
գիտություն
գիտությունը
գիտությունների
գիտցած
գիտցուած
գիր
գիրեր
գիրերը
գիրերով
գիրերու
գիրը
գիրի
գիրին
գիրկը
գիրն
գիրով
գիրութիւն
գիրք
գիրքեր
գիրքերէ
գիրքերէն
գիրքերը
գիրքերն
գիրքերով
գիրքերու
գիրքերուն
գիրքէն
գիրքը
գիրքի
գիրքին
գիրքն
գիրքով
գիւ
գիւլիստան
գիւլիստանի
գիւղ
գիւղական
գիւղապետարան
գիւղատեղին
գիւղատնտես
գիւղատնտեսական
գիւղատնտեսութեամբ
գիւղատնտեսութեան
գիւղատնտեսութիւն
գիւղատնտեսութիւնը
գիւղատնտեսութիւնն
գիւղացի
գիւղացիական
գիւղացիի
գիւղացիին
գիւղացին
գիւղացիներ
գիւղացիները
գիւղացիներու
գիւղացիներուն
գիւղացիութեան
գիւղաքաղաք
գիւղաքաղաքը
գիւղաքաղաքին
գիւղեր
գիւղերէն
գիւղերը
գիւղերն
գիւղերով
գիւղերու
գիւղերուն
գիւղէ
գիւղէն
գիւղը
գիւղի
գիւղին
գիւղն
գիւմրի
գիւմրիի
գիւտ
գիւտարար
գիւտարարը
գիւտէն
գիւտը
գիւտի
գիւտին
գիքորը
գլակ
գլաձոր
գլաձորի
գլանաձեւ
գլանի
գլխ
գլխա
գլխագիր
գլխաշորը
գլխապտոյտ
գլխապտոյտը
գլխավոր
գլխատառը
գլխարկ
գլխարկը
գլխարկիկը
գլխացաւ
գլխացաւը
գլխաւոր
գլխաւորաբար
գլխաւորած
գլխաւորապէս
գլխաւորեն
գլխաւորեց
գլխաւորէ
գլխաւորէր
գլխաւորը
գլխաւորները
գլխաւորներն
գլխաւորութեամբ
գլխի
գլխին
գլխիվայր
գլխով
գլխովին
գլխու
գլխուղեղի
գլխուն
գլուխ
գլուխգործոց
գլուխէն
գլուխը
գլուխի
գլուխին
գլուխն
գլուխներ
գլուխներէ
գլուխները
գլուխներու
գլուխով
գխ
գծագրած
գծագրական
գծագրիչ
գծագրուած
գծագրութեան
գծագրութիւն
գծագրութիւնը
գծագրութիւններ
գծած
գծային
գծանկար
գծանկարի
գծանկարչական
գծանկարչութիւն
գծաշարժական
գծաւոր
գծել
գծելու
գծէ
գծով
գծուած
գհի
գմբեթաւոր
գմբեթը
գմբէթ
գմբէթաւոր
գմբէթը
գմբէթի
գմբէթին
գմբէթները
գմբէթով
գյուղի
գյումրի
գնա
գնած
գնահատած
գնահատական
գնահատականը
գնահատականի
գնահատականներ
գնահատականները
գնահատականներու
գնահատանք
գնահատանքի
գնահատանքին
գնահատել
գնահատելի
գնահատելով
գնահատելու
գնահատեն
գնահատեց
գնահատէ
գնահատէր
գնահատմամբ
գնահատման
գնահատուած
գնահատուի
գնահատուին
գնաճի
գնաց
գնացքը
գնացքներու
գնդակ
գնդակահարած
գնդակահարուած
գնդակը
գնդակի
գնդակին
գնդակները
գնդակով
գնդաձեւ
գնդապետ
գնդապետի
գնդացիր
գնդեվանք
գնդիկներ
գնդիկներու
գնել
գնելով
գնելու
գնեն
գնեց
գնէ
գնման
գնով
գնուած
գնում
գնումներու
գնչուներու
գո
գոգաւորութեան
գոգնոց
գոգնոցը
գոթական
գոլ
գոլէճ
գոլէճէն
գոլէճը
գոլէճի
գոլէճին
գոլոմպիա
գոլորշին
գոհ
գոհաբանութեան
գոհար
գոհարիկ
գոհացնել
գոհացնելու
գոհացում
գոհացուցիչ
գող
գողգոթա
գողգոթայ
գողգոթայի
գողգոթան
գողթան
գողթն
գողթնի
գողտրիկ
գողցած
գոճայեան
գոճեան
գոյական
գոյականը
գոյականի
գոյականները
գոյականներու
գոյամարտ
գոյամարտը
գոյանայ
գոյատեւած
գոյատեւել
գոյատեւեց
գոյատեւէ
գոյատեւման
գոյացած
գոյն
գոյներ
գոյներէն
գոյները
գոյներն
գոյներով
գոյներու
գոյներուն
գոյնզգոյն
գոյնը
գոյնի
գոյնին
գոյնն
գոյնով
գոյութեամբ
գոյութեան
գոյութիւն
գոյութիւնը
գոյություն
գոյքերը
գոյքը
գոյքի
գոնէ
գոնիա
գոնիայի
գոնտա
գոշ
գոշավանք
գոշավանքը
գոշավանքի
գոշը
գոշի
գոռոզ
գովազդած
գովազդային
գովեստ
գովեստով
գոտի
գոր
գորգ
գորգագործական
գորգագործութեան
գորգագործութիւնը
գորգեր
գորգերը
գորգերու
գորգը
գորգի
գորգին
գորիս
գորիսը
գորիսի
գործ
գործադիր
գործադրած
գործադրել
գործադրելիս
գործադրելու
գործադրէ
գործադրուած
գործադրութեան
գործադրութիւնը
գործադրումով
գործազրկութեան
գործած
գործածած
գործածական
գործածել
գործածելով
գործածելու
գործածեն
գործածէ
գործածէին
գործածէր
գործածման
գործածող
գործածուած
գործածուեցաւ
գործածուէին
գործածուէր
գործածութեամբ
գործածութեան
գործածութենէ
գործածութիւն
գործածութիւնը
գործածուի
գործածուիլ
գործածուին
գործածուող
գործակալ
գործակալութեան
գործակալութիւն
գործակալութիւնը
գործակից
գործակիցը
գործակիցները
գործակիցներուն
գործակցաբար
գործակցած
գործակցելով
գործակցի
գործակցիլ
գործակցութեամբ
գործակցութեան
գործակցութիւն
գործակցութիւնը
գործառական
գործառնական
գործառնութեան
գործառոյթ
գործառոյթը
գործառոյթներ
գործառոյթները
գործառոյթներու
գործավար
գործարան
գործարանական
գործարանային
գործարանը
գործարանի
գործարանին
գործարանն
գործարաններ
գործարանները
գործարաններու
գործարաններուն
գործարար
գործարարներ
գործարարներու
գործարկուեցաւ
գործարք
գործարքը
գործարքի
գործարքներու
գործել
գործելակերպ
գործելակերպը
գործելակերպին
գործելէ
գործելով
գործելու
գործեն
գործեր
գործերէն
գործերը
գործերի
գործերն
գործերով
գործերու
գործերուն
գործեց
գործեցին
գործէ
գործէին
գործէն
գործէր
գործը
գործընթաց
գործընթացը
գործընթացի
գործընթացին
գործընթացները
գործընթացներու
գործընթացներուն
գործընթացով
գործընթացքը
գործընթացքին
գործընկեր
գործընկերը
գործընկերները
գործընկերներն
գործընկերներու
գործի
գործին
գործիչ
գործիչը
գործիչի
գործիչներ
գործիչներէն
գործիչները
գործիչներու
գործիչներուն
գործիք
գործիքային
գործիքը
գործիքի
գործիքին
գործիքներ
գործիքներէն
գործիքները
գործիքներն
գործիքներով
գործիքներու
գործիքներուն
գործիքով
գործկոմի
գործն
գործնական
գործնականապէս
գործնականին
գործնականօրէն
գործող
գործողութեամբ
գործողութեան
գործողութենէն
գործողութիւն
գործողութիւնը
գործողութիւններ
գործողութիւններէն
գործողութիւնները
գործողութիւններն
գործողութիւններով
գործողութիւններու
գործողութիւններուն
գործոն
գործով
գործոց
գործոցը
գործոցներէն
գործուած
գործուածք
գործուածքներ
գործուածքներու
գործուղուած
գործում
գործուն
գործունեայ
գործունեութեամբ
գործունեութեան
գործունեութիւն
գործունեութիւնը
գործունեության
գործունէութեամբ
գործունէութեան
գործունէութեանը
գործունէութեանց
գործունէութենէն
գործունէութիւն
գործունէութիւնը
գործունէութիւնն
գործունէութիւններ
գործունէութիւնները
գործունէութիւններու
գործք
գործօն
գործօնը
գործօններ
գործօնները
գործօններու
գորկի
գորշ
գոց
գու
գուգարաց
գուգարք
գուգարքը
գուգարքի
գուլակեան
գուլպայ
գուլպան
գում
գումար
գումարած
գումարելով
գումարէ
գումարը
գումարի
գումարին
գումարման
գումարն
գումարներ
գումարները
գումարներով
գումարով
գումարուած
գումարուեցաւ
գումարուի
գումարումը
գումարտակ
գումարտակը
գումարտակի
գույումճեան
գույումճեանի
գունագեղ
գունային
գունաւոր
գունաւորում
գունաւորումը
գունդ
գունդեր
գունդերը
գունդերու
գունդը
գունդի
գունդին
գունեղ
գունտերան
գուսան
գուսանական
գուսանը
գուսանները
գուրգեն
գուրգէն
գուրգէնը
գուրգէնի
գուցէ
գտած
գտածոներ
գտածոները
գտան
գտաւ
գտնել
գտնելով
գտնելու
գտնեն
գտնենք
գտներ
գտնէ
գտնէին
գտնէր
գտնուած
գտնուելով
գտնուելու
գտնուեր
գտնուեցան
գտնուեցաւ
գտնուէ
գտնուէին
գտնուէր
գտնուի
գտնուիլ
գտնուին
գտնուող
գտնուողները
գտնվող
գտնվում
գտնւում
գտչավանքի
գր
գրա
գրաբար
գրաբարեան
գրաբարէն
գրաբարը
գրաբարի
գրաբարին
գրաբարով
գրագետ
գրագէտ
գրագէտը
գրագէտի
գրագէտին
գրագէտներ
գրագէտները
գրագէտներու
գրագիտութեան
գրագիտուհի
գրագիր
գրադարան
գրադարանային
գրադարանէն
գրադարանը
գրադարանի
գրադարանին
գրադարաններ
գրադարաններէն
գրադարանները
գրադարանների
գրադարաններու
գրադարաններուն
գրախօսական
գրախօսականներ
գրախօսութիւն
գրախօսութիւններ
գրած
գրական
գրականագէտ
գրականագիտական
գրականութեամբ
գրականութեան
գրականութենէն
գրականութիւն
գրականութիւնը
գրականութիւնն
գրականութիւններու
գրականության
գրային
գրանցած
գրանցամատյան
գրանցելով
գրանցէ
գրանցման
գրանցուած
գրանցուի
գրանցուին
գրաշար
գրաուած
գրառման
գրառուած
գրառումը
գրառումներ
գրառումները
գրասենեակ
գրասենեակային
գրասենեակը
գրասենեակի
գրասենեակին
գրասենեակներ
գրասենեակները
գրասենեակներու
գրասենեակներուն
գրասէր
գրատան
գրատուն
գրատունը
գրատպութեան
գրացուցակ
գրաւած
գրաւել
գրաւելէ
գրաւելէն
գրաւելով
գրաւելու
գրաւեն
գրաւեր
գրաւեց
գրաւեցին
գրաւէ
գրաւէին
գրաւէր
գրաւիչ
գրաւման
գրաւող
գրաւոր
գրաւուած
գրաւուեցաւ
գրաւուի
գրաւում
գրաւումէն
գրաւումը
գրաւումով
գրաքննադատ
գրաքննադատական
գրաքննական
գրաքննութեան
գրաքննութիւնը
գրաֆիկական
գրաֆիկայի
գրգեարեան
գրգեարյան
գրգռեն
գրգռէ
գրգռիչ
գրեթէ
գրել
գրելէ
գրելը
գրելով
գրելու
գրեմ
գրեն
գրետրիքս
գրեր
գրեց
գրեցին
գրէ
գրէին
գրէր
գրի
գրիգոր
գրիգորեան
գրիգորեանը
գրիգորեանի
գրիգորը
գրիգորի
գրիգորին
գրիգորիոս
գրիգորիս
գրիգորիսի
գրիգորյան
գրին
գրիչ
գրիչը
գրիչի
գրիչին
գրիչով
գրոհ
գրոհային
գրոհել
գրոհը
գրոհի
գրոհին
գրոհները
գրոհով
գրող
գրողը
գրողի
գրողին
գրողն
գրողներ
գրողներէ
գրողներէն
գրողները
գրողների
գրողներու
գրողներուն
գրոց
գրուած
գրուածքներ
գրուեցաւ
գրուէր
գրութեամբ
գրութեան
գրութիւն
գրութիւնը
գրութիւններ
գրութիւններէն
գրութիւնները
գրութիւններով
գրութիւններու
գրութիւններուն
գրուի
գրուին
գրչանունը
գրչանունով
գրչի
գրչին
գրչով
գրչութեան
գրպանի
գրքային
գրքեր
գրքերը
գրքերի
գրքերու
գրքի
գրքին
գրքոյկ
գրքոյկը
գրքոյկին
գրքոյկներ
գրքում
գօ
գօտեմարտի
գօտի
գօտիէն
գօտիի
գօտիին
գօտին
գօտիներ
գօտիները
գօտիներու
գօտիներուն
գօտիով
գևորգ
դ
դա
դագաղը
դադար
դադարած
դադարեցնել
դադարեցնելու
դադարը
դադարի
դադրած
դադրեցան
դադրեցաւ
դադրեցման
դադրեցնել
դադրեցնելու
դադրեցնէ
դադրեցուց
դադրեցուցած
դադրի
դադրին
դադրիր
դաժան
դաժանօրէն
դալար
դակ
դահլիճ
դահլիճը
դահլիճի
դահլիճին
դահլիճներ
դահլիճներու
դահլիճներուն
դամ
դամասկոս
դամասկոսեան
դամասկոսէն
դամասկոսը
դամասկոսի
դամբան
դամբանը
դամբանի
դամբանին
դամբաններ
դամբարան
դամբարանը
դամբարանի
դամբարանին
դամբարաններ
դամբարանները
դան
դանակ
դանակը
դանակով
դանդաղ
դանդաղի
դանդաղում
դանդաղօրէն
դանիա
դանիական
դանիայի
դանիացի
դանիել
դանիերէն
դանիէլ
դանիէլեան
դանիէլեանի
դանիէլի
դանիոյ
դաշ
դաշինք
դաշինքը
դաշինքի
դաշինքին
դաշինքով
դաշնագիր
դաշնագիրը
դաշնագիրի
դաշնագրի
դաշնագրին
դաշնագրով
դաշնակ
դաշնակահար
դաշնակահարը
դաշնակահարուհի
դաշնակի
դաշնակից
դաշնակիցը
դաշնակիցներ
դաշնակիցները
դաշնակիցներու
դաշնակիցներուն
դաշնակցած
դաշնակցական
դաշնակցականներու
դաշնակցային
դաշնակցութեան
դաշնակցութիւն
դաշնակցութիւնը
դաշնամուր
դաշնամուրային
դաշնամուրը
դաշնամուրի
դաշնամուրներ
դաշնային
դաշնութեան
դաշնութիւն
դաշնութիւնը
դաշոյն
դաշտ
դաշտային
դաշտանի
դաշտավայր
դաշտավայրերը
դաշտավայրը
դաշտավայրի
դաշտավայրին
դաշտենց
դաշտեր
դաշտերը
դաշտերու
դաշտերուն
դաշտէն
դաշտը
դաշտի
դաշտին
դառ
դառն
դառնալ
դառնալէ
դառնալէն
դառնալը
դառնալով
դառնալու
դառնալուն
դառնայ
դառնային
դառնան
դառնար
դառնութիւնները
դաս
դասագիրք
դասագիրքեր
դասագիրքերը
դասագիրքերու
դասագիրքը
դասագրքեր
դասախօս
դասախօսած
դասախօսական
դասախօսելու
դասախօսէ
դասախօսը
դասախօսի
դասախօսներ
դասախօսները
դասախօսներու
դասախօսութիւն
դասախօսութիւնը
դասախօսութիւններ
դասախօսութիւնները
դասախօսութիւններով
դասախօսութիւններու
դասախօսութիւններուն
դասած
դասական
դասականները
դասականներու
դասականութեան
դասականութիւնը
դասակարգային
դասակարգերու
դասակարգը
դասակարգի
դասակարգին
դասակարգման
դասակարգուած
դասակարգուի
դասակարգուին
դասակարգում
դասակարգումը
դասակարգումով
դասային
դասատու
դասարան
դասարանէն
դասարանը
դասարանի
դասարանին
դասարաններ
դասարանները
դասարաններու
դասարաններուն
դասաւանդած
դասաւանդել
դասաւանդելով
դասաւանդելու
դասաւանդեն
դասաւանդեր
դասաւանդէ
դասաւանդէր
դասաւանդման
դասաւանդող
դասաւանդուած
դասաւանդութեան
դասաւանդութիւնները
դասաւանդուի
դասաւանդուին
դասաւանդումը
դասաւորած
դասաւորման
դասաւորուած
դասաւորութեամբ
դասաւորումը
դասեր
դասերը
դասերու
դասերուն
դասէ
դասը
դասընթաց
դասընթացը
դասընթացներ
դասընթացները
դասընթացներու
դասընթացներուն
դասընթացք
դասընթացքը
դասընթացքի
դասընթացքին
դասընթացքներ
դասընթացքները
դասընթացքներու
դասընթացքներուն
դասընկեր
դասի
դասին
դասուած
դասուի
դասուին
դասուն
դաստակի
դաստիարակ
դաստիարակած
դաստիարակել
դաստիարակելու
դաստիարակը
դաստիարակի
դաստիարակուած
դաստիարակութեամբ
դաստիարակութեան
դաստիարակութիւն
դաստիարակութիւնը
դաստիարակչական
դավիթ
դատ
դատախազ
դատախազի
դատակազմի
դատակազմին
դատական
դատապարտած
դատապարտելով
դատապարտեն
դատապարտեց
դատապարտէ
դատապարտող
դատապարտուած
դատապարտուեցաւ
դատապարտուի
դատապարտուին
դատաստանագիրք
դատաստանական
դատաստանի
դատավարութեան
դատավարութիւնը
դատավճիռ
դատավճիռը
դատարան
դատարանը
դատարանի
դատարանին
դատարանն
դատարանները
դատարաններու
դատարաններուն
դատարկ
դատաւոր
դատաւորը
դատաւորի
դատաւորին
դատաւորներ
դատաւորները
դատը
դատի
դատին
դատողութեան
դատողութիւն
դատողութիւններ
դար
դարան
դարաշրջան
դարաշրջանէն
դարաշրջանը
դարաշրջանի
դարաշրջանին
դարաշրջաններու
դարաշրջաններուն
դարասկիզբի
դարասկիզբին
դարավերջերուն
դարավերջը
դարավերջին
դարաւոր
դարբին
դարբինեան
դարբինեանի
դարեան
դարեհ
դարեհի
դարեր
դարերէ
դարերէն
դարերը
դարերի
դարերով
դարերու
դարերում
դարերուն
դարէն
դարը
դարի
դարին
դարձ
դարձած
դարձան
դարձավ
դարձաւ
դարձեալ
դարձել
դարձեր
դարձի
դարձին
դարձնել
դարձնելով
դարձնելու
դարձնեն
դարձներ
դարձնէ
դարձնէին
դարձնէր
դարձնող
դարձող
դարձուց
դարձուցած
դարձուցին
դարման
դարմանական
դարմանամիջոց
դարմանատան
դարմանատուն
դարմանատունը
դարմանել
դարմանելով
դարմանուի
դարմանում
դարմանումը
դարմանումի
դարու
դարուհի
դարում
դարուն
դարպաս
դարպասապահ
դարպասը
դարպասի
դարպասին
դարպասներ
դարպասները
դարվար
դաւադիր
դաւադրաբար
դաւադրութեան
դաւադրութիւն
դաւադրութիւնը
դաւաճան
դաւաճանութեան
դաւանաբանական
դաւանական
դաւանանքը
դաւանանքի
դաւանանքին
դաւանի
դաւանին
դաւթեան
դաւթեանի
դաւթի
դաւիդ
դաւիթ
դաւիթեան
դաւիթեանի
դաւիթը
դաւիթի
դաւիթին
դափնեկիր
դափնեկիրներ
դգալ
դդ
դդում
դե
դեբիւտը
դել
դեկան
դեկորատիւ
դեկտ
դեկտեմբեր
դեկտեմբերէն
դեկտեմբերը
դեկտեմբերի
դեկտեմբերին
դեղ
դեղաբանական
դեղագործ
դեղագործական
դեղագործի
դեղագործութեան
դեղամիջոցներ
դեղամիջոցներու
դեղանիւթեր
դեղանիւթերու
դեղատան
դեղատեսակներ
դեղատուն
դեղեր
դեղերը
դեղերով
դեղերու
դեղերուն
դեղը
դեղի
դեղին
դեղինը
դեղնախտ
դեղնաւուն
դեղնութիւն
դեղնութիւնը
դեղորայք
դեղորայքային
դեղորայքի
դեմ
դեմիրճեան
դեմիրճեանը
դեմիրճեանի
դեմոկրատ
դեմոկրատական
դեպի
դեպքին
դեռ
դեռահաս
դեռահասներու
դեռատի
դեռեւս
դեսպան
դեսպանատան
դեսպանատուն
դեսպանատունը
դեսպանը
դեսպանի
դեսպանին
դեսպաններ
դեսպանները
դեսպանութեան
դեսպանութիւն
դեսպանութիւնը
դեր
դերակատար
դերակատարեց
դերակատարը
դերակատարման
դերակատարն
դերակատարներէն
դերակատարները
դերակատարներն
դերակատարութեամբ
դերակատարութեան
դերակատարութիւն
դերակատարութիւնը
դերասան
դերասանական
դերասանը
դերասանի
դերասանին
դերասանն
դերասաններ
դերասաններէն
դերասանները
դերասաններն
դերասաններու
դերասաններուն
դերասանութեան
դերասանութիւն
դերասանուհի
դերասանուհիի
դերասանուհիին
դերասանուհին
դերասանուհիներ
դերասանուհիներէն
դերենիկ
դերեր
դերերէն
դերերը
դերերով
դերերու
դերերուն
դերեւս
դերէն
դերը
դերի
դերին
դերձակ
դերձակեան
դերն
դերով
դերուսոյց
դերջան
դեւոյեանց
դէ
դէմ
դէմս
դէմք
դէմքեր
դէմքերէն
դէմքերը
դէմքերու
դէմքերուն
դէմքը
դէմքի
դէմքին
դէմքով
դէն
դէպ
դէպի
դէպուտատներու
դէպս
դէպք
դէպքեր
դէպքերէն
դէպքերը
դէպքերով
դէպքերու
դէպքերուն
դէպքէն
դէպքը
դէպքի
դէպքին
դէպքով
դէս
դէր
դը
դժբախտ
դժբախտաբար
դժբախտութիւն
դժբախտութիւնը
դժգոհ
դժգոհութեան
դժգոհութիւն
դժգոհութիւնը
դժնդակ
դժոխային
դժոխք
դժոխքի
դժուար
դժուարամատչելի
դժուարանայ
դժուարին
դժուարութեամբ
դժուարութեան
դժուարութեանց
դժուարութիւն
դժուարութիւնը
դժուարութիւններ
դժուարութիւններէ
դժուարութիւնները
դժուարութիւններու
դժուարութիւններուն
դի
դիագնոստիկայի
դիակը
դիակները
դիակներու
դիբալա
դիզակի
դիզափայտ
դիզափայտի
դիլիջան
դիլիջանի
դիկ
դիմագիծը
դիմագրաւած
դիմագրաւել
դիմագրաւելու
դիմագրաւէ
դիմադրական
դիմադրել
դիմադրելու
դիմադրեն
դիմադրէ
դիմադրողականութեան
դիմադրողականութիւն
դիմադրողականութիւնը
դիմադրութեան
դիմադրութիւն
դիմադրութիւնը
դիմած
դիմակ
դիմակայել
դիմակայելու
դիմակաւոր
դիմակը
դիմակի
դիմակներ
դիմակները
դիմանալ
դիմանայ
դիմանար
դիմանկար
դիմանկարը
դիմանկարի
դիմանկարներ
դիմանկարները
դիմանկարներով
դիմանկարներու
դիմաստուերներ
դիմատետրի
դիմաց
դիմացը
դիմացի
դիմացկուն
դիմաւորելու
դիմաւորեն
դիմաւորէ
դիմել
դիմելով
դիմելու
դիմեն
դիմեց
դիմեցին
դիմէ
դիմէին
դիմէր
դիմում
դիմումը
դիմումին
դիմումներ
դիմումները
դիմումներու
դին
դինաստիա
դինաստիայի
դինաստիան
դիոկղետիանոս
դիոնիսիոս
դիվանագիտական
դիվիզիայի
դիտած
դիտակ
դիտարկել
դիտարկեն
դիտարկէ
դիտարկէր
դիտարկիչը
դիտարկուած
դիտարկուի
դիտարկուին
դիտաւորեալ
դիտել
դիտելով
դիտելու
դիտեն
դիտէ
դիտէր
դիտման
դիտող
դիտողին
դիտուած
դիտուի
դիտուին
դիտում
դիր
դիրիժոր
դիրք
դիրքային
դիրքեր
դիրքերէն
դիրքերը
դիրքերու
դիրքերուն
դիրքէն
դիրքը
դիրքի
դիրքին
դիրքով
դիրքորոշման
դիրքորոշում
դիրքորոշումը
դիցաբանական
դիցաբանութեան
դիցաբանութիւն
դիցաբանութիւնը
դիցարանը
դիցարանի
դիցարանին
դիցուհիին
դիւան
դիւանագէտ
դիւանագիտական
դիւանագիտութեան
դիւանագիտութիւնը
դիւանապետ
դիւանին
դիւրացնելու
դիւրացնէ
դիւրաւ
դիւրին
դիւրութեամբ
դիւցազն
դիւցազնական
դիւցազնավէպը
դիւցազնավէպին
դիւցազներգական
դիւցազներգութեան
դիւցազներգութիւն
դկ
դկտ
դղեակ
դղեակը
դղեակի
դնել
դնելով
դնելու
դնեն
դնեպր
դնէ
դնէին
դնէր
դո
դոկտ
դոկտոր
դոկտորական
դոկտորականը
դոկտորայի
դոկտորի
դող
դողտենդը
դոնի
դոս
դոսի
դորիական
դորպատի
դոցենտ
դու
դուին
դուինը
դուինի
դուման
դումանի
դուն
դուռ
դուռը
դուստր
դուստրերը
դուստրը
դուստրին
դուստրն
դուր
դուրգարեան
դուրեան
դուրեանը
դուրեանի
դուրս
դուրսէն
դուրսը
դուրսի
դուք
դուքս
դպիր
դպչելով
դպրապետ
դպրապետութեան
դպրատան
դպրատուն
դպրաց
դպրեվանք
դպրեվանքէն
դպրեվանքը
դպրեվանքի
դպրեվանքին
դպրոց
դպրոցական
դպրոցականներու
դպրոցասէր
դպրոցէն
դպրոցը
դպրոցի
դպրոցին
դպրոցն
դպրոցներ
դպրոցներէն
դպրոցները
դպրոցներով
դպրոցներու
դպրոցներուն
դպրոցում
դպրութեան
դպրութեանց
դպրութիւն
դպրութիւնը
դռան
դռներ
դռները
դռնէն
դսեղ
դսեղի
դստեր
դստերը
դտկ
դրա
դրազարկ
դրախտ
դրախտէն
դրախտը
դրախտի
դրախտին
դրած
դրական
դրամ
դրամագիտական
դրամագիտութեան
դրամագլուխը
դրամագլուխի
դրամական
դրամահատարան
դրամահատարանին
դրամահաւաք
դրամավարկային
դրամատան
դրամատիկական
դրամատիրական
դրամատնային
դրամատուն
դրամատուները
դրամատուներու
դրամատունը
դրամատուրգ
դրամը
դրամի
դրամներ
դրամները
դրամներու
դրամով
դրայտընդ
դրան
դրանց
դրանք
դրասխանակերտցին
դրաստամատ
դրացի
դրացիական
դրացիներուն
դրաւ
դրդապատճառները
դրդուած
դրին
դրո
դրոյան
դրոյթներ
դրոյթները
դրոյթներու
դրոյի
դրոյին
դրոշավորում
դրոշմ
դրոշմը
դրոշմուած
դրուագ
դրուագը
դրուագին
դրուագներ
դրուագներէն
դրուագները
դրուագներու
դրուագուած
դրուած
դրուեցաւ
դրուէր
դրութեամբ
դրութեան
դրութիւն
դրութիւնը
դրուի
դրուին
դրուող
դրսեւորած
դրսեւորէ
դրսեւորման
դրսեւորուած
դրսեւորուի
դրսեւորում
դրսեւորումը
դրսեւորումն
դրսեւորումները
դրսեւորումներով
դրվագներ
դրօ
դրօն
դրօշ
դրօշակ
դրօշակը
դրօշակի
դրօշակին
դրօշակները
դրօշաւորում
դրօշը
դրօշի
դրօշին
դրօշմահաւաքութեան
դրօշմը
դրօշմուած
դրօշն
դրօշներ
դրօշները
դրօշներու
դրօշով
դքսութեան
դքսութիւն
դքսութիւնը
ե
եա
եագուպեան
եագուպիէի
եազըճեան
եալթայի
եալոս
եակով
եահկ
եաղուպ
եան
եանի
եանիս
եանկ
եաշ
եասին
եար
եարման
եափուճեան
եաքոպ
եաքովիտիս
եաքուտական
եաքուտսք
եաքուտսքի
եբր
եբրայական
եբրայերէն
եբրայերէնի
եգան
եգէական
եգիպտական
եգիպտահայ
եգիպտացի
եգիպտացիները
եգիպտացիներու
եգիպտացիներուն
եգիպտացորեն
եգիպտացորենի
եգիպտոս
եգիպտոսէն
եգիպտոսը
եգիպտոսի
եգիպտոսին
եգիպտոսն
եգիպտոսում
եդեսիա
եդեսիան
եդեսիոյ
եդուարդ
եզ
եզակի
եզերուած
եզերքը
եզնիկ
եզր
եզրակացնել
եզրակացնէ
եզրակացութեան
եզրակացութիւն
եզրակացութիւնը
եզրային
եզրափակիչ
եզրափակիչին
եզրափակչի
եզրափակչին
եզրեր
եզրերը
եզրերով
եզրերուն
եզրը
եզրի
եզրին
եզրոյթը
եզրով
եէյլ
եէյլի
եէնի
եըլտըզ
եթե
եթեր
եթերային
եթերաշրջանին
եթերը
եթերի
եթերով
եթէ
եթովպական
եթովպիա
եթովպիան
եթովպիոյ
եի
ել
ելած
ելակը
ելակի
ելան
ելաւ
ելեկ
ելեկտ
ելեկտրական
ելեկտրականութեան
ելեկտրականութիւն
ելեկտրականութիւնը
ելեկտրամագնիսական
ելեկտրոնային
ելենա
ելեւմտական
ելիզավետպոլ
ելիզավետպոլի
ելլել
ելլելէ
ելլելով
ելլեն
ելլէ
ելնելով
ելոյթ
ելոյթէն
ելոյթը
ելոյթի
ելոյթին
ելոյթներ
ելոյթները
ելոյթներով
ելոյթներու
ելոյթներուն
ելոյթով
ելք
ելքեր
ելքը
ելքի
եկած
եկամուտ
եկամուտը
եկամուտի
եկամուտները
եկամուտներու
եկամտաբեր
եկայ
եկան
եկատերինա
եկաւ
եկե
եկել
եկեղեաց
եկեղեցական
եկեղեցականներ
եկեղեցականներու
եկեղեցականներուն
եկեղեցաշինութեան
եկեղեցապատկան
եկեղեցասէր
եկեղեցի
եկեղեցիէ
եկեղեցիէն
եկեղեցիի
եկեղեցիին
եկեղեցին
եկեղեցիներ
եկեղեցիներէն
եկեղեցիները
եկեղեցիներն
եկեղեցիներով
եկեղեցիներու
եկեղեցիներուն
եկեղեցիով
եկեղեցոյ
եկեղեցու
եկեղեցուոյ
եկեղեցւոյ
եկեղեցւոյն
եկեր
եկմալեան
եկմալեանի
եկող
եկվ
եհխ
եհմ
եղ
եղած
եղածին
եղան
եղանակ
եղանակային
եղանակէն
եղանակը
եղանակի
եղանակին
եղանակներ
եղանակներէն
եղանակները
եղանակներով
եղանակներու
եղանակներուն
եղանակով
եղաւ
եղբ
եղբայր
եղբայրական
եղբայրակցութեան
եղբայրասպան
եղբայրը
եղբայրն
եղբայրներ
եղբայրներէն
եղբայրները
եղբայրների
եղբայրներն
եղբայրներու
եղբայրներուն
եղբայրութեան
եղբայրութիւն
եղբայրութիւնը
եղբոր
եղբորը
եղբօր
եղբօրը
եղբօրորդին
եղեգնաձոր
եղեգնաձորի
եղել
եղելութիւնները
եղելութիւններուն
եղեռն
եղեռնայուշ
եղեռնապատում
եղեռնէն
եղեռնը
եղեռնի
եղեռնին
եղեր
եղերական
եղէք
եղիա
եղիազար
եղիազարեան
եղիայեան
եղիայեանի
եղիկ
եղիկեան
եղիշէ
եղիշէի
եղիշէն
եղիսաբէթ
եղծ
եղնիկ
եղնիկը
եղող
եղուարդ
եղուարդի
եղունգը
եղունգի
եղունգները
եղջերաւոր
եղջերու
եմ
եմէն
եմէնի
եյխ
են
ենայի
ենգիբարեան
ենգիբարեանը
ենգիբարեանի
ենթա
ենթադրաբար
ենթադրական
ենթադրեալ
ենթադրել
ենթադրելով
ենթադրելու
ենթադրեն
ենթադրէ
ենթադրէր
ենթադրուած
ենթադրուէր
ենթադրութիւնը
ենթադրութիւններ
ենթադրուի
ենթալպեան
ենթակայ
ենթակայական
ենթակային
ենթակայութեան
ենթակայութիւն
ենթական
ենթակառոյցներ
ենթակառուցուածքներու
ենթարկած
ենթարկական
ենթարկել
ենթարկելով
ենթարկելու
ենթարկեն
ենթարկեց
ենթարկէ
ենթարկէր
ենթարկուած
ենթարկուելէ
ենթարկուելով
ենթարկուելու
ենթարկուեր
ենթարկուեցան
ենթարկուեցաւ
ենթարկուէին
ենթարկուէր
ենթարկուի
ենթարկուիլ
ենթարկուին
ենթարկուիր
ենի
ենովք
ենք
եոհան
եոհաննէս
եոհանսոն
եովովիչ
եորղոս
եորք
եորքէն
եորքի
եորքին
եու
եություպի
եուկոսլաւիոյ
եունեսքոյի
եունեսքօ
եուսէֆ
եուսուֆ
եուսուֆեան
եուսուֆի
եուվէ
եուրա
եուրի
եոււենտուս
եոքոհամա
եպ
եպիսկոպոս
եպիսկոպոսական
եպիսկոպոսանիստ
եպիսկոպոսը
եպիսկոպոսի
եպիսկոպոսին
եպիսկոպոսներ
եպիսկոպոսները
եպիսկոպոսներու
եպիսկոպոսներուն
եպիսկոպոսութեան
եպհ
եպս
եռաբլուր
եռագոյն
եռագոյնը
եռալեզու
եռակամար
եռակի
եռակողմ
եռահատոր
եռամեայ
եռամսեայ
եռայարկ
եռանաւ
եռանդ
եռանդը
եռանդով
եռանդուն
եռանիշ
եռանկեան
եռանկիւն
եռանկիւնաձեւ
եռանկիւնի
եռաչափ
եռաստիճան
եռեակ
եռեակը
եռեակի
եռմանը
եռուն
եռօրեայ
ես
եսայեան
եսայեանը
եսայեանի
եսայի
եսի
եվ
եվսեբիոս
ետ
ետեւ
ետեւէ
ետեւէն
ետեւը
ետեւի
ետին
ետնախորշէն
ետք
ետքը
ետքն
եր
երազ
երազած
երազային
երազանք
երազանքը
երազանքներու
երազէ
երազէր
երազը
երազի
երազին
երազն
երազներ
երազները
երազներու
երաժիշտ
երաժիշտը
երաժիշտի
երաժիշտին
երաժիշտներ
երաժիշտներէն
երաժիշտները
երաժիշտներու
երաժիշտներուն
երաժշտա
երաժշտագէտ
երաժշտագիտական
երաժշտագրութեան
երաժշտական
երաժշտահան
երաժշտահաններ
երաժշտահաններու
երաժշտանոց
երաժշտանոցէն
երաժշտանոցը
երաժշտանոցի
երաժշտանոցին
երաժշտասէր
երաժշտարուեստի
երաժշտութեամբ
երաժշտութեան
երաժշտութեանը
երաժշտութենէն
երաժշտութիւն
երաժշտութիւնը
երաժշտութիւնն
երաժշտութիւններ
երախտագիտութեան
երախտագիտութիւն
երախտապարտ
երախտաւոր
երախտաւորը
երակային
երակները
երակներու
երակներուն
երամեան
երան
երանաշնորհ
երանգ
երանգը
երանգներ
երանգները
երանգներով
երանգներու
երանգով
երանեան
երանելի
երանի
երանուհի
երաշխաւորէ
երաշխիք
երաշխիքներ
երաշտի
երասխ
երասխի
երբ
երբեմն
երբեմնի
երբեւէ
երբեք
երբէք
երգ
երգած
երգահան
երգահանդէս
երգահանը
երգահանի
երգահաններ
երգահաններէն
երգահաններու
երգային
երգաշար
երգարան
երգարանը
երգարաններու
երգարուեստի
երգարուեստին
երգացանկը
երգացանկի
երգացանկին
երգել
երգելով
երգելու
երգեհոն
երգեհոնահար
երգեհոնային
երգեհոնը
երգեհոնի
երգեն
երգեր
երգերէն
երգերը
երգերի
երգերն
երգերով
երգերու
երգերուն
երգեց
երգեցիկ
երգեցողութեան
երգեցողութիւն
երգեցողութիւնը
երգէ
երգէին
երգէն
երգէր
երգը
երգի
երգիծաբան
երգիծական
երգիծանք
երգիծանքը
երգիծանքի
երգին
երգիչ
երգիչը
երգիչի
երգիչին
երգիչն
երգիչներ
երգիչներէն
երգիչները
երգիչներու
երգն
երգող
երգով
երգոց
երգուած
երգուի
երգուին
երգչախմբային
երգչախումբ
երգչախումբեր
երգչախումբերը
երգչախումբերու
երգչախումբը
երգչախումբի
երգչախումբին
երգչուհի
երգչուհիի
երգչուհիին
երգչուհին
երգչուհիներ
երգչուհիներու
երդիքին
երդման
երդուեալ
երդում
երդումը
երե
երեխայ
երեխայի
երեխային
երեխան
երեխաներ
երեխաներէն
երեխաները
երեխաների
երեխաներու
երեխաներուն
երեկոյ
երեկոյան
երեկոյեան
երեկոյի
երեկոն
երեկոներ
երեմեան
երեմիա
երես
երեսը
երեսի
երեսին
երեսնամեայ
երեսուն
երեսփոխան
երեսփոխանական
երեսփոխանները
երեւակ
երեւակայական
երեւակայութեան
երեւակայութիւն
երեւակայութիւնը
երեւակը
երեւայ
երեւան
երեւանեան
երեւանէն
երեւանը
երեւանի
երեւանին
երեւանում
երեւանցի
երեւանցիի
երեւանցին
երեւելի
երեւէին
երեւէր
երեւի
երեւիլ
երեւին
երեւոյթ
երեւոյթը
երեւոյթի
երեւոյթին
երեւոյթն
երեւոյթներ
երեւոյթներէն
երեւոյթները
երեւոյթներով
երեւոյթներու
երեւոյթներուն
երեւցած
երեւցաւ
երեւցող
երեք
երեքական
երեքէն
երեքը
երեքին
երեքն
երեքշաբթի
երզն
երզնկա
երզնկայի
երզնկան
երզնկացի
երզնկացիի
երզնկացին
երզնկեան
երէկ
երէց
երէցեան
երէցեանի
երէցը
երէք
երը
երթ
երթալ
երթալով
երթալու
երթամ
երթայ
երթային
երթան
երթանք
երթար
երթեւեկի
երթեւեկութեան
երթեւեկութիւնը
երթը
երթուղին
երի
երիզա
երիկամ
երիկամային
երիկամի
երիկամները
երիկամներու
երիկամներուն
երիտ
երիտասարդ
երիտասարդական
երիտասարդաց
երիտասարդը
երիտասարդի
երիտասարդին
երիտասարդներ
երիտասարդները
երիտասարդներու
երիտասարդներուն
երիտասարդութեան
երիտասարդութիւն
երիտասարդութիւնը
երիտթուրքական
երիտթուրքերը
երիտթուրքերու
երիտթրքական
երից
երիցմանկանց
երկ
երկա
երկաթ
երկաթեայ
երկաթէ
երկաթը
երկաթի
երկաթով
երկաթուղագիծի
երկաթուղային
երկաթուղի
երկաթուղիի
երկաթուղին
երկաթուղիները
երկաթուղիներու
երկակի
երկամեայ
երկամսեայ
երկայն
երկայնաբազուկ
երկայնք
երկայնքը
երկայնքին
երկայնքով
երկանեան
երկանեանի
երկասիրութիւնը
երկասիրութիւններ
երկար
երկարաթեւ
երկարաժամկէտ
երկարած
երկարակեաց
երկարաձգուած
երկարամեայ
երկարաշունչ
երկարատեւ
երկարաւուն
երկարէր
երկարի
երկարին
երկարող
երկարութեամբ
երկարութեան
երկարութիւն
երկարութիւնը
երկարութիւնն
երկգլխանի
երկեր
երկերէն
երկերը
երկերի
երկերն
երկերու
երկերուն
երկը
երկթեք
երկթթուակի
երկի
երկին
երկինք
երկինքէն
երկինքը
երկինքի
երկինքին
երկինքն
երկիր
երկիրէն
երկիրը
երկիրի
երկիրին
երկիրն
երկիրներ
երկիրներէ
երկիրներէն
երկիրները
երկիրներն
երկիրներու
երկիրներուն
երկլեզու
երկխօսութեան
երկխօսութիւն
երկխօսութիւնը
երկկողմանի
երկհատոր
երկյարկ
երկյարկանի
երկն
երկնագոյն
երկնակամարին
երկնային
երկնաւոր
երկնաքարի
երկնիշ
երկնիշային
երկնքի
երկնքին
երկշաբաթաթերթ
երկշաբաթաթերթը
երկշաբաթեայ
երկոտասան
երկու
երկուական
երկունք
երկուշաբթի
երկուորեակ
երկուք
երկուքական
երկուքէն
երկուքը
երկուքի
երկուքին
երկուքն
երկսեռ
երկվայրկեան
երկվայրկեանի
երկվրկ
երկրաբան
երկրաբանական
երկրաբանութեան
երկրաբանութիւն
երկրագիտական
երկրագործ
երկրագործական
երկրագործութեամբ
երկրագործութեան
երկրագործութիւն
երկրագործութիւնը
երկրագունդ
երկրագունդը
երկրագունդի
երկրագունդին
երկրակեղեւի
երկրակեղեւին
երկրամաս
երկրամասերու
երկրամասը
երկրամասի
երկրամասին
երկրային
երկրաշարժ
երկրաշարժային
երկրաշարժէն
երկրաշարժը
երկրաշարժի
երկրաշարժին
երկրաշարժներ
երկրաշարժներէն
երկրաշարժները
երկրաշարժներու
երկրաչափ
երկրաչափական
երկրաչափութեան
երկրաչափութիւն
երկրաչափութիւնը
երկրապահ
երկրէ
երկրէն
երկրի
երկրին
երկրներ
երկրներէն
երկրները
երկրների
երկրներու
երկրներում
երկրներուն
երկրորդ
երկրորդական
երկրորդականը
երկրորդականի
երկրորդը
երկրորդի
երկրորդին
երկրորդն
երկրում
երկրպագու
երկրպագութեան
երկրպագուն
երկրպագուները
երկրպագուներու
երկրպագուներուն
երկօրեայ
երնջակ
երշիկ
երորդ
երու
երուանդ
երուանդը
երուանդի
երուանդունի
երուանդունիները
երուանդունիներու
երուխան
երուսաղեմ
երուսաղեմի
երուսաղէմ
երուսաղէմէն
երուսաղէմը
երուսաղէմի
երջանիկ
երջանկայիշատակ
երջանկութեան
երջանկութիւն
երջանկութիւնը
երր
երրորդ
երրորդը
երրորդին
երրորդն
երրորդութեան
երրորդութիւն
երրորդութիւնը
երևան
երևանի
եւ
եւա
եւայլն
եւգենի
եւդոկիա
եւդոկիացի
եւդոկիոյ
եւլն
եւկենի
եւն
եւս
եւսեբիոս
եւստաքեան
եւրամիութեան
եւրասիական
եւրասիոյ
եւրատեսիլ
եւրո
եւրոխորհրդարանի
եւրոմիութեան
եւրոյ
եւրոյի
եւրոյով
եւրոպա
եւրոպական
եւրոպայէն
եւրոպայի
եւրոպային
եւրոպան
եւրոպացի
եւրոպացիներ
եւրոպացիները
եւրոպացիներու
եւրոպացիներուն
եւրոտեսիլ
եւրօ
եփած
եփել
եփեսոսի
եփրատ
եփրատը
եփրատի
եփրեմ
եփփէ
եօթ
եօթանասուն
եօթերորդ
եօթը
եօթն
եօթնամեայ
եօթներորդ
եօլ
զ
զա
զահլէ
զահլէի
զահրատ
զամպիա
զայն
զայրանայ
զայրացած
զայրոյթ
զայրոյթը
զայրոյթի
զան
զանազան
զանգ
զանգակ
զանգակատան
զանգակատուն
զանգակատունը
զանգակը
զանգակի
զանգակին
զանգակներ
զանգակները
զանգեզուր
զանգեզուրը
զանգեզուրի
զանգելանի
զանգելու
զանգերը
զանգը
զանգի
զանգուած
զանգուածային
զանգուածը
զանգուածի
զանգուածին
զանգուածներ
զանգուածները
զանգուածներու
զանգուածով
զանոնք
զապէլ
զապէլը
զառ
զառա
զառիթափ
զաս
զաստուած
զատ
զատիկ
զատիկէն
զատիկը
զատիկի
զատիկին
զատկի
զատկուան
զատուած
զար
զարբհանալեան
զարգանալ
զարգանալով
զարգանայ
զարգանային
զարգանան
զարգանար
զարգացած
զարգացան
զարգացաւ
զարգացեր
զարգացմամբ
զարգացման
զարգացմանը
զարգացնել
զարգացնելով
զարգացնելու
զարգացնեն
զարգացնէ
զարգացող
զարգացում
զարգացումը
զարգացումի
զարգացումին
զարգացումն
զարգացումները
զարգացումով
զարգացուցած
զարգացուցին
զարդ
զարդական
զարդանախշերով
զարդարած
զարդարանք
զարդարանքի
զարդարանքները
զարդարեան
զարդարեանի
զարդարելու
զարդարեն
զարդարէ
զարդարէին
զարդարող
զարդարուած
զարդարուէր
զարդարուի
զարդարուն
զարդաքանդակներով
զարդեր
զարդերը
զարդերով
զարդերու
զարդը
զարեան
զարեանը
զարեանի
զարեհ
զարեհեան
զարեհը
զարեհի
զարթօնք
զարթօնքը
զարթօնքի
զարթօնքին
զարիֆեան
զարիֆեանի
զարկ
զարկած
զարկերակային
զարկերակի
զարկերակները
զարկերակներու
զարկի
զարմանալի
զարմանալիօրէն
զարմանահրաշ
զարմացած
զարմիկ
զարմիկը
զարմինէ
զարմուհին
զարնեն
զարնէ
զարուհի
զաւակ
զաւակը
զաւակին
զաւակն
զաւակներ
զաւակներէն
զաւակները
զաւակներն
զաւակներով
զաւակներու
զաւակներուն
զաւակով
զաւարեան
զաւարեանը
զաւարեանի
զաւէն
զաւթած
զաւկին
զաքար
զաքարեան
զաքարեանը
զաքարեանի
զաքարեանները
զաքարեաններու
զաքարէ
զաքարիա
զաքի
զաքինթոս
զաքինթոսի
զբաղած
զբաղելով
զբաղելու
զբաղեցնել
զբաղեցնելով
զբաղեցնեն
զբաղեցնէ
զբաղեցնէր
զբաղեցնող
զբաղեցուց
զբաղեցուցած
զբաղէին
զբաղէր
զբաղի
զբաղիլ
զբաղին
զբաղմունքը
զբաղող
զբաղուած
զբաղուեր
զբաղուէր
զբաղուի
զբաղուիլ
զբաղուին
զբաղումը
զբաղուող
զբոսայգի
զբոսաշրջութեան
զբոսաշրջութիւնը
զբօսայգի
զբօսայգիի
զբօսայգիին
զբօսայգին
զբօսայգիները
զբօսանք
զբօսաշրջային
զբօսաշրջիկ
զբօսաշրջիկներ
զբօսաշրջիկներու
զբօսաշրջիկներուն
զբօսաշրջիկութեան
զբօսաշրջիկութիւն
զբօսաշրջիկութիւնը
զբօսաշրջութեան
զբօսաշրջութիւնը
զգալ
զգալի
զգալիօրէն
զգալով
զգալու
զգամ
զգայ
զգայազրկիչ
զգայազրկող
զգայազրկումի
զգայական
զգայարաններու
զգայացունց
զգային
զգայութեան
զգայութիւնը
զգայուն
զգան
զգար
զգաց
զգացած
զգացական
զգացմունքներու
զգացողութեան
զգացողութիւն
զգացողութիւնը
զգացուի
զգացում
զգացումը
զգացումներ
զգացումները
զգացումներով
զգացումներու
զգացումներուն
զգացումով
զգեստ
զգեստը
զգեստի
զգեստներ
զգեստները
զգեստներու
զգեստով
զգոյշ
զգուշանալ
զգուշացնէ
զգուշութեամբ
զելանտա
զելանտայի
զելանտան
զեկոյցը
զեկոյցներ
զենոբ
զենոն
զետեղած
զետեղել
զետեղէ
զետեղուած
զետեղուի
զետեղուին
զերծ
զերոյէն
զերօ
զեւս
զեւսը
զեւսի
զեւսին
զեփիւռ
զէ
զէյթլեան
զէյթուն
զէյթունը
զէյթունի
զէյթունցեան
զէյթունցի
զէյթունցիները
զէնք
զէնքեր
զէնքերը
զէնքերով
զէնքերու
զէնքը
զէնքի
զէնքով
զի
զիատ
զիլճեան
զիմպապուէ
զիմպապուէի
զին
զինադադար
զինադադարէն
զինադադարը
զինադադարի
զինադադարին
զինական
զինակից
զինակիցները
զինակիցներուն
զինամթերք
զինամթերքը
զինամթերքի
զինամթերքով
զինանշան
զինանշանային
զինանշանը
զինանշանի
զինանշանին
զինեալ
զինեալներ
զինեալները
զինեալներու
զինեալներուն
զինետին
զինծառայողների
զինկ
զինկը
զինկի
զինուած
զինուժը
զինուոր
զինուորագրուած
զինուորագրուի
զինուորական
զինուորականներ
զինուորականները
զինուորականներու
զինուորականներուն
զինուորը
զինուորի
զինուորին
զինուորներ
զինուորներէն
զինուորները
զինուորներով
զինուորներու
զինուորներուն
զինվորական
զինւորական
զինք
զինքը
զիջած
զիջելով
զիջեց
զիջեցաւ
զիջի
զիջումներ
զիս
զիտան
զիտանը
զիտանի
զիրար
զիրենք
զիքա
զլաթանը
զլմ
զմիւռնիա
զմիւռնիոյ
զմմառ
զմմառի
զմմառու
զո
զոլա
զոհ
զոհաբերութեան
զոհաբերութիւններ
զոհեր
զոհերէն
զոհերը
զոհերի
զոհերու
զոհերուն
զոհը
զոհի
զոհողութիւնը
զոհուած
զոհուածներու
զոհուածներուն
զոհուեցան
զոհուեցաւ
զոհուէ
զոհուի
զոհուին
զոհրապ
զոհւած
զոյգ
զոյգերը
զոյգերու
զոյգը
զոյգի
զոյգին
զով
զովացուցիչ
զոր
զորավար
զորեան
զորս
զորքերը
զորքերու
զորքը
զորքի
զորօրինակ
զու
զուարթ
զուարթնոց
զուարթնոցի
զուարճալի
զուարճանքի
զուգադիպի
զուգակցուած
զուգահեռ
զուգահեռաբար
զուգահեռներ
զուգերգ
զուգընթաց
զուգորդուած
զուիցերացի
զուիցերիա
զուիցերիական
զուիցերիան
զուիցերիացի
զուիցերիոյ
զուլալ
զուլալեանը
զուռնա
զուսպ
զուտ
զուր
զուրապ
զուրկ
զոքաք
զսպել
զվիատ
զտման
զտուած
զրադաշտական
զրադաշտականութիւնը
զրահապատ
զրահը
զրապ
զրկած
զրկէ
զրկուած
զրկուեցաւ
զրկուի
զրոյց
զրոյցը
զրոյցի
զրոյցներ
զրոյցները
զրոյցներու
զօ
զօհրապ
զօհրապի
զօր
զօրաբաժինի
զօրաբանակը
զօրաբանակի
զօրագունդի
զօրախումբը
զօրախումբի
զօրակոչուած
զօրակցութեան
զօրակցութիւն
զօրակցութիւնը
զօրահրամանատար
զօրամասեր
զօրամասերը
զօրամասերու
զօրամասը
զօրամասի
զօրամիաւորումներու
զօրանայ
զօրանան
զօրանոց
զօրապետ
զօրավար
զօրավարը
զօրավարի
զօրավարին
զօրավարներ
զօրավարներէն
զօրավարները
զօրավիգ
զօրաց
զօրացած
զօրացնել
զօրացնելու
զօրացնեն
զօրացնէ
զօրաւար
զօրաւոր
զօրեան
զօրեանի
զօրեղ
զօրի
զօրու
զօրութեամբ
զօրութեան
զօրութիւն
զօրութիւնը
զօրք
զօրքեր
զօրքերէն
զօրքերը
զօրքերով
զօրքերու
զօրքերուն
զօրքը
զօրքի
զօրքին
զօրքով
է
էակ
էական
էականօրէն
էակի
էակներ
էակները
էակներու
էապէս
էգ
էգերը
էգէական
էգէականի
էգէաս
էգը
էդ
էդիկ
էդուարդ
էթնիկ
էթնիկական
էթնիք
էթրա
էի
էին
էինք
էիր
էլ
էլդա
էլեկտրոնային
էլենի
էլեֆթերիոս
էլեֆսինա
էլէնի
էլըն
էլի
էլիա
էլիաս
էլիզապէթ
էլիթիս
էլիթիսին
էլվիս
էլտա
էկզարխութիւնը
էկոյեանի
էղինա
էղինայի
էղիօ
էմ
էմանուէլ
էմի
էմիլ
էմիլի
էմիլիա
էմին
էմինը
էմինի
էմիր
էմիրը
էմիրին
էմիրութեան
էմիրութեանց
էմիրութիւնը
էմիրութիւններ
էմիրութիւնները
էմիրութիւններու
էմիրութիւններուն
էմմա
էմմայի
էմման
էմմանուէլ
էմմի
էյ
էյմի
էն
էնա
էնթընի
էնն
էնսիւլինի
էնվեր
էնտ
էնտերսընը
էնտի
էնտրիւ
էնրիքէ
էնրիքէն
էնրիքօ
էշրեֆիէ
էշրէֆիէ
էշրէֆիէի
էութեամբ
էութեան
էութիւն
էութիւնը
էպոլա
էպոսի
էջ
էջեր
էջերէ
էջերէն
էջերը
էջերով
էջերու
էջերուն
էջը
էջի
էջին
էջմիածին
էջմիածինէն
էջմիածինը
էջմիածինի
էջմիածնայ
էջմիածնի
էջնոց
էռնեսթ
էռնեստ
էս
էսաեան
էսայեան
էսդրատային
էսթոնացի
էսթոներէն
էսթոնիա
էսթոնիայի
էսթոնիոյ
էսթրատային
էսհիլոս
էսմերեան
էստրադային
էսքիզներ
էսքոֆիէ
էվանս
էվերթոնի
էվիա
էվիայի
էվոյիքոս
էվրիփիտիս
էվրիփու
էտ
էտիթ
էտինպուրկի
էտիրնէ
էտկար
էտման
էտմոն
էտմոնտ
էտուար
էտուարտ
էտուարտօ
էտուըրտ
էտուին
էր
էրազմ
էրեբունի
էրեթրիա
էրեթրիայի
էրզրում
էրզրումի
էրի
էրիթրոցիտները
էրիթրոցիտներու
էրիք
էրմէնի
էրմիթաժ
էրմիթաժի
էրմուփոլի
էրտողան
էրտողանը
էրտողանի
էւկլիդեսեան
էփի
էփիֆանիա
էփլ
էփլը
էփլի
էք
էքերման
էքիզեան
էքշեան
էքուատոր
էքս
էօժէն
էֆ
էֆենտի
էֆէնտի
էֆքեար
ը
ըլ
ըլլալ
ըլլալէ
ըլլալէն
ըլլալը
ըլլալն
ըլլալով
ըլլալու
ըլլալուն
ըլլայ
ըլլային
ըլլան
ըլլանք
ըլլար
ըմբշամարտ
ըմբշամարտի
ըմբոստ
ըմբոստութեան
ըմբռնման
ըմբռնումը
ըմբռնումները
ըմպելի
ըմպելիք
ըն
ընդ
ընդամենը
ընդամէնը
ընդանհրապէս
ընդառաջ
ընդառաջելով
ընդառաջէ
ընդարձակ
ընդարձակել
ընդարձակէ
ընդարձակման
ընդարձակուած
ընդարձակուեցաւ
ընդարձակուի
ընդարձակումը
ընդգծել
ընդգծելով
ընդգծէ
ընդգծուած
ընդգծուի
ընդգրկած
ընդգրկել
ընդգրկելով
ընդգրկեն
ընդգրկեց
ընդգրկէ
ընդգրկէր
ընդգրկող
ընդգրկուած
ընդգրկուեր
ընդգրկուեցաւ
ընդգրկուի
ընդգրկուին
ընդգրկում
ընդդեմ
ընդդէմ
ընդդիմադիր
ընդդիմութեան
ընդդիմութիւնը
ընդերքը
ընդերքին
ընդէմ
ընդլայնած
ընդլայնել
ընդլայնելու
ընդլայնէ
ընդլայնման
ընդլայնուած
ընդլայնում
ընդլայնումը
ընդհ
ընդհակառակը
ընդհանուր
ընդհանուրը
ընդհանուրին
ընդհանրական
ընդհանրապէս
ընդհանրացած
ընդհանրացուած
ընդհանրութիւններ
ընդհատած
ընդհատուած
ընդհատուեցաւ
ընդհատուի
ընդհատումներով
ընդհարում
ընդհարումներ
ընդհարումներէն
ընդհարումները
ընդհարումներու
ընդհարումներուն
ընդհուպ
ընդմէջէն
ընդմիշտ
ընդմիջումէ
ընդմիջումէն
ընդմիջումներով
ընդյատակեայ
ընդոծին
ընդունած
ընդունակ
ընդունակութիւն
ընդունակութիւնը
ընդունակութիւններ
ընդունակութիւնները
ընդունակութիւններու
ընդունել
ընդունելէ
ընդունելի
ընդունելով
ընդունելու
ընդունելութեան
ընդունելութիւն
ընդունելութիւնը
ընդուներ
ընդունեց
ընդունեցին
ընդունէ
ընդունէին
ընդունէր
ընդունի
ընդունիլ
ընդունին
ընդունիր
ընդունման
ընդունող
ընդունուած
ընդունուելու
ընդունուեր
ընդունուեցան
ընդունուեցաւ
ընդունուի
ընդունուիլ
ընդունուին
ընդունումէն
ընդունումը
ընդօրինակած
ընդօրինակէ
ընդօրինակուած
ընել
ընելէ
ընելով
ընելու
ընեն
ըներ
ընէ
ընէին
ընէր
ընթանայ
ընթանան
ընթանար
ընթացած
ընթացաւարտ
ընթացիկ
ընթացող
ընթացք
ընթացքը
ընթացքի
ընթացքին
ընթացքն
ընթացքով
ընթացքում
ընթերցանութեամբ
ընթերցանութեան
ընթերցասէր
ընթերցարան
ընթերցէ
ընթերցող
ընթերցողը
ընթերցողին
ընթերցողները
ընթերցողներու
ընթերցողներուն
ընթերցումը
ընթրիք
ընթրիքը
ընթրիքի
ընծայ
ընծայած
ընծայարանի
ընծայել
ընծայելով
ընծայեց
ընծայէ
ընծայման
ընծայուած
ընկ
ընկալական
ընկալման
ընկալուած
ընկալուի
ընկալուին
ընկալումը
ընկած
ընկեր
ընկերա
ընկերաբան
ընկերաբանական
ընկերաբանութեան
ընկերական
ընկերակցած
ընկերակցեցան
ընկերակցեցաւ
ընկերակցէր
ընկերակցի
ընկերակցին
ընկերակցող
ընկերակցութեամբ
ընկերակցութեան
ընկերակցութիւն
ընկերակցութիւնը
ընկերամշակութային
ընկերային
ընկերանայ
ընկերացած
ընկերը
ընկերն
ընկերներ
ընկերներէն
ընկերները
ընկերներով
ընկերներու
ընկերներուն
ընկերոջ
ընկերութեան
ընկերութեանց
ընկերութենէն
ընկերութիւն
ընկերութիւնը
ընկերութիւնն
ընկերութիւններ
ընկերութիւններէն
ընկերութիւնները
ընկերութիւններու
ընկերութիւններուն
ընկերության
ընկերություն
ընկերուհի
ընկերուհին
ընկերվար
ընկերվարական
ընկերվարութեան
ընկճուածութեան
ընկճուածութիւն
ընկոյզ
ընկոյզը
ընկոյզով
ընկուզենիի
ընկուզենին
ընձառիւծ
ընձառիւծը
ընձեռած
ընող
ընտ
ընտանեկան
ընտանեօք
ընտանի
ընտանիք
ընտանիքէ
ընտանիքէն
ընտանիքը
ընտանիքի
ընտանիքին
ընտանիքն
ընտանիքներ
ընտանիքներէ
ընտանիքներէն
ընտանիքները
ընտանիքներով
ընտանիքներու
ընտանիքներուն
ընտանիքով
ընտելացած
ընտելացուած
ընտիր
ընտրած
ընտրական
ընտրակարգով
ընտրանի
ընտրանին
ընտրեալ
ընտրել
ընտրելով
ընտրելու
ընտրեն
ընտրեց
ընտրէ
ընտրէին
ընտրէր
ընտրողներու
ընտրովի
ընտրուած
ընտրուելով
ընտրուելու
ընտրուեր
ընտրուեցաւ
ընտրուէր
ընտրութեամբ
ընտրութեան
ընտրութիւն
ընտրութիւնը
ընտրութիւններ
ընտրութիւններէն
ընտրութիւնները
ընտրութիւններու
ընտրութիւններուն
ընտրուի
ընտրուիլ
ընտրուին
ըսած
ըսաւ
ըսել
ըսելով
ըսելու
ըսեմ
ըսեն
ըսենք
ըսէ
ըսէին
ըսէր
ըսին
ըսինք
ըսուած
ըսուի
ըստ
ըրած
ըրաւ
ըրին
ըրլ
թ
թա
թագ
թագադիր
թագադրուած
թագադրուեցաւ
թագադրութեան
թագաժառանգ
թագավոր
թագավորութեան
թագավորություն
թագաւոր
թագաւորած
թագաւորական
թագաւորէ
թագաւորէն
թագաւորը
թագաւորի
թագաւորին
թագաւորն
թագաւորներ
թագաւորներէն
թագաւորները
թագաւորներու
թագաւորներուն
թագաւորութեան
թագաւորութենէ
թագաւորութենէն
թագաւորութիւն
թագաւորութիւնը
թագաւորութիւնն
թագաւորութիւններ
թագաւորութիւնները
թագաւորութիւններու
թագաւորութիւններուն
թագը
թագի
թագով
թագուհի
թագուհիի
թագուհիին
թագուհին
թագուհու
թադեւոսեան
թադեւոսեանի
թադէի
թադէոս
թադէոսեան
թադէոսի
թաթար
թաթարական
թաթարաց
թաթարներ
թաթարները
թաթարներու
թաթիանա
թաթիկեան
թաթուլ
թաժ
թալանեն
թալանը
թալանուած
թալաս
թալէաթ
թալէաթի
թալին
թալինի
թալիշ
թալիշի
թալլինի
թակոր
թակորը
թակորի
թահա
թահթա
թահմիզեան
թաղ
թաղած
թաղածածկ
թաղական
թաղականին
թաղականութեան
թաղակապ
թաղամաս
թաղամասեր
թաղամասերէն
թաղամասերը
թաղամասերու
թաղամասերուն
թաղամասը
թաղամասի
թաղամասին
թաղային
թաղանթ
թաղանթը
թաղանթի
թաղանթները
թաղանթներու
թաղապետական
թաղել
թաղեն
թաղեր
թաղերէ
թաղերը
թաղերու
թաղերուն
թաղէն
թաղը
թաղի
թաղիադեան
թաղին
թաղման
թաղով
թաղուած
թաղուեցաւ
թաղուի
թաղուիլ
թաղումը
թամանեան
թամանեանը
թամանեանի
թամար
թամարա
թամզարա
թամիլերէն
թայ
թայիփ
թայլանտ
թայլանտի
թայլըր
թայմ
թայմզ
թայմուրը
թայմս
թայուան
թայուանի
թան
թանգարան
թանգարանային
թանգարանէն
թանգարանը
թանգարանի
թանգարանին
թանգարանն
թանգարաններ
թանգարաններէն
թանգարանները
թանգարաններու
թանգարաններուն
թաներ
թանթայի
թանկ
թանկագին
թանկային
թանկարժէք
թանձր
թաշճեան
թաշճեանի
թաուն
թաուֆիք
թաչըր
թառ
թառը
թառի
թասլաքեան
թասոս
թատ
թատերաբեմ
թատերագէտ
թատերագիր
թատերագիրներ
թատերագրութեան
թատերագրութիւնը
թատերախաղ
թատերախաղեր
թատերախաղերը
թատերախաղերու
թատերախաղերուն
թատերախաղը
թատերախաղի
թատերախաղին
թատերախումբ
թատերախումբեր
թատերախումբերու
թատերախումբը
թատերախումբի
թատերախումբին
թատերակ
թատերական
թատերապարի
թատերասէրներու
թատերասրահ
թատերասրահին
թատերարուեստի
թատերգական
թատերգութեան
թատերգութիւն
թատերգութիւնը
թատերգութիւններ
թատրերգութեան
թատրերգութիւն
թատրերգութիւնը
թատրերգութիւններ
թատրերգութիւնները
թատրոն
թատրոնէն
թատրոնը
թատրոնի
թատրոնին
թատրոնն
թատրոններ
թատրոնները
թատրոններու
թատրոններուն
թատրոնով
թարախային
թարախոտ
թարգ
թարգմ
թարգման
թարգմանաբար
թարգմանած
թարգմանական
թարգմանել
թարգմանելով
թարգմանելու
թարգմանեց
թարգմանէ
թարգմանիչ
թարգմանիչը
թարգմանիչի
թարգմանիչն
թարգմանիչներ
թարգմանիչները
թարգմանիչներու
թարգմանուած
թարգմանուեցաւ
թարգմանութեամբ
թարգմանութեան
թարգմանութեանց
թարգմանութիւն
թարգմանութիւնը
թարգմանութիւնն
թարգմանութիւններ
թարգմանութիւնները
թարգմանութիւններով
թարգմանութիւններու
թարգմանութիւններուն
թարգմանուի
թարգմանուին
թարգմանչական
թարգմանչաց
թարգմանչուհի
թարզանը
թարզանի
թարթառ
թարթու
թարթուի
թարխան
թարխանեան
թարմ
թաց
թաւ
թաւշեայ
թաւջութակ
թաւջութակահար
թաւջութակի
թաւրիզ
թաւրիզը
թաւրիզի
թափ
թափած
թափանցած
թափանցել
թափանցելու
թափանցեն
թափանցէ
թափանցիկ
թափանցող
թափառական
թափառող
թափել
թափեն
թափէ
թափէին
թափը
թափի
թափին
թափող
թափոններու
թափով
թափուած
թափուի
թափուող
թափուր
թափօր
թափօրը
թաքնուած
թաքուն
թաքսի
թբիլիսի
թե
թեամբ
թեան
թեանց
թեզը
թեթա
թեթեւ
թեթեւցնել
թեթեւցնելու
թեժ
թել
թելադրած
թելադրանքով
թելադրէ
թելադրուած
թելադրութեամբ
թելենտոս
թելեր
թելերով
թելի
թեկնածու
թեկնածուական
թեկնածութեան
թեկնածութիւն
թեկնածութիւնը
թեկնածուի
թեկնածուն
թեկնածուներ
թեկնածուները
թեկնածուներու
թեկնածուներուն
թեհլիրեան
թեհլիրեանի
թեհրան
թեհրանի
թեմ
թեմա
թեմակալ
թեմական
թեմայի
թեմային
թեմայով
թեման
թեմաներ
թեմաները
թեմաներն
թեմաներով
թեմաներու
թեմատիկ
թեմեր
թեմերը
թեմերու
թեմերուն
թեմը
թեմի
թեմին
թեմիս
թեյլոր
թենեսի
թենիս
թենիսի
թենոր
թեպէտ
թեսալիա
թեսաղոնիկէ
թեսաղոնիկէի
թեսլա
թեսլային
թեր
թերակղզի
թերակղզիէն
թերակղզիի
թերակղզիին
թերակղզին
թերակղզու
թերաւարտ
թերեզա
թերեւս
թերզեան
թերզեանը
թերզեանի
թերթ
թերթեր
թերթերէն
թերթերը
թերթերու
թերթերուն
թերթը
թերթի
թերթիկ
թերթին
թերթն
թերթօն
թերի
թերմոփիլեսի
թերութիւնը
թերութիւնները
թեւ
թեւակոխած
թեւաւոր
թեւեր
թեւերը
թեւերով
թեւերու
թեւերուն
թեւը
թեւի
թեւին
թեք
թեքէեան
թեքնիք
թեքսաս
թէ
թէեւ
թէզը
թէժ
թէլ
թէյ
թէյը
թէյի
թէյլըր
թէյլըրի
թէոդիկ
թէոդիկի
թէոդոսիոյ
թէոդորոս
թէոտոսիոս
թէոտոր
թէոտորաքիս
թէոտորաքիսին
թէոտորոս
թէպէտ
թէպէտեւ
թէրզեան
թէրլէմէզեան
թէքէեան
թէքէեանի
թէօ
թէօլէօլեան
թը
թթ
թթու
թթուածին
թթուածինը
թթուածինի
թթուածինով
թթուային
թթուի
թթուն
թթուներ
թթուներու
թի
թիթանիք
թիթեղի
թիթեռնիկը
թիթեռնիկներու
թիթօ
թիլ
թիլոս
թիկունք
թիկունքէն
թիկունքը
թիկունքին
թիմ
թիմը
թիմի
թին
թինա
թինոս
թինոսի
թիսէաս
թիսէասին
թիվ
թիրա
թիրախ
թիրախը
թիրախները
թիրեաքեան
թիւ
թիւեր
թիւերէն
թիւերը
թիւերն
թիւերով
թիւերու
թիւերուն
թիւէն
թիւը
թիւթիւնճեան
թիւի
թիւին
թիւն
թիւնը
թիւով
թիւս
թիւրապեան
թիւրք
թիփղիս
թիֆ
թիֆլիս
թիֆլիսեան
թիֆլիսէն
թիֆլիսը
թիֆլիսի
թլկատինցի
թխէին
թխսաւորման
թղթադրամը
թղթադրամները
թղթակից
թղթակցած
թղթակցութիւններ
թղթատարական
թղթոց
թմբկաթաղանթը
թմբկաթաղանթի
թմբկահար
թմբուկ
թմբուկը
թմբուկի
թմմ
թմրանիւթերու
թմրաքունի
թմրութիւն
թնդանօթ
թնդանօթի
թշնամական
թշնամանքը
թշնամի
թշնամիի
թշնամիին
թշնամին
թշնամիներ
թշնամիները
թշնամիներու
թշնամիներուն
թշնամու
թշուառ
թշուառութեան
թո
թոբոլ
թոթթին
թոթովենց
թոլիս
թոլսթոյ
թոլսթոյի
թոլքինի
թող
թողած
թողարկած
թողարկել
թողարկեր
թողարկեց
թողարկէ
թողարկման
թողարկուած
թողարկուեցաւ
թողարկուի
թողարկում
թողարկումէն
թողարկումը
թողելով
թողեց
թողնելով
թողու
թողութիւն
թոմ
թոմաս
թոմի
թոմսըն
թոմսընը
թոյլ
թոյլատրելի
թոյլատրէ
թոյլատրուած
թոյլատրուի
թոյլտուութիւն
թոյն
թոն
թոնդրակեան
թոնի
թոշակ
թոշակի
թոռ
թոռան
թոռը
թոռն
թոռներ
թոռնիկ
թոռնիկը
թոռնուհին
թովմա
թովմաս
թովմասեան
թովմասի
թոր
թորամանեան
թորամանեանի
թորանեան
թորգոմ
թորգոմեան
թորը
թորի
թորիկեան
թորինօ
թորլաքեան
թորոնթոյի
թորոնթօ
թորոս
թորոսեան
թորոսեանը
թորոսեանի
թորոսի
թու
թուա
թուաբանագէտ
թուաբանական
թուաբանութեան
թուաբանութիւն
թուաբանութիւնը
թուագրուած
թուագրուի
թուագրուին
թուագրուող
թուական
թուականերուն
թուականէն
թուականը
թուականի
թուականին
թուականից
թուականն
թուականներ
թուականներէն
թուականները
թուականներին
թուականներու
թուականներուն
թուականով
թուակիր
թուային
թուայնացուած
թուանշանը
թուարկուած
թուաքանակը
թուաքանակի
թուաքանակով
թուզ
թուզլայի
թուէր
թութքը
թութքի
թուի
թուիթըրի
թուին
թուիսթ
թուլացած
թուլացման
թուլացումէն
թուլուզ
թուլութիւն
թուլցած
թուխ
թուղթ
թուղթեր
թուղթերը
թուղթերուն
թուղթէ
թուղթը
թուղթի
թուղթին
թումա
թումաճան
թումանեան
թումանեանը
թումանեանի
թումանեանին
թումանյանի
թումբը
թունաւոր
թունաւորման
թունաւորուած
թունաւորում
թունաւորումը
թունդ
թունիս
թունիսի
թունճպոյաճեան
թունուզ
թունուզը
թունուզի
թուով
թուր
թուրեն
թուրը
թուրինի
թուրք
թուրքական
թուրքեր
թուրքերեն
թուրքերէն
թուրքերը
թուրքերն
թուրքերու
թուրքերուն
թուրքը
թուրքիա
թուրքիայէն
թուրքիայի
թուրքիային
թուրքիայում
թուրքիան
թուրքիացի
թուրքին
թուրքիոյ
թուրքմենական
թուփ
թուփաքը
թուփերու
թուփընս
թուքան
թուքիտիտիս
թոփ
թոփալեան
թոփուզեան
թոփչեան
թոփչեանի
թոքախտ
թոքախտէ
թոքախտը
թոքախտի
թոքային
թոքատապ
թոքատապը
թոքատապի
թոքեր
թոքերէն
թոքերը
թոքերու
թոքերուն
թոքի
թոքիոյի
թոքիօ
թոքիօն
թոքմաճեան
թպիլիսի
թպիլիսիի
թռիչք
թռիչքային
թռիչքը
թռիչքի
թռիչքներ
թռիչքները
թռիչքներու
թռուցիկ
թռուցիկներ
թռչելու
թռչի
թռչիլ
թռչկան
թռչնոց
թռչող
թռչուն
թռչունը
թռչունի
թռչուններ
թռչունները
թռչուններով
թռչուններու
թռչուններուն
թվական
թվականէն
թվականի
թվականին
թվականներին
թրակիա
թրակիոյ
թրամփ
թրամփի
թրգմ
թրեդգոլդ
թրիատա
թրիզինա
թրիզինայի
թրիզոնիա
թրիփոլի
թրիփոլիի
թրիփոլին
թրիք
թրիքը
թրիքի
թրծուած
թրք
թրքա
թրքալեզու
թրքախօս
թրքական
թրքահայ
թրքահայաստանի
թրքերէն
թրքերէնը
թրքերէնի
թրքերէնին
թրքերէնով
թւականին
թփուտային
թօ
թօն
թօփալեան
թօփճեան
թօփուզխանեան
ժ
ժա
ժագ
ժաթ
ժակ
ժահր
ժահրային
ժահրեր
ժահրերը
ժահրերու
ժահրը
ժահրի
ժահրին
ժահրով
ժամ
ժամագիրք
ժամայքայի
ժամանած
ժամանակ
ժամանակագիր
ժամանակագրական
ժամանակագրութեան
ժամանակագրութիւն
ժամանակագրութիւնը
ժամանակագրություն
ժամանակակէն
ժամանակակից
ժամանակակիցները
ժամանակակիցներու
ժամանակահատուածը
ժամանակահատուածի
ժամանակահատուածին
ժամանակամիջոցը
ժամանակամիջոցի
ժամանակամիջոցին
ժամանակային
ժամանակաշրջան
ժամանակաշրջանէն
ժամանակաշրջանը
ժամանակաշրջանի
ժամանակաշրջանին
ժամանակաշրջանն
ժամանակաշրջաններու
ժամանակաշրջաններուն
ժամանակաշրջանում
ժամանակաւոր
ժամանակաւորապէս
ժամանակէ
ժամանակէն
ժամանակը
ժամանակի
ժամանակին
ժամանակից
ժամանակն
ժամանակներ
ժամանակներէ
ժամանակներէն
ժամանակները
ժամանակներից
ժամանակներու
ժամանակներուն
ժամանակով
ժամանակուայ
ժամանակուան
ժամանեն
ժամանեց
ժամանեցին
ժամանէ
ժամանումը
ժամանցային
ժամանցի
ժամատան
ժամատուն
ժամատունը
ժամացոյց
ժամացոյցը
ժամացոյցի
ժամեր
ժամերգութեան
ժամերգութիւն
ժամերգութիւնը
ժամերէն
ժամերը
ժամերով
ժամերու
ժամերուն
ժամէն
ժամը
ժամի
ժամկէտ
ժամկէտը
ժամկէտին
ժամկէտով
ժամկոչեան
ժամկոչեանի
ժամով
ժամուայ
ժամուան
ժամուն
ժամուց
ժայթքման
ժայռ
ժայռակերտ
ժայռակղզիակ
ժայռակղզիակը
ժայռակղզիակին
ժայռակղզիակներ
ժայռապատկերներ
ժայռապատկերները
ժայռափոր
ժայռեր
ժայռերը
ժայռերով
ժայռերու
ժայռերուն
ժայռը
ժայռի
ժայռին
ժայռոտ
ժան
ժանէթ
ժանէյրոյի
ժանէյրօ
ժանը
ժանին
ժանն
ժաննա
ժանսեմ
ժանտախտ
ժանտախտէ
ժանտախտի
ժանտախտով
ժանր
ժանրային
ժանրեր
ժանրերը
ժանրերու
ժանրը
ժանրի
ժանրին
ժապաւէն
ժապաւէնը
ժապաւէնի
ժապաւէնին
ժապաւէններ
ժապաւէնները
ժապաւէններու
ժապաւէններուն
ժապաւէնով
ժառանգ
ժառանգաբար
ժառանգած
ժառանգական
ժառանգաւորաց
ժառանգէ
ժառանգը
ժառանգները
ժառանգորդ
ժառանգորդը
ժառանգորդն
ժառանգորդները
ժառանգուած
ժառանգութեամբ
ժառանգութեան
ժառանգութիւն
ժառանգութիւնը
ժառանգության
ժառանգությունը
ժաք
ժաքլին
ժբ
ժգ
ժդ
ժե
ժեներալ
ժենիա
ժերար
ժերարը
ժերմեն
ժզ
ժէ
ժը
ժընեւ
ժընեւի
ժըպրան
ժթ
ժի
ժիրայր
ժիւլ
ժիւրիի
ժխտական
ժխտէ
ժխտման
ժխտում
ժխտումը
ժո
ժոզեֆ
ժոզէ
ժոզէֆ
ժող
ժողով
ժողովածոյ
ժողովածու
ժողովածուի
ժողովածուին
ժողովածուն
ժողովածուներ
ժողովածուները
ժողովածուներու
ժողովածուներուն
ժողովական
ժողովէն
ժողովը
ժողովի
ժողովին
ժողովն
ժողովներ
ժողովները
ժողովներու
ժողովներուն
ժողովուրդ
ժողովուրդական
ժողովուրդէն
ժողովուրդը
ժողովուրդի
ժողովուրդին
ժողովուրդն
ժողովուրդներ
ժողովուրդներէն
ժողովուրդները
ժողովուրդներու
ժողովուրդներուն
ժողովրդագրական
ժողովրդական
ժողովրդականութիւն
ժողովրդականութիւնը
ժողովրդային
ժողովրդավար
ժողովրդավարական
ժողովրդավարութեան
ժողովրդավարութիւն
ժողովրդավարութիւնը
ժողովրդի
ժողովրդին
ժոու
ժոսլեն
ժոսլէն
ժորա
ժորժ
ժորժէթ
ժորին
ժու
ժուան
ժպիտ
ժպիտը
ժպիտի
ժպտիր
ժօզէֆ
ի
իա
իբ
իբն
իբր
իբրեւ
իբրեւեւ
իգական
իգիթեանի
իգնատիոս
իգտիր
իգտիրի
իդ
իզապելլա
իզապէլ
իզին
իզմիթ
իզմիթի
իզմիր
իզմիրէն
իզմիրի
իզմիրլեան
իզոթոփներու
իը
իթ
իթաքի
իթաքին
իթթիհատ
իթթիհատական
իթթիհատի
իլ
իլեքթրա
իլիա
իլիական
իլիաս
իլինոյս
իկոնիոյ
իկոր
իհարկէ
իմ
իմամ
իմանալ
իմանալով
իմանալու
իմանայ
իմանան
իմանանք
իմաստ
իմաստալից
իմաստային
իմաստասէր
իմաստասիրական
իմաստասիրութեան
իմաստը
իմաստի
իմաստին
իմաստն
իմաստներ
իմաստները
իմաստներով
իմաստով
իմաստութեամբ
իմաստութեան
իմաստութիւն
իմաստութիւնը
իմաստուն
իմացաբանական
իմացած
իմացական
իմացաւ
իմացութեան
իմացութիւն
իմացութիւնը
իմերեթական
իմերեթի
իմս
իմրէ
իյնալով
իյնալու
իյնայ
իյնային
իյնան
իյնար
ին
ինայ
ինը
ինթըր
ինթըրփօլի
ինժեներ
ինծի
ինկած
ինկան
ինկաւ
ինկող
ինկրիտ
ինձ
ինձմէ
ինճիճեան
ինճիճեանի
ինն
իննա
իններորդ
ինչ
ինչը
ինչի
ինչն
ինչո
ինչով
ինչու
ինչպես
ինչպէ
ինչպէս
ինչպիսի
ինչպիսին
ինչպիսիք
ինչքան
ինստիտուտ
ինստիտուտէն
ինստիտուտը
ինստիտուտի
ինստիտուտին
ինտիանա
ինտոնեզիա
ինտոնեզիայի
ինտոնեզիան
ինտոնեզիոյ
ինտոս
ինտրա
ինտրայի
ինք
ինքզինք
ինքզինքը
ինքը
ինքն
ինքնաբաւ
ինքնաբերաբար
ինքնաբուխ
ինքնագիտակցութեան
ինքնագիտակցութիւնը
ինքնագիր
ինքնագլուխ
ինքնագործ
ինքնադիմանկար
ինքնազարգացման
ինքնաթիռ
ինքնաթիռը
ինքնաթիռի
ինքնաթիռներ
ինքնաթիռները
ինքնաթիռներու
ինքնակամ
ինքնակառավարման
ինքնակենսագրական
ինքնակենսագրութեան
ինքնակենսագրութիւն
ինքնակենսագրութիւնը
ինքնամփոփ
ինքնանկար
ինքնաշարժ
ինքնաշարժային
ինքնաշարժը
ինքնաշարժի
ինքնաշարժին
ինքնաշարժներ
ինքնաշարժներու
ինքնաշարժով
ինքնաշէն
ինքնաշխատութեամբ
ինքնապաշտպանական
ինքնապաշտպանութեան
ինքնապաշտպանութիւն
ինքնապաշտպանութիւնը
ինքնասպան
ինքնասպանութեան
ինքնասպանութիւններու
ինքնավար
ինքնավարութեան
ինքնավարութիւն
ինքնավարութիւնը
ինքնավստահ
ինքնատիպ
ինքնատիպութիւնը
ինքնին
ինքնիշխան
ինքնիշխանութեան
ինքնիշխանութիւնը
ինքնորոշման
ինքնութեան
ինքնութիւն
ինքնութիւնը
ինքնուս
ինքնուրոյն
ինքնուրոյնութիւնը
ինֆո
իշխած
իշխան
իշխանական
իշխանանիստ
իշխանապետութեան
իշխանապետութիւնը
իշխանասար
իշխանաց
իշխանեան
իշխանը
իշխանի
իշխանին
իշխանն
իշխաններ
իշխաններէն
իշխանները
իշխաններու
իշխաններուն
իշխանութեամբ
իշխանութեան
իշխանութեանց
իշխանութենէն
իշխանութիւն
իշխանութիւնը
իշխանութիւնն
իշխանութիւններ
իշխանութիւններէն
իշխանութիւնները
իշխանութիւններու
իշխանութիւններուն
իշխանության
իշխանուհի
իշխանուհիին
իշխանուհին
իշխել
իշխելու
իշխեն
իշխէ
իշխէին
իշխէր
իշխող
իոանինա
իոանիս
իոաննիս
իոն
իոններու
իոս
իոսիֆ
իպերական
իպն
իպոլա
իպու
իպրահիմ
իպրահիմը
իպրահիմի
իպրահիմովիչը
իպրահիմովիչի
իջած
իջաւ
իջեցնել
իջեցնէ
իջեւան
իջեւանի
իջնել
իջնելով
իջնելու
իջնեն
իջնէ
իջնող
իջուածքը
իռլանդիա
իռլանտական
իռլանտայի
իռլանտացի
իս
իսահակ
իսահակեան
իսահակեանը
իսահակեանի
իսահակի
իսայահ
իսգանտեր
իսթ
իսթամպուլ
իսթամպուլի
իսթանպուլ
իսթանպուլահայ
իսթանպուլի
իսթանպուլին
իսթորիէ
իսլամ
իսլամադաւան
իսլամական
իսլամացած
իսլամը
իսլամի
իսլամներ
իսլամները
իսլամներու
իսլամներուն
իսլամութեան
իսլամութիւնը
իսլանտա
իսլանտայի
իսկ
իսկական
իսկահատեան
իսկանդեր
իսկապէս
իսկոյն
իսկութիւնը
իսկուհի
իսմայիլ
իսմայիլը
իսմայիլի
իսպաներեն
իսպանիա
իսպանիայի
իսպն
իսրայելի
իսրայէլ
իսրայէլական
իսրայէլեան
իսրայէլեանը
իսրայէլեանի
իսրայէլը
իսրայէլի
իսրայէլին
իսրայէլցի
իսքէնտէր
իվ
իվան
իվանեան
իվանէ
իվանովիչ
իվեր
իտա
իտալ
իտալա
իտալական
իտալացի
իտալացիները
իտալացիներու
իտալերեն
իտալերէն
իտալերէնի
իտալիա
իտալիայէն
իտալիայի
իտալիան
իտալիոյ
իտէալ
իտէալական
իտէալը
իտիփուս
իտրա
իտրայի
իր
իրա
իրագործած
իրագործել
իրագործելու
իրագործէ
իրագործման
իրագործուած
իրագործուի
իրագործումը
իրադարձութեան
իրադարձութիւն
իրադարձութիւնը
իրադարձութիւններ
իրադարձութիւններէն
իրադարձութիւնները
իրադարձութիւններով
իրադարձութիւններու
իրադարձութիւններուն
իրադրութեան
իրադրութիւնը
իրազեկ
իրական
իրականանայ
իրականանան
իրականանար
իրականացած
իրականացաւ
իրականացման
իրականացնել
իրականացնելով
իրականացնելու
իրականացնեն
իրականացնէ
իրականացնէին
իրականացնէր
իրականացնող
իրականացուած
իրականացուեցաւ
իրականացուէր
իրականացուի
իրականացուին
իրականացումը
իրականացուող
իրականացուց
իրականացուցած
իրականացուցին
իրականին
իրականութեան
իրականութենէն
իրականութիւն
իրականութիւնը
իրան
իրանական
իրանահայ
իրանեան
իրանէն
իրանը
իրանի
իրանին
իրանցի
իրապաշտ
իրապաշտական
իրապաշտութեան
իրապաշտութիւնը
իրապէս
իրավիճակ
իրավիճակէն
իրավիճակը
իրավիճակի
իրավիճակին
իրավիճակներու
իրար
իրարայաջորդ
իրարմէ
իրարու
իրացման
իրաւ
իրաւաբան
իրաւաբանական
իրաւաբանի
իրաւաբաններ
իրաւաբանութեան
իրաւաբանութիւն
իրաւագէտ
իրաւագիտական
իրաւագիտութեան
իրաւագիտութիւն
իրաւական
իրաւամբ
իրաւանց
իրաւասու
իրաւասութեան
իրաւասութիւն
իրաւասութիւնը
իրաւասութիւնները
իրաւունք
իրաւունքէն
իրաւունքը
իրաւունքի
իրաւունքին
իրաւունքներ
իրաւունքներէն
իրաւունքները
իրաւունքներն
իրաւունքներով
իրաւունքներու
իրաւունքներուն
իրաւունքով
իրաք
իրաքեան
իրաքէն
իրաքը
իրաքի
իրաքին
իրաքլիա
իրաքլիոյի
իրաքլիոնի
իրաքլիս
իրաքլիօ
իրաքցի
իրեն
իրենց
իրենցմէ
իրենք
իրեր
իրերայաջորդ
իրերէն
իրերը
իրերով
իրերու
իրերուն
իրէն
իրը
իրիկուան
իրիկուն
իրիկունը
իրինա
իրինի
իրլանտա
իրլանտական
իրլանտայի
իրլանտան
իրլանտացի
իրմէ
իրմով
իրողութեան
իրողութիւն
իրողութիւնը
իրոտոթոս
իրոտոթոսին
իրրեւ
իրօք
ից
իւ
իւան
իւանէ
իւանքա
իւեֆա
իւթիւճեան
իւթիւճեանի
իւղ
իւղաներկ
իւղեր
իւղերու
իւղը
իւղի
իւղով
իւղոտ
իւնայթըտ
իւնայթըտը
իւնայթըտի
իւր
իւրահատուկ
իւրայատկութիւնը
իւրայատկութիւնները
իւրայատուկ
իւրատեսակ
իւրացման
իւրացնել
իւրացնէ
իւրացուցած
իւրաքանչիւր
իւրաքանչիւրը
իւրաքանչիւրին
իւրաքանչիւրն
իւրովի
իւրօրինակ
իփէկեան
իփէկեանի
իփիրոս
իքս
իֆիղենիային
լ
լա
լաբիւրինթոսին
լազանիա
լազանիայի
լազար
լազարեան
լազարեանը
լազարեանի
լազարեաններու
լազեան
լազերային
լաթաքիա
լաթաքիոյ
լաթերնա
լաթեքսը
լաթիշ
լաթվիա
լաթվիոյ
լալա
լամբը
լամբրոնացի
լամբրոնացիի
լամբրոնացին
լամփարտը
լայ
լայն
լայնածաւալ
լայնատարած
լայնատերեւ
լայնութեամբ
լայնութեան
լայնութիւն
լայնութիւնը
լայնք
լայնքը
լայնքին
լայնքով
լայնօրէն
լայպցիկի
լայփցիկի
լան
լանկոպարտներու
լանջախաչ
լանջախաչով
լանջերէն
լանջերը
լանջերու
լանջերուն
լանջին
լանքայի
լաշէզ
լաուրա
լաուրան
լաչին
լաչինի
լառնաքա
լաս
լավ
լավագոյն
լավագույն
լատ
լատին
լատինագիր
լատինական
լատինատառ
լատինաց
լատիներեն
լատիներէն
լատիներէնէ
լատիներէնի
լատիներէնով
լար
լարա
լարային
լարերը
լարը
լարի
լարիսա
լարուած
լարուածութեան
լարուածութիւնը
լացի
լաւ
լաւագոյն
լաւագոյնը
լաւագոյնն
լաւագոյններէն
լաւագոյնս
լաւագույն
լաւալ
լաւապէս
լաւատես
լաւատեսութեամբ
լաւէզին
լաւորակ
լաքոնիա
լե
լեան
լեարդ
լեարդաբորբը
լեարդաբորբի
լեարդը
լեարդի
լեարդին
լեգէոն
լեգէոնի
լեզու
լեզուաբան
լեզուաբանական
լեզուաբաններու
լեզուաբանութեան
լեզուաբանութիւն
լեզուաբանութիւնը
լեզուագէտ
լեզուագիտական
լեզուաընտանիքի
լեզուաընտանիքին
լեզուական
լեզուէ
լեզուէն
լեզուի
լեզուին
լեզուն
լեզուներ
լեզուներէ
լեզուներէն
լեզուները
լեզուներն
լեզուներով
լեզուներու
լեզուներուն
լեզուով
լեհ
լեհական
լեհաստան
լեհաստանէն
լեհաստանը
լեհաստանի
լեհացին
լեհերէն
լեղի
լեղուցը
լեղուցի
լեղուցին
լեմքին
լեյտենանտ
լենա
լենըն
լենին
լենինական
լենինականի
լենինեան
լենինը
լենինի
լենինկրատ
լենինկրատի
լենկ
լենկթեմուրի
լենկթիմուր
լենկթիմուրի
լեո
լեոն
լեոնիդ
լեռ
լեռան
լեռէն
լեռը
լեռն
լեռնալիբանանի
լեռնականներու
լեռնահայաստանի
լեռնային
լեռնանցքը
լեռնաշխարհ
լեռնաշխարհէն
լեռնաշխարհը
լեռնաշխարհի
լեռնաշխարհին
լեռնաշղթայ
լեռնաշղթայէն
լեռնաշղթայի
լեռնաշղթային
լեռնաշղթան
լեռնաշղթաներ
լեռնաշղթաները
լեռնաշղթաներով
լեռնաշղթաներու
լեռնաշղթաներուն
լեռնատափաստանային
լեռներ
լեռներէն
լեռները
լեռներն
լեռներով
լեռներու
լեռներում
լեռներուն
լեսլի
լերան
լերմոնտովի
լերոս
լերոսի
լեցնել
լեցնեն
լեցնէ
լեցնէին
լեցուած
լեցուի
լեցուին
լեցուն
լեցուցած
լեւ
լեւի
լեւիի
լեւինսքի
լեւինսքիի
լեւոն
լեւոնեան
լեւոնը
լեւոնի
լեւոնին
լեփթինի
լեփսիուս
լեֆքա
լեֆքատա
լեֆքատային
լեֆքատան
լէ
լէիշմանիա
լէյլա
լէյլի
լէյտի
լէյք
լէյքըրզ
լէոյի
լէոն
լէոնարտ
լէոնարտօ
լէոնարտօն
լէոնի
լէոնիդ
լէոնիտ
լէպլէպիճի
լէօ
լէօն
լէօնարտօ
լը
լըկրան
լի
լիա
լիագումար
լիազոր
լիազօր
լիազօրութիւնը
լիազօրութիւններ
լիազօրութիւնները
լիազօրութիւններու
լիալուսինը
լիալուսնի
լիակատար
լիարժէք
լիբանան
լիբանանահայ
լիբանանահայութեան
լիբանանեան
լիբանանէն
լիբանանը
լիբանանի
լիբանանին
լիբանանցի
լիգա
լիգայի
լիեժ
լիզ
լիզա
լիզայի
լիզային
լիզան
լիզպոն
լիզպոնի
լիթ
լիթուանիա
լիթուանիան
լիթուանիոյ
լիթր
լիթրաս
լիի
լիիրաւ
լիլ
լիլի
լիլիան
լիլիթ
լիլիթը
լիլիկ
լիխթընշթայն
լիխթընշթայնի
լիկ
լիկա
լիկայի
լիկային
լիկան
լիհատես
լիճ
լիճեր
լիճերէն
լիճերը
լիճերու
լիճերուն
լիճէն
լիճը
լիճի
լիճին
լիճն
լիմ
լիմա
լիման
լիմֆոցիտները
լիմֆոցիտներու
լին
լինել
լինելով
լինելու
լինի
լինտոսի
լինքոլն
լիոն
լիոնել
լիոնելը
լիոնի
լիովին
լիպարիտ
լիպերալ
լիպիա
լիպիան
լիպիոյ
լիս
լիսէ
լիսէի
լիսէն
լիսիցեան
լիվատի
լիվըրփուլի
լիտիա
լիր
լիրա
լիցք
լիւդովիկոս
լիւթեր
լիւիս
լիւսի
լիւսին
լիւտվիկ
լիւք
լիւքսամպուրկ
լիւքսամպուրկի
լիւքսեմպուրկի
լիփսի
լիօ
լծուած
լծուի
լծուին
լղ
լղիմ
լղհ
լճակ
լճակներ
լճի
լման
լյու
լո
լոգանք
լոգանքի
լոզան
լոզանի
լոլա
լոլիկ
լոլիկը
լոլիկի
լոկ
լոկոն
լողազգեստ
լողազգեստը
լողազգեստի
լողալ
լողալով
լողալու
լողացող
լողաւազանը
լողի
լոմոնոսովի
լոյ
լոյս
լոյսերը
լոյսը
լոյսի
լոյսին
լոյսով
լոն
լոնզիի
լոնզին
լոնկ
լոնտոն
լոնտոնեան
լոնտոնէն
լոնտոնը
լոնտոնի
լոնտոնին
լոու
լոուզ
լոռեցի
լոռի
լոռիի
լոռին
լոռու
լոռուայ
լոս
լով
լոր
լորան
լորդ
լորենս
լորի
լորին
լորիս
լորձնագեղձերը
լորձունքը
լորձունքի
լորձունքին
լորտ
լու
լուալ
լուալու
լուայ
լուան
լուար
լուբիա
լուդովիկոս
լութեր
լութրա
լուի
լուիզ
լուիզա
լուիճի
լուիս
լուիսը
լուիսի
լուծած
լուծել
լուծելու
լուծեն
լուծէ
լուծէն
լուծը
լուծի
լուծին
լուծման
լուծուած
լուծուի
լուծում
լուծումը
լուծումներ
լուծումները
լուծումներով
լուծումներու
լուծուող
լուկուլլոս
լուկուլլոսի
լումա
լույս
լուն
լունա
լունտի
լուռ
լուսաբանած
լուսաբանելու
լուսաբանէ
լուսաբանման
լուսաբանող
լուսաբաց
լուսաբացին
լուսաբեր
լուսաբերը
լուսաբերի
լուսամուտ
լուսային
լուսանկար
լուսանկարած
լուսանկարը
լուսանկարիչ
լուսանկարիչը
լուսանկարիչներ
լուսանկարիչներու
լուսանկարներ
լուսանկարները
լուսանկարներով
լուսանկարներու
լուսանկարչական
լուսանկարչատունը
լուսանկարչութեան
լուսանկարչութիւնը
լուսանցքը
լուսավորիչ
լուսարձակի
լուսաւոր
լուսաւորական
լուսաւորիչ
լուսաւորիչը
լուսաւորիչի
լուսաւորիչին
լուսաւորման
լուսաւորուած
լուսաւորութեան
լուսաւորութիւն
լուսաւորուի
լուսաւորչական
լուսաւորչեան
լուսաւորչի
լուսիկ
լուսին
լուսինեան
լուսինէ
լուսինէն
լուսինը
լուսինի
լուսինին
լուսնային
լուսնթագ
լուսնթագը
լուսնի
լուսնին
լուսոյ
լուվր
լուվրը
լուվրի
լուր
լուրեր
լուրերը
լուրերու
լուրերուն
լուրը
լուրջ
լուքա
լուքաս
լռութեան
լռութիւն
լռութիւնը
լսած
լսատեսողական
լսարան
լսարանը
լսարանի
լսել
լսելէ
լսելի
լսելով
լսելու
լսեն
լսեր
լսէ
լսէր
լսողական
լսողութեան
լսողութիւն
լսողութիւնը
լսուի
լվովի
լրաբեր
լրագիր
լրագիրներու
լրագրական
լրագրող
լրագրողական
լրագրողի
լրագրողներ
լրագրողներու
լրագրութեան
լրագրութիւն
լրանալէ
լրանայ
լրատու
լրատուական
լրատուամիջոցները
լրատուամիջոցներու
լրատուամիջոցներուն
լրատուողական
լրատուութեան
լրացաւ
լրացնելու
լրացնեն
լրացնէ
լրացուած
լրացում
լրացումներով
լրացուցած
լրացուցիչ
լրացվել
լրիւ
լրումին
լրջօրէն
լրտես
լցուած
լքած
լքել
լքելով
լքելու
լքեն
լքեց
լքեցին
լքէ
լքուած
լօ
լօզանի
լօխ
լևոն
խ
խա
խաբեբայ
խաբկանք
խադ
խազային
խազերը
խազերու
խաթաբալա
խաթուն
խաժակ
խալետ
խալիլ
խալիլի
խալիպեան
խալիֆ
խալիֆա
խալիֆայի
խալիֆային
խալիֆայութեան
խալիֆայութիւնը
խալիֆան
խալիֆի
խախտած
խախտելով
խախտելու
խախտէ
խախտի
խախտման
խախտում
խածիտաքիս
խաղ
խաղադաշտ
խաղադաշտէն
խաղադաշտին
խաղալ
խաղալիք
խաղալիքներ
խաղալիքներու
խաղալով
խաղալու
խաղակէսին
խաղաղ
խաղաղական
խաղաղապահ
խաղաղովկիանոսեան
խաղաղութեամբ
խաղաղութեան
խաղաղութիւն
խաղաղութիւնը
խաղայ
խաղային
խաղան
խաղաշրջանին
խաղար
խաղարկային
խաղարկող
խաղարկութեան
խաղաց
խաղացած
խաղացանկը
խաղացանկին
խաղացաւ
խաղացին
խաղացող
խաղացողը
խաղացողի
խաղացողները
խաղացողներու
խաղեր
խաղերէն
խաղերը
խաղերի
խաղերով
խաղերու
խաղերուն
խաղէն
խաղը
խաղի
խաղին
խաղն
խաղող
խաղողը
խաղողի
խաղողին
խաղով
խաղում
խաղցած
խաղցաւ
խաղցեր
խաղցող
խաղցողը
խամսայի
խայթէ
խայտաբղետ
խայտառակ
խայտառակութեան
խայտառակութիւնը
խան
խանամիրեան
խանասորի
խանգարել
խանգարեր
խանգարէ
խանգարէր
խանգարման
խանգարուած
խանգարուի
խանգարում
խանգարումը
խանգարումներ
խանգարումները
խանգարումներու
խանդավառ
խանդավառութեամբ
խանդավառութիւն
խանդավառութիւնը
խաներու
խանզադեան
խանզադեանի
խանը
խանի
խանիա
խանին
խանճեան
խանճեանի
խանութ
խանութեան
խանութը
խանութի
խանութին
խանութիւնը
խանութիւնները
խանութներ
խանութները
խանութներու
խանութներուն
խանումա
խանջեան
խանջեանի
խաշած
խաչ
խաչագողի
խաչակիր
խաչակիրներ
խաչակիրները
խաչակիրներու
խաչակիրներուն
խաչակրաց
խաչաձեւ
խաչատուր
խաչատուրեան
խաչատուրեանը
խաչատուրեանի
խաչատուրեանին
խաչատուրի
խաչատրեան
խաչատրեանը
խաչատրեանի
խաչատրյան
խաչափայտը
խաչափայտի
խաչելութեան
խաչեր
խաչերեան
խաչերը
խաչերյան
խաչերով
խաչէն
խաչէնը
խաչէնի
խաչը
խաչի
խաչիկ
խաչիկեան
խաչիկեանը
խաչիկեանի
խաչին
խաչմերուկ
խաչմերուկին
խաչն
խաչով
խաչուած
խաչուող
խաչվերացի
խաչքար
խաչքարեր
խաչքարերէն
խաչքարերը
խաչքարերով
խաչքարերու
խաչքարը
խաչքարի
խաչքարին
խապայեան
խառը
խառն
խառնակ
խառնաշփոթ
խառնարան
խառնարանը
խառնել
խառնելով
խառնեն
խառնուած
խառնուածքի
խառնուածքով
խառնուելով
խառնուի
խառնուրդ
խառնուրդը
խառնուրդին
խառնուրդներու
խառնուրդով
խասգիւղ
խասգիւղի
խատիսեան
խատիսեանի
խար
խարբերդ
խարբերդէն
խարբերդի
խարբերդցի
խարիսխ
խարիսխը
խարկով
խարկովի
խարոյկ
խարոյկի
խարտաւիլակութեամբ
խաւ
խաւար
խաւարի
խաւարման
խաւերէն
խաւերը
խաւերու
խաւերուն
խաւը
խաւի
խաւին
խափանելու
խաֆիէն
խեթական
խեթերը
խելագար
խելամիտ
խելացի
խելք
խելքը
խելքի
խեղճ
խենթ
խենթը
խեցեգործական
խեցեգործութեան
խեցեղէն
խըհմ
խթան
խթանել
խթանելու
խթանեն
խթանէ
խթանող
խթման
խի
խիզախ
խիզախութեան
խիկար
խիղճը
խիստ
խիտ
խլած
խլել
խլելով
խլեց
խլէ
խլիրդ
խլիրդը
խլիրդի
խլնաթաղանթային
խլնաթաղանթը
խլնաթաղանթի
խլութիւն
խլում
խխունջի
խղճի
խղճմտանքի
խճանկար
խճանկարը
խճանկարի
խճողուած
խճուղին
խմ
խմբ
խմբագ
խմբագիր
խմբագիրը
խմբագիրի
խմբագիրն
խմբագիրներ
խմբագիրներէն
խմբագիրները
խմբագրած
խմբագրական
խմբագրապետ
խմբագրապետը
խմբագրել
խմբագրեց
խմբագրէ
խմբագրի
խմբագրման
խմբագրող
խմբագրուած
խմբագրութեամբ
խմբագրութեան
խմբագրութիւն
խմբագրութիւնը
խմբակ
խմբակային
խմբակը
խմբակի
խմբակին
խմբակներ
խմբակցութեան
խմբային
խմբապետ
խմբապետի
խմբավար
խմբավարական
խմբավարը
խմբավարի
խմբավարներ
խմբավարութեամբ
խմբաւորման
խմբաւորուած
խմբաւորում
խմբաւորումը
խմբաւորումներ
խմբաւորումները
խմբաւորումներու
խմբգր
խմբգրնր
խմբերգային
խմբերգեր
խմբերգներ
խմբի
խմբուած
խմել
խմելով
խմելու
խմեն
խմէ
խմիչք
խմիչքը
խմիչքներ
խմիչքներու
խմկկ
խմոր
խմորատիպ
խմորեղէն
խմորը
խմորի
խմորման
խն
խնածախ
խնածախի
խնամած
խնամակալ
խնամակալութեան
խնամակալութիւնը
խնամատարութեան
խնամելու
խնամիական
խնամք
խնամքը
խնամքի
խնամքին
խնամքով
խնայած
խնայեր
խնդիր
խնդիրը
խնդիրի
խնդիրին
խնդիրն
խնդիրներ
խնդիրներէն
խնդիրները
խնդիրներով
խնդիրներու
խնդիրներուն
խնդրած
խնդրանքը
խնդրանքին
խնդրանքով
խնդրել
խնդրելով
խնդրելու
խնդրեն
խնդրեց
խնդրէ
խնդրէին
խնդրի
խնդրին
խնդրոյ
խնձոր
խնձորենի
խնձորեսկ
խնձորեսկի
խնձորը
խնձորի
խնճոյքը
խնճոյքի
խնճոյքին
խնճոյքներու
խնուս
խնուսի
խո
խոզի
խոհական
խոհանոց
խոհանոցային
խոհանոցը
խոհանոցի
խոհանոցին
խոհանոցներուն
խոհարար
խոհարարական
խոհարարութեան
խոհեմ
խոհեր
խոհուն
խողովակ
խողովակի
խողովակին
խողովակներ
խողովակները
խողովակներու
խողովակներուն
խոճա
խոյ
խոյակները
խոյանայ
խոյի
խոյս
խոնարհ
խոնարհած
խոնաւ
խոնաւութեան
խոնաւութիւն
խոնաւութիւնը
խոշոր
խոշորագոյն
խոչընդոտ
խոջիվանքի
խոռոչ
խոռոչատապի
խոռոչը
խոռոչի
խոռոչին
խոռոչներ
խոռոչները
խոռոչներու
խոռոչներուն
խոսէ
խոստանալով
խոստանայ
խոստանան
խոստացած
խոստացաւ
խոստովանած
խոստովանի
խոստովանիմ
խոստովանողի
խոստովանողք
խոստովանութեան
խոստովանութիւն
խոստում
խոստումը
խոստումնալից
խոսրով
խոսրովը
խոսրովի
խոսրովին
խոտ
խոտաբոյսերու
խոտորջուրի
խոր
խորագիրը
խորագիրով
խորագրեալ
խորագրին
խորագրով
խորագրուած
խորամանկ
խորան
խորանալով
խորանայ
խորանարդ
խորանարդաձեւ
խորանարդի
խորանարդներու
խորանը
խորանի
խորանին
խորաններ
խորանները
խորաններով
խորաններու
խորանով
խորապէս
խորացած
խորացնէ
խորենացի
խորենացիէն
խորենացիի
խորենացիին
խորենացին
խորենացու
խորերը
խորէն
խորէնեան
խորը
խորթ
խորին
խորխէ
խորհուրդ
խորհուրդային
խորհուրդէն
խորհուրդը
խորհուրդի
խորհուրդին
խորհուրդն
խորհուրդներ
խորհուրդները
խորհուրդներով
խորհուրդներու
խորհուրդով
խորհր
խորհրդա
խորհրդաժողով
խորհրդաժողովը
խորհրդաժողովի
խորհրդաժողովին
խորհրդաժողովներուն
խորհրդական
խորհրդականը
խորհրդականի
խորհրդակցական
խորհրդակցի
խորհրդակցութեան
խորհրդակցութիւն
խորհրդակցութիւններ
խորհրդահայ
խորհրդային
խորհրդայնացումէն
խորհրդայնացումը
խորհրդանիշ
խորհրդանիշը
խորհրդանիշի
խորհրդանիշն
խորհրդանիշներ
խորհրդանիշներէն
խորհրդանիշները
խորհրդանիշներու
խորհրդանշական
խորհրդանշան
խորհրդանշանը
խորհրդանշաններ
խորհրդանշանները
խորհրդանշելով
խորհրդանշեն
խորհրդանշէ
խորհրդանշէր
խորհրդանշող
խորհրդատու
խորհրդատուական
խորհրդատուի
խորհրդատուն
խորհրդատուութիւն
խորհրդարան
խորհրդարանական
խորհրդարանը
խորհրդարանի
խորհրդարանին
խորհրդարանն
խորհրդաւոր
խորհրդի
խորհրդոյ
խորշ
խորշեր
խորշերը
խորշերով
խորոված
խորովածի
խորութեամբ
խորութեան
խորութիւն
խորութիւնը
խորունկ
խորտակուած
խորք
խորքային
խորքերը
խորքը
խորքի
խորքին
խորքով
խոց
խոցած
խոցելի
խոցեր
խոցերու
խոցի
խու
խուան
խուդավերդյան
խութ
խուժանը
խուլ
խուլերու
խուլիօ
խուխի
խուխով
խուճապ
խուճապահար
խուճապի
խում
խումբ
խումբեր
խումբերէն
խումբերը
խումբերով
խումբերու
խումբերուն
խումբէն
խումբը
խումբի
խումբին
խումբն
խումբով
խուռներամ
խուսափած
խուսափելով
խուսափելու
խուսափի
խուսափիլ
խուրի
խուցեր
խռովութիւն
խռովութիւնը
խռովութիւնները
խռովութիւններու
խռչափող
խռչափողը
խռչափողի
խսհ
խսհմ
խստաշունչ
խստապահանջ
խստօրէն
խտասալիկ
խտասալիկը
խտասալիկներու
խտացած
խտացուած
խտացումը
խտըշեան
խտութեամբ
խտութեան
խտութիւն
խտութիւնը
խտրականութեան
խտրութեան
խրախճանքի
խրախունի
խրախուսէ
խրամ
խրատ
խրատական
խրատներ
խրթին
խրիմ
խրիմեան
խրիմեանի
խրիմի
խրիստոս
խրուաթ
խրուաթիա
խրուաթիոյ
խցում
խցումը
խցումով
խփած
խփեց
խօ
խօսած
խօսակցական
խօսակցութեան
խօսակցութիւնը
խօսելով
խօսելու
խօսեցաւ
խօսէին
խօսէր
խօսի
խօսիլ
խօսին
խօսինք
խօսիր
խօսնակ
խօսող
խօսուած
խօսուի
խօսում
խօսուն
խօսուող
խօսք
խօսքային
խօսքեր
խօսքերէն
խօսքերը
խօսքերով
խօսքերու
խօսքերուն
խօսքէն
խօսքը
խօսքի
խօսքին
խօսքով
խֆսհ
ծ
ծա
ծագած
ծագերուն
ծագեցաւ
ծագի
ծագին
ծագմամբ
ծագման
ծագող
ծագում
ծագումէն
ծագումը
ծագումի
ծագումին
ծագումն
ծագումնաբանութեան
ծագումնաբանութիւնը
ծագումով
ծալքաւոր
ծախած
ծախել
ծախէ
ծախուած
ծախուեցաւ
ծախուի
ծախուին
ծախսած
ծախսեր
ծախսերը
ծախսերով
ծախսերու
ծախսերուն
ծախսէ
ծախսը
ծախսուած
ծախսուի
ծածկագիր
ծածկած
ծածկանունը
ծածկանունների
ծածկանուններով
ծածկանունով
ծածկել
ծածկելով
ծածկելու
ծածկեն
ծածկէ
ծածկէին
ծածկը
ծածկոյթը
ծածկով
ծածկուած
ծածկուի
ծածկուին
ծածուկ
ծակ
ծաղիկ
ծաղիկեան
ծաղիկը
ծաղիկի
ծաղիկին
ծաղիկներ
ծաղիկները
ծաղիկներով
ծաղիկներու
ծաղիկներուն
ծաղկազարդ
ծաղկազարդի
ծաղկախտը
ծաղկած
ծաղկաձոր
ծաղկաձորը
ծաղկաձորի
ծաղկանց
ծաղկաւոր
ծաղկաքաղ
ծաղկեայ
ծաղկի
ծաղկին
ծաղկման
ծաղկող
ծաղկում
ծաղկումը
ծաղկուն
ծաղրած
ծաղրածու
ծաղրանկարիչ
ծաղրանկարներ
ծայր
ծայրագոյն
ծայրահեղ
ծայրահեղական
ծայրամաս
ծայրամասային
ծայրամասերը
ծայրամասերուն
ծայրամասը
ծայրամասի
ծայրամասին
ծայրայեղ
ծայրայեղական
ծայրերը
ծայրերուն
ծայրէն
ծայրը
ծանուցումներու
ծանր
ծանրաբարձ
ծանրաբեռնուած
ծանրագոյն
ծանրակշիռ
ծանրութեան
ծանրութիւն
ծանրութիւնը
ծանրօրէն
ծանօթ
ծանօթագրութիւններ
ծանօթագրութիւններով
ծանօթանալ
ծանօթանալով
ծանօթանալու
ծանօթանայ
ծանօթանան
ծանօթացած
ծանօթացաւ
ծանօթացեր
ծանօթացնել
ծանօթացնելու
ծանօթացնէ
ծանօթացուցած
ծանօթութիւն
ծանօթութիւնը
ծանօթութիւններ
ծառ
ծառայ
ծառայած
ծառայել
ծառայելէ
ծառայելով
ծառայելու
ծառայեն
ծառայեր
ծառայեց
ծառայէ
ծառայէին
ծառայէր
ծառայող
ծառայողական
ծառայողներ
ծառայողներու
ծառայութեամբ
ծառայութեան
ծառայութեանց
ծառայութենէ
ծառայութենէն
ծառայութիւն
ծառայութիւնը
ծառայութիւններ
ծառայութիւնները
ծառայութիւններով
ծառայութիւններու
ծառայութիւններուն
ծառայություն
ծառան
ծառեր
ծառերէն
ծառերը
ծառերն
ծառերով
ծառերու
ծառերուն
ծառը
ծառի
ծառին
ծառուկեան
ծառուկեանի
ծառուղի
ծատուր
ծատուրեան
ծատուրեանի
ծար
ծարաւ
ծարաւէն
ծարաւը
ծարաւի
ծարիրի
ծաւալ
ծաւալած
ծաւալային
ծաւալել
ծաւալելու
ծաւալեց
ծաւալէ
ծաւալը
ծաւալի
ծաւալին
ծաւալման
ծաւալները
ծաւալներու
ծաւալով
ծաւալուած
ծաւալում
ծաւալումը
ծաւալուն
ծե
ծեծի
ծեր
ծերակոյտը
ծերակոյտի
ծերակոյտին
ծերակուտական
ծերեթելի
ծերեթելիի
ծերենց
ծերենցի
ծերութեան
ծերութիւն
ծերունի
ծերունիին
ծերունին
ծեց
ծէ
ծէս
ծէսերը
ծէսերու
ծէսերուն
ծէսը
ծի
ծիածան
ծիածանը
ծիլ
ծիծաղ
ծիծաղելի
ծիծաղի
ծիծեռնակ
ծիծեռնակաբերդ
ծիծեռնակաբերդի
ծին
ծինային
ծիներու
ծիսական
ծիսակատարութիւններու
ծիր
ծիրան
ծիրանագոյն
ծիրանը
ծիրանի
ծիրէն
ծիրին
ծխախոտ
ծխախոտը
ծխախոտի
ծխախոտին
ծխական
ծծումբ
ծծումբը
ծծումբի
ծն
ծնած
ծնածներ
ծնաւ
ծնեալ
ծնելէն
ծնելիութեան
ծնէ
ծնի
ծնին
ծննդաբերութեան
ծննդական
ծննդավայր
ծննդավայրէն
ծննդավայրը
ծննդավայրի
ծննդավայրին
ծննդավայրն
ծննդեան
ծննդյան
ծննդոց
ծնող
ծնողազուրկ
ծնողական
ծնողներ
ծնողներէ
ծնողներէն
ծնողները
ծնողներն
ծնողներու
ծնողներուն
ծնողքէ
ծնողքը
ծնողքի
ծնողքին
ծնուած
ծնունդ
ծնունդէն
ծնունդը
ծնունդի
ծնունդին
ծնունդն
ծնունդներ
ծնունդով
ծո
ծոմ
ծոմապահութիւն
ծով
ծովագնաց
ծովագնացութեան
ծովախորշին
ծովածոցի
ծովակ
ծովակալ
ծովակալութեան
ծովահէններու
ծովամարտը
ծովային
ծովանկարիչ
ծովափ
ծովափէն
ծովափը
ծովափի
ծովափին
ծովափնեայ
ծովափներ
ծովափները
ծովափնիայ
ծովեան
ծովեզերեայ
ծովեզերիայ
ծովեզերքը
ծովեզր
ծովեզրն
ծովեր
ծովերը
ծովերու
ծովերուն
ծովէն
ծովը
ծովի
ծովին
ծովինար
ծովն
ծովով
ծովու
ծովուժի
ծովուժին
ծովուն
ծովք
ծոց
ծոցեր
ծոցերը
ծոցէն
ծոցը
ծոցի
ծոցին
ծու
ծուխ
ծուխը
ծունկի
ծոփք
ծոփքը
ծոփքի
ծռեր
ծրագիր
ծրագիրէն
ծրագիրը
ծրագիրի
ծրագիրին
ծրագիրն
ծրագիրներ
ծրագիրները
ծրագիրներով
ծրագիրներու
ծրագիրներուն
ծրագիրով
ծրագրած
ծրագրային
ծրագրաւորման
ծրագրեն
ծրագրեր
ծրագրերը
ծրագրերու
ծրագրերուն
ծրագրէ
ծրագրէն
ծրագրի
ծրագրին
ծրագրող
ծրագրով
ծրագրուած
կ
կա
կազ
կազային
կազանի
կազդուրման
կազեր
կազերը
կազերու
կազէլ
կազը
կազի
կազմ
կազմած
կազմակերպած
կազմակերպական
կազմակերպել
կազմակերպելով
կազմակերպելու
կազմակերպեն
կազմակերպեր
կազմակերպեց
կազմակերպեցին
կազմակերպէ
կազմակերպէին
կազմակերպէր
կազմակերպիչ
կազմակերպիչը
կազմակերպիչներէն
կազմակերպիչները
կազմակերպիչներուն
կազմակերպման
կազմակերպող
կազմակերպուած
կազմակերպուեցան
կազմակերպուեցաւ
կազմակերպուէին
կազմակերպութեամբ
կազմակերպութեան
կազմակերպութիւն
կազմակերպութիւնը
կազմակերպութիւններ
կազմակերպութիւններէն
կազմակերպութիւնները
կազմակերպութիւններու
կազմակերպութիւններուն
կազմակերպության
կազմակերպուի
կազմակերպուիլ
կազմակերպուին
կազմակերպում
կազմակերպումը
կազմակերպումին
կազմակերպուող
կազմակերպչական
կազմաւորած
կազմաւորման
կազմաւորուած
կազմաւորուեցաւ
կազմաւորուի
կազմաւորուիլ
կազմաւորուին
կազմաւորում
կազմաւորումէն
կազմաւորումը
կազմաւորումները
կազմաւորումներու
կազմել
կազմելէ
կազմելով
կազմելու
կազմեն
կազմեր
կազմերուն
կազմեց
կազմեցին
կազմէ
կազմէին
կազմէն
կազմէր
կազմը
կազմի
կազմին
կազմող
կազմողներ
կազմով
կազմուած
կազմուածք
կազմուածքը
կազմուեցաւ
կազմուէր
կազմութեան
կազմութենէն
կազմութիւն
կազմութիւնը
կազմուի
կազմուիլ
կազմուին
կազմում
կազով
կաթ
կաթը
կաթի
կաթիլ
կաթին
կաթինը
կաթինի
կաթնային
կաթնասուն
կաթնասուններ
կաթնասուններու
կաթնեղէն
կաթոլիկ
կաթոլիկական
կաթոլիկներ
կաթոլիկները
կաթոլիկներու
կաթոլիկութիւն
կաթոլիկութիւնը
կաթողիկէ
կաթողիկէն
կաթողիկէներու
կաթողիկոս
կաթողիկոսական
կաթողիկոսարանը
կաթողիկոսարանի
կաթողիկոսարանին
կաթողիկոսէն
կաթողիկոսը
կաթողիկոսի
կաթողիկոսին
կաթողիկոսն
կաթողիկոսները
կաթողիկոսներու
կաթողիկոսներուն
կաթողիկոսութեան
կաթողիկոսութիւն
կաթողիկոսութիւնը
կաթողիկութիւն
կաթով
կաթուած
կաթուածէ
կաթուածը
կաթուածի
կաթսային
կաթսան
կալա
կալաթա
կալանքի
կալենց
կալենցի
կալիումի
կալլի
կալկաթա
կալկաթայի
կալուած
կալուածատէր
կալուածը
կալուածի
կալուածին
կալուածներ
կալուածները
կալուածներու
կալուածներուն
կալուածքին
կախ
կախաղան
կախարդ
կախարդական
կախարդանքը
կախարդը
կախարդներ
կախարդները
կախարդներու
կախարդուած
կախարդութեան
կախեալ
կախեթի
կախէին
կախման
կախովի
կախուած
կախուածութեան
կախուածութիւն
կախուածութիւնը
կախում
կած
կակա
կակայի
կակային
կական
կակուղ
կահոյք
կահոյքը
կահոյքի
կաղամբ
կաղամբի
կաղանդ
կաղանդի
կաղանկատուացի
կաղանկատուացիի
կաղանկատուացին
կաղապար
կաղապարը
կաղապարն
կաղզուան
կաղզուանի
կաղին
կաղնի
կաղնիի
կաղնին
կաճառ
կաճառէն
կաճառը
կաճառի
կաճառին
կամ
կամախ
կամախի
կամայական
կամային
կամար
կամարակապ
կամարաձեւ
կամարը
կամարի
կամարին
կամարներ
կամարները
կամարներով
կամարներու
կամարներուն
կամաց
կամաւոր
կամաւորական
կամաւորականներու
կամաւորներ
կամաւորներու
կամետներ
կամետները
կամերային
կամուրջ
կամուրջէն
կամուրջը
կամուրջի
կամուրջին
կամուրջներ
կամուրջները
կամուրջներու
կամուրջով
կամսախուրտիան
կամսար
կամսարական
կամսարականի
կամրջի
կամրջին
կամք
կամքը
կամքի
կամքին
կամքով
կամօ
կայ
կայազօրը
կայազօրի
կայան
կայանալիք
կայանայ
կայանան
կայանար
կայանէն
կայանը
կայանի
կայանին
կայանն
կայաններ
կայաններէն
կայանները
կայաններու
կայաններուն
կայարան
կայարանէն
կայարանը
կայարանի
կայարանին
կայարաններ
կայացած
կայացան
կայացաւ
կայացման
կայացնել
կայացնելու
կայացնէ
կայացուած
կայացուցած
կային
կայծ
կայծակ
կայծակնային
կայծեր
կայն
կայուն
կայունացման
կայունութեան
կայունութիւն
կայունութիւնը
կայս
կայսեր
կայսերական
կայսերը
կայսր
կայսրեր
կայսրերը
կայսրերու
կայսրէն
կայսրը
կայսրի
կայսրին
կայսրն
կայսրութեան
կայսրութեանը
կայսրութենէն
կայսրութիւն
կայսրութիւնը
կայսրութիւններու
կայսրութիւններուն
կայսրութիւնում
կայսրության
կայսրուհի
կայսրուհիին
կայսրուհին
կայք
կայքեր
կայքերու
կայքէն
կայքէջ
կայքէջը
կայքէջի
կայքէջին
կայքը
կայքի
կայքին
կայքում
կան
կանա
կանադա
կանայեան
կանայի
կանայք
կանանեան
կանանչ
կանանց
կանաչ
կանաչաւուն
կանաչեան
կանաչեանի
կանաչեղէն
կանաչը
կանաչի
կանացի
կանգ
կանգնած
կանգնելով
կանգնելու
կանգնեցաւ
կանգնեցնել
կանգնեցնէ
կանգնեցուած
կանգնեցուցած
կանգնի
կանգնիլ
կանգնին
կանգուն
կանթեղ
կանխազգուշական
կանխած
կանխահաս
կանխարգելի
կանխարգելիչ
կանխարգելման
կանխարգիլել
կանխարգիլելի
կանխարգիլելու
կանխարգիլման
կանխել
կանխելու
կանխիկ
կաննի
կանոն
կանոնագիրը
կանոնագիրք
կանոնադրութեամբ
կանոնադրութեան
կանոնադրութիւնը
կանոնական
կանոնակարգ
կանոնաւոր
կանոնաւորաբար
կանոնաւորապէս
կանոնաւորէ
կանոնաւորուի
կանոնը
կանոնի
կանոնին
կանոններ
կանոնները
կանոններով
կանոններու
կանոններուն
կանոնով
կանուխ
կանուխէն
կանչ
կանչած
կանչել
կանչեն
կանչեց
կանչէ
կանչը
կանչուած
կանչուի
կանտի
կանտիի
կանտին
կաշի
կաշիէ
կաշիի
կաշին
կաուտին
կապ
կապադովկեան
կապադովկիա
կապադովկիոյ
կապած
կապակցութեամբ
կապան
կապանի
կապար
կապարը
կապարի
կապել
կապելով
կապելու
կապեն
կապեր
կապերը
կապերի
կապերով
կապերու
կապերուն
կապէ
կապէին
կապէր
կապը
կապի
կապիկներու
կապին
կապիտալիստական
կապն
կապող
կապոյտ
կապոյտը
կապով
կապուած
կապուածութիւնը
կապուէր
կապուի
կապուին
կապուտակեան
կապուտան
կապուտիկեան
կապուտիկեանի
կապտաւուն
կապտութիւն
կապրիէլ
կառավարած
կառավարական
կառավարել
կառավարելու
կառավարեն
կառավարէ
կառավարէին
կառավարէր
կառավարիչ
կառավարիչը
կառավարիչի
կառավարիչին
կառավարիչն
կառավարիչները
կառավարիչներու
կառավարման
կառավարող
կառավարուէր
կառավարութեան
կառավարութեանը
կառավարութենէն
կառավարութիւն
կառավարութիւնը
կառավարութիւնն
կառավարութիւնները
կառավարութիւններու
կառավարութիւններուն
կառավարության
կառավարուի
կառավարում
կառավարումը
կառաւարութեան
կառաւարութիւնը
կառլէն
կառոյց
կառոյցը
կառոյցի
կառոյցին
կառոյցներ
կառոյցներէն
կառոյցները
կառոյցներն
կառոյցներով
կառոյցներու
կառոյցներուն
կառոյցով
կառուցած
կառուցապատման
կառուցապատուած
կառուցել
կառուցելով
կառուցելու
կառուցեն
կառուցեր
կառուցեց
կառուցեցին
կառուցէ
կառուցման
կառուցողական
կառուցուած
կառուցուածք
կառուցուածքային
կառուցուածքը
կառուցուածքի
կառուցուածքին
կառուցուածքն
կառուցուածքներ
կառուցուածքներու
կառուցուածքով
կառուցուեր
կառուցուեցան
կառուցուեցաւ
կառուցուէին
կառուցուի
կառուցուիլ
կառուցուին
կառուցում
կառուցումէն
կառուցումը
կառուցուող
կառչած
կառվարենց
կառվարենցի
կառք
կառքով
կաս
կասեան
կասեցնել
կասեցնելու
կասեցնէ
կասեցուի
կասիոս
կասկած
կասկածելի
կասկածի
կասկածներ
կասպիական
կասպից
կավարիս
կատ
կատալոգ
կատակ
կատակերգակ
կատակերգական
կատակերգութեան
կատակերգութիւն
կատակերգութիւնը
կատակերգութիւններ
կատակերգութիւնները
կատաղի
կատար
կատարած
կատարեալ
կատարել
կատարելագործած
կատարելագործելու
կատարելագործէ
կատարելագործման
կատարելագործուած
կատարելագործուի
կատարելապէս
կատարելէ
կատարելը
կատարելով
կատարելու
կատարելութեան
կատարեն
կատարեր
կատարեց
կատարեցին
կատարէ
կատարէին
կատարէր
կատարին
կատարինէ
կատարմամբ
կատարման
կատարող
կատարողական
կատարողը
կատարողներ
կատարողներէն
կատարողները
կատարողներու
կատարողութեամբ
կատարոյ
կատարուած
կատարուեր
կատարուեցան
կատարուեցաւ
կատարուէին
կատարուէր
կատարուի
կատարուին
կատարում
կատարումը
կատարումներ
կատարումներէն
կատարումները
կատարումներով
կատարումով
կատարուող
կատու
կատուազգիներու
կատուի
կատուին
կատուն
կատուներ
կատուները
կատուներու
կատֆրէյ
կար
կարա
կարագ
կարապետ
կարապետեան
կարապետեանը
կարապետեանի
կարապետը
կարապետի
կարապետին
կարապետյան
կարապի
կարաւանը
կարաւանի
կարաւաններու
կարբի
կարգ
կարգադրութեամբ
կարգախօսը
կարգախօսն
կարգախօսով
կարգահամարը
կարգահամարն
կարգային
կարգապահական
կարգապահութիւնը
կարգավիճակ
կարգավիճակէն
կարգավիճակը
կարգավիճակի
կարգավիճակին
կարգավիճակով
կարգաւորել
կարգաւորելու
կարգաւորէ
կարգաւորման
կարգաւորող
կարգաւորուած
կարգաւորուի
կարգաւորուին
կարգաւորում
կարգաւորումը
կարգեր
կարգերը
կարգերու
կարգերուն
կարգէ
կարգէն
կարգը
կարգի
կարգին
կարգն
կարգով
կարգուած
կարգուի
կարդալ
կարդալով
կարդալու
կարդայ
կարդան
կարդանք
կարդար
կարդաց
կարդացած
կարդացուի
կարդացուին
կարեան
կարելի
կարելիութեան
կարելիութիւն
կարելիութիւնը
կարելիութիւններ
կարելիութիւնները
կարեն
կարենալ
կարենայ
կարենան
կարենար
կարեւոր
կարեւորագոյն
կարեւորագոյնը
կարեւորագոյններն
կարեւորը
կարեւորութեամբ
կարեւորութեան
կարեւորութիւն
կարեւորութիւնը
կարէին
կարէն
կարթագէն
կարթագէնի
կարի
կարին
կարինէ
կարինէն
կարինը
կարինի
կարիք
կարիքաւոր
կարիքաւորներուն
կարիքը
կարիքները
կարիքներու
կարիքներուն
կարծախ
կարծելով
կարծեմ
կարծեն
կարծես
կարծէ
կարծէին
կարծէր
կարծիք
կարծիքը
կարծիքի
կարծիքին
կարծիքներ
կարծիքները
կարծիքներու
կարծիքով
կարծուի
կարծր
կարկանդակ
կարկաչ
կարկառ
կարկառուն
կարճ
կարճաժամկէտ
կարճահասակ
կարճամեթրաժ
կարճատեւ
կարճիկեան
կարմիր
կարմիրեան
կարմիրը
կարմիրի
կարմիրով
կարմրագոյն
կարմրախտի
կարմրաւուն
կարմրի
կարմրութիւն
կարնեցի
կարնոյ
կարող
կարողանայ
կարողանան
կարողանար
կարողացած
կարողացան
կարողացաւ
կարողութեամբ
կարողութեան
կարողութիւն
կարողութիւնը
կարողութիւններ
կարողութիւնները
կարողութիւններով
կարողութիւններու
կարողութիւններուն
կարոյեան
կարոն
կարուած
կարուէր
կարպ
կարպիս
կարս
կարսէն
կարսը
կարսի
կարտինալ
կարք
կարօ
կարօտ
կարօտը
կարօտի
կարօտին
կարօտով
կացարան
կացարաններ
կացութեան
կացութիւն
կացութիւնը
կաւ
կաւէ
կաւի
կափարիչը
կբ
կգ
կդ
կե
կեա
կեան
կեանք
կեանքեր
կեանքերը
կեանքէ
կեանքէն
կեանքը
կեանքի
կեանքիդ
կեանքին
կեանքիս
կեանքից
կեանքն
կեանքով
կեանքում
կեանքս
կեդ
կեդր
կեդրոն
կեդրոնագմբէթ
կեդրոնական
կեդրոնականը
կեդրոնականի
կեդրոնանալ
կեդրոնանալով
կեդրոնանայ
կեդրոնանան
կեդրոնասիական
կեդրոնատեղին
կեդրոնացած
կեդրոնացաւ
կեդրոնացման
կեդրոնացնել
կեդրոնացնէ
կեդրոնացուած
կեդրոնացումը
կեդրոնացուցած
կեդրոնէն
կեդրոնը
կեդրոնի
կեդրոնին
կեդրոնն
կեդրոններ
կեդրոններէն
կեդրոնները
կեդրոններն
կեդրոններու
կեդրոններուն
կեդրոնով
կեղեւ
կեղեւը
կեղեւի
կեղծ
կեղծանունը
կեղծանունով
կեղծմաշկի
կեյնոր
կեն
կենայ
կենաց
կենդանաբանական
կենդանաբանութեան
կենդանագիրը
կենդանական
կենդանի
կենդանիի
կենդանին
կենդանիներ
կենդանիներէն
կենդանիները
կենդանիների
կենդանիներու
կենդանիներուն
կենդանութեան
կենդրոն
կենդրոնական
կենդրոնը
կենդրոնին
կեներալ
կենսաբան
կենսաբանական
կենսաբանութեան
կենսաբանութիւն
կենսաբանօրէն
կենսագիր
կենսագործունէութեան
կենսագրական
կենսագրականը
կենսագրութեան
կենսագրութեանց
կենսագրութիւն
կենսագրութիւնը
կենսագրութիւններ
կենսագրութիւնները
կենսագրություն
կենսագրությունը
կենսական
կենսանիւթ
կենսանիւթեր
կենսանիւթերով
կենսանիւթերու
կենսանիւթը
կենսանիւթի
կենսաքիմիական
կենսոլորտային
կենսոլորտի
կենսուժի
կենսունակ
կենսունակութիւնը
կենսուրախ
կենտ
կենտկոմի
կենտրոն
կենտրոնական
կենտրոնը
կենտրոնի
կենտրոնն
կենցաղ
կենցաղային
կենցաղը
կենցաղի
կենցաղին
կեչառիս
կեչառիսի
կեսար
կեսարացի
կեսարացիի
կեսարացին
կեսարի
կեսարիա
կեսարիայէն
կեսարիոյ
կեսերուն
կետը
կեր
կերած
կերակուր
կերակուրը
կերակուրի
կերակուրներ
կերակուրներու
կերային
կերպ
կերպասէ
կերպար
կերպարանք
կերպարանքը
կերպարանքով
կերպարը
կերպարի
կերպարին
կերպարն
կերպարներ
կերպարները
կերպարներն
կերպարներով
կերպարներու
կերպարներուն
կերպարով
կերպարուեստ
կերպարուեստը
կերպարուեստի
կերպարուեստին
կերպարվեստի
կերպընկալ
կերպով
կերտած
կերտել
կերտելու
կերտման
կերտուած
կեցած
կեցուածք
կեցուածքը
կեցուածքով
կեցութեան
կէ
կէյթա
կէն
կէորկի
կէորկին
կէս
կէսեր
կէսերէն
կէսերը
կէսերուն
կէսէն
կէսը
կէսի
կէսին
կէսօր
կէսօրէ
կէսօրին
կէտ
կէտեր
կէտերէն
կէտերը
կէտերու
կէտերուն
կէտէն
կէտը
կէտի
կէտիկ
կէտին
կէտն
կէրի
կէօթէ
կէօթէի
կը
կի
կիեւ
կիեւեան
կիեւի
կիզիչ
կիզիս
կիթառ
կիթառահար
կիթառը
կիթառի
կիլէրմո
կիլիկեան
կիլիկեցի
կիլիկիա
կիլիկիայէն
կիլիկիայի
կիլիկիան
կիլիկիոյ
կիկլոպեան
կիմ
կիյոմ
կին
կինեսի
կիներ
կիներէն
կիները
կիներու
կիներուն
կինը
կինն
կինոբեմադրիչ
կինոյի
կինոռեժիսոր
կինոստուդիայի
կինոփառատոնի
կիպրական
կիպրահայ
կիպրոս
կիպրոսը
կիպրոսի
կիպրոսցիները
կիսաանապատային
կիսաբոլոր
կիսագունդի
կիսագունդին
կիսաեզրափակիչ
կիսաեզրափակիչին
կիսալուսնաձեւ
կիսամեայ
կիսամսեայ
կիսանապատային
կիսանդրի
կիսանդրիի
կիսանդրին
կիսանդրիներ
կիսանկախ
կիսաշրջանաձեւ
կիսապաշտպան
կիսապաշտպանի
կիսապարզ
կիսատ
կիսաւարտ
կիսաւեր
կիսել
կիսէ
կիսով
կիսուն
կիտրոնի
կիր
կիրակի
կիրակիին
կիրակին
կիրակնօրեայ
կիրակոս
կիրակոսեան
կիրակոսեանի
կիրակոսի
կիրառած
կիրառական
կիրառել
կիրառելի
կիրառելով
կիրառելու
կիրառեն
կիրառէ
կիրառմամբ
կիրառման
կիրառուած
կիրառուէր
կիրառութեան
կիրառութիւն
կիրառութիւնը
կիրառութիւններ
կիրառուի
կիրառուին
կիրառում
կիրառումը
կիրառումներ
կիրառումները
կիրառումներու
կիրառուող
կիրասոն
կիրասոնի
կիրարկած
կիրարկել
կիրարկելով
կիրարկէ
կիրարկման
կիրարկուած
կիրարկուի
կիրարկուին
կիրարկումը
կիրարկումով
կիրճ
կիրճերով
կիրճերուն
կիրճէն
կիրճը
կիրճի
կիրճին
կիրովական
կիրովականի
կիրովի
կիրքը
կից
կիւզելեան
կիւթենպերկ
կիւթենպերկի
կիւլէսէրեան
կիւլիստանի
կիւլպենկեան
կիւլպէնկեան
կիւլպէնկեանի
կիւմիւշեան
կիւմրի
կիւմրիի
կիւսթաւ
կիւրեղ
կիւրեղեան
կիւրեղի
կիւրիկեան
կիւրին
կիւրինի
կիւրճեան
կիւրոս
կիւրոսի
կիքաս
կլանման
կլանուած
կլեբեռը
կլենտէյլ
կլենտէյլի
կլէյտ
կլէնտէյլ
կլէնտէյլի
կլիմա
կլիմայ
կլիմայական
կլիմայի
կլիմային
կլիմայով
կլիման
կլլելու
կլոմերուլային
կլոպուս
կլոր
կլորաւուն
կլորիա
կծկման
կծկում
կծկումները
կծկումներու
կծու
կկ
կհվ
կղեմես
կղերական
կղզեխումբ
կղզեխումբը
կղզեխումբին
կղզի
կղզիակ
կղզիակը
կղզիակին
կղզիակներ
կղզիակներէ
կղզիակները
կղզիակներու
կղզիակներուն
կղզիէն
կղզիի
կղզիին
կղզին
կղզիներ
կղզիներէ
կղզիներէն
կղզիները
կղզիներն
կղզիներու
կղզիներուն
կղկղանցումի
կղկղանքի
կղկղանքին
կղմինտրէ
կմ
կմախքը
կյանքը
կյանքի
կյանքից
կնիկը
կնիք
կնիքը
կնիքներ
կնիքները
կնոջ
կնոջական
կնոջը
կնոջմէն
կնութեան
կնքած
կնքահայրը
կնքել
կնքելով
կնքելու
կնքեն
կնքեց
կնքեցին
կնքէ
կնքման
կնքուած
կնքուեցաւ
կնքուի
կնքումէն
կշիռ
կշիռը
կշիռք
կշիռքը
կշիռքի
կշռէ
կո
կոթական
կոթող
կոթողական
կոթողային
կոթողը
կոթողներ
կոթողներէն
կոթողները
կոթողներու
կոլ
կոլային
կոլեր
կոլերը
կոլերու
կոլը
կոլի
կոլով
կոլոտ
կոլտըն
կոլտուին
կոկ
կոկեն
կոկենի
կոկի
կոկիկ
կոկոլի
կոկորդ
կոկորդը
կոկորդի
կոկորդին
կող
կողակիցը
կողային
կողբ
կողբացի
կողբացիի
կողբի
կողերուն
կողի
կողմ
կողմանց
կողմեր
կողմերէ
կողմերէն
կողմերը
կողմերն
կողմերով
կողմերու
կողմերուն
կողմէ
կողմէն
կողմը
կողմի
կողմին
կողմից
կողմն
կողմնածռութիւն
կողմնակի
կողմնակից
կողմնակիցներ
կողմնակիցները
կողմնակիցներու
կողմնակիցներուն
կողմնորոշումը
կողոպուտը
կողոպուտի
կողոպտած
կողոպտեն
կողոպտէ
կողոպտուած
կողոպտուի
կողովագնդակ
կողովագնդակի
կողք
կողքը
կողքի
կողքին
կոմերիտական
կոմիսար
կոմիսարիատը
կոմիսարիատի
կոմիսարներու
կոմիտաս
կոմիտասեան
կոմիտասը
կոմիտասի
կոմիտասին
կոմիտէ
կոմիտէի
կոմիտէին
կոմիտէն
կոմիտէներ
կոմիտէները
կոմիտէներու
կոմիտէութեան
կոմկուսի
կոմունիզմի
կոմունիստ
կոմունիստական
կոմպոզիտոր
կոմս
կոմսը
կոմսի
կոմսութեան
կոմսութիւն
կոմսութիւնը
կոմսուհի
կոյ
կոյուղիի
կոյս
կոյսեր
կոյսերը
կոյսերու
կոյսերուն
կոյսը
կոյսի
կոյսին
կոյր
կոյրերու
կոնաձեւ
կոնդակներ
կոնդակով
կոնի
կոնստանդին
կոնստանտին
կոնքի
կոշի
կոշտ
կոչ
կոչած
կոչել
կոչելով
կոչելու
կոչեն
կոչենք
կոչեր
կոչեց
կոչեցին
կոչէ
կոչէին
կոչէր
կոչը
կոչի
կոչին
կոչման
կոչմանը
կոչնակ
կոչով
կոչուած
կոչուելով
կոչուեր
կոչուեցան
կոչուեցաւ
կոչուէին
կոչուէր
կոչուի
կոչուիլ
կոչուիլը
կոչուին
կոչում
կոչումը
կոչումին
կոչումն
կոչումներ
կոչումով
կոչուող
կոպիտ
կոպտատաշ
կոջոյեան
կոջոյեանը
կոջոյեանի
կոս
կոստան
կոստանդեան
կոստանդիանոս
կոստանդիանոսի
կոստանդին
կոստանդնուպոլ
կոստանդնուպոլիս
կոստանդնուպոլիսը
կոստանդնուպոլիսի
կոստանդնուպոլսեցի
կոստանդնուպոլսի
կոստանդնուպոլսոյ
կոստանդուպոլսոյ
կոստանեան
կոստանտինոս
կոստանտնու
կոստանտնուպոլիսը
կոստանտնուպոլսոյ
կով
կովերը
կովերու
կովը
կովկաս
կովկասահայ
կովկասեան
կովկասէն
կովկասը
կովկասի
կովու
կոտ
կոտայք
կոտայքը
կոտայքի
կոտորած
կոտորածէն
կոտորածը
կոտորածի
կոտորածին
կոտորածներ
կոտորածներէն
կոտորածները
կոտորածներու
կոտորածներուն
կոտորակային
կոտորակները
կոտորակով
կոտորել
կոտորեն
կոտորեցին
կոտորուած
կոտրած
կոտրել
կոտրէ
կոտրուած
կոտրուածք
կոտֆրիտ
կոր
կորած
կորդուաց
կորեկ
կորեկի
կորէա
կորի
կորիզ
կորիզային
կորիզը
կորիւն
կորիւնը
կորիւնի
կործանած
կործանարար
կործանել
կործանելու
կործանեն
կործանէ
կործանի
կործանիչ
կործանման
կործանուած
կործանուեցաւ
կործանուի
կործանումէն
կործանումը
կորնթոս
կորնթոսեան
կորնթոսը
կորնթոսի
կորնթոսին
կորուստ
կորուստէ
կորուստը
կորուստի
կորուստին
կորուստներ
կորուստները
կորուստներու
կորուստներուն
կորուստով
կորպուսի
կորսնցնել
կորսնցնելէ
կորսնցնելով
կորսնցնելու
կորսնցնեն
կորսնցներ
կորսնցնէ
կորսնցուց
կորսնցուցած
կորսնցուցին
կորսուած
կորսուի
կորսուին
կորտըն
կորքի
կորքիի
կորքին
կու
կուգայ
կուլ
կուլտուրայի
կուկըլ
կուկունեան
կուկունեանի
կումայրի
կուն
կունենայ
կուշտ
կուռ
կուռքերու
կուռքը
կուսակալ
կուսակալութեան
կուսակրօն
կուսակցական
կուսակցութեան
կուսակցութենէն
կուսակցութիւն
կուսակցութիւնը
կուսակցութիւններ
կուսակցութիւնները
կուսակցութիւններու
կուսակցութիւններուն
կուսանաց
կուսթաւ
կուսթաֆ
կուստաւ
կուտակման
կուտակուած
կուտակուի
կուտակուին
կուտակում
կուտակումը
կուտայ
կուտինայի
կուր
կուրի
կուրին
կուրծքը
կուրծքի
կուրծքին
կոփածոյ
կպ
կպչուն
կռանեան
կռանեանի
կռիւ
կռիւէն
կռիւը
կռիւի
կռիւին
կռիւներ
կռիւներէ
կռիւներէն
կռիւները
կռիւներու
կռիւներուն
կռնակը
կռնակի
կռուախնձոր
կռուած
կռուելով
կռուելու
կռուէին
կռուէր
կռուի
կռուիլ
կռուին
կռունկ
կռուող
կռփամարտի
կսմիթային
կվտ
կտակ
կտակած
կտակարան
կտակարանը
կտակարանի
կտակարանին
կտակարաններու
կտակը
կտակի
կտակին
կտակով
կտաւ
կտաւատի
կտաւէ
կտաւը
կտաւի
կտաւներ
կտաւներէն
կտաւները
կտաւներու
կտաւներուն
կտոր
կտորէ
կտորէն
կտորը
կտորի
կտորներ
կտորները
կտորներով
կտորներու
կտորով
կտուց
կտրած
կտրականապէս
կտրատուած
կտրել
կտրելով
կտրելու
կտրեն
կտրէ
կտրէին
կտրուած
կտրուի
կտրուկ
կտրտած
կտրտուած
կր
կրած
կրածին
կրածինը
կրածինի
կրակ
կրակել
կրակէ
կրակէն
կրակը
կրակի
կրակին
կրակով
կրակովի
կրահամ
կրամ
կրան
կրանատայի
կրանիթ
կրանտ
կրաշաղախով
կրապար
կրասոս
կրասոսի
կրատ
կրաւորական
կրաքարային
կրաքարէ
կրաքարի
կրել
կրելով
կրելու
կրեմի
կրեմմի
կրեմմիի
կրեն
կրետական
կրետացի
կրետէ
կրետէէն
կրետէի
կրետէին
կրետէն
կրեր
կրեց
կրեցին
կրէ
կրէին
կրէկ
կրէյ
կրէր
կրթ
կրթաթոշակ
կրթաթոշակի
կրթական
կրթամշակութային
կրթասիրաց
կրթարան
կրթարանը
կրթարանին
կրթելու
կրթուած
կրթութեամբ
կրթութեան
կրթութիւն
կրթութիւնը
կրթութիւնն
կրթության
կրիան
կրիաները
կրիաներու
կրիզմանը
կրիկ
կրիկի
կրիմ
կրին
կրինդ
կրինը
կրինի
կրիվըր
կրիփ
կրիֆնը
կրծքավանդակի
կրծքավանդակին
կրկէս
կրկէսային
կրկէսը
կրկէսի
կրկէսին
կրկին
կրկնակ
կրկնակի
կրկնել
կրկնելով
կրկնեց
կրկնէ
կրկնուած
կրկնուի
կրկնուող
կրկնօրինակ
կրկնօրինակը
կրճատ
կրճատման
կրճատուած
կրճատուի
կրճիկեան
կրնա
կրնայ
կրնային
կրնան
կրնանք
կրնաս
կրնար
կրնաք
կրող
կրոնական
կրտսեր
կրտսերը
կրտսերի
կրցած
կրցան
կրցաւ
կրքոտ
կրօն
կրօնա
կրօնաբարոյական
կրօնական
կրօնասէր
կրօնաւոր
կրօնափոխութեան
կրօնը
կրօնի
կրօնին
կրօններ
կրօններու
կրօնք
կրօնքը
կրօնքի
կրօնքին
կցելով
կցկտուր
կցուած
կցուի
կցումը
կւ
կօլ
կօլային
կօլը
կօլի
կօկէն
կօկէնը
կօկէնի
կօշիկ
կօշիկը
կօշիկի
կօշիկներ
կօշիկները
կօշկակար
հ
հա
հաա
հաբանդ
հագած
հագարի
հագեցած
հագնէին
հագնիլ
հագնին
հագուստ
հագուստը
հագուստի
հագուստին
հագուստներ
հագուստները
հագուստներով
հագուստներու
հագուստով
հադրութ
հադրութի
հազ
հազալով
հազար
հազարամեակ
հազարամեակէն
հազարամեակի
հազարամեակին
հազարամեակներ
հազարամեակներու
հազարամեակներուն
հազարամեայ
հազարան
հազարանոց
հազարապետ
հազարապետեան
հազարապետի
հազարաւոր
հազարէ
հազարէն
հազարը
հազարի
հազարներով
հազարնոց
հազը
հազի
հազիւ
հազկերտ
հազուագիւտ
հազուադէպ
հազուադէպօրէն
հաթերք
հաթերքի
հաթթը
հաթթինի
հաժ
հալած
հալածանքը
հալածանքի
հալածանքներ
հալածանքներէն
հալածանքները
հալածանքներու
հալածանքներուն
հալածուած
հալածուի
հալածուին
հալդոն
հալէթ
հալէպ
հալէպահայ
հալէպէն
հալէպը
հալէպի
հալի
հալիլ
հալիձոր
հալիձորի
հալիմ
հալման
հալքի
հալքիտա
հածիքիրիաքոս
հակ
հակա
հակադարձեն
հակադարձէ
հակադիր
հակադրուած
հակադրութեան
հակադրութիւն
հակադրութիւնը
հակազդեն
հակազդեցութեան
հակազդեցութիւն
հակազդեցութիւնը
հակազդէ
հակախորհրդային
հակակառավարական
հակակշիռ
հակահայ
հակահայկական
հակահարուած
հակամանրէական
հակամարմիններ
հակամարմիններու
հակամարտող
հակամարտութեան
հակամարտութիւն
հակամարտութիւնը
հակամարտութիւնները
հակամարտութիւններու
հակամարտութիւններուն
հակամէտ
հակայարձակման
հականեխիչ
հակապիոթիքները
հակապիոթիքներու
հակաջերմ
հակառակ
հակառակը
հակառակորդ
հակառակորդը
հակառակորդի
հակառակորդին
հակառակորդներ
հակառակորդները
հակառակորդներու
հակառակորդներուն
հակառակութեան
հակասական
հակասեն
հակասէ
հակասող
հակասութեան
հակասութիւնները
հակասութիւններու
հակաօդային
հակաֆաշիստական
հակի
հակիրճ
հակոբ
հակոբյան
հակուած
հակում
հակումը
հակումները
հակումներով
հակրիտ
հակրիտը
հահ
հահգբ
հահգպ
հաղարջը
հաղբատ
հաղբատի
հաղթեց
հաղորդագրութեան
հաղորդագրութիւն
հաղորդագրութիւնը
հաղորդագրութիւններ
հաղորդած
հաղորդական
հաղորդակից
հաղորդակցական
հաղորդակցին
հաղորդակցման
հաղորդակցութեան
հաղորդակցութիւն
հաղորդակցութիւնը
հաղորդաշարը
հաղորդաշարի
հաղորդաշարին
հաղորդավար
հաղորդել
հաղորդելու
հաղորդեն
հաղորդեց
հաղորդէ
հաղորդէր
հաղորդիչ
հաղորդման
հաղորդող
հաղորդուած
հաղորդութեան
հաղորդութիւն
հաղորդուի
հաղորդուին
հաղորդում
հաղորդումը
հաղորդումներ
հաղորդումները
հաղորդումներու
հաղպատի
հաճախ
հաճեան
հաճեանը
հաճեանի
հաճելի
հաճըն
հաճընը
հաճընի
հաճընցի
հաճի
հաճնոյ
հաճոյք
հաճոյքը
հաճոյքի
հաճոյքով
համ
համա
համագաղութային
համագործակցաբար
համագործակցած
համագործակցելով
համագործակցելու
համագործակցի
համագործակցիլ
համագործակցութեամբ
համագործակցութեան
համագործակցութիւն
համագործակցութիւնը
համագումար
համագումարը
համագումարի
համագումարին
համագումարներ
համագումարներու
համագումարներուն
համադան
համադաշնութեան
համադրական
համադրէ
համադրող
համադրուած
համադրութեան
համադրութիւն
համադրութիւնը
համադրումը
համաեւրոպական
համազասպ
համազասպի
համազգային
համազգայինը
համազգայինի
համազօր
համաժողով
համաժողովը
համաժողովի
համաժողովին
համաժողովներու
համաժողովրդական
համալիր
համալիրէն
համալիրը
համալիրի
համալիրին
համալիրներ
համալիրները
համալիրներու
համալսարան
համալսարանական
համալսարանային
համալսարանէն
համալսարանը
համալսարանի
համալսարանին
համալսարանն
համալսարաններ
համալսարաններէն
համալսարանները
համալսարաններու
համալսարաններուն
համալրած
համալրուած
համալրուի
համախառն
համախմբած
համախմբել
համախմբելով
համախմբելու
համախմբէ
համախմբման
համախմբուած
համախմբումին
համախոհ
համախտանիշ
համախտանիշը
համախտանիշի
համակ
համակարգ
համակարգային
համակարգեր
համակարգերը
համակարգերու
համակարգերուն
համակարգէ
համակարգէն
համակարգը
համակարգի
համակարգին
համակարգիչ
համակարգիչը
համակարգիչի
համակարգիչին
համակարգիչներ
համակարգիչները
համակարգիչներու
համակարգն
համակարգող
համակարգով
համակարգուած
համակարգում
համակարգչային
համակեդրոնացման
համակիր
համակիրներու
համակողմանի
համակուած
համակրանք
համակրանքը
համակրելի
համակցուած
համահայկական
համահավաք
համահաւաք
համահեղինակ
համահեղինակութեամբ
համահիմնադիր
համահունչ
համաձայն
համաձայնագիր
համաձայնագիրը
համաձայնագիրի
համաձայնագիրին
համաձայնագիրով
համաձայնագրի
համաձայնագրով
համաձայնած
համաձայնեցան
համաձայնեցաւ
համաձայնի
համաձայնին
համաձայնութեամբ
համաձայնութեան
համաձայնութիւն
համաձայնութիւնը
համաձուլուածքներ
համաձուլուածքներու
համաճարակ
համաճարակը
համաճարակի
համաճարակին
համաճարակները
համաճարակներու
համամ
համամասնական
համամարդկային
համամիութենական
համամիտ
համայի
համային
համայն
համայնական
համայնապատկեր
համայնապատկերը
համայնավար
համայնավարական
համայնավարները
համայնավարութեան
համայնք
համայնքային
համայնքէն
համայնքը
համայնքի
համայնքին
համայնքն
համայնքներ
համայնքներէն
համայնքները
համայնքներու
համայնքներուն
համայունական
համանախագահներուն
համանման
համանուագ
համանուագային
համանուագը
համանուն
համաշխարհային
համաչափ
համաչափութեան
համաչափութիւնը
համապատասխան
համապատասխանաբար
համապատասխանեն
համապատասխաներ
համապատասխանէ
համապատասխանէր
համապատասխանող
համապատկեր
համապարփակ
համառոտ
համառուսական
համառուսաստանեան
համառօտ
համասեռ
համասի
համաստեղ
համաստեղութեան
համաստեղութիւն
համաստեղութիւնը
համաստեղութիւններէն
համասփիւռքեան
համատարած
համատեղ
համատեղութեան
համար
համարած
համարեայ
համարել
համարելով
համարեն
համարեր
համարեց
համարէ
համարէին
համարէր
համարը
համարժէք
համարի
համարին
համարձակ
համարձակօրէն
համարներ
համարները
համարով
համարուած
համարուեր
համարուեցաւ
համարուէին
համարուէր
համարուի
համարուիլ
համարուին
համարուիր
համարում
համարուող
համարվում
համացանց
համացանցային
համացանցը
համացանցի
համացանցին
համաքրիստոնէական
համբարեան
համբարձման
համբարձում
համբարձումեան
համբարձումեանի
համբարձումի
համբարձումյան
համբաւ
համբաւաւոր
համբաւը
համբաւի
համբաւին
համբերատար
համբերութեամբ
համբիկ
համբոյր
համեղ
համեմատ
համեմատաբար
համեմատած
համեմատական
համեմատել
համեմատելով
համեմատութեամբ
համեմատութեան
համեմատութիւն
համեմատութիւնը
համեմներ
համեմուած
համեմունքներ
համեստ
համերաշխ
համերաշխութեան
համերաշխութիւն
համերաշխութիւնը
համերգ
համերգային
համերգասրահին
համերգը
համերգի
համերգին
համերգներ
համերգներէն
համերգները
համերգներով
համերգներու
համերգներուն
համերգով
համը
համընդհանուր
համընթաց
համընկնի
համընկնին
համի
համիլթըն
համիլթընի
համիտ
համիտեան
համիտի
համլեթ
համլետ
համլէթ
համոզել
համոզելու
համոզեն
համոզեց
համոզէ
համոզիչ
համոզուած
համոզումը
համոզումներու
համոզումով
համոյթ
համոյթը
համոյթի
համոյթին
համով
համուտ
համուտը
համուտի
համպուրկ
համպուրկի
համր
համրա
համրիչի
համօ
հայ
հայաբնակ
հայագէտ
հայագէտներ
հայագիտական
հայագիտութեան
հայագիտութիւնը
հայագիր
հայազգի
հայալեզու
հայախօս
հայակական
հայահոծ
հայանպաստ
հայաշատ
հայաշէն
հայապահպանման
հայապահպանութեան
հայապատում
հայասա
հայասէր
հայաստան
հայաստանեայց
հայաստանեան
հայաստանեաց
հայաստանէն
հայաստանը
հայաստանի
հայաստանին
հայաստանից
հայաստանն
հայաստանում
հայաստանցի
հայատառ
հայացքները
հայդուկ
հայդուկային
հայդուկապետ
հայեացք
հայեացքը
հայեացքները
հայեացքներու
հայեացքներուն
հայեացքով
հայելի
հայելիի
հայելին
հայեր
հայերեն
հայերէ
հայերէն
հայերէնէ
հայերէնէն
հայերէնը
հայերէնի
հայերէնին
հայերէնն
հայերէնով
հայերը
հայերի
հայերն
հայերով
հայերու
հայերուն
հայեցակարգը
հայեցի
հայը
հայթայթել
հայթայթելու
հայթայթեն
հայթայթէ
հայի
հայկ
հայկազ
հայկազեան
հայկազն
հայկազուն
հայկակ
հայկական
հայկանոյշ
հայկանուշ
հայկաշէն
հայկեան
հայկը
հայկի
հայկին
հայկուհի
հայկունի
հայն
հայնրիխ
հայորդիներ
հայորդիները
հայորդիներու
հայոց
հայու
հայութեան
հայութիւն
հայութիւնը
հայուհեաց
հայուհի
հայուհին
հայուն
հայպետհրատ
հայտ
հայտար
հայտարարեց
հայտարարուեցաւ
հայտելպըրկի
հայտըն
հայտնի
հայր
հայրական
հայրապետ
հայրապետական
հայրապետեան
հայրապետեանը
հայրապետը
հայրապետի
հայրապետին
հայրապետներուն
հայրապետութեան
հայրենագիտական
հայրենադարձ
հայրենադարձած
հայրենադարձութեան
հայրենական
հայրենակից
հայրենակիցներ
հայրենակիցները
հայրենակիցներու
հայրենակիցներուն
հայրենակցական
հայրենասէր
հայրենասիրական
հայրենասիրութեան
հայրենասիրութիւն
[...]
