!
"
#
##0
##1
##10
##11
##12
##13
##14
##15
##16
##17
##18
##19
##2
##20
##21
##22
##23
##24
##25
##26
##27
##28
##29
##3
##30
##31
##32
##33
##34
##35
##36
##37
##38
##39
##4
##40
##41
##42
##43
##44
##45
##46
##47
##48
##49
##5
##50
##51
##52
##53
##54
##55
##56
##57
##58
##59
##6
##60
##61
##62
##63
##64
##65
##66
##67
##68
##69
##7
##70
##71
##72
##73
##74
##75
##76
##77
##78
##79
##8
##80
##81
##82
##83
##84
##85
##86
##87
##88
##89
##9
##90
##91
##92
##93
##94
##95
##96
##97
##98
##99
$
%
&
'
(
)
*
+
,
-
.
/
0
00
000
0000
000000
000080
001
002
003
004
005
006
007
008
008000
01
010
011
012
015
017
018
02
022
03
04
05
06
07
08
09
1
10
100
1000
10000
1001
1003
101
102
1020
1021
1024
1025
103
1030
1031
1033
1034
104
1044
1045
105
1050
1054
106
1064
1065
1066
107
1071
108
1080
1081
109
1095
1096
1097
1098
1099
11
110
1100
1101
1104
1105
111
1113
1116
1118
112
1123
1124
1125
113
1137
1138
114
1144
1145
1147
115
1150
116
1160
1166
117
1170
1173
1178
118
1182
1184
1185
1187
1189
119
1190
1191
1192
1193
1198
12
120
1200
1201
1202
1203
1204
1206
121
1210
1211
1212
1213
1214
1215
1216
1217
1218
1219
122
1220
1221
1224
1225
1226
1227
123
1230
1235
1236
1237
1238
124
1240
1241
1248
125
1250
1251
1252
1254
1258
126
1260
1261
1262
1266
1267
127
1270
1271
1272
1273
1274
1279
128
1280
1281
1284
1286
1289
129
1290
1291
1292
1293
1295
1299
13
130
1300
1303
1304
1307
1309
131
1310
1311
1319
132
133
134
1340
1341
1346
135
1350
1359
136
1360
1368
137
1370
1371
1375
138
1380
1381
1386
1387
1388
139
1393
14
140
1400
1402
141
1410
1417
1419
142
1423
1428
143
1430
1433
144
1441
1444
1446
1448
145
1450
1452
1453
1458
146
1460
1461
1462
1469
147
1470
1478
148
1480
1483
1489
149
1490
1492
1496
1499
15
150
1500
1501
1502
1503
1505
1507
151
1510
1512
1513
1514
1515
1516
1517
1519
152
1520
1522
1523
1524
1525
1526
1527
153
1532
1534
1536
154
1540
1541
1543
1545
1546
1547
155
1550
1555
1559
156
1560
1564
1565
1569
157
1570
1571
1573
1575
1576
158
1580
1581
1582
1583
1584
1585
1586
1588
1589
159
1590
15919
1592
1593
1594
1595
1596
1598
1599
16
160
1600
1601
1603
1604
1605
1606
1607
1608
1609
161
1610
1611
1612
1613
1614
1615
1616
1618
1619
162
1620
1621
1622
1623
1625
1626
1627
1628
163
1630
1631
1632
1633
1634
1635
1636
1637
1638
1639
164
1640
1641
1642
1643
1644
1645
1647
1648
1649
165
1650
1651
1652
1653
1654
1655
1656
1657
1658
1659
166
1660
1661
1662
1663
1664
1665
1666
1667
1668
1669
167
1670
1671
1672
1674
1675
1676
1677
1678
1679
168
1680
1681
1682
1683
1684
1686
1687
1688
1689
169
1690
1691
1693
1694
1695
1697
1698
1699
17
170
1700
1701
1702
1703
1704
1705
1706
1707
1708
1709
171
1710
1711
1712
1713
1714
1715
1716
1717
1718
1719
172
1720
1721
1722
1723
1724
1725
1726
1727
1728
1729
173
1730
1731
1732
1733
1734
1735
1736
1737
1739
174
1740
1741
1742
1744
1745
1746
1747
1749
175
1750
1751
1752
1753
1754
1755
1756
1757
1758
1759
176
1760
1761
1762
1763
1764
1766
1767
1768
1769
177
1770
1771
1772
1773
1774
1775
1776
1777
1778
1779
178
1780
1781
1782
1783
1784
1785
1786
1787
1788
1789
179
1790
1791
1792
1793
1794
1795
1796
1797
1798
1799
18
180
1800
1801
1802
1803
1804
1805
1806
1807
1808
1809
181
1810
1811
1812
1813
1814
1815
1816
1817
1818
1819
182
1820
1821
1822
1823
1824
1825
1826
1827
1828
1829
183
1830
1831
1832
1833
1834
1835
1836
1837
1838
1839
184
1840
1841
1842
1843
1844
1845
1846
1847
1848
1849
185
1850
1851
1852
1853
1854
1855
1856
1857
1858
1859
186
1860
1861
1862
1863
1864
1865
1866
1867
1868
1869
187
1870
1871
1872
1873
1874
1875
1876
1877
1878
1879
188
1880
1881
1882
1883
1884
1885
1886
1887
1888
1889
189
1890
1891
1892
1893
1894
1895
1896
1897
1898
1899
19
190
1900
1901
1902
1903
1904
1905
1906
1907
1908
1909
191
1910
1911
1912
1913
1914
1915
1916
1917
1918
1919
192
1920
1921
1922
1923
1924
1925
1926
1927
1928
1929
193
1930
1931
1932
1933
1934
1935
1936
1937
1938
1939
194
1940
1941
1942
1943
1944
1945
1946
1947
1948
1949
195
1950
1951
1952
1953
1954
1955
1956
1957
1958
1959
196
1960
1961
1962
1963
1964
1965
1966
1967
1968
1969
197
1970
1971
1972
1973
1974
1975
1976
1977
1978
1979
198
1980
1981
1982
1983
1984
1985
1986
1987
1988
1989
199
1990
1991
1992
1993
1994
1995
1996
1997
1998
1999
2
20
200
2000
20000
2001
2002
2003
2004
2005
2006
2007
2008
2009
201
2010
2011
2012
2013
2014
2015
2016
2017
2018
2019
202
2020
2021
2022
2023
2025
203
2030
204
205
2050
206
207
208
209
21
210
2100
211
212
213
214
215
216
217
218
219
22
220
2200
221
222
223
224
225
226
227
228
229
23
230
2300
231
232
233
234
235
236
237
238
239
24
240
2400
241
242
243
244
245
246
247
248
249
25
250
2500
251
252
2520
253
254
255
256
257
258
259
26
260
2600
261
262
263
264
265
266
267
268
269
27
270
2700
271
272
273
274
275
2750
276
277
278
279
28
280
2800
281
282
283
284
285
286
287
288
289
29
290
291
292
293
294
295
296
297
298
299
3
30
300
3000
30000
301
302
303
304
305
306
307
308
309
31
310
311
312
313
314
315
316
317
318
319
32
320
3200
321
322
323
324
325
326
327
328
329
33
330
3300
331
332
333
334
335
336
337
338
339
34
340
3400
341
342
343
344
345
346
347
348
349
35
350
3500
351
352
353
354
355
356
357
358
359
36
360
361
362
363
364
365
366
367
368
369
37
370
371
372
373
374
375
376
377
378
379
38
380
381
382
383
384
385
386
387
388
389
39
390
391
392
393
394
395
396
397
398
399
4
40
400
4000
401
402
403
404
405
406
407
408
409
41
410
411
412
413
414
415
416
417
418
419
42
420
421
422
423
424
425
426
427
428
429
43
430
431
432
433
434
435
436
438
439
44
440
441
442
443
444
445
446
447
448
449
45
450
4500
451
452
453
454
455
456
457
458
459
46
460
461
462
463
464
467
468
47
470
471
472
474
475
476
477
478
479
48
480
481
482
483
484
486
487
488
49
490
491
492
493
494
495
496
497
498
499
5
50
500
5000
502
503
504
506
508
51
510
512
514
515
516
518
52
520
521
522
524
525
526
527
528
529
53
530
531
532
533
534
535
536
537
538
539
54
540
541
542
544
545
546
547
548
549
55
550
5500
551
552
553
554
557
558
559
56
560
561
562
563
564
565
566
567
568
569
57
570
571
572
573
575
576
577
578
579
58
580
581
582
583
585
586
588
589
59
590
591
592
593
598
599
6
60
600
6000
602
604
605
607
608
609
61
610
612
614
615
616
618
62
620
622
623
624
625
626
627
628
629
63
630
632
633
634
636
637
638
639
64
640
641
642
643
644
645
648
65
650
651
652
653
654
656
657
659
66
660
661
663
664
666
668
67
670
672
673
675
676
678
679
68
680
681
682
684
685
688
69
691
7
70
700
7000
704
705
709
71
710
711
712
713
714
716
7174
718
719
72
720
722
725
726
728
73
730
732
735
736
737
74
740
741
744
747
75
750
7500
754
756
76
760
762
764
77
775
776
777
78
780
781
782
784
786
79
790
792
8
80
800
8000
804
809
81
810
811
813
82
828
83
837
84
840
842
843
845
85
850
851
852
853
855
856
859
86
860
8601
862
867
869
87
872
879
88
880
885
89
890
9
90
900
9000
902
904
906
908
909
91
910
911
912
914
92
920
9223372036854775808
925
926
928
929
93
930
936
94
940
941
945
95
950
953
96
960
961
962
963
965
966
967
969
97
972
973
975
976
977
978
98
980
987
989
99
990
9939
996
997
999
99930
99941
:
;
<
=
>
?
@
\
^
_
`
a
aa
aaa
aachen
ab
aba
abbey
abbr
abc
abo
aboriginal
about
above
abraham
abs
absolute
abu
ac
academic
academy
accepted
access
accessdate
accessed
according
account
acemoglu
achievement
acid
acma
acropolis
across
act
actes
acting
action
active
activity
actm
actor
actors
actress
actualdateboundariesproperties
acute
ad
adam
adams
add
addclass
added
additional
adds
adele
adidas
adj
adjust
administration
advanced
adventure
adventures
ae
aegean
aegina
aerial
af
affair
affairs
afghanistan
africa
african
afrique
after
ag
again
against
agbu
age
agean
agency
ages
agia
agios
ai
aid
aids
aime
ain
air
airbus
aircraft
airexpo
airlines
airport
ais
aise
aivazovsky
ak
aka
akhtala
akhtamar
akn
ako
akropolis
akrotiri
aksel
al
ala
alabaster
alan
alarco
alaska
alba
albanian
albert
album
albums
aleppo
alex
alexander
alexandra
alexandria
alfred
ali
aliagm
alias
aliases
alice
align
alive
aljazeera
all
alle
allen
alley
alliance
allmusic
allow
allowed
allows
almond
alone
along
alpha
alphabet
alphonse
already
also
alt
altar
alter
alternative
altstadt
always
am
amal
amants
amazon
ambox
ame
amedeo
america
american
americana
amh
amman
amnesty
among
amor
amore
amorgos
amour
amphora
amsterdam
amy
an
ana
anafi
analysis
ananas
anatolia
anatomy
anchor
ancient
and
anders
anderson
andorra
andre
andrea
andreas
andrew
andros
andrzej
andy
anemia
angel
angela
angeles
angels
anglais
angle
ani
animal
animation
anjar
ann
anna
annales
anne
annemarie
anniversary
annual
ano
another
ans
antelias
anthology
anthony
anti
antikythera
antiparos
antiquite
antiquities
antiquity
antoine
antonio
anushka
anvers
any
anything
ao
ap
aphrodite
apo
apollo
appear
append
appendimpl
appendsnaks
apple
appropriate
approx
apr
apre
april
ar
ara
arab
arabia
arabian
arabic
aram
aramaic
ararat
araratov
arc
arcadia
arch
archaeological
archaeology
archaic
archie
architectural
architecture
archive
archived
archivedate
archives
archiveurl
are
area
arg
argentina
argkeys
args
argscfg
argsi
argsk
argstable
argsv
argument
arguments
aristotelis
ark
arles
arm
armag
armavir
arme
armen
armena
armeni
armenia
armenian
armenians
armeniapedia
armeniasputnik
armenie
armenien
armeniens
armenische
armenological
armenpress
armradio
arms
army
arnold
around
arpine
array
ars
art
arte
arthur
article
articles
articleshow
artifacts
artist
artists
arts
artsakh
arxiv
as
asbarez
asce
ashes
asia
asian
asin
asj
ask
asp
aspx
assembly
assign
associated
association
associations
assume
asv
at
atene
athe
athen
athena
athens
athina
atlantic
atlas
attack
attempt
attic
attica
atticus
attr
attribs
attribute
au
aua
audio
auf
aug
august
auguste
augustus
aurora
aus
austin
australia
australian
austria
auteur
author
authority
authorlink
authormask
authors
auto
autoconfirmed
automatic
automatically
automobile
autoreview
autumn
aux
av
available
avant
ave
avec
avenue
aviation
avoid
avproduction
award
awards
away
az
azerbaijan
azerbaijani
azkaban
aznavour
azniv
aztagdaily
azur
b
ba
baa
baalbek
baby
babylon
bachelor
back
background
bacterial
bad
bafta
baghdadi
baker
bakr
baku
bakunts
bal
balance
balkan
ball
ballet
ban
band
banda
bang
bank
banner
bannertemplate
baptiste
bar
barbara
barcelona
bare
barnes
bas
base
based
basel
basestyle
basic
basilica
basket
basketball
bass
bataille
bathing
batman
battalion
battle
battles
bay
bb
bbc
bc
bce
bd
be
beach
beat
beatles
beautified
beautiful
beauty
beaux
bec
became
because
been
beer
before
begin
beginning
behind
bei
being
beirut
bel
belgioioso
belgiojoso
belgium
believe
bell
below
ben
benjamin
benz
ber
berberian
berkeley
berlin
bernard
bernhardt
best
bet
beta
better
betty
between
bey
beyond
bf
bg
bi
bibcode
bible
bibliography
biblioteca
bibliothe
bibliotheca
biennale
big
bile
bilirubin
bill
billboard
billie
bin
bio
biographical
biographies
biography
biology
bionicle
bir
bird
birds
birth
birthday
bis
bjni
black
blackmore
blackwell
blake
blame
blank
blend
bleu
block
blocks
blog
blogspot
blood
bloomberg
bloomsbury
blue
blues
blurb
blurred
bm
bnf
bo
board
bob
bocelli
body
boeing
boghigian
bohe
bold
bollywood
bollywoodhungama
bon
bones
boogie
book
books
bookseries
boolean
border
born
bosra
boston
bot
both
bottom
boulevard
boundaries
bourtzi
bowl
box
boxofficeindia
boy
boys
br
bracket
bracketclose
bracketopen
brackets
brain
branch
brazil
bread
break
breaking
breakthrough
brian
bridge
brief
brill
brit
britain
britannica
british
broadcasting
broadway
broken
bronze
brooklyn
bros
brother
brothers
brown
bru
bruce
bruno
brussels
bs
bu
bucharest
budapest
buenos
bug
build
builder
building
buildings
built
bulgaria
bull
bulletin
burbank
burton
bus
bush
business
bust
but
butterfly
button
bw
by
byblos
byron
byte
byzantine
byzantium
c
ca
cache
cafe
cairo
calcium
caldera
california
call
called
calling
cambridge
cameroon
camp
campaign
campbell
campo
can
canada
canadian
canal
canals
cannot
canonical
canto
canvas
cap
cape
capital
capitalid
captain
caption
car
cardinal
care
career
caribbean
carl
carlo
carlos
carol
carolina
carpenter
carpet
carpets
carthage
cartography
casa
case
cases
casino
cast
castle
cat
catalogue
catching
catedral
categories
categorise
category
categoryauthoritycontrol
categoryexternallink
cathe
cathedral
catherine
catholic
catholicosate
cathy
cats
caucasian
caucasie
caucasus
cause
cave
cb
cbs
cc
ccm
cd
cdot
ce
celebrities
celebrity
cell
cello
cells
cembre
cemetery
census
cent
centaurea
center
central
centre
centro
centuries
century
ceramics
certain
cf
cfg
cgi
ch
cha
chair
chalkida
challenge
chamber
champions
championship
championships
chance
change
changed
changes
changing
channel
chanson
chansons
chant
chapel
chapter
chapterformat
chapterurl
char
character
characters
charents
chariot
chariots
charles
charlie
chart
charter
charts
che
check
checked
checks
checktype
chemistry
chemotherapy
cher
chevalier
chi
chicago
chief
child
childhood
children
chima
chin
china
chinantec
chinese
chocolate
choice
choir
chora
choral
choreography
chorus
chouldjian
chr
chre
christ
christchurch
christian
christianity
christians
christina
christmas
christopher
christophor
chronic
chronicle
chronicles
church
churches
ci
cia
cilicia
cine
cinema
circle
circuit
circumstances
circus
cit
citadel
citation
citationclass
citations
cite
cited
citeref
cities
citing
citta
city
civil
civilization
cjk
ck
cke
cl
claim
claims
claire
clark
class
classes
classic
classical
classics
claude
cle
clean
clear
cleveland
climate
clock
close
clouds
club
cm
cmbox
cms
cn
cnn
co
coast
coat
coauthors
coca
cochlea
code
codepoint
codes
coffee
coin
coins
cola
cold
cole
coll
collaboration
collapsible
collected
collection
collections
collective
college
colon
color
colorado
colors
colour
colspan
columbia
columbus
column
columns
com
coma
combatants
combination
come
comedy
comes
comic
comics
coming
comma
commands
commas
comme
comment
commentary
commercial
commission
committee
common
commons
commonwealth
communication
communities
community
compact
companion
company
comparative
compatibility
competition
complete
complex
composed
composite
composition
computer
con
concat
concert
concerto
concise
condition
conditions
conference
config
configuration
confirmed
conflict
congenital
congo
congress
conjunction
connecticut
conquest
conservative
constantine
constantinople
construction
consulte
contain
containing
contains
contemporary
content
contentargs
contents
contest
context
contribution
control
convention
convert
converted
cook
cooper
coord
coordinate
coordinates
coordinatespec
coords
copenhagen
copy
corbin
cordoba
core
corinth
corinthian
coronavirus
corporation
corps
corpus
correct
correspondence
cortisone
cos
costa
could
council
count
counter
countries
country
county
course
court
cov
cover
covid
cox
cp
cpa
crate
cre
cream
create
creation
creative
creole
crete
crime
criminal
crisis
cristina
critical
critics
croisades
crop
cropped
cross
crossroads
crown
crusade
crusades
cry
crystal
cs
css
csstext
ct
cu
cultural
culture
cultures
cup
cura
curios
current
currententity
currently
currenttitle
custer
cvt
cw
cyclades
cycladic
cyprus
cyrillic
cyrus
czech
cœur
d
da
dag
dagi
daily
dalida
dall
dame
dan
dance
dangerous
daniel
dans
dar
dark
darling
daron
das
dash
dashes
data
database
dataresourceid
dataset
datatype
datavalue
date
datepart
dates
daughter
david
davies
davis
davison
davit
day
days
db
dc
dd
de
dead
deadline
deadurl
deal
death
deathly
debate
debug
dec
decade
december
decimal
decimals
declaration
decline
deco
decoration
decorative
dedicated
deep
default
defaults
defence
defense
defined
definition
deg
degli
degree
degrees
dei
del
delacroix
delete
dell
della
delle
delm
delos
delta
dem
dementor
demirchyan
demo
democracy
democratic
demospace
den
denial
denmark
denominator
dep
department
depend
depending
depicting
deprecated
depth
der
derenik
des
description
desert
design
destiny
destruction
detail
details
detect
detected
determine
detroit
deutsche
deutschen
deux
development
df
dha
di
dia
diakofto
dialogue
diana
diary
dias
diaspora
dictionary
dictionaryid
dictionnaire
did
die
diego
dies
dieu
diff
different
digit
digital
digits
dil
dilijan
din
dio
dion
dir
direct
direction
directly
director
dirty
disaster
discovery
discuss
disease
diseases
dish
disney
disp
display
displayed
displays
dispute
distance
district
diteur
dition
ditions
div
divergent
division
diyarbakir
diyarbakır
dj
djenne
dl
dms
dna
dnb
do
doc
doctitle
doctor
documentary
documentation
documents
does
doesn
dog
dogon
dogs
doi
dolceacqua
dom
domain
dome
domingo
domino
don
donald
done
donna
donne
door
dos
dot
dots
double
douglas
down
download
dp
dq
dr
dragon
dragons
drale
dram
drama
dream
dreams
drum
drums
dsc
dt
dts
du
duct
due
duke
dulhania
duman
dumbledore
duplicate
dur
during
dutch
duty
dvd
dvin
dvor
dx
dynamics
dynasty
dz
e
each
ear
earliest
early
earth
earthquake
east
eastern
easy
eater
eb
ec
echmiadzin
echo
ecole
economic
economics
economist
economy
ed
edema
edgar
edit
edited
editing
editintro
edition
editions
editor
editorlink
editormask
editors
eds
edu
education
educational
edward
edwin
ee
een
ef
effect
effects
eg
egypt
egyptian
ei
eight
eighth
ein
eine
einer
eines
einstein
either
ek
el
electric
electronic
electronics
element
elements
eleonorae
elizabeth
elle
ellen
else
elseif
em
embargo
emily
emmanuel
emmy
empire
empires
empty
en
encode
encyclopaedia
encyclope
encyclopedia
encyclopædia
end
energy
enfant
enfants
eng
engineering
england
english
enough
enrico
enrique
ensemble
ensure
entertainment
entities
entity
entityid
entrance
entre
entriestolookupcategory
entry
env
envfuncs
environment
environmental
enzymes
ep
epa
epic
epilepsy
episode
epma
equals
equivalent
er
era
eretria
erevan
eric
ermeni
ernest
ernst
err
error
errors
erzurum
es
esc
escape
esophageal
esp
espan
espn
essai
essay
essays
est
estados
et
etal
etc
ethics
ethnic
ethnographic
etudes
eu
euge
euripides
euro
euronews
europa
europe
european
eurostat
ev
evangelical
evans
eve
even
evening
evenodd
event
events
ever
every
everything
evidence
evolution
ex
example
examples
exchange
exclude
exclusive
exhibition
exist
existing
exists
expandspecialsqualifiers
expandtemplate
expected
experience
experiment
experimental
expiry
explanation
explorer
exponent
exposition
express
expression
extended
extension
external
extra
extract
eye
eyes
eylu
ez
f
fa
face
facebook
fact
factbook
facto
factor
factory
facts
fails
failure
fair
fairy
fait
faith
falco
falke
fall
falls
false
fame
family
famous
fantasy
fao
far
faraday
fashion
fast
father
fc
fda
fe
feast
feat
feature
featured
features
featuring
feb
february
federation
feel
feet
fellowship
female
feminism
femme
ferdinand
fernandez
ferrari
festival
fever
ff
ffd
ffff
ffffff
fg
fi
fia
fiction
ficus
field
fields
fifa
fifpro
fifth
fight
fighter
fighting
figure
figures
figurine
figurines
file
filepath
files
filing
fille
filles
fillmore
film
filmfare
films
filter
final
financial
find
finds
fine
fire
first
firstn
fish
five
fix
flag
flags
flammarion
fleurs
flickr
flight
flo
float
floor
flora
florence
flower
flowers
floyd
flu
flying
fm
fmbox
fmt
fo
focus
folegandros
folk
folklore
following
follows
fondation
font
fontsize
foo
food
fooentity
fool
foot
football
footnote
for
forbes
force
forces
foreign
forest
forever
form
format
formatdate
formatnum
formatrefs
formats
formatsnak
formatstatementdefault
formatted
formattedstatement
formatter
formatting
former
forms
formula
fort
fortress
fortune
forum
forward
foto
found
foundation
fountain
four
fourteenth
fourth
fox
fr
fra
frac
fraction
fragment
fragments
frame
frameless
franc
france
francesco
francis
francisco
franco
francophone
francophonie
frank
frankfurt
frankish
franz
fre
fred
free
freedom
freeman
french
fresco
friday
friedrich
friends
friendship
friendships
frieze
from
front
fruit
fu
full
fullname
fullurl
fully
func
function
functionality
functions
fund
funerary
future
g
ga
gabriel
gabrielle
gaga
gai
galaxy
galen
gallery
gallimard
galway
galy
game
games
garde
garden
gardens
garsoi
gary
gastro
gate
gates
gauguin
gavit
gay
gayane
gazette
gbe
gdan
ge
geghard
gen
gende
genealogy
general
generate
generated
generates
generation
genesis
genetic
genocide
gentleman
geoffrey
geography
geometric
georg
george
georges
georgia
georgian
georgios
germain
german
germany
geschichte
get
getargs
getcontentlanguage
getcurrentframe
getcurrenttitle
getentity
getentityobject
getenvironment
getexpandedmessage
getlabel
getlabelwithlink
getlabelwithoutlink
getopt
getparametervalue
getparent
gets
getsingle
gettarget
gettitle
ghadames
ghazal
ghosts
ghz
giant
gif
gift
gilbert
gillan
giorgio
giovanni
giragos
girl
girls
giuseppe
give
given
gives
giwi
gje
gland
glands
glargs
glass
glendale
glenn
glise
global
globe
gloria
glory
glover
glucose
glycogen
gnu
go
god
goddess
goes
goethe
gogh
going
gold
golden
gomidas
gone
gonna
good
goodbye
google
gordon
gosh
gospel
got
gothic
gov
government
gp
gr
graduate
graham
grammar
grammy
gran
grand
grande
grant
graphics
gras
gratitude
grave
gravity
gray
grc
gre
great
greater
greatest
greatrex
greco
greece
greek
green
greenpeace
gregory
grey
griffin
grigor
grigoryan
ground
group
groups
grouse
grousset
grove
growing
growth
gryffindor
gsub
gu
guardian
guerre
guide
guild
guinea
gulbenkian
gulf
gunter
gurekian
guyane
gypte
gysis
gyumri
h
ha
haaretz
had
hafen
hagia
hagop
hai
haig
haigazian
hakob
halemba
half
hall
hallows
hamburg
hamilton
han
hand
handbook
handle
handler
hands
hangul
hannah
hans
happiness
happy
harbour
hard
harper
harris
harry
harvard
has
hask
hassan
hat
hate
hatnote
haus
hav
have
haven
having
hay
hb
hbo
hbv
hcv
hd
hdl
hdr
he
head
header
heading
heal
healing
health
heart
hearts
heat
heaven
hebrew
hegemony
heidelberg
height
heights
heinrich
held
helen
hell
helladic
hellenic
hellenistic
hello
help
helper
henri
henry
hepatitis
her
heraklion
herald
herbert
here
heritage
hermann
hermes
hero
heroes
herpes
het
hewsen
hex
hezbollah
hg
hi
hidden
hide
hier
high
higher
highest
highland
highway
hill
hills
him
hindi
hindustantimes
hip
hirst
his
histoire
historia
historic
historical
historique
history
historyofarmenia
hit
hits
hiv
hl
hlist
hmong
hnders
hno
ho
hogwarts
hold
holding
holds
holiday
holland
hollywood
holocaust
holy
home
homen
homepage
homer
homme
homo
honor
hop
hope
horcrux
horizontal
hormone
horn
horror
horse
hospital
host
hot
hotel
hots
hour
hours
house
houses
housing
hovannisian
hovhannes
how
howard
howell
however
hr
hrsg
htm
html
htmlhttps
http
https
hu
hudson
hughes
hugo
human
humanity
hunger
hunt
hunting
hy
hyblaea
hybrid
hydra
hyphen
hyphenated
hyphens
hyw
i
iaaf
ian
iana
ibid
ibm
ibn
ibrahim
ic
ice
ich
icon
id
idea
ideas
identifier
identity
ideograph
idol
ie
ietf
if
iglesia
iglesias
ignore
ignored
ii
iii
il
iliad
illustrated
illya
im
image
imageddictionarybrowser
imagediv
imageleft
imageright
images
imbox
imdb
img
immunity
impact
imperial
implements
implied
important
impression
in
inc
inches
include
included
includes
including
increment
incubation
indef
independence
independent
index
india
indian
indiana
indiatimes
indiatoday
indic
individual
indo
indonesia
induction
industry
ine
infinity
influenza
info
infobox
information
inherit
initial
initials
inline
inner
inout
input
inscription
insert
inserted
inside
instagram
instead
institut
institute
institution
instituto
instrumental
int
integer
intel
intelligence
intended
interaction
interest
interior
internal
international
internationale
internet
interview
interviews
into
intro
introduction
invalid
invariant
inventor
inversed
invert
invocation
invoke
io
ios
ipa
ipairs
iphone
ipod
iq
ir
ira
irakleia
iran
iranian
iranica
iraq
ireland
irenyan
irish
iron
is
isbn
isempty
isfaha
isis
islam
islamic
island
islands
islong
isn
isnotempty
iso
isola
israel
iss
issn
issue
issues
istanbul
it
italia
italian
italiana
italic
italics
italy
item
itemid
items
its
itunes
iv
ivan
ivanka
ivory
ix
j
ja
jab
jack
jackson
jacob
jacqueline
jacques
jam
jamaica
james
jan
jane
january
janvier
japan
japanese
jar
jardin
jason
jaundice
jay
jazz
jd
je
jean
jeanne
jennifer
jersey
jerusalem
jessica
jesus
jet
jeune
jeunes
jeunesse
jewish
jews
jfm
jim
jimmy
jo
jobs
joe
johann
johannes
john
johnny
johnson
join
joins
joint
jon
jonathan
jones
jordan
jose
joseph
jour
journal
journalism
journey
joy
jpeg
jpg
jr
js
jsp
jstor
ju
juan
judwaa
jug
jules
julia
julian
july
jump
jun
june
junior
jupiter
jusqu
just
justice
justin
k
ka
kabhi
kafafi
kai
kalavrita
kamares
kan
kara
karabakh
karen
karer
kareyac
karl
kastro
katapola
kathmandu
kato
katy
kb
ke
kecharis
keep
kennedy
kenneth
kenya
keros
keukenhof
kevin
kevork
key
keys
khachkar
khan
khoren
ki
kid
kidney
kids
kilerjian
kill
killed
killing
kim
kind
king
kingdom
kings
kino
kirche
kirk
kiss
kitkat
kiureghian
kk
km
knew
knight
knights
knossos
know
knowledge
known
ko
komitas
kong
kore
korea
korean
kos
kosovo
koufonisi
kouros
kozman
kr
krikor
ku
kundera
kunst
kv
kythnos
l
la
label
labels
labor
laboratory
labyrinth
ladies
lady
lake
lampard
land
landscape
lane
lang
langcode
language
languages
langue
large
larousse
las
last
lastauthoramp
lastn
lat
late
later
latest
latin
latitude
laurence
lausanne
law
lawrence
lay
laydate
layer
layne
laysource
lb
lbc
lbci
lccn
le
lead
leader
leading
league
least
leave
lebanese
lebanon
leben
lecture
lee
left
legacy
legal
legend
legends
lego
leiden
leila
leipzig
lemerre
len
length
leningrad
leo
leonardo
lepsius
leros
les
let
letter
letters
leukemia
levant
level
levon
lewis
lexikon
lhs
li
liban
liberal
liberation
liberian
liberte
liberty
libraries
library
libraryutil
lie
lien
lietuvos
lieu
life
lifetime
lift
light
ligne
like
lilium
limestone
limit
limited
lincoln
lindos
line
linear
linenum
lines
linguistic
link
linkbody
linked
linkin
links
linux
lion
lions
lire
lisa
lisbon
list
listed
listnum
lists
liststyle
listtype
lit
literary
literature
litte
little
live
liver
liverpool
lives
living
livre
lix
ll
ller
lmen
ln
lo
load
loaddata
loc
local
location
log
logo
loi
lon
london
lonely
long
longitude
longrightarrow
look
looking
looks
lookup
loop
lord
los
loss
lost
lotus
louis
louise
louvre
love
loves
loving
low
lower
lowercase
lt
ltd
lu
lua
lucky
ludwig
luigi
luis
luisa
luke
lum
lumineers
luna
luxembourg
lymphoma
lytras
m
ma
mac
macedonia
macedonian
machine
macintosh
macintyre
macmillan
macro
mad
madagascar
madame
made
madison
madrid
mag
magazine
magic
mahal
mai
mail
main
mainsnak
maint
maintenance
maison
major
make
makeinvokefunc
makes
makeurllink
makewikilink
making
malagasy
malay
male
mali
mama
mambwe
mamma
man
management
manchester
mandolin
manhattan
mani
manual
manuel
manuscript
manuscripts
manutd
many
map
mappings
maps
mar
marble
marc
marcel
march
marco
marcus
mare
margaret
margin
marguments
margwelaschwili
mari
maria
marie
marina
marine
maritime
mark
marker
market
marksize
markup
mars
marseille
martha
martin
marvel
mary
mashtots
mask
mass
massachusetts
massacres
master
masters
match
matches
matenadaran
material
math
mathbf
mathcal
mathematical
mathrm
mathsf
matrix
matt
matter
matthew
maurice
max
maximum
may
mbox
mc
mcdonald
me
meaning
means
measles
mechanics
mechanism
medal
media
mediawiki
medical
medicine
medieval
mediterranean
meet
meeting
megamix
megara
melo
melody
member
members
membrane
memoirs
memorial
memory
men
mena
menachery
meningitis
menus
mer
mercedes
merchant
mes
mesa
mesrop
message
messages
messenger
met
meta
metadata
metatable
methana
method
methods
metro
metropolitan
mexico
mezquita
mfa
mg
mgm
mhatnote
mhz
mi
mia
miami
miao
michael
michel
michigan
mickiewicz
microsoft
mid
middle
midnight
mig
might
miguel
mike
milan
milano
mile
miles
military
milk
millennium
miller
million
min
minassian
mind
mine
mini
minister
ministry
minneapolis
minoan
minor
minorities
minus
minutes
mirror
mismatch
miss
missile
missing
mission
mit
mitchell
mix
mixtec
mm
mma
mn
mo
mobile
mockingjay
mod
mode
model
modern
moderne
modigliani
module
modules
moi
moire
mois
moll
moment
moments
mon
monaco
monastery
monde
mondo
money
moni
mono
monsieur
monster
monte
month
monthly
montmartre
montre
montreal
monument
monuments
moon
moore
more
morning
mort
mosaic
mosaik
moscow
mosque
most
mother
motif
motion
motown
mount
mountain
mountains
move
movement
movie
movies
moving
movses
moyen
mp
mr
mri
ms
msg
msn
mt
mtv
mu
much
muhammad
multiple
multiplier
mundo
munich
mural
murder
murray
muse
museet
museo
museum
museums
music
musica
musical
musicians
musique
muslim
must
mvp
mw
my
myanmar
mycenae
mycenaean
mykonos
myspace
mystery
myth
mythology
n
na
nacht
nacional
nafplio
naga
nagorno
nahuatl
nail
nama
name
named
names
namespace
namespaces
namibia
nan
nancy
nasa
nasrallah
nation
national
nationale
nationalism
nations
native
nato
natura
natural
nature
navbar
navbox
navboxdata
navy
naxos
nayiri
nazareth
nba
nbc
nchen
nd
nde
ndefaultlanguage
ne
near
necessary
need
needed
needs
negative
nel
nemrut
neo
neolithic
nepal
nervous
nes
nescafe
nestle
net
netflix
netherlands
network
neue
never
new
newline
newman
news
newsletter
newspaper
next
nextlabel
ng
nh
ni
nicholas
nick
nicolas
nie
nien
nienne
niennes
niens
nietzsche
nigeria
night
nightingale
nights
nih
nike
nikiforos
nikol
nikolaos
nikos
nil
nile
nin
nina
ninth
nisyros
nl
nla
nm
no
nobel
noc
nocat
nocide
node
noir
nolink
nolinks
nom
nominations
non
none
nor
nord
nordiska
normal
norman
north
northern
northwest
northwestern
norton
norway
norwegian
nos
not
notation
note
notes
nothing
notice
notre
nous
nouveau
nouvelles
nov
nova
novel
november
now
nowrap
np
nr
ns
nsid
nster
nu
nuclear
nuit
num
number
numbered
numbers
numdot
nume
numerator
numeric
nums
numsep
ny
nya
nyc
nytimes
o
oa
obama
obituary
obj
object
objects
occupation
ocean
och
ocinsoutput
oclc
oct
october
od
odyssey
of
off
office
official
og
oh
ohio
oil
ois
oj
oklahoma
ol
ola
old
oliver
olivier
ollendorff
olympia
olympic
olympics
om
oman
ombox
omitted
on
once
one
onepage
ones
online
only
onno
op
open
opening
opera
operation
opt
option
optional
options
or
oral
orange
orchestra
order
ordered
ordo
org
organ
organization
orient
oriental
orientale
orientation
orig
origargs
origin
original
origins
origyear
oro
orthodox
orto
os
oscar
osprey
osti
other
others
otherwise
otto
ottoman
ou
our
ourthe
out
outinfo
output
outside
outstanding
outvalue
over
override
overview
own
oxford
p
pa
pablo
pacific
padding
padlock
page
pagename
pageobject
pages
pagetype
paice
pain
painter
painting
paintings
pair
pairs
pakistan
palace
palacio
palais
palamidi
palast
palazzo
palestine
palgrave
pan
panagia
pano
panorama
panoramic
panoramio
panossian
pap
paper
papers
papua
par
para
paradise
param
parameter
parameterfuncs
parameters
paramount
params
parent
parententities
parententityids
parentheses
parentoptions
parentsnak
parentsnaks
pargs
paris
park
parker
parliament
parm
parms
parmsi
paros
parque
parse
parsedtime
parseiso
part
parthenon
partial
parts
party
pas
pasadena
pascal
pasha
pass
passage
passed
past
pastore
patent
path
patricia
patrick
pattern
patterns
paul
paula
paulo
pax
pbs
pc
pcall
pdf
pe
peace
peak
pediment
pedro
pehlivanian
peloponnese
pen
penguin
peninsula
pennsylvania
pentium
people
peoples
per
perfect
performance
performed
performing
pergamon
period
periodical
periods
perrin
perry
perseus
persian
person
personal
personnametoauthorname
perspectives
peru
pet
petalion
peter
petersburg
petit
petros
pew
pframe
pg
ph
phalacrocorax
phase
phd
phil
philadelphia
philharmonic
philip
philippe
philips
philosopher
philosophy
phoenix
phone
phonemes
phosphate
photo
photos
photoshop
php
physical
physics
pi
piano
pic
picture
pictures
pidgin
pierre
pieter
pilot
pilots
pink
pipe
piraeus
pithos
pizza
pk
pl
place
places
plage
plain
plan
plane
planet
plant
plaque
plastic
plate
play
player
players
plaza
please
plural
plus
pmc
pmid
pn
pneumonia
png
po
podcast
poe
poem
poems
poet
poetry
poets
point
poland
poli
police
policy
polish
political
politics
pollen
pont
ponte
pop
pope
popular
population
por
poros
port
portal
porto
portrait
portugal
portuguese
pos
poseidon
position
positional
positive
possible
post
postcondition
postfix
postscript
potter
pottery
pour
power
powerful
pp
pr
practice
prague
prayer
pre
prec
precision
precondition
prefer
preferids
preferred
prefix
prefixed
prefixedtext
prefixes
preliminary
preload
premie
premier
preprocesssinglearg
presence
present
presentation
preset
president
presidential
press
presse
presses
presumable
pretty
preunit
prev
prevent
preview
prevlabel
price
primary
prime
primetime
prince
princess
princeton
print
printed
printemps
printing
prisoner
private
prix
prize
pro
probably
problem
problems
proceedings
process
processing
procession
produced
producer
produces
production
productions
products
prof
professional
professor
profile
program
progressive
project
projects
promise
pronunciation
proof
prop
properties
property
propertyid
propertyparams
prose
protected
protection
protectiondate
protectionlevels
protectionobj
protein
proto
protocol
proust
provence
provided
provides
province
prowincja
ps
psychological
psychology
pt
pu
public
publication
publicationdate
publicationplace
publications
publique
published
publisher
publishername
publishers
publishing
punctuation
purple
put
px
pylos
q
qahana
qid
qu
qualifier
qualifiers
quantity
quantum
quarterly
quatre
que
quebec
quechua
queen
queens
query
quest
question
questions
qui
quote
quoted
r
ra
race
racing
radikal
radio
rafael
raffi
rai
railway
rain
rainbow
raj
random
range
rank
rap
rard
rare
ras
rash
rather
ration
rature
raw
ray
raymond
razmik
rb
rd
rdoba
re
reach
read
reader
reading
real
reality
reason
rebellion
recent
recherche
record
recorded
recording
records
red
rediff
redir
redirect
reduction
redundant
ref
reference
references
reflections
reflux
region
regional
registration
related
relations
relative
release
released
releases
relevant
reliability
relief
religion
religions
religious
reloaded
remember
remembrance
remix
remove
removed
renaissance
render
rendered
rene
renoir
rep
replace
replaced
replacement
replaces
report
reporter
reports
reprint
reprinted
reprise
republic
request
requested
requests
require
required
requires
res
research
reserve
resistance
resize
resolution
resource
resources
response
rest
result
resultclaims
results
ret
retrieve
retrieved
return
returned
returns
retval
reuters
rev
revenge
review
reviews
revised
revival
revolt
revolution
revolutionary
revue
rfc
rft
rgb
rh
rhinitis
rho
rhodes
rhodos
rhs
rhyton
ri
riaa
ric
rica
rice
rich
richard
rie
rien
riga
right
rights
ring
rings
rio
rise
rising
risk
rita
river
rivera
riverdale
rk
rkc
rm
rna
ro
road
robert
robin
robinson
rock
rodi
roger
roi
role
roll
rollefson
rolling
rolls
roma
roman
romance
romania
rome
ronald
ronda
roof
room
root
roots
ros
rosa
rose
ross
rostomyan
rouben
rouge
round
rounded
rousey
route
routledge
row
rowargs
rowindex
rowling
rows
roy
royal
rs
rt
rtl
ru
rudolf
rue
ruins
rule
rules
run
runner
rusalem
russ
russell
russia
russian
ryan
s
sa
sabah
sacred
sacrifice
safavid
safe
said
saint
saints
sala
salem
salman
salon
salonica
salonika
sam
same
sami
samsung
samuel
san
sancti
sanctuary
sand
sandbox
sandboxtitle
sankt
sans
santa
santo
santorini
sara
sarah
sardinian
sargis
sargsyan
sarkis
saronic
sars
satellite
saudi
save
say
says
sb
sc
scale
scan
scandal
scavo
scene
scheme
schiff
schloss
schneider
scholars
school
schwarz
schwarzenbach
science
sciences
scientific
score
scotland
scott
scream
screen
script
scripts
sculpture
se
sea
search
season
seasons
seattle
sebouh
sec
second
seconds
secret
secretary
secrets
section
sections
security
see
seed
seen
seg
seine
select
selected
self
selfref
semi
semicircular
sen
senate
sensation
sense
sep
separate
separator
sepc
september
septum
serial
series
serifos
service
services
ses
set
setmetatable
sets
setting
settings
settlement
seuil
seven
seventh
several
sex
sg
shackle
shadow
shah
shaki
shakira
shantnews
shape
shaped
sharma
sharp
she
sheeran
shelley
shi
shift
ship
shock
shop
short
should
show
showasia
shows
si
side
sidebar
sie
siege
sifnos
sigfig
sign
signed
significant
signs
silence
silk
silva
silver
similar
simmons
simon
simple
sin
since
singapore
singer
singers
single
singles
sings
singular
sir
sister
sisters
site
sites
six
sixth
size
sk
ski
sky
skyline
sl
slash
slavic
sleep
slide
slytherin
small
smile
smith
smooth
snak
snaks
snaktype
snapdate
snecma
so
soccer
social
socie
society
socket
sodium
sofia
sole
soleil
solid
solo
solomon
some
someone
somethin
something
somewhere
son
song
songs
sons
sony
sophia
sort
sortable
sortkey
soul
sound
soundtrack
source
sourceid
sources
sous
south
southern
southwestern
souvenirs
soviet
sp
space
spaces
spain
span
spanish
spb
spec
special
specific
specified
specify
spectator
speech
speed
speedy
spell
spetses
sphinx
spirit
split
sport
sports
spring
springer
sqrt
square
sr
src
ss
ssrn
st
stadium
staff
stage
stairs
stamp
stanbul
stand
standard
standing
stanford
stanley
star
starr
stars
start
startin
state
statement
statements
states
station
statistical
statistics
statue
statues
status
stay
ste
stefan
stein
stele
stelle
step
stepan
stepanian
stephen
steve
steven
stewart
still
stockholm
stolen
stone
stones
stop
store
storia
stories
stork
story
str
straight
strait
strand
stranger
strasbourg
strategic
strategy
street
string
strings
stringsi
strip
stripped
stroke
strong
structural
structure
struggle
sts
student
studies
studio
studios
study
stuttgart
style
styles
su
sub
subgroup
subject
subjectlink
subjectspace
submit
subpage
subpages
subrule
subscription
substitute
subtables
subtags
subunit
success
such
sud
sudan
suez
suffix
suggested
suit
suite
sulla
sulpice
sultan
sum
summary
summer
sun
sunday
sunrise
sunset
super
support
supported
supporting
suppressed
sur
surb
sure
surgery
surname
surp
survey
survive
susan
suzanne
sv
svg
sweden
swedish
sweet
swing
swiss
switzerland
sydney
sylvia
sylvilagus
symbol
symbols
symphonia
symphony
symposium
syndrome
synonym
syria
syriac
syrian
syros
sysop
system
systems
t
ta
tab
table
tablecode
tables
tabriz
tag
tags
tai
tail
tait
taj
take
taken
takes
taking
tale
tales
talk
talkpage
talks
tango
tanzania
taranto
target
tartu
tasmanian
tat
tatev
tauris
taylor
tbilisi
tbl
td
te
tea
teach
team
tears
teatr
teatro
teau
technical
technology
ted
teen
tehran
tel
telegraph
television
tell
temp
template
templatedata
templates
templatetitle
temple
temps
ten
tennessee
ter
term
terminal
terra
terracotta
terre
territory
terror
terrorism
terrorist
tert
tes
tesla
test
testcases
testcasestitle
testing
tetrazzini
texas
text
texts
textstyle
tfrac
th
thai
than
that
the
theater
theatre
their
them
then
theodore
theological
theory
therapy
there
these
thesis
thessalonica
thessaloniki
they
thing
things
think
third
this
thomas
thomson
those
thought
thousand
three
thriller
through
throwerror
thumb
thumbnail
thumbtime
ti
tibetan
tienne
tif
tiger
til
till
tim
time
timeline
times
timesofindia
tin
tinos
tis
title
titlelink
titleobj
titles
titlestyle
titletype
titre
tmp
to
today
todo
together
toi
toile
tokyo
tom
tomatoes
tomb
tome
ton
tonight
tonumber
tony
too
tools
tooltip
top
toronto
toros
torre
torso
tostring
total
totales
tou
toulouse
toumanoff
tour
tourism
tout
toward
towards
tower
town
tr
track
tracking
tracks
trade
tradition
traditional
trailing
train
training
traite
trans
transaction
transchapter
transcript
transit
transl
translate
translated
translation
translator
translit
transliteration
transmission
transparent
transtitle
trauma
travel
tre
treasures
treaty
tree
trees
tribune
tribute
trilogy
trim
trimarg
trinidad
trio
tripoli
trivulzio
triwizard
trois
troizen
tropical
true
trump
trust
truth
try
ts
tt
tte
tu
tube
tudes
turkey
turkish
turks
turner
tussauds
tv
twenty
twist
twitter
two
ty
type
types
typical
tyre
u
ua
ucla
uefa
ufc
ui
uk
ukraine
ul
ultrasound
ulx
um
un
una
und
under
underground
understanding
une
unesco
unicode
unidos
union
unipolar
unique
unit
unitcode
united
units
universal
universe
universite
university
unknown
unless
unlimited
unpack
unrecognized
unset
until
up
uparrow
update
updated
upload
upper
upright
ur
urban
uri
url
urlutil
us
usa
usage
usc
use
used
user
username
users
uses
using
ussr
ustring
usually
utc
utd
utype
v
va
vahe
val
valencia
valid
validate
validation
valinfo
valle
valley
vals
value
valuefunc
values
valuesi
van
vanadzor
vanc
vancouver
vandalism
var
varagavank
variable
variant
variety
various
vartan
vasa
vasari
vase
ve
vegas
velvet
venezia
venezuela
venice
venus
verbrecher
verdi
verlag
vers
version
vertical
very
vessel
vestibule
vi
via
vice
victims
victor
victoria
victory
vida
video
videos
vidic
vie
vienna
vietnam
vieux
view
views
vii
viii
viktor
villa
village
ville
vincent
vinci
violence
violin
viral
virgin
virginia
virtual
virus
vision
vista
visual
vita
vo
vocal
vocals
vogue
voice
voices
vol
voldemort
vols
volume
volumes
vom
von
vous
voyage
voyager
vs
vssto
vue
w
wa
wadi
wahlblock
wales
walk
walker
wall
walls
walt
walter
walters
wanna
want
wanted
war
ward
ware
warfare
warner
warning
warriors
wars
warsaw
was
washington
watch
water
waterfall
watson
wattpad
wax
way
wayback
wayne
wbstatus
wds
we
wearing
web
webarchive
website
webster
week
weekly
weeks
well
welt
were
werldwayd
west
western
westminster
wga
what
when
where
whether
which
while
white
whitelist
whitespace
who
wholestr
why
wicked
wide
width
wie
wien
wiener
wife
wiki
wikibase
wikidata
wikilink
wikimedia
wikipedia
wikisource
wikitext
wild
wiley
wilhelm
will
willem
william
williams
wilson
win
wind
window
windows
wine
wing
wings
winner
winners
wins
winter
wisconsin
with
within
without
witness
wlink
wo
wolf
wolfgang
woman
women
wonderland
wood
word
words
work
working
works
world
worldwide
worth
would
wp
wrap
wrapped
wrapper
wrappers
write
writer
writers
writing
writings
written
wrong
wu
www
x
xi
xico
xii
xiii
xiv
xix
xixe
xv
xvi
xvii
xviii
xx
xxi
xy
y
ya
yahoo
yale
yan
yash
ye
year
yearbook
years
yellow
yerakouyn
yerevan
yes
yesno
yesterday
yet
yi
ymd
yo
york
you
young
your
yourself
youth
youtube
yu
yves
yyyy
z
za
zakynthos
zambia
zapotec
zas
zaven
zbl
zde
zealand
zeidan
zero
zeros
zh
zhuang
zn
zone
zoo
zoom
zorats
zoravor
zoster
zu
zum
zur
{
|
}
~

¡
£
¤
¥
§
©
ª
«
¬
­
°
±
²
³
´
·
¹
»
½
¾
¿
×
æ
÷
þ
ı
ł
ə
ɡ
ʲ
ʻ
ʼ
ʿ
ˈ
ˋ
ˌ
ː
˓
˚
̀
́
̂
̃
̄
̆
̇
̈
̊
̋
̌
̓
̔
̛
̣
̦
̧
̨
̮
̱
͂
ͅ
͡
΄
α
αγα
αγι
αγω
αθη
αθηνα
αθηνω
αι
αιγαιο
αιω
ακρο
αλε
αλεξα
αν
ανα
αντι
απο
ας
ατρο
β
βα
βασι
βι
γ
γα
γγελος
γε
γεω
γη
για
γιο
γιος
γλαρος
γος
γραμμα
δ
δα
δας
δε
δεν
δες
δη
δημη
δης
δι
δια
διαδρομη
διο
δος
δου
δρα
δωδεκα
ε
ει
εις
ελλα
ερτ
εστι
ευ
ζ
ζα
η
ημερολο
θ
θα
θε
θεο
θεολογου
θεσσαλονι
θη
ι
ιστορι
κ
κα
και
καρπαθου
κατα
κε
κη
κης
κι
κο
κος
κου
κρη
κυ
κυκλα
κω
λ
λα
λαγκαδα
λαγος
λαι
λαια
λαος
λασσα
λε
λη
λης
λι
λιος
λλα
λο
λος
λου
λυ
μ
μα
μακεδονι
μαρι
μας
ματα
ματος
με
μεγα
μεσο
μη
μι
μια
μνη
μο
μονο
μος
μου
μουσει
μπη
ν
να
ναι
ναο
νας
ναυμαχι
νβα
νε
νει
νεια
νες
νη
νης
νι
νικο
ννης
νο
νος
νου
ντα
νυ
νω
ξιον
ξυλου
ο
οδο
οι
ον
ος
ου
ους
π
πα
παιδια
παξοι
παρα
πατρω
πε
πειραια
περι
πη
πι
πλατει
πο
πολη
πολης
πολυ
που
πουλος
προ
πρω
πυ
πως
ρ
ρα
ρας
ργιος
ργος
ρες
ρη
ρης
ρι
ρια
ριο
ριος
ρκο
ρνα
ρο
ρος
ρου
ρω
ρων
ς
σ
σα
σε
σεις
σερι
σεως
ση
σης
σι
σια
σου
στα
σταυρο
στε
στη
στην
στο
στον
στρο
συ
σχοινου
σχολη
τ
τα
ταν
τε
τες
τη
την
της
τι
τις
το
τον
του
τους
τραγου
τρας
τυ
τω
των
υ
φ
φα
φεκ
φος
φου
φυ
χ
χα
χη
χνης
χρο
χω
ω
ων
ως
а
азербаи
аи
александр
ан
англ
англии
апреля
армении
армения
армян
армянская
армянскии
армянского
армянскои
б
баи
баку
барселона
бегоян
без
бизнес
биография
большая
большои
брокгауза
быть
в
вв
введение
века
вестник
викиданных
во
возвращает
вои
вопросы
время
все
вып
г
газета
гг
геноцид
геноцида
гл
глава
год
года
гол
голов
город
грузии
грузия
д
два
день
дж
для
дня
до
дом
доп
др
древнеи
е
его
ее
ереван
если
есть
ефрона
ж
же
жизни
жизнь
журнал
з
за
и
иван
из
изд
издание
издательство
ил
или
илл
империи
институт
ип
искусство
испании
исследование
исследовании
исследования
истории
историко
история
июля
июня
к
ка
как
карт
кино
китаи
кн
книга
когда
конференции
конференция
культура
культуры
л
лет
лионель
литературы
лучшим
м
маргарян
марта
материалы
международнои
месси
место
методология
методы
мир
мира
москва
москве
москвы
музеи
мысль
н
на
народа
наук
наука
науч
научно
не
некоторых
ни
новости
о
об
объект
осипов
османскои
основы
от
отв
отношении
официальныи
оформления
очерки
п
параметров
пер
перевод
петербург
по
под
портрет
пособие
президента
при
принимает
проблемы
проверено
против
профиль
психологии
психология
р
развития
раи
ран
ред
редакциеи
реи
рекорд
республики
риа
роналду
россии
россия
ру
русскии
русского
русскои
русском
рф
с
саи
санкт
сборник
света
свои
сентября
серия
ская
скии
ского
скои
словарь
см
со
совета
советская
советскои
спб
список
ссср
ст
стал
статеи
статья
стб
ства
стр
страница
страницы
строку
сша
т
та
таблицу
таи
там
тбилиси
те
текст
текста
теории
теория
тер
тифлис
то
том
томах
труды
у
указ
украі
ун
университета
ф
февраля
федерации
философии
философское
функция
футболиста
х
ц
церкви
ч
часть
что
ш
школа
щ
ъ
ы
ь
э
экз
энциклопедии
энциклопедическии
энциклопедия
это
ю
я
язык
языка
языке
января
є
і
ѣ
ՙ
՚
՛
՜
՝
՞
ա
աած
աբաս
աբասը
աբասի
աբարանի
աբբա
աբբայի
աբբաս
աբգար
աբգարեան
աբգարեանի
աբգարի
աբգարիոս
աբեղայ
աբեղեան
աբեղեանը
աբեղեանի
աբէլեան
աբխազական
աբխազիայի
աբխազիոյ
աբովեան
աբովեանը
աբովեանի
աբովյանի
աբու
աբրահամ
աբրահամեան
աբրահամեանը
աբրահամեանի
աբրահամի
ագ
ագաթանգեղոս
ագաթանգեղոսը
ագաթանգեղոսի
ագապի
ագարակ
ագարակը
ագարակի
ագգային
ագն
ագուլեցի
ագուլիս
ագուլիսի
ագուցուած
ագրարային
ադ
ադաբաշեանը
ադաբաշեանի
ադամ
ադամանդ
ադամանդեայ
ադամեան
ադամեանը
ադամեանի
ադամի
ադլանդիտի
ադլանտեան
ադոնց
ադոնցի
ադրբեջանի
ադրխսհ
ազ
ազատ
ազատագրած
ազատագրական
ազատագրել
ազատագրելու
ազատագրեն
ազատագրեց
ազատագրեցին
ազատագրէ
ազատագրման
ազատագրուած
ազատագրութեան
ազատագրուի
ազատագրում
ազատագրումէն
ազատագրումը
ազատագրումն
ազատազրկման
ազատազրկում
ազատած
ազատական
ազատամարտ
ազատամարտի
ազատամարտիկ
ազատամարտիկներ
ազատամարտիկներու
ազատամարտիկներուն
ազատամարտին
ազատամիտ
ազատեան
ազատեանի
ազատել
ազատելով
ազատելու
ազատեն
ազատեց
ազատէ
ազատի
ազատիլ
ազատներու
ազատուած
ազատութեան
ազատութիւն
ազատութիւնը
ազատութիւնն
ազատութիւնները
ազատութիւններու
ազատուհի
ազատումը
ազատօրէն
ազարեան
ազարիա
ազարիկեան
ազգ
ազգաբնակչութեան
ազգագրագէտ
ազգագրագէտներ
ազգագրական
ազգագրութեան
ազգական
ազգականները
ազգականներու
ազգականներուն
ազգակից
ազգակցական
ազգամիջեան
ազգային
ազգայիններու
ազգայնական
ազգայնականները
ազգայնականներու
ազգայնականներուն
ազգայնականութեան
ազգայնամոլ
ազգայնամոլական
ազգանուէր
ազգանուն
ազգանունը
ազգանունների
ազգապահպանման
ազգապատում
ազգասէր
ազգաց
ազգեր
ազգերը
ազգերի
ազգերու
ազգերուն
ազգը
ազգի
ազգին
ազգն
ազգութեամբ
ազգութեան
ազգութիւնը
ազգութիւններու
ազգօգուտ
ազդած
ազդակ
ազդակը
ազդակներ
ազդակներէն
ազդակները
ազդակներով
ազդակներու
ազդարար
ազդարարէ
ազդել
ազդելով
ազդելու
ազդեն
ազդեց
ազդեցիկ
ազդեցութեամբ
ազդեցութեան
ազդեցութենէն
ազդեցութիւն
ազդեցութիւնը
ազդեցութիւններ
ազդեցութիւնները
ազդեցութիւններով
ազդեցութիւններու
ազդէ
ազդման
ազդող
ազդու
ազդուած
ազդուելով
ազդուի
ազդուին
ազերի
ազերիներ
ազերիներու
ազերիներուն
ազզի
ազիզ
ազիզեան
ազնաւորեան
ազնաւուր
ազնաւուրեան
ազնաւուրը
ազնաւուրի
ազնիւ
ազնիւը
ազնիւին
ազնուական
ազնուականներ
ազնուականները
ազնուականներու
ազնուականներուն
ազնուականութեան
ազնուականութիւնը
ազնուութեան
ազնուութիւնը
ազոլոյի
ազովի
ազունիէի
ազրպէյճան
ազրպէյճանական
ազրպէյճաներէն
ազրպէյճանէն
ազրպէյճանը
ազրպէյճանի
ազրպէյճանին
ազրպէյճանցի
ազրպէյճանցիներ
ազրպէյճանցիները
ազրպէյճանցիներու
աթ
աթաթուրքի
աթայեան
աթանաս
աթենացի
աթենացիները
աթենացիներուն
աթենեան
աթէնք
աթէնքէն
աթէնքը
աթէնքի
աթէնքին
աթինա
աթինան
աթլանթեան
աթլանթիք
աթլեթիզմի
աթլեթիք
աթլեթիքօ
աթոմական
աթոմային
աթոռ
աթոռակից
աթոռանիստ
աթոռանիստը
աթոռը
աթոռի
աթոռին
աթոռներ
աթոռներու
աթոռոյ
աթոքեան
աթս
աժ
աժան
աժաքս
աժդահակ
աիմ
աիտա
ալ
ալազան
ալաճաճեան
ալամդարեան
ալան
ալաշկերտ
ալաշկերտի
ալապամայի
ալասքա
ալասքայի
ալասքան
ալավերդի
ալբերտ
ալբոմ
ալբոմը
ալեն
ալեոնքա
ալեք
ալեքոս
ալեքս
ալեքսան
ալեքսանդր
ալեքսանդրա
ալեքսանդրապոլ
ալեքսանդրապոլը
ալեքսանդրապոլի
ալեքսանդրացիի
ալեքսանդրեան
ալեքսանդրի
ալեքսանդրիա
ալեքսանդրիայի
ալեքսանդրիոյ
ալեքսանեան
ալեքսանտր
ալեքսանտրա
ալեքսանտրապոլ
ալեքսանտրապոլի
ալեքսանտրը
ալեքսանտրի
ալեքսանտրիայի
ալեքսանտրոս
ալեքսանտրուփոլի
ալեքսէյ
ալեքսիոս
ալեքսիս
ալէն
ալէքս
ալէքսը
ալէքսի
ալթըն
ալթուն
ալթունեան
ալթունեանի
ալժիր
ալի
ալիա
ալիան
ալիի
ալիին
ալին
ալիշան
ալիշանը
ալիշանի
ալիս
ալիսը
ալիսի
ալիսիա
ալիւր
ալիւրէ
ալիւրը
ալիւրի
ալիւրով
ալիք
ալիքային
ալիքարնասոս
ալիքաւոր
ալիքը
ալիքի
ալիքին
ալիքներ
ալիքները
ալիքներու
ալիքներուն
ալիքսանեան
ալլա
ալլահ
ալխազեան
ալկորիտմ
ալճերիա
ալճերիան
ալճերիոյ
ալմա
ալմաստ
ալմերիա
ալպա
ալպանական
ալպանացի
ալպաներէն
ալպանիա
ալպանիոյ
ալպեան
ալպեր
ալպերթ
ալպերթօ
ալպերտ
ալպէր
ալպըս
ալպըսը
ալպըսին
ալպիական
ալպոմ
ալպոմէն
ալպոմը
ալպոմի
ալպոմին
ալպոմներ
ալպոմները
ալպոմներու
ալպոյաճեան
ալպումը
ալպօյաճեան
ալփ
ալփասլան
ալքինոս
ալքոլ
ալքոլի
ալքոհլը
ալքոհոլային
ալֆա
ալֆիոս
ալֆոնս
ալֆոնսօ
ալֆրետ
ալֆրետօ
ալֆրէտ
ախ
ախալցխա
ախալցխայի
ախալցխան
ախալքալաք
ախալքալաքը
ախալքալաքի
ախայիա
ախայիայի
ախթալայի
ախոյան
ախոյանութեան
ախոյեան
ախոյեանական
ախոյեանը
ախոյեանի
ախոյեաններ
ախոյեաններու
ախոյեանութեան
ախոյեանութիւն
ախոյեանութիւնը
ախորժակը
ախորժակի
ախուրեան
ախուրեանի
ախպար
ախտաբանական
ախտահարման
ախտահարուած
ախտահարուին
ախտաճանաչում
ախտաճանաչումը
ախտաճանաչումին
ախտանիշ
ախտանիշներ
ախտանիշները
ախտանիշներու
ախտանշան
ախտանշանը
ախտանշաններ
ախտանշաններէն
ախտանշանները
ախտանշաններն
ախտանշաններով
ախտանշաններու
ախտանշաններուն
ախտապատճառը
ախտապատճառին
ախտապատճառներ
ախտապատճառները
ախտապատճառներն
ախտապատճառներով
ախտապատճառներու
ախտորոշման
ախտորոշումը
ախֆսհ
ած
ածական
ածականը
ածանցեալ
ածանցեալներու
ածանցները
ածխաթթու
ածխածինի
ածխածնային
ածխածնի
ածուխ
ածուխը
ածուխի
ակ
ակադ
ակադեմական
ակադեմիա
ակադեմիական
ակադեմիայէն
ակադեմիայի
ակադեմիային
ակադեմիան
ակադեմիաներու
ակադեմիկոս
ակադեմիկոսներ
ակադեմիոյ
ակաթա
ակամայ
ական
ականատես
ականատեսը
ականատեսի
ականատեսներ
ականատեսներու
ականաւոր
ականի
ականներ
ականներէն
ականները
ականներու
ականներուն
ականջ
ականջաբզզիւն
ականջաբզզիւնը
ականջակոնքի
ականջահոսք
ականջահոսքը
ականջահոսքին
ականջային
ականջացաւ
ականջացնցուղի
ականջը
ականջի
ականջին
ականջները
ականջներուն
ակինեան
ակիսդրի
ակն
ակնալիճ
ակնայ
ակնառու
ակնարկ
ակնարկէ
ակնարկը
ակնարկներ
ակներեւ
ակնի
ակնյայտ
ակնյայտօրէն
ակումբ
ակումբային
ակումբէն
ակումբը
ակումբի
ակումբին
ակումբն
ակումբներ
ակումբներէն
ակումբները
ակումբներու
ակումբներուն
ակունք
ակունքներէն
ակունքները
ակունքներու
ակունքներուն
ակռաները
ակռաներու
ակռաներուն
ակսել
ակրիփային
ակրոպոլիսի
ակօս
ահ
ահա
ահաբեկիչ
ահաբեկիչներ
ահաբեկիչները
ահաբեկիչներու
ահաբեկման
ահաբեկումը
ահաբեկչական
ահաբեկչութեան
ահաբեկչութիւն
ահագին
ահազանգ
ահարոն
ահարոնեան
ահարոնեանի
ահաւասիկ
ահաւոր
ահեկան
ահեղ
ահիլէասին
ահկ
ահմատ
ահմետ
ահմէտ
ահռելի
աղ
աղա
աղաբաբեան
աղաբաբեանը
աղաեան
աղաթոն
աղաթոնիսի
աղաճանեան
աղամեմնոն
աղամեմնոնաս
աղամեմնոնասի
աղամեմնոնասին
աղայեան
աղայեանի
աղայի
աղային
աղան
աղանդաւորական
աղանդեր
աղանդներու
աղանդոց
աղանեան
աղապապեան
աղաջանեան
աղասեան
աղասի
աղացած
աղաւաղուած
աղաւնի
աղաւնիի
աղաւնին
աղաւնիներ
աղբալեան
աղբալեանը
աղբալեանի
աղբար
աղբիւր
աղբիւրագէտ
աղբիւրէն
աղբիւրը
աղբիւրի
աղբիւրին
աղբիւրն
աղբիւրներ
աղբիւրներէ
աղբիւրներէն
աղբիւրները
աղբիւրներն
աղբիւրներով
աղբիւրներու
աղբիւրներուն
աղբյուր
աղբյուրներ
աղդամի
աղեթափութիւն
աղեղ
աղեղը
աղեղի
աղեղնաձեւ
աղեղնաւոր
աղետէն
աղեր
աղերը
աղերու
աղերս
աղեքսանդր
աղեքսանդրապոլ
աղեքսանդրի
աղեքսանդրիա
աղեքսանդրիոյ
աղեքսանտր
աղեքսանտրացիի
աղեքսանտրը
աղեքսանտրի
աղեքսանտրիա
աղեքսանտրիայէն
աղեքսանտրիան
աղեքսանտրին
աղեքսանտրիոյ
աղէկ
աղէտ
աղէտալի
աղէտէն
աղէտը
աղէտի
աղէտին
աղէտներ
աղէտներու
աղը
աղթամար
աղթամարի
աղի
աղիութեան
աղիտալի
աղիւսակ
աղիւսակը
աղիւսակի
աղիւսակին
աղիւսակներ
աղիւսակները
աղիւսէ
աղիք
աղիքային
աղիքի
աղիքներ
աղիքները
աղիքներու
աղիքներուն
աղձնիք
աղձնիքը
աղձնիքի
աղմկոտ
աղմուկ
աղմուկը
աղմուկի
աղմուկին
աղով
աղուան
աղուանի
աղուանից
աղուաններու
աղուանք
աղուանքը
աղուանքի
աղուէս
աղուէսակապիկը
աղուէսը
աղպաշեան
աղջիկ
աղջիկը
աղջիկն
աղջիկներ
աղջիկները
աղջիկներու
աղջիկներուն
աղջկայ
աղջկան
աղջկանց
աղջնակը
աղստեւ
աղտամի
աղտոտ
աղցան
աղցանը
աղցաններ
աղքատ
աղքատախնամ
աղքատիկ
աղքատներու
աղքատներուն
աղքատութեան
աղքատութիւն
աղքատութիւնը
աղօթագիրքը
աղօթամատեան
աղօթասրահի
աղօթելու
աղօթեն
աղօթէ
աղօթից
աղօթք
աղօթքը
աղօթքի
աղօթքներ
աղօթքները
աղօթքով
աճ
աճած
աճապարանքն
աճառային
աճառեան
աճառեանը
աճառեանի
աճարական
աճարիան
աճարիոյ
աճեմեան
աճեմեանը
աճեմեանի
աճեցաւ
աճեցման
աճեցնել
աճեցնեն
աճէին
աճէմեան
աճէմեանի
աճէր
աճը
աճի
աճիլ
աճին
աճիւնը
աճիւնները
աճման
աճող
աճով
աճուկային
աճուրդ
ամ
ամազոն
ամազոնի
ամալ
ամայանայ
ամայացած
ամայի
աման
ամանի
ամաններ
ամաններու
ամանոր
ամանորեայ
ամանորը
ամանորի
ամանորին
ամանտա
ամառ
ամառային
ամառանոց
ամառանոցը
ամառը
ամառնային
ամառները
ամառներով
ամառուան
ամասիա
ամասիայի
ամասիան
ամասիոյ
ամավերջի
ամատունի
ամատունին
ամարաս
ամարասի
ամբաստանեն
ամբաստանէ
ամբաստանուած
ամբաստանութեամբ
ամբարտակը
ամբարտակի
ամբերդ
ամբիոնի
ամբոխը
ամբողջ
ամբողջական
ամբողջականութեան
ամբողջականութիւնը
ամբողջանայ
ամբողջապէս
ամբողջատիրական
ամբողջացնելու
ամբողջացնեն
ամբողջացնէ
ամբողջացուցած
ամբողջովին
ամբողջութեամբ
ամբողջութեան
ամբողջութիւն
ամբողջութիւնը
ամբողջութիւնն
ամեա
ամեակ
ամեակը
ամեակի
ամեակին
ամեայ
ամեն
ամենաազդեցիկ
ամենաարագ
ամենաարժէքաւոր
ամենաբարձ
ամենաբարձր
ամենագեղեցիկ
ամենաերիտասարդ
ամենաերկար
ամենազօրաւոր
ամենաընդարձակ
ամենաթանկ
ամենաթանկագին
ամենալայն
ամենալաւ
ամենախիտ
ամենախոշոր
ամենախոշորը
ամենածանր
ամենածանօթ
ամենակարեւոր
ամենակարեւորը
ամենահարուստ
ամենահեղինակաւոր
ամենահզօր
ամենահին
ամենահինը
ամենամեայ
ամենամեծ
ամենամեծը
ամենամեծն
ամենամօտ
ամենամօտիկ
ամենայայտնի
ամենայայտնին
ամենայաջող
ամենայաջողակ
ամենայն
ամենանեղ
ամենանշանաւոր
ամենաշատ
ամենաշատը
ամենավաղ
ամենավառ
ամենատարածուած
ամենատարբեր
ամենատարեց
ամենատաք
ամենացած
ամենացածր
ամենափոքր
ամենափրկիչ
ամենէ
ամենէն
ամենը
ամենուն
ամենուր
ամենուրէք
ամենօրեայ
ամերիկա
ամերիկաբնակ
ամերիկահայ
ամերիկայէն
ամերիկայի
ամերիկան
ամերիկաներու
ամերիկացի
ամերիկացիներ
ամերիկացիները
ամերիկացիներու
ամերիկացիներուն
ամերիկեան
ամերիկյան
ամերիքըն
ամէ
ամէն
ամէնամեայ
ամէնամեծ
ամէնայն
ամէնաշատ
ամէնէ
ամէնէն
ամէնը
ամէնուն
ամէնուր
ամէնուրեք
ամէնօրեայ
ամին
ամիս
ամիսէն
ամիսը
ամիսն
ամիսներ
ամիսները
ամիսներու
ամիսներուն
ամիսով
ամիր
ամիրա
ամիրայական
ամիրայի
ամիրային
ամիրայութեան
ամիրան
ամիրաները
ամիրաներու
ամիրեան
ամիրխանեան
ամկ
ամման
ամմանի
ամյակին
ամն
ամնի
ամոս
ամորղոս
ամուսին
ամուսինէն
ամուսինը
ամուսինի
ամուսինին
ամուսինն
ամուսիններ
ամուսինները
ամուսիններու
ամուսիններուն
ամուսնալուծուած
ամուսնալուծութեան
ամուսնալուծութիւնը
ամուսնալուծուի
ամուսնական
ամուսնանալ
ամուսնանալով
ամուսնանալու
ամուսնանայ
ամուսնանան
ամուսնացած
ամուսնացան
ամուսնացաւ
ամուսնացեալ
ամուսնացեր
ամուսնոյն
ամուսնութեամբ
ամուսնութեան
ամուսնութենէն
ամուսնութիւն
ամուսնութիւնէն
ամուսնութիւնը
ամուսնութիւններ
ամուսնութիւնները
ամուր
ամուրի
ամպ
ամպամած
ամպեր
ամպերը
ամպերու
ամպիոն
ամպիոնը
ամպիոնի
ամպիոնին
ամռան
ամռանը
ամսագիր
ամսագիրը
ամսագիրի
ամսագիրին
ամսագիրներու
ամսագրերու
ամսագրերուն
ամսագրի
ամսագրին
ամսաթերթ
ամսաթերթը
ամսաթերթի
ամսաթերթին
ամսաթիւ
ամսաթիւը
ամսաթիւով
ամսական
ամսթերտամ
ամսթերտամը
ամսթերտամի
ամսու
ամսուայ
ամսուան
ամսուն
ամսօրեայ
ամրագրուած
ամրամը
ամրամի
ամրան
ամրանը
ամրապնդած
ամրապնդել
ամրապնդելու
ամրապնդեց
ամրապնդէ
ամրապնդման
ամրապնդուի
ամրապնդումը
ամրացած
ամրացման
ամրացնել
ամրացնելու
ամրացնեն
ամրացնէ
ամրացուած
ամրացուի
ամրոց
ամրոցէն
ամրոցը
ամրոցի
ամրոցին
ամրոցն
ամրոցներ
ամրոցներէն
ամրոցները
ամրոցներու
ամրութիւններ
ամրութիւնները
ամփոփ
ամփոփած
ամփոփէ
ամփոփուած
ամփոփուեցաւ
ամփոփուի
ամփոփուին
ամփոփում
ամօ
ամօթալի
ամֆիթատրոն
ամֆիթատրոնի
ամֆորէաս
այ
այաթոլլահ
այաշ
այաս
այաքս
այաքսի
այբ
այբբենական
այբբենարան
այբենական
այբուբեն
այբուբենական
այբուբենը
այբուբենի
այբուբենին
այբուբէնը
այգ
այգեգործութեամբ
այգեգործութեան
այգեգործութիւնը
այգեկցի
այգեկցիի
այգեհատ
այգեհատի
այգեստան
այգի
այգիի
այգիին
այգին
այգիներ
այգիները
այգիներով
այգիներու
այգիներուն
այդ
այդմ
այդուհանդերձ
այդպես
այդպէս
այդպէսով
այդպիսի
այդպիսին
այդպիսով
այդտեղ
այդտեղէն
այդտեղի
այդքան
այըն
այժմ
այժմեան
այժմէական
այժմու
այի
այիա
ային
այիոս
այիու
այիօ
այլ
այլաբանական
այլաբանութիւն
այլազան
այլազգի
այլալեզու
այլախոհ
այլակերպութեան
այլանդակ
այլապէս
այլենտ
այլեւ
այլեւայլ
այլեւս
այլընտ
այլընտրանք
այլընտրանքային
այլն
այլոց
այլուր
այլք
այծ
այծեմնիկ
այծեր
այծի
այն
այնթապ
այնթապի
այնթապցի
այնթէպ
այնթէպի
այնի
այնինչ
այնճար
այնճարի
այնշթայն
այնշթայնը
այնշթայնի
այնշթայնին
այնուամենայնիւ
այնուամէնայնիւ
այնուհանդերձ
այնուհետ
այնուհետեւ
այնչափ
այնպէս
այնպիսի
այնտեղ
այնտեղէն
այնտեղի
այնքան
այո
այս
այսինքն
այսուհանդերձ
այսուհետեւ
այսպես
այսպէս
այսպէսով
այսպիսի
այսպիսով
այստեղ
այստեղէն
այստեղի
այսքան
այսօր
այսօրուայ
այսօրուան
այվազ
այվազեան
այվազեանը
այվազեանի
այվազովսկի
այվազովսկիի
այվազովսկին
այտա
այտընեան
այր
այրած
այրարատ
այրարատեան
այրարատի
այրել
այրեն
այրես
այրեսի
այրեցին
այրէ
այրէս
այրէսի
այրի
այրին
այրման
այրող
այրուած
այրուածք
այրուձիի
այրուձին
այրուող
այցելած
այցելել
այցելելով
այցելելու
այցելեն
այցելեց
այցելէ
այցելէին
այցելէր
այցելող
այցելու
այցելութեան
այցելութիւն
այցելութիւնը
այցելութիւններ
այցելութիւնները
այցելութիւններու
այցելուի
այցելուն
այցելուներ
այցելուները
այցելուներու
այցելուներուն
այցելուող
այցը
այցի
այցով
այֆոն
ան
անա
անագ
անագը
անագի
անաթոլիա
անալի
անալիտիկ
անախորժ
անախորժակութիւն
անակնկալ
անակնկալի
անակնկալօրէն
անահիտ
անահիտի
անանեան
անանիա
անանիայի
անանկ
անանուխի
անանուն
անապահով
անապատ
անապատային
անապատը
անապատի
անապատին
անապատներ
անապատները
անապատներու
անապատներուն
անառակ
անառիկ
անասեան
անասնաբոյժ
անասնաբուժական
անասնաբուժութեան
անասնաբուծական
անասնաբուծութեամբ
անասնաբուծութեան
անասնաբուծութիւնը
անասնական
անասնապահական
անասնապահութեամբ
անասնապահութեան
անասնապահութիւն
անասնապահութիւնը
անասնապահութիւնն
անասուն
անասունի
անասունին
անասուններ
անասուններէն
անասունները
անասուններու
անասուններուն
անաստաս
անատոլի
անատոլիա
անատոլիոյ
անատոմիայի
անարատ
անարդար
անարդարութեան
անարժան
անաւարտ
անաֆի
անբաժան
անբաժանելի
անբասիր
անբարենպաստ
անբացատրելի
անբաւարար
անբաւարարութեան
անբաւարարութիւն
անբաւարարութիւնը
անբնակ
անբնական
անբուժելի
անգ
անգամ
անգամէն
անգամը
անգամն
անգամներ
անգամով
անգարա
անգարայի
անգարան
անգարը
անգարի
անգեղակոթի
անգերազանցելի
անգին
անգիտակից
անգիտակցաբար
անգիր
անգլ
անգլերէն
անգլերէնէ
անգլերէնէն
անգլերէնը
անգլերէնի
անգլերէնին
անգլերէնն
անգլերէնով
անգլիա
անգլիախօս
անգլիական
անգլիայէն
անգլիայի
անգլիան
անգլիատառ
անգլիացի
անգլիացիները
անգլիացիներու
անգլիացիներուն
անգլիերէն
անգլիոյ
անգլո
անգղ
անգնահատելի
անգոյն
անգործ
անգործութեան
անգործութիւն
անդ
անդադար
անդամ
անդամագրուած
անդամագրուի
անդամալուծութիւն
անդամակցած
անդամակցելու
անդամակցի
անդամակցին
անդամակցութեան
անդամակցութիւն
անդամակցութիւնը
անդամը
անդամի
անդամն
անդամներ
անդամներէ
անդամներէն
անդամները
անդամներն
անդամներով
անդամներու
անդամներուն
անդաստան
անդին
անդիպոնտական
անդիռիօ
անդնդախոր
անդովկ
անդուլ
անդունդ
անդրադառնալ
անդրադառնալով
անդրադառնայ
անդրադառնան
անդրադարձ
անդրադարձած
անդրադարձաւ
անդրադարձը
անդրանիկ
անդրանիկեան
անդրանիկը
անդրանիկի
անդրանիկին
անդրաշ
անդրէաս
անդրէասեան
անդրէասի
անդրէյ
անդրկովկաս
անդրկովկասեան
անդրկովկասէն
անդրկովկասը
անդրկովկասի
անդրձայնային
անդրմանիշակագոյն
անել
անեցի
անզէն
անզուգական
անզուսպ
անզօր
անէծքը
անընդհատ
անընդմեջ
անընդմէջ
անընդունելի
անթարքթիքայի
անթեթոքունպօ
անթերի
անթէպի
անթիլիաս
անթիլիասի
անթիռիօ
անթիրիօ
անթիւ
անթիք
անթոն
անթոնի
անթոնիի
անթոնին
անթոնիոսը
անթոնիօ
անթուան
անժառանգ
անժելա
անժելինա
անժէլ
անի
անիէն
անիթա
անիի
անիծեալ
անիծէ
անիծները
անիկա
անիմաստ
անին
անիրաւ
անիւը
անլար
անխախտ
անխափան
անխնամ
անխնայ
անխոնջ
անխուսափելի
անխտիր
անծայրածիր
անծանօթ
անկախ
անկախանայ
անկախացած
անկախացման
անկախացումէն
անկախութեան
անկախութենէն
անկախութիւն
անկախութիւնը
անկայուն
անկանոն
անկաշկանդ
անկասկած
անկատար
անկարգութիւնները
անկարգութիւններու
անկարելի
անկարող
անկարողութիւն
անկեղծ
անկեղծութեամբ
անկենդան
անկէ
անկիւն
անկիւնային
անկիւնը
անկիւնի
անկիւնին
անկիւններ
անկիւններէն
անկիւնները
անկիւններու
անկիւններուն
անկման
անկողին
անկողինը
անկողինին
անկողմնակալ
անկում
անկումէն
անկումը
անկումի
անկումին
անկումով
անկուսակցական
անկրկնելի
անհաճոյ
անհամատեղելի
անհամար
անհամեմատ
անհայտ
անհանգիստ
անհանգստացած
անհանգստութեան
անհանգստութիւն
անհանգստութիւնը
անհաշտ
անհասանելի
անհասկանալի
անհասկնալի
անհատ
անհատական
անհատականութեան
անհատականութիւն
անհատականութիւնը
անհատը
անհատի
անհատին
անհատներ
անհատները
անհատներու
անհատներուն
անհաւասար
անհաւասարութեան
անհաւասարութիւնը
անհաւատալի
անհեթեթ
անհետ
անհետանալ
անհետանայ
անհետանան
անհետացած
անհետացման
անհետացումը
անհետացումի
անհիմն
անհնազանդ
անհնար
անհնարին
անհուն
անհրաժեշտ
անհրաժեշտութեան
անհրաժեշտութիւն
անհրաժեշտութիւնը
անհրաժէշտ
անձ
անձամբ
անձայն
անձանց
անձեռնմխելի
անձեր
անձերէ
անձերէն
անձերը
անձերու
անձերուն
անձէ
անձը
անձի
անձին
անձինք
անձն
անձնագիր
անձնակազմ
անձնակազմը
անձնակազմի
անձնակազմին
անձնական
անձնային
անձնանուն
անձնանուններ
անձնանունները
անձնանուններու
անձնապէս
անձնասպան
անձնասպանական
անձնասպանութեան
անձնատուր
անձնաւորութեան
անձնաւորութիւն
անձնաւորութիւնը
անձնաւորութիւններ
անձնաւորութիւններու
անձնուէր
անձնուիրաբար
անձնուրաց
անձրեւ
անձրեւային
անձրեւէ
անձրեւը
անձրեւի
անձրեւին
անձրեւներ
անձրեւները
անձրեւներու
անձրեւոտ
անճելըս
անճելըսի
անճելոս
անճելոսի
անճելօ
անճէլըս
անճըլես
անճըլեսի
անճըլըս
անճըլըսի
անմահ
անմահութեան
անմահութիւն
անմատչելի
անմար
անմարդաբնակ
անմարդկային
անմարմին
անմեղ
անմիջական
անմիջականօրէն
անմիջապէս
անմշակ
անմոռանալի
անյաղթ
անյաղթահարելի
անյաղթը
անյաղթի
անյայտ
անյապաղ
անյաջող
անյաջողութեան
անյարմար
անյոյս
անն
աննա
աննախադէպ
աննախընթաց
աննայի
աննան
աննկատ
աննկուն
աննման
աննշան
աննպաստ
անշահախնդիր
անշարժ
անշարժութիւն
անշուշտ
անշուք
անշօշափելի
անողոք
անոյեա
անոյշ
անոնց
անոնցմէ
անոնցմով
անոնք
անով
անոր
անորմէ
անորմով
անորոշ
անոց
անուամբ
անուան
անուանագիրք
անուանած
անուանական
անուանակարգեր
անուանակարգերու
անուանակարգերուն
անուանակարգի
անուանակարգին
անուանակոչուած
անուանակոչութեան
անուանացանկ
անուանել
անուանելով
անուանեն
անուանեց
անուանեցին
անուանէ
անուանէին
անուանէր
անուանի
անուանման
անուանուած
անուանուեցաւ
անուանուէր
անուանուի
անուանուին
անուանում
անուանումէն
անուանումը
անուանումին
անուանումն
անուանումներ
անուանումները
անուանումներով
անուանումներուն
անուանումով
անուբիսը
անուղղակի
անուղղակիօրէն
անում
անուն
անունէ
անունէն
անունը
անունի
անունին
անունն
անուններ
անուններէն
անունները
անուններն
անուններով
անուններու
անուններուն
անունով
անուշ
անուշահոտ
անուշաւան
անուշեղէն
անուշքա
անուշքայի
անուշքան
անուրանալի
անչափահաս
անչափահասներու
անպակաս
անպայման
անպայմանօրէն
անպաշտպան
անպաշտօն
անպատիժ
անպարտ
անպարտելի
անպտուղ
անջատ
անջատաբար
անջատած
անջատելով
անջատման
անջատողական
անջատուած
անջատուի
անջատուին
անջելէս
անջրդի
անսալով
անսակարկ
անսահման
անսահմանափակ
անսամպլի
անսեռ
անսովոր
անսպառ
անսպասելի
անսպասելիօրէն
անստոյգ
անվախ
անվան
անվաւեր
անվեհեր
անվերադարձ
անվերապահ
անվերջ
անվերջանալի
անվիճելի
անվճար
անվնաս
անվտանգ
անվտանգութեան
անվտանգութիւն
անվտանգութիւնը
անտալուսի
անտալուսիա
անտանելի
անտանտի
անտաշ
անտառ
անտառածածկ
անտառային
անտառապատ
անտառէն
անտառը
անտառի
անտառին
անտառներ
անտառներէն
անտառները
անտառներով
անտառներու
անտառներուն
անտարբեր
անտարբերութիւն
անտեան
անտեղեակ
անտեղի
անտեսանելի
անտեսել
անտեսելով
անտեսէ
անտեսուած
անտերս
անտի
անտիկ
անտիոք
անտիոքեան
անտիոքէն
անտիոքը
անտիոքի
անտիոքոս
անտիպ
անտիփարոս
անտիքիթիրա
անտոն
անտոնեան
անտոնիոս
անտոնիոսի
անտորրա
անտուն
անտրամաբանական
անտրէ
անտրէա
անտրէաս
անտրէի
անտրէյ
անտրոս
անտօն
անրի
անց
անցած
անցան
անցանկալի
անցաւ
անցեալ
անցեալէն
անցեալը
անցեալի
անցեալին
անցեր
անցընել
անցընելէ
անցընելով
անցընելու
անցընեն
անցընէ
անցընէր
անցկացման
անցկացնել
անցկացուած
անցկացրած
անցկացրել
անցկացրեց
անցման
անցնել
անցնելէ
անցնելէն
անցնելով
անցնելու
անցնեն
անցներ
անցնէ
անցնէին
անցնէր
անցնի
անցնիլ
անցնիլը
անցնին
անցնինք
անցնիր
անցնող
անցողակի
անցողիկ
անցորդներուն
անցուղիի
անցում
անցումային
անցումը
անցուց
անցուցած
անցք
անցքեր
անցքերը
անցքէն
անցքը
անփոխարինելի
անփորձ
անփոփոխ
անքակտելի
անքարայի
անքնութիւն
անօ
անօգնական
անօգուտ
անօդաչու
անօթ
անօթային
անօթեւան
անօթը
անօթի
անօթներ
անօթները
անօթներու
անօթներուն
անօթութեան
անօրէն
անօրինական
անօրկանական
աշ
աշակերտ
աշակերտած
աշակերտական
աշակերտելով
աշակերտելու
աշակերտէ
աշակերտը
աշակերտի
աշակերտին
աշակերտն
աշակերտներ
աշակերտներէն
աշակերտները
աշակերտներով
աշակերտներու
աշակերտներուն
աշակերտով
աշակերտութեան
աշակերտութիւնը
աշակերտուհի
աշդոդի
աշըգեան
աշխատած
աշխատակազմը
աշխատակազմի
աշխատակից
աշխատակիցը
աշխատակիցներ
աշխատակիցներէն
աշխատակիցները
աշխատակիցներու
աշխատակիցներուն
աշխատակցած
աշխատակցելով
աշխատակցի
աշխատակցիլ
աշխատակցութեամբ
աշխատակցութիւնը
աշխատանոց
աշխատանոցային
աշխատանոցը
աշխատանոցին
աշխատանոցներ
աշխատանք
աշխատանքային
աշխատանքէ
աշխատանքէն
աշխատանքը
աշխատանքի
աշխատանքին
աշխատանքն
աշխատանքներ
աշխատանքներէն
աշխատանքները
աշխատանքներն
աշխատանքներով
աշխատանքներու
աշխատանքներուն
աշխատանքով
աշխատասենեակը
աշխատասէր
աշխատասիրութեամբ
աշխատասիրութեան
աշխատասիրութիւն
աշխատասիրութիւնը
աշխատասիրութիւններ
աշխատասիրութիւնները
աշխատավարձը
աշխատավարձի
աշխատաւոր
աշխատաւորական
աշխատաւորներ
աշխատաւորները
աշխատաւորներու
աշխատաւորութեան
աշխատել
աշխատելէ
աշխատելով
աշխատելու
աշխատեր
աշխատեցաւ
աշխատէին
աշխատէր
աշխատի
աշխատիլ
աշխատին
աշխատող
աշխատողներ
աշխատողները
աշխատողներու
աշխատողներուն
աշխատուած
աշխատութեամբ
աշխատութեան
աշխատութիւն
աշխատութիւնը
աշխատութիւնն
աշխատութիւններ
աշխատութիւններէն
աշխատութիւնները
աշխատութիւններով
աշխատութիւններու
աշխատութիւններուն
աշխատուժի
աշխատունակ
աշխարհ
աշխարհաբար
աշխարհաբարը
աշխարհաբարի
աշխարհաբարով
աշխարհագէտ
աշխարհագրագէտ
աշխարհագրական
աշխարհագրականօրէն
աշխարհագրութեան
աշխարհագրութիւն
աշխարհագրութիւնը
աշխարհազօրային
աշխարհածանօթ
աշխարհակալ
աշխարհական
աշխարհահռչակ
աշխարհամարտ
աշխարհամարտէն
աշխարհամարտը
աշխարհամարտի
աշխարհամարտին
աշխարհայեացքը
աշխարհայեացքի
աշխարհային
աշխարհասփիւռ
աշխարհացոյց
աշխարհաքաղաքական
աշխարհէն
աշխարհը
աշխարհի
աշխարհիկ
աշխարհին
աշխարհիս
աշխարհն
աշխարհներու
աշխարհով
աշխարհում
աշխէն
աշխոյժ
աշխոյժօրէն
աշխուժ
աշխուժանայ
աշխուժանան
աշխուժացած
աշխուժացման
աշխուժացնէ
աշխուժութեան
աշխուժութիւն
աշխուժութիւնը
աշխուժօրէն
աշկերտ
աշճեան
աշնան
աշնանային
աշնանը
աշոտ
աշոտը
աշոտի
աշոտին
աշոցք
աշուղ
աշուղական
աշուղը
աշուղի
աշուղներ
աշուղներէն
աշուղները
աշուղներու
աշուն
աշունը
աշտարակ
աշտարակեցի
աշտարակեցին
աշտարակէն
աշտարակը
աշտարակի
աշտարակին
աշտարակներ
աշտարակները
աշտարակներով
աշտարակներու
աշտիշատ
աշտիշատի
աոաջին
աոաջնորդ
աուն
աունի
աչք
աչքառու
աչքեր
աչքերէն
աչքերը
աչքերով
աչքերու
աչքերուն
աչքը
աչքի
աչքին
աչքով
ապ
ապա
ապագայ
ապագայի
ապագային
ապագան
ապականած
ապակեայ
ապակիէ
ապակիի
ապակին
ապահով
ապահովագրական
ապահովագրութեան
ապահոված
ապահովական
ապահովել
ապահովելով
ապահովելու
ապահովեն
ապահովեց
ապահովէ
ապահովէին
ապահովէր
ապահովման
ապահովող
ապահովուած
ապահովութեան
ապահովութիւն
ապահովութիւնը
ապահովուի
ապահովում
ապահովումը
ապաճեան
ապաճեանը
ապաշիձէ
ապաշիձէի
ապաշխարութեան
ապառաժ
ապառնի
ապաս
ապաստան
ապաստանած
ապաստանի
ապաստանին
ապարան
ապարանի
ապարանքը
ապարդիւն
ապարներու
ապացոյց
ապացոյցը
ապացոյցի
ապացոյցներ
ապացոյցները
ապացոյցներու
ապացուցած
ապացուցել
ապացուցելով
ապացուցելու
ապացուցեց
ապացուցէ
ապացուցուած
ապաքինման
ապաքինում
ապենինեան
ապի
ապխազիոյ
ապհ
ապոլոն
ապու
ապուլ
ապուր
ապուրը
ապուրի
ապպաս
ապստամբ
ապստամբած
ապստամբական
ապստամբեցաւ
ապստամբի
ապստամբին
ապստամբներ
ապստամբները
ապստամբներու
ապստամբներուն
ապստամբութեամբ
ապստամբութեան
ապստամբութենէն
ապստամբութիւն
ապստամբութիւնը
ապստամբութիւններ
ապստամբութիւնները
ապստամբութիւններու
ապտ
ապտալլա
ապտալլահ
ապտել
ապտըլ
ապտիւլ
ապտուլ
ապտուլլահ
ապտուլրազաք
ապրած
ապրահամ
ապրանք
ապրանքային
ապրանքանիշի
ապրանքներ
ապրանքները
ապրանքներու
ապրել
ապրելակերպի
ապրելէ
ապրելով
ապրելու
ապրեսեան
ապրեր
ապրեցան
ապրեցաւ
ապրէին
ապրէր
ապրի
ապրիլ
ապրիլեան
ապրիլէն
ապրիլը
ապրիլի
ապրիլին
ապրին
ապրիր
ապրող
ապրողներու
ապրոյեան
ապրուած
ապրում
ապրումներ
ապրումները
ապրումներով
ապրումներու
ապրուստը
ապրուստի
ապրօ
ապօրինի
աջ
աջակից
աջակողմեան
աջակցած
աջակցելով
աջակցելու
աջակցէին
աջակցէր
աջակցի
աջակցիլ
աջակցին
աջակցող
աջակցութեամբ
աջակցութեան
աջակցութիւն
աջակցութիւնը
աջապահեան
աջափնեայ
աջէն
աջը
աջին
աջից
առ
առա
առագաստ
առած
առածներ
առակ
առակագիր
առակը
առակին
առակներ
առակները
առակներու
առակներուն
առաձգական
առայժմ
առանձին
առանձնաբար
առանձնակի
առանձնահատկութիւնները
առանձնահատկութիւններու
առանձնայատկութիւնը
առանձնայատկութիւններ
առանձնայատկութիւններէն
առանձնայատկութիւնները
առանձնայատկութիւններով
առանձնայատկութիւններու
առանձնայատկութիւններուն
առանձնայատուկ
առանձնանայ
առանձնանան
առանձնանար
առանձնաշնորհումները
առանձնապէս
առանձնատան
առանձնատուն
առանձնատուներ
առանձնատունը
առանձնացած
առանձնացաւ
առանձնացնել
առանձնացնելով
առանձնացնեն
առանձնացնէ
առանձնացուած
առանձնացումը
առանձնացուցած
առանշահիկ
առանց
առանցքային
առանցքը
առանցքի
առանցքին
առաջ
առաջադէմ
առաջադիմական
առաջադրած
առաջադրէ
առաջադրուած
առաջադրուեցաւ
առաջադրում
առաջանալ
առաջանայ
առաջանան
առաջապահ
առաջատար
առաջատարը
առաջարկ
առաջարկած
առաջարկելով
առաջարկեն
առաջարկեց
առաջարկեցին
առաջարկէ
առաջարկէին
առաջարկէր
առաջարկը
առաջարկին
առաջարկներ
առաջարկները
առաջարկով
առաջարկուած
առաջարկուեցաւ
առաջարկութեամբ
առաջարկութիւն
առաջարկուի
առաջարկուող
առաջացած
առաջացաւ
առաջացեր
առաջացման
առաջացնել
առաջացնելով
առաջացնեն
առաջացնէ
առաջացող
առաջացումը
առաջացուց
առաջացուցած
առաջաւոր
առաջաւորաց
առաջընթաց
առաջընթացը
առաջընթացի
առաջընթացին
առաջին
առաջինէն
առաջինը
առաջինի
առաջինին
առաջինն
առաջիններէն
առաջինները
առաջիններն
առաջխաղացման
առաջխաղացումը
առաջնակարգ
առաջնահերթ
առաջնահերթութիւն
առաջնային
առաջնորդ
առաջնորդած
առաջնորդական
առաջնորդանիստ
առաջնորդանիստը
առաջնորդարան
առաջնորդարանը
առաջնորդարանի
առաջնորդարանին
առաջնորդելու
առաջնորդեն
առաջնորդեց
առաջնորդէ
առաջնորդը
առաջնորդի
առաջնորդին
առաջնորդն
առաջնորդներ
առաջնորդներէն
առաջնորդները
առաջնորդներու
առաջնորդներուն
առաջնորդող
առաջնորդութեամբ
առաջնորդութեան
առաջնորդուի
առաջնորդուին
առաջնութեան
առաջնութեանը
առաջնութիւն
առաջնութիւնը
առաջնութիւններ
առաջնութիւնները
առաջնութիւններու
առաջնութիւններուն
առաջուայ
առաջքը
առասպել
առասպելաբանութեան
առասպելական
առասպելը
առասպելի
առասպելին
առասպելներ
առասպելները
առասպելներու
առասպելներուն
առաստաղը
առաստաղի
առատ
առատաձեռն
առատութեան
առատութիւն
առատութիւնը
առատօրէն
առարկայ
առարկայական
առարկայի
առարկային
առարկան
առարկաներ
առարկաներէն
առարկաները
առարկաներու
առարկաներուն
առաւ
առաւել
առաւելաբար
առաւելագոյն
առաւելագոյնը
առաւելապէս
առաւելութիւն
առաւելութիւնը
առաւելութիւններ
առաւելութիւնները
առաւօտ
առաւօտեան
առաւօտը
առաւօտուն
առափնեայ
առաքեալ
առաքեալը
առաքեալի
առաքեալին
առաքեալներէն
առաքեալները
առաքեալներու
առաքեալներուն
առաքել
առաքելական
առաքելեան
առաքելեանը
առաքելեանի
առաքելոց
առաքելութեամբ
առաքելութեան
առաքելութիւն
առաքելութիւնը
առաքելութիւնն
առաքելութիւններ
առաքելութիւնները
առաքելութիւններու
առաքէլ
առաքինի
առաքինութեան
առաքինութիւնը
առաքինութիւնները
առեղծուածային
առեղծուածը
առեւանգեն
առեւանգուած
առեւանգումը
առեւտուր
առեւտուրը
առեւտուրի
առեւտուրին
առեւտուրով
առեւտրա
առեւտրական
առեւտրականի
առեւտրականներ
առեւտրականները
առեւտրականներու
առեւտրականներուն
առեւտրային
առեւտրաշրջանառութիւն
առընթեր
առթիվ
առթիւ
առթիւնքով
առժամեայ
առիանոս
առիթ
առիթէն
առիթը
առիթներ
առիթներով
առիթներու
առիթով
առին
առիւծ
առիւծասիրտը
առիւծը
առիւծի
առիւծին
առիւծներու
առլ
առլի
առկա
առկայ
առկայութեամբ
առկայութեան
առկայութիւնը
առկայութիւնն
առհասարակ
առմամբ
առնել
առնելէ
առնելով
առնելու
առնեն
առնենք
առներ
առնէ
առնէին
առնէր
առնոլտ
առնող
առնուազն
առնուած
առնուի
առնուին
առնչուած
առնչութեամբ
առնչութիւն
առնչուի
առնչուին
առնչուող
առնօ
առողջ
առողջական
առողջապահական
առողջապահութեան
առողջապահութիւն
առողջարան
առողջարանային
առողջարանը
առողջարաններու
առողջարար
առողջութեամբ
առողջութեան
առողջութիւն
առողջութիւնը
առուակ
առումը
առումներով
առումով
առջեւ
առջեւէն
առջեւը
առջեւի
առտնին
առտու
առտուան
առտուն
առցանց
առօրեայ
առօրեային
առօրեան
աս
ասալա
ասած
ասատ
ասատը
ասատի
ասատուր
ասատուրեան
ասատուրի
ասատրեան
ասատրեանի
ասգորպինաթթուի
ասգորպինաթթուն
ասդին
ասել
ասեղնագործ
ասեղնագործուած
ասեղնագործութեան
ասեղնատերեւ
ասթիփալէա
ասթիփալէայի
ասթոն
ասի
ասիա
ասիական
ասիայէն
ասիայի
ասիան
ասիկա
ասիոյ
ասլամազեան
ասլամազյան
ասլան
ասլանեան
ասլանեանը
ասկերան
ասկերանի
ասկէ
ասմարեան
ասմունքէ
ասն
ասողիկ
ասոյթներ
ասոնց
ասոնցմէ
ասոնք
ասով
ասոր
ասորական
ասորեստանը
ասորեստանի
ասորերէն
ասորի
ասորիի
ասորիներ
ասորիները
ասորիներու
ասորիներուն
ասորիք
ասորիքը
ասորիքի
ասոցիացիայի
ասուլիսի
ասում
ասուպներու
ասպանդակ
ասպատակած
ասպարեզ
ասպարեզը
ասպարեզի
ասպարեզին
ասպարէզ
ասպարէզէն
ասպարէզը
ասպարէզի
ասպարէզին
ասպարէզներու
ասպարէզներուն
ասպետ
ասպետական
ասպետի
ասպետներ
ասպետները
ասպետներու
ասպետներուն
ասպիրանտուրան
ասպնջական
աստ
աստեղնեակի
աստեղնեակիփոքր
աստիճան
աստիճանաբար
աստիճանական
աստիճանաձեւ
աստիճանաւոր
աստիճանը
աստիճանի
աստիճանին
աստիճաններ
աստիճաններէն
աստիճանները
աստիճաններով
աստիճաններու
աստիճաններուն
աստիճանով
աստծոյ
աստծուն
աստղ
աստղագէտ
աստղագէտներ
աստղագիտական
աստղագիտութեան
աստղագիտութիւն
աստղագիտութիւնը
աստղադիտարան
աստղադիտարանը
աստղադիտարանի
աստղադիտարանին
աստղակենսաբանութեան
աստղակերպ
աստղակերպեր
աստղակերպը
աստղային
աստղաշէնի
աստղեր
աստղերէն
աստղերը
աստղերու
աստղերուն
աստղը
աստղի
աստղիկ
աստղիկը
աստղիկի
աստղիկին
աստղին
աստուած
աստուածաբան
աստուածաբանական
աստուածաբաններ
աստուածաբանութեան
աստուածաբանութիւն
աստուածաբանութիւնը
աստուածածին
աստուածածինը
աստուածածինի
աստուածածինին
աստուածածնայ
աստուածածնի
աստուածամայր
աստուածամօր
աստուածայայտնութեան
աստուածային
աստուածաշնչական
աստուածաշնչային
աստուածաշնչեան
աստուածաշունչ
աստուածաշունչէն
աստուածաշունչը
աստուածաշունչի
աստուածաշունչին
աստուածատուր
աստուածատուրեան
աստուածատուրեանց
աստուածը
աստուածն
աստուածներ
աստուածներէն
աստուածները
աստուածներու
աստուածներուն
աստուածութեան
աստուածութիւնը
աստուածուհի
աստուածուհիի
աստուածուհիին
աստուածուհին
աստուածուհիներ
աստուծմէ
աստուծոյ
աստուրիայի
աստուրիոյ
աստվածածին
աստրախան
աստրախանի
ասրեան
ասփրոնիսի
ասքլիփիոն
ավ
ավագ
ավան
ավանդական
ավելի
ավետիսյան
ավետիք
ատ
ատա
ատաբազար
ատաղձագործ
ատաղձագործութեան
ատամ
ատամնաբոյժ
ատամնաբուժական
ատամնաւոր
ատանա
ատանայի
ատանան
ատանկ
ատաշ
ատեան
ատեանը
ատեանի
ատեանին
ատել
ատելի
ատելութիւնը
ատեն
ատենադպիր
ատենադպիրի
ատենախօսութեան
ատենախօսութիւն
ատենախօսութիւնը
ատենախօսութիւններու
ատենապետ
ատենապետը
ատենապետի
ատենապետն
ատենապետութիւնը
ատենապետուհի
ատենէն
ատենը
ատենի
ատենուան
ատէն
ատիդիա
ատիկա
ատիկէ
ատիկէի
ատիս
ատիսըն
ատիտասին
ատլանտեան
ատլաս
ատկէ
ատկից
ատնան
ատոլֆ
ատոմ
ատոմային
ատոնիս
ատոնց
ատոնցմէ
ատոնք
ատով
ատոր
ատտիկեան
ատտիկէ
ատտիկէի
ատր
ատրիաթիք
ատրիան
ատրիանը
ատրիանի
ատրիանոս
ատրճանակով
ատրպատական
ատրպատականը
ատրպատականի
ատրպէյճան
ատրպէյճանական
ատրպէյճանը
ատրպէյճանի
ատրպէյճանին
ար
արա
արաբ
արաբա
արաբախօս
արաբական
արաբերէն
արաբերէնը
արաբերէնի
արաբերէնին
արաբերէնն
արաբերէնով
արաբիա
արաբիան
արաբիոյ
արաբկիր
արաբկիրի
արաբներ
արաբներէն
արաբները
արաբներու
արաբներուն
արագ
արագած
արագածը
արագածի
արագածոտն
արագածոտնի
արագահոս
արագանայ
արագացնէ
արագընթաց
արագութեամբ
արագութեան
արագութիւն
արագութիւնը
արագօրէն
արազ
արածանի
արածանիի
արական
արակոն
արակոնեան
արակոնի
արահետ
արամ
արամազդ
արամազդի
արամայիս
արամեան
արամերէն
արամէ
արամը
արամի
արայի
արայիկ
արան
արապեան
արաս
արատներ
արար
արարած
արարածը
արարայի
արարատ
արարատեան
արարատեանի
արարատը
արարատի
արարիչ
արարիչը
արարողութեամբ
արարողութեան
արարողութեանը
արարողութենէն
արարողութիւն
արարողութիւնը
արարողութիւններ
արարողութիւնները
արարողութիւններու
արարողութիւններուն
արարք
արարքը
արարքի
արարքներ
արարքները
արարքներուն
արաքս
արաքսեան
արաքսը
արաքսի
արբանեակ
արբանեակային
արբանեակը
արբանեակներ
արբանեակները
արբանեակներու
արբունքի
արգանդի
արգաւանդ
արգելավայր
արգելափակուած
արգելափակում
արգելոց
արգելոցը
արգելոցի
արգելոցին
արգելուած
արգելք
արգելքը
արգելքի
արգելքները
արգելքներու
արգիլած
արգիլել
արգիլելով
արգիլելու
արգիլեն
արգիլեց
արգիլէ
արգիլէր
արգիլուած
արգիլուեցան
արգիլուեցաւ
արգիլուէր
արգիլուի
արգիլուին
արգիշտի
արգիշտիխինիլի
արդ
արդար
արդարադատութեան
արդարացի
արդարացնելու
արդարացուած
արդարեւ
արդարութեան
արդարութիւն
արդարութիւնը
արդեն
արդեօ
արդեօք
արդէն
արդի
արդիական
արդիականացման
արդիւնաբեր
արդիւնաբերական
արդիւնաբերող
արդիւնաբերութեամբ
արդիւնաբերութեան
արդիւնաբերութիւն
արդիւնաբերութիւնը
արդիւնաբերութիւնն
արդիւնահանեն
արդիւնահանման
արդիւնահանումը
արդիւնավետ
արդիւնաւէտ
արդիւնաւէտութեան
արդիւնաւէտութիւնը
արդիւնք
արդիւնքը
արդիւնքի
արդիւնքին
արդիւնքն
արդիւնքներ
արդիւնքներէն
արդիւնքները
արդիւնքներով
արդիւնքներու
արդիւնքներուն
արդիւնքով
արդիւնքում
արդուին
արեամբ
արեան
արեգ
արեգակէն
արեգակը
արեգակի
արեգակին
արեգակնային
արեթա
արենա
արենի
արենիի
արեւ
արեւագալ
արեւադարձային
արեւածագը
արեւածագին
արեւածաղիկ
արեւային
արեւելա
արեւելագէտ
արեւելագիտական
արեւելագիտութեան
արեւելաեւրոպական
արեւելահայ
արեւելահայաստանի
արեւելահայերէն
արեւելահայերէնի
արեւելահայերու
արեւելահայութեան
արեւելահռոմէական
արեւելեան
արեւելեանը
արեւելյան
արեւելցի
արեւելցիի
արեւելցին
արեւելք
արեւելքէն
արեւելքը
արեւելքի
արեւելքին
արեւէն
արեւը
արեւի
արեւիկ
արեւին
արեւմ
արեւմուտք
արեւմուտքէն
արեւմուտքը
արեւմուտքի
արեւմուտքին
արեւմտա
արեւմտաեւրոպական
արեւմտահայ
արեւմտահայաստանը
արեւմտահայաստանի
արեւմտահայերէն
արեւմտահայերէնը
արեւմտահայերէնի
արեւմտահայերէնին
արեւմտահայերէնով
արեւմտահայերու
արեւմտահայոց
արեւմտահայութեան
արեւմտահայութիւնը
արեւմտեան
արեւմտեանը
արեւմտյան
արեւշատ
արեւոտ
արեւու
արեւուն
արեւտրական
արզնի
արզնիի
արզուման
արզումանեան
արթ
արթեմիս
արթիկ
արթիկի
արթին
արթիւր
արթննալու
արթննայ
արթնցնել
արթնցնէ
արթնցուցած
արթուն
արթուր
արթօ
արժ
արժանանալով
արժանանալու
արժանանայ
արժանանան
արժանանար
արժանապատուութեան
արժանապատուութիւնը
արժանացած
արժանացան
արժանացաւ
արժանացեր
արժանացուց
արժանաւոր
արժանաւորապէս
արժանեաց
արժանթին
արժանթինական
արժանթինահայ
արժանթինը
արժանթինի
արժանթինցի
արժանթինցին
արժանթինցիները
արժանի
արժանիքները
արժեքաւոր
արժեքը
արժէ
արժէր
արժէք
արժէքաւոր
արժէքը
արժէքի
արժէքին
արժէքն
արժէքներ
արժէքները
արժէքներով
արժէքներու
արժէքներուն
արժէքով
արժողութեամբ
արժոյթը
արժոյթի
արժոյթներու
արժութային
արի
արիական
արիան
արիատնի
արիատնիին
արիզոնա
արիզոնայի
արին
արիութեան
արիութիւն
արիս
արիսթոթելի
արիստակէս
արիստոթելեան
արիստոթելիս
արիստոթելիսի
արիստոթելիսին
արիստոտելի
արիստոտէլ
արիստոտէլի
արիւն
արիւնալի
արիւնահեղ
արիւնահոսութեան
արիւնահոսութիւն
արիւնահոսութիւնը
արիւնահոսում
արիւնատար
արիւնարբու
արիւնէն
արիւնը
արիւնի
արիւնով
արիւնոտ
արլ
արլէն
արխայիքի
արխիվ
արխիւ
արխիւային
արխիւը
արխիւի
արխիւին
արխիւներ
արխիւները
արխիւներու
արխիւներուն
արխիփելաղոս
արծաթ
արծաթափայլ
արծաթեայ
արծաթէ
արծաթէն
արծաթը
արծաթի
արծաթով
արծարծած
արծարծէ
արծարծուած
արծիւ
արծիւը
արծիւի
արծուի
արծրուն
արծրունեաց
արծրունի
արծրունիի
արծրունիին
արծրունին
արծրունիներ
արծրունիներու
արկադի
արկած
արկածախնդրական
արկածախնդրութիւնները
արկածային
արկածի
արկածները
արկածներու
արհակելոս
արհամարհելով
արհեստ
արհեստագիտական
արհեստագիտութեան
արհեստագիտութիւնը
արհեստագործական
արհեստագործութեան
արհեստագործութիւնը
արհեստական
արհեստականօրէն
արհեստակցական
արհեստանոց
արհեստանոցը
արհեստանոցի
արհեստանոցին
արհեստանոցներ
արհեստավարժ
արհեստաւոր
արհեստաւորական
արհեստաւորներ
արհեստաւորները
արհեստաւորներու
արհեստը
արհեստի
արհեստին
արհեստից
արհեստներ
արհեստներէն
արհեստները
արհեստներն
արհեստներով
արհեստներու
արհեստով
արհմիութիւններու
արձագանգ
արձագանգած
արձագանգը
արձագանգները
արձագանք
արձագանքը
արձագանքներ
արձագանքները
արձակ
արձակագիր
արձակագիրներ
արձակած
արձակել
արձակելու
արձակեն
արձակեց
արձակէ
արձակը
արձակի
արձակման
արձակուած
արձակուելէ
արձակուելէն
արձակուեցաւ
արձակուի
արձակուին
արձակումը
արձակուրդը
արձակուրդի
արձան
արձանագրած
արձանագրել
արձանագրելով
արձանագրեն
արձանագրեց
արձանագրէ
արձանագրող
արձանագրուած
արձանագրուեցաւ
արձանագրութեամբ
արձանագրութեան
արձանագրութիւն
արձանագրութիւնը
արձանագրութիւններ
արձանագրութիւններէն
արձանագրութիւնները
արձանագրութիւններով
արձանագրութիւններու
արձանագրութիւններուն
արձանագրուի
արձանագրուին
արձանը
արձանի
արձանիկ
արձանիկը
արձանիկներ
արձանին
արձանն
արձաններ
արձանները
արձաններով
արձաններու
արձաններուն
արձանով
արղանա
արղոլիտա
արղոլիքոս
արղոս
արղոսթոլի
արղութեան
արղութեանը
արղութեանի
արճէշ
արճէշի
արճուն
արման
արմանի
արմաշ
արմաշի
արմատ
արմատախիլ
արմատական
արմատային
արմատապէս
արմատացած
արմատէն
արմատը
արմատի
արմատին
արմատներ
արմատները
արմատներով
արմատներու
արմատներուն
արմաւենի
արմաւենիի
արմաւիր
արմաւիրը
արմաւիրի
արմեն
արմենակ
արմենական
արմենի
արմենիա
արմենիս
արմենիքա
արմենիքի
արմենուհի
արմէն
արմէնեան
արմէնը
արմէնի
արմէնիա
արմին
արմինա
արմինէ
արմինիա
արմինիըն
արմշատ
արմուկ
արմուկի
արշալոյս
արշակ
արշակը
արշակի
արշակունեաց
արշակունի
արշակունին
արշակունիներ
արշակունիները
արշակունիներու
արշամ
արշաւ
արշաւախումբը
արշաւախումբի
արշաւած
արշաւանք
արշաւանքէն
արշաւանքը
արշաւանքի
արշաւանքին
արշաւանքներ
արշաւանքներէն
արշաւանքները
արշաւանքներու
արշաւանքներուն
արշաւել
արշաւելու
արշաւեն
արշաւեց
արշաւէ
արշաւը
արշաւի
արշաւին
արշաւիր
արշաւներու
արշաւող
արշիլ
արու
արուած
արուարձան
արուարձանը
արուարձանի
արուարձանին
արուարձաններէն
արուարձանները
արուարձաններով
արուարձաններու
արուարձաններուն
արուեստ
արուեստաբան
արուեստաբանական
արուեստաբաններ
արուեստաբանութեան
արուեստագետներու
արուեստագէտ
արուեստագէտը
արուեստագէտի
արուեստագէտին
արուեստագէտներ
արուեստագէտներէն
արուեստագէտները
արուեստագէտներու
արուեստագէտներուն
արուեստագիտական
արուեստագիտութեան
արուեստագիտութիւն
արուեստագիտութիւնը
արուեստագիտութիւններու
արուեստագիտուհի
արուեստական
արուեստային
արուեստանոց
արուեստանոցը
արուեստանոցի
արուեստանոցին
արուեստասէր
արուեստը
արուեստի
արուեստին
արուեստից
արուեստն
արուեստներ
արուեստները
արուեստներու
արուեստով
արուն
արուները
արուս
արուսեակ
արուսեակին
արպելոան
արջ
արջակատուներուն
արջառի
արջեր
արջերը
արջերու
արջը
արջի
արսեմիա
արսեն
արսենալ
արսենալը
արսենալի
արսէն
արսէնը
արսէնի
արսլան
արսլանեան
արսլանեանի
արվեստի
արտ
արտա
արտաբերման
արտագաղթ
արտագաղթած
արտագաղթեն
արտագաղթը
արտագաղթի
արտագաղթին
արտագին
արտագնայ
արտագրուած
արտադպրոցական
արտադրած
արտադրական
արտադրանք
արտադրանքը
արտադրանքի
արտադրանքին
արտադրանքներ
արտադրեալ
արտադրեալը
արտադրեալի
արտադրել
արտադրելու
արտադրեն
արտադրեց
արտադրէ
արտադրիչ
արտադրիչն
արտադրման
արտադրող
արտադրողական
արտադրողը
արտադրողներ
արտադրողները
արտադրուած
արտադրութեամբ
արտադրութեան
արտադրութիւն
արտադրութիւնը
արտադրութիւնն
արտադրութիւններ
արտադրութիւններէն
արտադրութիւնները
արտադրութիւններու
արտադրուի
արտադրուին
արտադրուող
արտազ
արտակ
արտակարգ
արտահան
արտահանէ
արտահանը
արտահանի
արտահանման
արտահանուած
արտահանութեան
արտահանուի
արտահանուին
արտահանումը
արտահերթ
արտայայտած
արտայայտել
արտայայտելով
արտայայտելու
արտայայտեն
արտայայտէ
արտայայտէին
արտայայտիչ
արտայայտման
արտայայտող
արտայայտուած
արտայայտութեամբ
արտայայտութեան
արտայայտութիւն
արտայայտութիւնը
արտայայտութիւնն
արտայայտութիւններ
արտայայտութիւնները
արտայայտութիւններու
արտայայտուի
արտայայտուին
արտայայտումը
արտայայտչական
արտայայտչականութեան
արտաշատ
արտաշատը
արտաշատի
արտաշես
արտաշէս
արտաշէսեան
արտաշէսեաններու
արտաշէսը
արտաշէսի
արտաշիսեան
արտաշիր
արտասահման
արտասահմանեան
արտասահմանէն
արտասահմանի
արտասահմանին
արտասահմանցի
արտասանած
արտասանէ
արտասանութեան
արտասանութիւնը
արտասանուի
արտասովոր
արտավազդ
արտացոլած
արտացոլայ
արտացոլան
արտացոլեն
արտացոլէ
արտացոլման
արտացոլող
արտացոլուած
արտացոլումը
արտաւազդ
արտաւազդը
արտաւազդի
արտաւազդին
արտաւանը
արտաքին
արտաքինէն
արտաքինը
արտաքնապէս
արտաքուստ
արտաքսման
արտաքսուած
արտաքսումը
արտեմ
արտեմի
արտեմիս
արտեմիսի
արտեր
արտերկրի
արտը
արտիստ
արտոս
արտուինի
արտօ
արտօնագիր
արտօնագիրը
արտօնատէր
արտօնեալ
արտօնէ
արտօնուած
արտօնութեամբ
արտօնութեան
արտօնութիւն
արտօնութիւնը
արտօնութիւններ
արտօնութիւնները
արտօնուի
արցախ
արցախահայութեան
արցախեան
արցախէն
արցախը
արցախի
արցախին
արցախում
արցախցի
արցունք
արցունքաբեր
արցունքը
արցունքի
արցունքներ
արցունքները
արւմտ
արփա
արփայի
արփենիկ
արփի
արփիար
արփիարեան
արփիարեանի
արփինէ
արք
արքայ
արքայադուստր
արքայադուստրը
արքայադստեր
արքայազն
արքայազնը
արքայական
արքայատոհմը
արքայատոհմի
արքայի
արքային
արքայից
արքայութեան
արքայութիւնը
արքան
արքաներ
արքաները
արքաներու
արքատիա
արքեպիսկոպոս
արքեպիսկոպոսը
արքեպիսկոպոսի
արքեպս
արքի
արքութեան
արքունական
արքունի
արքունիք
արքունիքը
արքունիքի
արքունիքին
արօտավայրերը
արևելքի
արևմտեան
աւ
աւագ
աւագանիի
աւագանիին
աւագանին
աւագեան
աւագեանը
աւագեանի
աւագը
աւագի
աւագութեան
աւազակներ
աւազակները
աւազային
աւազան
աւազանը
աւազանի
աւազանին
աւազաններու
աւազաններուն
աւազէ
աւազի
աւազոտ
աւաղանի
աւան
աւանակի
աւանգարդ
աւանդ
աւանդաբար
աւանդած
աւանդական
աւանդապահ
աւանդատուն
աւանդատուներով
աւանդէ
աւանդը
աւանդի
աւանդին
աւանդները
աւանդոյթ
աւանդոյթը
աւանդոյթի
աւանդոյթին
աւանդոյթներ
աւանդոյթները
աւանդոյթներով
աւանդոյթներու
աւանդոյթներուն
աւանդուած
աւանդութեան
աւանդութիւն
աւանդութիւնը
աւանդութիւններ
աւանդութիւնները
աւանդութիւններու
աւանդութիւններուն
աւանը
աւանի
աւանին
աւաններ
աւատական
աւատապետական
աւատատիրական
աւատատիրութեան
աւար
աւարայրի
աւարները
աւարներու
աւարտ
աւարտած
աւարտական
աւարտաճառ
աւարտաճառը
աւարտել
աւարտելէ
աւարտելէն
աւարտելը
աւարտելով
աւարտելու
աւարտեր
աւարտեց
աւարտեցան
աւարտեցաւ
աւարտէ
աւարտէն
աւարտէր
աւարտը
աւարտի
աւարտին
աւարտուած
աւարտուեցաւ
աւգերեան
աւգոստոս
աւդալեան
աւել
աւելացման
աւելացուած
աւելի
աւելին
աւելիով
աւելնայ
աւելնան
աւելորդ
աւելցած
աւելցաւ
աւելցնել
աւելցնելով
աւելցնելու
աւելցնեն
աւելցնէ
աւելցուած
աւելցուի
աւելցուկային
աւելցուց
աւելցուցած
աւետ
աւետաբեր
աւետարան
աւետարանական
աւետարանը
աւետարանի
աւետարանին
աւետարանիչ
աւետարանիչներու
աւետարաններ
աւետարաններէն
աւետարանները
աւետարանոց
աւետարանչական
աւետեան
աւետեաց
աւետեն
աւետիս
աւետիսեան
աւետիսեանը
աւետիսեանի
աւետիսի
աւետիք
աւետիքեան
աւետման
աւետում
աւերած
աւերակ
աւերակներ
աւերակներէն
աւերակները
աւերակներու
աւերակներուն
աւերեն
աւերէ
աւերիչ
աւերման
աւերներ
աւերուած
աւերուի
աւերուին
աւերումը
աւէլի
աւիշային
աւկատանձը
աւկատանձին
աւշագեղձերու
աւստրալական
աւստրալացի
աւստրալիա
աւստրալիական
աւստրալիայի
աւստրալիան
աւստրալիոյ
աւստրիա
աւստրիական
աւստրիայէն
աւստրիայի
աւստրիան
աւստրիացի
աւստրիոյ
աւստրո
աւստրօ
աւրորա
աւօ
ափ
ափամերձ
ափդերու
ափեր
ափերէն
ափերը
ափերով
ափերու
ափերուն
ափէն
ափը
ափի
ափին
ափոլլոն
ափոլլօ
ափոլոն
ափոլոնաս
ափոլոնասի
ափոլոնասին
ափոլոնիա
ափով
ափսէ
ափրիկեան
ափրիկեցի
ափրիկէ
ափրիկէական
ափրիկէէն
ափրիկէի
ափրիկէին
ափրիկէյի
ափրիկէն
աք
աքաղաղ
աքամենեան
աքայեան
աքեմենեան
աքեմենեաններու
աքմ
աքշէյ
աքչամ
աքսել
աքսիոն
աքսոմաթ
աքսոր
աքսորական
աքսորականներու
աքսորականներուն
աքսորավայրին
աքսորեալ
աքսորեն
աքսորէ
աքսորէն
աքսորը
աքսորի
աքսորուած
աքսորուեցան
աքսորուեցաւ
աքսորուի
աքսորուին
աքրա
աքրոթիրի
աքրոնաֆփլիա
աքրոփոլի
աքրոփոլիի
աքրոփոլիին
աքրոփոլին
աքրոփոլիս
աքրոփոլիսը
աքրոփոլիսի
աքրոփոլիսին
աքքա
աքքադերէն
աքքայի
աքքան
աֆ
աֆիոն
աֆիոնքարահիսար
աֆիոնքարահիսարի
աֆղանական
աֆղանիստան
աֆղանիստանէն
աֆղանիստանը
աֆղանիստանի
աֆղանստանի
աֆրոտիթի
բ
բա
բաբաեան
բաբախում
բաբախումը
բաբախումի
բաբայեան
բաբգէն
բաբելական
բաբելոն
բաբելոնեան
բաբելոնէն
բաբելոնը
բաբելոնի
բաբերդ
բաբլումեան
բաբկէն
բագարան
բագարատ
բագաւանի
բագին
բագու
բագրատ
բագրատի
բագրատունեանց
բագրատունեաց
բագրատունի
բագրատունիի
բագրատունիին
բագրատունին
բագրատունիներ
բագրատունիները
բագրատունիներու
բագրատունիներուն
բագրեւանդ
բադալեան
բազ
բազայի
բազան
բազէ
բազէի
բազէն
բազմաբնոյթ
բազմադարեան
բազմազան
բազմազանութեամբ
բազմազանութեան
բազմազանութիւն
բազմազանութիւնը
բազմազգ
բազմաթիվ
բազմաթիւ
բազմաժանր
բազմալեզու
բազմած
բազմակի
բազմակողմանի
բազմահազար
բազմահատոր
բազմաձայն
բազմաճիւղ
բազմամարդ
բազմամեայ
բազմայարկ
բազմայարկանի
բազմանալ
բազմանայ
բազմանան
բազմանդամ
բազմանիստ
բազմանկիւն
բազմաշարք
բազմաշերտ
բազմապատկման
բազմապատկուի
բազմապատկումը
բազմապիսի
բազմավաստակ
բազմավէպ
բազմատեսակ
բազմարուեստարանի
բազմարուեստեան
բազմացած
բազմացման
բազմացում
բազմացումը
բազմաքանակ
բազմիցս
բազմութեամբ
բազմութեան
բազմութիւն
բազմութիւնը
բազուկը
բազուկի
բազուկներու
բազում
բազումի
բաժակ
բաժակակիր
բաժակը
բաժակի
բաժակին
բաժակներ
բաժամունքին
բաժանարարներու
բաժանման
բաժանմունք
բաժանմունքէն
բաժանմունքը
բաժանմունքի
բաժանմունքին
բաժանմունքներ
բաժանմունքները
բաժանմունքներու
բաժանմունքներուն
բաժանուած
բաժանուի
բաժանուին
բաժանում
բաժանումէն
բաժանումը
բաժանումի
բաժանումին
բաժանումներ
բաժանումները
բաժանումով
բաժին
բաժինէն
բաժինը
բաժինի
բաժինին
բաժինն
բաժիններ
բաժիններէ
բաժիններէն
բաժինները
բաժիններով
բաժիններու
բաժիններուն
բաժինով
բաժնած
բաժնել
բաժնելով
բաժնելու
բաժնեն
բաժնետիրական
բաժնետոմսերու
բաժնեց
բաժնեցին
բաժնէ
բաժնէին
բաժնէն
բաժնէր
բաժնի
բաժնին
բաժնող
բաժնուած
բաժնուելով
բաժնուեցան
բաժնուեցաւ
բաժնուէր
բաժնուի
բաժնուիլ
բաժնուին
բաժնուող
բալա
բալայեան
բալդուին
բալետի
բալու
բալուի
բախման
բախում
բախումը
բախումի
բախումներ
բախումները
բախումներու
բախումներուն
բախտ
բախտախաղի
բախտաւորուած
բախտաւորուի
բախտաւորուին
բախտը
բախտի
բախտորոշ
բակ
բակը
բակի
բակին
բակունց
բակունցի
բակօ
բահ
բաղ
բաղաբերդ
բաղադրատոմսը
բաղադրեալ
բաղադրիչ
բաղադրիչը
բաղադրիչն
բաղադրիչներ
բաղադրիչներէն
բաղադրիչները
բաղադրիչներու
բաղադրութեամբ
բաղադրութեան
բաղադրութիւն
բաղադրութիւնը
բաղաձայն
բաղաձայններու
բաղդասարեան
բաղդատած
բաղդատական
բաղդիշեան
բաղէշ
բաղէշի
բաղիշեցին
բաղկանայ
բաղկանան
բաղկանար
բաղկացած
բաղկացուցիչ
բաղձանքը
բաղնիք
բաղնիքը
բաղնիքի
բաղնիքին
բաղնիքներ
բաղնիքները
բաղրամեան
բաղրամեանի
բամբակ
բամբակեայ
բամբիռ
բամբիռը
բամպակ
բամպակէ
բամպակի
բայ
բայական
բայեր
բայերը
բայերու
բայէն
բայը
բայի
բային
բայց
բան
բանալ
բանալին
բանալով
բանալու
բանախօսութիւններ
բանակ
բանակային
բանական
բանականութեան
բանականութիւն
բանականութիւնը
բանակավայրը
բանակէն
բանակը
բանակի
բանակին
բանակն
բանակներ
բանակները
բանակներու
բանակներուն
բանակով
բանակցելու
բանակցիլ
բանակցութեան
բանակցութիւններ
բանակցութիւնները
բանակցութիւններու
բանակցութիւններուն
բանահաւաք
բանահիւսական
բանահիւսութեան
բանահիւսութիւն
բանահիւսութիւնը
բանաձեւ
բանաձեւեր
բանաձեւերը
բանաձեւերու
բանաձեւը
բանաձեւի
բանաձեւին
բանայ
բանային
բանան
բանասէր
բանասէրներ
բանասիրական
բանասիրութեան
բանասիրութիւն
բանաստեղծ
բանաստեղծական
բանաստեղծը
բանաստեղծի
բանաստեղծին
բանաստեղծներ
բանաստեղծներէն
բանաստեղծները
բանաստեղծներու
բանաստեղծներուն
բանաստեղծութեամբ
բանաստեղծութեան
բանաստեղծութեանց
բանաստեղծութիւն
բանաստեղծութիւնը
բանաստեղծութիւններ
բանաստեղծութիւններէն
բանաստեղծութիւնները
բանաստեղծութիւններն
բանաստեղծութիւններով
բանաստեղծութիւններու
բանաստեղծութիւններուն
բանաստեղծություններ
բանաստեղծուհի
բանավէճեր
բանավէճերու
բանավէճի
բանաւոր
բանբեր
բաներ
բաներու
բանեցնել
բանեցնէ
բանէն
բանը
բանի
բանին
բանկ
բանկային
բանկի
բանն
բանող
բանով
բանուկ
բանուոր
բանուորական
բանուորներ
բանուորները
բանուորներն
բանուորներու
բանուորներուն
բանուորուհիները
բանջարեղէն
բանջարեղէնի
բանտ
բանտային
բանտարկած
բանտարկեալ
բանտարկեալը
բանտարկեալի
բանտարկեալներ
բանտարկեալները
բանտարկեալներու
բանտարկեալներուն
բանտարկէ
բանտարկուած
բանտարկութեան
բանտարկութենէ
բանտարկուի
բանտարկուին
բանտեր
բանտերէն
բանտերը
բանտերու
բանտերուն
բանտէն
բանտը
բանտի
բանտին
բաշ
բաշինջաղեան
բաշխական
բաշխման
բաշխուած
բաշխում
բաշխումը
բառ
բառագիտութիւն
բառակապակցութեան
բառակապակցութիւնը
բառային
բառապաշար
բառապաշարը
բառապաշարի
բառապաշարին
բառապաշարով
բառարան
բառարանագիր
բառարանագիրներ
բառարանագրութեան
բառարանը
բառարանի
բառարանին
բառարաններ
բառարանները
բառարաններու
բառացի
բառացիօրէն
բառգիրք
բառեր
բառերէ
բառերէն
բառերը
բառերով
բառերու
բառերուն
բառէն
բառը
բառի
բառին
բառն
բառով
բաս
բասէնի
բար
բարակ
բարատեոնի
բարբառ
բարբառային
բարբառը
բարբառի
բարբառին
բարբառներ
բարբառները
բարբառներով
բարբառներու
բարբառով
բարբարոս
բարբարոսական
բարբարոսներու
բարգաւաճ
բարգաւաճի
բարգաւաճման
բարգաւաճումը
բարդ
բարդանայ
բարդողիմէոս
բարդութեան
բարդութիւններ
բարդութիւնները
բարդութիւններու
բարեացակամ
բարեբախտաբար
բարեբեր
բարեգործ
բարեգործական
բարեգործականի
բարելաւել
բարելաւելու
բարելաւեն
բարելաւէ
բարելաւման
բարելաւուած
բարելաւուի
բարելաւուին
բարելաւում
բարելաւումը
բարեխառն
բարեկամ
բարեկամական
բարեկամը
բարեկամին
բարեկամներ
բարեկամներէն
բարեկամները
բարեկամներու
բարեկամներուն
բարեկամութեան
բարեկամութիւն
բարեկամութիւնը
բարեկարգ
բարեկարգման
բարեկարգուած
բարեկարգութեան
բարեկենդան
բարեկենդանը
բարեկենդանի
բարեկեցիկ
բարեկեցութեան
բարեկեցութիւնը
բարեկիրթ
բարենորոգումներ
բարենորոգումներու
բարենպաստ
բարեպաշտ
բարեսէր
բարեսիրական
բարեսիրտ
բարերար
բարերարի
բարերարներ
բարերարներու
բարերարներուն
բարերարութեամբ
բարեւ
բարեփոխիչ
բարեփոխման
բարեփոխումներ
բարեփոխումները
բարեփոխումներու
բարեփոխումներուն
բարթոն
բարի
բարիզ
բարիի
բարին
բարիք
բարիքը
բարիքին
բարիքներէն
բարիքները
բարխուդարեան
բարկութիւնը
բարձ
բարձունքէն
բարձունքը
բարձունքի
բարձունքին
բարձունքներ
բարձունքները
բարձունքներու
բարձունքներուն
բարձր
բարձրագոյն
բարձրագույն
բարձրադիր
բարձրակարգ
բարձրահասակ
բարձրաձայն
բարձրայարկ
բարձրանալ
բարձրանալը
բարձրանալով
բարձրանալու
բարձրանայ
բարձրանային
բարձրանան
բարձրանար
բարձրաստիճան
բարձրարժէք
բարձրարուեստ
բարձրացած
բարձրացան
բարձրացաւ
բարձրացման
բարձրացնել
բարձրացնելով
բարձրացնելու
բարձրացնեն
բարձրացնէ
բարձրացող
բարձրացուած
բարձրացում
բարձրացումը
բարձրացումով
բարձրացուց
բարձրացուցած
բարձրացուցին
բարձրաւանդակ
բարձրաւանդակէն
բարձրաւանդակը
բարձրաւանդակի
բարձրաւանդակին
բարձրաքանդակ
բարձրաքանդակը
բարձրաքանդակներ
բարձրորակ
բարձրութեամբ
բարձրութեան
բարձրութենէն
բարձրութիւն
բարձրութիւնը
բարձրութիւնն
բարձրութիւնները
բարձրութիւններու
բարոյագիտական
բարոյագիտութեան
բարոյագիտութիւն
բարոյագիտութիւնը
բարոյախօսական
բարոյական
բարոյականութեան
բարոյականութիւնը
բարոյապէս
բարով
բարութեան
բարութիւն
բարսելոնայի
բարսեղ
բարսեղեան
բարսեղեանը
բարսեղեանի
բարսեղի
բարւոք
բարքերը
բարքերու
բարքերուն
բարօրութեան
բաց
բացած
բացակայ
բացակայէր
բացակայի
բացակային
բացակայութեամբ
բացակայութեան
բացակայութենէն
բացակայութիւն
բացակայութիւնը
բացայայտ
բացայայտած
բացայայտել
բացայայտելու
բացայայտեն
բացայայտեց
բացայայտէ
բացայայտման
բացայայտուած
բացայայտուեցաւ
բացայայտուի
բացայայտումը
բացայայտումները
բացայայտօրէն
բացառապէս
բացառեալ
բացառիկ
բացառութեամբ
բացառութիւն
բացառութիւններ
բացասաբար
բացասական
բացատրած
բացատրական
բացատրել
բացատրելով
բացատրելու
բացատրեն
բացատրէ
բացատրուած
բացատրութեան
բացատրութիւն
բացատրութիւնը
բացատրութիւններ
բացատրուի
բացարձակ
բացարձակապէս
բացաւ
բացերը
բացը
բացի
բացիկներ
բացին
բացման
բացուած
բացուածք
բացուածքը
բացուածքով
բացուեր
բացուեցան
բացուեցաւ
բացուի
բացուիլ
բացուին
բացում
բացումէն
բացումը
բացումին
բացուող
բացօթեայ
բաւական
բաւականաչափ
բաւականին
բաւարար
բաւարարելու
բաւարարեր
բաւարարէ
բաւարարուի
բաքու
բաքուի
բե
բեդրոկրատի
բեթէլ
բեթղեհէմի
բելի
բեկ
բեկի
բեկոր
բեկորներ
բեկորները
բեկումնային
բեղմնաւոր
բեղուն
բեմ
բեմագիր
բեմադրած
բեմադրական
բեմադրել
բեմադրեց
բեմադրէ
բեմադրիչ
բեմադրիչը
բեմադրիչի
բեմադրիչին
բեմադրիչն
բեմադրիչներ
բեմադրիչներու
բեմադրող
բեմադրուած
բեմադրուէին
բեմադրութեամբ
բեմադրութեան
բեմադրութիւն
բեմադրութիւնը
բեմադրութիւններ
բեմադրութիւններէն
բեմադրութիւնները
բեմադրութիւններու
բեմադրուի
բեմադրուին
բեմական
բեմանկարիչ
բեմապարի
բեմավար
բեմերու
բեմերուն
բեմէն
բեմը
բեմի
բեմին
բենիամին
բեռ
բեռը
բեռնատար
բեռնաւորուած
բեռներ
բեռնուած
բեր
բերա
բերած
բերայի
բերան
բերանային
բերանացի
բերանէն
բերանը
բերանի
բերանին
բերաւ
բերդ
բերդաքաղաք
բերդաքաղաքը
բերդեր
բերդերէն
բերդերը
բերդերու
բերդէն
բերդը
բերդի
բերդին
բերել
բերելը
բերելով
բերելու
բերեն
բերեր
բերէ
բերէին
բերէր
բերի
բերիի
բերին
բերիոյ
բերկրալի
բերկրուհի
բերձոր
բերձորի
բերմամբ
բերնէն
բերնի
բերնին
բերող
բերուած
բերուեցան
բերուեցաւ
բերուի
բերուին
բերումը
բերումով
բերրի
բերք
բերքահաւաքի
բերքը
բերքի
բերքին
բեւեռ
բեւեռային
բեւեռի
բզնունեաց
բէկ
բէկի
բժ
բժիշկ
բժիշկը
բժիշկի
բժիշկին
բժիշկներ
բժիշկներէն
բժիշկները
բժիշկներու
բժիշկներուն
բժշկա
բժշկագիտական
բժշկագիտութեան
բժշկական
բժշկապետ
բժշկեան
բժշկի
բժշկութեամբ
բժշկութեան
բժշկութիւն
բժշկութիւնը
բժշկուհի
բի
բիծեր
բիրտ
բիւ
բիւզանդ
բիւզանդա
բիւզանդական
բիւզանդացի
բիւզանդացին
բիւզանդացիները
բիւզանդացիներու
բիւզանդացիներուն
բիւզանդեան
բիւզանդը
բիւզանդի
բիւզանդիա
բիւզանդիայի
բիւզանդիան
բիւզանդիոյ
բիւզանդիոն
բիւզանդիոնը
բիւզանդիոնի
բիւճէի
բիւր
բիւրական
բիւրականի
բիւրակն
բիւրակնեան
բիւրատ
բիւրեղ
բիւրեղային
բիւրեղեայ
բիւրեղները
բիւրեղներու
բիւրոյի
բիւրոն
բիւրօ
բլաթոնի
բլիթ
բլուր
բլուրէն
բլուրը
բլուրի
բլուրին
բլուրներ
բլուրներու
բլուրներուն
բխած
բխի
բխին
բխող
բծախնդիր
բծախնդրութեամբ
բծաւոր
բնա
բնագավառին
բնագաւառ
բնագաւառէն
բնագաւառը
բնագաւառի
բնագաւառին
բնագաւառներէն
բնագաւառները
բնագաւառներու
բնագաւառներուն
բնագէտ
բնագէտներ
բնագիտական
բնագիտութեան
բնագիտութիւն
բնագիր
բնագիրը
բնագիրի
բնագիրին
բնագիրները
բնագիրներու
բնագրեր
բնախմորներու
բնախօսական
բնածին
բնածուխը
բնածուխի
բնակած
բնական
բնականաբար
բնականէն
բնականոն
բնականօրէն
բնակավայր
բնակավայրեր
բնակավայրերէն
բնակավայրերը
բնակավայրերն
բնակավայրերու
բնակավայրերուն
բնակավայրը
բնակավայրի
բնակավայրին
բնակավայրն
բնակատեղի
բնակատեղիներ
բնակարան
բնակարանային
բնակարանը
բնակարանի
բնակարանին
բնակարանն
բնակարաններ
բնակարանները
բնակարաններու
բնակարաններուն
բնակելի
բնակեցնեն
բնակեցուած
բնակէին
բնակէր
բնակի
բնակիլ
բնակին
բնակիչ
բնակիչը
բնակիչներ
բնակիչներէն
բնակիչները
բնակիչներով
բնակիչներու
բնակիչներուն
բնակլիմայական
բնակող
բնակուած
բնակութեան
բնակութիւն
բնակութիւնը
բնակուի
բնակուող
բնակչին
բնակչութեամբ
բնակչութեան
բնակչութեանը
բնակչութեանց
բնակչութենէն
բնակչութիւն
բնակչութիւնը
բնակչութիւնն
բնակչության
բնակչությունը
բնանկար
բնանկարներ
բնաշխարհ
բնաշխարհի
բնաշխարհիկ
բնապահպանական
բնապահպանման
բնապահպանութեան
բնապահպանում
բնապատմական
բնաջնջել
բնաջնջման
բնաջնջումը
բնասպիտի
բնավայր
բնատուր
բնաւ
բնաւորութեամբ
բնաւորութեան
բնաւորութիւն
բնաւորութիւնը
բներգական
բնիկ
բնիկները
բնիկներու
բնիկներուն
բնոյթ
բնոյթը
բնոյթի
բնոյթին
բնոյթով
բնորդ
բնորոշ
բնորոշէ
բնորոշող
բնորոշուի
բնորոշուին
բնութագիր
բնութագիրը
բնութագրած
բնութագրական
բնութագրեն
բնութագրէ
բնութագրող
բնութագրուած
բնութագրուի
բնութագրում
բնութեամբ
բնութեան
բնութենէն
բնութիւն
բնութիւնը
բնութիւնն
բնություն
բնօրինակ
բնօրինակը
բնօրրան
բշտիկներ
բշտիկները
բշտիկներու
բո
բոգդան
բոլշեւիկեան
բոլոր
բոլորած
բոլորաձեւ
բոլորելէ
բոլորէ
բոլորէն
բոլորը
բոլորի
բոլորին
բոլորն
բոլորովին
բոլորս
բոկեղ
բոհ
բող
բողոք
բողոքած
բողոքական
բողոքականներու
բողոքականութեան
բողոքեն
բողոքէ
բողոքը
բողոքի
բողոքին
բողոքները
բողոքներուն
բողջ
բոյն
բոյնը
բոյս
բոյսեր
բոյսերէն
բոյսերը
բոյսերով
բոյսերու
բոյսերուն
բոյսը
բոյսի
բոյսին
բոյր
բոյրը
բոված
բովանդակալից
բովանդակային
բովանդակէ
բովանդակող
բովանդակութեամբ
բովանդակութեան
բովանդակութիւն
բովանդակութիւնը
բովանդակութիւնները
բոր
բորակածնային
բորբոքած
բորբոքային
բորբոքի
բորբոքման
բորբոքում
բորբոքումը
բորբոքումի
բորբոքումին
բորբոքումներ
բորբոքումները
բորբոքումներու
բորբոքումով
բորիս
բու
բուզանդի
բութ
բուժ
բուժած
բուժական
բուժամիջոցներու
բուժարան
բուժարանը
բուժարանի
բուժարանին
բուժել
բուժելու
բուժեն
բուժէ
բուժիչ
բուժման
բուժուած
բուժուելու
բուժուիլ
բուժում
բուժումը
բուժումի
բուժքոյր
բուժքոյրական
բուժքոյրեր
բուժքոյրերու
բուն
բուռն
բուսաբան
բուսաբանական
բուսաբանութեան
բուսաբանութիւն
բուսաբուծութեան
բուսական
բուսականութեամբ
բուսականութեան
բուսականութիւն
բուսականութիւնը
բուրաւէտ
բուրգ
բուրգերով
բուրգը
բուրգի
բուրդ
բուրդէ
բուրդի
բուրժուական
բուրումնաւէտ
բուրջալեան
բպմմ
բջիջային
բջիջի
բջիջներ
բջիջներէն
բջիջները
բջիջներու
բջիջներուն
բջնի
բջնիի
բջջային
բռնագրաւած
բռնագրաւման
բռնագրաւուած
բռնած
բռնակալ
բռնակալի
բռնակալութեան
բռնայարձակումներուն
բռնապետութեան
բռնապետութիւն
բռնատիրական
բռնատիրութեան
բռնել
բռնելով
բռնելու
բռնեն
բռնէ
բռնի
բռնիշխանութեան
բռնկած
բռնկեցաւ
բռնկի
բռնկման
բռնկուած
բռնուած
բռնութեամբ
բռնութեան
բռնութիւն
բռնութիւնը
բռնութիւնները
բռնութիւններու
բռնութիւններուն
բռնուի
բռնցքամարտի
բռնցքամարտիկ
բրաբիոն
բրազիլիայի
բրածոյ
բրգաձեւ
բրդեայ
բրեմիէր
բրեմիոր
բրիմիոր
բրինձ
բրինձը
բրինձի
բրիտանական
բրիտանացի
բրիտանացիները
բրիտանիա
բրիտանիայէն
բրիտանիայի
բրիտանիան
բրիտանիոյ
բրուտեան
բրոֆեսոր
գ
գա
գաա
գաբ
գաբիկեան
գաբու
գաբուի
գաբուր
գաբուրը
գաբուրի
գաբրիել
գաբրիելյան
գաբրիէլ
գաբրիէլեան
գաբրիէլեանը
գաբրիէլի
գագաթ
գագաթէն
գագաթը
գագաթի
գագաթին
գագաթն
գագաթնակետին
գագաթնակէտը
գագաթնակէտին
գագաթներ
գագաթներէն
գագաթները
գագաթներով
գագաթներուն
գագաթով
գագիկ
գագիկի
գազազեան
գազայի
գազանաբար
գազանճեան
գազի
գաթարոյեանի
գաթըրճեան
գալ
գալայճեան
գալէ
գալէն
գալը
գալիս
գալիք
գալիֆորնիա
գալիֆորնիայի
գալիֆորնիոյ
գալով
գալու
գալուստ
գալուստեան
գալուստեանի
գալուստը
գալստեան
գալֆայեան
գահ
գահաժառանգ
գահակալ
գահակալած
գահակալական
գահակալման
գահակալութեան
գահակալութիւնը
գահակից
գահերէց
գահերու
գահէն
գահը
գահընկեց
գահընկէց
գահի
գահին
գահիրէ
գահիրէի
գաղատիա
գաղափար
գաղափարախօսական
գաղափարախօսութեան
գաղափարախօսութիւն
գաղափարախօսութիւնը
գաղափարական
գաղափարակից
գաղափարապաշտ
գաղափարը
գաղափարի
գաղափարին
գաղափարներ
գաղափարներէն
գաղափարները
գաղափարներն
գաղափարներով
գաղափարներու
գաղափարներուն
գաղափարով
գաղթ
գաղթած
գաղթակայաններու
գաղթական
գաղթականական
գաղթականաց
գաղթականներ
գաղթականներէն
գաղթականները
գաղթականներով
գաղթականներու
գաղթականներուն
գաղթականութեան
գաղթականութիւնը
գաղթավայրերու
գաղթել
գաղթելով
գաղթեն
գաղթեցին
գաղթէ
գաղթը
գաղթի
գաղթող
գաղթօճախ
գաղթօճախը
գաղթօճախներ
գաղթօճախները
գաղթօճախներու
գաղթօճախներուն
գաղութ
գաղութային
գաղութատիրական
գաղութատիրութեան
գաղութարարները
գաղութարարներու
գաղութը
գաղութի
գաղութին
գաղութներ
գաղութներէն
գաղութները
գաղութներու
գաղութներուն
գաղջ
գաղտնի
գաղտնիք
գաղտնիքը
գաղտնիքներ
գաղտնիքները
գաղտնօրէն
գաճաճ
գաճաքար
գամ
գամիշլի
գամիշլիի
գայ
գայանէ
գայեանէ
գայթակղութիւն
գայիանէ
գային
գայլ
գայլեր
գայլը
գայլի
գայլին
գան
գանատա
գանատահայ
գանատայի
գանատան
գանատացի
գանգատ
գանգատի
գանի
գանկային
գանկի
գանձ
գանձակ
գանձակեցի
գանձակեցիի
գանձակեցին
գանձակը
գանձակի
գանձասար
գանձասարի
գանձարան
գանձարանը
գանձարանին
գանձեր
գանձերը
գանձերու
գանձերուն
գանձը
գանձին
գանտահարեան
գանտահարեանի
գանտահարեանին
գանք
գառզու
գառզուի
գառզուն
գառնի
գառնիի
գառնիկ
գառնին
գառնուկ
գաս
գասապեան
գասարճեան
գասպար
գասպարեան
գասպարեանը
գասպարեանի
գավառի
գատըգիւղի
գար
գարա
գարագաշեան
գարակէօզեան
գարակէօզեանի
գարահիսար
գարահիսարի
գարաճեան
գարան
գարատուրանի
գարեգին
գարեջուր
գարեջուրը
գարեջուրի
գարի
գարիի
գարին
գարնան
գարնանային
գարնանը
գարոլինա
գարոյի
գարոյին
գարուն
գարունը
գարտաշեան
գարօ
գացած
գացին
գացող
գաւազան
գաւազանը
գաւաթ
գաւաթակիր
գաւաթը
գաւաթի
գաւաթին
գաւառ
գաւառակ
գաւառական
գաւառակի
գաւառակին
գաւառային
գաւառէն
գաւառը
գաւառի
գաւառին
գաւառներ
գաւառներէն
գաւառները
գաւառներու
գաւառներուն
գաւիթ
գաւիթէն
գաւիթը
գաւիթի
գաւիթին
գափուի
գդհ
գդն
գե
գեղ
գեղագիտական
գեղագիտութեան
գեղագրութեան
գեղազարդիչ
գեղազարդման
գեղամ
գեղամայ
գեղանկար
գեղանկարը
գեղանկարիչ
գեղանկարիչը
գեղանկարիչին
գեղանկարիչներ
գեղանկարիչներու
գեղանկարներ
գեղանկարները
գեղանկարչական
գեղանկարչութեան
գեղանկարչութիւն
գեղանկարչութիւնը
գեղապաշտ
գեղատեսիլ
գեղարդ
գեղարդավանքը
գեղարդը
գեղարդի
գեղարուեստ
գեղարուեստա
գեղարուեստական
գեղարուեստը
գեղարուեստի
գեղարուեստից
գեղարվեստական
գեղարքունիք
գեղարքունիքի
գեղեցիկ
գեղեցիկը
գեղեցիկի
գեղեցիկին
գեղեցկութեամբ
գեղեցկութեան
գեղեցկութիւն
գեղեցկութիւնը
գեղեցկուհի
գեղեցկուհին
գեղձերը
գեղձերու
գեղձի
գեղջկական
գեներալ
գետ
գետաբերանին
գետակ
գետակի
գետակներ
գետային
գետաշէն
գետաշէնի
գետափ
գետեր
գետերէն
գետերը
գետերն
գետերու
գետերուն
գետէն
գետը
գետի
գետիկի
գետին
գետինը
գետն
գետնախնձոր
գետնախնձորը
գետնախնձորի
գետնայարկ
գետնափոր
գետնի
գետնին
գետով
գեր
գերագահութիւնը
գերագոյն
գերազանց
գերազանցած
գերազանցապէս
գերազանցել
գերազանցելով
գերազանցեց
գերազանցէ
գերազանցէր
գերազանցող
գերազանցութեամբ
գերազանցութեան
գերազանցութիւնը
գերակայ
գերակայութիւնը
գերակշիռ
գերակշռեն
գերակշռէ
գերակշռէին
գերակշռող
գերաշնորհ
գերբնական
գերդաստանէն
գերդաստանը
գերդաստանի
գերդաստանին
գերեզման
գերեզմանատան
գերեզմանատանը
գերեզմանատուն
գերեզմանատուներ
գերեզմանատունը
գերեզմանը
գերեզմանի
գերեզմանին
գերեզմաններ
գերեզմանները
գերեզմանոց
գերեզմանոցը
գերեզմանոցի
գերեզմանոցին
գերզգայնութեան
գերզգայնութիւն
գերզգայնութիւնը
գերզգայուն
գերի
գերիներ
գերիները
գերիներու
գերիներուն
գերիշխանութեան
գերիշխանութենէն
գերիշխանութիւն
գերիշխանութիւնը
գերիշխեն
գերիշխէ
գերիշխող
գերճնշում
գերմ
գերման
գերմանա
գերմանախօս
գերմանական
գերմանացի
գերմանացիներ
գերմանացիները
գերմանացիներու
գերմանացիներուն
գերմաներէն
գերմաներէնէն
գերմաներէնը
գերմաներէնի
գերմանիա
գերմանիայէն
գերմանիայի
գերմանիան
գերմանիկ
գերմանիոյ
գերշ
գերութեան
գերութենէն
գերպ
գերսամ
գերքրտնութիւն
գեւորգ
գեւորգեան
գէթ
գէշ
գէորգ
գէորգեան
գէորգեանը
գէորգեանի
գէորգը
գէորգի
գէորգիեւեան
գէտ
գէտի
գէր
գէւորգ
գթութեան
գի
գիծ
գիծեր
գիծերը
գիծերով
գիծերու
գիծերուն
գիծը
գիծի
գիծին
գիծով
գին
գինեգործութեան
գինեգործութիւնը
գինեձօնը
գինեվան
գինետան
գիները
գիներու
գինը
գինի
գինիի
գինին
գինիներ
գինիներու
գինիով
գինով
գինու
գիշատիչ
գիշատիչներու
գիշեր
գիշերային
գիշերը
գիշերին
գիշերներ
գիշերները
գիշերով
գիշերուայ
գիշերուան
գիշերօթիկ
գիշի
գիտ
գիտա
գիտաժողով
գիտաժողովի
գիտաժողովին
գիտաժողովներ
գիտաժողովներու
գիտակ
գիտական
գիտականօրէն
գիտակից
գիտակրթական
գիտակցաբար
գիտակցելով
գիտակցէր
գիտակցի
գիտակցուած
գիտակցութեամբ
գիտակցութեան
գիտակցութիւն
գիտակցութիւնը
գիտահանրամատչելի
գիտահետազոտական
գիտահետազօտական
գիտամեթոդական
գիտաշխատող
գիտաուսումնական
գիտարուեստական
գիտափորձ
գիտելիք
գիտելիքը
գիտելիքի
գիտելիքներ
գիտելիքները
գիտելիքներով
գիտելիքներու
գիտեմ
գիտեն
գիտենք
գիտեր
գիտէ
գիտէին
գիտէր
գիտնալ
գիտնալով
գիտնական
գիտնականը
գիտնականի
գիտնականին
գիտնականներ
գիտնականներէն
գիտնականները
գիտնականներու
գիտնականներուն
գիտնայ
գիտնան
գիտութեամբ
գիտութեան
գիտութեանց
գիտութիւն
գիտութիւնը
գիտութիւններ
գիտութիւնները
գիտութիւնների
գիտութիւններու
գիտութիւններուն
գիտություն
գիտությունների
գիտցած
գիտցուած
գիր
գիրգորովի
գիրեր
գիրերը
գիրերով
գիրերու
գիրը
գիրի
գիրին
գիրկը
գիրն
գիրով
գիրութիւն
գիրք
գիրքեր
գիրքերէ
գիրքերէն
գիրքերը
գիրքերն
գիրքերով
գիրքերու
գիրքերուն
գիրքէն
գիրքը
գիրքի
գիրքին
գիրքն
գիրքով
գիւ
գիւլիստան
գիւլիստանի
գիւղ
գիւղական
գիւղապետարան
գիւղատնտես
գիւղատնտեսական
գիւղատնտեսութեամբ
գիւղատնտեսութեան
գիւղատնտեսութիւն
գիւղատնտեսութիւնը
գիւղացի
գիւղացիական
գիւղացիի
գիւղացիին
գիւղացին
գիւղացիներ
գիւղացիները
գիւղացիներու
գիւղացիներուն
գիւղացիութեան
գիւղաքաղաք
գիւղաքաղաքը
գիւղաքաղաքին
գիւղեր
գիւղերէն
գիւղերը
գիւղերն
գիւղերով
գիւղերու
գիւղերուն
գիւղէ
գիւղէն
գիւղը
գիւղի
գիւղին
գիւղն
գիւմրի
գիւմրիի
գիւնտի
գիւտ
գիւտարար
գիւտարարը
գիւտէն
գիւտը
գիւտի
գիւտին
գիքորը
գլակ
գլաձոր
գլաձորի
գլանաձեւ
գլխ
գլխա
գլխաբառ
գլխապտոյտ
գլխապտոյտը
գլխավոր
գլխատառը
գլխարկ
գլխարկը
գլխարկիկը
գլխացաւ
գլխացաւը
գլխացաւի
գլխաւոր
գլխաւորաբար
գլխաւորած
գլխաւորապէս
գլխաւորեն
գլխաւորեց
գլխաւորէ
գլխաւորէր
գլխաւորը
գլխաւորները
գլխաւորներն
գլխաւորութեամբ
գլխի
գլխին
գլխով
գլխովին
գլխու
գլխուղեղի
գլխուն
գլուխ
գլուխգործոց
գլուխէն
գլուխը
գլուխի
գլուխին
գլուխն
գլուխներ
գլուխներէ
գլուխները
գլուխներու
գլուխով
գխ
գծագրական
գծագրիչ
գծագրուած
գծագրութեան
գծագրութիւն
գծագրութիւնը
գծագրութիւններ
գծած
գծային
գծանկար
գծանկարներ
գծանկարչական
գծանկարչութեան
գծանկարչութիւն
գծաշարժական
գծաւոր
գծել
գծելու
գծէ
գծով
գծուած
գհի
գմբեթաւոր
գմբեթը
գմբէթ
գմբէթակիր
գմբէթաւոր
գմբէթը
գմբէթի
գմբէթին
գմբէթները
գմբէթներով
գմբէթով
գյուղի
գյումրի
գնա
գնած
գնահատած
գնահատական
գնահատականը
գնահատականի
գնահատականներ
գնահատականները
գնահատականներու
գնահատանք
գնահատանքի
գնահատանքին
գնահատել
գնահատելի
գնահատելով
գնահատելու
գնահատեն
գնահատեց
գնահատէ
գնահատէր
գնահատմամբ
գնահատման
գնահատուած
գնահատուէր
գնահատուի
գնահատուին
գնաճի
գնաց
գնացք
գնացքը
գնացքներու
գնդակ
գնդակահարուած
գնդակը
գնդակի
գնդակին
գնդակները
գնդակով
գնդաձեւ
գնդապետ
գնդապետի
գնդացիր
գնդեվանք
գնդիկներ
գնդիկներու
գնել
գնելով
գնելու
գնեն
գնեց
գնէ
գնէլ
գնման
գնով
գնուած
գնում
գնչուներու
գո
գոգաւորութեան
գոգնոցը
գոթական
գոթերու
գոլ
գոլէճ
գոլէճէն
գոլէճը
գոլէճի
գոլէճին
գոլոմպիա
գոլորշին
գոհ
գոհաբանութեան
գոհար
գոհարիկ
գոհացնել
գոհացնելու
գոհացում
գոհացուցիչ
գող
գողգոթա
գողգոթայ
գողգոթան
գողթան
գողթն
գողթնի
գողնալ
գողտրիկ
գողցած
գողցուած
գոճայեան
գոմբլեքս
գոյական
գոյականը
գոյականի
գոյականները
գոյականներու
գոյամարտ
գոյամարտը
գոյանայ
գոյատեւած
գոյատեւել
գոյատեւեց
գոյատեւէ
գոյատեւման
գոյացած
գոյացական
գոյն
գոյներ
գոյներէն
գոյները
գոյներն
գոյներով
գոյներու
գոյներուն
գոյնզգոյն
գոյնը
գոյնի
գոյնին
գոյնն
գոյնով
գոյութեամբ
գոյութեան
գոյութիւն
գոյութիւնը
գոյություն
գոյքերը
գոյքը
գոյքի
գոնէ
գոնիա
գոնիայի
գոշ
գոշավանքը
գոշավանքի
գոշը
գոշի
գոռոզ
գոսդա
գոստանտինոս
գովազդած
գովազդային
գովազդի
գոտի
գոտին
գոր
գորգ
գորգագործական
գորգագործութեան
գորգագործութիւնը
գորգեր
գորգերը
գորգերով
գորգերու
գորգը
գորգի
գորգին
գորիս
գորիսը
գորիսի
գործ
գործադիր
գործադուլ
գործադուլին
գործադրած
գործադրել
գործադրելիս
գործադրելու
գործադրէ
գործադրուած
գործադրութեան
գործադրութիւնը
գործադրումով
գործազրկութեան
գործած
գործածած
գործածական
գործածել
գործածելով
գործածելու
գործածեն
գործածէ
գործածէին
գործածէր
գործածող
գործածողներու
գործածուած
գործածուեցաւ
գործածուէին
գործածուէր
գործածութեամբ
գործածութեան
գործածութենէ
գործածութիւն
գործածութիւնը
գործածութիւններ
գործածուի
գործածուիլ
գործածուին
գործածուող
գործակալ
գործակալները
գործակալութեան
գործակալութիւն
գործակալութիւնը
գործակալութիւններ
գործակալութիւնները
գործակալութիւններու
գործակից
գործակիցը
գործակիցները
գործակիցներուն
գործակցաբար
գործակցած
գործակցելով
գործակցի
գործակցիլ
գործակցութեամբ
գործակցութեան
գործակցութիւն
գործակցութիւնը
գործառական
գործառնական
գործառնութեան
գործառոյթ
գործառոյթը
գործառոյթներ
գործառոյթները
գործառոյթներու
գործարան
գործարանական
գործարանային
գործարանը
գործարանի
գործարանին
գործարանն
գործարաններ
գործարաններէն
գործարանները
գործարաններու
գործարաններուն
գործարար
գործարարներ
գործարարներու
գործարկուեցաւ
գործարկութեան
գործարկուի
գործարք
գործարքը
գործարքի
գործարքներու
գործել
գործելակերպ
գործելակերպը
գործելակերպին
գործելէ
գործելով
գործելու
գործեն
գործեր
գործերէն
գործերը
գործերի
գործերն
գործերով
գործերու
գործերուն
գործեց
գործեցին
գործէ
գործէին
գործէն
գործէր
գործը
գործընթաց
գործընթացը
գործընթացի
գործընթացին
գործընթացն
գործընթացները
գործընթացներու
գործընթացներուն
գործընթացով
գործընթացք
գործընթացքը
գործընթացքին
գործընկեր
գործընկերը
գործընկերները
գործընկերներն
գործընկերներու
գործի
գործին
գործիչ
գործիչը
գործիչի
գործիչներ
գործիչներէն
գործիչները
գործիչներու
գործիչներուն
գործիք
գործիքային
գործիքաւորում
գործիքը
գործիքի
գործիքին
գործիքներ
գործիքներէն
գործիքները
գործիքներով
գործիքներու
գործիքներուն
գործիքով
գործն
գործնական
գործնականին
գործնականօրէն
գործող
գործողութեամբ
գործողութեան
գործողութենէն
գործողութիւն
գործողութիւնը
գործողութիւնն
գործողութիւններ
գործողութիւններէն
գործողութիւնները
գործողութիւններն
գործողութիւններով
գործողութիւններու
գործողութիւններուն
գործոն
գործով
գործոց
գործոցը
գործոցներէն
գործուած
գործուածք
գործուածքներ
գործուածքներու
գործուղուած
գործում
գործուն
գործունեայ
գործունեութեամբ
գործունեութեան
գործունեութիւն
գործունեութիւնը
գործունէութեամբ
գործունէութեան
գործունէութեանը
գործունէութեանց
գործունէութենէն
գործունէութիւն
գործունէութիւնը
գործունէութիւնն
գործունէութիւններ
գործունէութիւնները
գործունէութիւններու
գործք
գործօն
գործօնը
գործօններ
գործօնները
գործօններու
գորկի
գորշ
գորտոպա
գոց
գոցուի
գու
գուգարաց
գուգարք
գուգարքը
գուգարքի
գուլակեան
գուլպայ
գում
գումար
գումարած
գումարել
գումարելով
գումարէ
գումարը
գումարի
գումարին
գումարման
գումարն
գումարներ
գումարները
գումարներով
գումարով
գումարուած
գումարուեցաւ
գումարուի
գումարուին
գումարումը
գումարտակ
գումարտակը
գումարտակի
գույումճեան
գույումճեանի
գունագեղ
գունային
գունաւոր
գունաւորման
գունաւորում
գունաւորումը
գունդ
գունդեր
գունդերը
գունդերու
գունդը
գունդի
գունդին
գունեղ
գունտերան
գուսան
գուսանական
գուսանը
գուսանները
գուսաններու
գուրգեն
գուրգէն
գուրգէնը
գուրգէնի
գուցէ
գռուզեան
գտած
գտածոներ
գտածոները
գտան
գտաւ
գտնել
գտնելով
գտնելու
գտնեն
գտնենք
գտներ
գտնէ
գտնէին
գտնէր
գտնո
գտնուած
գտնուելով
գտնուելու
գտնուեր
գտնուեցան
գտնուեցաւ
գտնուէին
գտնուէր
գտնուի
գտնուիլ
գտնուին
գտնուող
գտնուողները
գտնվող
գտնվում
գտուող
գտչավանքի
գր
գրա
գրաբար
գրաբարեան
գրաբարը
գրաբարի
գրաբարին
գրաբարով
գրագէտ
գրագէտը
գրագէտին
գրագէտներ
գրագէտները
գրագէտներու
գրագիտութեան
գրագիտութիւն
գրագիտուհի
գրագիր
գրադարան
գրադարանային
գրադարանէն
գրադարանը
գրադարանի
գրադարանին
գրադարաններ
գրադարաններէն
գրադարանները
գրադարաններու
գրադարաններուն
գրախօսական
գրախօսականներ
գրած
գրական
գրականագէտ
գրականագէտներ
գրականագիտական
գրականութեամբ
գրականութեան
գրականութեանը
գրականութենէն
գրականութիւն
գրականութիւնը
գրականութիւնն
գրականութիւններու
գրային
գրանցած
գրանցելով
գրանցէ
գրանցման
գրանցուած
գրանցուի
գրանցուին
գրաշար
գրաուած
գրառման
գրառուած
գրառումը
գրառումներ
գրառումները
գրասենեակ
գրասենեակէն
գրասենեակը
գրասենեակի
գրասենեակին
գրասենեակներ
գրասենեակները
գրասենեակներու
գրասենեակներուն
գրասէր
գրատան
գրատուն
գրատունը
գրատպութեան
գրացուցակ
գրաւած
գրաւել
գրաւելէ
գրաւելէն
գրաւելով
գրաւելու
գրաւեն
գրաւեր
գրաւեց
գրաւեցին
գրաւէ
գրաւէին
գրաւէր
գրաւիչ
գրաւման
գրաւող
գրաւոր
գրաւուած
գրաւուեցաւ
գրաւուի
գրաւում
գրաւումէն
գրաւումը
գրաւումով
գրափորձեր
գրաքննադատ
գրաքննադատական
գրաքննութեան
գրաքննութիւնը
գրաֆիկական
գրգռեն
գրգռէ
գրգռիչ
գրգռութիւն
գրգռուին
գրեթէ
գրել
գրելը
գրելով
գրելու
գրեն
գրենք
գրետրիքս
գրեր
գրեց
գրեցին
գրէ
գրէին
գրէր
գրի
գրիգոր
գրիգորեան
գրիգորեանը
գրիգորեանի
գրիգորը
գրիգորի
գրիգորին
գրիգորիոս
գրիգորիս
գրիգորիսի
գրին
գրիչ
գրիչը
գրիչի
գրիչին
գրիչով
գրոհ
գրոհային
գրոհել
գրոհը
գրոհի
գրոհները
գրող
գրողը
գրողի
գրողին
գրողն
գրողներ
գրողներէն
գրողները
գրողների
գրողներու
գրողներուն
գրոց
գրուած
գրուածքներ
գրուեցաւ
գրուէին
գրութեամբ
գրութեան
գրութիւն
գրութիւնը
գրութիւններ
գրութիւններէն
գրութիւնները
գրութիւններով
գրութիւններու
գրութիւններուն
գրուի
գրուին
գրչանունով
գրչի
գրչին
գրչութեան
գրպանի
գրքային
գրքեր
գրքերի
գրքերու
գրքի
գրքին
գրքոյկ
գրքոյկը
գրքոյկին
գրքոյկներ
գօ
գօտեքանդակը
գօտի
գօտիէն
գօտիի
գօտիին
գօտին
գօտիներ
գօտիները
գօտիներու
գօտիներուն
գօտիով
գևորգ
դ
դա
դագաղը
դադար
դադարեցման
դադարեցնել
դադարեցնելու
դադարը
դադարի
դադիվանք
դադրած
դադրեցան
դադրեցաւ
դադրեցման
դադրեցնել
դադրեցնելու
դադրեցնէ
դադրեցուց
դադրեցուցած
դադրի
դադրին
դադրիր
դաժան
դաժանօրէն
դալանտօ
դալար
դակ
դահլիճ
դահլիճը
դահլիճի
դահլիճին
դահլիճներու
դամ
դամասկոս
դամասկոսը
դամասկոսի
դամբան
դամբանական
դամբանը
դամբանի
դամբանին
դամբաններ
դամբաններու
դամբարան
դամբարանադաշտ
դամբարանը
դամբարանի
դամբարանին
դամբարաններ
դամբարանները
դան
դանակ
դանակը
դանակի
դանակով
դանդաղ
դանդաղի
դանդաղում
դանդաղօրէն
դանիա
դանիական
դանիայի
դանիացի
դանիել
դանիերէն
դանիէլ
դանիէլեան
դանիէլեանի
դանիէլի
դանիոյ
դանկ
դաշ
դաշինք
դաշինքը
դաշինքի
դաշինքին
դաշինքով
դաշնագիր
դաշնագիրը
դաշնագիրի
դաշնագիրին
դաշնագրի
դաշնագրին
դաշնագրով
դաշնակ
դաշնակահար
դաշնակահարը
դաշնակահարներ
դաշնակահարուհի
դաշնակի
դաշնակից
դաշնակիցը
դաշնակիցներ
դաշնակիցները
դաշնակիցներու
դաշնակիցներուն
դաշնակցած
դաշնակցական
դաշնակցականներու
դաշնակցային
դաշնակցի
դաշնակցին
դաշնակցութեան
դաշնակցութիւն
դաշնակցութիւնը
դաշնամուր
դաշնամուրային
դաշնամուրը
դաշնամուրի
դաշնամուրները
դաշնային
դաշնութեան
դաշնութիւն
դաշնութիւնը
դաշոյն
դաշտ
դաշտային
դաշտանի
դաշտավայր
դաշտավայրը
դաշտավայրի
դաշտենց
դաշտեր
դաշտերը
դաշտերու
դաշտերուն
դաշտէն
դաշտը
դաշտի
դաշտին
դառ
դառն
դառնալ
դառնալէ
դառնալէն
դառնալը
դառնալով
դառնալու
դառնալուն
դառնայ
դառնային
դառնան
դառնար
դառնութիւնները
դաս
դասագիրք
դասագիրքեր
դասագիրքերը
դասագիրքերու
դասագիրքը
դասագրքեր
դասախօս
դասախօսած
դասախօսական
դասախօսէ
դասախօսի
դասախօսներ
դասախօսները
դասախօսներու
դասախօսութիւն
դասախօսութիւնը
դասախօսութիւններ
դասախօսութիւնները
դասախօսութիւններով
դասախօսութիւններու
դասախօսութիւններուն
դասած
դասական
դասականները
դասականներու
դասականութեան
դասականութիւնը
դասակարգային
դասակարգերու
դասակարգը
դասակարգի
դասակարգին
դասակարգման
դասակարգուած
դասակարգում
դասակարգումը
դասային
դասատու
դասարան
դասարանէն
դասարանը
դասարանի
դասարանին
դասարաններ
դասարանները
դասարաններու
դասարաններուն
դասաւանդած
դասաւանդել
դասաւանդելով
դասաւանդելու
դասաւանդեն
դասաւանդեր
դասաւանդէ
դասաւանդէր
դասաւանդիր
դասաւանդման
դասաւանդող
դասաւանդուած
դասաւանդութեան
դասաւանդութիւնները
դասաւանդուի
դասաւանդուին
դասաւանդումը
դասաւորած
դասաւորուած
դասաւորութեամբ
դասաւորումը
դասել
դասեր
դասերը
դասերու
դասերուն
դասէ
դասը
դասընթացը
դասընթացներ
դասընթացներու
դասընթացներուն
դասընթացք
դասընթացքը
դասընթացքի
դասընթացքին
դասընթացքներ
դասընթացքները
դասընթացքներու
դասընթացքներուն
դասընկեր
դասի
դասին
դասուած
դասուի
դասուին
դասուն
դաստակի
դաստիարակ
դաստիարակած
դաստիարակել
դաստիարակելու
դաստիարակը
դաստիարակուած
դաստիարակութեամբ
դաստիարակութեան
դաստիարակութիւն
դաստիարակութիւնը
դաստիարակչական
դավիթ
դատ
դատախազ
դատախազի
դատակազմի
դատակազմին
դատական
դատապարտած
դատապարտեալներու
դատապարտել
դատապարտելով
դատապարտելու
դատապարտեն
դատապարտեց
դատապարտէ
դատապարտման
դատապարտող
դատապարտուած
դատապարտուեցաւ
դատապարտուի
դատապարտուին
դատաստան
դատաստանագիրք
դատաստանագիրքը
դատաստանական
դատաստանի
դատավարութեան
դատավարութիւն
դատավարութիւնը
դատավճիռ
դատավճիռը
դատարան
դատարանը
դատարանի
դատարանին
դատարանն
դատարաններ
դատարանները
դատարաններու
դատարաններուն
դատարկ
դատաւոր
դատաւորը
դատաւորի
դատաւորին
դատաւորներ
դատաւորները
դատելով
դատելու
դատը
դատի
դատին
դատողութեան
դատողութիւններ
դար
դարան
դարաշրջան
դարաշրջանէն
դարաշրջանը
դարաշրջանի
դարաշրջանին
դարաշրջաններու
դարաշրջաններուն
դարասկիզբ
դարասկիզբի
դարասկիզբին
դարավերջերուն
դարավերջը
դարավերջի
դարավերջին
դարաւոր
դարբին
դարբինեան
դարբինեանի
դարեան
դարեհ
դարեհի
դարեր
դարերէ
դարերէն
դարերը
դարերի
դարերով
դարերու
դարերում
դարերուն
դարէն
դարը
դարի
դարին
դարձ
դարձած
դարձան
դարձավ
դարձաւ
դարձեալ
դարձել
դարձեր
դարձի
դարձին
դարձնել
դարձնելով
դարձնելու
դարձնեն
դարձնէ
դարձնէին
դարձնէր
դարձնող
դարձող
դարձուց
դարձուցած
դարձուցին
դարման
դարմանական
դարմանամիջոց
դարմանամիջոցներ
դարմանատան
դարմանատուն
դարմանատունը
դարմանել
դարմանելի
դարմանելով
դարմանուի
դարմանուին
դարմանում
դարմանումէն
դարմանումը
դարմանումի
դարու
դարուհի
դարում
դարուն
դարպաս
դարպասապահ
դարպասը
դարպասի
դարպասին
դարպասներ
դարպասները
դաւադիր
դաւադրաբար
դաւադրութեան
դաւադրութիւն
դաւաճան
դաւաճանութեան
դաւաճանութիւն
դաւանաբանական
դաւանական
դաւանանքը
դաւանանքի
դաւանանքին
դաւանի
դաւանին
դաւանութեան
դաւթեան
դաւթեանի
դաւթի
դաւիթ
դաւիթեան
դաւիթը
դաւիթի
դափնեկիր
դափնեկիրներ
դգալ
դդ
դդում
դդումի
դե
դեբիւտը
դել
դելէ
դեկան
դեկտ
դեկտեմբեր
դեկտեմբերեան
դեկտեմբերէն
դեկտեմբերը
դեկտեմբերի
դեկտեմբերին
դեղ
դեղաբանական
դեղաբանութեան
դեղաբոյսեր
դեղաբոյսերու
դեղագիրի
դեղագործ
դեղագործական
դեղագործի
դեղագործներ
դեղագործութեան
դեղամիջոցներ
դեղամիջոցներու
դեղանիւթեր
դեղանիւթերը
դեղանիւթերու
դեղատեսակներ
դեղատուն
դեղարան
դեղեր
դեղերը
դեղերով
դեղերու
դեղերուն
դեղը
դեղի
դեղին
դեղինը
դեղնախտ
դեղնաւուն
դեղնութիւն
դեղնութիւնը
դեղորայք
դեղորայքային
դեղորայքի
դեմ
դեմիրճեան
դեմիրճեանի
դեմոկրատ
դեմոկրատական
դեմոկրատներու
դենիս
դեպի
դեպքին
դեռ
դեռահաս
դեռահասներու
դեռատի
դեռեւս
դեսպան
դեսպանատան
դեսպանատուն
դեսպանատուներուն
դեսպանատունը
դեսպանը
դեսպանի
դեսպանին
դեսպաններ
դեսպանները
դեսպանութեան
դեսպանութիւն
դեսպանութիւնը
դեր
դերակատար
դերակատարեց
դերակատարը
դերակատարման
դերակատարն
դերակատարներ
դերակատարներէն
դերակատարները
դերակատարներն
դերակատարութեամբ
դերակատարութեան
դերակատարութիւն
դերակատարութիւնը
դերասան
դերասանական
դերասանը
դերասանի
դերասանին
դերասանն
դերասաններ
դերասաններէն
դերասանները
դերասաններն
դերասաններու
դերասաններուն
դերասանութեան
դերասանութիւն
դերասանուհի
դերասանուհիի
դերասանուհիին
դերասանուհին
դերասանուհիներ
դերասանուհիներէն
դերաֆշ
դերենիկ
դերեր
դերերէն
դերերը
դերերով
դերերու
դերերուն
դերեւս
դերէն
դերը
դերի
դերին
դերձակ
դերն
դերով
դեւոյեանց
դէ
դէմ
դէմս
դէմք
դէմքեր
դէմքերէն
դէմքերը
դէմքերու
դէմքերուն
դէմքը
դէմքի
դէմքին
դէմքով
դէն
դէպ
դէպի
դէպուտատներու
դէպս
դէպք
դէպքեր
դէպքերէն
դէպքերը
դէպքերն
դէպքերու
դէպքերուն
դէպքէն
դէպքը
դէպքի
դէպքին
դէպքով
դէս
դէր
դը
դժբախտ
դժբախտաբար
դժբախտութիւնը
դժգոհ
դժգոհութիւն
դժգոհութիւնը
դժնդակ
դժոխային
դժոխք
դժոխքի
դժուար
դժուարամատչելի
դժուարանայ
դժուարին
դժուարութեամբ
դժուարութեան
դժուարութեանց
դժուարութիւն
դժուարութիւնը
դժուարութիւններ
դժուարութիւններէ
դժուարութիւնները
դժուարութիւններու
դժուարութիւններուն
դի
դիագնոստիկայի
դիակը
դիակին
դիակները
դիակներու
դիզակի
դիզելու
դիլիջան
դիլիջանի
դիկ
դիմագիծ
դիմագիծը
դիմագրաւած
դիմագրաւել
դիմագրաւելու
դիմագրաւէ
դիմադրական
դիմադրել
դիմադրելու
դիմադրեն
դիմադրէ
դիմադրողականութեան
դիմադրողականութիւն
դիմադրողականութիւնը
դիմադրութեան
դիմադրութիւն
դիմադրութիւնը
դիմած
դիմակ
դիմակայել
դիմակայելու
դիմակաւոր
դիմակը
դիմակներ
դիմակները
դիմակով
դիմանալ
դիմանայ
դիմանար
դիմանկար
դիմանկարը
դիմանկարի
դիմանկարներ
դիմանկարները
դիմանկարներով
դիմաստուերներ
դիմատետրի
դիմաց
դիմացը
դիմացի
դիմացկուն
դիմաւորելու
դիմաւորեն
դիմաւորէ
դիմաքանդակը
դիմել
դիմելով
դիմելու
դիմեն
դիմեց
դիմեցին
դիմէ
դիմէին
դիմէր
դիմում
դիմումը
դիմումին
դիմումներ
դիմումները
դիմումներու
դին
դինաստիա
դինաստիայի
դինաստիան
դիոկղետիանոս
դիոնիսիոս
դիվանագիտական
դիվիզիայի
դիտած
դիտակ
դիտարկել
դիտարկելու
դիտարկեն
դիտարկէ
դիտարկէր
դիտարկուած
դիտարկուի
դիտարկուին
դիտարկումներու
դիտաւորեալ
դիտել
դիտելը
դիտելով
դիտելու
դիտեն
դիտէ
դիտէր
դիտման
դիտող
դիտողին
դիտորդ
դիտորդական
դիտուած
դիտուի
դիտուին
դիտում
դիր
դիրիժոր
դիրք
դիրքային
դիրքեր
դիրքերէն
դիրքերը
դիրքերու
դիրքերուն
դիրքէն
դիրքը
դիրքի
դիրքին
դիրքով
դիրքորոշման
դիրքորոշում
դիրքորոշումը
դիցաբանական
դիցաբանութեան
դիցաբանութիւն
դիցաբանութիւնը
դիցարանի
դիցարանին
դիցուհիին
դիւան
դիւանագէտ
դիւանագէտներ
դիւանագէտներու
դիւանագիտական
դիւանագիտութեան
դիւանագիտութիւնը
դիւանապետ
դիւանին
դիւրացնելու
դիւրացնէ
դիւրաւ
դիւրին
դիւրութեամբ
դիւցազն
դիւցազնական
դիւցազնավէպը
դիւցազնավէպին
դիւցազներգական
դիւցազներգութեան
դիւցազներգութիւն
դկ
դկտ
դղեակ
դղեակը
դնել
դնելով
դնելու
դնեն
դնեպր
դնէ
դնէին
դնէր
դո
դոկտ
դոկտոր
դոկտորական
դոկտորականը
դոկտորայի
դոկտորի
դոկտորներ
դող
դողը
դոյլի
դոնի
դոսի
դորիական
դորպատի
դոցենտ
դու
դուին
դուինը
դուինի
դումայի
դուման
դումանի
դուն
դուռ
դուռէն
դուռը
դուռն
դուստր
դուստրերը
դուստրը
դուստրին
դուստրն
դուր
դուրգարեան
դուրեան
դուրեանը
դուրեանի
դուրս
դուրսէն
դուրսը
դուրսի
դուք
դուքս
դպիր
դպիրի
դպիրները
դպչելով
դպրապետ
դպրապետութեան
դպրաց
դպրեվանք
դպրեվանքէն
դպրեվանքը
դպրեվանքի
դպրեվանքին
դպրոց
դպրոցական
դպրոցականներու
դպրոցասէր
դպրոցէն
դպրոցը
դպրոցի
դպրոցին
դպրոցն
դպրոցներ
դպրոցներէն
դպրոցները
դպրոցներով
դպրոցներու
դպրոցներուն
դպրոցում
դպրութեան
դպրութեանց
դպրութիւն
դպրութիւնը
դռան
դռներ
դռները
դռներու
դռնէն
դսեղ
դսեղի
դստեր
դստերը
դտկ
դրա
դրախտ
դրախտէն
դրախտը
դրախտի
դրախտին
դրած
դրական
դրականօրէն
դրամ
դրամագիտական
դրամագիտութեան
դրամագլուխը
դրամագլուխի
դրամական
դրամահատարան
դրամահատարանին
դրամահաւաք
դրամահաւաքի
դրամավարկային
դրամատան
դրամատիկական
դրամատիրական
դրամատնային
դրամատուն
դրամատուները
դրամատուներու
դրամատունէն
դրամատունը
դրամատուրգ
դրամը
դրամի
դրամին
դրամներ
դրամները
դրամներու
դրամնոց
դրամով
դրայտընդ
դրան
դրանց
դրանք
դրասխանակերտցին
դրաստամատ
դրացի
դրացիական
դրացիներուն
դրաւ
դրաֆֆորտի
դրդապատճառներ
դրդապատճառները
դրդապատճառներով
դրդուած
դրին
դրո
դրոյան
դրոյթներ
դրոյթները
դրոյթներու
դրոյթներուն
դրոյի
դրոյին
դրոշմաթուղթ
դրոշմը
դրոշմուած
դրուագ
դրուագը
դրուագին
դրուագներ
դրուագներէն
դրուագները
դրուագներու
դրուագուած
դրուած
դրուեցաւ
դրուէին
դրուէր
դրութեամբ
դրութեան
դրութիւն
դրութիւնը
դրուի
դրուիլ
դրուին
դրուող
դրսեւորած
դրսեւորեն
դրսեւորէ
դրսեւորման
դրսեւորուած
դրսեւորուի
դրսեւորում
դրսեւորումը
դրսեւորումն
դրսեւորումները
դրսեւորումներով
դրօ
դրօն
դրօշ
դրօշակ
դրօշակը
դրօշակի
դրօշակին
դրօշակներ
դրօշակները
դրօշակով
դրօշը
դրօշի
դրօշին
դրօշմահաւաքութեան
դրօշմը
դրօշն
դրօշներ
դրօշները
դրօշներու
դրօշով
դքսութեան
դքսութիւն
դքսութիւնը
ե
եա
եագուպիէի
եազըճեան
եալթայի
եալի
եալոս
եահկ
եաղուպ
եան
եանի
եանիս
եանկ
եաշ
եար
եարման
եափուճեան
եաքոպ
եաքովիտիս
եաքուտական
եաքուտիի
եաքուտսք
եաքուտսքի
եբր
եբրայական
եբրայերէն
եբրայերէնը
եբրայերէնի
եգէական
եգիպտական
եգիպտահայ
եգիպտացի
եգիպտացիները
եգիպտացիներու
եգիպտացիներուն
եգիպտացորեն
եգիպտացորենի
եգիպտոս
եգիպտոսէն
եգիպտոսը
եգիպտոսի
եգիպտոսին
եգիպտոսն
եդեսիա
եդեսիայի
եդեսիան
եդեսիոյ
եդուարդ
եզ
եզակի
եզան
եզերուած
եզերքը
եզերքին
եզնիկ
եզր
եզրակացնել
եզրակացնէ
եզրակացութեան
եզրակացութիւն
եզրակացութիւնը
եզրակացութիւններ
եզրային
եզրափակիչ
եզրափակիչի
եզրափակիչին
եզրափակչի
եզրափակչին
եզրեր
եզրերը
եզրերուն
եզրը
եզրի
եզրին
եզրոյթը
եզրով
եէյլ
եէյլի
եէնի
եթե
եթեր
եթերային
եթերը
եթերի
եթերով
եթէ
եթովպական
եթովպիա
եթովպիան
եթովպիոյ
եի
ել
ելած
ելակէտ
ելակի
ելան
ելաւ
ելեկ
ելեկդրոնային
ելեկտ
ելեկտրական
ելեկտրականութեան
ելեկտրականութիւն
ելեկտրականութիւնը
ելեկտրամագնիսական
ելեկտրոկայան
ելեկտրոնային
ելենա
ելեւմտական
ելիզավետպոլի
ելլել
ելլելով
ելլելու
ելլեն
ելլէ
ելման
ելոյթ
ելոյթէն
ելոյթը
ելոյթի
ելոյթին
ելոյթներ
ելոյթները
ելոյթներով
ելոյթներու
ելոյթներուն
ելոյթով
ելք
ելքը
ելքի
ելքով
եկած
եկամուտ
եկամուտը
եկամուտի
եկամուտները
եկամուտներու
եկամտաբեր
եկայ
եկան
եկատերինա
եկաւ
եկե
եկել
եկեղեաց
եկեղեցական
եկեղեցականներ
եկեղեցականներու
եկեղեցականներուն
եկեղեցաշինութեան
եկեղեցապատկան
եկեղեցասէր
եկեղեցի
եկեղեցիէ
եկեղեցիէն
եկեղեցիի
եկեղեցիին
եկեղեցին
եկեղեցիներ
եկեղեցիներէն
եկեղեցիները
եկեղեցիներն
եկեղեցիներով
եկեղեցիներու
եկեղեցիներուն
եկեղեցիով
եկեղեցոյ
եկեղեցու
եկեղեցուոյ
եկեղեցւոյ
եկեղեցւոյն
եկեր
եկող
եկվ
եհխ
եհմ
եղ
եղած
եղածին
եղան
եղանակ
եղանակային
եղանակէն
եղանակը
եղանակի
եղանակին
եղանակներ
եղանակներէն
եղանակները
եղանակներով
եղանակներու
եղանակներուն
եղանակով
եղաւ
եղբ
եղբայր
եղբայրական
եղբայրակցութեան
եղբայրասպան
եղբայրը
եղբայրն
եղբայրներ
եղբայրներէն
եղբայրները
եղբայրների
եղբայրներն
եղբայրներու
եղբայրներուն
եղբայրութեան
եղբայրութիւն
եղբայրութիւնը
եղբոր
եղբորը
եղբօր
եղբօրը
եղբօրորդին
եղեգնաձոր
եղեգնաձորի
եղել
եղելութիւնը
եղելութիւններ
եղելութիւնները
եղելութիւններուն
եղեռն
եղեռնայուշ
եղեռնապատում
եղեռնէն
եղեռնը
եղեռնի
եղեռնին
եղեր
եղերական
եղէք
եղիա
եղիազար
եղիազարեան
եղիազարի
եղիայեան
եղիայեանի
եղիկ
եղիշէ
եղիշէի
եղիշէն
եղիսաբէթ
եղծ
եղնիկ
եղնիկը
եղող
եղուարդ
եղուարդի
եղունգը
եղունգի
եղունգին
եղունգները
եղջերաւոր
եղջերու
եղջերուն
եմ
եմէն
եմէնի
եյխ
են
ենայի
ենգիբարեան
ենգիբարեանի
ենթա
ենթադրաբար
ենթադրական
ենթադրեալ
ենթադրել
ենթադրելով
ենթադրելու
ենթադրեն
ենթադրէ
ենթադրէր
ենթադրուած
ենթադրուէր
ենթադրութիւնը
ենթադրութիւններ
ենթադրութիւններու
ենթադրուի
ենթալպեան
ենթակայ
ենթակայական
ենթակայի
ենթակային
ենթակայութեան
ենթակայութիւն
ենթական
ենթակառոյցներ
ենթակառոյցներուն
ենթակառուցուածք
ենթակառուցուածքներու
ենթամորթին
ենթատեսակներ
ենթատեսակներու
ենթարկած
ենթարկական
ենթարկել
ենթարկելով
ենթարկելու
ենթարկեն
ենթարկեց
ենթարկէ
ենթարկէր
ենթարկուած
ենթարկուելէ
ենթարկուելով
ենթարկուելու
ենթարկուեր
ենթարկուեցան
ենթարկուեցաւ
ենթարկուէին
ենթարկուէր
ենթարկուի
ենթարկուիլ
ենթարկուին
ենթարկուիր
ենի
ենովք
ենք
եոաքիմ
եոհան
եոհաննէս
եոն
եովովիչ
եորղոս
եորք
եորքէն
եորքի
եորքին
եու
եուան
եուկոսլաւիոյ
եունեսքոյի
եունեսքոյին
եունեսքօ
եունեսքօն
եուսէֆ
եուսուֆ
եուսուֆեան
եուսուֆը
եուսուֆի
եուվէ
եուրա
եուրի
եոււենտուս
եպ
եպիսկոպոս
եպիսկոպոսական
եպիսկոպոսանիստ
եպիսկոպոսը
եպիսկոպոսի
եպիսկոպոսին
եպիսկոպոսներ
եպիսկոպոսները
եպիսկոպոսներու
եպիսկոպոսներուն
եպիսկոպոսութեան
եպհ
եպս
եռաբլուր
եռագոյն
եռագոյնը
եռաժանիով
եռալեզու
եռակամար
եռակարգ
եռակի
եռակողմ
եռահատոր
եռամեայ
եռամսեակին
եռամսեայ
եռայարկ
եռանաւ
եռանդը
եռանդով
եռանդուն
եռանիշ
եռանկեան
եռանկիւն
եռանկիւնաձեւ
եռանկիւնաչափական
եռանկիւնի
եռաչափ
եռաստիճան
եռեակ
եռեակը
եռեակի
եռմանը
եռուն
եռօրեայ
ես
եսայեան
եսայեանը
եսայեանի
եսայի
եսի
եվ
եվսեբիոս
ետ
ետեւ
ետեւէ
ետեւէն
ետեւը
ետեւի
ետին
ետնախորշէն
ետք
ետքը
ետքն
եր
երազ
երազած
երազային
երազանք
երազանքը
երազանքներու
երազգաւորս
երազեմ
երազէր
երազը
երազի
երազին
երազն
երազներ
երազները
երազներու
երազներուն
երաժիշտ
երաժիշտը
երաժիշտի
երաժիշտին
երաժիշտներ
երաժիշտներէն
երաժիշտները
երաժիշտներու
երաժիշտներուն
երաժշտա
երաժշտագէտ
երաժշտագէտներ
երաժշտագիտական
երաժշտագիտութիւն
երաժշտագրութեան
երաժշտական
երաժշտահան
երաժշտահաններ
երաժշտահաններու
երաժշտանոց
երաժշտանոցէն
երաժշտանոցը
երաժշտանոցի
երաժշտանոցին
երաժշտասէր
երաժշտարուեստի
երաժշտութեամբ
երաժշտութեան
երաժշտութենէն
երաժշտութիւն
երաժշտութիւնը
երաժշտութիւնն
երաժշտութիւններ
երաժշտութիւններու
երախտագիտութեան
երախտագիտութիւն
երախտագիտութիւնը
երախտապարտ
երախտաւոր
երախտաւորը
երակային
երակները
երակներու
երակներուն
երամեան
երան
երանաշնորհ
երանգ
երանգը
երանգներ
երանգները
երանգներով
երանգներու
երանգով
երանեան
երանելի
երանի
երանուհի
երաշխաւորել
երաշխաւորէ
երաշխաւորուած
երաշխիք
երաշխիքներ
երաշտի
երասխ
երասխի
երբ
երբեմն
երբեմնի
երբեւէ
երբեք
երբէք
երգ
երգած
երգահան
երգահանդէս
երգահանը
երգահանի
երգահաններ
երգահաններէն
երգահաններու
երգային
երգաշար
երգարան
երգարանը
երգարաններու
երգարուեստի
երգարուեստին
երգացանկ
երգացանկը
երգացանկի
երգացանկին
երգել
երգելով
երգելու
երգեհոն
երգեհոնահար
երգեհոնային
երգեհոնը
երգեհոնի
երգեն
երգեր
երգերէն
երգերը
երգերն
երգերով
երգերու
երգերուն
երգեց
երգեցիկ
երգեցողութեան
երգեցողութիւն
երգեցողութիւնը
երգէ
երգէին
երգէն
երգէր
երգը
երգի
երգիծաբան
երգիծական
երգիծանք
երգիծանքը
երգիծանքի
երգին
երգիչ
երգիչը
երգիչի
երգիչին
երգիչն
երգիչներ
երգիչներէն
երգիչները
երգիչներու
երգն
երգող
երգով
երգոց
երգուած
երգուի
երգուին
երգչախմբային
երգչախումբ
երգչախումբեր
երգչախումբերը
երգչախումբերու
երգչախումբը
երգչախումբի
երգչախումբին
երգչուհի
երգչուհիի
երգչուհիին
երգչուհին
երգչուհիներ
երգչուհիներու
երդման
երդուեալ
երդում
երդումը
երե
երեխայ
երեխայի
երեխային
երեխան
երեխաներ
երեխաներէն
երեխաները
երեխաների
երեխաներու
երեխաներուն
երեկոյ
երեկոյան
երեկոյեան
երեկոյի
երեկոն
երեկոներ
երեմեան
երեմիա
երես
երեսը
երեսի
երեսին
երեսնամեայ
երեսուն
երեսփոխայ
երեսփոխան
երեսփոխանական
երեսփոխաններ
երեսփոխանները
երեւակ
երեւակայական
երեւակայութեան
երեւակայութիւն
երեւակայութիւնը
երեւակը
երեւայ
երեւան
երեւանեան
երեւանէն
երեւանը
երեւանի
երեւանին
երեւանում
երեւանցի
երեւանցիի
երեւանցին
երեւելի
երեւէին
երեւէր
երեւի
երեւիլ
երեւին
երեւման
երեւոյթ
երեւոյթը
երեւոյթի
երեւոյթին
երեւոյթն
երեւոյթներ
երեւոյթներէն
երեւոյթները
երեւոյթներով
երեւոյթներու
երեւոյթներուն
երեւցած
երեւցաւ
երեւցող
երեք
երեքական
երեքէն
երեքը
երեքի
երեքին
երեքն
երեքշաբթի
երզնկա
երզնկայի
երզնկան
երզնկացի
երզնկացիի
երզնկացին
երզնկեան
երէկ
երէց
երէցեանի
երէցը
երէք
երը
երթ
երթալ
երթալով
երթալու
երթամ
երթայ
երթային
երթան
երթանք
երթար
երթեւեկի
երթեւեկութեան
երթեւեկութիւն
երթեւեկութիւնը
երթը
երթուղին
երթուղիներ
երի
երիզա
երիկամ
երիկամային
երիկամի
երիկամները
երիկամներու
երիկամներուն
երիտ
երիտասարդ
երիտասարդական
երիտասարդաց
երիտասարդը
երիտասարդի
երիտասարդներ
երիտասարդները
երիտասարդներու
երիտասարդներուն
երիտասարդութեան
երիտասարդութիւն
երիտասարդութիւնը
երիտթուրքական
երիտթուրքերը
երիտթուրքերու
երիտթրքական
երից
երիցմանկանց
երիցուկի
երկ
երկա
երկաթ
երկաթգիծի
երկաթեայ
երկաթէ
երկաթը
երկաթի
երկաթին
երկաթուղագիծի
երկաթուղային
երկաթուղի
երկաթուղիի
երկաթուղիին
երկաթուղին
երկաթուղիները
երկաթուղիներու
երկաթուղու
երկակի
երկամեայ
երկամսեայ
երկայն
երկայնաբազուկ
երկայնք
երկայնքը
երկայնքին
երկայնքով
երկանեան
երկանեանի
երկասիրութիւնը
երկասիրութիւններ
երկար
երկարաթեւ
երկարաժամկէտ
երկարած
երկարակեաց
երկարաձգեց
երկարամեայ
երկարաշունչ
երկարատեւ
երկարաւուն
երկարէր
երկարի
երկարին
երկարող
երկարութեամբ
երկարութեան
երկարութիւն
երկարութիւնը
երկարութիւնն
երկգլխանի
երկեր
երկերէն
երկերը
երկերի
երկերն
երկերու
երկերուն
երկը
երկթեք
երկթթուակի
երկի
երկին
երկինք
երկինքէն
երկինքը
երկինքի
երկինքին
երկինքն
երկիր
երկիրէն
երկիրը
երկիրի
երկիրին
երկիրն
երկիրներ
երկիրներէ
երկիրներէն
երկիրները
երկիրներն
երկիրներու
երկիրներուն
երկլանջ
երկլեզու
երկխօսութեան
երկխօսութիւն
երկխօսութիւնը
երկկողմ
երկկողմանի
երկհատոր
երկյարկ
երկյարկանի
երկն
երկնագոյն
երկնակամարին
երկնային
երկնաւոր
երկնաքարի
երկնիշ
երկնիշային
երկնքի
երկշաբաթաթերթ
երկոտասան
երկու
երկուական
երկունք
երկուշաբթի
երկուորեակ
երկուք
երկուքական
երկուքէն
երկուքը
երկուքի
երկուքին
երկուքն
երկուքով
երկսեռ
երկվայրկեան
երկվայրկեանի
երկվայրկեանուան
երկվրկ
երկրաբան
երկրաբանական
երկրաբանութեան
երկրաբանութիւն
երկրագիտական
երկրագործական
երկրագործութեամբ
երկրագործութեան
երկրագործութիւն
երկրագործութիւնը
երկրագունդ
երկրագունդը
երկրագունդի
երկրագունդին
երկրակեղեւի
երկրակեղեւին
երկրամաս
երկրամասերու
երկրամասը
երկրամասի
երկրամասին
երկրային
երկրաշարժ
երկրաշարժային
երկրաշարժէն
երկրաշարժը
երկրաշարժի
երկրաշարժին
երկրաշարժներ
երկրաշարժներէն
երկրաշարժները
երկրաշարժներու
երկրաչաբական
երկրաչափ
երկրաչափական
երկրաչափութեան
երկրաչափութիւն
երկրաչափութիւնը
երկրապահ
երկրէ
երկրէն
երկրի
երկրին
երկրներ
երկրներէն
երկրները
երկրների
երկրներու
երկրներում
երկրներուն
երկրորդ
երկրորդական
երկրորդականը
երկրորդականի
երկրորդը
երկրորդի
երկրորդին
երկրորդն
երկրում
երկրպագութեան
երկրպագուն
երկրպագուներ
երկրպագուները
երկրպագուներու
երկրպագուներուն
երկօրեայ
երնջակ
երշիկ
երորդ
երու
երուանդ
երուանդաշատ
երուանդեան
երուանդը
երուանդի
երուանդունի
երուանդունիներ
երուանդունիները
երուանդունիներու
երուխան
երուսաղեմ
երուսաղեմի
երուսաղէմ
երուսաղէմէն
երուսաղէմը
երուսաղէմի
երջանիկ
երջանկայիշատակ
երջանկութեան
երջանկութիւն
երջանկութիւնը
երրորդ
երրորդը
երրորդին
երրորդն
երրորդութեան
երրորդութիւն
երրորդութիւնը
երևան
երևանի
եւ
եւա
եւայլն
եւան
եւգենի
եւգինէ
եւդոկիա
եւդոկիացի
եւդոկիոյ
եւլն
եւկենի
եւն
եւս
եւսեբիոս
եւստաքեան
եւրամիութեան
եւրասիական
եւրասիոյ
եւրատեսիլ
եւրո
եւրոխորհրդարանի
եւրոմիութեան
եւրոյ
եւրոյի
եւրոյով
եւրոպա
եւրոպական
եւրոպայէն
եւրոպայի
եւրոպային
եւրոպան
եւրոպացի
եւրոպացիներ
եւրոպացիները
եւրոպացիներու
եւրոպացիներուն
եւրոտեսիլ
եւրօ
եփած
եփել
եփեսոս
եփեսոսի
եփէին
եփուած
եփրատ
եփրատը
եփրատի
եփրեմ
եփփէ
եփփէի
եքաթերինա
եօթ
եօթանասուն
եօթերորդ
եօթը
եօթն
եօթնախորան
եօթնամեայ
եօթներորդ
եօլ
զ
զա
զահլէ
զահլէի
զահրատ
զայն
զայրանայ
զայրացած
զայրոյթ
զայրոյթը
զայրոյթի
զան
զանազան
զանգ
զանգակ
զանգակատան
զանգակատուն
զանգակատունը
զանգակը
զանգակի
զանգակին
զանգակներ
զանգակները
զանգակներուն
զանգեզուր
զանգեզուրը
զանգեզուրի
զանգելանի
զանգելու
զանգեր
զանգերը
զանգը
զանգի
զանգուած
զանգուածային
զանգուածը
զանգուածի
զանգուածին
զանգուածներ
զանգուածները
զանգուածներու
զանգուածով
զանոնք
զանց
զապէլ
զապէլը
զառ
զառիթափ
զաս
զաստուած
զատ
զատէ
զատիկ
զատիկէն
զատիկը
զատիկի
զատկի
զատկուան
զար
զարգանալ
զարգանալով
զարգանայ
զարգանային
զարգանան
զարգանար
զարգացած
զարգացան
զարգացաւ
զարգացեր
զարգացմամբ
զարգացման
զարգացմանը
զարգացնել
զարգացնելով
զարգացնելու
զարգացնեն
զարգացնէ
զարգացող
զարգացում
զարգացումը
զարգացումի
զարգացումին
զարգացումն
զարգացումները
զարգացումներուն
զարգացումով
զարգացուց
զարգացուցած
զարգացուցին
զարդ
զարդական
զարդանախշեր
զարդանախշերով
զարդարած
զարդարանք
զարդարանքներ
զարդարանքները
զարդարեան
զարդարեանի
զարդարելու
զարդարեն
զարդարէ
զարդարէին
զարդարիչ
զարդարող
զարդարուած
զարդարուէր
զարդարուի
զարդարուն
զարդաքանդակներով
զարդեր
զարդերը
զարդերով
զարդերու
զարդը
զարեան
զարեանը
զարեանի
զարեհ
զարեհեան
զարեհը
զարեհի
զարթօնք
զարթօնքը
զարթօնքի
զարթօնքին
զարիֆեան
զարիֆեանի
զարկ
զարկած
զարկերակային
զարկերակի
զարկերակները
զարկերակներու
զարկի
զարմանալի
զարմանալիօրէն
զարմանահրաշ
զարմիկ
զարմիկը
զարմիկին
զարմինէ
զարնեն
զարնէ
զարուհի
զաւակ
զաւակը
զաւակին
զաւակն
զաւակներ
զաւակներէն
զաւակները
զաւակներն
զաւակներով
զաւակներու
զաւակներուն
զաւակով
զաւարեան
զաւարեանի
զաւէն
զաւթած
զաւկին
զաքար
զաքարեան
զաքարեանը
զաքարեանի
զաքարեանները
զաքարեաններու
զաքարեաններուն
զաքարէ
զաքարիա
զաքի
զաքինթոս
զաքինթոսի
զբաղած
զբաղելով
զբաղելու
զբաղեցնել
զբաղեցնելով
զբաղեցնեն
զբաղեցնէ
զբաղեցնէր
զբաղեցնող
զբաղեցուց
զբաղեցուցած
զբաղէին
զբաղէր
զբաղի
զբաղիլ
զբաղին
զբաղմունքը
զբաղող
զբաղուած
զբաղուեր
զբաղուէին
զբաղուէր
զբաղուի
զբաղուիլ
զբաղուին
զբաղումը
զբաղուող
զբոսայգի
զբոսաշրջիկներ
զբոսաշրջութեան
զբոսաշրջութիւնը
զբօսայգի
զբօսայգիի
զբօսայգիին
զբօսայգին
զբօսայգիներ
զբօսայգիները
զբօսանաւեր
զբօսանք
զբօսաշրջային
զբօսաշրջիկ
զբօսաշրջիկներ
զբօսաշրջիկներու
զբօսաշրջիկներուն
զբօսաշրջիկութեամբ
զբօսաշրջիկութեան
զբօսաշրջիկութիւն
զբօսաշրջիկութիւնը
զբօսաշրջութեան
զբօսաշրջութիւն
զբօսաշրջութիւնը
զբօսնելու
զգալ
զգալի
զգալիօրէն
զգալով
զգալու
զգամ
զգայ
զգայազրկիչ
զգայազրկումի
զգայական
զգայարաններու
զգայացունց
զգային
զգայութեան
զգայութիւնը
զգայութիւնները
զգայուն
զգան
զգար
զգաց
զգացած
զգացական
զգացմունքներու
զգացողական
զգացողութեան
զգացողութիւն
զգացողութիւնը
զգացուի
զգացում
զգացումը
զգացումներ
զգացումները
զգացումներով
զգացումներու
զգացումներուն
զգացումով
զգեստ
զգեստը
զգեստի
զգեստներ
զգեստները
զգեստներու
զգեստով
զգոյշ
զգուշանալ
զգուշացնէ
զգուշութեամբ
զելանտա
զելանտայի
զեկոյցը
զեկոյցին
զեմիրէ
զենոբ
զենոն
զետեղած
զետեղել
զետեղէ
զետեղուած
զետեղուի
զետեղուին
զերծ
զերոյէն
զերօ
զեւս
զեւսը
զեւսի
զեւսին
զեփիւռ
զէ
զէյթլեան
զէյթուն
զէյթունը
զէյթունի
զէյթունցեան
զէյթունցի
զէյթունցիները
զէնք
զէնքեր
զէնքերը
զէնքերով
զէնքերու
զէնքը
զէնքի
զէնքով
զի
զիատ
զիլանտ
զիմպապուէ
զիմպապուէի
զին
զինադադար
զինադադարէն
զինադադարը
զինադադարի
զինադադարին
զինական
զինակից
զինակիցները
զինակիցներուն
զինամթերք
զինամթերքի
զինամթերքով
զինանշան
զինանշանային
զինանշանը
զինանշանի
զինանշանին
զինանշաններ
զինանշանները
զինեալ
զինեալներ
զինեալները
զինեալներու
զինեալներուն
զինետին
զինծառայողների
զինծառայողներու
զինկ
զինկի
զինուած
զինուժը
զինուոր
զինուորագրուած
զինուորական
զինուորականներ
զինուորականները
զինուորականներու
զինուորը
զինուորի
զինուորին
զինուորներ
զինուորներէ
զինուորները
զինուորներով
զինուորներու
զինուորներուն
զինվորական
զինւորական
զինք
զինքը
զիջած
զիջելով
զիջեց
զիջեցաւ
զիջի
զիջիլ
զիջումներ
զիս
զիտան
զիտանը
զիտանի
զիրար
զիրենք
զիքա
զլաթանը
զլմ
զմիւռնիա
զմիւռնիոյ
զմմառ
զմմառի
զմմառու
զո
զոլա
զոհ
զոհաբերութեան
զոհաբերութիւններ
զոհեր
զոհերէն
զոհերը
զոհերի
զոհերու
զոհերուն
զոհը
զոհի
զոհողութիւնը
զոհուած
զոհուածներու
զոհուածներուն
զոհուեցան
զոհուեցաւ
զոհուէ
զոհուի
զոհուին
զոհրապ
զոհւած
զոյգ
զոյգերը
զոյգերու
զոյգերուն
զոյգը
զոյգի
զոյգին
զով
զովացուցիչ
զովս
զոր
զորավար
զորեան
զորպաս
զորս
զորքերը
զորքերու
զորքը
զորքի
զորօրինակ
զու
զուարթ
զուարթնոց
զուարթնոցի
զուարճալի
զուարճանքի
զուգադիպի
զուգակցել
զուգակցման
զուգակցուած
զուգակցումը
զուգահեռ
զուգահեռաբար
զուգահեռներ
զուգահեր
զուգերգ
զուգընթաց
զուգորդական
զուգորդուած
զուիցերացի
զուիցերիա
զուիցերիական
զուիցերիան
զուիցերիացի
զուիցերիոյ
զուլալ
զուռնա
զուռնան
զուսպ
զուտ
զուր
զուրապ
զուրկ
զոքաք
զսպել
զվիատ
զտման
զտուած
զտումի
զրադաշտական
զրադաշտականութիւնը
զրահապատ
զրահը
զրապ
զրկած
զրկէ
զրկուած
զրկուեցաւ
զրկուի
զրոյական
զրոյց
զրոյցը
զրոյցի
զրոյցներ
զրոյցները
զրոյցներու
զօ
զօհրապ
զօհրապի
զօր
զօրաբաժինի
զօրաբանակը
զօրաբանակի
զօրագունդի
զօրախումբը
զօրախումբի
զօրախումբին
զօրակոչ
զօրակոչի
զօրակոչուած
զօրակցութեան
զօրակցութիւն
զօրակցութիւնը
զօրահաւաք
զօրահրամանատար
զօրամասեր
զօրամասերը
զօրամասերու
զօրամասը
զօրամասի
զօրամասին
զօրամիաւորումներու
զօրանայ
զօրանան
զօրանոց
զօրապետ
զօրաջոկատը
զօրավար
զօրավարը
զօրավարի
զօրավարին
զօրավարներ
զօրավարներէն
զօրավարները
զօրավարներուն
զօրավիգ
զօրաց
զօրացած
զօրացնել
զօրացնելու
զօրացնեն
զօրացնէ
զօրաւար
զօրաւոր
զօրեան
զօրեանի
զօրեղ
զօրի
զօրու
զօրութեամբ
զօրութեան
զօրութիւն
զօրութիւնը
զօրք
զօրքեր
զօրքերէն
զօրքերը
զօրքերով
զօրքերու
զօրքերուն
զօրքը
զօրքի
զօրքին
զօրքով
է
էակ
էական
էականօրէն
էակի
էակներ
էակները
էակներու
էապէս
էգ
էգերը
էգէական
էգէականի
էգէաս
էգէասին
էգը
էդ
էդիկ
էդուարդ
էթնիկ
էթնիկական
էթնիք
էթրա
էի
էին
էինք
էիր
էլ
էլեկտրոնային
էլենի
էլեֆթերիոս
էլեֆսինա
էլեֆսինայի
էլէնի
էլըն
էլի
էլիա
էլիաս
էլիզապէթ
էլիթիս
էլիթիսին
էլիս
էլիսի
էլվիս
էլտա
էկոյեան
էղինա
էղինայի
էղիօ
էմ
էմանուէլ
էմի
էմիլ
էմիլի
էմիլիա
էմին
էմինը
էմինի
էմիր
էմիրը
էմիրին
էմիրութեան
էմիրութիւններ
էմիրութիւնները
էմիրութիւններու
էմիրութիւններուն
էմմա
էմմայի
էմման
էմմանուէլ
էմմի
էմպիրիքոս
էյ
էյմի
էն
էնա
էնթընի
էնսիւլինի
էնվեր
էնտ
էնտերսընը
էնտի
էնրիքէ
էնրիքէն
էնրիքօ
էշրեֆիէ
էշրէֆիէ
էշրէֆիէի
էութեամբ
էութեան
էութիւն
էութիւնը
էպոլա
էպոսի
էջ
էջեր
էջերէ
էջերէն
էջերը
էջերով
էջերու
էջերուն
էջէն
էջը
էջի
էջին
էջմիածին
էջմիածինէն
էջմիածինը
էջմիածինի
էջմիածնայ
էջմիածնի
էջմիածնին
էջնոց
էռնեսթ
էռնեստ
էս
էսաեան
էսաժիլ
էսայեան
էսդրատային
էսթոներէն
էսթոնիա
էսթոնիայի
էսթոնիոյ
էսթրատային
էսհիլոս
էսմերեան
էսսեներ
էստրադային
էսքիզներ
էսքոֆիէ
էվանկելիա
էվանս
էվերթոնի
էվիա
էվիայի
էվիան
էվոյիքոս
էվրիփիտիս
էվրիփիտիսի
էվրիփու
էվրոթաս
էտ
էտիթ
էտինպուրկի
էտիսընի
էտիրնէ
էտկար
էտման
էտմոն
էտուար
էտուարտ
էտուարտօ
էտուին
էր
էրազմ
էրեբունի
էրեբունին
էրեթրիա
էրեթրիայի
էրզրում
էրզրումը
էրզրումի
էրէխթիօ
էրի
էրիթրոցիտները
էրիթրոցիտներու
էրիք
էրմիթաժ
էրմիթաժի
էրմուփոլի
էրտողանը
էրտողանի
էւկլիդեսեան
էփի
էփիթաֆիոս
էփիտաւրօ
էփիֆանիա
էփլ
էփլը
էփլի
էք
էքադոպետոս
էքերման
էքիզեան
էքշեան
էքուատոր
էքս
էքսամիլիոն
էօժէն
էօկա
էֆ
էֆենտի
էֆէնտի
էֆքեար
ը
ըլ
ըլլալ
ըլլալէ
ըլլալէն
ըլլալը
ըլլալն
ըլլալով
ըլլալու
ըլլալուն
ըլլայ
ըլլային
ըլլան
ըլլանք
ըլլար
ըմբշամարտ
ըմբշամարտի
ըմբոստ
ըմբոստութեան
ըմբռնումը
ըմբռնումները
ըմպելի
ըմպելիք
ըն
ընդ
ընդամենը
ընդամէնը
ընդառաջ
ընդառաջելով
ընդառաջէ
ընդարձակ
ընդարձակել
ընդարձակելու
ընդարձակէ
ընդարձակման
ընդարձակուած
ընդարձակուեցաւ
ընդարձակուի
ընդարձակուին
ընդարձակումը
ընդգծել
ընդգծելով
ընդգծէ
ընդգծուած
ընդգծուի
ընդգրկած
ընդգրկել
ընդգրկելով
ընդգրկեն
ընդգրկեց
ընդգրկէ
ընդգրկէր
ընդգրկող
ընդգրկուած
ընդգրկուեր
ընդգրկուեցաւ
ընդգրկուի
ընդգրկուին
ընդդեմ
ընդդէմ
ընդդիմադիր
ընդդիմանայ
ընդդիմութեան
ընդդիմութիւն
ընդդիմութիւնը
ընդերքը
ընդերքին
ընդէմ
ընդիմադիր
ընդլայնած
ընդլայնել
ընդլայնելու
ընդլայնէ
ընդլայնին
ընդլայնման
ընդլայնուած
ընդլայնում
ընդլայնումը
ընդծովեայ
ընդհ
ընդհակառակը
ընդհանուր
ընդհանուրը
ընդհանուրին
ընդհանրական
ընդհանրապէս
ընդհանրացած
ընդհանրացման
ընդհանրացուած
ընդհանրացումը
ընդհանրութիւններ
ընդհատուած
ընդհատուեցաւ
ընդհատուի
ընդհատումներով
ընդհարում
ընդհարումներ
ընդհարումներէն
ընդհարումները
ընդհարումներու
ընդհարումներուն
ընդհուպ
ընդմէջէն
ընդմիշտ
ընդմիջումէ
ընդմիջումէն
ընդմիջումներով
ընդյատակեայ
ընդոծին
ընդունած
ընդունակ
ընդունակութիւն
ընդունակութիւնը
ընդունակութիւններ
ընդունակութիւնները
ընդունակութիւններու
ընդունել
ընդունելէ
ընդունելի
ընդունելիութիւն
ընդունելով
ընդունելու
ընդունելութեան
ընդունելութիւն
ընդունելութիւնը
ընդուներ
ընդունեց
ընդունեցին
ընդունէ
ընդունէին
ընդունէր
ընդունի
ընդունիլ
ընդունին
ընդունիր
ընդունման
ընդունող
ընդունուած
ընդունուելու
ընդունուեր
ընդունուեցան
ընդունուեցաւ
ընդունուէր
ընդունուի
ընդունուիլ
ընդունուին
ընդունում
ընդունումէն
ընդունումը
ընդվզումը
ընդօրինակած
ընդօրինակէ
ընդօրինակուած
ընել
ընելէ
ընելով
ընելու
ընեն
ընենք
ըներ
ընէ
ընէին
ընէր
ընթանայ
ընթանան
ընթանար
ընթացած
ընթացաւ
ընթացաւարտ
ընթացիկ
ընթացող
ընթացք
ընթացքը
ընթացքի
ընթացքին
ընթացքն
ընթացքով
ընթացքում
ընթերցանութեամբ
ընթերցանութեան
ընթերցասէր
ընթերցարան
ընթերցէ
ընթերցող
ընթերցողը
ընթերցողին
ընթերցողները
ընթերցողներու
ընթերցողներուն
ընթերցումը
ընթրիք
ընթրիքը
ընթրիքի
ընթրիքին
ընծայած
ընծայարանի
ընծայել
ընծայելով
ընծայեց
ընծայէ
ընծայուած
ընկ
ընկալական
ընկալման
ընկալուած
ընկալուի
ընկալուին
ընկալումը
ընկած
ընկեր
ընկերա
ընկերաբան
ընկերաբանական
ընկերաբանութեան
ընկերական
ընկերակցած
ընկերակցեցան
ընկերակցեցաւ
ընկերակցէր
ընկերակցի
ընկերակցին
ընկերակցող
ընկերակցութեամբ
ընկերակցութեան
ընկերակցութիւն
ընկերակցութիւնը
ընկերամշակութային
ընկերային
ընկերանայ
ընկերացած
ընկերը
ընկերն
ընկերներ
ընկերներէն
ընկերները
ընկերներով
ընկերներու
ընկերներուն
ընկերոջ
ընկերութեան
ընկերութեանց
ընկերութենէն
ընկերութիւն
ընկերութիւնը
ընկերութիւնն
ընկերութիւններ
ընկերութիւններէն
ընկերութիւնները
ընկերութիւններու
ընկերութիւններուն
ընկերության
ընկերուհին
ընկերուհիներուն
ընկերվար
ընկերվարական
ընկերվարականներու
ընկերվարութեան
ընկճուածութեան
ընկճուածութիւն
ընկոյզ
ընկոյզը
ընկոյզով
ընկուզենիի
ընկուզենին
ընձառիւծ
ընձառիւծը
ընձեռած
ընող
ընտ
ընտանեկան
ընտանեօք
ընտանի
ընտանիք
ընտանիքէ
ընտանիքէն
ընտանիքը
ընտանիքի
ընտանիքին
ընտանիքն
ընտանիքներ
ընտանիքներէ
ընտանիքներէն
ընտանիքները
ընտանիքներով
ընտանիքներու
ընտանիքներուն
ընտանիքով
ընտելացած
ընտելացուած
ընտիր
ընտրած
ընտրական
ընտրակարգով
ընտրանի
ընտրանին
ընտրեալ
ընտրել
ընտրելով
ընտրելու
ընտրեն
ընտրեց
ընտրէ
ընտրէին
ընտրէր
ընտրող
ընտրողներու
ընտրովի
ընտրուած
ընտրուելով
ընտրուելու
ընտրուեր
ընտրուեցաւ
ընտրուէր
ընտրութեամբ
ընտրութեան
ընտրութիւն
ընտրութիւնը
ընտրութիւններ
ընտրութիւններէն
ընտրութիւնները
ընտրութիւններու
ընտրութիւններուն
ընտրուի
ընտրուիլ
ընտրուին
ըպն
ըսած
ըսաւ
ըսել
ըսելով
ըսելու
ըսեմ
ըսեն
ըսենք
ըսէ
ըսէին
ըսէր
ըսին
ըսինք
ըսուած
ըսուի
ըստ
ըրած
ըրաւ
ըրին
ըրլ
թ
թա
թագ
թագադիր
թագադրուած
թագադրուեցաւ
թագադրութեան
թագադրուի
թագաժառանգ
թագաւոր
թագաւորած
թագաւորական
թագաւորէ
թագաւորէն
թագաւորը
թագաւորի
թագաւորին
թագաւորն
թագաւորներ
թագաւորներէն
թագաւորները
թագաւորներու
թագաւորներուն
թագաւորութեան
թագաւորութենէ
թագաւորութենէն
թագաւորութիւն
թագաւորութիւնը
թագաւորութիւնն
թագաւորութիւններ
թագաւորութիւնները
թագաւորութիւններու
թագաւորութիւններուն
թագը
թագի
թագին
թագով
թագուհի
թագուհիի
թագուհիին
թագուհին
թագուհիներ
թագուհու
թագրութիւններ
թադեւոսեան
թադեւոսեանի
թադէի
թադէոս
թադէոսեան
թադէոսի
թաթար
թաթարական
թաթարներ
թաթարները
թաթարներու
թաթիկեան
թաթուլ
թաժ
թալանել
թալանեն
թալանեց
թալանը
թալաս
թալէաթ
թալէաթի
թալիան
թալին
թալինի
թալիշ
թալիշի
թալլինի
թակարդ
թակոր
թակորը
թակորի
թահա
թաղ
թաղած
թաղածածկ
թաղական
թաղականին
թաղականութեան
թաղակապ
թաղամաս
թաղամասեր
թաղամասերէն
թաղամասերը
թաղամասերու
թաղամասերուն
թաղամասը
թաղամասի
թաղամասին
թաղային
թաղանթ
թաղանթը
թաղանթի
թաղանթները
թաղանթներու
թաղապետական
թաղավարդ
թաղեն
թաղեր
թաղերը
թաղերու
թաղերուն
թաղէն
թաղը
թաղի
թաղին
թաղման
թաղով
թաղուած
թաղուածներ
թաղուի
թաղուիլ
թաղում
թաղումը
թամանեան
թամանեանը
թամանեանի
թամար
թամարա
թամզարա
թամիլերէն
թայ
թայիղեթոս
թայիփ
թայլանտ
թայլանտի
թայլըր
թայմ
թայմզ
թայմուրը
թայմս
թայուան
թայուանի
թան
թանասիս
թանգարան
թանգարանային
թանգարանէն
թանգարանը
թանգարանի
թանգարանին
թանգարանն
թանգարաններ
թանգարաններէն
թանգարանները
թանգարաններն
թանգարաններու
թանգարաններուն
թանկ
թանկագին
թանկային
թանկարժէք
թանձր
թաշկինակ
թաշճեան
թաշճեանի
թաուֆիք
թառ
թառահար
թառը
թառի
թասլաքեան
թասմանիա
թասոս
թատ
թատերաբեմ
թատերագէտ
թատերագիր
թատերագիրներ
թատերագրութեան
թատերագրութիւնը
թատերախաղ
թատերախաղեր
թատերախաղերը
թատերախաղերու
թատերախաղերուն
թատերախաղը
թատերախաղի
թատերախաղին
թատերախումբ
թատերախումբեր
թատերախումբերու
թատերախումբը
թատերախումբի
թատերախումբին
թատերակ
թատերական
թատերականացուած
թատերապարը
թատերապարի
թատերասէրներու
թատերասրահ
թատերասրահին
թատերգական
թատերգութեան
թատերգութիւն
թատերգութիւնը
թատերգութիւններ
թատրերգութեան
թատրերգութիւն
թատրերգութիւնը
թատրերգութիւններ
թատրերգութիւնները
թատրոն
թատրոնէն
թատրոնը
թատրոնի
թատրոնին
թատրոնն
թատրոններ
թատրոնները
թատրոններու
թատրոններուն
թատրոնով
թարախային
թարախոտ
թարգ
թարգմ
թարգման
թարգմանաբար
թարգմանած
թարգմանական
թարգմանել
թարգմանելով
թարգմանելու
թարգմանեց
թարգմանէ
թարգմանիչ
թարգմանիչը
թարգմանիչի
թարգմանիչներ
թարգմանիչները
թարգմանիչներու
թարգմանիչներուն
թարգմանուած
թարգմանուեցաւ
թարգմանութեամբ
թարգմանութեան
թարգմանութեանց
թարգմանութիւն
թարգմանութիւնը
թարգմանութիւնն
թարգմանութիւններ
թարգմանութիւնները
թարգմանութիւններով
թարգմանութիւններու
թարգմանութիւններուն
թարգմանուի
թարգմանուին
թարգմանչական
թարգմանչաց
թարգմանչի
թարգմանչուհի
թարզանի
թարթառ
թարթուի
թարթուն
թարխան
թարխանեան
թարմ
թարմացում
թաց
թաւ
թաւշեայ
թաւջութակ
թաւջութակահար
թաւջութակի
թաւրիզ
թաւրիզը
թաւրիզի
թափ
թափած
թափանցած
թափանցել
թափանցելու
թափանցեն
թափանցէ
թափանցիկ
թափանցող
թափառական
թափառի
թափառող
թափառումները
թափել
թափեն
թափէ
թափէին
թափը
թափի
թափին
թափող
թափոններու
թափով
թափուի
թափուող
թափուր
թափօր
թափօրը
թաքնուած
թաքուն
թաքսի
թաքսիմ
թբիլիսի
թե
թեա
թեամբ
թեան
թեանց
թեզ
թեզը
թեթեւ
թեթեւցնել
թեթեւցնելու
թեժ
թել
թելադրած
թելադրանքով
թելադրէ
թելադրուած
թելադրութեամբ
թելանման
թելենտոս
թելեսքրին
թելեր
թելերով
թելի
թեկնածու
թեկնածուական
թեկնածութեան
թեկնածութիւն
թեկնածութիւնը
թեկնածուի
թեկնածուին
թեկնածուն
թեկնածուներ
թեկնածուները
թեկնածուներու
թեկնածուներուն
թեհլիրեան
թեհլիրեանի
թեհրան
թեհրանի
թեմ
թեմա
թեմակալ
թեմական
թեմայի
թեմային
թեմայով
թեման
թեմաներ
թեմաները
թեմաներն
թեմաներով
թեմաներու
թեմատիկ
թեմեր
թեմերը
թեմերու
թեմերուն
թեմը
թեմի
թեմին
թեմիս
թեմիսթոքլիս
թեյլոր
թենեսի
թենիս
թենիսի
թենոր
թեպէտ
թեսալիա
թեսաղոնիկէ
թեսաղոնիկէի
թեսլա
թեսլային
թեսլան
թեր
թերակղզի
թերակղզիէն
թերակղզիի
թերակղզիին
թերակղզին
թերակղզիներ
թերաճ
թերեզա
թերեւս
թերզեան
թերզեանի
թերթ
թերթեր
թերթերէն
թերթերը
թերթերու
թերթերուն
թերթը
թերթի
թերթիկ
թերթիկներ
թերթին
թերթն
թերթօն
թերի
թերմայիքոս
թերմոփիլեսի
թերութիւնը
թերութիւնները
թեւ
թեւակոխէ
թեւաւոր
թեւեր
թեւերը
թեւերով
թեւերու
թեւերուն
թեւը
թեւի
թեւին
թեւով
թեք
թեքէեան
թեքնիկական
թեքնիք
թեքսաս
թեքսասի
թէ
թէեւ
թէզը
թէժ
թէլ
թէյ
թէյը
թէյի
թէյլըր
թէոդիկ
թէոդիկի
թէոդոսիոյ
թէոդորոս
թէոյին
թէոտոսիոս
թէոտոր
թէոտորաքիս
թէոտորաքիսին
թէոտորոս
թէպէտ
թէպէտեւ
թէրզեան
թէրլէմէզեան
թէքէեան
թէքէեանի
թէօ
թէօլէօլեան
թը
թթ
թթու
թթուածին
թթուածինը
թթուածինի
թթուածինով
թթուային
թթուի
թթուն
թթուներ
թթուներու
թի
թիթանիք
թիթեռնիկը
թիթեռնիկներու
թիթեռնիկներուն
թիթօ
թիլ
թիկունք
թիկունքէն
թիկունքը
թիկունքի
թիկունքին
թիմ
թիմի
թիմպերլէյք
թին
թինա
թինոս
թինոսի
թիս
թիսէաս
թիսէասին
թիվ
թիրա
թիրախ
թիրախը
թիրախները
թիրասիա
թիրեաքեան
թիւ
թիւեր
թիւերէն
թիւերը
թիւերով
թիւերու
թիւերուն
թիւէն
թիւը
թիւթիւնճեան
թիւի
թիւին
թիւն
թիւնը
թիւնն
թիւով
թիւս
թիւրապեան
թիւրք
թիփղիս
թիֆ
թիֆլիս
թիֆլիսեան
թիֆլիսէն
թիֆլիսը
թիֆլիսի
թլկատինցի
թխէին
թխուածքները
թխսաւորման
թխսաւորումը
թղթադրամը
թղթադրամները
թղթադրամներու
թղթակից
թղթակիցներ
թղթակցած
թղթակցութիւններ
թղթատարական
թղթոց
թմբկաթաղանթը
թմբկաթաղանթի
թմբկաթաղանթին
թմբկահար
թմբուկ
թմբուկը
թմբուկի
թմկաբերդի
թմմ
թմրանիւթերու
թմրաքունի
թմրեցուցիչ
թմրեցուցիչի
թմրութիւն
թնդանօթ
թնդանօթի
թնդանօթներ
թշնամական
թշնամանքը
թշնամանքի
թշնամի
թշնամիի
թշնամիին
թշնամին
թշնամիներ
թշնամիները
թշնամիներու
թշնամիներուն
թշնամու
թշուառ
թշուառութեան
թո
թոբոլ
թոթթին
թոթովենց
թոլետօ
թոլիս
թոլսթոյ
թոլսթոյի
թոլքինի
թող
թողած
թողարկած
թողարկել
թողարկեց
թողարկէ
թողարկման
թողարկուած
թողարկուեցաւ
թողարկուի
թողարկում
թողարկումէն
թողարկումը
թողելով
թողեց
թողէ
թողնելով
թողու
թողութիւն
թոմ
թոմաս
թոմի
թոմսըն
թոյլ
թոյլատրելի
թոյլատրեր
թոյլատրէ
թոյլատրուած
թոյլատրուի
թոյլտուութիւն
թոյն
թոն
թոնդրակեան
թոնի
թոշակ
թոշակի
թոռ
թոռան
թոռը
թոռն
թոռնիկ
թոռնիկը
թոռնուհին
թովմա
թովմաս
թովմասեան
թովմասի
թոր
թորամանեան
թորամանեանի
թորանեան
թորգոմ
թորգոմեան
թորը
թորի
թորիկեան
թորինօ
թորլաքեան
թորոնթոյի
թորոնթօ
թորոս
թորոսեան
թորոսեանի
թորոսի
թու
թուա
թուաբանագէտ
թուաբանական
թուաբանութեան
թուաբանութիւն
թուաբանութիւնը
թուագիտութիւն
թուագրուած
թուագրուի
թուագրուին
թուագրուող
թուական
թուականերուն
թուականէն
թուականը
թուականի
թուականին
թուականինն
թուականից
թուականն
թուականներ
թուականներէն
թուականները
թուականներին
թուականներու
թուականներուն
թուականով
թուակիր
թուային
թուանշանը
թուարկուած
թուաքանակը
թուաքանակի
թուաքանակով
թուզ
թուզլայի
թուէր
թութքը
թուի
թուիթըրի
թուին
թուիսթ
թուլացած
թուլացման
թուլացում
թուլացումէն
թուլուզ
թուլութիւն
թուլցած
թուխ
թուղթ
թուղթեր
թուղթերը
թուղթերու
թուղթերուն
թուղթէ
թուղթը
թուղթի
թուղթին
թումաճան
թումանեան
թումանեանը
թումանեանի
թումանեանին
թումանյանի
թումօ
թույլ
թունաւոր
թունաւորման
թունաւորուած
թունաւորում
թունաւորումը
թունդ
թունիս
թունիսի
թունճպոյաճեան
թունուզ
թունուզը
թունուզի
թուով
թուր
թուրեն
թուրը
թուրինի
թուրկենեւը
թուրք
թուրքական
թուրքահայ
թուրքեր
թուրքերէն
թուրքերը
թուրքերն
թուրքերու
թուրքերուն
թուրքը
թուրքիա
թուրքիայէն
թուրքիայի
թուրքիային
թուրքիայում
թուրքիան
թուրքին
թուրքիոյ
թուրքմենական
թուփ
թուփաքը
թուփաքին
թուփերով
թուփերու
թուքիտիտիս
թուքիտիտիսի
թոփ
թոփալեան
թոփչեանի
թոքախտ
թոքախտէ
թոքախտի
թոքային
թոքատապ
թոքատապի
թոքեր
թոքերէն
թոքերը
թոքերու
թոքերուն
թոքի
թոքիոյի
թոքիօ
թոքիօն
թոքմաճեան
թպիլիսի
թռիչք
թռիչքային
թռիչքը
թռիչքի
թռիչքներ
թռիչքները
թռիչքներու
թռուցիկ
թռուցիկներ
թռչի
թռչիլ
թռչնոց
թռչող
թռչուն
թռչունը
թռչունի
թռչուններ
թռչունները
թռչուններու
թռչուններուն
թվական
թվականի
թվականին
թվականներին
թրակիա
թրակիոյ
թրամփ
թրամփի
թրիալէթի
թրիատա
թրիզինա
թրիզինայի
թրիզոնիա
թրիփոլի
թրիփոլիի
թրիփոլին
թրիք
թրիքը
թրիքի
թրծուած
թրք
թրքա
թրքալեզու
թրքախօս
թրքական
թրքահայ
թրքահայաստանի
թրքերէն
թրքերէնը
թրքերէնի
թրքերէնին
թրքերէնով
թւականին
թփուտները
թօ
թօն
թօփուզխանեան
ժ
ժա
ժագ
ժահր
ժահրային
ժահրեր
ժահրերը
ժահրերու
ժահրը
ժահրի
ժահրին
ժահրով
ժամ
ժամագիրք
ժամային
ժամայքայի
ժամանած
ժամանակ
ժամանակագիր
ժամանակագրական
ժամանակագրութեան
ժամանակագրութիւն
ժամանակագրութիւնը
ժամանակագրություն
ժամանակակէն
ժամանակակից
ժամանակակիցները
ժամանակակիցներու
ժամանակահատուած
ժամանակահատուածը
ժամանակահատուածի
ժամանակահատուածին
ժամանակամիջոցը
ժամանակամիջոցի
ժամանակամիջոցին
ժամանակային
ժամանակաշրջան
ժամանակաշրջանէն
ժամանակաշրջանը
ժամանակաշրջանի
ժամանակաշրջանին
ժամանակաշրջանն
ժամանակաշրջաններու
ժամանակաշրջաններուն
ժամանակաւոր
ժամանակաւորապէս
ժամանակէ
ժամանակէն
ժամանակը
ժամանակի
ժամանակին
ժամանակից
ժամանակն
ժամանակներ
ժամանակներէ
ժամանակներէն
ժամանակները
ժամանակներու
ժամանակներուն
ժամանակով
ժամանակուայ
ժամանակուան
ժամանեն
ժամանեց
ժամանեցին
ժամանէ
ժամանումէն
ժամանումը
ժամանց
ժամանցային
ժամանցի
ժամատան
ժամատուն
ժամատունը
ժամացոյց
ժամացոյցը
ժամացոյցի
ժամեր
ժամերգութեան
ժամերգութիւն
ժամերգութիւնը
ժամերէն
ժամերը
ժամերով
ժամերու
ժամերուն
ժամէն
ժամը
ժամի
ժամկէտ
ժամկէտը
ժամկէտի
ժամկէտին
ժամկէտով
ժամկոչեան
ժամկոչեանի
ժամով
ժամուայ
ժամուան
ժամուն
ժամուց
ժայռ
ժայռակերտ
ժայռակղզիակ
ժայռակղզիակը
ժայռակղզիակներ
ժայռակղզիակներէ
ժայռակղզիներ
ժայռապատկերներ
ժայռապատկերները
ժայռապատկերներուն
ժայռափոր
ժայռեր
ժայռերը
ժայռերով
ժայռերու
ժայռերուն
ժայռը
ժայռի
ժայռին
ժայռոտ
ժան
ժանէթ
ժանէյրոյի
ժանէյրօ
ժանը
ժանին
ժանն
ժաննա
ժանտախտ
ժանտախտէ
ժանտախտի
ժանտախտով
ժանր
ժանրային
ժանրեր
ժանրերէն
ժանրերը
ժանրերու
ժանրը
ժանրի
ժանրին
ժապաւէն
ժապաւէնը
ժապաւէնի
ժապաւէնին
ժապաւէններ
ժապաւէնները
ժապաւէններու
ժապաւէններուն
ժապաւէնով
ժապհաթ
ժառանգ
ժառանգաբար
ժառանգած
ժառանգական
ժառանգաւորաց
ժառանգէ
ժառանգներ
ժառանգները
ժառանգորդ
ժառանգորդը
ժառանգորդները
ժառանգուած
ժառանգութեամբ
ժառանգութեան
ժառանգութիւն
ժառանգութիւնը
ժառանգության
ժառանգությունը
ժաք
ժաքլին
ժբ
ժգ
ժդ
ժե
ժեներալ
ժենիա
ժերար
ժերարը
ժերմեն
ժզ
ժէ
ժէք
ժը
ժընեւ
ժընեւի
ժթ
ժի
ժիրայր
ժիւլ
ժիւրիի
ժխտական
ժխտէ
ժխտման
ժխտում
ժխտումը
ժո
ժոզեֆ
ժոզէ
ժոզէֆ
ժող
ժողով
ժողովածոյ
ժողովածու
ժողովածուի
ժողովածուին
ժողովածուն
ժողովածուներ
ժողովածուները
ժողովածուներու
ժողովածուներուն
ժողովական
ժողովէն
ժողովը
ժողովի
ժողովին
ժողովն
ժողովներ
ժողովները
ժողովներու
ժողովներուն
ժողովուրդ
ժողովուրդական
ժողովուրդէն
ժողովուրդը
ժողովուրդի
ժողովուրդին
ժողովուրդն
ժողովուրդներ
ժողովուրդներէն
ժողովուրդները
ժողովուրդներու
ժողովուրդներուն
ժողովուրդով
ժողովրդագրական
ժողովրդագրութիւն
ժողովրդակագրական
ժողովրդական
ժողովրդականութիւն
ժողովրդականութիւնը
ժողովրդային
ժողովրդավար
ժողովրդավարական
ժողովրդավարութեան
ժողովրդավարութիւն
ժողովրդավարութիւնը
ժողովրդի
ժողովրդին
ժոու
ժոսլեն
ժոսլենը
ժորա
ժորժ
ժորժէթ
ժորին
ժու
ժուան
ժուվենթուս
ժպիտ
ժպիտը
ժպիտի
ժպտիր
ժօզէֆ
ի
իա
իբ
իբն
իբր
իբրեւ
իբրեւեւ
իգական
իգիթեան
իգնատիոս
իգտիր
իգտիրի
իզապելլա
իզապէլ
իզիին
իզին
իզմիթ
իզմիթի
իզմիր
իզմիրէն
իզմիրի
իզմիրլեան
իը
իթ
իթաքի
իթաքին
իթթիհատ
իթթիհատական
իթթիհատի
իլ
իլանճեան
իլեքթրա
իլիա
իլիական
իլիաս
իլիատա
իլինոյս
իլհամ
իկոնիոյ
իկոր
իհարկէ
իմ
իմամ
իմանալ
իմանալով
իմանայ
իմանան
իմանանք
իմաստ
իմաստալից
իմաստային
իմաստասէր
իմաստասիրական
իմաստասիրութեան
իմաստը
իմաստի
իմաստին
իմաստն
իմաստներ
իմաստները
իմաստով
իմաստութեամբ
իմաստութեան
իմաստութիւն
իմաստութիւնը
իմաստուն
իմացաբանական
իմացած
իմացական
իմացաւ
իմացութեան
իմացութիւն
իմացութիւնը
իմս
իմրէ
իյնալով
իյնալու
իյնայ
իյնային
իյնան
իյնար
ին
ինայ
ինը
ինթըր
ինթըրփօլի
ինժեներ
ինծի
ինկած
ինկան
ինկաւ
ինկող
ինկրիտ
ինձ
ինձմէ
ինճիճեան
ինճիճեանի
ինն
իններորդ
ինչ
ինչը
ինչի
ինչն
ինչո
ինչով
ինչու
ինչպես
ինչպէ
ինչպէս
ինչպիսի
ինչպիսին
ինչպիսիք
ինչքան
ինչքը
ինստիտուտ
ինստիտուտը
ինստիտուտի
ինստիտուտին
ինտիանա
ինտոնեզիա
ինտոնեզիայի
ինտոնեզիոյ
ինտոս
ինտրա
ինք
ինքզինք
ինքզինքը
ինքը
ինքն
ինքնաբաւ
ինքնաբերաբար
ինքնաբուխ
ինքնագիտակցութեան
ինքնագիր
ինքնագործ
ինքնադիմանկար
ինքնազարգացման
ինքնաթիռ
ինքնաթիռը
ինքնաթիռի
ինքնաթիռներ
ինքնաթիռները
ինքնաթիռներու
ինքնակամ
ինքնակառավարման
ինքնակենսագրական
ինքնակենսագրութեան
ինքնակենսագրութիւն
ինքնակենսագրութիւնը
ինքնամփոփ
ինքնանկար
ինքնաշարժ
ինքնաշարժային
ինքնաշարժը
ինքնաշարժի
ինքնաշարժին
ինքնաշարժներ
ինքնաշարժներու
ինքնաշարժով
ինքնաշէն
ինքնաշխատութեամբ
ինքնապաշտպանական
ինքնապաշտպանութեան
ինքնապաշտպանութիւն
ինքնապաշտպանութիւնը
ինքնասպան
ինքնասպանութեան
ինքնավար
ինքնավարութեան
ինքնավարութիւն
ինքնավարութիւնը
ինքնավստահ
ինքնատիպ
ինքնին
ինքնիշխան
ինքնիշխանութեան
ինքնիշխանութիւն
ինքնիշխանութիւնը
ինքնիրեն
ինքնորոշման
ինքնութեան
ինքնութիւն
ինքնութիւնը
ինքնուս
ինքնուրոյն
ինքնուրոյնութիւնը
իշ
իշխած
իշխան
իշխանական
իշխանապետութեան
իշխանապետութիւնը
իշխանասար
իշխանաց
իշխանեան
իշխանը
իշխանի
իշխանին
իշխանն
իշխաններ
իշխաններէն
իշխանները
իշխաններու
իշխաններուն
իշխանութեամբ
իշխանութեան
իշխանութեանց
իշխանութենէն
իշխանութիւն
իշխանութիւնը
իշխանութիւնն
իշխանութիւններ
իշխանութիւններէն
իշխանութիւնները
իշխանութիւններու
իշխանութիւններուն
իշխանության
իշխանուհի
իշխանուհիին
իշխանուհին
իշխել
իշխելու
իշխեն
իշխէ
իշխէին
իշխէր
իշխող
իոանինա
իոանիս
իոաննիս
իոն
իոններու
իոս
իոսիֆ
իպերական
իպն
իպոլա
իպու
իպրահիմ
իպրահիմը
իպրահիմի
իպրահիմովիչը
իպրահիմովիչի
իպրան
իջած
իջաւ
իջեցնել
իջեցնէ
իջեւան
իջեւանի
իջնել
իջնելով
իջնելու
իջնեն
իջնէ
իջնող
իռլանտական
իռլանտայի
իս
իսահակ
իսահակեան
իսահակեանը
իսահակեանի
իսահակի
իսահակյանի
իսգանտեր
իսթ
իսթամպուլ
իսթամպուլի
իսթանպուլ
իսթանպուլահայ
իսթանպուլի
իսթանպուլին
իսթորիէ
իսլամ
իսլամադաւան
իսլամական
իսլամացած
իսլամացման
իսլամը
իսլամի
իսլամներ
իսլամները
իսլամներու
իսլամներուն
իսլամութեան
իսլամութիւնը
իսլանտա
իսլանտայի
իսկ
իսկական
իսկահատեան
իսկապէս
իսկէնտէրուն
իսկոյն
իսկութիւնը
իսկուհի
իսմայիլ
իսմայիլը
իսմայիլի
իսպանիայի
իսրայելի
իսրայէլ
իսրայէլական
իսրայէլեան
իսրայէլեանի
իսրայէլը
իսրայէլի
իսրայէլին
իսրայէլցի
իսքէնտէր
իվ
իվան
իվանեան
իվանէ
իվանյան
իվանովիչ
իվեր
իտա
իտալ
իտալա
իտալական
իտալացի
իտալացիները
իտալացիներու
իտալերէն
իտալերէնի
իտալիա
իտալիայէն
իտալիայի
իտալիան
իտալիոյ
իտասփի
իտէալ
իտէալական
իտէալը
իտիփուս
իտրա
իտրայի
իր
իրա
իրագործած
իրագործել
իրագործելու
իրագործէ
իրագործման
իրագործուած
իրագործուի
իրագործում
իրագործումը
իրադարձութեան
իրադարձութիւն
իրադարձութիւնը
իրադարձութիւններ
իրադարձութիւններէն
իրադարձութիւնները
իրադարձութիւններով
իրադարձութիւններու
իրադարձութիւններուն
իրադրութեան
իրադրութիւնը
իրազեկ
իրական
իրականանայ
իրականանան
իրականանար
իրականացած
իրականացաւ
իրականացման
իրականացնել
իրականացնելով
իրականացնելու
իրականացնեն
իրականացնէ
իրականացնէին
իրականացնող
իրականացուած
իրականացուեցաւ
իրականացուէր
իրականացուի
իրականացուին
իրականացում
իրականացումը
իրականացուող
իրականացուց
իրականացուցած
իրականացուցին
իրականին
իրականութեան
իրականութենէն
իրականութիւն
իրականութիւնը
իրան
իրանական
իրանահայ
իրանեան
իրանէն
իրանը
իրանի
իրանին
իրանցի
իրապաշտ
իրապաշտական
իրապաշտութեան
իրապէս
իրավիճակ
իրավիճակէն
իրավիճակը
իրավիճակի
իրավիճակին
իրավիճակներու
իրար
իրարայաջորդ
իրարմէ
իրարու
իրացման
իրաւ
իրաւաբան
իրաւաբանական
իրաւաբանի
իրաւաբաններ
իրաւաբանութեան
իրաւաբանութիւն
իրաւագէտ
իրաւագիտական
իրաւագիտութեան
իրաւագիտութիւն
իրաւական
իրաւամբ
իրաւանց
իրաւասու
իրաւասութեան
իրաւասութիւն
իրաւասութիւնը
իրաւասութիւններ
իրաւասութիւնները
իրաւունք
իրաւունքէն
իրաւունքը
իրաւունքի
իրաւունքին
իրաւունքներ
իրաւունքներէն
իրաւունքները
իրաւունքներն
իրաւունքներով
իրաւունքներու
իրաւունքներուն
իրաւունքով
իրաք
իրաքա
իրաքեան
իրաքէն
իրաքը
իրաքի
իրաքին
իրաքլիա
իրաքլիոյի
իրաքլիոնի
իրաքլիս
իրաքլիօ
իրաքցի
իրբեւ
իրեղէնները
իրեն
իրենց
իրենցմէ
իրենք
իրեր
իրերայաջորդ
իրերէն
իրերը
իրերով
իրերու
իրերուն
իրէն
իրը
իրիկնամուտին
իրիկուան
իրիկուն
իրիկունը
իրինի
իրլանտա
իրլանտական
իրլանտայի
իրլանտան
իրլանտացի
իրմա
իրմէ
իրմով
իրողութեան
իրողութիւն
իրողութիւնը
իրոտոթոս
իրոտոթոսին
իրրեւ
իրօք
ից
իւ
իւան
իւանէ
իւանքա
իւեֆա
իւթիւճեան
իւթիւճեանի
իւղ
իւղաներկ
իւղեր
իւղերու
իւղը
իւղի
իւղին
իւղով
իւղոտ
իւնայթըտ
իւնայթըտէն
իւնայթըտը
իւնայթըտի
իւր
իւրահատուկ
իւրայատկութիւնը
իւրայատկութիւնները
իւրայատուկ
իւրատեսակ
իւրացման
իւրացնել
իւրացնէ
իւրացումը
իւրացուցած
իւրաքանչիւր
իւրաքանչիւրը
իւրաքանչիւրին
իւրաքանչիւրն
իւրովի
իւրօրինակ
իփէկեան
իփէկեանը
իփէկեանի
իփիրոս
իֆիղենիա
իֆիղենիային
լ
լա
լաբիւրինթոսին
լազար
լազարեան
լազարեանը
լազարեանի
լազարեաններու
լազեան
լաթաքիա
լաթաքիոյ
լաթեքսը
լաթվիա
լաթվիոյ
լալա
լակրանժի
լահուտ
լաղանա
լամբրոնացի
լամբրոնացիի
լամփարտը
լայ
լայն
լայնածաւալ
լայնատարած
լայնատերեւ
լայնութեամբ
լայնութեան
լայնութիւն
լայնութիւնը
լայնք
լայնքը
լայնքին
լայնքով
լայնօրէն
լայպցիկի
լան
լանկոպարտներու
լանջախաչ
լանջախաչով
լանջերէն
լանջերը
լանջերու
լանջերուն
լանջը
լանջին
լանքայի
լաշէզ
լաուրան
լաչին
լաչինի
լապտեր
լապտերներու
լառնաքա
լաս
լավ
լավագոյն
լավագույն
լատ
լատըն
լատընի
լատին
լատինագիր
լատինական
լատինատառ
լատիներեն
լատիներէն
լատիներէնի
լատիներէնով
լատիններու
լար
լարա
լարային
լարերը
լարը
լարի
լարիսա
լարուած
լարուածութեան
լարուածութիւն
լարուածութիւնը
լացի
լաւ
լաւագոյն
լաւագոյնը
լաւագոյնն
լաւագոյններէն
լաւագոյնս
լաւագույն
լաւալ
լաւապէս
լաւատես
լաւատեսութեամբ
լաւէզին
լաւորակ
լաքոնիա
լաքոնիքոս
լե
լեան
լեարդ
լեարդաբորբ
լեարդաբորբը
լեարդաբորբի
լեարդը
լեարդի
լեարդին
լեգէոն
լեգէոնի
լեգրան
լեգրանի
լեզու
լեզուաբան
լեզուաբանական
լեզուաբաններ
լեզուաբաններու
լեզուաբանութեան
լեզուաբանութիւն
լեզուաբանութիւնը
լեզուագէտ
լեզուագիտական
լեզուաընտանիքի
լեզուաընտանիքին
լեզուական
լեզուէ
լեզուէն
լեզուի
լեզուին
լեզուն
լեզուներ
լեզուներէ
լեզուներէն
լեզուները
լեզուների
լեզուներն
լեզուներով
լեզուներու
լեզուներուն
լեզուով
լեհ
լեհական
լեհաստան
լեհաստանէն
լեհաստանը
լեհաստանի
լեհերէն
լեղի
լեղուցը
լեղուցի
լեղուցին
լեմքին
լեյտենանտ
լենա
լենըն
լենին
լենինական
լենինականի
լենինեան
լենինը
լենինի
լենինկրատ
լենինկրատեան
լենինկրատի
լենկ
լենկթեմուրի
լենկթիմուր
լենկթիմուրի
լենոն
լեոն
լեոնիդ
լեպլեպիճի
լեռ
լեռան
լեռէն
լեռը
լեռն
լեռնագագաթ
լեռնադաշտը
լեռնալիբանանի
լեռնահայաստան
լեռնահայաստանի
լեռնահանքային
լեռնային
լեռնանցքը
լեռնաշխարհ
լեռնաշխարհէն
լեռնաշխարհը
լեռնաշխարհի
լեռնաշխարհին
լեռնաշղթայ
լեռնաշղթայէն
լեռնաշղթայի
լեռնաշղթային
լեռնաշղթան
լեռնաշղթաներ
լեռնաշղթաները
լեռնաշղթաներով
լեռնաշղթաներու
լեռնաշղթաներուն
լեռնատափաստանային
լեռներ
լեռներէն
լեռները
լեռներն
լեռներով
լեռներու
լեռներում
լեռներուն
լեսլի
լերան
լերմոնտովի
լերոս
լերոսի
լեցնել
լեցնելու
լեցնեն
լեցնէ
լեցնէին
լեցուած
լեցուի
լեցուին
լեցուն
լեցուցած
լեւ
լեւի
լեւիի
լեւոն
լեւոնեան
լեւոնը
լեւոնի
լեւոնին
լեփթինի
լեփսիուս
լեփսիուսի
լեփսիւսի
լեք
լեֆքա
լեֆքատա
լեֆքատային
լեֆքատան
լէ
լէիշմանիա
լէյլա
լէյլի
լէյկոցիտներու
լէյտի
լէյք
լէյքըրզ
լէոյի
լէոն
լէոնարտ
լէոնարտօ
լէոնարտօն
լէոնի
լէոնիդ
լէոնիտ
լէոնիտաս
լէպլէպիճի
լէօ
լէօն
լէօնարտօ
լը
լի
լիա
լիագումար
լիազոր
լիազօր
լիազօրութեան
լիազօրութիւնը
լիազօրութիւններ
լիազօրութիւնները
լիազօրութիւններու
լիակատար
լիարժէք
լիբանան
լիբանանահայ
լիբանանահայութեան
լիբանանեան
լիբանանէն
լիբանանը
լիբանանի
լիբանանին
լիբանանցի
լիգա
լիգայի
լիզ
լիզա
լիզայի
լիզպոն
լիզպոնի
լիթովսկի
լիթուանիա
լիթուանիան
լիթուանիոյ
լիթր
լիթրաս
լիի
լիիրաւ
լիլ
լիլի
լիլիան
լիլիթ
լիլիթը
լիխթընշթայն
լիխթընշթայնը
լիխթընշթայնի
լիկ
լիկա
լիկայի
լիկային
լիկան
լիհատես
լիճ
լիճեր
լիճերէն
լիճերը
լիճերով
լիճերու
լիճերուն
լիճէն
լիճը
լիճի
լիճին
լիճն
լիճք
լիմ
լիման
լիմոնի
լիմֆոցիտները
լիմֆոցիտներու
լին
լինել
լինելով
լինելու
լինի
լինտերու
լինտոսի
լինքոլն
լիոն
լիոնել
լիոնելը
լիոնի
լիովին
լիուինսքիի
լիպան
լիպարիտ
լիպերալ
լիպիա
լիպիան
լիպիոյ
լիս
լիսէ
լիսէի
լիսէն
լիսիցեան
լիվատի
լիվըրփուլի
լիտիա
լիտուայի
լիտվայի
լիր
լիրա
լիցք
լիւթերական
լիւիս
լիւսի
լիւսին
լիւտվիկ
լիւք
լիւքսամպուրկ
լիւքսամպուրկի
լիւքսեմպուրկի
լիփսի
լիքսուրի
լիօ
լծուած
լծուի
լղ
լղիմ
լղհ
լճակ
լճակը
լճակներ
լճաշէն
լճի
լյու
լո
լոգանք
լոգանքի
լոզան
լոզանի
լոլիկ
լոլիկը
լոլիկի
լոխ
լոկ
լոկոյի
լոկոն
լողազգեստ
լողազգեստը
լողազգեստի
լողալով
լողալու
լողացող
լողաւազանը
լողի
լոմոնոսովի
լոյ
լոյս
լոյսերը
լոյսէն
լոյսը
լոյսի
լոյսին
լոյսով
լոն
լոնկ
լոնտոն
լոնտոնեան
լոնտոնէն
լոնտոնը
լոնտոնի
լոնտոնին
լոու
լոուզ
լոռի
լոռիի
լոռին
լոռու
լոռուայ
լոս
լով
լոր
լորդ
լորենս
լորենցի
լորը
լորիս
լորձնագեղձերը
լորձունք
լորձունքը
լորձունքի
լորձունքին
լորտ
լու
լուալ
լուալու
լուայ
լուան
լուբիա
լուդովիկոս
լութեր
լութրա
լուի
լուիզ
լուիզա
լուիզան
լուիճի
լուին
լուիս
լուիսը
լուիսի
լուծած
լուծել
լուծելու
լուծեն
լուծէ
լուծէն
լուծը
լուծի
լուծին
լուծման
լուծուած
լուծուի
լուծուին
լուծում
լուծումը
լուծումներ
լուծումները
լուծումներով
լուծումներու
լույս
լուն
լունա
լուով
լուռ
լուսաբանած
լուսաբանելու
լուսաբանէ
լուսաբանման
լուսաբանող
լուսաբաց
լուսաբացին
լուսաբեր
լուսաբերը
լուսաբերի
լուսամուտ
լուսամուտներ
լուսային
լուսան
լուսանկար
լուսանկարը
լուսանկարի
լուսանկարիչ
լուսանկարիչներ
լուսանկարներ
լուսանկարները
լուսանկարներով
լուսանկարներու
լուսանկարչական
լուսանկարչատունը
լուսանկարչութեան
լուսանկարչութիւնը
լուսանցքը
լուսանցքի
լուսավորիչ
լուսարձակ
լուսարձակի
լուսաւոր
լուսաւորական
լուսաւորիչ
լուսաւորիչը
լուսաւորիչի
լուսաւորիչին
լուսաւորման
լուսաւորուած
լուսաւորութեան
լուսաւորութիւն
լուսաւորուի
լուսաւորչական
լուսաւորչեան
լուսաւորչի
լուսիկ
լուսին
լուսինեան
լուսինէ
լուսինէն
լուսինը
լուսինի
լուսինին
լուսնային
լուսնթագ
լուսնթագը
լուսնի
լուսնին
լուսոյ
լուվր
լուվրը
լուվրի
լուր
լուրեր
լուրերը
լուրերու
լուրերուն
լուրը
լուրջ
լուցկի
լուքա
լուքաս
լոփեզ
լոքհարթը
լպրծուն
լռութեան
լռութիւն
լռութիւնը
լսած
լսարան
լսարանական
լսարանը
լսարանի
լսափողի
լսել
լսելէ
լսելի
լսելով
լսելու
լսեն
լսեր
լսէ
լսէր
լսողական
լսողութեան
լսողութիւն
լսողութիւնը
լսուի
լսուին
լվովի
լրաբեր
լրագիր
լրագրական
լրագրող
լրագրողական
լրագրողի
լրագրողներ
լրագրողները
լրագրողներու
լրագրութեան
լրագրութիւն
լրանալէ
լրանայ
լրատու
լրատուական
լրատուամիջոցները
լրատուամիջոցներու
լրատուամիջոցներուն
լրատուողական
լրատուութեան
լրացաւ
լրացնելու
լրացնեն
լրացնէ
լրացնող
լրացուած
լրացում
լրացումը
լրացումներով
լրացուցած
լրացուցէք
լրացուցիչ
լրիւ
լրումին
լրջօրէն
լցուած
լքած
լքեալ
լքել
լքելով
լքելու
լքեն
լքեց
լքեցին
լքէ
լքուած
լօ
լօզանի
լօխ
խ
խա
խաբեբայ
խաբկանք
խազարական
խազերը
խազերու
խաթաբալա
խաթուն
խաժակ
խալետ
խալիլ
խալիլի
խալիպեան
խալիֆ
խալիֆա
խալիֆայի
խալիֆային
խալիֆայութեան
խալիֆայութիւնը
խալիֆան
խալիֆաները
խալիֆի
խախտած
խախտելով
խախտելու
խախտեն
խախտէ
խախտի
խախտման
խախտուի
խախտում
խախտումը
խախտումներ
խածիտաքիս
խաղ
խաղադաշտ
խաղադաշտէն
խաղադաշտին
խաղալ
խաղալը
խաղալիք
խաղալիքներու
խաղալով
խաղալու
խաղակէսին
խաղաղ
խաղաղական
խաղաղապահ
խաղաղապահները
խաղաղապահների
խաղաղովկիանոսեան
խաղաղութեամբ
խաղաղութեան
խաղաղութիւն
խաղաղութիւնը
խաղայ
խաղային
խաղան
խաղաշրջանին
խաղատունը
խաղար
խաղարկային
խաղարկութեան
խաղաց
խաղացած
խաղացանկը
խաղացաւ
խաղացին
խաղացող
խաղացողը
խաղացողի
խաղացողներ
խաղացողները
խաղացողներու
խաղեր
խաղերէն
խաղերը
խաղերի
խաղերով
խաղերու
խաղերուն
խաղէն
խաղը
խաղընկեր
խաղընկերներն
խաղի
խաղին
խաղն
խաղող
խաղողը
խաղողի
խաղով
խաղում
խաղցած
խաղցաւ
խաղցեր
խաղցող
խաղցողը
խամսայի
խայթէ
խայտառակ
խայտառակութեան
խայտառակութիւնը
խան
խանամիրեան
խանասորի
խանգարել
խանգարեր
խանգարեց
խանգարէ
խանգարէր
խանգարման
խանգարուած
խանգարուի
խանգարում
խանգարումներ
խանգարումները
խանգարումներու
խանդավառ
խանդավառութեամբ
խանդավառութիւն
խանդավառութիւնը
խաներու
խանը
խանի
խանիա
խանին
խանճեան
խանճեանի
խանութ
խանութեան
խանութը
խանութի
խանութին
խանութիւնը
խանութիւնները
խանութիւններու
խանութներ
խանութները
խանութներու
խանջեան
խանջեանի
խաշած
խաչ
խաչագողի
խաչակիր
խաչակիրներ
խաչակիրները
խաչակիրներու
խաչակիրներուն
խաչակրական
խաչակրաց
խաչաձեւ
խաչատուր
խաչատուրեան
խաչատուրեանը
խաչատուրեանի
խաչատուրի
խաչատրեան
խաչատրեանը
խաչատրեանի
խաչատրեանին
խաչատրյան
խաչափայտը
խաչափայտի
խաչելութեան
խաչելութիւնը
խաչեր
խաչերեան
խաչերը
խաչերով
խաչէն
խաչէնը
խաչէնի
խաչը
խաչի
խաչիկ
խաչիկեան
խաչիկեանը
խաչիկեանի
խաչին
խաչմերուկ
խաչմերուկը
խաչմերուկին
խաչն
խաչով
խաչուած
խաչուող
խաչվերացի
խաչքար
խաչքարեր
խաչքարերէն
խաչքարերը
խաչքարերով
խաչքարերու
խաչքարը
խաչքարի
խաչքարին
խապայեան
խապայեանի
խառատեան
խառը
խառն
խառնակ
խառնաշփոթ
խառնարան
խառնել
խառնելով
խառնեն
խառնուած
խառնուածքի
խառնուածքով
խառնուրդ
խառնուրդը
խառնուրդի
խառնուրդին
խառնուրդներու
խառնուրդով
խասգիւղ
խասգիւղի
խատիսեան
խատիսեանի
խար
խարբերդ
խարբերդէն
խարբերդի
խարբերդցի
խարիլաոս
խարիսխ
խարիսխը
խարկով
խարկովի
խարոյկ
խարոյկի
խարսխուած
խաւ
խաւար
խաւարի
խաւարման
խաւերէն
խաւերը
խաւերու
խաւերուն
խաւը
խաւի
խաւին
խափանելու
խեթական
խեթերը
խեթերու
խելագար
խելամիտ
խելացի
խելք
խելքը
խելքի
խեղճ
խենթ
խենթը
խետաֆէի
խեցեգործական
խեցեգործութիւնը
խեցեղէն
խզնաուզի
խըհ
խըհմ
խթան
խթանել
խթանելով
խթանելու
խթանեն
խթանէ
խթանիչներ
խթանիչներու
խթանող
խթման
խի
խիզախ
խիզախութեան
խիզախութիւն
խիկար
խիոս
խիստ
խիտ
խլած
խլել
խլելով
խլեց
խլէ
խլիրդ
խլիրդէ
խլիրդի
խլնաթաղանթային
խլնաթաղանթը
խլնաթաղանթի
խլնային
խլում
խխունջէ
խխունջի
խճանկար
խճանկարը
խճանկարի
խճանկարներ
խճողուած
խմած
խմբ
խմբագ
խմբագիր
խմբագիրը
խմբագիրի
խմբագիրին
խմբագիրն
խմբագիրներ
խմբագիրներէն
խմբագիրները
խմբագիրներու
խմբագրաթոն
խմբագրաթոնը
խմբագրած
խմբագրական
խմբագրապետ
խմբագրապետը
խմբագրել
խմբագրելու
խմբագրեց
խմբագրէ
խմբագրի
խմբագրման
խմբագրուած
խմբագրութեամբ
խմբագրութեան
խմբագրութիւն
խմբագրութիւնը
խմբագրումը
խմբակ
խմբակային
խմբակը
խմբակի
խմբակին
խմբակներ
խմբակներու
խմբակցութեան
խմբային
խմբապետ
խմբավար
խմբավարական
խմբավարը
խմբավարի
խմբավարներ
խմբավարութեամբ
խմբաւորման
խմբաւորուած
խմբաւորում
խմբաւորումը
խմբաւորումներ
խմբաւորումները
խմբաւորումներու
խմբերգային
խմբերգներ
խմբի
խմբուած
խմել
խմելով
խմելու
խմեն
խմէ
խմիչք
խմիչքը
խմիչքներ
խմիչքներու
խմկկ
խմոր
խմորատիպ
խմորեղէն
խմորը
խմորի
խմորման
խնածախ
խնածախի
խնամած
խնամակալ
խնամակալութեան
խնամակալութիւնը
խնամատարութեան
խնամելու
խնամիական
խնամուած
խնամք
խնամքը
խնամքի
խնամքին
խնամքով
խնայած
խնայեր
խնդիր
խնդիրը
խնդիրի
խնդիրին
խնդիրն
խնդիրներ
խնդիրներէն
խնդիրները
խնդիրներով
խնդիրներու
խնդիրներուն
խնդրած
խնդրանքը
խնդրանքին
խնդրանքով
խնդրել
խնդրելով
խնդրելու
խնդրեմ
խնդրեն
խնդրեց
խնդրեցին
խնդրէ
խնդրէին
խնդրի
խնդրին
խնդրոյ
խնձոր
խնձորենի
խնձորեսկ
խնձորեսկի
խնձորը
խնձորի
խնճոյքը
խնճոյքի
խնճոյքին
խնճոյքներու
խնուս
խնուսի
խո
խոզի
խոհանոց
խոհանոցը
խոհանոցի
խոհանոցին
խոհանոցներուն
խոհարար
խոհարարական
խոհարարութեան
խոհեմ
խոհեր
խողովակ
խողովակի
խողովակին
խողովակներ
խողովակներէ
խողովակները
խողովակներու
խողովակներուն
խոճա
խոյ
խոյակները
խոյանայ
խոյի
խոյս
խոյրը
խոնարհ
խոնաւ
խոնաւութեան
խոնաւութիւն
խոնաւութիւնը
խոշոր
խոշորագոյն
խոչընդոտ
խոջիվանքի
խոռոչ
խոռոչատապ
խոռոչատապի
խոռոչը
խոռոչի
խոռոչին
խոռոչներ
խոռոչները
խոռոչներու
խոռոչներուն
խոսէ
խոստանալով
խոստանայ
խոստանան
խոստացած
խոստացաւ
խոստացուած
խոստովանած
խոստովանի
խոստովանիմ
խոստովանողի
խոստովանողք
խոստովանութեան
խոստովանութիւն
խոստում
խոստումը
խոստումնալից
խոստումներ
խոսրով
խոսրովը
խոսրովի
խոսրովին
խոսքերով
խոտ
խոտածածկ
խոտը
խոր
խորա
խորագիրը
խորագիրով
խորագրեալ
խորագրին
խորագրով
խորագրուած
խորամանկ
խորան
խորանալով
խորանարդ
խորանարդաձեւ
խորանարդի
խորանարդներու
խորանը
խորանի
խորանին
խորաններ
խորանները
խորաններու
խորանով
խորապէս
խորացած
խորացնէ
խորացուած
խորենացի
խորենացիի
խորենացիին
խորենացին
խորենացու
խորերը
խորէն
խորը
խորթ
խորին
խորխէ
խորհուրդ
խորհուրդային
խորհուրդը
խորհուրդի
խորհուրդին
խորհուրդն
խորհուրդներ
խորհուրդները
խորհուրդներով
խորհուրդներու
խորհուրդով
խորհր
խորհրդա
խորհրդագիտութեան
խորհրդաժողով
խորհրդաժողովը
խորհրդաժողովի
խորհրդաժողովին
խորհրդաժողովներուն
խորհրդական
խորհրդականը
խորհրդականի
խորհրդակցական
խորհրդակցի
խորհրդակցութեան
խորհրդակցութիւն
խորհրդակցութիւններ
խորհրդահայ
խորհրդային
խորհրդայնացման
խորհրդայնացումէն
խորհրդանիշ
խորհրդանիշեր
խորհրդանիշը
խորհրդանիշի
խորհրդանիշն
խորհրդանիշներ
խորհրդանիշներէն
խորհրդանիշները
խորհրդանիշներու
խորհրդանշական
խորհրդանշան
խորհրդանշանը
խորհրդանշանի
խորհրդանշաններ
խորհրդանշելով
խորհրդանշեն
խորհրդանշէ
խորհրդանշէր
խորհրդանշող
խորհրդանշութեան
խորհրդապաշտական
խորհրդատու
խորհրդատուական
խորհրդատուի
խորհրդատուն
խորհրդարան
խորհրդարանական
խորհրդարանը
խորհրդարանի
խորհրդարանին
խորհրդարանն
խորհրդարաններու
խորհրդաւոր
խորհրդի
խորհրդոյ
խորշ
խորշապատի
խորշեր
խորշերը
խորշերով
խորոված
խորովածի
խորութեամբ
խորութեան
խորութիւն
խորութիւնը
խորունկ
խորտակուած
խորտակուեցաւ
խորտակուի
խորք
խորքային
խորքերը
խորքը
խորքին
խորքով
խոց
խոցած
խոցելի
խոցեր
խոցերու
խոցի
խու
խուան
խութ
խուժանը
խուլ
խուլերու
խուլիօ
խուխի
խուխով
խուճապ
խուճապահար
խուճապի
խում
խումբ
խումբեր
խումբերէն
խումբերը
խումբերով
խումբերու
խումբերուն
խումբէն
խումբը
խումբի
խումբին
խումբն
խումբով
խուռներամ
խուսափած
խուսափելով
խուսափելու
խուսափի
խուսափիլ
խուրի
խուցեր
խուցերու
խռովութիւն
խռովութիւնը
խռովութիւնները
խռովութիւններու
խռչափող
խռչափողէն
խռչափողը
խռչափողի
խսհ
խսհմ
խստաշունչ
խստապահանջ
խստօրէն
խտասալիկ
խտասալիկը
խտասալիկներու
խտացած
խտացման
խտացուած
խտացումը
խտըշեան
խտութեամբ
խտութեան
խտութիւն
խտութիւնը
խտրականութեան
խտրութեան
խրախճանք
խրախճանքի
խրախճանքներ
խրախունի
խրախուսէ
խրամ
խրամը
խրատ
խրատական
խրատներ
խրթին
խրիմ
խրիմեան
խրիմեանի
խրիմի
խրիստոս
խրճիթ
խրուաթ
խրուաթիա
խրուաթիոյ
խցանումներու
խցում
խցումը
խցումով
խփած
խփեց
խօ
խօս
խօսած
խօսակցական
խօսակցութեան
խօսակցութիւն
խօսակցութիւնը
խօսելով
խօսելու
խօսեցաւ
խօսէ
խօսէին
խօսէր
խօսի
խօսիլ
խօսին
խօսինք
խօսիր
խօսնակ
խօսող
խօսողի
խօսուած
խօսուի
խօսում
խօսուն
խօսուող
խօսք
խօսքային
խօսքեր
խօսքերէն
խօսքերը
խօսքերով
խօսքերու
խօսքերուն
խօսքը
խօսքի
խօսքին
խօսքով
ծ
ծա
ծագած
ծագերուն
ծագեցաւ
ծագի
ծագին
ծագմամբ
ծագման
ծագող
ծագում
ծագումէն
ծագումը
ծագումի
ծագումին
ծագումն
ծագումնաբանութիւն
ծագումնաբանութիւնը
ծագումով
ծալքաւոր
ծախած
ծախել
ծախէ
ծախու
ծախուած
ծախուեցաւ
ծախուի
ծախուին
ծախսած
ծախսեր
ծախսերը
ծախսերով
ծախսերու
ծախսերուն
ծախսէ
ծախսը
ծախսուած
ծախսուի
ծածկագիր
ծածկած
ծածկանունը
ծածկանունների
ծածկանուններով
ծածկանունով
ծածկել
ծածկելով
ծածկելու
ծածկեն
ծածկէ
ծածկէին
ծածկը
ծածկոյթ
ծածկոյթը
ծածկոյթին
ծածկով
ծածկուած
ծածկուի
ծածկուին
ծածուկ
ծակ
ծաղիկ
ծաղիկեան
ծաղիկը
ծաղիկի
ծաղիկին
ծաղիկներ
ծաղիկները
ծաղիկներով
ծաղիկներու
ծաղիկներուն
ծաղկազարդ
ծաղկազարդի
ծաղկած
ծաղկաձոր
ծաղկաձորը
ծաղկաձորի
ծաղկաւոր
ծաղկաքաղ
ծաղկեայ
ծաղկեփունջ
ծաղկի
ծաղկիլ
ծաղկին
ծաղկման
ծաղկող
ծաղկում
ծաղկումը
ծաղկուն
ծաղրածու
ծաղրանկարներ
ծայր
ծայրագոյն
ծայրահեղ
ծայրահեղական
ծայրահեղականներու
ծայրամաս
ծայրամասային
ծայրամասերը
ծայրամասերուն
ծայրամասը
ծայրամասի
ծայրամասին
ծայրայեղ
ծայրայեղական
ծայրերը
ծայրերուն
ծայրէն
ծայրը
ծայրին
ծան
ծանոթագրութիւններ
ծանոթագրություններ
ծանուցումներու
ծանր
ծանրաբեռնուած
ծանրագոյն
ծանրակշիռ
ծանրամարտի
ծանրութեան
ծանրութիւն
ծանրութիւնը
ծանրօրէն
ծանօթ
ծանօթագրութիններ
ծանօթագրութիուններ
ծանօթագրութիւն
ծանօթագրութիւններ
ծանօթագրութիւններով
ծանօթանալ
ծանօթանալով
ծանօթանալու
ծանօթանայ
ծանօթանան
ծանօթացած
ծանօթացաւ
ծանօթացեր
ծանօթացնել
ծանօթացնելու
ծանօթացնէ
ծանօթացուցած
ծանօթութիւն
ծանօթութիւնը
ծանօթութիւններ
ծառ
ծառայ
ծառայած
ծառայել
ծառայելէ
ծառայելով
ծառայելու
ծառայեն
ծառայեր
ծառայեց
ծառայէ
ծառայէին
ծառայէր
ծառայող
ծառայողական
ծառայողներ
ծառայողներու
ծառայութեամբ
ծառայութեան
ծառայութեանց
ծառայութենէ
ծառայութենէն
ծառայութիւն
ծառայութիւնը
ծառայութիւններ
ծառայութիւնները
ծառայութիւններով
ծառայութիւններու
ծառայութիւններուն
ծառան
ծառաները
ծառեր
ծառերը
ծառերով
ծառերու
ծառերուն
ծառը
ծառի
ծառին
ծառուկեան
ծառուկեանի
ծառուղի
ծատուր
ծատուրեան
ծար
ծարաւ
ծարաւէն
ծարաւը
ծարաւի
ծարիրի
ծաւալ
ծաւալած
ծաւալային
ծաւալել
ծաւալելու
ծաւալեց
ծաւալէ
ծաւալը
ծաւալի
ծաւալին
ծաւալման
ծաւալները
ծաւալներու
ծաւալով
ծաւալուած
ծաւալում
ծաւալումը
ծաւալուն
ծե
ծեծի
ծեսերը
ծեր
ծերակոյտը
ծերակոյտի
ծերակոյտին
ծերակուտական
ծերանոցի
ծերացած
ծերենց
ծերենցի
ծերութեան
ծերութիւն
ծերունի
ծերունիին
ծերունին
ծէ
ծէս
ծէսեր
ծէսերը
ծէսերու
ծէսերուն
ծէսը
ծը
ծըն
ծի
ծիածան
ծիածանագոյն
ծիլ
ծիծաղ
ծիծաղելի
ծիծաղի
ծիծեռնակ
ծիծեռնակաբերդ
ծիծեռնակաբերդի
ծին
ծինային
ծիսական
ծիսակատարութիւններու
ծիր
ծիրան
ծիրանագոյն
ծիրանը
ծիրանի
ծիրէն
ծիրին
ծխախոտ
ծխախոտը
ծխախոտի
ծխախոտին
ծխական
ծծումբ
ծծումբը
ծծումբի
ծն
ծնած
ծնածներ
ծնաւ
ծնեալ
ծնելէն
ծնելիութեան
ծնէ
ծնի
ծնին
ծննդաբերութեան
ծննդական
ծննդավայր
ծննդավայրէն
ծննդավայրը
ծննդավայրի
ծննդավայրին
ծննդավայրն
ծննդեան
ծննդյան
ծննդոց
ծնող
ծնողազուրկ
ծնողական
ծնողներ
ծնողներէ
ծնողներէն
ծնողները
ծնողներն
ծնողներու
ծնողներուն
ծնողքէ
ծնողքը
ծնողքի
ծնողքին
ծնուած
ծնունդ
ծնունդէն
ծնունդը
ծնունդի
ծնունդին
ծնունդն
ծնունդներ
ծնունդով
ծո
ծող
ծոմ
ծով
ծովագնաց
ծովախորշի
ծովախորշին
ծովածոցի
ծովակ
ծովակալ
ծովակալութեան
ծովահէն
ծովահէններու
ծովամարտը
ծովային
ծովանկարիչ
ծովափ
ծովափէն
ծովափը
ծովափի
ծովափին
ծովափնեայ
ծովափներ
ծովափները
ծովափներով
ծովափնիայ
ծովեան
ծովեզերեայ
ծովեզերիայ
ծովեզերքը
ծովեզր
ծովեզրը
ծովեզրն
ծովեր
ծովերը
ծովերու
ծովերուն
ծովէն
ծովը
ծովի
ծովին
ծովինար
ծովն
ծովով
ծովու
ծովուժին
ծովուն
ծովք
ծորանի
ծոց
ծոցեր
ծոցերը
ծոցերն
ծոցերուն
ծոցէն
ծոցը
ծոցի
ծոցին
ծու
ծուխ
ծուխը
ծունկի
ծոփք
ծոփքը
ծոփքի
ծռեր
ծրագիր
ծրագիրերու
ծրագիրէն
ծրագիրը
ծրագիրի
ծրագիրին
ծրագիրն
ծրագիրներ
ծրագիրներէն
ծրագիրները
ծրագիրներով
ծրագիրներու
ծրագիրներուն
ծրագիրով
ծրագրած
ծրագրային
ծրագրաւորման
ծրագրեն
ծրագրեր
ծրագրերը
ծրագրերու
ծրագրերուն
ծրագրէ
ծրագրի
ծրագրին
ծրագրող
ծրագրով
ծրագրուած
ծրարը
կ
կա
կազ
կազային
կազանի
կազդուրման
կազեր
կազերը
կազերու
կազէլ
կազէլի
կազը
կազի
կազմ
կազմած
կազմակերպած
կազմակերպական
կազմակերպել
կազմակերպելով
կազմակերպելու
կազմակերպեն
կազմակերպեր
կազմակերպեց
կազմակերպեցին
կազմակերպէ
կազմակերպէին
կազմակերպէր
կազմակերպիչ
կազմակերպիչը
կազմակերպիչներէն
կազմակերպիչները
կազմակերպիչներուն
կազմակերպման
կազմակերպող
կազմակերպուած
կազմակերպուեցան
կազմակերպուեցաւ
կազմակերպուէին
կազմակերպութեամբ
կազմակերպութեան
կազմակերպութիւն
կազմակերպութիւնը
կազմակերպութիւններ
կազմակերպութիւններէն
կազմակերպութիւնները
կազմակերպութիւններն
կազմակերպութիւններու
կազմակերպութիւններուն
կազմակերպուի
կազմակերպուիլ
կազմակերպուին
կազմակերպում
կազմակերպումը
կազմակերպումին
կազմակերպուող
կազմակերպչական
կազմաւորած
կազմաւորման
կազմաւորուած
կազմաւորուեցաւ
կազմաւորուի
կազմաւորուիլ
կազմաւորուին
կազմաւորում
կազմաւորումէն
կազմաւորումը
կազմաւորումները
կազմաւորումներու
կազմել
կազմելով
կազմելու
կազմեն
կազմեր
կազմերուն
կազմեց
կազմեցին
կազմէ
կազմէին
կազմէն
կազմէր
կազմը
կազմի
կազմին
կազմող
կազմողներ
կազմով
կազմուած
կազմուածք
կազմուածքը
կազմուեցաւ
կազմուէր
կազմութեան
կազմութենէն
կազմութիւն
կազմութիւնը
կազմուի
կազմուիլ
կազմուին
կազմում
կազով
կաթ
կաթը
կաթի
կաթիլ
կաթին
կաթինը
կաթինի
կաթնային
կաթնասուն
կաթնասուններ
կաթնասուններու
կաթնեղէն
կաթոլիկ
կաթոլիկական
կաթոլիկներ
կաթոլիկները
կաթոլիկներու
կաթոլիկութիւն
կաթողիկէ
կաթողիկէն
կաթողիկէներու
կաթողիկոս
կաթողիկոսական
կաթողիկոսարանը
կաթողիկոսարանի
կաթողիկոսարանին
կաթողիկոսէն
կաթողիկոսը
կաթողիկոսի
կաթողիկոսին
կաթողիկոսն
կաթողիկոսներ
կաթողիկոսները
կաթողիկոսներու
կաթողիկոսներուն
կաթողիկոսութեան
կաթողիկոսութիւն
կաթողիկոսութիւնը
կաթողիկութիւն
կաթով
կաթուած
կաթուածէ
կաթուածի
կաթսայ
կաթսային
կաթսան
կալա
կալանքի
կալենց
կալենցի
կալիումի
կալկաթա
կալկաթայի
կալուած
կալուածատիրական
կալուածատիրոջ
կալուածը
կալուածի
կալուածին
կալուածներ
կալուածները
կալուածներու
կալուածներուն
կալուածքին
կախ
կախած
կախաղան
կախարդ
կախարդական
կախարդանքը
կախարդը
կախարդներ
կախարդները
կախարդուած
կախարդութեան
կախեալ
կախեթի
կախելու
կախէին
կախման
կախովի
կախուած
կախուածութեան
կախուածութիւն
կախուածութիւնը
կախում
կած
կակա
կակայի
կական
կակուղ
կահոյք
կահոյքի
կաղամբ
կաղամբի
կաղանդ
կաղանդը
կաղանդի
կաղանկատուացի
կաղանկատուացիի
կաղապար
կաղապարը
կաղապարի
կաղապարներ
կաղապարներու
կաղապարով
կաղզուան
կաղզուանի
կաղին
կաղնի
կաղնիի
կաղնին
կաճառ
կաճառէն
կաճառը
կաճառի
կաճառին
կամ
կամախ
կամախի
կամայական
կամային
կամար
կամարակապ
կամարաձեւ
կամարը
կամարի
կամարին
կամարներ
կամարները
կամարներով
կամարներու
կամարներուն
կամաց
կամաւոր
կամաւորական
կամաւորականներու
կամաւորներ
կամաւորները
կամաւորներու
կամետներ
կամետները
կամերային
կամուրջ
կամուրջէն
կամուրջը
կամուրջի
կամուրջին
կամուրջն
կամուրջներ
կամուրջները
կամուրջներու
կամուրջով
կամսախուրտիան
կամսար
կամսարական
կամրջի
կամրջին
կամք
կամքը
կամքի
կամքին
կամքով
կամօ
կայ
կայազօրը
կայազօրի
կայան
կայանալիք
կայանայ
կայանան
կայանար
կայանէն
կայանը
կայանի
կայանին
կայաններ
կայաններէն
կայանները
կայաններու
կայաններուն
կայարան
կայարանէն
կայարանը
կայարանի
կայարանին
կայարաններ
կայարաններէն
կայարանները
կայարաններու
կայացած
կայացան
կայացաւ
կայացման
կայացնել
կայացնելու
կայացնէ
կայացուած
կայացուցած
կային
կայծ
կայծակ
կայծակի
կայծակնային
կայծեր
կայն
կայուն
կայունացման
կայունութեան
կայունութիւնը
կայսեր
կայսերական
կայսերը
կայսր
կայսրեր
կայսրերը
կայսրերու
կայսրերուն
կայսրէն
կայսրը
կայսրի
կայսրին
կայսրութեան
կայսրութեանը
կայսրութենէն
կայսրութիւն
կայսրութիւնը
կայսրութիւններ
կայսրութիւնները
կայսրութիւններու
կայսրութիւններուն
կայսրուհի
կայսրուհիին
կայսրուհին
կայք
կայքեր
կայքերու
կայքէն
կայքէջ
կայքէջը
կայքէջի
կայքէջին
կայքը
կայքի
կայքին
կայքում
կան
կանա
կանայեան
կանայք
կանանչ
կանանց
կանաչ
կանաչաւուն
կանաչեան
կանաչեանի
կանաչեղէն
կանաչը
կանաչի
կանացի
կանգ
կանգնած
կանգնելով
կանգնելու
կանգնեցաւ
կանգնեցնել
կանգնեցնէ
կանգնեցուած
կանգնեցուցած
կանգնի
կանգնիլ
կանգնին
կանգուն
կանթեղ
կանխազգուշական
կանխած
կանխահաս
կանխատեսման
կանխարգելի
կանխարգելիչ
կանխարգելման
կանխարգիլել
կանխարգիլելի
կանխարգիլելու
կանխարգիլման
կանխարգիլում
կանխել
կանխելու
կանխիկ
կաննի
կանոն
կանոնագիր
կանոնագիրը
կանոնագիրք
կանոնադրութեամբ
կանոնադրութեան
կանոնադրութիւնը
կանոնական
կանոնակարգ
կանոնաւոր
կանոնաւորաբար
կանոնաւորապէս
կանոնաւորէ
կանոնաւորուի
կանոնը
կանոնի
կանոնին
կանոններ
կանոնները
կանոններով
կանոններու
կանոններուն
կանոնով
կանուխ
կանուխէն
կանչ
կանչել
կանչեց
կանչէ
կանչը
կանչուած
կանչուի
կանտի
կանտիի
կանցլեր
կանք
կաշի
կաշիէ
կաշիի
կաշին
կաուտին
կապ
կապադովկիա
կապադովկիոյ
կապած
կապակցման
կապակցութեամբ
կապան
կապանի
կապար
կապարը
կապարի
կապել
կապելա
կապելով
կապելու
կապեն
կապեր
կապերը
կապերի
կապերով
կապերու
կապերուն
կապէ
կապէին
կապէր
կապը
կապի
կապիկներու
կապին
կապիտալիստական
կապն
կապող
կապոյտ
կապոյտը
կապոյտով
կապով
կապուած
կապուելու
կապուէր
կապուի
կապուին
կապուտան
կապուտիկեան
կապուտիկեանի
կապուտջուղ
կապտութիւն
կապրիէլ
կառավարած
կառավարական
կառավարել
կառավարելու
կառավարեն
կառավարէ
կառավարէին
կառավարէր
կառավարիչ
կառավարիչը
կառավարիչի
կառավարիչին
կառավարիչն
կառավարիչներ
կառավարիչները
կառավարիչներու
կառավարման
կառավարող
կառավարուէր
կառավարութեան
կառավարութեանը
կառավարութենէն
կառավարութիւն
կառավարութիւնը
կառավարութիւնն
կառավարութիւնները
կառավարութիւններու
կառավարութիւններուն
կառավարության
կառավարուի
կառավարուին
կառավարում
կառավարումը
կառաւարութեան
կառաւարութիւնը
կառոյց
կառոյցը
կառոյցի
կառոյցին
կառոյցն
կառոյցներ
կառոյցներէն
կառոյցները
կառոյցներն
կառոյցներով
կառոյցներու
կառոյցներուն
կառոյցով
կառուցած
կառուցապատման
կառուցապատուած
կառուցապատումը
կառուցել
կառուցելով
կառուցելու
կառուցեն
կառուցեր
կառուցեց
կառուցեցին
կառուցէ
կառուցման
կառուցողական
կառուցուած
կառուցուածք
կառուցուածքային
կառուցուածքը
կառուցուածքի
կառուցուածքին
կառուցուածքն
կառուցուածքներ
կառուցուածքները
կառուցուածքներու
կառուցուածքով
կառուցուեր
կառուցուեցան
կառուցուեցաւ
կառուցուէին
կառուցուի
կառուցուիլ
կառուցուին
կառուցում
կառուցումէն
կառուցումը
կառուցումներ
կառուցուող
կառչած
կառվարենց
կառվարենցի
կառք
կառքով
կաս
կասեան
կասեցնել
կասեցնելու
կասեցնէ
կասեցուած
կասեցուի
կասիոս
կասկած
կասկածելի
կասկածի
կասկածին
կասկածներ
կասպիական
կասպից
կասրին
կավարիս
կատակ
կատակերգակ
կատակերգական
կատակերգութեան
կատակերգութիւն
կատակերգութիւնը
կատակերգութիւններ
կատակերգութիւնները
կատաղի
կատար
կատարած
կատարեալ
կատարել
կատարելագործած
կատարելագործելու
կատարելագործէ
կատարելագործման
կատարելագործուած
կատարելագործուի
կատարելապէս
կատարելէ
կատարելը
կատարելով
կատարելու
կատարելութեան
կատարեն
կատարեր
կատարեց
կատարեցին
կատարէ
կատարէին
կատարէր
կատարին
կատարինէ
կատարմամբ
կատարման
կատարող
կատարողական
կատարողը
կատարողներ
կատարողներէն
կատարողները
կատարողներու
կատարողութեամբ
կատարոյ
կատարուած
կատարուեր
կատարուեցան
կատարուեցաւ
կատարուէին
կատարուէր
կատարուի
կատարուիլ
կատարուին
կատարում
կատարումը
կատարումներ
կատարումներէն
կատարումները
կատարումներով
կատարումով
կատարուող
կատեգորիա
կատու
կատուի
կատուին
կատուն
կատուներ
կատուները
կատուներու
կատֆրէյ
կար
կարա
կարագ
կարագը
կարապետ
կարապետեան
կարապետեանը
կարապետեանի
կարապետը
կարապետի
կարապետյան
կարապի
կարաւանը
կարաւաններու
կարգ
կարգադրութեամբ
կարգախօս
կարգախօսը
կարգախօսն
կարգախօսով
կարգահամարը
կարգահամարն
կարգային
կարգապահական
կարգապահութիւնը
կարգավիճակ
կարգավիճակէն
կարգավիճակը
կարգավիճակի
կարգավիճակին
կարգավիճակով
կարգաւորել
կարգաւորելու
կարգաւորէ
կարգաւորման
կարգաւորող
կարգաւորուած
կարգաւորուի
կարգաւորուին
կարգաւորում
կարգաւորումը
կարգեր
կարգերը
կարգերու
կարգերուն
կարգեց
կարգէ
կարգէն
կարգը
կարգի
կարգին
կարգն
կարգով
կարգուած
կարգուի
կարդալ
կարդալով
կարդալու
կարդայ
կարդան
կարդանք
կարդար
կարդաց
կարդացած
կարդացուի
կարդացուին
կարդացուող
կարեան
կարելի
կարելիութեան
կարելիութիւն
կարելիութիւնը
կարելիութիւններ
կարելիութիւնները
կարեն
կարենալ
կարենայ
կարենան
կարենար
կարեւոր
կարեւորագոյն
կարեւորագոյններն
կարեւորը
կարեւորութեամբ
կարեւորութեան
կարեւորութիւն
կարեւորութիւնը
կարէին
կարէն
կարթագէն
կարթագէնը
կարթագէնի
կարի
կարին
կարինէ
կարինէն
կարինը
կարինի
կարիք
կարիքաւոր
կարիքաւորներուն
կարիքը
կարիքները
կարիքներու
կարիքներուն
կարծելով
կարծեմ
կարծեն
կարծես
կարծէ
կարծէին
կարծէր
կարծիք
կարծիքը
կարծիքի
կարծիքին
կարծիքներ
կարծիքները
կարծիքներու
կարծիքով
կարծուի
կարծր
կարծրենիի
կարկանդակ
կարկաչ
կարկառ
կարկառուն
կարճ
կարճաժամկէտ
կարճամեթրաժ
կարճատեւ
կարճիկեան
կարմիր
կարմիրեան
կարմիրը
կարմիրի
կարմիրով
կարմրագոյն
կարմրախտի
կարմրաւոր
կարմրաւուն
կարմրութիւն
կարնեցի
կարնոյ
կարող
կարողանայ
կարողանան
կարողանար
կարողացած
կարողացան
կարողացաւ
կարողութեամբ
կարողութեան
կարողութիւն
կարողութիւնը
կարողութիւններ
կարողութիւնները
կարողութիւններով
կարողութիւններու
կարողութիւններուն
կարոյեան
կարոն
կարուած
կարուէր
կարպետ
կարպիս
կարս
կարսէն
կարսը
կարսի
կարսն
կարտինալ
կարք
կարօ
կարօտ
կարօտը
կարօտի
կարօտին
կարօտով
կաց
կացարան
կացարաններ
կացութեան
կացութիւն
կացութիւնը
կաւ
կաւագործութեան
կաւագործութիւն
կաւադ
կաւէ
կաւի
կափարիչը
կբ
կգ
կդ
կե
կեա
կեան
կեանք
կեանքեր
կեանքերը
կեանքէ
կեանքէն
կեանքը
կեանքի
կեանքիդ
կեանքին
կեանքիս
կեանքն
կեանքով
կեանքում
կեանքս
կեդ
կեդր
կեդրոն
կեդրոնագմբէթ
կեդրոնական
կեդրոնականը
կեդրոնականի
կեդրոնանալ
կեդրոնանալով
կեդրոնանայ
կեդրոնանան
կեդրոնանար
կեդրոնատեղիին
կեդրոնատեղին
կեդրոնացած
կեդրոնացաւ
կեդրոնացման
կեդրոնացնել
կեդրոնացնէ
կեդրոնացուած
կեդրոնացում
կեդրոնացումը
կեդրոնէն
կեդրոնը
կեդրոնի
կեդրոնին
կեդրոնն
կեդրոններ
կեդրոններէն
կեդրոնները
կեդրոններն
կեդրոններու
կեդրոններուն
կեդրոնով
կեղեւ
կեղեւը
կեղեւի
կեղծ
կեղծանունը
կեղծանուններ
կեղծանունով
կեղծելու
կեղծմաշկի
կեղտոտ
կեյնոր
կեն
կենայ
կենաց
կենդանաբանական
կենդանաբանութեան
կենդանագիրը
կենդանական
կենդանակերպ
կենդանի
կենդանիի
կենդանին
կենդանիներ
կենդանիներէն
կենդանիները
կենդանիներու
կենդանիներուն
կենդանութեան
կենդանութիւն
կենդրոն
կենդրոնական
կենդրոնը
կենդրոնին
կենդրոններ
կեներալ
կենսաբան
կենսաբանական
կենսաբանութեան
կենսաբանութիւն
կենսաբանութիւնը
կենսաբանօրէն
կենսագիր
կենսագործունէութեան
կենսագրական
կենսագրականը
կենսագրութեան
կենսագրութեանց
կենսագրութիւն
կենսագրութիւնը
կենսագրութիւններ
կենսագրություն
կենսագրությունը
կենսական
կենսանիւթ
կենսանիւթեր
կենսանիւթերով
կենսանիւթերու
կենսանիւթը
կենսանիւթի
կենսոլորտային
կենսոլորտի
կենսուժի
կենսունակ
կենսունակութիւնը
կենտ
կենտկոմի
կենտրոն
կենտրոնական
կենտրոնը
կենտրոնն
կենցաղ
կենցաղային
կենցաղը
կենցաղի
կենցաղին
կեշդալդ
կեչառիս
կեչառիսի
կեռնաշղթայ
կեսար
կեսարացի
կեսարացիի
կեսարացին
կեսարը
կեսարի
կեսարիա
կեսարիոյ
կեսերուն
կետադրական
կետը
կեր
կերած
կերակուր
կերակուրը
կերակուրի
կերակուրներ
կերակուրները
կերակուրներու
կերային
կերպ
կերպասէ
կերպար
կերպարանափոխուած
կերպարանք
կերպարանքը
կերպարանքով
կերպարը
կերպարի
կերպարին
կերպարներ
կերպարներէն
կերպարները
կերպարներն
կերպարներով
կերպարներու
կերպարներուն
կերպարով
կերպարուեստ
կերպարուեստը
կերպարուեստի
կերպարուեստին
կերպընկալ
կերպով
կերտած
կերտել
կերտման
կերտուած
կեցած
կեցնել
կեցուածք
կեցուածքը
կեցուածքին
կեցուածքով
կեցութեան
կեցցէ
կզաքիս
կէ
կէյթա
կէն
կէորկենի
կէորկի
կէորկին
կէս
կէսեր
կէսերէն
կէսերը
կէսերուն
կէսէն
կէսը
կէսի
կէսին
կէսօր
կէսօրէ
կէսօրին
կէսօրուան
կէտ
կէտեր
կէտերէն
կէտերը
կէտերու
կէտերուն
կէտէն
կէտը
կէտի
կէտիկ
կէտին
կէտն
կէրի
կէօթէ
կէօթէի
կը
կըրնա
կի
կիեւ
կիեւեան
կիեւի
կիզիչ
կիզիս
կիթառ
կիթառահար
կիթառը
կիթառի
կիի
կիլէրմո
կիլիկեան
կիլիկեցի
կիլիկիա
կիլիկիայէն
կիլիկիայի
կիլիկիան
կիլիկիոյ
կիկլոպեան
կիյոմ
կին
կիներ
կիներէն
կիները
կիներու
կիներուն
կինը
կինի
կինն
կինոդերասանուհիներ
կինոյի
կինոռեժիսոր
կինոստուդիայի
կիպ
կիպրական
կիպրահայ
կիպրոս
կիպրոսը
կիպրոսի
կիպրոսցիները
կիպրոսցիներու
կիսաանապատային
կիսաբաժինի
կիսաբոլոր
կիսագունդի
կիսագունդին
կիսաեզրափակիչ
կիսաեզրափակիչին
կիսաեզրափակչին
կիսաթանկարժէք
կիսալուսնաձեւ
կիսակլոր
կիսամսեայ
կիսանապատային
կիսանդրի
կիսանդրիի
կիսանդրին
կիսանդրիներ
կիսանկախ
կիսաշրջանաձեւ
կիսապաշտպան
կիսապաշտպանի
կիսապարզ
կիսատ
կիսաւարտ
կիսաւարտական
կիսաւեր
կիսել
կիսով
կիսուն
կիտրոնի
կիր
կիրակի
կիրակիին
կիրակին
կիրակնօրեայ
կիրակոս
կիրակոսեան
կիրակոսեանի
կիրակոսի
կիրառած
կիրառական
կիրառել
կիրառելի
կիրառելով
կիրառելու
կիրառեն
կիրառէ
կիրառմամբ
կիրառման
կիրառուած
կիրառուէր
կիրառութեան
կիրառութիւն
կիրառութիւնը
կիրառութիւններ
կիրառուի
կիրառուին
կիրառում
կիրառումը
կիրառումները
կիրառուող
կիրասոն
կիրարական
կիրարկած
կիրարկել
կիրարկելով
կիրարկէ
կիրարկման
կիրարկուած
կիրարկուի
կիրարկուին
կիրարկումը
կիրարկումով
կիրի
կիրճ
կիրճերով
կիրճերուն
կիրճէն
կիրճը
կիրճի
կիրճին
կիրովական
կիրովականի
կիրովի
կիրքը
կից
կիւզելեան
կիւթենպերկի
կիւլիստանի
կիւլպէնկեան
կիւլպէնկեանի
կիւմրի
կիւմրիի
կիւսթաւ
կիւրեղ
կիւրեղեան
կիւրեղի
կիւրին
կիւրճեան
կիւրոս
կիւրոսի
կիքաս
կլանէ
կլանման
կլեբեռը
կլենտէյլ
կլենտէյլի
կլէյտ
կլէնտէյլ
կլէնտէյլի
կլիմա
կլիմայ
կլիմայական
կլիմայի
կլիմային
կլիմայով
կլիման
կլլելու
կլոմերուլային
կլոպուս
կլոր
կլորաւուն
կլորիա
կծկման
կծկուին
կծկում
կծկումները
կծկումներու
կծու
կկ
կհվ
կղերական
կղերականներու
կղզեխումբ
կղզեխումբեր
կղզեխումբը
կղզեխումբին
կղզի
կղզիակ
կղզիակը
կղզիակին
կղզիակներ
կղզիակներէ
կղզիակները
կղզիակներուն
կղզիէն
կղզիի
կղզիին
կղզին
կղզիներ
կղզիներէ
կղզիներէն
կղզիները
կղզիներն
կղզիներու
կղզիներուն
կղէոպատրա
կղկղանցումի
կղկղանքի
կղկղանքին
կղմինտրէ
կմ
կմախքը
կյանքը
կյանքի
կնիկը
կնիք
կնիքը
կնիքներ
կնիքները
կնոջ
կնոջական
կնոջը
կնոջմէն
կնութեան
կնքած
կնքահայրը
կնքել
կնքելով
կնքելու
կնքեն
կնքեց
կնքեցին
կնքէ
կնքման
կնքուած
կնքուեցաւ
կնքուի
կնքումէն
կշիռ
կշիռը
կշիռք
կշիռքը
կշիռքի
կշռէ
կո
կոգովիտ
կոթական
կոթող
կոթողական
կոթողային
կոթողը
կոթողի
կոթողներ
կոթողներէն
կոթողները
կոթողներու
կոլ
կոլային
կոլեր
կոլերը
կոլերու
կոլերուն
կոլը
կոլի
կոլով
կոլոտ
կոլտ
կոլտըն
կոլտուին
կոկ
կոկեն
կոկենի
կոկը
կոկի
կոկիկ
կոկոլի
կոկորդ
կոկորդը
կոկորդի
կոկորդիլոսները
կոկորդին
կող
կողակիցը
կողային
կողբ
կողբացի
կողբացիի
կողբի
կողերուն
կողի
կողմ
կողմեր
կողմերէ
կողմերէն
կողմերը
կողմերն
կողմերով
կողմերու
կողմերուն
կողմէ
կողմէն
կողմը
կողմի
կողմին
կողմից
կողմն
կողմնածռութիւն
կողմնակի
կողմնակից
կողմնակիցներ
կողմնակիցները
կողմնակիցներու
կողմնակիցներուն
կողմնորոշում
կողմնորոշումը
կողոպուտը
կողոպուտի
կողոպտած
կողոպտեն
կողոպտէ
կողոպտուած
կողոպտուի
կողովագնդակ
կողովագնդակի
կողք
կողքը
կողքի
կողքին
կոճակը
կոճապղպեղով
կոմերիտական
կոմիսար
կոմիսարիատը
կոմիսարիատի
կոմիսարներու
կոմիտաս
կոմիտասեան
կոմիտասը
կոմիտասի
կոմիտասին
կոմիտէ
կոմիտէի
կոմիտէին
կոմիտէն
կոմիտէներ
կոմիտէները
կոմիտէներու
կոմիտէութեան
կոմկուսի
կոմմագենէի
կոմմագենէն
կոմունիզմի
կոմունիստ
կոմունիստական
կոմպոզիտոր
կոմս
կոմսը
կոմսի
կոմսութեան
կոմսութիւն
կոմսութիւնը
կոմսուհի
կոյ
կոյուղիի
կոյս
կոյսեր
կոյսերը
կոյսերու
կոյսերուն
կոյսը
կոյսի
կոյսին
կոյր
կոյրերու
կոնաձեւ
կոնդակը
կոնդակով
կոնի
կոնստանդին
կոնստանտին
կոնքին
կոշ
կոշի
կոշտ
կոչ
կոչած
կոչել
կոչելով
կոչելու
կոչեն
կոչենք
կոչեր
կոչերով
կոչեց
կոչեցին
կոչէ
կոչէին
կոչը
կոչի
կոչին
կոչման
կոչնակ
կոչով
կոչուած
կոչուելով
կոչուեր
կոչուեցան
կոչուեցաւ
կոչուէին
կոչուէր
կոչուի
կոչուիլ
կոչուիլը
կոչուին
կոչում
կոչումը
կոչումին
կոչումն
կոչումներ
կոչումով
կոչուող
կոպիտ
կոպտատաշ
կոջոյեան
կոջոյեանը
կոջոյեանի
կոս
կոստան
կոստանդեան
կոստանդիանոս
կոստանդիանոսի
կոստանդին
կոստանդնուպոլիս
կոստանդնուպոլիսը
կոստանդնուպոլիսի
կոստանդնուպոլսեցի
կոստանդնուպոլսի
կոստանդնուպոլսոյ
կոստանդուպոլսոյ
կոստանեան
կոստանտինոս
կոստանտնու
կոստանտնուպոլիսը
կոստանտնուպոլսոյ
կով
կովերը
կովերու
կովը
կովի
կովկաս
կովկասահայ
կովկասեան
կովկասէն
կովկասը
կովկասի
կովկասին
կովու
կոտ
կոտայք
կոտայքը
կոտայքի
կոտորած
կոտորածէն
կոտորածը
կոտորածի
կոտորածին
կոտորածներ
կոտորածներէն
կոտորածները
կոտորածներու
կոտորածներուն
կոտորակային
կոտորակի
կոտորակները
կոտորակներու
կոտորակով
կոտորել
կոտորեն
կոտորուած
կոտրած
կոտրել
կոտրէ
կոտրուած
կոտրուածք
կոտֆրիտ
կոր
կորած
կորդուաց
կորեկ
կորեկի
կորէա
կորի
կորիզ
կորիզը
կորիւն
կորիւնը
կորիւնի
կործանած
կործանարար
կործանելու
կործանեն
կործանէ
կործանի
կործանիչ
կործանման
կործանուած
կործանուեցաւ
կործանուի
կործանումէն
կործանումը
կորնթոս
կորնթոսեան
կորնթոսը
կորնթոսի
կորնթոսին
կորուսեալ
կորուստ
կորուստէ
կորուստէն
կորուստը
կորուստի
կորուստին
կորուստներ
կորուստները
կորուստներու
կորուստներուն
կորուստով
կորպուսի
կորսնթոսի
կորսնցէ
կորսնցնել
կորսնցնելէ
կորսնցնելով
կորսնցնելու
կորսնցնեն
կորսնցներ
կորսնցնէ
կորսնցնէր
կորսնցուց
կորսնցուցած
կորսնցուցին
կորսուած
կորսուի
կորսուին
կորտըն
կորքի
կորքիի
կորքին
կու
կուամի
կուգայ
կուլ
կուլտուրայի
կուկըլ
կուկունեան
կուկունեանի
կում
կումայրի
կուն
կունենայ
կուշտ
կուպաթլուի
կուռ
կուռք
կուռքերու
կուռքը
կուսակալ
կուսակալին
կուսակալութեան
կուսակալութիւն
կուսակրօն
կուսակցական
կուսակցութեան
կուսակցութենէն
կուսակցութիւն
կուսակցութիւնը
կուսակցութիւններ
կուսակցութիւնները
կուսակցութիւններու
կուսակցութիւններուն
կուսանաց
կուսթաւ
կուստաւ
կուտակեն
կուտակման
կուտակուած
կուտակուի
կուտակում
կուտակումը
կուտայ
կուտինայի
կուտմըն
կուր
կուրի
կուրին
կուրծքը
կուրծքի
կուրծքին
կուրտ
կոփածոյ
կպ
կպչուն
կռանեան
կռանեանի
կռիւ
կռիւէն
կռիւը
կռիւի
կռիւին
կռիւներ
կռիւներէ
կռիւներէն
կռիւները
կռիւներու
կռիւներուն
կռնակը
կռնակի
կռուախնձոր
կռուած
կռուելէ
կռուելով
կռուելու
կռուէին
կռուէր
կռուի
կռուիլ
կռուին
կռունկ
կռուող
կռփամարտի
կսմիթային
կվտ
կտակած
կտակարան
կտակարանը
կտակարանի
կտակարանին
կտակարաններու
կտակը
կտակի
կտակին
կտաւ
կտաւէ
կտաւը
կտաւի
կտաւներ
կտաւները
կտաւներու
կտաւներուն
կտոր
կտորէ
կտորէն
կտորը
կտորի
կտորներ
կտորները
կտորներով
կտորներու
կտորով
կտուց
կտրած
կտրականապէս
կտրել
կտրելով
կտրելու
կտրեն
կտրեց
կտրէ
կտրէին
կտրուած
կտրուկ
կտրտուած
կր
կրած
կրածին
կրածինը
կրածինի
կրակ
կրակէ
կրակէն
կրակը
կրակի
կրակին
կրակով
կրակովի
կրահամ
կրամ
կրան
կրանատայի
կրանիթ
կրանտ
կրաշաղախով
կրապար
կրասնոտար
կրասոս
կրասոսի
կրաւորական
կրաքարային
կրաքարէ
կրաքարի
կրել
կրելով
կրելու
կրեկորի
կրեմի
կրեմմի
կրեմմիի
կրեն
կրետական
կրետացի
կրետէ
կրետէէն
կրետէի
կրետէին
կրետէն
կրեր
կրեց
կրեցին
կրէ
կրէին
կրէյ
կրէր
կրթ
կրթաթոշակ
կրթաթոշակի
կրթական
կրթամշակութային
կրթասիրաց
կրթարան
կրթարանը
կրթարանին
կրթելու
կրթուած
կրթութեամբ
կրթութեան
կրթութիւն
կրթութիւնը
կրթութիւնն
կրթության
կրիան
կրիաները
կրիաներու
կրիզմանը
կրիկ
կրիկի
կրիմ
կրին
կրինդ
կրինը
կրինի
կրիվըր
կրիփ
կրիֆնը
կրծողները
կրծքավանդակի
կրծքավանդակին
կրկէս
կրկէսային
կրկէսը
կրկէսի
կրկէսին
կրկին
կրկնակի
կրկնապատիկը
կրկնապատկուի
կրկնել
կրկնելով
կրկնեց
կրկնէ
կրկնէր
կրկնուի
կրկնուող
կրկնօրինակ
կրկնօրինակը
կրճատ
կրճատել
կրճատման
կրճատուած
կրճատուեցաւ
կրճատուի
կրնա
կրնայ
կրնային
կրնան
կրնանք
կրնաս
կրնար
կրնաք
կրող
կրողը
կրողներ
կրողները
կրտսեր
կրտսերը
կրտսերի
կրցած
կրցան
կրցաւ
կրքոտ
կրօ
կրօն
կրօնա
կրօնաբարոյական
կրօնական
կրօնաւոր
կրօնաւորներ
կրօնափոխութեան
կրօնը
կրօնի
կրօնին
կրօններ
կրօններու
կրօնք
կրօնքը
կրօնքի
կրօնքին
կցկտուր
կցուած
կցուի
կցումը
կւ
կօլ
կօլային
կօլեր
կօլերը
կօլերով
կօլերու
կօլը
կօլի
կօլով
կօկէն
կօկէնը
կօկէնի
կօշիկ
կօշիկը
կօշիկի
կօշիկներ
կօշիկները
կօշկակար
հ
հա
հաա
հաբանդ
հագած
հագարի
հագեցած
հագնելով
հագնէին
հագնիլ
հագնին
հագուէին
հագուստ
հագուստը
հագուստի
հագուստին
հագուստներ
հագուստները
հագուստներու
հագուստով
հադէս
հադրութ
հադրութի
հազ
հազալով
հազար
հազարամեակ
հազարամեակէն
հազարամեակի
հազարամեակին
հազարամեակներ
հազարամեակներու
հազարամեակներուն
հազարամեայ
հազարանոց
հազարապետ
հազարապետի
հազարաւոր
հազարէ
հազարէն
հազարը
հազարի
հազարներով
հազարնոց
հազը
հազի
հազիւ
հազկերտ
հազուագիւտ
հազուադէպ
հազուադէպօրէն
հաթերք
հաթերքի
հաթթը
հաժ
հաժի
հալած
հալածանքը
հալածանքի
հալածանքներ
հալածանքներէն
հալածանքները
հալածանքներու
հալածանքներուն
հալածէ
հալածուած
հալածուի
հալածուին
հալդոն
հալէթ
հալէմբա
հալէպ
հալէպահայ
հալէպէն
հալէպը
հալէպի
հալէպցի
հալիլ
հալիձորի
հալիմ
հալման
հալքը
հալքի
հալքիտա
հալքիտայի
հածիքիրիաքոս
հակ
հակա
հակաբորբոքային
հակադարձեն
հակադարձէ
հակադարձութեան
հակադիր
հակադրուած
հակադրութեան
հակադրութիւն
հակադրութիւնը
հակազդեն
հակազդեցութեան
հակազդեցութիւն
հակազդեցութիւնը
հակազդէ
հակախորհրդային
հակակառավարական
հակակշիռ
հակահայ
հակահայկական
հակահարուած
հակամանրէական
հակամարմիններ
հակամարմիններու
հակամարտ
հակամարտող
հակամարտութեան
հակամարտութիւն
հակամարտութիւնը
հակամարտութիւններ
հակամարտութիւնները
հակամարտութիւններու
հակամարտութիւններուն
հակամէտ
հակայարձակման
հականեխիչ
հակապիոթիքները
հակապիոթիքներու
հակաջերմ
հակառակ
հակառակը
հակառակորդ
հակառակորդը
հակառակորդի
հակառակորդին
հակառակորդներ
հակառակորդները
հակառակորդներուն
հակառակութեան
հակասական
հակասէ
հակասող
հակասութեան
հակասութիւններ
հակասութիւնները
հակասութիւններու
հակաօդային
հակաֆաշիստական
հակի
հակիրճ
հակոբ
հակոբյան
հակուած
հակում
հակումը
հակումները
հակումներով
հակրիտը
հահ
հահգբ
հահգպ
հաղարջը
հաղբատ
հաղբատի
հաղթել
հաղթեց
հաղորդագրութեամբ
հաղորդագրութեան
հաղորդագրութիւն
հաղորդագրութիւնը
հաղորդագրութիւններ
հաղորդած
հաղորդական
հաղորդակից
հաղորդակցական
հաղորդակցին
հաղորդակցման
հաղորդակցող
հաղորդակցութեան
հաղորդակցութիւն
հաղորդակցութիւնը
հաղորդաշար
հաղորդաշարի
հաղորդաշարին
հաղորդավար
հաղորդել
հաղորդելու
հաղորդեն
հաղորդեց
հաղորդէ
հաղորդէր
հաղորդիչ
հաղորդման
հաղորդող
հաղորդուած
հաղորդութեան
հաղորդութիւն
հաղորդուի
հաղորդուին
հաղորդում
հաղորդումը
հաղորդումներ
հաղորդումները
հաղորդումներու
հաղպատի
հաճախ
հաճեան
հաճեանը
հաճեանի
հաճելի
հաճըն
հաճընը
հաճընի
հաճընցի
հաճի
հաճնոյ
հաճոյք
հաճոյքը
հաճոյքի
հաճոյքով
համ
համա
համագաղութային
համագործակցաբար
համագործակցած
համագործակցելով
համագործակցելու
համագործակցի
համագործակցիլ
համագործակցութեամբ
համագործակցութեան
համագործակցութիւն
համագործակցութիւնը
համագործութեան
համագումար
համագումարը
համագումարի
համագումարին
համագումարներ
համագումարներու
համագումարներուն
համադաշնութեան
համադրական
համադրէ
համադրող
համադրուած
համադրութեան
համադրութիւն
համադրութիւնը
համադրուին
համադրումը
համաեւրոպական
համազասպ
համազասպի
համազգային
համազգայինը
համազգայինի
համազօր
համաժողով
համաժողովը
համաժողովի
համաժողովին
համաժողովներու
համաժողովրդական
համալիր
համալիրէն
համալիրը
համալիրի
համալիրին
համալիրներ
համալիրները
համալիրներու
համալսարան
համալսարանական
համալսարանային
համալսարանէն
համալսարանը
համալսարանի
համալսարանին
համալսարանն
համալսարաններ
համալսարաններէն
համալսարանները
համալսարաններու
համալսարաններուն
համալրած
համալրուած
համախառն
համախմբած
համախմբել
համախմբելով
համախմբելու
համախմբէ
համախմբման
համախմբուած
համախմբումի
համախոհ
համախտանիշ
համախտանիշը
համախտանիշի
համակ
համակարգ
համակարգային
համակարգեր
համակարգերը
համակարգերու
համակարգերուն
համակարգէ
համակարգէն
համակարգը
համակարգի
համակարգին
համակարգիչ
համակարգիչը
համակարգիչի
համակարգիչին
համակարգիչներ
համակարգիչները
համակարգիչներու
համակարգող
համակարգով
համակարգուած
համակարգում
համակարգչային
համակարծիք
համակեդրոնացման
համակեցութեան
համակիր
համակիրներու
համակուած
համակրանք
համակրանքը
համակրելի
համակցուած
համահայկական
համահաւաք
համահեղինակ
համահեղինակութեամբ
համահիմնադիր
համահունչ
համաձայն
համաձայնագիր
համաձայնագիրը
համաձայնագիրի
համաձայնագիրին
համաձայնագիրով
համաձայնագրի
համաձայնագրին
համաձայնագրով
համաձայնած
համաձայնեցան
համաձայնեցաւ
համաձայնի
համաձայնին
համաձայնիր
համաձայնուած
համաձայնութեամբ
համաձայնութեան
համաձայնութենէն
համաձայնութիւն
համաձայնութիւնը
համաձուլուածքներու
համաճարակ
համաճարակը
համաճարակի
համաճարակին
համաճարակներ
համաճարակներու
համամ
համամասնական
համամարդկային
համամիութենական
համամիտ
համայի
համայն
համայնական
համայնապատկեր
համայնապատկերը
համայնավար
համայնավարական
համայնավարները
համայնավարներուն
համայնավարութեան
համայնք
համայնքային
համայնքէն
համայնքը
համայնքի
համայնքին
համայնքն
համայնքներ
համայնքներէն
համայնքները
համայնքներու
համայնքներուն
համայունական
համանախագահներուն
համանման
համանուագ
համանուագային
համանուագը
համանուագին
համանուն
համաշխարհային
համաչափ
համաչափութեան
համաչափութիւնը
համապատասխան
համապատասխանաբար
համապատասխանեն
համապատասխաներ
համապատասխանէ
համապատասխանէր
համապատասխանող
համապատկեր
համապարփակ
համառոտ
համառուսական
համառուսաստանեան
համառօտ
համասեռ
համաստեղ
համաստեղութեան
համաստեղութիւն
համաստեղութիւնը
համասփիւռքեան
համատան
համատարած
համատեղ
համար
համարած
համարեա
համարեայ
համարել
համարելով
համարեն
համարեր
համարեց
համարեցին
համարէ
համարէին
համարէր
համարը
համարժէք
համարժէքը
համարի
համարին
համարձակ
համարձակութիւն
համարձակօրէն
համարներ
համարով
համարուած
համարուեր
համարուեցաւ
համարուէին
համարուէր
համարուի
համարուիլ
համարուին
համարուիր
համարուող
համարվում
համացանց
համացանցային
համացանցը
համացանցի
համացանցին
համաքրիստոնէական
համբարեան
համբարձման
համբարձում
համբարձումեան
համբարձումեանի
համբարձումի
համբաւ
համբաւաւոր
համբաւը
համբաւի
համբաւին
համբերատար
համբիկ
համբոյր
համեղ
համեմատ
համեմատաբար
համեմատած
համեմատական
համեմատել
համեմատելով
համեմատութեամբ
համեմատութեան
համեմատութիւն
համեմատութիւնը
համեմուած
համեմունքներ
համեստ
համերաշխ
համերաշխութեան
համերաշխութիւն
համերգ
համերգային
համերգասրահին
համերգը
համերգի
համերգին
համերգներ
համերգներէն
համերգները
համերգներով
համերգներու
համերգներուն
համերգով
համը
համընդհանուր
համընթաց
համընկած
համընկնի
համընկնին
համի
համիլթըն
համիլթընեան
համիլթընի
համիտ
համիտեան
համիտի
համլեթ
համլետ
համլէթ
համոզել
համոզելու
համոզեն
համոզեց
համոզէ
համոզիչ
համոզուած
համոզում
համոզումը
համոզումներու
համոզումով
համոյթ
համոյթը
համոյթի
համոյթին
համով
համուտ
համուտը
համուտի
համպուրկ
համպուրկի
համր
համրա
համրիչի
համրիչին
համօ
հայ
հայաբնակ
հայագէտ
հայագէտներ
հայագիտական
հայագիտութեան
հայագիտութիւն
հայագիտութիւնը
հայազգի
հայալեզու
հայախօս
հայական
հայահոծ
հայանպաստ
հայաշատ
հայաշէն
հայապահպանման
հայապահպանութեան
հայաս
հայասա
հայասէր
հայաստա
հայաստան
հայաստանեայց
հայաստանեան
հայաստանեաց
հայաստանէն
հայաստանը
հայաստանի
հայաստանին
հայաստանն
հայաստանում
հայաստանցի
հայատառ
հայացքները
հայդուկ
հայեացք
հայեացքը
հայեացքները
հայեացքներու
հայեացքներուն
հայեացքով
հայելի
հայելիի
հայելիին
հայելին
հայեր
հայերէ
հայերէն
հայերէնէ
հայերէնէն
հայերէնը
հայերէնի
հայերէնին
հայերէնն
հայերէնով
հայերը
հայերի
հայերն
հայերով
հայերու
հայերուն
հայեցակարգը
հայեցի
հայը
հայթայթել
հայթայթելու
հայթայթեն
հայթայթէ
հայի
հայկ
հայկազ
հայկազեան
հայկազն
հայկազուն
հայկակ
հայկական
հայկանոյշ
հայկանուշ
հայկաշէն
հայկեան
հայկի
հայկին
հայկուհի
հայն
հայնրիխ
հայորդիներ
հայորդիները
հայորդիներու
հայոց
հայու
հայութեան
հայութիւն
հայութիւնը
հայուհեաց
հայուհի
հայուհին
հայուն
հայպետհրատ
հայտ
հայտար
հայտարարեց
հայտարարուեցաւ
հայտելպըրկը
հայտելպըրկի
հայտըն
հայտնի
հայր
հայրական
հայրապետ
հայրապետական
հայրապետեան
հայրապետեանը
հայրապետը
հայրապետի
հայրապետին
հայրապետներուն
հայրապետութեան
հայրենագիտական
հայրենադարձ
հայրենադարձութեան
հայրենադարձութիւնը
հայրենական
հայրենակից
հայրենակիցներ
հայրենակիցները
հայրենակիցներու
հայրենակիցներուն
հայրենակցական
հայրենասէր
հայրենասիրական
հայրենասիրութեան
հայրենասիրութիւնը
հայրենեաց
հայրենի
հայրենիք
հայրենիքէն
հայրենիքը
հայրենիքի
հայրենիքին
հայրենիքն
հայրեր
հայրերէն
հայրերը
հայրերու
հայրերուն
հայրը
հայրիկ
հայրիկեան
հայրիկեանը
հայրիկեանի
հայրիկը
հայրիկի
հայրիկին
հայրն
հայրս
հայց
հայցական
հայք
հայքէն
հայքը
հայքի
հայքին
հայֆա
հայֆիլմ
հան
հանած
հանածոներ
հանածոներով
հանածոներու
հանգ
հանգած
հանգամանք
հանգամանքը
հանգամանքին
հանգամանքները
հանգամանքներու
հանգամանքով
հանգամանօրէն
հանգանակ
հանգանակը
հանգանակութեան
հանգանակութիւն
հանգեցնել
հանգեցնէ
հանգեցուց
հանգեցուցած
հանգեցուցին
հանգիստ
հանգիստը
հանգիստի
հանգոյց
հանգոյցը
հանգոյցներ
հանգոյցներու
հանգույց
հանգուցեալ
հանգուցեալի
հանգուցեալին
հանգչի
հանգստանալու
հանգստարան
հանգստացնող
հանգստաւէտ
հանգստեան
հանգրուան
հանգրուանած
հանգրուանային
հանգրուանը
հանգրուանի
հանգրուանին
հանգրուանները
հանգրուաններով
հանդարտ
հանդարտեցնէ
հանդես
հանդերձ
հանդերձանքը
հանդէպ
հանդէս
հանդէսը
հանդէսի
հանդէսին
հանդէսներ
հանդէսներու
հանդէսներուն
հանդիպած
հանդիպելով
հանդիպելու
հանդիպեցան
հանդիպեցաւ
հանդիպէ
հանդիպէին
հանդիպէր
հանդիպի
հանդիպիլ
հանդիպին
հանդիպինք
հանդիպիր
հանդիպման
հանդիպող
հանդիպում
հանդիպումէն
հանդիպումը
հանդիպումին
հանդիպումներ
հանդիպումները
հանդիպումներու
հանդիպումներուն
հանդիսական
հանդիսանալ
հանդիսանալով
հանդիսանալու
հանդիսանայ
հանդիսանային
հանդիսանան
հանդիսանար
հանդիսասրահին
հանդիսատես
հանդիսատեսը
հանդիսատեսի
հանդիսատեսին
հանդիսատեսներու
հանդիսատեսներուն
հանդիսացած
հանդիսացան
հանդիսացաւ
հանդիսացող
հանդիսաւոր
հանդիսաւորապէս
հանդիսաւորութեամբ
հանդիսութեամբ
հանդիսութեան
հանդիսութիւն
հանդիսութիւնը
հանդիսութիւնները
հանդիսութիւններու
հանդուրժողականութեան
հանել
հանելով
հանելու
հանելուկներ
հանեն
հանեց
հանեցին
հանէ
հանէին
հանէր
հանըմ
հանձնաժողովի
հանձնել
հանձնուած
հանճար
հանճարեղ
հանճարը
հանման
հաննա
հաննէսեան
հաննիբալի
հանոյթը
հանուած
հանուեցաւ
հանուի
հանում
հանումը
հանուն
հանս
հանրագիտակ
հանրագիտական
հանրագիտակս
հանրագիտարան
հանրագիտարանային
հանրագիտարանը
հանրագիտարանի
հանրագիտարանին
հանրագիտարաններ
հանրագիտարանում
հանրածանօթ
հանրակառք
հանրակառքային
հանրակառքերու
հանրակառքի
հանրակրթական
հանրահաշուական
հանրաճանաչ
հանրամատչելի
հանրայայտ
հանրային
հանրապետական
հանրապետականներու
հանրապետութեան
հանրապետութեանը
հանրապետութենէն
հանրապետութիւն
հանրապետութիւնը
հանրապետութիւնն
հանրապետութիւններ
հանրապետութիւնները
հանրապետութիւններու
հանրապետութիւններուն
հանրապետության
հանրապետություն
հանրաքուէ
հանրաքուէի
հանրաքուէն
հանրաքուէով
հանրի
հանրութեան
հանրութիւնը
հանրօգուտ
հանք
հանքային
հանքանիւթ
հանքանիւթեր
հանքանիւթերու
հանքավայրեր
հանքավայրերը
հանքաքար
հանքաքարի
հանքեր
հանքերը
հանքերով
հանքերու
հանքի
հաշիմեան
հաշիւ
հաշիւը
հաշիւի
հաշիւին
հաշիւներու
հաշիւով
հաշմանդամ
հաշմանդամութիւն
հաշուած
հաշուապահ
հաշուապահական
հաշուառման
հաշուառուած
հաշուարկային
հաշուարկի
հաշուարկման
հաշուարկները
հաշուարկներու
հաշուարկներուն
հաշուարկուած
հաշուել
հաշուելու
հաշուետուութեան
հաշուէ
հաշուէին
հաշուէր
հաշուի
հաշուին
հաշուիչ
հաշուող
հաշուողական
հաշուով
հաշտ
հաշտարար
հաշտեցման
հաշտեցնել
հաշտութեան
հաշտութիւն
հաշտութիւնը
հաշտուիլ
հաշւոյն
հաուայեան
հաուըրտ
հաուս
հապ
հապա
հապսպուրկներու
հաջի
հաջորդ
հառիճի
հաս
հասած
հասակ
հասակէն
հասակը
հասակի
հասակին
հասակով
հասան
հասանելի
հասանելիութիւնը
հասանի
հասարակ
հասարակագիտական
հասարակագիտութիւն
հասարակածային
հասարակական
հասարական
հասարակարգի
հասարակարգին
հասարակաց
հասարակութեան
հասարակութենէն
հասարակութիւն
հասարակութիւնը
հասաւ
հասեր
հասկ
հասկանալ
հասկանալի
հասկանալով
հասկացողութեամբ
հասկացողութեան
հասկացողութիւն
հասկացողութիւնը
հասկացութեան
հասկացութիւնը
հասկացութիւններ
հասկացութիւնները
հասկացութիւններու
հասկեր
հասկնալ
հասկնալի
հասկնալով
հասկնալու
հասկնայ
հասկնան
հասկնանք
հասկնար
հասկցած
հասկցաւ
հասնել
հասնելէ
հասնելով
հասնելու
հասնելուն
հասներ
հասնէ
հասնէին
հասնէր
հասնի
հասնիլ
հասնիլը
հասնին
հասնիր
հասնող
հասոյթ
հասոյթը
հասոյթով
հասուն
հասունացման
հասունութեան
հասսան
հաստ
հաստատ
հաստատած
հաստատել
հաստատելով
հաստատելու
հաստատեն
հաստատենք
հաստատեր
հաստատեց
հաստատեցին
հաստատէ
հաստատէր
հաստատման
հաստատող
հաստատուած
հաստատուելէ
հաստատուելէն
հաստատուելով
հաստատուելու
հաստատուեր
հաստատուեցան
հաստատուեցաւ
հաստատութեան
հաստատութեանց
հաստատութենէն
հաստատութիւն
հաստատութիւնը
հաստատութիւնն
հաստատութիւններ
հաստատութիւններէն
հաստատութիւնները
հաստատութիւններու
հաստատութիւններուն
հաստատուի
հաստատուիլ
հաստատուիլը
հաստատուին
հաստատում
հաստատումէն
հաստատումը
հաստատումով
հաստատուն
հաստոցային
հաստութեամբ
հաստութիւն
հաստութիւնը
հասրաթեան
հասցէ
հասցէագրուած
հասցէին
հասցէն
հասցէով
հասցնել
հասցնելով
հասցնելու
հասցնեն
հասցնէ
հասցնէր
հասցուց
հասցուցած
հասցուցին
հավաքականի
հատ
հատած
հատակագիծը
հատակը
հատապտուղներ
հատել
հատը
հատընտիր
հատիկ
հատիկներ
հատիկներէն
հատիկները
հատկապես
հատկապէս
հատկացուած
հատկութիւններու
հատման
հատոր
հատորէն
հատորը
հատորի
հատորին
հատորներ
հատորները
հատորներով
հատորներու
հատորներուն
հատորով
հատուած
հատուածէն
հատուածը
հատուածի
հատուածին
հատուածներ
հատուածներէն
հատուածները
հատուածներով
հատուածներու
հատուածներուն
հատուկ
հատում
հատուցում
հատրութի
հար
հարաբերութիւններ
հարաբերութիւնները
հարաբերութիւններու
հարաբերությունների
հարազատ
հարազատները
հարազատներու
հարազատներուն
հարած
հարակից
հարամիկ
հարանց
հարավային
հարաւ
հարաւային
հարաւայինը
հարաւարեւելեան
հարաւարեւմտեան
հարաւարևելեան
հարաւափրիկեան
հարաւէն
հարաւը
հարաւի
հարաւին
հարբած
հարբուխ
հարբուխի
հարեւան
հարեւաններու
հարեւանութեամբ
հարթ
հարթակ
հարթակը
հարթակի
հարթակին
հարթակներու
հարթավայր
հարթավայրային
հարթավայրեր
հարթավայրերը
հարթավայրերու
հարթավայրերուն
հարթավայրը
հարթավայրի
հարթավայրին
հարթաքանդակ
հարթութեան
հարի
հարիս
հարիրի
հարիրիի
հարիւր
հարիւրամեակ
հարիւրամեակի
հարիւրամեակին
հարիւրամեայ
հարիւրապետ
հարիւրապետի
հարիւրաւոր
հարիւրէ
հարիւրը
հարկ
հարկադիր
հարկադրաբար
հարկադրուած
հարկային
հարկանի
հարկատու
հարկատուն
հարկատուներ
հարկատուներէն
հարկատուները
հարկատուներն
հարկաւոր
հարկեր
հարկերը
հարկերու
հարկէ
հարկը
հարկի
հարկին
հարձակման
հարձակողը
հարմանտեան
հարմար
հարյուր
հարող
հարուած
հարուածած
հարուածային
հարուածել
հարուածելով
հարուածելու
հարուածեն
հարուածեց
հարուածէ
հարուածէն
հարուածը
հարուածի
հարուածներ
հարուածները
հարուածներուն
հարուածող
հարուածով
հարուըրտի
հարութիւն
հարությունյան
հարուն
հարուստ
հարուստները
հարուստներու
հարպոյեան
հարս
հարսանեաց
հարսանեկան
հարսանիթը
հարսանիք
հարսանիքէն
[...]
